<unk>	0
<s>	0
</s>	0
s	-3.75063
▁im	-4.54098
▁dont	-4.61586
▁know	-4.71399
▁oh	-4.81473
▁get	-4.81768
▁go	-4.85094
▁come	-4.93372
▁right	-4.94008
▁like	-4.94634
▁well	-4.98365
▁got	-5.06092
▁youre	-5.10726
▁yeah	-5.17309
▁one	-5.18363
▁thats	-5.18439
▁good	-5.22676
ing	-5.2321
▁see	-5.33378
▁think	-5.37708
▁hey	-5.4229
▁na	-5.42784
▁want	-5.45808
ed	-5.52201
▁look	-5.52229
▁back	-5.52348
▁okay	-5.55775
▁time	-5.57146
▁yes	-5.59867
▁us	-5.6528
▁gon	-5.66471
▁going	-5.6787
▁ill	-5.71527
▁would	-5.71896
▁take	-5.73201
▁l	-5.74636
▁cant	-5.76384
▁hes	-5.76742
▁say	-5.85017
▁little	-5.85188
▁way	-5.85464
▁never	-5.89114
▁really	-5.8999
▁mr	-5.90333
▁man	-5.90591
▁could	-5.91656
d	-5.94118
▁tell	-5.97199
▁thank	-5.98469
▁need	-6.01441
▁make	-6.02269
▁lets	-6.0315
▁	-6.0501
y	-6.05035
▁something	-6.08034
▁love	-6.08058
▁ive	-6.10968
▁let	-6.12057
▁theres	-6.14116
▁mean	-6.14185
▁whats	-6.14882
▁sorry	-6.15236
▁please	-6.1822
▁didnt	-6.18363
▁wait	-6.20043
▁thing	-6.23648
▁help	-6.29914
▁give	-6.32251
▁day	-6.33577
▁two	-6.34225
▁great	-6.34433
▁home	-6.36682
er	-6.38298
e	-6.40106
▁sure	-6.41325
ly	-6.41905
▁much	-6.41954
▁uh	-6.42868
▁find	-6.43865
▁must	-6.44244
▁said	-6.45096
▁better	-6.46363
▁away	-6.46711
▁stop	-6.47257
▁ever	-6.47789
▁sir	-6.48017
▁guys	-6.48502
▁people	-6.49503
▁even	-6.49963
▁life	-6.51176
▁theyre	-6.51185
▁new	-6.52226
▁first	-6.53413
▁music	-6.53492
▁shes	-6.58248
▁keep	-6.58348
▁thought	-6.58978
▁always	-6.59676
▁nothing	-6.61537
▁night	-6.62776
▁things	-6.63121
▁anything	-6.63248
▁put	-6.63411
▁place	-6.63857
▁long	-6.64429
▁still	-6.65964
▁maybe	-6.67355
▁whoa	-6.67554
▁dad	-6.67968
▁feel	-6.6921
▁guy	-6.69577
▁big	-6.73091
▁call	-6.74554
▁old	-6.75297
▁bad	-6.75303
▁stay	-6.75445
▁huh	-6.76637
▁best	-6.77641
▁work	-6.77876
▁youve	-6.78298
▁youll	-6.7852
▁hello	-6.78565
▁believe	-6.78923
▁leave	-6.79137
▁course	-6.79868
▁wont	-6.80093
▁boy	-6.80158
▁id	-6.80954
▁around	-6.81009
▁world	-6.83793
▁miss	-6.85563
▁talk	-6.85622
▁everything	-6.85664
▁nice	-6.86233
▁made	-6.86698
▁may	-6.86772
▁hi	-6.86811
▁try	-6.8711
▁baby	-6.87864
▁last	-6.88138
▁done	-6.8836
▁coming	-6.88364
▁house	-6.88534
▁mom	-6.8894
▁hear	-6.89538
▁might	-6.90353
▁ah	-6.90429
▁ta	-6.91301
▁name	-6.91722
▁hold	-6.91743
▁told	-6.9314
▁every	-6.93242
▁gasps	-6.93807
▁kind	-6.93911
in	-6.94737
▁mother	-6.9488
▁isnt	-6.94962
▁thanks	-6.95005
▁playing	-6.96273
▁god	-6.96441
▁play	-6.96929
▁ready	-6.98275
▁remember	-6.98313
t	-6.98568
▁grunts	-6.98827
▁lot	-6.99855
▁show	-7.00866
▁doesnt	-7.00917
▁laughing	-7.0132
▁left	-7.01758
▁girl	-7.01784
▁dog	-7.02888
▁enough	-7.03746
▁found	-7.04331
▁morning	-7.04612
▁happy	-7.04614
▁listen	-7.04673
a	-7.05401
▁years	-7.07402
▁fine	-7.08444
▁getting	-7.09776
▁three	-7.09861
▁wrong	-7.10574
▁understand	-7.1065
▁another	-7.115
▁knew	-7.12748
al	-7.13018
▁ask	-7.13093
▁aint	-7.13378
▁school	-7.13384
▁car	-7.1423
▁king	-7.14486
r	-7.15352
▁la	-7.15586
▁move	-7.16092
▁hell	-7.16188
▁money	-7.16263
▁next	-7.16588
▁guess	-7.16588
▁ok	-7.166
▁run	-7.17132
▁together	-7.17572
▁chuckles	-7.17613
▁excuse	-7.18565
▁today	-7.18566
▁mind	-7.2019
▁cause	-7.20244
▁wan	-7.2057
▁family	-7.20582
▁weve	-7.20924
▁came	-7.22627
▁kill	-7.2272
▁happened	-7.23222
▁talking	-7.23409
▁real	-7.24283
▁father	-7.25034
▁friend	-7.25545
▁red	-7.26466
▁true	-7.26889
▁um	-7.26985
▁dear	-7.27218
▁whole	-7.27255
▁wouldnt	-7.273
▁live	-7.27784
▁captain	-7.2798
es	-7.28125
▁meet	-7.28186
▁son	-7.28635
▁tomorrow	-7.28714
▁care	-7.2885
▁lost	-7.29457
▁everyone	-7.29951
▁hope	-7.29985
▁wanted	-7.30433
▁someone	-7.30573
▁looking	-7.30699
▁everybody	-7.30949
▁head	-7.3114
▁watch	-7.31152
▁whos	-7.31357
n	-7.31737
o	-7.31883
▁seen	-7.32197
▁idea	-7.32218
▁kids	-7.3263
▁laughs	-7.32807
▁heard	-7.32873
▁bring	-7.32879
▁else	-7.33627
▁dead	-7.34401
▁fun	-7.35642
▁trying	-7.35643
▁alone	-7.37571
▁hand	-7.383
▁job	-7.38378
▁end	-7.38522
▁turn	-7.38973
▁start	-7.39414
▁without	-7.39599
▁woman	-7.39603
▁youd	-7.39615
▁mrs	-7.39961
▁jack	-7.3997
▁fight	-7.40152
▁kid	-7.40168
▁alice	-7.4043
▁ha	-7.40912
▁many	-7.41057
▁worry	-7.41255
▁yet	-7.41261
▁pretty	-7.41673
▁tonight	-7.42094
▁far	-7.42939
▁heart	-7.43399
▁gone	-7.43979
▁lm	-7.4424
▁friends	-7.44336
▁un	-7.45146
▁sighs	-7.45201
▁honey	-7.45521
▁eat	-7.45854
▁minute	-7.4681
▁peter	-7.46895
▁christmas	-7.47267
▁open	-7.47274
▁wasnt	-7.47278
p	-7.48186
▁em	-7.48304
▁afraid	-7.4952
▁went	-7.4998
▁days	-7.50698
▁saw	-7.50894
▁hard	-7.50996
▁room	-7.51025
▁door	-7.5193
▁beautiful	-7.52279
l	-7.52593
▁havent	-7.52746
▁screaming	-7.52844
g	-7.53073
▁looks	-7.53881
▁face	-7.54344
▁sit	-7.54488
▁five	-7.54674
▁part	-7.55215
▁use	-7.55604
▁says	-7.56094
▁stuff	-7.56568
▁actually	-7.57066
▁wish	-7.57474
▁inside	-7.57545
▁game	-7.5831
▁matter	-7.58313
▁year	-7.58785
▁hmm	-7.59035
▁bit	-7.5927
▁welcome	-7.59529
▁mine	-7.59692
▁soon	-7.59872
▁already	-7.60031
▁win	-7.60225
▁late	-7.60502
▁quite	-7.61097
▁men	-7.61438
▁anyone	-7.62067
▁fire	-7.62335
▁die	-7.62543
▁saying	-7.62578
▁ooh	-7.62597
▁used	-7.63618
▁easy	-7.63621
▁wow	-7.64149
▁later	-7.64254
▁problem	-7.64667
▁young	-7.65031
▁forget	-7.65188
▁point	-7.6568
▁shall	-7.65725
▁since	-7.65734
▁boys	-7.66173
▁dream	-7.66213
▁team	-7.67355
▁an	-7.67854
▁second	-7.68969
▁couldnt	-7.70154
on	-7.70502
▁close	-7.70631
▁book	-7.70688
▁chance	-7.71215
▁food	-7.71219
▁side	-7.71836
▁enzo	-7.72355
▁lady	-7.72382
▁wheres	-7.72542
▁sleep	-7.72704
▁check	-7.73125
▁called	-7.73974
▁anyway	-7.7407
▁break	-7.74184
▁happen	-7.74411
▁change	-7.74516
▁children	-7.74652
▁hands	-7.74949
▁read	-7.75076
▁town	-7.75254
▁water	-7.75381
▁stand	-7.75478
▁g	-7.75492
est	-7.75598
▁grunting	-7.76476
en	-7.76805
▁hit	-7.771
▁brother	-7.77187
▁al	-7.77444
▁pay	-7.777
▁full	-7.77959
▁cool	-7.78041
▁exactly	-7.78226
▁moment	-7.78485
▁ow	-7.78934
▁trouble	-7.79429
▁arent	-7.79433
▁hurt	-7.79737
ve	-7.79996
▁business	-7.8002
▁somebody	-7.80042
▁cut	-7.80204
▁crazy	-7.80667
▁luck	-7.81046
▁boss	-7.81292
▁high	-7.81499
▁dance	-7.81565
▁voice	-7.81571
▁denny	-7.81911
▁though	-7.82468
▁making	-7.82537
▁working	-7.8277
h	-7.8316
▁perhaps	-7.83167
▁four	-7.8317
▁cat	-7.83406
▁follow	-7.83505
▁miyagi	-7.83804
▁groans	-7.8393
▁eyes	-7.84132
▁save	-7.84188
▁radio	-7.8445
▁dinner	-7.85091
▁hurry	-7.85096
ic	-7.8589
▁power	-7.86131
▁rest	-7.86386
▁half	-7.86388
▁marley	-7.86395
▁took	-7.86395
▁fast	-7.86655
▁de	-7.86786
le	-7.86994
▁air	-7.87061
▁supposed	-7.87224
▁almost	-7.87715
▁light	-7.87951
m	-7.88336
▁wife	-7.88396
▁safe	-7.89456
▁hair	-7.8952
▁waiting	-7.89892
▁john	-7.90399
▁hate	-7.90414
▁papa	-7.91098
▁wonderful	-7.91123
c	-7.91171
▁wants	-7.91231
f	-7.91494
▁means	-7.91565
▁speaking	-7.91614
▁perfect	-7.91618
▁probably	-7.91782
i	-7.91813
u	-7.92032
▁speak	-7.92299
▁secret	-7.92331
▁johnny	-7.92481
▁nobody	-7.93055
b	-7.93097
▁gentlemen	-7.93177
▁crowd	-7.93263
▁girls	-7.93818
▁ball	-7.93825
▁control	-7.93874
▁catch	-7.94064
▁goes	-7.94079
or	-7.94352
▁makes	-7.94578
▁anymore	-7.94589
▁mmm	-7.94601
▁ago	-7.94623
▁fly	-7.94901
▁re	-7.95174
▁sound	-7.95222
▁finally	-7.95363
▁deal	-7.95568
▁plan	-7.95759
▁pick	-7.95832
▁continues	-7.95845
▁elephant	-7.95967
▁shut	-7.96025
▁ahead	-7.96028
▁set	-7.96068
▁bob	-7.96074
▁hot	-7.96078
▁lose	-7.96707
▁different	-7.96748
▁important	-7.96748
▁whatever	-7.96748
▁funny	-7.96756
▁top	-7.96812
▁sweet	-7.97398
▁george	-7.97477
▁free	-7.97491
▁trust	-7.97805
▁sister	-7.9819
▁hang	-7.98436
▁thinking	-7.98655
▁line	-7.98791
▁ladies	-7.98957
▁number	-7.98964
▁walk	-7.99185
less	-7.99261
▁bye	-7.997
▁party	-8.00067
▁promise	-8.00192
▁small	-8.00282
▁story	-8.00462
▁drink	-8.00716
ion	-8.00737
▁met	-8.00907
▁pull	-8.0104
ers	-8.01157
▁bet	-8.01307
▁married	-8.01978
▁behind	-8.02742
▁step	-8.02759
▁growls	-8.02823
▁train	-8.03496
▁lord	-8.03514
▁forever	-8.03518
▁taking	-8.03545
▁ya	-8.03862
▁sing	-8.03964
▁clear	-8.04243
▁kidding	-8.04301
▁cheering	-8.04407
▁week	-8.04411
▁asked	-8.04493
▁question	-8.05225
k	-8.05245
▁wake	-8.05882
▁tried	-8.05929
▁mad	-8.06564
▁person	-8.06594
w	-8.0721
▁learn	-8.0736
▁stupid	-8.07486
▁james	-8.07496
▁evening	-8.07608
▁singing	-8.08039
▁least	-8.083
▁feet	-8.08301
▁seems	-8.08428
▁word	-8.08521
▁c	-8.08717
▁along	-8.09114
▁anybody	-8.09118
▁buddy	-8.09121
▁parents	-8.09261
▁queen	-8.09365
▁buck	-8.09884
▁started	-8.09915
▁goodbye	-8.09946
▁panting	-8.0995
▁bed	-8.10272
▁also	-8.1078
▁anna	-8.10816
▁heres	-8.10981
▁lll	-8.11037
▁times	-8.11414
▁death	-8.11619
▁running	-8.11619
▁damn	-8.11638
▁sounds	-8.11724
▁daniel	-8.12466
▁smell	-8.12535
▁mama	-8.12765
▁fear	-8.12875
▁hours	-8.13076
▁special	-8.13307
▁outside	-8.13323
▁coach	-8.13325
▁phone	-8.13335
▁lts	-8.13941
▁feeling	-8.14144
▁darling	-8.14175
▁six	-8.1424
▁jacob	-8.14552
▁glad	-8.15047
▁private	-8.15052
▁gave	-8.15058
re	-8.15712
▁city	-8.15959
▁war	-8.16096
▁french	-8.16815
ment	-8.16968
▁eye	-8.17261
▁deep	-8.17553
▁dr	-8.17671
▁till	-8.17715
▁itll	-8.17715
ies	-8.18052
▁beat	-8.18241
▁touch	-8.1848
▁white	-8.1861
▁harry	-8.18611
▁blood	-8.18618
▁sea	-8.18655
▁minutes	-8.18662
st	-8.19076
▁sign	-8.19123
▁ship	-8.19287
▁fall	-8.1945
▁a	-8.19695
▁brought	-8.20435
▁theyll	-8.20442
▁eh	-8.20467
▁send	-8.20831
▁screams	-8.21262
▁jump	-8.21344
▁news	-8.22109
▁slow	-8.22135
▁fact	-8.22221
▁wed	-8.22547
▁loved	-8.2266
▁buy	-8.22721
▁p	-8.22822
▁truth	-8.23239
▁record	-8.23311
▁island	-8.23854
▁fair	-8.23928
▁leaving	-8.24192
▁died	-8.24799
▁country	-8.25168
▁daddy	-8.25193
▁knows	-8.25352
la	-8.25555
▁sometimes	-8.25655
▁drive	-8.25792
▁bill	-8.25859
▁dogs	-8.25928
▁needs	-8.2608
▁shouldnt	-8.26124
▁living	-8.27104
▁birthday	-8.27105
▁scared	-8.27359
▁lucky	-8.27483
▁hat	-8.2753
▁bird	-8.27577
▁either	-8.28094
▁lucy	-8.28095
▁killed	-8.28227
▁ten	-8.28637
▁s	-8.28668
▁professor	-8.29094
▁past	-8.29199
up	-8.29249
▁suppose	-8.29839
▁song	-8.30033
▁ice	-8.30148
▁able	-8.30346
▁sent	-8.31147
us	-8.3149
na	-8.31705
▁amazing	-8.32156
▁front	-8.32167
▁sick	-8.3217
▁poor	-8.32174
▁dom	-8.32318
▁wind	-8.32591
▁rock	-8.32806
▁imagine	-8.32923
▁serious	-8.33033
▁future	-8.33197
▁lebron	-8.33197
▁seem	-8.33535
ll	-8.33614
▁order	-8.33707
▁yi	-8.3371
▁strong	-8.34079
▁reason	-8.34086
▁taken	-8.34096
▁stick	-8.34251
▁drop	-8.34254
▁case	-8.34275
um	-8.34347
▁cross	-8.34811
▁pack	-8.34903
▁magic	-8.35133
▁dude	-8.35195
▁careful	-8.352
▁horse	-8.3521
▁boat	-8.35213
▁tree	-8.35218
▁aunt	-8.35219
▁simba	-8.35314
▁z	-8.35396
▁return	-8.35993
▁in	-8.36064
▁bear	-8.36077
able	-8.36291
▁wonder	-8.36398
▁shot	-8.36401
▁telling	-8.36726
by	-8.38298
▁weeks	-8.38412
▁witch	-8.38501
▁prince	-8.38523
▁child	-8.38573
▁uncle	-8.38575
▁fault	-8.38575
▁cj	-8.38586
▁cold	-8.38739
▁land	-8.38959
▁throw	-8.39074
▁fish	-8.39171
▁princess	-8.39659
▁doctor	-8.39669
▁danielsan	-8.39686
▁rather	-8.39687
▁york	-8.39687
▁terrible	-8.39727
▁cute	-8.39745
▁mary	-8.39778
▁el	-8.39795
▁e	-8.398
▁wild	-8.398
▁pass	-8.40003
▁destroy	-8.40411
▁weird	-8.40638
▁quiet	-8.40642
▁quick	-8.40646
▁gets	-8.40809
▁couple	-8.40809
▁alive	-8.40854
▁blue	-8.40859
▁yelling	-8.40936
▁become	-8.41071
▁th	-8.41392
▁kick	-8.41546
▁report	-8.41574
▁shell	-8.41975
▁b	-8.42505
▁whoo	-8.43095
▁shrek	-8.43095
▁tommy	-8.43098
▁foot	-8.43117
▁present	-8.43173
▁lives	-8.43204
▁plays	-8.43335
▁husband	-8.44258
▁maisie	-8.44258
▁somewhere	-8.44258
▁felt	-8.44259
▁jamie	-8.44338
▁eve	-8.44363
▁certainly	-8.44382
▁f	-8.45141
▁act	-8.45197
▁except	-8.45397
▁impossible	-8.45434
▁ride	-8.45441
▁yall	-8.45472
▁daughter	-8.45555
▁knock	-8.45686
▁laugh	-8.45817
ish	-8.46555
▁road	-8.46627
▁space	-8.46627
▁elsa	-8.46635
▁absolutely	-8.46646
▁bond	-8.46684
▁known	-8.47048
▁gasping	-8.47073
an	-8.47374
▁happening	-8.47716
it	-8.47762
▁super	-8.47789
▁table	-8.47792
▁join	-8.47893
▁sun	-8.48226
▁ho	-8.48608
man	-8.48827
▁bell	-8.48898
▁office	-8.48953
▁dramatic	-8.49043
▁mouth	-8.49067
▁rain	-8.49071
▁comes	-8.49173
▁clean	-8.49875
▁warm	-8.49909
ar	-8.50152
▁strange	-8.50185
▁wolf	-8.50261
▁folks	-8.50284
▁middle	-8.50285
▁co	-8.50289
▁sort	-8.50324
ie	-8.50354
▁ring	-8.50433
▁m	-8.50457
▁up	-8.50672
▁yells	-8.50879
to	-8.50929
▁short	-8.50932
▁wear	-8.51013
▁fix	-8.5114
▁throat	-8.51534
▁worse	-8.51534
ry	-8.51879
▁ground	-8.52665
▁proud	-8.528
▁dawn	-8.52802
▁maam	-8.52804
▁moving	-8.52805
▁months	-8.52833
▁born	-8.52835
▁groaning	-8.52859
th	-8.53015
te	-8.53314
▁longer	-8.53906
▁general	-8.54082
▁pleasure	-8.54082
▁possible	-8.54082
▁kevin	-8.54082
▁hows	-8.54084
▁earth	-8.54089
▁skipper	-8.54095
▁zo	-8.54122
ness	-8.54245
▁count	-8.54327
▁monster	-8.54412
▁beast	-8.54422
▁missed	-8.54917
▁travel	-8.55222
▁seven	-8.55341
▁english	-8.55357
▁alright	-8.55384
▁riley	-8.55734
▁hour	-8.55795
▁excellent	-8.56696
▁attention	-8.56696
▁wizard	-8.56698
▁tired	-8.56727
▁bella	-8.56795
▁enjoy	-8.57072
▁greatest	-8.57101
▁piece	-8.57118
ty	-8.5756
▁soft	-8.57865
▁anywhere	-8.5803
▁explain	-8.5803
▁london	-8.5803
▁majesty	-8.5803
▁shouting	-8.58114
▁rick	-8.58147
▁sad	-8.58173
▁surprise	-8.58182
▁list	-8.58235
▁guard	-8.58394
▁hed	-8.58398
▁j	-8.58547
▁saved	-8.58586
▁pain	-8.58617
▁meeting	-8.58632
▁lovely	-8.58674
▁dark	-8.59122
ity	-8.59364
▁malcolm	-8.59381
▁evil	-8.59382
▁growling	-8.59425
ro	-8.5963
▁kiss	-8.59702
▁picture	-8.59864
▁protect	-8.60067
▁answer	-8.60271
▁club	-8.60421
▁smart	-8.60578
▁forgive	-8.60731
▁north	-8.60751
▁werent	-8.60751
▁soul	-8.60759
▁madame	-8.60863
▁roll	-8.61192
▁calling	-8.61385
▁needed	-8.61824
▁worth	-8.61868
▁near	-8.61958
▁normal	-8.61977
▁hero	-8.62032
ive	-8.62125
▁police	-8.6214
▁history	-8.6214
▁definitely	-8.62142
▁joy	-8.6215
▁sky	-8.62175
▁decided	-8.62248
▁tim	-8.62251
ent	-8.62428
▁rules	-8.62559
▁con	-8.62581
▁wall	-8.62684
▁street	-8.62689
▁mountain	-8.62691
▁goodness	-8.6273
▁less	-8.63002
▁gun	-8.63061
▁le	-8.63521
▁others	-8.63548
▁forgot	-8.63549
▁max	-8.63551
▁nose	-8.63575
▁gasp	-8.63641
el	-8.63787
▁lead	-8.64233
▁marry	-8.6443
▁lt	-8.64479
▁meant	-8.64653
▁eight	-8.64935
▁across	-8.64977
▁company	-8.64977
▁hassan	-8.64977
▁puppy	-8.64977
▁selina	-8.64977
▁spongebob	-8.64977
▁lots	-8.64979
▁body	-8.64981
▁calm	-8.64993
▁hide	-8.65186
▁crying	-8.65381
▁teach	-8.65696
▁shoot	-8.65714
▁taste	-8.65756
x	-8.66079
▁write	-8.66115
▁over	-8.66174
▁indistinct	-8.66264
ous	-8.66352
▁fiona	-8.66426
▁jesus	-8.66426
▁summer	-8.66427
▁tough	-8.66427
▁harold	-8.66428
▁clothes	-8.66432
▁tv	-8.66436
▁blow	-8.66489
▁figure	-8.66811
▁human	-8.67119
▁straight	-8.67788
▁afternoon	-8.67897
▁chocolate	-8.67897
▁circle	-8.67897
▁david	-8.67897
▁giving	-8.67897
▁morgan	-8.67897
▁shh	-8.67919
▁gru	-8.67931
▁mark	-8.67959
▁seriously	-8.68129
out	-8.68201
▁star	-8.68347
▁mistake	-8.68529
▁miles	-8.68571
▁ones	-8.68636
▁date	-8.68688
▁bag	-8.68719
▁handle	-8.6896
▁happens	-8.69141
▁san	-8.69226
▁class	-8.6928
▁spot	-8.69379
▁eep	-8.69389
▁hungry	-8.69392
▁mm	-8.6943
▁roars	-8.69687
▁sense	-8.70099
il	-8.70519
▁south	-8.70899
▁tom	-8.71023
ce	-8.71028
▁race	-8.71075
is	-8.71107
ter	-8.71154
▁expect	-8.71502
▁village	-8.71639
▁suit	-8.71715
▁key	-8.71766
▁names	-8.71899
▁asking	-8.7195
▁certain	-8.72279
▁carol	-8.72424
▁extra	-8.72443
▁mitchell	-8.72443
▁choice	-8.72443
▁women	-8.72444
▁favorite	-8.72445
▁chuckling	-8.72453
▁martha	-8.72456
▁broken	-8.72515
▁tense	-8.72621
▁busy	-8.72636
▁fool	-8.72852
▁pop	-8.73012
▁push	-8.73042
rs	-8.73105
▁given	-8.73181
▁black	-8.73518
▁words	-8.73595
▁cover	-8.73714
ation	-8.73731
▁entire	-8.73837
▁fell	-8.73915
▁quit	-8.73942
▁turned	-8.73943
▁aw	-8.73983
▁relax	-8.74005
▁church	-8.74006
▁box	-8.74823
▁window	-8.74899
▁belong	-8.74925
▁offer	-8.75223
▁major	-8.75592
▁michael	-8.75592
▁kingdom	-8.75593
▁plankton	-8.75593
▁dangerous	-8.75608
▁totally	-8.75649
▁d	-8.7569
▁looked	-8.75779
▁attack	-8.76241
ra	-8.76329
▁bull	-8.76481
▁gold	-8.76549
▁r	-8.76562
▁finish	-8.76813
▁questions	-8.76921
▁clears	-8.76965
ia	-8.77127
▁thunder	-8.77205
▁dave	-8.7723
▁woods	-8.77417
▁fighting	-8.77662
▁lie	-8.77975
▁pal	-8.78062
▁victor	-8.78678
▁standing	-8.78678
▁broke	-8.78784
▁karate	-8.7885
▁ba	-8.79188
▁h	-8.79426
▁age	-8.79511
▁butt	-8.79638
▁st	-8.79694
et	-8.79838
▁odie	-8.79881
▁where	-8.79973
▁worked	-8.80121
▁eddie	-8.80511
▁silver	-8.80511
▁worst	-8.80511
▁respect	-8.80513
▁wedding	-8.80514
▁wrote	-8.80517
▁floor	-8.80555
▁aye	-8.80556
▁doubt	-8.80621
▁ran	-8.81115
▁trip	-8.81195
▁simple	-8.81315
▁k	-8.81588
▁paper	-8.81669
▁realize	-8.81969
▁julia	-8.82138
▁breakfast	-8.82206
▁dorothy	-8.82206
▁helen	-8.82206
▁shake	-8.82213
▁dumb	-8.82252
▁upon	-8.8227
▁board	-8.82277
▁fat	-8.82283
▁seat	-8.82525
▁awful	-8.82727
▁mess	-8.82897
▁lf	-8.82997
▁moon	-8.83398
▁movie	-8.83407
▁rule	-8.83602
▁helping	-8.83659
▁master	-8.83843
▁lunch	-8.83931
▁tony	-8.83992
ling	-8.84031
▁quickly	-8.84184
▁finished	-8.84356
▁fairy	-8.84362
▁chattering	-8.84375
▁visit	-8.84667
▁changed	-8.84723
▁reach	-8.84733
and	-8.84892
▁flight	-8.85151
▁steal	-8.85159
▁lay	-8.8521
▁bar	-8.8521
▁dress	-8.85236
▁donkey	-8.85685
▁thousand	-8.85685
▁kept	-8.85687
▁ross	-8.85706
▁danger	-8.85717
▁bigger	-8.8572
▁fit	-8.85791
▁tail	-8.85828
▁trees	-8.85868
▁interesting	-8.85946
▁dreams	-8.85955
▁u	-8.86145
▁w	-8.86228
▁grow	-8.86264
▁watching	-8.86403
▁none	-8.86507
▁prove	-8.86539
▁wondering	-8.86554
ist	-8.86822
▁owe	-8.86869
▁lock	-8.86895
▁million	-8.86969
▁chicken	-8.8697
▁tea	-8.87084
▁aah	-8.87455
▁fortune	-8.87471
▁indeed	-8.87471
▁bright	-8.87489
▁press	-8.87767
v	-8.87794
▁snow	-8.88714
▁krab	-8.88866
▁peace	-8.89126
▁law	-8.89176
▁bomb	-8.89289
▁empty	-8.89289
▁tight	-8.8929
▁molly	-8.89293
▁ugh	-8.89319
▁sight	-8.89339
▁legs	-8.89433
▁t	-8.89824
▁learned	-8.90189
▁letters	-8.90937
▁speed	-8.90948
▁wood	-8.91035
▁stole	-8.91073
▁hospital	-8.9112
▁instead	-8.91141
▁olaf	-8.91141
▁pardon	-8.91141
▁service	-8.91141
▁blind	-8.91141
▁charley	-8.91142
▁beauty	-8.91143
▁machine	-8.91143
▁jill	-8.91147
▁match	-8.91152
▁yep	-8.91157
▁forest	-8.91168
▁share	-8.91197
▁bugs	-8.91656
sh	-8.91878
▁wearing	-8.91939
li	-8.9206
▁birds	-8.92063
▁feels	-8.9244
▁cry	-8.92622
▁prepare	-8.92758
id	-8.93016
▁babies	-8.93027
▁uhhuh	-8.93027
▁angry	-8.93027
▁smile	-8.93029
▁powerful	-8.93062
▁field	-8.93071
ted	-8.93277
ta	-8.93505
▁rich	-8.93545
▁bus	-8.93627
▁low	-8.93689
age	-8.94367
▁park	-8.9443
▁bare	-8.94444
▁begin	-8.94657
▁loud	-8.947
▁tu	-8.9486
▁america	-8.94877
▁paris	-8.94913
▁neither	-8.9495
▁sweetheart	-8.9495
▁ugly	-8.9495
▁punch	-8.94965
▁hut	-8.94995
▁winter	-8.95016
▁band	-8.9502
▁sam	-8.9507
▁scary	-8.95141
ant	-8.9519
▁driver	-8.95529
▁brown	-8.95993
▁breathe	-8.96315
▁stone	-8.96516
▁flower	-8.9668
▁keeping	-8.96709
▁final	-8.96768
▁teacher	-8.96836
▁price	-8.96875
▁wonka	-8.96911
▁dobby	-8.96912
▁dancing	-8.96912
▁stuck	-8.96913
▁yellow	-8.96915
▁cheese	-8.96918
▁potter	-8.96919
▁round	-8.9692
▁cream	-8.96923
▁pants	-8.96949
▁station	-8.96954
▁grab	-8.97012
▁mo	-8.97032
▁army	-8.97093
▁besides	-8.97119
ma	-8.97685
▁powers	-8.97733
▁rid	-8.97903
▁n	-8.97985
▁blows	-8.97988
▁out	-8.98012
▁spend	-8.98372
▁honor	-8.98502
▁ruin	-8.98543
▁giant	-8.98622
▁works	-8.98623
▁raise	-8.98644
ri	-8.9865
▁madam	-8.98772
▁seeing	-8.98828
▁awesome	-8.98891
▁enemy	-8.98911
▁president	-8.98911
▁merry	-8.98911
▁garfield	-8.98912
▁teeth	-8.98912
▁joan	-8.98916
▁cake	-8.98933
▁theyve	-8.98939
▁mommy	-8.9894
▁jones	-8.98963
▁tiny	-8.99024
▁early	-8.99036
▁charming	-8.99156
▁allowed	-8.99262
▁faster	-8.99433
ur	-8.99918
▁pan	-8.99952
▁pig	-9.00461
▁beg	-9.006
da	-9.0068
▁charge	-9.00755
▁se	-9.00851
▁double	-9.00952
▁kristoff	-9.00952
▁winner	-9.00953
▁dalton	-9.00954
▁caught	-9.00955
▁spent	-9.00963
▁bottom	-9.00964
z	-9.0097
▁sitting	-9.01007
▁completely	-9.01073
▁planet	-9.01126
▁appreciate	-9.01206
at	-9.01558
▁starting	-9.01565
▁pet	-9.01585
ke	-9.01826
ah	-9.0233
▁leg	-9.02359
ful	-9.0242
▁lived	-9.02457
▁flying	-9.02503
▁chatter	-9.02506
▁force	-9.02558
▁carry	-9.02617
▁reading	-9.02843
▁hoo	-9.02857
▁nervous	-9.02869
▁strength	-9.02989
▁congratulations	-9.03035
▁fresh	-9.03035
▁halloween	-9.03035
▁horrible	-9.03035
▁marriage	-9.03035
▁third	-9.03035
▁driving	-9.03037
▁forward	-9.03038
▁barking	-9.03188
▁ass	-9.03207
▁belle	-9.03753
▁takes	-9.03827
▁treat	-9.03905
▁trick	-9.03951
▁hunt	-9.0399
ting	-9.04361
▁penguins	-9.04495
▁so	-9.04782
▁fill	-9.04788
▁message	-9.0502
▁brain	-9.0506
▁heaven	-9.05068
▁american	-9.05085
ch	-9.05106
▁accident	-9.05157
▁bought	-9.05163
▁paddington	-9.05163
▁view	-9.05163
▁worried	-9.05163
▁annie	-9.05163
▁underpants	-9.05163
▁upset	-9.05164
▁jungle	-9.05176
▁bridge	-9.05177
▁risk	-9.05179
▁castle	-9.05186
▁golden	-9.0522
▁sisters	-9.05234
▁shit	-9.0527
▁usually	-9.05271
▁putting	-9.053
▁softly	-9.05428
▁building	-9.05445
▁nine	-9.05511
▁liked	-9.059
se	-9.05913
beat	-9.06014
▁sell	-9.06149
▁chuck	-9.06797
▁escape	-9.07061
▁map	-9.07075
▁flo	-9.07184
▁monkey	-9.07262
▁soldier	-9.07269
▁animal	-9.07273
▁state	-9.07283
▁month	-9.07304
▁chief	-9.07337
▁language	-9.07337
▁saturday	-9.07337
▁ought	-9.07337
▁france	-9.07344
▁jim	-9.07353
▁charlie	-9.07353
▁oz	-9.07355
▁dig	-9.07359
▁size	-9.07361
▁laughter	-9.07368
▁hotel	-9.07393
▁emma	-9.07397
no	-9.07519
▁plane	-9.07596
▁missing	-9.07811
▁lucas	-9.07874
▁lion	-9.08192
▁gosh	-9.08298
▁dollars	-9.08336
▁unit	-9.08336
▁hall	-9.08632
▁agree	-9.08689
▁shop	-9.09169
▁do	-9.09251
▁notice	-9.09292
▁honest	-9.09413
▁eagle	-9.09478
▁coffee	-9.09559
▁possibly	-9.09559
▁truck	-9.09559
▁beginning	-9.0956
▁situation	-9.0956
▁california	-9.09562
▁memory	-9.09562
▁candy	-9.09563
▁mmhmm	-9.09565
▁shame	-9.09567
▁football	-9.09569
▁gentleman	-9.09571
▁paid	-9.09571
▁hole	-9.09619
▁uhoh	-9.09633
▁west	-9.09646
▁scoffs	-9.09743
▁interested	-9.09807
▁o	-9.09992
▁lights	-9.10338
▁dis	-9.1109
▁allow	-9.11439
▁goin	-9.11456
▁test	-9.11457
▁serve	-9.11561
▁battle	-9.11829
▁difficult	-9.11832
▁launch	-9.11832
▁minionese	-9.11832
▁ogre	-9.11832
▁restaurant	-9.11832
▁whatd	-9.11832
▁mallory	-9.11833
▁everywhere	-9.11833
▁kitchen	-9.11837
▁sunday	-9.11838
▁river	-9.11842
▁wicked	-9.11873
▁christ	-9.11893
▁stopped	-9.11924
▁smash	-9.11927
▁named	-9.11928
▁sandy	-9.11966
▁hiding	-9.12051
▁giggles	-9.12233
im	-9.12257
ot	-9.12362
de	-9.12444
do	-9.12858
▁draw	-9.13572
▁engine	-9.13583
time	-9.13651
▁stars	-9.13723
▁remind	-9.13817
▁ex	-9.13821
▁contact	-9.14157
▁green	-9.14157
▁journey	-9.14157
▁monsieur	-9.14157
▁plenty	-9.14157
▁thistlewaite	-9.14157
▁incredible	-9.14158
▁bunch	-9.14158
▁difference	-9.14166
▁outta	-9.14173
▁cousin	-9.14185
▁color	-9.14186
▁personal	-9.14209
▁granny	-9.14211
▁lying	-9.14214
▁position	-9.1424
▁ticket	-9.1425
▁doin	-9.14256
▁arrived	-9.14261
▁corner	-9.14307
▁dare	-9.14354
▁mission	-9.14491
ig	-9.14653
▁eating	-9.1467
▁devil	-9.14785
▁store	-9.14786
▁using	-9.14813
▁pa	-9.14973
▁en	-9.1549
ard	-9.15837
▁pretend	-9.15989
▁crow	-9.16138
ca	-9.16205
▁si	-9.16291
▁mike	-9.16306
▁nothin	-9.16487
▁brave	-9.16493
▁yo	-9.16493
▁arendelle	-9.16538
▁computer	-9.16538
▁giggling	-9.16538
▁larusso	-9.16538
▁sugar	-9.16538
▁verne	-9.16538
▁whimpers	-9.16538
▁phil	-9.16539
▁camp	-9.16541
▁scarlet	-9.16542
▁sake	-9.16554
▁prefer	-9.16585
▁idiot	-9.16589
▁timon	-9.16618
▁snake	-9.16651
▁gift	-9.16663
▁track	-9.16677
▁rose	-9.16714
▁everythings	-9.16718
▁dirty	-9.16725
▁exclaims	-9.16736
▁bong	-9.16744
▁joke	-9.16745
▁heads	-9.16762
▁orders	-9.1686
▁doo	-9.16921
ne	-9.17199
▁scar	-9.17311
▁breath	-9.18721
▁to	-9.18875
▁exhales	-9.18977
▁however	-9.18977
▁byebye	-9.18978
▁biggest	-9.18978
▁patrick	-9.18978
▁chamber	-9.18979
▁swear	-9.18979
▁suzu	-9.18981
▁isabella	-9.18984
▁mercy	-9.19027
▁bank	-9.19028
▁huge	-9.19079
▁single	-9.19146
▁fellow	-9.19182
co	-9.19279
ka	-9.19652
▁promised	-9.1988
▁staying	-9.2007
▁played	-9.20122
▁note	-9.20632
▁scream	-9.20799
▁eggs	-9.20908
ver	-9.2095
▁crown	-9.21056
▁listening	-9.21056
▁arms	-9.21154
▁decision	-9.21477
▁europe	-9.21477
▁henry	-9.21477
▁pumbaa	-9.21477
▁ellen	-9.21478
▁hook	-9.21482
▁noise	-9.21482
▁comfortable	-9.21488
▁mansur	-9.2149
▁problems	-9.21496
▁royal	-9.21499
ow	-9.21556
▁seconds	-9.21577
▁court	-9.21587
nt	-9.21674
ton	-9.21722
ance	-9.21739
▁deserve	-9.21746
go	-9.21754
▁surprised	-9.21978
am	-9.22002
▁letter	-9.22132
▁whose	-9.22719
pa	-9.22733
▁bite	-9.22937
ha	-9.23026
▁adventure	-9.23145
▁v	-9.23369
▁sh	-9.23693
▁rescue	-9.23755
end	-9.23771
▁scott	-9.23776
▁arm	-9.23941
▁casablanca	-9.24042
▁especially	-9.24042
▁hagrid	-9.24042
▁rayleen	-9.24042
▁system	-9.24042
▁yesterday	-9.24042
▁nope	-9.24042
▁blame	-9.24042
▁storm	-9.24049
▁beyond	-9.24052
▁block	-9.24053
▁famous	-9.24057
▁lionel	-9.24063
▁rocket	-9.24079
▁handsome	-9.24083
▁boom	-9.24113
▁sally	-9.24133
▁losing	-9.24141
▁bow	-9.24586
▁breathing	-9.24603
▁bones	-9.24652
▁yay	-9.24831
ian	-9.24854
lo	-9.24902
▁hardly	-9.24977
▁bo	-9.25025
▁starts	-9.25027
▁shoes	-9.25049
▁ted	-9.25091
ge	-9.2521
▁horn	-9.25344
▁nuts	-9.2535
▁burn	-9.25695
ng	-9.2584
▁walking	-9.25908
way	-9.2624
▁tr	-9.26254
▁joe	-9.26478
▁public	-9.26652
▁college	-9.26673
▁england	-9.26673
▁gross	-9.26673
▁marguerite	-9.26673
▁marmalade	-9.26673
▁saving	-9.26673
▁howd	-9.26674
▁hasnt	-9.26675
▁bunny	-9.26675
▁troop	-9.26675
▁countess	-9.26677
▁gloria	-9.26683
▁common	-9.26684
▁wax	-9.26684
▁grandma	-9.26685
▁waste	-9.26701
▁daley	-9.26703
▁level	-9.26704
▁tower	-9.2671
▁zero	-9.26738
▁button	-9.26747
▁jeanne	-9.26781
▁ate	-9.26952
▁post	-9.26958
▁nature	-9.27028
▁holy	-9.27036
▁beer	-9.27055
▁officer	-9.2719
▁tune	-9.27211
▁secrets	-9.27235
▁nah	-9.27672
▁bringing	-9.27694
▁cave	-9.27714
▁grug	-9.2772
▁simpl	-9.27767
we	-9.27785
▁cook	-9.28373
▁card	-9.28386
▁consider	-9.28389
▁del	-9.28392
▁talked	-9.28407
▁shine	-9.28553
os	-9.28571
▁build	-9.28838
▁moved	-9.28874
▁appear	-9.28952
▁mention	-9.29005
▁farm	-9.29233
ary	-9.29309
▁greg	-9.29317
▁wet	-9.2937
▁became	-9.29376
▁mahira	-9.29376
▁ramsey	-9.29376
▁security	-9.29376
▁soccer	-9.29376
▁knuckles	-9.29376
▁rough	-9.29377
▁taught	-9.29378
▁held	-9.29378
▁gotten	-9.29379
▁thatll	-9.29384
▁toto	-9.29398
▁sadness	-9.29416
ba	-9.29434
▁skin	-9.29437
▁grand	-9.29563
▁mumbles	-9.29664
em	-9.29709
▁hundred	-9.29802
oo	-9.29803
▁shape	-9.29913
▁hip	-9.30003
▁fella	-9.30009
der	-9.30148
▁it	-9.30149
▁van	-9.30358
▁mi	-9.30391
▁sue	-9.30453
▁turns	-9.30457
mo	-9.30722
▁training	-9.31264
▁va	-9.3154
▁repeat	-9.31577
▁enter	-9.31615
▁complete	-9.31705
▁accept	-9.31721
ut	-9.31902
▁east	-9.3205
▁glass	-9.32095
▁ben	-9.32125
▁column	-9.32149
▁alarm	-9.32154
▁bastard	-9.32154
▁heavy	-9.32154
▁rapunzel	-9.32154
▁writing	-9.32154
▁basketball	-9.32157
▁bluster	-9.32157
▁stories	-9.32157
▁meat	-9.32162
▁patty	-9.32162
▁spell	-9.32162
▁rj	-9.32169
▁hm	-9.32182
▁stage	-9.32206
▁holding	-9.32404
▁flowers	-9.32576
▁po	-9.32597
▁partner	-9.32649
▁spirit	-9.32663
▁sale	-9.32895
▁dry	-9.3294
▁ends	-9.33346
▁ringing	-9.33373
▁fishing	-9.33518
ans	-9.33674
▁picked	-9.33716
▁falling	-9.33808
the	-9.34278
▁stayed	-9.34473
▁doors	-9.34507
▁suggest	-9.34549
▁discuss	-9.34554
▁score	-9.34726
▁sleeping	-9.34811
▁excited	-9.34854
▁books	-9.34916
me	-9.34962
▁admit	-9.34997
▁built	-9.35011
▁formula	-9.35011
▁happiness	-9.35011
▁mufasa	-9.35011
▁wilson	-9.35015
▁edward	-9.35015
▁practice	-9.35016
▁information	-9.35017
▁neck	-9.35021
▁society	-9.35021
▁robin	-9.35041
▁friendship	-9.35045
▁factory	-9.35081
▁page	-9.35233
▁stevens	-9.35321
▁cl	-9.35479
ure	-9.35557
▁shed	-9.35581
▁plus	-9.3562
▁hunters	-9.35634
▁krabs	-9.357
▁egg	-9.35722
▁barks	-9.35858
▁papers	-9.35973
▁gas	-9.36122
led	-9.363
▁da	-9.36406
▁ar	-9.36563
son	-9.36613
▁jon	-9.36687
▁ma	-9.36901
▁climb	-9.36982
▁vi	-9.37203
ho	-9.37308
▁crash	-9.37515
▁survive	-9.37673
ts	-9.37757
▁sharp	-9.37781
▁freeze	-9.37888
▁photo	-9.37891
▁apart	-9.37927
▁correct	-9.37941
▁adorable	-9.37952
▁dublin	-9.37952
▁exciting	-9.37952
▁genius	-9.37952
▁hermione	-9.37952
▁dennis	-9.37952
▁snoring	-9.37952
▁hadnt	-9.37952
▁area	-9.37952
▁foreign	-9.37952
▁pepper	-9.37953
▁delicious	-9.37953
▁choose	-9.37954
▁bailey	-9.37954
▁roger	-9.37955
▁toast	-9.37955
▁rowley	-9.3796
▁duke	-9.37961
▁heck	-9.37964
▁rise	-9.37966
▁dragon	-9.37969
▁immediately	-9.37969
▁season	-9.37985
▁prime	-9.37991
▁tuck	-9.38002
▁exclaiming	-9.38009
▁engaged	-9.38014
land	-9.38015
▁bobby	-9.38051
▁nacho	-9.38076
▁fred	-9.381
▁yah	-9.38102
▁rico	-9.38138
▁tall	-9.38232
▁pro	-9.38291
▁nearly	-9.38306
▁butter	-9.38421
▁continue	-9.38436
▁fathers	-9.38484
ring	-9.38518
▁rope	-9.38617
▁cash	-9.38641
▁perfectly	-9.38669
▁creature	-9.38679
▁birdie	-9.38706
▁gate	-9.38872
▁yelps	-9.38895
ee	-9.38984
▁leader	-9.38988
▁pre	-9.3922
▁fired	-9.39513
ir	-9.39556
▁gods	-9.39691
▁reed	-9.39712
▁feelings	-9.39923
▁sub	-9.3993
▁bless	-9.40124
ti	-9.40628
j	-9.40673
▁dirt	-9.40751
▁no	-9.40756
▁louis	-9.40825
▁doc	-9.40826
ck	-9.40946
▁female	-9.40982
▁hakuna	-9.40982
▁laszlo	-9.40982
▁milk	-9.40982
▁opinion	-9.40982
▁sobbing	-9.40982
▁stomach	-9.40982
▁terrific	-9.40982
▁type	-9.40982
▁mercedes	-9.40982
▁intend	-9.40982
▁larry	-9.40983
▁nowhere	-9.40984
▁clock	-9.40984
▁matata	-9.40984
▁switch	-9.40984
▁fake	-9.41003
▁trent	-9.41004
▁strike	-9.41017
▁path	-9.41026
▁bath	-9.41037
▁silly	-9.41038
▁they	-9.41116
▁dust	-9.41208
▁haha	-9.41252
▁hyenas	-9.41306
▁closer	-9.4142
▁chewing	-9.41439
▁magical	-9.41529
▁cats	-9.41592
▁beard	-9.41753
▁remain	-9.41774
▁exist	-9.4178
▁art	-9.41886
▁destroyed	-9.42075
one	-9.42089
as	-9.421
▁showed	-9.4225
▁cheers	-9.42846
▁bucks	-9.43156
▁older	-9.43413
▁release	-9.4382
▁proper	-9.43987
▁tickets	-9.43987
▁apparently	-9.44107
▁julius	-9.44107
▁oclock	-9.44107
▁often	-9.44107
▁principal	-9.44107
▁ridiculous	-9.44107
▁somehow	-9.44107
▁toilet	-9.44107
▁willoughby	-9.44107
▁account	-9.44107
▁ernie	-9.44108
▁blast	-9.44109
▁robert	-9.44109
▁hindi	-9.44112
▁harm	-9.44132
▁apartment	-9.44138
▁belt	-9.44139
▁obviously	-9.44162
▁jimmy	-9.44186
▁sensei	-9.44186
▁cup	-9.44204
▁oil	-9.4424
mi	-9.44351
▁sweetie	-9.44359
▁auntie	-9.44395
▁failed	-9.44406
▁heat	-9.4443
king	-9.44522
▁fades	-9.44889
▁per	-9.44915
▁lips	-9.44928
▁character	-9.44966
▁guest	-9.45035
▁pilot	-9.45054
▁mothers	-9.45103
ble	-9.45522
▁bing	-9.45575
▁form	-9.45661
▁fingers	-9.45858
▁ron	-9.45939
▁pie	-9.464
cu	-9.46572
▁thinks	-9.46713
▁sl	-9.4682
dy	-9.4686
▁lab	-9.47018
▁feed	-9.47041
▁guards	-9.47045
▁archer	-9.47256
▁sa	-9.47262
▁loose	-9.47263
▁barrie	-9.47265
▁steve	-9.47272
▁usual	-9.47283
▁courage	-9.47315
▁heavily	-9.47333
▁kitten	-9.47333
▁lawrence	-9.47333
▁whimpering	-9.47333
▁colony	-9.47333
▁conrad	-9.47333
▁rumbling	-9.47334
▁jerk	-9.47352
▁wherever	-9.47353
▁trash	-9.47354
▁airport	-9.47355
▁desk	-9.47356
▁garden	-9.47362
▁zone	-9.47386
▁sword	-9.47387
▁whispering	-9.47396
▁willy	-9.4741
▁violet	-9.47419
▁mister	-9.47424
▁hellno	-9.47447
▁hai	-9.47457
▁ni	-9.47465
▁gum	-9.47483
▁manny	-9.47502
▁warning	-9.47627
▁plans	-9.47655
▁mar	-9.47666
▁noticed	-9.47726
▁scare	-9.47762
▁pete	-9.4782
▁bro	-9.47822
▁beep	-9.47836
▁beeping	-9.47868
▁deeply	-9.47941
▁figured	-9.47943
▁odd	-9.48285
▁richard	-9.48348
ini	-9.48431
▁passed	-9.48508
▁harder	-9.48549
▁seemed	-9.48591
▁di	-9.48636
▁bananas	-9.48833
▁fi	-9.49002
▁bud	-9.49459
▁pictures	-9.49493
▁pieces	-9.4964
per	-9.49734
▁fellas	-9.50091
▁gather	-9.501
▁dash	-9.50113
▁regret	-9.50207
▁pray	-9.50266
▁opened	-9.50296
▁settle	-9.50365
▁sail	-9.5066
▁government	-9.50666
▁leonard	-9.50666
▁margaret	-9.50666
▁pride	-9.50666
▁smoke	-9.50666
▁thief	-9.50666
▁whether	-9.50666
▁forgotten	-9.50666
▁thomas	-9.50666
▁sven	-9.50667
▁whoohoo	-9.50667
▁regular	-9.50668
▁kong	-9.50673
▁beach	-9.50676
▁diary	-9.50676
▁angeline	-9.50685
▁fort	-9.50687
▁squad	-9.50692
▁ew	-9.5077
ga	-9.50801
▁squeals	-9.50946
▁gus	-9.51015
▁raised	-9.51119
▁rocks	-9.51174
▁sp	-9.51322
▁clearly	-9.51381
▁paw	-9.51434
▁decide	-9.51486
▁expected	-9.51549
▁higher	-9.51589
▁crack	-9.51793
▁kinda	-9.51799
▁heading	-9.5205
un	-9.52073
▁acting	-9.52222
▁keys	-9.52265
▁students	-9.52298
▁tear	-9.5248
▁boo	-9.52527
▁faces	-9.52863
▁brothers	-9.53101
▁bother	-9.53162
▁cub	-9.53244
▁rings	-9.53489
▁helped	-9.53596
▁focus	-9.5369
▁disappear	-9.53711
▁paying	-9.53727
▁wash	-9.53778
▁load	-9.53793
our	-9.53821
▁command	-9.53888
rt	-9.54035
▁frank	-9.54097
▁favor	-9.5411
▁among	-9.54115
▁astronaut	-9.54115
▁attitude	-9.54115
▁zazu	-9.54115
▁flame	-9.54115
▁hidden	-9.54115
▁bonsai	-9.54115
▁demand	-9.54115
▁military	-9.54115
▁stuart	-9.54115
▁tiger	-9.54115
▁tongue	-9.54116
▁twice	-9.54117
▁milo	-9.54125
▁elise	-9.54126
▁large	-9.54127
▁aboard	-9.5413
▁primero	-9.54136
▁spare	-9.5417
▁sailor	-9.54204
▁lift	-9.54225
▁animals	-9.54227
▁trumpets	-9.54241
▁add	-9.54276
▁mood	-9.54332
▁lower	-9.54427
old	-9.54912
ul	-9.5494
▁ear	-9.55085
▁growing	-9.55185
▁turning	-9.55208
▁expecting	-9.55345
▁goat	-9.55404
▁wheel	-9.55475
▁chip	-9.55626
▁loves	-9.55637
▁couldve	-9.55725
▁fra	-9.55763
▁port	-9.55773
▁closed	-9.558
▁hill	-9.55953
▁ears	-9.56393
les	-9.56516
▁wha	-9.56563
▁interest	-9.56776
▁ii	-9.57003
▁tunes	-9.57134
▁search	-9.5714
▁chew	-9.57167
▁cards	-9.57187
▁ed	-9.57253
▁request	-9.57276
▁pe	-9.57322
▁badge	-9.5738
▁shower	-9.57391
▁weak	-9.57407
back	-9.57418
▁jealous	-9.57431
op	-9.57471
▁colonel	-9.57686
▁innocent	-9.57686
▁joseph	-9.57686
▁marianne	-9.57686
▁ossory	-9.57686
▁precious	-9.57686
▁purpose	-9.57686
▁science	-9.57686
▁treasure	-9.57686
▁crew	-9.57686
▁truly	-9.57686
▁drunk	-9.57686
▁target	-9.57686
▁address	-9.57687
▁dashwood	-9.57689
▁francisco	-9.57692
▁jenny	-9.57692
▁champion	-9.57695
▁chef	-9.57702
▁row	-9.57725
▁coughing	-9.57736
▁coat	-9.57775
▁suddenly	-9.5778
▁sold	-9.57782
▁soldiers	-9.57807
▁roaring	-9.57856
▁newland	-9.57867
▁honestly	-9.57955
▁ray	-9.57961
▁pity	-9.57969
▁concerned	-9.57986
ni	-9.58002
▁hoping	-9.58007
▁signal	-9.58033
ster	-9.58054
▁rent	-9.58335
▁jackets	-9.58498
▁er	-9.5865
▁reporter	-9.589
▁singer	-9.59
▁dolphin	-9.59015
▁crystal	-9.59029
▁patient	-9.59033
▁returned	-9.59041
▁rabbit	-9.5906
▁agent	-9.59066
▁code	-9.59089
▁fan	-9.59193
▁male	-9.59307
▁fate	-9.5961
▁mu	-9.59625
▁hurts	-9.59967
▁answers	-9.60046
ate	-9.6027
ize	-9.60511
▁tape	-9.60562
▁col	-9.60637
▁cheat	-9.60906
▁plant	-9.60908
sa	-9.61017
▁corn	-9.61217
tin	-9.61241
▁player	-9.61244
▁lake	-9.61332
▁asleep	-9.6139
▁asteroid	-9.6139
▁atlantis	-9.6139
▁phoenix	-9.6139
▁stammering	-9.6139
▁tournament	-9.6139
▁upstairs	-9.6139
▁video	-9.6139
▁crime	-9.6139
▁grateful	-9.6139
▁interrupt	-9.6139
▁desire	-9.6139
▁brilliant	-9.6139
▁earlier	-9.61391
▁romantic	-9.61391
▁templeton	-9.61391
▁weather	-9.61392
▁cruel	-9.61392
▁fantastic	-9.61401
▁within	-9.61406
▁tour	-9.61409
▁liar	-9.6141
▁lordship	-9.6141
▁support	-9.61413
▁taxi	-9.61414
▁trade	-9.61422
▁johnson	-9.61445
▁due	-9.61456
▁photograph	-9.61467
ism	-9.6147
▁hatch	-9.6149
▁stolen	-9.61527
▁main	-9.61538
▁manage	-9.61571
▁fur	-9.61973
▁pleased	-9.62044
ai	-9.62256
▁billy	-9.62318
▁cheer	-9.62571
▁beaufort	-9.62862
▁squirrel	-9.62862
vi	-9.62877
▁russian	-9.62922
▁cost	-9.62959
▁action	-9.62963
▁lesson	-9.62995
▁villain	-9.63033
▁touched	-9.63067
▁tricks	-9.63137
▁games	-9.63138
ey	-9.63549
ff	-9.63849
om	-9.6401
▁group	-9.64279
▁fa	-9.64316
head	-9.64543
ler	-9.64553
▁prison	-9.64726
▁arrest	-9.64836
be	-9.64841
▁paint	-9.64877
▁grant	-9.64925
▁introduce	-9.64993
▁permanent	-9.65058
▁natural	-9.65066
bb	-9.65144
▁split	-9.65222
▁anthony	-9.65236
▁clever	-9.65236
▁conversation	-9.65236
▁effort	-9.65236
▁girlfriend	-9.65236
▁mukhtar	-9.65236
▁shouldve	-9.65236
▁spock	-9.65236
▁okinawa	-9.65236
▁pacino	-9.65238
▁edmund	-9.65238
▁cowboy	-9.65238
▁fetch	-9.65238
▁roof	-9.6524
▁grandfather	-9.65241
▁rudy	-9.65242
▁fancy	-9.65245
▁spring	-9.65246
▁paul	-9.65248
▁teddy	-9.65249
▁emergency	-9.6525
▁frozen	-9.65253
▁weekend	-9.65285
▁anson	-9.65317
▁hans	-9.65328
▁safety	-9.65348
▁states	-9.65372
▁headed	-9.65496
▁shrieks	-9.65653
▁ahh	-9.65696
▁gotcha	-9.65698
▁oops	-9.65726
▁cares	-9.65752
▁prepared	-9.65792
▁believed	-9.6599
▁ruined	-9.66018
▁rat	-9.66117
▁trap	-9.66519
▁seats	-9.6653
▁tale	-9.66536
▁shirt	-9.66889
▁twin	-9.66978
▁wa	-9.67018
tic	-9.67058
▁who	-9.67086
▁dads	-9.67373
▁bello	-9.67506
▁ch	-9.67637
ating	-9.67699
▁or	-9.67897
▁wing	-9.68073
▁announce	-9.68241
ap	-9.68316
ped	-9.68612
▁bang	-9.68754
▁calls	-9.68772
▁crap	-9.68776
▁recognize	-9.68947
▁schedule	-9.68952
▁sweat	-9.68969
▁mighty	-9.69019
▁program	-9.69183
▁gentle	-9.6921
▁advice	-9.69236
▁destiny	-9.69236
▁dumbledore	-9.69236
▁expensive	-9.69236
▁familiar	-9.69236
▁garbage	-9.69236
▁georgi	-9.69236
▁krupp	-9.69236
▁mowgli	-9.69236
▁someday	-9.69236
▁threw	-9.69236
▁claim	-9.69236
▁combination	-9.69236
▁ferrars	-9.69236
▁twenty	-9.69236
▁sacrifice	-9.69237
▁froggy	-9.69237
▁planning	-9.69238
▁washington	-9.69238
▁ease	-9.69238
▁shark	-9.69239
▁hammy	-9.69239
▁julie	-9.69239
▁judy	-9.69242
▁vincent	-9.69242
▁revenge	-9.69242
▁easier	-9.69244
▁bread	-9.69248
▁birth	-9.69248
▁grandpa	-9.69251
▁brit	-9.69253
▁duty	-9.69255
▁coast	-9.6927
▁bride	-9.6929
▁fo	-9.69291
▁pool	-9.69294
▁professional	-9.69305
▁energy	-9.69309
▁setting	-9.6931
▁mum	-9.69345
▁chirping	-9.69358
▁sniffing	-9.69441
▁weight	-9.69486
▁universe	-9.695
▁commander	-9.69505
▁claws	-9.69576
▁points	-9.69732
you	-9.69741
▁prisoner	-9.69796
▁burning	-9.70071
▁opening	-9.70092
▁freak	-9.70223
▁me	-9.70233
just	-9.70239
▁li	-9.70364
▁talent	-9.70658
▁jj	-9.70684
▁du	-9.70738
line	-9.70851
ad	-9.70944
▁angel	-9.70976
▁criminal	-9.71038
▁member	-9.7106
▁knocking	-9.71101
▁finger	-9.71109
▁matters	-9.71114
hop	-9.71147
eful	-9.71162
▁weapons	-9.71209
ally	-9.71675
▁sha	-9.71735
▁smells	-9.71838
ac	-9.71972
▁beasts	-9.72314
ern	-9.72505
▁hug	-9.7252
▁lies	-9.72534
▁wave	-9.7282
▁march	-9.72901
▁rub	-9.72991
▁fail	-9.73013
▁places	-9.73077
▁judge	-9.73115
ade	-9.73138
▁wee	-9.73139
▁snap	-9.73253
▁chase	-9.73279
▁cab	-9.73314
tion	-9.73341
▁chair	-9.7339
▁bathroom	-9.73403
▁bottle	-9.73403
▁happily	-9.73403
▁kansas	-9.73403
▁kowalski	-9.73403
▁miracle	-9.73403
▁nixon	-9.73403
▁ocean	-9.73403
▁otherwise	-9.73403
▁particular	-9.73403
▁piano	-9.73403
▁ugga	-9.73403
▁weasley	-9.73403
▁whoever	-9.73403
▁mancub	-9.73403
▁ethan	-9.73403
▁guide	-9.73404
▁humming	-9.73404
▁owner	-9.73405
▁staff	-9.73407
▁estate	-9.73409
▁engagement	-9.73409
▁palace	-9.7341
▁thatch	-9.73416
▁foul	-9.73418
▁legend	-9.73423
▁maid	-9.73424
▁guilty	-9.73449
▁lonely	-9.73449
▁frightened	-9.73464
▁deck	-9.73481
▁prize	-9.73528
▁monkeys	-9.73548
▁preacher	-9.73621
▁tickle	-9.73658
▁bike	-9.73687
▁nervously	-9.7374
▁lala	-9.73746
▁whispers	-9.73755
▁legal	-9.73859
▁be	-9.73905
bra	-9.74106
▁strains	-9.74157
▁kw	-9.74177
▁fighter	-9.74296
▁pounds	-9.74359
▁rocky	-9.74376
▁pot	-9.74377
▁tin	-9.74384
▁log	-9.74412
▁ls	-9.7466
ley	-9.74705
▁ka	-9.74821
va	-9.7524
▁keeps	-9.75279
▁ro	-9.7529
▁film	-9.75385
▁condition	-9.75407
▁whistle	-9.75434
▁sometime	-9.7547
▁je	-9.75745
▁ant	-9.75805
tro	-9.76463
▁ali	-9.76487
▁hanging	-9.76543
▁creatures	-9.76679
▁charm	-9.76793
bo	-9.77269
▁poison	-9.77338
▁crush	-9.77345
▁panic	-9.77391
▁breaking	-9.77408
▁experience	-9.77484
▁receive	-9.7751
▁terribl	-9.77586
▁tie	-9.77651
▁tradition	-9.77659
▁bum	-9.77667
▁pit	-9.77678
▁express	-9.77715
▁defense	-9.7775
▁fought	-9.7775
▁kitty	-9.7775
▁memories	-9.7775
▁suspens	-9.7775
▁tenneray	-9.7775
▁weasel	-9.7775
▁written	-9.7775
▁otto	-9.7775
▁saint	-9.7775
▁onto	-9.77751
▁flash	-9.77751
▁motes	-9.77751
▁fortunate	-9.77752
▁minister	-9.77752
▁tunnel	-9.77753
▁rosie	-9.77753
▁burger	-9.77754
▁dutch	-9.77754
▁solid	-9.77755
▁awake	-9.77756
▁dojo	-9.77757
▁department	-9.7776
▁charles	-9.7777
▁babe	-9.77771
▁glow	-9.77772
▁coward	-9.77777
▁planned	-9.77777
▁property	-9.77777
▁dropped	-9.77778
▁nasty	-9.7779
▁rush	-9.77794
▁gang	-9.77795
▁soup	-9.77803
▁juice	-9.77812
▁standard	-9.7783
▁involved	-9.77884
▁poop	-9.77945
▁invited	-9.77988
▁brains	-9.78
▁string	-9.78118
▁bump	-9.78122
▁ian	-9.78164
▁eaten	-9.78186
que	-9.78199
▁chi	-9.78239
▁medic	-9.78278
▁mentioned	-9.78406
▁ham	-9.78415
▁stronger	-9.78469
▁damage	-9.7847
▁slowly	-9.78543
▁ld	-9.78558
▁ne	-9.78573
▁for	-9.78616
▁filled	-9.78623
▁pen	-9.78624
▁towards	-9.78746
▁locked	-9.78748
▁smaller	-9.78758
▁movies	-9.791
▁sand	-9.79232
▁finding	-9.79309
▁nala	-9.7975
▁nut	-9.8007
▁camera	-9.80112
▁there	-9.80437
off	-9.80471
▁mountains	-9.80485
▁aha	-9.80674
ine	-9.80679
▁fart	-9.80742
▁tip	-9.80934
▁pilots	-9.80965
▁ab	-9.81233
over	-9.81522
▁following	-9.81564
▁sin	-9.8172
hy	-9.81738
▁fe	-9.81954
like	-9.81983
▁assure	-9.82028
▁separate	-9.82051
though	-9.82056
▁total	-9.82139
▁salt	-9.82141
ang	-9.82169
▁heave	-9.82225
▁basket	-9.82291
▁afford	-9.82296
▁arthur	-9.82296
▁blanket	-9.82296
▁butler	-9.82296
▁douglas	-9.82296
▁ferdinand	-9.82296
▁mystery	-9.82296
▁pizza	-9.82296
▁poopypants	-9.82296
▁speech	-9.82296
▁subtitle	-9.82296
▁freedom	-9.82296
▁nightmare	-9.82296
▁midnight	-9.82297
▁clay	-9.82297
▁monday	-9.82298
▁gorgeous	-9.823
▁robot	-9.82302
▁willing	-9.82308
▁scout	-9.82308
cient	-9.82312
▁opportunity	-9.82313
▁understood	-9.82313
▁mush	-9.82319
▁pair	-9.82319
▁loving	-9.82324
▁credit	-9.82325
▁rare	-9.82325
▁blew	-9.82326
▁mere	-9.82328
▁oome	-9.82334
▁mail	-9.82334
▁steady	-9.82335
▁began	-9.82342
▁potion	-9.82342
▁enz	-9.82342
▁mansion	-9.82361
▁darkness	-9.82365
▁bucket	-9.82385
▁pure	-9.82385
▁proof	-9.82389
▁barrier	-9.82412
▁national	-9.82427
▁base	-9.82436
▁dean	-9.8244
▁wise	-9.82451
▁halt	-9.82475
di	-9.82475
▁copy	-9.82483
▁stonea	-9.825
▁hint	-9.82502
ank	-9.82612
▁minions	-9.82899
▁bay	-9.82957
▁speaks	-9.83213
▁cooking	-9.83225
▁apologize	-9.83318
▁dressed	-9.83359
▁reached	-9.83365
▁ani	-9.83374
▁imitate	-9.83423
▁selling	-9.83458
▁riding	-9.83558
ze	-9.83759
▁yell	-9.83802
▁sooner	-9.8388
▁sport	-9.8392
▁boots	-9.83934
▁kicked	-9.83945
▁metal	-9.84141
▁pi	-9.84168
men	-9.84185
▁cow	-9.84573
▁pocket	-9.84707
▁weapon	-9.84749
▁student	-9.84756
▁runs	-9.84879
▁twins	-9.84993
▁villains	-9.85108
▁tears	-9.85474
nny	-9.85557
ial	-9.85572
ns	-9.85658
ated	-9.86081
▁twist	-9.86639
ci	-9.86652
▁concern	-9.86657
▁measure	-9.86775
▁min	-9.86968
▁gee	-9.8697
▁operation	-9.86972
▁bala	-9.86995
▁cannonball	-9.8702
▁collect	-9.87022
▁fashion	-9.87032
▁opera	-9.87034
▁flat	-9.87048
▁bedroom	-9.87058
▁device	-9.87058
▁explode	-9.87058
▁headquarters	-9.87058
▁imagination	-9.87058
▁justice	-9.87058
▁lieutenant	-9.87058
▁miniboss	-9.87058
▁mysterious	-9.87058
▁narnia	-9.87058
▁patrol	-9.87058
▁remote	-9.87058
▁scarecrow	-9.87058
▁stock	-9.87058
▁strangways	-9.87058
▁sweep	-9.87058
▁thumb	-9.87058
▁thunk	-9.87058
▁twinkle	-9.87058
▁aisha	-9.87058
▁knowledge	-9.87058
▁mostly	-9.87058
▁desert	-9.87058
▁scratch	-9.87058
▁costume	-9.87058
▁wasting	-9.87058
▁conference	-9.87058
▁audience	-9.87059
▁reverend	-9.87059
▁magnificent	-9.8706
▁riddle	-9.8706
▁friday	-9.8706
▁meteorite	-9.8706
▁alert	-9.87061
▁newspaper	-9.87062
▁superstar	-9.87063
▁authority	-9.87064
▁electric	-9.87065
▁simon	-9.87065
▁heir	-9.87066
▁volcano	-9.87066
▁brick	-9.87067
▁cheek	-9.8707
▁trail	-9.87071
▁grew	-9.87076
▁madeleine	-9.87076
▁direction	-9.87089
▁exit	-9.871
▁shant	-9.87104
▁pole	-9.87119
▁bound	-9.87171
▁screeching	-9.87177
▁indian	-9.87197
▁doll	-9.87265
▁recall	-9.87279
▁approaching	-9.87284
▁pink	-9.87313
▁heroes	-9.87321
▁louise	-9.87327
▁he	-9.87359
▁chest	-9.87482
▁tablet	-9.87509
▁letting	-9.87667
▁stairs	-9.87796
▁realized	-9.87887
▁sniffs	-9.88032
ki	-9.88043
▁songs	-9.88115
▁hunting	-9.88305
▁lap	-9.88318
▁closet	-9.88358
▁worker	-9.88406
▁anne	-9.88439
▁rip	-9.88741
ier	-9.88836
tor	-9.88868
ass	-9.88915
▁cops	-9.88952
ol	-9.89214
▁career	-9.89324
▁orl	-9.89382
▁friendly	-9.89391
▁throwing	-9.89454
▁knee	-9.89475
▁german	-9.89483
▁knowing	-9.89646
▁killing	-9.89726
hand	-9.89747
▁banana	-9.89756
▁dollar	-9.89787
but	-9.89844
▁mile	-9.89856
▁moms	-9.899
▁streets	-9.90069
▁hon	-9.90134
▁moves	-9.9022
▁shows	-9.9028
▁ca	-9.90464
▁checked	-9.90507
▁file	-9.90524
lin	-9.90577
oh	-9.90925
▁cap	-9.90972
▁vo	-9.91019
▁duck	-9.91261
ell	-9.91269
▁bee	-9.9147
oooo	-9.91498
▁crate	-9.91736
ball	-9.91808
▁experiment	-9.91966
▁pitch	-9.92011
▁hanna	-9.92018
▁extreme	-9.92058
▁applause	-9.92058
▁champagne	-9.92058
▁desperate	-9.92058
▁example	-9.92058
▁garrad	-9.92058
▁heffley	-9.92058
▁koskov	-9.92058
▁screen	-9.92058
▁therefore	-9.92058
▁worries	-9.92058
▁buddies	-9.92058
▁nevins	-9.92058
▁oven	-9.92058
▁aware	-9.92058
▁plain	-9.92058
▁style	-9.92058
▁sarah	-9.92059
▁patties	-9.92059
▁mmmhmm	-9.9206
▁jared	-9.92061
▁assistant	-9.92062
▁value	-9.92063
▁evans	-9.92063
▁impressive	-9.92067
▁invention	-9.92068
▁olenska	-9.92069
▁glenn	-9.9207
▁noble	-9.92072
▁witness	-9.92074
▁balance	-9.92077
▁iron	-9.9208
▁pushkin	-9.9208
▁precisely	-9.92088
▁vocalizing	-9.921
▁chill	-9.92101
▁corp	-9.92106
▁model	-9.9211
▁ira	-9.92126
▁murmuring	-9.92128
▁task	-9.92157
▁sato	-9.92171
▁shining	-9.92175
▁counter	-9.92187
▁darn	-9.92227
▁delighted	-9.92255
▁discovered	-9.92276
▁fallen	-9.92299
▁nothings	-9.92302
▁lines	-9.92316
▁gary	-9.92318
▁created	-9.9233
▁settled	-9.92469
▁teller	-9.92567
▁para	-9.92633
▁pigs	-9.92647
▁agreed	-9.92681
▁wishes	-9.92848
▁brakes	-9.93089
▁rel	-9.93127
ice	-9.93178
▁turnin	-9.93207
▁liz	-9.93319
▁shoo	-9.93635
▁mate	-9.93655
▁younger	-9.93721
ence	-9.939
ill	-9.93918
▁counting	-9.94217
▁belongs	-9.94228
▁gives	-9.94239
▁signed	-9.9434
▁bi	-9.94369
▁fl	-9.94402
▁remembered	-9.94445
▁grunt	-9.94545
▁bags	-9.94729
▁dam	-9.94788
▁whistles	-9.94799
▁pulled	-9.94801
▁stops	-9.94872
▁beating	-9.95186
▁walls	-9.9523
mp	-9.95286
▁followed	-9.95328
▁chop	-9.95525
▁pee	-9.95546
▁ideas	-9.95563
▁stays	-9.95616
▁bust	-9.95917
▁monsters	-9.95953
▁hoped	-9.96167
▁cell	-9.96192
▁hu	-9.96307
ose	-9.96481
▁leo	-9.96504
▁ac	-9.96517
▁pin	-9.96618
▁deserves	-9.9675
▁hearts	-9.9678
▁showing	-9.96823
▁stretch	-9.96885
▁borrow	-9.96893
▁opens	-9.96899
ward	-9.96917
▁direct	-9.97008
▁worlds	-9.97145
▁au	-9.97172
of	-9.97195
▁somethin	-9.97269
▁assume	-9.97278
▁success	-9.97303
▁percent	-9.97306
▁faith	-9.97308
▁cancel	-9.97312
▁attempt	-9.97321
▁audrey	-9.97321
▁capsule	-9.97321
▁dalgleish	-9.97321
▁hudson	-9.97321
▁instrument	-9.97321
▁interview	-9.97321
▁jeremy	-9.97321
▁knife	-9.97321
▁milady	-9.97321
▁mirror	-9.97321
▁necessary	-9.97321
▁necessities	-9.97321
▁ominous	-9.97321
▁plastic	-9.97321
▁pleasant	-9.97321
▁prophet	-9.97321
▁savage	-9.97321
▁screw	-9.97321
▁shadow	-9.97321
▁strasser	-9.97321
▁subject	-9.97321
▁unknown	-9.97321
▁weaver	-9.97321
▁oink	-9.97321
▁praise	-9.97321
▁decepticons	-9.97321
▁gently	-9.97321
▁brandnew	-9.97322
▁clue	-9.97322
▁ramses	-9.97322
▁squidward	-9.97322
▁herd	-9.97323
▁jazz	-9.97323
▁dining	-9.97323
▁social	-9.97324
▁dimas	-9.97324
▁puss	-9.97324
▁closing	-9.97325
▁chanting	-9.97326
▁valley	-9.97326
▁smee	-9.97326
▁basically	-9.97327
▁television	-9.97327
▁dying	-9.97328
fully	-9.97328
▁kron	-9.9733
▁brandon	-9.97337
▁boring	-9.9734
▁chapman	-9.97342
▁aside	-9.97348
▁chap	-9.97351
▁reward	-9.97357
▁cast	-9.9736
▁trumpeting	-9.97367
▁filthy	-9.9738
▁darlington	-9.97383
▁snowman	-9.97384
▁hatter	-9.97421
▁nest	-9.97509
▁down	-9.97524
▁impressed	-9.97529
▁bron	-9.97572
▁laws	-9.97625
▁received	-9.9769
▁mat	-9.97696
▁useless	-9.97719
▁pile	-9.97808
▁sink	-9.97832
▁grade	-9.97884
▁disappeared	-9.97945
▁prayer	-9.97976
▁dearest	-9.97988
▁forced	-9.98017
▁victory	-9.98111
▁closes	-9.98289
▁lack	-9.98329
▁winds	-9.98396
▁honored	-9.98408
▁ra	-9.98424
for	-9.98487
▁macho	-9.98544
cha	-9.98582
▁can	-9.98677
▁covered	-9.98721
▁shouts	-9.98802
▁parking	-9.98852
▁ble	-9.98886
▁rider	-9.98924
▁reg	-9.98986
▁silence	-9.99026
▁lou	-9.99041
▁ko	-9.991
▁lately	-9.99127
▁pushing	-9.99212
▁sting	-9.9923
▁bulls	-9.99533
▁bon	-9.99729
▁lookin	-9.99832
▁meaning	-9.99893
▁stink	-9.99967
▁the	-10.0039
▁nerve	-10.0046
▁adult	-10.0046
▁concentrate	-10.005
▁sending	-10.0053
▁sw	-10.0056
wn	-10.0061
chi	-10.0062
▁ju	-10.0063
▁mel	-10.0066
▁woo	-10.0096
▁learning	-10.0099
▁cr	-10.0115
▁loser	-10.012
▁guests	-10.0128
che	-10.0143
▁ad	-10.0145
ny	-10.0154
▁waters	-10.0155
▁slip	-10.0156
▁hopes	-10.018
ities	-10.0186
▁deliver	-10.0221
▁flag	-10.0222
▁kings	-10.0237
▁jokes	-10.0254
port	-10.0256
▁curse	-10.0261
▁invite	-10.0262
▁positions	-10.027
▁cove	-10.0276
▁india	-10.0279
▁comfort	-10.0285
▁grace	-10.0288
▁andrew	-10.0288
▁aslan	-10.0288
▁carriage	-10.0288
▁cassidy	-10.0288
▁davies	-10.0288
▁dexter	-10.0288
▁distant	-10.0288
▁edith	-10.0288
▁goddamn	-10.0288
▁guitar	-10.0288
▁hockey	-10.0288
▁illegal	-10.0288
▁inhales	-10.0288
▁jamboree	-10.0288
▁junk	-10.0288
▁magazine	-10.0288
▁ordinary	-10.0288
▁permission	-10.0288
▁supper	-10.0288
▁telephone	-10.0288
▁turtle	-10.0288
▁whenever	-10.0288
▁laurel	-10.0288
▁stood	-10.0288
▁zeta	-10.0288
▁shuttle	-10.0288
through	-10.0288
▁opposite	-10.0288
▁distance	-10.0288
▁navy	-10.0288
▁square	-10.0288
▁golf	-10.0288
▁defend	-10.0288
▁vicious	-10.0288
▁orange	-10.0288
▁spread	-10.0288
▁staci	-10.0288
▁suitcase	-10.0288
▁boogie	-10.0288
▁khan	-10.0288
▁complicated	-10.0289
▁chasing	-10.0289
▁bruises	-10.0289
▁route	-10.0289
▁ouch	-10.0289
▁blah	-10.0289
▁watergate	-10.0289
▁transit	-10.0289
▁martin	-10.0289
▁impression	-10.029
▁selfish	-10.029
▁boyfriend	-10.029
▁soda	-10.0291
▁tank	-10.0292
▁marie	-10.0292
▁hannah	-10.0292
▁scottie	-10.0292
▁spoken	-10.0293
▁market	-10.0294
▁barber	-10.0294
▁demon	-10.0294
▁aim	-10.0295
▁fence	-10.0296
▁doctors	-10.0297
nnon	-10.0299
▁arranged	-10.03
▁dial	-10.0305
▁billion	-10.0305
▁challenge	-10.0305
▁cur	-10.0306
▁kai	-10.0307
▁gray	-10.0308
▁grown	-10.0309
▁deny	-10.031
▁straining	-10.0311
▁net	-10.0316
▁hor	-10.0316
▁bitch	-10.0321
▁orphans	-10.0322
▁coal	-10.0325
▁personally	-10.0333
▁wonders	-10.0333
ub	-10.0336
▁benn	-10.0339
▁te	-10.034
▁horses	-10.0345
▁entirely	-10.0349
▁mid	-10.0351
▁indistinctly	-10.0354
ab	-10.0359
▁customers	-10.0364
▁balls	-10.0366
▁bothering	-10.0377
▁sn	-10.0382
vel	-10.0384
▁nobodys	-10.0387
▁sum	-10.0387
side	-10.0396
▁bubbles	-10.0417
▁passengers	-10.0417
▁testing	-10.0423
▁and	-10.0428
▁divorce	-10.0437
▁announc	-10.0443
▁toys	-10.0444
ach	-10.0444
▁sec	-10.0462
▁ru	-10.0464
▁lied	-10.0464
▁loca	-10.0473
▁wine	-10.048
▁abe	-10.0485
▁records	-10.0491
▁flavor	-10.051
▁lads	-10.0512
red	-10.0535
▁knees	-10.0553
ffy	-10.0554
gg	-10.0579
▁goon	-10.0587
▁goal	-10.0588
▁tells	-10.0588
▁angels	-10.0608
▁shoe	-10.065
▁cop	-10.0666
▁bowl	-10.0694
▁drinking	-10.0702
ev	-10.0724
▁dai	-10.0755
▁cape	-10.077
▁suffer	-10.0778
▁imp	-10.0808
▁warn	-10.081
▁fellows	-10.083
▁suspect	-10.0833
▁jam	-10.0834
▁presents	-10.0835
ship	-10.0836
▁hid	-10.0842
▁arrive	-10.0849
▁reminds	-10.0856
▁bur	-10.0864
▁sandwich	-10.0868
▁swim	-10.0869
▁transform	-10.0874
▁journal	-10.0874
▁mamma	-10.0876
▁advantage	-10.0876
▁cackling	-10.0876
▁carlotta	-10.0876
▁chinese	-10.0876
▁clamoring	-10.0876
▁downstairs	-10.0876
▁enemies	-10.0876
▁ferrari	-10.0876
▁ginny	-10.0876
▁glory	-10.0876
▁governor	-10.0876
▁historic	-10.0876
▁honeycutt	-10.0876
▁komay	-10.0876
▁license	-10.0876
▁lydia	-10.0876
▁matrix	-10.0876
▁monterey	-10.0876
▁museum	-10.0876
▁paradise	-10.0876
▁puppies	-10.0876
▁quarrel	-10.0876
▁responsible	-10.0876
▁sergeant	-10.0876
▁slytherin	-10.0876
▁stammers	-10.0876
▁tuesday	-10.0876
▁unusual	-10.0876
▁valuable	-10.0876
▁firm	-10.0876
▁drove	-10.0876
▁slippers	-10.0876
▁smedt	-10.0876
▁whyd	-10.0876
▁merrick	-10.0876
▁degrees	-10.0876
▁susan	-10.0876
▁according	-10.0876
▁playtone	-10.0876
▁theater	-10.0876
▁vision	-10.0876
▁dylan	-10.0876
▁pumpkin	-10.0876
▁poopsie	-10.0876
▁outfit	-10.0876
▁reverse	-10.0876
▁triumphant	-10.0876
▁melvin	-10.0876
▁contract	-10.0876
▁lawyer	-10.0876
▁romance	-10.0877
▁merci	-10.0877
▁charity	-10.0877
▁troll	-10.0877
▁steam	-10.0877
▁rattl	-10.0877
▁wales	-10.0877
▁regard	-10.0877
▁shore	-10.0877
▁literally	-10.0877
▁sauce	-10.0878
▁motion	-10.0878
▁youth	-10.0878
▁section	-10.0878
▁winning	-10.0879
▁leap	-10.0879
▁pressure	-10.0879
▁practically	-10.0879
▁artie	-10.088
▁anger	-10.0881
▁marine	-10.0886
▁meal	-10.0888
▁disappointed	-10.0889
▁narrat	-10.089
▁racing	-10.089
▁haul	-10.0891
▁fourth	-10.0891
▁now	-10.0892
▁echoing	-10.0894
▁ohh	-10.0895
▁laid	-10.0901
▁pork	-10.0901
▁lola	-10.0902
▁classes	-10.0907
▁jackie	-10.0907
▁buzzing	-10.0914
ther	-10.0919
▁val	-10.0921
▁wandering	-10.0924
▁peaceful	-10.0931
ines	-10.0932
▁neverland	-10.0934
▁tent	-10.094
sp	-10.0941
▁sal	-10.0945
▁normally	-10.0949
tal	-10.0968
▁munchkins	-10.097
▁teachers	-10.0984
▁greetings	-10.0998
eck	-10.1009
▁dar	-10.1013
▁har	-10.1016
▁pirates	-10.1027
▁offered	-10.103
▁engineer	-10.1035
▁moo	-10.1039
▁spending	-10.1041
mit	-10.1042
▁siren	-10.1046
▁lamb	-10.1058
▁parr	-10.106
▁bars	-10.1061
▁stealing	-10.1064
ming	-10.1065
▁manners	-10.1071
▁fixed	-10.1073
▁laughed	-10.1082
▁islands	-10.1092
▁rolling	-10.1115
▁enjoying	-10.1126
▁rot	-10.1137
▁suck	-10.1141
ber	-10.1186
▁trained	-10.1192
▁walked	-10.1206
▁humans	-10.1211
ping	-10.1214
▁dancer	-10.1217
▁ye	-10.1227
▁buying	-10.123
some	-10.1237
▁ga	-10.1238
▁under	-10.1246
▁russians	-10.1246
▁mud	-10.125
▁source	-10.126
▁quarter	-10.126
▁guinea	-10.1262
▁jos	-10.1266
▁cookie	-10.1271
bon	-10.1272
▁chain	-10.1272
▁all	-10.1284
▁raf	-10.1291
pu	-10.1292
▁lad	-10.1302
▁beeps	-10.1307
▁toe	-10.1307
▁iii	-10.1308
▁ape	-10.1319
ned	-10.1333
▁sc	-10.1347
▁cure	-10.1408
▁wit	-10.1431
▁hop	-10.1434
▁study	-10.1445
▁heal	-10.1453
▁der	-10.1453
test	-10.1454
▁honour	-10.1456
▁univers	-10.1457
▁shock	-10.1459
▁bl	-10.1463
▁award	-10.1466
board	-10.1471
down	-10.1471
▁propose	-10.1472
▁creep	-10.1476
wind	-10.1479
bur	-10.148
▁positive	-10.1483
▁create	-10.1484
▁official	-10.1484
▁sudden	-10.1484
▁actual	-10.1487
▁mall	-10.1487
▁francis	-10.15
▁ashamed	-10.1501
▁awkward	-10.1501
▁behalf	-10.1501
▁client	-10.1501
▁commercial	-10.1501
▁dauphin	-10.1501
▁disaster	-10.1501
▁eugene	-10.1501
▁grimlock	-10.1501
▁jeez	-10.1501
▁league	-10.1501
▁muffled	-10.1501
▁mulgarath	-10.1501
▁nonsense	-10.1501
▁polite	-10.1501
▁potential	-10.1501
▁produce	-10.1501
▁quality	-10.1501
▁relationship	-10.1501
▁renault	-10.1501
▁rufus	-10.1501
▁sybok	-10.1501
▁unicron	-10.1501
▁wrestle	-10.1501
▁wrestling	-10.1501
▁debbie	-10.1501
▁process	-10.1501
▁warrior	-10.1501
▁elizabeth	-10.1501
▁insane	-10.1501
▁muttering	-10.1501
▁cigarette	-10.1501
▁waitress	-10.1501
▁cannon	-10.1501
▁scrap	-10.1501
▁malik	-10.1501
▁critic	-10.1501
▁smack	-10.1501
▁neighborhood	-10.1501
▁clown	-10.1501
▁medal	-10.1501
▁cooing	-10.1501
▁snack	-10.1501
▁flashlight	-10.1501
▁curious	-10.1501
▁avoid	-10.1501
▁competition	-10.1501
▁grantham	-10.1501
▁wire	-10.1502
▁attractive	-10.1502
▁technology	-10.1502
▁unhappy	-10.1502
▁secure	-10.1502
▁classified	-10.1502
▁rude	-10.1502
▁decent	-10.1502
▁penny	-10.1503
▁motor	-10.1503
▁remark	-10.1503
▁self	-10.1503
▁confidence	-10.1503
▁teamwork	-10.1504
▁trace	-10.1504
▁artist	-10.1504
▁heh	-10.1506
▁welsh	-10.1508
▁foolish	-10.151
▁gear	-10.1511
▁nearby	-10.1512
▁chen	-10.1513
▁gim	-10.1514
▁director	-10.1514
▁dish	-10.1517
▁glasses	-10.1518
▁lick	-10.1518
▁manual	-10.1519
▁betty	-10.152
▁original	-10.1522
▁annoying	-10.1524
▁splutters	-10.1524
▁julian	-10.1527
▁disgusting	-10.1531
▁germany	-10.1532
▁print	-10.1533
▁properly	-10.1535
▁former	-10.1536
ld	-10.1537
▁heavens	-10.154
▁embarrassing	-10.1545
▁spy	-10.1546
nder	-10.1549
▁you	-10.1555
▁loudly	-10.1557
▁pod	-10.1558
▁seal	-10.1566
▁skills	-10.157
pping	-10.1577
▁served	-10.1578
▁safer	-10.1578
▁killer	-10.1583
▁freaking	-10.1586
ite	-10.1589
▁searching	-10.1598
pi	-10.1606
itch	-10.1607
▁mac	-10.1609
▁grave	-10.1613
cla	-10.1624
▁tires	-10.1632
▁messed	-10.1653
▁clip	-10.1664
ized	-10.1671
▁bea	-10.1673
▁highly	-10.1676
cy	-10.168
▁strangers	-10.1703
▁penguin	-10.1704
▁issues	-10.1709
let	-10.1709
▁i	-10.171
br	-10.1715
▁boot	-10.1725
ors	-10.1733
umble	-10.1733
▁spit	-10.1744
▁teaching	-10.1745
▁lo	-10.1756
hi	-10.1765
▁rhythmic	-10.1784
sk	-10.18
▁fools	-10.1801
▁germans	-10.1803
▁pat	-10.1811
▁cole	-10.1829
▁tra	-10.1835
ium	-10.1869
ger	-10.187
ise	-10.188
▁seize	-10.1889
▁fore	-10.1898
▁cars	-10.1919
▁scene	-10.1925
▁effect	-10.1927
▁peanut	-10.1927
▁squeak	-10.1932
▁q	-10.1934
▁jet	-10.195
bi	-10.1951
▁yard	-10.1954
▁bat	-10.1957
act	-10.1966
▁pulling	-10.1972
▁blu	-10.1983
ville	-10.1987
▁picking	-10.1996
▁dealing	-10.2
▁if	-10.2002
▁dive	-10.2014
▁design	-10.2043
▁str	-10.2057
▁gal	-10.2071
▁sta	-10.2073
▁nail	-10.2079
▁hurting	-10.2084
▁murder	-10.2085
▁ton	-10.2094
▁mis	-10.2095
▁leak	-10.2109
▁drinks	-10.2127
▁pr	-10.213
▁tw	-10.2141
mount	-10.2143
▁sex	-10.2149
▁oi	-10.2154
▁ree	-10.2155
▁wander	-10.2162
▁attend	-10.2165
▁comin	-10.2165
▁chick	-10.2167
▁permit	-10.2167
▁behavior	-10.2168
▁campaign	-10.2168
▁carrots	-10.2168
▁celebrate	-10.2168
▁circumstances	-10.2168
▁clarity	-10.2168
▁collar	-10.2168
▁committee	-10.2168
▁enterprise	-10.2168
▁equipment	-10.2168
▁exercise	-10.2168
▁families	-10.2168
▁insect	-10.2168
▁lincoln	-10.2168
▁maintain	-10.2168
▁ozzie	-10.2168
▁popcorn	-10.2168
▁reputation	-10.2168
▁skull	-10.2168
▁splendid	-10.2168
▁surface	-10.2168
▁technique	-10.2168
▁truce	-10.2168
▁unique	-10.2168
▁valentine	-10.2168
▁whitney	-10.2168
▁wolves	-10.2168
▁burden	-10.2168
▁dunk	-10.2168
▁ilsa	-10.2168
▁resume	-10.2168
▁silent	-10.2168
▁title	-10.2168
▁include	-10.2168
▁mimic	-10.2168
▁proceed	-10.2168
▁false	-10.2168
▁habit	-10.2168
▁moaning	-10.2168
▁serum	-10.2168
▁veruca	-10.2168
▁brenda	-10.2168
▁chorus	-10.2168
▁fruit	-10.2168
▁tests	-10.2168
▁including	-10.2168
▁plot	-10.2168
▁fluffy	-10.2168
▁resist	-10.2168
▁lightning	-10.2168
▁oak	-10.2168
▁knight	-10.2168
▁diane	-10.2168
▁joking	-10.2168
▁kara	-10.2168
▁signature	-10.2168
▁popular	-10.2169
▁danny	-10.2169
▁terry	-10.2169
▁maxwell	-10.2169
▁jail	-10.2169
▁shopping	-10.2169
▁declare	-10.2169
▁limo	-10.2169
▁geez	-10.2169
▁beans	-10.217
▁rumble	-10.217
▁visa	-10.217
▁batter	-10.217
▁grownup	-10.2171
▁inter	-10.2172
▁faye	-10.2173
▁ox	-10.2173
▁patch	-10.2173
▁beam	-10.2173
mber	-10.2173
▁massey	-10.2174
▁carried	-10.2174
▁retired	-10.2176
▁classic	-10.2177
▁piper	-10.2181
▁kup	-10.2181
▁invented	-10.2183
▁bloom	-10.2189
▁pour	-10.2191
▁sexy	-10.2192
▁squawks	-10.2193
▁pipe	-10.2193
▁doomed	-10.2194
▁lions	-10.2197
▁payment	-10.2201
▁comb	-10.2202
ify	-10.2203
can	-10.2204
▁oliver	-10.2204
▁dumped	-10.2204
▁amen	-10.2205
▁distort	-10.2207
▁watched	-10.2208
▁hire	-10.222
if	-10.2228
▁surely	-10.2228
▁joey	-10.2231
▁crab	-10.2232
▁bend	-10.2241
▁tag	-10.2244
▁loaded	-10.2248
▁yar	-10.2255
▁accepted	-10.2268
▁quietly	-10.2271
▁x	-10.2284
▁whoops	-10.2292
▁visitors	-10.2293
▁breathes	-10.23
▁considering	-10.2307
▁leaves	-10.2335
▁guts	-10.2342
▁wil	-10.2344
▁ending	-10.2392
▁stare	-10.2422
▁arch	-10.2441
▁events	-10.2443
oli	-10.2453
▁sat	-10.2453
▁we	-10.2473
▁falls	-10.2486
val	-10.2492
aft	-10.2505
▁project	-10.2507
▁passing	-10.2509
▁seek	-10.254
▁voices	-10.2544
▁talents	-10.2559
pla	-10.2561
▁cha	-10.2565
▁mag	-10.2569
▁rats	-10.2584
▁hills	-10.2587
gged	-10.259
▁click	-10.259
ook	-10.2591
ily	-10.2593
▁brings	-10.2593
ile	-10.2604
ko	-10.2606
▁ve	-10.2607
▁rabbits	-10.2612
▁shoulder	-10.2639
▁priest	-10.264
▁sports	-10.2641
▁plate	-10.2641
▁don	-10.2645
▁issue	-10.2648
▁manner	-10.265
▁yelp	-10.2652
▁app	-10.2663
▁wings	-10.2667
rie	-10.2671
bl	-10.268
ute	-10.2693
▁gates	-10.271
▁event	-10.2714
top	-10.2725
▁changes	-10.2726
▁thick	-10.2733
▁betterman	-10.2742
vin	-10.2745
▁becom	-10.2757
com	-10.2767
▁trains	-10.2779
▁of	-10.2785
▁slam	-10.2788
▁lu	-10.2794
▁fri	-10.2798
▁den	-10.2799
▁su	-10.2802
▁daughters	-10.2809
▁boil	-10.2815
▁weigh	-10.2841
all	-10.285
lift	-10.2858
▁health	-10.286
▁woohoo	-10.2864
▁jean	-10.2865
▁exact	-10.2867
lt	-10.2867
iest	-10.2871
▁rust	-10.2872
▁unlike	-10.2873
▁spoke	-10.2875
dog	-10.2875
away	-10.2876
▁nurse	-10.288
▁compliment	-10.2881
▁vince	-10.2881
▁smooth	-10.2882
▁suspicious	-10.2882
▁aladar	-10.2882
▁amsterdam	-10.2882
▁blackbeard	-10.2882
▁comrade	-10.2882
▁covington	-10.2882
▁curtain	-10.2882
▁emperor	-10.2882
▁extraordinary	-10.2882
▁guarantee	-10.2882
▁invisible	-10.2882
▁jumpathon	-10.2882
▁klingon	-10.2882
▁library	-10.2882
▁meatloaf	-10.2882
▁megatron	-10.2882
▁orbit	-10.2882
▁pathetic	-10.2882
▁responsibility	-10.2882
▁shinobu	-10.2882
▁someplace	-10.2882
▁superweapon	-10.2882
▁throne	-10.2882
▁thursday	-10.2882
▁tomato	-10.2882
▁vehicle	-10.2882
▁volunteer	-10.2882
▁content	-10.2882
▁modern	-10.2882
▁renner	-10.2882
▁smiling	-10.2882
▁morty	-10.2882
▁succeed	-10.2882
▁shivering	-10.2882
▁reject	-10.2882
▁cruise	-10.2882
▁bravo	-10.2882
▁squarepants	-10.2882
▁influence	-10.2882
▁current	-10.2882
▁ferd	-10.2882
▁downtown	-10.2882
▁invitation	-10.2882
▁vacation	-10.2882
▁feather	-10.2882
▁intention	-10.2882
▁identity	-10.2882
▁argue	-10.2883
▁committed	-10.2883
▁digging	-10.2883
▁spanish	-10.2883
▁unbelievable	-10.2883
▁intelligence	-10.2883
▁luka	-10.2883
▁hahaha	-10.2883
▁static	-10.2883
▁waking	-10.2883
▁fuel	-10.2884
▁vera	-10.2884
▁scent	-10.2884
▁peaches	-10.2884
▁effective	-10.2884
▁naked	-10.2884
▁contest	-10.2884
▁starship	-10.2884
▁pinch	-10.2884
▁china	-10.2884
▁item	-10.2884
▁garw	-10.2885
▁housekeeper	-10.2885
▁swell	-10.2886
▁balloon	-10.2887
▁oneders	-10.2887
▁chosen	-10.2887
▁personality	-10.2888
▁inevitable	-10.2889
▁torn	-10.2889
▁yithe	-10.2891
▁mock	-10.2891
▁comic	-10.2891
▁inner	-10.2891
▁bets	-10.2893
▁mans	-10.2893
▁homework	-10.2893
▁forth	-10.2894
▁recently	-10.2895
▁av	-10.29
wi	-10.2903
▁fairies	-10.2905
gie	-10.2906
▁ahem	-10.2909
▁mixed	-10.2914
▁fry	-10.2917
▁ja	-10.2925
▁chased	-10.2931
▁whines	-10.2944
▁bin	-10.2947
▁bears	-10.2947
▁owl	-10.2949
▁ri	-10.2949
▁crushed	-10.295
▁mikey	-10.2957
▁arrested	-10.2959
▁finest	-10.2966
▁waited	-10.2981
▁tied	-10.2983
▁carefully	-10.3009
▁blessing	-10.3016
▁loss	-10.3019
ious	-10.3019
▁mist	-10.3023
ada	-10.3032
▁belly	-10.3035
▁menu	-10.3039
▁drawing	-10.3056
▁thin	-10.3075
ran	-10.311
▁gra	-10.3125
▁dump	-10.3155
▁staring	-10.3157
my	-10.3157
▁cookies	-10.3166
▁leading	-10.3168
▁ordered	-10.3169
▁sau	-10.3173
sman	-10.3183
▁concentrat	-10.3199
▁ste	-10.3199
▁led	-10.32
mer	-10.3225
▁feelin	-10.323
▁bake	-10.3231
▁nights	-10.3247
mon	-10.325
▁landing	-10.3252
▁fr	-10.327
day	-10.3277
▁advise	-10.3283
gh	-10.3288
▁pad	-10.3296
ain	-10.3347
▁wrap	-10.3369
▁limit	-10.3372
▁shove	-10.3375
▁require	-10.3388
gy	-10.3391
ied	-10.3401
eek	-10.3412
▁height	-10.3412
▁yii	-10.3416
▁bark	-10.3452
▁them	-10.3454
▁stranger	-10.3469
▁tri	-10.347
ache	-10.3479
▁carl	-10.3493
▁cor	-10.352
ont	-10.3538
▁depend	-10.3552
▁wh	-10.3564
▁mon	-10.3568
▁gran	-10.3585
rag	-10.3585
▁embarrass	-10.3593
▁respond	-10.3593
▁distract	-10.3605
▁disturb	-10.3609
▁ki	-10.3609
▁wreck	-10.3609
▁abandon	-10.361
▁gar	-10.3622
▁activate	-10.3623
found	-10.3626
around	-10.3627
fire	-10.3627
▁ended	-10.3639
▁dang	-10.3639
▁complain	-10.364
▁drag	-10.3643
▁confess	-10.3647
five	-10.3649
▁represent	-10.3651
▁develop	-10.3651
▁devon	-10.3651
▁beneath	-10.3651
▁border	-10.3651
▁disgrace	-10.3651
▁enchant	-10.3651
▁expedition	-10.3651
▁explanation	-10.3651
▁explosion	-10.3651
▁explosiveskull	-10.3651
▁florida	-10.3651
▁ghost	-10.3651
▁gorilla	-10.3651
▁greek	-10.3651
▁grissom	-10.3651
▁hilarious	-10.3651
▁hogwarts	-10.3651
▁holiday	-10.3651
▁ireland	-10.3651
▁italian	-10.3651
▁kowalskl	-10.3651
▁lucius	-10.3651
▁myrna	-10.3651
▁nuclear	-10.3651
▁offense	-10.3651
▁procedure	-10.3651
▁prophecy	-10.3651
▁proposal	-10.3651
▁raspberry	-10.3651
▁rehearsal	-10.3651
▁rizzio	-10.3651
▁satisfied	-10.3651
▁several	-10.3651
▁shepard	-10.3651
▁socrates	-10.3651
▁surgery	-10.3651
▁sybbie	-10.3651
▁traffic	-10.3651
▁tranquil	-10.3651
▁trunk	-10.3651
▁tumnus	-10.3651
▁ugarte	-10.3651
▁underneath	-10.3651
▁hazel	-10.3651
▁kadam	-10.3651
▁kamal	-10.3651
▁kgb	-10.3651
▁radar	-10.3651
▁appeal	-10.3651
▁cherry	-10.3651
▁flesh	-10.3651
▁wailing	-10.3651
▁phase	-10.3651
▁mourn	-10.3651
▁fascinating	-10.3651
▁jaunt	-10.3651
▁cartoon	-10.3651
▁jelly	-10.3651
▁conclusion	-10.3651
▁slay	-10.3651
▁faint	-10.3651
▁wives	-10.3651
▁material	-10.3651
▁ponyboy	-10.3651
▁confident	-10.3651
▁lupe	-10.3652
▁yup	-10.3652
▁roast	-10.3652
▁glorious	-10.3652
▁kidnapped	-10.3652
▁assistance	-10.3652
▁behold	-10.3652
▁squeeze	-10.3652
▁swimming	-10.3652
▁woah	-10.3652
▁pony	-10.3652
▁grogan	-10.3652
▁mouse	-10.3652
▁couch	-10.3653
▁garage	-10.3653
▁fever	-10.3653
▁failure	-10.3653
▁exhausted	-10.3653
▁roam	-10.3653
▁hustle	-10.3653
▁mask	-10.3653
▁accidentally	-10.3653
▁comment	-10.3654
▁bronx	-10.3654
▁wore	-10.3654
▁jabberwocky	-10.3654
▁humor	-10.3654
▁available	-10.3654
▁swish	-10.3654
▁sentence	-10.3655
▁sack	-10.3655
▁cries	-10.3655
▁barton	-10.3656
▁unload	-10.3656
▁potatoes	-10.3656
▁spin	-10.3656
▁chess	-10.3656
▁jackjack	-10.3656
▁twp	-10.3657
▁yukie	-10.3657
▁dating	-10.3658
▁santa	-10.3658
▁trim	-10.3658
▁bas	-10.3658
▁slide	-10.3659
▁wide	-10.366
▁trapped	-10.366
▁tuna	-10.3661
▁trial	-10.3661
▁bates	-10.3662
▁bedtime	-10.3662
▁applauding	-10.3662
▁aid	-10.3663
▁bored	-10.3665
▁unfortunately	-10.3665
▁manager	-10.3668
▁surrounded	-10.3669
▁eeri	-10.3669
▁recipe	-10.367
▁stepped	-10.367
▁shrieking	-10.3671
▁officially	-10.3672
▁drum	-10.3672
▁cutter	-10.3674
istic	-10.3675
▁bitter	-10.3679
▁howling	-10.3681
▁creaking	-10.3684
▁whooping	-10.3688
▁kneel	-10.3692
▁walter	-10.3692
▁stinker	-10.3693
▁cosm	-10.3693
▁honking	-10.3694
▁lands	-10.3698
▁mustnt	-10.3705
▁delivered	-10.3709
▁sid	-10.371
▁elephants	-10.3713
ham	-10.372
jo	-10.3736
▁cupcakes	-10.3737
▁based	-10.3744
▁fin	-10.3757
▁meows	-10.3757
▁reasons	-10.3757
▁taff	-10.3765
▁wy	-10.3766
▁painful	-10.3772
how	-10.3773
▁weirdo	-10.3773
▁burned	-10.3776
house	-10.3777
▁that	-10.3782
▁fond	-10.3802
▁gu	-10.3809
▁palm	-10.3811
▁farmer	-10.3811
▁wipe	-10.3821
ically	-10.3832
▁gettin	-10.3835
▁pretending	-10.3836
▁bu	-10.3847
▁shown	-10.3849
▁politics	-10.3853
▁imagined	-10.3863
▁rely	-10.3874
ata	-10.3885
▁moons	-10.3915
bell	-10.3918
cal	-10.3937
▁butts	-10.395
ened	-10.3953
▁wondered	-10.3954
▁jo	-10.397
▁protecting	-10.3975
▁jumped	-10.4005
▁useful	-10.4007
▁dec	-10.4034
pal	-10.4036
fa	-10.4042
▁local	-10.4057
▁inc	-10.407
▁flow	-10.4074
▁villager	-10.4076
▁par	-10.408
▁hugs	-10.4098
▁waves	-10.4102
▁ants	-10.4105
▁members	-10.4107
▁tastes	-10.4107
ung	-10.4115
▁rhythm	-10.4116
▁image	-10.4118
▁bug	-10.4127
▁nu	-10.4135
▁mal	-10.4136
▁oo	-10.4145
▁guns	-10.415
gging	-10.4156
▁fans	-10.4173
▁workers	-10.4181
▁sigh	-10.4181
▁hal	-10.4183
▁chips	-10.4185
well	-10.4201
▁shout	-10.4204
▁admire	-10.4207
▁tor	-10.4215
▁pea	-10.4224
▁richards	-10.4225
▁rooms	-10.4234
▁autobot	-10.4244
▁expert	-10.4245
▁cloud	-10.4245
▁result	-10.4247
▁hits	-10.4249
▁term	-10.4252
▁che	-10.4263
▁realise	-10.4268
▁non	-10.4284
▁sons	-10.4307
rk	-10.4326
ola	-10.4334
▁toy	-10.4335
zz	-10.4339
tch	-10.435
▁steps	-10.437
▁horns	-10.4379
▁gala	-10.4414
ative	-10.4423
▁sneak	-10.4427
▁eats	-10.4428
▁crawl	-10.443
▁buzz	-10.443
mate	-10.4437
▁weep	-10.4437
▁checking	-10.4438
▁bik	-10.4438
▁possess	-10.4439
▁thoughts	-10.4439
▁insist	-10.4442
▁snakes	-10.4444
▁lame	-10.4453
▁earn	-10.4458
break	-10.446
born	-10.4462
▁fift	-10.4466
▁physical	-10.4466
▁hung	-10.4468
▁numbers	-10.4475
▁superhero	-10.4476
▁lovin	-10.448
▁webs	-10.4482
▁meteor	-10.4484
▁supply	-10.4484
▁abraham	-10.4484
▁bagheera	-10.4484
▁benedict	-10.4484
▁blubbering	-10.4484
▁bonjour	-10.4484
▁brundon	-10.4484
▁buchanan	-10.4484
▁circus	-10.4484
▁cottage	-10.4484
▁cotwell	-10.4484
▁crisis	-10.4484
▁discipline	-10.4484
▁easily	-10.4484
▁eduardo	-10.4484
▁execute	-10.4484
▁explosive	-10.4484
▁fantasy	-10.4484
▁footsteps	-10.4484
▁furniture	-10.4484
▁gryffindor	-10.4484
▁humberfloob	-10.4484
▁jennings	-10.4484
▁kamiyah	-10.4484
▁liberty	-10.4484
▁lucille	-10.4484
▁luggage	-10.4484
▁mademoiselle	-10.4484
▁magnus	-10.4484
▁merino	-10.4484
▁montmirail	-10.4484
▁orleans	-10.4484
▁period	-10.4484
▁persuade	-10.4484
▁piranha	-10.4484
▁pittsburgh	-10.4484
▁repair	-10.4484
▁scavenger	-10.4484
▁shrimp	-10.4484
▁smoking	-10.4484
▁stella	-10.4484
▁stroke	-10.4484
▁struck	-10.4484
▁surrender	-10.4484
▁survival	-10.4484
▁tragedy	-10.4484
▁ultra	-10.4484
▁unfair	-10.4484
▁victim	-10.4484
▁whistling	-10.4484
▁bacon	-10.4484
▁cancer	-10.4484
▁conceal	-10.4484
▁farewell	-10.4484
▁reckon	-10.4484
▁shift	-10.4484
▁superior	-10.4484
▁vilna	-10.4484
▁wrist	-10.4484
▁yacht	-10.4484
▁angus	-10.4484
▁kelly	-10.4484
▁starving	-10.4484
▁lewis	-10.4484
▁mandible	-10.4484
▁ethel	-10.4485
▁prospect	-10.4485
▁sunset	-10.4485
▁patience	-10.4485
▁hurrah	-10.4485
▁rivers	-10.4485
▁summon	-10.4485
▁urgent	-10.4485
▁gallant	-10.4485
▁craft	-10.4485
▁cheap	-10.4485
▁woke	-10.4485
▁medium	-10.4485
▁miserable	-10.4485
▁argh	-10.4485
▁medicine	-10.4485
▁sentimental	-10.4486
▁incoming	-10.4486
▁conduct	-10.4486
▁junior	-10.4486
▁massive	-10.4486
▁mild	-10.4486
▁trans	-10.4486
▁parrot	-10.4486
▁commitment	-10.4486
▁performance	-10.4486
▁lemon	-10.4487
▁merrily	-10.4487
▁garry	-10.4487
▁detective	-10.4487
▁western	-10.4487
▁archie	-10.4487
▁spoon	-10.4487
▁margo	-10.4487
▁loan	-10.4487
▁edge	-10.4487
▁guapo	-10.4488
▁sensitive	-10.4488
▁elite	-10.4488
▁begun	-10.4488
▁stake	-10.4488
▁fuse	-10.4488
▁grip	-10.4488
▁barnes	-10.4489
▁grass	-10.449
▁beef	-10.4491
▁jibe	-10.4491
▁dings	-10.4491
▁alike	-10.4492
▁discussion	-10.4495
▁poochy	-10.4496
▁teen	-10.4498
▁lamp	-10.4499
▁cage	-10.4501
▁squealing	-10.4502
▁cutting	-10.4502
▁ability	-10.4503
▁toss	-10.4503
▁vers	-10.4504
▁pear	-10.4504
▁nun	-10.4505
▁tina	-10.4505
▁alter	-10.4506
▁goodnight	-10.4507
▁threaten	-10.4507
boy	-10.4511
▁auto	-10.4511
▁wholl	-10.4513
▁required	-10.4515
▁sidekicks	-10.4516
▁creepy	-10.4517
▁bah	-10.4518
▁carson	-10.4519
▁erie	-10.4519
▁drowned	-10.452
▁pm	-10.452
▁mount	-10.4521
▁informed	-10.4522
▁naturally	-10.4522
▁lung	-10.4523
▁kisses	-10.4533
▁coughs	-10.4537
gue	-10.4543
▁buildings	-10.4545
▁highest	-10.4548
▁somethings	-10.4548
▁straighten	-10.4549
▁clicking	-10.4551
▁cock	-10.4552
▁busted	-10.4558
▁touches	-10.4558
▁dope	-10.4561
▁chart	-10.4566
▁this	-10.4566
▁charges	-10.4578
▁tada	-10.4581
▁nation	-10.4582
▁requested	-10.4583
▁vet	-10.4598
▁banging	-10.4603
▁rate	-10.4606
▁planes	-10.4612
▁stu	-10.4624
▁feeding	-10.4632
▁dep	-10.4636
▁diamonds	-10.4642
▁bugg	-10.4675
▁apples	-10.4685
▁nap	-10.47
use	-10.4706
▁attacked	-10.4706
read	-10.4708
▁helpless	-10.4711
▁tend	-10.4712
▁carrying	-10.4715
▁dies	-10.4717
▁terms	-10.4726
▁mustve	-10.4727
nch	-10.4731
▁grows	-10.4734
▁mach	-10.4762
ery	-10.4765
▁product	-10.477
▁cho	-10.4776
▁joined	-10.4781
▁les	-10.4781
▁squeaks	-10.479
▁landed	-10.4809
▁bid	-10.4814
▁sucks	-10.4814
▁blowing	-10.4815
▁qua	-10.4824
▁talkin	-10.4835
▁object	-10.4845
rous	-10.4847
▁fund	-10.4877
▁diet	-10.4879
ron	-10.488
▁fully	-10.4881
▁finds	-10.4882
▁ships	-10.4892
▁host	-10.4896
▁suits	-10.4912
og	-10.4917
▁pockets	-10.4917
▁cows	-10.492
▁ban	-10.4925
berg	-10.4926
▁sm	-10.4932
▁senses	-10.4933
▁br	-10.4933
ome	-10.4942
▁at	-10.4948
▁mistakes	-10.4954
▁conditions	-10.496
vida	-10.4984
iers	-10.4985
▁brow	-10.4987
▁jacobs	-10.4996
▁shirts	-10.5011
▁whip	-10.5028
▁rob	-10.5043
▁moments	-10.5049
▁dolphins	-10.5054
iki	-10.5055
▁kindly	-10.5067
▁turner	-10.5078
▁lava	-10.5092
▁root	-10.5098
▁tan	-10.51
▁surprises	-10.5102
looking	-10.5114
▁ce	-10.5123
bj	-10.5128
▁rileys	-10.5141
▁shield	-10.5151
▁pigeon	-10.5151
▁nazi	-10.5153
▁william	-10.5155
▁exists	-10.5155
▁passion	-10.5156
▁politic	-10.5158
▁pirate	-10.5161
▁understanding	-10.5162
▁luca	-10.5166
▁lip	-10.5173
hel	-10.5174
▁gut	-10.5182
▁badly	-10.519
▁fade	-10.519
za	-10.5191
▁here	-10.5197
▁birdies	-10.5203
▁ln	-10.5214
ney	-10.5277
▁theo	-10.5292
▁strap	-10.5302
▁soc	-10.5311
ette	-10.5314
▁discover	-10.5329
▁smith	-10.5341
▁ke	-10.5343
▁gifts	-10.5344
▁preach	-10.5346
low	-10.5349
▁defeat	-10.535
▁inform	-10.535
▁swallow	-10.5351
▁whee	-10.5357
▁mix	-10.5361
▁origin	-10.5363
hood	-10.5365
jack	-10.5365
▁refuse	-10.5366
q	-10.5367
wood	-10.5368
▁threat	-10.5369
villain	-10.5369
free	-10.537
mouth	-10.537
▁grannys	-10.5373
▁dreadful	-10.5375
▁unfortunate	-10.5377
▁recent	-10.5377
▁obvious	-10.5377
▁absolute	-10.5377
▁engines	-10.5379
▁solve	-10.538
▁speaker	-10.5388
▁mornin	-10.5388
▁chose	-10.539
▁affect	-10.539
▁champ	-10.5391
▁favour	-10.5393
▁temper	-10.5393
▁hawaii	-10.5393
▁neigh	-10.5393
▁widow	-10.5393
▁absolem	-10.5393
▁aircraft	-10.5393
▁alvarez	-10.5393
▁anneclaire	-10.5393
▁appointment	-10.5393
▁approve	-10.5393
▁aragog	-10.5393
▁arriving	-10.5393
▁attorney	-10.5393
▁barnacle	-10.5393
▁cafeteria	-10.5393
▁cassie	-10.5393
▁charlotte	-10.5393
▁chubby	-10.5393
▁concert	-10.5393
▁cricket	-10.5393
▁culture	-10.5393
▁deposit	-10.5393
▁diagusta	-10.5393
▁extend	-10.5393
▁fountain	-10.5393
▁gracious	-10.5393
▁increase	-10.5393
▁individual	-10.5393
▁jeepers	-10.5393
▁kananga	-10.5393
▁lobster	-10.5393
▁monitor	-10.5393
▁mushroom	-10.5393
▁pregnant	-10.5393
▁privacy	-10.5393
▁rainbow	-10.5393
▁reserve	-10.5393
▁reynolds	-10.5393
▁sequence	-10.5393
▁snorts	-10.5393
▁suicide	-10.5393
▁swift	-10.5393
▁ultimate	-10.5393
▁uniform	-10.5393
▁voldemort	-10.5393
▁wardrobe	-10.5393
▁whitaker	-10.5393
▁whitmore	-10.5393
▁centre	-10.5394
▁contain	-10.5394
▁corporal	-10.5394
▁declan	-10.5394
▁display	-10.5394
▁distinguished	-10.5394
▁molesley	-10.5394
▁agnes	-10.5394
▁article	-10.5394
▁cotton	-10.5394
▁diaper	-10.5394
▁personnel	-10.5394
▁ponies	-10.5394
▁thug	-10.5394
▁carpet	-10.5394
▁elinor	-10.5394
▁hunk	-10.5394
▁wilderness	-10.5394
▁application	-10.5394
▁ellie	-10.5394
▁francs	-10.5394
▁center	-10.5394
▁foyt	-10.5394
▁beloved	-10.5394
▁uhuh	-10.5394
▁puff	-10.5394
▁series	-10.5394
▁yawns	-10.5394
▁fixerupper	-10.5394
▁herb	-10.5394
▁donald	-10.5394
▁crims	-10.5394
▁slept	-10.5394
▁education	-10.5394
▁accus	-10.5394
▁herr	-10.5394
▁attic	-10.5394
▁referee	-10.5394
▁stomp	-10.5394
▁moral	-10.5394
▁quack	-10.5394
▁tribe	-10.5394
▁hooray	-10.5395
▁gordo	-10.5395
▁purse	-10.5395
▁replacement	-10.5395
▁beaver	-10.5395
▁rising	-10.5395
▁rotten	-10.5395
▁ladder	-10.5395
▁rustling	-10.5395
▁punish	-10.5396
▁capital	-10.5396
▁cliff	-10.5396
▁hotrod	-10.5396
▁tooth	-10.5396
▁wagon	-10.5396
▁fanny	-10.5396
▁starboard	-10.5396
▁soap	-10.5396
▁armour	-10.5397
▁punk	-10.5397
▁shaking	-10.5397
▁changing	-10.5397
▁lenny	-10.5397
▁touchdown	-10.5398
▁basic	-10.5398
▁steele	-10.5399
▁marvin	-10.54
▁heist	-10.54
▁elster	-10.54
▁caf	-10.5401
▁snickering	-10.5402
▁shiny	-10.5403
ppy	-10.5404
▁awesomeness	-10.5405
▁alley	-10.5405
▁honorable	-10.5405
▁captured	-10.5405
▁dreaming	-10.5405
▁treatment	-10.5407
▁secretary	-10.5407
▁employer	-10.5407
▁confused	-10.5407
▁halfway	-10.5408
▁lean	-10.5408
▁noon	-10.5408
sky	-10.5409
▁missile	-10.541
▁gig	-10.541
▁bout	-10.5411
▁reasonable	-10.5415
▁apply	-10.5416
▁brush	-10.542
▁fifty	-10.542
▁stopping	-10.5421
▁warner	-10.5421
▁fog	-10.5422
▁hitting	-10.5423
▁kin	-10.5423
▁directly	-10.5424
▁vor	-10.5424
▁mole	-10.5425
▁restore	-10.5428
▁tray	-10.543
▁showtime	-10.5432
▁tinker	-10.5436
▁roy	-10.5439
▁core	-10.5439
▁label	-10.5441
▁unable	-10.5448
▁hail	-10.5449
▁freaky	-10.545
▁designed	-10.5451
▁hired	-10.5451
▁goodlooking	-10.5452
▁ruby	-10.5453
▁lane	-10.5454
▁delay	-10.5455
▁warned	-10.5464
▁kindness	-10.5469
▁samples	-10.5475
▁tro	-10.5475
▁dan	-10.5478
▁suffering	-10.5481
here	-10.5482
▁scan	-10.5483
▁pump	-10.549
▁boats	-10.55
▁sled	-10.5509
▁tis	-10.5512
▁escaped	-10.5514
▁lend	-10.5515
▁marching	-10.5518
▁aliens	-10.552
▁hum	-10.5528
▁armed	-10.5544
doo	-10.5552
▁joint	-10.5556
▁browns	-10.5557
▁lovers	-10.5564
▁servants	-10.5566
▁greater	-10.5571
▁crashing	-10.5571
▁climbing	-10.5573
▁cav	-10.5577
base	-10.5579
ash	-10.558
▁treated	-10.5582
des	-10.5598
▁cello	-10.5602
▁frogs	-10.5613
ult	-10.5615
▁mc	-10.5627
▁socs	-10.5634
▁houses	-10.5663
▁snowing	-10.5685
▁hates	-10.5689
▁grounded	-10.5704
▁bettermans	-10.5706
▁clicks	-10.5708
▁ram	-10.5712
▁comp	-10.5739
▁spits	-10.574
▁subs	-10.5745
▁toes	-10.5782
▁spa	-10.5793
▁gag	-10.5794
▁stinks	-10.5802
▁ter	-10.5813
cus	-10.5816
▁chat	-10.5823
rid	-10.5829
▁joining	-10.5835
▁pops	-10.5835
lies	-10.5843
▁parts	-10.5857
▁musical	-10.5866
▁disguise	-10.5891
▁mic	-10.5893
ix	-10.5916
▁bra	-10.5931
▁figures	-10.5937
ast	-10.5942
▁jumping	-10.5971
▁lee	-10.5971
▁jed	-10.5997
▁agents	-10.6013
zero	-10.6028
boo	-10.6039
▁whi	-10.6047
▁thinkin	-10.606
▁everyones	-10.6077
▁stands	-10.6095
▁pound	-10.6104
▁breaks	-10.612
▁arts	-10.6136
▁dreamed	-10.6137
▁sire	-10.614
▁helpful	-10.6141
▁catching	-10.6158
▁frog	-10.6158
▁bubble	-10.6161
▁passenger	-10.6161
▁detail	-10.6164
▁toward	-10.6164
▁pun	-10.6165
▁apple	-10.617
▁jacket	-10.6201
▁spirits	-10.6204
▁bone	-10.6207
olly	-10.6209
▁hated	-10.6232
nned	-10.6271
▁tick	-10.6275
▁am	-10.6277
▁drown	-10.6296
▁delight	-10.6314
tri	-10.6316
▁honk	-10.6319
▁cal	-10.6327
▁worship	-10.6343
▁por	-10.6344
▁ace	-10.6347
▁impress	-10.6348
▁obey	-10.6349
ker	-10.6352
▁tink	-10.6354
met	-10.636
▁eva	-10.6361
field	-10.6366
▁convince	-10.6366
load	-10.6366
jimmy	-10.6369
▁provide	-10.6369
wife	-10.6371
▁custom	-10.6372
town	-10.6373
▁doom	-10.6373
wise	-10.6376
kill	-10.6378
ible	-10.6378
what	-10.6386
owee	-10.6389
▁aaah	-10.6389
this	-10.6389
izing	-10.6391
▁kidnap	-10.6392
▁wiz	-10.6392
▁perform	-10.6392
hole	-10.6393
ternal	-10.6393
ology	-10.6393
▁sylv	-10.6393
▁academy	-10.6393
▁accent	-10.6393
▁amulet	-10.6393
▁arrival	-10.6393
▁aspirin	-10.6393
▁baxter	-10.6393
▁beware	-10.6393
▁breeze	-10.6393
▁buff	-10.6393
▁bullshit	-10.6393
▁butterflies	-10.6393
▁carpenter	-10.6393
▁catherine	-10.6393
▁century	-10.6393
▁ceremony	-10.6393
▁clucking	-10.6393
▁coincidence	-10.6393
▁dempsey	-10.6393
▁dessert	-10.6393
▁dozen	-10.6393
▁dwayne	-10.6393
▁dynamite	-10.6393
▁einstein	-10.6393
▁enormous	-10.6393
▁eventually	-10.6393
▁fabulous	-10.6393
▁fortress	-10.6393
▁glacier	-10.6393
▁groom	-10.6393
▁ignacio	-10.6393
▁insectopia	-10.6393
▁interfere	-10.6393
▁jewellery	-10.6393
▁judgment	-10.6393
▁judith	-10.6393
▁lecture	-10.6393
▁lockhart	-10.6393
▁malfoy	-10.6393
▁maureen	-10.6393
▁mcgonagall	-10.6393
▁moneypenny	-10.6393
▁monique	-10.6393
▁myrtle	-10.6393
▁nefario	-10.6393
▁orlando	-10.6393
▁pacific	-10.6393
▁pellet	-10.6393
▁policy	-10.6393
▁principle	-10.6393
▁proffitt	-10.6393
▁progress	-10.6393
▁promotion	-10.6393
▁receipt	-10.6393
▁recommend	-10.6393
▁reindeer	-10.6393
▁sensor	-10.6393
▁serving	-10.6393
▁shelby	-10.6393
▁sniper	-10.6393
▁studio	-10.6393
▁sussex	-10.6393
▁swamp	-10.6393
▁syndrome	-10.6393
▁thanksgiving	-10.6393
▁turkey	-10.6393
▁underground	-10.6393
▁underwear	-10.6393
▁valiente	-10.6393
▁vulcan	-10.6393
▁wednesday	-10.6393
▁whinnies	-10.6393
▁jersey	-10.6393
▁orchestra	-10.6393
▁practicing	-10.6393
▁register	-10.6393
▁wendy	-10.6393
▁whatre	-10.6393
▁sheep	-10.6394
▁shortcut	-10.6394
▁flint	-10.6394
▁herman	-10.6394
▁presence	-10.6394
▁anytime	-10.6394
▁deaf	-10.6394
▁excellenc	-10.6394
▁limb	-10.6394
ssica	-10.6394
▁facing	-10.6394
▁hollywood	-10.6394
▁mermaid	-10.6394
▁angle	-10.6394
▁convention	-10.6394
▁mammals	-10.6394
▁ankle	-10.6394
▁fuzz	-10.6394
▁goblins	-10.6394
▁federation	-10.6394
▁stress	-10.6394
▁kirk	-10.6394
▁fading	-10.6394
▁oogie	-10.6394
▁cents	-10.6394
▁transport	-10.6394
▁gavin	-10.6394
▁mumbling	-10.6394
▁function	-10.6394
▁buried	-10.6394
▁powder	-10.6394
▁lilies	-10.6394
▁booboo	-10.6394
▁severe	-10.6394
▁prank	-10.6394
▁automatic	-10.6394
▁outrageous	-10.6395
▁cardiff	-10.6395
▁rubber	-10.6395
▁assignment	-10.6395
▁towel	-10.6395
▁salad	-10.6395
▁flew	-10.6395
▁elevator	-10.6395
▁porch	-10.6395
▁eleven	-10.6395
▁brace	-10.6395
▁location	-10.6395
▁quote	-10.6395
▁denver	-10.6395
▁vega	-10.6395
▁harmony	-10.6395
▁moron	-10.6395
▁lousy	-10.6395
▁daffy	-10.6395
▁recover	-10.6395
▁cancelled	-10.6395
▁backwards	-10.6395
▁sledge	-10.6396
▁jolly	-10.6396
▁nick	-10.6396
▁acid	-10.6396
▁average	-10.6396
▁poem	-10.6397
▁darry	-10.6397
▁ciao	-10.6397
▁affection	-10.6397
▁text	-10.6397
▁strategy	-10.6397
▁puddle	-10.6398
▁marc	-10.6398
▁dodge	-10.6398
▁potty	-10.6398
▁hamish	-10.6399
▁drill	-10.6399
helm	-10.64
▁chum	-10.64
▁wig	-10.64
▁emotional	-10.6401
▁collection	-10.6401
▁gigantor	-10.6402
▁whim	-10.6402
▁scully	-10.6402
▁announcement	-10.6402
▁flies	-10.6402
▁sharing	-10.6403
erald	-10.6403
▁squawking	-10.6403
▁thirsty	-10.6403
▁magician	-10.6403
▁coos	-10.6404
▁injured	-10.6404
▁fame	-10.6405
▁philosophy	-10.6405
▁bullet	-10.6405
▁owns	-10.6406
▁suggestion	-10.6406
▁slightly	-10.6407
▁scarf	-10.6407
▁shave	-10.6407
▁coordinates	-10.6408
▁classical	-10.6408
▁trilling	-10.6408
▁bowers	-10.6409
cho	-10.641
▁highway	-10.641
▁anthe	-10.6411
▁rank	-10.6419
▁convinced	-10.6421
▁nono	-10.6423
tec	-10.6423
▁clattering	-10.6426
▁role	-10.6426
▁erin	-10.6426
▁healthy	-10.6429
▁holes	-10.6429
▁spiders	-10.6432
▁gulps	-10.6433
▁gruber	-10.6434
▁thee	-10.6435
▁tingle	-10.6435
▁range	-10.6438
▁bury	-10.644
▁midge	-10.6443
▁frankly	-10.6445
▁louie	-10.6446
▁disturbed	-10.6448
▁bros	-10.6448
▁ticking	-10.645
▁floating	-10.6452
▁limited	-10.6453
zy	-10.6453
▁sharply	-10.6454
▁factor	-10.6454
▁affairs	-10.6458
▁luydens	-10.6458
▁rage	-10.6459
▁sighing	-10.6463
▁separated	-10.6463
▁sucked	-10.6463
▁mustard	-10.6465
point	-10.6468
▁messages	-10.6472
▁flap	-10.6472
▁archery	-10.6473
▁consequences	-10.6483
▁dal	-10.6484
▁putter	-10.6491
▁louder	-10.6491
tom	-10.6501
▁shy	-10.6504
▁bush	-10.6511
eth	-10.6512
▁dudes	-10.6514
▁gonga	-10.6515
▁robb	-10.6524
▁not	-10.6525
▁smarter	-10.6528
▁float	-10.6536
ical	-10.6541
▁defect	-10.6544
▁giants	-10.6545
▁ob	-10.6548
▁nd	-10.6549
▁pas	-10.655
▁rum	-10.6553
▁considered	-10.6554
tory	-10.6555
▁tools	-10.656
▁hearing	-10.6567
▁fights	-10.657
▁worthy	-10.6581
▁stutters	-10.6586
▁worms	-10.6586
▁arrangements	-10.6586
▁minds	-10.662
▁writer	-10.662
▁kida	-10.663
▁my	-10.6649
▁vari	-10.6649
▁mayor	-10.6651
▁flu	-10.6662
cap	-10.6671
▁pushed	-10.6675
▁stab	-10.6675
▁ren	-10.6676
▁mayo	-10.6682
▁results	-10.6689
ations	-10.6692
▁dent	-10.6693
▁depends	-10.6698
▁answered	-10.6712
ual	-10.6714
▁kissed	-10.6715
▁limits	-10.6716
▁flights	-10.6719
▁enjoyed	-10.6724
ised	-10.6728
▁cleaned	-10.6748
▁knocked	-10.6764
ified	-10.6765
▁maria	-10.6768
▁cra	-10.6771
▁warmer	-10.6796
▁hare	-10.6796
▁holdin	-10.6798
▁marrying	-10.6809
▁hom	-10.686
ji	-10.6863
▁losers	-10.6875
han	-10.6877
▁gen	-10.689
▁ge	-10.6891
▁thud	-10.6891
▁files	-10.6897
rin	-10.6922
▁ooo	-10.6937
▁mop	-10.6939
uch	-10.6943
tric	-10.6949
▁ahhh	-10.6969
▁films	-10.6977
▁dip	-10.6992
▁trusted	-10.6997
▁bounc	-10.7001
▁criminals	-10.7003
▁shoots	-10.7014
▁recording	-10.702
ration	-10.7032
▁arc	-10.7052
ore	-10.7054
▁patients	-10.7082
▁crystals	-10.7083
▁dime	-10.7086
▁ol	-10.7086
▁gri	-10.7118
▁boos	-10.7124
▁decides	-10.7138
▁paws	-10.7138
▁labor	-10.7156
▁queens	-10.7163
ison	-10.7185
▁remains	-10.7208
▁sniff	-10.722
▁groan	-10.7223
▁roar	-10.7227
▁plug	-10.7241
▁tire	-10.7246
more	-10.7256
▁grounds	-10.7256
ane	-10.7258
▁occasion	-10.7261
▁neighbor	-10.7261
▁companion	-10.7267
▁brake	-10.7274
▁lit	-10.7276
▁imitat	-10.7287
▁greeting	-10.7294
ability	-10.7301
▁hundreds	-10.7324
▁tar	-10.7336
▁una	-10.7339
▁natures	-10.7351
▁hunter	-10.737
▁ana	-10.7383
▁slap	-10.7386
tting	-10.7388
▁glob	-10.7443
▁melt	-10.7443
▁flood	-10.7446
▁tralalaaa	-10.7448
▁disgust	-10.745
▁approach	-10.7451
▁idiots	-10.746
▁walks	-10.7471
▁tralala	-10.7471
ray	-10.7475
foot	-10.7478
guard	-10.748
bird	-10.748
school	-10.7481
ina	-10.7484
box	-10.7486
turn	-10.7488
▁merc	-10.749
▁era	-10.7493
four	-10.7493
face	-10.7494
▁tempt	-10.7498
▁refer	-10.7503
▁inqui	-10.7504
▁octopus	-10.7504
▁appropriate	-10.7505
▁constant	-10.7505
▁evacuate	-10.7505
▁genuine	-10.7505
▁hysterical	-10.7505
▁previous	-10.7505
▁unexpected	-10.7505
▁acquaintance	-10.7505
▁agency	-10.7505
▁ahtohallan	-10.7505
▁anniversary	-10.7505
▁apology	-10.7505
▁arguing	-10.7505
▁atlantic	-10.7505
▁autograph	-10.7505
▁background	-10.7505
▁basilisk	-10.7505
▁beuler	-10.7505
▁bicycle	-10.7505
▁bullfight	-10.7505
▁cabbage	-10.7505
▁carnahan	-10.7505
▁casserole	-10.7505
▁cathedral	-10.7505
▁chicago	-10.7505
▁claire	-10.7505
▁community	-10.7505
▁complex	-10.7505
▁coronation	-10.7505
▁council	-10.7505
▁counsel	-10.7505
▁cuisine	-10.7505
▁cynthia	-10.7505
▁dingdong	-10.7505
▁division	-10.7505
▁dunno	-10.7505
▁empire	-10.7505
▁eternity	-10.7505
▁ferguson	-10.7505
▁figaro	-10.7505
▁formuler	-10.7505
▁godmother	-10.7505
▁grandmother	-10.7505
▁happier	-10.7505
▁hyatt	-10.7505
▁install	-10.7505
▁intense	-10.7505
▁international	-10.7505
▁juvenile	-10.7505
▁kahmunrah	-10.7505
▁kennedy	-10.7505
▁lamlam	-10.7505
▁laundry	-10.7505
▁limousine	-10.7505
▁lollipop	-10.7505
▁mandrake	-10.7505
▁mexico	-10.7505
▁mississippi	-10.7505
▁monarch	-10.7505
▁motorcycle	-10.7505
▁noodle	-10.7505
▁northuldra	-10.7505
▁occupation	-10.7505
▁pendelton	-10.7505
▁purchase	-10.7505
▁purple	-10.7505
▁revolution	-10.7505
▁routine	-10.7505
▁sebastian	-10.7505
▁spike	-10.7505
▁steak	-10.7505
▁stubborn	-10.7505
▁teeam	-10.7505
▁texas	-10.7505
▁turbo	-10.7505
▁twelve	-10.7505
▁unleash	-10.7505
▁vessel	-10.7505
▁xhosa	-10.7505
▁aaron	-10.7505
▁akela	-10.7505
▁anderson	-10.7505
▁bargain	-10.7505
▁berlin	-10.7505
▁cocoa	-10.7505
▁eliot	-10.7505
▁envy	-10.7505
▁escort	-10.7505
▁galaxy	-10.7505
▁gleam	-10.7505
▁oyster	-10.7505
▁rebel	-10.7505
▁blaring	-10.7505
▁canyon	-10.7505
▁epic	-10.7505
▁horror	-10.7505
▁karl	-10.7505
▁anchor	-10.7505
▁canoe	-10.7505
▁leaf	-10.7505
▁scandal	-10.7505
▁eema	-10.7505
▁reich	-10.7505
▁yoohoo	-10.7505
▁adele	-10.7505
▁miniature	-10.7505
▁rood	-10.7505
▁divid	-10.7505
▁antarctic	-10.7505
▁qualifications	-10.7505
▁boston	-10.7505
▁strict	-10.7505
▁pursuit	-10.7505
▁lashly	-10.7505
▁brutal	-10.7505
▁rodrick	-10.7505
ghorn	-10.7505
▁generous	-10.7505
▁worid	-10.7505
ygen	-10.7505
▁gunshot	-10.7505
▁orphanage	-10.7505
▁profit	-10.7505
▁specific	-10.7505
▁favourite	-10.7505
▁flipping	-10.7505
▁gagging	-10.7505
▁fisherman	-10.7505
▁marvelous	-10.7505
▁feature	-10.7505
▁ahoy	-10.7505
▁shrink	-10.7505
▁amuse	-10.7505
▁hammer	-10.7506
▁whys	-10.7506
▁psst	-10.7506
▁instance	-10.7506
▁institution	-10.7506
▁daisy	-10.7506
▁lump	-10.7506
▁hissing	-10.7506
▁slipped	-10.7506
▁paperwork	-10.7506
▁babysitter	-10.7506
▁rodent	-10.7506
▁superpower	-10.7507
▁chaos	-10.7507
▁piggy	-10.7507
▁downton	-10.7507
▁spitz	-10.7507
▁augustus	-10.7507
▁faun	-10.7507
▁hostage	-10.7507
▁frost	-10.7507
▁depth	-10.7507
▁kenton	-10.7507
▁flynn	-10.7508
▁overboard	-10.7508
▁mature	-10.7508
▁ditch	-10.7508
▁dino	-10.7509
▁appearance	-10.7509
▁drain	-10.7509
▁boca	-10.7509
▁version	-10.7509
▁jaw	-10.7509
▁bink	-10.751
▁distraction	-10.751
▁fuss	-10.751
▁ou	-10.751
▁bench	-10.7511
▁minus	-10.7511
▁kwan	-10.7511
▁weakness	-10.7511
▁eyeball	-10.7511
▁dull	-10.7512
▁dummy	-10.7512
▁linda	-10.7513
▁woof	-10.7513
▁heel	-10.7514
▁fleet	-10.7515
▁bop	-10.7515
▁coverage	-10.7515
▁solo	-10.7515
▁bail	-10.7517
▁juan	-10.7518
▁scale	-10.7518
▁rebuild	-10.7519
▁jab	-10.7519
▁hitler	-10.7519
▁laser	-10.7519
▁replaced	-10.7519
▁dishes	-10.7519
▁bait	-10.752
▁package	-10.752
▁oompaloompas	-10.7521
▁voted	-10.7523
▁suitable	-10.7523
▁tweety	-10.7524
▁adore	-10.7525
▁vice	-10.7527
work	-10.7527
▁dally	-10.7529
hu	-10.7529
▁cabin	-10.753
▁blonde	-10.7531
▁aahh	-10.7532
ddle	-10.7532
▁thus	-10.7533
▁forgetting	-10.7533
▁worthless	-10.7535
▁madness	-10.7535
▁stable	-10.7535
▁attracted	-10.7536
▁pup	-10.7536
▁connected	-10.7537
▁vol	-10.7539
▁brat	-10.7539
▁heroic	-10.7539
▁refused	-10.7539
▁meowing	-10.7542
▁alan	-10.7546
▁carnotaurs	-10.7548
▁lanterns	-10.7548
▁sch	-10.7555
▁stinky	-10.7557
▁itch	-10.7557
▁sore	-10.7559
▁possessed	-10.7561
ulu	-10.7563
▁geek	-10.7563
▁taz	-10.7564
▁abandoned	-10.7566
▁wrecked	-10.7566
▁reality	-10.7571
▁musician	-10.7572
▁fried	-10.7574
▁excitedly	-10.7575
▁ifyou	-10.7577
▁mally	-10.7579
▁tax	-10.7581
▁lifetime	-10.7584
▁dock	-10.7587
▁witches	-10.7588
▁booster	-10.7588
▁driven	-10.759
▁fastest	-10.759
▁managed	-10.7592
▁coin	-10.7598
▁assumed	-10.7598
▁americans	-10.7599
hot	-10.7601
▁huff	-10.7601
▁prey	-10.7602
headed	-10.7606
▁atch	-10.761
▁movement	-10.7613
▁survived	-10.7615
▁poisoned	-10.7615
▁introduced	-10.7616
▁bowling	-10.7623
▁granted	-10.7632
▁greasers	-10.7638
▁rosa	-10.764
▁tricky	-10.7641
▁jen	-10.7642
▁bothered	-10.7645
▁washed	-10.7653
▁shortly	-10.7668
▁climbed	-10.7671
▁shorter	-10.7671
▁antiques	-10.7693
▁sailing	-10.7699
▁breakin	-10.77
▁brad	-10.7717
loss	-10.7725
▁county	-10.7731
▁entering	-10.7741
▁companions	-10.7748
▁comm	-10.7757
▁scaring	-10.7776
▁lass	-10.7782
▁lid	-10.7785
cons	-10.7791
▁cube	-10.7794
▁williams	-10.7808
▁formal	-10.7815
▁clouds	-10.7837
▁experts	-10.7837
▁millions	-10.7845
▁chickens	-10.7845
▁rolled	-10.7859
▁blo	-10.7862
▁heights	-10.7866
▁brownie	-10.7868
▁visiting	-10.7885
▁poke	-10.7886
▁messing	-10.789
▁observ	-10.7917
▁attacking	-10.7917
▁effects	-10.7927
tical	-10.794
▁ward	-10.7948
▁guineas	-10.7954
▁odies	-10.7957
rick	-10.7957
▁packed	-10.797
cott	-10.7976
▁chopp	-10.7977
▁she	-10.8
▁ir	-10.8
▁pala	-10.8003
▁dup	-10.8016
▁sleepy	-10.8022
▁barr	-10.803
▁windows	-10.8041
▁cond	-10.8048
▁bees	-10.8082
rack	-10.8109
▁rod	-10.8114
▁dates	-10.8155
▁freaks	-10.8197
▁hay	-10.8222
▁walt	-10.8233
▁signing	-10.8244
▁wand	-10.8247
▁wink	-10.8251
▁beauforts	-10.8252
▁squirrels	-10.8252
▁lessons	-10.8252
▁costs	-10.8252
▁detect	-10.8264
sized	-10.829
two	-10.8292
▁wheels	-10.8304
ties	-10.8314
▁ag	-10.8363
▁nicely	-10.8379
shed	-10.8385
▁characters	-10.8402
▁rap	-10.8445
▁ropes	-10.8463
▁strain	-10.8471
▁leaders	-10.8489
▁ami	-10.851
▁traitor	-10.8511
▁stutter	-10.8517
▁diamond	-10.8518
▁arrangement	-10.8519
▁partners	-10.8524
▁servant	-10.8524
▁worm	-10.8525
▁giggle	-10.8525
▁complaint	-10.8529
▁parent	-10.8531
▁whoop	-10.8531
▁visitor	-10.8548
▁sucker	-10.855
ection	-10.8564
qua	-10.8577
▁fu	-10.858
▁mass	-10.8591
prints	-10.8595
▁inherit	-10.8599
▁officers	-10.8604
▁adventures	-10.8627
eye	-10.8635
suit	-10.8639
ake	-10.8644
▁august	-10.8655
▁determine	-10.8667
▁notes	-10.8671
rent	-10.8676
maker	-10.8685
▁tracks	-10.8693
▁chan	-10.8696
▁boost	-10.8697
▁splash	-10.8697
▁scars	-10.8697
▁roses	-10.8699
▁creak	-10.87
light	-10.8701
▁entertain	-10.8709
▁surf	-10.871
▁spoil	-10.8711
▁sis	-10.8712
▁wound	-10.8712
▁involv	-10.8715
utterly	-10.8715
▁cared	-10.8715
▁vanish	-10.8723
▁arrange	-10.8724
▁improve	-10.8725
▁graduate	-10.8726
▁remove	-10.8726
mark	-10.8727
▁compare	-10.8727
power	-10.8728
proof	-10.873
▁explore	-10.8732
▁energ	-10.8732
know	-10.8733
life	-10.8733
▁cousins	-10.8739
▁slight	-10.8741
▁spark	-10.8742
▁garde	-10.8745
▁potato	-10.8747
duct	-10.8749
▁refresh	-10.8751
▁commit	-10.8751
▁fright	-10.8752
▁movin	-10.8752
▁equal	-10.8752
▁loyal	-10.8753
▁terror	-10.8753
▁depart	-10.8754
▁octa	-10.8755
▁delicate	-10.8755
▁encourage	-10.8755
▁tremendous	-10.8755
▁typical	-10.8755
▁virgin	-10.8755
▁absurd	-10.8755
▁airplane	-10.8755
▁apologise	-10.8755
▁athlet	-10.8755
▁australia	-10.8755
▁barbecue	-10.8755
▁blimey	-10.8755
▁blimp	-10.8755
▁bubby	-10.8755
▁caterpillar	-10.8755
▁caution	-10.8755
▁channel	-10.8755
▁commission	-10.8755
▁continent	-10.8755
▁croaks	-10.8755
▁culdesac	-10.8755
▁custody	-10.8755
▁despicable	-10.8755
▁destination	-10.8755
▁dimension	-10.8755
▁dismissed	-10.8755
▁divine	-10.8755
▁extinct	-10.8755
▁felix	-10.8755
▁fomard	-10.8755
▁fudge	-10.8755
▁hanukkah	-10.8755
▁helicopter	-10.8755
▁incredibly	-10.8755
▁inspiration	-10.8755
▁instinct	-10.8755
▁internet	-10.8755
▁jeanpierre	-10.8755
▁ketchup	-10.8755
▁kozlova	-10.8755
▁lefferts	-10.8755
▁leslie	-10.8755
▁loneliness	-10.8755
▁looney	-10.8755
▁mcallister	-10.8755
▁michelin	-10.8755
▁minnesota	-10.8755
▁moxie	-10.8755
▁mozart	-10.8755
▁ninja	-10.8755
▁obliged	-10.8755
▁oldfashioned	-10.8755
▁olivia	-10.8755
▁pagogo	-10.8755
▁pajamas	-10.8755
▁paxton	-10.8755
▁petrified	-10.8755
▁pleureur	-10.8755
▁portrait	-10.8755
▁preparing	-10.8755
▁primitive	-10.8755
▁reception	-10.8755
▁relieved	-10.8755
▁reptile	-10.8755
▁revving	-10.8755
▁rubbish	-10.8755
▁satchel	-10.8755
▁satellite	-10.8755
▁senior	-10.8755
▁serververse	-10.8755
▁shelter	-10.8755
▁slingshot	-10.8755
▁slurps	-10.8755
▁solution	-10.8755
▁struggle	-10.8755
▁struggling	-10.8755
▁sunshine	-10.8755
▁tattoo	-10.8755
▁telegram	-10.8755
▁telegraph	-10.8755
▁terrifying	-10.8755
▁thirty	-10.8755
▁thrill	-10.8755
▁translation	-10.8755
▁treves	-10.8755
▁vegetable	-10.8755
▁verdict	-10.8755
▁wisdom	-10.8755
▁yuck	-10.8755
▁fifteen	-10.8755
▁forbidden	-10.8755
▁relief	-10.8755
▁sprout	-10.8755
▁stream	-10.8755
▁titus	-10.8755
▁voyage	-10.8755
▁wretch	-10.8755
▁baloo	-10.8755
▁crean	-10.8755
▁grandparents	-10.8755
▁harvey	-10.8755
▁howre	-10.8755
▁juicy	-10.8755
▁motel	-10.8755
▁thrust	-10.8755
▁whatll	-10.8755
▁zebra	-10.8755
▁hyah	-10.8755
▁insurance	-10.8755
▁invest	-10.8755
▁unlock	-10.8755
▁lisbon	-10.8755
▁skies	-10.8755
▁cloak	-10.8755
▁entrust	-10.8755
▁drew	-10.8755
▁yung	-10.8755
▁whining	-10.8755
▁regina	-10.8755
▁grey	-10.8755
▁matienne	-10.8755
▁preserv	-10.8755
▁proposition	-10.8755
▁gym	-10.8755
▁cue	-10.8755
▁mudblood	-10.8755
▁yummy	-10.8755
▁yeager	-10.8755
▁electronic	-10.8755
▁elementary	-10.8755
▁gogol	-10.8755
▁sailboat	-10.8755
▁authorities	-10.8755
▁matador	-10.8755
▁sobs	-10.8755
▁necklace	-10.8755
▁backyard	-10.8755
▁traiala	-10.8755
▁drummer	-10.8755
▁bruton	-10.8755
▁entrance	-10.8755
▁excitement	-10.8755
▁trigger	-10.8755
▁octopussy	-10.8755
▁patron	-10.8755
▁duties	-10.8755
▁babysit	-10.8756
▁memo	-10.8756
▁giris	-10.8756
▁begging	-10.8756
▁dandy	-10.8756
▁sensible	-10.8756
▁glitch	-10.8756
▁sill	-10.8756
▁stiff	-10.8756
▁related	-10.8756
▁studie	-10.8756
▁flank	-10.8756
▁championship	-10.8756
▁festival	-10.8756
▁ripped	-10.8756
▁divert	-10.8756
▁bolt	-10.8757
▁dunkaccino	-10.8757
▁necessarily	-10.8757
▁privilege	-10.8757
▁yeehaw	-10.8757
▁stray	-10.8757
▁manero	-10.8757
▁todd	-10.8757
▁existence	-10.8757
▁disappointment	-10.8757
stein	-10.8757
▁exchange	-10.8758
▁brew	-10.8758
ekka	-10.8758
▁arrogant	-10.8758
▁violation	-10.8758
▁tarla	-10.8758
▁lisa	-10.8758
▁operating	-10.8758
▁radi	-10.8758
▁university	-10.8759
▁tramp	-10.8759
▁bald	-10.8759
▁revo	-10.8759
▁stall	-10.8759
▁grump	-10.8759
▁medu	-10.876
▁jinx	-10.876
▁neat	-10.876
▁confession	-10.8761
▁logan	-10.8761
itude	-10.8761
▁rumi	-10.8761
▁kite	-10.8761
▁chairman	-10.8762
▁oates	-10.8762
▁raw	-10.8762
▁nora	-10.8762
▁owens	-10.8762
▁hooting	-10.8763
▁annu	-10.8763
▁parade	-10.8763
▁injury	-10.8763
▁pix	-10.8764
▁oof	-10.8764
▁cork	-10.8764
▁ramp	-10.8764
▁scarce	-10.8764
▁pail	-10.8764
▁generation	-10.8764
▁burst	-10.8765
▁lazy	-10.8765
▁soil	-10.8765
▁expression	-10.8765
▁iso	-10.8765
▁prop	-10.8765
door	-10.8765
▁wonderland	-10.8766
▁vow	-10.8767
▁gaze	-10.8768
▁doggy	-10.8771
▁humiliated	-10.8772
▁hideous	-10.8772
▁dee	-10.8772
▁sandwiches	-10.8772
▁capable	-10.8773
▁daylight	-10.8773
▁sour	-10.8774
▁sneeze	-10.8775
arius	-10.8776
▁brandy	-10.8776
▁retreat	-10.8779
▁frightening	-10.8781
▁penal	-10.8781
▁compared	-10.8783
▁fang	-10.8784
▁bingo	-10.8786
▁parish	-10.8787
▁breed	-10.8788
▁travelling	-10.8788
▁jackson	-10.8788
▁unveiled	-10.8791
▁spilled	-10.8791
▁kiddo	-10.8792
▁july	-10.8793
▁andie	-10.8796
▁barry	-10.8798
ates	-10.8799
▁activated	-10.8802
▁plum	-10.8802
▁eagles	-10.8803
▁provided	-10.8804
▁gay	-10.8805
▁burnt	-10.8806
▁easter	-10.8807
▁tender	-10.8808
dore	-10.8808
io	-10.8809
▁blud	-10.8809
▁yyou	-10.8812
▁dresses	-10.8814
▁crowna	-10.8817
▁mistaken	-10.8818
▁boxes	-10.8821
▁purr	-10.8822
▁rusty	-10.8823
▁que	-10.8825
▁drowning	-10.8827
▁whiz	-10.8828
▁obstacles	-10.8837
▁elements	-10.8837
▁thrown	-10.884
▁shocked	-10.8842
▁lighten	-10.8844
▁princesses	-10.8849
▁off	-10.8854
aki	-10.8857
▁gain	-10.8857
▁inn	-10.8865
▁gadgets	-10.887
▁niggers	-10.887
▁pyramids	-10.887
▁scientists	-10.887
▁spices	-10.887
▁endless	-10.8874
▁pond	-10.8881
▁nanny	-10.8883
will	-10.8884
▁hopeless	-10.8884
▁locker	-10.8887
▁talented	-10.8889
▁forces	-10.8892
rator	-10.8895
▁agee	-10.8896
mu	-10.8905
▁woh	-10.8916
▁hiya	-10.8919
ofthe	-10.8926
▁citizens	-10.8935
▁options	-10.8935
rita	-10.8943
vo	-10.8943
▁cheating	-10.8956
▁appeared	-10.896
▁farting	-10.8961
▁rag	-10.8966
▁candles	-10.8968
▁jews	-10.8969
▁actors	-10.8974
▁stones	-10.899
▁swing	-10.8999
▁complaints	-10.9003
▁suckers	-10.901
▁poo	-10.9018
▁begins	-10.9021
guff	-10.9031
abby	-10.9045
▁wo	-10.9057
atch	-10.9061
▁hee	-10.9065
▁details	-10.9068
▁visited	-10.9076
▁tap	-10.9083
roupie	-10.9089
bul	-10.9092
▁dine	-10.9092
▁nazis	-10.9101
▁safely	-10.9102
▁roots	-10.9103
▁ay	-10.9104
▁treating	-10.9111
▁lighter	-10.9111
▁fooled	-10.9115
▁torture	-10.9122
▁sew	-10.9123
▁autobots	-10.9135
oul	-10.9146
▁smelly	-10.9149
▁swan	-10.9167
▁magnetic	-10.9199
▁plates	-10.9202
▁vel	-10.9202
ack	-10.921
▁capt	-10.9214
▁shovel	-10.9234
▁peanuts	-10.9236
▁scenes	-10.9236
▁yards	-10.9236
ocate	-10.9236
▁hairy	-10.9265
▁site	-10.9266
▁apes	-10.9268
▁quarters	-10.9269
rate	-10.9281
ado	-10.9284
▁backup	-10.9337
▁dada	-10.9344
erial	-10.9351
▁prob	-10.9359
▁boxer	-10.9387
tiv	-10.9414
▁feared	-10.9418
smen	-10.9435
▁anti	-10.9464
▁pav	-10.9466
▁cameras	-10.9474
▁mend	-10.9519
▁grease	-10.9541
▁conve	-10.9579
table	-10.9601
▁actions	-10.9611
▁ken	-10.9612
▁touching	-10.9613
rusty	-10.9615
tial	-10.9615
▁magnet	-10.9694
▁rem	-10.9696
▁sails	-10.9724
▁rib	-10.9724
▁odds	-10.9749
ieve	-10.9761
ory	-10.9762
oma	-10.9797
▁forty	-10.9812
▁anto	-10.9841
cation	-10.9873
▁incident	-10.9874
cat	-10.9922
▁char	-10.9925
▁mingott	-10.9937
▁candle	-10.9942
▁jew	-10.9942
▁spear	-10.9947
▁tool	-10.9948
▁antique	-10.9948
▁munchkin	-10.995
bus	-10.9952
▁stair	-10.9958
iva	-10.9964
▁cod	-10.9983
▁actor	-10.9992
nn	-11.0006
▁zip	-11.0038
shes	-11.004
▁et	-11.0057
▁indi	-11.0061
▁skip	-11.0062
▁qui	-11.0079
▁assum	-11.0094
▁sixty	-11.0099
▁olive	-11.0105
anshe	-11.011
▁oan	-11.0112
▁shush	-11.0117
▁insult	-11.0126
▁blink	-11.0126
▁annoy	-11.0129
▁howl	-11.013
▁accomplish	-11.0141
▁unveil	-11.0141
▁ku	-11.0142
▁spill	-11.0144
▁betray	-11.0145
▁brand	-11.0146
train	-11.0156
bound	-11.0156
▁tweet	-11.0158
dress	-11.0159
secret	-11.0159
people	-11.0159
year	-11.016
▁pul	-11.0165
letting	-11.0167
tail	-11.0169
▁froze	-11.0177
▁torch	-11.0177
▁takin	-11.0178
▁booya	-11.0179
▁exhibit	-11.0179
▁convert	-11.018
▁reflect	-11.018
war	-11.0181
cked	-11.0181
▁method	-11.0182
▁maniac	-11.0183
▁zoo	-11.0183
▁neighbour	-11.0183
▁brief	-11.0183
▁lilliput	-11.0183
▁selfdestruct	-11.0183
▁activities	-11.0183
▁algorithm	-11.0183
▁ambulance	-11.0183
▁amelia	-11.0183
▁aokay	-11.0183
▁apologies	-11.0183
▁argument	-11.0183
▁ashore	-11.0183
▁assassin	-11.0183
▁assault	-11.0183
▁associat	-11.0183
▁babbles	-11.0183
▁babbling	-11.0183
▁ballroom	-11.0183
▁banzai	-11.0183
▁beetroot	-11.0183
▁believing	-11.0183
▁benefit	-11.0183
▁blaine	-11.0183
▁bristlemoss	-11.0183
▁broomstick	-11.0183
▁cleveland	-11.0183
▁clinking	-11.0183
▁coconut	-11.0183
▁concept	-11.0183
▁conscience	-11.0183
▁cuddle	-11.0183
▁cybertron	-11.0183
▁czechoslovakia	-11.0183
▁daydream	-11.0183
▁demonstration	-11.0183
▁despair	-11.0183
▁dregmorr	-11.0183
▁dwarf	-11.0183
▁earhart	-11.0183
▁eleanor	-11.0183
▁empress	-11.0183
▁executive	-11.0183
▁exquisite	-11.0183
▁felipe	-11.0183
▁fireflies	-11.0183
▁frannie	-11.0183
▁fregley	-11.0183
▁galvatron	-11.0183
▁garrison	-11.0183
▁gratitude	-11.0183
▁heinous	-11.0183
▁horizon	-11.0183
▁ignition	-11.0183
▁imbecile	-11.0183
▁incrediboy	-11.0183
▁ingredient	-11.0183
▁initial	-11.0183
▁insignificant	-11.0183
▁intelligent	-11.0183
▁jamaica	-11.0183
▁kreese	-11.0183
▁leopard	-11.0183
▁livres	-11.0183
▁mechanic	-11.0183
▁messenger	-11.0183
▁michigan	-11.0183
▁mistress	-11.0183
▁neglect	-11.0183
▁norris	-11.0183
▁octopi	-11.0183
▁offensive	-11.0183
▁orlov	-11.0183
▁patterson	-11.0183
▁perrault	-11.0183
▁philadelphia	-11.0183
▁picnic	-11.0183
▁plague	-11.0183
▁platform	-11.0183
▁predator	-11.0183
▁puppet	-11.0183
▁rabid	-11.0183
▁recognise	-11.0183
▁review	-11.0183
▁rourke	-11.0183
▁salaz	-11.0183
▁sarabi	-11.0183
▁satisfaction	-11.0183
▁scientific	-11.0183
▁shepherd	-11.0183
▁similar	-11.0183
▁sodapop	-11.0183
▁sought	-11.0183
▁sputter	-11.0183
▁supplies	-11.0183
▁survey	-11.0183
▁territory	-11.0183
▁trophy	-11.0183
▁twilight	-11.0183
▁uncomfortable	-11.0183
▁vampire	-11.0183
▁veeko	-11.0183
▁venture	-11.0183
▁vulgar	-11.0183
▁wigasus	-11.0183
▁afterwards	-11.0183
▁alpha	-11.0183
▁amateur	-11.0183
▁banished	-11.0183
▁bozo	-11.0183
▁bunk	-11.0183
▁dignity	-11.0183
▁glance	-11.0183
▁handcuff	-11.0183
▁korman	-11.0183
▁miyaji	-11.0183
▁naughty	-11.0183
▁obtain	-11.0183
▁raven	-11.0183
▁saloon	-11.0183
▁sponsor	-11.0183
▁sylvester	-11.0183
▁tragic	-11.0183
▁unicorn	-11.0183
▁wiggly	-11.0183
▁bigenders	-11.0183
▁chitter	-11.0183
▁descend	-11.0183
▁helmet	-11.0183
▁honeymoon	-11.0183
▁prettie	-11.0183
▁prevent	-11.0183
▁puke	-11.0183
▁random	-11.0183
▁recess	-11.0183
▁straw	-11.0183
▁wimp	-11.0183
▁polish	-11.0183
▁refugee	-11.0183
▁unpack	-11.0183
▁wrinkle	-11.0183
▁attagirl	-11.0183
▁fierce	-11.0183
▁glum	-11.0183
▁haircut	-11.0183
▁fraud	-11.0183
▁opponent	-11.0183
▁administration	-11.0183
▁awaits	-11.0183
▁backpack	-11.0183
▁sascha	-11.0183
▁gertie	-11.0183
▁chimes	-11.0183
▁menace	-11.0183
▁persad	-11.0183
▁dallas	-11.0183
▁deleted	-11.0183
▁porthos	-11.0183
▁whooshing	-11.0183
▁mongolia	-11.0183
▁preston	-11.0183
▁freezing	-11.0183
▁chores	-11.0183
▁murray	-11.0183
▁mockingly	-11.0183
▁tropic	-11.0183
▁occurred	-11.0183
▁greed	-11.0183
▁sizzl	-11.0183
▁steep	-11.0184
▁debt	-11.0184
▁ribbon	-11.0184
▁goddess	-11.0184
▁scram	-11.0184
▁snatch	-11.0184
▁funeral	-11.0184
▁network	-11.0184
▁bullseye	-11.0184
▁cooperate	-11.0184
▁commence	-11.0184
▁violence	-11.0184
▁kidnapping	-11.0184
▁hobby	-11.0184
▁skate	-11.0184
▁pillow	-11.0184
▁feast	-11.0184
▁broadway	-11.0184
▁whew	-11.0184
▁travis	-11.0184
▁sniffles	-11.0184
▁upgrade	-11.0184
▁dwan	-11.0184
▁gibberish	-11.0184
▁gambling	-11.0184
▁amigo	-11.0184
▁compete	-11.0184
▁barrow	-11.0185
▁jock	-11.0185
inco	-11.0185
▁acknowledge	-11.0185
▁creation	-11.0185
▁forehead	-11.0185
▁biome	-11.0185
▁courtney	-11.0185
▁clipping	-11.0185
▁stunt	-11.0185
▁radiation	-11.0185
▁brute	-11.0185
▁carnival	-11.0185
▁pierre	-11.0185
▁dentist	-11.0185
▁choke	-11.0185
▁examine	-11.0185
▁transmission	-11.0185
▁grasp	-11.0186
▁civilization	-11.0186
▁skinny	-11.0186
cular	-11.0186
▁landmark	-11.0186
▁june	-11.0186
▁adam	-11.0186
▁irish	-11.0186
▁toot	-11.0186
▁reaction	-11.0186
▁myth	-11.0186
▁cozy	-11.0186
▁westside	-11.0186
▁faithful	-11.0187
▁author	-11.0187
▁bayard	-11.0187
▁marble	-11.0187
▁irre	-11.0187
▁childhood	-11.0187
▁native	-11.0187
▁kingston	-11.0187
▁saddle	-11.0187
▁hush	-11.0188
▁viking	-11.0188
▁shiv	-11.0188
▁freddy	-11.0188
▁psycho	-11.0188
▁brine	-11.0188
▁oui	-11.0188
▁mason	-11.0189
▁ginger	-11.0189
▁roman	-11.0189
▁evidence	-11.0189
▁firstclass	-11.0189
▁modest	-11.0189
▁stern	-11.019
▁popping	-11.019
▁echoes	-11.019
▁sophie	-11.019
▁dropping	-11.019
▁allowance	-11.019
▁contrary	-11.0191
rod	-11.0191
▁muggle	-11.0192
▁assist	-11.0192
▁valor	-11.0193
▁temporary	-11.0193
▁basement	-11.0193
▁wetter	-11.0193
▁amazed	-11.0194
▁perish	-11.0194
▁allen	-11.0195
▁flour	-11.0195
▁pow	-11.0196
▁iceland	-11.0197
▁bravery	-11.0197
▁elder	-11.0198
▁spotted	-11.0198
▁mode	-11.0198
▁earl	-11.0198
▁described	-11.0199
▁coke	-11.0199
▁wallet	-11.0201
▁entry	-11.0201
▁nina	-11.0201
▁inch	-11.0202
▁payback	-11.0202
▁clearance	-11.0204
▁cranky	-11.0205
▁bravest	-11.0205
▁eden	-11.0206
▁mayday	-11.0206
▁selected	-11.0206
▁posters	-11.0207
▁forgiveness	-11.0207
▁didd	-11.0207
ulation	-11.0208
▁seventh	-11.0208
▁robbery	-11.0209
▁stain	-11.0209
▁revealed	-11.0213
▁pem	-11.0215
▁graduated	-11.0216
▁removed	-11.0216
▁vic	-11.0219
▁spine	-11.022
▁lowest	-11.0221
▁consult	-11.0222
▁optic	-11.0222
▁christmastime	-11.0223
▁discovery	-11.0224
▁accomplished	-11.0226
▁appetite	-11.0227
▁sweetness	-11.0228
▁wade	-11.0229
▁solved	-11.0229
rink	-11.023
▁cele	-11.0232
▁entertained	-11.0232
▁sash	-11.0234
▁esp	-11.0235
▁highness	-11.0235
▁starve	-11.0235
▁tone	-11.0236
▁attract	-11.0237
▁businessman	-11.0239
▁blinking	-11.024
▁ancestors	-11.0241
▁emotions	-11.0241
▁robbed	-11.0244
▁hah	-11.0245
▁delightful	-11.0245
▁foe	-11.025
▁stayton	-11.0256
▁insisted	-11.0258
▁blown	-11.0259
▁adviser	-11.0266
▁globe	-11.0267
▁restless	-11.0269
▁pounding	-11.027
▁yiit	-11.0271
▁measured	-11.0273
▁murderer	-11.0274
▁rooting	-11.0277
▁murdered	-11.0278
▁gene	-11.0279
▁gloves	-11.0279
▁crocodiles	-11.0279
▁knots	-11.0279
▁status	-11.0281
▁nailed	-11.0281
▁robber	-11.0283
▁sneaking	-11.0285
▁crawling	-11.0285
▁ohio	-11.0291
▁suffered	-11.0291
▁lawn	-11.0295
▁scheduled	-11.0301
▁hiro	-11.0303
▁pati	-11.0316
▁studying	-11.032
▁healing	-11.032
▁lily	-11.0328
▁scotty	-11.0334
▁lone	-11.0342
state	-11.0345
witz	-11.0353
▁cheerleaders	-11.0356
▁sheets	-11.0356
▁rumors	-11.0356
▁pac	-11.0359
▁realm	-11.0359
▁dame	-11.037
▁sailed	-11.0375
▁organiz	-11.0382
▁lance	-11.0386
imate	-11.0391
▁speedy	-11.0392
▁exp	-11.0397
▁when	-11.0398
art	-11.0408
▁discussed	-11.0412
right	-11.0413
merge	-11.0419
▁cooked	-11.0434
▁cracking	-11.0437
▁screamed	-11.0442
▁gathering	-11.0445
ept	-11.0445
▁crowned	-11.0446
▁robe	-11.0451
▁slop	-11.0452
▁reminded	-11.0463
▁traitors	-11.0471
▁hunted	-11.0491
pan	-11.0503
▁neighbors	-11.051
ington	-11.052
▁thuds	-11.0522
sical	-11.0532
▁pest	-11.0534
▁math	-11.0563
ador	-11.0569
▁agreeing	-11.0581
urg	-11.0586
▁sol	-11.0587
▁shields	-11.0588
▁pigeons	-11.0588
▁los	-11.0602
ury	-11.0609
▁funds	-11.0612
▁needle	-11.0618
iff	-11.0622
good	-11.0623
▁mega	-11.0628
passionate	-11.0629
coat	-11.0639
cence	-11.0639
▁cooler	-11.0647
▁requires	-11.0652
poo	-11.0658
▁speakers	-11.0672
made	-11.0679
▁booth	-11.068
▁reaching	-11.0691
▁priests	-11.0705
▁shoulders	-11.0705
▁clo	-11.0716
ably	-11.0722
▁tons	-11.0726
▁ast	-11.074
▁jets	-11.0743
▁nails	-11.0751
▁buckle	-11.0769
▁chains	-11.0775
▁cardi	-11.0781
▁sources	-11.0784
kins	-11.0798
▁crossed	-11.0815
▁timing	-11.0822
▁answering	-11.0833
▁greas	-11.0835
▁kissing	-11.084
agna	-11.0841
▁jer	-11.0859
▁nerves	-11.0864
▁adults	-11.0864
ford	-11.0879
▁stan	-11.0879
▁bounce	-11.0882
▁fianc	-11.0888
ugh	-11.0889
nda	-11.0904
thro	-11.0906
▁def	-11.091
▁barn	-11.0919
▁ducks	-11.0919
▁diversi	-11.0929
▁walker	-11.0946
ancy	-11.0953
▁stew	-11.0958
▁beau	-11.0961
▁unh	-11.1013
▁imma	-11.1036
stand	-11.1095
▁reli	-11.1098
▁op	-11.113
▁hou	-11.1133
oooooo	-11.1144
ura	-11.1148
who	-11.1174
cies	-11.1177
ooh	-11.1178
nine	-11.1178
hiti	-11.1191
mental	-11.1283
▁om	-11.1338
ik	-11.1358
och	-11.1365
▁mono	-11.1396
▁conn	-11.14
aaa	-11.1414
▁spe	-11.1422
▁anhe	-11.1443
▁dundund	-11.146
▁wip	-11.1476
▁scrub	-11.1492
duction	-11.1496
new	-11.1496
eyed	-11.1527
aries	-11.1541
▁mee	-11.1548
hold	-11.155
▁peek	-11.1555
▁meow	-11.1562
immer	-11.1581
▁reliabl	-11.1597
cot	-11.1597
▁seagull	-11.1603
▁option	-11.1609
▁citizen	-11.161
gone	-11.1617
▁alien	-11.1631
▁minion	-11.1636
▁customer	-11.1647
▁hahahaha	-11.1701
latin	-11.174
neur	-11.1742
bitt	-11.1758
▁explor	-11.1761
▁invent	-11.1775
▁tack	-11.1779
atter	-11.1782
gger	-11.179
▁echo	-11.1792
▁chris	-11.1793
▁introduc	-11.1793
▁clatter	-11.1795
▁chirp	-11.1796
eau	-11.1798
nba	-11.1804
▁confirm	-11.1806
▁disappoint	-11.1806
▁surround	-11.1809
▁bre	-11.1811
▁pur	-11.1814
▁swor	-11.1817
▁dragg	-11.182
▁engage	-11.1825
close	-11.1826
▁crank	-11.1827
kind	-11.1827
pants	-11.1828
▁pooch	-11.1829
▁instant	-11.1831
▁technical	-11.1832
▁decorat	-11.1835
case	-11.1837
inlaw	-11.1842
mbus	-11.1842
▁branch	-11.1842
▁africa	-11.1842
▁grub	-11.1844
▁guap	-11.1844
▁bore	-11.1846
▁mmhm	-11.1846
even	-11.1847
▁gorge	-11.1849
▁cooper	-11.1849
▁hohoho	-11.1849
▁urge	-11.1849
mund	-11.1849
▁electro	-11.1849
▁thou	-11.185
▁disrupt	-11.185
▁vermin	-11.185
▁acquainted	-11.185
▁addition	-11.185
▁amnesia	-11.185
▁amundsen	-11.185
▁arizona	-11.185
▁atmosphere	-11.185
▁auction	-11.185
▁bachelor	-11.185
▁behaviour	-11.185
▁bernadette	-11.185
▁bizarre	-11.185
▁blizzard	-11.185
▁blossom	-11.185
▁blueberry	-11.185
▁catarina	-11.185
▁celebrating	-11.185
▁celebrity	-11.185
▁ceremonies	-11.185
▁chunky	-11.185
▁classroom	-11.185
▁clutch	-11.185
▁corrado	-11.185
▁crescen	-11.185
▁crikey	-11.185
▁crisp	-11.185
▁cuddly	-11.185
▁curiosity	-11.185
▁currency	-11.185
▁cushion	-11.185
▁deploy	-11.185
▁devastat	-11.185
▁dinobots	-11.185
▁dinosaur	-11.185
▁disengage	-11.185
▁disobey	-11.185
▁divry	-11.185
▁dizzy	-11.185
▁duarto	-11.185
▁easley	-11.185
▁elsewhere	-11.185
▁escaping	-11.185
▁exotic	-11.185
▁expense	-11.185
▁eyelashes	-11.185
▁fawkes	-11.185
▁funbucket	-11.185
▁fundamental	-11.185
▁fundrais	-11.185
▁guelston	-11.185
▁gulch	-11.185
▁gunfight	-11.185
▁hallelujah	-11.185
▁initiate	-11.185
▁inject	-11.185
▁invader	-11.185
▁isolation	-11.185
▁jacque	-11.185
▁jedediah	-11.185
▁judging	-11.185
▁kazoo	-11.185
▁kumiko	-11.185
▁lacrosse	-11.185
▁ladybug	-11.185
▁landlord	-11.185
▁lunatic	-11.185
▁mackerel	-11.185
▁manhattan	-11.185
▁mannequin	-11.185
▁marvellous	-11.185
▁masquerade	-11.185
▁matonne	-11.185
▁matrimon	-11.185
▁melanchol	-11.185
▁merchandise	-11.185
▁mexican	-11.185
▁miniaturization	-11.185
▁napoleon	-11.185
▁nephew	-11.185
▁nermal	-11.185
▁neutral	-11.185
▁overdue	-11.185
▁parliament	-11.185
▁pedestrian	-11.185
▁pharaoh	-11.185
▁pistol	-11.185
▁pledge	-11.185
▁profile	-11.185
▁rabies	-11.185
▁reconsider	-11.185
▁refrigerator	-11.185
▁refund	-11.185
▁rescuing	-11.185
▁research	-11.185
▁response	-11.185
▁rupees	-11.185
▁scholarship	-11.185
▁scope	-11.185
▁senator	-11.185
▁shampoo	-11.185
▁skeleton	-11.185
▁skitch	-11.185
▁sleeve	-11.185
▁snarling	-11.185
▁snarls	-11.185
▁specimen	-11.185
▁spectacular	-11.185
▁strawberry	-11.185
▁stunning	-11.185
▁sunrise	-11.185
▁surprisingly	-11.185
▁tempos	-11.185
▁terrified	-11.185
▁therapist	-11.185
▁therapy	-11.185
▁treason	-11.185
▁trembling	-11.185
▁unlucky	-11.185
▁unofficial	-11.185
▁unpleasant	-11.185
▁vanilla	-11.185
▁vernon	-11.185
▁wealth	-11.185
▁whiskey	-11.185
▁withdraw	-11.185
conscious	-11.185
▁abstract	-11.185
▁buffalo	-11.185
▁document	-11.185
▁fabric	-11.185
▁figuring	-11.185
▁giddy	-11.185
▁gossip	-11.185
▁grief	-11.185
▁gulf	-11.185
▁infant	-11.185
▁miami	-11.185
▁muffin	-11.185
▁mutiny	-11.185
▁offended	-11.185
▁plato	-11.185
▁resembl	-11.185
▁suburb	-11.185
▁villaincon	-11.185
▁actress	-11.185
▁ceiling	-11.185
▁happies	-11.185
▁marnie	-11.185
▁motto	-11.185
▁mound	-11.185
▁stranded	-11.185
▁stroll	-11.185
▁subtle	-11.185
▁tractor	-11.185
▁anyhow	-11.185
▁chancellor	-11.185
▁chinon	-11.185
▁dudley	-11.185
▁houston	-11.185
▁igoe	-11.185
▁importance	-11.185
▁lilliputians	-11.185
▁raising	-11.185
▁reseda	-11.185
▁rifle	-11.185
▁blister	-11.185
▁flunk	-11.185
▁glue	-11.185
▁spooks	-11.185
▁terrier	-11.185
▁visual	-11.185
▁bodies	-11.185
▁reduce	-11.185
▁repay	-11.185
▁snappy	-11.185
▁beetle	-11.185
▁yancy	-11.185
▁affirmative	-11.185
▁sorcer	-11.185
▁spinning	-11.185
▁translate	-11.185
▁scanner	-11.185
▁undone	-11.185
▁berger	-11.185
▁atlas	-11.185
▁rehearse	-11.185
▁grabbed	-11.185
▁restrain	-11.185
▁ensure	-11.185
▁omelet	-11.185
▁sincerely	-11.185
▁flea	-11.185
▁species	-11.185
▁fireworks	-11.185
▁harcourt	-11.185
▁llama	-11.185
▁sensu	-11.185
▁insert	-11.185
skirt	-11.185
▁after	-11.185
▁granddaughter	-11.185
▁elvis	-11.185
▁flip	-11.185
▁attaboy	-11.185
▁gallery	-11.185
▁tennis	-11.185
▁lottery	-11.185
▁chancho	-11.185
▁zyg	-11.185
▁outrage	-11.185
▁muggleborn	-11.185
▁audition	-11.185
▁nibs	-11.185
▁inspire	-11.185
▁kitch	-11.185
▁tow	-11.185
▁allright	-11.185
▁microphone	-11.185
▁gann	-11.185
▁supposing	-11.185
▁charities	-11.185
▁cease	-11.185
▁yum	-11.1851
▁bleeding	-11.1851
▁goofy	-11.1851
▁jingle	-11.1851
▁disqualified	-11.1851
▁hostile	-11.1851
▁tidy	-11.1851
▁violent	-11.1851
▁lovebirds	-11.1851
▁kibbl	-11.1851
▁gasoline	-11.1851
▁franco	-11.1851
▁halflings	-11.1851
▁denied	-11.1851
▁ivan	-11.1851
▁racket	-11.1851
▁salmon	-11.1851
▁sleepyhead	-11.1851
▁heather	-11.1851
▁inaudible	-11.1851
▁lounge	-11.1851
▁spray	-11.1851
▁adjustment	-11.1851
▁whipped	-11.1851
▁overnight	-11.1851
▁confront	-11.1851
▁burial	-11.1851
▁nancy	-11.1852
▁sector	-11.1852
▁choir	-11.1852
▁dumpster	-11.1852
▁wright	-11.1852
▁crabbe	-11.1852
▁hogs	-11.1852
▁panties	-11.1852
▁blade	-11.1852
▁terrorist	-11.1852
▁update	-11.1852
▁brig	-11.1852
▁asshole	-11.1852
elimina	-11.1852
▁despise	-11.1852
▁breach	-11.1852
▁jason	-11.1852
▁percy	-11.1852
▁crop	-11.1852
▁broad	-11.1852
▁aggressive	-11.1853
▁circuit	-11.1853
▁jennifer	-11.1853
▁slice	-11.1853
▁tinkling	-11.1853
▁pupil	-11.1853
▁scow	-11.1853
▁icy	-11.1853
▁buffet	-11.1853
▁carolina	-11.1853
▁litter	-11.1853
▁liftoff	-11.1853
▁suri	-11.1853
▁blend	-11.1853
▁testify	-11.1853
▁connection	-11.1853
▁mutters	-11.1853
▁maximu	-11.1853
▁molt	-11.1853
▁expectations	-11.1853
▁sisterinlaw	-11.1854
▁dwell	-11.1854
▁merciful	-11.1854
▁opto	-11.1854
▁leash	-11.1854
▁raid	-11.1854
xious	-11.1854
▁reflection	-11.1854
▁crossfield	-11.1854
▁internal	-11.1854
▁axel	-11.1855
▁theory	-11.1855
▁timmy	-11.1855
▁toad	-11.1855
▁basis	-11.1855
▁stallion	-11.1855
▁rail	-11.1855
▁flushes	-11.1855
▁jackpot	-11.1855
▁sulu	-11.1855
▁chinaman	-11.1855
itious	-11.1855
▁hence	-11.1856
terior	-11.1856
▁kilo	-11.1856
▁cement	-11.1856
▁chapel	-11.1856
▁curry	-11.1856
▁tube	-11.1857
▁mime	-11.1857
▁react	-11.1857
▁objection	-11.1857
▁schem	-11.1857
▁tripped	-11.1857
▁rome	-11.1857
▁possession	-11.1857
▁fox	-11.1858
▁poof	-11.1858
▁sunny	-11.1859
▁hull	-11.1859
▁oooh	-11.1859
▁shushes	-11.1859
nez	-11.186
▁alongside	-11.186
▁keen	-11.1861
▁harmoni	-11.1861
▁zap	-11.1861
coming	-11.1862
▁resigned	-11.1862
▁follered	-11.1862
ranged	-11.1862
▁goyle	-11.1862
▁teasing	-11.1863
▁data	-11.1863
▁booby	-11.1863
▁whore	-11.1864
▁brooke	-11.1864
▁oat	-11.1865
▁heartache	-11.1865
▁fork	-11.1865
▁ranch	-11.1865
▁edna	-11.1865
▁atta	-11.1866
▁kata	-11.1866
▁dice	-11.1866
▁rug	-11.1866
▁melon	-11.1866
▁arre	-11.1866
▁spies	-11.1866
▁superheroes	-11.1867
▁considerable	-11.1867
▁technically	-11.1868
▁farther	-11.1869
▁digit	-11.1869
▁spain	-11.187
raving	-11.187
▁kei	-11.1871
▁piss	-11.1871
▁growth	-11.1872
▁passage	-11.1873
▁hopefully	-11.1874
▁vast	-11.1874
▁mill	-11.1874
▁agreement	-11.1875
▁statement	-11.1875
▁demo	-11.1876
▁backstage	-11.1878
▁seventy	-11.1878
▁micro	-11.1879
wling	-11.188
jon	-11.1881
▁coma	-11.1881
▁inventor	-11.1881
▁legion	-11.1881
▁plu	-11.1881
▁idiotic	-11.1881
▁drawers	-11.1882
▁biggie	-11.1882
▁specialist	-11.1882
cock	-11.1884
▁cuteness	-11.1885
▁boop	-11.1887
▁abound	-11.1888
▁hunger	-11.1888
▁prim	-11.1889
▁vile	-11.189
▁loosen	-11.189
▁fist	-11.1893
illes	-11.1894
▁positively	-11.19
▁betrayed	-11.1901
▁curly	-11.1904
▁jane	-11.1905
▁skipping	-11.1908
▁endure	-11.1908
▁vanished	-11.1908
▁wounded	-11.1908
▁surfer	-11.1911
▁skipp	-11.1918
▁sous	-11.1918
▁insulting	-11.1918
▁snickers	-11.192
▁peep	-11.192
stone	-11.1924
▁gap	-11.1926
▁dispos	-11.1927
▁chad	-11.1927
▁gaining	-11.1929
▁splashing	-11.1929
▁fearless	-11.1929
▁swallowed	-11.1932
▁permanently	-11.1932
▁lair	-11.1934
▁messes	-11.1934
▁admired	-11.1937
▁newsman	-11.1939
▁earned	-11.1942
▁beaten	-11.1942
▁sig	-11.1943
▁stayne	-11.1944
▁erase	-11.1945
▁yale	-11.1945
▁distracted	-11.1948
▁pale	-11.1948
▁ringo	-11.1955
▁cloth	-11.1955
▁poly	-11.1955
marr	-11.1959
▁assured	-11.1963
▁vultures	-11.1965
▁parties	-11.1967
▁deceive	-11.1968
▁retro	-11.1968
oohoo	-11.197
▁awarded	-11.1971
▁explorer	-11.1971
▁determin	-11.1971
▁experienced	-11.1972
▁judged	-11.1973
▁flowing	-11.1974
list	-11.1976
▁ahha	-11.1978
▁til	-11.1978
▁jealousy	-11.1978
▁suspected	-11.1979
▁crater	-11.1979
▁responding	-11.1982
▁tralalaa	-11.1986
iana	-11.1988
▁takeoff	-11.1991
leys	-11.1993
▁senor	-11.1994
▁borrowed	-11.1995
▁dane	-11.1997
▁union	-11.2003
▁did	-11.2005
▁jewels	-11.201
▁arrows	-11.201
▁muscles	-11.201
▁teenagers	-11.201
▁twisted	-11.2011
▁released	-11.2015
▁sucking	-11.2018
▁nod	-11.2018
▁drug	-11.2023
▁marv	-11.2024
▁boiler	-11.2027
▁scored	-11.2031
agged	-11.2037
▁completed	-11.2037
▁hardest	-11.2038
▁slapp	-11.204
eggie	-11.2042
▁continued	-11.2052
▁rescued	-11.2053
▁burps	-11.2055
▁sensations	-11.2056
▁termites	-11.2056
▁socks	-11.2056
▁pills	-11.2057
▁busting	-11.206
▁oop	-11.2061
▁simpler	-11.2065
▁treaty	-11.2069
▁chuckle	-11.2071
▁focused	-11.2074
▁sor	-11.2079
rock	-11.2085
▁weed	-11.2086
oons	-11.2087
▁formed	-11.2091
▁sadly	-11.2093
▁seagulls	-11.2102
▁blessed	-11.2107
▁matt	-11.2119
▁suggested	-11.2121
iege	-11.2131
▁painting	-11.2136
▁spears	-11.2149
▁mingotts	-11.2149
▁hood	-11.2149
oline	-11.2154
▁peed	-11.216
▁dashing	-11.2164
▁dreamt	-11.2185
book	-11.2187
atic	-11.219
solve	-11.2194
thats	-11.2195
▁dim	-11.2205
▁wag	-11.2207
rage	-11.221
▁poll	-11.2217
▁shorty	-11.2226
▁repeating	-11.2229
▁occasions	-11.2237
ulating	-11.2252
▁maca	-11.2262
was	-11.2279
mel	-11.2283
▁barb	-11.2289
galact	-11.23
▁mini	-11.2323
▁spite	-11.2356
▁neg	-11.237
▁signor	-11.2399
▁zipp	-11.241
▁anticipat	-11.2434
▁seller	-11.2436
▁advance	-11.2462
urch	-11.247
hank	-11.248
ghi	-11.2501
▁bronc	-11.2512
pati	-11.2521
aught	-11.2529
about	-11.2562
▁charl	-11.2608
acco	-11.2635
▁shack	-11.2663
▁underestimate	-11.2678
▁mob	-11.2735
▁chee	-11.2744
roni	-11.275
▁wart	-11.2794
wah	-11.2798
▁organis	-11.2815
gold	-11.2863
ubbing	-11.2868
▁prom	-11.2875
▁span	-11.2879
star	-11.2907
cracker	-11.2918
▁knit	-11.2926
▁ker	-11.2932
air	-11.2948
gate	-11.2963
▁prov	-11.3003
▁nip	-11.3019
▁cutie	-11.3035
▁fran	-11.3047
date	-11.3127
▁rac	-11.3152
omp	-11.3182
▁bog	-11.3228
mart	-11.3235
▁riches	-11.3259
rus	-11.3285
ello	-11.329
amari	-11.3318
▁recit	-11.3322
▁organ	-11.3333
ckles	-11.3358
ight	-11.3401
▁lever	-11.3425
▁mur	-11.3479
▁baa	-11.348
part	-11.3491
owned	-11.3511
cee	-11.3512
▁ado	-11.3528
▁shriek	-11.3563
uffle	-11.3576
▁triple	-11.3598
nu	-11.3601
▁strip	-11.3602
▁sensation	-11.3603
▁termite	-11.3605
that	-11.3605
▁cheerleader	-11.3606
have	-11.3607
▁sheet	-11.3609
▁rumor	-11.3614
▁cupcake	-11.3615
▁hyena	-11.362
▁sock	-11.362
▁beside	-11.3623
▁skill	-11.3624
▁pill	-11.3624
▁yiyou	-11.3627
▁pier	-11.3628
meter	-11.3632
▁mumble	-11.3634
▁growl	-11.3639
▁greaser	-11.3648
keeper	-11.3652
▁ti	-11.3663
▁steven	-11.3671
▁warp	-11.3677
minded	-11.3703
▁transfer	-11.3706
▁access	-11.3737
squ	-11.3739
▁burp	-11.3747
▁with	-11.3749
night	-11.3776
ograph	-11.3781
▁screech	-11.3788
lick	-11.3803
▁connect	-11.3805
▁cour	-11.3807
▁reveal	-11.3808
matic	-11.3808
▁wick	-11.381
▁employ	-11.3817
▁replace	-11.3819
▁retire	-11.3819
buck	-11.382
▁achieve	-11.382
▁ignore	-11.382
▁humiliate	-11.3822
word	-11.3823
▁capture	-11.3824
water	-11.3825
▁philosoph	-11.3825
juice	-11.3825
blood	-11.3825
charge	-11.3826
▁stamp	-11.3826
knock	-11.3826
▁filth	-11.3826
second	-11.3826
think	-11.3826
▁guilt	-11.3826
nothing	-11.3826
woman	-11.3826
food	-11.3826
tree	-11.3826
scale	-11.3827
yeah	-11.3828
▁brid	-11.3829
sick	-11.383
▁vote	-11.3831
▁intensi	-11.3833
▁jib	-11.3833
▁brook	-11.3833
▁grah	-11.3836
▁multi	-11.3837
front	-11.3838
▁pou	-11.384
▁psych	-11.3842
▁scul	-11.3842
▁axe	-11.3844
squire	-11.3847
▁norm	-11.3848
▁triumph	-11.3849
chip	-11.3849
▁temple	-11.3849
▁mutt	-11.3849
▁compassion	-11.3849
▁drama	-11.3849
▁squid	-11.3849
cover	-11.3849
▁excel	-11.385
▁intellect	-11.385
awchuckleamalus	-11.385
▁abducted	-11.385
▁accommodat	-11.385
▁admission	-11.385
▁alexander	-11.385
▁alternative	-11.385
▁altogether	-11.385
▁analysis	-11.385
▁angrily	-11.385
▁anonymous	-11.385
▁bandersnatch	-11.385
▁barbatus	-11.385
▁bouquet	-11.385
▁cardamom	-11.385
▁caribbean	-11.385
▁cavalry	-11.385
▁caviar	-11.385
▁chandelier	-11.385
▁clumsy	-11.385
▁compartment	-11.385
▁complication	-11.385
▁concoct	-11.385
▁congress	-11.385
▁corridor	-11.385
▁crucified	-11.385
▁cuckoo	-11.385
▁cynic	-11.385
▁dalrymple	-11.385
▁datsun	-11.385
▁dialogue	-11.385
▁disrespect	-11.385
▁distinct	-11.385
▁district	-11.385
▁dulcinea	-11.385
▁dungeon	-11.385
▁elastigirl	-11.385
▁eliminated	-11.385
▁encouraging	-11.385
▁enthusiasm	-11.385
▁entitled	-11.385
▁envelope	-11.385
▁essential	-11.385
▁exclusive	-11.385
▁expelled	-11.385
▁exploit	-11.385
▁extinguish	-11.385
▁fanfare	-11.385
▁faucet	-11.385
▁february	-11.385
▁financial	-11.385
▁fresno	-11.385
▁friction	-11.385
▁frisbee	-11.385
▁frozone	-11.385
▁frustrated	-11.385
▁generosity	-11.385
▁glasdale	-11.385
▁glitter	-11.385
▁gloop	-11.385
▁glumdalclitch	-11.385
▁grildrig	-11.385
▁grumbling	-11.385
▁gunpowder	-11.385
▁harbour	-11.385
▁harvest	-11.385
▁hazardous	-11.385
▁henchmen	-11.385
▁hexham	-11.385
▁hickory	-11.385
▁honeysuckle	-11.385
▁hysteria	-11.385
▁impostor	-11.385
▁inferior	-11.385
▁infinite	-11.385
▁inspiring	-11.385
▁interference	-11.385
▁japanese	-11.385
▁jefferson	-11.385
▁jordan	-11.385
▁joshie	-11.385
▁kamishin	-11.385
▁kingsleigh	-11.385
▁letterblair	-11.385
▁lipstick	-11.385
▁lullaby	-11.385
▁luxury	-11.385
▁lyrics	-11.385
▁maneuver	-11.385
▁mccord	-11.385
▁medieval	-11.385
▁ministry	-11.385
▁mmmmmm	-11.385
▁morris	-11.385
▁nelson	-11.385
▁nicholas	-11.385
▁nicklebones	-11.385
▁nobel	-11.385
▁november	-11.385
▁nuhuh	-11.385
▁obligation	-11.385
▁obrien	-11.385
▁optimus	-11.385
▁overwhelming	-11.385
▁pencil	-11.385
▁pennsylvania	-11.385
▁perceptor	-11.385
▁petrox	-11.385
▁pevensie	-11.385
▁pinocchio	-11.385
▁possibilities	-11.385
▁pratt	-11.385
▁provisions	-11.385
▁resourceful	-11.385
▁rooster	-11.385
▁rupert	-11.385
▁sabbath	-11.385
▁salvage	-11.385
▁salvation	-11.385
▁savior	-11.385
▁scenario	-11.385
▁scotland	-11.385
▁selene	-11.385
▁september	-11.385
▁sketch	-11.385
▁slobber	-11.385
▁smooch	-11.385
▁soviet	-11.385
▁stavros	-11.385
▁stoked	-11.385
▁streak	-11.385
▁structur	-11.385
▁taylor	-11.385
▁thirteen	-11.385
▁ticklish	-11.385
▁ticktock	-11.385
▁tiffany	-11.385
▁timothy	-11.385
▁translator	-11.385
▁trophies	-11.385
▁umbrella	-11.385
▁unconventional	-11.385
▁unprecedented	-11.385
▁unstoppable	-11.385
▁valiant	-11.385
▁vectorscope	-11.385
▁venom	-11.385
▁virgil	-11.385
▁walnut	-11.385
▁waterfall	-11.385
▁wizzie	-11.385
▁yowch	-11.385
▁altitude	-11.385
▁arturo	-11.385
▁beacon	-11.385
▁breech	-11.385
▁corporation	-11.385
▁dinobirds	-11.385
▁greta	-11.385
▁groov	-11.385
▁handicap	-11.385
▁jeopard	-11.385
▁klaus	-11.385
▁lillian	-11.385
▁loaf	-11.385
▁managing	-11.385
▁muzzle	-11.385
▁norland	-11.385
▁parlor	-11.385
▁pattern	-11.385
▁possum	-11.385
▁reentry	-11.385
▁resolved	-11.385
▁ritz	-11.385
▁shoving	-11.385
▁sloth	-11.385
▁sprinkle	-11.385
▁strangle	-11.385
▁symbol	-11.385
▁vienna	-11.385
▁acqui	-11.385
▁bryce	-11.385
▁caramel	-11.385
▁chalk	-11.385
▁clanging	-11.385
▁fannie	-11.385
▁goofball	-11.385
▁mccoy	-11.385
▁mortal	-11.385
▁norby	-11.385
▁phillips	-11.385
▁racecar	-11.385
▁squish	-11.385
infested	-11.385
▁adapt	-11.385
▁calculations	-11.385
▁gunilla	-11.385
▁physics	-11.385
▁silk	-11.385
activity	-11.385
▁blighter	-11.385
▁sherman	-11.385
▁charging	-11.385
▁info	-11.385
▁worn	-11.385
▁industry	-11.385
▁lease	-11.385
▁slave	-11.385
▁canvas	-11.385
▁causing	-11.385
▁hound	-11.385
▁impersonat	-11.385
▁irregular	-11.385
▁pursue	-11.385
▁scattered	-11.385
▁conroy	-11.385
▁online	-11.385
▁scoot	-11.385
▁tangier	-11.385
▁conquer	-11.385
▁instructions	-11.385
▁veteran	-11.385
▁wiggle	-11.385
▁manifest	-11.385
▁newark	-11.385
▁blanch	-11.385
▁bosom	-11.385
▁kyle	-11.385
▁runeard	-11.385
▁whirl	-11.385
▁brood	-11.385
▁davis	-11.385
▁neera	-11.385
▁persian	-11.385
▁ryan	-11.385
▁splint	-11.385
▁twobit	-11.385
▁twinkie	-11.385
▁justin	-11.385
▁vandal	-11.385
▁wails	-11.385
▁grape	-11.385
▁spyglass	-11.385
▁grr	-11.385
▁persist	-11.385
▁quinn	-11.385
▁capacity	-11.385
▁reply	-11.385
▁snug	-11.385
▁underworld	-11.385
▁negative	-11.385
▁bidding	-11.385
▁tummy	-11.385
▁initiating	-11.385
▁discount	-11.385
▁interven	-11.385
▁urinat	-11.385
▁albert	-11.385
▁redeem	-11.385
▁opium	-11.385
▁resignation	-11.385
▁tracts	-11.385
▁behave	-11.385
▁lund	-11.3851
▁yikes	-11.3851
▁beginner	-11.3851
▁defence	-11.3851
▁numero	-11.3851
▁whwhat	-11.3851
▁succ	-11.3851
▁pascal	-11.3851
▁xray	-11.3851
▁smog	-11.3851
▁egyptian	-11.3851
▁sidney	-11.3851
▁budget	-11.3851
▁notify	-11.3851
▁soak	-11.3851
▁whereabouts	-11.3851
▁dannyboy	-11.3851
▁forbid	-11.3851
destined	-11.3851
▁exposed	-11.3851
▁employee	-11.3851
▁worthwhile	-11.3851
▁canbury	-11.3851
▁blondie	-11.3851
▁ignorant	-11.3851
▁separation	-11.3851
▁upsies	-11.3851
▁consol	-11.3851
▁relations	-11.3851
▁slack	-11.3851
▁specifically	-11.3851
▁multipl	-11.3851
▁canada	-11.3851
venge	-11.3851
▁alaska	-11.3851
▁automatically	-11.3851
▁substance	-11.3852
▁laptop	-11.3852
wait	-11.3852
plop	-11.3852
▁devotion	-11.3852
▁mummy	-11.3852
▁despi	-11.3852
▁choking	-11.3852
▁paddle	-11.3852
elope	-11.3852
▁committing	-11.3852
▁poetry	-11.3852
▁approximately	-11.3852
▁bluff	-11.3852
▁expand	-11.3852
▁beads	-11.3852
▁shannon	-11.3852
▁battlefield	-11.3852
▁decline	-11.3852
▁vague	-11.3852
▁phew	-11.3853
▁quarterback	-11.3853
▁confusion	-11.3853
▁hasty	-11.3853
▁disturbance	-11.3853
▁operator	-11.3853
▁heap	-11.3853
▁arise	-11.3853
▁spotlight	-11.3853
▁cabinet	-11.3853
▁fiber	-11.3853
▁jerry	-11.3853
▁allergic	-11.3853
▁jules	-11.3853
▁bogus	-11.3853
▁blasphemy	-11.3853
▁script	-11.3853
▁negotiate	-11.3853
▁novel	-11.3853
▁mongo	-11.3853
▁loyalty	-11.3853
▁follerin	-11.3853
▁barrel	-11.3853
▁sunlight	-11.3854
▁kapu	-11.3854
▁arab	-11.3854
▁yonder	-11.3854
▁gents	-11.3854
▁combat	-11.3854
▁election	-11.3854
▁sammy	-11.3854
▁spitting	-11.3854
▁ashes	-11.3854
▁quill	-11.3855
▁pulse	-11.3855
▁sober	-11.3855
▁sweatshirt	-11.3855
▁feat	-11.3855
▁mast	-11.3855
▁doodle	-11.3855
▁voila	-11.3855
oire	-11.3855
▁binder	-11.3855
▁brotherinlaw	-11.3856
▁percentage	-11.3856
▁thread	-11.3856
▁tactic	-11.3856
▁primate	-11.3856
▁rations	-11.3856
▁loot	-11.3856
▁poking	-11.3856
▁apex	-11.3856
▁carrier	-11.3857
▁depot	-11.3857
▁countdown	-11.3857
▁gobble	-11.3857
▁tide	-11.3857
▁oppos	-11.3857
▁cheerful	-11.3857
▁stung	-11.3857
▁retting	-11.3858
lalalala	-11.3858
▁shane	-11.3858
▁screeches	-11.3858
▁godspeed	-11.3858
▁braz	-11.3858
▁mince	-11.3858
▁upside	-11.3859
▁embarrassment	-11.3859
▁federa	-11.3859
▁bible	-11.3859
▁exceptional	-11.3859
▁belief	-11.3859
▁phrase	-11.3859
▁cellar	-11.3859
ature	-11.3859
▁temperature	-11.3859
▁dried	-11.3859
▁goalie	-11.386
▁branches	-11.386
▁christian	-11.386
▁presume	-11.386
▁cair	-11.386
▁spur	-11.386
▁disco	-11.386
▁compromise	-11.3861
▁bonus	-11.3862
▁fashionable	-11.3862
▁torches	-11.3862
▁beak	-11.3862
▁inches	-11.3862
▁grandson	-11.3862
hour	-11.3862
▁rewind	-11.3863
▁untie	-11.3864
▁cuban	-11.3864
▁brass	-11.3864
▁household	-11.3864
▁singsongy	-11.3864
▁published	-11.3865
▁depressed	-11.3865
▁agony	-11.3865
▁successfully	-11.3866
strate	-11.3866
▁breakdown	-11.3866
▁bandage	-11.3866
▁manhaul	-11.3866
▁tram	-11.3866
urance	-11.3867
intensifie	-11.3867
▁publicity	-11.3867
llyho	-11.3867
unce	-11.3868
▁fold	-11.3868
▁aden	-11.3868
▁obsessed	-11.3868
▁poet	-11.3868
▁fitting	-11.3868
▁jelli	-11.3869
▁cannonballers	-11.3869
▁bold	-11.3869
▁yea	-11.3869
▁faraway	-11.387
▁pew	-11.387
▁gulping	-11.387
▁beh	-11.387
▁settlement	-11.387
bag	-11.3871
artac	-11.3871
ptu	-11.3871
▁entr	-11.3872
▁sleepover	-11.3873
▁legit	-11.3873
▁frame	-11.3873
▁grin	-11.3874
▁bel	-11.3874
▁maiden	-11.3874
▁crooked	-11.3874
▁devoted	-11.3874
▁established	-11.3874
▁darre	-11.3874
▁hospitality	-11.3874
▁stampede	-11.3876
▁gir	-11.3877
▁correction	-11.3877
▁dissect	-11.3878
▁gunter	-11.3879
▁damp	-11.388
▁grain	-11.388
▁haste	-11.3881
▁controlled	-11.3881
▁clanking	-11.3883
▁crunching	-11.3883
▁pokee	-11.3883
▁plucked	-11.3884
mbass	-11.3884
▁solly	-11.3884
▁chch	-11.3885
▁triplet	-11.3885
▁maga	-11.3885
▁cutler	-11.3885
▁hookers	-11.3886
▁fulfill	-11.3889
▁englishman	-11.3889
burn	-11.3889
▁protective	-11.3891
▁cia	-11.3891
▁alas	-11.3891
▁tess	-11.3891
▁priceless	-11.3892
▁pace	-11.3893
▁spank	-11.3893
▁angeles	-11.3893
▁flushing	-11.3896
▁physically	-11.3896
▁gregg	-11.3896
▁hedge	-11.3897
▁improved	-11.3899
▁strengthen	-11.3899
▁charter	-11.3899
▁blod	-11.3902
▁confirmed	-11.3903
▁flop	-11.3904
▁unlikely	-11.3904
▁tomb	-11.3905
▁gall	-11.3906
▁yito	-11.3907
▁dragged	-11.3908
▁civiliz	-11.3908
▁dc	-11.3908
▁anthat	-11.3909
▁exception	-11.391
lez	-11.3912
▁freezer	-11.3915
▁eighth	-11.3916
now	-11.3916
▁slug	-11.3918
▁spoiled	-11.3923
▁caroline	-11.3923
▁jay	-11.3923
mobile	-11.3926
icious	-11.3929
▁shushing	-11.3935
▁hitch	-11.3935
▁melted	-11.3939
▁satan	-11.3939
▁fig	-11.3942
▁snape	-11.3944
▁pine	-11.3944
▁sewing	-11.3946
goblin	-11.3946
▁taser	-11.3951
▁delivery	-11.3952
▁proposed	-11.3952
▁defeated	-11.3955
▁plank	-11.3956
▁worshiper	-11.3958
▁gaga	-11.3964
▁flooding	-11.3965
▁melting	-11.3967
▁cursed	-11.3968
▁media	-11.397
▁obeying	-11.3974
▁conor	-11.3974
▁fatal	-11.3976
uv	-11.3976
▁lax	-11.3981
▁salty	-11.3982
▁fixin	-11.3984
▁sweaty	-11.3991
pot	-11.3992
▁transferr	-11.3996
▁jr	-11.3997
▁honoured	-11.4001
▁taco	-11.4002
▁weeping	-11.4003
▁passes	-11.4013
▁recognized	-11.4015
▁crosses	-11.402
▁stretched	-11.403
▁leaking	-11.4039
▁protector	-11.4044
▁ooz	-11.4047
dication	-11.4049
▁yelled	-11.4054
bili	-11.4059
▁charmed	-11.407
▁snob	-11.407
ouche	-11.4099
ima	-11.4106
▁bru	-11.4108
▁designer	-11.4123
▁unto	-11.4145
▁gale	-11.4156
▁tame	-11.4157
affe	-11.4185
▁pawn	-11.419
▁badger	-11.4199
▁friggin	-11.4206
▁barbar	-11.422
▁tum	-11.4237
▁donate	-11.4243
▁lug	-11.4244
active	-11.4261
get	-11.4269
▁identi	-11.4279
tract	-11.4324
▁defin	-11.4327
▁constructi	-11.4329
zed	-11.4341
▁recite	-11.4407
logical	-11.443
rance	-11.4465
▁ev	-11.447
mashed	-11.449
▁fasten	-11.4499
ipping	-11.454
▁shin	-11.4571
gram	-11.4574
▁vin	-11.4589
ples	-11.4617
luc	-11.4664
▁crust	-11.469
mour	-11.4744
▁painter	-11.4757
uit	-11.4766
▁mai	-11.4766
▁lik	-11.4812
struction	-11.4819
▁rott	-11.4832
aye	-11.4845
ask	-11.4861
▁cit	-11.4878
▁adventur	-11.4884
▁kni	-11.4891
eens	-11.4903
uel	-11.4913
lew	-11.4918
▁forg	-11.4947
▁elm	-11.4991
wan	-11.5016
▁com	-11.5042
onnie	-11.5065
▁logic	-11.5088
nose	-11.5114
most	-11.5114
take	-11.512
amas	-11.5167
hew	-11.5218
umpty	-11.5246
▁wav	-11.5272
fit	-11.5279
lace	-11.5286
flavored	-11.5311
tore	-11.5324
posed	-11.5347
▁dab	-11.5381
john	-11.539
uil	-11.5445
anne	-11.5465
▁forag	-11.5555
game	-11.5571
▁bam	-11.5578
yak	-11.5601
beth	-11.5605
▁bever	-11.5619
pie	-11.5631
skin	-11.5659
▁retr	-11.5681
▁sho	-11.5684
▁stor	-11.57
novation	-11.5708
bre	-11.5795
cino	-11.58
shaped	-11.5888
▁scat	-11.5905
▁pose	-11.5936
▁audi	-11.597
▁medi	-11.6009
pre	-11.6031
▁squeal	-11.6064
▁whisper	-11.6064
▁exclaim	-11.6066
▁pom	-11.6098
▁muscle	-11.6104
▁teenager	-11.6104
▁arrow	-11.6104
▁gadget	-11.6109
▁pyramid	-11.6109
▁scientist	-11.6109
▁nigger	-11.6111
▁consequence	-11.6112
▁spice	-11.6113
▁sample	-11.6114
▁claw	-11.6119
▁whine	-11.6121
▁swingin	-11.6123
▁scoff	-11.6123
▁jewel	-11.6139
eeee	-11.6168
▁trie	-11.6206
connected	-11.6213
ization	-11.6228
ife	-11.6229
ounding	-11.623
nken	-11.6233
▁anso	-11.6239
suring	-11.6243
▁nogo	-11.626
called	-11.6261
▁bloomin	-11.6262
▁frighten	-11.6264
▁helga	-11.6264
▁continu	-11.6284
▁flush	-11.6289
▁greet	-11.6294
▁papi	-11.6301
▁select	-11.6304
▁confus	-11.6305
▁pluck	-11.6308
▁profession	-11.6313
speed	-11.6316
spect	-11.6316
shirts	-11.6319
sportsman	-11.6319
changes	-11.632
grade	-11.6321
▁describe	-11.6322
walk	-11.6322
▁thirst	-11.6325
world	-11.6325
filled	-11.6325
friendly	-11.6325
worth	-11.6326
driver	-11.6326
opening	-11.6326
keeping	-11.6326
▁marthai	-11.6326
course	-11.6327
flower	-11.6327
piece	-11.6328
▁stead	-11.6328
pilot	-11.6329
wide	-11.633
smith	-11.6331
stage	-11.6332
boat	-11.6333
▁immediate	-11.6333
bright	-11.6333
▁gigant	-11.6334
tender	-11.6334
capable	-11.6334
mock	-11.6335
month	-11.6337
▁practical	-11.6338
▁successful	-11.6339
▁steel	-11.634
comb	-11.6341
▁precise	-11.6341
pool	-11.6342
▁russia	-11.6342
occupied	-11.6343
▁religio	-11.6344
▁kindergarten	-11.6345
layed	-11.6346
▁allergi	-11.6346
▁contribut	-11.6346
▁adopt	-11.6346
▁automat	-11.6347
level	-11.6347
▁assign	-11.6347
tention	-11.6347
eather	-11.6347
▁gibber	-11.6348
▁confide	-11.6348
qualified	-11.6349
▁egypt	-11.6349
▁hind	-11.6349
▁occur	-11.6349
measur	-11.6349
▁cigar	-11.635
▁giganto	-11.635
▁deceptic	-11.635
▁eliza	-11.635
ncarna	-11.635
fuge	-11.635
▁frequen	-11.635
▁virtual	-11.635
▁environment	-11.635
avocado	-11.635
greatgrandmother	-11.635
hearted	-11.635
possibility	-11.635
responsibilities	-11.635
schnitzel	-11.635
sufficient	-11.635
visibility	-11.635
▁aaarg	-11.635
▁accompany	-11.635
▁accurate	-11.635
▁acrophobia	-11.635
▁afghanistan	-11.635
▁akhiya	-11.635
▁almighty	-11.635
▁amazon	-11.635
▁ambition	-11.635
▁arachnneka	-11.635
▁attentive	-11.635
▁autumn	-11.635
▁avenue	-11.635
▁balcony	-11.635
▁baloney	-11.635
▁baltese	-11.635
▁baudricourt	-11.635
▁beauregarde	-11.635
▁befall	-11.635
▁beryllium	-11.635
▁blitz	-11.635
▁branson	-11.635
▁broccoli	-11.635
▁bundle	-11.635
▁burglar	-11.635
▁calendar	-11.635
▁canaveral	-11.635
▁cannibal	-11.635
▁carrgomm	-11.635
▁celebration	-11.635
▁cheeseburger	-11.635
▁chestnut	-11.635
▁chimney	-11.635
▁choochoo	-11.635
▁clevedon	-11.635
▁commencing	-11.635
▁compound	-11.635
▁comprehend	-11.635
▁concrete	-11.635
▁conflict	-11.635
▁congratulate	-11.635
▁conjure	-11.635
▁contagious	-11.635
▁cougar	-11.635
▁croods	-11.635
▁cunning	-11.635
▁cyclon	-11.635
▁deceiving	-11.635
▁delaford	-11.635
▁diagon	-11.635
▁disagree	-11.635
▁drowsy	-11.635
▁dumdum	-11.635
▁eject	-11.635
▁elegant	-11.635
▁encounter	-11.635
▁enforcement	-11.635
▁enhance	-11.635
▁equi	-11.635
▁esteem	-11.635
▁evolution	-11.635
▁execution	-11.635
▁exosuit	-11.635
▁fascinated	-11.635
▁feminine	-11.635
▁fertilizer	-11.635
▁fingernails	-11.635
▁fjord	-11.635
▁flawless	-11.635
▁flexible	-11.635
▁flirtatious	-11.635
▁frustrating	-11.635
▁futterwacken	-11.635
▁gertrude	-11.635
▁gestapo	-11.635
▁gloom	-11.635
▁gravity	-11.635
▁grazie	-11.635
▁gretel	-11.635
▁guidance	-11.635
▁gypsies	-11.635
▁hallucinat	-11.635
▁hampstead	-11.635
▁hawks	-11.635
▁heavier	-11.635
▁hedgehog	-11.635
▁hobbies	-11.635
▁humiliating	-11.635
▁hutchins	-11.635
▁hyperventilat	-11.635
▁imaginary	-11.635
▁immortal	-11.635
▁indebted	-11.635
▁industri	-11.635
▁innocence	-11.635
▁intriguing	-11.635
▁invaded	-11.635
▁invading	-11.635
▁investigating	-11.635
▁ironhide	-11.635
▁jonathan	-11.635
▁kathleen	-11.635
▁kettle	-11.635
▁korrd	-11.635
▁laboratory	-11.635
▁labradoodle	-11.635
▁lesbian	-11.635
▁librarian	-11.635
▁lntyre	-11.635
▁luchador	-11.635
▁lucinda	-11.635
▁mammoth	-11.635
▁marquis	-11.635
▁marshmallow	-11.635
▁mattress	-11.635
▁mccarthy	-11.635
▁melody	-11.635
▁mercenary	-11.635
▁metaphor	-11.635
▁mimosa	-11.635
▁miniaturize	-11.635
▁minimum	-11.635
▁mischief	-11.635
▁monstrous	-11.635
▁montreal	-11.635
▁moscow	-11.635
▁nickname	-11.635
▁norrin	-11.635
▁nougat	-11.635
▁optimistic	-11.635
▁outcast	-11.635
▁panpisco	-11.635
▁parseltongue	-11.635
▁penetrate	-11.635
▁persnikitty	-11.635
▁persuasi	-11.635
▁petunia	-11.635
▁phony	-11.635
▁platter	-11.635
▁pneumonia	-11.635
▁pollito	-11.635
▁pretens	-11.635
▁prevail	-11.635
▁provoke	-11.635
▁quidditch	-11.635
▁railsworth	-11.635
▁rapidly	-11.635
▁ravage	-11.635
▁recruit	-11.635
▁reflex	-11.635
▁rejoic	-11.635
▁replacing	-11.635
▁reservation	-11.635
▁revolting	-11.635
▁rheims	-11.635
▁romulan	-11.635
▁roulette	-11.635
▁ruffians	-11.635
▁sanitary	-11.635
▁sansweet	-11.635
▁scrimshaw	-11.635
▁selfesteem	-11.635
▁shackleton	-11.635
▁shaggy	-11.635
▁shanghai	-11.635
▁shenzi	-11.635
▁shuddering	-11.635
▁shudders	-11.635
▁significant	-11.635
▁sleigh	-11.635
▁slumber	-11.635
▁smithsonian	-11.635
▁somewhat	-11.635
▁spaghetti	-11.635
▁spiderwick	-11.635
▁sponge	-11.635
▁sprang	-11.635
▁spuddies	-11.635
▁squirm	-11.635
▁squirt	-11.635
▁stallyns	-11.635
▁stirred	-11.635
▁stupendous	-11.635
▁sturdy	-11.635
▁sunglasses	-11.635
▁superduper	-11.635
▁supermarket	-11.635
▁superstition	-11.635
▁supervisor	-11.635
▁surveillance	-11.635
▁sybil	-11.635
▁sympathy	-11.635
▁terminated	-11.635
▁thorough	-11.635
▁throttle	-11.635
▁thunderstorms	-11.635
▁turkish	-11.635
▁tweedledum	-11.635
▁twirl	-11.635
▁unacceptable	-11.635
▁ungrateful	-11.635
▁unpredictable	-11.635
▁ursula	-11.635
▁vaccinate	-11.635
▁veronica	-11.635
▁vicksburgs	-11.635
▁vijay	-11.635
▁virtue	-11.635
▁vitamin	-11.635
▁waistcoat	-11.635
▁walden	-11.635
▁wazoo	-11.635
▁whirring	-11.635
▁whwhy	-11.635
▁wilcox	-11.635
▁wisconsin	-11.635
▁wwwait	-11.635
▁yvonne	-11.635
▁argus	-11.635
▁blares	-11.635
▁brooklyn	-11.635
▁chickenshit	-11.635
▁colleen	-11.635
▁deacon	-11.635
▁dibble	-11.635
▁dishonor	-11.635
▁extensi	-11.635
▁galahad	-11.635
▁gilbert	-11.635
▁henri	-11.635
▁hollow	-11.635
▁imminent	-11.635
▁liquid	-11.635
▁maggot	-11.635
▁methane	-11.635
▁monologu	-11.635
▁pantoni	-11.635
▁peewee	-11.635
▁petition	-11.635
▁plateau	-11.635
▁posterized	-11.635
▁predict	-11.635
▁raymond	-11.635
▁richmond	-11.635
▁ripple	-11.635
▁shawl	-11.635
▁thighs	-11.635
▁trousers	-11.635
▁trustworthy	-11.635
▁wheat	-11.635
hurst	-11.635
january	-11.635
▁aorta	-11.635
▁arnie	-11.635
▁bonnet	-11.635
▁cereal	-11.635
▁churn	-11.635
▁debate	-11.635
▁deputy	-11.635
▁evaluat	-11.635
▁filch	-11.635
▁frequently	-11.635
▁furnish	-11.635
▁gesture	-11.635
▁holland	-11.635
▁impertinen	-11.635
▁mickey	-11.635
▁polka	-11.635
▁puck	-11.635
▁restrict	-11.635
▁sheesh	-11.635
▁sleeppile	-11.635
▁slimy	-11.635
▁snail	-11.635
▁stool	-11.635
▁testimon	-11.635
▁wacko	-11.635
▁womb	-11.635
▁bulb	-11.635
▁estimate	-11.635
▁flaming	-11.635
▁petrol	-11.635
▁propaga	-11.635
▁scalp	-11.635
▁session	-11.635
▁snoop	-11.635
pods	-11.635
▁alicia	-11.635
▁baboon	-11.635
▁empti	-11.635
▁fowl	-11.635
▁guild	-11.635
▁irritat	-11.635
▁legacy	-11.635
▁senate	-11.635
▁sixteen	-11.635
▁toppling	-11.635
from	-11.635
opher	-11.635
▁beagle	-11.635
▁fourteen	-11.635
▁grove	-11.635
▁hyper	-11.635
▁lutz	-11.635
▁noisy	-11.635
▁repent	-11.635
▁resort	-11.635
▁trimmings	-11.635
▁twerp	-11.635
▁conservatoire	-11.635
▁converse	-11.635
▁flare	-11.635
▁grinning	-11.635
▁hesitating	-11.635
▁immature	-11.635
▁outcome	-11.635
▁swoop	-11.635
▁turf	-11.635
▁waterloo	-11.635
▁youknowwh	-11.635
▁dvd	-11.635
anide	-11.635
▁absence	-11.635
▁cardiologist	-11.635
▁claus	-11.635
▁clerk	-11.635
▁memorize	-11.635
▁politicians	-11.635
▁zeke	-11.635
approval	-11.635
▁groin	-11.635
▁ryder	-11.635
▁apri	-11.635
▁cardinal	-11.635
▁balm	-11.635
▁berry	-11.635
▁knives	-11.635
▁staging	-11.635
▁chord	-11.635
▁exports	-11.635
▁measuring	-11.635
▁monsoon	-11.635
▁piggies	-11.635
▁swirl	-11.635
feit	-11.635
▁alleg	-11.635
shire	-11.635
▁nansen	-11.635
berries	-11.635
ezvous	-11.635
▁corset	-11.635
pulsive	-11.635
▁dribbl	-11.635
▁joyride	-11.635
▁seattle	-11.635
▁verb	-11.635
▁ascen	-11.635
▁bapti	-11.635
▁courtesy	-11.635
▁locksley	-11.635
▁swiss	-11.635
tuzo	-11.635
▁borneo	-11.635
▁stimulat	-11.635
▁briefcase	-11.635
▁foxington	-11.635
▁democrat	-11.635
▁crumbling	-11.635
▁halves	-11.635
▁teammates	-11.635
▁doris	-11.635
▁inhospitable	-11.635
▁barging	-11.635
▁laddie	-11.635
▁disarmament	-11.635
▁crazier	-11.635
▁neighbourhood	-11.635
▁sacr	-11.635
▁undertake	-11.635
▁funky	-11.635
kyo	-11.635
▁demonstrate	-11.635
▁famine	-11.6351
▁mongoose	-11.6351
▁appliance	-11.6351
▁repeatedly	-11.6351
▁peach	-11.6351
▁civilian	-11.6351
▁rowboat	-11.6351
▁description	-11.6351
▁trotting	-11.6351
▁dominate	-11.6351
▁nerd	-11.6351
▁crude	-11.6351
▁floyd	-11.6351
▁splashdown	-11.6351
▁inconvenience	-11.6351
▁jumprop	-11.6351
▁revis	-11.6351
▁aaaaa	-11.6351
▁flipped	-11.6351
▁butch	-11.6351
▁representative	-11.6351
ibel	-11.6351
▁compassionate	-11.6351
▁maniacally	-11.6351
▁mauri	-11.6351
▁milord	-11.6351
▁frivida	-11.6351
▁genetic	-11.6351
▁psychotic	-11.6351
▁canker	-11.6351
▁excessive	-11.6351
▁meditat	-11.6351
▁jammed	-11.6351
▁rival	-11.6351
▁pedal	-11.6351
▁stalk	-11.6351
▁efficien	-11.6351
narr	-11.6351
▁infectio	-11.6351
▁ounce	-11.6351
▁spooky	-11.6351
▁surgeon	-11.6351
▁plumber	-11.6351
▁occasionally	-11.6351
▁cheerio	-11.6352
▁dustpan	-11.6352
▁snore	-11.6352
▁drumming	-11.6352
▁creek	-11.6352
▁promote	-11.6352
▁incorrect	-11.6352
▁valise	-11.6352
▁aroma	-11.6352
▁stump	-11.6352
olence	-11.6352
▁pinata	-11.6352
▁gregory	-11.6352
▁degrad	-11.6352
▁instructor	-11.6352
▁denial	-11.6352
▁cried	-11.6352
▁exterminator	-11.6352
▁bummer	-11.6352
▁organisation	-11.6352
▁polar	-11.6352
▁hoohoo	-11.6352
▁shades	-11.6352
▁trifl	-11.6352
▁stubb	-11.6352
▁semental	-11.6353
jammies	-11.6353
▁hibernation	-11.6353
▁pipeline	-11.6353
▁participate	-11.6353
▁agenda	-11.6353
▁spiritual	-11.6353
▁membership	-11.6353
▁cogs	-11.6353
▁climate	-11.6353
▁flick	-11.6353
▁profound	-11.6353
▁esquire	-11.6353
▁scour	-11.6353
▁klan	-11.6353
pture	-11.6353
▁aero	-11.6353
▁lobe	-11.6353
▁lurk	-11.6353
▁contribution	-11.6354
▁selection	-11.6354
▁decree	-11.6354
▁ruthless	-11.6354
▁salute	-11.6354
▁booger	-11.6354
▁portside	-11.6354
▁cupboard	-11.6354
▁catalog	-11.6354
▁grise	-11.6354
▁complimentary	-11.6354
▁astro	-11.6354
▁retirement	-11.6354
▁quest	-11.6354
▁duran	-11.6354
▁isle	-11.6354
▁memorial	-11.6354
▁roadblock	-11.6354
▁jalape	-11.6354
▁huph	-11.6354
▁chalo	-11.6354
▁equality	-11.6354
▁jewish	-11.6354
▁stature	-11.6354
▁bryan	-11.6355
▁prior	-11.6355
▁fester	-11.6355
youre	-11.6355
▁bleeds	-11.6355
▁underway	-11.6355
▁marvel	-11.6355
▁tread	-11.6355
ctwi	-11.6355
▁holly	-11.6355
hill	-11.6356
▁broom	-11.6356
▁oom	-11.6356
▁amiable	-11.6356
▁decoration	-11.6356
▁trenches	-11.6356
flakes	-11.6356
▁gutter	-11.6356
▁shred	-11.6356
▁colour	-11.6356
▁roland	-11.6356
▁tasty	-11.6356
▁grill	-11.6356
▁runner	-11.6356
▁unoccupied	-11.6356
▁scam	-11.6357
▁reference	-11.6357
▁ripping	-11.6357
▁ruth	-11.6357
▁entertainment	-11.6357
▁refreshment	-11.6357
▁bullied	-11.6357
stabbing	-11.6357
▁finch	-11.6357
▁religion	-11.6357
▁portland	-11.6357
▁afoot	-11.6358
▁dislike	-11.6358
▁converters	-11.6358
stille	-11.6358
▁blush	-11.6358
▁earring	-11.6358
▁sofie	-11.6358
▁communicate	-11.6358
▁admiral	-11.6358
pronounc	-11.6358
▁yearbook	-11.6359
▁meaningful	-11.6359
▁nursery	-11.6359
▁harri	-11.6359
▁kari	-11.6359
▁chili	-11.6359
▁toodle	-11.6359
▁scenery	-11.6359
▁satisfying	-11.6359
▁exhausting	-11.636
▁harness	-11.636
▁gateway	-11.636
▁observation	-11.636
▁joyfully	-11.636
▁bzz	-11.636
▁hooper	-11.636
▁uhuhuh	-11.6361
▁drape	-11.6361
▁flock	-11.6361
▁scum	-11.6361
▁lime	-11.6361
▁development	-11.6361
▁honourable	-11.6362
▁actua	-11.6362
▁construction	-11.6362
▁shone	-11.6362
▁obedience	-11.6362
▁antenna	-11.6362
▁african	-11.6362
▁tourist	-11.6362
▁aaahh	-11.6362
▁drift	-11.6362
▁perch	-11.6362
▁willi	-11.6362
▁carrie	-11.6362
▁draft	-11.6362
▁passport	-11.6363
▁expired	-11.6363
closure	-11.6363
▁dedicated	-11.6363
▁suckup	-11.6363
kety	-11.6363
▁peak	-11.6363
▁marsh	-11.6363
▁crackling	-11.6363
▁deliberately	-11.6363
▁plump	-11.6364
▁amber	-11.6364
▁buh	-11.6364
▁jury	-11.6365
▁triba	-11.6365
▁anwhat	-11.6365
▁admitted	-11.6365
▁lust	-11.6365
leine	-11.6365
▁warship	-11.6365
▁losin	-11.6365
▁dramatically	-11.6366
▁hobo	-11.6366
▁baking	-11.6366
▁dodo	-11.6366
▁alteration	-11.6366
▁columnist	-11.6366
▁notion	-11.6366
▁rice	-11.6366
▁laura	-11.6367
eager	-11.6367
▁peril	-11.6367
▁halen	-11.6367
▁courageous	-11.6367
▁trav	-11.6367
▁midst	-11.6368
▁curb	-11.6368
▁barge	-11.6368
▁donation	-11.6369
▁brandt	-11.6369
▁ivy	-11.6369
▁crunchy	-11.6369
▁assembled	-11.6369
▁gladys	-11.6369
▁stow	-11.6369
▁region	-11.637
▁comme	-11.637
▁cubby	-11.6371
▁cities	-11.6372
▁gook	-11.6372
▁sync	-11.6372
▁curve	-11.6372
▁shipped	-11.6373
▁canna	-11.6373
▁kra	-11.6374
▁ohhh	-11.6374
▁ferr	-11.6374
▁muck	-11.6376
▁paco	-11.6377
▁acceptable	-11.6377
arnish	-11.6377
▁sparkle	-11.6378
▁beatles	-11.6378
hattering	-11.6378
▁headache	-11.6378
baum	-11.6378
▁instantly	-11.6379
▁marco	-11.6379
▁skid	-11.6379
▁mack	-11.638
▁duh	-11.638
▁soar	-11.638
▁swore	-11.6381
▁mouthful	-11.6381
ometer	-11.6381
▁frown	-11.6382
▁attached	-11.6382
▁suspended	-11.6382
▁flattered	-11.6382
▁bruised	-11.6382
▁pep	-11.6382
hhh	-11.6384
▁disable	-11.6384
▁tech	-11.6384
▁colum	-11.6384
▁racy	-11.6385
▁swede	-11.6386
dale	-11.6387
▁overse	-11.6388
▁hover	-11.6388
gun	-11.6388
▁achieved	-11.6388
▁ignored	-11.6388
▁certifi	-11.6389
aiala	-11.639
▁dug	-11.639
pick	-11.639
▁sheer	-11.639
▁joyous	-11.639
▁goldman	-11.6391
▁everyday	-11.6392
▁your	-11.6392
ggado	-11.6394
▁tapping	-11.6395
▁moonli	-11.6396
▁rive	-11.6396
▁delegate	-11.6396
▁pitches	-11.6396
mom	-11.6398
▁wrapper	-11.64
▁rever	-11.64
▁kent	-11.6401
▁experimental	-11.6401
▁warmth	-11.6401
▁wolfie	-11.6403
▁operational	-11.6403
▁thump	-11.6404
▁wiser	-11.6404
▁dreadfully	-11.6405
▁glori	-11.6406
ntz	-11.6406
▁defy	-11.6407
▁fulltime	-11.6408
▁traditional	-11.6409
▁shallow	-11.6409
▁accessor	-11.641
▁insp	-11.6413
▁showoff	-11.6414
utant	-11.6415
lip	-11.6418
▁pank	-11.6418
rjob	-11.6419
▁rack	-11.6422
▁honky	-11.6422
▁sass	-11.6422
▁serpent	-11.6428
▁protection	-11.6429
ancing	-11.643
▁hup	-11.643
▁sap	-11.643
▁moss	-11.6431
▁sunk	-11.6434
▁anim	-11.6434
tech	-11.6437
▁superb	-11.6441
gene	-11.6444
▁mule	-11.6445
▁wooh	-11.6446
▁dale	-11.6446
▁rend	-11.6452
▁violat	-11.6454
▁suz	-11.6456
sits	-11.6458
lio	-11.6464
scar	-11.6466
obble	-11.6467
▁pap	-11.6468
▁mona	-11.6471
▁tolerate	-11.6472
▁pint	-11.6474
▁kat	-11.6476
azing	-11.6479
▁wither	-11.6485
▁abu	-11.6485
▁vert	-11.6488
▁rig	-11.6488
▁pip	-11.649
omic	-11.6493
▁statue	-11.6494
bot	-11.6508
▁kate	-11.6523
▁duet	-11.6523
▁smither	-11.6532
▁stash	-11.6533
▁zoom	-11.6552
▁weaken	-11.6554
mination	-11.6555
▁augustin	-11.656
▁wel	-11.6595
▁enthusiastic	-11.6599
▁laker	-11.66
icated	-11.6603
trapped	-11.6604
▁guin	-11.6609
▁craz	-11.6612
arrell	-11.6629
▁panick	-11.6639
▁loco	-11.6655
▁arse	-11.6661
▁relocat	-11.6684
unnel	-11.672
▁tingl	-11.6724
bourg	-11.674
▁hurr	-11.6742
▁masse	-11.6747
▁smie	-11.6773
▁penne	-11.6779
oise	-11.6796
identifi	-11.6833
▁regal	-11.6864
uffe	-11.6879
▁scatt	-11.6942
▁incidental	-11.6948
▁stepp	-11.6958
oppers	-11.7027
▁diplomat	-11.7034
▁forb	-11.7064
▁dimi	-11.7123
▁admir	-11.7155
atta	-11.7156
igato	-11.7159
▁squat	-11.7216
▁mala	-11.7229
aux	-11.7233
▁blackeye	-11.7271
omen	-11.7307
bleh	-11.7311
mine	-11.7346
rah	-11.735
▁wrappe	-11.7364
karo	-11.7383
llis	-11.7478
▁bett	-11.7501
tack	-11.7556
impo	-11.7575
▁oran	-11.7598
▁tolera	-11.7795
stance	-11.7863
▁manipulat	-11.7911
jectory	-11.7934
▁puzzle	-11.7965
udding	-11.7984
ipper	-11.8012
▁supervise	-11.8045
▁vit	-11.8054
▁regrett	-11.8059
▁baker	-11.806
three	-11.8205
unting	-11.8258
ulkin	-11.827
▁scr	-11.8446
▁advanc	-11.8466
uckling	-11.8557
▁squa	-11.8585
▁rappin	-11.8778
igger	-11.878
muff	-11.8781
rania	-11.879
▁diploma	-11.8803
▁construct	-11.8869
▁creat	-11.8871
arian	-11.8962
▁cru	-11.899
guardian	-11.9067
▁damag	-11.9074
▁intimidate	-11.9076
spel	-11.913
obby	-11.9174
▁dick	-11.9221
everage	-11.9226
▁fro	-11.9229
▁statu	-11.9271
▁plac	-11.9314
ndant	-11.9352
▁cough	-11.9399
ceived	-11.9428
▁snag	-11.9428
riffi	-11.9434
▁vulture	-11.9437
▁crocodile	-11.9441
▁knot	-11.9441
▁element	-11.9442
▁obstacle	-11.9443
▁viol	-11.9444
traction	-11.9445
▁affair	-11.9446
▁luyden	-11.9446
▁orphan	-11.945
▁glove	-11.9453
tortion	-11.9467
▁vei	-11.9488
torious	-11.9517
▁appetit	-11.9571
▁civil	-11.9573
rpentine	-11.9576
▁raci	-11.9582
udic	-11.9584
job	-11.9584
▁blond	-11.9592
▁recip	-11.9593
▁crunch	-11.9599
shells	-11.96
onnais	-11.9607
sync	-11.9608
▁promis	-11.9613
graphic	-11.9617
▁injur	-11.9618
phones	-11.9619
bums	-11.9625
kids	-11.9626
▁applaud	-11.9628
▁murmur	-11.9629
▁provid	-11.9629
astic	-11.963
▁clank	-11.9633
▁devot	-11.9637
▁suspend	-11.9639
▁establish	-11.964
▁strik	-11.9641
▁attach	-11.9642
▁crook	-11.9643
▁inevitabl	-11.9644
▁trill	-11.9651
▁yuk	-11.9652
cream	-11.9655
▁amaze	-11.9655
earing	-11.9656
zoom	-11.9656
▁flatter	-11.9657
▁iv	-11.9657
▁singsong	-11.9657
scheduled	-11.9658
cooked	-11.9658
worm	-11.9658
crossed	-11.9658
fleet	-11.9658
▁temporar	-11.9658
apple	-11.9658
generation	-11.9658
washed	-11.9658
▁slid	-11.9658
▁dumm	-11.9659
glass	-11.9659
sharing	-11.9659
credit	-11.9659
pipe	-11.9659
american	-11.9659
proper	-11.9659
famous	-11.9659
bridge	-11.9659
jungle	-11.9659
broken	-11.9659
prison	-11.9659
jump	-11.9659
control	-11.9659
would	-11.9659
support	-11.9659
record	-11.966
meaning	-11.966
▁pictur	-11.966
drop	-11.966
weight	-11.9661
punch	-11.9661
self	-11.9662
muck	-11.9662
coast	-11.9663
▁marrie	-11.9664
chuck	-11.9665
▁deliberate	-11.9665
▁sophi	-11.9666
▁presum	-11.9666
plant	-11.9666
ggles	-11.9667
human	-11.9668
dark	-11.9668
cool	-11.9668
paper	-11.9669
▁dodg	-11.9672
▁villa	-11.9672
▁isabell	-11.9673
▁arrogan	-11.9674
linda	-11.9674
rabbits	-11.9674
▁glen	-11.9674
forte	-11.9674
▁trench	-11.9675
▁shakin	-11.9678
▁volcan	-11.9678
▁makin	-11.9678
correct	-11.9678
▁magnif	-11.9678
▁televisi	-11.9679
▁hibernat	-11.9679
▁enlarg	-11.968
mhmm	-11.968
▁easie	-11.968
▁syn	-11.968
stitution	-11.9681
unction	-11.9681
▁specif	-11.9681
▁excess	-11.9681
▁substan	-11.9681
▁practi	-11.9682
hair	-11.9682
▁flee	-11.9682
degree	-11.9683
knuckle	-11.9683
forgiv	-11.9683
▁confer	-11.9683
▁pilgrim	-11.9683
▁hypothe	-11.9683
▁evaporati	-11.9683
oepolish	-11.9683
▁incompeten	-11.9683
▁melodrama	-11.9683
accompanied	-11.9683
blahblahblah	-11.9683
cyclop	-11.9683
drudd	-11.9683
greatgreat	-11.9683
heinliken	-11.9683
humiliation	-11.9683
oaoa	-11.9683
osaurus	-11.9683
paragraph	-11.9683
rresponsible	-11.9683
vietnam	-11.9683
▁abilities	-11.9683
▁abroad	-11.9683
▁adolescent	-11.9683
▁adrenal	-11.9683
▁affliction	-11.9683
▁afghan	-11.9683
▁ambush	-11.9683
▁antonio	-11.9683
▁anxiet	-11.9683
▁apocalyp	-11.9683
▁aquarium	-11.9683
▁armagnac	-11.9683
▁arrgh	-11.9683
▁artificial	-11.9683
▁astonish	-11.9683
▁athens	-11.9683
▁bagshaw	-11.9683
▁ballplayer	-11.9683
▁battalion	-11.9683
▁baylene	-11.9683
▁beethoven	-11.9683
▁bertie	-11.9683
▁blabbering	-11.9683
▁blackberry	-11.9683
▁bleeker	-11.9683
▁blenker	-11.9683
▁boeuf	-11.9683
▁boggart	-11.9683
▁bonsoir	-11.9683
▁bourbon	-11.9683
▁bribe	-11.9683
▁brussels	-11.9683
▁burgundy	-11.9683
▁buttocks	-11.9683
▁casanova	-11.9683
▁cataclysm	-11.9683
▁categories	-11.9683
▁cauldron	-11.9683
▁central	-11.9683
▁centuries	-11.9683
▁challenging	-11.9683
▁chantrellines	-11.9683
▁cheerleading	-11.9683
▁chocolatier	-11.9683
▁chopstick	-11.9683
▁chunks	-11.9683
▁circulation	-11.9683
▁clobber	-11.9683
▁cobbler	-11.9683
▁coexist	-11.9683
▁collaps	-11.9683
▁colleague	-11.9683
▁collision	-11.9683
▁commotion	-11.9683
▁communist	-11.9683
▁compadre	-11.9683
▁compresse	-11.9683
▁concussion	-11.9683
▁conquest	-11.9683
▁conspicuous	-11.9683
▁conspirator	-11.9683
▁contradict	-11.9683
▁contraption	-11.9683
▁convenient	-11.9683
▁convincing	-11.9683
▁correspondence	-11.9683
▁corrupt	-11.9683
▁corvette	-11.9683
▁couscous	-11.9683
▁crippled	-11.9683
▁crumpets	-11.9683
▁culprit	-11.9683
▁culverin	-11.9683
▁currants	-11.9683
▁cutthroat	-11.9683
▁dawson	-11.9683
▁deactivat	-11.9683
▁debutante	-11.9683
▁decipher	-11.9683
▁democracy	-11.9683
▁diabolical	-11.9683
▁diarmuid	-11.9683
▁diarrhea	-11.9683
▁discomfort	-11.9683
▁discretion	-11.9683
▁disintegrate	-11.9683
▁dispatch	-11.9683
▁distress	-11.9683
▁doorknob	-11.9683
▁doughnut	-11.9683
▁earthquakes	-11.9683
▁effley	-11.9683
▁elected	-11.9683
▁endeavors	-11.9683
▁enlighten	-11.9683
▁enrich	-11.9683
▁escargot	-11.9683
▁evidently	-11.9683
▁exaggerati	-11.9683
▁examination	-11.9683
▁excusezmoi	-11.9683
▁facilit	-11.9683
▁fairfarren	-11.9683
▁ferocious	-11.9683
▁fironic	-11.9683
▁fitzherbert	-11.9683
▁fragile	-11.9683
▁francine	-11.9683
▁freud	-11.9683
▁furrows	-11.9683
▁gambler	-11.9683
▁gaucourt	-11.9683
▁gazerbeam	-11.9683
▁geoffrey	-11.9683
▁gerbil	-11.9683
▁giuseppe	-11.9683
▁glimpse	-11.9683
▁godfather	-11.9683
▁grandchildren	-11.9683
▁grizzly	-11.9683
▁hairspray	-11.9683
▁hamilton	-11.9683
▁hazelnut	-11.9683
▁hideandseek	-11.9683
▁hillbillies	-11.9683
▁hollandaise	-11.9683
▁honeymaren	-11.9683
▁horribly	-11.9683
▁hufflepuff	-11.9683
▁hypnotize	-11.9683
▁identification	-11.9683
▁imagining	-11.9683
▁immaculat	-11.9683
▁immensely	-11.9683
▁impeccable	-11.9683
▁impound	-11.9683
▁improvis	-11.9683
▁inappropriate	-11.9683
▁indestructible	-11.9683
▁induce	-11.9683
▁injustice	-11.9683
▁inscription	-11.9683
▁inseparable	-11.9683
▁insuricare	-11.9683
▁intercept	-11.9683
▁invasion	-11.9683
▁investigation	-11.9683
▁invoice	-11.9683
▁ixnay	-11.9683
▁jupiter	-11.9683
▁kaleigh	-11.9683
▁kilbourne	-11.9683
▁klondike	-11.9683
▁kobaya	-11.9683
▁krystal	-11.9683
▁kupkakeinator	-11.9683
▁latrine	-11.9683
▁lavaughn	-11.9683
▁lettuce	-11.9683
▁liberal	-11.9683
▁lindsey	-11.9683
▁linguist	-11.9683
▁lullabies	-11.9683
▁macready	-11.9683
▁mainsail	-11.9683
▁makalo	-11.9683
▁maquina	-11.9683
▁marseilles	-11.9683
▁mcginty	-11.9683
▁menatarms	-11.9683
▁milliwatt	-11.9683
▁miraculous	-11.9683
▁misfortune	-11.9683
▁misjudged	-11.9683
▁mitchie	-11.9683
▁monolith	-11.9683
▁mumbai	-11.9683
▁mutual	-11.9683
▁narcissism	-11.9683
▁narrow	-11.9683
▁navigation	-11.9683
▁negotiation	-11.9683
▁ninerniner	-11.9683
▁norwegian	-11.9683
▁nuisance	-11.9683
▁nutrients	-11.9683
▁obedient	-11.9683
▁obituar	-11.9683
▁obradycallaghan	-11.9683
▁occurrence	-11.9683
▁october	-11.9683
▁oklahoma	-11.9683
▁oppress	-11.9683
▁oregon	-11.9683
▁outlook	-11.9683
▁overreacting	-11.9683
▁parakeet	-11.9683
▁parallel	-11.9683
▁paycheck	-11.9683
▁peckerwood	-11.9683
▁perimeter	-11.9683
▁perspective	-11.9683
▁phantom	-11.9683
▁philippines	-11.9683
▁physician	-11.9683
▁piwate	-11.9683
▁plausibility	-11.9683
▁plausible	-11.9683
▁pleasing	-11.9683
▁precaution	-11.9683
▁prefect	-11.9683
▁premises	-11.9683
▁preparation	-11.9683
▁presidency	-11.9683
▁pretzel	-11.9683
▁preview	-11.9683
▁propeller	-11.9683
▁prosecutor	-11.9683
▁protocol	-11.9683
▁prototype	-11.9683
▁psalm	-11.9683
▁pudknocker	-11.9683
▁raksha	-11.9683
▁reassemble	-11.9683
▁recognition	-11.9683
▁recycled	-11.9683
▁recycling	-11.9683
▁redemption	-11.9683
▁reelection	-11.9683
▁registration	-11.9683
▁regroup	-11.9683
▁reinforcements	-11.9683
▁relevant	-11.9683
▁remorse	-11.9683
▁repellent	-11.9683
▁residents	-11.9683
▁rhinos	-11.9683
▁righteousness	-11.9683
▁saintloup	-11.9683
▁sayonara	-11.9683
▁schwartzman	-11.9683
▁scissors	-11.9683
▁scorch	-11.9683
▁scoundrel	-11.9683
▁scuttle	-11.9683
▁sebastopol	-11.9683
▁selfloath	-11.9683
▁semester	-11.9683
▁sheriff	-11.9683
▁shipwreck	-11.9683
▁significance	-11.9683
▁sinsational	-11.9683
▁skedaddle	-11.9683
▁skunk	-11.9683
▁slurping	-11.9683
▁smother	-11.9683
▁smoulder	-11.9683
▁smurf	-11.9683
▁snooze	-11.9683
▁snorting	-11.9683
▁solemn	-11.9683
▁solleks	-11.9683
▁soprano	-11.9683
▁sorrow	-11.9683
▁soundwave	-11.9683
▁spacecraft	-11.9683
▁spionom	-11.9683
▁splendor	-11.9683
▁spontaneous	-11.9683
▁steadfast	-11.9683
▁stradivarius	-11.9683
▁sublime	-11.9683
▁surprisi	-11.9683
▁survivor	-11.9683
▁swiped	-11.9683
▁synchroniz	-11.9683
▁tandoori	-11.9683
▁tarpaulin	-11.9683
▁technician	-11.9683
▁telemart	-11.9683
▁tempests	-11.9683
▁terreray	-11.9683
▁territori	-11.9683
▁thaddeus	-11.9683
▁theatre	-11.9683
▁thirsk	-11.9683
▁thriving	-11.9683
▁toboland	-11.9683
▁toothpaste	-11.9683
▁tourelles	-11.9683
▁treacher	-11.9683
▁trespassing	-11.9683
▁triangle	-11.9683
▁trinket	-11.9683
▁troubling	-11.9683
▁tweedledee	-11.9683
▁twentysixth	-11.9683
▁twostroke	-11.9683
▁unaware	-11.9683
▁unbearable	-11.9683
▁underpantyworld	-11.9683
▁unemploy	-11.9683
▁unharmed	-11.9683
▁unmovable	-11.9683
▁unnecessary	-11.9683
▁unrealistic	-11.9683
▁unreasonable	-11.9683
▁utensil	-11.9683
▁vancouver	-11.9683
▁vaucouleurs	-11.9683
▁vegetarian	-11.9683
▁villapianos	-11.9683
▁vinegar	-11.9683
▁vulnerable	-11.9683
▁waistband	-11.9683
▁welfare	-11.9683
▁weselton	-11.9683
▁whatsoever	-11.9683
▁whatwhat	-11.9683
▁windshield	-11.9683
▁wlfe	-11.9683
▁wreaths	-11.9683
▁xavier	-11.9683
▁xosha	-11.9683
▁zodiac	-11.9683
contented	-11.9683
forsaken	-11.9683
▁bababa	-11.9683
▁benefic	-11.9683
▁brainiac	-11.9683
▁certificate	-11.9683
▁chainsaw	-11.9683
▁chronic	-11.9683
▁cinnamon	-11.9683
▁disorder	-11.9683
▁extravagan	-11.9683
▁exxon	-11.9683
▁fossil	-11.9683
▁ghoul	-11.9683
▁gibble	-11.9683
▁hampton	-11.9683
▁invincib	-11.9683
▁length	-11.9683
▁retaliat	-11.9683
▁scurry	-11.9683
▁sustain	-11.9683
▁tissue	-11.9683
▁uproot	-11.9683
▁volleyball	-11.9683
▁yourejokin	-11.9683
nanimous	-11.9683
▁apron	-11.9683
▁beehive	-11.9683
▁benign	-11.9683
▁blackmail	-11.9683
▁blarda	-11.9683
▁caesar	-11.9683
▁clooney	-11.9683
▁cockadoodle	-11.9683
▁cruising	-11.9683
▁dekko	-11.9683
▁detroit	-11.9683
▁devious	-11.9683
▁errol	-11.9683
▁essence	-11.9683
▁flesheating	-11.9683
▁harlem	-11.9683
▁mamba	-11.9683
▁outrun	-11.9683
▁pablo	-11.9683
▁pimple	-11.9683
▁plead	-11.9683
▁ramsbottom	-11.9683
▁regiment	-11.9683
▁serene	-11.9683
▁severus	-11.9683
▁shattered	-11.9683
▁slippery	-11.9683
▁smythe	-11.9683
▁titani	-11.9683
▁tucson	-11.9683
▁vacant	-11.9683
▁whinnying	-11.9683
▁whopper	-11.9683
▁wrath	-11.9683
▁abide	-11.9683
▁billiard	-11.9683
▁bleak	-11.9683
▁cepes	-11.9683
▁duplicate	-11.9683
▁embrace	-11.9683
▁fridge	-11.9683
▁graveyard	-11.9683
▁gravy	-11.9683
▁hedwig	-11.9683
▁inclined	-11.9683
▁martian	-11.9683
▁outlaw	-11.9683
▁outstanding	-11.9683
▁plymouth	-11.9683
▁popsicle	-11.9683
▁rivier	-11.9683
▁shelf	-11.9683
▁stopwatch	-11.9683
▁unworthy	-11.9683
▁vendor	-11.9683
▁verified	-11.9683
▁whatcha	-11.9683
compatible	-11.9683
▁editor	-11.9683
▁frood	-11.9683
▁googoo	-11.9683
▁hydro	-11.9683
▁identify	-11.9683
▁impatient	-11.9683
▁metallic	-11.9683
▁motorcar	-11.9683
▁pancakes	-11.9683
▁pivot	-11.9683
▁revive	-11.9683
▁sermon	-11.9683
▁sugarlips	-11.9683
▁suprem	-11.9683
▁swole	-11.9683
▁tibbs	-11.9683
▁whizzing	-11.9683
▁yeesh	-11.9683
▁abort	-11.9683
▁armpit	-11.9683
▁merlin	-11.9683
▁mitts	-11.9683
▁morton	-11.9683
▁muscular	-11.9683
▁nauseous	-11.9683
▁philip	-11.9683
▁shira	-11.9683
▁terminal	-11.9683
▁amusing	-11.9683
▁analog	-11.9683
▁blaming	-11.9683
▁error	-11.9683
▁illustrat	-11.9683
▁laurie	-11.9683
▁token	-11.9683
▁urine	-11.9683
▁venus	-11.9683
▁agitat	-11.9683
▁retard	-11.9683
feller	-11.9683
vavoom	-11.9683
▁bandaid	-11.9683
▁contaminated	-11.9683
▁flippers	-11.9683
▁labato	-11.9683
▁oaf	-11.9683
▁shatters	-11.9683
▁candid	-11.9683
▁cinch	-11.9683
▁karen	-11.9683
▁prescott	-11.9683
▁symp	-11.9683
▁tunic	-11.9683
▁visible	-11.9683
itzer	-11.9683
▁diving	-11.9683
▁dreary	-11.9683
▁parasite	-11.9683
▁rumours	-11.9683
▁smuggle	-11.9683
▁stabbed	-11.9683
▁swabbi	-11.9683
▁carcass	-11.9683
▁endanger	-11.9683
▁fiesta	-11.9683
▁incurable	-11.9683
▁onward	-11.9683
▁otra	-11.9683
▁retching	-11.9683
▁scoop	-11.9683
▁senna	-11.9683
antoinette	-11.9683
▁bulg	-11.9683
▁draco	-11.9683
▁retain	-11.9683
▁sperm	-11.9683
▁thaw	-11.9683
absorbe	-11.9683
▁transmitt	-11.9683
▁houseelf	-11.9683
▁poppies	-11.9683
▁spicy	-11.9683
▁warbling	-11.9683
▁endorse	-11.9683
▁halfwit	-11.9683
▁lawsuits	-11.9683
▁quadr	-11.9683
▁tootsie	-11.9683
▁casualties	-11.9683
▁compost	-11.9683
▁leiter	-11.9683
▁tampa	-11.9683
▁maud	-11.9683
▁nevertheless	-11.9683
▁thieves	-11.9683
▁hacker	-11.9683
▁scanning	-11.9683
tility	-11.9683
▁sausage	-11.9683
▁chemical	-11.9683
▁whupp	-11.9683
▁entice	-11.9683
▁reckless	-11.9683
▁classmates	-11.9683
▁gallons	-11.9683
▁altar	-11.9683
▁arena	-11.9683
▁dorm	-11.9683
▁cpr	-11.9683
▁prosper	-11.9683
▁reenter	-11.9683
▁blaze	-11.9683
▁candidates	-11.9683
▁jingling	-11.9683
▁vibes	-11.9683
▁hisself	-11.9683
▁pilgrimtown	-11.9683
▁stint	-11.9683
▁tombstone	-11.9683
disputed	-11.9683
▁gloat	-11.9683
▁lvor	-11.9684
▁vamos	-11.9684
whiskers	-11.9684
▁toothpick	-11.9684
▁fanning	-11.9684
▁dazzl	-11.9684
▁vaporize	-11.9684
▁cedar	-11.9684
▁eldest	-11.9684
▁stewart	-11.9684
▁devonshire	-11.9684
▁appreciative	-11.9684
▁rebui	-11.9684
dynamic	-11.9684
▁beauties	-11.9684
▁textbook	-11.9684
▁automobile	-11.9684
▁millionaire	-11.9684
▁geroni	-11.9684
▁thorn	-11.9684
homicid	-11.9684
▁dyna	-11.9684
▁motivat	-11.9684
▁onion	-11.9684
▁convertible	-11.9684
▁downhill	-11.9684
▁assets	-11.9684
▁propane	-11.9684
▁seventyfive	-11.9684
▁hisses	-11.9684
▁underwater	-11.9684
▁cocktail	-11.9684
▁hostess	-11.9684
dignified	-11.9684
▁hardships	-11.9684
ourself	-11.9684
▁plunder	-11.9684
▁heinz	-11.9684
▁butterscotch	-11.9684
▁gravestone	-11.9684
▁appreciation	-11.9684
▁boobs	-11.9684
▁whoohoohoo	-11.9684
▁humina	-11.9684
▁oxford	-11.9684
▁shelves	-11.9684
▁geology	-11.9684
▁warrant	-11.9684
leviat	-11.9684
scotch	-11.9684
▁ethical	-11.9684
oggin	-11.9684
▁parading	-11.9684
▁starscream	-11.9685
cetera	-11.9685
▁kingswater	-11.9685
▁chrissy	-11.9685
▁reginald	-11.9685
▁summar	-11.9685
▁blouse	-11.9685
▁seeonee	-11.9685
▁fortnight	-11.9685
▁vicki	-11.9685
▁patmore	-11.9685
▁greaseball	-11.9685
▁calvin	-11.9685
▁reenlargement	-11.9685
▁indicate	-11.9685
▁hippie	-11.9685
▁dirtbag	-11.9685
▁bracelet	-11.9685
gritty	-11.9685
▁avert	-11.9685
▁wuss	-11.9685
▁deniers	-11.9685
▁asia	-11.9685
▁brumble	-11.9685
▁redheads	-11.9685
▁adjust	-11.9685
▁salina	-11.9685
▁exalt	-11.9685
slash	-11.9685
▁flapping	-11.9685
▁ofjo	-11.9685
▁groceries	-11.9685
ampered	-11.9685
genital	-11.9685
▁clingy	-11.9685
▁peasant	-11.9685
▁sissy	-11.9685
▁avery	-11.9685
▁cooperative	-11.9685
▁hohohoho	-11.9685
▁depriv	-11.9685
▁trapdoor	-11.9685
▁granger	-11.9686
phee	-11.9686
▁communication	-11.9686
▁conviction	-11.9686
▁depression	-11.9686
▁misery	-11.9686
▁hunch	-11.9686
▁gwen	-11.9686
▁wrapping	-11.9686
▁alcoholic	-11.9686
▁nibbl	-11.9686
▁bonehead	-11.9686
▁fuck	-11.9686
▁informally	-11.9686
▁teapot	-11.9686
▁froth	-11.9686
▁departure	-11.9686
▁priority	-11.9686
▁korea	-11.9686
▁rogue	-11.9686
▁dough	-11.9686
▁jewelry	-11.9687
▁shabby	-11.9687
▁inquiring	-11.9687
▁tension	-11.9687
▁magnific	-11.9687
▁tits	-11.9687
▁furious	-11.9687
watts	-11.9687
▁belgi	-11.9687
▁bonnie	-11.9687
▁mortif	-11.9687
▁humour	-11.9687
▁methodist	-11.9687
▁clima	-11.9688
▁dye	-11.9688
jac	-11.9688
▁canteen	-11.9688
▁pillar	-11.9688
▁waltz	-11.9688
▁yiwhe	-11.9688
▁irma	-11.9688
▁dimple	-11.9688
class	-11.9688
llinger	-11.9688
▁moonlight	-11.9688
▁nuance	-11.9688
▁dusk	-11.9688
▁cheeseray	-11.9689
▁decade	-11.9689
▁oilcan	-11.9689
▁mwah	-11.9689
▁danno	-11.9689
▁voil	-11.9689
▁adoption	-11.9689
▁measl	-11.9689
▁trolley	-11.9689
▁loop	-11.9689
igible	-11.9689
ujah	-11.9689
▁starlight	-11.9689
nuck	-11.9689
▁whamm	-11.9689
▁kindergarteners	-11.9689
▁pelt	-11.9689
▁dork	-11.969
rainstorm	-11.969
▁underland	-11.969
▁vowel	-11.969
▁tickling	-11.969
▁arcee	-11.969
▁attendance	-11.969
▁susie	-11.969
▁draught	-11.969
▁sleepwalk	-11.969
▁tryouts	-11.9691
▁comf	-11.9691
▁crock	-11.9691
▁hesitate	-11.9691
▁incar	-11.9691
▁kerb	-11.9691
gggg	-11.9691
▁casa	-11.9692
▁perfume	-11.9692
▁attendant	-11.9692
▁independent	-11.9692
▁webster	-11.9692
airie	-11.9692
▁permitted	-11.9692
▁gonads	-11.9692
▁graceful	-11.9693
▁stitch	-11.9693
▁capit	-11.9693
▁aqua	-11.9693
▁gingy	-11.9693
▁exhibition	-11.9693
▁spun	-11.9693
▁journalist	-11.9694
▁fez	-11.9694
▁whack	-11.9695
▁outof	-11.9695
▁booyah	-11.9695
▁pompo	-11.9695
▁foam	-11.9695
reign	-11.9696
▁transformation	-11.9696
▁tumble	-11.9696
▁beings	-11.9696
▁snowball	-11.9696
▁appar	-11.9696
▁frantic	-11.9696
▁snout	-11.9696
▁anita	-11.9697
▁freelanc	-11.9697
▁ridley	-11.9697
southwest	-11.9697
▁diff	-11.9697
▁digger	-11.9697
▁siler	-11.9697
kami	-11.9697
▁splitting	-11.9698
▁chapter	-11.9698
▁polo	-11.9698
▁geese	-11.9698
▁amor	-11.9699
▁timber	-11.9699
▁skiv	-11.9699
cake	-11.9699
ohohoh	-11.97
▁lndian	-11.97
▁whang	-11.97
▁anthere	-11.97
▁swoon	-11.97
eddin	-11.9701
umbling	-11.9701
ofthem	-11.9702
▁posing	-11.9702
▁snuffl	-11.9702
▁rash	-11.9702
▁temptation	-11.9704
▁spru	-11.9705
▁dung	-11.9705
ncis	-11.9705
acity	-11.9706
ienne	-11.9706
iscard	-11.9707
▁grim	-11.9707
▁reuni	-11.9707
▁decorator	-11.9708
▁cbs	-11.9709
▁upper	-11.9709
▁pox	-11.971
▁moore	-11.971
▁rake	-11.971
▁doings	-11.9711
ashb	-11.9712
▁clam	-11.9712
▁magi	-11.9718
▁brag	-11.972
bishop	-11.9721
▁semi	-11.9721
▁mangle	-11.9722
lliance	-11.973
▁programme	-11.9736
▁cando	-11.9739
▁monk	-11.9746
dric	-11.9746
▁composit	-11.9768
▁fisherm	-11.977
▁pennil	-11.9781
▁barbie	-11.9783
▁bruis	-11.9786
▁offi	-11.9789
▁bulldog	-11.9809
▁recur	-11.9816
daisies	-11.9824
azi	-11.9834
▁disconnect	-11.9841
scepti	-11.9848
▁genie	-11.986
bottom	-11.9861
▁abuse	-11.9883
rummy	-11.989
hereabouts	-11.9892
▁funnie	-11.9893
while	-11.9907
▁uncertaint	-11.9909
terran	-11.9915
▁dimwitte	-11.9943
▁mastermind	-11.9944
trud	-11.9966
▁poob	-11.9987
tolerable	-11.9989
shee	-11.9991
uran	-11.9996
hahahahaha	-12.002
haul	-12.0045
▁travell	-12.0076
laws	-12.0081
rob	-12.013
inheritance	-12.0158
court	-12.0171
▁souffl	-12.0172
audible	-12.0244
unders	-12.029
▁stripp	-12.0336
staf	-12.0338
▁whaaa	-12.0375
▁pierc	-12.0378
▁appli	-12.0383
▁pudd	-12.0391
ammed	-12.0485
▁obstructi	-12.0487
humping	-12.0496
ccino	-12.0552
▁contra	-12.0562
▁dundundu	-12.0587
▁misch	-12.0609
▁poise	-12.0639
▁renovat	-12.065
▁nin	-12.0679
antics	-12.0681
ribb	-12.0747
avia	-12.0779
elves	-12.0785
tobe	-12.083
kov	-12.0948
▁metropoli	-12.0982
ickens	-12.1055
▁anwh	-12.1077
happy	-12.1131
declar	-12.1183
▁interpret	-12.1224
detected	-12.1296
tythree	-12.1413
tipped	-12.146
▁advis	-12.1475
▁understa	-12.1583
▁puzzl	-12.1754
onald	-12.1787
alami	-12.1821
ipulate	-12.1833
goldberg	-12.1937
▁seiz	-12.2021
ompton	-12.2225
jub	-12.2282
▁regrettabl	-12.2289
objective	-12.2324
organism	-12.2398
▁instruct	-12.2432
interpreted	-12.258
void	-12.263
trum	-12.2756
▁silenc	-12.2841
▁tortur	-12.3069
curr	-12.3105
▁destruct	-12.3328
▁apologiz	-12.3361
▁contrar	-12.3363
▁jumb	-12.3639
dependent	-12.3701
auer	-12.3799
▁seduc	-12.3918
variabl	-12.3941
servant	-12.3968
▁thi	-12.398
lush	-12.3992
umph	-12.4109
▁physi	-12.412
heater	-12.4146
charted	-12.4181
doubted	-12.4272
▁dimwit	-12.4272
fixes	-12.4296
ckenb	-12.4363
ustache	-12.4376
▁snicker	-12.4384
▁gulp	-12.4389
▁squawk	-12.4396
▁emotion	-12.4397
▁trumpet	-12.4401
▁ancestor	-12.4443
▁carnotaur	-12.4447
▁lantern	-12.4447
▁spider	-12.4448
▁sidekick	-12.445
▁splutter	-12.4452
position	-12.4522
▁consul	-12.4522
▁hydra	-12.4537
treated	-12.4542
sipp	-12.4558
▁fulfil	-12.4571
▁delegat	-12.4579
count	-12.458
building	-12.4584
▁sneez	-12.4585
▁separat	-12.4594
tification	-12.4595
▁receiv	-12.46
corro	-12.4609
▁fenc	-12.4614
▁invit	-12.4625
▁engag	-12.4626
ucky	-12.4628
▁vocaliz	-12.463
▁foller	-12.4631
▁depress	-12.4636
▁assembl	-12.4639
▁resign	-12.4639
▁publish	-12.464
▁obsess	-12.464
insula	-12.4644
▁dedicate	-12.4654
▁expire	-12.4654
▁excite	-12.4654
obedience	-12.4656
drift	-12.4656
▁lndia	-12.4656
antenna	-12.4656
guin	-12.4657
defy	-12.4657
abbits	-12.4657
belief	-12.4657
phrase	-12.4657
temperature	-12.4657
protective	-12.4657
▁beyon	-12.4657
goyle	-12.4658
author	-12.4658
evidence	-12.4658
jinx	-12.4658
brush	-12.4658
eaves	-12.4659
limited	-12.4659
text	-12.4659
▁antiqu	-12.4659
speaker	-12.4659
daughter	-12.4659
sensitive	-12.4659
develop	-12.4659
available	-12.4659
uhuhuh	-12.4659
confidence	-12.4659
changing	-12.4659
winning	-12.4659
boyfriend	-12.4659
grown	-12.4659
understood	-12.4659
balance	-12.4659
professional	-12.4659
▁jabberwock	-12.4659
sniffing	-12.4659
▁strateg	-12.4659
figured	-12.4659
difference	-12.4659
grew	-12.4659
girl	-12.4659
growing	-12.4659
brother	-12.4659
indistinct	-12.4659
wrote	-12.4659
▁opportunit	-12.466
loved	-12.466
crowd	-12.466
crazy	-12.466
magic	-12.466
▁emergenc	-12.466
cheese	-12.466
first	-12.466
theyre	-12.466
safe	-12.466
guests	-12.466
birth	-12.4661
▁communicat	-12.4661
▁societ	-12.4661
telling	-12.4661
▁tood	-12.4663
▁numb	-12.4663
▁wond	-12.4664
▁fantasti	-12.4665
▁precis	-12.4665
▁merri	-12.4666
▁literal	-12.4667
▁hustl	-12.4668
▁olensk	-12.4669
▁independen	-12.4673
▁carniv	-12.4675
▁sentiment	-12.4675
horts	-12.4675
▁gamblin	-12.4678
▁drivin	-12.4678
▁leavin	-12.4678
▁competiti	-12.4679
▁alcohol	-12.4679
▁squee	-12.4679
evils	-12.4679
