<unk>	0
<s>	0
</s>	0
s	-3.09481
ing	-4.58471
▁im	-4.61009
ed	-4.65585
▁know	-4.71066
▁dont	-4.73678
▁get	-4.90278
▁go	-4.97218
▁like	-5.04785
d	-5.06191
▁right	-5.07532
▁youre	-5.14144
▁come	-5.1476
y	-5.16766
e	-5.17647
▁got	-5.20314
▁yeah	-5.22173
▁	-5.28325
▁one	-5.29386
▁oh	-5.31021
▁well	-5.32865
▁thats	-5.35036
▁na	-5.35593
a	-5.42336
er	-5.42603
▁okay	-5.44874
▁want	-5.4875
▁see	-5.50169
▁good	-5.52388
▁think	-5.55717
t	-5.57738
▁hey	-5.58104
▁back	-5.67342
▁l	-5.68406
▁man	-5.69064
▁gon	-5.71263
▁going	-5.72861
▁us	-5.73149
r	-5.79392
▁look	-5.80009
▁time	-5.80563
▁yes	-5.80813
▁take	-5.8129
n	-5.82944
▁need	-5.86732
▁hes	-5.89072
▁cant	-5.89425
in	-5.92337
p	-5.9348
▁ill	-5.93913
ly	-5.96267
▁say	-5.97761
▁would	-5.99833
m	-6.00139
i	-6.00515
▁tell	-6.01201
g	-6.02113
▁really	-6.03391
o	-6.09897
▁could	-6.10614
▁didnt	-6.11914
▁make	-6.12298
▁let	-6.12806
▁way	-6.1515
b	-6.15246
▁lets	-6.17198
▁sir	-6.19694
▁whats	-6.20787
▁never	-6.21008
▁something	-6.21235
al	-6.21781
c	-6.22181
▁love	-6.22812
▁thank	-6.23432
▁mean	-6.24712
▁sorry	-6.26232
▁little	-6.28235
▁please	-6.30399
es	-6.37506
▁two	-6.38237
▁theres	-6.38238
▁god	-6.39119
sp	-6.39286
▁give	-6.39296
▁mr	-6.40002
le	-6.41689
▁ive	-6.42
▁people	-6.42125
▁help	-6.43501
▁thing	-6.46388
▁stop	-6.46616
▁even	-6.47224
or	-6.47369
ar	-6.47458
l	-6.47862
▁said	-6.48038
f	-6.50497
h	-6.53044
▁nb	-6.54229
▁life	-6.54494
▁call	-6.55003
▁work	-6.56672
▁keep	-6.57153
▁s	-6.57541
▁find	-6.5762
▁guys	-6.58871
▁wait	-6.58883
▁uh	-6.59085
▁much	-6.59253
▁day	-6.59296
▁home	-6.60873
▁sure	-6.60915
u	-6.62068
an	-6.62135
w	-6.65986
k	-6.66552
▁theyre	-6.66633
on	-6.67006
▁great	-6.68337
▁first	-6.69828
▁re	-6.71468
▁anything	-6.71648
▁still	-6.7167
▁car	-6.72423
▁stay	-6.72758
▁hi	-6.72878
z	-6.73203
▁put	-6.73476
ion	-6.73837
en	-6.74021
▁ta	-6.74431
ch	-6.74698
▁maybe	-6.75594
it	-6.76372
▁shes	-6.77211
▁must	-6.77936
ic	-6.78271
▁feel	-6.79473
▁new	-6.80039
▁ever	-6.81407
▁hell	-6.81691
▁move	-6.82338
re	-6.82983
v	-6.84132
▁nothing	-6.84582
▁thought	-6.84667
▁night	-6.8499
▁better	-6.85005
▁last	-6.85092
▁talk	-6.85349
▁leave	-6.85408
▁music	-6.85624
▁a	-6.88357
▁place	-6.89079
▁name	-6.89308
▁always	-6.89715
▁de	-6.91087
▁around	-6.91269
▁everything	-6.9194
▁guy	-6.92793
▁listen	-6.9308
▁away	-6.93322
▁long	-6.93367
▁youve	-6.94222
▁world	-6.95618
el	-6.96078
▁show	-6.96097
▁c	-6.9651
▁believe	-6.96543
▁left	-6.96543
▁mom	-6.96564
▁kind	-6.96782
▁boy	-6.98445
▁big	-6.99943
▁done	-7.00167
▁coming	-7.0064
▁lot	-7.00871
▁wan	-7.01083
▁old	-7.01693
et	-7.01915
▁shit	-7.02433
ation	-7.03081
ro	-7.03092
▁money	-7.0312
▁dad	-7.03898
▁told	-7.04389
▁nice	-7.04901
▁doesnt	-7.05148
▁girl	-7.05304
▁kill	-7.05387
▁ready	-7.05413
ie	-7.05432
▁made	-7.06086
▁every	-7.06104
▁years	-7.07312
▁play	-7.07336
ri	-7.07595
▁hello	-7.08039
▁id	-7.0861
▁b	-7.08957
▁son	-7.09175
▁st	-7.09209
▁hear	-7.09349
▁hold	-7.09447
th	-7.09498
il	-7.0952
▁three	-7.0988
▁head	-7.10033
is	-7.10365
▁in	-7.10965
▁bad	-7.11233
▁p	-7.11241
▁door	-7.11293
▁thanks	-7.11879
▁care	-7.12168
la	-7.13234
▁enough	-7.13721
▁fine	-7.14335
▁un	-7.14416
▁miss	-7.14499
▁open	-7.14577
▁family	-7.14846
▁wont	-7.15414
▁might	-7.15428
▁things	-7.15846
us	-7.1635
▁playing	-7.16513
▁g	-7.16557
▁someone	-7.17136
▁youll	-7.17432
▁course	-7.17716
ers	-7.18694
ment	-7.18706
▁real	-7.19387
▁remember	-7.19774
▁huh	-7.21908
▁house	-7.21927
▁m	-7.22556
▁f	-7.2353
▁mother	-7.24971
▁run	-7.2499
st	-7.25102
▁wrong	-7.25272
▁dead	-7.25906
▁bring	-7.25922
▁mind	-7.26018
▁father	-7.2686
ur	-7.27153
▁came	-7.27832
ter	-7.27931
▁wanted	-7.28039
▁today	-7.28139
ve	-7.28416
▁tonight	-7.28462
▁talking	-7.28715
▁school	-7.28803
▁kid	-7.29272
▁th	-7.2957
▁best	-7.29916
▁woman	-7.30426
▁end	-7.30531
id	-7.30951
▁phone	-7.31133
▁another	-7.31757
▁isnt	-7.32094
▁em	-7.32354
▁mar	-7.33042
▁um	-7.33185
▁friend	-7.33396
▁else	-7.34141
▁found	-7.35521
▁w	-7.35621
▁ah	-7.35843
▁hard	-7.3614
▁getting	-7.36159
▁room	-7.36973
▁guess	-7.37624
ate	-7.37693
▁watch	-7.38038
ent	-7.38195
▁next	-7.38334
▁may	-7.38777
▁damn	-7.39414
▁looking	-7.39655
▁understand	-7.39776
▁baby	-7.39784
▁happened	-7.4037
x	-7.40481
est	-7.40565
ce	-7.40768
▁knew	-7.4087
▁wasnt	-7.40871
ies	-7.40971
▁ch	-7.41137
▁trying	-7.41139
▁live	-7.41694
▁job	-7.41733
▁start	-7.4182
▁game	-7.41992
▁try	-7.42001
ll	-7.42396
▁r	-7.42808
▁la	-7.42843
▁heart	-7.43022
at	-7.43108
age	-7.43161
▁ask	-7.43409
▁pretty	-7.43473
▁aint	-7.43475
▁die	-7.43577
ir	-7.43914
▁whole	-7.44252
▁k	-7.44439
▁meet	-7.44777
li	-7.45083
am	-7.45285
▁check	-7.45374
man	-7.45587
▁gun	-7.4568
▁weve	-7.45787
▁turn	-7.45811
▁men	-7.45881
▁sighs	-7.46145
▁fire	-7.46325
▁part	-7.46734
▁problem	-7.46921
▁morning	-7.47704
ke	-7.47807
▁hit	-7.48192
▁cause	-7.49293
▁many	-7.49916
▁chuckles	-7.5019
▁e	-7.50691
▁seen	-7.5108
▁be	-7.51511
▁everyone	-7.5216
▁brother	-7.52174
▁fight	-7.52318
ty	-7.52452
▁pay	-7.52453
▁idea	-7.52695
▁heard	-7.53118
▁actually	-7.53362
▁together	-7.53379
▁already	-7.53779
▁saw	-7.54233
▁ho	-7.54444
▁ass	-7.55026
ity	-7.55058
▁hope	-7.55059
▁hurt	-7.55464
▁d	-7.55724
▁po	-7.5585
▁everybody	-7.55889
▁sh	-7.56212
▁bit	-7.56702
lo	-7.56737
ig	-7.56799
▁went	-7.56832
▁second	-7.57014
ist	-7.57136
▁five	-7.57258
▁city	-7.57276
▁hand	-7.57422
▁use	-7.57953
▁team	-7.58112
▁j	-7.58254
▁clear	-7.58481
▁took	-7.58491
ol	-7.58662
▁wouldnt	-7.5904
▁t	-7.59118
▁without	-7.5936
▁o	-7.59488
te	-7.59616
▁high	-7.59853
ia	-7.60026
▁face	-7.61653
▁mine	-7.61725
ting	-7.61822
▁mo	-7.62473
ul	-7.62493
ance	-7.62551
▁deal	-7.62941
▁hands	-7.62948
▁water	-7.62979
▁dance	-7.63469
able	-7.63864
▁ha	-7.63967
ac	-7.64078
▁ra	-7.64114
▁ok	-7.64192
ta	-7.64597
▁yet	-7.64809
▁killed	-7.65122
▁anyone	-7.65271
▁excuse	-7.65271
▁gone	-7.65381
▁light	-7.65577
▁drink	-7.65741
▁co	-7.66663
▁shot	-7.66728
▁far	-7.66801
▁bar	-7.67148
▁alright	-7.6765
▁crazy	-7.68121
▁called	-7.6817
▁con	-7.68361
▁grunts	-7.68684
▁matter	-7.6909
▁fun	-7.69584
▁al	-7.69876
▁true	-7.70076
▁pass	-7.70526
▁pick	-7.70626
▁friends	-7.70634
um	-7.71461
ow	-7.71652
▁whoa	-7.72143
▁v	-7.72271
▁win	-7.7239
▁stuff	-7.72555
▁easy	-7.72556
▁point	-7.726
▁soon	-7.72791
tor	-7.72839
▁rest	-7.72878
▁lost	-7.73094
▁hot	-7.73614
▁change	-7.74467
▁since	-7.74603
▁days	-7.74859
ant	-7.74874
▁sp	-7.74959
▁ma	-7.74972
▁saying	-7.75303
▁close	-7.75608
▁nobody	-7.75625
▁tomorrow	-7.75625
un	-7.7565
▁four	-7.75661
▁probably	-7.76145
sh	-7.76225
▁party	-7.7638
▁dr	-7.76463
ut	-7.76523
▁whatever	-7.76669
▁walk	-7.76743
ive	-7.77231
▁couldnt	-7.77326
▁whos	-7.77544
▁lm	-7.77639
▁follow	-7.77724
▁alone	-7.7775
▁eyes	-7.77805
▁line	-7.78257
▁happy	-7.78259
▁welcome	-7.78791
▁cut	-7.78956
▁year	-7.79146
▁used	-7.79449
▁late	-7.79677
▁beautiful	-7.79869
▁young	-7.80419
▁wife	-7.80424
▁inside	-7.80438
▁shut	-7.80468
▁read	-7.80486
▁ex	-7.80817
▁safe	-7.81453
▁business	-7.81509
▁worry	-7.81515
▁so	-7.81823
▁police	-7.82061
de	-7.82083
▁book	-7.82204
▁di	-7.82419
▁spanish	-7.82617
▁captain	-7.83175
▁engine	-7.83175
▁cool	-7.83251
▁girls	-7.83395
im	-7.83445
▁forget	-7.83737
▁met	-7.84061
▁havent	-7.84302
ry	-7.84579
▁blood	-7.84873
ma	-7.85219
▁to	-7.85576
▁eat	-7.85684
▁fr	-7.8597
▁trust	-7.86017
▁case	-7.86043
▁gave	-7.8606
▁plan	-7.86339
▁happen	-7.8654
▁pro	-7.86573
▁somebody	-7.86594
▁wish	-7.86646
▁stand	-7.86788
▁drive	-7.86809
▁wheres	-7.87118
▁sit	-7.8715
up	-7.87159
▁death	-7.87177
▁minute	-7.87384
ot	-7.87709
▁week	-7.87946
▁jake	-7.88349
▁six	-7.88379
▁chance	-7.88426
co	-7.88738
▁youd	-7.89113
▁kids	-7.89321
▁ago	-7.89602
▁set	-7.89684
ne	-7.89827
▁full	-7.89878
ness	-7.90052
▁power	-7.90214
▁moment	-7.90392
ha	-7.90568
▁answer	-7.90737
less	-7.90819
▁word	-7.91205
▁cr	-7.91895
▁air	-7.92128
▁side	-7.92161
▁master	-7.92593
▁jo	-7.92857
▁minutes	-7.92987
▁later	-7.93041
ca	-7.93608
ton	-7.93755
▁sc	-7.9378
▁black	-7.93823
na	-7.94177
▁dream	-7.9443
▁number	-7.94434
ff	-7.94653
▁hate	-7.95137
▁da	-7.95282
▁ball	-7.95821
▁continues	-7.95992
▁order	-7.96329
▁hmm	-7.96414
▁supposed	-7.9654
▁train	-7.96603
ine	-7.96761
▁red	-7.96871
▁ro	-7.96983
and	-7.97054
▁street	-7.97615
▁exactly	-7.97639
op	-7.97642
▁speak	-7.98056
ence	-7.98147
▁also	-7.98278
tion	-7.98575
▁break	-7.98606
▁looks	-7.98692
▁lady	-7.98924
▁ten	-7.99144
▁ship	-7.99223
per	-7.99629
▁ba	-8.00029
▁joe	-8.00154
▁perfect	-8.00238
▁town	-8.00354
▁send	-8.0037
▁no	-8.00499
▁speaking	-8.00596
▁bill	-8.00877
▁making	-8.00941
▁wow	-8.0099
da	-8.01005
ell	-8.0109
▁h	-8.01154
▁act	-8.01215
▁war	-8.01469
▁funny	-8.01614
▁taking	-8.01675
▁sleep	-8.01912
▁story	-8.02255
▁least	-8.02265
▁lead	-8.02299
▁free	-8.02329
▁sign	-8.0273
ill	-8.02787
▁throw	-8.02932
ian	-8.03472
▁aye	-8.03626
▁step	-8.0391
qu	-8.04081
ted	-8.04161
ling	-8.04305
son	-8.04326
▁sally	-8.04487
▁working	-8.04539
tra	-8.04665
▁catch	-8.0508
to	-8.05393
do	-8.05654
ure	-8.05833
▁shoot	-8.06094
▁pull	-8.06405
▁white	-8.06452
▁feeling	-8.06474
▁star	-8.06844
ee	-8.06884
ary	-8.07474
▁do	-8.07728
▁report	-8.07802
▁afraid	-8.07828
▁ahead	-8.07866
▁hang	-8.07992
▁ben	-8.08179
▁sun	-8.08231
▁laughing	-8.08461
▁laughs	-8.08489
▁jack	-8.08492
▁dis	-8.08836
▁save	-8.08855
ish	-8.09438
▁sent	-8.09612
po	-8.09652
▁i	-8.09937
▁count	-8.09962
▁charlie	-8.10002
▁important	-8.10002
ap	-8.10018
▁alive	-8.10067
▁means	-8.10114
▁person	-8.10221
▁question	-8.10669
ard	-8.10682
▁fall	-8.10711
▁ladies	-8.10738
▁pa	-8.109
▁ca	-8.10908
▁bl	-8.11013
▁lie	-8.11111
as	-8.11291
ck	-8.11473
▁anymore	-8.11478
▁anyway	-8.11478
▁touch	-8.11478
▁promise	-8.11585
▁thinking	-8.11639
▁grunting	-8.11672
▁boys	-8.11951
▁reason	-8.12225
▁says	-8.12285
▁waiting	-8.12385
▁wants	-8.12808
▁almost	-8.12976
▁stupid	-8.12976
▁james	-8.1303
▁dog	-8.13241
▁pre	-8.13377
▁buy	-8.1339
▁tr	-8.13439
▁learn	-8.13734
bo	-8.13883
▁he	-8.14377
▁behind	-8.14497
ho	-8.14721
▁asked	-8.14898
▁though	-8.15002
▁beat	-8.15155
▁half	-8.16019
▁truth	-8.16041
▁se	-8.16102
▁ab	-8.16116
▁goes	-8.16156
▁an	-8.16521
▁enola	-8.16823
em	-8.16829
oo	-8.17082
tic	-8.1718
ick	-8.17183
ci	-8.1737
▁lose	-8.17939
▁ya	-8.18086
▁ride	-8.18122
▁land	-8.18279
▁expect	-8.18403
▁doctor	-8.18404
▁drop	-8.18473
end	-8.18738
▁picture	-8.19203
▁seven	-8.1922
▁arent	-8.19254
▁ti	-8.19557
▁married	-8.20012
▁honey	-8.20027
▁fl	-8.20502
ber	-8.20707
out	-8.20802
▁voice	-8.20823
▁hurry	-8.20823
▁body	-8.20826
no	-8.20934
▁camp	-8.21677
ful	-8.21912
▁officer	-8.21984
▁vi	-8.22099
ous	-8.22138
ph	-8.22268
▁return	-8.22469
▁trouble	-8.22469
▁mu	-8.22884
▁control	-8.23303
▁class	-8.23303
▁slow	-8.23303
▁tried	-8.23307
▁rock	-8.23369
▁child	-8.24144
▁jimmy	-8.24147
▁ooh	-8.24163
▁top	-8.2417
▁human	-8.24228
j	-8.24269
▁join	-8.24519
ah	-8.24681
▁couple	-8.2499
▁outside	-8.24997
▁panting	-8.25008
▁harlan	-8.25099
king	-8.2518
▁quite	-8.2529
▁bet	-8.25403
he	-8.25504
▁carl	-8.25576
▁different	-8.25845
▁theyll	-8.25845
mo	-8.26181
ny	-8.26276
▁dear	-8.26425
▁sound	-8.26601
mp	-8.26694
▁blow	-8.26756
▁jesus	-8.27577
▁food	-8.27577
▁kiss	-8.27586
▁country	-8.27627
▁makes	-8.27934
▁died	-8.28786
▁fast	-8.29029
▁box	-8.29399
▁screaming	-8.29619
▁past	-8.29661
▁fact	-8.30118
▁anybody	-8.30231
▁bat	-8.30442
▁bo	-8.30607
▁seem	-8.30667
▁john	-8.31106
▁force	-8.31134
▁living	-8.31136
▁luck	-8.31661
▁started	-8.31691
▁times	-8.31873
▁careful	-8.32298
▁victor	-8.32959
▁marta	-8.33098
ble	-8.33254
ping	-8.33255
▁office	-8.335
▁hours	-8.33521
▁lts	-8.33737
▁special	-8.33885
▁record	-8.33885
▁cover	-8.33944
▁fish	-8.34004
▁news	-8.34161
▁america	-8.34294
be	-8.34493
▁parents	-8.34819
▁el	-8.34869
▁test	-8.34965
▁burn	-8.35195
▁protect	-8.35642
▁br	-8.35727
▁million	-8.35763
▁front	-8.35764
▁mess	-8.35912
all	-8.3617
▁ga	-8.36418
▁per	-8.36574
▁secret	-8.36683
▁sister	-8.36736
▁bed	-8.36739
iv	-8.36793
▁bitch	-8.37027
ated	-8.37181
▁cheering	-8.37284
ack	-8.374
▁low	-8.37462
▁le	-8.37464
▁mi	-8.37541
▁itll	-8.37679
▁gentlemen	-8.3768
▁attack	-8.37683
▁running	-8.37686
▁piece	-8.37766
▁pi	-8.37776
▁till	-8.3782
▁king	-8.37828
ang	-8.37936
▁bell	-8.37993
▁com	-8.38004
▁serious	-8.38387
our	-8.38507
▁telling	-8.38621
▁brought	-8.38648
▁clean	-8.38649
▁we	-8.38661
▁bu	-8.38923
▁over	-8.38938
ley	-8.38968
▁sweet	-8.3954
▁chatter	-8.39599
▁horse	-8.3963
▁worth	-8.39651
▁quiet	-8.39653
ng	-8.39729
▁gu	-8.39884
ou	-8.40167
▁strong	-8.40173
ba	-8.40502
▁choice	-8.40618
▁sense	-8.4062
▁hero	-8.40813
▁write	-8.4119
▁taken	-8.41492
▁shouldnt	-8.41618
▁ghost	-8.41618
▁feet	-8.41698
▁key	-8.41937
▁sw	-8.42071
go	-8.42073
▁bag	-8.42251
one	-8.42278
way	-8.42508
▁president	-8.42628
▁movie	-8.42629
▁detective	-8.42634
▁jump	-8.42659
▁kick	-8.42703
▁wh	-8.43282
▁ar	-8.43475
▁straight	-8.43649
▁ground	-8.43649
▁children	-8.43649
▁daddy	-8.43663
▁ju	-8.43782
▁near	-8.43798
ious	-8.4391
▁figure	-8.44035
ak	-8.4426
ru	-8.44306
▁sometimes	-8.44451
▁henry	-8.4468
▁park	-8.44691
▁leg	-8.44692
▁bye	-8.44704
▁along	-8.44709
▁ne	-8.44942
▁gra	-8.45015
▁seat	-8.4517
▁whi	-8.45366
▁leaving	-8.45721
▁contact	-8.45721
▁spirit	-8.45721
▁gasps	-8.45738
▁paul	-8.45798
▁mad	-8.45904
▁sounds	-8.45934
▁wing	-8.46082
▁scared	-8.46379
nt	-8.46421
▁me	-8.46424
▁travel	-8.46774
▁radio	-8.46774
▁either	-8.46774
▁sort	-8.46788
▁hall	-8.46859
▁finish	-8.46873
▁normal	-8.46983
rs	-8.46989
▁copy	-8.47156
▁suit	-8.47218
der	-8.47227
for	-8.47317
▁cat	-8.47481
▁become	-8.47838
▁lord	-8.47855
▁dude	-8.47876
▁fuck	-8.479
▁wed	-8.47934
▁roll	-8.47967
▁hair	-8.47977
▁sam	-8.48069
▁tv	-8.481
ev	-8.48197
▁lives	-8.48595
▁months	-8.48653
▁eye	-8.4876
tt	-8.48832
▁weapon	-8.48913
▁future	-8.48913
▁fool	-8.48914
▁york	-8.48914
▁kidding	-8.48934
ud	-8.48935
▁eight	-8.48957
▁message	-8.48981
▁shall	-8.49027
▁meant	-8.4907
▁wall	-8.49119
lic	-8.49184
▁needs	-8.49297
▁dom	-8.49556
▁z	-8.49708
▁arm	-8.49773
cu	-8.4994
▁husband	-8.5
▁goodbye	-8.50002
▁heres	-8.50087
▁cell	-8.50162
▁smart	-8.51099
▁moving	-8.51102
▁bang	-8.51237
▁en	-8.51258
▁sick	-8.51346
▁asking	-8.51857
▁personal	-8.51924
ip	-8.52013
ile	-8.52138
▁enjoy	-8.5221
▁knock	-8.5221
▁forever	-8.5221
▁small	-8.52211
▁peace	-8.52212
▁fair	-8.52272
▁player	-8.52329
▁able	-8.52715
gh	-8.52731
▁american	-8.52877
▁fa	-8.52941
▁offer	-8.53336
▁suck	-8.53456
lng	-8.5351
▁table	-8.53613
gu	-8.53902
▁card	-8.53933
ii	-8.53945
▁bus	-8.54005
▁fault	-8.5447
bi	-8.5452
▁maam	-8.54594
▁laugh	-8.54627
▁pop	-8.54922
ating	-8.5506
▁lucky	-8.55185
▁pain	-8.55528
▁dark	-8.55583
▁uncle	-8.55621
▁north	-8.55621
▁agent	-8.5564
▁soul	-8.55726
▁cha	-8.559
▁station	-8.56013
▁breathing	-8.56217
▁comp	-8.56335
au	-8.5666
▁wonder	-8.56702
▁birthday	-8.56782
▁perhaps	-8.56782
▁dinner	-8.56782
▁entire	-8.56782
▁truck	-8.568
▁up	-8.56817
▁peter	-8.571
▁yo	-8.57345
▁grow	-8.57594
ite	-8.57812
▁rich	-8.57932
▁sha	-8.57933
ner	-8.57951
▁bobby	-8.57959
▁somewhere	-8.57959
▁sweetwater	-8.57959
▁relax	-8.57959
▁women	-8.57959
▁company	-8.57959
▁road	-8.57964
▁blue	-8.57981
▁gold	-8.58052
▁happens	-8.58818
▁happening	-8.58835
di	-8.58869
▁hows	-8.58872
▁mark	-8.59003
▁hat	-8.59033
ore	-8.5907
▁south	-8.59152
▁short	-8.59161
▁johnny	-8.59186
▁respect	-8.59192
ial	-8.59274
▁seems	-8.59283
▁boat	-8.59291
▁miles	-8.59359
▁chi	-8.59626
▁ken	-8.59667
▁n	-8.59822
▁pe	-8.59967
▁less	-8.60178
▁charge	-8.60316
▁mistake	-8.60354
▁daughter	-8.60408
▁totally	-8.60466
▁carry	-8.60634
▁law	-8.60987
time	-8.61195
▁fe	-8.61424
▁target	-8.61573
▁floor	-8.61574
▁dangerous	-8.61586
▁fix	-8.61622
▁earth	-8.6163
▁unit	-8.61706
▁stick	-8.61709
rr	-8.61802
▁boss	-8.61853
▁rat	-8.61957
▁bud	-8.62046
▁murder	-8.6239
▁christ	-8.62423
▁letter	-8.62459
▁bridge	-8.62808
▁crowd	-8.62809
▁worse	-8.62831
▁track	-8.62844
▁max	-8.62956
ise	-8.62961
ster	-8.63009
▁du	-8.63192
br	-8.63276
ress	-8.63373
▁turned	-8.63391
light	-8.63392
▁cap	-8.6346
▁lam	-8.63495
▁hour	-8.63538
▁goddamn	-8.64058
▁weird	-8.64059
▁angel	-8.64059
▁honor	-8.6406
▁others	-8.6406
▁miller	-8.64071
▁song	-8.64115
▁dress	-8.64136
▁questions	-8.64175
▁date	-8.64215
▁fear	-8.64225
▁hide	-8.64433
ship	-8.64948
▁rain	-8.65007
▁gar	-8.65007
▁shouting	-8.65324
▁buddy	-8.65328
ther	-8.65525
▁finally	-8.65569
▁none	-8.65598
▁fly	-8.6618
▁indistinct	-8.66342
▁si	-8.66343
▁handle	-8.66416
▁breathe	-8.66527
▁definitely	-8.66606
▁groans	-8.66606
▁agree	-8.66607
▁push	-8.66607
▁aunt	-8.66607
▁walt	-8.66634
▁spend	-8.66677
▁foot	-8.66701
▁ski	-8.66788
▁fan	-8.67045
▁bee	-8.67546
▁english	-8.67905
▁theyve	-8.67905
▁gift	-8.67906
▁court	-8.67906
▁cross	-8.67906
▁sing	-8.67918
▁marry	-8.68069
▁wear	-8.68498
▁lock	-8.6874
▁longer	-8.69116
com	-8.69179
ass	-8.69181
▁heavily	-8.6922
▁belong	-8.6922
▁explain	-8.6922
▁freak	-8.69221
▁mouth	-8.69221
▁crew	-8.69223
▁window	-8.69264
▁paper	-8.69291
▁spot	-8.69324
▁saved	-8.69342
ler	-8.69479
▁aj	-8.69517
▁ran	-8.6974
▁quick	-8.70302
▁state	-8.70505
▁gllllan	-8.70554
▁smell	-8.70554
▁nick	-8.7061
▁butt	-8.70645
▁board	-8.70724
▁yu	-8.70744
▁form	-8.70781
▁app	-8.70883
▁base	-8.71009
▁nu	-8.71182
ction	-8.71214
▁sea	-8.71286
▁weeks	-8.71413
▁ringing	-8.71423
▁final	-8.71647
▁hundred	-8.71905
▁early	-8.7229
▁poor	-8.72408
▁building	-8.72457
▁boo	-8.72461
▁hu	-8.72778
▁security	-8.73275
▁glad	-8.7328
▁reach	-8.73408
▁su	-8.73427
▁wind	-8.73605
▁sell	-8.73718
▁killer	-8.74066
▁loved	-8.74136
ast	-8.74149
▁watching	-8.74423
▁singing	-8.74471
▁worked	-8.74601
▁map	-8.74646
▁caught	-8.74664
▁possible	-8.74664
▁ethan	-8.74664
▁visit	-8.74674
▁guard	-8.74708
▁position	-8.74762
▁cu	-8.7525
▁forgive	-8.76072
▁driving	-8.76073
▁swear	-8.76074
▁island	-8.76074
▁hasnt	-8.76076
▁bike	-8.76081
▁rather	-8.7613
▁drug	-8.76203
▁lo	-8.76393
▁missed	-8.76599
▁pen	-8.76816
ight	-8.77033
▁owe	-8.7724
▁accept	-8.77501
▁major	-8.77501
▁david	-8.77501
▁space	-8.77502
▁present	-8.77506
▁mister	-8.77534
ker	-8.77597
▁band	-8.77696
▁lisa	-8.77781
▁mmm	-8.77807
▁calling	-8.7814
▁deep	-8.7873
▁ad	-8.78875
▁across	-8.7895
▁accident	-8.7895
▁gordon	-8.7895
▁history	-8.7895
▁deserve	-8.7895
▁clothes	-8.7895
▁steal	-8.78957
▁tires	-8.78963
▁coach	-8.79005
▁plu	-8.79018
▁cold	-8.79036
▁pack	-8.79069
▁mama	-8.79071
▁calm	-8.79072
▁frank	-8.79072
▁stone	-8.79087
▁raise	-8.79142
ten	-8.7932
▁gl	-8.79349
ally	-8.79628
▁surprise	-8.79773
kin	-8.80175
▁ji	-8.80399
▁amazing	-8.80421
▁member	-8.80433
▁abby	-8.80448
▁draw	-8.80456
▁cash	-8.80524
▁paid	-8.80562
▁mm	-8.80563
▁unless	-8.80619
▁gi	-8.80664
down	-8.8092
▁ow	-8.81172
▁whoo	-8.81293
ical	-8.8142
rate	-8.8143
ven	-8.81525
over	-8.8153
▁sad	-8.81793
▁felt	-8.81915
wa	-8.81917
▁har	-8.81945
▁absolutely	-8.81951
▁finger	-8.81976
▁born	-8.82031
▁range	-8.82071
▁changed	-8.8228
▁words	-8.82524
▁age	-8.826
▁bank	-8.82701
▁broke	-8.83371
▁girlfriend	-8.83428
▁hospital	-8.83428
▁system	-8.83428
▁general	-8.83428
▁coffee	-8.83428
▁search	-8.83429
▁suspect	-8.83436
▁wedding	-8.83438
▁switch	-8.83449
▁richard	-8.83469
off	-8.83516
▁batman	-8.83527
▁grab	-8.83735
▁lu	-8.84032
▁teach	-8.84321
▁mon	-8.84355
▁tai	-8.84646
▁soft	-8.84706
▁imagine	-8.84967
▁aaron	-8.84968
▁glass	-8.84989
▁green	-8.85064
▁wa	-8.85191
▁broken	-8.85264
tu	-8.85407
▁jet	-8.85422
▁mandi	-8.85536
▁rec	-8.8555
▁busy	-8.85808
▁speaks	-8.86186
▁out	-8.86286
▁anywhere	-8.86529
▁college	-8.86529
▁blind	-8.86533
▁hunt	-8.86577
▁tony	-8.86614
▁realize	-8.86631
▁tree	-8.86655
▁port	-8.86737
ik	-8.86823
▁bats	-8.86862
▁maya	-8.86893
ome	-8.86996
▁dare	-8.87047
▁plane	-8.8708
▁tea	-8.87281
▁cop	-8.87362
ium	-8.8784
▁attention	-8.88117
▁crime	-8.88118
▁film	-8.88118
▁self	-8.88119
▁igor	-8.88121
▁soldier	-8.88124
▁gym	-8.88124
▁paint	-8.88149
▁trick	-8.88174
▁block	-8.88182
ron	-8.88221
▁sex	-8.88244
▁trip	-8.88253
▁known	-8.88755
▁folks	-8.89069
▁tran	-8.89316
▁quit	-8.8936
▁shoes	-8.89478
▁private	-8.89729
▁service	-8.89729
▁double	-8.8973
▁tough	-8.8973
▁kept	-8.8975
▁super	-8.89775
▁yall	-8.89856
▁bro	-8.90031
▁race	-8.90156
▁month	-8.90215
▁male	-8.90259
▁ring	-8.90373
led	-8.90508
▁bearing	-8.90648
que	-8.90706
ong	-8.9083
▁art	-8.90886
▁cops	-8.91172
▁pig	-8.91178
▁except	-8.91365
▁exhales	-8.91369
▁linnet	-8.91369
▁heaven	-8.91369
▁machine	-8.91369
▁desert	-8.9137
▁pirate	-8.91398
▁shell	-8.91504
▁fran	-8.91658
▁given	-8.91684
cy	-8.92394
▁inc	-8.92831
▁needed	-8.92912
▁boyfriend	-8.93036
▁club	-8.93036
▁london	-8.93036
▁asshole	-8.93036
▁harvey	-8.93036
▁middle	-8.93036
▁gas	-8.93044
▁favorite	-8.93052
▁sitting	-8.93192
▁wonderful	-8.93366
ility	-8.93433
line	-8.93553
▁screams	-8.93724
▁ii	-8.93903
▁rid	-8.93981
itch	-8.93982
▁gary	-8.94048
▁cheer	-8.94332
▁note	-8.94612
▁instead	-8.9473
▁computer	-8.94731
▁devil	-8.94731
▁german	-8.94732
▁treat	-8.94739
▁mike	-8.94836
▁begin	-8.94924
▁pool	-8.94943
ire	-8.94976
▁share	-8.95017
▁cost	-8.95081
▁seriously	-8.9519
ring	-8.95212
▁sal	-8.95238
▁bird	-8.95372
▁fi	-8.95401
▁fu	-8.95613
▁han	-8.9572
ok	-8.95827
▁del	-8.95846
land	-8.96056
▁brothers	-8.96256
▁va	-8.96295
▁bur	-8.9636
▁dancing	-8.96455
▁church	-8.96455
▁shadow	-8.96455
▁idiot	-8.96455
▁werent	-8.96456
▁scene	-8.96459
▁tired	-8.96465
▁speed	-8.96473
▁magic	-8.96487
▁loud	-8.96489
▁round	-8.96525
▁wake	-8.96525
▁store	-8.96585
▁rick	-8.96586
▁abe	-8.96639
tin	-8.96671
ern	-8.96793
▁west	-8.96911
▁shh	-8.97023
▁wayne	-8.97138
▁inf	-8.97399
va	-8.97567
lin	-8.97595
old	-8.97681
by	-8.97734
▁leader	-8.98092
▁account	-8.98209
▁afternoon	-8.98209
▁awesome	-8.98209
▁thousand	-8.98209
▁punch	-8.98209
▁consider	-8.98209
▁roger	-8.98213
▁vote	-8.98256
▁tight	-8.98273
▁can	-8.98622
▁min	-8.98907
▁allow	-8.99074
men	-8.99214
▁lt	-8.99326
▁fit	-8.9933
▁looked	-8.9945
▁beer	-8.99503
▁lee	-8.99527
▁dent	-8.99689
side	-8.9976
▁rules	-8.99842
▁appreciate	-8.99995
▁remind	-8.99995
▁sheila	-8.99995
▁tewkesbury	-8.99995
▁yesterday	-8.99995
▁derek	-8.99996
▁chief	-8.99997
▁giving	-8.99997
▁wild	-8.99999
▁camera	-9.00007
▁curse	-9.00025
▁information	-9.00039
▁champion	-9.0004
▁beach	-9.00053
▁chattering	-9.00056
▁exist	-9.00169
▁mil	-9.00185
ki	-9.00301
▁bra	-9.00314
▁prove	-9.00328
bu	-9.00577
▁seconds	-9.00673
▁dist	-9.00788
▁yell	-9.00811
▁ver	-9.00908
▁continue	-9.00949
▁missing	-9.01024
▁holy	-9.01118
▁pr	-9.01254
▁starting	-9.01443
▁ear	-9.01602
▁killing	-9.01631
▁evening	-9.0164
▁jets	-9.01651
▁temp	-9.01653
▁san	-9.01768
▁focus	-9.01813
▁pleasure	-9.01813
▁chaplin	-9.01813
▁animal	-9.01813
▁threat	-9.01814
▁click	-9.01814
▁scoffs	-9.01815
▁alex	-9.01815
▁besides	-9.01815
▁bigger	-9.01821
▁tiger	-9.01824
▁yard	-9.01825
▁judge	-9.0183
▁proud	-9.0188
▁partner	-9.01918
▁bear	-9.02172
▁inter	-9.0226
▁cute	-9.02354
uck	-9.02402
▁aw	-9.0275
▁hm	-9.02816
▁def	-9.02988
▁ref	-9.03181
▁hed	-9.03355
vo	-9.03641
▁average	-9.03665
▁rudder	-9.03665
▁forward	-9.03665
▁darling	-9.03665
▁basketball	-9.03666
▁match	-9.03667
▁drunk	-9.03702
▁fill	-9.0393
ier	-9.03932
▁brain	-9.03954
▁roman	-9.03968
▁cher	-9.04341
▁u	-9.04405
mer	-9.04549
ties	-9.04687
▁grand	-9.05517
▁favor	-9.05533
▁bathroom	-9.05552
▁challenge	-9.05552
▁survive	-9.05552
▁poirot	-9.05552
▁group	-9.05552
▁smile	-9.05552
▁francis	-9.05553
▁dramatic	-9.0556
▁sharon	-9.05577
▁amy	-9.05577
▁noise	-9.05608
ever	-9.05716
▁para	-9.0573
▁joes	-9.05736
▁fort	-9.05851
▁tour	-9.05871
▁sub	-9.05957
▁code	-9.06006
▁ace	-9.06334
▁crying	-9.06554
▁opera	-9.06623
▁post	-9.06779
▁meeting	-9.06792
▁notice	-9.06828
▁suppose	-9.06836
▁gre	-9.0689
▁hole	-9.06899
▁lived	-9.06949
head	-9.07072
▁reading	-9.07191
▁language	-9.07475
▁quarter	-9.07475
▁tessa	-9.07475
▁throat	-9.07475
▁yep	-9.07475
▁worried	-9.07475
▁siveth	-9.07475
▁cooper	-9.07476
▁deliver	-9.07476
▁loose	-9.0748
▁bullet	-9.07538
▁swim	-9.0755
▁east	-9.07566
vin	-9.0811
▁prison	-9.08126
ism	-9.08443
▁breath	-9.08539
▁val	-9.08644
▁cheers	-9.08744
lam	-9.08967
▁van	-9.08988
mon	-9.0906
▁lll	-9.09258
▁choose	-9.09435
▁difference	-9.09435
▁bastard	-9.09435
▁snake	-9.09436
▁jerry	-9.09436
▁smoke	-9.09437
▁price	-9.09441
▁area	-9.09446
▁bomb	-9.09464
▁queen	-9.09493
▁all	-9.09548
▁carly	-9.09571
▁gang	-9.09643
▁fell	-9.0966
▁fat	-9.09709
▁dumb	-9.09746
aw	-9.09748
ue	-9.09856
▁closes	-9.0992
▁flower	-9.10005
▁tear	-9.10422
ock	-9.10483
▁lay	-9.10516
▁cry	-9.10572
ka	-9.10769
▁complete	-9.11176
ita	-9.11399
▁forgot	-9.11419
▁bullshit	-9.11435
▁department	-9.11435
▁evidence	-9.11435
▁mountain	-9.11435
▁female	-9.11435
▁situation	-9.11436
▁social	-9.11436
▁simple	-9.11437
▁risk	-9.11437
▁operation	-9.11471
▁ke	-9.11567
▁russian	-9.11592
▁single	-9.11794
the	-9.12006
▁bow	-9.12171
▁states	-9.12208
▁ni	-9.1227
▁cor	-9.12343
▁bone	-9.12701
▁holding	-9.12973
work	-9.12991
▁stole	-9.13188
▁lab	-9.13229
▁joke	-9.13236
fully	-9.13401
▁groaning	-9.13476
▁crash	-9.13477
▁lunch	-9.13478
▁dodgeball	-9.13478
▁third	-9.13479
▁scout	-9.13568
▁extra	-9.13598
▁waste	-9.13615
▁den	-9.13699
▁hotel	-9.13867
▁closed	-9.13969
▁howd	-9.13995
▁ward	-9.14013
▁dogs	-9.14309
▁played	-9.14767
▁fired	-9.14832
edge	-9.14966
▁locked	-9.14979
▁tur	-9.15408
▁harm	-9.15474
▁genius	-9.15559
▁purpose	-9.15559
▁sheriff	-9.15559
▁ticket	-9.1556
▁request	-9.1556
▁whirring	-9.1556
▁repeat	-9.15561
▁stuck	-9.15657
▁fbi	-9.15698
▁sweetie	-9.15753
▁mention	-9.15753
▁screeching	-9.15896
▁field	-9.16042
▁merc	-9.16329
▁file	-9.16367
▁mission	-9.16452
▁tris	-9.16573
▁cont	-9.16964
▁pat	-9.17299
ache	-9.17349
▁ted	-9.17417
unk	-9.17626
▁scar	-9.17665
▁bernardo	-9.17687
▁heavy	-9.17687
▁public	-9.17687
▁ransom	-9.17687
▁regret	-9.17687
▁arrest	-9.17688
▁built	-9.17688
▁garden	-9.17689
▁support	-9.17689
▁beginning	-9.17691
▁dragon	-9.17758
▁cake	-9.17863
▁siren	-9.1788
ize	-9.17993
▁dirty	-9.18027
▁rob	-9.18044
▁nine	-9.18119
▁farm	-9.18134
und	-9.18208
▁moon	-9.18285
▁interested	-9.18309
▁planet	-9.18526
▁cook	-9.18685
▁birds	-9.19045
▁escape	-9.19213
▁woo	-9.19375
gging	-9.19601
▁practice	-9.19861
▁terrible	-9.19861
▁twenty	-9.19861
▁summer	-9.19861
▁jaden	-9.19861
▁charles	-9.19861
▁local	-9.19863
▁cousin	-9.19863
▁horn	-9.19872
▁dying	-9.19892
▁crack	-9.19908
▁whose	-9.19956
▁standard	-9.19981
▁buck	-9.20028
▁sight	-9.201
pping	-9.20222
ade	-9.20239
▁page	-9.20324
▁beth	-9.20689
▁rose	-9.20979
▁faster	-9.21007
▁standing	-9.21514
▁strange	-9.2155
ries	-9.21615
▁walking	-9.21895
▁especially	-9.22083
▁experience	-9.22083
▁greyhound	-9.22083
▁michael	-9.22083
▁bourne	-9.22083
▁type	-9.22084
▁video	-9.22084
▁rachel	-9.22084
▁irish	-9.22085
▁troop	-9.22085
▁sky	-9.22094
▁gotham	-9.22096
▁conversation	-9.2211
▁pants	-9.22116
▁stopped	-9.22122
▁grant	-9.22145
▁losing	-9.22161
ease	-9.22168
tle	-9.22189
▁spell	-9.22234
▁certainly	-9.22311
▁honestly	-9.2234
▁ren	-9.224
▁ox	-9.22401
▁bless	-9.22429
▁putting	-9.2273
▁wood	-9.22755
▁press	-9.22809
▁hill	-9.22917
▁warm	-9.2312
▁hum	-9.23211
▁sleeping	-9.23215
▁add	-9.23343
ition	-9.23659
field	-9.23833
▁feed	-9.23985
▁honest	-9.24096
▁decision	-9.24356
▁official	-9.24356
▁within	-9.24356
▁student	-9.24356
▁cough	-9.24356
▁remain	-9.24357
▁color	-9.24359
▁whatd	-9.2436
▁clan	-9.24396
▁settle	-9.24414
▁loop	-9.24421
▁mmhmm	-9.24439
▁chicken	-9.24448
▁demon	-9.24479
▁arms	-9.24505
▁completely	-9.24655
▁cast	-9.24849
▁lovely	-9.25059
▁flat	-9.2524
▁talked	-9.25522
▁you	-9.25668
▁destroy	-9.25713
▁tom	-9.25849
▁por	-9.25879
▁ann	-9.25939
▁rep	-9.26579
▁confirm	-9.26682
▁lieutenant	-9.26682
▁sergeant	-9.26682
▁witness	-9.26682
▁crown	-9.26682
▁bouc	-9.26683
▁grandpa	-9.26683
▁alarm	-9.26683
▁fresh	-9.26684
▁starboard	-9.26695
▁battle	-9.26711
▁worst	-9.26741
▁jung	-9.26743
▁hiding	-9.26766
▁shane	-9.2677
▁upon	-9.26944
▁rule	-9.26971
▁falcone	-9.27081
▁stage	-9.27217
▁sim	-9.27378
▁skin	-9.27476
▁beg	-9.27583
ized	-9.27616
▁fighting	-9.27753
▁main	-9.2791
▁allowed	-9.27955
▁where	-9.28018
▁fail	-9.28279
▁the	-9.28384
etch	-9.28428
oh	-9.28523
▁command	-9.2862
▁mary	-9.28656
▁criminal	-9.29063
▁strength	-9.29063
▁inspector	-9.29063
▁empire	-9.29063
▁wailing	-9.29064
▁talent	-9.29065
▁prefer	-9.29065
▁shirt	-9.29066
▁adele	-9.29067
▁storm	-9.29068
▁royal	-9.2907
▁hungry	-9.29095
▁bother	-9.29113
▁season	-9.29134
▁witch	-9.29155
▁martin	-9.29164
▁luce	-9.29165
▁reporter	-9.29239
▁amen	-9.29243
▁mel	-9.29375
▁exc	-9.29682
▁chris	-9.29772
▁bite	-9.29849
right	-9.30271
▁mayor	-9.30417
▁hardin	-9.30677
▁plant	-9.30755
▁heading	-9.30775
we	-9.30834
▁gri	-9.31375
▁impossible	-9.31502
▁sanchez	-9.31502
▁zooey	-9.31502
▁british	-9.31502
▁dallas	-9.31502
▁detail	-9.31502
▁christmas	-9.31505
▁linda	-9.31505
▁nope	-9.31507
▁corner	-9.31529
▁weak	-9.31562
▁hook	-9.31589
▁luke	-9.31598
ov	-9.31618
▁under	-9.31721
▁cock	-9.31786
▁spent	-9.31805
▁lane	-9.31811
▁lying	-9.31871
▁pete	-9.31884
of	-9.32005
▁decided	-9.3207
▁ice	-9.32255
▁doin	-9.32411
ame	-9.32734
▁build	-9.32983
▁closer	-9.32999
▁driver	-9.33283
▁wearing	-9.33438
mber	-9.33823
▁impress	-9.33964
▁daniel	-9.34002
▁wheel	-9.34003
▁rescue	-9.34004
▁silly	-9.3401
▁josie	-9.34019
▁joni	-9.3402
▁bruce	-9.3404
▁wound	-9.34064
▁health	-9.34074
▁distance	-9.34076
▁toast	-9.34076
▁mitch	-9.3408
▁brave	-9.34122
▁obviously	-9.34131
▁mate	-9.3438
▁shed	-9.34406
▁alan	-9.34805
ound	-9.34928
▁shaw	-9.35052
▁sat	-9.35099
ney	-9.35205
▁breaking	-9.35411
▁huge	-9.3551
▁screw	-9.35598
▁shawn	-9.35865
▁how	-9.35907
▁wouldve	-9.36009
▁eve	-9.36068
eful	-9.36278
▁certain	-9.36304
▁named	-9.36457
▁instrument	-9.36566
▁africa	-9.36566
▁counselor	-9.36566
▁eagle	-9.36566
▁sobbing	-9.36566
▁suggest	-9.36566
▁neither	-9.36566
▁famous	-9.36566
▁admit	-9.36566
▁contract	-9.36566
▁pilot	-9.36567
▁study	-9.36567
▁lawyer	-9.36577
▁serve	-9.36577
▁option	-9.36602
▁wash	-9.36659
▁cabin	-9.368
▁taste	-9.36867
▁eli	-9.36911
▁interesting	-9.37366
▁march	-9.3748
▁shooting	-9.37718
▁path	-9.37783
▁pal	-9.37801
▁op	-9.37928
▁training	-9.3807
▁flying	-9.38704
▁tall	-9.39126
▁seal	-9.39171
▁beyond	-9.39197
▁chicago	-9.39197
▁congratulations	-9.39197
▁difficult	-9.39197
▁doubt	-9.39197
▁professor	-9.39197
▁tongue	-9.39197
▁understood	-9.39197
▁upstairs	-9.39197
▁vehicle	-9.39197
▁victim	-9.39197
▁became	-9.39197
▁sherlock	-9.39197
▁brooke	-9.39198
▁nurse	-9.39198
▁bunch	-9.39199
▁truly	-9.392
▁doyle	-9.39201
▁molly	-9.39203
▁ruin	-9.39203
▁shouts	-9.39205
▁chose	-9.39212
▁rub	-9.39212
▁jones	-9.39215
▁address	-9.39219
▁supp	-9.39232
▁beeping	-9.39254
▁iron	-9.39261
▁commissioner	-9.39276
▁proper	-9.39305
gie	-9.39344
▁phil	-9.39371
▁spy	-9.39476
ature	-9.39497
▁medic	-9.39523
▁shoe	-9.39627
▁mail	-9.39637
▁bust	-9.39925
ana	-9.39939
▁mum	-9.40411
▁sand	-9.41156
▁eating	-9.41401
▁promised	-9.41524
▁ami	-9.41542
▁finished	-9.41643
▁dick	-9.4167
▁access	-9.419
▁affair	-9.419
▁borrow	-9.419
▁bought	-9.419
▁circus	-9.419
▁device	-9.419
▁permission	-9.419
▁suicide	-9.419
▁treasure	-9.419
▁discuss	-9.419
▁jerem	-9.41901
▁release	-9.41901
▁alpha	-9.41901
▁river	-9.41902
▁spider	-9.41902
▁stories	-9.41902
▁whistle	-9.41902
▁shock	-9.41971
▁secretary	-9.41994
▁fighter	-9.42228
▁robin	-9.42242
hu	-9.42855
just	-9.4304
what	-9.43269
▁army	-9.43329
▁turning	-9.43611
▁decide	-9.44034
▁who	-9.44112
ically	-9.44354
▁total	-9.44421
cat	-9.44492
▁her	-9.44554
▁danger	-9.44649
▁bloody	-9.44666
▁chuckling	-9.44678
▁defense	-9.44678
▁embarrass	-9.44678
▁inhales	-9.44678
▁mycroft	-9.44678
▁relationship	-9.44678
▁rumbling	-9.44678
▁somehow	-9.44678
▁twice	-9.44678
▁william	-9.44678
▁wrote	-9.44678
▁climb	-9.44678
▁threw	-9.44679
▁split	-9.4468
▁maddie	-9.4468
▁correct	-9.44681
▁egg	-9.44682
▁value	-9.4472
▁anita	-9.44724
▁diana	-9.44726
▁electricity	-9.44726
▁gasping	-9.44734
▁cuba	-9.4475
▁howard	-9.44758
▁bull	-9.44834
▁jam	-9.44843
▁guest	-9.44858
▁flight	-9.44887
▁safety	-9.44965
▁ballet	-9.45083
▁on	-9.45166
▁lap	-9.45209
▁kyle	-9.45242
▁pan	-9.4596
▁figured	-9.46451
▁mob	-9.46615
hood	-9.47015
▁sara	-9.47431
▁george	-9.47535
▁monsieur	-9.47535
▁plenty	-9.47535
▁responsible	-9.47535
▁clark	-9.47535
▁knife	-9.47535
▁speech	-9.47535
▁engage	-9.47535
▁french	-9.47536
▁remove	-9.47536
▁pretend	-9.47536
▁damage	-9.47536
▁excited	-9.47536
▁invest	-9.47536
▁riff	-9.47538
▁curly	-9.47539
▁center	-9.4754
▁dollars	-9.4754
▁football	-9.47545
▁program	-9.47552
▁memory	-9.4757
▁riva	-9.4759
▁mommy	-9.47598
▁christian	-9.47614
▁direction	-9.47652
▁babe	-9.47658
▁weekend	-9.47675
▁sport	-9.4768
▁pound	-9.47696
▁usually	-9.47715
▁simon	-9.47721
▁grew	-9.4773
▁equ	-9.47782
▁meg	-9.47825
▁jill	-9.47869
▁stolen	-9.4795
▁pill	-9.48057
▁deeply	-9.48059
▁buzzing	-9.4809
▁mid	-9.48124
▁signal	-9.48402
▁carol	-9.48525
▁fra	-9.48531
▁cup	-9.48595
▁gosh	-9.49228
▁warn	-9.4928
▁sin	-9.49315
pped	-9.49534
▁rent	-9.49733
▁murdered	-9.4981
▁wondering	-9.50095
▁direct	-9.50198
ette	-9.50258
▁atreides	-9.50476
▁excellent	-9.50476
▁explosive	-9.50476
▁kahndaq	-9.50476
▁photograph	-9.50476
▁breakfast	-9.50476
▁design	-9.50476
▁constable	-9.50476
▁often	-9.50476
▁adult	-9.50477
▁limit	-9.50478
▁willing	-9.50479
▁winning	-9.50494
▁project	-9.50507
▁chino	-9.50552
▁fever	-9.50587
▁package	-9.50599
▁chick	-9.5067
▁grace	-9.50671
▁jewel	-9.50693
▁dash	-9.50731
▁heat	-9.50832
▁fake	-9.51058
ife	-9.5107
▁heal	-9.51199
▁joker	-9.512
pla	-9.51248
▁earn	-9.51272
▁gettin	-9.51679
▁pin	-9.51741
▁tie	-9.51791
▁dean	-9.5224
▁ec	-9.52281
▁ph	-9.52343
▁list	-9.52784
noit	-9.52887
room	-9.53158
▁apparently	-9.53506
▁approach	-9.53506
▁character	-9.53506
▁circle	-9.53506
▁competition	-9.53506
▁current	-9.53506
▁government	-9.53506
▁jakob	-9.53506
▁japanese	-9.53506
▁jazz	-9.53506
▁justice	-9.53506
▁league	-9.53506
▁ridiculous	-9.53506
▁steady	-9.53506
▁sweetheart	-9.53506
▁text	-9.53506
▁traitor	-9.53506
▁popular	-9.53507
▁suffer	-9.53507
▁level	-9.53508
▁appear	-9.53508
▁jail	-9.53509
▁daisy	-9.53509
▁national	-9.53511
▁funeral	-9.53512
▁whoever	-9.5352
▁cloud	-9.53522
▁monster	-9.53554
▁nuts	-9.53563
▁immediately	-9.53575
▁apartment	-9.53581
▁harry	-9.53596
▁neck	-9.536
▁winner	-9.53644
▁powerful	-9.53646
▁director	-9.53669
▁chair	-9.53677
▁shop	-9.53737
▁squad	-9.53755
▁dig	-9.53771
▁drum	-9.53784
▁bond	-9.5398
▁tape	-9.54055
ju	-9.54061
cient	-9.54075
▁dicky	-9.54155
▁action	-9.54293
▁prom	-9.54368
mmy	-9.54574
▁cal	-9.54621
▁metal	-9.54707
▁slip	-9.54726
you	-9.55309
gged	-9.55317
▁loser	-9.55499
▁flu	-9.55978
house	-9.56147
▁apart	-9.56554
▁electric	-9.56577
▁duncan	-9.56631
▁involved	-9.56631
▁jealous	-9.56631
▁johanna	-9.56631
▁nervous	-9.56631
▁england	-9.56631
▁surge	-9.56631
▁lift	-9.56632
▁claim	-9.56632
▁condition	-9.56632
▁convoy	-9.56632
▁insane	-9.56632
▁cassie	-9.56632
▁evil	-9.56633
▁tej	-9.56633
▁pray	-9.56636
▁alice	-9.5664
▁hung	-9.56649
▁tub	-9.56671
▁doug	-9.56679
▁duty	-9.56779
▁nose	-9.56799
▁hoping	-9.56842
▁market	-9.56882
▁sold	-9.56912
▁aah	-9.57032
▁mack	-9.57063
▁coll	-9.57145
▁career	-9.57368
▁shake	-9.57443
ency	-9.57467
▁harder	-9.57511
▁scream	-9.57513
form	-9.57662
▁chase	-9.57769
▁greatest	-9.57773
▁screwed	-9.57827
▁pee	-9.57918
▁anti	-9.58108
▁murderer	-9.58429
lock	-9.58534
ative	-9.59263
▁sharp	-9.59597
▁brilliant	-9.59857
▁disappear	-9.59857
▁elliott	-9.59857
▁introduce	-9.59857
▁kennedy	-9.59857
▁mtumbie	-9.59857
▁shouldve	-9.59857
▁taehun	-9.59857
▁texas	-9.59857
▁investigation	-9.59857
▁midnight	-9.59857
▁assistant	-9.59857
▁kitchen	-9.59857
▁salute	-9.59858
▁thunder	-9.59858
▁issue	-9.59858
▁screen	-9.59858
▁crush	-9.59858
▁clyde	-9.59859
▁sword	-9.5986
▁muffle	-9.59861
▁earlier	-9.59869
▁knee	-9.59881
▁secure	-9.59897
▁firing	-9.59902
▁mitchell	-9.59902
▁pressure	-9.5991
▁nico	-9.59921
▁grandma	-9.59928
▁josh	-9.60133
▁load	-9.60242
▁fallen	-9.60392
▁invited	-9.60401
▁softly	-9.60416
▁indistinctly	-9.60529
▁snap	-9.60597
▁rip	-9.60747
ward	-9.61077
▁wine	-9.61126
▁eh	-9.61216
port	-9.61291
▁interest	-9.61309
▁sno	-9.61451
▁teacher	-9.61487
tiny	-9.61621
▁lake	-9.61685
▁yelling	-9.61688
back	-9.61721
▁salt	-9.62138
▁hardly	-9.62347
▁cab	-9.62626
▁carrie	-9.62866
▁champ	-9.63161
▁faith	-9.6319
▁attempt	-9.6319
▁everywhere	-9.6319
▁explosion	-9.6319
▁loretta	-9.6319
▁mexico	-9.6319
▁nowhere	-9.6319
▁spread	-9.6319
▁success	-9.6319
▁taught	-9.6319
▁wagner	-9.63191
▁uniform	-9.63191
▁chirping	-9.63191
▁writing	-9.63191
▁client	-9.63191
▁ugly	-9.63192
▁flash	-9.63192
▁foul	-9.63192
▁fleur	-9.63193
▁contain	-9.63193
▁spark	-9.63194
▁demand	-9.63198
▁distract	-9.63198
▁sail	-9.63199
▁collect	-9.63204
▁recognize	-9.63206
▁planning	-9.63208
▁online	-9.63209
▁madame	-9.63224
▁brush	-9.63234
▁defend	-9.63244
▁hired	-9.63261
▁paris	-9.63268
▁replace	-9.63273
▁outta	-9.63304
▁lester	-9.63317
▁riddler	-9.63342
▁anton	-9.63357
▁wave	-9.63372
▁growl	-9.63396
spect	-9.63408
▁created	-9.63666
▁fade	-9.63763
▁palm	-9.63783
▁ko	-9.64186
▁leo	-9.64502
▁failed	-9.64563
▁indian	-9.64579
▁gotten	-9.64601
▁destroyed	-9.64603
jo	-9.64669
▁couldve	-9.65617
▁jin	-9.65726
▁due	-9.65883
book	-9.66183
▁higher	-9.66629
▁attract	-9.66639
▁custom	-9.66639
▁innocent	-9.66639
▁junior	-9.66639
▁oswald	-9.66639
▁otherwise	-9.66639
▁suspens	-9.66639
▁necklace	-9.66639
▁foreign	-9.66639
▁uhhuh	-9.66639
▁enemy	-9.66639
script	-9.66639
▁brown	-9.6664
▁empty	-9.6664
▁aware	-9.66642
▁provide	-9.66642
▁photo	-9.66642
▁theyd	-9.66645
▁gilly	-9.66646
▁degrees	-9.66647
▁style	-9.66653
▁susu	-9.66657
▁jay	-9.66658
▁liz	-9.6666
▁ford	-9.6666
▁square	-9.66696
▁desk	-9.66731
▁prim	-9.66739
▁bump	-9.66754
▁brian	-9.66759
▁among	-9.66799
▁memo	-9.66817
▁suddenly	-9.6682
▁thud	-9.66863
▁skull	-9.66909
▁pair	-9.66944
▁score	-9.6698
izing	-9.67031
▁squealing	-9.67204
▁gall	-9.67247
▁commander	-9.67291
▁quickly	-9.67331
▁chain	-9.67514
▁noticed	-9.6782
▁rex	-9.67822
▁warning	-9.67883
▁scare	-9.67969
▁ahh	-9.681
▁tow	-9.68216
▁net	-9.68257
▁mass	-9.68266
▁chuckle	-9.69314
▁dirt	-9.69649
▁bowl	-9.70045
▁qui	-9.7016
▁arrakis	-9.7021
▁audience	-9.7021
▁literally	-9.7021
▁opportunity	-9.7021
▁ramsey	-9.7021
▁vegas	-9.7021
▁written	-9.7021
▁beauty	-9.7021
▁burchard	-9.7021
▁military	-9.7021
▁sharks	-9.7021
▁tamra	-9.7021
▁sanitation	-9.7021
▁village	-9.7021
▁creature	-9.70211
▁pocket	-9.70211
▁bottle	-9.70211
▁wherever	-9.70211
▁choir	-9.70212
▁cheap	-9.70213
▁view	-9.70214
▁twin	-9.70215
▁goanna	-9.70216
▁inform	-9.70219
▁buried	-9.70219
▁upset	-9.70223
▁print	-9.70226
▁bravo	-9.70237
▁refuse	-9.70309
▁shame	-9.70314
▁brake	-9.70342
▁blame	-9.70349
▁tense	-9.7035
▁adam	-9.70361
▁bright	-9.70394
▁cmon	-9.70395
▁mix	-9.70435
▁worm	-9.70463
▁size	-9.7048
▁missile	-9.70508
▁prepared	-9.70696
▁deck	-9.70728
▁saving	-9.71037
▁grade	-9.71188
▁piss	-9.71311
▁writer	-9.71779
▁surprised	-9.71817
▁wor	-9.72162
▁log	-9.72778
▁crap	-9.72937
▁soo	-9.73128
▁panic	-9.73343
▁tip	-9.73353
▁russia	-9.73621
▁somethin	-9.73673
ject	-9.73865
▁equipment	-9.73914
▁footsteps	-9.73914
▁gertrude	-9.73914
▁ratchett	-9.73914
▁research	-9.73914
▁schedule	-9.73914
▁hidden	-9.73914
▁whispering	-9.73914
▁punish	-9.73914
▁abandon	-9.73914
▁location	-9.73914
▁science	-9.73915
▁wolf	-9.73915
▁depend	-9.73915
▁glove	-9.73916
▁poison	-9.73916
▁prior	-9.73916
▁cream	-9.73917
▁automat	-9.73918
▁xu	-9.73921
▁mood	-9.73928
▁sake	-9.73928
▁barely	-9.73931
▁large	-9.73933
▁jeanine	-9.73939
▁conduct	-9.7396
▁common	-9.7396
▁rope	-9.7396
▁navy	-9.73963
▁spice	-9.73965
▁medicine	-9.73967
▁trade	-9.73983
▁handsome	-9.74045
▁assume	-9.74055
▁laughter	-9.7415
▁grave	-9.74172
▁weight	-9.74234
▁fuel	-9.74235
▁hack	-9.74331
▁castle	-9.74339
▁protection	-9.74395
▁maid	-9.74413
▁drag	-9.74485
▁sec	-9.74682
▁pow	-9.74946
▁pipe	-9.75011
▁sale	-9.75278
▁stronger	-9.7562
▁grunt	-9.76105
▁psych	-9.76385
▁fate	-9.76438
duct	-9.76468
q	-9.77111
▁invite	-9.77113
mark	-9.77253
▁spoke	-9.77465
▁nothin	-9.7752
▁armstrong	-9.7776
▁elizabeth	-9.7776
▁emergency	-9.7776
▁energy	-9.7776
▁malcolm	-9.7776
▁neighbor	-9.7776
▁revving	-9.7776
▁tunnel	-9.7776
▁ventura	-9.7776
▁accus	-9.7776
▁penguin	-9.7776
▁possess	-9.7776
▁rough	-9.7776
▁globo	-9.7776
▁warrior	-9.77761
ified	-9.77761
▁hadnt	-9.77761
▁simply	-9.77761
▁angry	-9.77762
▁droid	-9.77762
▁jeff	-9.77762
▁suzy	-9.77762
▁biggest	-9.77763
▁strike	-9.77763
▁towards	-9.77764
▁credit	-9.77767
▁subject	-9.77772
▁manager	-9.77773
▁susan	-9.77781
▁insist	-9.77795
▁nature	-9.77803
▁closing	-9.77803
▁route	-9.77806
▁roof	-9.77822
▁crackling	-9.77823
▁impressive	-9.77827
▁honk	-9.77828
▁trace	-9.77847
▁fellow	-9.7785
▁blast	-9.7786
▁steve	-9.77916
▁noah	-9.77919
▁duke	-9.7795
▁hugh	-9.77971
▁q	-9.7808
▁data	-9.781
▁doll	-9.7815
▁concerned	-9.78664
▁herb	-9.78744
▁escaped	-9.78928
▁grid	-9.78971
▁rare	-9.78979
▁pet	-9.80197
though	-9.81238
▁apologize	-9.8176
▁divorce	-9.8176
▁eudoria	-9.8176
▁experiment	-9.8176
▁holiday	-9.8176
▁holmes	-9.8176
▁newspaper	-9.8176
▁original	-9.8176
▁ought	-9.8176
▁pregnant	-9.8176
▁shield	-9.8176
▁silver	-9.8176
▁trigger	-9.8176
▁virgin	-9.8176
▁smith	-9.8176
▁avoid	-9.8176
▁whistling	-9.8176
▁gunshot	-9.8176
▁civil	-9.8176
▁opinion	-9.81761
▁thatll	-9.81761
▁bleeding	-9.81761
▁dragonfly	-9.81761
▁fremen	-9.81761
▁mellie	-9.81762
▁theater	-9.81762
▁pride	-9.81762
▁xian	-9.81762
▁pump	-9.81763
▁lonely	-9.81764
▁ellen	-9.81768
▁diane	-9.81773
▁sweat	-9.81773
▁vision	-9.81788
▁odd	-9.81799
▁mask	-9.81809
▁patient	-9.81902
▁beast	-9.8193
▁spare	-9.81987
▁trap	-9.8201
▁rise	-9.82045
▁solo	-9.82152
▁earl	-9.82163
▁loan	-9.82169
▁apple	-9.82263
▁fore	-9.82313
▁edit	-9.82637
▁stranger	-9.82735
▁rum	-9.82885
▁host	-9.83256
▁que	-9.83519
▁penn	-9.83851
▁prisoner	-9.84515
▁concern	-9.84955
hold	-9.85496
phone	-9.85552
▁gut	-9.85647
▁usual	-9.8568
▁non	-9.85769
▁gentle	-9.85855
▁commit	-9.85891
▁europe	-9.85927
▁according	-9.85927
▁afford	-9.85927
▁century	-9.85927
▁clamoring	-9.85927
▁clifton	-9.85927
▁curtis	-9.85927
▁disappoint	-9.85927
▁echelon	-9.85927
▁frankenstein	-9.85927
▁happiness	-9.85927
▁mmmhmm	-9.85927
▁particular	-9.85927
▁peregrine	-9.85927
▁plastic	-9.85927
▁saiwing	-9.85927
▁library	-9.85927
▁mirror	-9.85927
▁object	-9.85927
▁squeak	-9.85927
▁chinese	-9.85927
▁someday	-9.85927
▁patrick	-9.85927
▁teeth	-9.85927
▁clue	-9.85927
▁darrin	-9.85927
▁disturb	-9.85927
▁launch	-9.85927
▁foster	-9.85927
▁marriage	-9.85927
▁ocean	-9.85928
▁border	-9.85928
▁process	-9.85928
▁permit	-9.85928
▁laurie	-9.85928
▁intend	-9.8593
▁swimming	-9.85932
▁held	-9.85936
▁roaring	-9.85938
▁dropped	-9.8594
▁recover	-9.85968
▁steer	-9.85984
▁tank	-9.85987
▁blade	-9.8599
▁aboard	-9.86005
▁gather	-9.86012
▁property	-9.86017
▁syd	-9.86035
▁artist	-9.86073
▁capable	-9.86097
▁milk	-9.86212
▁enter	-9.86265
▁tool	-9.8632
▁dust	-9.86531
▁faction	-9.86566
▁loss	-9.86592
▁stab	-9.86603
▁asset	-9.86859
▁cia	-9.86982
ville	-9.87261
▁scary	-9.87299
▁clo	-9.87328
▁cave	-9.87559
▁cow	-9.8781
▁coat	-9.87903
▁hug	-9.88215
▁awful	-9.88808
▁kyl	-9.89488
▁sniff	-9.90267
▁alabama	-9.90275
▁bottom	-9.90275
▁celebrate	-9.90275
▁effort	-9.90275
▁incredible	-9.90275
▁jessica	-9.90275
▁orphan	-9.90275
▁shoulder	-9.90275
▁technical	-9.90275
▁traffic	-9.90275
▁volunteer	-9.90275
▁gillian	-9.90275
▁guilty	-9.90275
▁require	-9.90275
▁express	-9.90275
▁whether	-9.90275
▁natural	-9.90275
▁pattern	-9.90275
▁cruise	-9.90275
▁pardon	-9.90275
▁sighing	-9.90275
▁source	-9.90275
▁complain	-9.90276
▁expert	-9.90276
▁silence	-9.90276
▁lukas	-9.90276
▁spoil	-9.90277
▁proceed	-9.90279
▁warren	-9.90279
▁lucas	-9.9028
▁solve	-9.9028
▁erase	-9.90283
▁anger	-9.90296
▁terrorist	-9.90302
▁liar	-9.9032
▁onto	-9.90337
▁owner	-9.90342
▁romantic	-9.90343
▁itd	-9.90366
▁dump	-9.90384
▁fellas	-9.90392
▁sav	-9.90396
▁china	-9.90443
▁bon	-9.90453
▁statement	-9.90532
▁received	-9.90551
▁sadie	-9.90716
▁marian	-9.90722
logical	-9.90751
▁arrived	-9.90871
▁assure	-9.90896
▁flip	-9.90972
▁heh	-9.91107
▁hood	-9.91107
▁grown	-9.91386
▁sink	-9.91396
▁boom	-9.91487
▁passes	-9.92104
▁bru	-9.92173
▁create	-9.94177
load	-9.94336
▁connect	-9.94698
dra	-9.94724
▁atta	-9.94807
▁california	-9.9482
▁cheerleader	-9.9482
▁complicated	-9.9482
▁confess	-9.9482
▁confused	-9.9482
▁describe	-9.9482
▁elwood	-9.9482
▁escort	-9.9482
▁fountain	-9.9482
▁grandfather	-9.9482
▁helicopter	-9.9482
▁include	-9.9482
▁necessary	-9.9482
▁sacrifice	-9.9482
▁shift	-9.9482
▁society	-9.9482
▁taylor	-9.9482
▁university	-9.9482
▁downtown	-9.9482
▁enemies	-9.9482
▁exclaim	-9.9482
▁discover	-9.9482
▁routine	-9.9482
▁hollow	-9.9482
▁affect	-9.9482
▁dodge	-9.94821
▁several	-9.94821
▁fortune	-9.94821
▁blaze	-9.94821
▁negro	-9.94821
▁sunday	-9.94821
▁motive	-9.94822
craft	-9.94822
▁mostly	-9.94822
▁gross	-9.94823
▁arab	-9.94828
▁maroni	-9.94836
▁whyd	-9.94836
▁wrap	-9.94837
▁zero	-9.94855
▁tommy	-9.94882
▁lemon	-9.94888
▁hostage	-9.94889
▁guide	-9.94889
▁papa	-9.94929
▁forest	-9.94935
▁professional	-9.94942
▁erin	-9.94961
▁stock	-9.95022
▁aside	-9.95096
▁sharply	-9.95197
strade	-9.95213
▁hallet	-9.95226
▁wire	-9.95228
▁jackie	-9.9541
▁juan	-9.95438
▁glen	-9.95459
▁lean	-9.9555
▁momma	-9.95634
▁billion	-9.95664
▁aim	-9.95693
▁pink	-9.96003
▁despi	-9.96254
▁tower	-9.96333
▁row	-9.96438
▁psycho	-9.96477
▁kit	-9.96637
lves	-9.97091
▁spit	-9.98067
▁flow	-9.98463
▁arrive	-9.98932
▁prepare	-9.98934
know	-9.99224
▁accent	-9.99582
▁central	-9.99582
▁citizen	-9.99582
▁develop	-9.99582
▁divergent	-9.99582
▁establish	-9.99582
▁fantastic	-9.99582
▁fought	-9.99582
▁gorgeous	-9.99582
▁grandmother	-9.99582
▁ignore	-9.99582
▁insurance	-9.99582
▁kathy	-9.99582
▁kimsey	-9.99582
▁lorelei	-9.99582
▁regular	-9.99582
▁resistance	-9.99582
▁separate	-9.99582
▁stewart	-9.99582
▁thrombey	-9.99582
▁easier	-9.99582
▁passenger	-9.99582
▁physical	-9.99582
▁statue	-9.99582
▁weather	-9.99582
▁darius	-9.99582
▁freedom	-9.99582
▁curious	-9.99583
▁material	-9.99583
▁emperor	-9.99583
▁percent	-9.99583
▁birth	-9.99583
▁crawl	-9.99585
▁exciting	-9.99585
▁bride	-9.99586
▁loyal	-9.99586
▁estate	-9.99587
▁humming	-9.99587
▁retire	-9.99588
▁alien	-9.99589
▁planned	-9.99607
▁kevin	-9.99617
▁fancy	-9.9964
▁cheat	-9.99642
▁badge	-9.99663
▁shape	-9.99698
▁patty	-9.99714
▁legend	-9.99716
▁zone	-9.99734
▁chargers	-9.99739
▁mental	-9.99775
▁legal	-9.998
▁coast	-9.99824
▁sarah	-9.99827
▁began	-9.99861
▁hips	-9.99899
▁drill	-9.99902
ttering	-10.0025
ball	-10.0044
▁oil	-10.0059
▁actor	-10.0074
▁some	-10.0085
▁tomb	-10.012
cast	-10.0157
omin	-10.026
▁scan	-10.0344
▁sudden	-10.0432
▁obvious	-10.0432
ept	-10.044
▁advice	-10.0458
▁asleep	-10.0458
▁comfortable	-10.0458
▁creaking	-10.0458
▁exchange	-10.0458
▁guarantee	-10.0458
▁interrupt	-10.0458
▁israel	-10.0458
▁janusz	-10.0458
▁moscow	-10.0458
▁nuclear	-10.0458
▁period	-10.0458
▁revolution	-10.0458
▁rhythm	-10.0458
▁satellite	-10.0458
▁specific	-10.0458
▁subtitle	-10.0458
▁suspicious	-10.0458
▁telephone	-10.0458
▁arrange	-10.0458
▁harrison	-10.0458
▁journey	-10.0458
▁muscle	-10.0458
▁organ	-10.0458
▁transfer	-10.0458
▁whenever	-10.0458
▁honeymoon	-10.0458
▁gummer	-10.0458
▁byebye	-10.0458
▁clever	-10.0458
▁progress	-10.0458
▁pursu	-10.0458
▁woolf	-10.0458
▁splash	-10.0458
▁tribe	-10.0458
▁drown	-10.0458
▁novel	-10.0458
▁trash	-10.0459
▁reveal	-10.0459
▁changing	-10.0459
▁trail	-10.0459
▁stacy	-10.0459
▁broad	-10.0459
▁debt	-10.046
▁prize	-10.0461
▁shining	-10.0461
▁rumble	-10.0461
▁invent	-10.0462
▁jerk	-10.0462
▁entrance	-10.0462
▁strip	-10.0463
▁airport	-10.0464
▁boots	-10.0468
▁height	-10.0469
▁familiar	-10.047
▁trial	-10.0471
▁peterson	-10.0475
▁elton	-10.0479
▁snow	-10.0479
▁manning	-10.0486
place	-10.0487
▁announcer	-10.0489
▁active	-10.0491
▁spoken	-10.0497
▁temple	-10.0505
▁raid	-10.0535
▁shatter	-10.0543
▁chop	-10.0562
▁flag	-10.0575
▁bail	-10.0697
ookie	-10.0834
▁buzz	-10.0882
▁falcon	-10.0893
grade	-10.0933
▁weigh	-10.0948
▁perform	-10.0984
▁algaib	-10.0985
▁channel	-10.0985
▁dauntless	-10.0985
▁desperate	-10.0985
▁friday	-10.0985
▁grabelski	-10.0985
▁horrible	-10.0985
▁intelligence	-10.0985
▁italian	-10.0985
▁mystery	-10.0985
▁possibly	-10.0985
▁publish	-10.0985
▁represent	-10.0985
▁saturday	-10.0985
▁scratch	-10.0985
▁stomach	-10.0985
▁surrender	-10.0985
▁tammie	-10.0985
▁wachati	-10.0985
▁draft	-10.0985
▁incident	-10.0985
▁thomas	-10.0985
▁violence	-10.0985
▁gunfire	-10.0985
▁smoking	-10.0985
▁sneak	-10.0985
▁louise	-10.0985
▁rattling	-10.0985
▁wreck	-10.0985
▁lifeboat	-10.0985
▁assassin	-10.0985
▁dennis	-10.0985
▁moose	-10.0985
▁quinn	-10.0985
▁jason	-10.0985
▁combat	-10.0985
▁woke	-10.0985
▁decent	-10.0985
▁oath	-10.0985
▁charm	-10.0985
▁gear	-10.0986
▁finn	-10.0986
▁basically	-10.0986
▁link	-10.0988
▁amon	-10.0991
▁gentleman	-10.0992
▁infect	-10.0992
▁freeze	-10.0992
▁unfortunately	-10.0994
▁boring	-10.0999
▁extremely	-10.1
▁halfway	-10.1
▁barron	-10.1001
▁giant	-10.1003
▁spring	-10.1004
▁princess	-10.1004
▁reward	-10.1005
thorn	-10.1005
▁clock	-10.1005
▁bound	-10.1009
▁wise	-10.1015
▁duck	-10.1015
▁meat	-10.1017
▁shine	-10.1035
▁dating	-10.106
▁semi	-10.1091
nning	-10.1149
udge	-10.1215
piece	-10.1488
town	-10.149
board	-10.1499
▁announce	-10.1506
▁prince	-10.1519
beat	-10.1529
▁jean	-10.1537
▁recommend	-10.154
▁applause	-10.154
▁cataleya	-10.154
▁cigarette	-10.154
▁downstairs	-10.154
▁effect	-10.154
▁elephant	-10.154
▁executive	-10.154
▁families	-10.154
▁griswald	-10.154
▁harkonnen	-10.154
▁intercept	-10.154
▁interview	-10.154
▁madagin	-10.154
▁miracle	-10.154
▁orchestra	-10.154
▁pizza	-10.154
▁toretto	-10.154
▁universe	-10.154
▁alfred	-10.154
▁assault	-10.154
▁avenue	-10.154
▁clara	-10.154
▁measure	-10.154
▁stairs	-10.154
▁federal	-10.154
▁kingdom	-10.154
▁result	-10.154
▁sweep	-10.154
▁unlike	-10.154
▁ramey	-10.154
▁guitar	-10.154
▁sheep	-10.154
▁capture	-10.154
▁policy	-10.154
▁kidnapped	-10.154
▁clatter	-10.154
▁costume	-10.154
▁couch	-10.154
▁ridge	-10.1541
▁element	-10.1541
▁virus	-10.1541
▁expose	-10.1541
▁dishes	-10.1541
▁wasting	-10.1542
▁troy	-10.1542
▁desire	-10.1542
▁stink	-10.1544
▁bedroom	-10.1545
▁forgotten	-10.1545
▁committed	-10.1545
▁chaos	-10.1545
▁championship	-10.1546
▁roars	-10.1546
▁communist	-10.1547
▁ugh	-10.1547
▁bored	-10.1548
▁passport	-10.1548
▁title	-10.1548
▁gamb	-10.1554
▁junk	-10.1555
▁connection	-10.1555
▁gina	-10.1559
▁darkness	-10.1559
▁logan	-10.1561
▁mort	-10.1563
▁rome	-10.1566
▁sometime	-10.1669
▁dime	-10.1914
▁norm	-10.2081
▁jew	-10.2086
▁custody	-10.2128
▁example	-10.2128
▁explanation	-10.2128
▁mcqueen	-10.2128
▁nonsense	-10.2128
▁peculiar	-10.2128
▁produce	-10.2128
▁revenge	-10.2128
▁soviet	-10.2128
▁strict	-10.2128
▁unbelievable	-10.2128
▁ymbryne	-10.2128
▁sacred	-10.2128
▁shudder	-10.2128
▁tournament	-10.2128
▁bread	-10.2128
▁scientist	-10.2128
▁annika	-10.2128
▁violent	-10.2128
▁convince	-10.2128
▁complex	-10.2128
▁clown	-10.2128
▁thirty	-10.2128
▁selina	-10.2128
▁brief	-10.2128
▁smash	-10.2128
▁washington	-10.2128
▁jeong	-10.2128
▁insult	-10.2128
▁slide	-10.2128
▁vacation	-10.2128
▁depress	-10.2128
▁hyah	-10.2128
▁spook	-10.2128
▁vault	-10.2128
▁cannon	-10.2128
▁wagon	-10.2128
▁whatre	-10.2128
▁cotton	-10.2129
ology	-10.2129
▁chitty	-10.2129
▁theory	-10.2129
▁tooth	-10.2129
▁ilse	-10.2129
▁staff	-10.2129
▁adog	-10.2129
▁piano	-10.2129
▁locksley	-10.2129
▁hiram	-10.2129
▁cancel	-10.213
▁model	-10.213
▁consul	-10.2131
▁hawk	-10.2131
▁auto	-10.2131
▁blond	-10.2132
▁basic	-10.2132
▁education	-10.2134
▁owns	-10.2134
▁entertainment	-10.2134
▁jane	-10.2135
inlaw	-10.2135
▁series	-10.2138
▁coward	-10.2142
burg	-10.2148
▁muse	-10.2148
▁punk	-10.215
▁lauren	-10.2157
▁award	-10.2158
omb	-10.2388
point	-10.2475
▁squeal	-10.265
▁screech	-10.2651
looking	-10.2702
▁abnegation	-10.2753
▁achieve	-10.2753
▁advantage	-10.2753
▁ambulance	-10.2753
▁amount	-10.2753
▁appointment	-10.2753
▁authorities	-10.2753
▁available	-10.2753
▁cruising	-10.2753
▁disgusting	-10.2753
▁dispatch	-10.2753
▁generous	-10.2753
▁gregory	-10.2753
▁hollywood	-10.2753
▁inherit	-10.2753
▁international	-10.2753
▁judgment	-10.2753
▁keltus	-10.2753
▁lincoln	-10.2753
▁motorcycle	-10.2753
▁purple	-10.2753
▁rebecca	-10.2753
▁sandwich	-10.2753
▁senior	-10.2753
▁servant	-10.2753
▁stilgar	-10.2753
▁television	-10.2753
▁argument	-10.2753
▁concert	-10.2753
▁orange	-10.2753
▁smooth	-10.2753
▁torture	-10.2753
▁ancestor	-10.2753
▁knots	-10.2753
▁oclock	-10.2753
▁typical	-10.2753
▁attend	-10.2753
▁cheese	-10.2753
▁license	-10.2753
▁grateful	-10.2753
▁maintain	-10.2753
▁puerto	-10.2753
▁constant	-10.2753
▁hammer	-10.2753
▁install	-10.2753
▁observ	-10.2753
▁davis	-10.2753
▁monitor	-10.2753
▁transport	-10.2753
▁redford	-10.2753
▁thumb	-10.2753
▁merely	-10.2754
▁thief	-10.2754
▁silent	-10.2754
▁blanc	-10.2754
▁plate	-10.2754
▁mourn	-10.2754
▁dawn	-10.2754
▁rush	-10.2754
▁trapped	-10.2754
▁habit	-10.2754
▁cycl	-10.2754
▁candor	-10.2754
▁email	-10.2754
▁awake	-10.2754
▁goose	-10.2754
▁flesh	-10.2754
▁corey	-10.2756
▁racing	-10.2757
▁community	-10.2758
▁chamber	-10.2759
▁western	-10.2759
▁rattle	-10.2762
▁eject	-10.2764
▁proof	-10.2765
▁peak	-10.2766
▁nsa	-10.2767
▁lips	-10.2771
uge	-10.2772
▁chart	-10.2774
ably	-10.2804
▁marina	-10.2866
gram	-10.2906
▁entr	-10.3068
skull	-10.3367
break	-10.3368
foot	-10.3369
▁exact	-10.3394
▁mmhm	-10.3395
born	-10.3408
▁academy	-10.342
▁audrey	-10.342
▁compartment	-10.342
▁easily	-10.342
▁explore	-10.342
▁kalloor	-10.342
▁kopernick	-10.342
▁messenger	-10.342
▁mulgr	-10.342
▁nottingham	-10.342
▁ordinary	-10.342
▁owimoweh	-10.342
▁practical	-10.342
▁terrific	-10.342
▁tradition	-10.342
▁wizard	-10.342
▁audition	-10.342
▁bogey	-10.342
▁eventually	-10.342
▁political	-10.342
▁recruit	-10.342
▁reputation	-10.342
▁respond	-10.342
▁smiling	-10.342
▁cortez	-10.342
▁saint	-10.342
▁surface	-10.342
▁trotter	-10.342
▁valuable	-10.342
▁whimpers	-10.342
▁advance	-10.342
▁casino	-10.342
▁cowboy	-10.342
▁overnight	-10.342
ologist	-10.342
▁relative	-10.342
▁robbery	-10.342
▁garbage	-10.342
▁stretch	-10.342
▁agency	-10.342
▁pathetic	-10.342
▁banana	-10.342
▁anytime	-10.342
▁committee	-10.342
▁creep	-10.342
▁shelter	-10.342
▁kenzie	-10.342
▁eleven	-10.342
▁capital	-10.342
▁bronx	-10.342
▁danny	-10.342
▁phase	-10.342
▁cobra	-10.342
▁nightmare	-10.342
▁branch	-10.342
▁regard	-10.342
▁smack	-10.342
▁chimes	-10.342
▁stood	-10.342
▁olive	-10.3421
▁lungs	-10.3421
▁sugar	-10.3421
▁propose	-10.3421
▁senor	-10.3421
▁radar	-10.3422
▁drain	-10.3422
▁baseball	-10.3422
▁combin	-10.3424
▁bubbl	-10.3424
▁alert	-10.3424
▁powder	-10.3425
▁shove	-10.3426
▁shopping	-10.3426
▁performance	-10.3426
▁native	-10.3427
approve	-10.3431
▁kidnap	-10.3437
version	-10.3455
▁lib	-10.3538
ggy	-10.3768
▁deposit	-10.3972
keep	-10.4109
▁architect	-10.4134
▁individual	-10.4134
▁adventure	-10.4134
▁ambush	-10.4134
▁arielle	-10.4134
▁arrival	-10.4134
▁behavior	-10.4134
▁bobbie	-10.4134
▁bronze	-10.4134
▁civilization	-10.4134
▁diamond	-10.4134
▁diploma	-10.4134
▁disguise	-10.4134
▁eliminate	-10.4134
▁employee	-10.4134
▁exhaust	-10.4134
▁fugitive	-10.4134
▁generation	-10.4134
▁ghostbusters	-10.4134
▁instructions	-10.4134
▁mysterious	-10.4134
▁offense	-10.4134
▁positive	-10.4134
▁principal	-10.4134
▁protocol	-10.4134
▁restaurant	-10.4134
▁semester	-10.4134
▁stammers	-10.4134
▁technology	-10.4134
▁telegram	-10.4134
▁territory	-10.4134
▁therefore	-10.4134
▁twelve	-10.4134
▁holtzmann	-10.4134
▁intense	-10.4134
▁knicks	-10.4134
▁document	-10.4134
▁felix	-10.4134
▁sunshine	-10.4134
▁liberty	-10.4134
▁gurney	-10.4134
▁unknown	-10.4134
▁bonnie	-10.4134
▁paradise	-10.4134
▁fifth	-10.4134
▁crystal	-10.4134
▁marquess	-10.4134
▁recently	-10.4134
▁rebound	-10.4134
▁sauce	-10.4134
▁miami	-10.4134
▁monday	-10.4134
▁crisis	-10.4134
▁twist	-10.4134
▁arguing	-10.4134
▁monkey	-10.4134
▁terms	-10.4134
▁speck	-10.4135
▁gordy	-10.4135
▁interfer	-10.4135
▁betray	-10.4135
▁tyler	-10.4135
▁wendy	-10.4135
▁carmine	-10.4135
▁bodies	-10.4135
▁inmate	-10.4135
▁knowledge	-10.4135
▁glory	-10.4135
▁caleb	-10.4135
▁flew	-10.4135
▁studio	-10.4135
▁ensure	-10.4136
▁daily	-10.4136
▁defeat	-10.4136
▁memories	-10.4137
▁firm	-10.4137
▁randy	-10.4137
face	-10.4137
▁backwards	-10.4138
▁roost	-10.4138
▁faint	-10.4138
▁locate	-10.414
▁rude	-10.414
▁teth	-10.4141
frequen	-10.4148
▁juice	-10.415
activate	-10.4217
position	-10.4248
▁convers	-10.4267
▁folk	-10.4441
▁india	-10.4586
▁orc	-10.4802
▁communi	-10.4889
▁entertain	-10.4896
▁detect	-10.4901
▁drama	-10.4902
▁basket	-10.4903
happily	-10.4903
▁accomplish	-10.4903
▁apprentice	-10.4903
▁ashamed	-10.4903
▁assignment	-10.4903
▁attorney	-10.4903
▁campaign	-10.4903
▁celebrating	-10.4903
▁champagne	-10.4903
▁chewie	-10.4903
▁emmett	-10.4903
▁financial	-10.4903
▁florida	-10.4903
▁inaudible	-10.4903
▁intelligent	-10.4903
▁journal	-10.4903
▁kullimon	-10.4903
▁mexican	-10.4903
▁nephew	-10.4903
▁potential	-10.4903
▁privacy	-10.4903
▁rufus	-10.4903
▁saikwong	-10.4903
▁shakusky	-10.4903
▁sparrow	-10.4903
▁surround	-10.4903
▁symbol	-10.4903
▁teenage	-10.4903
▁tragedy	-10.4903
▁vampire	-10.4903
▁vitamin	-10.4903
▁brantley	-10.4903
▁corrupt	-10.4903
▁joseph	-10.4903
▁occasion	-10.4903
▁convict	-10.4903
▁intergang	-10.4903
▁lloyd	-10.4903
▁temperature	-10.4903
▁cricket	-10.4904
▁kynes	-10.4904
▁leslie	-10.4904
▁suitcase	-10.4904
▁declar	-10.4904
▁outlaw	-10.4904
▁snarl	-10.4904
▁helena	-10.4904
▁creative	-10.4904
▁leather	-10.4904
▁jesse	-10.4904
▁unique	-10.4904
▁orient	-10.4904
▁courage	-10.4904
▁malkin	-10.4904
▁pistol	-10.4904
▁allison	-10.4904
▁wealth	-10.4904
▁status	-10.4904
▁flood	-10.4904
▁mennick	-10.4904
▁superior	-10.4904
▁anchor	-10.4904
▁toilet	-10.4904
▁martinez	-10.4904
▁babies	-10.4904
▁clink	-10.4904
▁cruel	-10.4904
▁enoch	-10.4904
▁zoom	-10.4904
▁method	-10.4904
▁modern	-10.4904
▁slave	-10.4904
▁horde	-10.4904
▁choking	-10.4904
▁blake	-10.4904
▁wrist	-10.4904
▁otto	-10.4904
▁vince	-10.4904
▁krest	-10.4904
▁oink	-10.4904
▁bacon	-10.4904
▁priest	-10.4904
▁relieve	-10.4904
▁false	-10.4904
▁scott	-10.4905
▁vital	-10.4905
▁taxi	-10.4905
▁chanting	-10.4905
▁elders	-10.4905
▁solar	-10.4905
▁candy	-10.4906
▁manual	-10.4907
▁squa	-10.491
▁hesitate	-10.4912
▁clap	-10.492
▁wipe	-10.492
▁clip	-10.4956
▁rebel	-10.4958
titude	-10.4979
appy	-10.5069
▁riddle	-10.5699
▁terror	-10.5732
▁authoriz	-10.5737
▁disconnect	-10.5737
▁dwarf	-10.5737
▁forfeit	-10.5737
▁immortal	-10.5737
▁pyramid	-10.5737
misunderstanding	-10.5737
structure	-10.5737
▁aldridge	-10.5737
▁appropriate	-10.5737
▁arriving	-10.5737
▁atlanta	-10.5737
▁bracelet	-10.5737
▁buttercup	-10.5737
▁cabrera	-10.5737
▁cipher	-10.5737
▁colonel	-10.5737
▁concentrat	-10.5737
▁daughtry	-10.5737
▁finnegan	-10.5737
▁fridge	-10.5737
▁hubbard	-10.5737
▁lucille	-10.5737
▁luggage	-10.5737
▁mervyn	-10.5737
▁negotiat	-10.5737
▁prescott	-10.5737
▁register	-10.5737
▁religious	-10.5737
▁scenario	-10.5737
▁solution	-10.5737
▁struggle	-10.5737
▁surveillance	-10.5737
▁testify	-10.5737
▁travis	-10.5737
▁trumpet	-10.5737
▁wachootoo	-10.5737
▁whimpering	-10.5737
▁anderson	-10.5737
▁breach	-10.5737
▁convention	-10.5737
▁hercule	-10.5737
▁orbit	-10.5737
▁communication	-10.5737
▁negative	-10.5737
▁compliment	-10.5737
▁hasnat	-10.5737
▁griffin	-10.5737
▁visual	-10.5737
▁blackmail	-10.5737
▁rockwell	-10.5737
iscount	-10.5737
▁creek	-10.5737
▁attitude	-10.5737
▁lawrence	-10.5737
▁outfit	-10.5737
▁antonio	-10.5737
▁polite	-10.5737
▁scrap	-10.5737
▁zoran	-10.5737
▁jonny	-10.5737
▁warrant	-10.5737
▁internet	-10.5737
▁chapter	-10.5737
▁dionne	-10.5737
▁polish	-10.5737
▁essence	-10.5737
▁carriage	-10.5737
▁reverse	-10.5737
▁evelyn	-10.5737
▁heather	-10.5737
▁checkmate	-10.5737
▁henri	-10.5737
▁slut	-10.5737
▁inspire	-10.5737
▁strain	-10.5737
▁supervis	-10.5737
▁plot	-10.5738
▁sexual	-10.5738
▁vlad	-10.5738
▁stunt	-10.5738
▁stash	-10.5738
▁carpet	-10.5738
▁plain	-10.5738
▁poppy	-10.5738
▁kelly	-10.5738
▁sniffles	-10.5738
▁adopt	-10.5738
tinct	-10.5739
▁halt	-10.5739
▁moral	-10.5739
▁brutal	-10.574
▁jingle	-10.574
▁static	-10.5741
▁relate	-10.5767
▁tune	-10.5782
▁severe	-10.5784
▁lime	-10.5784
▁react	-10.5928
strom	-10.6108
world	-10.6594
walk	-10.6598
▁extreme	-10.6619
▁recogni	-10.6642
ification	-10.6646
▁coordinat	-10.6646
▁deploy	-10.6646
▁egypt	-10.6646
▁evacuat	-10.6646
▁accelerat	-10.6646
▁agatha	-10.6646
▁anonymous	-10.6646
▁arashikage	-10.6646
▁astrid	-10.6646
▁atlantic	-10.6646
▁benefit	-10.6646
▁breeze	-10.6646
▁centuries	-10.6646
▁chocolate	-10.6646
▁circumstances	-10.6646
▁commodore	-10.6646
▁council	-10.6646
▁dedicated	-10.6646
▁destruction	-10.6646
▁determine	-10.6646
▁elevator	-10.6646
▁embassy	-10.6646
▁environment	-10.6646
▁erudite	-10.6646
▁essential	-10.6646
▁fabulous	-10.6646
▁geiier	-10.6646
▁giggling	-10.6646
▁global	-10.6646
▁helmet	-10.6646
▁hourglass	-10.6646
▁juvenile	-10.6646
▁magnificent	-10.6646
▁mechanic	-10.6646
▁mousetrap	-10.6646
▁paranormal	-10.6646
▁phillips	-10.6646
▁pleasant	-10.6646
▁sardaukar	-10.6646
▁september	-10.6646
▁shikaka	-10.6646
▁squeeze	-10.6646
▁struggling	-10.6646
▁succeed	-10.6646
▁technique	-10.6646
▁thirsty	-10.6646
▁ultimate	-10.6646
▁underneath	-10.6646
▁vandeweghe	-10.6646
▁vulnerable	-10.6646
▁barnaby	-10.6646
▁bartender	-10.6646
▁improve	-10.6646
▁knives	-10.6646
▁qzone	-10.6646
▁residence	-10.6646
▁rifle	-10.6646
▁throughout	-10.6646
▁uboat	-10.6646
▁underwear	-10.6646
▁grocer	-10.6646
▁iansam	-10.6646
▁magnet	-10.6646
▁translate	-10.6646
▁akator	-10.6646
▁chariot	-10.6646
▁courier	-10.6646
▁tattoo	-10.6646
▁thumping	-10.6646
▁stereo	-10.6646
▁willow	-10.6646
▁cadena	-10.6646
▁fashion	-10.6646
▁fifty	-10.6646
▁frighten	-10.6646
▁precious	-10.6646
▁widow	-10.6646
▁knight	-10.6646
▁divide	-10.6646
▁instant	-10.6646
▁pencil	-10.6646
▁submit	-10.6646
▁dozen	-10.6646
▁gringo	-10.6646
▁dewey	-10.6646
▁palace	-10.6646
▁dominic	-10.6646
▁reckon	-10.6646
▁stiff	-10.6646
▁eddie	-10.6646
▁patrol	-10.6646
▁instinct	-10.6646
▁balance	-10.6646
▁after	-10.6646
▁willie	-10.6646
▁drove	-10.6646
▁keller	-10.6646
▁tuna	-10.6647
▁urine	-10.6647
▁crust	-10.6647
▁annoy	-10.6647
azzle	-10.6647
▁goodnight	-10.6647
▁perez	-10.6647
▁specta	-10.6647
▁geist	-10.6647
▁emerge	-10.6647
▁creation	-10.6647
▁predict	-10.6647
▁sully	-10.6647
▁stake	-10.6647
▁rico	-10.6648
▁intel	-10.6648
▁rice	-10.6649
▁exceptional	-10.665
serving	-10.6651
▁update	-10.6656
crac	-10.6658
▁tract	-10.667
▁receive	-10.7581
school	-10.7594
▁absolute	-10.762
degree	-10.7645
▁admiral	-10.7646
▁accomplice	-10.7646
▁anticruise	-10.7646
▁august	-10.7646
▁basilwether	-10.7646
▁brautigan	-10.7646
▁condemn	-10.7646
▁conference	-10.7646
▁dimitri	-10.7646
▁division	-10.7646
▁eleanor	-10.7646
▁eternity	-10.7646
▁exercise	-10.7646
▁expensive	-10.7646
▁extraordinary	-10.7646
▁feihung	-10.7646
▁halloween	-10.7646
▁institution	-10.7646
▁intellectual	-10.7646
▁ishmael	-10.7646
▁jakku	-10.7646
▁krupke	-10.7646
▁mademoiselle	-10.7646
▁matthew	-10.7646
▁medallion	-10.7646
▁melancholy	-10.7646
▁opposite	-10.7646
▁oxygen	-10.7646
▁precinct	-10.7646
▁quality	-10.7646
▁reservation	-10.7646
▁rhib	-10.7646
▁sennett	-10.7646
▁sensitive	-10.7646
▁straussman	-10.7646
▁summoned	-10.7646
▁survival	-10.7646
▁terrell	-10.7646
▁tragic	-10.7646
▁urgent	-10.7646
▁vengeance	-10.7646
▁yuetmui	-10.7646
▁airplane	-10.7646
▁cradle	-10.7646
▁fattuh	-10.7646
▁jordan	-10.7646
▁marilyn	-10.7646
▁miserable	-10.7646
▁nemyt	-10.7646
▁scotland	-10.7646
▁undercover	-10.7646
▁unusual	-10.7646
▁superhero	-10.7646
▁length	-10.7646
▁huddle	-10.7646
▁trevor	-10.7646
▁bishop	-10.7646
▁hardware	-10.7646
▁slept	-10.7646
▁chastity	-10.7646
▁florence	-10.7646
▁pantlng	-10.7646
▁tuition	-10.7646
▁advise	-10.7646
▁initial	-10.7646
▁reckless	-10.7646
▁dawson	-10.7646
▁jeez	-10.7646
▁pulse	-10.7646
▁identity	-10.7646
▁sixteen	-10.7646
▁watson	-10.7646
▁alibi	-10.7646
▁illegal	-10.7646
▁minister	-10.7646
▁resume	-10.7646
▁marmee	-10.7646
▁donna	-10.7646
▁iook	-10.7646
▁profit	-10.7646
▁bible	-10.7646
▁greek	-10.7646
▁rogue	-10.7646
▁adapt	-10.7646
▁tolerate	-10.7646
▁tactic	-10.7646
conscious	-10.7646
▁snack	-10.7646
▁balloon	-10.7647
▁invade	-10.7647
▁ferry	-10.7647
▁jeep	-10.7647
▁nerve	-10.7647
▁abbie	-10.7647
▁riker	-10.7647
▁tickle	-10.7647
▁ticking	-10.7647
▁felon	-10.7648
▁argue	-10.7649
▁vivi	-10.7651
▁multipl	-10.7652
▁select	-10.7653
▁compete	-10.7668
daughter	-10.8705
▁immediate	-10.8731
▁mosquito	-10.8757
▁clutch	-10.8757
▁occup	-10.8757
▁qualify	-10.8757
▁sneez	-10.8757
▁sympath	-10.8757
▁torpedo	-10.8757
▁advertise	-10.8757
▁alcohol	-10.8757
▁alligator	-10.8757
▁archaeolog	-10.8757
▁bachelor	-10.8757
▁belief	-10.8757
▁celebration	-10.8757
▁chakobsa	-10.8757
▁circuit	-10.8757
▁cleveland	-10.8757
▁concrete	-10.8757
▁culture	-10.8757
▁debenham	-10.8757
▁encounter	-10.8757
▁enforcement	-10.8757
▁enormous	-10.8757
▁eternium	-10.8757
▁fascinat	-10.8757
▁fingerprints	-10.8757
▁gesserit	-10.8757
▁immunity	-10.8757
▁including	-10.8757
▁incredibly	-10.8757
▁invisible	-10.8757
▁jurisdiction	-10.8757
▁kalaman	-10.8757
▁kamila	-10.8757
▁liquor	-10.8757
▁louisville	-10.8757
▁lucifer	-10.8757
▁majesty	-10.8757
▁manhattan	-10.8757
▁manslaughter	-10.8757
▁mccabe	-10.8757
▁mcguire	-10.8757
▁nagurski	-10.8757
▁offensive	-10.8757
▁opponent	-10.8757
▁organization	-10.8757
▁otterbourne	-10.8757
▁plaza	-10.8757
▁politics	-10.8757
▁precisely	-10.8757
▁preparation	-10.8757
▁puppy	-10.8757
▁religion	-10.8757
▁republic	-10.8757
▁review	-10.8757
▁samurai	-10.8757
▁scholarship	-10.8757
▁scrawny	-10.8757
▁soccer	-10.8757
▁species	-10.8757
▁strategy	-10.8757
▁studied	-10.8757
▁survivor	-10.8757
▁terribly	-10.8757
▁terrified	-10.8757
▁underground	-10.8757
▁unexpected	-10.8757
▁veatch	-10.8757
▁yelps	-10.8757
▁albino	-10.8757
▁april	-10.8757
▁bargain	-10.8757
▁derail	-10.8757
▁disrespect	-10.8757
▁lesbian	-10.8757
▁lopez	-10.8757
▁preparing	-10.8757
▁dessert	-10.8757
▁gracias	-10.8757
▁natalie	-10.8757
▁patriot	-10.8757
▁recycle	-10.8757
▁capacity	-10.8757
▁concept	-10.8757
▁nickname	-10.8757
▁comrade	-10.8757
▁immune	-10.8757
▁shelby	-10.8757
▁facility	-10.8757
▁potato	-10.8757
▁dread	-10.8757
▁freddy	-10.8757
▁venture	-10.8757
▁bedouin	-10.8757
▁quote	-10.8757
▁stevie	-10.8757
▁sketch	-10.8757
