<unk>	0
<s>	0
</s>	0
s	-3.96756
▁im	-4.45077
▁know	-4.56222
▁dont	-4.5654
▁get	-4.73989
▁go	-4.87068
▁like	-4.87441
▁right	-4.89257
▁youre	-4.95822
▁come	-5.01305
▁got	-5.01332
▁yeah	-5.01678
▁one	-5.13765
▁oh	-5.14372
▁well	-5.1485
▁thats	-5.16669
▁okay	-5.25894
▁na	-5.28612
▁want	-5.33256
▁good	-5.34656
▁see	-5.37045
ing	-5.41206
▁hey	-5.41376
▁think	-5.42852
▁going	-5.5193
▁	-5.52602
▁gon	-5.53614
▁back	-5.54162
▁man	-5.60238
▁us	-5.60511
▁yes	-5.60651
▁take	-5.67147
▁time	-5.68025
ed	-5.68385
▁look	-5.69744
▁hes	-5.70663
▁cant	-5.72227
▁need	-5.73312
▁ill	-5.78796
▁would	-5.81839
▁really	-5.84545
▁l	-5.85964
▁tell	-5.87098
▁say	-5.87187
▁could	-5.90838
▁way	-5.97254
▁lets	-5.9789
▁didnt	-5.98092
▁something	-6.00224
▁sir	-6.01136
▁let	-6.0128
▁make	-6.02335
▁never	-6.03842
▁whats	-6.04081
▁sorry	-6.06903
▁thank	-6.08065
▁love	-6.09089
▁little	-6.09705
▁mean	-6.1281
d	-6.13394
▁please	-6.15557
▁give	-6.1831
▁two	-6.20978
▁mr	-6.24501
▁ive	-6.26303
▁theres	-6.26725
▁said	-6.28401
▁people	-6.28658
▁god	-6.28903
▁even	-6.32865
▁help	-6.34763
▁thing	-6.35198
▁stop	-6.37916
sp	-6.38296
▁much	-6.40851
▁guys	-6.41243
▁uh	-6.41936
▁nb	-6.42055
▁life	-6.42526
▁wait	-6.43034
▁call	-6.44059
▁sure	-6.45191
▁home	-6.46303
▁day	-6.47009
▁find	-6.48026
▁theyre	-6.49456
▁first	-6.50341
▁anything	-6.50697
▁keep	-6.51903
y	-6.52989
▁still	-6.53777
▁work	-6.539
▁put	-6.5469
▁shes	-6.55486
▁maybe	-6.562
▁great	-6.56251
▁must	-6.61596
▁thought	-6.63683
▁last	-6.65083
▁new	-6.65612
▁better	-6.66725
▁nothing	-6.66725
e	-6.6674
▁stay	-6.68927
▁hell	-6.68957
▁night	-6.69347
▁ever	-6.69373
ly	-6.69714
▁feel	-6.72569
▁talk	-6.72786
▁always	-6.73437
▁away	-6.73891
▁music	-6.7562
▁leave	-6.76115
▁long	-6.76537
▁everything	-6.76595
▁name	-6.77325
▁around	-6.77551
▁guy	-6.78866
▁world	-6.7948
▁boy	-6.79613
▁place	-6.79688
▁youve	-6.79913
▁coming	-6.80665
▁hi	-6.8092
▁done	-6.81363
▁big	-6.83304
▁ready	-6.8412
▁left	-6.843
▁money	-6.8456
▁told	-6.85565
▁listen	-6.86062
▁believe	-6.86119
▁move	-6.86184
▁shit	-6.873
▁made	-6.87896
▁lot	-6.88036
▁wan	-6.88301
▁ta	-6.89001
▁mom	-6.89353
▁old	-6.89858
▁things	-6.90074
▁every	-6.90388
▁dad	-6.90454
▁years	-6.9053
▁car	-6.91348
▁thanks	-6.91812
▁doesnt	-6.92095
▁nice	-6.92423
er	-6.92679
a	-6.9271
▁girl	-6.92793
▁kind	-6.93119
▁three	-6.9318
▁hello	-6.93801
▁hear	-6.9398
▁hold	-6.94399
▁kill	-6.9716
▁care	-6.97619
▁id	-6.97994
▁wont	-6.98419
▁playing	-6.98598
▁son	-6.99199
▁bad	-6.99825
▁course	-6.99955
▁family	-7.00641
▁miss	-7.00739
▁enough	-7.00833
▁youll	-7.00833
▁might	-7.02769
▁dead	-7.02795
▁fine	-7.03199
▁wrong	-7.05353
▁door	-7.05503
▁remember	-7.05631
▁show	-7.05781
r	-7.0641
▁someone	-7.06789
▁real	-7.0706
▁wanted	-7.07833
▁huh	-7.08801
▁another	-7.09761
▁house	-7.0979
▁woman	-7.1074
▁talking	-7.11044
▁play	-7.11343
▁today	-7.11387
▁best	-7.12049
▁came	-7.13341
▁phone	-7.13396
▁isnt	-7.13703
▁mind	-7.15196
▁looking	-7.15563
▁um	-7.16427
▁mother	-7.17149
▁run	-7.17234
▁tonight	-7.17458
▁school	-7.18519
▁next	-7.19212
▁trying	-7.19617
▁else	-7.20998
▁friend	-7.21285
▁father	-7.2147
▁found	-7.21564
▁guess	-7.23499
▁aint	-7.23923
▁getting	-7.2415
▁pretty	-7.24295
▁damn	-7.24705
▁hard	-7.2478
▁understand	-7.24959
▁baby	-7.25043
▁may	-7.25133
▁head	-7.25183
▁open	-7.25187
▁job	-7.25283
▁happened	-7.25618
▁kid	-7.26093
▁meet	-7.26403
▁ah	-7.26479
▁die	-7.26627
▁room	-7.26825
▁weve	-7.26937
▁whole	-7.26938
▁try	-7.27212
▁watch	-7.27252
al	-7.28091
▁cause	-7.28263
▁wasnt	-7.28478
t	-7.28597
▁morning	-7.29258
▁sighs	-7.29311
▁live	-7.29741
▁ask	-7.30399
▁chuckles	-7.30656
▁bring	-7.30702
▁saw	-7.30838
▁men	-7.31103
▁seen	-7.31578
▁brother	-7.32311
▁actually	-7.32444
▁many	-7.32493
▁knew	-7.32844
▁together	-7.32845
▁heard	-7.3357
▁already	-7.33658
▁start	-7.34933
▁without	-7.36143
▁heart	-7.36384
▁everybody	-7.37411
▁fire	-7.37656
▁hands	-7.38398
▁excuse	-7.39555
▁took	-7.39561
in	-7.39719
▁everyone	-7.40482
▁turn	-7.40909
▁went	-7.41307
▁wouldnt	-7.41358
▁game	-7.41793
▁hand	-7.41986
▁second	-7.42237
▁five	-7.42652
▁gone	-7.44014
▁city	-7.44451
▁fight	-7.44506
▁idea	-7.44985
▁use	-7.46537
▁em	-7.47007
o	-7.47109
▁yet	-7.47222
▁mine	-7.47471
▁gun	-7.47854
▁lost	-7.48637
▁friends	-7.49034
▁hope	-7.49101
▁face	-7.49405
▁check	-7.49774
▁anyone	-7.50067
▁grunts	-7.50297
▁tomorrow	-7.51035
▁stuff	-7.51035
▁crazy	-7.51038
▁problem	-7.51749
▁true	-7.52028
▁ok	-7.52035
▁killed	-7.52582
▁girls	-7.52718
es	-7.52859
▁hit	-7.5291
▁whoa	-7.53008
▁called	-7.53498
▁alone	-7.535
▁saying	-7.53795
▁alright	-7.54345
▁days	-7.55061
▁water	-7.55476
▁lm	-7.56165
▁part	-7.56175
▁easy	-7.56537
▁nobody	-7.56537
▁end	-7.57711
▁pay	-7.58058
▁probably	-7.58616
i	-7.58771
▁hurt	-7.59074
▁used	-7.59139
▁party	-7.59768
▁since	-7.60178
▁four	-7.60194
▁captain	-7.60202
▁bit	-7.6025
▁couldnt	-7.6026
▁cool	-7.60267
▁happy	-7.60737
▁deal	-7.61077
▁wife	-7.61275
▁team	-7.6172
▁havent	-7.62359
n	-7.62382
▁looks	-7.62608
▁beautiful	-7.62905
▁inside	-7.62906
▁shot	-7.63373
▁whos	-7.63477
▁eyes	-7.63749
▁high	-7.63759
▁wheres	-7.64452
▁year	-7.64491
▁welcome	-7.64562
▁full	-7.64773
▁forget	-7.65123
▁hot	-7.65142
▁youd	-7.66262
▁wants	-7.66527
▁change	-7.66578
▁un	-7.66758
▁dance	-7.67068
▁whatever	-7.67388
▁death	-7.67396
▁worry	-7.67963
▁police	-7.68518
▁says	-7.69178
▁read	-7.69407
▁kids	-7.69485
▁jake	-7.69706
▁close	-7.6979
▁soon	-7.70214
▁shut	-7.7027
▁spanish	-7.70295
▁gave	-7.70297
▁rest	-7.70377
▁minutes	-7.70766
▁business	-7.70863
▁matter	-7.70929
▁case	-7.70975
▁ago	-7.71494
▁aye	-7.71505
▁young	-7.71984
▁word	-7.72765
▁cut	-7.73207
▁line	-7.73291
▁week	-7.73358
▁clear	-7.73519
▁ass	-7.73856
▁eat	-7.74223
▁safe	-7.74287
▁means	-7.74564
▁happen	-7.75092
▁blood	-7.75603
▁continues	-7.76308
▁minute	-7.76522
▁point	-7.76705
▁wish	-7.78446
▁far	-7.78547
▁fun	-7.78618
▁stand	-7.78686
▁ahead	-7.78919
▁thinking	-7.79006
▁walk	-7.79224
▁speaking	-7.79253
▁master	-7.79546
▁supposed	-7.80141
▁drive	-7.80191
▁drink	-7.81106
▁working	-7.8176
▁somebody	-7.81791
▁makes	-7.81907
▁late	-7.82036
▁lady	-7.82216
▁making	-7.82858
▁later	-7.8294
▁sit	-7.83046
▁side	-7.83564
▁trust	-7.84543
▁times	-7.84685
on	-7.84742
▁break	-7.84799
▁red	-7.85045
▁free	-7.85332
▁also	-7.85562
▁funny	-7.85569
▁taking	-7.8558
▁sleep	-7.85809
▁chance	-7.8661
▁wow	-7.86949
▁hmm	-7.87629
▁least	-7.87646
▁exactly	-7.8766
▁town	-7.87687
▁engine	-7.87712
▁needs	-7.88057
▁afraid	-7.8835
▁grunting	-7.88433
▁laughing	-7.88614
▁laughs	-7.88708
▁win	-7.88783
▁set	-7.88884
▁send	-7.88949
▁though	-7.88987
▁sally	-7.8909
▁joe	-7.89561
▁met	-7.90056
▁six	-7.90482
l	-7.9053
▁hate	-7.90773
▁moment	-7.9095
▁pick	-7.91132
▁half	-7.91216
▁truth	-7.91219
▁james	-7.91226
▁boys	-7.92167
▁number	-7.92411
▁book	-7.92666
▁air	-7.93412
▁charlie	-7.93424
▁person	-7.94101
▁promise	-7.94489
▁light	-7.94498
▁follow	-7.94667
▁black	-7.94908
▁anymore	-7.94921
▁alive	-7.94925
▁story	-7.9568
▁waiting	-7.9617
▁enola	-7.97987
▁almost	-7.97987
▁power	-7.98128
▁war	-7.98365
▁stupid	-7.98768
▁ladies	-7.98769
▁behind	-7.9877
▁shoot	-7.99098
▁asked	-7.99421
▁lose	-8.00113
▁save	-8.0014
▁catch	-8.00636
▁important	-8.01021
▁perfect	-8.01095
▁panting	-8.01156
▁answer	-8.01807
▁theyll	-8.01956
▁sent	-8.01969
▁jo	-8.02361
▁dog	-8.0275
▁white	-8.03603
▁screaming	-8.03675
▁died	-8.04164
▁reason	-8.04294
▁speak	-8.04594
▁hang	-8.04708
▁goes	-8.04977
▁different	-8.05116
▁hurry	-8.05248
▁arent	-8.05249
▁ooh	-8.05249
▁outside	-8.05249
▁tried	-8.05261
▁sounds	-8.05939
▁luck	-8.05963
▁couple	-8.0609
▁jimmy	-8.06091
▁question	-8.07291
▁ben	-8.07313
▁anyway	-8.0777
▁lts	-8.07802
▁plan	-8.08064
▁honey	-8.08655
▁body	-8.08669
▁pass	-8.08814
p	-8.09007
▁office	-8.09432
▁street	-8.09516
▁order	-8.09591
▁ball	-8.09659
▁married	-8.10405
▁trouble	-8.10668
▁voice	-8.11308
▁dr	-8.11362
▁bill	-8.11994
▁started	-8.11995
▁food	-8.12178
▁running	-8.12182
▁telling	-8.12716
▁fast	-8.12968
▁ride	-8.13062
▁dear	-8.13085
▁anybody	-8.13142
▁ship	-8.13195
▁hours	-8.13366
▁throw	-8.13425
▁buy	-8.13524
▁child	-8.13978
▁jesus	-8.13987
▁parents	-8.14127
▁gentlemen	-8.14906
▁control	-8.1491
▁marta	-8.14914
▁train	-8.14925
able	-8.14996
▁step	-8.15753
▁shouldnt	-8.15831
▁doctor	-8.15927
▁officer	-8.16028
▁lead	-8.16323
▁fall	-8.16486
▁th	-8.16671
▁protect	-8.16864
▁harlan	-8.17483
▁ho	-8.17596
▁john	-8.17694
▁country	-8.17711
▁cheering	-8.17904
▁sometimes	-8.17956
▁news	-8.18249
▁la	-8.18445
▁america	-8.18537
▁living	-8.18662
▁leaving	-8.18664
▁jack	-8.18721
▁quite	-8.18726
▁sound	-8.1944
g	-8.20036
▁front	-8.20598
▁till	-8.20609
▁de	-8.20799
ies	-8.21283
▁bye	-8.21574
▁brought	-8.21574
h	-8.21996
▁chatter	-8.22124
▁taken	-8.22203
▁serious	-8.2244
▁bet	-8.22988
▁cover	-8.23229
▁s	-8.23244
▁president	-8.23564
▁tv	-8.23585
▁slow	-8.23586
▁scared	-8.23676
m	-8.24082
c	-8.24251
▁months	-8.24661
▁lie	-8.25115
ar	-8.25268
▁feet	-8.25605
▁kidding	-8.25662
▁top	-8.25797
▁dream	-8.26057
▁beat	-8.26224
▁seems	-8.2624
▁bed	-8.2637
▁gets	-8.26576
▁rock	-8.26588
▁itll	-8.26627
▁pull	-8.26818
▁sun	-8.27036
ion	-8.27082
▁ha	-8.27218
▁carl	-8.27561
▁write	-8.27565
▁sick	-8.27667
▁moving	-8.27669
▁gasps	-8.27846
▁sense	-8.28009
▁daddy	-8.2801
▁sign	-8.2819
▁camp	-8.28367
▁careful	-8.28665
▁henry	-8.2872
▁detective	-8.28726
▁heres	-8.2885
▁meant	-8.29312
▁special	-8.29754
▁straight	-8.29783
▁children	-8.2979
ic	-8.30121
▁lives	-8.30266
▁strong	-8.30735
ers	-8.30816
▁goddamn	-8.3086
▁paul	-8.30869
▁mar	-8.31002
▁sister	-8.31274
▁seem	-8.31427
▁king	-8.31662
▁ten	-8.31861
▁bitch	-8.31912
or	-8.32163
▁knows	-8.32295
▁fault	-8.32376
▁perhaps	-8.33044
▁radio	-8.33045
▁contact	-8.33133
us	-8.33141
▁feeling	-8.33429
▁picture	-8.33504
▁million	-8.33509
▁c	-8.33589
▁dinner	-8.34156
▁shall	-8.34156
▁maam	-8.34157
▁seven	-8.34168
▁touch	-8.34424
▁become	-8.3465
▁either	-8.35279
▁fuck	-8.35284
▁breathing	-8.35456
▁hair	-8.35776
ve	-8.35993
▁wed	-8.36049
▁ya	-8.36153
re	-8.36154
▁miller	-8.36438
▁miles	-8.36863
▁eye	-8.36986
▁b	-8.37132
▁copy	-8.37141
▁victor	-8.37356
▁women	-8.37567
▁learn	-8.37952
▁choice	-8.38122
▁act	-8.38178
▁murder	-8.38269
▁worth	-8.38351
▁laugh	-8.38494
▁happens	-8.38525
▁possible	-8.38728
▁future	-8.38729
▁bobby	-8.38729
▁sort	-8.3873
▁crowd	-8.38732
▁able	-8.39259
▁husband	-8.3931
▁drop	-8.39351
▁wear	-8.39526
▁enjoy	-8.39535
▁quiet	-8.39783
▁relax	-8.39905
▁forever	-8.39905
▁asking	-8.40025
▁lucky	-8.40108
▁comes	-8.40281
▁cell	-8.40496
▁uncle	-8.40498
▁piece	-8.40575
▁happening	-8.40742
▁dom	-8.40844
▁return	-8.40911
▁indistinct	-8.4097
▁along	-8.41092
▁attack	-8.41497
man	-8.42282
▁others	-8.42299
▁hows	-8.42694
▁re	-8.42859
▁fact	-8.42877
▁land	-8.43486
▁gllllan	-8.43519
▁daughter	-8.4353
▁early	-8.43597
▁finish	-8.43963
▁kiss	-8.43993
▁movie	-8.44227
▁respect	-8.44391
▁weeks	-8.44605
▁york	-8.44644
▁bridge	-8.44757
▁peter	-8.44815
▁past	-8.44899
▁missed	-8.44907
▁clean	-8.45059
▁dude	-8.45477
▁fear	-8.45801
▁normal	-8.45887
▁johnny	-8.4601
▁secret	-8.46766
▁calling	-8.46767
est	-8.4695
▁state	-8.47025
▁f	-8.47101
▁small	-8.47168
▁somewhere	-8.47269
▁goodbye	-8.4727
▁buddy	-8.4727
ous	-8.4744
▁e	-8.47785
le	-8.47792
▁longer	-8.47805
▁figure	-8.47836
▁sweet	-8.47979
▁road	-8.48173
▁american	-8.48234
▁company	-8.48551
▁english	-8.48551
▁totally	-8.48612
f	-8.48893
ie	-8.49233
▁ground	-8.49375
▁honor	-8.49823
▁crew	-8.49851
▁worse	-8.49853
▁finally	-8.49938
▁song	-8.50037
▁wonder	-8.50069
▁force	-8.50511
▁table	-8.50557
▁hero	-8.50783
▁turned	-8.50832
▁swear	-8.51166
▁birthday	-8.51166
▁calm	-8.51168
▁questions	-8.5124
▁bus	-8.51456
▁takes	-8.51495
▁human	-8.52061
▁truck	-8.52087
▁hour	-8.52107
▁fair	-8.52355
▁weird	-8.52435
▁gold	-8.52485
▁north	-8.525
▁sweetwater	-8.525
▁heavily	-8.52501
▁sam	-8.52514
▁fool	-8.52572
▁watching	-8.52691
ng	-8.53253
▁mouth	-8.53383
▁smart	-8.53725
▁dangerous	-8.53861
▁rich	-8.54258
▁words	-8.55078
▁max	-8.55211
▁south	-8.5522
▁definitely	-8.55221
▁report	-8.55303
▁bearing	-8.55436
▁fly	-8.557
▁wall	-8.55716
▁lord	-8.56227
▁ghost	-8.5623
▁horse	-8.56247
▁worked	-8.56302
▁bud	-8.56362
▁eight	-8.56443
▁peace	-8.56591
▁ethan	-8.56609
▁hasnt	-8.5661
▁green	-8.56611
▁wake	-8.56611
▁fish	-8.56633
▁ringing	-8.56807
▁none	-8.56874
ting	-8.56929
▁seat	-8.56948
▁folks	-8.5695
▁box	-8.57082
▁class	-8.5721
▁mm	-8.57222
▁blow	-8.57392
▁date	-8.57482
▁island	-8.57621
▁loved	-8.57768
st	-8.57932
▁low	-8.57936
▁court	-8.58016
▁driving	-8.58019
▁favorite	-8.58021
▁aj	-8.58023
▁mister	-8.58029
▁batman	-8.58039
▁groans	-8.58236
▁in	-8.58258
▁join	-8.58634
▁race	-8.59147
▁quick	-8.59216
▁boss	-8.59224
▁bag	-8.59297
▁mad	-8.59377
▁needed	-8.59394
▁earth	-8.5945
▁paid	-8.59459
▁cold	-8.5946
▁hide	-8.59472
▁tony	-8.59475
▁bell	-8.59699
▁breathe	-8.59792
▁test	-8.59825
ce	-8.59828
▁changed	-8.6002
▁target	-8.60082
▁map	-8.60263
▁richard	-8.6053
an	-8.60581
lng	-8.60634
▁bat	-8.60656
▁shh	-8.60871
▁grab	-8.60878
▁igor	-8.60896
▁caught	-8.60896
▁major	-8.60896
▁space	-8.60922
▁shouting	-8.60998
▁singing	-8.61266
▁t	-8.6136
▁expect	-8.61574
▁window	-8.62068
▁agent	-8.62072
en	-8.62228
▁known	-8.6223
▁amazing	-8.62366
▁felt	-8.6237
▁clothes	-8.62381
▁born	-8.62382
▁glad	-8.62386
▁unless	-8.62403
▁bats	-8.6267
▁reach	-8.63315
▁surprise	-8.6333
▁g	-8.63478
▁floor	-8.6356
▁mistake	-8.63586
▁near	-8.63739
▁range	-8.63759
▁bank	-8.63759
▁rather	-8.63859
▁general	-8.63883
▁film	-8.63888
▁mess	-8.64514
▁david	-8.65356
▁theyve	-8.65374
▁security	-8.65378
▁forgive	-8.65391
▁wing	-8.6547
▁d	-8.65552
▁yo	-8.65631
▁killer	-8.65643
▁ones	-8.66037
▁mark	-8.66142
▁explain	-8.66291
up	-8.66337
▁shoes	-8.66418
▁marry	-8.6647
▁rain	-8.66545
▁handle	-8.66751
▁cops	-8.66803
▁dark	-8.66879
▁building	-8.66893
▁across	-8.66912
▁anywhere	-8.66912
▁harvey	-8.66912
▁abby	-8.6692
▁yall	-8.66937
▁male	-8.66959
▁tough	-8.67012
ment	-8.67071
▁busy	-8.67081
▁speaks	-8.67083
▁tires	-8.67298
▁saved	-8.6735
▁count	-8.67426
k	-8.6753
▁fix	-8.67665
▁bang	-8.68033
▁st	-8.68161
▁band	-8.68378
▁broke	-8.6843
▁coffee	-8.68474
▁college	-8.68475
▁instead	-8.68475
▁gym	-8.68476
▁gordon	-8.68479
ll	-8.6879
▁club	-8.69169
▁star	-8.6925
▁abe	-8.69307
▁j	-8.69499
▁aunt	-8.69843
▁crime	-8.69881
▁message	-8.69902
▁shell	-8.69921
▁absolutely	-8.70081
▁looked	-8.70221
▁seriously	-8.70261
▁killing	-8.70925
▁deep	-8.71115
▁spend	-8.71225
▁push	-8.71232
▁board	-8.71273
▁stick	-8.71484
▁girlfriend	-8.71486
▁boat	-8.7152
▁month	-8.71556
▁poor	-8.71557
▁middle	-8.71675
▁suit	-8.71676
▁giving	-8.71676
▁personal	-8.71682
▁mandi	-8.71797
▁plane	-8.7228
▁seeing	-8.72565
it	-8.72741
ation	-8.72777
▁short	-8.72945
ity	-8.73016
▁seconds	-8.73162
▁station	-8.73192
as	-8.73231
▁cash	-8.7331
▁double	-8.73314
▁amy	-8.73341
▁lisa	-8.73361
▁hat	-8.73369
▁pain	-8.73483
▁wonderful	-8.73552
▁foot	-8.73767
▁brothers	-8.73821
la	-8.74208
▁r	-8.74303
▁p	-8.74346
▁cheers	-8.74707
▁soft	-8.74856
▁evening	-8.74861
▁law	-8.74883
▁rudder	-8.74981
▁tired	-8.75003
▁m	-8.75778
▁missing	-8.75812
b	-8.762
▁nick	-8.76326
▁entire	-8.76551
▁hundred	-8.7659
▁stone	-8.76629
▁hospital	-8.76659
u	-8.76666
▁church	-8.76672
▁tessa	-8.76676
▁tewkesbury	-8.76676
▁aaron	-8.76676
▁attention	-8.76676
▁exhales	-8.76678
▁wedding	-8.76678
▁gary	-8.76717
▁k	-8.77005
v	-8.77053
▁a	-8.77371
▁cat	-8.77768
▁coach	-8.77837
▁private	-8.78265
▁da	-8.78329
▁beach	-8.78333
▁except	-8.78342
▁smell	-8.78352
▁blind	-8.78385
▁appreciate	-8.784
▁history	-8.784
▁language	-8.784
▁london	-8.784
▁h	-8.78402
▁information	-8.78407
▁west	-8.78419
▁starting	-8.78514
▁sing	-8.78625
▁arm	-8.78625
▁ow	-8.78862
▁given	-8.79065
▁fired	-8.79286
▁ji	-8.79367
▁park	-8.79448
▁key	-8.79504
▁dare	-8.79933
▁risk	-8.79986
▁gas	-8.80111
▁position	-8.80134
▁system	-8.80137
▁round	-8.80148
▁chaplin	-8.80155
▁yep	-8.80162
▁single	-8.80176
▁jump	-8.80368
▁grow	-8.80542
▁player	-8.80691
▁screams	-8.80912
▁kick	-8.81123
▁hall	-8.81502
▁card	-8.81591
▁walt	-8.81827
▁awesome	-8.8194
▁desert	-8.8194
▁worried	-8.8194
▁werent	-8.8194
▁mmm	-8.81946
▁forward	-8.8196
▁sitting	-8.81991
▁besides	-8.82185
▁lll	-8.82268
▁works	-8.82294
▁hed	-8.82432
▁cute	-8.82563
▁rules	-8.83354
▁dress	-8.83388
▁final	-8.83688
▁glass	-8.83703
▁purpose	-8.8374
▁proud	-8.83758
▁machine	-8.83788
▁sweetie	-8.83788
▁broken	-8.83821
▁tai	-8.84011
▁suck	-8.847
▁joes	-8.84719
▁lt	-8.85187
▁allow	-8.85379
▁scoffs	-8.8561
▁yesterday	-8.8561
▁smile	-8.85611
▁dancing	-8.85616
▁pool	-8.85646
▁mama	-8.85696
▁spirit	-8.85709
▁jet	-8.85717
▁holy	-8.85873
▁states	-8.86343
▁bar	-8.86578
z	-8.86743
▁record	-8.86836
▁walking	-8.86892
▁complete	-8.87148
▁gift	-8.87259
▁quit	-8.87381
▁strange	-8.87395
▁accident	-8.87403
▁throat	-8.87497
▁darling	-8.87497
▁derek	-8.87497
▁local	-8.87497
▁sheila	-8.87497
▁kept	-8.87501
▁sharon	-8.87503
▁groaning	-8.8757
▁store	-8.87571
▁cop	-8.87613
▁weapon	-8.87632
▁wayne	-8.87676
▁bike	-8.87831
less	-8.8806
▁cross	-8.88625
▁breaking	-8.88728
▁maya	-8.88795
▁tea	-8.88977
▁sell	-8.89003
▁notice	-8.89201
▁rick	-8.89306
▁frank	-8.89317
▁female	-8.8942
▁genius	-8.8942
▁linnet	-8.8942
▁situation	-8.89421
▁choose	-8.89428
▁boyfriend	-8.89526
▁an	-8.89637
▁port	-8.89638
▁letter	-8.89707
▁dogs	-8.89716
▁i	-8.89867
▁travel	-8.90383
▁cap	-8.90473
▁holding	-8.9057
▁burn	-8.90747
▁teach	-8.90814
▁carry	-8.9101
▁imagine	-8.9116
▁escape	-8.91162
▁using	-8.91326
▁continue	-8.91359
▁favor	-8.91377
▁built	-8.91381
▁fbi	-8.91381
▁poirot	-8.91381
▁irish	-8.91383
▁afternoon	-8.91386
▁chief	-8.91386
▁hotel	-8.91422
um	-8.91517
▁present	-8.91552
▁chattering	-8.92266
▁offer	-8.9277
▁ex	-8.92827
▁deserve	-8.93181
▁prison	-8.93255
▁share	-8.93324
▁alex	-8.93381
▁bathroom	-8.93382
▁drunk	-8.93384
▁simple	-8.93392
▁owe	-8.93435
▁speed	-8.93447
▁interested	-8.9359
▁soul	-8.93637
▁blue	-8.93642
▁support	-8.93647
▁bird	-8.93658
▁locked	-8.93663
▁joni	-8.93697
▁idiot	-8.93833
▁ace	-8.941
▁wind	-8.94262
▁spot	-8.94312
▁reading	-8.94915
rs	-8.94941
▁experience	-8.94944
▁closes	-8.95288
▁fighting	-8.9534
▁unit	-8.95416
▁difference	-8.95422
▁pleasure	-8.95422
▁siveth	-8.95422
▁whirring	-8.95422
▁dodgeball	-8.95423
▁dying	-8.95424
▁luke	-8.95424
▁stuck	-8.95425
th	-8.9543
▁mmhmm	-8.95433
▁played	-8.95434
▁average	-8.95436
▁completely	-8.95556
▁decided	-8.95559
▁scene	-8.95608
▁group	-8.95672
▁field	-8.95692
▁computer	-8.95699
▁cher	-8.9589
▁meeting	-8.95939
▁closed	-8.96183
▁sleeping	-8.96748
▁feels	-8.96772
▁standing	-8.96871
▁match	-8.97063
▁ii	-8.9711
▁birds	-8.9726
▁suppose	-8.97289
▁loose	-8.97456
▁extra	-8.97484
▁francis	-8.97497
▁forgot	-8.975
▁heavy	-8.97505
▁ransom	-8.97505
▁social	-8.97505
▁zooey	-8.97506
▁jaden	-8.97506
▁linda	-8.97506
▁starboard	-8.97508
▁east	-8.97508
▁dramatic	-8.97509
▁jerry	-8.97509
▁roger	-8.97511
▁horn	-8.9755
ling	-8.97603
▁joke	-8.97706
ness	-8.97734
ty	-8.97769
▁crying	-8.97819
▁less	-8.98153
▁lee	-8.98159
▁cheer	-8.98264
▁se	-8.98415
▁code	-8.98567
▁lived	-8.98667
▁lam	-8.98715
▁pop	-8.99005
▁knock	-8.99164
▁realize	-8.99446
▁martin	-8.99505
▁jets	-8.99517
▁video	-8.99633
▁basketball	-8.99634
▁gotham	-8.99634
▁crown	-8.99634
▁bigger	-8.99645
▁third	-8.99655
▁stage	-8.99662
▁wild	-8.99694
▁plans	-8.99722
▁cars	-8.99743
▁ran	-8.9979
▁shadow	-9.0001
▁whose	-9.00135
▁mission	-9.0014
▁fit	-9.00145
▁prove	-9.00187
▁age	-9.00661
ine	-9.00686
▁pack	-9.01337
▁search	-9.01355
▁trip	-9.01722
▁self	-9.01788
▁smoke	-9.01807
▁alarm	-9.01809
▁corner	-9.01837
▁calls	-9.01839
▁path	-9.01843
▁lovely	-9.01902
▁charge	-9.01912
▁faster	-9.02046
▁heaven	-9.02212
▁beer	-9.02225
▁cost	-9.02233
▁christ	-9.0237
▁thinks	-9.02598
▁carly	-9.03123
▁gods	-9.03312
▁stole	-9.03979
▁roman	-9.04003
▁bullshit	-9.04029
▁department	-9.04031
▁dirty	-9.04128
▁falcone	-9.04182
▁beeping	-9.04216
▁asshole	-9.04481
▁out	-9.04543
▁wearing	-9.04875
el	-9.05038
▁rule	-9.05141
▁where	-9.05156
ful	-9.05256
▁accept	-9.05445
▁treat	-9.05464
▁magic	-9.05881
▁curse	-9.06075
▁sad	-9.06296
▁adele	-9.06302
▁dallas	-9.06302
▁greyhound	-9.06302
▁sanchez	-9.06302
▁within	-9.06302
▁distance	-9.06307
▁losing	-9.06403
▁putting	-9.06531
▁member	-9.0682
▁belong	-9.06825
▁service	-9.06831
▁soldier	-9.06833
▁finished	-9.06948
ch	-9.06969
▁names	-9.06982
▁leader	-9.0701
▁keys	-9.07213
▁talked	-9.07407
▁goin	-9.07814
▁blues	-9.08334
▁base	-9.08385
▁judge	-9.08398
▁raise	-9.08408
▁weapons	-9.08461
▁matters	-9.08482
▁eve	-9.08485
▁fell	-9.08521
▁impossible	-9.08627
▁empire	-9.08627
▁rachel	-9.08628
▁swim	-9.08628
▁especially	-9.08629
▁repeat	-9.08629
▁shane	-9.0863
▁christian	-9.08637
▁wailing	-9.08655
▁obviously	-9.08669
▁certainly	-9.08737
▁bite	-9.0874
▁screeching	-9.0881
▁closer	-9.08966
▁heading	-9.09014
▁tris	-9.09018
▁allowed	-9.09048
▁regret	-9.09141
▁sky	-9.09161
▁price	-9.09167
▁conversation	-9.09199
▁partner	-9.09208
▁over	-9.09277
▁shed	-9.09334
▁ends	-9.09441
▁shooting	-9.09948
▁lock	-9.10051
▁books	-9.10129
▁guns	-9.10247
ry	-9.10351
▁shaw	-9.10841
▁pal	-9.10939
age	-9.10969
▁became	-9.11008
▁bouc	-9.11008
▁grandpa	-9.11008
▁treasure	-9.11008
▁sobbing	-9.11009
▁diana	-9.11009
▁bunch	-9.11011
▁lunch	-9.11013
▁worst	-9.11013
▁luce	-9.11015
▁arms	-9.11054
▁stopped	-9.11056
▁standard	-9.11065
▁sea	-9.11097
▁gasping	-9.11114
▁ice	-9.11193
▁dent	-9.11279
▁suspect	-9.11287
▁whoo	-9.11311
▁interesting	-9.11361
oit	-9.11577
▁shirt	-9.11591
▁snake	-9.11628
▁paper	-9.1166
▁reports	-9.11676
▁shouts	-9.11691
▁co	-9.11887
▁training	-9.12167
▁di	-9.12311
▁garden	-9.12715
▁mo	-9.1311
▁bro	-9.13132
▁form	-9.13154
▁loud	-9.13233
▁public	-9.13322
▁contract	-9.13326
▁chuckling	-9.1345
▁gang	-9.13451
▁hungry	-9.13453
▁flight	-9.13455
▁weekend	-9.1347
▁alan	-9.13472
▁beginning	-9.13476
▁powerful	-9.135
▁moon	-9.13515
▁planet	-9.13639
▁begin	-9.13906
ally	-9.14061
▁tour	-9.14087
▁queen	-9.14115
▁sheriff	-9.14121
▁mars	-9.14581
▁legs	-9.14766
▁heads	-9.1506
▁visit	-9.15113
▁draw	-9.154
ate	-9.15417
▁steal	-9.155
▁practice	-9.15713
▁tight	-9.15806
▁beth	-9.15863
▁beyond	-9.15947
▁cousin	-9.15947
▁doubt	-9.15947
▁evidence	-9.15947
▁lieutenant	-9.15947
▁michael	-9.15947
▁neither	-9.15947
▁congratulations	-9.15947
▁sergeant	-9.15948
▁inspector	-9.15948
▁jail	-9.1595
▁josie	-9.1595
▁electricity	-9.15953
▁bourne	-9.15953
▁track	-9.15954
▁storm	-9.15963
▁involved	-9.15978
▁upon	-9.15984
▁hiding	-9.16054
▁vote	-9.16402
w	-9.16517
▁ken	-9.16527
▁summer	-9.16674
▁champion	-9.16707
▁guard	-9.16712
to	-9.16745
▁ted	-9.16902
nt	-9.17005
▁al	-9.17135
▁art	-9.17683
▁post	-9.17968
▁remind	-9.18005
▁arrest	-9.18173
▁waste	-9.18286
▁sex	-9.18402
▁witch	-9.18456
▁cooper	-9.18499
▁alpha	-9.18511
▁daniel	-9.18511
▁professor	-9.18511
▁sherlock	-9.18511
▁british	-9.18512
▁twice	-9.18512
▁shame	-9.18514
▁device	-9.18514
▁howard	-9.18517
▁spent	-9.18517
▁bought	-9.18518
▁truly	-9.18522
▁battle	-9.18531
▁lying	-9.1855
▁honestly	-9.18629
▁pete	-9.18646
▁players	-9.18715
▁bringing	-9.18782
▁hardin	-9.18853
▁plays	-9.1911
▁trick	-9.19167
▁area	-9.19267
▁promised	-9.19285
▁counselor	-9.19296
▁scout	-9.19336
▁tree	-9.19353
▁v	-9.19515
▁doors	-9.19941
▁switch	-9.20123
▁dreams	-9.20359
▁listening	-9.20419
▁w	-9.20512
▁crack	-9.20619
▁rescue	-9.20898
▁survive	-9.20948
▁command	-9.20989
▁certain	-9.21025
▁total	-9.2103
▁dumb	-9.21035
▁freak	-9.21113
▁adult	-9.21143
▁eagle	-9.21144
▁knife	-9.21149
▁value	-9.21149
▁safety	-9.21197
▁usually	-9.21208
▁whatd	-9.21295
▁mayor	-9.21445
▁rat	-9.21467
▁roll	-9.21586
▁figured	-9.21595
▁farm	-9.21667
▁dollars	-9.21749
▁mate	-9.21811
▁hole	-9.21904
▁chicken	-9.21976
▁lights	-9.22007
▁flying	-9.22016
▁cake	-9.22027
▁beeps	-9.22044
▁brain	-9.22044
▁type	-9.22075
▁keeping	-9.22254
▁picked	-9.22371
ne	-9.22566
ton	-9.22583
time	-9.23105
▁named	-9.23124
ance	-9.23151
ary	-9.23218
▁career	-9.23357
▁moved	-9.23433
▁sight	-9.2355
▁honest	-9.23571
▁feed	-9.23747
▁bernardo	-9.23846
▁chicago	-9.23846
▁clark	-9.23846
▁george	-9.23846
▁insane	-9.23846
▁mitch	-9.23846
▁permission	-9.23846
▁nurse	-9.23846
▁secure	-9.23847
▁sweetheart	-9.23847
▁inhales	-9.23848
▁toast	-9.23849
▁suicide	-9.23853
▁famous	-9.23886
▁hm	-9.23891
▁main	-9.23902
▁warm	-9.23922
▁yelling	-9.23988
▁softly	-9.24048
tic	-9.2406
▁starts	-9.24271
▁ms	-9.24288
im	-9.24298
▁gosh	-9.24454
▁decision	-9.24761
▁season	-9.24771
▁bastard	-9.24781
▁brave	-9.25188
▁opens	-9.25421
▁games	-9.26356
▁mike	-9.26484
▁german	-9.26495
▁breath	-9.26505
▁christmas	-9.26554
▁admit	-9.26593
▁speech	-9.26605
▁turning	-9.26614
▁prefer	-9.2662
▁kitchen	-9.26623
▁spider	-9.26623
▁silly	-9.26624
▁terrible	-9.26624
▁molly	-9.26625
▁nope	-9.26625
▁riff	-9.26629
▁football	-9.26629
▁danger	-9.26633
▁orders	-9.26639
▁lane	-9.26654
▁neck	-9.26655
▁brooke	-9.2667
▁doin	-9.26675
▁nose	-9.26774
▁showed	-9.26812
▁deeply	-9.2684
▁paris	-9.26932
▁fran	-9.27026
▁shots	-9.27074
▁tom	-9.27138
▁color	-9.27301
▁up	-9.27343
▁driver	-9.27491
▁o	-9.27516
id	-9.27624
▁bomb	-9.27711
▁camera	-9.27721
▁reporter	-9.27851
▁so	-9.27884
▁eating	-9.28696
ian	-9.28783
▁aw	-9.28841
▁he	-9.28963
▁per	-9.28997
▁focus	-9.29141
▁fill	-9.29206
▁howd	-9.29446
▁gettin	-9.29457
▁mail	-9.29464
▁apart	-9.29466
▁access	-9.29478
▁elizabeth	-9.2948
▁kahndaq	-9.2948
▁understood	-9.2948
▁wrote	-9.2948
▁somehow	-9.29481
▁government	-9.29483
▁babe	-9.29484
▁charles	-9.29485
▁willing	-9.29486
▁memory	-9.29487
▁sold	-9.2949
▁fever	-9.29498
▁phil	-9.29503
▁secretary	-9.29503
▁responsible	-9.29511
▁simon	-9.29516
▁stolen	-9.29544
▁amen	-9.29561
▁wh	-9.2968
▁quickly	-9.29731
▁nine	-9.29839
▁woo	-9.29872
▁bloody	-9.30155
▁wouldve	-9.30258
▁el	-9.30464
▁spell	-9.30572
▁noise	-9.30599
▁tigers	-9.30669
▁fingers	-9.30722
▁sand	-9.30747
▁problems	-9.31048
▁chris	-9.31299
▁feelings	-9.31318
▁crap	-9.31895
▁cry	-9.31959
▁destroy	-9.31971
▁punch	-9.32004
▁spy	-9.32018
▁grant	-9.32139
▁strength	-9.32279
▁address	-9.32357
▁river	-9.32417
▁circus	-9.32422
▁constable	-9.32422
▁monsieur	-9.32422
▁mycroft	-9.32422
▁salute	-9.32422
▁texas	-9.32422
▁upstairs	-9.32422
▁cassie	-9.32422
▁uhhuh	-9.32422
▁grew	-9.32423
▁empty	-9.32424
▁foul	-9.32426
▁breakfast	-9.32429
▁excellent	-9.32429
▁upset	-9.32439
▁medicine	-9.32448
▁market	-9.32475
▁grand	-9.32492
▁pants	-9.32502
▁lay	-9.3251
is	-9.32659
▁army	-9.3267
▁list	-9.32717
▁wings	-9.32913
▁han	-9.32944
▁harder	-9.33204
na	-9.33225
▁murdered	-9.3328
▁block	-9.33298
▁wine	-9.33332
▁pig	-9.33371
▁fat	-9.33508
▁loop	-9.33592
▁bullet	-9.33645
▁animal	-9.33659
▁mum	-9.33712
▁press	-9.34976
▁build	-9.35009
▁march	-9.35014
▁shock	-9.35095
▁borrow	-9.35101
▁en	-9.3517
▁harm	-9.35233
▁project	-9.35404
▁nervous	-9.35452
▁ridiculous	-9.35452
▁rumbling	-9.35452
▁funeral	-9.35452
▁maddie	-9.35452
▁pair	-9.35452
▁buried	-9.35452
▁french	-9.35453
▁muffle	-9.35453
▁junior	-9.35454
▁extreme	-9.35454
▁anita	-9.35456
▁slide	-9.3546
▁dash	-9.35468
▁aah	-9.35472
▁text	-9.35472
▁balls	-9.35472
▁royal	-9.3549
▁chino	-9.35491
▁carol	-9.35505
▁dean	-9.35516
▁hoping	-9.35583
▁add	-9.35644
▁warning	-9.35686
▁plus	-9.35701
▁sara	-9.35703
ive	-9.35709
▁liked	-9.35729
▁messages	-9.35783
▁opening	-9.35966
▁bear	-9.35973
▁higher	-9.35997
▁fu	-9.36036
▁talent	-9.36374
▁agree	-9.36424
▁shoe	-9.36458
▁operation	-9.36668
▁mommy	-9.36715
▁taste	-9.36729
▁huge	-9.36745
▁russian	-9.36791
▁meaning	-9.37153
▁pictures	-9.3727
▁rid	-9.37769
te	-9.3777
▁hook	-9.38056
▁study	-9.38108
▁jones	-9.38425
▁pr	-9.38427
▁twenty	-9.38573
▁chair	-9.38577
▁difficult	-9.38577
▁jazz	-9.38577
▁pocket	-9.38577
▁relationship	-9.38577
▁stories	-9.38577
▁written	-9.38577
▁jerem	-9.38577
▁plenty	-9.38578
▁england	-9.38578
▁bruce	-9.3858
▁brilliant	-9.38585
▁harry	-9.38585
▁square	-9.38592
▁curly	-9.38593
▁elliott	-9.38594
▁taught	-9.38594
▁justice	-9.386
▁commissioner	-9.3861
▁lies	-9.38644
one	-9.38669
▁staying	-9.38726
▁places	-9.38741
▁invited	-9.38748
he	-9.38875
▁ay	-9.38914
▁greatest	-9.38939
▁ring	-9.39024
▁clicks	-9.39071
▁helped	-9.3908
▁trap	-9.3917
▁ma	-9.39171
▁interest	-9.39189
▁frances	-9.39246
▁fe	-9.39372
▁hardly	-9.39635
▁butt	-9.39652
▁screw	-9.39704
▁account	-9.3989
▁center	-9.39906
▁drug	-9.39973
▁dragon	-9.39994
▁thousand	-9.39995
▁devil	-9.40017
▁van	-9.40018
son	-9.40026
▁chuckle	-9.40031
cy	-9.40117
▁flowers	-9.40183
▁do	-9.40195
▁walked	-9.4023
▁grace	-9.40242
▁following	-9.4045
▁paint	-9.40655
▁eli	-9.40918
▁dis	-9.41163
▁shop	-9.41251
▁mary	-9.41272
out	-9.4132
▁helping	-9.41343
▁headed	-9.41445
▁outta	-9.41459
▁san	-9.41557
▁decide	-9.41585
▁dirt	-9.41662
▁rent	-9.41675
▁salt	-9.41683
▁palm	-9.41732
▁faith	-9.4179
▁globo	-9.418
▁clyde	-9.41803
▁excited	-9.41803
▁jakob	-9.41803
▁nowhere	-9.41803
▁attempt	-9.41803
▁duncan	-9.41803
▁vehicle	-9.41803
▁fleur	-9.41804
▁shouldve	-9.41804
▁border	-9.41805
▁location	-9.41806
▁earlier	-9.41807
▁investigation	-9.41808
▁pressure	-9.41813
▁squad	-9.41828
▁national	-9.41832
▁defense	-9.41834
▁brian	-9.41839
▁jay	-9.41843
▁duty	-9.41845
▁ox	-9.41858
▁fallen	-9.41868
▁protection	-9.4189
▁ba	-9.41944
▁soo	-9.42006
▁hearts	-9.4219
et	-9.42254
▁due	-9.42463
▁acting	-9.43067
▁passed	-9.43077
ent	-9.43228
▁pirates	-9.4327
▁brush	-9.43278
▁remain	-9.43308
ist	-9.43424
ro	-9.43504
▁leg	-9.43531
ia	-9.43562
▁crash	-9.44268
▁heat	-9.44357
▁turns	-9.44837
▁settle	-9.44921
▁ships	-9.44927
tion	-9.44983
▁super	-9.4509
▁split	-9.45116
▁aware	-9.45121
▁thunder	-9.45134
▁atreides	-9.45136
▁otherwise	-9.45136
▁steady	-9.45136
▁vegas	-9.45136
▁japanese	-9.45136
▁competition	-9.45136
▁program	-9.45138
▁sake	-9.4514
▁mitchell	-9.45144
▁deck	-9.45149
▁laughter	-9.45155
▁clamoring	-9.45159
▁pretend	-9.45166
▁jill	-9.45168
▁josh	-9.45168
▁immediately	-9.45172
▁fuel	-9.45174
▁madame	-9.45192
▁buzzing	-9.45251
▁commander	-9.45261
▁failed	-9.45396
▁ford	-9.45465
▁indistinctly	-9.45489
▁meg	-9.45648
▁pro	-9.45683
▁answers	-9.45691
▁older	-9.46399
▁parts	-9.46437
▁stops	-9.46449
ta	-9.46533
▁note	-9.46545
il	-9.46631
▁character	-9.46672
▁package	-9.46684
▁instrument	-9.46711
▁pilot	-9.46749
▁teacher	-9.46927
▁loves	-9.46939
▁shower	-9.47149
ious	-9.47194
▁nba	-9.47202
sh	-9.47463
▁sim	-9.47515
▁consider	-9.47903
▁lines	-9.48134
▁leads	-9.48155
▁witness	-9.48174
▁letters	-9.48277
▁sharp	-9.48326
▁score	-9.48448
▁z	-9.48516
▁fellow	-9.48525
▁nico	-9.48564
▁somethin	-9.48576
▁flat	-9.48579
▁afford	-9.48584
▁apparently	-9.48584
▁current	-9.48584
▁energy	-9.48584
▁everywhere	-9.48584
▁johanna	-9.48584
▁kennedy	-9.48584
▁oswald	-9.48584
▁traitor	-9.48584
▁wagner	-9.48584
▁hadnt	-9.48584
▁theyd	-9.48585
▁goanna	-9.48585
▁cream	-9.48585
▁midnight	-9.48585
▁pride	-9.48587
▁firing	-9.48588
▁bravo	-9.48588
▁solo	-9.4859
▁league	-9.48593
▁planning	-9.48593
▁assistant	-9.48594
▁robin	-9.48615
▁streets	-9.48615
▁ballet	-9.48618
▁writing	-9.48626
▁cabin	-9.48627
▁gilly	-9.48651
▁n	-9.48662
▁suddenly	-9.48678
▁dicky	-9.4871
▁eh	-9.48715
▁shawn	-9.48716
▁manager	-9.48775
▁hired	-9.4879
▁screwed	-9.48948
▁whispers	-9.49067
▁surprised	-9.49096
co	-9.49411
▁growing	-9.49467
▁lied	-9.49502
▁wondering	-9.49774
▁kinda	-9.49858
▁tongue	-9.50282
and	-9.50331
▁mountain	-9.50343
▁criminal	-9.50346
▁action	-9.50388
▁finding	-9.50394
▁angel	-9.50398
▁flower	-9.50431
▁hanging	-9.50472
▁hill	-9.50566
▁animals	-9.50672
▁provide	-9.50947
▁fighter	-9.51101
▁wo	-9.51215
▁charges	-9.51463
ism	-9.51475
▁foreign	-9.51673
▁fan	-9.51903
▁jealous	-9.51957
▁shake	-9.52102
▁tall	-9.52134
▁armstrong	-9.52156
▁footsteps	-9.52156
▁opinion	-9.52156
▁ramsey	-9.52156
▁threw	-9.52156
▁beauty	-9.52156
▁opportunity	-9.52157
▁process	-9.52157
▁angry	-9.52158
▁online	-9.52158
▁teeth	-9.52159
▁mmmhmm	-9.5216
▁jeanine	-9.52161
▁evil	-9.52162
▁wolf	-9.52162
▁freedom	-9.52164
▁simply	-9.52167
▁bright	-9.5217
▁fortune	-9.52179
▁liz	-9.52181
▁convoy	-9.52194
▁rough	-9.52199
ut	-9.52315
▁timeout	-9.52536
▁metal	-9.52545
▁gotten	-9.52598
▁forced	-9.52759
▁serve	-9.52892
▁couldve	-9.53051
ant	-9.53106
▁ward	-9.53251
ma	-9.53287
▁grunt	-9.53645
▁threat	-9.53917
▁winner	-9.5398
▁doyle	-9.53984
▁page	-9.54015
▁ticket	-9.54059
▁rings	-9.5426
▁ne	-9.54353
▁sending	-9.54449
▁trees	-9.54656
▁ko	-9.54798
▁to	-9.55146
eful	-9.55402
▁lift	-9.55507
▁mention	-9.55597
▁recognize	-9.55626
▁prepare	-9.5564
▁skin	-9.55675
▁suspens	-9.55733
▁riva	-9.55813
▁closing	-9.55859
▁gertrude	-9.55859
▁desk	-9.55861
▁cuba	-9.55861
▁mask	-9.55863
▁whoever	-9.55863
▁alice	-9.55864
▁emergency	-9.55867
▁daisy	-9.55869
▁property	-9.5587
▁scare	-9.55871
▁popular	-9.55872
▁non	-9.55874
▁crackling	-9.55878
▁planned	-9.55879
▁assume	-9.55884
▁roaring	-9.55886
▁size	-9.55889
▁grandma	-9.55893
▁lonely	-9.55902
▁bleeding	-9.55919
▁spare	-9.55928
▁lester	-9.55944
▁chirping	-9.55952
▁navy	-9.56016
▁kyle	-9.56087
▁letty	-9.56293
▁beg	-9.56347
▁degrees	-9.56377
▁nuts	-9.56444
▁burned	-9.56501
▁conn	-9.56555
▁iron	-9.57312
▁fa	-9.57633
▁apartment	-9.57805
▁chain	-9.57864
▁ed	-9.57896
▁explosive	-9.57898
▁level	-9.57918
▁devils	-9.5797
▁drugs	-9.57971
▁moves	-9.58077
▁ls	-9.58285
os	-9.5829
▁ended	-9.58303
ted	-9.58333
▁papers	-9.58669
▁suggest	-9.58788
ass	-9.59093
▁brown	-9.59144
▁wood	-9.59301
▁fake	-9.59461
▁earl	-9.59595
▁handsome	-9.59616
▁africa	-9.59655
▁arrakis	-9.59706
▁burchard	-9.59706
▁emperor	-9.59706
▁innocent	-9.59706
▁loretta	-9.59706
▁mtumbie	-9.59706
▁pregnant	-9.59706
▁research	-9.59706
▁thomas	-9.59706
▁literally	-9.59706
▁insist	-9.59706
▁often	-9.59706
▁common	-9.59708
▁adam	-9.59708
▁xu	-9.59711
▁noah	-9.59712
▁enter	-9.59716
▁bow	-9.59718
▁anton	-9.5972
▁data	-9.59723
▁rex	-9.59727
▁mack	-9.59728
▁cards	-9.59731
▁director	-9.59742
▁barely	-9.59748
▁saving	-9.59761
▁riddler	-9.59778
▁professional	-9.59807
▁whispering	-9.59839
▁sighing	-9.5984
▁nature	-9.59865
▁created	-9.59918
▁jackie	-9.60025
▁chargers	-9.60059
ha	-9.60097
▁escaped	-9.60141
▁destroyed	-9.60149
▁noticed	-9.60176
▁fate	-9.60229
▁cares	-9.60247
▁perfectly	-9.60316
▁dry	-9.6038
▁yells	-9.60537
▁pa	-9.6066
ley	-9.60782
▁bull	-9.61352
▁challenge	-9.61388
▁yards	-9.61397
▁lots	-9.61519
li	-9.61731
▁quarter	-9.61785
▁direction	-9.61829
▁option	-9.61891
▁pirate	-9.6191
▁rose	-9.61938
▁skull	-9.62027
▁pigs	-9.62056
▁pre	-9.62057
men	-9.62109
▁pen	-9.62183
▁circle	-9.62207
▁no	-9.62381
▁fathers	-9.62506
▁hunt	-9.62556
do	-9.62661
▁lo	-9.62683
off	-9.63098
▁souls	-9.63205
▁checking	-9.63381
▁load	-9.6342
▁create	-9.63489
▁introduce	-9.63494
▁dick	-9.63593
▁medic	-9.63616
▁cast	-9.63624
▁spoke	-9.63656
▁village	-9.63685
▁jung	-9.637
▁audience	-9.63706
▁dragonfly	-9.63706
▁enemy	-9.63706
▁fountain	-9.63706
▁holmes	-9.63706
▁sanitation	-9.63706
▁science	-9.63706
▁taehun	-9.63706
▁vacation	-9.63706
▁ventura	-9.63706
▁biggest	-9.63706
▁library	-9.63706
▁hidden	-9.63706
▁necklace	-9.63707
▁elwood	-9.63709
▁happiness	-9.6371
▁society	-9.63715
▁thatll	-9.63719
▁cow	-9.63722
▁hallet	-9.63725
ol	-9.63729
▁ellen	-9.63733
▁arrived	-9.63801
ah	-9.63823
▁automat	-9.63914
▁coat	-9.63917
▁squealing	-9.63934
▁sexy	-9.63935
▁passes	-9.63986
▁stronger	-9.64078
▁spit	-9.64191
▁sharks	-9.64192
▁stars	-9.64203
▁cab	-9.64403
▁clearly	-9.6454
▁traveling	-9.64632
▁oil	-9.64862
▁fresh	-9.64942
▁request	-9.65143
▁scream	-9.65272
ter	-9.65285
▁secrets	-9.65323
united	-9.65416
▁falling	-9.65651
▁exist	-9.65654
▁tickets	-9.65692
▁signal	-9.65767
▁passing	-9.65823
ell	-9.65993
▁affair	-9.66018
▁wheel	-9.66078
▁finger	-9.66079
▁yard	-9.66136
ra	-9.66392
ish	-9.66615
▁points	-9.6686
▁tip	-9.67165
▁paying	-9.67216
▁clears	-9.67224
x	-9.67367
▁avoid	-9.67397
▁trigger	-9.6748
▁bond	-9.6749
▁trade	-9.67599
▁records	-9.67606
▁release	-9.6765
▁invite	-9.67654
▁blame	-9.6769
▁voices	-9.67767
▁cheap	-9.6777
▁coast	-9.67774
▁nothin	-9.67842
▁gentle	-9.67846
▁view	-9.67861
▁particular	-9.67872
▁apologize	-9.67872
▁choir	-9.67872
▁complicated	-9.67872
▁equipment	-9.67872
▁lucas	-9.67872
▁mexico	-9.67872
▁penguin	-9.67872
▁tamra	-9.67872
▁indeed	-9.67872
▁swimming	-9.67873
▁troy	-9.67873
▁confused	-9.67873
▁period	-9.67873
▁route	-9.67874
▁susu	-9.67874
▁theater	-9.67876
▁xian	-9.67876
▁duke	-9.67877
▁onto	-9.67877
▁ratchett	-9.67883
▁cmon	-9.67883
▁grandfather	-9.67883
▁dropped	-9.67884
▁woolf	-9.67884
▁airport	-9.67884
▁lake	-9.67895
▁revving	-9.679
▁committed	-9.67904
▁credit	-9.67918
▁drill	-9.67934
▁capable	-9.67937
▁china	-9.67964
▁scary	-9.67979
▁approaching	-9.68073
▁changes	-9.68083
▁prepared	-9.68131
▁mob	-9.6816
▁nearly	-9.68227
▁para	-9.68239
▁raised	-9.68271
j	-9.68309
▁file	-9.68317
▁stock	-9.68428
ez	-9.6861
▁dressed	-9.68689
▁leaves	-9.68724
▁horses	-9.69026
▁numbers	-9.69471
▁sweets	-9.69489
▁tears	-9.69502
▁ordered	-9.69508
the	-9.69508
▁learning	-9.69516
mo	-9.69567
ke	-9.69662
▁u	-9.69677
▁quarters	-9.6979
▁pieces	-9.69942
▁fail	-9.70022
▁bother	-9.70301
fully	-9.70372
▁winning	-9.70398
▁lawyer	-9.70398
▁whistle	-9.70413
▁sword	-9.70424
▁tiger	-9.70426
▁demon	-9.70601
▁nights	-9.70706
▁checked	-9.70873
▁guards	-9.70878
▁loser	-9.70897
▁mis	-9.71132
▁services	-9.71205
▁ann	-9.71467
▁defend	-9.71654
▁mothers	-9.71715
▁discuss	-9.71812
▁weak	-9.71861
cient	-9.71975
▁spirits	-9.71996
▁drinks	-9.72017
▁chase	-9.7202
▁clan	-9.7206
▁experiment	-9.72146
▁russia	-9.72174
▁effect	-9.72211
▁attract	-9.72211
▁alabama	-9.7222
▁california	-9.7222
▁clifton	-9.7222
▁exciting	-9.7222
▁malcolm	-9.7222
▁possibly	-9.7222
▁ugly	-9.7222
▁finn	-9.7222
▁gross	-9.7222
▁style	-9.7222
▁roof	-9.7222
▁entrance	-9.7222
▁fantastic	-9.7222
▁warren	-9.7222
▁diane	-9.72221
▁advice	-9.72221
▁grandmother	-9.72221
▁kidnapped	-9.72221
▁clara	-9.72221
▁laurie	-9.72221
▁downtown	-9.72221
▁someday	-9.72221
▁fremen	-9.72221
▁title	-9.72223
▁tej	-9.72223
▁combat	-9.72224
▁tense	-9.72225
▁aboard	-9.72226
▁sunday	-9.72228
▁juan	-9.72229
▁necessary	-9.72231
▁saiwing	-9.72231
▁temple	-9.72235
▁kathy	-9.72236
▁boom	-9.72244
▁according	-9.72251
▁hugh	-9.72251
▁peterson	-9.72254
▁itd	-9.723
▁milk	-9.72304
▁cup	-9.72306
▁coughing	-9.72311
▁wise	-9.72316
▁healthy	-9.7234
▁mia	-9.72382
▁mikey	-9.7245
▁hood	-9.7249
▁ahh	-9.72508
▁agreed	-9.72533
▁original	-9.72593
▁earn	-9.72613
▁towards	-9.72915
▁speakers	-9.73055
▁rate	-9.73064
▁spice	-9.73135
▁grade	-9.73267
▁counting	-9.73489
▁pulled	-9.73665
▁sal	-9.73699
▁students	-9.73895
king	-9.73946
▁moments	-9.74028
▁files	-9.74131
▁followed	-9.74208
▁ear	-9.74389
line	-9.74467
▁ruin	-9.74535
▁condition	-9.74865
▁blocks	-9.74884
▁asset	-9.74899
▁mi	-9.74936
▁hearing	-9.74939
▁monster	-9.7494
▁guest	-9.74962
▁mile	-9.75059
▁bone	-9.75103
▁murderer	-9.75223
▁wa	-9.75458
ax	-9.7551
▁surely	-9.75556
▁belongs	-9.757
▁net	-9.75748
▁wave	-9.75769
at	-9.75789
▁har	-9.76438
▁remove	-9.76556
▁correct	-9.76566
▁sudden	-9.76641
▁hung	-9.76655
▁proper	-9.76656
▁bottom	-9.76766
▁cheese	-9.76766
▁easier	-9.76766
▁nuclear	-9.76766
▁oclock	-9.76766
▁stacy	-9.76766
▁chinese	-9.76766
▁friday	-9.76766
▁mostly	-9.76766
▁channel	-9.76766
▁patrick	-9.76766
▁incredible	-9.76767
▁insurance	-9.76768
▁whenever	-9.76769
▁among	-9.7677
▁amount	-9.76771
▁darrin	-9.76775
▁asleep	-9.76777
▁marriage	-9.76777
▁liar	-9.76779
▁fancy	-9.76779
▁suzy	-9.76783
▁held	-9.76796
▁military	-9.76796
▁announcer	-9.76803
▁winter	-9.76809
▁guilty	-9.76812
▁embarrassing	-9.76818
▁spoken	-9.76822
▁grid	-9.76826
▁glen	-9.76847
▁leo	-9.7687
▁apple	-9.76892
▁sharply	-9.76932
▁rare	-9.76942
▁weight	-9.76993
▁entirely	-9.77107
▁celebrate	-9.77325
▁mustve	-9.77332
▁sat	-9.77334
▁skills	-9.77399
▁rd	-9.77402
▁stealing	-9.77593
▁kicked	-9.77639
ether	-9.77645
▁knocking	-9.77734
▁dee	-9.77807
▁powers	-9.77908
▁awful	-9.77999
▁hurts	-9.78013
▁returned	-9.78074
▁learned	-9.7812
▁bust	-9.78125
ever	-9.78376
▁schedule	-9.78407
end	-9.7856
▁bones	-9.78631
▁be	-9.78655
▁whistles	-9.78692
▁showing	-9.78773
▁pulling	-9.78782
way	-9.7891
▁fans	-9.7908
▁screen	-9.79104
▁leto	-9.79242
land	-9.79406
▁holiday	-9.79595
▁ocean	-9.79595
▁subject	-9.79595
▁owner	-9.79596
▁bottle	-9.7966
▁victim	-9.79701
▁student	-9.79722
▁sport	-9.79729
▁castle	-9.7982
▁po	-9.79907
▁seal	-9.80083
▁whereve	-9.80278
▁tear	-9.80363
▁soldiers	-9.80418
▁rip	-9.8052
▁siren	-9.80573
▁climb	-9.80696
▁bless	-9.80788
▁spread	-9.81065
▁everyones	-9.8107
▁replace	-9.81286
▁divorce	-9.813
▁direct	-9.8134
▁traffic	-9.8152
▁although	-9.81528
▁byebye	-9.81528
▁gunfire	-9.81528
▁jessica	-9.81528
▁kimsey	-9.81528
▁lestrade	-9.81528
▁percent	-9.81528
▁sacred	-9.81528
▁taylor	-9.81528
▁violence	-9.81528
▁barron	-9.81528
▁university	-9.81528
▁gillian	-9.81528
▁revs	-9.81529
▁material	-9.81529
▁ugh	-9.81529
▁jeff	-9.8153
▁launch	-9.81531
▁resistance	-9.81532
▁impressive	-9.81533
▁source	-9.81533
▁native	-9.81536
▁basically	-9.81536
▁mellie	-9.81537
▁aside	-9.81539
▁echelon	-9.81539
▁harrison	-9.81541
▁bedroom	-9.81541
▁motion	-9.81543
▁zone	-9.81545
▁romantic	-9.81549
▁loan	-9.81552
▁erin	-9.81568
▁blast	-9.8158
▁smith	-9.81584
▁gate	-9.81603
▁ought	-9.81647
▁steph	-9.81669
ore	-9.81723
▁hire	-9.81773
▁union	-9.8181
▁mu	-9.81836
▁jin	-9.81853
▁mentioned	-9.81966
▁fellas	-9.81968
▁suits	-9.8197
▁based	-9.81996
▁everythings	-9.82101
led	-9.82196
▁tube	-9.82211
▁sub	-9.82218
▁pure	-9.82241
▁younger	-9.82332
▁sooner	-9.8235
▁lately	-9.82453
▁joined	-9.82686
▁dads	-9.82802
▁seemed	-9.8305
by	-9.83068
▁signed	-9.83089
▁chi	-9.83101
▁gray	-9.83254
▁someones	-9.8334
▁ears	-9.83527
▁tape	-9.8356
▁woods	-9.8381
de	-9.84077
▁nah	-9.84131
▁jam	-9.84182
▁statement	-9.84614
▁uniform	-9.84691
ff	-9.84933
▁me	-9.85007
▁writer	-9.85082
▁all	-9.85209
▁success	-9.85591
▁keeps	-9.85977
▁steps	-9.85983
▁cook	-9.86025
▁cruise	-9.86112
▁poison	-9.86165
▁sucks	-9.86325
▁ignore	-9.86375
▁dust	-9.86386
▁peregrine	-9.86387
▁usual	-9.86404
▁rob	-9.86437
▁cared	-9.86459
▁chose	-9.86478
▁europe	-9.86508
▁susan	-9.86516
▁silver	-9.86521
▁maid	-9.86523
▁spring	-9.86525
▁curtis	-9.86528
▁eudoria	-9.86528
▁frankenstein	-9.86528
▁revenge	-9.86528
▁smooth	-9.86528
▁stewart	-9.86528
▁whistling	-9.86528
▁silence	-9.86528
▁whyd	-9.86528
▁smoking	-9.86528
▁amon	-9.86529
▁draft	-9.86529
▁zero	-9.86529
▁foster	-9.8653
▁clever	-9.8653
▁trash	-9.86531
▁horrible	-9.86531
▁custody	-9.86532
▁peak	-9.86533
▁giant	-9.86533
▁meat	-9.86534
▁grave	-9.86534
▁whatre	-9.86536
▁forgotten	-9.86539
▁goose	-9.8654
▁physical	-9.8654
▁progress	-9.8654
▁routine	-9.8654
▁disgusting	-9.8654
▁tommy	-9.86541
▁kevin	-9.86547
▁mercy	-9.86548
▁labor	-9.86554
▁familiar	-9.8656
▁dies	-9.86561
▁birth	-9.86561
▁yup	-9.86567
▁sarah	-9.86576
▁feder	-9.86577
▁mental	-9.86581
▁jacket	-9.86605
▁marian	-9.8661
▁bride	-9.86625
▁managed	-9.86637
▁gay	-9.86664
▁received	-9.86675
▁cutting	-9.86686
▁barking	-9.86721
▁lab	-9.86758
▁mid	-9.86777
▁germany	-9.86794
▁lifetime	-9.86841
▁stairs	-9.86859
▁pe	-9.86867
▁bella	-9.86884
▁county	-9.87005
▁heh	-9.87111
▁carefully	-9.8728
▁hips	-9.87326
▁offered	-9.87387
▁memo	-9.87452
▁teams	-9.87474
▁las	-9.87566
▁eggs	-9.87614
ri	-9.87642
▁describe	-9.87907
▁brings	-9.87936
▁dodge	-9.87962
▁ti	-9.88013
▁expecting	-9.88097
▁humans	-9.88204
▁collect	-9.88344
▁seek	-9.8845
▁pee	-9.88564
▁sirens	-9.88626
op	-9.88634
▁pope	-9.88708
em	-9.88842
▁bo	-9.88968
▁con	-9.88971
▁engines	-9.89011
▁trusted	-9.89091
ize	-9.89096
▁su	-9.89178
▁stayed	-9.89385
▁claim	-9.89545
ki	-9.89619
▁beep	-9.89646
▁goal	-9.89684
▁official	-9.89803
▁strike	-9.8981
▁tunnel	-9.89821
all	-9.89848
▁pattern	-9.89864
▁led	-9.89871
▁motive	-9.89884
▁tie	-9.89919
▁rope	-9.89968
▁mans	-9.89985
▁joker	-9.901
▁that	-9.90161
▁stands	-9.90195
ten	-9.90278
▁virgin	-9.90325
▁dig	-9.90392
▁thin	-9.90563
ial	-9.90605
▁flip	-9.90687
▁wash	-9.91124
▁spin	-9.91146
▁opened	-9.91174
lo	-9.91175
▁sail	-9.91235
over	-9.9124
▁demand	-9.91295
▁aim	-9.91297
▁piss	-9.91477
▁crush	-9.91492
▁sweat	-9.91543
back	-9.91587
▁health	-9.91649
▁clock	-9.9165
▁natural	-9.91662
▁jerk	-9.91667
▁perform	-9.91761
▁permit	-9.91783
▁abnegation	-9.91791
▁applause	-9.91791
▁curious	-9.91791
▁darius	-9.91791
▁dauntless	-9.91791
▁dennis	-9.91791
▁downstairs	-9.91791
▁expert	-9.91791
▁grabelski	-9.91791
▁intelligence	-9.91791
▁janusz	-9.91791
▁miracle	-9.91791
▁mirror	-9.91791
▁nonsense	-9.91791
▁orange	-9.91791
▁quinn	-9.91791
▁saturday	-9.91791
▁several	-9.91791
▁surrender	-9.91791
▁thirty	-9.91791
▁subtitle	-9.91791
▁distort	-9.91791
▁locksley	-9.91791
▁ilse	-9.91791
▁suspicious	-9.91792
▁central	-9.91793
▁couch	-9.91793
▁gorgeous	-9.91794
▁mourn	-9.91794
▁nsa	-9.91795
▁chaos	-9.91796
▁fox	-9.91799
▁responsibility	-9.91803
▁exchange	-9.91804
▁passport	-9.91804
▁jungle	-9.91819
▁princess	-9.91822
▁unfortunately	-9.91835
▁forest	-9.91841
▁accountant	-9.91845
▁dating	-9.91857
▁fr	-9.9186
▁shape	-9.91903
▁anger	-9.91927
▁grown	-9.91943
▁angela	-9.91951
what	-9.9199
▁actor	-9.92037
▁swing	-9.92047
▁delivered	-9.92076
▁earned	-9.92203
▁terms	-9.92237
▁quietly	-9.92367
ee	-9.92378
▁jim	-9.92436
▁slowly	-9.92465
▁rey	-9.92482
▁event	-9.92484
▁com	-9.92944
▁fixed	-9.92964
▁expected	-9.93037
▁goodness	-9.93048
▁fades	-9.93129
▁bath	-9.93218
▁ghosts	-9.93268
▁attacked	-9.93317
oo	-9.93375
▁sports	-9.93388
▁messing	-9.934
▁blowing	-9.93508
▁chest	-9.9352
▁throwing	-9.94486
▁hug	-9.94583
mmy	-9.94735
▁thousands	-9.94844
ow	-9.95079
▁print	-9.95342
▁droid	-9.95361
▁negro	-9.95361
▁champ	-9.95391
▁familys	-9.95403
▁satellite	-9.95408
▁explosion	-9.95408
▁rise	-9.95425
▁gunshot	-9.95467
▁william	-9.95524
▁issue	-9.95581
▁artist	-9.95626
▁sale	-9.95685
▁trainer	-9.96013
▁pi	-9.96017
▁how	-9.96151
cha	-9.9641
ey	-9.9671
you	-9.96783
▁screech	-9.96903
▁confirm	-9.96987
▁interrupt	-9.97102
▁refuse	-9.97119
▁object	-9.97147
▁weather	-9.97185
▁mood	-9.97206
▁blaze	-9.97237
ium	-9.97247
▁steve	-9.97294
▁cortez	-9.97346
▁eventually	-9.97346
▁gurney	-9.97346
▁lorelei	-9.97346
▁madagin	-9.97346
▁moose	-9.97346
▁moscow	-9.97346
▁oath	-9.97346
▁pardon	-9.97346
▁positive	-9.97346
▁rattling	-9.97346
▁staff	-9.97346
▁wachootoo	-9.97346
▁journey	-9.97346
▁saint	-9.97346
▁century	-9.97346
▁alfred	-9.97346
▁puerto	-9.97346
▁authorities	-9.97347
▁israel	-9.97347
▁interview	-9.97347
▁bogey	-9.97348
▁italian	-9.97349
▁hyah	-9.97349
▁honeymoon	-9.97349
▁community	-9.97349
▁jason	-9.9735
▁universe	-9.9735
▁kingdom	-9.97353
▁boring	-9.97353
▁status	-9.97353
▁gummer	-9.9736
▁pink	-9.97364
▁boo	-9.97369
▁comfortable	-9.97369
▁elton	-9.97371
▁snow	-9.97372
▁kent	-9.97375
▁gentleman	-9.97377
▁freeze	-9.97377
▁carrier	-9.97378
▁shining	-9.97383
▁shift	-9.97385
▁tomb	-9.97391
▁sadie	-9.97398
▁warden	-9.97408
▁humming	-9.97411
▁vice	-9.97427
▁blond	-9.97441
▁murmuring	-9.97463
▁exit	-9.97479
▁edge	-9.97484
▁changing	-9.97489
▁knicks	-9.97507
▁jane	-9.97545
▁gl	-9.97592
▁ke	-9.97601
▁model	-9.97614
▁sink	-9.97619
▁ga	-9.97811
▁buster	-9.97832
▁realized	-9.97991
▁arrested	-9.98095
▁crashing	-9.98112
▁slams	-9.98139
▁chop	-9.98251
▁sh	-9.98453
▁tail	-9.98541
▁armed	-9.9862
▁carrying	-9.98654
▁blows	-9.98797
▁y	-9.9882
▁pushing	-9.9894
▁ru	-9.98953
▁ohh	-9.99168
▁forces	-9.99328
▁ni	-9.99618
▁du	-9.99695
▁badly	-9.99837
▁drops	-10.0025
▁the	-10.0036
▁nos	-10.0058
ier	-10.0071
▁tank	-10.0087
go	-10.0093
ford	-10.0096
▁cameras	-10.0101
▁damage	-10.0102
▁bump	-10.0103
▁minds	-10.0103
▁troop	-10.0117
▁vision	-10.0123
▁effort	-10.0124
▁statue	-10.0124
▁sugar	-10.0124
▁drinking	-10.0128
ver	-10.0129
▁toretto	-10.0129
▁chick	-10.0134
▁shield	-10.0139
▁shoulder	-10.014
▁sons	-10.0144
▁missile	-10.0148
▁stranger	-10.0166
▁suspects	-10.0166
▁ab	-10.0198
ny	-10.0208
▁kills	-10.021
▁lu	-10.0236
▁believed	-10.0238
▁temp	-10.0241
▁falls	-10.0245
▁officers	-10.0263
om	-10.0266
▁warn	-10.0272
▁steer	-10.0275
▁sp	-10.0276
▁scar	-10.0276
▁falcon	-10.0282
▁bikes	-10.0283
▁kyl	-10.0285
▁fort	-10.0286
▁locate	-10.0293
▁cheat	-10.0298
▁engage	-10.0303
▁assure	-10.0306
▁finals	-10.0306
▁exact	-10.0311
▁mmhm	-10.0321
▁orphan	-10.0322
▁accent	-10.0323
▁assault	-10.0323
▁enemies	-10.0323
▁helicopter	-10.0323
▁jesse	-10.0323
▁kopernick	-10.0323
▁lifeboat	-10.0323
▁maintain	-10.0323
▁mousetrap	-10.0323
▁peculiar	-10.0323
▁piano	-10.0323
▁sheep	-10.0323
▁sparrow	-10.0323
▁stilgar	-10.0323
▁terrific	-10.0323
▁bobbie	-10.0323
▁colonel	-10.0323
▁candor	-10.0323
▁liberty	-10.0323
▁dope	-10.0323
▁ordinary	-10.0323
▁beam	-10.0323
▁sandwich	-10.0323
▁racing	-10.0323
▁shopping	-10.0323
▁trapped	-10.0324
▁garage	-10.0324
▁raid	-10.0324
▁fought	-10.0324
▁vince	-10.0324
▁woke	-10.0324
▁prize	-10.0324
▁dishes	-10.0324
▁international	-10.0324
▁sniffles	-10.0324
▁patty	-10.0325
▁panic	-10.0326
▁tiny	-10.0327
▁creaking	-10.0327
▁halfway	-10.0328
▁honking	-10.0328
▁romance	-10.0328
▁bug	-10.0328
▁corey	-10.033
▁eleven	-10.0332
▁disappointed	-10.0334
▁legal	-10.0335
▁discovered	-10.0336
▁kiddo	-10.0338
▁manning	-10.0338
▁political	-10.034
▁meal	-10.0341
▁useless	-10.0342
▁latest	-10.0344
espite	-10.0346
▁hitting	-10.0346
▁boxes	-10.0349
▁concerned	-10.0355
▁bb	-10.0361
▁pet	-10.0378
▁passengers	-10.0385
▁owns	-10.0391
▁inch	-10.0395
▁sacrifice	-10.0402
▁bucks	-10.0407
▁safer	-10.0408
▁loss	-10.0425
▁tracking	-10.043
▁sa	-10.0431
▁mistakes	-10.0434
ur	-10.044
head	-10.044
▁fi	-10.044
▁noon	-10.0442
ts	-10.0455
▁highly	-10.0462
▁moms	-10.0476
mp	-10.0482
▁kissed	-10.049
▁staring	-10.0495
▁missiles	-10.051
▁boxer	-10.0511
ite	-10.0523
▁scratch	-10.0531
▁shows	-10.0545
▁guests	-10.0565
▁movies	-10.0588
right	-10.0588
▁beating	-10.059
▁pin	-10.0596
ii	-10.0596
▁hits	-10.0614
▁leading	-10.0616
▁criminals	-10.0632
▁mountains	-10.0633
▁prior	-10.0641
▁hated	-10.0641
▁min	-10.0669
▁shout	-10.0687
tor	-10.0687
▁spark	-10.0696
ul	-10.0698
▁picking	-10.0705
▁sisters	-10.0708
▁concern	-10.0719
▁design	-10.0722
▁wound	-10.0728
▁judgment	-10.0736
▁communist	-10.0749
▁terrorist	-10.0754
▁estate	-10.0754
▁alien	-10.0758
▁plant	-10.076
▁tracks	-10.076
▁si	-10.0783
di	-10.0788
▁inform	-10.0799
▁members	-10.0803
▁worlds	-10.0831
cu	-10.0835
▁por	-10.0841
▁deliver	-10.0851
▁who	-10.0865
ade	-10.0866
of	-10.0878
▁tub	-10.0884
ated	-10.0887
zed	-10.0891
▁proceed	-10.0896
▁sis	-10.0907
▁wreck	-10.0909
▁attend	-10.0909
▁disappear	-10.0912
▁abandon	-10.0913
▁spoil	-10.0913
▁gather	-10.0913
▁thinkin	-10.0918
▁can	-10.0923
ical	-10.0925
▁separate	-10.0925
▁desperate	-10.0935
▁slip	-10.0947
▁drama	-10.0947
ga	-10.0947
▁deposit	-10.0948
▁academy	-10.0948
▁attorney	-10.0948
▁centuries	-10.0948
▁champagne	-10.0948
▁disease	-10.0948
▁easily	-10.0948
▁families	-10.0948
▁gregory	-10.0948
▁holtzmann	-10.0948
▁intergang	-10.0948
▁keltus	-10.0948
▁leather	-10.0948
▁mcqueen	-10.0948
▁messenger	-10.0948
▁nottingham	-10.0948
▁robbery	-10.0948
▁technology	-10.0948
▁vault	-10.0948
▁argument	-10.0948
▁campaign	-10.0948
▁license	-10.0948
▁lukas	-10.0948
▁purple	-10.0948
▁advantage	-10.0948
▁arriving	-10.0948
▁concert	-10.0948
▁regular	-10.0948
▁flesh	-10.0948
▁annika	-10.0948
▁alert	-10.0948
▁flew	-10.0948
▁davis	-10.0948
▁cotton	-10.0948
▁theory	-10.0948
▁overnight	-10.0948
▁selina	-10.0948
▁griffin	-10.0948
▁ridge	-10.0948
▁skinny	-10.0949
▁olive	-10.0949
▁adog	-10.0949
▁prom	-10.0949
▁unbelievable	-10.0949
▁available	-10.095
▁chimes	-10.095
▁papa	-10.095
▁gina	-10.0951
▁trial	-10.0951
▁louise	-10.0951
▁coward	-10.0951
▁glory	-10.0952
▁under	-10.0952
▁grateful	-10.0952
▁technically	-10.0953
▁toss	-10.0954
▁lower	-10.0954
▁johnson	-10.0954
▁laid	-10.0955
▁aria	-10.0956
▁african	-10.0956
▁mansion	-10.0959
▁kate	-10.096
▁stopping	-10.0961
▁cruel	-10.0962
▁endless	-10.0966
▁ad	-10.0968
▁chill	-10.0969
▁active	-10.0973
erie	-10.0981
▁bitches	-10.0983
▁walter	-10.0984
▁fred	-10.0984
▁decent	-10.0986
▁depends	-10.099
▁joint	-10.1005
▁personally	-10.1008
▁lin	-10.1008
▁knees	-10.1014
▁reasons	-10.1018
▁deer	-10.1025
▁lance	-10.1033
▁meters	-10.1038
▁armor	-10.1046
▁va	-10.1051
▁freaking	-10.1057
▁ate	-10.1058
▁dive	-10.1066
▁singer	-10.1073
▁ned	-10.1077
ck	-10.1081
▁pounds	-10.1086
▁burning	-10.1096
▁selling	-10.1099
▁bags	-10.1101
▁er	-10.1108
▁parking	-10.1114
▁photos	-10.1122
▁lack	-10.1133
▁troops	-10.1146
▁musical	-10.1149
▁joining	-10.1153
▁williams	-10.1158
▁champs	-10.1171
▁trained	-10.1188
ast	-10.1192
▁ch	-10.1195
▁touching	-10.121
▁demons	-10.1218
▁hates	-10.1232
▁roses	-10.1242
▁options	-10.1242
▁edit	-10.125
▁useful	-10.1274
▁yu	-10.1291
ble	-10.1292
▁tone	-10.1315
▁caused	-10.1334
lf	-10.1335
▁bullets	-10.1339
▁tap	-10.1366
▁reveal	-10.1378
mir	-10.1386
▁stan	-10.1396
ill	-10.1397
▁detail	-10.1398
▁arab	-10.1406
▁maroni	-10.1415
▁ideas	-10.1418
▁basic	-10.1419
▁guide	-10.1421
▁begins	-10.1425
▁lookin	-10.1431
▁rumble	-10.1432
▁client	-10.1432
▁trace	-10.1433
▁photo	-10.1434
▁vi	-10.1434
▁debt	-10.1436
▁sometime	-10.1437
▁rocket	-10.1442
▁thud	-10.1443
ig	-10.1444
ily	-10.1445
▁lap	-10.1449
ster	-10.146
▁runs	-10.1478
▁dealing	-10.1497
▁chin	-10.1498
▁tent	-10.1503
▁thoughts	-10.1508
▁desire	-10.152
▁painting	-10.153
▁pray	-10.1531
▁drawing	-10.1542
▁heal	-10.1546
light	-10.1551
▁complain	-10.1558
beat	-10.1566
▁weigh	-10.157
skull	-10.1572
▁intercept	-10.1575
ring	-10.1576
▁passion	-10.1578
▁mix	-10.1578
▁mon	-10.1594
▁obvious	-10.1602
▁large	-10.1603
▁cia	-10.1609
▁doug	-10.1612
▁wrap	-10.1614
▁algaib	-10.1615
▁arashikage	-10.1615
▁attitude	-10.1615
▁courage	-10.1615
▁egypt	-10.1615
▁enoch	-10.1615
▁felix	-10.1615
▁guitar	-10.1615
▁hercule	-10.1615
▁kynes	-10.1615
▁lincoln	-10.1615
▁modern	-10.1615
▁mulgr	-10.1615
▁pathetic	-10.1615
▁shelter	-10.1615
▁stomach	-10.1615
▁sunshine	-10.1615
▁tammie	-10.1615
▁visual	-10.1615
▁phase	-10.1615
▁republic	-10.1615
▁cancel	-10.1615
▁bread	-10.1615
▁telephone	-10.1615
▁cipher	-10.1615
▁crisis	-10.1615
▁vlad	-10.1615
▁powder	-10.1615
▁generous	-10.1615
▁operator	-10.1615
▁washington	-10.1615
▁practical	-10.1615
▁kenzie	-10.1615
▁stunt	-10.1615
▁vital	-10.1615
▁wasting	-10.1615
▁negative	-10.1615
▁entertainment	-10.1615
▁appointment	-10.1615
▁bonnie	-10.1615
▁krest	-10.1615
▁lockdown	-10.1615
▁bret	-10.1615
▁task	-10.1615
▁senor	-10.1615
▁heck	-10.1615
▁rush	-10.1615
▁baseball	-10.1616
▁bodies	-10.1616
▁balance	-10.1616
▁western	-10.1616
▁policy	-10.1616
▁valuable	-10.1616
▁static	-10.1616
▁cowboy	-10.1616
▁logan	-10.1617
▁stalker	-10.1618
▁nephew	-10.1619
▁bowers	-10.1619
▁syd	-10.162
▁assist	-10.1621
▁chosen	-10.1621
▁booty	-10.1622
▁comin	-10.1622
▁pipe	-10.1623
▁gig	-10.1625
▁emma	-10.1625
▁poe	-10.1628
▁officially	-10.1631
▁fourth	-10.1632
▁directly	-10.1632
▁roars	-10.1634
▁bound	-10.1634
▁kenta	-10.1637
thorn	-10.1638
▁challenger	-10.1639
▁maria	-10.1641
▁impressed	-10.1644
▁stones	-10.1644
▁trotters	-10.1647
▁some	-10.165
▁knots	-10.1659
▁stations	-10.1671
▁bay	-10.1677
▁pot	-10.1697
▁lips	-10.1698
▁hunting	-10.1699
▁focused	-10.1701
▁eject	-10.1703
▁ye	-10.1708
am	-10.1709
▁bored	-10.1713
▁riding	-10.1714
▁jew	-10.1716
▁billy	-10.1728
▁ca	-10.1731
▁crossed	-10.1737
tt	-10.1738
▁image	-10.1766
▁parker	-10.1767
▁wet	-10.177
▁targets	-10.1771
▁beasts	-10.1775
▁recording	-10.1779
▁teth	-10.1784
▁appears	-10.1788
▁backup	-10.1799
▁clients	-10.1801
▁details	-10.1801
▁spending	-10.1809
▁boxing	-10.1838
▁issues	-10.1839
▁marks	-10.1843
▁ropes	-10.1852
ations	-10.1863
▁ren	-10.19
▁classic	-10.1902
▁lawyers	-10.1904
▁wins	-10.1923
▁wheels	-10.1928
▁deb	-10.194
▁host	-10.1949
▁pan	-10.1949
▁hells	-10.1954
si	-10.1955
▁nu	-10.1961
▁likely	-10.1967
▁psycho	-10.1974
▁choices	-10.1979
▁capital	-10.1979
oh	-10.1996
▁becomes	-10.2021
lin	-10.2049
▁kings	-10.2052
nce	-10.2056
▁mines	-10.2069
ler	-10.2072
▁drives	-10.2079
▁log	-10.208
aw	-10.2083
mber	-10.2085
ship	-10.2085
▁gu	-10.2088
▁kit	-10.2089
▁scouts	-10.2098
▁champions	-10.2112
▁wire	-10.2117
▁connection	-10.2136
▁legend	-10.2138
▁hostage	-10.2139
▁plastic	-10.214
▁faction	-10.2144
▁appear	-10.2145
▁mud	-10.2146
▁folk	-10.2155
▁prisoner	-10.2181
▁limit	-10.2184
per	-10.2185
side	-10.2195
▁fade	-10.2198
ps	-10.2211
ise	-10.2216
▁computers	-10.223
▁sneak	-10.2234
▁electric	-10.2252
my	-10.2253
▁dancer	-10.2256
▁wide	-10.228
▁intend	-10.2294
▁novel	-10.2294
▁mul	-10.2301
▁phones	-10.2304
▁include	-10.2306
▁kinds	-10.2311
▁flow	-10.2317
▁violent	-10.2317
▁education	-10.232
▁penn	-10.2323
▁flash	-10.2328
▁express	-10.2328
▁revolution	-10.2328
▁strict	-10.2329
▁advance	-10.2329
▁adventure	-10.2329
▁ambulance	-10.2329
▁ashamed	-10.2329
▁audrey	-10.2329
▁blanc	-10.2329
▁buttercup	-10.2329
▁casino	-10.2329
▁cataleya	-10.2329
▁circumstances	-10.2329
▁dimitri	-10.2329
▁explanation	-10.2329
▁finnegan	-10.2329
▁intelligent	-10.2329
▁kullimon	-10.2329
▁luggage	-10.2329
▁miami	-10.2329
▁motorcycle	-10.2329
▁outfit	-10.2329
▁pizza	-10.2329
▁privacy	-10.2329
▁reputation	-10.2329
▁rufus	-10.2329
▁scrawny	-10.2329
▁september	-10.2329
▁shakusky	-10.2329
▁smiling	-10.2329
▁soviet	-10.2329
▁succeed	-10.2329
▁television	-10.2329
▁tooth	-10.2329
▁tournament	-10.2329
▁whimpers	-10.2329
▁chanting	-10.2329
▁crystal	-10.2329
▁firm	-10.2329
▁hiram	-10.2329
▁example	-10.2329
▁hollywood	-10.2329
▁rusty	-10.2329
▁telegram	-10.2329
▁agency	-10.2329
▁offense	-10.2329
▁potential	-10.2329
▁avenue	-10.2329
▁committee	-10.2329
▁somali	-10.2329
▁saikwong	-10.2329
▁hammer	-10.2329
▁solar	-10.2329
▁eddie	-10.2329
▁series	-10.2329
▁elders	-10.2329
▁bronx	-10.2329
▁tyler	-10.2329
▁valley	-10.2329
▁stood	-10.2329
▁juice	-10.2329
▁failure	-10.2329
▁install	-10.2329
▁existence	-10.2329
▁yellow	-10.2329
▁junk	-10.2329
▁testify	-10.233
▁virus	-10.233
▁noble	-10.233
▁rebecca	-10.233
▁blanket	-10.233
▁aircraft	-10.233
▁naked	-10.233
▁plot	-10.233
▁confession	-10.233
▁jamis	-10.233
▁distan	-10.233
▁technique	-10.2331
▁lightning	-10.2331
▁document	-10.2331
▁waited	-10.2331
itch	-10.2331
▁belt	-10.2331
▁dawn	-10.2332
▁performance	-10.2332
▁nasty	-10.2332
▁began	-10.2333
▁agreement	-10.2333
▁register	-10.2333
▁gear	-10.2333
▁illegal	-10.2333
▁destiny	-10.2334
▁swat	-10.2335
▁darkness	-10.2335
▁daily	-10.2335
▁taxi	-10.2336
▁amity	-10.2336
▁lion	-10.2337
▁seventh	-10.2338
▁humanity	-10.2338
▁homework	-10.2339
▁golden	-10.2339
▁mmmm	-10.234
▁fishman	-10.2341
▁vow	-10.2342
▁pm	-10.2342
▁crawler	-10.2343
▁accused	-10.2344
▁proof	-10.2344
▁tow	-10.2345
▁setting	-10.235
▁vera	-10.2351
▁sack	-10.2356
▁warned	-10.2373
▁confirmed	-10.2373
▁pills	-10.2375
▁sha	-10.2377
▁finest	-10.2382
▁gil	-10.2384
▁locker	-10.2392
▁blessing	-10.2398
▁normally	-10.2405
▁filled	-10.2417
▁charged	-10.2418
▁clouds	-10.2419
▁gloves	-10.2446
▁asses	-10.2447
▁rolling	-10.2453
ba	-10.2457
▁boots	-10.2466
▁arrives	-10.2474
▁requires	-10.2474
▁agents	-10.2481
▁windows	-10.2481
▁searching	-10.2483
▁guts	-10.2483
▁brakes	-10.2489
▁growl	-10.249
▁offering	-10.2496
▁teaching	-10.25
▁newspapers	-10.2502
▁crossing	-10.2505
▁growls	-10.2509
▁jumping	-10.2519
▁rep	-10.2554
▁sauce	-10.2555
ab	-10.257
▁kissing	-10.2608
▁victims	-10.2613
▁waves	-10.2627
▁ln	-10.2641
▁sets	-10.2665
▁ton	-10.2676
▁tim	-10.2678
be	-10.2686
▁pages	-10.2697
▁mighty	-10.2698
▁dealer	-10.2724
▁cleared	-10.2747
▁fighters	-10.2755
ad	-10.2788
▁bombs	-10.2806
ons	-10.2817
▁inter	-10.2819
▁holes	-10.2838
▁rats	-10.2844
abba	-10.2844
▁rocks	-10.2855
▁cam	-10.2883
▁mount	-10.2895
▁snakes	-10.2897
▁jewel	-10.2898
▁elephant	-10.2898
▁servant	-10.2899
▁q	-10.2899
▁youth	-10.29
▁shine	-10.2902
▁incident	-10.2903
▁ramey	-10.2904
▁scientist	-10.2907
▁plate	-10.2907
▁element	-10.2907
▁conversations	-10.2908
▁tool	-10.2908
▁clue	-10.2909
▁warrior	-10.291
▁thrombey	-10.2912
▁creature	-10.2913
▁tower	-10.2914
▁newspaper	-10.2915
▁beast	-10.2916
▁duck	-10.2918
▁patient	-10.293
▁dollar	-10.2937
▁payment	-10.2938
▁twin	-10.294
▁herb	-10.2941
▁sin	-10.2942
▁when	-10.2945
coming	-10.2945
▁ld	-10.2951
▁shadows	-10.2964
▁ka	-10.2989
▁winds	-10.3012
▁suffer	-10.3016
▁equ	-10.3018
▁damned	-10.302
old	-10.3022
▁nation	-10.3028
▁rub	-10.3031
▁punish	-10.3042
com	-10.3049
▁squeal	-10.3053
ball	-10.3054
▁ac	-10.3057
▁bills	-10.306
▁impress	-10.306
▁defeat	-10.3061
▁shatter	-10.3062
wa	-10.3064
▁receive	-10.3078
▁cure	-10.3081
▁spook	-10.3082
▁erase	-10.3083
▁stare	-10.3088
▁pow	-10.309
▁represent	-10.3096
▁auto	-10.3098
▁inherit	-10.3098
▁celebrating	-10.3098
▁council	-10.3098
▁dwarf	-10.3098
▁hasnat	-10.3098
▁horde	-10.3098
▁jurisdiction	-10.3098
▁kalloor	-10.3098
▁lawrence	-10.3098
▁mademoiselle	-10.3098
▁mennick	-10.3098
▁mexican	-10.3098
▁otterbourne	-10.3098
▁sardaukar	-10.3098
▁shikaka	-10.3098
▁speck	-10.3098
▁stammers	-10.3098
▁taihoi	-10.3098
▁territory	-10.3098
▁twelve	-10.3098
▁unusual	-10.3098
▁wendy	-10.3098
▁anchor	-10.3098
▁anytime	-10.3098
▁thumb	-10.3098
▁dominic	-10.3098
▁therefore	-10.3098
▁behavior	-10.3098
▁senior	-10.3098
▁abort	-10.3098
▁civilization	-10.3098
▁barnaby	-10.3098
▁creative	-10.3098
▁silent	-10.3098
▁basket	-10.3098
▁blaring	-10.3098
▁steel	-10.3098
▁allison	-10.3098
▁prime	-10.3098
▁danny	-10.3098
▁cloudland	-10.3098
▁spike	-10.3098
▁authority	-10.3098
▁carpet	-10.3099
▁garbage	-10.3099
▁antonio	-10.3099
▁assignment	-10.3099
▁rapid	-10.3099
▁radar	-10.3099
▁palace	-10.3099
▁compare	-10.3099
▁elle	-10.3099
▁motor	-10.3099
▁helmet	-10.31
▁paradise	-10.31
▁drove	-10.31
▁carryall	-10.31
▁helena	-10.31
▁merely	-10.3101
▁pj	-10.3102
▁lloyd	-10.3102
▁toll	-10.3102
▁christine	-10.3103
▁barry	-10.3103
▁stream	-10.3103
▁redford	-10.3104
▁lilly	-10.3104
▁ways	-10.3104
▁castro	-10.3105
▁recently	-10.3105
▁tells	-10.3105
▁obsessed	-10.3105
▁bout	-10.3105
▁plain	-10.3105
▁spill	-10.3106
▁systems	-10.3106
▁wipe	-10.3107
▁gain	-10.3108
▁chewie	-10.3108
▁sailor	-10.311
▁bury	-10.311
▁piper	-10.3112
▁delivery	-10.3117
▁witches	-10.3117
▁pity	-10.3119
▁cha	-10.312
▁pile	-10.312
▁coal	-10.3122
▁dresses	-10.3125
▁studio	-10.3128
▁fry	-10.3128
▁doll	-10.3128
▁emotional	-10.313
etch	-10.3135
▁heroes	-10.3135
▁lungs	-10.3136
▁bid	-10.3141
▁rolly	-10.3142
▁dayton	-10.3146
ably	-10.3148
▁healing	-10.3151
ak	-10.3152
▁billion	-10.3152
▁nd	-10.3153
▁talks	-10.3161
▁coughs	-10.3166
▁doc	-10.3171
▁equal	-10.3173
▁electrical	-10.318
▁deserved	-10.3191
▁forth	-10.3195
▁anti	-10.3196
ay	-10.3213
▁my	-10.3221
▁thy	-10.3225
▁drums	-10.3225
▁knocked	-10.3226
▁successful	-10.3236
▁visiting	-10.3243
ile	-10.3249
▁sentence	-10.325
▁tag	-10.3273
▁fee	-10.3282
ern	-10.331
▁prisoners	-10.3311
▁cleaned	-10.3321
▁walls	-10.3322
▁dancers	-10.3322
▁jean	-10.334
▁engineer	-10.3355
▁listened	-10.3355
▁ge	-10.3372
▁covered	-10.3374
▁lau	-10.3378
▁friendly	-10.3381
istic	-10.3387
▁commit	-10.3403
▁squeeze	-10.3414
▁inc	-10.3431
face	-10.344
we	-10.3462
sis	-10.3474
gie	-10.3476
its	-10.348
ule	-10.3517
▁os	-10.352
▁kidd	-10.3521
un	-10.3524
▁for	-10.3539
ai	-10.3558
▁goody	-10.3564
▁russians	-10.3573
▁sec	-10.3576
▁bears	-10.3577
ens	-10.3578
▁millions	-10.3581
▁somebodys	-10.3583
▁breaths	-10.3628
▁brains	-10.3649
ky	-10.3663
bb	-10.3664
▁yell	-10.3672
ge	-10.3674
▁units	-10.3677
▁photograph	-10.3699
qu	-10.3706
no	-10.3711
▁gee	-10.3719
isser	-10.3722
▁partners	-10.3724
▁lame	-10.3725
▁pound	-10.3729
▁newscast	-10.3731
▁harkonnen	-10.3732
▁bucket	-10.3732
▁wachati	-10.3737
▁championship	-10.3738
▁muscle	-10.374
▁award	-10.3742
▁nightmare	-10.3742
▁cannon	-10.3743
▁escort	-10.3745
▁blade	-10.3746
▁odd	-10.3746
▁worm	-10.3748
▁badge	-10.3748
▁brake	-10.3749
▁egg	-10.375
▁france	-10.3761
▁lesson	-10.3765
me	-10.3779
▁pas	-10.3789
▁te	-10.3826
▁watched	-10.3828
▁bail	-10.3842
▁ra	-10.3844
▁rider	-10.3847
▁ange	-10.3868
phone	-10.3889
▁distract	-10.389
▁opera	-10.3893
▁pump	-10.3893
▁reward	-10.3896
ick	-10.3897
▁tao	-10.3906
▁pitch	-10.3908
▁guarantee	-10.3908
▁rome	-10.3919
▁madam	-10.3921
▁trail	-10.3922
▁unlike	-10.3924
▁affect	-10.3926
▁civil	-10.393
▁cigar	-10.3931
▁apprentice	-10.3931
▁arrival	-10.3931
▁august	-10.3931
▁bellefort	-10.3931
▁cabrera	-10.3931
▁caleb	-10.3931
▁chastity	-10.3931
▁chitty	-10.3931
▁commodore	-10.3931
▁constant	-10.3931
▁delicious	-10.3931
▁disaster	-10.3931
▁disguise	-10.3931
▁emmett	-10.3931
▁essential	-10.3931
▁fabulous	-10.3931
▁fifty	-10.3931
▁fridge	-10.3931
▁inaudible	-10.3931
▁intense	-10.3931
▁jonny	-10.3931
▁julian	-10.3931
▁krupke	-10.3931
▁lucifer	-10.3931
▁mechanic	-10.3931
▁medallion	-10.3931
▁phillips	-10.3931
▁polish	-10.3931
▁precisely	-10.3931
▁principal	-10.3931
▁quote	-10.3931
▁rifle	-10.3931
▁scott	-10.3931
▁similar	-10.3931
▁spectator	-10.3931
▁spoon	-10.3931
▁stevie	-10.3931
▁thief	-10.3931
▁throughout	-10.3931
▁travis	-10.3931
▁undercover	-10.3931
▁whimpering	-10.3931
▁babies	-10.3931
▁blew	-10.3931
▁essence	-10.3931
▁slap	-10.3931
▁tragic	-10.3931
▁extraordinary	-10.3931
▁including	-10.3931
▁reverse	-10.3931
▁willow	-10.3931
▁breeze	-10.3931
▁bronze	-10.3931
▁manual	-10.3931
▁todd	-10.3931
▁trunk	-10.3932
▁akator	-10.3932
▁anderson	-10.3932
▁garfield	-10.3932
▁henri	-10.3932
▁employee	-10.3932
▁blake	-10.3932
▁bacon	-10.3932
▁monday	-10.3932
▁invisible	-10.3932
▁backwards	-10.3932
▁slipped	-10.3932
▁slut	-10.3932
▁brand	-10.3932
▁upgrade	-10.3932
▁elevator	-10.3932
▁faint	-10.3932
▁dozen	-10.3932
▁guano	-10.3932
▁evelyn	-10.3932
▁cattle	-10.3932
▁angle	-10.3932
▁recall	-10.3932
▁scum	-10.3932
▁loyalty	-10.3932
▁whooping	-10.3933
▁punk	-10.3933
▁ease	-10.3933
▁reaction	-10.3933
▁bracelet	-10.3933
▁fork	-10.3933
▁mystery	-10.3933
▁financial	-10.3934
▁amber	-10.3934
▁surface	-10.3934
▁typical	-10.3934
▁severe	-10.3934
▁marty	-10.3934
▁poke	-10.3934
▁selfish	-10.3934
▁crop	-10.3934
▁coco	-10.3934
▁chess	-10.3934
▁solution	-10.3935
▁spotted	-10.3935
▁memories	-10.3935
▁stabbed	-10.3936
▁delighted	-10.3936
▁terror	-10.3936
▁randy	-10.3937
▁aid	-10.3937
▁gordy	-10.3937
▁donna	-10.3938
▁fried	-10.3938
▁producer	-10.3938
▁protest	-10.3938
▁waltz	-10.3938
▁joking	-10.3938
▁carmine	-10.3939
▁mall	-10.3941
▁tax	-10.3942
▁recovered	-10.3945
▁disturbed	-10.3948
▁qui	-10.3949
▁goodnight	-10.3951
▁chasing	-10.3954
▁momma	-10.3954
▁properly	-10.3955
▁sean	-10.3958
▁drain	-10.3958
▁que	-10.3959
▁cats	-10.396
▁glasses	-10.396
▁blown	-10.3963
▁engaged	-10.3964
▁damaged	-10.3964
gu	-10.3964
▁clicking	-10.3966
▁ancestors	-10.3972
▁dial	-10.3974
▁impression	-10.3977
▁disappeared	-10.3978
▁reality	-10.3978
▁released	-10.398
▁thrown	-10.398
▁parties	-10.3981
▁pissed	-10.3987
▁settled	-10.3989
▁sealed	-10.3996
▁ruined	-10.3997
que	-10.3997
▁served	-10.4005
ded	-10.4013
▁chips	-10.4017
▁considered	-10.4017
▁tied	-10.4025
▁hunter	-10.4026
▁fairy	-10.4028
af	-10.4034
▁crimes	-10.4036
▁drag	-10.4037
▁victory	-10.4044
ci	-10.4045
ence	-10.4046
▁counts	-10.405
▁accepted	-10.4063
▁hu	-10.4066
▁wil	-10.4067
▁scan	-10.4072
▁you	-10.4083
▁hollows	-10.4086
▁gifted	-10.4088
▁joy	-10.4089
▁dip	-10.4101
▁measure	-10.4102
▁tr	-10.4119
▁lessons	-10.4121
▁strip	-10.4129
▁messed	-10.413
▁twins	-10.4135
▁lean	-10.4139
▁math	-10.4155
▁knowing	-10.4158
▁boarding	-10.4178
▁banging	-10.4186
▁shields	-10.4201
▁shoulders	-10.4202
▁camper	-10.4206
▁strangers	-10.4208
ept	-10.4236
▁wonders	-10.4242
▁uniforms	-10.4251
ard	-10.4253
der	-10.4259
▁americans	-10.4266
ca	-10.4272
▁bra	-10.4277
▁danced	-10.4277
▁monsters	-10.4284
▁gut	-10.4301
▁off	-10.4312
like	-10.4316
▁losers	-10.432
▁lamb	-10.4342
▁thu	-10.4352
ome	-10.4355
▁threats	-10.4367
▁husbands	-10.4379
▁angels	-10.4381
▁cori	-10.4389
▁greater	-10.44
▁notes	-10.4404
▁remains	-10.4416
▁dragons	-10.4433
▁lover	-10.4433
bo	-10.4445
▁snap	-10.4472
▁noises	-10.4483
some	-10.4484
vin	-10.4485
▁colors	-10.4501
▁ju	-10.4539
ped	-10.4551
ot	-10.4627
▁require	-10.4631
▁arrive	-10.4636
pping	-10.4641
ized	-10.4644
▁sweep	-10.4645
▁indian	-10.4648
▁citizen	-10.4652
▁email	-10.4653
▁divergent	-10.4655
▁result	-10.4655
▁lemon	-10.4655
▁sock	-10.4657
▁cart	-10.4659
ka	-10.466
▁sew	-10.4661
da	-10.4664
▁heavens	-10.4667
▁button	-10.467
▁ph	-10.4674
mon	-10.4683
▁cage	-10.4684
▁gar	-10.4685
▁toy	-10.4691
▁site	-10.4724
▁doctors	-10.473
qui	-10.4748
▁burns	-10.4757
▁dump	-10.4758
▁rum	-10.476
ellie	-10.476
just	-10.4787
room	-10.4791
mark	-10.4793
▁awake	-10.4794
piece	-10.4798
▁approach	-10.4798
place	-10.4798
school	-10.4799
town	-10.4799
▁smack	-10.4803
bag	-10.4804
▁recruit	-10.4804
▁bowl	-10.4806
▁twist	-10.481
▁she	-10.4817
▁cu	-10.4817
▁urgent	-10.4826
▁alik	-10.4828
▁invent	-10.4834
▁orchestra	-10.4835
▁rude	-10.4837
▁prince	-10.4837
▁web	-10.484
▁wrist	-10.484
▁appropriate	-10.484
▁narrow	-10.484
▁aldridge	-10.484
▁arguing	-10.484
▁arielle	-10.484
▁azul	-10.484
▁bartender	-10.484
▁carriage	-10.484
▁compartment	-10.484
▁comrade	-10.484
▁courier	-10.484
▁cradle	-10.484
▁cricket	-10.484
▁disagree	-10.484
▁erudite	-10.484
▁fattuh	-10.484
▁hmph	-10.484
▁hourglass	-10.484
▁hubbard	-10.484
▁iansam	-10.484
▁irena	-10.484
▁ishmael	-10.484
▁jersey	-10.484
▁kalaman	-10.484
▁knives	-10.484
▁marquess	-10.484
▁oxygen	-10.484
▁protocol	-10.484
▁pulse	-10.484
▁stereo	-10.484
▁struggling	-10.484
▁terrell	-10.484
▁thumping	-10.484
▁uboat	-10.484
▁zoran	-10.484
▁albert	-10.484
▁battery	-10.484
▁heather	-10.484
▁intel	-10.484
▁forfeit	-10.484
▁robert	-10.484
▁destruction	-10.4841
▁paranormal	-10.4841
▁halt	-10.4841
▁reese	-10.4841
▁struggle	-10.4841
▁opposite	-10.4841
▁ambush	-10.4841
▁katherine	-10.4841
▁underneath	-10.4841
▁unique	-10.4841
▁coincidence	-10.4841
▁giggle	-10.4841
▁paulina	-10.4841
▁anonymous	-10.4841
▁influence	-10.4841
▁religious	-10.4841
▁valka	-10.4841
▁cruising	-10.4841
▁denied	-10.4841
▁darn	-10.4841
▁gallery	-10.4841
▁jeong	-10.4841
▁iook	-10.4841
▁religion	-10.4841
▁brutal	-10.4841
▁precious	-10.4841
▁delay	-10.4841
▁tramp	-10.4841
▁solid	-10.4841
▁jeez	-10.4841
▁theme	-10.4841
▁pearl	-10.4841
▁specifically	-10.4841
▁salad	-10.4841
▁hesitate	-10.4841
▁blah	-10.4842
▁surgery	-10.4842
▁yea	-10.4842
▁brick	-10.4842
▁dedicated	-10.4842
▁parade	-10.4842
▁hostile	-10.4842
▁row	-10.4843
▁punishment	-10.4843
▁fifth	-10.4843
▁unknown	-10.4843
let	-10.4843
▁weakness	-10.4843
▁bold	-10.4843
▁jedi	-10.4844
▁thick	-10.4844
▁hallway	-10.4844
▁survival	-10.4844
▁governor	-10.4844
▁rehearse	-10.4844
▁global	-10.4844
▁supper	-10.4844
▁raw	-10.4844
▁brass	-10.4844
▁shave	-10.4845
▁script	-10.4847
▁charity	-10.4847
▁basement	-10.4848
▁sexual	-10.4848
▁grass	-10.4849
▁embarrassed	-10.4849
▁creepy	-10.485
▁personality	-10.485
▁highway	-10.4851
▁farley	-10.4851
▁bubble	-10.4852
▁dang	-10.4852
▁summoned	-10.4852
▁shore	-10.4852
▁facing	-10.4853
▁toilet	-10.4853
▁actual	-10.4853
▁multipl	-10.4853
▁inspired	-10.4855
▁betrayed	-10.4859
▁hank	-10.4861
▁penny	-10.4861
▁yearold	-10.4861
▁pickup	-10.4864
▁coin	-10.4865
▁stretch	-10.4865
▁forty	-10.4865
▁moody	-10.4865
▁shy	-10.4866
▁smells	-10.4867
▁ghostbusters	-10.4868
slept	-10.4871
▁bene	-10.4876
▁fleet	-10.4881
▁flu	-10.4881
▁squeaking	-10.4882
▁communication	-10.4883
▁abuse	-10.4884
▁trooper	-10.4884
▁ymbrynes	-10.4885
▁loudly	-10.489
▁wounded	-10.4892
ner	-10.4892
▁prayer	-10.4892
▁suffering	-10.4895
▁goth	-10.4896
▁timing	-10.4897
ney	-10.49
onon	-10.4902
▁trumpets	-10.4903
▁frankly	-10.4904
▁blessed	-10.4908
▁homeless	-10.4922
▁condo	-10.4922
insu	-10.4925
▁waters	-10.4926
▁cooking	-10.4926
▁boats	-10.4936
▁lookout	-10.4941
ok	-10.4947
ette	-10.4948
▁triple	-10.4951
▁granted	-10.4952
▁completed	-10.4954
▁ro	-10.4954
▁closet	-10.4956
▁customers	-10.4959
▁considering	-10.4965
ac	-10.4992
▁stepp	-10.4995
▁media	-10.5
▁feeding	-10.5001
▁becom	-10.5007
gs	-10.501
▁goat	-10.5011
▁recorded	-10.5014
rous	-10.5018
bu	-10.502
▁magical	-10.5031
▁tend	-10.5037
red	-10.5039
▁joey	-10.5046
berg	-10.5047
ors	-10.5051
▁marked	-10.5055
▁op	-10.5055
▁turner	-10.5059
ory	-10.5061
▁workers	-10.5062
▁creatures	-10.5065
▁tons	-10.5076
▁bob	-10.5088
▁bend	-10.5099
▁rumbles	-10.5101
und	-10.5101
ping	-10.5142
▁reporting	-10.5158
▁trucks	-10.516
▁rooms	-10.5162
▁walker	-10.5163
▁sales	-10.5166
▁est	-10.5189
▁cleaning	-10.5194
▁sire	-10.5198
▁finishing	-10.5198
▁mill	-10.5212
▁jobs	-10.5219
erry	-10.5232
ants	-10.5264
nic	-10.5274
▁mel	-10.5282
▁gus	-10.5283
▁facts	-10.5283
art	-10.5293
▁gall	-10.5294
omin	-10.5298
▁chances	-10.5313
▁exercise	-10.5352
ita	-10.5386
▁operations	-10.5411
▁tellin	-10.5451
▁bur	-10.5458
bre	-10.5458
▁reporters	-10.5485
▁types	-10.5504
▁finds	-10.5516
▁tricks	-10.5519
ze	-10.5522
▁occasion	-10.5532
▁sw	-10.5549
pped	-10.5552
▁sheriffs	-10.5558
iy	-10.5568
ide	-10.5568
▁gum	-10.5594
▁den	-10.5595
book	-10.5609
▁uhh	-10.5616
▁chap	-10.5617
▁clap	-10.5641
▁executive	-10.5641
▁inmate	-10.5642
▁rec	-10.5649
▁bass	-10.5651
▁cigarette	-10.5651
▁cobra	-10.5652
▁cheerleader	-10.5654
▁hollow	-10.5656
▁cave	-10.5656
▁fra	-10.5673
▁tradition	-10.5689
▁contain	-10.57
izing	-10.5707
not	-10.5707
▁pat	-10.5714
▁ar	-10.572
▁paste	-10.572
▁x	-10.572
▁idiots	-10.5723
car	-10.5725
ber	-10.5726
▁fo	-10.5733
ong	-10.5747
▁mac	-10.5762
▁splash	-10.5782
▁gifts	-10.5784
▁monitor	-10.5791
▁respond	-10.5791
▁squeak	-10.5795
▁down	-10.5802
▁insult	-10.5803
▁am	-10.5804
▁deny	-10.5809
▁flag	-10.5812
▁solve	-10.5818
▁crawl	-10.582
test	-10.5822
inch	-10.5822
▁improve	-10.5822
▁scam	-10.5824
▁custom	-10.5827
▁absolute	-10.5829
▁mort	-10.5829
▁smash	-10.583
▁convers	-10.5832
▁muse	-10.5834
▁threaten	-10.5836
▁tune	-10.5837
▁makin	-10.5838
▁loyal	-10.5839
▁accomplice	-10.584
▁accurate	-10.584
▁advise	-10.584
▁airplane	-10.584
▁ambassador	-10.584
▁ankle	-10.584
▁april	-10.584
▁atlanta	-10.584
▁atlantic	-10.584
▁batteries	-10.584
▁bedouin	-10.584
▁benefit	-10.584
▁brantley	-10.584
▁breach	-10.584
▁buffalo	-10.584
▁chittering	-10.584
▁colson	-10.584
▁concept	-10.584
▁curfew	-10.584
▁daughtry	-10.584
▁druze	-10.584
▁feihung	-10.584
▁florida	-10.584
▁geiier	-10.584
▁gracias	-10.584
▁halloween	-10.584
▁handkerchief	-10.584
▁juvenile	-10.584
▁lapchick	-10.584
▁leslie	-10.584
▁lucille	-10.584
▁maximum	-10.584
▁nickname	-10.584
▁orbit	-10.584
▁owimoweh	-10.584
▁platform	-10.584
▁prescott	-10.584
▁recipe	-10.584
▁residence	-10.584
▁rosalie	-10.584
▁scenario	-10.584
▁scotland	-10.584
▁semester	-10.584
▁tattoo	-10.584
▁tragedy	-10.584
▁underwear	-10.584
▁unexpected	-10.584
▁venganza	-10.584
▁chloe	-10.584
▁dragged	-10.584
▁identify	-10.584
▁initial	-10.584
▁miserable	-10.584
▁natalie	-10.584
▁reckon	-10.584
▁robbed	-10.584
▁torpedo	-10.584
▁whew	-10.584
turkish	-10.584
▁qualify	-10.584
▁schooi	-10.584
▁knowledge	-10.5841
▁starving	-10.5841
▁clink	-10.5841
▁holler	-10.5841
▁warrant	-10.5841
▁astrid	-10.5841
▁candy	-10.5841
▁jingle	-10.5841
▁vengeance	-10.5841
▁organization	-10.5841
▁ensure	-10.5841
▁false	-10.5841
▁receiving	-10.5841
▁scholarship	-10.5841
▁watson	-10.5841
▁distress	-10.5841
▁rogue	-10.5841
▁rhythmic	-10.5841
▁yelp	-10.5841
▁favourite	-10.5841
▁yknow	-10.5841
▁fairfax	-10.5841
▁fulton	-10.5841
▁iq	-10.5841
▁brace	-10.5841
▁tasha	-10.5841
▁tuna	-10.5841
▁delta	-10.5841
▁dimeah	-10.5841
▁angelov	-10.5841
▁tusk	-10.5841
▁feature	-10.5841
▁slice	-10.5841
▁announcement	-10.5841
▁capacity	-10.5841
▁embassy	-10.5841
▁sobs	-10.5841
▁thirsty	-10.5841
▁nascar	-10.5841
▁whys	-10.5842
▁laurence	-10.5842
▁signature	-10.5842
▁arrangement	-10.5842
▁subway	-10.5842
▁investment	-10.5842
▁minister	-10.5842
▁upper	-10.5842
▁scatter	-10.5842
▁kenny	-10.5842
▁zoom	-10.5842
▁moral	-10.5842
▁commitment	-10.5843
▁swell	-10.5843
▁oxley	-10.5843
▁stern	-10.5843
▁quality	-10.5843
▁uncomfortable	-10.5843
▁pursuit	-10.5843
▁agatha	-10.5843
▁bishop	-10.5843
▁fashion	-10.5843
▁magnificent	-10.5843
▁internet	-10.5843
▁dropping	-10.5843
▁priority	-10.5843
▁distraction	-10.5844
▁chapter	-10.5844
▁gps	-10.5844
▁checkmate	-10.5844
▁tide	-10.5844
▁guardian	-10.5844
▁iike	-10.5845
▁possession	-10.5845
▁russ	-10.5845
▁amongst	-10.5845
▁bounce	-10.5846
▁tina	-10.5846
allelu	-10.5846
▁coup	-10.5846
▁whore	-10.5846
▁sensitive	-10.5847
▁regard	-10.5847
▁painful	-10.5848
▁mustache	-10.5848
▁tries	-10.5849
▁swore	-10.5849
▁centre	-10.5849
▁apply	-10.5849
▁attractive	-10.585
▁rice	-10.585
▁hospitality	-10.5851
▁background	-10.5851
▁purse	-10.5852
▁choking	-10.5852
▁bitter	-10.5852
▁bald	-10.5853
▁shutter	-10.5853
▁jackson	-10.5853
▁worthless	-10.5854
▁acceptable	-10.5854
▁peacefully	-10.5855
▁dana	-10.5856
▁captured	-10.5856
▁dart	-10.5856
▁medication	-10.5857
▁exhausted	-10.5857
▁reset	-10.5857
▁shuddering	-10.5858
▁ticking	-10.5858
▁alike	-10.5858
▁gasp	-10.5858
▁angeles	-10.5858
▁cargo	-10.586
▁shipment	-10.5861
ess	-10.5862
▁dc	-10.5862
▁punches	-10.5862
▁established	-10.5864
▁naturally	-10.5866
▁legally	-10.5867
▁cl	-10.5868
▁formal	-10.5869
▁tickle	-10.587
▁instructions	-10.5871
▁pine	-10.5874
▁drowning	-10.5877
▁pub	-10.588
▁lita	-10.5881
▁highest	-10.5883
▁fn	-10.5883
▁operate	-10.5884
▁resources	-10.589
▁dvd	-10.5891
▁hundreds	-10.5894
▁oi	-10.5894
▁howdy	-10.5895
▁container	-10.5897
▁clip	-10.5898
ville	-10.5902
▁hee	-10.5902
▁crushed	-10.5908
▁closest	-10.5917
▁seeds	-10.5917
▁stalin	-10.5921
▁shortly	-10.5923
▁mass	-10.5924
▁smaller	-10.5924
▁manage	-10.5928
▁cor	-10.5931
▁sniffs	-10.5932
▁intentions	-10.5932
▁wasted	-10.5933
▁golf	-10.5933
▁lads	-10.5934
▁cookies	-10.5936
▁there	-10.5941
▁remembered	-10.5944
▁cursed	-10.5945
▁ob	-10.5952
▁belly	-10.5955
▁talented	-10.596
ada	-10.596
▁manners	-10.597
▁miner	-10.5971
sel	-10.5977
ure	-10.5982
io	-10.5988
rt	-10.5992
▁bon	-10.5993
wich	-10.5995
▁counter	-10.6
▁melt	-10.6006
▁fugitives	-10.601
▁cable	-10.6017
nsan	-10.6017
▁asks	-10.602
our	-10.6043
▁divergents	-10.605
▁lemons	-10.605
▁results	-10.605
▁indians	-10.605
▁peoples	-10.6055
▁snaps	-10.6057
▁pork	-10.6063
▁odds	-10.607
▁worms	-10.6073
▁blades	-10.6073
▁explained	-10.6078
▁din	-10.6078
▁choc	-10.6079
▁tests	-10.6089
▁thrombeys	-10.609
▁mounts	-10.6091
▁harland	-10.6096
▁reported	-10.6105
▁limits	-10.6109
▁surge	-10.6119
▁rear	-10.6122
▁talkin	-10.6127
▁debts	-10.6131
▁virginia	-10.6132
ung	-10.6137
▁spa	-10.6141
▁wounds	-10.6151
▁roads	-10.6154
▁raining	-10.6157
▁marrying	-10.6158
▁los	-10.6158
▁plants	-10.616
▁lg	-10.6163
▁touched	-10.6169
▁testing	-10.6178
▁menu	-10.6184
▁dreamed	-10.6196
▁dome	-10.6204
mer	-10.6212
▁ver	-10.6212
▁tables	-10.622
▁jab	-10.624
▁tapes	-10.6249
▁figures	-10.6256
▁le	-10.6261
▁wanting	-10.6268
▁ding	-10.627
ho	-10.6277
▁lone	-10.6287
▁swords	-10.6293
▁deadly	-10.63
▁rap	-10.631
ities	-10.631
▁dreaming	-10.6315
▁pos	-10.6328
▁booked	-10.634
▁ol	-10.6346
▁rene	-10.6351
▁returns	-10.6359
ther	-10.6362
▁protecting	-10.6365
▁buying	-10.6381
▁hoped	-10.6383
▁psych	-10.6418
▁teachers	-10.6429
iest	-10.6443
▁pit	-10.645
▁catching	-10.6459
od	-10.6478
▁scr	-10.6491
▁convention	-10.6499
▁helps	-10.651
▁rolls	-10.6572
▁daddys	-10.6575
pe	-10.658
▁hop	-10.6605
ame	-10.6612
mine	-10.6614
▁explore	-10.6626
▁pointing	-10.6628
▁wor	-10.6632
▁sc	-10.6674
looking	-10.668
▁bets	-10.6682
▁assholes	-10.6722
▁click	-10.6726
▁groan	-10.6728
▁riddle	-10.6729
▁restaurant	-10.6751
▁superior	-10.6757
▁es	-10.6759
▁knight	-10.676
▁hacker	-10.676
▁clown	-10.6762
▁costume	-10.6762
▁stink	-10.6763
▁griswald	-10.6765
▁fugitive	-10.6766
▁fist	-10.6769
▁glove	-10.6769
▁toward	-10.6772
▁parent	-10.6782
log	-10.6783
▁drum	-10.6786
▁skip	-10.6787
▁cases	-10.6799
▁ending	-10.6801
eo	-10.6818
▁heller	-10.6825
▁fires	-10.684
▁presents	-10.6843
▁ve	-10.6844
▁tale	-10.6846
▁suite	-10.685
▁dispatch	-10.687
▁placed	-10.6873
work	-10.6876
▁hid	-10.6877
olate	-10.6881
▁lime	-10.6882
hood	-10.6898
▁resist	-10.6899
hand	-10.6901
▁conduct	-10.6903
▁boil	-10.6904
house	-10.6905
life	-10.6908
▁whi	-10.6909
lot	-10.6909
▁mamas	-10.691
weight	-10.691
speed	-10.692
▁link	-10.692
▁consul	-10.692
▁speaker	-10.6925
▁wax	-10.6927
▁nut	-10.6935
▁approve	-10.6936
▁happi	-10.6937
▁random	-10.6938
▁immediate	-10.6939
▁roost	-10.6941
▁tuck	-10.6942
▁norm	-10.6943
▁produce	-10.6943
▁dan	-10.6944
min	-10.6944
▁section	-10.6945
▁branch	-10.6945
▁india	-10.6947
▁chuck	-10.6949
▁immortal	-10.695
▁recommend	-10.695
▁adjust	-10.695
▁fl	-10.6951
▁journal	-10.6951
▁terri	-10.6951
▁adapt	-10.6952
▁mysterious	-10.6952
▁widow	-10.6952
▁albino	-10.6952
▁alligator	-10.6952
▁anticruise	-10.6952
▁associate	-10.6952
▁athlete	-10.6952
▁audio	-10.6952
▁beloved	-10.6952
▁berko	-10.6952
▁cadena	-10.6952
▁cadogan	-10.6952
▁celebration	-10.6952
▁chakobsa	-10.6952
▁chariot	-10.6952
▁conference	-10.6952
▁consort	-10.6952
▁curtain	-10.6952
▁depth	-10.6952
▁dionne	-10.6952
▁disrespect	-10.6952
▁divide	-10.6952
▁division	-10.6952
▁eternium	-10.6952
▁extension	-10.6952
▁fifteen	-10.6952
▁gesserit	-10.6952
▁greek	-10.6952
▁grief	-10.6952
▁harvest	-10.6952
▁hockey	-10.6952
▁houston	-10.6952
▁incredibly	-10.6952
▁intellectual	-10.6952
▁jacob	-10.6952
▁jakku	-10.6952
▁jordan	-10.6952
▁juicy	-10.6952
▁liquor	-10.6952
▁lopez	-10.6952
▁manhattan	-10.6952
▁morphine	-10.6952
▁nemyt	-10.6952
▁opponent	-10.6952
▁pacific	-10.6952
▁pistol	-10.6952
▁precinct	-10.6952
▁prevent	-10.6952
▁qzone	-10.6952
▁reckless	-10.6952
▁riker	-10.6952
▁shriek	-10.6952
▁skywalker	-10.6952
▁slaughter	-10.6952
▁soccer	-10.6952
▁squawk	-10.6952
▁stork	-10.6952
▁strategy	-10.6952
▁surveillance	-10.6952
▁terribly	-10.6952
▁terrified	-10.6952
▁thieves	-10.6952
▁trevor	-10.6952
▁trophy	-10.6952
▁vandeweghe	-10.6952
▁weevil	-10.6952
▁coffin	-10.6952
▁dewey	-10.6952
▁keller	-10.6952
▁preparing	-10.6952
▁shitzu	-10.6952
▁spiritual	-10.6952
▁urine	-10.6952
▁presence	-10.6952
▁transform	-10.6952
▁boston	-10.6952
▁flank	-10.6952
▁stoppard	-10.6952
▁article	-10.6952
▁marilyn	-10.6952
▁creek	-10.6952
▁democra	-10.6952
▁marina	-10.6952
arm	-10.6952
▁sennett	-10.6952
▁underground	-10.6952
▁wales	-10.6952
▁tango	-10.6952
▁vulnerable	-10.6952
▁rican	-10.6952
▁yueh	-10.6952
▁neighborhood	-10.6952
▁delightful	-10.6952
▁donut	-10.6952
▁reverend	-10.6952
▁nerd	-10.6952
▁sully	-10.6952
▁asun	-10.6952
zzy	-10.6952
▁pantlng	-10.6952
▁remote	-10.6952
▁slay	-10.6952
▁prophetess	-10.6952
▁thou	-10.6952
▁bingo	-10.6952
▁riot	-10.6952
▁auction	-10.6952
▁leak	-10.6952
▁downey	-10.6952
▁wrapped	-10.6952
▁dawson	-10.6952
▁instant	-10.6952
▁hissing	-10.6952
▁tristan	-10.6952
▁immune	-10.6952
▁digging	-10.6952
▁shotgun	-10.6953
▁melancholy	-10.6953
▁nuke	-10.6953
▁rising	-10.6953
▁magnet	-10.6953
▁rockwell	-10.6953
▁june	-10.6953
▁chew	-10.6953
▁harbor	-10.6953
▁dove	-10.6953
▁peach	-10.6953
▁extract	-10.6953
▁gerber	-10.6953
▁debate	-10.6953
▁mosquitoes	-10.6953
▁stiff	-10.6953
▁upright	-10.6953
▁prick	-10.6954
▁andrew	-10.6954
▁luis	-10.6954
▁ocha	-10.6954
▁groom	-10.6954
▁bible	-10.6954
▁stake	-10.6954
▁monte	-10.6954
▁perez	-10.6954
▁confidence	-10.6954
▁satisfied	-10.6954
▁length	-10.6954
▁cabinet	-10.6954
▁parole	-10.6955
▁santa	-10.6955
▁plantation	-10.6955
▁soil	-10.6955
▁pour	-10.6955
▁engagement	-10.6955
▁creation	-10.6955
▁destination	-10.6955
▁boll	-10.6956
▁mason	-10.6956
▁nearby	-10.6956
▁patch	-10.6956
▁booth	-10.6956
▁lakers	-10.6956
▁surgeon	-10.6956
▁ego	-10.6956
▁notebook	-10.6957
▁aii	-10.6957
▁satan	-10.6957
▁label	-10.6957
▁foolish	-10.6957
▁emir	-10.6958
▁cocky	-10.6958
▁hawk	-10.6959
▁soup	-10.6959
den	-10.6959
▁hhhey	-10.6959
▁pleasant	-10.6959
▁tuition	-10.696
▁tolerate	-10.696
▁taxes	-10.696
▁kong	-10.696
▁fantasy	-10.696
▁growth	-10.696
▁rode	-10.6962
▁hitler	-10.6962
▁vari	-10.6962
▁marco	-10.6963
▁fame	-10.6963
▁discussion	-10.6963
▁eliminated	-10.6963
▁supplies	-10.6964
▁trailer	-10.6965
▁sang	-10.6968
▁stroke	-10.697
▁huddle	-10.6971
▁hopefully	-10.6974
▁structure	-10.6975
▁annoying	-10.6976
▁compete	-10.6978
▁switches	-10.6979
▁solved	-10.698
▁dearest	-10.6981
enormous	-10.6983
▁creaks	-10.6986
▁photographer	-10.6989
▁bait	-10.699
▁lang	-10.699
▁lawn	-10.699
▁shutting	-10.699
▁hangar	-10.6991
▁carter	-10.6994
▁io	-10.6995
▁roller	-10.6996
▁assured	-10.6996
▁carne	-10.6996
ko	-10.6997
▁businessman	-10.6998
▁rata	-10.6998
▁refused	-10.6999
▁policeman	-10.6999
▁pie	-10.7002
▁barn	-10.7003
▁whinn	-10.7004
▁una	-10.7005
real	-10.7006
▁divorced	-10.7007
▁limited	-10.7008
▁slghs	-10.7008
▁kindness	-10.7009
ible	-10.7016
▁designed	-10.7016
▁washed	-10.7028
▁relics	-10.703
ular	-10.703
▁clatters	-10.703
▁bare	-10.7031
▁movement	-10.7033
▁lining	-10.704
▁catches	-10.7042
lves	-10.7043
ative	-10.7047
▁preserve	-10.705
▁ri	-10.7051
▁wizards	-10.7052
▁loaded	-10.7053
▁dock	-10.7053
ain	-10.7059
▁jac	-10.7061
▁spreading	-10.7064
rona	-10.7065
▁witnessed	-10.7069
▁diamonds	-10.7075
drew	-10.7078
▁refere	-10.7082
su	-10.7086
▁aunts	-10.7098
▁imagined	-10.7098
iff	-10.7107
▁talkies	-10.7107
▁che	-10.7109
▁lighter	-10.7111
▁hoo	-10.7111
▁shorts	-10.7114
▁ec	-10.7115
▁visited	-10.7115
▁tra	-10.7124
▁shove	-10.7125
▁lit	-10.713
▁par	-10.7139
▁packed	-10.7139
▁buildings	-10.714
▁filling	-10.7142
▁griswalds	-10.7142
drop	-10.7142
▁vivi	-10.7147
▁fed	-10.7154
▁indicate	-10.7158
▁cheerleaders	-10.7165
▁pende	-10.7183
▁jumped	-10.7183
▁toys	-10.7187
▁wars	-10.7192
▁packing	-10.7201
▁escorts	-10.721
▁guessing	-10.7215
ards	-10.7217
▁pays	-10.7217
▁ima	-10.7218
▁flipp	-10.7228
▁herbs	-10.7231
▁patients	-10.7232
▁bells	-10.7235
▁fooled	-10.7258
bie	-10.7261
▁killers	-10.727
wn	-10.7288
▁lords	-10.7294
▁reed	-10.7306
▁ty	-10.7313
▁tran	-10.7332
▁fishing	-10.7346
rate	-10.735
▁it	-10.7363
▁officials	-10.7369
▁tis	-10.7378
ven	-10.7384
▁rot	-10.7386
▁yay	-10.7386
▁landing	-10.74
▁events	-10.7412
roc	-10.7421
▁exception	-10.7431
misunderstanding	-10.7432
▁goodman	-10.7448
▁dudes	-10.7459
▁function	-10.746
▁bee	-10.7476
ions	-10.7478
▁affairs	-10.7482
▁signals	-10.7485
▁detect	-10.7504
▁lands	-10.7507
ologist	-10.7509
▁nicely	-10.7527
▁faces	-10.7538
cc	-10.7571
▁questioning	-10.76
nie	-10.76
ture	-10.7624
▁metro	-10.7637
erson	-10.764
▁accounts	-10.7644
▁declare	-10.7646
▁hon	-10.7667
▁skill	-10.7703
vo	-10.7704
▁fights	-10.7738
▁bastards	-10.7759
bra	-10.7769
▁her	-10.7771
▁freaks	-10.7788
▁forms	-10.7791
▁graduate	-10.7817
▁summers	-10.7829
▁queens	-10.7852
for	-10.7869
▁handed	-10.79
▁whip	-10.7922
▁on	-10.7923
▁bark	-10.7924
▁coll	-10.7925
▁sigh	-10.7949
▁et	-10.7961
lady	-10.7965
▁costs	-10.7967
▁whisper	-10.7976
▁brook	-10.7989
▁generation	-10.8001
▁mobile	-10.8002
▁tab	-10.8002
nel	-10.8003
▁rebound	-10.8003
▁environment	-10.8006
▁organ	-10.8006
▁wagon	-10.8006
▁temperature	-10.8006
▁neighbor	-10.8011
▁pad	-10.8012
▁vampire	-10.8013
▁hose	-10.8015
▁comment	-10.8016
▁hurting	-10.8018
▁slam	-10.8019
▁buck	-10.8019
▁tribe	-10.8023
▁beside	-10.8024
ik	-10.8025
▁pole	-10.8026
▁strain	-10.803
ote	-10.8038
▁gi	-10.8038
▁vers	-10.804
▁degree	-10.8042
port	-10.8071
▁buzz	-10.8082
▁mil	-10.8088
▁transfer	-10.8092
▁travels	-10.8099
▁guessed	-10.8103
uv	-10.8105
▁parks	-10.8106
ov	-10.8108
▁hoi	-10.8129
▁aqu	-10.8129
down	-10.8131
point	-10.8142
▁meow	-10.8151
wood	-10.8151
board	-10.8152
▁drown	-10.8156
▁bumb	-10.8156
▁teenage	-10.8156
▁possess	-10.8157
▁corrupt	-10.816
▁aa	-10.816
minute	-10.816
pound	-10.816
▁soak	-10.8164
▁nail	-10.8164
ock	-10.8165
tail	-10.8167
▁mini	-10.8168
▁tempo	-10.8171
▁retire	-10.8177
▁delete	-10.8177
▁geez	-10.8177
▁convince	-10.8178
▁propose	-10.8178
▁machines	-10.8181
bell	-10.8181
▁torture	-10.8181
▁myth	-10.8182
▁hip	-10.8183
▁latin	-10.8184
▁awkward	-10.8186
▁hack	-10.8187
▁expose	-10.819
▁ledge	-10.8192
▁justin	-10.8192
▁puts	-10.8193
▁leap	-10.8194
▁elliot	-10.8195
▁actress	-10.8196
▁starve	-10.8197
lyn	-10.8197
▁recogni	-10.8198
lapping	-10.8198
▁helm	-10.8199
▁otto	-10.8199
▁confess	-10.8199
▁complex	-10.82
▁transport	-10.82
gged	-10.8201
▁nana	-10.8201
▁prophet	-10.8201
▁lazy	-10.8201
▁gossip	-10.8202
▁spectacular	-10.8202
▁ultimate	-10.8202
▁after	-10.8202
▁album	-10.8202
▁arizona	-10.8202
▁autumn	-10.8202
▁bainbridge	-10.8202
▁belief	-10.8202
▁bleating	-10.8202
▁bragdon	-10.8202
▁brautigan	-10.8202
▁butcher	-10.8202
▁cease	-10.8202
▁clamouring	-10.8202
▁collapse	-10.8202
▁companion	-10.8202
▁conspiracy	-10.8202
▁debenham	-10.8202
▁eleanor	-10.8202
▁enforcement	-10.8202
▁eternity	-10.8202
▁furniture	-10.8202
▁giggling	-10.8202
▁gretel	-10.8202
▁hufan	-10.8202
▁inevitable	-10.8202
▁insects	-10.8202
▁lawsuit	-10.8202
▁mccabe	-10.8202
▁mervyn	-10.8202
▁nagurski	-10.8202
▁negotiate	-10.8202
▁orellana	-10.8202
▁possibilities	-10.8202
▁practicing	-10.8202
▁prosecution	-10.8202
▁rendezvous	-10.8202
▁rustling	-10.8202
▁samurai	-10.8202
▁sanctuary	-10.8202
▁saperstein	-10.8202
▁seminar	-10.8202
▁submarine	-10.8202
▁superstud	-10.8202
▁terracotta	-10.8202
▁theatre	-10.8202
▁tokyo	-10.8202
▁tuesday	-10.8202
▁whiskey	-10.8202
▁ahkton	-10.8202
▁alcohol	-10.8202
▁duane	-10.8202
▁grandparents	-10.8202
▁hyell	-10.8202
▁importance	-10.8202
▁mellon	-10.8202
▁northeast	-10.8202
▁panicked	-10.8202
▁session	-10.8202
▁website	-10.8202
▁cancer	-10.8202
▁marmee	-10.8202
▁zoe	-10.8202
▁parsons	-10.8202
▁annual	-10.8202
▁barbara	-10.8202
▁naughty	-10.8202
▁melrose	-10.8202
▁naomi	-10.8202
▁freddy	-10.8202
▁rudy	-10.8202
▁willie	-10.8202
▁mabel	-10.8202
▁florence	-10.8202
▁mickey	-10.8202
▁mitat	-10.8202
▁autograph	-10.8202
▁louisville	-10.8202
▁superhero	-10.8202
▁electronic	-10.8202
▁felipe	-10.8202
▁facial	-10.8202
▁lesbian	-10.8202
▁bureau	-10.8202
▁uncover	-10.8202
▁slain	-10.8202
▁gabby	-10.8202
▁honour	-10.8202
▁kelly	-10.8202
▁loving	-10.8202
▁expensive	-10.8202
▁puff	-10.8202
▁hector	-10.8202
▁euro	-10.8202
▁puke	-10.8202
▁shatz	-10.8202
▁marvelous	-10.8202
▁paddle	-10.8202
▁argue	-10.8202
▁wesley	-10.8202
▁straussman	-10.8202
▁ringtone	-10.8202
▁carved	-10.8202
▁canada	-10.8202
▁oana	-10.8202
▁reference	-10.8202
▁network	-10.8202
▁flashlight	-10.8202
▁skirt	-10.8202
▁addition	-10.8202
▁donnie	-10.8202
▁saddle	-10.8202
▁scent	-10.8202
▁medium	-10.8203
▁caii	-10.8203
▁crust	-10.8203
▁slim	-10.8203
▁accompany	-10.8203
▁josephine	-10.8203
▁regina	-10.8203
▁hush	-10.8203
▁soho	-10.8203
▁swimmer	-10.8203
▁glue	-10.8203
▁review	-10.8203
▁development	-10.8203
▁detain	-10.8203
▁marcus	-10.8203
▁yuck	-10.8203
ckle	-10.8203
▁remarkable	-10.8203
▁malkin	-10.8203
▁geist	-10.8203
▁dazzle	-10.8203
▁basis	-10.8203
▁flaw	-10.8203
▁humor	-10.8203
▁ir	-10.8203
▁production	-10.8204
▁recommendation	-10.8204
▁lucy	-10.8204
▁youse	-10.8204
▁fluid	-10.8204
▁chef	-10.8204
▁membership	-10.8204
▁hanover	-10.8204
▁donation	-10.8204
▁renewal	-10.8204
▁woah	-10.8204
▁and	-10.8204
▁supply	-10.8204
▁frame	-10.8204
▁chores	-10.8204
▁hardware	-10.8204
▁rash	-10.8204
▁moron	-10.8204
▁role	-10.8205
▁cities	-10.8205
▁fruit	-10.8205
▁puppy	-10.8205
▁kansas	-10.8205
▁temporary	-10.8205
▁roland	-10.8205
▁compass	-10.8205
▁confirmation	-10.8206
▁alley	-10.8206
▁tenure	-10.8206
▁grandson	-10.8206
▁ross	-10.8206
▁dentist	-10.8206
▁chapel	-10.8206
▁legacy	-10.8207
▁editor	-10.8207
▁choke	-10.8207
▁dime	-10.8207
▁slight	-10.8207
▁sunny	-10.8208
▁lecture	-10.8208
▁waitress	-10.8208
▁ohhh	-10.8208
▁patches	-10.8209
▁shallow	-10.8209
▁grey	-10.8209
▁surrounded	-10.8209
▁abbie	-10.8209
▁freshman	-10.8209
▁peru	-10.8209
▁imperial	-10.8209
▁splashes	-10.821
▁takin	-10.821
▁kim	-10.8211
▁maze	-10.8211
▁rack	-10.8212
▁rollie	-10.8212
actical	-10.8214
▁jb	-10.8215
▁andrea	-10.8216
▁tore	-10.8216
▁consequences	-10.8216
▁publishing	-10.8217
▁indiana	-10.8217
▁infected	-10.8218
▁vanished	-10.8218
▁transferred	-10.8218
▁larger	-10.8219
▁passage	-10.8219
▁tender	-10.8221
▁unlikely	-10.8222
▁raging	-10.8222
▁bench	-10.8222
▁nest	-10.8222
▁activated	-10.8223
▁resolve	-10.8223
▁brat	-10.8224
▁sage	-10.8224
▁retired	-10.8225
▁photography	-10.8225
▁sixth	-10.8227
▁core	-10.8227
▁connected	-10.8228
▁uk	-10.8228
▁baii	-10.8231
▁exposed	-10.8232
▁hatch	-10.8233
▁cheaper	-10.8234
▁uhoh	-10.8235
▁what	-10.8235
▁clothing	-10.8236
▁marion	-10.8236
▁victoria	-10.8236
▁guaranteed	-10.8237
▁nailed	-10.8238
martial	-10.824
▁laser	-10.824
▁fingerprints	-10.824
▁politics	-10.8241
▁linked	-10.8242
▁correctly	-10.8242
▁included	-10.8243
▁buyers	-10.8244
▁threatened	-10.8246
▁rank	-10.8246
▁unh	-10.8246
▁stack	-10.8247
▁separated	-10.8249
▁whod	-10.825
▁twisted	-10.8251
▁friggin	-10.8252
▁switcher	-10.8253
ersk	-10.8255
▁alas	-10.826
▁classes	-10.826
▁intended	-10.8265
▁sings	-10.8265
▁kin	-10.827
▁wi	-10.8273
▁gathered	-10.8274
▁abandoned	-10.8274
▁spoiled	-10.8274
wright	-10.8276
uld	-10.8279
rary	-10.8281
▁introduced	-10.8284
pot	-10.8286
▁cocks	-10.8291
▁panthers	-10.8291
▁operatives	-10.8291
▁poll	-10.8292
▁owens	-10.8294
▁houseman	-10.8298
▁invade	-10.8298
▁ricky	-10.8306
▁busted	-10.8309
▁tut	-10.8313
▁requested	-10.8314
▁judged	-10.8333
did	-10.8341
▁cents	-10.8342
▁outlaws	-10.8342
fir	-10.8349
▁borrowed	-10.8355
▁beard	-10.8363
▁colored	-10.8366
▁rattles	-10.8367
▁posted	-10.8382
▁historical	-10.8384
with	-10.8395
▁tippe	-10.8398
books	-10.84
▁je	-10.8401
▁treated	-10.8407
ace	-10.841
▁carla	-10.8416
▁importantly	-10.842
gi	-10.8423
▁shown	-10.8426
▁fears	-10.8431
▁skipp	-10.8437
▁hats	-10.8438
lock	-10.844
▁sch	-10.844
kin	-10.8449
▁socks	-10.847
bar	-10.847
▁emails	-10.8471
▁citizens	-10.8471
ja	-10.8473
▁invest	-10.848
▁safely	-10.8488
ator	-10.8507
▁ducks	-10.8521
▁warriors	-10.8522
manship	-10.853
ica	-10.8537
▁del	-10.8558
▁drugg	-10.8559
▁thuds	-10.8574
▁paintings	-10.8575
▁laps	-10.8578
▁this	-10.8579
▁sow	-10.8583
▁endure	-10.8584
▁landed	-10.8586
dale	-10.8593
▁enjoyed	-10.8604
▁bru	-10.8626
vy	-10.864
▁mc	-10.8646
▁workin	-10.8646
▁own	-10.8658
▁diplomat	-10.867
ien	-10.8678
▁lovers	-10.868
▁concentrate	-10.8727
▁attacking	-10.8727
▁seals	-10.8729
▁bottles	-10.873
▁sl	-10.8743
▁wei	-10.8751
▁pace	-10.8774
▁achieve	-10.8777
uck	-10.8809
▁explosives	-10.8841
▁fur	-10.8846
▁howe	-10.8852
▁zoo	-10.8853
▁kindly	-10.8853
ove	-10.886
▁chains	-10.8865
▁ja	-10.8867
▁hopes	-10.8871
▁hills	-10.8914
▁bu	-10.8927
▁swa	-10.8929
▁scale	-10.8937
▁pilots	-10.894
otic	-10.8943
▁pursu	-10.8944
▁wished	-10.8951
erial	-10.8966
▁scarf	-10.8973
▁heroic	-10.8977
eur	-10.8981
▁kar	-10.8983
▁butts	-10.8995
tr	-10.8997
▁screws	-10.8997
ned	-10.8998
▁ironic	-10.9002
▁not	-10.9008
▁talents	-10.9022
ire	-10.9051
ological	-10.9053
run	-10.9054
je	-10.906
▁sayin	-10.9071
▁spells	-10.9073
gging	-10.9081
bs	-10.9086
▁overhea	-10.9098
▁accelerate	-10.9108
▁submit	-10.9119
hi	-10.9129
▁cre	-10.9133
▁chat	-10.9134
▁signs	-10.9141
▁cakes	-10.9153
ara	-10.9158
pin	-10.9166
▁counselors	-10.918
▁reminds	-10.9191
▁fil	-10.9216
eye	-10.9218
▁lifes	-10.9246
▁ski	-10.9254
▁seas	-10.9263
cher	-10.9265
ru	-10.9289
▁resting	-10.9296
▁determine	-10.9351
▁til	-10.9367
lia	-10.9374
home	-10.9382
▁volunteer	-10.9393
▁ages	-10.9397
ini	-10.9412
▁creep	-10.9414
hai	-10.9418
▁jokes	-10.9427
▁height	-10.9428
▁nerve	-10.9429
▁resume	-10.943
▁disconnect	-10.943
use	-10.943
▁individual	-10.9436
▁content	-10.9438
▁habit	-10.9439
▁string	-10.944
▁flame	-10.9442
▁bore	-10.9443
▁rattle	-10.9444
▁cloud	-10.9446
▁groups	-10.9449
▁ham	-10.9449
▁shark	-10.945
▁lip	-10.9453
▁here	-10.9454
▁customer	-10.946
▁wha	-10.9476
▁serv	-10.9481
▁carrie	-10.9495
▁origin	-10.9502
▁manner	-10.9505
ating	-10.9505
▁lim	-10.9521
▁cycl	-10.9528
▁boost	-10.9536
▁scor	-10.9542
ified	-10.9548
▁gag	-10.9553
hr	-10.9561
hole	-10.9567
▁bars	-10.9567
▁blam	-10.9569
▁brief	-10.9573
▁jeep	-10.9574
▁discover	-10.958
▁app	-10.9582
bound	-10.9583
▁echo	-10.9584
strom	-10.9585
grade	-10.9585
mount	-10.9586
keep	-10.9588
level	-10.9588
free	-10.9589
armed	-10.9591
▁lei	-10.9591
ifer	-10.9592
▁haunt	-10.9593
▁establish	-10.9593
two	-10.9594
▁frighten	-10.9595
▁gra	-10.9602
▁arrange	-10.9604
▁execute	-10.9605
hold	-10.9605
▁relieve	-10.9607
band	-10.9607
ken	-10.9608
▁capture	-10.9609
▁hom	-10.9612
▁wealth	-10.9614
▁paranoi	-10.9617
▁technical	-10.9618
▁unfortunate	-10.9618
▁recent	-10.9619
▁guilt	-10.962
titude	-10.962
▁gran	-10.9621
▁restore	-10.9621
▁trib	-10.9622
▁ske	-10.9622
▁accuse	-10.9623
▁charm	-10.9623
zing	-10.9626
▁grocer	-10.9627
▁salvat	-10.9627
day	-10.9628
▁joseph	-10.9629
iscount	-10.9629
▁movin	-10.9629
▁troll	-10.9629
▁casual	-10.963
▁japan	-10.963
▁abroad	-10.963
▁alibi	-10.963
▁alliance	-10.963
▁apologies	-10.963
▁authentic	-10.963
▁avocet	-10.963
▁bargain	-10.963
▁basilwether	-10.963
▁blanton	-10.963
▁bollocks	-10.963
▁bootstrap	-10.963
▁bounty	-10.963
▁canadian	-10.963
▁ceremony	-10.963
▁column	-10.963
▁concrete	-10.963
▁corporate	-10.963
▁corporation	-10.963
▁covenant	-10.963
▁derail	-10.963
▁dessert	-10.963
▁dignity	-10.963
▁doubledecker	-10.963
▁earthquake	-10.963
▁einstein	-10.963
▁election	-10.963
▁encrypted	-10.963
▁fulfill	-10.963
▁graziella	-10.963
▁hermano	-10.963
▁horizon	-10.963
▁innocence	-10.963
▁invitation	-10.963
▁istanbul	-10.963
▁jacqueline	-10.963
▁majesty	-10.963
▁manslaughter	-10.963
▁omaha	-10.963
▁parliament	-10.963
▁plaza	-10.963
▁porsche	-10.963
▁prague	-10.963
▁rachette	-10.963
▁rebel	-10.963
▁receipt	-10.963
▁response	-10.963
▁retreat	-10.963
▁ritual	-10.963
▁sabbac	-10.963
▁sherwood	-10.963
▁spencer	-10.963
▁stutters	-10.963
▁supreme	-10.963
▁tamtam	-10.963
▁teresa	-10.963
▁terrence	-10.963
▁thompson	-10.963
▁thursday	-10.963
▁tomatoes	-10.963
▁turkey	-10.963
▁wrench	-10.963
▁alexander	-10.963
▁bilal	-10.963
▁bodyguard	-10.963
▁confusing	-10.963
▁drysdale	-10.963
▁identity	-10.963
▁otis	-10.963
▁shawnzy	-10.963
▁throne	-10.963
▁diora	-10.963
▁dorm	-10.963
▁knit	-10.963
▁motel	-10.963
▁steak	-10.963
▁terra	-10.963
▁tweet	-10.963
▁entry	-10.963
▁mimic	-10.963
▁barbital	-10.963
▁eighteen	-10.963
▁relay	-10.963
▁application	-10.963
▁hauser	-10.963
▁snorts	-10.963
▁assigned	-10.963
▁facility	-10.963
▁morgan	-10.963
▁lottery	-10.963
▁offensive	-10.963
▁nigga	-10.963
▁vouch	-10.963
▁whitfield	-10.963
▁cocktail	-10.963
▁fond	-10.963
▁definition	-10.963
▁regain	-10.963
▁immunity	-10.963
▁jelly	-10.963
▁mcallister	-10.963
▁narrat	-10.963
▁amanda	-10.963
▁notify	-10.963
▁grease	-10.963
▁fringe	-10.963
▁stephanie	-10.963
▁cappuccino	-10.963
▁delegation	-10.963
▁elimination	-10.963
▁kidnapping	-10.963
▁departure	-10.963
▁improvise	-10.963
▁actuary	-10.963
▁douchebag	-10.963
▁venture	-10.963
▁beware	-10.963
▁creating	-10.963
▁housing	-10.963
▁blend	-10.963
▁endurance	-10.963
▁ladder	-10.963
▁rubbish	-10.963
▁acquire	-10.963
▁priest	-10.963
▁humble	-10.963
▁governess	-10.963
▁ahoy	-10.9631
▁karno	-10.9631
▁organized	-10.9631
▁hunchback	-10.9631
▁bunny	-10.9631
▁thudding	-10.9631
▁amigo	-10.9631
▁psst	-10.9631
▁edwin	-10.9631
▁chemistry	-10.9631
▁castroville	-10.9631
▁activity	-10.9631
▁sharkey	-10.9631
▁aggressive	-10.9631
▁translation	-10.9631
▁clay	-10.9631
▁rotten	-10.9631
▁sydney	-10.9631
▁savage	-10.9631
▁roast	-10.9631
▁reservation	-10.9631
▁absence	-10.9631
▁jeweller	-10.9631
▁overcome	-10.9631
▁allergic	-10.9631
▁ferry	-10.9631
▁boogie	-10.9631
▁reform	-10.9631
▁peaceful	-10.9631
▁tox	-10.9631
▁chug	-10.9631
▁attic	-10.9631
ternal	-10.9631
▁chopper	-10.9631
▁seventeen	-10.9631
▁oops	-10.9631
▁hodge	-10.9631
▁yuri	-10.9631
▁linny	-10.9631
▁wives	-10.9631
▁sequence	-10.9631
▁bicycle	-10.9632
▁pancakes	-10.9632
▁broad	-10.9632
▁sober	-10.9632
▁goatee	-10.9632
▁ivan	-10.9632
▁toad	-10.9632
▁massage	-10.9632
▁dixon	-10.9632
▁soda	-10.9632
▁poland	-10.9632
▁della	-10.9632
eau	-10.9632
▁deploy	-10.9632
▁appearance	-10.9632
▁permitted	-10.9632
▁fourteen	-10.9632
▁assistance	-10.9632
▁beef	-10.9632
▁internal	-10.9633
▁leadership	-10.9633
▁whoohoo	-10.9633
▁harsh	-10.9633
▁bourget	-10.9633
▁buckle	-10.9633
▁rico	-10.9633
▁orphanage	-10.9633
▁terry	-10.9633
▁beings	-10.9633
▁elves	-10.9633
▁rowan	-10.9633
▁joyce	-10.9634
▁hex	-10.9634
▁population	-10.9634
▁significant	-10.9634
▁norman	-10.9634
▁coke	-10.9634
▁childhood	-10.9634
▁khan	-10.9635
▁slit	-10.9635
▁poppy	-10.9635
▁robinson	-10.9635
▁culture	-10.9635
▁debra	-10.9635
▁atom	-10.9636
▁compromised	-10.9636
▁strangled	-10.9636
▁choo	-10.9636
▁unlock	-10.9636
▁european	-10.9636
▁shipping	-10.9636
▁rabbit	-10.9637
▁expression	-10.9637
▁sour	-10.9637
▁haul	-10.9637
▁skies	-10.9637
▁superb	-10.9638
▁affection	-10.9638
▁dickie	-10.9638
▁allowance	-10.9639
▁bowman	-10.9639
▁injured	-10.9639
▁spain	-10.964
▁tomas	-10.964
▁davidson	-10.964
▁regional	-10.964
▁controlled	-10.9641
▁cliff	-10.9641
▁footage	-10.9641
▁howling	-10.9642
▁felony	-10.9642
ition	-10.9642
▁ew	-10.9643
▁slot	-10.9643
▁hail	-10.9643
▁minor	-10.9643
▁published	-10.9644
▁convicted	-10.9644
▁steven	-10.9644
▁wah	-10.9645
▁sig	-10.9645
▁moaning	-10.9645
▁accidentally	-10.9645
▁bind	-10.9645
▁kicks	-10.9645
▁bedtime	-10.9646
▁info	-10.9646
▁friendship	-10.9647
▁onion	-10.9648
▁bugging	-10.9648
▁diner	-10.9648
▁ap	-10.9649
▁protective	-10.9649
▁wander	-10.965
▁july	-10.9652
▁flies	-10.9652
▁cuban	-10.9653
▁version	-10.9654
▁collection	-10.9654
▁rod	-10.9655
▁experimental	-10.9656
▁clattering	-10.9656
▁clearance	-10.9656
▁sway	-10.9659
▁plum	-10.9659
▁beaten	-10.966
▁realise	-10.966
▁approved	-10.966
▁cried	-10.966
▁soap	-10.9663
▁ripping	-10.9664
▁rounds	-10.9665
▁tortured	-10.9665
▁marie	-10.9666
▁frightened	-10.9666
▁honorable	-10.9667
▁positions	-10.9667
▁setup	-10.9671
▁taha	-10.9673
▁taller	-10.9674
▁charming	-10.9677
▁eaten	-10.9679
▁li	-10.9682
rel	-10.9686
▁lick	-10.969
▁hmmm	-10.9692
bas	-10.9694
undle	-10.9694
about	-10.97
▁jonesy	-10.9705
▁coordinates	-10.9706
▁mixed	-10.971
▁detailed	-10.9711
▁pounding	-10.9715
▁brid	-10.9716
▁ban	-10.9718
▁era	-10.9719
if	-10.9719
▁hardest	-10.9724
▁martini	-10.9724
▁removed	-10.9726
▁gringos	-10.9734
▁praying	-10.9736
tempo	-10.9739
▁chased	-10.9741
▁climbed	-10.9743
▁pips	-10.9745
▁smarter	-10.9748
▁nasa	-10.9758
▁oldest	-10.9763
▁conductors	-10.9765
▁hunted	-10.9766
▁homes	-10.9768
▁butter	-10.9781
▁clutch	-10.9787
▁cron	-10.9788
▁survived	-10.9789
▁symbols	-10.9793
▁crashed	-10.9793
▁lifted	-10.9794
▁instincts	-10.9794
▁pyramids	-10.9794
▁rem	-10.9799
▁deals	-10.98
▁rely	-10.9804
▁requesting	-10.9805
▁christie	-10.9805
▁painted	-10.9806
▁rangers	-10.9811
▁suggesting	-10.9817
▁carries	-10.9818
▁sen	-10.9828
▁needle	-10.9837
▁sole	-10.9844
▁tracked	-10.9845
▁poles	-10.9854
▁neighbors	-10.9854
▁comments	-10.9854
▁bands	-10.9855
▁hoses	-10.9855
▁ruth	-10.9857
▁tribes	-10.986
▁differently	-10.9875
ester	-10.9876
▁pd	-10.9876
power	-10.9878
▁stinks	-10.9883
▁watches	-10.9883
▁clowns	-10.9884
▁costumes	-10.9884
▁makeup	-10.9893
▁nails	-10.9897
▁lightly	-10.9901
▁memori	-10.9905
▁caves	-10.9914
▁cigarettes	-10.9914
▁cobras	-10.9914
▁fart	-10.9914
▁exp	-10.9915
▁fund	-10.9917
▁determin	-10.9918
▁floors	-10.9941
▁cages	-10.9943
nine	-10.9944
▁buttons	-10.9946
▁treating	-10.995
sized	-10.9953
mez	-10.996
cho	-10.9966
▁cannons	-10.9974
▁nightmares	-10.9974
▁photographs	-10.9975
▁closely	-10.9978
▁undetect	-10.9997
logical	-11.0001
▁payments	-11.0004
▁nations	-11.0008
▁meets	-11.0009
lnglng	-11.0012
▁novels	-11.003
ward	-11.0034
▁plastics	-11.0034
▁wires	-11.0035
▁kicking	-11.0038
▁logs	-11.0039
▁troubled	-11.004
gue	-11.0048
▁feelin	-11.0061
▁traces	-11.0062
▁rockets	-11.0067
▁seats	-11.0071
▁sucker	-11.0073
▁calle	-11.0084
nte	-11.0089
fia	-11.0098
tra	-11.0101
▁gardener	-11.0102
▁arabia	-11.0111
▁scars	-11.0117
▁chicks	-11.0125
ology	-11.0143
▁nicer	-11.0148
▁sting	-11.0149
▁gunshots	-11.0156
▁accelerat	-11.018
▁claims	-11.0187
▁matt	-11.0196
era	-11.0209
▁grounds	-11.0211
ench	-11.0223
meter	-11.0223
▁protected	-11.0232
▁flick	-11.0238
▁castles	-11.0246
▁inn	-11.0255
▁bush	-11.0256
▁vo	-11.0259
▁ties	-11.0275
▁gla	-11.0303
▁winnings	-11.0308
▁declar	-11.0311
▁answered	-11.0315
gh	-11.0352
ico	-11.0366
▁circles	-11.0369
bol	-11.0374
iac	-11.0379
▁limo	-11.038
tan	-11.0386
▁stu	-11.039
rah	-11.0402
mate	-11.0426
▁doyles	-11.0432
hu	-11.0449
▁corn	-11.0451
ois	-11.0454
▁tongues	-11.0463
▁verd	-11.0479
▁ib	-11.0487
▁instruments	-11.0494
ris	-11.0494
▁tu	-11.0496
ives	-11.0506
▁plato	-11.0546
▁interests	-11.0563
▁monkey	-11.0566
tal	-11.0573
ria	-11.0587
ike	-11.0592
▁cri	-11.0593
▁contacts	-11.0597
former	-11.0601
urn	-11.0614
cat	-11.0616
▁waiter	-11.0618
▁loops	-11.0619
egitimate	-11.0632
▁exceptional	-11.0657
ead	-11.0662
▁ref	-11.0666
hop	-11.0666
▁scrap	-11.0671
▁gal	-11.0683
owed	-11.0711
▁decisions	-11.0712
shire	-11.0746
top	-11.0805
▁tours	-11.0837
loo	-11.0837
▁tire	-11.0845
▁milt	-11.085
▁tops	-11.0852
▁sar	-11.086
▁eats	-11.0866
▁shirts	-11.0869
ttle	-11.0869
lum	-11.0889
zie	-11.0891
▁cuts	-11.0904
ito	-11.0924
ught	-11.0924
▁nove	-11.0938
▁plug	-11.0942
▁kha	-11.0956
year	-11.0961
▁boot	-11.0978
▁lil	-11.0984
▁leaders	-11.0987
▁patrol	-11.0994
▁fits	-11.1019
▁indulge	-11.1027
▁knocks	-11.1033
▁assassin	-11.1035
▁knee	-11.1046
take	-11.1052
▁houses	-11.1062
▁emerge	-11.1064
▁method	-11.1064
ify	-11.1065
ice	-11.1066
oma	-11.1077
▁sum	-11.1081
▁blo	-11.1084
▁slave	-11.1086
▁maneuver	-11.1087
▁corpse	-11.1087
▁suitcase	-11.1088
▁institution	-11.1096
▁crane	-11.1097
▁translate	-11.1097
▁await	-11.1099
▁bunk	-11.1101
▁heel	-11.1102
▁chamber	-11.1103
▁banana	-11.1105
▁orc	-11.1105
▁pyramid	-11.1107
▁instinct	-11.1107
▁cent	-11.1108
▁outlaw	-11.1108
▁diamond	-11.111
▁passenger	-11.1114
▁visitor	-11.1124
▁meetings	-11.113
acks	-11.1131
▁baron	-11.1137
▁rig	-11.1143
wo	-11.1148
▁combin	-11.1162
▁anybodys	-11.1169
▁symbol	-11.1169
horn	-11.1181
ggy	-11.1186
▁owes	-11.1186
▁cal	-11.1187
▁connect	-11.1195
▁gri	-11.1198
▁automatic	-11.1205
▁chang	-11.1205
▁disappoint	-11.1211
▁mat	-11.1211
▁disturb	-11.1215
▁ranger	-11.122
▁mode	-11.1221
▁believes	-11.1223
▁wig	-11.1226
▁fold	-11.1234
▁continu	-11.1237
rie	-11.1241
field	-11.1244
▁abu	-11.1244
▁glow	-11.1248
▁develop	-11.1248
▁greet	-11.1249
▁cloth	-11.1249
▁bake	-11.125
▁troubles	-11.125
▁chirp	-11.1252
load	-11.1254
patient	-11.1254
▁profession	-11.1254
▁caus	-11.1255
track	-11.1255
seven	-11.1256
who	-11.1256
▁betray	-11.1256
eight	-11.1261
that	-11.1263
▁swor	-11.1266
hard	-11.1268
gage	-11.1269
▁advertise	-11.1271
called	-11.1272
▁involve	-11.1277
▁commission	-11.1279
door	-11.1279
▁mocking	-11.1281
▁croc	-11.1283
put	-11.1283
▁specific	-11.1284
▁comp	-11.1284
inlaw	-11.1285
▁throb	-11.1288
▁inject	-11.1289
▁shush	-11.129
▁sketch	-11.129
▁leavin	-11.129
cap	-11.1291
▁forge	-11.1292
▁keen	-11.1292
▁tee	-11.1293
▁reflect	-11.1294
▁comfort	-11.1294
▁congress	-11.1294
▁rhythm	-11.1294
▁region	-11.1294
▁lauren	-11.1295
▁transit	-11.1295
azzle	-11.1296
▁kev	-11.1296
▁virtu	-11.1296
▁gibber	-11.1296
▁favour	-11.1296
▁stir	-11.1296
▁douche	-11.1297
▁divin	-11.1297
▁descend	-11.1297
▁griev	-11.1297
▁abilities	-11.1297
▁adrianna	-11.1297
▁algebra	-11.1297
▁almighty	-11.1297
▁amateur	-11.1297
▁amazon	-11.1297
▁anniversary	-11.1297
▁appreciation	-11.1297
▁approval	-11.1297
▁arrogant	-11.1297
▁azeem	-11.1297
▁banished	-11.1297
▁bianca	-11.1297
▁biscuit	-11.1297
▁blindfold	-11.1297
▁boggart	-11.1297
▁cadby	-11.1297
▁cadillac	-11.1297
▁canvas	-11.1297
▁capitol	-11.1297
▁cassetti	-11.1297
▁cindy	-11.1297
▁circuit	-11.1297
▁cleveland	-11.1297
▁cockernorris	-11.1297
▁curiosity	-11.1297
▁dassault	-11.1297
▁decency	-11.1297
▁deputy	-11.1297
▁disrupt	-11.1297
▁distinct	-11.1297
▁encounter	-11.1297
▁episode	-11.1297
▁excitement	-11.1297
▁franchise	-11.1297
▁garcia	-11.1297
▁genuine	-11.1297
▁harvard	-11.1297
▁hurricane	-11.1297
▁hurut	-11.1297
▁hydrangeas	-11.1297
▁hydro	-11.1297
▁imprison	-11.1297
▁indefinite	-11.1297
▁injuries	-11.1297
▁isthmus	-11.1297
▁jennifer	-11.1297
▁jeopardy	-11.1297
▁kazik	-11.1297
▁khabarov	-11.1297
▁kilometers	-11.1297
▁kremlin	-11.1297
▁landscape	-11.1297
▁lebanon	-11.1297
▁magazine	-11.1297
▁mandatory	-11.1297
▁mascot	-11.1297
▁mcguire	-11.1297
▁merchant	-11.1297
▁mohiam	-11.1297
▁montana	-11.1297
▁noose	-11.1297
▁oldfashioned	-11.1297
▁oscillator	-11.1297
▁oui	-11.1297
▁overwhelming	-11.1297
▁pakhan	-11.1297
▁parachute	-11.1297
▁parlor	-11.1297
▁perspective	-11.1297
▁philosoph	-11.1297
▁piracy	-11.1297
▁pledge	-11.1297
▁prairie	-11.1297
▁primus	-11.1297
▁prometheus	-11.1297
▁promotion	-11.1297
▁proposal	-11.1297
▁quarantine	-11.1297
▁raccoon	-11.1297
▁railroad	-11.1297
▁refuge	-11.1297
▁renown	-11.1297
▁rodriguez	-11.1297
▁scientific	-11.1297
▁scotch	-11.1297
▁seokhyeon	-11.1297
▁species	-11.1297
▁sperm	-11.1297
▁staples	-11.1297
▁tecopa	-11.1297
▁triangle	-11.1297
▁trousers	-11.1297
▁unfair	-11.1297
▁unmask	-11.1297
▁vacuum	-11.1297
▁veatch	-11.1297
▁vegetable	-11.1297
▁verifying	-11.1297
▁vinegar	-11.1297
▁yeehaw	-11.1297
▁yoruba	-11.1297
▁yuetmui	-11.1297
▁appeal	-11.1297
▁backpack	-11.1297
▁berlin	-11.1297
▁couid	-11.1297
▁darcy	-11.1297
▁fierce	-11.1297
▁fraud	-11.1297
▁ganz	-11.1297
▁gootoh	-11.1297
▁hyper	-11.1297
▁manufactur	-11.1297
▁oink	-11.1297
▁oooh	-11.1297
▁pioneer	-11.1297
▁radius	-11.1297
▁savoy	-11.1297
▁shakily	-11.1297
▁snarl	-11.1297
▁tennis	-11.1297
▁tepes	-11.1297
▁tobias	-11.1297
▁warehouse	-11.1297
▁wouid	-11.1297
▁chancellor	-11.1297
▁invasion	-11.1297
▁lounge	-11.1297
▁neutralize	-11.1297
▁pyong	-11.1297
▁torch	-11.1297
▁murray	-11.1297
▁october	-11.1297
▁transmission	-11.1297
▁bleach	-11.1297
▁candle	-11.1297
▁gorilla	-11.1297
▁harmony	-11.1297
▁daisies	-11.1297
▁dunkirk	-11.1297
▁fiona	-11.1297
▁fumes	-11.1297
▁programmed	-11.1297
▁studied	-11.1297
wurst	-11.1297
▁countries	-11.1297
▁dandy	-11.1297
▁imitating	-11.1297
▁rosie	-11.1297
▁terminal	-11.1297
▁unstable	-11.1297
▁transaction	-11.1297
▁appetite	-11.1297
▁shannon	-11.1297
▁mankind	-11.1297
▁thread	-11.1297
▁patriot	-11.1297
▁commercial	-11.1297
▁goddess	-11.1297
▁rochester	-11.1297
▁comms	-11.1297
▁illinois	-11.1297
▁pepper	-11.1297
▁conscience	-11.1297
▁spank	-11.1297
▁assuming	-11.1297
parallel	-11.1297
▁haywood	-11.1297
▁tread	-11.1297
▁distribution	-11.1297
▁launder	-11.1297
▁washburn	-11.1297
▁chimney	-11.1297
▁depart	-11.1297
▁exceed	-11.1297
▁infrared	-11.1297
▁refrigerator	-11.1297
▁thailand	-11.1297
▁acquaintance	-11.1297
▁astern	-11.1297
▁garlic	-11.1297
▁belay	-11.1297
▁fortress	-11.1297
▁puddle	-11.1297
▁sixteen	-11.1297
▁snoke	-11.1297
▁bluegrass	-11.1297
▁frolic	-11.1297
▁burger	-11.1297
▁michel	-11.1297
▁proposition	-11.1297
▁martian	-11.1297
▁bradley	-11.1297
▁goob	-11.1297
▁monica	-11.1297
▁syria	-11.1297
scope	-11.1297
▁debris	-11.1297
▁unnecessary	-11.1297
▁theft	-11.1297
▁grazie	-11.1297
▁casa	-11.1297
▁gerald	-11.1297
▁display	-11.1297
▁debbie	-11.1297
▁admiralty	-11.1297
▁civilized	-11.1297
▁claw	-11.1298
▁broadway	-11.1298
▁marquez	-11.1298
▁friar	-11.1298
▁instance	-11.1298
▁twentyfive	-11.1298
▁sissy	-11.1298
▁inviting	-11.1298
▁psychological	-11.1298
▁tyrell	-11.1298
▁detonator	-11.1298
▁beans	-11.1298
▁sinner	-11.1298
▁obey	-11.1298
▁investigating	-11.1298
▁yankee	-11.1298
▁overdue	-11.1298
▁vibe	-11.1298
▁nunca	-11.1298
▁preparation	-11.1298
▁twentytwo	-11.1298
▁whitehall	-11.1298
▁wolves	-11.1298
▁trey	-11.1298
▁isolation	-11.1298
▁addict	-11.1298
▁lupe	-11.1298
▁laura	-11.1298
▁seoul	-11.1298
▁concentration	-11.1298
▁liking	-11.1298
▁mouse	-11.1298
▁rashid	-11.1298
▁salome	-11.1298
▁racket	-11.1298
▁rafi	-11.1298
▁password	-11.1298
▁tomasz	-11.1299
▁barrel	-11.1299
▁dickens	-11.1299
▁conqueror	-11.1299
▁samuel	-11.1299
▁shortcut	-11.1299
▁nude	-11.1299
▁pronounce	-11.1299
▁begun	-11.1299
▁coop	-11.1299
▁defence	-11.1299
▁merci	-11.1299
▁achievement	-11.1299
▁upside	-11.1299
▁obliged	-11.1299
▁colombian	-11.1299
▁oak	-11.1299
▁museum	-11.1299
oya	-11.13
▁whirs	-11.13
▁sunset	-11.13
▁adorable	-11.13
▁jewelry	-11.13
▁handwriting	-11.13
▁imply	-11.13
▁jury	-11.13
▁wallace	-11.13
▁slightest	-11.13
▁lionel	-11.13
▁therell	-11.13
▁conta	-11.13
▁honda	-11.13
▁rehearsal	-11.13
▁hull	-11.1301
▁campbell	-11.1301
▁factionless	-11.1301
▁keel	-11.1301
▁rail	-11.1301
▁shuttle	-11.1301
▁increase	-11.1301
▁playground	-11.1301
▁pigeon	-11.1301
▁operating	-11.1301
▁laundry	-11.1301
▁salary	-11.1301
▁baking	-11.1301
▁almay	-11.1301
away	-11.1301
▁psychic	-11.1301
▁attached	-11.1301
▁bonus	-11.1301
▁churchill	-11.1301
▁wage	-11.1301
▁frustrating	-11.1302
▁burden	-11.1302
▁punt	-11.1302
▁waist	-11.1302
▁injection	-11.1302
▁aries	-11.1302
▁speedway	-11.1302
inister	-11.1302
▁shaman	-11.1303
▁largest	-11.1303
▁genetic	-11.1303
▁scarlett	-11.1303
▁scalp	-11.1303
theless	-11.1303
▁kylie	-11.1303
▁cherish	-11.1304
▁colony	-11.1304
▁aww	-11.1304
▁oz	-11.1304
▁brotherinlaw	-11.1304
▁headache	-11.1304
▁gently	-11.1305
▁checkpoint	-11.1305
▁voca	-11.1305
▁alfa	-11.1306
▁burst	-11.1306
▁nile	-11.1306
▁dough	-11.1306
▁franz	-11.1306
▁goddaughter	-11.1306
▁godfather	-11.1306
▁branches	-11.1307
▁distinguished	-11.1307
▁instructed	-11.1307
▁flattered	-11.1307
▁ranch	-11.1307
▁insur	-11.1307
▁priceless	-11.1308
▁ahhh	-11.1309
▁spies	-11.1309
elected	-11.1309
▁fries	-11.1309
▁muffin	-11.1309
▁phrase	-11.1309
▁dna	-11.131
▁addie	-11.131
▁flown	-11.131
▁leaf	-11.131
▁typing	-11.1311
▁altitude	-11.1311
▁specialist	-11.1312
▁ability	-11.1312
▁comedy	-11.1312
▁presentation	-11.1313
▁freeway	-11.1313
▁rooster	-11.1313
▁happier	-11.1313
▁accomplished	-11.1313
▁haha	-11.1313
▁preach	-11.1314
▁madness	-11.1314
▁dong	-11.1314
▁disable	-11.1315
ggle	-11.1315
▁smasher	-11.1315
▁arden	-11.1316
wer	-11.1316
▁mic	-11.1316
▁profile	-11.1317
▁applicants	-11.1317
▁globetrotters	-11.1317
▁lyrics	-11.1317
gious	-11.1317
▁quint	-11.1317
▁farmers	-11.1317
▁tapping	-11.1317
▁therapy	-11.1317
▁mothership	-11.1318
▁floating	-11.1319
▁adopted	-11.132
▁reaper	-11.1321
▁auntie	-11.1322
▁claus	-11.1323
▁product	-11.1323
▁prop	-11.1324
▁relieved	-11.1325
▁ahem	-11.1325
▁copies	-11.1326
▁reply	-11.1327
▁jen	-11.1327
▁spraying	-11.1327
▁vibrating	-11.1327
▁weeping	-11.1328
▁convinced	-11.1329
▁proposed	-11.1329
▁witnesses	-11.133
▁mild	-11.133
▁herd	-11.133
▁clanking	-11.133
▁crashes	-11.1331
▁halls	-11.1332
▁begging	-11.1333
▁pic	-11.1334
▁desperately	-11.1334
▁poop	-11.1336
▁faye	-11.1336
▁pier	-11.1337
▁formation	-11.1338
▁volunteered	-11.134
▁cellar	-11.134
▁landers	-11.1341
▁coaster	-11.1342
▁temper	-11.1342
▁maniac	-11.1342
▁restless	-11.1344
▁disturbing	-11.1345
▁ave	-11.1345
▁golan	-11.1346
iously	-11.1346
six	-11.1348
▁rotate	-11.1348
▁reign	-11.135
▁strom	-11.1351
▁chrysanthemums	-11.1351
▁honks	-11.1351
▁marx	-11.1352
▁rage	-11.1353
▁handling	-11.1354
▁imminent	-11.1355
▁shawna	-11.1359
▁dreadful	-11.1363
▁daw	-11.1364
▁factor	-11.1365
▁dumped	-11.1366
▁reasonable	-11.1366
▁portal	-11.1367
▁strapp	-11.1369
▁consult	-11.137
▁ray	-11.137
▁sung	-11.137
▁prey	-11.1372
▁tighter	-11.1372
▁drawer	-11.1372
▁reaches	-11.1374
▁shar	-11.1374
▁violat	-11.1377
▁suffered	-11.1379
▁strengthen	-11.1384
▁replaced	-11.1384
▁olympians	-11.1386
▁peek	-11.1389
▁fling	-11.139
quire	-11.139
▁imperi	-11.1394
▁bowling	-11.1394
▁touches	-11.14
▁honesty	-11.14
▁informed	-11.1404
▁recognized	-11.1411
▁landon	-11.1415
▁ink	-11.1416
▁planted	-11.1416
▁deeper	-11.1417
▁sms	-11.1419
▁claimed	-11.142
yeah	-11.142
▁conclusions	-11.1422
▁clanks	-11.1422
▁limp	-11.1425
▁dreamt	-11.1427
▁meter	-11.1428
term	-11.1429
mhmm	-11.143
▁delivering	-11.1432
cess	-11.1434
▁cheating	-11.1441
▁laws	-11.1441
▁steering	-11.1442
▁gage	-11.1442
▁we	-11.1444
spel	-11.1444
▁poorly	-11.1447
tical	-11.1455
▁doo	-11.1457
▁exams	-11.1457
▁profits	-11.1457
▁compliments	-11.1457
▁washing	-11.1457
▁exclaims	-11.1458
▁suggested	-11.1465
▁practiced	-11.1466
▁hay	-11.1469
berry	-11.1472
gram	-11.1472
▁bent	-11.1473
▁noted	-11.1473
▁climbing	-11.1476
▁wishes	-11.1478
burg	-11.1482
▁toes	-11.1487
▁orcs	-11.1493
eval	-11.1493
▁bananas	-11.1493
▁defending	-11.1494
▁methods	-11.1494
▁bothering	-11.1495
▁visitors	-11.1495
ulls	-11.1496
▁avoiding	-11.1502
chelo	-11.151
▁shocked	-11.1511
cut	-11.1511
▁chip	-11.1511
▁girlfriends	-11.1511
▁harmed	-11.1513
get	-11.1513
▁blocked	-11.1513
ipping	-11.1514
▁timer	-11.1515
ache	-11.1516
▁punched	-11.1517
ave	-11.1521
▁elm	-11.1526
▁habits	-11.1528
▁contents	-11.1529
▁individuals	-11.1529
▁arc	-11.1531
▁funds	-11.1532
▁shared	-11.1545
▁brownie	-11.1562
▁vampires	-11.1565
▁rein	-11.1567
▁suspected	-11.1567
▁barks	-11.1568
aba	-11.1571
▁studying	-11.1573
▁traditional	-11.1575
▁crusade	-11.1578
▁marching	-11.1582
▁garb	-11.1583
▁laying	-11.1591
py	-11.1595
▁tryin	-11.1595
▁handled	-11.16
tu	-11.1609
wind	-11.161
kins	-11.1616
jo	-11.1617
▁devot	-11.1621
tri	-11.1622
vp	-11.1631
▁loses	-11.1644
▁harp	-11.1645
▁playin	-11.1645
▁proton	-11.1651
▁dai	-11.1661
▁mag	-11.1674
▁umm	-11.1674
▁surprises	-11.168
▁abs	-11.1685
▁nazi	-11.1696
ju	-11.1703
▁chas	-11.1709
▁muscles	-11.1709
▁badges	-11.1709
▁awards	-11.1711
▁understanding	-11.1711
lic	-11.1718
nna	-11.1721
ison	-11.1745
▁tools	-11.1745
▁elements	-11.1745
▁scientists	-11.1745
▁jed	-11.1747
▁sins	-11.1747
▁clues	-11.175
▁plates	-11.175
▁bun	-11.1761
▁ny	-11.1766
▁sucking	-11.177
▁tested	-11.1774
▁hostages	-11.1782
▁legends	-11.1782
▁mist	-11.1782
nda	-11.1809
▁images	-11.1823
truck	-11.1824
▁promises	-11.1839
▁br	-11.1846
▁aliens	-11.1854
▁designs	-11.1856
▁provid	-11.1856
▁defin	-11.1872
▁unite	-11.1879
▁contacted	-11.1895
chi	-11.1897
▁fore	-11.1903
▁prep	-11.1916
bean	-11.1916
▁lend	-11.192
▁fools	-11.1923
terior	-11.1929
rl	-11.1932
▁tot	-11.1942
▁ami	-11.1943
▁fooling	-11.1953
▁ang	-11.196
▁motives	-11.1964
▁jokers	-11.1979
▁sounded	-11.1985
▁diet	-11.1991
ought	-11.1998
asy	-11.201
▁val	-11.2011
lio	-11.2015
▁recycle	-11.2031
▁returning	-11.2036
▁marshal	-11.2044
▁goals	-11.2046
can	-11.2049
ration	-11.2058
▁shem	-11.2067
▁conditions	-11.2074
ility	-11.2077
▁carls	-11.2079
▁grades	-11.209
hem	-11.21
▁emp	-11.21
▁fails	-11.211
▁bal	-11.2116
▁ag	-11.2125
▁poo	-11.2138
▁signing	-11.2141
▁crazi	-11.2146
▁exists	-11.2152
▁requests	-11.2155
lam	-11.2163
▁predict	-11.2165
ger	-11.2169
▁directions	-11.2187
▁reds	-11.2188
edge	-11.2197
▁excavat	-11.2198
▁bulls	-11.2204
▁cells	-11.2214
▁levels	-11.2223
▁breaks	-11.2223
having	-11.2223
cam	-11.223
cit	-11.2239
▁winners	-11.2261
▁serves	-11.2287
jaw	-11.2295
▁chim	-11.23
▁reader	-11.2306
▁hairs	-11.2368
ties	-11.2384
▁nap	-11.2384
lst	-11.2387
▁anni	-11.239
youre	-11.2402
▁ador	-11.2416
▁tastes	-11.2447
▁powering	-11.2451
▁ze	-11.2457
▁bron	-11.2479
▁caller	-11.2481
▁ethic	-11.2482
spotter	-11.2533
ski	-11.2542
haki	-11.2542
cze	-11.2542
▁arti	-11.2552
yl	-11.2564
▁diploma	-11.2564
▁grays	-11.257
▁shav	-11.2574
▁mint	-11.2587
▁seasons	-11.2594
▁mor	-11.2635
▁chickens	-11.2639
▁spic	-11.2639
▁riches	-11.2639
▁sauc	-11.265
▁plu	-11.2662
rest	-11.2662
ically	-11.2662
ops	-11.2663
oul	-11.2665
▁areas	-11.2675
good	-11.2676
shes	-11.2693
empo	-11.2698
▁stat	-11.2702
uh	-11.2704
▁votes	-11.2717
tro	-11.2743
five	-11.2748
ning	-11.2753
▁slows	-11.276
▁dispos	-11.276
rid	-11.2774
hur	-11.2777
▁sniff	-11.2784
dom	-11.279
▁regrets	-11.2826
▁cos	-11.2827
ingly	-11.2838
ior	-11.2851
mmed	-11.2872
▁poet	-11.2877
rubber	-11.2883
▁intention	-11.2893
ista	-11.29
▁maker	-11.2905
velope	-11.2911
▁ashe	-11.2922
action	-11.2933
▁jacks	-11.2939
▁shred	-11.2951
oli	-11.2953
▁carlo	-11.2954
▁paine	-11.2955
▁packs	-11.296
▁beers	-11.2962
▁medi	-11.2966
unk	-11.2971
lp	-11.2974
▁cheri	-11.2986
▁conf	-11.2987
▁elis	-11.2996
bankmen	-11.2999
▁missions	-11.3004
▁codes	-11.3014
▁scal	-11.3023
▁biting	-11.3028
▁audition	-11.3049
▁skid	-11.305
▁exclaim	-11.3055
▁fields	-11.3061
▁hen	-11.3064
bbling	-11.3065
▁inquir	-11.3069
▁cough	-11.307
▁ripp	-11.3071
▁spots	-11.3077
▁beck	-11.3086
▁arkham	-11.3087
▁suspicion	-11.3087
▁yield	-11.3087
ets	-11.3088
▁blank	-11.3093
▁pencil	-11.3096
▁matthew	-11.3096
▁vitamin	-11.3096
▁chart	-11.3097
▁prov	-11.3098
▁civilian	-11.3098
▁towel	-11.31
▁wallet	-11.3101
▁bugger	-11.3102
▁exam	-11.3102
▁compliment	-11.3104
▁wizard	-11.311
appy	-11.311
▁profit	-11.311
▁complaint	-11.3111
▁conductor	-11.3112
▁alter	-11.3112
▁nickel	-11.3112
▁buys	-11.3115
▁cookie	-11.312
▁slug	-11.3128
▁stray	-11.3131
▁ast	-11.3133
dia	-11.3144
▁term	-11.315
▁sue	-11.3163
▁slack	-11.3173
▁cone	-11.3177
▁boyfriends	-11.3179
▁toe	-11.318
leg	-11.3188
▁hum	-11.3196
▁recover	-11.3199
night	-11.3201
▁entertain	-11.3205
▁sophi	-11.3214
▁flee	-11.3215
▁fella	-11.3216
▁charger	-11.3217
▁stores	-11.3219
▁surviv	-11.3221
retching	-11.3229
lance	-11.3236
how	-11.3246
body	-11.3246
▁compet	-11.3248
▁crank	-11.3249
round	-11.3251
▁annoy	-11.3251
▁murmur	-11.3252
structure	-11.3253
case	-11.3254
proof	-11.3254
dollar	-11.3254
know	-11.3255
break	-11.3255
due	-11.3256
mouth	-11.3256
type	-11.3258
interest	-11.3258
woman	-11.3258
lizing	-11.3259
▁dismiss	-11.3259
▁stash	-11.326
▁exhaust	-11.3262
butt	-11.3263
▁ditch	-11.3264
demon	-11.3264
▁purchase	-11.3269
made	-11.3269
boy	-11.3269
▁ethe	-11.3272
▁gim	-11.3273
▁update	-11.3273
▁pause	-11.3273
▁relate	-11.3274
▁destin	-11.3275
▁andre	-11.3277
hour	-11.3278
eth	-11.3278
▁holtz	-11.328
▁polite	-11.3281
▁vest	-11.3282
▁announce	-11.3287
▁admire	-11.3287
▁familia	-11.3288
▁potato	-11.329
▁scarlet	-11.3291
▁ram	-11.3291
▁korea	-11.3291
▁kidnap	-11.3292
▁entit	-11.3293
▁baptis	-11.3293
▁maz	-11.3294
▁govern	-11.3294
▁intent	-11.3294
▁activate	-11.3294
▁sheik	-11.3294
▁coma	-11.3295
▁livin	-11.3295
becca	-11.3295
▁regime	-11.3295
▁appoint	-11.3295
▁prohibi	-11.3295
▁yank	-11.3296
▁electro	-11.3296
▁beac	-11.3297
▁intimate	-11.3297
▁obstructi	-11.3297
frequen	-11.3297
▁acknowledge	-11.3297
▁aisle	-11.3297
▁akiko	-11.3297
▁anthony	-11.3297
▁anticipate	-11.3297
▁arbuthnot	-11.3297
▁aristocrat	-11.3297
▁assemble	-11.3297
▁association	-11.3297
▁awhile	-11.3297
▁baptized	-11.3297
▁behalf	-11.3297
▁beulah	-11.3297
▁blackjack	-11.3297
▁blizzard	-11.3297
▁bourbon	-11.3297
▁brunette	-11.3297
▁cactus	-11.3297
▁cafeteria	-11.3297
▁cairo	-11.3297
▁calendar	-11.3297
▁canaries	-11.3297
▁candidate	-11.3297
▁charlotte	-11.3297
▁cheerleading	-11.3297
▁chemical	-11.3297
▁chlrp	-11.3297
▁cinderella	-11.3297
▁cockpit	-11.3297
▁collision	-11.3297
▁colosseum	-11.3297
▁concession	-11.3297
▁conflict	-11.3297
▁culprit	-11.3297
▁curb	-11.3297
▁decalogue	-11.3297
▁deceased	-11.3297
▁delusion	-11.3297
▁despair	-11.3297
▁encouraging	-11.3297
▁engaging	-11.3297
▁enthusiasm	-11.3297
▁evaluation	-11.3297
▁exwife	-11.3297
▁eyewitness	-11.3297
▁fabio	-11.3297
▁faranoosh	-11.3297
▁feathers	-11.3297
▁february	-11.3297
▁feminine	-11.3297
▁ferndell	-11.3297
▁fingernails	-11.3297
▁galaxy	-11.3297
▁greenwall	-11.3297
▁grinding	-11.3297
▁guinea	-11.3297
▁halyburton	-11.3297
▁horrifying	-11.3297
▁huskers	-11.3297
▁icbm	-11.3297
▁impact	-11.3297
▁impeccable	-11.3297
▁inappropriate	-11.3297
▁industrial	-11.3297
▁inhabit	-11.3297
▁invincible	-11.3297
▁jerusalem	-11.3297
▁judith	-11.3297
▁jumpsuit	-11.3297
▁kamila	-11.3297
▁kenoak	-11.3297
▁khrushchev	-11.3297
▁kwang	-11.3297
▁leash	-11.3297
▁leonberger	-11.3297
▁lucius	-11.3297
▁lyndon	-11.3297
▁malfunction	-11.3297
▁marjorie	-11.3297
▁mccane	-11.3297
▁mcpherson	-11.3297
▁meanwhile	-11.3297
▁mercado	-11.3297
▁metaphor	-11.3297
▁microwave	-11.3297
▁milkshake	-11.3297
▁misjudged	-11.3297
▁misunderstood	-11.3297
▁morrison	-11.3297
▁mushrooms	-11.3297
▁neighbour	-11.3297
▁ohoulihan	-11.3297
▁orleans	-11.3297
▁outpost	-11.3297
▁pakistan	-11.3297
▁paralyzed	-11.3297
▁patience	-11.3297
▁peligro	-11.3297
▁pentagon	-11.3297
▁penthouse	-11.3297
▁physics	-11.3297
▁plainview	-11.3297
▁plett	-11.3297
▁podoloff	-11.3297
▁popcorn	-11.3297
▁portfolio	-11.3297
▁prestig	-11.3297
▁profound	-11.3297
▁prosecutor	-11.3297
▁relief	-11.3297
▁revelation	-11.3297
▁revolve	-11.3297
▁rhyme	-11.3297
▁rihanna	-11.3297
▁roxanne	-11.3297
▁sausage	-11.3297
▁schmuck	-11.3297
▁scissors	-11.3297
▁seyeong	-11.3297
▁shelby	-11.3297
▁shepherd	-11.3297
▁sheridan	-11.3297
▁shroud	-11.3297
▁sidney	-11.3297
▁siempre	-11.3297
▁skotak	-11.3297
▁sleeve	-11.3297
▁slinky	-11.3297
▁spilner	-11.3297
▁spontaneous	-11.3297
▁sputter	-11.3297
▁stammering	-11.3297
▁stiletto	-11.3297
▁syrup	-11.3297
▁tegrisco	-11.3297
▁tequila	-11.3297
▁therapi	-11.3297
▁treason	-11.3297
▁trumanlodge	-11.3297
▁upstate	-11.3297
▁vodka	-11.3297
▁vovnik	-11.3297
▁wardrobe	-11.3297
▁wednesday	-11.3297
▁welfare	-11.3297
▁windlesham	-11.3297
▁wuertz	-11.3297
▁wyker	-11.3297
▁yujin	-11.3297
destructive	-11.3297
▁blackmail	-11.3297
▁bueno	-11.3297
▁caesar	-11.3297
▁cinna	-11.3297
▁demco	-11.3297
▁freighter	-11.3297
▁lynch	-11.3297
▁relations	-11.3297
▁repair	-11.3297
▁shakespeare	-11.3297
▁shrimp	-11.3297
▁soomi	-11.3297
▁sunrise	-11.3297
▁sympathy	-11.3297
▁utter	-11.3297
▁wilderness	-11.3297
▁administrat	-11.3297
▁beverly	-11.3297
▁crayon	-11.3297
▁iraq	-11.3297
▁leverage	-11.3297
▁polar	-11.3297
▁sushi	-11.3297
▁cutlery	-11.3297
▁cyber	-11.3297
▁error	-11.3297
▁forcing	-11.3297
▁hijack	-11.3297
▁probability	-11.3297
▁razvan	-11.3297
▁decoy	-11.3297
▁islam	-11.3297
▁afar	-11.3297
▁bernstein	-11.3297
▁blares	-11.3297
▁earrings	-11.3297
▁overdose	-11.3297
▁christina	-11.3297
▁dwight	-11.3297
▁serum	-11.3297
▁treadstone	-11.3297
▁unpack	-11.3297
▁backstage	-11.3297
▁casper	-11.3297
▁generator	-11.3297
▁motorcade	-11.3297
▁prospect	-11.3297
▁columbia	-11.3297
▁lava	-11.3297
▁nanny	-11.3297
▁torn	-11.3297
▁wicked	-11.3297
▁vinyl	-11.3297
▁altogether	-11.3297
▁heiss	-11.3297
▁tommysan	-11.3297
▁underworld	-11.3297
▁adaa	-11.3297
▁forbidden	-11.3297
▁explode	-11.3297
▁briefcase	-11.3297
▁hisses	-11.3297
▁trading	-11.3297
▁casualties	-11.3297
▁camellia	-11.3297
▁aspect	-11.3297
▁cartoon	-11.3297
▁imitate	-11.3297
▁snare	-11.3297
▁twothirds	-11.3297
▁flourish	-11.3297
▁guido	-11.3297
▁xray	-11.3297
▁communism	-11.3297
▁vicky	-11.3297
▁mooing	-11.3297
▁patron	-11.3297
▁chateau	-11.3297
▁interrogation	-11.3297
▁wills	-11.3297
▁cheek	-11.3297
▁download	-11.3297
▁confront	-11.3297
▁fortyfive	-11.3297
▁interrogate	-11.3297
▁petula	-11.3297
▁unpredictable	-11.3297
▁scram	-11.3297
▁irrigation	-11.3297
▁columbus	-11.3297
▁mailbox	-11.3297
▁sunscreen	-11.3297
▁mistress	-11.3297
▁ducats	-11.3297
▁helsing	-11.3297
▁copilot	-11.3297
▁medal	-11.3297
▁ammoni	-11.3297
▁hunch	-11.3297
▁mildred	-11.3297
▁pillow	-11.3297
▁previous	-11.3297
▁lethal	-11.3297
▁archaeologist	-11.3297
▁souffle	-11.3297
▁edgar	-11.3297
▁martha	-11.3297
▁disorder	-11.3297
▁renfield	-11.3297
▁indy	-11.3297
▁duties	-11.3297
▁baroness	-11.3297
▁laptop	-11.3297
▁vague	-11.3297
▁ernie	-11.3297
▁stump	-11.3297
▁chanel	-11.3297
▁nancy	-11.3298
▁fascinating	-11.3298
▁gambling	-11.3298
▁granddad	-11.3298
▁patterson	-11.3298
▁inspiration	-11.3298
▁canned	-11.3298
▁hahaha	-11.3298
▁beatrice	-11.3298
▁inspection	-11.3298
▁jiffy	-11.3298
▁beetle	-11.3298
▁imagination	-11.3298
▁leiter	-11.3298
▁dojo	-11.3298
▁probation	-11.3298
▁denver	-11.3298
▁edward	-11.3298
▁aggie	-11.3298
▁upload	-11.3298
▁soggy	-11.3298
▁poppin	-11.3298
▁furious	-11.3298
▁valentina	-11.3298
▁fisherman	-11.3298
▁litter	-11.3298
▁prohibida	-11.3298
▁twinkie	-11.3298
▁battlefield	-11.3298
▁organism	-11.3298
▁parley	-11.3298
▁summerfield	-11.3298
▁duvall	-11.3298
▁reggie	-11.3298
▁slavery	-11.3298
▁appli	-11.3298
▁piay	-11.3298
▁senate	-11.3298
▁description	-11.3298
▁turf	-11.3298
▁approximately	-11.3299
▁samir	-11.3299
▁rejection	-11.3299
▁prais	-11.3299
▁marinate	-11.3299
▁visa	-11.3299
▁beak	-11.3299
▁sector	-11.3299
▁demonstration	-11.3299
▁overboard	-11.3299
▁aspirin	-11.3299
▁dictator	-11.3299
▁stitches	-11.3299
▁blackheart	-11.3299
▁dizzy	-11.3299
▁dibs	-11.3299
▁pony	-11.3299
▁contribution	-11.3299
▁fiend	-11.3299
▁flute	-11.3299
▁raci	-11.3299
▁godforsaken	-11.3299
▁individuality	-11.3299
▁acquisition	-11.33
▁simulation	-11.33
▁tech	-11.33
▁infra	-11.33
▁anxi	-11.33
▁dunk	-11.33
▁feast	-11.33
▁transportation	-11.33
▁classified	-11.33
▁preferred	-11.33
▁regardless	-11.33
▁revolutionary	-11.33
brew	-11.33
▁spear	-11.33
▁disappearance	-11.3301
▁raven	-11.3301
▁grip	-11.3301
▁eastern	-11.3301
▁courthouse	-11.3301
▁gangster	-11.3301
▁leftfoot	-11.3301
ceived	-11.3301
▁ottoman	-11.3301
▁flapping	-11.3301
▁tripping	-11.3301
▁consume	-11.3301
▁whale	-11.3301
▁mommab	-11.3301
ozen	-11.3301
▁stingers	-11.3301
▁coloured	-11.3301
▁untie	-11.3301
▁amit	-11.3301
▁globe	-11.3302
▁tractor	-11.3302
▁dripping	-11.3302
▁wwhat	-11.3302
▁gator	-11.3302
▁traveller	-11.3302
▁pumpkin	-11.3302
▁jogging	-11.3302
▁melody	-11.3302
▁archery	-11.3302
▁albini	-11.3303
▁dozer	-11.3303
imbel	-11.3303
▁baseline	-11.3303
▁incoming	-11.3303
▁damon	-11.3303
▁tiff	-11.3303
▁potatoes	-11.3303
▁hound	-11.3303
▁godmother	-11.3304
▁meditation	-11.3304
▁pela	-11.3304
▁barber	-11.3305
▁stripper	-11.3305
▁mam	-11.3305
▁geography	-11.3305
▁slum	-11.3305
▁donated	-11.3305
enium	-11.3305
▁adre	-11.3305
▁francisco	-11.3306
▁gravity	-11.3306
▁potus	-11.3306
▁sunlight	-11.3306
▁deaf	-11.3306
▁thruster	-11.3306
▁mayfield	-11.3306
▁lacee	-11.3307
▁howre	-11.3307
▁fatty	-11.3307
▁broom	-11.3307
▁minus	-11.3307
▁mandy	-11.3307
▁effective	-11.3307
▁chow	-11.3307
▁actresses	-11.3308
▁stumble	-11.3308
▁harmless	-11.3308
▁mayday	-11.3308
▁poach	-11.3308
▁legit	-11.3309
▁pussy	-11.3309
▁intimidated	-11.3309
▁certified	-11.3309
▁cries	-11.3309
▁greed	-11.3309
▁disk	-11.331
▁wit	-11.331
▁conclude	-11.331
▁splitting	-11.331
▁sadness	-11.331
▁malt	-11.3311
▁sectional	-11.3311
▁rebuild	-11.3311
▁pierce	-11.3312
▁gio	-11.3312
▁yaah	-11.3312
▁greedy	-11.3313
▁entity	-11.3313
▁schoolwork	-11.3313
▁clanging	-11.3313
▁everyday	-11.3313
▁immigration	-11.3313
▁applauding	-11.3313
▁baker	-11.3313
▁childish	-11.3314
▁penis	-11.3315
▁alternat	-11.3315
▁declined	-11.3315
▁lizard	-11.3316
▁volt	-11.3317
▁inner	-11.3317
▁runner	-11.3317
▁condemned	-11.3317
▁accountable	-11.3319
▁wealthy	-11.332
▁fuse	-11.332
▁inches	-11.332
▁losses	-11.332
guar	-11.3321
▁pawn	-11.3321
▁litera	-11.3321
ils	-11.3321
▁updated	-11.3321
▁astronauts	-11.3322
▁principles	-11.3322
▁rathtars	-11.3322
▁factory	-11.3322
▁vain	-11.3322
ency	-11.3322
▁thug	-11.3322
▁identified	-11.3322
▁reliable	-11.3322
▁related	-11.3323
▁blackout	-11.3323
star	-11.3324
▁bowler	-11.3324
▁huff	-11.3324
▁commandeer	-11.3325
▁hotter	-11.3325
▁specialty	-11.3325
▁wretched	-11.3325
▁massive	-11.3325
▁darken	-11.3326
▁dover	-11.3327
▁hidell	-11.3327
▁diego	-11.3328
▁employer	-11.333
▁startled	-11.3331
▁bein	-11.3332
mentation	-11.3332
▁ignor	-11.3333
▁stashed	-11.3333
▁via	-11.3334
▁minim	-11.3335
▁flooding	-11.3335
▁benz	-11.3335
▁smartest	-11.3335
▁romeo	-11.3335
▁sore	-11.3336
▁depending	-11.3337
▁sweetest	-11.3337
▁shithead	-11.3338
▁sustain	-11.334
▁hiring	-11.3341
▁hut	-11.3342
▁ruby	-11.3343
▁bog	-11.3343
▁eighth	-11.3344
▁bry	-11.3345
▁cranking	-11.3345
▁recovering	-11.3346
▁leftover	-11.3346
▁exclaiming	-11.3346
tle	-11.3346
▁pastor	-11.3347
▁squish	-11.3349
▁pero	-11.3349
▁lala	-11.3349
▁whack	-11.335
▁anyways	-11.335
▁symp	-11.335
▁ache	-11.3354
icion	-11.3355
▁victories	-11.3356
▁greeting	-11.3356
▁sams	-11.3357
▁peregrinee	-11.3358
▁iii	-11.336
▁combined	-11.336
▁tighten	-11.3363
▁jumps	-11.3364
▁cured	-11.3364
▁erased	-11.3364
▁kilos	-11.3364
▁ingredients	-11.3364
▁skiffs	-11.3364
▁seams	-11.3365
▁waxed	-11.3366
▁legions	-11.3366
▁echoing	-11.3367
▁hoop	-11.3368
▁palmer	-11.3371
▁topic	-11.3372
▁teenager	-11.3373
▁tits	-11.3374
▁sweeton	-11.3374
▁psyched	-11.3376
▁dispatcher	-11.3377
▁hacking	-11.3377
▁linger	-11.3378
▁cutie	-11.3379
uel	-11.338
▁masterman	-11.338
▁kneel	-11.338
▁sophie	-11.338
economic	-11.3381
▁recruited	-11.3382
▁haz	-11.3383
▁grill	-11.3386
▁wired	-11.3386
verge	-11.3386
▁pumped	-11.339
▁rewarded	-11.339
▁yelled	-11.3392
▁louder	-11.3393
▁nat	-11.3395
▁explorer	-11.3396
▁shattered	-11.3398
▁veer	-11.3405
▁snacks	-11.3408
▁rumors	-11.3409
bble	-11.341
▁emotions	-11.341
▁stabs	-11.3411
▁weighed	-11.3415
▁harass	-11.3417
ando	-11.3418
▁gord	-11.3425
▁sadly	-11.3428
▁tricky	-11.343
come	-11.3433
▁grim	-11.3434
▁ohio	-11.3436
▁hag	-11.344
▁gown	-11.3444
▁depress	-11.3445
▁buyin	-11.3451
▁ambitions	-11.3452
▁tanker	-11.3452
▁roots	-11.3453
▁relatives	-11.3453
▁complaining	-11.3454
▁rosa	-11.3455
▁poisoned	-11.3456
▁downh	-11.3458
▁rape	-11.346
▁quicker	-11.3462
▁privately	-11.3471
▁scaring	-11.3475
▁discussed	-11.3481
▁cue	-11.3486
▁oppress	-11.3492
▁screamed	-11.3492
▁cr	-11.3493
dict	-11.3494
▁camel	-11.3497
▁charts	-11.3497
▁auditions	-11.3497
▁exc	-11.3499
▁locat	-11.3502
last	-11.3502
hen	-11.3502
▁voted	-11.3506
▁nicky	-11.3507
▁lad	-11.351
▁stri	-11.3511
▁partys	-11.3511
lid	-11.3523
▁helpless	-11.3523
▁slower	-11.3533
▁charit	-11.3533
▁chambers	-11.3541
▁assassins	-11.3543
psy	-11.3543
lousy	-11.3546
▁bonding	-11.3552
▁vip	-11.3556
▁primar	-11.3561
▁vin	-11.3563
▁sticks	-11.3565
▁relocat	-11.3574
▁pale	-11.3583
▁strings	-11.3586
▁heights	-11.3586
▁flames	-11.3591
▁motivat	-11.3594
uous	-11.3596
▁sighted	-11.3597
iece	-11.3598
▁shooter	-11.3598
▁freaked	-11.3602
▁goof	-11.3602
tone	-11.3605
▁switched	-11.3606
done	-11.361
▁ranks	-11.3617
▁wes	-11.3628
▁spine	-11.3629
▁wagons	-11.363
▁temperatures	-11.363
▁overlook	-11.3631
▁sniffl	-11.3631
▁environmental	-11.3631
▁digit	-11.3635
▁vol	-11.3642
▁reminder	-11.3642
▁begg	-11.3645
▁mas	-11.3655
▁tablet	-11.3656
▁spying	-11.3663
▁fists	-11.3675
▁superiors	-11.3675
▁feds	-11.3677
▁bees	-11.3681
▁explains	-11.3702
▁cracking	-11.3707
▁naive	-11.3712
▁shoots	-11.3713
wing	-11.3726
▁dated	-11.3729
ray	-11.3741
tile	-11.3745
gger	-11.3746
▁ud	-11.3747
alada	-11.3748
▁ey	-11.3758
ulate	-11.3758
▁interfer	-11.3759
▁ley	-11.3763
▁banks	-11.3765
▁sweeps	-11.3766
▁supposedly	-11.3769
▁accepting	-11.3775
▁leans	-11.378
▁orient	-11.3796
▁wachatis	-11.3811
▁championships	-11.3811
▁oss	-11.3823
▁jeans	-11.3829
iz	-11.3834
▁bothers	-11.3841
▁richards	-11.3852
▁aha	-11.3853
▁repay	-11.3855
▁incidents	-11.3856
▁rameys	-11.3856
won	-11.3857
▁marker	-11.386
▁towers	-11.3865
▁riders	-11.3874
▁cra	-11.39
▁connections	-11.3902
▁follows	-11.3908
▁ant	-11.3917
▁islands	-11.3937
▁dates	-11.3942
▁basics	-11.3948
▁drawings	-11.3949
▁prec	-11.395
▁jr	-11.3962
▁respected	-11.3965
▁allo	-11.3966
▁lions	-11.3973
▁wonton	-11.3977
▁terrorists	-11.3993
▁estates	-11.3993
▁concerns	-11.3995
▁fixing	-11.4003
▁alrighty	-11.4012
▁reaching	-11.4034
▁torettos	-11.4039
▁bumps	-11.404
▁tanks	-11.4042
dding	-11.4054
▁wai	-11.4064
▁bi	-11.4073
▁prints	-11.4079
▁pens	-11.4085
▁explosions	-11.4085
▁satellites	-11.4085
▁iv	-11.4086
▁freed	-11.4091
tz	-11.4091
but	-11.4092
▁rocked	-11.4095
▁wink	-11.4096
▁traveler	-11.4109
▁owed	-11.4118
▁duff	-11.412
▁handy	-11.4126
▁just	-11.413
▁patterns	-11.4131
shir	-11.4132
▁trainers	-11.4158
▁kinder	-11.4183
nning	-11.4188
▁lou	-11.4191
▁devo	-11.4215
▁writers	-11.4215
▁oceans	-11.4224
▁holidays	-11.4224
▁subjects	-11.4224
▁screens	-11.4228
▁jumper	-11.4233
▁shaq	-11.4236
ital	-11.4256
▁ruins	-11.4273
▁assets	-11.4276
urpin	-11.4279
▁tur	-11.4284
▁bel	-11.4314
▁murderers	-11.4329
▁whit	-11.4331
▁pursue	-11.4371
ender	-11.438
▁skulls	-11.441
▁worker	-11.4414
▁challenges	-11.4415
ana	-11.4425
▁rand	-11.4429
▁shi	-11.4455
▁apartments	-11.4458
nde	-11.4461
▁uncles	-11.4473
ox	-11.4484
▁cape	-11.4522
list	-11.4522
pha	-11.4524
▁vir	-11.4525
▁rad	-11.4526
ature	-11.4527
set	-11.4531
lud	-11.4548
part	-11.4549
▁actions	-11.4558
long	-11.4569
▁retrieve	-11.4576
▁ordering	-11.4583
▁tri	-11.459
▁characters	-11.4595
▁packages	-11.4599
▁dre	-11.4605
▁vas	-11.4606
▁supervise	-11.4607
▁have	-11.4608
▁pla	-11.4609
▁chal	-11.4651
lets	-11.467
▁scramble	-11.4673
▁answering	-11.4693
▁nor	-11.4695
gn	-11.4696
▁centers	-11.4698
▁ping	-11.47
bri	-11.47
▁bla	-11.4704
uch	-11.4706
▁slo	-11.4735
▁ev	-11.4736
lace	-11.474
▁mommys	-11.4742
▁agrees	-11.4746
fa	-11.4746
▁faults	-11.4767
rilling	-11.4777
▁pip	-11.4796
▁wrinkle	-11.4805
ife	-11.4815
anda	-11.4821
▁supervis	-11.483
▁sands	-11.4837
▁thi	-11.4847
▁whin	-11.4858
▁pur	-11.486
▁wee	-11.49
▁eric	-11.4906
▁suns	-11.4916
▁senses	-11.4923
elli	-11.4938
cate	-11.4959
▁justi	-11.496
▁heroin	-11.497
▁neat	-11.4989
▁stru	-11.4991
▁define	-11.502
etting	-11.5024
▁clu	-11.504
▁rea	-11.5048
ied	-11.5081
▁ado	-11.5102
atin	-11.5104
hre	-11.5111
▁chor	-11.5113
▁mal	-11.5118
fence	-11.5123
pression	-11.5138
▁worship	-11.5144
this	-11.515
more	-11.5154
gradation	-11.5165
▁corr	-11.5184
▁stifle	-11.5192
▁wis	-11.5221
▁prices	-11.5225
ack	-11.5231
cin	-11.524
ening	-11.5241
ndl	-11.5269
▁les	-11.527
ough	-11.5279
▁lace	-11.5289
pie	-11.5291
▁kan	-11.5296
ization	-11.5312
▁mortal	-11.5316
▁defi	-11.5323
▁ports	-11.5326
▁pam	-11.5333
live	-11.534
▁pu	-11.5369
▁numero	-11.5385
▁slick	-11.5401
iness	-11.5454
▁pops	-11.5458
ikal	-11.5484
▁kara	-11.5485
▁of	-11.5494
▁scenes	-11.5524
nice	-11.5532
bird	-11.5545
▁root	-11.555
▁unto	-11.5552
▁summon	-11.5554
▁depend	-11.5562
▁clatter	-11.5562
▁rever	-11.5567
▁clank	-11.5568
▁psychologi	-11.5569
anus	-11.5571
▁cock	-11.5573
aman	-11.5578
▁pap	-11.5582
▁biometric	-11.5587
▁precaution	-11.5587
▁balloon	-11.5587
▁admission	-11.5587
▁underdog	-11.5587
▁barbarian	-11.5587
▁item	-11.5588
▁relative	-11.5589
well	-11.5589
▁shares	-11.559
cated	-11.5592
▁offers	-11.5592
wise	-11.5593
▁liquid	-11.5596
▁neigh	-11.5596
▁peasant	-11.5596
▁flare	-11.5597
▁roommate	-11.56
▁ambition	-11.5601
▁scanner	-11.5601
▁tin	-11.5603
▁monk	-11.5603
▁conclusion	-11.5604
dad	-11.5605
▁gringo	-11.5607
▁operative	-11.5609
▁panther	-11.561
▁trumpet	-11.5612
▁relic	-11.5614
▁stair	-11.5615
▁knot	-11.5619
oi	-11.5629
bby	-11.564
▁sm	-11.5644
▁proto	-11.565
nder	-11.5653
▁weed	-11.5678
ight	-11.5679
▁tick	-11.568
▁sap	-11.5689
▁dread	-11.5699
▁trem	-11.571
▁musician	-11.5712
▁vanish	-11.5716
▁employ	-11.5717
duct	-11.5717
▁naz	-11.5718
▁fro	-11.5718
▁owen	-11.5719
▁liber	-11.5728
▁stalk	-11.5731
▁vent	-11.5733
▁charg	-11.5734
eville	-11.5736
▁vibrat	-11.5737
rudge	-11.5744
craft	-11.5746
▁flood	-11.5749
▁remov	-11.5749
▁spray	-11.575
▁shudder	-11.5751
product	-11.5752
▁squa	-11.5752
play	-11.5752
make	-11.5752
degree	-11.5753
▁weep	-11.5753
bush	-11.5753
▁bleed	-11.5753
stroke	-11.5753
yearold	-11.5754
writer	-11.5754
glen	-11.5755
▁conquer	-11.5755
famous	-11.5755
bearing	-11.5755
death	-11.5755
check	-11.5755
▁und	-11.5756
stand	-11.5756
okay	-11.5757
▁select	-11.5758
second	-11.5758
baii	-11.5758
▁adopt	-11.5758
▁infect	-11.5759
coat	-11.5759
▁wretch	-11.576
shell	-11.5761
tight	-11.5763
▁glor	-11.5765
▁multi	-11.5766
took	-11.5767
sex	-11.5767
legal	-11.5768
▁disgrace	-11.5769
win	-11.5769
▁plea	-11.5769
▁bree	-11.5772
▁decline	-11.5773
▁eliminate	-11.5776
rick	-11.5778
▁guil	-11.5778
▁prodig	-11.5778
▁bash	-11.5779
▁discre	-11.5779
▁inspire	-11.5781
▁felon	-11.5782
▁puss	-11.5783
▁flam	-11.5783
▁convenient	-11.5783
▁curl	-11.5783
shit	-11.5784
▁numb	-11.5785
▁louis	-11.5785
tow	-11.5785
▁crim	-11.5785
lined	-11.5785
▁cru	-11.5785
▁examine	-11.5788
▁cult	-11.5788
▁julie	-11.5789
▁gre	-11.579
▁harris	-11.5791
▁darr	-11.5791
master	-11.5791
bounc	-11.5793
▁writin	-11.5793
▁defect	-11.5794
▁contribut	-11.5794
▁executi	-11.5794
pool	-11.5796
cuffs	-11.5796
aiiy	-11.5796
▁triumph	-11.5796
▁psychiatr	-11.5796
▁nausea	-11.5796
▁fiction	-11.5796
▁confident	-11.5796
▁northwest	-11.5796
▁nom	-11.5796
mperial	-11.5796
▁optim	-11.5796
▁accommodat	-11.5797
▁benevolen	-11.5797
▁lazar	-11.5797
▁thorough	-11.5797
entangle	-11.5797
ophobic	-11.5797
prejudice	-11.5797
▁abomination	-11.5797
▁admiration	-11.5797
▁airborne	-11.5797
▁airstrip	-11.5797
▁algorithm	-11.5797
▁alistair	-11.5797
▁alkhoei	-11.5797
▁ambitious	-11.5797
▁andrenyi	-11.5797
▁apologis	-11.5797
▁arlene	-11.5797
▁arrow	-11.5797
▁athletic	-11.5797
▁atkinson	-11.5797
▁atmosphere	-11.5797
▁attenborough	-11.5797
▁automobile	-11.5797
▁barbossa	-11.5797
▁believing	-11.5797
▁biblical	-11.5797
▁biiiy	-11.5797
▁billingsley	-11.5797
▁bouquet	-11.5797
▁brochure	-11.5797
▁butler	-11.5797
▁bylaw	-11.5797
▁bypass	-11.5797
▁cagney	-11.5797
▁caliber	-11.5797
▁caviar	-11.5797
▁celtics	-11.5797
▁cemetery	-11.5797
▁chamberlain	-11.5797
▁chandelier	-11.5797
▁chantlng	-11.5797
▁chauffeur	-11.5797
▁chelsea	-11.5797
▁chickaboom	-11.5797
▁christopher	-11.5797
▁civic	-11.5797
▁clarity	-11.5797
▁cleopatra	-11.5797
▁cocacola	-11.5797
▁cockroach	-11.5797
▁comescort	-11.5797
▁commuter	-11.5797
▁companies	-11.5797
▁condolences	-11.5797
▁confusion	-11.5797
▁consciousness	-11.5797
▁conspirators	-11.5797
▁constitution	-11.5797
▁corporal	-11.5797
▁corridor	-11.5797
▁covenent	-11.5797
▁crescent	-11.5797
▁crotch	-11.5797
▁crucial	-11.5797
▁daeseo	-11.5797
▁dammit	-11.5797
▁deluca	-11.5797
▁desperation	-11.5797
▁discipline	-11.5797
▁district	-11.5797
▁doughnut	-11.5797
▁dowry	-11.5797
▁ecstasy	-11.5797
▁encyclopedia	-11.5797
▁enhance	-11.5797
▁errand	-11.5797
▁exorcise	-11.5797
▁expansion	-11.5797
▁expedition	-11.5797
▁exploding	-11.5797
▁exquisite	-11.5797
▁eyebrow	-11.5797
▁figuring	-11.5797
▁firecracker	-11.5797
▁fortunate	-11.5797
▁fragment	-11.5797
▁fundamental	-11.5797
▁fundraiser	-11.5797
▁garaad	-11.5797
▁georgia	-11.5797
▁giancana	-11.5797
▁gilbert	-11.5797
▁gisele	-11.5797
▁gleema	-11.5797
▁godbrother	-11.5797
▁google	-11.5797
▁gunpowder	-11.5797
▁handshake	-11.5797
▁headmistress	-11.5797
▁hhhhhey	-11.5797
▁holloman	-11.5797
▁hormones	-11.5797
▁hungarian	-11.5797
▁identification	-11.5797
▁impossibility	-11.5797
▁incapable	-11.5797
▁incognito	-11.5797
▁increasing	-11.5797
▁indianapolis	-11.5797
▁infirmary	-11.5797
▁injury	-11.5797
▁intriguing	-11.5797
▁intrusi	-11.5797
▁isabelle	-11.5797
▁january	-11.5797
▁jinshan	-11.5797
▁judging	-11.5797
▁kanjiklub	-11.5797
▁kentucky	-11.5797
▁ketchup	-11.5797
▁kilimanjaro	-11.5797
▁kiowa	-11.5797
▁lipstick	-11.5797
▁loneliness	-11.5797
▁louisiana	-11.5797
▁magistrate	-11.5797
▁maribel	-11.5797
▁mccarthy	-11.5797
▁millennium	-11.5797
▁mindmeld	-11.5797
▁molasses	-11.5797
▁murph	-11.5797
▁muslim	-11.5797
▁necessarily	-11.5797
▁negotiation	-11.5797
▁nichola	-11.5797
▁nobility	-11.5797
▁obtain	-11.5797
▁odonnell	-11.5797
▁olympics	-11.5797
▁overwhelmed	-11.5797
▁parchment	-11.5797
▁peanut	-11.5797
▁pemrose	-11.5797
▁penetrate	-11.5797
▁permanent	-11.5797
▁philadelphia	-11.5797
▁physician	-11.5797
▁pinafore	-11.5797
▁possibility	-11.5797
▁primitive	-11.5797
▁procedure	-11.5797
▁province	-11.5797
▁puppet	-11.5797
▁puzzle	-11.5797
▁ramirez	-11.5797
▁ravage	-11.5797
▁reciprocal	-11.5797
▁reconnaissance	-11.5797
▁reconsider	-11.5797
▁relevant	-11.5797
▁rewrite	-11.5797
▁rhino	-11.5797
▁rookie	-11.5797
▁schrank	-11.5797
▁schuyler	-11.5797
▁shazam	-11.5797
▁singapore	-11.5797
▁sizzling	-11.5797
▁sloppy	-11.5797
▁sneeze	-11.5797
▁snuff	-11.5797
▁spaghetti	-11.5797
▁sponge	-11.5797
▁sprout	-11.5797
▁steward	-11.5797
▁stubborn	-11.5797
▁suffice	-11.5797
▁suffocat	-11.5797
▁superstitious	-11.5797
▁surprisingly	-11.5797
▁surrillo	-11.5797
▁syzor	-11.5797
▁terrifying	-11.5797
▁thanksgiving	-11.5797
▁theatrical	-11.5797
▁thermal	-11.5797
▁thumper	-11.5797
▁treasury	-11.5797
▁tshirt	-11.5797
▁umbrella	-11.5797
▁unattended	-11.5797
▁unleash	-11.5797
▁varsity	-11.5797
▁vendetta	-11.5797
▁virgil	-11.5797
▁volcano	-11.5797
▁vomit	-11.5797
▁vortex	-11.5797
▁wavekrest	-11.5797
▁wheatley	-11.5797
▁wheezing	-11.5797
▁wormsign	-11.5797
▁wreak	-11.5797
▁yakuza	-11.5797
▁yogurt	-11.5797
▁youtube	-11.5797
▁zigzag	-11.5797
oeger	-11.5797
▁colorado	-11.5797
▁dario	-11.5797
▁database	-11.5797
▁derelict	-11.5797
▁footprints	-11.5797
▁graphic	-11.5797
▁horace	-11.5797
▁intersect	-11.5797
▁kimono	-11.5797
▁manhunt	-11.5797
▁manifest	-11.5797
▁maryann	-11.5797
▁motto	-11.5797
▁nelson	-11.5797
▁overrated	-11.5797
▁ralph	-11.5797
▁resembl	-11.5797
▁revenue	-11.5797
▁ricochet	-11.5797
▁sensors	-11.5797
▁snatch	-11.5797
▁snickers	-11.5797
▁steam	-11.5797
▁sterile	-11.5797
▁stomp	-11.5797
▁stool	-11.5797
▁trespass	-11.5797
▁womb	-11.5797
▁zulu	-11.5797
▁bhaer	-11.5797
▁breast	-11.5797
▁cabbage	-11.5797
▁claire	-11.5797
▁curve	-11.5797
▁hetty	-11.5797
▁jeffrey	-11.5797
▁jonson	-11.5797
▁scoop	-11.5797
▁seashells	-11.5797
▁sellsword	-11.5797
▁slash	-11.5797
▁vessel	-11.5797
▁worries	-11.5797
▁gesture	-11.5797
▁safeguard	-11.5797
▁tranquil	-11.5797
▁altar	-11.5797
▁captive	-11.5797
▁daft	-11.5797
▁extend	-11.5797
▁forbid	-11.5797
▁gambles	-11.5797
▁impropriety	-11.5797
▁mookie	-11.5797
▁munies	-11.5797
▁pervert	-11.5797
▁robbers	-11.5797
▁venus	-11.5797
▁advers	-11.5797
▁doomed	-11.5797
▁insight	-11.5797
▁redeem	-11.5797
▁whereabouts	-11.5797
▁whooshing	-11.5797
pulsion	-11.5797
▁esteemed	-11.5797
▁idaho	-11.5797
▁telegraph	-11.5797
inflict	-11.5797
▁flopp	-11.5797
▁olsen	-11.5797
▁mischief	-11.5797
▁odor	-11.5797
▁implie	-11.5797
▁chrys	-11.5797
▁cripple	-11.5797
▁exposure	-11.5797
▁perimeter	-11.5797
▁attaboy	-11.5797
▁circulation	-11.5797
▁crunch	-11.5797
▁omar	-11.5797
▁refresh	-11.5797
▁spaceships	-11.5797
▁turtle	-11.5797
▁chugging	-11.5797
▁laceration	-11.5797
▁maroon	-11.5797
▁pudding	-11.5797
▁cdc	-11.5797
▁complement	-11.5797
▁patter	-11.5797
▁hobbs	-11.5797
▁scooter	-11.5797
▁drift	-11.5797
▁espn	-11.5797
▁blazing	-11.5797
▁titanium	-11.5797
▁ongoing	-11.5797
▁bolt	-11.5797
▁comics	-11.5797
▁investigator	-11.5797
▁domino	-11.5797
assurance	-11.5797
▁category	-11.5797
▁bulk	-11.5797
▁fireworks	-11.5797
▁psychopath	-11.5797
▁offended	-11.5797
▁corset	-11.5797
▁knob	-11.5797
▁blouse	-11.5797
▁referring	-11.5797
▁underwater	-11.5797
▁apology	-11.5797
▁britten	-11.5797
▁hilarious	-11.5797
▁welcoming	-11.5797
▁vertical	-11.5797
▁atta	-11.5797
▁hawkins	-11.5797
▁crackles	-11.5797
▁headphones	-11.5797
▁sheets	-11.5797
▁academic	-11.5797
▁banned	-11.5797
▁radical	-11.5797
▁confidential	-11.5797
vado	-11.5797
hamburger	-11.5797
▁drummer	-11.5797
▁bruno	-11.5797
▁emptiness	-11.5797
▁stairway	-11.5797
bet	-11.5797
▁chute	-11.5797
▁restraints	-11.5798
▁pedal	-11.5798
▁tsk	-11.5798
wield	-11.5798
▁forehead	-11.5798
nova	-11.5798
rique	-11.5798
vast	-11.5798
▁dialogue	-11.5798
▁cheque	-11.5798
▁cabana	-11.5798
▁slade	-11.5798
▁rainbow	-11.5798
quench	-11.5798
▁midget	-11.5798
▁granny	-11.5798
▁arse	-11.5798
▁oscar	-11.5798
▁spinning	-11.5798
▁flatulen	-11.5798
▁compactor	-11.5798
▁antique	-11.5798
▁artery	-11.5798
▁infantry	-11.5798
▁resignation	-11.5798
▁bios	-11.5798
▁warsaw	-11.5798
through	-11.5798
▁policies	-11.5798
▁software	-11.5798
▁studies	-11.5798
▁mtv	-11.5798
▁nyet	-11.5798
▁drank	-11.5798
▁semi	-11.5798
▁fritz	-11.5798
▁whipped	-11.5798
▁manipulation	-11.5798
▁depositions	-11.5798
▁tbone	-11.5798
▁tissue	-11.5798
▁dealership	-11.5798
▁superpower	-11.5798
▁valet	-11.5798
▁teii	-11.5799
▁youyou	-11.5799
adequa	-11.5799
▁fertilizer	-11.5799
▁pooch	-11.5799
▁thigh	-11.5799
▁awoke	-11.5799
▁slipping	-11.5799
▁cyclone	-11.5799
▁quiver	-11.5799
▁lumber	-11.5799
▁evacuation	-11.5799
▁overload	-11.5799
▁slipper	-11.5799
▁possessive	-11.5799
▁shook	-11.5799
▁peck	-11.5799
▁karim	-11.5799
▁maxwell	-11.5799
▁contaminate	-11.5799
▁blackstone	-11.5799
▁infant	-11.5799
▁katie	-11.5799
▁wimp	-11.5799
▁silo	-11.5799
▁shaking	-11.5799
▁reaiiy	-11.58
▁aboli	-11.58
▁adoption	-11.58
▁ruthless	-11.58
▁selection	-11.58
▁dwell	-11.58
slav	-11.58
▁clich	-11.58
▁paperwork	-11.58
▁nno	-11.58
▁renner	-11.58
▁poise	-11.58
▁apb	-11.58
▁sidewalk	-11.58
▁bambi	-11.58
▁teapot	-11.58
▁input	-11.58
▁syne	-11.58
▁wildlife	-11.58
▁schw	-11.58
▁alvin	-11.58
▁consol	-11.58
▁eligib	-11.58
▁cobb	-11.58
▁continuous	-11.58
▁rhythmically	-11.5801
▁stress	-11.5801
▁invaders	-11.5801
▁foreman	-11.5801
▁hotshot	-11.5801
▁providence	-11.5801
▁encouraged	-11.5801
▁rejoin	-11.5801
▁robot	-11.5801
▁fanny	-11.5801
▁rewind	-11.5801
▁blackpool	-11.5801
▁discount	-11.5801
▁karen	-11.5801
▁cartel	-11.5801
▁beggar	-11.5801
▁angus	-11.5801
▁cache	-11.5801
▁deduct	-11.5801
▁legendary	-11.5801
▁allah	-11.5801
▁rodent	-11.5801
▁remark	-11.5801
▁timmy	-11.5801
▁sandworm	-11.5802
▁sylvia	-11.5802
▁puck	-11.5802
▁morality	-11.5802
▁oof	-11.5802
▁moonlight	-11.5802
▁management	-11.5802
▁aka	-11.5802
▁mush	-11.5802
▁milan	-11.5802
▁epi	-11.5802
▁winston	-11.5802
▁gallup	-11.5803
▁webb	-11.5803
▁touchdown	-11.5803
▁groceries	-11.5803
▁dys	-11.5803
▁yawn	-11.5803
▁corruption	-11.5803
▁etc	-11.5803
▁archive	-11.5803
▁congratulate	-11.5803
▁goldberg	-11.5803
▁architecture	-11.5803
▁usher	-11.5803
▁leeches	-11.5803
▁giri	-11.5803
▁whoops	-11.5804
▁conform	-11.5804
▁bennie	-11.5804
▁iran	-11.5804
▁prophecy	-11.5804
▁attain	-11.5804
▁korean	-11.5804
▁snoopy	-11.5804
▁collar	-11.5804
colo	-11.5804
▁tele	-11.5804
meal	-11.5804
▁compliance	-11.5804
▁rebellion	-11.5804
▁sophisticated	-11.5804
▁warfare	-11.5804
▁absorb	-11.5804
▁shtick	-11.5804
▁chasin	-11.5804
▁migration	-11.5804
▁bock	-11.5805
▁juliet	-11.5805
▁nitr	-11.5805
▁expelled	-11.5805
standing	-11.5805
▁micro	-11.5805
▁inventory	-11.5805
▁hedge	-11.5805
▁marge	-11.5805
▁mixup	-11.5805
▁toid	-11.5805
▁tanner	-11.5805
▁freezing	-11.5806
yun	-11.5806
▁breakdown	-11.5806
lich	-11.5807
▁orchestrated	-11.5807
▁alongside	-11.5807
▁econ	-11.5807
▁leech	-11.5807
khr	-11.5807
▁abiga	-11.5807
▁belongings	-11.5808
▁violation	-11.5808
▁barter	-11.5808
▁rho	-11.5808
▁modest	-11.5808
▁mcu	-11.5808
▁maiden	-11.5808
mpoo	-11.5809
▁erm	-11.5809
ewell	-11.5809
▁sox	-11.5809
▁roy	-11.5809
rocket	-11.5809
▁ninety	-11.5809
▁countryside	-11.581
▁cooperate	-11.581
▁caption	-11.581
▁turbo	-11.581
▁rudel	-11.581
▁thermo	-11.581
▁critical	-11.581
▁perch	-11.581
▁ramp	-11.581
▁conveniently	-11.5811
▁buzzes	-11.5811
▁meds	-11.5811
thian	-11.5811
▁squat	-11.5812
▁shelf	-11.5812
▁charter	-11.5812
▁motherfucker	-11.5812
▁poem	-11.5812
▁wager	-11.5813
▁successor	-11.5813
▁drago	-11.5813
▁funnel	-11.5813
▁burro	-11.5813
▁endangered	-11.5813
▁rejected	-11.5813
▁suspended	-11.5813
▁icy	-11.5813
▁tutor	-11.5813
▁wel	-11.5814
▁firearm	-11.5814
▁household	-11.5814
▁amazed	-11.5814
▁keener	-11.5814
▁sank	-11.5815
▁stationary	-11.5816
▁athens	-11.5817
▁cooperation	-11.5817
▁superman	-11.5818
▁recovery	-11.5818
▁admitting	-11.5818
▁kiddin	-11.5818
▁dame	-11.5818
▁stripes	-11.5818
▁leia	-11.5819
▁opposed	-11.5819
▁popped	-11.5819
▁spicy	-11.5819
▁highlight	-11.582
▁winkle	-11.582
▁informant	-11.582
▁treatment	-11.582
▁threepoint	-11.5821
▁axe	-11.5821
▁educated	-11.5821
▁daum	-11.5822
flops	-11.5823
▁conversion	-11.5823
▁contra	-11.5824
▁mole	-11.5824
▁retarded	-11.5824
▁thrilled	-11.5824
▁cere	-11.5824
▁purposes	-11.5826
▁communicat	-11.5826
▁salon	-11.5826
▁haw	-11.5826
▁heartbeat	-11.5827
▁airline	-11.5827
▁reel	-11.5827
▁discovery	-11.5827
▁bloodline	-11.5827
▁paused	-11.5828
▁popping	-11.5829
▁pave	-11.5829
▁birdie	-11.5829
▁queer	-11.5829
▁bahamas	-11.5829
▁chrissakes	-11.5829
▁crawdads	-11.5829
▁disciples	-11.5829
▁krauts	-11.5829
▁reinforcements	-11.5829
▁fuss	-11.5831
▁misty	-11.5831
▁glorious	-11.5831
▁elf	-11.5833
easing	-11.5833
▁publisher	-11.5834
▁employed	-11.5835
▁avenge	-11.5835
▁amid	-11.5836
▁pageant	-11.5837
▁costar	-11.5837
nows	-11.5838
▁authorized	-11.5838
▁tray	-11.5838
▁corp	-11.5838
▁correction	-11.5839
▁depressed	-11.584
▁eu	-11.5841
▁observed	-11.5841
▁qualified	-11.5841
▁backyard	-11.5841
▁lair	-11.5842
▁faceoff	-11.5842
▁arranged	-11.5842
▁restored	-11.5843
▁baked	-11.5843
wheels	-11.5843
▁grabb	-11.5845
▁consumed	-11.5845
▁richie	-11.5845
▁dismissed	-11.5845
▁entertained	-11.5845
▁leon	-11.5847
▁deleted	-11.5849
▁ante	-11.5849
▁hola	-11.585
▁violently	-11.585
▁edin	-11.5851
▁craft	-11.5851
▁shal	-11.5852
▁announced	-11.5852
▁bert	-11.5853
▁quier	-11.5853
aurus	-11.5854
▁depressing	-11.5854
▁spooky	-11.5855
▁sweater	-11.5855
▁immortality	-11.5856
▁tru	-11.5856
▁liabilit	-11.5856
▁consen	-11.5858
▁defendant	-11.5859
▁arra	-11.586
▁warner	-11.586
▁betting	-11.5861
▁phd	-11.5862
▁marc	-11.5862
▁turing	-11.5862
▁preserved	-11.5863
▁tuned	-11.5864
illo	-11.5864
▁freakin	-11.5865
▁haunted	-11.5867
shrink	-11.5867
▁weaker	-11.5867
eeny	-11.5867
▁ledger	-11.5868
▁operational	-11.5868
lement	-11.5868
▁dunn	-11.5869
ecs	-11.587
▁billie	-11.587
▁owl	-11.587
▁unc	-11.587
▁loosen	-11.5872
▁brad	-11.5874
▁campus	-11.5874
▁carmen	-11.5875
▁proven	-11.5875
▁hitch	-11.5876
oids	-11.5877
▁possessed	-11.5877
▁beret	-11.5877
▁purely	-11.5878
▁developer	-11.5878
▁scraping	-11.5879
▁badass	-11.5881
▁jerky	-11.5883
▁assassinate	-11.5884
▁decades	-11.5886
▁colleagues	-11.5886
▁likewise	-11.5886
▁vials	-11.5886
▁crows	-11.5886
▁surrounds	-11.5886
▁trembl	-11.5887
▁diapers	-11.5887
▁dusty	-11.5887
▁beets	-11.5888
▁presume	-11.5889
▁improved	-11.589
▁hopeless	-11.5891
▁handcuffs	-11.5892
▁bub	-11.5894
▁objective	-11.5895
▁quarterly	-11.5896
▁gene	-11.5896
▁golly	-11.5896
▁insulted	-11.5899
▁contained	-11.59
▁portion	-11.5901
▁homeland	-11.5902
▁coaches	-11.5906
▁reg	-11.5909
▁barker	-11.5909
▁burnt	-11.5912
▁bir	-11.5913
hank	-11.5913
tly	-11.5913
owski	-11.5914
▁dumber	-11.5916
▁conducting	-11.5919
yard	-11.5919
▁reserves	-11.5924
ellow	-11.5924
▁jealousy	-11.5924
anne	-11.5925
▁bigtime	-11.5926
dilla	-11.5927
▁sane	-11.5928
▁batin	-11.5929
irut	-11.5929
▁defeated	-11.5931
▁monitoring	-11.5933
▁responding	-11.5933
▁weirdo	-11.5934
▁containing	-11.5934
▁bin	-11.5934
▁qa	-11.5935
▁sincere	-11.5935
▁combine	-11.5937
▁awaken	-11.5938
▁makeover	-11.5943
▁enterprises	-11.5943
▁headquarters	-11.5943
▁rhibs	-11.5943
▁schemers	-11.5943
▁panels	-11.5943
▁veins	-11.5944
▁bribes	-11.5944
▁hike	-11.5944
▁barriers	-11.5945
▁bragg	-11.595
▁pill	-11.5954
▁revealed	-11.5955
▁moss	-11.5962
ode	-11.5962
▁nod	-11.5966
▁beni	-11.5971
▁challenged	-11.5972
▁smit	-11.5972
▁engineering	-11.5972
def	-11.5977
▁sixty	-11.5977
▁qing	-11.5978
▁bethy	-11.5981
▁cycle	-11.5987
▁transferr	-11.5998
▁wav	-11.5998
there	-11.6
▁movers	-11.6
▁neighs	-11.6002
▁flares	-11.6002
▁liquids	-11.6002
▁monks	-11.6002
▁peasants	-11.6002
▁scanners	-11.6003
▁takeover	-11.6005
▁greatness	-11.6015
▁viv	-11.6016
▁cic	-11.602
lessly	-11.6026
▁eaton	-11.6032
▁tract	-11.6037
assed	-11.6039
▁helpful	-11.6046
▁interrupting	-11.6047
▁yorker	-11.605
wick	-11.6051
▁existed	-11.6054
▁becks	-11.606
▁matthews	-11.6061
▁pencils	-11.6061
▁towels	-11.6061
▁vitamins	-11.6061
▁civilians	-11.6061
▁blanks	-11.6061
▁nickels	-11.6061
▁rescued	-11.6061
▁demanding	-11.6062
▁buggers	-11.6063
▁sailing	-11.6063
▁scored	-11.6068
▁gaz	-11.6069
▁cala	-11.607
▁cer	-11.6071
▁realm	-11.6071
▁ideal	-11.6078
▁restrain	-11.608
▁lowly	-11.608
▁screening	-11.6096
▁nicker	-11.61
▁rag	-11.6104
▁nazis	-11.6106
kus	-11.6107
from	-11.6107
poetry	-11.6108
tie	-11.611
▁awaits	-11.6115
▁bunks	-11.612
▁institutions	-11.612
▁cranes	-11.612
▁cork	-11.612
▁translates	-11.6121
▁bossy	-11.6122
nox	-11.6122
▁tw	-11.6125
▁barons	-11.6126
▁classy	-11.6128
▁rented	-11.613
▁menac	-11.6134
▁needles	-11.6162
▁grad	-11.6165
▁sneaker	-11.6168
▁mumm	-11.6169
▁cub	-11.6171
▁disconnects	-11.6179
▁nerves	-11.6179
▁resumes	-11.6179
▁creeps	-11.6179
▁volunteers	-11.618
▁sno	-11.6183
▁intermi	-11.6188
▁foreigner	-11.6189
▁warmed	-11.6194
▁tus	-11.6204
▁dared	-11.6204
▁desiree	-11.6208
▁reminded	-11.6214
iles	-11.6224
▁numer	-11.6227
▁strains	-11.6231
▁organs	-11.6234
▁rebounds	-11.6238
▁founders	-11.6238
▁generations	-11.6238
▁mobiles	-11.6239
▁brooks	-11.6239
ula	-11.6241
▁painter	-11.6246
▁gin	-11.6247
▁behav	-11.6256
▁trans	-11.6267
▁pressing	-11.6267
▁pun	-11.6272
▁oni	-11.6277
▁knights	-11.6298
▁restaurants	-11.6298
▁riddles	-11.6299
▁tales	-11.63
▁hackers	-11.6304
▁matched	-11.6316
▁peel	-11.6319
ady	-11.6325
▁boob	-11.6325
▁supported	-11.6331
▁sy	-11.6336
lly	-11.6338
▁switching	-11.6344
▁gent	-11.6349
▁reminding	-11.6354
lair	-11.6355
▁claps	-11.6355
▁executives	-11.6358
▁inmates	-11.6358
▁cho	-11.6387
▁locking	-11.6402
dead	-11.6418
▁racer	-11.6422
▁andan	-11.6425
lated	-11.643
▁comb	-11.6437
lton	-11.6442
▁measures	-11.6458
▁founder	-11.6462
▁incorporate	-11.6467
▁ash	-11.6474
▁harkonnens	-11.6478
▁penalt	-11.6479
▁buckets	-11.6487
▁stem	-11.6501
▁tilt	-11.6505
▁docs	-11.6517
osexual	-11.6523
▁mem	-11.6533
▁elephants	-11.6539
▁jewels	-11.6539
▁servants	-11.654
▁shines	-11.6542
▁indic	-11.6574
▁factions	-11.6607
ures	-11.6614
▁was	-11.6623
▁hallow	-11.6625
▁loo	-11.6629
tempting	-11.6636
▁coaching	-11.6646
▁pipes	-11.6651
▁mali	-11.6652
ban	-11.6652
▁guides	-11.6659
▁maronis	-11.6661
▁cui	-11.6663
▁reveals	-11.6664
▁server	-11.6664
▁dea	-11.6683
▁sparks	-11.6684
ku	-11.6692
▁modifi	-11.6698
uk	-11.67
tted	-11.6715
worthy	-11.6722
▁communists	-11.6722
itz	-11.6727
stray	-11.6733
▁laughed	-11.6737
ffer	-11.6752
▁sugars	-11.6784
▁efforts	-11.6784
▁statues	-11.6784
▁visions	-11.6784
▁damages	-11.6786
▁judgmental	-11.6792
▁rim	-11.6801
▁targeting	-11.6811
▁merc	-11.6821
▁gust	-11.6822
▁rises	-11.6844
▁negros	-11.6846
▁droids	-11.6849
utiny	-11.6858
mv	-11.6858
lax	-11.6883
▁mouthing	-11.6885
bot	-11.6896
dated	-11.6898
▁strikes	-11.6908
▁tunnels	-11.6908
▁imma	-11.6934
▁waitin	-11.6943
haste	-11.6946
▁statements	-11.697
lands	-11.6973
▁geograph	-11.6975
zi	-11.6989
▁cot	-11.7019
▁beh	-11.7032
eter	-11.7044
▁kat	-11.7045
▁owners	-11.7054
eah	-11.7055
▁monkeys	-11.7059
▁trilli	-11.7074
▁refine	-11.7083
laine	-11.7113
pple	-11.7142
▁sle	-11.7151
▁lib	-11.7168
▁retriev	-11.7187
▁users	-11.7202
▁rubb	-11.7219
▁mono	-11.7246
▁graduat	-11.7263
rts	-11.7283
▁mala	-11.7293
▁experienc	-11.7311
imp	-11.733
▁tempt	-11.7332
▁contro	-11.7335
ugged	-11.734
▁inst	-11.7347
▁insta	-11.7361
▁seize	-11.74
▁contr	-11.74
▁braver	-11.7404
ota	-11.7405
ellan	-11.7426
ener	-11.7432
eh	-11.7437
stice	-11.7443
erta	-11.7443
amba	-11.7447
▁fatal	-11.7465
bad	-11.7484
▁compensat	-11.7499
▁char	-11.7503
tag	-11.751
▁sender	-11.7511
▁joan	-11.7519
rien	-11.7531
lan	-11.7533
bit	-11.7538
▁cord	-11.754
sia	-11.7544
gar	-11.7548
illa	-11.7552
▁fishie	-11.7568
pod	-11.7575
functional	-11.7587
▁expand	-11.7591
cle	-11.7611
ced	-11.7613
radi	-11.7668
met	-11.7675
ooter	-11.7678
▁pac	-11.7684
avier	-11.7695
ido	-11.7697
ulf	-11.7701
▁concentrat	-11.7712
▁dynami	-11.7726
hat	-11.7732
bbing	-11.7771
▁evi	-11.7782
▁rei	-11.7808
▁muti	-11.7818
▁sav	-11.782
▁schedul	-11.7834
mal	-11.7845
bc	-11.7852
table	-11.7855
▁trauma	-11.788
▁prob	-11.79
▁sho	-11.7926
iv	-11.7936
ress	-11.7941
teen	-11.7956
bat	-11.7961
logue	-11.7968
▁hast	-11.7972
▁fog	-11.7977
natas	-11.8029
gan	-11.8046
▁offen	-11.8064
dem	-11.8065
▁dodg	-11.8087
posed	-11.8105
person	-11.8123
eater	-11.814
bia	-11.8197
wee	-11.8199
▁fie	-11.8201
olic	-11.8233
cky	-11.825
▁fac	-11.8272
▁gumm	-11.8273
posters	-11.8288
▁penal	-11.8327
▁cod	-11.8327
▁hellion	-11.8405
water	-11.8408
rina	-11.8411
rained	-11.8417
lifted	-11.8425
con	-11.8426
▁author	-11.8429
▁clinic	-11.8481
▁gap	-11.851
▁dish	-11.8511
▁mega	-11.853
▁refer	-11.8585
▁fianc	-11.8593
otsie	-11.8595
dential	-11.8597
▁quant	-11.8609
▁historic	-11.862
▁sip	-11.862
▁bum	-11.8626
yah	-11.8629
ware	-11.8644
▁robbin	-11.8648
most	-11.865
ficial	-11.8663
ively	-11.8666
▁unemploy	-11.8669
▁communi	-11.8677
position	-11.8697
chel	-11.8716
bular	-11.8726
▁cont	-11.8727
▁uni	-11.8736
tte	-11.8738
onnie	-11.874
cio	-11.8746
▁stab	-11.8762
rough	-11.8763
▁zip	-11.8764
version	-11.8766
rban	-11.8776
▁emotion	-11.8778
eons	-11.8782
ery	-11.8805
ancy	-11.881
▁observ	-11.8811
vable	-11.884
bid	-11.8848
sites	-11.8854
ibin	-11.8875
▁pil	-11.8885
illion	-11.8889
▁bribe	-11.8901
cake	-11.8902
▁ignoran	-11.8919
▁knickerbocker	-11.892
▁pilgrim	-11.892
▁roadblock	-11.892
▁obligation	-11.8921
▁scorpion	-11.8922
▁sinkhole	-11.8922
▁reek	-11.8923
▁infection	-11.8924
▁villain	-11.8924
centr	-11.8925
▁hottie	-11.8928
▁enterprise	-11.893
▁headquarter	-11.893
▁rhib	-11.893
▁schemer	-11.893
fy	-11.8931
▁sponsor	-11.8931
▁snack	-11.8935
▁barrier	-11.8937
▁leanin	-11.8938
▁olympian	-11.8938
▁panel	-11.8939
▁slgh	-11.8944
▁resource	-11.8945
▁ymbryne	-11.8946
▁ancestor	-11.8946
▁rumor	-11.8948
▁trotter	-11.8948
▁coordinate	-11.895
▁vein	-11.8953
▁wearin	-11.8965
▁perk	-11.8969
path	-11.8976
ssier	-11.8981
jour	-11.8985
▁pea	-11.8988
▁publish	-11.8997
▁presum	-11.9003
hou	-11.9011
▁inva	-11.9015
orque	-11.9017
call	-11.9022
▁blink	-11.9023
▁gru	-11.9024
rink	-11.9042
▁strap	-11.9042
mou	-11.9044
ground	-11.9044
▁embarrass	-11.9049
nal	-11.905
stl	-11.9053
▁critic	-11.9054
erets	-11.9059
born	-11.9063
▁stra	-11.9065
▁demo	-11.9066
father	-11.9068
stained	-11.9068
daughter	-11.9068
▁dw	-11.9069
illed	-11.9071
unch	-11.9075
▁bai	-11.9076
walk	-11.9077
▁imagin	-11.9077
▁improv	-11.9079
q	-11.9081
pitched	-11.9081
writing	-11.9082
▁convict	-11.9082
fight	-11.9082
shot	-11.9082
probabl	-11.9083
qualified	-11.9083
smith	-11.9084
identified	-11.9085
reliable	-11.9085
flies	-11.9085
issue	-11.9086
therapy	-11.9086
▁lung	-11.9086
scale	-11.9087
▁forgiven	-11.9087
media	-11.9087
heart	-11.9087
high	-11.9087
hunting	-11.9088
eating	-11.9088
think	-11.9088
third	-11.9088
winning	-11.9088
front	-11.9088
convoy	-11.9088
poe	-11.9088
responsible	-11.9088
horse	-11.9089
killer	-11.9089
fault	-11.9089
finished	-11.9089
duty	-11.9089
watch	-11.9089
control	-11.9089
speaker	-11.9089
forward	-11.9089
▁hustle	-11.909
office	-11.9091
▁humm	-11.9091
gorge	-11.9091
market	-11.9091
burn	-11.9092
▁qua	-11.9092
job	-11.9092
▁accomplish	-11.9092
▁thrill	-11.9093
elect	-11.9093
▁obsess	-11.9093
vice	-11.9093
▁retard	-11.9093
mart	-11.9093
▁float	-11.9094
▁condemn	-11.9094
▁stall	-11.9094
neck	-11.9095
month	-11.9095
seeing	-11.9096
word	-11.9098
exist	-11.9099
shape	-11.9099
order	-11.9101
▁investigate	-11.9102
▁delinquen	-11.9102
▁initiate	-11.9105
▁preten	-11.9105
▁amaze	-11.9106
fish	-11.9108
nner	-11.9109
▁rehears	-11.9109
▁analys	-11.9111
▁mute	-11.9112
▁humiliate	-11.9112
▁evacuat	-11.9112
credit	-11.9112
▁colon	-11.9113
▁merv	-11.9113
▁react	-11.9114
▁rabbi	-11.9114
▁flirt	-11.9114
▁org	-11.9114
▁gravit	-11.9115
▁tink	-11.9115
▁promis	-11.9116
▁frequent	-11.9116
hm	-11.9117
▁calculat	-11.9117
▁sensitiv	-11.9117
▁independent	-11.9117
▁defens	-11.9118
toms	-11.9118
dog	-11.9118
▁legac	-11.9119
▁omni	-11.912
▁brillian	-11.9121
▁ratchet	-11.9121
▁withdraw	-11.9122
▁investigati	-11.9122
▁epic	-11.9123
▁spac	-11.9123
bone	-11.9124
▁australia	-11.9124
▁mosquito	-11.9124
cast	-11.9124
conscious	-11.9125
▁fuckin	-11.9125
▁colombia	-11.9125
believable	-11.9125
▁wail	-11.9126
▁sietch	-11.9126
▁garde	-11.9126
▁shou	-11.9126
itary	-11.9126
▁forni	-11.9127
▁suz	-11.9127
▁everythin	-11.9127
▁mornin	-11.9127
▁counsel	-11.9127
scribe	-11.9127
▁sittin	-11.9128
▁cro	-11.9128
▁meditat	-11.9128
scription	-11.9128
▁turin	-11.9128
easonable	-11.9128
▁resign	-11.9128
▁admiral	-11.9129
graph	-11.9129
▁chemist	-11.9129
retches	-11.9129
▁archaeolog	-11.9129
▁transpo	-11.9129
lease	-11.9129
▁ancestr	-11.913
▁cpr	-11.913
▁heir	-11.913
▁scholar	-11.913
mistak	-11.913
▁activi	-11.913
▁smug	-11.913
▁mediocr	-11.913
▁phenom	-11.913
adolescent	-11.913
anthrop	-11.913
nctly	-11.913
nsylvania	-11.913
ometry	-11.913
▁advertising	-11.913
▁advisor	-11.913
▁aerobic	-11.913
▁affirmati	-11.913
▁aligned	-11.913
▁amalgamated	-11.913
▁amendments	-11.913
▁anticipation	-11.913
▁anxiety	-11.913
▁apollyon	-11.913
▁apologizing	-11.913
▁apprehend	-11.913
▁arnold	-11.913
▁artifact	-11.913
▁assembly	-11.913
▁athena	-11.913
▁auxiliary	-11.913
▁avalanche	-11.913
▁baghdad	-11.913
▁balkan	-11.913
▁barbecue	-11.913
▁bazooka	-11.913
▁belgian	-11.913
▁benefactor	-11.913
▁bexhill	-11.913
▁bfab	-11.913
▁billionaire	-11.913
▁binoculars	-11.913
▁blitz	-11.913
▁bonfire	-11.913
▁boogity	-11.913
▁boondocks	-11.913
▁boundaries	-11.913
▁bouvier	-11.913
▁brenda	-11.913
▁buccaneer	-11.913
▁bulgarian	-11.913
▁calculus	-11.913
▁calligraphy	-11.913
▁caribbean	-11.913
▁cataclysm	-11.913
▁caucasian	-11.913
▁cauliflower	-11.913
▁cellulite	-11.913
▁centimeter	-11.913
▁ceramic	-11.913
▁challenging	-11.913
▁chitchat	-11.913
▁cinema	-11.913
▁clumsy	-11.913
▁coconut	-11.913
▁coiiege	-11.913
▁colette	-11.913
▁competitive	-11.913
▁concur	-11.913
▁confiscated	-11.913
▁construction	-11.913
▁consumption	-11.913
▁continent	-11.913
▁convenience	-11.913
▁covid	-11.913
▁crescendo	-11.913
▁crybaby	-11.913
▁crysknife	-11.913
▁cufflinks	-11.913
▁cyanide	-11.913
▁decipher	-11.913
▁deflect	-11.913
▁demographic	-11.913
▁depraved	-11.913
▁depravity	-11.913
▁detention	-11.913
▁devastated	-11.913
▁dialect	-11.913
▁discharge	-11.913
▁dissect	-11.913
▁doorstep	-11.913
▁doughtywylie	-11.913
▁dummies	-11.913
▁elegant	-11.913
▁elusive	-11.913
▁enclosed	-11.913
▁engrave	-11.913
▁enthusiastic	-11.913
▁euphemia	-11.913
▁exboyfriend	-11.913
▁exgirlfriend	-11.913
▁exhibit	-11.913
▁exhusband	-11.913
▁exocon	-11.913
▁explicit	-11.913
▁exploit	-11.913
▁extravagan	-11.913
▁ezekiel	-11.913
▁fairchild	-11.913
▁famiiy	-11.913
▁figurative	-11.913
▁filthy	-11.913
▁flailing	-11.913
▁fontanez	-11.913
▁forgiving	-11.913
▁fwah	-11.913
▁fwran	-11.913
▁gabbe	-11.913
▁gadget	-11.913
▁gandhi	-11.913
▁gcpd	-11.913
▁germs	-11.913
▁gertie	-11.913
▁gibson	-11.913
▁giddy	-11.913
▁gingerbread	-11.913
▁gisborne	-11.913
▁glitter	-11.913
▁greaves	-11.913
▁greece	-11.913
▁gulag	-11.913
▁gymnasium	-11.913
▁haderach	-11.913
▁hillbilly	-11.913
▁horror	-11.913
▁humbly	-11.913
▁hypothe	-11.913
▁hysteria	-11.913
▁identities	-11.913
▁immigrants	-11.913
▁inconsiderate	-11.913
▁indestructible	-11.913
▁industry	-11.913
▁infidel	-11.913
▁injun	-11.913
▁integrity	-11.913
▁intensifies	-11.913
▁intestine	-11.913
▁irrelevant	-11.913
▁jacuzzi	-11.913
▁jawlock	-11.913
▁jurassic	-11.913
▁juvie	-11.913
▁kirk	-11.913
▁knoll	-11.913
▁kurds	-11.913
▁kuwait	-11.913
▁latrine	-11.913
▁lavallee	-11.913
▁legislat	-11.913
▁lewis	-11.913
▁lifesavers	-11.913
▁lndistinct	-11.913
▁lobster	-11.913
▁locustwood	-11.913
▁lucid	-11.913
▁lucinda	-11.913
▁lunatic	-11.913
▁maggot	-11.913
▁massachusetts	-11.913
▁maureen	-11.913
▁meadow	-11.913
▁mephistopheles	-11.913
▁merchandise	-11.913
▁midwest	-11.913
▁milligrams	-11.913
▁millisecond	-11.913
▁ministry	-11.913
▁mogadorian	-11.913
▁morgen	-11.913
▁mysteries	-11.913
▁nanobots	-11.913
▁naysayer	-11.913
▁nebraska	-11.913
▁neglect	-11.913
▁negotiable	-11.913
▁nickleby	-11.913
▁nijinsky	-11.913
▁ninja	-11.913
▁norrington	-11.913
▁nowadays	-11.913
▁obliterat	-11.913
▁outclassed	-11.913
▁override	-11.913
▁overseas	-11.913
▁pagoda	-11.913
▁paparazzi	-11.913
▁paprika	-11.913
▁parlour	-11.913
▁participant	-11.913
▁penzance	-11.913
▁percussion	-11.913
▁persecuted	-11.913
▁persianwife	-11.913
▁pixies	-11.913
▁polack	-11.913
▁practise	-11.913
▁precision	-11.913
▁preposterous	-11.913
▁priestesses	-11.913
▁privilege	-11.913
▁proportion	-11.913
▁purcell	-11.913
▁purchasing	-11.913
▁rabban	-11.913
▁rambling	-11.913
▁reboot	-11.913
▁rebuilt	-11.913
▁reflexes	-11.913
▁relentless	-11.913
▁resort	-11.913
▁respirator	-11.913
▁reunion	-11.913
▁riggleman	-11.913
▁rochelle	-11.913
▁rocholl	-11.913
▁rouge	-11.913
▁roxie	-11.913
▁satisfact	-11.913
▁saxophone	-11.913
▁scavenger	-11.913
▁seatbelt	-11.913
▁shondra	-11.913
▁siblings	-11.913
▁skyscraper	-11.913
▁sniper	-11.913
▁solitary	-11.913
▁solitude	-11.913
▁spalko	-11.913
▁specimen	-11.913
▁speculat	-11.913
▁spidder	-11.913
▁splendid	-11.913
▁squids	-11.913
▁squirrel	-11.913
▁steadily	-11.913
▁stillsuits	-11.913
▁stranded	-11.913
▁strawberries	-11.913
▁stunned	-11.913
▁supernatural	-11.913
▁survey	-11.913
▁sweatshirt	-11.913
▁sympathize	-11.913
▁taradash	-11.913
▁theories	-11.913
▁threequarter	-11.913
▁toledo	-11.913
▁tornado	-11.913
▁trombone	-11.913
▁turmoil	-11.913
▁tutelage	-11.913
▁tyrant	-11.913
▁ugliness	-11.913
▁umbranstone	-11.913
▁unbearable	-11.913
▁unnatural	-11.913
▁unofficial	-11.913
▁unthinkable	-11.913
▁uplink	-11.913
▁urging	-11.913
▁uterus	-11.913
▁veteran	-11.913
▁vietnam	-11.913
▁vigilante	-11.913
▁vinkovci	-11.913
▁violin	-11.913
▁voila	-11.913
▁volume	-11.913
▁voluntary	-11.913
▁whelp	-11.913
▁whichever	-11.913
▁whodunit	-11.913
▁worthwhile	-11.913
▁xylophone	-11.913
▁zenith	-11.913
▁zeroknot	-11.913
▁zombie	-11.913
wrangle	-11.913
▁aircondition	-11.913
▁ascend	-11.913
▁barbershop	-11.913
▁daydream	-11.913
▁eradicate	-11.913
▁evolve	-11.913
▁firewall	-11.913
▁infinite	-11.913
▁oyster	-11.913
▁pinecone	-11.913
▁predator	-11.913
▁propeller	-11.913
▁quaint	-11.913
▁renounc	-11.913
▁sardine	-11.913
▁satisfy	-11.913
▁spectr	-11.913
▁sprinkle	-11.913
▁strategi	-11.913
▁stroll	-11.913
▁transcend	-11.913
galactic	-11.913
voodoo	-11.913
▁afterwards	-11.913
▁alonso	-11.913
▁benitez	-11.913
▁butterfly	-11.913
▁dameron	-11.913
▁doubleteam	-11.913
▁expense	-11.913
▁flavor	-11.913
▁froegers	-11.913
▁fromage	-11.913
▁fudge	-11.913
▁gasoline	-11.913
▁gleam	-11.913
▁ingrates	-11.913
▁kgb	-11.913
▁livestock	-11.913
▁marlene	-11.913
▁misplaced	-11.913
▁monroe	-11.913
▁montage	-11.913
▁ninth	-11.913
▁payroll	-11.913
▁phew	-11.913
▁piease	-11.913
▁postcard	-11.913
▁radiation	-11.913
▁remanded	-11.913
▁rooney	-11.913
▁sensible	-11.913
▁southeast	-11.913
▁spiral	-11.913
▁stamp	-11.913
▁stockholder	-11.913
▁storage	-11.913
▁trellis	-11.913
udlin	-11.913
▁barricade	-11.913
▁buoy	-11.913
▁canister	-11.913
▁decay	-11.913
▁drugstore	-11.913
▁ekg	-11.913
▁extradite	-11.913
▁flask	-11.913
▁loeb	-11.913
▁nightfall	-11.913
▁noisy	-11.913
▁nudity	-11.913
▁parched	-11.913
▁sermon	-11.913
▁sherman	-11.913
▁vadim	-11.913
▁auditorium	-11.913
▁azt	-11.913
▁bronwyn	-11.913
▁buddhis	-11.913
▁embrace	-11.913
▁enchant	-11.913
▁excellenc	-11.913
▁geller	-11.913
▁gwen	-11.913
▁hecta	-11.913
▁jukebox	-11.913
▁mutual	-11.913
▁trifle	-11.913
hypoch	-11.913
▁abyss	-11.913
▁buddha	-11.913
▁cadet	-11.913
▁coworker	-11.913
▁drumming	-11.913
▁impulse	-11.913
▁lurk	-11.913
▁mirage	-11.913
▁particle	-11.913
▁purgatory	-11.913
▁ufo	-11.913
▁compels	-11.913
▁ctf	-11.913
▁floss	-11.913
▁juror	-11.913
▁sedative	-11.913
▁tavern	-11.913
▁waldo	-11.913
▁vigil	-11.913
▁emeralds	-11.913
▁gimbels	-11.913
▁majestic	-11.913
▁margin	-11.913
▁premises	-11.913
▁sentinel	-11.913
▁spurs	-11.913
▁sensation	-11.913
▁torment	-11.913
▁unkar	-11.913
klu	-11.913
▁badmouthing	-11.913
▁delicate	-11.913
▁lumps	-11.913
▁occurred	-11.913
▁pretties	-11.913
▁campfire	-11.913
▁cardinal	-11.913
▁mosque	-11.913
▁oonagh	-11.913
▁ricardito	-11.913
▁slither	-11.913
▁tweed	-11.913
▁domestic	-11.913
▁poppycock	-11.913
▁mantoman	-11.913
▁remedy	-11.913
▁barneys	-11.913
▁judy	-11.913
▁magnify	-11.913
▁persuade	-11.913
▁programming	-11.913
▁unfold	-11.913
▁axl	-11.913
▁barefoot	-11.913
▁flagpole	-11.913
▁fracture	-11.913
▁reaves	-11.913
▁reduce	-11.913
▁smores	-11.913
▁conserv	-11.913
▁bloodshed	-11.913
▁larry	-11.913
▁narcotics	-11.913
▁broadcast	-11.913
aaargh	-11.913
crumb	-11.913
▁converte	-11.913
▁offworld	-11.913
▁coerc	-11.913
▁najee	-11.913
▁plunder	-11.913
▁intensi	-11.913
▁lennon	-11.913
▁babylon	-11.913
▁teammates	-11.913
▁carrot	-11.913
▁kiii	-11.913
▁underestimate	-11.913
▁amplifi	-11.913
▁damsel	-11.913
▁grownups	-11.913
▁plummet	-11.913
▁conspiring	-11.913
▁stunning	-11.913
▁unaware	-11.913
judicia	-11.913
perative	-11.913
skeleton	-11.913
▁saud	-11.913
▁blurr	-11.913
▁provoke	-11.913
▁wifi	-11.913
urag	-11.913
▁bendix	-11.913
▁flake	-11.913
▁taunt	-11.913
▁consistent	-11.9131
▁crook	-11.9131
▁nutshell	-11.9131
▁toehold	-11.9131
▁jules	-11.9131
▁weicome	-11.9131
▁levitch	-11.9131
▁immature	-11.9131
▁banjo	-11.9131
▁croak	-11.9131
▁nigeria	-11.9131
▁incarceration	-11.9131
▁babysitter	-11.9131
▁plugged	-11.9131
▁zebra	-11.9131
▁ancestress	-11.9131
▁heiress	-11.9131
▁twitter	-11.9131
▁jocks	-11.9131
▁cynthia	-11.9131
▁institute	-11.9131
▁jammed	-11.9131
▁tactics	-11.9131
▁upsidedown	-11.9131
▁newcomer	-11.9131
▁turnip	-11.9131
▁unhappy	-11.9131
▁worshipping	-11.9131
▁xwing	-11.9131
▁senator	-11.9131
▁introduction	-11.9131
▁morse	-11.9131
ailment	-11.9131
▁silk	-11.9131
▁mustang	-11.9131
▁vinci	-11.9131
▁mambo	-11.9131
▁lazyeye	-11.9131
▁bellyache	-11.9131
▁beneath	-11.9131
▁craig	-11.9131
▁picnic	-11.9131
▁composition	-11.9131
▁gravy	-11.9131
▁ignition	-11.9131
seif	-11.9131
▁plague	-11.9131
▁spani	-11.9131
▁techno	-11.9131
▁colonize	-11.9131
▁elbow	-11.9131
▁narcissism	-11.9131
▁receding	-11.9131
▁topsecret	-11.9131
▁minibar	-11.9131
▁hasidi	-11.9131
▁deluxe	-11.9131
▁involving	-11.9131
▁snorting	-11.9131
▁fantasies	-11.9131
▁turdis	-11.9131
kwis	-11.9131
▁psychology	-11.9131
▁aligning	-11.9131
▁overthrow	-11.9131
▁beemer	-11.9131
▁rummag	-11.9131
▁plaster	-11.9131
inated	-11.9131
▁prescription	-11.9131
▁cavalry	-11.9131
▁impu	-11.9131
▁fatima	-11.9131
▁whittle	-11.9131
▁combust	-11.9131
▁rapture	-11.9131
▁drool	-11.9131
▁interference	-11.9131
▁junie	-11.9131
▁limehouse	-11.9131
▁commenc	-11.9131
▁chunk	-11.9131
▁placenta	-11.9131
▁dragonflies	-11.9131
▁illusion	-11.9131
▁downhill	-11.9131
▁pouch	-11.9131
▁provocation	-11.9131
▁misery	-11.9131
▁subtle	-11.9131
▁anglo	-11.9131
▁rustlers	-11.9131
▁striking	-11.9131
▁scept	-11.9131
▁afoot	-11.9131
▁blunt	-11.9131
▁fading	-11.9131
▁ragged	-11.9131
▁endangerment	-11.9131
▁esther	-11.9131
▁headlines	-11.9131
▁petition	-11.9131
rizz	-11.9131
▁diversion	-11.9131
▁psychiatrist	-11.9131
▁rivalry	-11.9131
▁capita	-11.9132
▁mierd	-11.9132
▁gloria	-11.9132
▁furtherm	-11.9132
▁initiating	-11.9132
▁enrique	-11.9132
▁railway	-11.9132
▁enslave	-11.9132
▁efficient	-11.9132
▁wiring	-11.9132
▁reopen	-11.9132
▁calais	-11.9132
▁bloke	-11.9132
▁testament	-11.9132
▁dominating	-11.9132
▁nuys	-11.9132
▁stability	-11.9132
▁gibberish	-11.9132
▁proxi	-11.9132
▁hungries	-11.9132
▁rooftop	-11.9132
▁superstar	-11.9132
▁nitrate	-11.9132
▁occupation	-11.9132
▁alphabet	-11.9132
▁arlin	-11.9132
▁memorized	-11.9132
▁whatcha	-11.9132
▁tryouts	-11.9132
▁senorita	-11.9132
▁whatwhat	-11.9132
▁intimidation	-11.9132
▁pillage	-11.9132
▁roam	-11.9132
▁banner	-11.9132
▁feminist	-11.9132
▁festival	-11.9132
▁carnival	-11.9132
▁jeopardi	-11.9132
▁citizenship	-11.9132
▁ouch	-11.9132
▁ginger	-11.9132
▁overcoat	-11.9132
▁shoplifter	-11.9132
▁oversee	-11.9132
▁frustration	-11.9132
▁tension	-11.9132
▁dumpster	-11.9132
▁boardwalk	-11.9132
▁passageway	-11.9132
▁sample	-11.9132
▁moses	-11.9132
▁accomplishment	-11.9132
▁clockwork	-11.9132
▁sofa	-11.9132
▁canteen	-11.9132
▁embarrassment	-11.9132
▁gallons	-11.9132
▁wrapping	-11.9132
doodle	-11.9132
wheat	-11.9132
▁sancti	-11.9132
orchid	-11.9132
▁harb	-11.9132
▁leper	-11.9132
▁angelica	-11.9132
▁labour	-11.9132
▁divert	-11.9132
victed	-11.9132
▁plow	-11.9132
▁behold	-11.9132
▁mentos	-11.9133
▁distra	-11.9133
▁objections	-11.9133
▁blentle	-11.9133
▁excel	-11.9133
▁outbreak	-11.9133
▁transmitter	-11.9133
▁panties	-11.9133
▁sumia	-11.9133
▁lioness	-11.9133
▁trop	-11.9133
▁kath	-11.9133
▁reborn	-11.9133
▁brute	-11.9133
assign	-11.9133
▁caterer	-11.9133
▁shoreline	-11.9133
▁linder	-11.9133
▁pollut	-11.9133
▁lodg	-11.9133
▁earpiece	-11.9133
▁uphold	-11.9133
▁dupe	-11.9133
▁fluke	-11.9133
▁trend	-11.9133
▁agenda	-11.9133
▁valid	-11.9133
▁affectionate	-11.9133
▁earphone	-11.9133
▁eww	-11.9133
▁flashback	-11.9133
▁mcke	-11.9133
▁journalist	-11.9133
▁abruptly	-11.9133
▁argh	-11.9133
▁cooperating	-11.9133
▁catastrophe	-11.9134
▁exclusive	-11.9134
▁homicide	-11.9134
▁retaliate	-11.9134
▁pastures	-11.9134
▁scorch	-11.9134
▁contrary	-11.9134
▁hunk	-11.9134
▁righteous	-11.9134
▁yummy	-11.9134
▁fragile	-11.9134
▁cush	-11.9134
▁gender	-11.9134
▁heeee	-11.9134
▁notch	-11.9134
nhill	-11.9134
▁swallow	-11.9134
▁scold	-11.9134
▁fliers	-11.9134
▁ferries	-11.9134
▁blacksmith	-11.9134
▁gamb	-11.9135
▁bonehead	-11.9135
mom	-11.9135
▁intro	-11.9135
▁brothersinlaw	-11.9135
▁accessory	-11.9135
▁pillar	-11.9135
▁dependable	-11.9135
▁tardi	-11.9135
▁contest	-11.9135
▁fangs	-11.9135
arch	-11.9135
▁conceal	-11.9135
▁thorns	-11.9135
▁kook	-11.9135
▁voting	-11.9135
▁establishment	-11.9135
▁birdhouse	-11.9135
▁tutu	-11.9135
▁baggage	-11.9136
▁keyboard	-11.9136
ffy	-11.9136
antom	-11.9136
ttent	-11.9136
ucci	-11.9136
▁unconscious	-11.9136
▁pension	-11.9136
▁sewage	-11.9136
▁sheikh	-11.9136
▁bitterness	-11.9136
▁valve	-11.9136
▁fascinated	-11.9136
▁mobilized	-11.9136
▁complexity	-11.9136
▁yuet	-11.9136
▁allez	-11.9136
▁moping	-11.9136
▁implement	-11.9136
▁inbound	-11.9136
▁poking	-11.9136
▁income	-11.9136
▁retirement	-11.9136
▁trafficking	-11.9136
▁haircut	-11.9136
▁logout	-11.9136
▁jolly	-11.9136
ragm	-11.9136
aux	-11.9136
▁tacks	-11.9137
▁reflection	-11.9137
▁monet	-11.9137
▁transition	-11.9137
▁ferryman	-11.9137
▁hazard	-11.9137
burgh	-11.9137
▁sietches	-11.9137
▁mature	-11.9137
▁coz	-11.9137
▁canary	-11.9137
▁feat	-11.9138
▁recognise	-11.9138
▁fret	-11.9138
▁dried	-11.9138
▁collective	-11.9138
▁devotion	-11.9138
▁lowlife	-11.9138
▁salvation	-11.9138
▁rathead	-11.9138
▁toxic	-11.9138
▁jasmin	-11.9138
▁detector	-11.9138
▁drought	-11.9138
▁porch	-11.9138
▁tyre	-11.9138
▁withdrawal	-11.9138
▁quad	-11.9138
▁alps	-11.9138
ellent	-11.9138
▁shade	-11.9138
▁veto	-11.9138
▁clueless	-11.9138
▁quar	-11.9138
▁apiece	-11.9139
oulder	-11.9139
▁happiest	-11.9139
▁homies	-11.9139
▁quest	-11.9139
▁skep	-11.9139
▁partially	-11.9139
▁susanne	-11.9139
▁requirement	-11.9139
▁mere	-11.9139
▁springtime	-11.9139
▁cruelty	-11.9139
▁confine	-11.9139
pido	-11.9139
▁antonia	-11.914
▁representation	-11.914
▁flor	-11.914
▁faii	-11.914
ayas	-11.914
▁clapping	-11.914
▁frenzy	-11.914
▁pottery	-11.914
nappers	-11.9141
▁icu	-11.9141
▁levi	-11.9141
▁disco	-11.9141
▁vau	-11.9141
▁evp	-11.9141
ratic	-11.9141
▁landmark	-11.9141
▁mold	-11.9141
▁salesman	-11.9141
▁apocalyp	-11.9141
▁reception	-11.9141
▁rita	-11.9141
▁closure	-11.9141
▁convincing	-11.9141
▁currency	-11.9141
▁fathom	-11.9141
▁maintenance	-11.9141
▁phony	-11.9141
▁perish	-11.9141
▁fictional	-11.9142
▁chink	-11.9142
▁unsettling	-11.9142
▁haiti	-11.9142
▁conj	-11.9142
▁lanville	-11.9142
▁daring	-11.9142
▁poetic	-11.9142
▁veil	-11.9143
▁mobility	-11.9143
▁rave	-11.9143
▁layout	-11.9143
▁thatsthats	-11.9143
▁worshipped	-11.9143
aching	-11.9143
▁harness	-11.9143
▁acre	-11.9144
▁bodi	-11.9144
▁jillian	-11.9144
▁eyeball	-11.9144
▁crate	-11.9144
▁frog	-11.9144
▁bowel	-11.9144
▁travelled	-11.9144
mption	-11.9144
▁calculation	-11.9145
▁frequently	-11.9145
▁independently	-11.9145
ohan	-11.9145
▁evacuate	-11.9145
▁sketches	-11.9145
▁shovel	-11.9145
▁storyteller	-11.9145
▁vaccinated	-11.9146
▁promoted	-11.9146
▁dios	-11.9146
▁employment	-11.9146
▁chickie	-11.9146
▁replacement	-11.9146
▁wade	-11.9146
egian	-11.9147
▁meas	-11.9147
▁intruder	-11.9147
llery	-11.9147
▁drophead	-11.9147
▁irl	-11.9147
▁iris	-11.9148
▁lube	-11.9148
▁soto	-11.9148
pathy	-11.9148
▁grain	-11.9148
▁admirer	-11.9148
▁betrayal	-11.9148
▁allen	-11.9148
space	-11.9149
▁caroline	-11.9149
▁sexist	-11.9149
▁baz	-11.9149
force	-11.9149
▁midst	-11.9149
▁orchestral	-11.9149
▁polo	-11.915
▁analyst	-11.915
ihu	-11.915
▁thai	-11.915
▁embar	-11.915
▁interst	-11.9151
▁whim	-11.9151
▁relatively	-11.9151
▁viable	-11.9151
▁abc	-11.9151
▁ciass	-11.9152
▁unhand	-11.9152
amos	-11.9152
▁firewood	-11.9152
▁dug	-11.9153
▁lsnt	-11.9154
bug	-11.9154
metric	-11.9154
▁assassination	-11.9154
▁tory	-11.9155
▁heighten	-11.9155
▁frontier	-11.9155
▁museo	-11.9156
▁initiated	-11.9156
▁vase	-11.9156
▁caf	-11.9156
▁duh	-11.9156
▁pooper	-11.9156
▁brotherhood	-11.9157
▁rundown	-11.9157
▁bono	-11.9158
▁overhear	-11.9158
acho	-11.9158
▁pong	-11.9158
▁suv	-11.9158
▁holtzy	-11.916
▁dose	-11.9161
▁ideally	-11.9161
▁publicity	-11.9161
▁becky	-11.9162
atz	-11.9162
▁gurgling	-11.9162
▁finance	-11.9162
▁shortage	-11.9162
▁groove	-11.9162
▁raisin	-11.9162
▁simp	-11.9162
▁arch	-11.9162
▁comply	-11.9162
▁bubbling	-11.9162
▁deeds	-11.9163
▁bandage	-11.9163
▁accusing	-11.9163
▁bakery	-11.9163
▁homeboy	-11.9164
▁bluffing	-11.9164
▁blindness	-11.9164
▁osi	-11.9165
▁snapped	-11.9165
▁agony	-11.9166
▁plead	-11.9166
▁renew	-11.9166
▁examined	-11.9166
▁chok	-11.9166
▁flex	-11.9166
▁jackass	-11.9167
tuary	-11.9167
▁pep	-11.9168
sanitar	-11.9168
▁breed	-11.9168
▁tucker	-11.9169
▁ciao	-11.9169
ronto	-11.917
▁dice	-11.9171
▁barge	-11.9171
▁neb	-11.9171
utton	-11.9172
▁hustler	-11.9173
▁considerable	-11.9173
▁lefthand	-11.9173
▁deez	-11.9174
▁resu	-11.9174
stein	-11.9174
▁terminate	-11.9175
▁yoke	-11.9176
cuba	-11.9176
▁medicin	-11.9176
▁faithful	-11.9177
▁gorge	-11.9178
▁dinosaurs	-11.9178
▁marshmallows	-11.9178
▁paramedics	-11.9178
▁recipients	-11.9178
▁replicas	-11.9178
▁rival	-11.9178
▁seminoles	-11.9178
▁shrleks	-11.9178
▁vultures	-11.9178
▁quitting	-11.9178
▁crackers	-11.9179
▁lynn	-11.9179
▁justine	-11.9179
▁randomly	-11.9179
asket	-11.918
▁boba	-11.9181
▁mentor	-11.9181
▁stalling	-11.9182
▁iate	-11.9183
▁lust	-11.9183
▁bern	-11.9184
alyze	-11.9184
▁criticiz	-11.9184
▁conquered	-11.9185
▁realistic	-11.9185
odium	-11.9185
▁advertised	-11.9186
liers	-11.9187
▁sickness	-11.9187
▁emerged	-11.9187
▁peeled	-11.9188
▁chestal	-11.9189
ument	-11.919
▁flattering	-11.919
▁urgently	-11.9191
▁willy	-11.9192
▁whl	-11.9194
▁shaken	-11.9195
▁selected	-11.9195
▁shu	-11.9195
▁mytho	-11.9195
▁executed	-11.9196
nah	-11.9197
▁enjoyment	-11.9197
▁abr	-11.9198
▁wingman	-11.9198
your	-11.9198
▁reid	-11.9198
▁collector	-11.9199
▁vested	-11.9201
holy	-11.9201
▁playback	-11.9201
▁ditched	-11.9201
▁dim	-11.9202
▁thankful	-11.9202
▁stag	-11.9203
▁stalking	-11.9203
▁vanishing	-11.9203
▁cocking	-11.9203
▁brit	-11.9204
minent	-11.9204
udged	-11.9205
▁cuddl	-11.9205
nger	-11.9205
▁rooting	-11.9206
▁wool	-11.9206
▁starved	-11.9207
▁behead	-11.9208
▁isolat	-11.9208
▁fellowes	-11.9209
▁jc	-11.9209
▁sur	-11.9209
▁swipe	-11.9209
asion	-11.9209
▁lockon	-11.921
▁printer	-11.9211
▁peri	-11.9211
▁dire	-11.9212
tested	-11.9212
▁tet	-11.9213
mond	-11.9214
attered	-11.9214
▁cusp	-11.9215
▁ridin	-11.9215
▁yale	-11.9215
▁participate	-11.9215
▁turnout	-11.9216
▁shhh	-11.9216
▁hump	-11.9217
▁suggestion	-11.9218
▁methodical	-11.9219
▁plank	-11.922
▁addresses	-11.9222
▁strongest	-11.9223
lynn	-11.9224
▁kite	-11.9224
▁entertaining	-11.9224
owitz	-11.9224
▁stable	-11.9225
▁auditioning	-11.9225
▁idol	-11.9226
▁dune	-11.9226
▁fasten	-11.9228
▁christmases	-11.9228
▁your	-11.9228
▁hunger	-11.9229
▁rollin	-11.9229
▁weatherly	-11.9232
▁sparky	-11.9232
▁madre	-11.9233
▁rasp	-11.9234
▁pointless	-11.9235
▁liberate	-11.9236
▁hopeful	-11.9236
▁required	-11.9239
▁bei	-11.924
dick	-11.9241
▁projection	-11.9241
uction	-11.9242
▁choked	-11.9243
▁glowing	-11.9245
▁disappointing	-11.9245
▁lbs	-11.9246
▁purr	-11.9246
▁connecting	-11.9247
▁corrupted	-11.9248
▁arri	-11.9248
▁residents	-11.925
▁eng	-11.9251
▁handful	-11.9254
▁hangman	-11.9255
▁sweaty	-11.9255
▁ripe	-11.9257
▁funded	-11.9257
▁logo	-11.9258
▁mutters	-11.9259
cumbers	-11.9259
▁rappe	-11.9259
▁precedes	-11.9259
▁stokes	-11.926
▁sorrows	-11.926
▁caverns	-11.926
▁cupcakes	-11.926
▁hippies	-11.926
▁orientals	-11.926
aday	-11.926
▁survivors	-11.926
▁hah	-11.9261
▁matches	-11.9262
headed	-11.9262
▁dispatched	-11.9264
▁drips	-11.9264
▁inning	-11.9264
▁provider	-11.9264
▁humilit	-11.9265
▁jeeping	-11.9266
▁briefing	-11.9266
tv	-11.9267
▁funding	-11.9269
lang	-11.9272
▁soaked	-11.9278
▁handsomely	-11.9278
▁lure	-11.9279
▁folder	-11.928
▁att	-11.928
▁cleaner	-11.9281
▁moor	-11.9282
▁growin	-11.9283
▁destroyer	-11.9283
▁oped	-11.9286
▁tile	-11.9286
▁meowing	-11.9286
▁accidental	-11.9288
▁beaches	-11.9289
▁gracious	-11.9291
ogram	-11.9297
▁mongolia	-11.9299
erton	-11.9299
▁followers	-11.9301
▁publication	-11.9302
▁magn	-11.9303
▁yah	-11.9304
cular	-11.9306
▁smacked	-11.9306
▁irony	-11.9306
▁boiling	-11.9307
▁resisting	-11.9308
▁burp	-11.931
▁distracted	-11.931
▁bailed	-11.9312
▁neo	-11.9317
eering	-11.9317
▁bosses	-11.9323
▁derri	-11.9324
▁maur	-11.9324
▁robes	-11.9328
▁weaken	-11.9329
▁splashing	-11.9329
▁denying	-11.9329
▁mounted	-11.9329
▁goodlooking	-11.933
▁geezer	-11.9332
▁engineered	-11.9334
▁buzzer	-11.9335
▁mart	-11.934
▁foundation	-11.9342
▁messes	-11.9343
▁reeks	-11.9344
▁sponsors	-11.9344
▁knickerbockers	-11.9344
▁pilgrims	-11.9344
▁roadblocks	-11.9344
▁scorpions	-11.9344
▁sinkholes	-11.9344
▁villains	-11.9345
▁obligations	-11.9345
▁latch	-11.9345
▁infections	-11.9345
▁retrac	-11.9345
▁dumping	-11.935
▁salty	-11.935
▁sling	-11.9352
▁hotties	-11.9355
seek	-11.9355
▁shitty	-11.9358
▁intercepted	-11.9358
▁healed	-11.9359
▁slacker	-11.936
▁rational	-11.936
hayne	-11.936
▁pitched	-11.9361
skinned	-11.9363
▁repri	-11.9366
▁porter	-11.9369
rent	-11.9371
▁traded	-11.9373
▁bailing	-11.9373
▁attended	-11.9373
▁wrecked	-11.9374
▁lowered	-11.9374
▁hint	-11.9375
earn	-11.9377
▁tally	-11.9377
idal	-11.9379
▁shouted	-11.9379
birds	-11.9388
▁shitless	-11.9389
▁faked	-11.9392
▁punishing	-11.9392
▁pullin	-11.9393
▁bumped	-11.9394
▁observe	-11.9396
▁ignored	-11.94
▁stepbrother	-11.9405
pending	-11.9409
▁tracts	-11.9411
▁jer	-11.942
dp	-11.9421
▁manny	-11.9426
▁bumme	-11.9429
▁nur	-11.9429
▁weeds	-11.9429
▁admissions	-11.943
▁barbarians	-11.943
▁biometrics	-11.943
▁items	-11.943
▁precautions	-11.943
▁underdogs	-11.943
▁balloons	-11.943
▁roommates	-11.943
▁throwin	-11.9431
▁musicians	-11.9431
▁summons	-11.9432
▁infern	-11.9435
▁cleaners	-11.9444
▁tuba	-11.9446
filter	-11.9447
▁liet	-11.9456
▁proceeding	-11.9456
▁cruiser	-11.9457
▁ital	-11.9457
▁fisher	-11.9457
▁hangin	-11.9458
humiliation	-11.946
going	-11.9462
▁muj	-11.9463
▁raz	-11.9468
▁shitting	-11.9471
ooting	-11.9471
▁mash	-11.9473
▁blamed	-11.9475
ipper	-11.9482
▁driven	-11.9488
▁bothered	-11.9489
vious	-11.9494
▁asia	-11.9502
▁triggered	-11.9502
▁risky	-11.9516
▁beginn	-11.9516
▁strays	-11.9516
▁arkhams	-11.9517
▁suspicions	-11.9517
▁yields	-11.9517
▁aiming	-11.952
▁complaints	-11.952
▁wallets	-11.9521
vated	-11.9523
▁poets	-11.9527
limey	-11.9533
▁spics	-11.9536
intentionally	-11.9537
low	-11.9537
▁wishin	-11.9537
▁opi	-11.9542
▁holed	-11.9542
▁ohoh	-11.9544
▁takeoff	-11.9544
umbawa	-11.9545
▁hog	-11.9546
▁passionate	-11.9555
▁shelly	-11.9558
▁planting	-11.956
▁camill	-11.9562
▁cones	-11.9563
▁tearing	-11.9574
pul	-11.9577
▁eatin	-11.9579
nking	-11.9587
chiroptera	-11.9592
▁heels	-11.9603
▁suitcases	-11.9603
▁maneuvers	-11.9603
▁lian	-11.9603
▁slaves	-11.9604
▁corpses	-11.9604
▁fores	-11.961
▁denis	-11.9614
▁plugs	-11.9617
▁eighty	-11.9622
▁gy	-11.9629
▁authoriz	-11.9633
▁signaling	-11.9635
▁limb	-11.9638
▁peas	-11.9651
rock	-11.9654
▁comf	-11.9664
bomb	-11.9703
xo	-11.9716
▁funn	-11.9717
arson	-11.9717
robbing	-11.9733
▁continued	-11.9741
▁indulg	-11.9743
▁dam	-11.9747
pent	-11.9747
▁duca	-11.9752
▁bugg	-11.9755
▁blu	-11.9756
caster	-11.9761
ctor	-11.9763
▁purit	-11.9772
▁sued	-11.9779
▁shredde	-11.9781
▁chu	-11.9784
▁ali	-11.9784
▁grove	-11.9797
▁patroll	-11.9835
unda	-11.9843
▁snapp	-11.9857
form	-11.9866
rial	-11.9894
oung	-11.9904
budget	-11.9922
▁gast	-11.9932
estra	-11.9939
▁cei	-11.9942
fund	-11.9945
have	-11.9947
▁hooker	-11.9948
▁mope	-11.9959
lamour	-11.9975
▁undertake	-11.9981
wed	-11.9991
▁dav	-12.0015
eek	-12.0017
takes	-12.0029
▁stifl	-12.0037
▁farthe	-12.0048
mat	-12.0058
▁devi	-12.0087
jam	-12.0088
▁ration	-12.0115
stract	-12.0144
▁jar	-12.015
▁don	-12.0151
mia	-12.0159
▁verb	-12.0173
▁youthful	-12.0176
his	-12.0199
▁swam	-12.0208
digesti	-12.0222
▁occup	-12.0223
lium	-12.0225
four	-12.0289
uddy	-12.0305
efully	-12.0307
ears	-12.0328
▁carvin	-12.0331
arina	-12.0341
neath	-12.0372
▁occasional	-12.0383
detected	-12.0413
maryland	-12.0415
hasi	-12.043
▁versa	-12.043
alogue	-12.0443
antic	-12.047
nathan	-12.0505
quint	-12.0509
▁rile	-12.0554
▁traumati	-12.0557
kidding	-12.0567
▁envi	-12.057
▁oppos	-12.0575
pai	-12.0582
▁colt	-12.0585
▁wrestle	-12.0588
▁reserve	-12.0602
ith	-12.0637
sick	-12.064
ussie	-12.065
▁shuffl	-12.0701
▁infiltrat	-12.0703
ood	-12.0723
fill	-12.0729
legitimate	-12.075
▁gail	-12.0756
▁smo	-12.0766
uhuh	-12.0775
explored	-12.081
▁utilize	-12.081
llar	-12.0819
conventional	-12.082
ix	-12.0831
conne	-12.0836
tonic	-12.0864
▁waller	-12.0881
▁yyou	-12.0894
itties	-12.0899
allout	-12.0901
▁flyer	-12.0903
▁norw	-12.0906
▁pase	-12.0921
politan	-12.0955
▁sca	-12.099
▁emi	-12.0999
dan	-12.1046
ggie	-12.105
cise	-12.105
bore	-12.1052
quin	-12.1103
pid	-12.1118
▁armi	-12.1142
omo	-12.115
uffle	-12.1202
▁exercis	-12.1208
▁ringl	-12.1229
▁graceful	-12.1234
▁prioriti	-12.1236
▁capitalist	-12.1237
aving	-12.1272
▁onesie	-12.1293
▁vira	-12.1309
▁chur	-12.1318
▁spri	-12.1335
ille	-12.1343
▁elde	-12.1359
▁arg	-12.1363
hooting	-12.1379
▁au	-12.1403
▁gen	-12.1418
tub	-12.1423
iological	-12.1455
▁imposter	-12.1481
pawn	-12.152
▁maj	-12.1535
void	-12.1581
▁desi	-12.159
▁barb	-12.1696
neapoli	-12.1712
tio	-12.1726
▁measur	-12.1727
▁achiev	-12.1731
avi	-12.1733
three	-12.182
ima	-12.1821
▁cheerful	-12.1827
▁misunderstand	-12.1834
▁recycl	-12.1878
▁squeez	-12.1888
▁committ	-12.1903
tapped	-12.1925
▁swi	-12.197
maker	-12.1988
▁infiltrate	-12.199
▁shuffle	-12.1994
▁jan	-12.1998
fulness	-12.2017
bite	-12.2032
▁comprehen	-12.2047
tress	-12.2048
kit	-12.2057
anie	-12.2077
quit	-12.209
ako	-12.2099
▁manipulat	-12.2117
van	-12.2117
▁deli	-12.2125
▁scratche	-12.2144
▁leann	-12.2195
aden	-12.2216
memor	-12.222
▁clam	-12.2243
mandi	-12.2259
supportive	-12.2277
stone	-12.2297
tract	-12.2306
▁bom	-12.232
▁adore	-12.2335
▁marv	-12.2342
dress	-12.2347
chester	-12.2347
▁undo	-12.2377
▁ala	-12.2429
bric	-12.2439
hamp	-12.2451
▁seiz	-12.2478
▁describ	-12.2541
▁endur	-12.2547
▁surg	-12.2555
▁decorat	-12.2562
sexual	-12.2608
tification	-12.261
ury	-12.2645
arden	-12.2662
▁probabl	-12.2678
▁homo	-12.2727
aria	-12.2735
▁marsha	-12.2746
▁rlng	-12.2819
▁interfere	-12.2891
llen	-12.2894
▁supervisi	-12.2929
▁scru	-12.2929
ippi	-12.2948
▁absen	-12.3034
chaw	-12.3035
anni	-12.3042
acked	-12.3065
▁shrub	-12.3079
▁marksman	-12.3108
groves	-12.3112
dressed	-12.3134
▁resi	-12.3139
▁logic	-12.3162
▁format	-12.3174
▁heavi	-12.318
▁kh	-12.3183
ssie	-12.3243
▁fai	-12.3245
▁mari	-12.3247
▁tame	-12.326
▁toots	-12.3292
hoven	-12.3294
▁fle	-12.3299
▁motivate	-12.331
▁def	-12.3313
▁barri	-12.3324
stocking	-12.333
ejection	-12.3334
roo	-12.3337
why	-12.3344
▁prima	-12.34
iotic	-12.3473
egal	-12.3476
making	-12.3483
▁bik	-12.3497
▁drip	-12.35
cooler	-12.3518
▁circl	-12.3541
▁humiliat	-12.3553
▁tit	-12.3563
ncies	-12.3597
hmm	-12.3617
▁som	-12.3627
▁recon	-12.3646
▁infer	-12.3651
ameter	-12.3656
▁havin	-12.3681
bon	-12.3683
▁scrub	-12.3706
tribute	-12.3709
dra	-12.3757
▁politic	-12.3766
▁seaman	-12.3772
▁reemerge	-12.3784
locate	-12.3785
▁dum	-12.3821
erf	-12.3828
▁sixtyf	-12.3854
bow	-12.3863
grant	-12.387
cture	-12.3871
▁honk	-12.3887
wheel	-12.389
▁surround	-12.3896
▁creak	-12.3903
▁crow	-12.3905
▁dun	-12.3912
mbolism	-12.3921
▁sorrow	-12.3922
▁cavern	-12.3922
▁stoke	-12.3922
▁hippie	-12.3923
▁cupcake	-12.3923
awa	-12.3923
▁mutter	-12.3924
▁roar	-12.3927
▁colleague	-12.3931
▁handcuff	-12.3931
▁survivor	-12.3931
▁accus	-12.3932
▁decade	-12.3934
▁ingredient	-12.3937
ocus	-12.3937
▁kilo	-12.3937
igning	-12.3939
▁skiff	-12.3939
▁chrysanthemum	-12.394
ubble	-12.3941
ability	-12.3943
▁diaper	-12.3943
▁fingerprint	-12.3945
▁oriental	-12.3945
▁instruction	-12.3949
▁ghostbuster	-12.395
▁knick	-12.395
azza	-12.3972
omat	-12.3978
finder	-12.3978
▁stud	-12.3986
▁beet	-12.3989
ntern	-12.3989
▁participat	-12.3993
▁announc	-12.3994
pubes	-12.3995
ggl	-12.3995
▁legion	-12.3998
minded	-12.4003
cool	-12.4007
▁consum	-12.4011
▁bubbl	-12.4012
tim	-12.4012
▁flatter	-12.4013
▁inhal	-12.4019
▁deserv	-12.402
rpool	-12.4034
▁precede	-12.4041
▁seam	-12.4042
▁expos	-12.4045
▁vial	-12.4047
evense	-12.4049
▁cram	-12.4064
▁skate	-12.4067
net	-12.4067
▁typ	-12.4067
kels	-12.4071
▁bluff	-12.4072
foot	-12.4075
rpent	-12.4076
▁alternati	-12.4079
▁gurgl	-12.4079
drive	-12.4079
flow	-12.4079
▁inspir	-12.408
faithful	-12.4082
soaked	-12.4082
promis	-12.4082
▁introduc	-12.4082
▁tortur	-12.4082
▁applaud	-12.4082
▁elevat	-12.4083
educated	-12.4084
▁activat	-12.4084
▁gener	-12.4084
script	-12.4085
wired	-12.4085
connect	-12.4085
owners	-12.4085
digit	-12.4085
activate	-12.4085
mission	-12.4085
pipe	-12.4085
profile	-12.4086
temper	-12.4086
phrase	-12.4086
muffin	-12.4086
▁accord	-12.4086
grass	-12.4086
cliff	-12.4086
regard	-12.4086
brook	-12.4087
stream	-12.4087
protected	-12.4087
brief	-12.4087
approve	-12.4087
fantasy	-12.4087
pleasant	-12.4087
lord	-12.4087
pole	-12.4087
attractive	-12.4087
pilot	-12.4087
▁undefeat	-12.4088
paste	-12.4088
trooper	-12.4088
folk	-12.4088
shelf	-12.4088
tuition	-12.4088
terror	-12.4088
charged	-12.4088
nephew	-12.4088
▁instruct	-12.4088
close	-12.4088
grateful	-12.4088
model	-12.4088
kissing	-12.4088
world	-12.4088
birth	-12.4088
storm	-12.4088
▁ratio	-12.4088
military	-12.4088
revving	-12.4089
hook	-12.4089
fortune	-12.4089
grandma	-12.4089
defense	-12.4089
shadow	-12.4089
text	-12.4089
noticed	-12.4089
record	-12.4089
skills	-12.4089
shift	-12.4089
target	-12.4089
average	-12.4089
buster	-12.4089
hhhey	-12.4089
court	-12.4089
family	-12.4089
believe	-12.4089
children	-12.4089
married	-12.4089
white	-12.4089
crazy	-12.4089
paul	-12.4089
wrong	-12.4089
course	-12.4089
true	-12.4089
blood	-12.4089
castro	-12.4089
movie	-12.4089
focused	-12.409
girl	-12.409
▁clamor	-12.409
justice	-12.4091
donna	-12.4091
cause	-12.4091
▁endanger	-12.4091
▁intimidat	-12.4091
always	-12.4092
clothes	-12.4092
flying	-12.4092
ianna	-12.4092
jacks	-12.4093
cru	-12.4093
fix	-12.4093
▁suspend	-12.4093
▁reject	-12.4093
rose	-12.4094
▁preservati	-12.4094
▁certifi	-12.4094
▁distinguish	-12.4095
copy	-12.4095
▁invo	-12.4095
today	-12.4095
kids	-12.4097
engage	-12.4097
▁battl	-12.4097
topic	-12.4097
guide	-12.4097
human	-12.4098
german	-12.4098
box	-12.4099
million	-12.4099
▁quarte	-12.41
driver	-12.41
knight	-12.41
▁supp	-12.4101
flower	-12.4101
shore	-12.4101
plain	-12.4101
loyd	-12.4102
▁seduce	-12.4102
winkle	-12.4103
▁generate	-12.4104
▁vaccinate	-12.4105
▁polic	-12.4105
rivi	-12.4106
safe	-12.4106
▁qualifie	-12.4106
leaf	-12.4106
▁iso	-12.4107
cock	-12.4107
▁injure	-12.4107
▁strangle	-12.4107
▁compromise	-12.4107
▁promote	-12.4107
shut	-12.4108
messes	-12.4109
▁donate	-12.4109
▁coordinat	-12.4109
button	-12.4109
sandra	-12.4109
▁turb	-12.4109
▁abig	-12.4111
ctica	-12.4111
wax	-12.4111
▁celebrit	-12.4112
▁embroider	-12.4112
▁regist	-12.4112
▁pharmac	-12.4112
cold	-12.4112
▁helen	-12.4113
▁frenz	-12.4114
▁prophec	-12.4114
▁hysterical	-12.4114
▁laundr	-12.4115
▁should	-12.4115
▁diap	-12.4115
bring	-12.4116
▁congratulat	-12.4116
▁responsibilit	-12.4116
▁exile	-12.4116
▁glob	-12.4116
menu	-12.4116
▁qualit	-12.4116
▁architectur	-12.4116
▁temporar	-12.4117
▁melod	-12.4117
hermos	-12.4117
▁uncomfortabl	-12.4117
▁paradis	-12.4117
player	-12.4117
▁retain	-12.4118
▁meddl	-12.4118
▁bourge	-12.4119
gruntl	-12.4119
ject	-12.4119
▁grou	-12.4119
▁sylvi	-12.4119
tribution	-12.412
▁socio	-12.4121
maste	-12.4121
▁potter	-12.4121
▁chlor	-12.4121
▁whoohoohoo	-12.4122
ecture	-12.4122
quisitions	-12.4122
▁nix	-12.4122
hall	-12.4123
▁bracket	-12.4123
altitude	-12.4123
▁goddam	-12.4124
lick	-12.4124
▁ferri	-12.4124
▁griffi	-12.4125
▁inspect	-12.4125
▁demonstrat	-12.4126
▁villa	-12.4126
efianc	-12.4126
ignment	-12.4126
▁duval	-12.4126
▁persia	-12.4127
▁nigh	-12.4127
▁exhal	-12.4127
▁audit	-12.4127
▁visco	-12.4127
▁quittin	-12.4127
▁evasi	-12.4127
▁avail	-12.4127
▁invitin	-12.4127
▁drivin	-12.4127
allows	-12.4127
▁frig	-12.4128
▁hallucinati	-12.4128
uids	-12.4128
▁plannin	-12.4128
eopard	-12.4128
▁initiati	-12.4128
▁strauss	-12.4128
▁aggressi	-12.4128
▁bloomin	-12.4128
▁dyin	-12.4128
▁fascinati	-12.4128
▁dancin	-12.4128
▁opportun	-12.4128
▁interroga	-12.4128
▁rustle	-12.4128
▁histori	-12.4129
▁caval	-12.4129
▁hirin	-12.4129
spatch	-12.4129
▁urge	-12.4129
▁frost	-12.4129
▁acquaint	-12.4129
fat	-12.4129
sturb	-12.4129
▁delight	-12.4129
▁empti	-12.4129
ntact	-12.4129
▁givin	-12.4129
▁architect	-12.4129
eparation	-12.4129
aunted	-12.413
▁hypocrit	-12.413
mercial	-12.413
ptured	-12.413
generat	-12.413
sistent	-12.413
ploy	-12.413
ranged	-12.413
credible	-12.413
efficien	-12.413
purgator	-12.413
▁escalat	-12.413
▁accumulat	-12.413
▁affiliat	-12.413
▁ambivalen	-12.413
▁chiropract	-12.413
▁circum	-12.413
▁commodit	-12.413
▁concocti	-12.413
▁congregati	-12.413
▁culminat	-12.413
▁diligen	-12.413
▁eavesdrop	-12.413
▁enlighten	-12.413
▁hypno	-12.413
▁incompeten	-12.413
▁irregular	-12.413
▁necro	-12.413
▁nourish	-12.413
▁overslash	-12.413
▁pregnanc	-12.413
▁rascal	-12.413
▁sentimental	-12.413
▁soliloqu	-12.413
▁steriliz	-12.413
▁unoriginal	-12.413
admissible	-12.413
cartridge	-12.413
hyeon	-12.413
knocker	-12.413
lphin	-12.413
minimarshmallows	-12.413
propriat	-12.413
rattigan	-12.413
synchron	-12.413
taneous	-12.413
uveni	-12.413
width	-12.413
▁abducted	-12.413
▁aborigine	-12.413
▁absurd	-12.413
▁accuracy	-12.413
▁acquitted	-12.413
▁adolescence	-12.413
▁afghanistan	-12.413
▁ahnobody	-12.413
▁almanac	-12.413
▁amorosa	-12.413
▁amputation	-12.413
▁anaconda	-12.413
▁analog	-12.413
▁anatomy	-12.413
▁anchovies	-12.413
▁annabelle	-12.413
▁annihilate	-12.413
▁antiplastics	-12.413
▁antiquities	-12.413
▁antiquity	-12.413
▁appease	-12.413
▁applesauce	-12.413
▁aquarium	-12.413
▁arigato	-12.413
▁asap	-12.413
▁ashtray	-12.413
▁assouan	-12.413
▁astronom	-12.413
▁atlantis	-12.413
▁atuna	-12.413
▁austin	-12.413
▁backflip	-12.413
▁bacteria	-12.413
▁battalions	-12.413
▁behaviour	-12.413
▁belittle	-12.413
▁berries	-12.413
▁berserk	-12.413
▁biceps	-12.413
▁bimbo	-12.413
▁bloodthirsty	-12.413
▁blrd	-12.413
▁boohoo	-12.413
▁brainwash	-12.413
▁branson	-12.413
▁broseph	-12.413
▁cadaver	-12.413
▁calcutta	-12.413
▁calories	-12.413
▁candidacy	-12.413
▁caregiver	-12.413
▁categories	-12.413
▁cathedral	-12.413
▁cauldron	-12.413
▁caution	-12.413
▁cavity	-12.413
▁celiba	-12.413
▁chamel	-12.413
▁chamuco	-12.413
▁chestnut	-12.413
▁chimpanzee	-12.413
▁cholera	-12.413
▁cielito	-12.413
▁clacking	-12.413
▁clarify	-12.413
▁clarinet	-12.413
▁classfied	-12.413
▁climate	-12.413
▁cockamamie	-12.413
▁collateral	-12.413
▁commerce	-12.413
▁component	-12.413
▁composer	-12.413
▁compressor	-12.413
▁conquistador	-12.413
▁conspiracies	-12.413
▁constructive	-12.413
▁contingency	-12.413
▁controversy	-12.413
▁convertible	-12.413
▁cosmetic	-12.413
▁cranium	-12.413
▁creativity	-12.413
▁critters	-12.413
▁croissant	-12.413
▁cupholders	-12.413
▁curriculum	-12.413
▁cursive	-12.413
▁cylinder	-12.413
▁cymbal	-12.413
▁cyril	-12.413
▁darwin	-12.413
▁deafmute	-12.413
▁debunker	-12.413
▁deception	-12.413
▁decimate	-12.413
▁decree	-12.413
▁deluge	-12.413
▁demolish	-12.413
▁deprogram	-12.413
▁deutsch	-12.413
▁devastating	-12.413
▁diagnosis	-12.413
▁dilemma	-12.413
▁dimension	-12.413
▁dishevelled	-12.413
▁dismember	-12.413
▁disobey	-12.413
▁distilled	-12.413
▁djibouti	-12.413
▁donkey	-12.413
▁dontworry	-12.413
▁doodledo	-12.413
▁doodoo	-12.413
▁dookie	-12.413
▁doorknob	-12.413
▁dorothy	-12.413
▁dowager	-12.413
▁dracula	-12.413
▁drastically	-12.413
▁dromedar	-12.413
▁dukakis	-12.413
▁economy	-12.413
▁ecosystem	-12.413
▁educator	-12.413
▁elaborate	-12.413
▁electromagnet	-12.413
▁encryption	-12.413
▁endeavor	-12.413
▁energies	-12.413
▁energize	-12.413
▁enforcer	-12.413
▁ensemble	-12.413
▁entrancing	-12.413
▁epidemic	-12.413
▁equilibrium	-12.413
▁equival	-12.413
▁eunuch	-12.413
▁evaluate	-12.413
▁exaggerate	-12.413
▁exclusion	-12.413
▁expansive	-12.413
▁expired	-12.413
▁extinct	-12.413
▁extinguished	-12.413
▁faculty	-12.413
▁fascist	-12.413
▁fausta	-12.413
▁femme	-12.413
▁fencing	-12.413
▁fenderbender	-12.413
▁ferrari	-12.413
▁fodder	-12.413
▁frisbee	-12.413
▁fumble	-12.413
▁galveston	-12.413
▁garandan	-12.413
▁gelato	-12.413
▁ghetto	-12.413
▁ghuri	-12.413
▁giamatti	-12.413
▁glimpse	-12.413
▁glockenspiel	-12.413
▁glub	-12.413
▁graverobber	-12.413
▁grenade	-12.413
▁grobowski	-12.413
▁guava	-12.413
▁gwyneth	-12.413
▁hallucinogen	-12.413
▁havana	-12.413
▁havoc	-12.413
▁hemisphere	-12.413
▁hennessy	-12.413
▁heritage	-12.413
▁hibernate	-12.413
▁holliday	-12.413
▁homogeniz	-12.413
▁homuncul	-12.413
▁horowitz	-12.413
▁hotdogging	-12.413
▁humourlessly	-12.413
▁hunterseeker	-12.413
▁hurried	-12.413
▁hydraulic	-12.413
▁hygiene	-12.413
▁iguana	-12.413
▁indigenous	-12.413
▁indochina	-12.413
▁inevitability	-12.413
▁infatuated	-12.413
▁inshallah	-12.413
▁intensified	-12.413
▁interpol	-12.413
▁intervention	-12.413
▁involuntary	-12.413
▁ivanhoe	-12.413
▁janitor	-12.413
▁kamikaze	-12.413
▁kartofel	-12.413
▁kerosene	-12.413
▁knack	-12.413
▁kriz	-12.413
▁labyrinth	-12.413
▁ladyinwaiting	-12.413
▁lalalalala	-12.413
▁lamborghini	-12.413
▁landsraad	-12.413
▁lavender	-12.413
▁lesbatron	-12.413
▁lifestyle	-12.413
▁litigate	-12.413
▁lnstain	-12.413
▁lollipop	-12.413
▁lostandfound	-12.413
▁lsabella	-12.413
▁luxury	-12.413
▁macabre	-12.413
▁macaroons	-12.413
▁mackenzie	-12.413
▁malikov	-12.413
▁malphus	-12.413
▁manchego	-12.413
▁maotai	-12.413
▁margaritas	-12.413
▁maximize	-12.413
▁mcdonalds	-12.413
▁mcteer	-12.413
▁mermaid	-12.413
▁mesdames	-12.413
▁michelangelo	-12.413
▁michigan	-12.413
▁midair	-12.413
▁millennia	-12.413
▁miraculous	-12.413
▁misconduct	-12.413
▁mississippi	-12.413
▁mockery	-12.413
▁mohammed	-12.413
▁monamie	-12.413
▁mongoose	-12.413
▁monogrammed	-12.413
▁monsoon	-12.413
▁mordecai	-12.413
▁morphia	-12.413
▁motorbike	-12.413
▁moustache	-12.413
▁muffdiver	-12.413
▁musker	-12.413
▁muzzle	-12.413
▁nassau	-12.413
▁natmenneske	-12.413
▁naxostuff	-12.413
▁negotiator	-12.413
▁nightclub	-12.413
▁nosmoking	-12.413
▁nostrils	-12.413
▁nutmeg	-12.413
▁nutritionist	-12.413
▁oblivion	-12.413
▁obscene	-12.413
▁okeydokey	-12.413
▁onkel	-12.413
▁oregon	-12.413
▁ornament	-12.413
▁ornithopter	-12.413
▁ouda	-12.413
▁outnumber	-12.413
▁overestimated	-12.413
▁pamphlet	-12.413
▁pardonnezmoi	-12.413
▁parfait	-12.413
▁pavilion	-12.413
▁perceptive	-12.413
▁perverse	-12.413
▁pesticides	-12.413
▁pharaohs	-12.413
▁piatti	-12.413
▁pildoro	-12.413
▁pinnacle	-12.413
▁pisani	-12.413
▁poignant	-12.413
▁polymath	-12.413
▁pompom	-12.413
▁porcelain	-12.413
▁porcupine	-12.413
▁predecessor	-12.413
▁premature	-12.413
▁prettier	-12.413
▁pretzel	-12.413
▁proclaim	-12.413
▁producing	-12.413
▁proficient	-12.413
▁prognosis	-12.413
▁prohibidim	-12.413
▁prosecute	-12.413
▁provisions	-12.413
▁pterop	-12.413
▁puppies	-12.413
▁quran	-12.413
▁reluctan	-12.413
▁rematch	-12.413
▁reminiscin	-12.413
▁restricted	-12.413
▁ribbon	-12.413
▁rivalries	-12.413
▁rosalind	-12.413
▁rosemary	-12.413
▁rourke	-12.413
▁safari	-12.413
▁salhadin	-12.413
▁salvage	-12.413
▁scoundrel	-12.413
▁scupper	-12.413
▁seafood	-12.413
▁seawall	-12.413
▁sebastian	-12.413
▁shangguan	-12.413
▁shawnmendes	-12.413
▁shenanigans	-12.413
▁shitcanned	-12.413
▁shrew	-12.413
▁silverbane	-12.413
▁sinatra	-12.413
▁skank	-12.413
▁skunk	-12.413
▁smuggling	-12.413
▁snickering	-12.413
▁snowflake	-12.413
▁socotra	-12.413
▁sonofabitch	-12.413
▁sovereign	-12.413
▁spartacus	-12.413
▁spitfire	-12.413
▁splatter	-12.413
▁splutters	-12.413
▁sporadic	-12.413
▁stenographer	-12.413
▁stimulate	-12.413
▁stonehenge	-12.413
▁strangling	-12.413
▁submerge	-12.413
▁superstition	-12.413
▁surmise	-12.413
▁synagogue	-12.413
▁syndicate	-12.413
▁syndrome	-12.413
▁taptaptappy	-12.413
▁tarzan	-12.413
▁tentacles	-12.413
▁terminus	-12.413
▁theatrics	-12.413
▁thwarted	-12.413
▁tidiness	-12.413
▁tobacc	-12.413
▁toffolo	-12.413
▁toothbrush	-12.413
▁treachery	-12.413
▁trilogy	-12.413
▁triptych	-12.413
▁truthsayer	-12.413
▁tucson	-12.413
▁tweak	-12.413
▁twigg	-12.413
▁ukmto	-12.413
▁unacceptable	-12.413
▁unafraid	-12.413
▁unanswer	-12.413
▁unconditional	-12.413
▁underpants	-12.413
▁undulating	-12.413
▁unrelated	-12.413
▁unstoppable	-12.413
▁untraceable	-12.413
▁veloci	-12.413
▁vibrant	-12.413
▁vintage	-12.413
▁wexr	-12.413
▁wheelchair	-12.413
▁willfully	-12.413
▁wolverine	-12.413
▁ymbrines	-12.413
▁zodiac	-12.413
midt	-12.413
▁alleged	-12.413
▁beatnik	-12.413
▁fastidious	-12.413
▁lavish	-12.413
▁liaison	-12.413
▁millionaire	-12.413
▁oona	-12.413
▁twoweek	-12.413
freud	-12.413
▁acelera	-12.413
▁aloft	-12.413
▁appalled	-12.413
▁audaci	-12.413
▁carotid	-12.413
[...]
