<unk>	0
<s>	0
</s>	0
s	-4.13039
▁im	-4.46212
▁dont	-4.51255
▁know	-4.6411
▁get	-4.72656
▁go	-4.77461
▁oh	-4.78626
▁right	-4.85459
▁come	-4.88857
▁like	-4.91518
▁got	-4.94497
▁well	-4.95134
▁youre	-4.99719
▁yeah	-5.10541
▁thats	-5.13414
▁one	-5.15344
▁good	-5.24868
▁na	-5.27115
▁see	-5.33542
▁think	-5.3753
▁want	-5.41427
▁okay	-5.42123
▁yes	-5.45354
▁hey	-5.46161
▁look	-5.48993
▁gon	-5.51235
▁back	-5.51656
▁ill	-5.5645
▁us	-5.58717
▁time	-5.60214
▁going	-5.61351
▁take	-5.66926
▁hes	-5.67246
▁cant	-5.67255
▁man	-5.71423
▁say	-5.81651
▁would	-5.85031
▁way	-5.86898
▁little	-5.88692
▁really	-5.88821
ing	-5.8969
▁could	-5.90142
▁lets	-5.90437
▁	-5.91422
▁never	-5.92191
▁tell	-5.92283
▁need	-5.98345
▁make	-5.98762
▁thank	-5.99652
▁something	-6.00509
▁let	-6.02463
▁whats	-6.03778
▁love	-6.04444
▁ive	-6.05227
▁didnt	-6.05334
▁mean	-6.07055
▁please	-6.07806
▁sorry	-6.08841
▁mr	-6.09058
ed	-6.15786
▁theres	-6.16223
▁give	-6.16361
▁l	-6.20121
▁two	-6.21119
▁sir	-6.239
▁help	-6.23977
▁wait	-6.23986
▁sure	-6.30753
▁thing	-6.30969
▁said	-6.31295
▁people	-6.33676
▁day	-6.35692
▁theyre	-6.36262
▁much	-6.37947
▁stop	-6.39075
▁great	-6.39321
▁uh	-6.40293
▁even	-6.4611
▁guys	-6.46407
▁find	-6.47206
▁home	-6.47927
▁night	-6.48233
▁first	-6.48297
▁work	-6.50637
▁away	-6.51635
▁put	-6.52801
▁god	-6.52936
▁maybe	-6.52939
▁life	-6.53037
▁anything	-6.53454
▁shes	-6.54177
▁must	-6.54374
▁ever	-6.55004
▁keep	-6.56524
▁better	-6.57063
▁new	-6.57759
▁nothing	-6.58455
▁call	-6.59642
▁big	-6.60346
▁still	-6.60395
▁boy	-6.60647
d	-6.61957
▁thought	-6.62758
▁around	-6.64694
▁old	-6.66121
▁nice	-6.67695
▁id	-6.69122
▁always	-6.6918
▁long	-6.69504
▁talk	-6.70388
▁ta	-6.70575
▁things	-6.70777
▁wont	-6.71643
y	-6.72374
▁hi	-6.7328
▁everything	-6.73526
▁youll	-6.74168
▁place	-6.74697
▁last	-6.74792
▁dad	-6.75396
▁name	-6.75905
▁youve	-6.76342
▁hello	-6.77417
▁feel	-6.78113
▁stay	-6.81011
▁coming	-6.81216
▁house	-6.82555
▁believe	-6.83094
▁every	-6.83497
▁lot	-6.83683
▁listen	-6.83715
▁world	-6.83779
▁fine	-6.84059
▁told	-6.84187
▁made	-6.84764
▁leave	-6.8508
▁isnt	-6.85805
er	-6.86076
▁hell	-6.86112
▁three	-6.86331
▁hear	-6.86881
▁miss	-6.87833
▁bad	-6.89099
▁huh	-6.90556
▁hold	-6.915
▁doesnt	-6.91653
▁years	-6.91734
▁kind	-6.91792
▁father	-6.91816
▁girl	-6.9183
▁course	-6.9235
▁thanks	-6.93117
▁money	-6.93118
▁play	-6.9455
▁may	-6.95601
▁wan	-6.95704
▁done	-6.96119
▁move	-6.96137
▁show	-6.98098
▁mom	-6.98127
▁remember	-6.9825
ly	-6.98941
e	-6.99183
▁enough	-7.00025
▁baby	-7.0029
▁ready	-7.01065
▁left	-7.01085
▁guy	-7.02273
▁mother	-7.0374
▁try	-7.05505
▁run	-7.058
▁wrong	-7.05915
▁best	-7.06317
▁understand	-7.06857
▁car	-7.06859
▁whoa	-7.06954
▁might	-7.07556
▁real	-7.07637
▁morning	-7.07932
▁next	-7.08585
▁mind	-7.08627
▁talking	-7.08899
▁another	-7.09657
a	-7.09669
▁weve	-7.10073
▁today	-7.12128
▁care	-7.12678
▁wanted	-7.12808
▁happened	-7.15741
▁aint	-7.1768
▁getting	-7.2115
▁friend	-7.21235
▁guess	-7.21421
▁came	-7.21458
▁together	-7.2171
▁ask	-7.21749
▁room	-7.21783
▁kill	-7.22034
▁excuse	-7.22461
▁son	-7.22504
▁watch	-7.22983
▁dead	-7.23396
▁kids	-7.23807
▁ah	-7.24091
▁seen	-7.24273
▁ok	-7.2457
▁else	-7.24856
▁pretty	-7.25038
▁live	-7.25329
▁wouldnt	-7.26049
▁head	-7.26245
▁start	-7.27214
▁looking	-7.28004
▁school	-7.28586
▁family	-7.2868
▁meet	-7.29618
▁whole	-7.29789
▁door	-7.30131
▁trying	-7.30134
▁shit	-7.30284
▁tonight	-7.30705
▁wasnt	-7.31115
in	-7.3128
▁without	-7.31837
▁idea	-7.31892
▁found	-7.31892
▁hope	-7.31995
▁heard	-7.32252
▁job	-7.32378
▁minute	-7.32424
▁turn	-7.32906
▁many	-7.3316
▁men	-7.33834
▁matter	-7.34384
▁em	-7.34439
▁woman	-7.35314
▁bring	-7.35318
t	-7.35893
▁use	-7.36217
▁someone	-7.36787
▁everybody	-7.37001
▁saw	-7.39357
▁happy	-7.39916
▁music	-7.39982
▁friends	-7.40939
▁fuck	-7.4106
▁tomorrow	-7.41285
▁playing	-7.41699
▁yet	-7.42061
▁worry	-7.42374
▁havent	-7.43106
▁knew	-7.43106
▁open	-7.43143
▁cause	-7.43325
▁gone	-7.43615
▁ha	-7.43618
▁second	-7.43714
▁days	-7.43758
▁chance	-7.44238
▁whos	-7.44454
▁beautiful	-7.44647
▁eat	-7.45133
▁honey	-7.45331
▁face	-7.45403
▁hard	-7.45671
n	-7.47229
▁game	-7.47465
▁mrs	-7.47596
▁true	-7.48478
▁water	-7.48503
▁boys	-7.48625
▁kid	-7.49165
▁went	-7.49442
▁alone	-7.49565
▁everyone	-7.50107
▁used	-7.50249
▁five	-7.50313
▁bit	-7.51255
▁youd	-7.51438
▁took	-7.5156
▁easy	-7.51561
▁sit	-7.51592
▁four	-7.51933
r	-7.52029
▁lost	-7.522
▁dear	-7.52576
▁end	-7.53578
▁fire	-7.53615
▁de	-7.53619
▁actually	-7.53862
o	-7.5407
▁fucking	-7.54163
▁since	-7.54818
▁young	-7.55236
▁laughing	-7.56156
▁heart	-7.56677
▁hand	-7.56735
▁looks	-7.56801
▁george	-7.57131
▁wish	-7.57281
▁jack	-7.57365
▁stuff	-7.57458
▁um	-7.57624
▁mine	-7.58026
▁says	-7.58723
▁town	-7.58989
▁dog	-7.59312
▁john	-7.59419
▁children	-7.59559
▁eyes	-7.59826
▁afraid	-7.59969
▁business	-7.60767
▁couldnt	-7.60848
▁late	-7.60948
▁already	-7.61211
▁shall	-7.61347
▁fight	-7.61368
▁king	-7.61738
▁dance	-7.62166
▁shut	-7.62445
▁called	-7.62629
i	-7.63006
▁hit	-7.63106
▁forget	-7.63592
▁problem	-7.63872
▁die	-7.64269
▁set	-7.6434
▁wheres	-7.64356
▁fun	-7.64718
▁part	-7.64729
▁chuckles	-7.65262
▁hurry	-7.66044
▁far	-7.66064
▁stand	-7.66205
▁word	-7.6735
▁year	-7.67796
▁check	-7.67987
▁break	-7.6812
▁wife	-7.68168
▁cool	-7.6824
▁party	-7.68337
▁probably	-7.68403
▁somebody	-7.68728
▁later	-7.68781
▁wow	-7.69001
▁damn	-7.69552
▁crazy	-7.70517
▁pay	-7.70644
▁saying	-7.7122
▁anyone	-7.71431
▁nobody	-7.72593
▁welcome	-7.72684
▁close	-7.72899
▁supposed	-7.73357
▁brother	-7.73371
▁thinking	-7.7346
▁change	-7.73585
▁minutes	-7.73666
▁free	-7.74007
▁anyway	-7.74249
▁soon	-7.74612
▁red	-7.74637
▁number	-7.74883
▁trouble	-7.75553
▁inside	-7.75832
▁ya	-7.75986
▁read	-7.76191
▁exactly	-7.76807
▁lm	-7.7705
▁hurt	-7.77338
▁phone	-7.77825
▁high	-7.78028
▁story	-7.78269
▁sleep	-7.78417
▁ago	-7.78436
▁hmm	-7.78446
l	-7.78618
▁cut	-7.78903
▁side	-7.7891
▁city	-7.78938
▁hands	-7.78972
▁bye	-7.79098
▁girls	-7.80013
▁whatever	-7.80433
▁arent	-7.81109
▁happen	-7.81117
▁working	-7.81254
▁hot	-7.8164
▁wants	-7.81781
▁taking	-7.81969
▁makes	-7.82777
▁walk	-7.83416
▁drink	-7.8398
▁sighs	-7.84248
▁rest	-7.84557
▁team	-7.84603
▁line	-7.84666
▁along	-7.85077
▁funny	-7.85261
es	-7.85286
▁quite	-7.85829
▁deal	-7.86291
▁hate	-7.86378
▁pick	-7.86637
▁ooh	-7.87366
▁ahead	-7.87761
▁lady	-7.87784
▁point	-7.87867
▁stupid	-7.88669
▁half	-7.88859
▁moment	-7.88867
▁war	-7.88872
▁six	-7.89027
▁win	-7.89374
▁pull	-7.8938
▁waiting	-7.89705
▁plan	-7.89708
▁perfect	-7.90029
al	-7.90067
▁heres	-7.90076
▁killed	-7.90177
▁laughs	-7.90251
▁gave	-7.90513
▁though	-7.90632
▁lose	-7.90651
▁full	-7.90658
▁anybody	-7.90698
▁save	-7.90778
▁food	-7.90794
▁ball	-7.91491
▁goes	-7.91945
▁cat	-7.92181
▁making	-7.92402
▁important	-7.92677
▁behind	-7.92972
▁goodbye	-7.93152
▁almost	-7.93152
▁light	-7.93237
▁means	-7.93237
▁grunts	-7.93461
▁gentlemen	-7.93919
▁book	-7.94348
▁least	-7.94502
▁power	-7.94595
▁joe	-7.9488
▁ladies	-7.95474
▁different	-7.95768
▁dream	-7.96058
▁sweet	-7.96359
▁screaming	-7.96508
▁un	-7.96754
▁wonderful	-7.96887
▁doctor	-7.97361
▁times	-7.98305
▁je	-7.98572
▁anymore	-7.98648
▁bed	-7.98768
▁met	-7.98925
▁daddy	-7.99288
▁week	-7.9939
▁death	-7.99867
▁trust	-8.00068
▁question	-8.00146
▁hang	-8.00187
▁special	-8.00366
▁child	-8.01298
▁safe	-8.01366
▁couple	-8.02142
▁dr	-8.02848
▁theyll	-8.0319
▁white	-8.03192
▁catch	-8.03343
▁follow	-8.03727
▁glad	-8.03733
▁front	-8.03824
▁parents	-8.03948
▁body	-8.04047
▁lucky	-8.04156
c	-8.04242
▁country	-8.04253
▁hair	-8.04371
▁clear	-8.0455
▁coach	-8.04557
▁fast	-8.04666
▁send	-8.05339
▁speak	-8.05391
▁luck	-8.05855
▁also	-8.06416
▁sometimes	-8.06436
▁gasps	-8.06811
▁promise	-8.06813
▁itll	-8.06847
▁till	-8.07059
▁asked	-8.07993
▁ow	-8.08284
▁touch	-8.08537
▁black	-8.08537
▁fly	-8.08933
▁song	-8.09039
▁top	-8.09069
▁air	-8.09073
▁dinner	-8.0928
▁brought	-8.09285
▁sound	-8.09789
▁lord	-8.09897
▁comes	-8.10402
▁continues	-8.10734
▁married	-8.11097
▁tried	-8.11108
▁step	-8.11305
▁earth	-8.12007
▁sick	-8.12472
▁started	-8.12502
▁human	-8.12606
ers	-8.12978
▁reason	-8.13555
▁hours	-8.13603
▁throw	-8.13994
▁running	-8.14365
▁la	-8.14421
▁shot	-8.14548
▁either	-8.15061
▁quick	-8.15343
▁news	-8.15764
▁alive	-8.15781
▁uncle	-8.15806
▁telling	-8.16126
▁women	-8.16257
▁buy	-8.16269
▁general	-8.1642
▁knows	-8.16493
▁bob	-8.16609
▁control	-8.16974
▁police	-8.17196
▁mary	-8.17495
▁truth	-8.17957
▁outside	-8.18207
▁feet	-8.18209
▁rock	-8.1846
▁feeling	-8.18782
▁hows	-8.19188
▁write	-8.19326
▁moving	-8.19687
▁shoot	-8.19807
▁person	-8.19924
▁daughter	-8.19954
▁blue	-8.20483
▁captain	-8.20763
▁mama	-8.20791
▁gun	-8.21187
▁beat	-8.21209
▁case	-8.21636
en	-8.21799
▁scared	-8.22008
▁sounds	-8.22114
▁ones	-8.22851
▁quiet	-8.23036
▁hour	-8.23043
▁president	-8.23055
▁sort	-8.23108
▁land	-8.23194
▁sister	-8.23296
▁horse	-8.23318
▁ass	-8.23332
▁perhaps	-8.23492
▁ride	-8.24087
▁drive	-8.24184
▁learn	-8.24249
▁road	-8.24411
▁serious	-8.24965
▁small	-8.25216
▁cheering	-8.25372
g	-8.25396
▁leaving	-8.25584
▁living	-8.26126
▁careful	-8.26319
▁lovely	-8.2642
▁kiss	-8.2666
▁bet	-8.26947
▁secret	-8.27212
▁ten	-8.27488
▁poor	-8.2817
ie	-8.28175
▁seems	-8.28586
▁wake	-8.28773
▁needs	-8.29166
▁pass	-8.29234
▁sent	-8.2936
▁fact	-8.29394
▁wed	-8.29728
▁blood	-8.29783
▁able	-8.29805
▁th	-8.30225
▁lives	-8.30445
▁somewhere	-8.30456
▁shouldnt	-8.31012
▁grunting	-8.31043
▁order	-8.31276
▁henry	-8.31853
▁piece	-8.32065
▁sign	-8.32113
▁crowd	-8.32223
▁kidding	-8.32419
▁green	-8.33567
▁words	-8.33877
▁finally	-8.33882
▁cold	-8.34144
▁gets	-8.34175
▁sea	-8.34231
▁ben	-8.34547
▁buddy	-8.34997
▁million	-8.35557
▁drop	-8.35867
▁fall	-8.36161
▁answer	-8.36254
▁fish	-8.3627
▁voice	-8.36452
▁maam	-8.36459
▁jesus	-8.36466
▁wonder	-8.36517
h	-8.36821
▁months	-8.36962
▁weird	-8.37082
▁speaking	-8.37716
on	-8.37777
▁seem	-8.37828
▁bitch	-8.37972
▁ship	-8.38588
▁magic	-8.38781
▁singing	-8.38792
▁christmas	-8.38842
▁died	-8.38891
▁blow	-8.39152
▁eye	-8.39298
▁office	-8.39686
▁fault	-8.39751
▁train	-8.39801
▁sun	-8.40353
▁york	-8.40364
▁clean	-8.40422
▁straight	-8.40601
▁seven	-8.40686
▁lts	-8.41325
▁richard	-8.41592
▁smell	-8.41671
▁master	-8.41691
▁theyve	-8.42217
▁boss	-8.42495
▁street	-8.42605
▁happening	-8.43027
▁radio	-8.43159
▁darling	-8.43161
▁goddamn	-8.43476
▁field	-8.43981
▁dude	-8.44238
▁class	-8.44524
▁company	-8.44745
▁happens	-8.44792
est	-8.44924
▁stick	-8.45144
le	-8.45434
▁ray	-8.45594
▁past	-8.45622
▁others	-8.45709
▁sense	-8.45826
▁suppose	-8.459
▁finish	-8.46157
▁sing	-8.46354
▁future	-8.46358
▁join	-8.46788
▁weeks	-8.46802
▁taken	-8.4697
▁short	-8.476
man	-8.47849
ll	-8.47932
▁groans	-8.4806
▁frank	-8.4849
▁rather	-8.48662
▁mmm	-8.48683
▁strong	-8.48771
▁peter	-8.48923
▁officer	-8.49237
▁calm	-8.49394
▁shell	-8.49552
▁aah	-8.4963
▁charlie	-8.49664
▁miles	-8.49766
▁law	-8.49838
▁husband	-8.49863
▁proud	-8.49905
▁star	-8.49934
▁handle	-8.50019
▁become	-8.5021
▁slow	-8.50544
▁bear	-8.5083
▁count	-8.5099
▁amazing	-8.51017
▁evening	-8.51061
▁absolutely	-8.51371
▁tired	-8.51378
▁dark	-8.516
▁roll	-8.51748
b	-8.52141
▁figure	-8.52172
▁lead	-8.52241
▁boat	-8.52308
▁terrible	-8.5239
▁none	-8.5245
▁return	-8.5281
▁worth	-8.52965
▁ground	-8.53137
▁loved	-8.5328
▁harry	-8.53379
▁alright	-8.53782
▁fair	-8.53818
▁yo	-8.53905
▁deep	-8.53944
▁dangerous	-8.54136
▁dress	-8.54322
▁coffee	-8.54484
▁known	-8.54804
▁bill	-8.54845
▁act	-8.54971
▁report	-8.55225
▁expect	-8.55424
▁machine	-8.55482
▁near	-8.55814
or	-8.55879
▁c	-8.55999
▁low	-8.56576
▁meant	-8.56651
▁surprise	-8.57184
▁strange	-8.57281
▁wear	-8.57622
▁turned	-8.57703
▁calling	-8.57837
▁fear	-8.57959
▁space	-8.58078
▁eight	-8.58152
▁anywhere	-8.58441
▁attention	-8.58441
▁mad	-8.58557
ies	-8.58704
▁forever	-8.58809
▁round	-8.59193
▁tough	-8.59421
▁outta	-8.5955
▁hungry	-8.59552
▁foot	-8.59576
▁present	-8.5982
▁worked	-8.60095
▁early	-8.60339
▁grand	-8.60451
ar	-8.60545
▁worse	-8.60668
▁less	-8.60918
▁b	-8.61076
▁date	-8.61392
▁jump	-8.61693
▁entire	-8.61707
▁asking	-8.61752
ic	-8.61788
▁box	-8.61826
▁hed	-8.61911
▁longer	-8.62118
▁bird	-8.62347
▁works	-8.62635
▁tom	-8.62841
▁lunch	-8.62938
▁certainly	-8.63009
▁wild	-8.63012
▁marry	-8.63058
▁picture	-8.63375
▁goin	-8.63442
▁names	-8.6367
▁lie	-8.63699
▁evil	-8.6372
▁pleasure	-8.63806
▁shh	-8.6423
▁grow	-8.64272
▁mouth	-8.64314
▁looked	-8.64594
▁ice	-8.64784
▁unless	-8.64904
▁hotel	-8.64907
▁van	-8.64977
▁meeting	-8.65233
▁forward	-8.65275
▁middle	-8.65275
▁grab	-8.65276
▁park	-8.65366
p	-8.65374
▁whoo	-8.65428
▁felt	-8.6567
▁river	-8.65766
▁computer	-8.65768
▁s	-8.65783
▁wind	-8.65821
▁dreams	-8.65896
▁smart	-8.65933
▁possible	-8.66064
st	-8.66089
▁attack	-8.66092
us	-8.66104
▁le	-8.66181
▁gold	-8.66367
re	-8.66475
▁prince	-8.66568
▁simple	-8.66816
▁stuck	-8.66846
▁army	-8.66958
▁tu	-8.67099
▁saved	-8.67143
▁enjoy	-8.6718
▁ring	-8.67221
▁forgot	-8.67256
▁fred	-8.67314
▁imagine	-8.67527
▁floor	-8.67667
▁busy	-8.67754
▁f	-8.6785
▁birthday	-8.68065
▁honor	-8.68248
▁fix	-8.68396
▁building	-8.68406
▁werent	-8.68469
▁island	-8.6861
▁american	-8.68731
▁state	-8.68797
▁screams	-8.69102
▁papa	-8.69286
▁upon	-8.69287
▁holy	-8.69367
▁fool	-8.69368
▁push	-8.69573
▁history	-8.69693
▁caught	-8.69694
f	-8.69765
▁queen	-8.69844
▁super	-8.69863
▁key	-8.69883
▁kick	-8.6997
▁dave	-8.70019
▁french	-8.70078
▁except	-8.70086
▁fat	-8.70288
▁favorite	-8.70297
▁changed	-8.70452
▁cute	-8.70807
▁choice	-8.7112
▁born	-8.71283
▁jim	-8.71363
▁laugh	-8.71383
▁shouting	-8.71399
▁animals	-8.71412
▁hide	-8.71611
▁giving	-8.71773
▁questions	-8.72311
▁nine	-8.72397
m	-8.72588
able	-8.7271
▁princess	-8.72713
▁window	-8.72817
▁quit	-8.72951
▁g	-8.73367
▁camp	-8.734
▁en	-8.73641
▁english	-8.73857
▁afternoon	-8.73887
▁tv	-8.73896
▁heh	-8.74085
▁given	-8.74202
▁wedding	-8.74321
▁teach	-8.74324
▁tree	-8.74425
▁service	-8.74559
▁finished	-8.74602
▁carry	-8.74955
▁pain	-8.7509
▁band	-8.7527
▁accident	-8.75437
▁mess	-8.75454
▁missed	-8.75658
▁mm	-8.75744
▁cover	-8.7577
▁explain	-8.75849
▁tight	-8.75856
▁sell	-8.76013
▁lucy	-8.76063
▁quickly	-8.7622
▁system	-8.76318
▁chicken	-8.76321
▁bag	-8.76332
▁swear	-8.7649
▁football	-8.76934
▁flying	-8.77022
▁brain	-8.77113
▁table	-8.77269
▁north	-8.77373
▁mmhmm	-8.77378
▁charge	-8.77394
▁takes	-8.77583
▁fell	-8.77657
▁bar	-8.77731
▁watching	-8.77752
▁david	-8.77818
▁bank	-8.77895
▁re	-8.77992
▁soul	-8.78105
▁sad	-8.78183
▁p	-8.78398
▁age	-8.7855
▁third	-8.79172
▁moon	-8.79186
▁totally	-8.79662
▁summer	-8.7996
ion	-8.79988
▁dogs	-8.80036
▁broke	-8.80039
▁test	-8.80082
▁mistake	-8.80344
▁forgive	-8.80455
▁cry	-8.80835
▁message	-8.80879
▁relax	-8.80928
▁college	-8.80985
▁ought	-8.80985
▁faster	-8.81205
u	-8.81335
▁engine	-8.81612
▁wearing	-8.81789
▁dollars	-8.81881
▁yesterday	-8.82297
▁nose	-8.82331
▁ho	-8.82779
▁hasnt	-8.82842
▁pig	-8.83049
▁knock	-8.83246
▁bang	-8.83292
▁across	-8.83311
▁needed	-8.83554
▁awful	-8.83996
▁duck	-8.84048
▁aunt	-8.84351
▁christ	-8.84583
▁animal	-8.84662
▁howard	-8.84734
▁pas	-8.84968
▁share	-8.85042
▁protect	-8.85146
▁hundred	-8.85159
▁seat	-8.85243
▁seeing	-8.85524
▁yep	-8.85697
▁mommy	-8.85705
▁broken	-8.85756
▁eh	-8.85795
▁trip	-8.85893
▁carl	-8.8604
▁race	-8.86138
▁uhhuh	-8.86183
▁arm	-8.86193
▁decided	-8.86246
▁plane	-8.86319
▁billy	-8.86338
▁bell	-8.86347
▁paid	-8.86677
▁brothers	-8.86907
▁hero	-8.87093
▁tea	-8.87096
▁shadow	-8.87122
▁brave	-8.87136
▁kitchen	-8.87148
▁interesting	-8.87276
▁single	-8.87354
▁south	-8.87532
▁worried	-8.87638
▁throat	-8.87653
▁rich	-8.87823
▁doin	-8.87962
▁shake	-8.88068
▁witch	-8.88092
▁spend	-8.88357
▁seconds	-8.88489
▁art	-8.88495
▁realize	-8.88521
▁sex	-8.88528
▁instead	-8.88626
▁offer	-8.88669
▁colonel	-8.89124
▁definitely	-8.89125
▁promised	-8.89428
▁kept	-8.89624
▁thousand	-8.89633
▁jamie	-8.89651
z	-8.89824
▁bunch	-8.9013
▁woods	-8.90473
▁appreciate	-8.90491
▁sitting	-8.90663
v	-8.9069
▁sky	-8.9076
▁folks	-8.90868
▁lay	-8.90979
▁ran	-8.91033
▁normal	-8.91064
▁security	-8.91142
▁stopped	-8.91165
▁monster	-8.91168
▁america	-8.91502
▁wall	-8.91584
▁joke	-8.91624
▁in	-8.91748
▁bus	-8.92062
▁cats	-8.92101
▁chief	-8.92162
▁clothes	-8.92167
▁egg	-8.92204
▁james	-8.92208
▁movie	-8.92217
▁dare	-8.92237
▁beer	-8.92294
▁pop	-8.92451
▁reach	-8.92671
te	-8.92759
▁joel	-8.92796
▁letter	-8.92902
▁standing	-8.93115
▁lt	-8.93152
▁st	-8.9316
▁major	-8.93182
▁idiot	-8.93262
▁completely	-8.93267
▁doubt	-8.93281
▁eating	-8.93361
▁respect	-8.93474
▁paul	-8.93475
k	-8.93589
▁double	-8.9359
▁books	-8.936
▁glass	-8.93676
▁begin	-8.93845
▁leg	-8.93906
▁rules	-8.94009
▁besides	-8.94016
▁board	-8.94116
▁missing	-8.94261
ness	-8.9431
▁bomb	-8.94849
▁lived	-8.9497
▁hole	-8.95021
▁nick	-8.95189
▁congratulations	-8.95295
▁sake	-8.954
▁truck	-8.95675
▁indistinct	-8.95735
▁dorothy	-8.95827
up	-8.95834
▁agent	-8.95945
▁mission	-8.96078
▁practice	-8.96228
▁moved	-8.96266
▁shoes	-8.96357
▁pardon	-8.96362
▁build	-8.96614
▁talked	-8.96724
▁hat	-8.96865
▁beauty	-8.96905
▁destroy	-8.97097
▁greatest	-8.97182
▁impossible	-8.9744
▁grandma	-8.97702
▁eggs	-8.9794
▁spot	-8.9811
▁dale	-8.9857
▁growling	-8.98576
▁paper	-8.98677
▁group	-8.98688
▁certain	-8.9884
▁neither	-8.99079
▁seriously	-8.99272
▁crying	-8.99405
w	-8.99451
▁peace	-8.99536
▁charles	-8.99631
▁yall	-8.99704
▁month	-8.99804
ity	-9.00116
▁gene	-9.00218
▁chattering	-9.00384
▁scott	-9.00593
▁starting	-9.00599
▁escape	-9.00624
▁cheese	-9.00746
▁ernie	-9.00746
▁breakfast	-9.00748
▁dancing	-9.00749
▁michael	-9.00932
▁airport	-9.00938
to	-9.01017
▁hall	-9.01187
▁horses	-9.01194
▁church	-9.01305
▁truly	-9.01317
▁murder	-9.01456
▁warm	-9.01489
▁club	-9.0149
▁owe	-9.01518
▁drunk	-9.01842
▁force	-9.0193
▁gift	-9.02077
▁map	-9.02161
▁legs	-9.0237
▁beach	-9.02402
▁fighting	-9.02415
▁wrote	-9.02441
▁rose	-9.0263
▁d	-9.0263
▁contact	-9.02691
▁w	-9.02732
▁pal	-9.02907
▁list	-9.0292
▁upset	-9.03005
▁bobby	-9.03041
▁tony	-9.03068
▁ohh	-9.03139
▁area	-9.0332
▁ybi	-9.03346
is	-9.03358
▁feels	-9.03557
▁information	-9.03592
▁everywhere	-9.03597
▁program	-9.03808
▁action	-9.03867
▁aw	-9.04097
▁lock	-9.04167
▁bottom	-9.04169
▁store	-9.04432
▁named	-9.04448
▁learned	-9.04627
▁excellent	-9.04747
▁london	-9.04747
▁kingdom	-9.0475
▁west	-9.04783
▁horn	-9.04807
▁spirit	-9.04926
▁locked	-9.0496
▁spell	-9.0501
▁rid	-9.05048
▁record	-9.05075
▁agree	-9.05171
▁mike	-9.05217
▁n	-9.0522
▁lll	-9.05289
▁awesome	-9.05331
▁rule	-9.0536
▁cross	-9.05392
▁trick	-9.05834
▁killing	-9.05838
▁liked	-9.05849
▁bigger	-9.05959
▁speed	-9.05963
▁butt	-9.05988
▁wash	-9.06
an	-9.06037
ve	-9.06066
▁smurf	-9.06075
▁mountain	-9.06195
▁rain	-9.06206
▁sight	-9.06335
▁gosh	-9.06429
▁upstairs	-9.06511
▁nowhere	-9.06512
▁cops	-9.06815
▁dan	-9.06953
▁al	-9.07071
▁personal	-9.07087
▁forest	-9.07128
▁cal	-9.07201
rs	-9.07339
▁situation	-9.07409
▁cop	-9.07434
▁cook	-9.07443
▁guard	-9.07519
▁mate	-9.07643
▁hospital	-9.07693
▁panting	-9.07724
▁position	-9.0804
▁ii	-9.08073
▁suit	-9.08174
▁madam	-9.08225
▁professor	-9.08308
▁mister	-9.08332
▁figured	-9.0854
▁a	-9.08569
▁andrew	-9.08637
▁especially	-9.08914
▁sam	-9.08964
▁cest	-9.08965
▁garden	-9.09242
▁station	-9.09261
▁honest	-9.09318
▁loves	-9.09341
it	-9.09452
▁louise	-9.0958
▁interested	-9.09647
▁ik	-9.09726
▁heaven	-9.09773
▁fellow	-9.09871
▁court	-9.10122
▁cream	-9.10137
▁extra	-9.10137
▁kelly	-9.10137
▁da	-9.10168
el	-9.10254
▁hill	-9.10265
▁whose	-9.10621
▁loud	-9.10648
▁e	-9.10667
▁played	-9.10683
▁worst	-9.10754
▁mud	-9.10795
▁banks	-9.11096
▁walking	-9.11099
▁arms	-9.11436
▁visit	-9.11499
▁states	-9.11557
▁continue	-9.11611
▁howd	-9.1188
▁bother	-9.11909
▁thatll	-9.12003
▁silly	-9.12006
▁dirty	-9.1206
▁friday	-9.1263
▁bought	-9.12644
▁neck	-9.12662
▁dig	-9.12901
▁gas	-9.13093
▁dumb	-9.13259
▁dying	-9.13264
▁cash	-9.13268
▁ahh	-9.13283
▁obviously	-9.13296
▁grace	-9.13305
▁size	-9.13317
▁pants	-9.13373
▁bright	-9.13673
▁nothin	-9.13872
▁favor	-9.13895
▁lying	-9.13913
▁chip	-9.13971
▁corner	-9.13998
less	-9.14077
▁thinks	-9.14238
▁price	-9.14314
▁shine	-9.14354
▁judge	-9.14391
▁sweetheart	-9.14541
▁teddy	-9.14542
▁player	-9.14587
ch	-9.14594
▁que	-9.14646
▁rat	-9.14673
▁card	-9.14692
▁sword	-9.14981
▁dat	-9.15011
▁fit	-9.15064
▁wondering	-9.15129
▁twice	-9.15186
▁chef	-9.15189
▁nope	-9.15189
▁jail	-9.15265
▁united	-9.15307
▁smile	-9.15317
▁mark	-9.15343
▁final	-9.15345
▁difference	-9.15644
▁press	-9.15654
▁public	-9.15724
▁problems	-9.15886
▁listening	-9.15969
▁risk	-9.16149
▁prove	-9.16313
▁battle	-9.16343
▁raise	-9.16357
▁prison	-9.16358
▁large	-9.16439
▁teeth	-9.16492
▁birds	-9.16545
▁breath	-9.16574
▁yelling	-9.1658
at	-9.16626
▁mighty	-9.168
ful	-9.16989
▁cia	-9.17104
▁indeed	-9.17146
▁kitty	-9.17148
ation	-9.17379
▁belong	-9.17418
na	-9.17526
▁brown	-9.17675
▁nervous	-9.17715
▁heavy	-9.17808
▁fantastic	-9.17809
▁government	-9.17809
▁taught	-9.17809
▁groaning	-9.17831
▁everythings	-9.17875
th	-9.18102
▁form	-9.18209
▁complete	-9.18248
▁skin	-9.18406
▁village	-9.18463
▁majesty	-9.18475
▁spent	-9.18478
▁castle	-9.18492
▁nature	-9.18552
▁tall	-9.18655
▁pack	-9.18656
▁lights	-9.18996
▁match	-9.19098
▁paris	-9.19128
▁built	-9.19146
▁ridiculous	-9.19146
▁incredible	-9.19168
▁ducks	-9.19257
▁stage	-9.19339
▁lots	-9.19643
▁fresh	-9.19675
▁bridge	-9.19696
▁stars	-9.1976
▁scene	-9.19813
▁shouldve	-9.19822
▁games	-9.19969
▁stone	-9.20317
▁les	-9.20503
▁plans	-9.20539
▁barking	-9.20556
▁huge	-9.20557
▁closer	-9.20739
▁max	-9.2109
▁soft	-9.21095
▁r	-9.21163
▁chitty	-9.21187
▁plenty	-9.21187
▁within	-9.21187
▁somehow	-9.21187
▁choose	-9.21189
▁pa	-9.21283
▁giant	-9.21363
▁orders	-9.2142
▁t	-9.21468
▁whistle	-9.21757
▁private	-9.21779
▁cup	-9.21784
▁danger	-9.21785
▁cow	-9.21878
▁driving	-9.21878
▁goodness	-9.21879
▁royal	-9.21931
ment	-9.21986
▁plays	-9.22161
▁dads	-9.22304
▁strike	-9.22463
▁walter	-9.22472
▁holding	-9.22489
▁mention	-9.22794
ling	-9.22812
▁steal	-9.22887
▁calls	-9.22962
▁experience	-9.23037
▁puss	-9.23157
▁lawyer	-9.23171
▁camera	-9.23195
▁heads	-9.23262
▁angry	-9.23271
▁center	-9.23358
▁blind	-9.23753
▁girlfriend	-9.23892
▁enemy	-9.23975
▁kurt	-9.23975
▁marriage	-9.23975
▁bullshit	-9.23975
▁theyd	-9.23986
▁taste	-9.24298
▁fathers	-9.24453
▁allow	-9.24477
▁excited	-9.24606
▁cake	-9.24616
▁pray	-9.24782
▁allowed	-9.24892
▁draw	-9.24954
▁couldve	-9.25018
▁shed	-9.2509
▁ringing	-9.25165
▁martin	-9.25178
▁nuts	-9.25203
▁wine	-9.25208
▁language	-9.2533
▁tommy	-9.25402
▁immediately	-9.25422
me	-9.25435
▁usually	-9.25446
▁hiding	-9.25451
▁picked	-9.25507
▁loose	-9.25705
▁pat	-9.25717
▁waste	-9.25984
▁ugly	-9.26118
▁department	-9.26118
▁fired	-9.26139
▁command	-9.26309
▁k	-9.26493
▁code	-9.26592
▁training	-9.26757
▁swim	-9.26838
▁planet	-9.26919
▁hut	-9.27021
▁using	-9.27202
▁cost	-9.27283
▁wet	-9.27304
nt	-9.27365
▁doug	-9.27402
▁beginning	-9.27578
▁gotten	-9.27843
▁note	-9.28167
▁restaurant	-9.2828
▁sheriff	-9.28281
▁hadnt	-9.28308
▁josh	-9.28311
▁beyond	-9.28313
▁smoke	-9.28332
▁breathe	-9.2838
▁travel	-9.28577
▁bite	-9.28666
ng	-9.28821
▁base	-9.28919
▁dick	-9.29023
▁flight	-9.29036
▁sassy	-9.29054
▁main	-9.29066
▁se	-9.29114
▁treat	-9.29168
▁m	-9.2944
▁starts	-9.2968
▁cell	-9.29719
▁candy	-9.29795
▁weather	-9.29798
▁level	-9.29812
▁whatd	-9.29824
▁putting	-9.29916
▁dry	-9.30127
▁higher	-9.30321
ish	-9.30332
▁post	-9.30358
▁georgie	-9.30547
▁crime	-9.30707
▁bucks	-9.31086
▁hardly	-9.31132
▁robert	-9.3116
▁strength	-9.31163
▁writing	-9.31304
▁kinda	-9.31469
▁lake	-9.31479
▁beg	-9.315
▁teacher	-9.31514
▁fellas	-9.31716
ne	-9.31717
▁keys	-9.3179
▁chatter	-9.31832
▁difficult	-9.31924
▁blame	-9.31932
▁bathroom	-9.32069
▁fbi	-9.32073
▁ease	-9.32083
▁gods	-9.3225
ist	-9.32271
▁surprised	-9.32347
▁non	-9.32375
as	-9.32607
▁grandpa	-9.32636
▁often	-9.3284
▁wizard	-9.32877
▁rabbit	-9.32884
ter	-9.32898
▁killer	-9.32938
▁losing	-9.32952
▁staying	-9.33075
▁support	-9.33324
▁farm	-9.33347
▁reading	-9.33354
▁breaking	-9.33469
ah	-9.33475
▁became	-9.33612
▁empty	-9.33612
▁yellow	-9.33613
▁sold	-9.33638
▁plus	-9.33639
▁accept	-9.3388
▁tail	-9.33971
▁arrest	-9.3419
▁german	-9.34341
▁brilliant	-9.34393
▁whether	-9.34393
▁dawn	-9.34394
▁devil	-9.34462
▁beast	-9.34471
▁russian	-9.34497
▁shame	-9.34835
▁thunder	-9.34913
▁phil	-9.35094
▁tie	-9.35158
▁bread	-9.35171
▁faith	-9.35172
▁judy	-9.3519
▁whered	-9.35203
▁ticket	-9.3526
ous	-9.35269
▁monkey	-9.35271
▁freak	-9.35421
▁vote	-9.35434
▁h	-9.35498
ur	-9.35511
▁mayor	-9.35521
▁dressed	-9.35662
il	-9.35722
▁pictures	-9.3588
▁meat	-9.35973
▁sergeant	-9.35974
▁freedom	-9.35979
▁national	-9.36031
▁jay	-9.36101
▁flower	-9.36104
▁lift	-9.36279
▁bloody	-9.36321
▁helping	-9.36453
▁milk	-9.36501
▁search	-9.36518
▁passed	-9.36585
▁notice	-9.36642
▁closed	-9.36651
▁stories	-9.36775
▁hubie	-9.36777
▁byebye	-9.36778
▁famous	-9.36786
▁gary	-9.36821
▁per	-9.36833
▁purpose	-9.36883
▁aye	-9.3689
▁comment	-9.36926
▁si	-9.37036
▁keeping	-9.37169
ry	-9.37327
▁fill	-9.37434
▁east	-9.37435
▁flowers	-9.37497
▁trees	-9.37524
de	-9.3754
▁feed	-9.37558
▁emergency	-9.37581
▁sugar	-9.37581
▁arthur	-9.37582
▁tower	-9.37605
▁bottle	-9.37697
▁bastard	-9.37698
▁adam	-9.37699
▁account	-9.37995
▁tim	-9.38274
▁guns	-9.38306
▁england	-9.38394
▁decision	-9.38525
▁alarm	-9.38529
▁destroyed	-9.38707
▁lf	-9.38787
▁bike	-9.39197
▁defense	-9.39202
▁admit	-9.39207
▁pressure	-9.39218
▁turns	-9.39219
▁weight	-9.39237
▁arrived	-9.39268
▁prepare	-9.39269
out	-9.39822
▁con	-9.39837
▁settle	-9.39895
▁committee	-9.4004
▁local	-9.40042
▁chuckling	-9.40044
▁babe	-9.40045
▁angel	-9.40096
▁heat	-9.40123
co	-9.40309
▁ate	-9.40434
▁te	-9.4073
▁older	-9.40791
▁jeremy	-9.40876
▁ugh	-9.40901
▁v	-9.41037
um	-9.41046
▁nearly	-9.41089
▁wolf	-9.41185
▁bath	-9.41458
▁showed	-9.4153
▁survive	-9.4158
▁il	-9.41585
▁apologize	-9.41714
▁tongue	-9.41714
▁ellie	-9.41716
▁sophie	-9.41718
▁simply	-9.4172
▁linda	-9.41727
▁handsome	-9.41734
▁due	-9.41814
▁type	-9.41849
▁christian	-9.41906
▁crash	-9.42036
▁buzz	-9.42144
▁turning	-9.42192
▁j	-9.4228
ive	-9.42347
li	-9.42462
▁falling	-9.4249
▁speech	-9.42518
▁thomas	-9.42562
▁washington	-9.42564
▁laughter	-9.42579
▁sweetie	-9.4267
▁gasping	-9.42693
▁keeps	-9.4276
▁gate	-9.42798
▁hanging	-9.42833
▁di	-9.43033
ia	-9.43056
▁rings	-9.43194
▁gives	-9.43207
▁remind	-9.43208
▁yi	-9.43218
▁rescue	-9.43292
▁crap	-9.43405
▁advice	-9.43416
▁alvin	-9.43416
▁jerry	-9.43416
▁terrific	-9.43416
▁luther	-9.43416
▁mouse	-9.43419
▁journey	-9.43419
▁noise	-9.43631
▁commander	-9.43654
▁opening	-9.43689
▁lve	-9.43722
▁breathing	-9.43779
▁wouldve	-9.4384
ra	-9.43903
▁repeat	-9.43999
▁ch	-9.44021
▁introduce	-9.44144
▁steve	-9.44192
▁cos	-9.44246
▁asleep	-9.44278
▁hunt	-9.44471
▁finger	-9.44523
▁season	-9.44529
▁nah	-9.44756
et	-9.44985
lo	-9.44992
▁apart	-9.45137
▁apartment	-9.45157
▁written	-9.45158
▁lonely	-9.45171
▁suddenly	-9.45203
▁shooting	-9.45219
▁score	-9.45263
▁exclaims	-9.45356
▁conversation	-9.45391
▁heck	-9.45489
▁track	-9.45539
▁pool	-9.4556
▁places	-9.45649
▁saturday	-9.46025
▁harold	-9.46025
▁dropped	-9.46031
▁shop	-9.46057
▁powerful	-9.46072
ri	-9.46124
▁william	-9.46278
▁cousin	-9.46284
▁roger	-9.46287
▁freeze	-9.46289
▁sunday	-9.46292
▁address	-9.46364
▁humans	-9.46396
▁perfectly	-9.46463
▁stole	-9.46856
▁jason	-9.46913
▁film	-9.46915
▁tour	-9.4692
▁boom	-9.46979
▁invited	-9.47025
▁path	-9.47068
▁guest	-9.47194
▁harm	-9.47312
▁mothers	-9.4742
▁leader	-9.47433
▁cars	-9.47463
▁burn	-9.47674
▁blows	-9.47735
▁alex	-9.47806
▁kim	-9.47815
▁shape	-9.47822
▁safety	-9.47826
▁climb	-9.47859
▁feelings	-9.47904
▁fan	-9.47986
▁operation	-9.48053
▁chair	-9.4808
▁partner	-9.48113
▁bless	-9.48249
▁study	-9.4846
▁fingers	-9.4846
▁papers	-9.48464
▁acting	-9.48488
▁spy	-9.4849
▁eric	-9.48525
ator	-9.48565
▁o	-9.48598
▁total	-9.48624
▁genius	-9.48659
▁opinion	-9.48703
▁courage	-9.48703
▁involved	-9.48744
▁tiny	-9.48761
▁following	-9.48949
▁motherfucker	-9.49008
go	-9.49105
▁sleeping	-9.4928
▁block	-9.49448
▁susan	-9.49598
▁quack	-9.49613
▁project	-9.49916
▁butter	-9.49943
▁bo	-9.49992
▁lines	-9.50023
▁an	-9.50142
▁dis	-9.50148
▁pie	-9.50477
▁greg	-9.50491
▁sara	-9.50522
▁science	-9.5053
▁spanish	-9.50531
▁iike	-9.50537
▁onto	-9.50537
▁exciting	-9.50548
▁honestly	-9.50669
▁pete	-9.50676
▁view	-9.50888
▁cooking	-9.50947
▁common	-9.51123
▁crown	-9.51303
▁weak	-9.51334
▁crew	-9.51456
▁someday	-9.51456
▁vacation	-9.51458
▁possibly	-9.5146
▁square	-9.51462
▁indistinctly	-9.51616
▁deserve	-9.51678
▁wings	-9.51776
▁weapon	-9.51818
▁ends	-9.51883
▁bringing	-9.51929
▁correct	-9.51945
▁ears	-9.5202
▁ian	-9.52063
▁ear	-9.5215
▁focus	-9.5218
▁johnny	-9.52411
▁whispering	-9.5242
▁san	-9.52595
▁doors	-9.52632
▁scare	-9.52651
▁growls	-9.52663
▁ghost	-9.52676
▁miracle	-9.52766
ting	-9.53097
▁evidence	-9.53334
▁knife	-9.53334
▁taylor	-9.53334
▁soup	-9.53345
▁paint	-9.53537
▁shower	-9.53596
▁julie	-9.53647
▁thy	-9.53743
▁u	-9.53807
▁bowl	-9.53885
▁spread	-9.54024
▁ba	-9.54092
▁helped	-9.54113
▁bro	-9.54168
▁hung	-9.54174
▁clears	-9.54214
▁foreign	-9.54254
▁karen	-9.54288
▁fancy	-9.54291
▁beeping	-9.54356
▁het	-9.54402
▁lies	-9.54703
ro	-9.54926
▁harder	-9.55113
▁tickets	-9.55152
▁scream	-9.55191
▁comin	-9.55237
▁memory	-9.55249
▁roof	-9.55249
▁lewis	-9.5525
▁property	-9.55252
▁prepared	-9.55437
▁deliver	-9.5561
▁weekend	-9.55684
▁champion	-9.55685
▁director	-9.55698
▁enter	-9.55755
▁marshal	-9.56114
▁seemed	-9.56136
▁snow	-9.56196
▁afford	-9.56219
▁wilma	-9.5622
▁steady	-9.56226
▁oil	-9.56236
ce	-9.56247
▁over	-9.56392
▁asshole	-9.56668
▁expecting	-9.56962
▁yells	-9.56979
ta	-9.57022
▁trade	-9.57071
▁z	-9.57307
▁pulled	-9.5732
▁charming	-9.57364
▁color	-9.57449
▁female	-9.57658
▁savage	-9.57669
▁wood	-9.57759
▁gee	-9.57932
ant	-9.57987
▁fella	-9.58011
▁curse	-9.58057
▁serve	-9.5811
▁mail	-9.58137
▁according	-9.58201
▁simon	-9.5825
▁carmen	-9.58269
▁trash	-9.58287
▁ideas	-9.58295
▁marshall	-9.58305
▁boyfriend	-9.58678
ary	-9.58687
▁yard	-9.58732
▁sooner	-9.58832
sh	-9.58935
▁matters	-9.58959
▁smells	-9.58992
▁pet	-9.59079
▁natural	-9.59096
▁brenda	-9.59129
▁somethin	-9.5915
▁prefer	-9.59184
▁audience	-9.59189
▁threw	-9.59189
▁piano	-9.59194
▁unbelievable	-9.59194
▁began	-9.59205
▁een	-9.59267
▁leaves	-9.59324
▁nightmare	-9.59697
▁opens	-9.59816
▁desert	-9.59987
▁page	-9.60018
▁el	-9.60169
▁dennis	-9.60199
▁lucas	-9.60202
▁pounds	-9.60249
▁exhales	-9.60319
▁male	-9.6061
▁ocean	-9.60717
▁lesson	-9.60805
▁lately	-9.60876
▁swing	-9.61001
▁invite	-9.61086
▁rough	-9.61121
im	-9.61128
▁suck	-9.61145
▁distance	-9.61219
▁universe	-9.61219
▁biggest	-9.6122
▁telephone	-9.6122
▁lisa	-9.6122
▁delicious	-9.61221
▁potter	-9.61226
▁nasty	-9.61227
▁thee	-9.61289
▁interest	-9.61303
by	-9.61327
▁noticed	-9.61389
▁hoping	-9.61417
▁copy	-9.61424
▁warning	-9.61469
▁loan	-9.61504
▁quarter	-9.61779
▁cares	-9.61811
▁witness	-9.61999
▁hearts	-9.62071
▁toast	-9.62147
▁chocolate	-9.6225
▁innocent	-9.6225
▁clever	-9.6225
▁horrible	-9.62255
age	-9.62536
▁er	-9.62578
▁decide	-9.62681
▁pre	-9.62698
▁nobodys	-9.62752
you	-9.62761
ton	-9.62764
▁regret	-9.62806
▁granny	-9.62813
▁comrade	-9.62825
▁france	-9.62828
▁student	-9.62829
▁zone	-9.62835
▁sisters	-9.63048
ge	-9.63123
▁numbers	-9.6327
▁flat	-9.63282
▁credit	-9.63292
▁samurai	-9.63292
▁stomach	-9.63292
▁wherever	-9.63295
▁bride	-9.63309
▁secretary	-9.63319
▁kiki	-9.63333
▁uhoh	-9.63349
▁alan	-9.63354
▁et	-9.63627
▁bees	-9.63706
▁launch	-9.63824
▁spring	-9.63873
▁creature	-9.63891
▁knocking	-9.63894
ent	-9.64041
▁balls	-9.64206
▁followed	-9.64319
▁insane	-9.64345
▁whoever	-9.64345
▁justice	-9.64345
▁midnight	-9.64345
▁duty	-9.6435
▁flip	-9.64366
▁planning	-9.64371
▁itd	-9.64374
men	-9.64403
▁hearing	-9.64421
▁pieces	-9.64651
▁worlds	-9.6472
▁rocky	-9.64858
▁smurfs	-9.64915
▁jerk	-9.64971
▁weapons	-9.64993
se	-9.6532
▁spoke	-9.65351
▁chatters	-9.6537
▁gettin	-9.65389
▁x	-9.65392
▁au	-9.65403
▁however	-9.65409
▁fortune	-9.65409
▁stops	-9.65531
▁metal	-9.65606
▁boots	-9.6593
▁discuss	-9.65967
▁style	-9.6601
▁rise	-9.66015
▁ghosts	-9.6605
▁i	-9.66061
▁heading	-9.66208
▁rope	-9.66257
▁pour	-9.66265
▁fucked	-9.66276
▁release	-9.66357
▁bud	-9.6643
▁kay	-9.66441
▁gross	-9.66462
▁merry	-9.66484
▁applause	-9.66484
▁energy	-9.66484
▁pregnant	-9.66484
▁fruit	-9.66484
▁british	-9.66485
▁kevin	-9.66487
▁lad	-9.6652
▁ed	-9.66608
ian	-9.6693
▁suggest	-9.67034
▁switch	-9.67034
▁file	-9.67076
▁powers	-9.67163
ard	-9.67171
ma	-9.67198
▁pen	-9.67336
▁victor	-9.67433
▁clumsy	-9.67571
▁otherwise	-9.67571
▁scoffs	-9.67571
▁comfortable	-9.67579
▁betty	-9.67593
▁brer	-9.67597
▁panic	-9.67597
▁amen	-9.67609
▁highness	-9.67658
▁lee	-9.6773
▁load	-9.67852
▁fairy	-9.67945
▁frog	-9.67976
one	-9.67996
▁crack	-9.68027
▁bee	-9.68035
▁guards	-9.68124
▁pretend	-9.68181
ee	-9.68317
▁du	-9.68329
▁market	-9.68401
mon	-9.68428
▁lookin	-9.68452
▁movies	-9.68569
▁africa	-9.6861
▁split	-9.68662
▁hannah	-9.6867
▁necessary	-9.6867
▁silver	-9.6867
▁rumbling	-9.6867
▁appointment	-9.68671
▁danny	-9.68676
▁gadget	-9.6868
▁held	-9.68681
▁announcer	-9.68693
▁bout	-9.68757
▁oz	-9.68809
off	-9.68856
▁tape	-9.68983
▁gim	-9.69061
am	-9.69076
▁bones	-9.6909
▁clearly	-9.69143
▁creatures	-9.69145
▁drinking	-9.6928
▁valley	-9.69364
io	-9.6942
▁patient	-9.6953
po	-9.69698
▁mario	-9.69707
▁nemo	-9.69787
▁emily	-9.69794
▁manage	-9.6991
▁lab	-9.69916
▁softly	-9.69931
land	-9.69964
▁jane	-9.70004
▁ruin	-9.70031
▁surely	-9.70269
▁consider	-9.70367
▁amy	-9.7042
▁baker	-9.70453
▁sharp	-9.70484
▁clock	-9.7051
▁alien	-9.70532
▁contract	-9.70533
▁sh	-9.70557
▁wave	-9.70561
▁button	-9.70568
▁career	-9.70661
▁towards	-9.70701
▁health	-9.70788
▁bravo	-9.70904
▁easier	-9.70904
▁nonsense	-9.70904
▁bunny	-9.70905
▁claire	-9.70905
▁neighborhood	-9.70905
▁several	-9.70907
▁jones	-9.70908
▁precious	-9.7091
▁fake	-9.70944
▁hurts	-9.70945
▁guilty	-9.7095
▁bow	-9.71051
▁soldiers	-9.71115
▁walked	-9.7112
▁bat	-9.71162
▁ne	-9.71303
▁carol	-9.71357
be	-9.71381
▁nurse	-9.71544
▁winner	-9.71688
▁wing	-9.71803
▁stranger	-9.7184
▁peach	-9.72002
▁familiar	-9.72041
▁mercy	-9.72055
▁joy	-9.72058
▁mice	-9.72071
▁scary	-9.72091
ate	-9.72407
▁everybodys	-9.72471
▁out	-9.72472
▁pure	-9.72555
▁talkin	-9.72626
▁americans	-9.72827
▁mile	-9.72832
▁moves	-9.72864
▁add	-9.72884
▁louis	-9.73088
▁willing	-9.73126
▁eddie	-9.7319
▁military	-9.7319
▁babies	-9.7319
▁supper	-9.73193
▁coast	-9.73202
▁disgusting	-9.73214
▁barely	-9.73223
▁thou	-9.73227
▁boring	-9.73243
▁dust	-9.73252
▁sand	-9.73423
▁raised	-9.73425
▁mustnt	-9.73425
▁lion	-9.73524
▁sons	-9.73633
▁condition	-9.73727
▁pitch	-9.7376
▁pizza	-9.73994
▁tiger	-9.74003
▁pocket	-9.74006
▁jellicle	-9.74007
▁storm	-9.74024
▁robot	-9.74046
▁jealous	-9.74229
▁professional	-9.7427
ted	-9.74319
▁downstairs	-9.74353
▁nancy	-9.74355
▁apparently	-9.7436
▁barn	-9.7447
▁created	-9.74477
and	-9.7455
▁remain	-9.74704
▁hug	-9.74732
son	-9.74738
▁mon	-9.75078
▁ted	-9.75188
▁grandfather	-9.75188
mo	-9.75275
▁vee	-9.75305
▁recognize	-9.75398
▁vince	-9.75522
▁lincoln	-9.75529
▁period	-9.75529
▁whistling	-9.75529
▁bryce	-9.7553
▁texas	-9.75531
▁grew	-9.75532
▁aware	-9.75533
▁willie	-9.75535
▁reporter	-9.75537
▁loving	-9.75576
▁gus	-9.75594
▁hank	-9.75598
▁cheers	-9.75669
▁realized	-9.75915
▁target	-9.76166
da	-9.76169
▁ln	-9.76176
▁fuckin	-9.76179
▁wheel	-9.76371
ad	-9.76483
▁nation	-9.76524
▁shift	-9.76612
▁success	-9.76669
▁liar	-9.7669
▁juni	-9.76692
▁kermit	-9.7672
▁regular	-9.7672
ts	-9.76722
▁basement	-9.76736
▁gentleman	-9.76737
▁twenty	-9.7674
▁patch	-9.76747
ier	-9.76824
ally	-9.76929
▁slowly	-9.77045
▁bond	-9.77433
▁fu	-9.77463
ul	-9.77505
▁toy	-9.77559
▁mar	-9.77563
la	-9.77576
▁subject	-9.77606
▁criminal	-9.77619
▁paying	-9.77642
▁opened	-9.77658
▁somebodys	-9.77706
▁ce	-9.77805
▁cheap	-9.77819
▁proper	-9.77863
▁legal	-9.77917
▁jacques	-9.77925
▁research	-9.77925
▁video	-9.77925
▁buried	-9.77925
▁library	-9.77925
▁permission	-9.77927
▁section	-9.77928
▁niet	-9.7793
▁positive	-9.77931
▁stolen	-9.78002
▁falls	-9.78006
▁jacket	-9.78019
▁coat	-9.78025
▁wide	-9.78072
▁failed	-9.78111
▁warn	-9.78213
id	-9.78224
▁ar	-9.78242
per	-9.78307
▁nights	-9.78314
▁brains	-9.78376
▁pok	-9.78469
▁fixed	-9.78547
▁edge	-9.78863
▁pink	-9.79054
x	-9.7907
▁daughters	-9.7908
▁rent	-9.79097
▁among	-9.79126
▁access	-9.79143
▁equipment	-9.79144
▁traffic	-9.79144
▁example	-9.79144
▁alert	-9.79145
▁chicago	-9.79145
▁stock	-9.79147
▁davis	-9.79149
▁staff	-9.79155
▁filthy	-9.79164
▁loser	-9.79284
▁anna	-9.79288
▁grown	-9.79325
▁members	-9.79336
▁settled	-9.79341
▁bears	-9.79625
▁expected	-9.79862
▁yay	-9.79889
ai	-9.79999
▁boo	-9.8008
▁row	-9.80219
▁europe	-9.80352
▁offense	-9.80379
▁silence	-9.80379
▁felix	-9.80379
▁greek	-9.80379
▁clue	-9.80379
▁alexander	-9.80379
▁community	-9.8038
▁bruce	-9.8038
▁forgotten	-9.8039
▁planned	-9.80391
▁toilet	-9.80394
▁finding	-9.8043
▁answers	-9.80454
▁gay	-9.80461
▁prize	-9.80477
ty	-9.80513
▁personally	-9.806
▁shows	-9.80677
pe	-9.80833
▁doctors	-9.80903
▁bug	-9.81017
day	-9.81215
▁growing	-9.81243
▁social	-9.81284
▁leo	-9.81311
▁dump	-9.8141
▁dean	-9.81467
os	-9.81472
▁create	-9.81496
▁unit	-9.8151
▁iron	-9.81517
▁runs	-9.81602
▁dramatic	-9.81624
▁sunshine	-9.81629
▁aboard	-9.81635
▁fox	-9.81636
▁japanese	-9.81637
▁desk	-9.81641
▁zero	-9.81659
▁victory	-9.81767
▁no	-9.81887
▁burning	-9.82009
▁aha	-9.82035
▁lads	-9.82143
▁aii	-9.82223
▁juli	-9.82314
▁hook	-9.82355
▁qui	-9.82484
▁relationship	-9.82642
▁nerve	-9.82652
▁soldier	-9.82668
▁model	-9.82742
▁letters	-9.82766
▁sacrifice	-9.82779
▁changing	-9.82895
▁ordinary	-9.82895
▁garbage	-9.82895
▁slip	-9.82896
▁smurfette	-9.829
▁baseball	-9.829
▁smith	-9.82915
▁toto	-9.82927
▁manager	-9.82991
▁fourth	-9.83
▁manny	-9.83079
▁concerned	-9.83087
▁zoo	-9.83238
iy	-9.83282
ine	-9.83288
▁mi	-9.83476
▁awake	-9.83647
▁of	-9.83762
▁players	-9.83867
▁sub	-9.83884
▁grade	-9.83903
▁interview	-9.83942
▁doc	-9.83971
▁direction	-9.83976
▁challenge	-9.83977
▁speaks	-9.83983
▁event	-9.83983
▁bone	-9.8401
▁grant	-9.84012
▁schedule	-9.84042
▁ex	-9.8415
▁agency	-9.84177
▁california	-9.84177
▁delilah	-9.84177
▁jimmy	-9.84183
▁aaah	-9.84186
▁harper	-9.84201
ca	-9.84251
▁ruined	-9.84416
▁est	-9.84466
▁eaten	-9.84497
▁sat	-9.84502
▁whoohoo	-9.84528
▁filled	-9.8454
▁mo	-9.846
▁cards	-9.84643
▁students	-9.84753
▁picking	-9.84828
▁songs	-9.85006
▁ordered	-9.85135
▁screw	-9.85249
▁eagle	-9.85256
▁source	-9.85262
▁member	-9.85272
bo	-9.85327
▁sports	-9.8536
▁monsters	-9.85403
▁jai	-9.85454
▁wilbur	-9.85475
▁mostly	-9.85475
▁paddington	-9.85476
▁garage	-9.85479
▁julia	-9.8553
les	-9.85606
▁cale	-9.85772
▁gang	-9.85913
▁cap	-9.85981
▁lower	-9.85999
▁lips	-9.86042
▁laid	-9.86071
▁rush	-9.86278
no	-9.86344
▁mans	-9.86401
ba	-9.86411
▁ze	-9.86507
▁saving	-9.86584
▁quest	-9.86596
▁dirt	-9.86672
▁firm	-9.86693
▁sandwich	-9.8675
▁elizabeth	-9.86791
▁intelligence	-9.86791
▁although	-9.86792
▁rosie	-9.86793
▁opportunity	-9.86793
▁naked	-9.86794
▁popper	-9.86806
▁screen	-9.86813
time	-9.86845
▁self	-9.86853
▁notes	-9.86857
▁fate	-9.86894
▁union	-9.86977
▁tina	-9.8703
▁agreed	-9.87092
▁letting	-9.87146
▁covered	-9.87422
▁all	-9.87449
▁wire	-9.87816
the	-9.8793
▁sometime	-9.87961
▁meal	-9.87962
▁salt	-9.88038
▁thousands	-9.8811
▁fi	-9.88121
▁lieutenant	-9.88124
▁toronto	-9.88124
▁funeral	-9.88125
▁curious	-9.88126
▁trapped	-9.88126
▁rowley	-9.88128
▁japan	-9.88129
▁jake	-9.88129
▁express	-9.88137
▁bedroom	-9.88138
▁sarah	-9.88158
▁chosen	-9.88165
▁plain	-9.8817
▁carried	-9.88171
▁darkness	-9.88176
tic	-9.88214
▁hired	-9.88314
▁nicky	-9.88429
▁arrested	-9.88482
▁belongs	-9.88485
▁faces	-9.88485
▁fail	-9.88818
▁beans	-9.88839
▁cheer	-9.88927
ff	-9.89037
▁exist	-9.89119
▁streets	-9.89143
▁herd	-9.89332
▁circle	-9.89339
▁plate	-9.89356
▁mood	-9.89388
▁friendly	-9.89456
▁austin	-9.89476
▁bailey	-9.89478
▁philip	-9.8948
▁patrick	-9.89481
▁bodies	-9.89482
▁touchdown	-9.89496
▁spike	-9.89555
▁jem	-9.89591
▁santa	-9.89618
▁sandy	-9.89621
▁perform	-9.89653
▁plant	-9.89662
▁disappeared	-9.89676
▁grave	-9.8968
▁troops	-9.89771
▁mustve	-9.89812
▁closes	-9.89943
▁character	-9.9019
▁golden	-9.90201
▁pi	-9.90343
▁uhh	-9.90483
▁concern	-9.90493
▁blast	-9.90538
▁advance	-9.90711
▁knight	-9.90714
▁duke	-9.90723
▁walls	-9.90749
▁touched	-9.90751
▁usual	-9.90754
▁cooper	-9.90784
▁grateful	-9.90846
▁literally	-9.90846
▁ronnie	-9.90846
▁flew	-9.90848
▁palace	-9.90848
▁halloween	-9.90849
▁therell	-9.90852
▁wicked	-9.90864
▁honking	-9.90898
▁landing	-9.90911
▁dc	-9.90927
▁mum	-9.90955
▁rare	-9.91002
▁ann	-9.91033
▁led	-9.91123
ii	-9.91387
▁sweat	-9.91425
▁tip	-9.91447
▁lied	-9.9147
▁tires	-9.91482
▁riding	-9.91489
▁punch	-9.91716
▁gather	-9.9175
led	-9.91891
▁pan	-9.92094
▁priest	-9.92106
▁shirt	-9.92117
▁spit	-9.92148
▁noon	-9.92166
▁belt	-9.92198
▁dive	-9.92207
▁fabulous	-9.92235
▁responsible	-9.92235
▁vegas	-9.92235
▁mmmhmm	-9.92236
▁swimming	-9.92242
▁aron	-9.92274
▁ways	-9.92421
▁sexy	-9.92573
▁odd	-9.92688
▁someones	-9.92688
▁pro	-9.92774
▁andy	-9.92791
ig	-9.92888
▁highly	-9.93022
ac	-9.93024
▁disappear	-9.93025
▁depends	-9.93065
▁pipe	-9.93076
▁suffer	-9.93185
▁signed	-9.93265
▁ape	-9.93411
▁doll	-9.93429
▁tear	-9.9346
▁blowing	-9.93488
▁grandmother	-9.93536
▁pin	-9.93568
▁tank	-9.93609
▁junk	-9.93624
▁champagne	-9.93643
▁understood	-9.93643
▁danni	-9.93643
▁rudy	-9.93644
▁weii	-9.93645
▁blew	-9.93646
▁ivan	-9.93648
▁happiness	-9.93649
▁ramona	-9.93652
▁violet	-9.93653
▁terry	-9.93657
▁ge	-9.93662
▁melon	-9.93671
▁rude	-9.93684
▁signal	-9.93723
▁roy	-9.93737
▁witches	-9.9376
▁annie	-9.93774
▁gal	-9.9384
▁fur	-9.93843
▁ad	-9.9385
▁throwing	-9.9385
▁hon	-9.93942
▁painting	-9.9397
▁tied	-9.94032
ti	-9.94335
▁parker	-9.94475
▁ended	-9.94505
▁process	-9.94695
▁pound	-9.94759
▁waited	-9.94775
▁assistant	-9.94973
▁sudden	-9.94979
▁saint	-9.94983
▁penguin	-9.94996
▁daniel	-9.95049
▁ancient	-9.95072
▁matthew	-9.95072
▁whimpering	-9.95072
▁golf	-9.95073
▁jungle	-9.95073
▁stood	-9.95075
▁earlier	-9.95076
▁embarrassing	-9.9518
▁glasses	-9.95185
▁tears	-9.95202
▁op	-9.95251
▁pigs	-9.95393
▁burned	-9.95405
▁moms	-9.95436
▁giggles	-9.95437
▁snap	-9.95579
▁clicks	-9.95593
▁ol	-9.95796
▁borrow	-9.95989
▁everyones	-9.96097
▁sin	-9.96225
▁particular	-9.96428
▁current	-9.96458
▁holiday	-9.96459
▁issue	-9.96465
▁russia	-9.96466
▁uniform	-9.96468
▁wise	-9.96469
▁chill	-9.96482
▁bon	-9.96507
▁merlin	-9.96521
▁napoleon	-9.96521
▁society	-9.96521
▁insurance	-9.96521
▁romantic	-9.96523
▁chess	-9.96528
▁species	-9.96535
▁grass	-9.96542
▁chanting	-9.96596
▁magical	-9.96604
▁china	-9.96606
▁math	-9.96743
▁driver	-9.9677
▁stayed	-9.96953
▁changes	-9.96995
▁heavens	-9.97177
▁co	-9.97288
▁selling	-9.9743
▁guests	-9.97529
▁march	-9.9759
▁jam	-9.97627
▁spare	-9.97872
▁bullet	-9.97896
▁italian	-9.97991
▁nicole	-9.97991
▁juice	-9.97992
▁guide	-9.97993
▁license	-9.97998
▁shaw	-9.98005
▁recently	-9.98018
▁winning	-9.98022
▁century	-9.98022
▁romeo	-9.98023
▁outfit	-9.98068
▁actual	-9.98069
▁hitting	-9.98072
▁nest	-9.98081
▁coughing	-9.98108
▁believed	-9.9811
▁designed	-9.98162
▁parts	-9.98188
▁whispers	-9.98255
head	-9.98266
▁celebrate	-9.98278
▁rats	-9.98478
▁pleased	-9.98554
▁carefully	-9.98563
▁reached	-9.9859
▁dre	-9.98611
ized	-9.98676
▁brings	-9.98695
▁hop	-9.98712
▁rhythm	-9.98818
▁ls	-9.98877
▁slave	-9.98882
▁rip	-9.98895
ize	-9.99034
▁tuck	-9.99121
▁claim	-9.99188
▁adventure	-9.99299
▁cleaning	-9.99307
▁olive	-9.99363
▁medical	-9.99399
▁flag	-9.99455
▁expert	-9.99482
▁monsieur	-9.99484
▁unusual	-9.99484
▁angus	-9.99484
▁sheiiey	-9.99484
▁glory	-9.99485
▁libby	-9.99486
▁watson	-9.99487
do	-9.99488
▁moondog	-9.99495
▁winnie	-9.99498
▁extremely	-9.99508
▁batman	-9.99519
▁tooth	-9.99524
▁singer	-9.99549
▁seats	-9.99695
▁prisoner	-9.99714
ey	-9.99721
▁hunting	-9.99953
▁jean	-10.0014
▁degrees	-10.0024
▁organ	-10.0024
▁secrets	-10.0026
▁steam	-10.0036
▁shouts	-10.0049
di	-10.005
▁direct	-10.006
ga	-10.0061
ver	-10.0064
▁landed	-10.007
just	-10.0073
▁wa	-10.0075
▁official	-10.0089
▁complicated	-10.01
▁investigation	-10.01
▁mystery	-10.01
▁slide	-10.01
▁smooth	-10.01
▁surrender	-10.01
▁university	-10.01
▁chisum	-10.01
▁whenever	-10.01
▁central	-10.01
▁humming	-10.01
▁remus	-10.0101
▁pilot	-10.0101
▁cast	-10.0101
▁fetch	-10.0101
▁servant	-10.0101
▁dragon	-10.0102
▁confused	-10.0102
▁protection	-10.0105
▁discovered	-10.0108
▁points	-10.0115
▁stairs	-10.012
▁richie	-10.0125
▁deeply	-10.014
▁ld	-10.0147
▁to	-10.0156
▁log	-10.017
▁messed	-10.0173
▁ni	-10.0178
▁kings	-10.0179
un	-10.0187
▁forces	-10.0202
▁rub	-10.0218
▁appears	-10.0221
▁corn	-10.0237
side	-10.0237
▁sink	-10.0239
▁drugs	-10.0247
▁theodore	-10.0254
▁whirring	-10.0254
▁gerry	-10.0254
▁grinch	-10.0254
▁lyle	-10.0254
▁inspector	-10.0254
▁cock	-10.0256
▁destiny	-10.0256
▁legend	-10.0256
▁experiment	-10.0257
▁learning	-10.026
▁jackson	-10.0261
em	-10.0262
▁pair	-10.0263
▁beating	-10.0265
▁useless	-10.0269
▁reports	-10.0283
▁mistakes	-10.0296
▁wee	-10.0297
▁somethings	-10.0306
▁pulling	-10.0326
▁attacked	-10.0335
▁records	-10.0341
▁revolution	-10.0368
vous	-10.0397
▁morgan	-10.0399
▁mmhm	-10.0409
▁cotton	-10.041
▁ernest	-10.041
▁senior	-10.041
▁whimpers	-10.041
▁donkey	-10.041
▁alliance	-10.041
▁sobbing	-10.041
▁available	-10.041
▁albert	-10.041
▁studio	-10.041
▁mumble	-10.041
▁penny	-10.041
▁marina	-10.0411
▁progress	-10.0411
▁trial	-10.0412
▁effort	-10.0414
▁mirror	-10.0414
▁uhuh	-10.0415
▁friendship	-10.0416
▁shark	-10.0416
▁drug	-10.0418
▁prisoners	-10.0418
▁screeching	-10.0421
▁winter	-10.0423
▁pity	-10.0429
ke	-10.0431
▁pussy	-10.0437
▁une	-10.0445
▁reasons	-10.0459
▁bust	-10.0459
ha	-10.0466
▁bars	-10.0468
▁bags	-10.0475
▁offered	-10.0476
▁officers	-10.0487
▁pip	-10.0507
▁ding	-10.0524
▁be	-10.0528
▁ro	-10.0532
▁younger	-10.0534
▁nothings	-10.0535
line	-10.0538
▁sauce	-10.0544
▁net	-10.0549
▁champ	-10.0567
▁coward	-10.0568
▁cruel	-10.0568
▁orange	-10.0568
▁passing	-10.0568
▁cave	-10.0569
▁ashamed	-10.0569
▁chanticleer	-10.0569
▁lloyd	-10.0569
▁mysterious	-10.0569
▁pleasant	-10.0569
▁fought	-10.0569
▁someplace	-10.0569
▁steel	-10.0569
▁pride	-10.0569
▁failure	-10.0569
▁valuable	-10.0569
▁va	-10.057
▁decent	-10.0571
▁katie	-10.0571
▁robin	-10.0572
▁sally	-10.0575
▁photo	-10.0577
▁frightened	-10.0579
▁steps	-10.058
▁millions	-10.0583
▁dollar	-10.0586
▁cab	-10.0592
▁thin	-10.0594
▁par	-10.0595
▁beef	-10.0595
ass	-10.0604
▁sending	-10.0609
▁hire	-10.061
▁buzzing	-10.062
▁mountains	-10.0655
▁charm	-10.0672
▁sec	-10.0672
▁piss	-10.0684
ho	-10.0687
▁tells	-10.0691
▁siren	-10.0704
▁sport	-10.0714
▁chain	-10.0721
▁disease	-10.0724
j	-10.0725
▁fans	-10.0728
▁baymax	-10.073
▁charlotte	-10.073
▁ralph	-10.073
▁soccer	-10.073
▁advantage	-10.073
▁twelve	-10.073
▁whiskey	-10.073
▁marvelous	-10.073
▁assignment	-10.073
▁basically	-10.073
▁theater	-10.073
▁francisco	-10.0731
▁monday	-10.0731
▁jeez	-10.0732
▁slaves	-10.0732
▁whyd	-10.0734
▁package	-10.0734
▁unfortunately	-10.0735
▁darn	-10.0736
▁miller	-10.0744
▁latest	-10.0753
▁warner	-10.0754
▁approaching	-10.0756
▁pot	-10.0759
▁hated	-10.0759
▁blessed	-10.0768
▁abe	-10.0782
▁checked	-10.0794
▁dancer	-10.0806
▁showing	-10.0832
▁sail	-10.0854
▁knees	-10.086
▁begins	-10.0872
▁hatch	-10.0873
▁demand	-10.088
▁torture	-10.088
▁germans	-10.088
▁desire	-10.0882
▁physical	-10.0885
▁rocks	-10.0893
▁elevator	-10.0894
▁attitude	-10.0894
▁kidnapped	-10.0894
▁mitchell	-10.0894
▁division	-10.0895
▁kung	-10.0895
▁anger	-10.0896
▁practically	-10.0896
▁flies	-10.0897
▁suis	-10.0902
▁device	-10.0905
▁turkey	-10.0905
▁received	-10.0905
▁league	-10.0909
▁shoe	-10.0913
▁so	-10.0913
▁dies	-10.093
▁shots	-10.0935
▁fearless	-10.0937
▁rooms	-10.0942
▁aliens	-10.095
▁defend	-10.0959
▁goal	-10.0978
▁birdie	-10.0981
▁stands	-10.0986
▁cent	-10.0986
▁chi	-10.0994
▁collect	-10.1005
▁fields	-10.1006
▁scratch	-10.1006
▁marty	-10.1013
▁jobs	-10.1029
▁behave	-10.1047
▁divorce	-10.1047
▁damage	-10.1049
▁ships	-10.105
▁talent	-10.1054
▁ellis	-10.1058
▁doyle	-10.1061
▁senator	-10.1061
▁slept	-10.1061
▁memories	-10.1061
▁modern	-10.1061
▁solid	-10.1061
▁jazz	-10.1061
▁impressive	-10.1061
▁abby	-10.1061
▁holly	-10.1062
▁maar	-10.1062
▁poet	-10.1064
▁haru	-10.1065
▁kate	-10.1069
▁setting	-10.107
▁amount	-10.1074
▁value	-10.1075
▁airplane	-10.1078
▁shoulder	-10.1079
▁data	-10.1085
▁headed	-10.1086
▁freaky	-10.1086
▁hiro	-10.1086
▁ra	-10.1116
▁cheat	-10.1135
▁makeup	-10.114
back	-10.1141
▁ye	-10.115
▁han	-10.1165
▁approach	-10.1177
way	-10.1177
▁counting	-10.1195
▁tryin	-10.1197
▁intend	-10.121
▁remove	-10.122
▁original	-10.1222
▁ruth	-10.123
▁federal	-10.123
▁headquarters	-10.123
▁responsibility	-10.123
▁shrek	-10.123
▁simmons	-10.123
▁derek	-10.123
▁meimei	-10.123
▁invisible	-10.123
▁executive	-10.123
▁circus	-10.123
▁zack	-10.123
▁bounce	-10.1231
▁resistance	-10.1231
▁ouch	-10.1231
▁fever	-10.1231
▁grover	-10.1232
▁todd	-10.1234
▁proof	-10.1237
▁exclaiming	-10.1237
▁bury	-10.124
▁tune	-10.1241
▁squeaking	-10.1241
▁clicking	-10.1241
▁navy	-10.1242
▁heroes	-10.1244
▁fence	-10.1248
▁whip	-10.1249
▁snake	-10.125
▁elephant	-10.125
▁hundreds	-10.1251
▁closet	-10.1253
▁toe	-10.1255
▁indian	-10.1258
ow	-10.1264
▁artie	-10.1267
▁sale	-10.1278
▁waves	-10.1288
▁alma	-10.1288
▁returned	-10.1333
▁carrying	-10.1338
▁bend	-10.1343
▁sch	-10.1346
▁parking	-10.1349
▁writer	-10.135
▁trained	-10.135
▁poison	-10.1352
▁kissed	-10.1364
▁loss	-10.1366
▁meaning	-10.1379
▁guarantee	-10.1389
▁assume	-10.1389
▁obvious	-10.1393
▁ash	-10.1402
▁insist	-10.1402
▁zach	-10.1402
▁attorney	-10.1403
▁intelligent	-10.1403
▁muffled	-10.1403
▁pathetic	-10.1403
▁chinese	-10.1403
▁riley	-10.1403
▁koki	-10.1403
▁noble	-10.1403
▁otis	-10.1403
▁foster	-10.1403
▁toby	-10.1403
▁quoi	-10.1403
▁skip	-10.1404
▁heavily	-10.1404
▁mick	-10.1404
▁aside	-10.1404
▁rooster	-10.1404
▁precisely	-10.1406
▁labor	-10.1406
▁idgie	-10.1409
▁pu	-10.141
▁earn	-10.141
▁guts	-10.1411
▁cloud	-10.1413
▁object	-10.1418
▁stopping	-10.1418
▁barker	-10.142
▁brace	-10.1422
▁cole	-10.1422
▁treasure	-10.1423
▁loaded	-10.1436
▁entirely	-10.1445
▁seek	-10.1453
▁details	-10.1479
▁wh	-10.1489
▁kicked	-10.1491
▁oi	-10.1493
▁als	-10.15
▁sniffs	-10.1503
▁reed	-10.1504
▁tap	-10.1505
▁rocket	-10.1527
▁leading	-10.154
▁kit	-10.1543
house	-10.1544
▁checking	-10.1545
▁request	-10.1553
▁chase	-10.1567
▁desperate	-10.1569
ance	-10.157
away	-10.1574
▁admiral	-10.1578
▁katherine	-10.1578
▁thursday	-10.1578
▁cancer	-10.1578
▁clarence	-10.1578
▁gorgeous	-10.1578
▁nando	-10.1578
▁miami	-10.1578
▁june	-10.1578
▁monty	-10.1579
▁squad	-10.1579
▁gentle	-10.1579
▁exit	-10.158
▁title	-10.1582
▁factory	-10.1582
▁moaning	-10.1583
▁ja	-10.1588
▁border	-10.1602
▁trumpet	-10.1604
▁concert	-10.1606
▁mall	-10.161
▁sho	-10.1618
▁lou	-10.1618
wa	-10.1624
▁chipmunks	-10.1628
▁concentrate	-10.163
▁chances	-10.1632
▁mis	-10.1676
▁sue	-10.1682
▁jan	-10.1687
▁enjoying	-10.1699
ir	-10.1699
ism	-10.1704
▁shove	-10.1709
▁separate	-10.1743
▁drag	-10.1756
▁plot	-10.1756
▁caesar	-10.1757
▁craig	-10.1757
▁dummy	-10.1757
▁imagination	-10.1757
▁tuesday	-10.1757
▁cinderella	-10.1757
▁boston	-10.1757
▁april	-10.1757
▁edmond	-10.1757
▁conrad	-10.1757
▁lousy	-10.1757
▁location	-10.1757
▁diana	-10.1757
▁chapter	-10.1757
▁popular	-10.1757
▁poetry	-10.1757
▁dozen	-10.1758
▁quarterback	-10.1758
▁yup	-10.1758
▁notre	-10.1758
▁barney	-10.1758
▁mental	-10.1761
▁gasp	-10.1763
▁design	-10.1763
▁lamb	-10.1766
▁bleeding	-10.1768
▁deck	-10.1779
▁motion	-10.1785
▁watched	-10.1789
▁root	-10.179
▁taxi	-10.1791
▁lack	-10.18
▁ai	-10.1805
▁cage	-10.1805
▁searching	-10.1818
▁ca	-10.1825
he	-10.1865
▁ms	-10.1869
▁sp	-10.1896
▁bastards	-10.1912
▁or	-10.1916
▁pit	-10.1926
▁exact	-10.1929
▁bay	-10.193
ning	-10.1935
▁easily	-10.1938
▁oclock	-10.1938
▁orgazmo	-10.1938
▁terribly	-10.1938
▁thief	-10.1938
▁lenny	-10.1938
▁expensive	-10.1938
▁including	-10.1938
▁closing	-10.1938
▁bruno	-10.1938
▁festival	-10.1939
▁gloria	-10.1939
▁neil	-10.194
▁wore	-10.194
▁florida	-10.194
▁doorbell	-10.1941
▁vice	-10.1948
▁suspect	-10.1949
▁embarrassed	-10.1949
ating	-10.1949
▁sniffing	-10.1957
▁dame	-10.1961
▁material	-10.1967
▁ranch	-10.1967
▁gunshot	-10.197
▁toward	-10.1972
▁client	-10.1972
▁apple	-10.1973
▁thas	-10.1986
▁davey	-10.1992
▁stronger	-10.1995
▁ton	-10.1995
▁wishes	-10.1996
we	-10.1996
▁rangers	-10.2004
▁badly	-10.2005
▁beeps	-10.2011
▁brakes	-10.2025
▁jumped	-10.2039
▁gifts	-10.2056
boy	-10.2059
▁staring	-10.2086
▁do	-10.2087
▁represent	-10.2095
▁helen	-10.2099
▁bi	-10.2107
▁mei	-10.2107
▁su	-10.2115
▁chose	-10.2118
▁percent	-10.2123
▁amanda	-10.2124
▁beatrice	-10.2124
▁false	-10.2124
▁theatre	-10.2124
▁giggling	-10.2124
▁joking	-10.2124
▁miserable	-10.2124
▁shopping	-10.2125
▁sack	-10.2126
▁roaring	-10.213
▁circumstances	-10.2131
▁capable	-10.2131
▁role	-10.2131
▁johnson	-10.2132
▁pm	-10.2133
▁lover	-10.2136
▁passion	-10.214
▁workers	-10.2149
der	-10.2155
▁woo	-10.2156
▁peanut	-10.2157
▁pigeon	-10.2159
▁burger	-10.2159
▁thumb	-10.216
▁gotcha	-10.2175
▁crashing	-10.2184
▁lifting	-10.2187
▁murderer	-10.2191
▁traveling	-10.2192
▁whale	-10.2192
▁mass	-10.2202
▁balance	-10.2202
▁los	-10.2203
ial	-10.2204
▁tricks	-10.2224
▁tale	-10.223
hand	-10.2258
▁sneak	-10.2269
ping	-10.2271
▁fo	-10.2276
field	-10.2277
▁holes	-10.2283
▁delight	-10.2293
▁knee	-10.2305
▁buck	-10.2308
▁birth	-10.2311
▁bored	-10.2312
▁harbor	-10.2312
▁alpha	-10.2312
▁cindy	-10.2312
▁molly	-10.2312
▁international	-10.2312
▁magnificent	-10.2312
▁powder	-10.2312
▁smiling	-10.2312
▁moses	-10.2312
▁throne	-10.2312
▁attractive	-10.2313
▁firing	-10.2313
▁authority	-10.2313
▁boris	-10.2313
▁virginia	-10.2313
▁trunk	-10.2313
▁estate	-10.2313
▁blah	-10.2314
▁unique	-10.2314
▁stoker	-10.2315
▁fuel	-10.2315
▁oui	-10.2322
▁bench	-10.2323
▁gum	-10.2324
▁appear	-10.2331
▁herring	-10.2334
▁refuse	-10.2336
▁matt	-10.2336
▁prime	-10.2349
▁poem	-10.2349
▁mask	-10.235
▁vehicle	-10.2351
▁flintstone	-10.2351
▁diamond	-10.2351
▁artist	-10.2351
▁sentence	-10.2351
▁thinkin	-10.2353
▁owner	-10.2356
▁forced	-10.2357
▁chin	-10.236
▁cr	-10.2362
▁charges	-10.2382
▁dreaming	-10.2383
▁yards	-10.2409
tre	-10.2427
▁crush	-10.2445
ship	-10.2458
▁tin	-10.246
▁terms	-10.2461
ten	-10.2463
▁receive	-10.2471
▁ignore	-10.2491
▁frost	-10.2493
▁yell	-10.2495
▁cure	-10.2502
▁resist	-10.2503
▁contest	-10.2504
▁calvin	-10.2505
▁competition	-10.2505
▁hockey	-10.2505
▁potential	-10.2505
▁thieves	-10.2505
▁extraordinary	-10.2505
▁route	-10.2505
▁prick	-10.2505
▁frozen	-10.2506
▁flesh	-10.2506
▁surface	-10.2506
▁spaceship	-10.2506
▁gear	-10.2507
▁treatment	-10.2507
▁trace	-10.2508
▁peterson	-10.2509
▁fifty	-10.2509
▁shore	-10.2509
▁cellar	-10.2509
▁surrounded	-10.251
▁cabin	-10.2512
▁fletcher	-10.2514
▁spoken	-10.2515
▁bound	-10.2516
▁woke	-10.2522
▁baron	-10.2527
▁brand	-10.2529
▁whod	-10.2531
▁spin	-10.2533
▁whistles	-10.2538
▁considered	-10.2541
▁adult	-10.2548
▁result	-10.2548
▁term	-10.2552
▁ron	-10.2552
▁trap	-10.2557
▁drum	-10.256
▁hells	-10.2571
▁thoughts	-10.2573
▁murdered	-10.2576
▁raining	-10.2594
▁diet	-10.2602
▁windows	-10.2606
▁bum	-10.2607
▁triple	-10.2613
▁roses	-10.2627
▁mu	-10.2639
▁jumping	-10.2644
▁avoid	-10.2651
▁fully	-10.2655
▁trail	-10.266
▁fr	-10.2673
▁fleet	-10.2677
▁chuck	-10.2686
▁australia	-10.2689
▁splendid	-10.2691
▁fran	-10.2694
▁ma	-10.2699
▁loyal	-10.27
▁eventually	-10.2701
▁naughty	-10.2701
▁revenge	-10.2701
▁unhappy	-10.2701
▁knowledge	-10.2701
▁presence	-10.2701
▁sylvia	-10.2701
▁rehearsal	-10.2701
▁hidden	-10.2701
▁accent	-10.2701
▁medicine	-10.2701
▁wasting	-10.2701
▁argue	-10.2701
▁audition	-10.2701
▁wagon	-10.2701
▁wilson	-10.2701
▁rotten	-10.2701
▁mickey	-10.2701
▁rayburn	-10.2701
▁bien	-10.2707
▁yearold	-10.271
ner	-10.2715
▁useful	-10.272
▁lemon	-10.2721
▁mixed	-10.2721
▁bombs	-10.2723
▁doo	-10.2723
▁bugs	-10.2729
▁busted	-10.2729
▁motor	-10.2745
▁brick	-10.2747
▁tunnel	-10.2747
▁option	-10.2749
▁mix	-10.2778
▁knocked	-10.2788
op	-10.2793
▁hood	-10.2793
▁port	-10.2794
▁lessons	-10.2797
▁haha	-10.2801
▁messing	-10.2825
▁hurting	-10.2831
▁provide	-10.2832
▁cape	-10.284
▁wipe	-10.2875
om	-10.2877
▁fishing	-10.2885
▁assure	-10.289
ol	-10.2897
▁council	-10.2898
▁livin	-10.29
▁crusoe	-10.2901
▁disaster	-10.2901
▁enemies	-10.2901
▁families	-10.2901
▁melissa	-10.2901
▁murphy	-10.2901
▁negative	-10.2901
▁confidence	-10.2901
▁conference	-10.2901
▁couid	-10.2901
▁maintain	-10.2901
▁gordon	-10.2901
▁feast	-10.2901
▁peyton	-10.2901
▁escort	-10.2901
▁obey	-10.2904
▁inch	-10.2905
▁squealing	-10.291
▁chat	-10.291
▁whooping	-10.2911
▁chasing	-10.2911
▁hugo	-10.2914
▁forth	-10.2918
▁string	-10.2932
lng	-10.2944
▁touching	-10.2944
▁stalin	-10.2949
▁pearl	-10.2952
ger	-10.2959
▁losers	-10.2963
▁county	-10.2972
▁tapes	-10.2979
▁chickens	-10.2982
▁minds	-10.3025
▁chick	-10.3033
▁ga	-10.3038
oo	-10.3054
▁shock	-10.3057
▁missy	-10.3061
▁faint	-10.3074
▁comfort	-10.3075
▁confirm	-10.3081
▁cents	-10.3085
▁sexual	-10.3098
▁laws	-10.3102
▁thirty	-10.3104
▁sodom	-10.3104
▁artemis	-10.3105
▁footsteps	-10.3105
▁guitar	-10.3105
▁iook	-10.3105
▁paradise	-10.3105
▁policy	-10.3105
▁reputation	-10.3105
▁stadium	-10.3105
▁therefore	-10.3105
▁underneath	-10.3105
▁fiona	-10.3105
▁cleo	-10.3105
▁blaring	-10.3105
▁operator	-10.3105
▁average	-10.3105
▁travis	-10.3105
▁pepper	-10.3105
▁theme	-10.3106
▁attempt	-10.3107
▁markos	-10.3107
▁dropping	-10.3108
▁wallet	-10.3108
▁michelle	-10.3108
▁stink	-10.3114
ure	-10.3115
▁fallen	-10.3124
▁juliet	-10.3127
▁delivery	-10.313
▁screwed	-10.3138
▁fort	-10.3139
▁impressed	-10.3143
▁based	-10.315
▁pole	-10.3159
▁costume	-10.3159
▁ant	-10.316
▁neighbor	-10.316
▁range	-10.3163
▁mentioned	-10.3166
▁equal	-10.3167
▁chips	-10.3177
▁nut	-10.3178
▁drinks	-10.3178
▁stealing	-10.3185
▁lions	-10.3186
▁tend	-10.3201
▁ver	-10.3205
med	-10.3207
▁vampires	-10.3208
▁dealing	-10.3213
▁odds	-10.323
ud	-10.3248
▁aim	-10.3259
down	-10.3272
ler	-10.3276
▁flash	-10.3284
▁spoil	-10.3292
▁wins	-10.3296
▁print	-10.3297
▁lick	-10.33
▁exchange	-10.33
▁leak	-10.3302
▁emotional	-10.3304
aw	-10.3307
▁delorean	-10.3313
▁fifth	-10.3313
▁gardner	-10.3313
▁ulysses	-10.3313
▁channel	-10.3313
▁silent	-10.3313
▁allison	-10.3313
▁develop	-10.3313
▁ultimate	-10.3313
▁goldberg	-10.3313
▁hollywood	-10.3313
▁app	-10.3313
▁aircraft	-10.3314
▁formula	-10.3314
▁becoming	-10.3314
▁enzo	-10.3314
▁sean	-10.3315
▁cattle	-10.3315
▁drew	-10.3316
▁carlos	-10.3316
▁spain	-10.3317
▁maiden	-10.3318
▁wailing	-10.332
ble	-10.332
▁broom	-10.3321
▁teachers	-10.3322
▁homework	-10.3324
▁lit	-10.333
▁apes	-10.3331
ka	-10.3333
▁pee	-10.3339
▁buying	-10.3339
▁pump	-10.3344
▁meow	-10.3345
▁former	-10.3346
▁instructions	-10.3347
▁wha	-10.3353
▁counter	-10.3355
▁lawn	-10.3363
▁toes	-10.3365
▁hates	-10.3368
▁stan	-10.3368
▁spider	-10.3369
▁squirrel	-10.337
▁newspaper	-10.3372
▁scientist	-10.3372
▁hm	-10.3377
▁african	-10.3381
▁dish	-10.339
▁husbands	-10.3399
▁wayne	-10.3404
▁armed	-10.3404
ock	-10.3409
▁greater	-10.3412
▁aan	-10.3428
▁todays	-10.343
▁likely	-10.3441
▁teaching	-10.3447
▁knowing	-10.3455
▁bella	-10.346
▁goat	-10.3464
ball	-10.3479
▁rolling	-10.3481
▁las	-10.3484
▁twist	-10.3492
▁mount	-10.3504
▁badge	-10.3507
pin	-10.3509
ou	-10.3512
▁thick	-10.3516
▁threat	-10.3519
▁text	-10.3522
▁solve	-10.3525
▁beneath	-10.3526
▁ceremony	-10.3526
▁gargamel	-10.3526
▁georgia	-10.3526
▁hamilton	-10.3526
▁honeymoon	-10.3526
▁purple	-10.3526
▁solution	-10.3526
▁erik	-10.3526
▁marnie	-10.3526
▁wouid	-10.3526
▁upbeat	-10.3526
▁helmet	-10.3526
▁activity	-10.3526
▁praise	-10.3526
▁ladder	-10.3527
▁fifteen	-10.3527
▁nuclear	-10.3527
▁performance	-10.3527
▁logan	-10.3528
▁stress	-10.3528
▁selfish	-10.3529
▁snarling	-10.353
▁lars	-10.353
▁thatd	-10.3531
▁paddle	-10.3531
▁collection	-10.3531
▁jewell	-10.3531
▁mc	-10.3532
▁ellen	-10.3534
▁viva	-10.3536
▁ahem	-10.3536
▁properly	-10.3542
▁geez	-10.3545
▁wasted	-10.3566
ix	-10.3566
▁signs	-10.3576
▁belly	-10.3583
▁coin	-10.3584
▁hoo	-10.3588
▁whore	-10.3588
▁cowhand	-10.359
▁ages	-10.3599
▁auntie	-10.3606
▁native	-10.3607
▁files	-10.3611
▁rate	-10.362
▁arrive	-10.3628
▁pills	-10.364
▁drove	-10.3645
▁ram	-10.3646
▁testing	-10.3655
fully	-10.3663
den	-10.3684
▁sur	-10.3684
ay	-10.3685
▁drums	-10.3688
▁ahhh	-10.3694
wood	-10.3704
▁clouds	-10.3714
ley	-10.3715
▁cancel	-10.3722
▁secure	-10.373
▁emmet	-10.3737
▁maria	-10.3739
▁dauntless	-10.3743
▁emperor	-10.3743
▁fahmarr	-10.3743
▁hahaha	-10.3743
▁invitation	-10.3743
▁mexico	-10.3743
▁shield	-10.3743
▁complex	-10.3743
▁anytime	-10.3743
▁hooray	-10.3743
▁forbidden	-10.3743
▁jj	-10.3743
▁suicide	-10.3744
▁alice	-10.3744
▁sox	-10.3745
▁impression	-10.3746
▁colin	-10.3746
▁lightning	-10.3748
▁guardian	-10.3748
ens	-10.3751
▁moi	-10.3756
▁jr	-10.3762
▁turner	-10.3763
▁naturally	-10.3763
▁healthy	-10.3767
▁hose	-10.3781
▁brian	-10.3785
▁am	-10.3785
▁wheels	-10.3802
tu	-10.3803
pa	-10.3805
▁robots	-10.3808
▁wednesday	-10.3809
▁vision	-10.3809
▁punk	-10.3811
▁turtle	-10.3811
▁marc	-10.3818
▁quarters	-10.3845
lin	-10.3865
▁pr	-10.3873
▁painful	-10.3884
▁warriors	-10.3884
red	-10.3892
▁rogers	-10.3899
▁teams	-10.3916
▁pops	-10.3942
▁tax	-10.3943
▁shel	-10.3947
▁reverse	-10.3951
▁moments	-10.3957
▁francis	-10.3965
▁anthony	-10.3965
▁balboa	-10.3965
▁campaign	-10.3965
▁creaking	-10.3965
▁museum	-10.3965
▁principal	-10.3965
▁territory	-10.3965
▁violence	-10.3965
▁shani	-10.3965
▁morris	-10.3965
▁deputy	-10.3966
▁wrap	-10.3966
▁patrol	-10.3966
▁couch	-10.3966
▁reward	-10.3966
▁floop	-10.3966
▁rice	-10.3966
▁counselor	-10.3967
▁drill	-10.3968
▁stream	-10.3969
▁unh	-10.3969
▁nina	-10.397
▁voices	-10.397
▁jeff	-10.3971
▁annoying	-10.3971
▁wolfman	-10.3973
▁jet	-10.3976
▁rear	-10.3978
▁attend	-10.3982
▁foul	-10.3988
▁ford	-10.3991
▁classes	-10.3994
▁pissed	-10.3994
▁ending	-10.3996
▁browne	-10.3997
▁lance	-10.3997
▁mid	-10.4008
▁suffering	-10.4009
▁subtitles	-10.4009
▁warned	-10.4015
▁crow	-10.4015
▁shout	-10.4016
▁swallow	-10.4016
▁thrown	-10.402
▁planes	-10.4032
▁packed	-10.4036
▁governor	-10.4036
▁tattoo	-10.4036
▁instrument	-10.4039
▁understanding	-10.4039
▁stable	-10.4045
▁souls	-10.4048
▁facts	-10.4051
▁coughs	-10.4065
que	-10.4075
ming	-10.4092
ph	-10.4104
▁fools	-10.4108
▁joined	-10.411
▁spark	-10.4114
▁stretch	-10.4118
▁demon	-10.4119
▁houses	-10.412
▁wondered	-10.4125
▁es	-10.4133
▁nails	-10.4135
▁backup	-10.4138
▁tone	-10.4139
ex	-10.4142
▁remembered	-10.4143
ated	-10.4143
▁web	-10.4145
▁flood	-10.4145
▁electric	-10.4158
▁chest	-10.417
▁the	-10.4191
▁transfer	-10.4192
▁adorable	-10.4193
▁patricia	-10.4193
▁plastic	-10.4193
▁routine	-10.4193
▁snoring	-10.4193
▁capsule	-10.4193
▁incident	-10.4193
▁script	-10.4193
▁brandnew	-10.4193
▁authorities	-10.4193
▁allnut	-10.4193
▁whew	-10.4193
▁online	-10.4193
▁abra	-10.4193
▁beings	-10.4193
▁coke	-10.4193
of	-10.4194
▁marcus	-10.4195
▁sunny	-10.4195
▁shrieking	-10.4196
▁tomatoes	-10.4196
▁jury	-10.4197
▁expression	-10.4199
▁worthless	-10.42
▁neat	-10.4201
▁lazy	-10.4202
▁daylight	-10.4203
▁cutting	-10.4204
▁fairies	-10.4205
▁invented	-10.4205
▁ew	-10.4206
▁frosty	-10.4207
za	-10.4218
▁served	-10.4223
▁lawyers	-10.4225
fe	-10.4226
▁madame	-10.4229
▁managed	-10.4231
▁louder	-10.4232
▁treated	-10.4257
▁sweater	-10.426
▁ken	-10.4264
▁hem	-10.4265
▁musical	-10.427
▁email	-10.427
▁explosion	-10.427
▁effect	-10.4271
▁citizens	-10.4273
▁lang	-10.4274
▁crossed	-10.4275
▁oldest	-10.4286
lie	-10.4299
▁colors	-10.4314
▁dans	-10.4315
▁spending	-10.4319
▁shy	-10.4325
▁sticks	-10.4329
mi	-10.4331
ium	-10.4333
▁dudes	-10.4344
▁chug	-10.4351
▁breaks	-10.4351
▁hah	-10.4352
▁waters	-10.4358
▁defeat	-10.4375
▁chew	-10.4376
▁bull	-10.4376
▁agents	-10.4379
▁chop	-10.4379
▁here	-10.4381
▁pe	-10.4383
ven	-10.4392
▁elephants	-10.4398
▁herr	-10.4401
▁roast	-10.4403
▁conduct	-10.4405
▁india	-10.4405
▁propose	-10.4411
▁polite	-10.4415
▁urgent	-10.4416
▁annabel	-10.4418
▁sa	-10.442
▁fashion	-10.4423
▁joseph	-10.4425
▁anxious	-10.4425
▁beverly	-10.4425
▁brooklyn	-10.4425
▁dwayne	-10.4425
▁enormous	-10.4425
▁facility	-10.4425
▁invasion	-10.4425
▁jersey	-10.4425
▁meanwhile	-10.4425
▁trigger	-10.4425
▁wisdom	-10.4425
▁gym	-10.4425
▁reverend	-10.4425
▁apology	-10.4425
▁ingrid	-10.4425
▁boddy	-10.4425
▁distant	-10.4425
▁luke	-10.4426
▁theory	-10.4426
▁stiff	-10.4426
▁irish	-10.4426
▁temple	-10.4427
▁sire	-10.4427
▁mais	-10.4428
▁jiji	-10.4428
▁spiderman	-10.4428
▁foolish	-10.4429
▁dna	-10.443
▁crane	-10.4432
▁uniforms	-10.4434
▁ability	-10.4434
▁lamp	-10.4435
▁vi	-10.4436
▁dreamed	-10.4437
▁hail	-10.4441
▁squawks	-10.4449
ious	-10.4452
▁greetings	-10.4453
▁easter	-10.4461
▁creep	-10.4468
▁units	-10.4474
▁this	-10.4483
▁escaped	-10.4485
▁tub	-10.4488
▁slipper	-10.4498
▁article	-10.4506
▁championship	-10.4509
▁banana	-10.451
▁recipe	-10.451
▁warrior	-10.4511
▁ref	-10.452
▁seal	-10.4527
▁sucker	-10.4534
ois	-10.4537
looking	-10.454
▁enjoyed	-10.4548
▁wel	-10.4552
▁mel	-10.4557
▁dang	-10.4558
well	-10.4559
▁tar	-10.456
ina	-10.4581
▁cleaned	-10.4586
ny	-10.4598
▁neighbors	-10.4599
▁winds	-10.4603
▁stu	-10.4616
▁whales	-10.4617
▁idiots	-10.4633
▁monitor	-10.4634
▁indians	-10.4636
▁hammer	-10.464
▁jokes	-10.4645
▁purse	-10.4647
▁anne	-10.4649
▁confess	-10.4655
▁transport	-10.4661
iest	-10.4662
▁pumpkin	-10.4663
▁behavior	-10.4663
▁ceiling	-10.4663
▁darius	-10.4663
▁explanation	-10.4663
▁laundry	-10.4663
▁procedure	-10.4663
▁ritchie	-10.4663
▁quality	-10.4663
▁poppins	-10.4663
▁taffy	-10.4663
▁lambert	-10.4663
▁farewell	-10.4663
▁sacred	-10.4663
▁reaiiy	-10.4663
▁hyah	-10.4664
▁shining	-10.4664
▁randall	-10.4664
▁russ	-10.4665
▁tor	-10.4665
▁bryant	-10.4666
▁von	-10.4667
▁convention	-10.4668
▁statement	-10.4669
▁exhausted	-10.467
▁gaia	-10.4672
▁runt	-10.4672
▁disappointed	-10.4672
▁freeway	-10.4673
▁engaged	-10.4673
▁ella	-10.4674
▁angeles	-10.4675
▁sore	-10.4676
▁creepy	-10.4676
ya	-10.4688
▁lifetime	-10.469
▁tastes	-10.4692
▁parties	-10.4695
▁cart	-10.4696
▁hills	-10.4701
▁machines	-10.4703
▁carter	-10.4705
▁caused	-10.4707
pi	-10.4708
▁lovers	-10.4719
▁halt	-10.4721
▁grunt	-10.4728
▁occasion	-10.4748
▁walks	-10.475
▁exercise	-10.4751
▁cigarette	-10.4753
▁dolphin	-10.4754
▁workin	-10.4756
▁debt	-10.4757
▁maid	-10.4758
▁bid	-10.4759
our	-10.4763
▁cookie	-10.4764
▁rev	-10.477
▁pages	-10.4782
▁movement	-10.4783
▁farmers	-10.4798
▁horns	-10.48
▁engineer	-10.4814
▁grip	-10.4815
▁whee	-10.4819
what	-10.4821
▁when	-10.483
▁tracks	-10.4836
▁inform	-10.4854
▁beats	-10.4859
▁clients	-10.4863
▁monkeys	-10.4883
▁zip	-10.4885
▁volunteer	-10.4885
▁dial	-10.4891
▁aurora	-10.4907
▁cackling	-10.4907
▁clamoring	-10.4907
▁fischoeder	-10.4907
▁furniture	-10.4907
▁moscow	-10.4907
▁murmuring	-10.4907
▁syracuse	-10.4907
▁illegal	-10.4907
▁prevent	-10.4907
▁beloved	-10.4907
▁underground	-10.4907
▁spongebob	-10.4907
▁review	-10.4907
▁basketball	-10.4908
▁youth	-10.4908
▁mitch	-10.4908
▁minister	-10.4908
▁possibility	-10.4908
▁electricity	-10.4909
▁vanya	-10.4909
▁possession	-10.491
▁shave	-10.4911
▁owns	-10.4911
▁nate	-10.4912
▁squawking	-10.4912
▁freshman	-10.4915
▁sonny	-10.4915
▁arts	-10.4915
▁emma	-10.4921
▁tanks	-10.4924
▁squeeze	-10.4928
▁recall	-10.4931
▁steven	-10.4931
▁released	-10.4938
▁shoo	-10.4954
▁laser	-10.4955
▁stones	-10.4957
▁tits	-10.4959
▁wally	-10.497
▁hits	-10.4974
▁jewels	-10.4978
▁finest	-10.4981
▁wound	-10.4982
▁traitor	-10.4988
▁sweets	-10.4997
▁frogs	-10.4999
▁helicopter	-10.5001
▁raven	-10.5001
▁crocodile	-10.5001
▁chamber	-10.5002
▁clown	-10.5002
▁beard	-10.5006
▁dating	-10.5016
▁comrades	-10.5018
▁services	-10.5019
▁chuckle	-10.502
for	-10.5022
ities	-10.5025
▁pushed	-10.5034
▁rep	-10.5037
▁hij	-10.5039
▁image	-10.5041
▁locker	-10.5048
▁andre	-10.5069
▁del	-10.5099
ions	-10.5102
▁connect	-10.5106
gen	-10.5106
board	-10.5113
▁gain	-10.5116
▁delay	-10.5136
▁award	-10.5139
▁replace	-10.5143
▁bent	-10.5149
▁deadly	-10.515
▁tomato	-10.5153
▁capital	-10.5156
▁basket	-10.5157
▁benefit	-10.5157
▁commercial	-10.5157
▁margaret	-10.5157
▁montgomery	-10.5157
▁patience	-10.5157
▁political	-10.5157
▁worries	-10.5157
▁bureau	-10.5157
▁creation	-10.5157
▁kansas	-10.5157
▁af	-10.5157
▁sheep	-10.5157
▁excitement	-10.5157
▁lockhart	-10.5157
▁detective	-10.5157
▁referee	-10.5158
▁raymond	-10.5158
▁construction	-10.5158
▁slipped	-10.5158
▁ginger	-10.5158
▁beria	-10.5158
▁wiii	-10.5158
▁kathy	-10.5159
▁piggy	-10.5159
▁stroke	-10.516
▁therapy	-10.516
▁solo	-10.516
▁junior	-10.5162
▁bullets	-10.5163
▁heb	-10.5166
▁mansion	-10.5167
▁ballet	-10.5167
▁dining	-10.5167
▁fay	-10.5169
▁costs	-10.5172
bi	-10.5173
▁homer	-10.5174
▁hike	-10.5179
kin	-10.5179
▁provided	-10.5182
▁floating	-10.5185
ons	-10.5187
▁off	-10.5188
▁fighter	-10.5189
▁sid	-10.5191
▁depend	-10.5195
ite	-10.5196
▁hiya	-10.5209
▁joint	-10.5215
▁float	-10.5222
▁tradition	-10.5227
▁dj	-10.5229
tes	-10.5234
▁bea	-10.5235
zo	-10.5244
▁moron	-10.5244
▁den	-10.5247
▁damned	-10.5254
▁brat	-10.5259
▁victim	-10.5261
▁rum	-10.5261
▁feather	-10.5267
▁bothering	-10.5267
▁sucks	-10.5277
▁suits	-10.528
com	-10.5284
▁ace	-10.5296
cy	-10.5326
▁crows	-10.5328
ze	-10.5337
▁des	-10.5345
▁nu	-10.5354
▁dressing	-10.5355
▁results	-10.5356
▁wreck	-10.5363
▁fe	-10.5381
▁link	-10.5383
▁shoulders	-10.5388
cha	-10.5393
▁surf	-10.5403
▁absolute	-10.5404
▁fuss	-10.5406
▁walker	-10.5409
▁runnin	-10.5411
▁fascinating	-10.5414
▁kincaid	-10.5414
▁lydia	-10.5414
▁rainbow	-10.5414
▁roosevelt	-10.5414
▁slice	-10.5414
▁submarine	-10.5414
▁tragedy	-10.5414
▁underwear	-10.5414
▁wrestling	-10.5414
▁retreat	-10.5414
▁telegram	-10.5414
▁instance	-10.5414
▁underdog	-10.5414
▁narrat	-10.5414
▁behalf	-10.5414
▁hissing	-10.5414
▁stammers	-10.5414
▁radar	-10.5414
▁panda	-10.5415
▁patou	-10.5415
▁soda	-10.5415
▁actress	-10.5415
▁collar	-10.5415
▁maddy	-10.5416
▁determined	-10.5418
▁nickel	-10.5419
▁halfway	-10.5419
▁merely	-10.542
▁gray	-10.542
▁potion	-10.5421
▁layne	-10.5421
▁alley	-10.5421
▁lump	-10.5421
▁commissioner	-10.5423
▁bald	-10.5427
▁chap	-10.543
▁abandoned	-10.543
▁knights	-10.5439
▁earned	-10.5445
▁meowing	-10.5447
▁highest	-10.5448
▁prey	-10.5449
▁plants	-10.5452
▁cows	-10.5457
▁ringo	-10.5461
▁up	-10.5477
▁tests	-10.5483
▁accepted	-10.5483
▁boats	-10.549
▁sniff	-10.5496
▁disguise	-10.5496
▁sides	-10.5498
▁parent	-10.5498
▁timing	-10.5501
nd	-10.5501
▁deny	-10.5513
▁temperature	-10.552
▁skull	-10.5523
▁magazine	-10.5523
▁beside	-10.5526
rn	-10.5528
▁flora	-10.5531
▁aid	-10.555
▁butts	-10.5553
▁stare	-10.5563
▁rode	-10.5564
▁answered	-10.5599
▁commit	-10.5602
dy	-10.5609
▁inter	-10.5613
▁gates	-10.5615
▁drawing	-10.5624
che	-10.5625
ut	-10.5644
like	-10.5645
▁snakes	-10.5646
▁daddys	-10.5649
▁pond	-10.5651
▁speaker	-10.5652
▁photos	-10.5662
▁increase	-10.5663
▁capture	-10.567
▁mamma	-10.5673
▁apologies	-10.5677
▁beatrix	-10.5677
▁choir	-10.5677
▁daphne	-10.5677
▁eleanor	-10.5677
▁emerald	-10.5677
▁happily	-10.5677
▁holmes	-10.5677
▁pembroke	-10.5677
▁prophecy	-10.5677
▁supplies	-10.5677
▁clyde	-10.5677
▁opposite	-10.5677
▁abraham	-10.5677
▁unknown	-10.5677
▁begging	-10.5677
▁niece	-10.5677
▁minor	-10.5678
▁stargirl	-10.5678
▁starving	-10.5678
▁glenn	-10.5678
▁rogo	-10.5678
▁leap	-10.5678
▁carriage	-10.5679
▁cora	-10.568
▁benny	-10.568
▁daisy	-10.5681
▁minion	-10.5681
▁technically	-10.5681
▁genetic	-10.5681
▁mmmm	-10.5682
▁fond	-10.5683
▁pace	-10.5683
▁arranged	-10.5684
▁thirsty	-10.5685
▁highway	-10.5688
▁threatened	-10.5691
▁tackle	-10.5694
▁ve	-10.5698
eth	-10.5718
▁site	-10.5721
▁blown	-10.5727
▁kindness	-10.5728
ette	-10.5744
▁frankly	-10.5751
▁catching	-10.5752
▁remains	-10.5753
▁charged	-10.5757
▁dit	-10.5757
▁anti	-10.576
▁marks	-10.576
▁ohhh	-10.5772
▁kin	-10.5773
▁zo	-10.5773
▁observe	-10.5773
▁becomes	-10.5779
▁para	-10.5782
stone	-10.5784
▁hip	-10.5784
▁gloves	-10.5786
▁basic	-10.5789
▁elbow	-10.5791
▁communist	-10.5792
▁stake	-10.5793
▁scale	-10.5794
▁prayers	-10.5798
min	-10.5806
▁diner	-10.5807
gu	-10.581
▁heels	-10.582
▁offering	-10.5824
▁rob	-10.583
▁we	-10.5852
▁nail	-10.5854
▁pushing	-10.5856
▁dam	-10.5861
hi	-10.5869
▁lend	-10.5875
▁iii	-10.5879
▁ants	-10.5891
▁interrupt	-10.5892
▁flow	-10.5899
▁mal	-10.5911
▁tan	-10.5913
▁brush	-10.5914
if	-10.5915
mp	-10.5921
▁jill	-10.5936
▁schools	-10.5941
▁mob	-10.5941
▁bough	-10.5941
▁pile	-10.5942
▁presents	-10.5942
▁movin	-10.5945
▁stunt	-10.5945
▁host	-10.5945
▁scientific	-10.5947
▁excellency	-10.5947
▁galaxy	-10.5947
▁haldeman	-10.5947
▁jonathan	-10.5947
▁peopie	-10.5947
▁shotgun	-10.5947
▁utah	-10.5947
▁wadsworth	-10.5947
▁clark	-10.5947
▁deaf	-10.5947
▁entrance	-10.5947
▁downtown	-10.5947
▁arguing	-10.5947
▁underwater	-10.5947
▁wickens	-10.5947
▁behold	-10.5947
▁puppy	-10.5947
▁pillow	-10.5947
▁mummy	-10.5947
▁organization	-10.5948
▁romance	-10.5948
▁digging	-10.5948
▁voss	-10.5948
▁shelter	-10.5948
▁begun	-10.5949
▁task	-10.5949
▁cells	-10.5949
▁meh	-10.5949
▁bible	-10.595
▁iove	-10.5951
▁pacific	-10.5952
▁tries	-10.5952
▁ridge	-10.5953
▁pork	-10.5954
▁curt	-10.5956
▁oops	-10.5959
▁convinced	-10.5959
▁feelin	-10.5962
▁norman	-10.5963
ab	-10.5966
▁define	-10.5966
▁poop	-10.5979
▁backwards	-10.5983
▁bills	-10.5995
jo	-10.5997
▁roars	-10.6
▁owls	-10.6
ja	-10.6001
▁photograph	-10.6002
▁visual	-10.6006
▁delivered	-10.6006
▁fianc	-10.6009
▁messages	-10.6015
ick	-10.6016
▁conditions	-10.6029
ok	-10.6035
▁manners	-10.6039
ville	-10.6039
▁washed	-10.6045
bu	-10.6045
▁hoped	-10.6063
▁product	-10.6064
▁novel	-10.6067
▁gorilla	-10.6067
▁cowboy	-10.6071
▁fund	-10.6076
ot	-10.6082
ord	-10.6086
▁actor	-10.6086
▁savages	-10.6092
▁gut	-10.6105
▁wanting	-10.6115
▁hustle	-10.6122
je	-10.6123
▁lap	-10.6128
▁bin	-10.613
▁ab	-10.6141
▁wat	-10.615
▁rec	-10.6159
▁heal	-10.6167
ru	-10.6172
▁til	-10.6173
▁ty	-10.6179
▁trains	-10.6179
ea	-10.6182
▁po	-10.6186
▁sharks	-10.6213
▁immediate	-10.6216
▁rome	-10.6219
▁superhero	-10.6221
▁education	-10.6221
▁mornin	-10.6222
▁favour	-10.6224
▁academy	-10.6225
▁ambulance	-10.6225
▁azrael	-10.6225
▁empire	-10.6225
▁mckenna	-10.6225
▁necklace	-10.6225
▁nephew	-10.6225
▁tokyo	-10.6225
▁violin	-10.6225
▁rifle	-10.6225
▁larry	-10.6225
▁rubber	-10.6225
▁herbert	-10.6225
▁freezing	-10.6225
▁martha	-10.6225
▁phase	-10.6225
▁humble	-10.6225
▁jomo	-10.6225
▁delta	-10.6226
▁bacon	-10.6226
▁moonlight	-10.6226
▁robinson	-10.6226
▁technology	-10.6226
▁skinny	-10.6226
▁ham	-10.6226
▁development	-10.6226
▁gently	-10.6226
▁manual	-10.6227
▁havin	-10.6227
▁subway	-10.6228
▁tib	-10.6229
▁booth	-10.6229
▁grandson	-10.623
▁background	-10.623
▁kissing	-10.623
▁monk	-10.6231
▁stray	-10.6232
▁howling	-10.6233
▁swamp	-10.6233
▁sandwiches	-10.6234
▁straining	-10.6234
▁madness	-10.6235
▁barry	-10.6235
▁indiana	-10.624
▁sixth	-10.6241
▁pawn	-10.6241
▁coo	-10.6253
▁lame	-10.6258
ster	-10.6262
▁acres	-10.6267
▁germany	-10.6268
▁introduced	-10.6269
▁hooker	-10.6271
ez	-10.6275
▁media	-10.6279
▁qu	-10.6295
▁forty	-10.6299
▁leads	-10.6304
▁ay	-10.6307
▁jellicles	-10.6309
▁studying	-10.631
▁toot	-10.6315
▁rot	-10.6322
▁worthy	-10.6323
▁strangers	-10.6326
▁quietly	-10.6327
▁jews	-10.6328
▁hawks	-10.6333
▁ti	-10.6334
▁limit	-10.6336
▁systems	-10.6336
▁finds	-10.6343
▁temper	-10.6347
▁snail	-10.6354
▁steak	-10.6354
▁scholarship	-10.6355
▁towel	-10.6356
▁affair	-10.6357
▁connection	-10.6357
▁candle	-10.6358
▁bump	-10.6359
▁scar	-10.6359
▁heel	-10.6359
▁pill	-10.6362
▁positions	-10.6363
▁customer	-10.6363
▁blade	-10.6364
▁runner	-10.6364
▁gi	-10.6365
hu	-10.6365
▁bean	-10.6367
▁spirits	-10.6384
▁crystal	-10.6386
▁banging	-10.6389
▁hunter	-10.6391
▁dock	-10.6399
▁deserves	-10.64
▁gel	-10.641
▁partners	-10.6417
▁bl	-10.6434
▁tent	-10.644
▁cliff	-10.6443
▁phones	-10.6444
▁angels	-10.6453
king	-10.6456
▁disturb	-10.6461
▁smash	-10.6461
▁drown	-10.6462
▁joining	-10.6462
▁proceed	-10.6481
▁greet	-10.6482
▁steer	-10.6483
▁beasts	-10.6485
▁repair	-10.6489
uc	-10.6492
lon	-10.6496
▁pru	-10.6497
▁li	-10.65
▁dee	-10.65
▁incredibl	-10.6501
▁victoria	-10.6506
▁darlin	-10.6508
▁disgrace	-10.6509
▁cannon	-10.651
▁bernard	-10.6511
▁buffalo	-10.6511
▁dwarf	-10.6511
▁geoffrey	-10.6511
▁houston	-10.6511
▁montana	-10.6511
▁remote	-10.6511
▁reynolds	-10.6511
▁suspicious	-10.6511
▁tentacular	-10.6511
▁trophy	-10.6511
▁anchor	-10.6511
▁reckon	-10.6511
▁resort	-10.6511
▁largo	-10.6511
▁racing	-10.6511
▁addition	-10.6511
▁carpet	-10.6511
▁wives	-10.6511
▁sydney	-10.6511
▁pronounce	-10.6511
▁dracula	-10.6511
▁voyage	-10.6511
▁jenny	-10.6511
▁believing	-10.6511
▁attic	-10.6511
▁angle	-10.6511
▁heather	-10.6511
▁humor	-10.6511
▁stifler	-10.6512
▁varsity	-10.6512
▁whatll	-10.6512
▁jesse	-10.6512
val	-10.6512
▁personnel	-10.6512
▁gregory	-10.6513
▁owned	-10.6513
▁informant	-10.6513
▁donnie	-10.6514
▁avery	-10.6514
▁skies	-10.6514
▁toss	-10.6515
▁rex	-10.6516
▁soviet	-10.6516
▁portal	-10.6516
▁feei	-10.6519
▁bait	-10.6521
▁battery	-10.6522
▁afterwards	-10.6522
▁bass	-10.6523
ip	-10.6523
▁bess	-10.6524
▁penguins	-10.6526
▁backyard	-10.6527
gging	-10.653
▁captured	-10.6531
chi	-10.6543
ko	-10.6548
▁passes	-10.6555
▁peaceful	-10.6562
▁howdy	-10.6567
tal	-10.657
▁honks	-10.6571
▁dope	-10.6571
▁toys	-10.6583
▁ducky	-10.6584
▁buttons	-10.661
▁freaking	-10.6613
▁fucker	-10.6616
▁hay	-10.6621
▁nap	-10.6627
▁fellows	-10.6639
▁paw	-10.6644
▁recording	-10.6646
▁sum	-10.6658
▁customers	-10.6668
▁stuffed	-10.6672
▁wished	-10.6672
▁stays	-10.6685
▁farmer	-10.6695
▁kicking	-10.6704
work	-10.6707
▁ac	-10.6709
▁he	-10.672
▁reminds	-10.6731
ft	-10.6732
▁cases	-10.6734
▁shown	-10.6736
ring	-10.6746
▁gu	-10.6764
ec	-10.6768
▁lean	-10.677
maker	-10.6773
▁wars	-10.6774
▁hans	-10.6774
▁tales	-10.6775
▁sweep	-10.6776
▁russians	-10.678
▁announce	-10.6784
▁brad	-10.6791
▁dime	-10.6791
▁convince	-10.6791
▁guilt	-10.6793
▁generous	-10.6795
▁duran	-10.6795
▁describe	-10.6797
▁branch	-10.6801
▁confident	-10.6804
▁sponge	-10.6805
▁blunden	-10.6805
▁district	-10.6805
▁donald	-10.6805
▁huddle	-10.6805
▁jacob	-10.6805
▁lovelace	-10.6805
▁northbrook	-10.6805
▁odette	-10.6805
▁rachel	-10.6805
▁satellite	-10.6805
▁sensitive	-10.6805
▁symbol	-10.6805
▁tragic	-10.6805
▁reavis	-10.6805
▁hazel	-10.6805
▁burden	-10.6805
▁serving	-10.6805
▁smoking	-10.6805
▁thornton	-10.6805
▁picnic	-10.6805
ep	-10.6805
▁lunatic	-10.6805
▁drank	-10.6805
▁deuce	-10.6805
▁arrival	-10.6805
▁practicing	-10.6805
▁kidnapping	-10.6805
▁argh	-10.6805
▁existence	-10.6805
▁jemima	-10.6805
▁kidnap	-10.6805
▁chaos	-10.6805
▁punishment	-10.6805
▁voor	-10.6805
▁budget	-10.6806
▁otto	-10.6806
▁psst	-10.6806
▁western	-10.6806
▁chirping	-10.6806
▁mortal	-10.6808
▁fl	-10.6808
▁upper	-10.681
▁confession	-10.6816
▁raw	-10.6816
▁suggestion	-10.6818
▁bully	-10.682
▁wears	-10.6824
sta	-10.6825
▁bells	-10.6825
ries	-10.6826
▁pickup	-10.6826
▁parade	-10.6833
▁donna	-10.6835
▁ko	-10.6839
▁mac	-10.6842
cat	-10.6847
▁prom	-10.6849
▁survived	-10.6852
▁cheating	-10.6853
▁normally	-10.686
ag	-10.6891
▁gl	-10.6897
▁gar	-10.6899
va	-10.692
▁barks	-10.6931
▁arrow	-10.6951
▁marine	-10.6953
▁sailor	-10.6954
▁vampire	-10.6955
▁degree	-10.6957
▁skill	-10.6958
▁standard	-10.6963
▁me	-10.6964
ile	-10.6967
▁cable	-10.6971
▁champions	-10.6972
▁hairy	-10.6974
ill	-10.6975
▁protecting	-10.6976
▁rap	-10.6989
tion	-10.6992
▁dolphins	-10.6993
▁recipes	-10.6998
tle	-10.6999
▁presidents	-10.7011
▁discipline	-10.7015
ak	-10.7017
▁masters	-10.7031
▁computers	-10.7034
▁nd	-10.7044
▁tot	-10.7066
▁eve	-10.7075
class	-10.7081
▁chris	-10.7088
ken	-10.709
▁dings	-10.7093
▁frame	-10.7094
▁slight	-10.7098
▁successful	-10.7101
▁leonard	-10.7102
▁fold	-10.7104
▁servants	-10.7105
▁virgin	-10.7106
▁sixty	-10.7107
▁companion	-10.7107
misunderstanding	-10.7108
▁abigail	-10.7108
▁absurd	-10.7108
▁auction	-10.7108
▁avenue	-10.7108
▁aviation	-10.7108
▁barbara	-10.7108
▁claude	-10.7108
▁custody	-10.7108
▁enterprise	-10.7108
▁gibberish	-10.7108
▁gravity	-10.7108
▁keller	-10.7108
▁kelso	-10.7108
▁knives	-10.7108
▁lerigot	-10.7108
▁muffin	-10.7108
▁nigger	-10.7108
▁politics	-10.7108
▁relief	-10.7108
▁ritual	-10.7108
▁stahr	-10.7108
▁struck	-10.7108
▁volcano	-10.7108
▁whinnies	-10.7108
▁worship	-10.7108
▁evelyn	-10.7108
▁librarian	-10.7108
▁hubbell	-10.7108
▁amelia	-10.7108
▁studied	-10.7108
▁shaking	-10.7108
▁shaolin	-10.7108
▁granger	-10.7108
▁television	-10.7108
▁ashore	-10.7108
▁woodward	-10.7108
▁congress	-10.7108
▁eternal	-10.7108
▁supply	-10.7108
▁ripley	-10.7108
▁protest	-10.7108
▁announcement	-10.7109
▁roam	-10.7109
▁sunset	-10.7109
▁kirk	-10.711
▁diary	-10.711
▁typical	-10.711
▁cities	-10.7111
▁ditch	-10.7111
▁robbery	-10.7111
▁spies	-10.7112
▁corps	-10.7112
▁amongst	-10.7112
▁relieved	-10.7113
▁personality	-10.7114
▁cries	-10.7114
▁presentation	-10.7116
▁squat	-10.7117
▁doomed	-10.7118
▁bigfoot	-10.712
▁replaced	-10.7124
▁crawl	-10.7137
ise	-10.7143
▁tout	-10.7144
▁hen	-10.7145
▁cord	-10.7149
▁yah	-10.7153
▁kisses	-10.7155
▁faire	-10.7157
▁pl	-10.7158
▁lana	-10.7158
▁rico	-10.7162
▁borg	-10.717
▁hebrews	-10.7172
▁fights	-10.7176
▁dinosaurs	-10.7177
▁comb	-10.7177
▁comme	-10.7187
sp	-10.7191
▁entering	-10.7195
some	-10.7199
▁climbing	-10.7202
ped	-10.7204
▁fits	-10.7207
▁counts	-10.7208
▁martini	-10.7211
▁events	-10.7212
▁worrying	-10.7216
▁plum	-10.7217
▁dar	-10.7233
ery	-10.7238
eur	-10.724
▁as	-10.7248
▁ali	-10.7249
▁zeta	-10.7267
▁height	-10.7267
▁needle	-10.7289
▁wifes	-10.7292
▁fa	-10.7295
▁tr	-10.7304
ps	-10.7308
con	-10.731
▁buildings	-10.7316
▁menu	-10.7319
ck	-10.7322
▁rd	-10.7351
▁blessing	-10.7358
▁betray	-10.7368
▁sticking	-10.7371
load	-10.7388
▁recommend	-10.7394
▁fowl	-10.7395
zz	-10.7408
▁boot	-10.7408
▁batter	-10.7409
▁goose	-10.741
▁unfortunate	-10.7411
▁faithful	-10.7415
▁classic	-10.7415
▁joan	-10.7416
▁civil	-10.7419
▁superior	-10.7419
▁beezus	-10.742
▁callaghan	-10.742
▁dungeon	-10.742
▁liberty	-10.742
▁macavity	-10.742
▁madison	-10.742
▁monroe	-10.742
▁oath	-10.742
▁shrink	-10.742
▁valiant	-10.742
▁whinnying	-10.742
▁whitaker	-10.742
▁liquid	-10.742
▁terrified	-10.742
▁dubois	-10.742
▁blart	-10.742
▁worn	-10.742
▁iowa	-10.742
▁nuys	-10.742
▁llke	-10.742
▁celebration	-10.742
▁edward	-10.7421
▁soap	-10.7421
▁cherry	-10.7421
▁electronic	-10.7421
▁harvest	-10.7421
▁journalist	-10.7421
▁acid	-10.7421
▁elsie	-10.7421
▁bugger	-10.7421
▁passionate	-10.7421
▁status	-10.7421
▁hush	-10.7421
▁combat	-10.7421
▁daffy	-10.7422
▁alike	-10.7422
▁freddy	-10.7422
▁wholl	-10.7422
▁ogre	-10.7423
▁franklin	-10.7423
▁jeep	-10.7424
▁satisfied	-10.7424
▁beamen	-10.7425
▁peru	-10.7426
▁fries	-10.7427
▁kable	-10.7428
▁discussion	-10.7428
▁sonja	-10.7428
▁chairman	-10.7429
▁cried	-10.7429
▁piglet	-10.7432
▁directly	-10.744
▁ike	-10.744
▁cue	-10.7442
▁removed	-10.7445
▁surprises	-10.7446
▁trailer	-10.7446
ue	-10.745
▁drowning	-10.745
ford	-10.7451
▁confirmed	-10.7453
▁goodnight	-10.7454
▁christs	-10.7459
▁mona	-10.7462
▁mustard	-10.7462
▁reality	-10.7471
▁granted	-10.7473
ong	-10.7478
▁hu	-10.7485
▁sucked	-10.7485
▁considering	-10.7498
▁pretending	-10.7499
▁forms	-10.75
ju	-10.7503
▁placed	-10.7507
▁bush	-10.7521
▁feeding	-10.7528
▁filling	-10.7528
▁patients	-10.7533
▁insult	-10.7535
▁zoot	-10.7537
ran	-10.7538
▁deb	-10.7538
▁smaller	-10.7545
▁quote	-10.7558
ible	-10.7574
▁require	-10.7575
▁fooled	-10.7583
▁depth	-10.7585
▁blanket	-10.7587
▁individual	-10.7589
▁brake	-10.7592
▁tess	-10.7595
▁intention	-10.7596
▁folk	-10.7597
▁spells	-10.7597
ther	-10.7598
▁queens	-10.7617
▁islands	-10.763
▁cookies	-10.7631
▁publish	-10.7632
▁worker	-10.7641
▁nomi	-10.7643
▁ap	-10.7651
▁stinks	-10.7656
▁complain	-10.7686
tch	-10.7692
▁dash	-10.7697
▁frighten	-10.7697
▁troubles	-10.7703
▁admire	-10.7708
▁habit	-10.7714
▁respond	-10.7715
▁burst	-10.7715
▁glow	-10.7716
▁tc	-10.7717
▁succeed	-10.7722
▁blond	-10.7722
ub	-10.7722
▁rabbits	-10.7725
▁cleared	-10.7733
▁disagree	-10.7742
▁specific	-10.7742
▁atlanta	-10.7743
▁awkward	-10.7743
▁bargain	-10.7743
▁cemetery	-10.7743
▁cristina	-10.7743
▁dawg	-10.7743
▁dessert	-10.7743
▁edmund	-10.7743
▁happier	-10.7743
▁impact	-10.7743
▁minnesota	-10.7743
▁pocahontas	-10.7743
▁puzzle	-10.7743
▁response	-10.7743
▁semester	-10.7743
▁senate	-10.7743
▁shoeshine	-10.7743
▁supreme	-10.7743
▁trevor	-10.7743
▁pedro	-10.7743
▁financial	-10.7743
▁dialogue	-10.7743
▁nelson	-10.7743
▁denied	-10.7743
▁spray	-10.7743
▁chubby	-10.7743
▁destruction	-10.7743
▁wrapped	-10.7743
▁charity	-10.7743
▁internet	-10.7743
▁widow	-10.7743
▁ducal	-10.7743
▁tyler	-10.7743
▁signature	-10.7743
▁saddle	-10.7743
▁pimp	-10.7743
▁dixon	-10.7743
▁buttermaker	-10.7744
▁finch	-10.7744
▁raid	-10.7744
▁injured	-10.7744
▁oxygen	-10.7744
▁fanny	-10.7744
▁tissue	-10.7745
▁function	-10.7745
▁error	-10.7745
▁bingo	-10.7746
▁stepped	-10.7746
▁copper	-10.7746
▁series	-10.7746
▁jessie	-10.7746
▁spotted	-10.7747
▁rowan	-10.7747
▁sais	-10.7747
▁penis	-10.7747
▁temporary	-10.7748
▁agreement	-10.7748
▁bail	-10.7749
▁dice	-10.7749
▁dishes	-10.7749
▁ashes	-10.7751
▁plug	-10.7751
▁radical	-10.7752
▁tense	-10.7752
▁gator	-10.7755
▁issues	-10.7755
▁campus	-10.7757
▁liver	-10.776
▁forgetting	-10.776
▁humanity	-10.776
▁waiter	-10.7762
▁officially	-10.7763
py	-10.7766
▁explorer	-10.7766
▁nailed	-10.7769
▁drawn	-10.777
▁wounded	-10.777
▁beam	-10.7771
▁gem	-10.7771
▁coma	-10.7771
▁developed	-10.7777
▁rosen	-10.7779
▁plates	-10.7781
▁bare	-10.7782
▁petey	-10.7787
▁scan	-10.7788
▁bert	-10.7793
▁tes	-10.7796
▁straighten	-10.7811
▁engines	-10.7814
au	-10.7818
▁hoops	-10.7822
▁moral	-10.7825
▁safer	-10.783
▁boxes	-10.7832
▁brainy	-10.7832
▁tire	-10.784
▁gig	-10.7845
▁sc	-10.7847
▁talks	-10.785
her	-10.785
▁whoops	-10.7853
▁ka	-10.7854
ell	-10.7854
▁cooked	-10.7859
ms	-10.7867
▁holds	-10.7874
nce	-10.7882
▁tested	-10.7895
gs	-10.7898
▁fist	-10.7904
▁skills	-10.7909
▁twin	-10.7916
▁stall	-10.7917
▁balloon	-10.7921
▁cigar	-10.7921
▁barrel	-10.7921
▁billion	-10.7933
▁grounded	-10.7941
fer	-10.7949
▁wil	-10.795
▁puff	-10.7951
▁flor	-10.7951
oh	-10.7958
mer	-10.7963
▁rides	-10.7969
rie	-10.7979
▁pup	-10.7982
▁pope	-10.7986
▁giants	-10.7991
▁disco	-10.7996
ks	-10.8041
▁produce	-10.8047
fuck	-10.8049
▁writers	-10.8051
▁abandon	-10.8055
▁wid	-10.806
▁measure	-10.8064
▁severe	-10.8064
▁under	-10.8064
▁instant	-10.8067
▁profession	-10.8072
▁fried	-10.8073
▁debora	-10.8074
▁compete	-10.8075
▁anniversary	-10.8076
▁barbecue	-10.8076
▁bernstein	-10.8076
▁earthquake	-10.8076
▁floyd	-10.8076
▁garrett	-10.8076
▁henderson	-10.8076
▁judgment	-10.8076
▁length	-10.8076
▁leonidas	-10.8076
▁lonnie	-10.8076
▁meredith	-10.8076
▁mississippi	-10.8076
▁orchestra	-10.8076
▁scarecrow	-10.8076
▁stanwyk	-10.8076
▁survival	-10.8076
▁tremendous	-10.8076
▁unfair	-10.8076
▁vacuum	-10.8076
▁airborne	-10.8076
▁wretch	-10.8076
▁muttering	-10.8076
▁ryan	-10.8076
▁jelly	-10.8076
▁sauvage	-10.8076
▁bedders	-10.8076
▁upside	-10.8076
▁demonstration	-10.8076
cle	-10.8076
▁diane	-10.8076
▁sector	-10.8077
▁abort	-10.8077
▁lori	-10.8077
▁drej	-10.8077
▁shane	-10.8077
▁massive	-10.8078
▁groom	-10.8078
▁delightful	-10.8078
▁tide	-10.8078
▁glue	-10.8078
▁barley	-10.8079
▁potatoes	-10.8079
▁reaction	-10.8079
▁oak	-10.8079
▁trusted	-10.8082
▁shaft	-10.8083
▁inches	-10.8083
▁marie	-10.8084
▁passage	-10.8085
▁eastern	-10.8085
▁cube	-10.8088
▁vest	-10.8088
pr	-10.809
▁blonde	-10.8095
▁ju	-10.8095
▁impress	-10.8096
▁thus	-10.8098
▁bitter	-10.8101
▁divorced	-10.8103
▁drivers	-10.8104
▁mechanical	-10.8106
▁advanced	-10.8109
▁jes	-10.8112
▁fed	-10.8115
▁chased	-10.8115
▁fore	-10.8118
▁talented	-10.8118
▁cameras	-10.8125
▁suffered	-10.8127
▁hack	-10.8127
▁blasted	-10.8128
▁rescued	-10.8129
▁nerves	-10.8141
▁dot	-10.8149
▁painted	-10.8156
▁seed	-10.8168
▁arrangements	-10.8168
▁oni	-10.8169
res	-10.817
▁helpful	-10.8178
▁yea	-10.8183
▁kinds	-10.8191
bit	-10.8194
▁reporters	-10.82
▁carli	-10.8205
▁lifes	-10.8222
▁safely	-10.8229
▁bubble	-10.823
▁bligh	-10.8231
▁requires	-10.8238
▁cough	-10.8241
▁lone	-10.8241
▁detail	-10.825
▁rod	-10.8258
▁kane	-10.8265
▁privilege	-10.8265
▁immortal	-10.8267
▁muscle	-10.8268
▁medal	-10.8269
▁reported	-10.8277
▁lo	-10.8277
▁victims	-10.828
sel	-10.828
▁joey	-10.8288
▁cha	-10.8289
▁demons	-10.8296
▁airports	-10.8303
my	-10.8307
▁williams	-10.8316
▁cousins	-10.8318
▁scores	-10.8324
fu	-10.8328
foot	-10.834
ence	-10.836
▁min	-10.836
▁bottles	-10.8371
room	-10.8375
▁objects	-10.8376
▁hal	-10.8377
gle	-10.8403
▁convent	-10.8414
▁belle	-10.8418
▁conquer	-10.842
▁mor	-10.8421
▁russell	-10.8421
▁activities	-10.8421
▁atlantic	-10.8421
▁audible	-10.8421
▁casino	-10.8421
▁centipede	-10.8421
▁cyril	-10.8421
▁excalibur	-10.8421
▁garlic	-10.8421
▁hoffman	-10.8421
▁kragle	-10.8421
▁profile	-10.8421
▁pygar	-10.8421
▁rattling	-10.8421
▁shouid	-10.8421
▁sloan	-10.8421
▁specimen	-10.8421
▁thompson	-10.8421
▁threadgoode	-10.8421
▁vodka	-10.8421
ennial	-10.8421
▁pamela	-10.8421
▁clubber	-10.8421
▁cloak	-10.8421
▁aaron	-10.8421
▁shiny	-10.8421
▁importance	-10.8421
▁fortress	-10.8421
▁content	-10.8421
▁flap	-10.8421
▁slipping	-10.8422
▁automatic	-10.8422
▁oven	-10.8422
▁drops	-10.8422
▁joanna	-10.8422
▁commitment	-10.8422
▁potts	-10.8422
▁broad	-10.8423
▁objective	-10.8423
▁puke	-10.8423
▁bombay	-10.8423
▁blend	-10.8424
▁hooch	-10.8424
▁patton	-10.8424
▁critical	-10.8425
▁deux	-10.8425
▁jimbo	-10.8425
▁commandant	-10.8426
▁committed	-10.8426
▁doggy	-10.8426
▁misery	-10.8426
▁fog	-10.8427
tit	-10.8427
▁greedy	-10.8428
▁loop	-10.8428
▁mankind	-10.8428
▁grey	-10.8429
▁salad	-10.8429
▁carnie	-10.8431
▁vast	-10.8431
▁slightly	-10.8432
▁organized	-10.8437
▁sighing	-10.8437
▁nora	-10.8438
▁sole	-10.8441
cher	-10.8442
▁arr	-10.8442
▁particularly	-10.8443
▁madeline	-10.8445
▁warne	-10.8445
▁refused	-10.8446
▁magician	-10.8446
▁wiped	-10.845
▁damaged	-10.8453
▁weep	-10.8456
▁lily	-10.8456
▁marion	-10.8458
▁delighted	-10.846
▁beak	-10.846
▁exists	-10.8461
▁sting	-10.8461
▁coup	-10.8464
▁sits	-10.8465
▁cursed	-10.8469
▁fait	-10.8477
ham	-10.848
▁experienced	-10.8488
▁planted	-10.8491
▁colored	-10.8496
▁entered	-10.8497
zy	-10.8503
▁spiritual	-10.8505
▁communications	-10.8517
▁pockets	-10.8526
▁titans	-10.8528
▁imagined	-10.8539
▁prices	-10.8539
▁pirates	-10.856
▁rein	-10.8564
▁bets	-10.8581
▁twins	-10.8583
▁gen	-10.8587
▁laughed	-10.8598
▁display	-10.8598
ach	-10.8609
▁fade	-10.861
▁sincere	-10.8614
end	-10.8616
▁spa	-10.8616
▁orphan	-10.8623
▁denys	-10.8627
▁flame	-10.8628
▁ou	-10.8628
▁feathers	-10.8631
▁miracles	-10.8634
▁wit	-10.8652
ns	-10.8652
▁jo	-10.8665
▁sends	-10.8667
ap	-10.8667
▁ser	-10.8684
▁chicks	-10.8684
▁gin	-10.8687
▁hier	-10.8695
▁blues	-10.871
▁dip	-10.8715
▁ski	-10.8717
▁rick	-10.8719
▁embarrass	-10.8729
▁airplanes	-10.8742
point	-10.8751
your	-10.8757
▁norm	-10.8758
▁fletch	-10.876
▁retire	-10.8764
▁struggle	-10.8764
▁wonders	-10.8765
▁michel	-10.8766
▁wealth	-10.8766
▁iive	-10.8767
cho	-10.8771
▁hawaii	-10.8776
▁makin	-10.8777
▁stereo	-10.8778
▁alfred	-10.8778
▁alphonse	-10.8778
▁ambassador	-10.8778
▁breeze	-10.8778
▁clattering	-10.8778
▁cocaine	-10.8778
▁embassy	-10.8778
▁genuine	-10.8778
▁institution	-10.8778
▁intense	-10.8778
▁ireland	-10.8778
▁kapitein	-10.8778
▁melody	-10.8778
▁privacy	-10.8778
▁pursuit	-10.8778
▁railroad	-10.8778
▁vegetarian	-10.8778
▁yvette	-10.8778
▁incoming	-10.8778
▁warrant	-10.8778
▁gracious	-10.8778
▁hisses	-10.8778
▁sorrow	-10.8778
▁zijn	-10.8778
▁latin	-10.8778
▁mumbling	-10.8778
▁pest	-10.8778
▁surgery	-10.8778
▁sofa	-10.8778
▁association	-10.8779
▁influence	-10.8779
▁toula	-10.8779
▁grail	-10.8779
▁campbell	-10.8779
▁occur	-10.8779
▁pierre	-10.8779
▁vicious	-10.8779
▁cabinet	-10.8779
▁bold	-10.878
▁portia	-10.878
▁celebrating	-10.878
▁whatre	-10.878
▁parry	-10.878
▁armor	-10.878
▁feck	-10.878
▁childhood	-10.878
▁production	-10.8781
▁vincent	-10.8781
▁dragons	-10.8782
▁claims	-10.8782
▁zoc	-10.8782
▁dedicated	-10.8783
▁centre	-10.8783
▁satan	-10.8783
▁tanner	-10.8784
▁roman	-10.8785
▁neighing	-10.8785
▁quitting	-10.8785
▁offended	-10.8785
▁strictly	-10.8786
▁inspired	-10.8786
▁enchanted	-10.8787
▁cared	-10.8787
▁compared	-10.879
▁marian	-10.8791
▁echoing	-10.8792
▁rookie	-10.8794
▁tore	-10.8798
▁matches	-10.88
▁betrayed	-10.8802
▁hog	-10.8804
▁separated	-10.8805
▁appropriate	-10.8809
▁shrieks	-10.8809
▁fuse	-10.881
▁landon	-10.8811
▁rage	-10.8812
▁twisted	-10.8814
▁fastest	-10.8815
▁hunger	-10.8818
▁cakes	-10.8819
▁appeared	-10.882
▁wiz	-10.882
▁fame	-10.8823
▁core	-10.8827
▁bitches	-10.8829
▁loudly	-10.8833
▁strikes	-10.8835
face	-10.8837
▁dumped	-10.8839
▁hint	-10.8841
ically	-10.8845
▁buckle	-10.8846
▁my	-10.885
fi	-10.8851
nic	-10.8853
▁rushing	-10.8854
▁mash	-10.8864
▁cracking	-10.8869
▁vai	-10.8871
▁bark	-10.8875
▁auto	-10.8876
▁awaits	-10.8877
▁messy	-10.888
▁embrace	-10.8883
▁kite	-10.8884
▁sy	-10.889
ida	-10.8896
▁winners	-10.8898
▁torn	-10.89
▁giris	-10.8905
▁tre	-10.8907
▁hopes	-10.891
▁oss	-10.8921
▁ropes	-10.8925
ide	-10.8935
tro	-10.8937
▁visiting	-10.8939
ula	-10.894
▁immortals	-10.894
gi	-10.8942
▁frances	-10.8943
▁stations	-10.8944
▁lin	-10.8949
▁y	-10.8954
▁heights	-10.8957
sha	-10.8964
▁sings	-10.8965
▁swell	-10.8966
▁affairs	-10.8974
▁explode	-10.8978
▁fart	-10.8981
lam	-10.8991
▁peasant	-10.8992
▁item	-10.8993
▁villain	-10.8995
▁cheek	-10.8995
▁glove	-10.8996
▁drives	-10.8997
▁actions	-10.8997
ais	-10.8998
▁iet	-10.9003
▁instruments	-10.9026
▁marrying	-10.904
▁pies	-10.904
gie	-10.9043
▁untie	-10.9043
▁meows	-10.9043
▁prayer	-10.905
ima	-10.9051
▁noises	-10.9055
▁drift	-10.906
▁burgers	-10.9077
▁decisions	-10.9088
▁flu	-10.9091
▁psycho	-10.9095
▁flush	-10.9098
pitched	-10.912
▁itch	-10.9121
school	-10.9121
▁invent	-10.9121
▁litter	-10.9124
▁slim	-10.9127
▁investigate	-10.9134
▁blank	-10.9135
▁twitch	-10.9136
▁turbo	-10.9138
▁draft	-10.9138
▁permanent	-10.9139
▁stubborn	-10.9147
▁reception	-10.9148
▁illusion	-10.9148
▁liquor	-10.9148
▁aculos	-10.9148
▁allergic	-10.9148
▁bicycle	-10.9148
▁bookshop	-10.9148
▁chorus	-10.9148
▁concussion	-10.9148
▁conscience	-10.9148
▁deloris	-10.9148
▁eisenheim	-10.9148
▁essential	-10.9148
▁fantasy	-10.9148
▁hilarious	-10.9148
▁industry	-10.9148
▁kumail	-10.9148
▁scrumptious	-10.9148
▁tiktok	-10.9148
▁vessel	-10.9148
▁zelda	-10.9148
▁canoe	-10.9148
▁fulton	-10.9148
▁communicate	-10.9148
▁satisfaction	-10.9149
▁ransom	-10.9149
▁creek	-10.9149
▁residence	-10.9149
▁beware	-10.9149
▁bidding	-10.9149
▁florence	-10.9149
▁culture	-10.9149
▁assistance	-10.9149
▁hunch	-10.9149
▁iittie	-10.9149
▁jenning	-10.9149
▁garland	-10.9149
▁destination	-10.9149
▁envy	-10.9149
▁shortcut	-10.915
▁scum	-10.915
▁leadership	-10.915
▁grizzly	-10.915
▁remarkable	-10.915
▁karate	-10.9151
▁buffy	-10.9151
▁sequence	-10.9151
▁patty	-10.9151
▁berlin	-10.9152
▁version	-10.9153
▁jaw	-10.9153
▁bash	-10.9153
▁confirmation	-10.9154
▁clay	-10.9154
▁colony	-10.9154
▁shakes	-10.9154
▁sanders	-10.9156
▁tech	-10.9156
▁hideous	-10.9156
▁stud	-10.9157
▁related	-10.9159
▁calf	-10.9159
▁shallow	-10.9159
▁dork	-10.9159
▁approved	-10.9162
▁kiddo	-10.9162
▁sang	-10.9162
▁required	-10.9165
▁sins	-10.9166
▁hooting	-10.9166
▁paulie	-10.9167
▁milly	-10.9167
▁thrilled	-10.9168
tor	-10.9174
▁limited	-10.9176
▁handling	-10.9177
▁mayday	-10.9178
▁ciao	-10.918
nn	-10.9185
ged	-10.9186
▁shocked	-10.9187
ify	-10.9188
▁circles	-10.9192
▁pod	-10.9193
▁biscuits	-10.9198
▁boobs	-10.9203
▁lu	-10.9204
▁gathered	-10.9206
▁hooked	-10.9211
▁sailing	-10.9211
▁lane	-10.9213
▁grades	-10.9217
▁mikey	-10.9227
▁kip	-10.9229
▁slap	-10.923
▁booing	-10.9232
▁slayers	-10.9235
▁traveled	-10.9256
how	-10.9271
▁tools	-10.9287
▁palm	-10.9293
▁praying	-10.9294
▁mae	-10.9297
▁nuns	-10.9299
▁lil	-10.9299
▁ph	-10.93
▁suite	-10.9302
▁cheeks	-10.9305
▁breakin	-10.9311
▁muscles	-10.9317
▁timeout	-10.932
▁explained	-10.9331
ui	-10.9341
▁bombing	-10.9346
▁honored	-10.9346
▁hum	-10.9353
▁magnet	-10.9356
▁feared	-10.9367
▁carrie	-10.9369
rai	-10.9371
▁cramp	-10.9375
▁pirate	-10.9375
▁beep	-10.9376
▁yankee	-10.9379
▁document	-10.9379
▁sheet	-10.938
▁ki	-10.9384
▁nun	-10.9391
ations	-10.9393
ora	-10.9402
▁herb	-10.9412
▁nicely	-10.9414
▁danced	-10.9426
low	-10.9427
▁seasons	-10.9431
▁ri	-10.9433
▁tickle	-10.9435
▁tunnels	-10.9441
car	-10.9451
▁crimes	-10.9452
▁diamonds	-10.9453
▁toi	-10.946
▁invade	-10.9462
pro	-10.9466
▁rem	-10.9476
▁skate	-10.9478
▁affect	-10.948
use	-10.9494
▁handy	-10.9496
free	-10.9497
▁screech	-10.9502
▁tails	-10.9506
▁puck	-10.9511
▁honour	-10.9512
▁improve	-10.9518
▁preserve	-10.9519
▁rounds	-10.952
▁tag	-10.9521
▁unexpected	-10.9523
▁engage	-10.9523
▁crank	-10.9525
▁kan	-10.9527
▁thrust	-10.953
▁on	-10.953
▁exhibit	-10.9531
elius	-10.9533
▁urge	-10.9533
▁amateur	-10.9533
▁approval	-10.9533
▁battalion	-10.9533
▁centuries	-10.9533
▁coincidence	-10.9533
▁davenport	-10.9533
▁despair	-10.9533
▁extension	-10.9533
▁hector	-10.9533
▁kakamucho	-10.9533
▁lorenzo	-10.9533
▁october	-10.9533
▁orbison	-10.9533
▁pistol	-10.9533
▁proposal	-10.9533
▁religion	-10.9533
▁shipoopi	-10.9533
▁tournament	-10.9533
▁violent	-10.9533
▁bernie	-10.9533
▁lobster	-10.9533
▁prior	-10.9533
▁infection	-10.9533
▁dagger	-10.9533
▁glorious	-10.9533
▁somewhat	-10.9533
▁swore	-10.9533
▁penalty	-10.9533
▁delicate	-10.9533
▁guppy	-10.9533
▁mistress	-10.9533
▁cricket	-10.9533
▁broomstick	-10.9533
▁vital	-10.9534
▁cease	-10.9534
▁entertainment	-10.9534
▁nanny	-10.9534
▁glide	-10.9534
▁stiles	-10.9534
▁granddaughter	-10.9534
▁jewish	-10.9534
▁franck	-10.9534
▁rising	-10.9534
▁titanic	-10.9535
▁salesman	-10.9535
▁bennett	-10.9536
▁rail	-10.9536
▁daily	-10.9536
▁harrison	-10.9536
▁perro	-10.9537
▁entry	-10.9537
▁dyou	-10.9538
▁justin	-10.9538
bar	-10.9538
cent	-10.9539
▁caleb	-10.9539
▁sober	-10.9539
▁princeton	-10.9539
▁allies	-10.9541
tait	-10.9541
▁nog	-10.9543
▁warden	-10.9543
▁hitler	-10.9543
▁moore	-10.9543
▁fork	-10.9544
▁forgiveness	-10.9545
▁bertier	-10.9547
▁remy	-10.9547
▁sirens	-10.9549
▁controlling	-10.9549
▁involve	-10.955
▁deadline	-10.9551
▁keen	-10.9558
▁fryer	-10.9562
▁perfection	-10.9565
▁angelo	-10.9565
▁cargo	-10.9571
▁toaster	-10.9573
avec	-10.9576
▁gr	-10.9585
▁passengers	-10.9585
▁tada	-10.9593
▁asses	-10.9596
▁operate	-10.96
▁jackie	-10.9608
▁horny	-10.9615
▁guessed	-10.9617
▁deed	-10.962
▁faction	-10.9623
lock	-10.9626
▁fee	-10.9628
▁cons	-10.9629
▁reminded	-10.963
▁mist	-10.963
gy	-10.9631
▁crashed	-10.9631
▁criminals	-10.9633
▁searched	-10.9636
▁killers	-10.9637
▁sucking	-10.9638
▁realm	-10.9638
▁prayed	-10.9649
▁bowling	-10.965
▁mini	-10.9651
▁belonged	-10.9658
▁breasts	-10.9663
▁naar	-10.967
▁laz	-10.9678
▁hawk	-10.9678
ified	-10.968
▁mutt	-10.9688
▁sup	-10.969
▁muta	-10.9694
▁flames	-10.9702
▁lili	-10.9702
▁med	-10.9706
▁hare	-10.9706
hh	-10.9713
▁contain	-10.9719
▁interests	-10.9719
▁hump	-10.9722
rd	-10.9728
▁pointing	-10.9729
▁nightmares	-10.9729
▁mia	-10.9732
▁paws	-10.9739
▁drawings	-10.9764
hoo	-10.9764
▁burns	-10.9769
▁ot	-10.9771
▁smack	-10.9775
▁argument	-10.9775
▁statue	-10.9776
▁exam	-10.9776
▁bucket	-10.9778
▁curtain	-10.9779
▁generation	-10.9779
eyed	-10.9779
▁om	-10.9782
▁missile	-10.9793
▁sis	-10.9802
hhh	-10.9814
▁trans	-10.9817
▁ideal	-10.9817
▁conversations	-10.982
nit	-10.9824
▁bra	-10.9835
▁options	-10.9837
▁reporting	-10.9838
▁grows	-10.9845
▁arch	-10.9846
▁vas	-10.9849
▁owners	-10.985
▁persons	-10.9859
▁thrill	-10.9883
istic	-10.9884
▁crysta	-10.9887
moi	-10.9894
▁threaten	-10.9898
▁craft	-10.9898
▁counsel	-10.9901
▁picks	-10.9909
▁gamble	-10.991
▁drain	-10.9911
▁distress	-10.9911
▁reveal	-10.9912
spect	-10.9914
▁commission	-10.9918
light	-10.992
▁experiments	-10.9925
▁torpedo	-10.9929
▁unlike	-10.9929
▁alcohol	-10.9931
▁slot	-10.9932
▁gwen	-10.9932
▁slaughter	-10.9933
▁blog	-10.9933
▁interfere	-10.9933
▁forbid	-10.9933
▁album	-10.9933
▁assassin	-10.9933
▁confusion	-10.9933
▁coordinates	-10.9933
▁dallas	-10.9933
▁evacuate	-10.9933
▁explosiveskull	-10.9933
▁kennedy	-10.9933
▁maximum	-10.9933
▁opponent	-10.9933
▁pabio	-10.9933
▁peculiar	-10.9933
▁popcorn	-10.9933
▁proctor	-10.9933
▁razor	-10.9933
▁rubbish	-10.9933
▁schultz	-10.9933
▁shakespeare	-10.9933
▁sherry	-10.9933
▁sleeve	-10.9933
▁buddies	-10.9933
▁essence	-10.9933
▁nixon	-10.9933
▁presume	-10.9933
▁reilly	-10.9933
▁robbed	-10.9933
▁luggage	-10.9933
▁nokes	-10.9933
▁malfunction	-10.9933
▁carnival	-10.9933
▁slug	-10.9933
▁forfeit	-10.9933
▁headache	-10.9933
▁hollow	-10.9933
▁almighty	-10.9933
▁yuck	-10.9933
▁tadashi	-10.9933
▁maniac	-10.9933
▁sharing	-10.9933
▁imitate	-10.9933
▁dwarves	-10.9933
▁fridge	-10.9933
▁stacy	-10.9933
▁ahoy	-10.9933
▁graveyard	-10.9933
▁typewriter	-10.9933
▁graff	-10.9933
▁stove	-10.9934
▁piease	-10.9934
▁dutch	-10.9934
▁lupo	-10.9934
▁spinning	-10.9934
▁averman	-10.9934
▁diving	-10.9934
▁marble	-10.9934
▁nerd	-10.9934
▁begged	-10.9934
▁salary	-10.9934
▁churchill	-10.9935
▁appetite	-10.9935
▁soil	-10.9935
▁batteries	-10.9936
▁scent	-10.9936
▁rash	-10.9936
▁dancers	-10.9936
▁rally	-10.9937
▁raph	-10.9937
▁alba	-10.9937
▁stine	-10.9937
▁network	-10.9938
▁pony	-10.9938
▁julius	-10.9939
▁slappy	-10.9939
▁dino	-10.994
▁aww	-10.9942
▁southern	-10.9943
▁tomb	-10.9947
▁active	-10.995
▁jen	-10.9954
▁elm	-10.9957
▁dreadful	-10.9959
▁unto	-10.9963
▁threatening	-10.9966
▁mere	-10.9967
▁poker	-10.9973
▁intended	-10.9984
▁tender	-10.9988
▁mort	-10.999
▁dodge	-10.9995
▁vegetables	-11.0006
▁marching	-11.0011
▁tasted	-11.0012
tte	-11.0019
▁bri	-11.0031
▁squeals	-11.0039
▁shared	-11.0048
▁julian	-11.0049
▁shovel	-11.0054
▁tracking	-11.0061
▁claws	-11.0072
pp	-11.0072
▁runway	-11.0074
▁thundering	-11.0076
▁squeaks	-11.0077
▁down	-11.0088
▁mature	-11.0089
▁missiles	-11.009
▁tables	-11.009
▁woohoo	-11.0093
▁documents	-11.0095
▁heroic	-11.0096
▁sheets	-11.0096
▁packing	-11.0101
▁seated	-11.0123
vis	-11.0125
▁vers	-11.0141
▁weirdo	-11.0151
ned	-11.0155
▁laying	-11.0156
▁regard	-11.0158
▁click	-11.0171
▁ego	-11.0173
ita	-11.0189
▁profit	-11.0191
▁tris	-11.0191
▁heavyweight	-11.0191
▁permit	-11.0191
▁pattern	-11.0192
▁tsar	-11.0193
▁tool	-11.0197
▁grownup	-11.0197
▁clubs	-11.0199
▁bananas	-11.0199
▁corpse	-11.0205
▁ned	-11.0208
▁lip	-11.0209
▁winding	-11.0219
▁jew	-11.0221
▁wo	-11.0222
▁payment	-11.0222
▁eats	-11.0223
ink	-11.0228
▁speakers	-11.023
▁ohio	-11.0234
▁whas	-11.0235
▁strip	-11.0237
▁for	-11.0241
▁strings	-11.0244
gon	-11.0246
▁tri	-11.0247
ron	-11.0249
▁poster	-11.0253
▁fer	-11.0255
▁eighth	-11.0255
▁nana	-11.0258
▁sakes	-11.0268
▁pigeons	-11.027
▁writes	-11.0283
▁opera	-11.0284
▁helpless	-11.029
qui	-11.0291
book	-11.0292
▁peoples	-11.0293
ress	-11.0303
▁beers	-11.0317
▁answering	-11.0318
▁swarm	-11.0321
homme	-11.0321
▁fry	-11.0323
lili	-11.0326
▁mode	-11.0327
▁stack	-11.033
▁choke	-11.0335
▁bleed	-11.0336
stick	-11.0338
▁weed	-11.034
▁sta	-11.0344
▁pakistan	-11.0345
▁jij	-11.0345
pen	-11.0345
▁orbit	-11.0346
▁rag	-11.0347
▁drama	-11.0349
▁spoon	-11.035
▁ambush	-11.035
▁arnold	-11.035
▁catholic	-11.035
▁choking	-11.035
▁cleveland	-11.035
▁cyrus	-11.035
▁dukhovich	-11.035
▁fierce	-11.035
▁granada	-11.035
▁grief	-11.035
▁horror	-11.035
▁identify	-11.035
▁inaudible	-11.035
▁inspiration	-11.035
▁leather	-11.035
▁luxury	-11.035
▁madiba	-11.035
▁mcdeere	-11.035
▁memphis	-11.035
▁mullins	-11.035
▁oldfashioned	-11.035
▁principle	-11.035
▁rehearse	-11.035
▁stammering	-11.035
▁sullivan	-11.035
▁sunrise	-11.035
▁uncomfortable	-11.035
▁ursula	-11.035
▁zurg	-11.035
▁sherman	-11.035
▁virus	-11.035
▁tavern	-11.035
▁acquaintance	-11.035
▁facing	-11.035
▁trading	-11.035
▁rudolph	-11.035
▁cortez	-11.035
▁northern	-11.035
▁vocalizing	-11.035
▁infinite	-11.035
▁mustache	-11.035
▁crisis	-11.035
▁continent	-11.035
▁pedal	-11.035
▁gregorio	-11.035
▁scotland	-11.035
▁refund	-11.035
▁stool	-11.035
▁butler	-11.035
▁lancelot	-11.035
▁scheme	-11.035
▁eleven	-11.035
▁stew	-11.035
▁dragged	-11.035
▁grasp	-11.035
▁bruise	-11.035
▁tsk	-11.035
▁amigo	-11.035
▁dentist	-11.035
▁jewelry	-11.035
▁harsh	-11.0351
▁specifically	-11.0351
▁veux	-11.0351
▁waltz	-11.0351
▁ollie	-11.0351
▁divine	-11.0351
▁skeleton	-11.0351
▁engagement	-11.0351
▁padre	-11.0351
▁revolutionary	-11.0352
▁hoover	-11.0352
▁brew	-11.0352
▁hova	-11.0352
▁ox	-11.0353
▁nursery	-11.0353
▁yank	-11.0353
▁stepford	-11.0354
▁peak	-11.0355
▁paco	-11.0355
▁grady	-11.0355
▁heip	-11.0355
▁mobile	-11.0355
▁accidentally	-11.0355
▁fern	-11.0356
▁woof	-11.0356
▁divided	-11.0356
▁programmed	-11.0357
▁household	-11.0358
▁hup	-11.0359
▁bedtime	-11.0361
▁formal	-11.0362
▁eden	-11.0364
▁moose	-11.0365
ata	-11.0365
▁retired	-11.0366
▁producer	-11.0369
▁apply	-11.0371
▁takin	-11.0372
▁sip	-11.0372
▁mill	-11.0375
▁git	-11.0376
▁comp	-11.0376
▁riot	-11.0377
▁os	-11.0381
▁littlefoot	-11.0384
ologist	-11.0391
▁scheduled	-11.0394
▁sim	-11.0396
ef	-11.0396
▁crushed	-11.0396
▁sacrificed	-11.0398
▁nows	-11.0402
▁mistaken	-11.0404
▁epic	-11.0404
▁throws	-11.0405
▁acts	-11.041
▁nervously	-11.041
▁dim	-11.0412
▁eagles	-11.0419
▁hid	-11.0422
▁gathering	-11.0434
ore	-11.0438
▁und	-11.0439
ture	-11.0443
▁sobs	-11.0446
▁gale	-11.0452
▁kneel	-11.0456
▁merci	-11.046
▁smarter	-11.0462
▁clearing	-11.0464
▁missus	-11.0466
▁classical	-11.0468
▁hopeless	-11.047
▁relatives	-11.0473
▁techniques	-11.0473
▁mil	-11.0477
▁jar	-11.0483
▁finals	-11.0487
▁charts	-11.0487
▁lighten	-11.0509
▁covers	-11.0519
int	-11.0521
▁shelly	-11.0522
▁dood	-11.0524
can	-11.0525
▁brag	-11.0525
lan	-11.0529
▁tab	-11.0544
▁crossing	-11.055
▁mates	-11.0559
▁destroying	-11.0568
▁seize	-11.0571
▁pine	-11.0571
▁poke	-11.0585
▁photographs	-11.0588
▁squeak	-11.0591
▁ple	-11.0602
wee	-11.0607
▁areas	-11.0607
▁ie	-11.0611
▁rolled	-11.0612
▁who	-11.0626
▁circuit	-11.0626
▁slippers	-11.0627
▁invention	-11.0627
▁pancake	-11.0628
▁bishop	-11.0628
ight	-11.0629
▁employee	-11.063
▁citizen	-11.0631
▁giri	-11.0634
▁claw	-11.0634
▁thud	-11.0635
▁goody	-11.0638
▁breast	-11.0643
▁mole	-11.0649
▁boil	-11.0656
▁spots	-11.0667
▁sets	-11.0688
▁mat	-11.0693
▁tick	-11.07
ash	-11.0702
▁hats	-11.0707
▁mock	-11.0715
▁doe	-11.0717
▁ranger	-11.0729
▁punish	-11.0733
rit	-11.0735
▁sales	-11.0736
▁anyways	-11.0751
▁wrestle	-11.0752
born	-11.0753
▁manor	-11.0754
▁appeal	-11.0755
▁taik	-11.0757
spite	-11.0757
phone	-11.0757
james	-11.0759
ob	-11.0766
▁signing	-11.0769
▁aziz	-11.0769
▁encourage	-11.077
▁approve	-11.0771
▁adore	-11.0773
▁grub	-11.0774
▁strict	-11.0775
▁mag	-11.0775
▁axe	-11.0776
▁wilkins	-11.0776
▁cleaner	-11.0777
▁splash	-11.078
▁harris	-11.0781
▁pilots	-11.0782
▁sixteen	-11.0783
▁wheat	-11.0784
▁astronaut	-11.0785
▁august	-11.0785
▁bronco	-11.0785
▁caractacus	-11.0785
▁cinnamon	-11.0785
▁description	-11.0785
▁lizzie	-11.0785
▁lounge	-11.0785
▁motorcycle	-11.0785
▁mvp	-11.0785
▁perimeter	-11.0785
▁primitive	-11.0785
▁rosalyn	-11.0785
▁scoop	-11.0785
▁similar	-11.0785
▁snyder	-11.0785
▁splinter	-11.0785
▁xerxes	-11.0785
▁butterfly	-11.0785
▁eclipse	-11.0785
▁essay	-11.0785
▁predator	-11.0785
▁arena	-11.0785
▁sicily	-11.0785
▁wolves	-11.0785
▁storage	-11.0785
▁maleficent	-11.0785
▁departure	-11.0785
▁fireworks	-11.0785
▁gadgetmobile	-11.0785
▁niki	-11.0785
▁tammy	-11.0785
▁phew	-11.0785
▁aisle	-11.0785
▁scatter	-11.0785
▁janice	-11.0785
▁clapping	-11.0785
▁mavis	-11.0785
▁outrageous	-11.0785
▁knob	-11.0785
▁hefty	-11.0785
▁collier	-11.0785
▁salmon	-11.0785
▁overnight	-11.0785
▁disappointment	-11.0785
▁ripped	-11.0785
▁kitka	-11.0785
▁blink	-11.0785
▁motel	-11.0785
▁mold	-11.0786
▁election	-11.0786
▁heartbeat	-11.0786
▁identity	-11.0786
▁motherfucking	-11.0786
▁chapel	-11.0786
▁orangemen	-11.0786
▁grid	-11.0787
▁depressed	-11.0787
▁wax	-11.0787
▁hull	-11.0787
▁promotion	-11.0788
▁region	-11.0788
▁arriving	-11.0788
▁stallion	-11.0789
▁conway	-11.0789
▁jeans	-11.0789
▁bonnet	-11.079
▁cera	-11.079
▁roommate	-11.079
▁porch	-11.079
▁bonus	-11.0791
▁polly	-11.0794
▁boone	-11.0794
▁breakdown	-11.0794
▁mentor	-11.0795
▁july	-11.0796
▁recovery	-11.0796
▁assigned	-11.0797
▁haunted	-11.0797
▁caul	-11.0798
▁dough	-11.0799
▁assist	-11.0799
▁steiner	-11.0799
▁seventh	-11.08
▁objection	-11.0801
▁loch	-11.0802
▁attracted	-11.0802
▁slate	-11.0804
▁applauding	-11.0806
bound	-11.0807
▁superman	-11.0807
▁diego	-11.0809
▁reasonable	-11.0816
▁limo	-11.0821
▁connected	-11.0822
▁socks	-11.0823
▁crawling	-11.0824
▁defeated	-11.0825
▁heed	-11.0826
▁bloom	-11.083
▁geek	-11.0836
▁requested	-11.0838
▁lev	-11.0838
▁taco	-11.0849
▁medic	-11.0852
master	-11.0861
▁mee	-11.0863
▁peek	-11.0865
▁switched	-11.0871
ington	-11.0872
▁logical	-11.0877
▁driven	-11.0883
▁era	-11.0884
▁muppets	-11.0885
▁dada	-11.0897
▁towns	-11.0898
▁figures	-11.0901
row	-11.0902
gue	-11.0903
▁damp	-11.0906
▁can	-11.0913
▁visitors	-11.0914
▁comedy	-11.0915
mm	-11.0916
▁blanc	-11.0917
▁ag	-11.0923
▁hangin	-11.0924
▁gran	-11.093
▁wilt	-11.0949
▁sticky	-11.0953
▁mend	-11.0958
hour	-11.0961
izing	-11.0964
▁robe	-11.097
▁quicker	-11.0979
nk	-11.0998
ett	-11.1022
uld	-11.1022
▁candles	-11.1023
▁chod	-11.1023
▁bits	-11.1024
▁lighter	-11.1027
▁choices	-11.1032
▁bubbles	-11.1032
ney	-11.1041
▁discover	-11.1044
▁magazines	-11.1046
ang	-11.1055
▁images	-11.1069
▁sal	-11.1073
▁murders	-11.1074
▁blocks	-11.1079
▁suitcase	-11.1079
▁compliment	-11.1082
▁puts	-11.1083
▁athletic	-11.1083
▁mushroom	-11.1084
▁belief	-11.1087
ker	-11.1094
ek	-11.1109
▁traditional	-11.1112
▁ei	-11.1112
▁com	-11.1113
▁sleepy	-11.1114
▁mare	-11.1115
▁destroyer	-11.112
▁mamas	-11.1123
ites	-11.1128
▁joker	-11.1129
▁mouths	-11.1139
bre	-11.1145
▁vehicles	-11.1145
cus	-11.1151
▁thumbs	-11.1152
▁fighters	-11.1157
▁suspects	-11.116
year	-11.1163
ini	-11.1166
▁manner	-11.1166
▁ban	-11.1171
▁inc	-11.1181
▁brief	-11.1183
▁ach	-11.1186
▁guessing	-11.1188
▁stir	-11.119
▁peel	-11.1203
▁sounded	-11.1204
ving	-11.1204
break	-11.1206
▁pad	-11.1206
▁recover	-11.1206
box	-11.1207
mouth	-11.1211
ung	-11.1211
▁possess	-11.1213
ano	-11.1215
▁unload	-11.1216
▁controls	-11.122
▁ber	-11.1222
▁pinch	-11.1222
▁wander	-11.1225
▁indicate	-11.1225
▁advise	-11.1225
▁expose	-11.1225
▁environment	-11.1235
▁mega	-11.1237
▁endure	-11.1238
▁journal	-11.1238
▁realise	-11.1238
▁swan	-11.1238
▁advisor	-11.1239
▁arizona	-11.1239
▁bedrock	-11.1239
▁blackmail	-11.1239
▁corridor	-11.1239
▁dammit	-11.1239
▁detention	-11.1239
▁dietrich	-11.1239
▁duchess	-11.1239
▁elegant	-11.1239
▁elliot	-11.1239
▁fenix	-11.1239
▁hallelujah	-11.1239
▁khrushchev	-11.1239
▁lawrence	-11.1239
▁leopard	-11.1239
▁manhattan	-11.1239
▁marmalade	-11.1239
▁outstanding	-11.1239
▁philosophy	-11.1239
▁phoenix	-11.1239
▁qyack	-11.1239
▁sabotage	-11.1239
▁sceptre	-11.1239
▁session	-11.1239
▁southjet	-11.1239
▁supervisor	-11.1239
▁throttle	-11.1239
▁volume	-11.1239
▁yawns	-11.1239
▁jolly	-11.1239
▁legacy	-11.1239
▁merde	-11.1239
▁clinic	-11.1239
▁eighteen	-11.1239
▁tolerate	-11.1239
▁courtesy	-11.1239
▁taeko	-11.1239
▁italy	-11.1239
▁chimney	-11.1239
▁akima	-11.1239
▁estimate	-11.1239
▁lobby	-11.1239
▁update	-11.1239
▁sharon	-11.1239
▁exotic	-11.1239
▁sheldon	-11.1239
▁regent	-11.1239
▁gillian	-11.1239
▁wharf	-11.1239
▁flashlight	-11.1239
▁venture	-11.1239
▁tidy	-11.1239
▁extend	-11.124
▁broadway	-11.124
▁pinned	-11.124
▁cherish	-11.124
▁pansy	-11.124
▁playoffs	-11.124
▁sofi	-11.124
▁unconscious	-11.124
▁petrie	-11.124
▁thread	-11.124
▁doris	-11.124
▁rustling	-11.124
▁loyalty	-11.124
▁shelby	-11.1241
▁offers	-11.1241
▁nova	-11.1241
▁toad	-11.1241
▁chopper	-11.1241
▁inhales	-11.1241
▁testify	-11.1241
▁phrase	-11.1241
▁oooh	-11.1241
▁ook	-11.1241
▁obliged	-11.1241
▁diversion	-11.1242
▁krei	-11.1242
▁clap	-11.1242
▁pierce	-11.1242
▁yacht	-11.1242
▁lightyear	-11.1243
▁billina	-11.1243
▁flint	-11.1244
▁christine	-11.1244
▁stain	-11.1246
▁stepping	-11.1246
▁wilkinson	-11.1248
▁fortunately	-11.1248
▁clearance	-11.1248
▁agony	-11.1248
▁taxes	-11.1248
▁dire	-11.125
▁cloe	-11.125
▁vain	-11.125
▁suspended	-11.1251
▁benson	-11.1251
▁rape	-11.1254
▁copies	-11.1254
▁casa	-11.1256
▁ke	-11.1256
▁mint	-11.1257
▁bein	-11.1258
▁attached	-11.1258
▁punished	-11.1261
▁valentine	-11.1263
▁lair	-11.1264
▁wandering	-11.1267
▁rack	-11.1268
▁brandy	-11.1269
▁myth	-11.1272
▁setup	-11.1282
▁pinky	-11.1286
▁spoiled	-11.1286
▁snarls	-11.1287
▁ancestors	-11.1294
▁flooding	-11.1295
▁cheated	-11.1297
▁ole	-11.1297
▁collected	-11.1298
▁pale	-11.1301
▁chet	-11.1303
▁grind	-11.1304
▁and	-11.1305
▁prop	-11.1314
▁sinking	-11.1323
▁buster	-11.1329
▁suggested	-11.133
▁luc	-11.1332
zi	-11.1334
▁prospect	-11.1335
eight	-11.1341
▁focused	-11.1344
▁blocked	-11.1347
▁instincts	-11.1352
▁riches	-11.1354
▁mmmmmm	-11.1354
▁homeless	-11.1354
▁swinging	-11.1365
▁nurs	-11.1369
▁ru	-11.137
▁burt	-11.1371
▁explore	-11.1386
▁grandmas	-11.1388
▁pier	-11.1394
▁bothered	-11.1396
gh	-11.1411
▁cans	-11.1414
▁generations	-11.1418
▁cd	-11.1421
lier	-11.1449
▁fulfill	-11.1461
▁pets	-11.1474
▁earl	-11.1477
▁boarding	-11.1485
▁parked	-11.1491
▁ting	-11.1495
uk	-11.1496
▁promises	-11.15
▁reno	-11.1511
▁organize	-11.1523
▁scares	-11.153
▁chart	-11.1543
ack	-11.1543
▁ob	-11.1545
▁fires	-11.1546
▁effects	-11.155
▁rocking	-11.1551
▁camel	-11.1555
▁skirt	-11.1556
▁coconut	-11.1556
▁athlete	-11.1557
▁conclusion	-11.1557
▁autograph	-11.1557
▁smelled	-11.1557
▁ankle	-11.1558
▁chemical	-11.1558
▁rug	-11.156
▁there	-11.1561
▁trim	-11.1562
▁attacking	-11.1565
▁sayin	-11.1568
▁where	-11.157
sis	-11.1577
▁scientists	-11.158
▁musician	-11.1587
▁mens	-11.1596
cap	-11.1605
▁bake	-11.1607
▁flintstones	-11.1617
▁unc	-11.1617
▁waitin	-11.1618
▁bearing	-11.1628
▁owes	-11.1629
▁deposit	-11.1631
rais	-11.1632
▁cass	-11.1648
▁distract	-11.1658
gan	-11.1664
town	-11.1666
ways	-11.1666
▁maw	-11.1672
fall	-11.1675
▁peck	-11.1679
bird	-11.168
girl	-11.1685
play	-11.1687
wise	-11.169
▁assault	-11.1693
▁dates	-11.1695
▁achieve	-11.17
▁thoughtful	-11.1701
▁arrange	-11.1701
▁grim	-11.1707
▁inventor	-11.1708
▁kiddin	-11.1713
▁mij	-11.1714
▁slut	-11.1715
▁trauma	-11.1715
▁annual	-11.1715
▁bartender	-11.1715
▁brittany	-11.1715
▁canada	-11.1715
▁clarissa	-11.1715
▁clerk	-11.1715
▁corporate	-11.1715
▁credentials	-11.1715
▁daxiat	-11.1715
▁defensive	-11.1715
▁eternity	-11.1715
▁ferguson	-11.1715
▁fidgit	-11.1715
▁flavor	-11.1715
▁guidance	-11.1715
▁independent	-11.1715
▁jonah	-11.1715
▁obsessed	-11.1715
▁odile	-11.1715
▁orleans	-11.1715
▁phantom	-11.1715
▁polynesia	-11.1715
▁rapunzel	-11.1715
▁religious	-11.1715
▁szalinski	-11.1715
▁throughout	-11.1715
▁tomainia	-11.1715
▁tunstall	-11.1715
▁whereabouts	-11.1715
▁wrench	-11.1715
▁relay	-11.1715
▁zorin	-11.1715
▁larue	-11.1715
▁memo	-11.1715
▁reign	-11.1715
▁dolittle	-11.1715
▁neighbourhood	-11.1715
▁ignorant	-11.1715
▁wheelchair	-11.1715
▁kibble	-11.1715
▁contrary	-11.1715
▁jeanluc	-11.1715
▁wimp	-11.1715
▁disney	-11.1715
▁graham	-11.1715
▁holler	-11.1715
▁minimum	-11.1715
▁midget	-11.1715
▁flare	-11.1715
▁civilization	-11.1715
▁donnagon	-11.1716
▁valek	-11.1716
▁alaska	-11.1716
▁proposition	-11.1716
▁slop	-11.1716
▁allamerican	-11.1716
▁hostile	-11.1716
▁glinda	-11.1716
▁bremen	-11.1716
▁frankenstein	-11.1716
▁gummy	-11.1716
▁abuse	-11.1716
▁population	-11.1716
▁nicer	-11.1716
▁beautifui	-11.1716
▁random	-11.1716
▁ashley	-11.1716
▁beetle	-11.1716
▁hmph	-11.1716
▁philsie	-11.1716
▁boogie	-11.1716
▁password	-11.1716
▁connie	-11.1716
▁rubble	-11.1716
▁zak	-11.1716
▁mandela	-11.1717
▁colson	-11.1717
▁tinkles	-11.1717
▁intruder	-11.1717
▁bodyguard	-11.1718
▁haircut	-11.1718
▁watergate	-11.1718
▁passport	-11.1718
▁overtime	-11.1718
▁minus	-11.1718
▁kong	-11.1718
▁salon	-11.1718
▁furry	-11.1718
▁christina	-11.1718
▁mason	-11.1719
▁management	-11.172
▁housekeeper	-11.172
▁loaf	-11.172
▁lsnt	-11.1721
lma	-11.1722
▁crop	-11.1723
ique	-11.1723
▁goalie	-11.1724
▁lease	-11.1724
▁dull	-11.1725
▁nearby	-11.1725
▁inner	-11.1725
▁drac	-11.1727
▁lever	-11.1732
▁thered	-11.1733
▁bel	-11.1735
▁holidays	-11.1736
▁melting	-11.1739
▁pep	-11.1739
▁associate	-11.174
▁barber	-11.1743
▁briefing	-11.1744
▁solved	-11.1746
▁darkest	-11.1747
▁debate	-11.1748
▁paintings	-11.1751
▁internal	-11.1755
ame	-11.1756
▁unable	-11.1756
▁frightening	-11.1757
▁consequences	-11.1757
▁policeman	-11.1758
▁belts	-11.1759
▁flooded	-11.176
▁hippo	-11.1761
mu	-11.1764
▁pipes	-11.1767
kill	-11.1767
ory	-11.1773
▁cheerful	-11.1774
▁electrical	-11.1781
▁hitch	-11.1787
▁ami	-11.1788
▁robbers	-11.1788
▁jd	-11.1794
▁ward	-11.1796
▁collecting	-11.1796
▁dasher	-11.1799
▁dearest	-11.18
▁dove	-11.1801
▁brooks	-11.1801
▁meantime	-11.1802
ast	-11.1804
▁kingman	-11.1804
night	-11.1805
▁imperi	-11.1806
ax	-11.1808
▁tricky	-11.1816
▁is	-11.1817
▁sounding	-11.1819
▁gra	-11.182
▁it	-11.1822
▁emotions	-11.1826
▁socialist	-11.1855
▁worms	-11.1856
ade	-11.1858
rid	-11.1863
▁exception	-11.1863
▁tigers	-11.1863
▁vows	-11.1865
▁spying	-11.1865
▁finale	-11.1867
▁associates	-11.187
▁tombo	-11.1871
▁andi	-11.1871
▁unti	-11.1877
right	-11.1878
▁carver	-11.1884
▁thuds	-11.1888
▁walkin	-11.1898
▁curtains	-11.1903
▁not	-11.1924
who	-11.1928
▁babys	-11.1931
▁ink	-11.1943
▁metaphor	-11.1946
▁foundation	-11.1946
▁lid	-11.1948
▁painter	-11.1958
but	-11.1968
▁what	-11.1978
▁ax	-11.1992
▁moo	-11.1999
▁loosen	-11.2001
▁tips	-11.2001
▁shade	-11.2002
▁julies	-11.2022
▁duh	-11.2026
▁ku	-11.2029
▁pitt	-11.2033
fish	-11.204
▁vow	-11.2042
▁custom	-11.2043
▁include	-11.2046
pan	-11.2054
rig	-11.2058
▁interrogation	-11.2058
roy	-11.2058
▁element	-11.2058
▁appearance	-11.2059
▁scout	-11.2059
▁rhyme	-11.206
▁snack	-11.206
▁titan	-11.2061
▁comic	-11.2061
▁stamp	-11.2062
▁rumor	-11.2064
▁cowhands	-11.2066
rate	-11.2068
▁groups	-11.2069
▁attacks	-11.2071
▁boxing	-11.2074
utti	-11.2078
▁homes	-11.208
▁costumes	-11.2081
▁pearls	-11.2087
▁wand	-11.2092
▁adults	-11.2103
▁strap	-11.2107
▁mmmmm	-11.2109
▁missions	-11.2124
▁peer	-11.2126
ire	-11.2129
▁drawer	-11.2131
old	-11.2132
▁ripe	-11.2139
▁mop	-11.2148
▁abu	-11.2152
▁osborn	-11.2152
q	-11.2153
▁vari	-11.2155
▁laps	-11.2158
ki	-11.2165
▁mechanic	-11.2171
kov	-11.2176
ich	-11.2178
▁stalk	-11.2179
▁flee	-11.2185
▁chains	-11.2186
water	-11.2186
▁vomit	-11.2187
▁breed	-11.2192
▁commence	-11.2192
wo	-11.2194
▁attach	-11.2195
ug	-11.2195
oid	-11.2195
▁spat	-11.2196
▁defi	-11.2197
▁winters	-11.2198
▁declare	-11.2202
▁bertie	-11.2202
▁bran	-11.2203
▁fortunate	-11.2206
▁utter	-11.2207
▁wack	-11.2207
port	-11.2208
▁recent	-11.2209
▁cruise	-11.2209
▁origin	-11.2211
▁potato	-11.2211
▁dancin	-11.2213
▁polar	-11.2214
▁triumph	-11.2215
▁narrow	-11.2215
▁affirmative	-11.2215
▁alternative	-11.2215
▁apprentice	-11.2215
▁cahill	-11.2215
▁cavalry	-11.2215
▁chandler	-11.2215
▁cottage	-11.2215
▁creative	-11.2215
▁dazzling	-11.2215
▁defence	-11.2215
▁edison	-11.2215
▁envelope	-11.2215
▁famiiy	-11.2215
▁fievel	-11.2215
▁georgy	-11.2215
▁germaine	-11.2215
▁hynkel	-11.2215
▁institute	-11.2215
▁intact	-11.2215
▁intellectual	-11.2215
▁interzone	-11.2215
▁investigating	-11.2215
▁judging	-11.2215
▁kangaroo	-11.2215
▁lagoon	-11.2215
▁messenger	-11.2215
▁necessarily	-11.2215
▁neruda	-11.2215
▁nickname	-11.2215
▁november	-11.2215
▁nowadays	-11.2215
▁offensive	-11.2215
▁overcome	-11.2215
▁rameses	-11.2215
▁rupert	-11.2215
▁saloon	-11.2215
▁sefton	-11.2215
▁shrimp	-11.2215
▁spectacular	-11.2215
▁unpleasant	-11.2215
▁welfare	-11.2215
▁wryn	-11.2215
▁zealand	-11.2215
▁borras	-11.2215
▁laurie	-11.2215
▁noisy	-11.2215
▁olaf	-11.2215
▁perfume	-11.2215
▁pervert	-11.2215
▁tennis	-11.2215
▁terrain	-11.2215
▁sensor	-11.2215
▁lassard	-11.2215
▁dilly	-11.2215
▁squidward	-11.2215
▁peacock	-11.2215
▁yummy	-11.2215
▁plague	-11.2215
▁freddie	-11.2215
▁buffet	-11.2215
▁debbie	-11.2215
▁previous	-11.2215
▁revving	-11.2216
▁rival	-11.2216
▁chitter	-11.2216
▁sequel	-11.2216
▁lemonade	-11.2216
▁occurred	-11.2216
▁celia	-11.2216
▁curry	-11.2216
▁uneasy	-11.2216
▁cunt	-11.2216
▁tasty	-11.2216
▁barsinister	-11.2216
▁wlli	-11.2216
▁yoohoo	-11.2216
▁editor	-11.2216
▁raising	-11.2217
▁martian	-11.2217
▁testimony	-11.2217
▁marvin	-11.2217
▁pea	-11.2217
▁blake	-11.2217
▁ericka	-11.2217
▁paperwork	-11.2217
▁seattle	-11.2218
▁anais	-11.2218
▁posh	-11.2218
▁teii	-11.2218
▁weakness	-11.2218
▁peut	-11.2218
▁violation	-11.2218
▁devoted	-11.2218
▁hyper	-11.2219
▁countries	-11.2219
▁brute	-11.2219
▁priority	-11.2219
▁preacher	-11.2219
▁salute	-11.222
▁leaf	-11.222
▁booze	-11.222
▁betcha	-11.222
▁screeches	-11.2221
▁fuzzy	-11.2222
▁megan	-11.2222
▁notion	-11.2222
▁spooky	-11.2222
▁janie	-11.2223
▁rank	-11.2223
▁brandon	-11.2224
▁constantly	-11.2224
▁orion	-11.2224
▁bravery	-11.2225
▁utterly	-11.2225
▁alas	-11.2225
▁jade	-11.2225
▁executed	-11.2226
▁massage	-11.2227
▁qualified	-11.2227
ans	-11.2227
▁erm	-11.2228
▁formation	-11.2228
▁graduated	-11.2228
▁tuna	-11.2229
▁dug	-11.2231
▁daar	-11.2231
▁established	-11.2232
▁hallway	-11.2233
▁waking	-11.2233
▁identified	-11.2233
▁scraping	-11.2234
▁exploded	-11.2234
▁accomplished	-11.2234
▁allen	-11.2236
▁witnesses	-11.2236
▁scottie	-11.2239
▁sw	-11.2239
▁shadows	-11.2243
▁rae	-11.2243
▁sickness	-11.2245
▁aa	-11.2246
▁err	-11.2247
▁ticking	-11.2247
▁boiling	-11.2248
▁succeeded	-11.2249
▁endless	-11.2249
▁assured	-11.225
fa	-11.2252
▁morgana	-11.2253
▁booked	-11.2255
▁larger	-11.2259
▁oliver	-11.226
▁swallowed	-11.2263
▁concerns	-11.2269
▁dom	-11.227
▁receiver	-11.227
▁sealed	-11.227
▁swat	-11.2271
tail	-11.2271
▁characters	-11.2274
▁cubs	-11.2276
▁sage	-11.2279
▁refer	-11.228
▁hilo	-11.2283
▁stinking	-11.2285
▁deserved	-11.229
▁knuckles	-11.2292
▁moans	-11.2292
ered	-11.2293
▁scored	-11.2295
▁sources	-11.23
▁listened	-11.2314
▁zoe	-11.2318
▁completed	-11.232
▁swis	-11.2331
▁remaining	-11.2336
▁reduce	-11.2341
▁amor	-11.2343
▁grounds	-11.2348
▁just	-11.235
▁dealer	-11.2352
▁hawke	-11.2354
▁zing	-11.2362
▁stra	-11.2363
▁barb	-11.2369
▁rumors	-11.2373
▁marked	-11.2383
▁oid	-11.2386
▁che	-11.2391
▁hef	-11.2394
ice	-11.2398
▁recorded	-11.2401
▁payments	-11.2405
▁bands	-11.2421
ky	-11.2422
▁ci	-11.2437
▁hy	-11.244
▁handled	-11.2442
▁protected	-11.2447
ino	-11.2449
▁bore	-11.245
▁aunts	-11.2464
▁lookout	-11.2478
mans	-11.2478
▁limits	-11.2495
▁cul	-11.2495
▁growl	-11.2504
▁patti	-11.2504
▁locks	-11.2513
ku	-11.2525
▁cad	-11.2526
▁pals	-11.2527
▁dem	-11.2535
cal	-11.2539
▁cor	-11.2544
▁vern	-11.2548
erto	-11.2549
▁michaels	-11.2553
eye	-11.256
▁operations	-11.2569
▁nasa	-11.257
▁graduate	-11.2572
▁episode	-11.2581
▁addict	-11.2582
▁emoji	-11.2582
▁reservation	-11.2583
▁mouthing	-11.2583
▁mammoth	-11.2583
▁sausage	-11.2583
▁jewel	-11.2584
▁kitten	-11.2584
▁phillip	-11.2585
▁tribe	-11.2585
▁hesitate	-11.2585
▁initial	-11.2586
▁technique	-11.2587
▁relative	-11.2587
▁mutant	-11.2588
▁chipmunk	-11.2589
▁shops	-11.2589
▁newspapers	-11.2592
▁spiders	-11.2592
▁sew	-11.2594
▁vol	-11.2596
▁lace	-11.2601
▁visitor	-11.2604
▁worm	-11.2612
▁chant	-11.2612
▁mes	-11.2626
eval	-11.2626
▁ji	-11.2627
▁probe	-11.263
▁historic	-11.2636
rez	-11.2637
▁terror	-11.2644
▁pose	-11.2646
▁ren	-11.2651
hood	-11.2657
▁toots	-11.2662
▁crab	-11.267
▁elses	-11.2677
ably	-11.2683
▁transform	-11.2689
▁andrea	-11.2693
▁logic	-11.2694
▁devils	-11.2697
▁seas	-11.2697
▁crunch	-11.2699
umb	-11.2705
bell	-11.2706
▁bunk	-11.2709
▁polish	-11.2713
▁croak	-11.2713
▁lem	-11.2716
▁spear	-11.2717
▁concept	-11.2717
▁cope	-11.2718
▁adopt	-11.2718
▁initiate	-11.2727
▁reserve	-11.2728
ski	-11.2728
stand	-11.273
▁eliminate	-11.2731
▁exp	-11.2732
▁precise	-11.2733
▁restore	-11.2733
▁constant	-11.2734
▁negro	-11.2737
▁zeke	-11.2737
▁prank	-11.2738
▁mystic	-11.2738
▁cuba	-11.2738
▁reelect	-11.274
▁reflect	-11.274
▁disrespect	-11.274
▁excess	-11.2741
▁ambition	-11.2742
▁apollo	-11.2742
▁cassandra	-11.2742
▁column	-11.2742
▁combination	-11.2742
▁conflict	-11.2742
▁congratulate	-11.2742
▁cristal	-11.2742
▁detroit	-11.2742
▁eager	-11.2742
▁economy	-11.2742
▁entitled	-11.2742
▁globe	-11.2742
▁goldilocks	-11.2742
▁gracias	-11.2742
▁gypsy	-11.2742
▁havisham	-11.2742
▁juicy	-11.2742
▁jullie	-11.2742
▁klaus	-11.2742
▁lazarus	-11.2742
▁mexican	-11.2742
▁nerak	-11.2742
▁osterlich	-11.2742
▁overseas	-11.2742
▁parlor	-11.2742
▁portobello	-11.2742
▁poseidon	-11.2742
▁prescott	-11.2742
▁protocol	-11.2742
▁pulse	-11.2742
▁retrieve	-11.2742
▁scolex	-11.2742
▁september	-11.2742
▁sonofabitch	-11.2742
▁spaghetti	-11.2742
▁sworn	-11.2742
▁temporarily	-11.2742
▁vaughan	-11.2742
▁vengeance	-11.2742
▁wasabi	-11.2742
▁wikus	-11.2742
▁wolfgang	-11.2742
▁wrist	-11.2742
▁zipadeedoda	-11.2742
▁biodome	-11.2742
▁boggis	-11.2742
▁neiman	-11.2742
▁scandal	-11.2742
▁yabbadabbadoo	-11.2742
▁yield	-11.2742
▁anyhow	-11.2742
▁grabbed	-11.2742
▁jock	-11.2742
▁mortgage	-11.2742
▁caxton	-11.2742
▁connors	-11.2742
▁dyke	-11.2742
▁shinn	-11.2742
▁breach	-11.2742
▁homosexual	-11.2742
▁cadence	-11.2742
▁worid	-11.2742
▁harvey	-11.2742
▁langdon	-11.2742
▁lonesome	-11.2742
▁authorized	-11.2742
▁ethel	-11.2742
▁sasha	-11.2742
▁constantine	-11.2742
▁napkin	-11.2742
▁wedded	-11.2742
▁vermin	-11.2742
▁hypo	-11.2742
▁repay	-11.2742
▁voil	-11.2742
▁whipped	-11.2742
▁motive	-11.2743
▁exterminator	-11.2743
▁jailbreak	-11.2743
▁straw	-11.2743
▁injury	-11.2743
▁consume	-11.2743
▁compassion	-11.2743
▁concentration	-11.2743
▁favourite	-11.2743
▁reflection	-11.2743
▁riff	-11.2743
▁stroll	-11.2743
▁transformation	-11.2743
▁chimes	-11.2743
▁comedian	-11.2744
▁surgeon	-11.2744
▁meatball	-11.2744
▁gratitude	-11.2744
▁legendary	-11.2744
▁curtis	-11.2744
▁expectations	-11.2745
▁gail	-11.2745
▁einstein	-11.2745
▁automated	-11.2746
▁canal	-11.2746
▁strategy	-11.2746
▁starboard	-11.2746
▁domino	-11.2746
▁harmony	-11.2747
▁torpedoes	-11.2747
▁fraud	-11.2747
▁heir	-11.2748
▁yoga	-11.2748
▁dwell	-11.275
▁bambi	-11.275
▁furious	-11.2751
ullen	-11.2752
▁salem	-11.2752
▁flown	-11.2753
▁european	-11.2753
▁rusty	-11.2753
▁selected	-11.2754
▁playbook	-11.2754
▁clam	-11.2755
▁consideration	-11.2756
▁included	-11.2756
▁growth	-11.2756
▁vanished	-11.2757
▁archy	-11.2758
▁cheque	-11.2758
▁speck	-11.276
▁folder	-11.276
▁syd	-11.2761
tend	-11.2764
▁currents	-11.2765
▁recovered	-11.2766
▁christie	-11.2771
hair	-11.2772
▁poe	-11.2772
▁regarding	-11.2777
▁tru	-11.2778
▁relations	-11.278
▁gutsy	-11.278
▁assumed	-11.2784
▁planets	-11.2784
▁reaches	-11.2785
▁spits	-11.2786
▁complaining	-11.2787
▁ofthe	-11.2789
▁pike	-11.2795
▁lan	-11.2801
▁recognized	-11.2807
▁poisoned	-11.2808
oi	-11.281
this	-11.2811
ght	-11.2812
▁brownies	-11.2812
▁attract	-11.2814
▁verse	-11.2814
▁sm	-11.2815
▁gram	-11.2816
▁mightve	-11.2822
▁critters	-11.2822
▁heavenly	-11.2824
▁kills	-11.2827
tter	-11.2829
▁rushed	-11.2829
▁marker	-11.2829
▁tubes	-11.2832
▁bobi	-11.2833
▁curl	-11.2834
▁closest	-11.2834
▁rented	-11.2836
▁horner	-11.2838
▁kom	-11.2841
▁dora	-11.2841
▁pounding	-11.2846
▁poll	-11.2847
▁her	-11.285
ood	-11.286
▁falcons	-11.2865
▁shorts	-11.2867
▁ruining	-11.2875
two	-11.2879
▁subjects	-11.2881
pped	-11.2881
▁burglars	-11.2882
all	-11.2885
ors	-11.2887
▁lib	-11.2888
▁shortly	-11.2896
▁proves	-11.2897
talk	-11.2897
cra	-11.2904
▁deeper	-11.2904
▁stamps	-11.2907
▁differences	-11.2907
▁snacks	-11.2908
▁caus	-11.2908
▁shines	-11.2917
▁chas	-11.2918
▁lords	-11.2924
▁mushrooms	-11.2925
▁kindly	-11.2925
▁dor	-11.2932
▁sol	-11.2933
long	-11.2935
▁rustle	-11.2936
▁tricked	-11.2936
▁hick	-11.2941
▁treating	-11.2944
▁princes	-11.2944
▁iets	-11.2968
ization	-11.2971
▁oof	-11.2971
tan	-11.2973
▁orphans	-11.2975
▁fades	-11.2976
▁ps	-11.2981
▁nome	-11.2995
boo	-11.2997
▁dent	-11.3003
bie	-11.3003
with	-11.3004
▁senses	-11.3007
▁cu	-11.3015
over	-11.3023
▁pools	-11.3036
▁actors	-11.3047
▁handed	-11.3049
▁bobb	-11.3051
ral	-11.3052
▁skulls	-11.3061
▁abs	-11.3062
▁acted	-11.3068
▁blaze	-11.3068
▁closely	-11.307
▁naive	-11.3077
arm	-11.3081
▁seeds	-11.3086
▁cigarettes	-11.3088
zer	-11.3089
▁hopeful	-11.3089
▁rust	-11.3094
▁fright	-11.31
lli	-11.3105
▁await	-11.3117
▁natives	-11.3131
▁prawn	-11.3141
▁stat	-11.3141
▁rivers	-11.3142
▁colour	-11.3142
▁communication	-11.3144
▁arrangement	-11.3145
bag	-11.3146
▁rebel	-11.3146
▁crowded	-11.3152
▁shoots	-11.3152
sol	-11.3154
▁caper	-11.3161
▁chu	-11.3164
▁bio	-11.3172
▁ooo	-11.3177
▁wiggle	-11.3188
▁gre	-11.3189
▁pint	-11.3191
▁guld	-11.3192
ants	-11.3192
▁snaps	-11.32
▁apples	-11.3202
▁lui	-11.3204
▁og	-11.3205
▁requests	-11.322
ria	-11.3225
called	-11.3226
▁adventures	-11.3229
mate	-11.3232
▁tra	-11.3237
▁freaks	-11.3239
headed	-11.3245
▁disappoint	-11.3247
▁alle	-11.3247
ooo	-11.3251
▁slick	-11.3254
▁coop	-11.3255
▁dey	-11.3263
▁spill	-11.3266
▁broadcast	-11.3268
▁applaud	-11.327
ened	-11.3273
▁rook	-11.3273
▁accomplish	-11.3275
▁pluck	-11.3275
▁retard	-11.3276
▁register	-11.3276
▁unlock	-11.3281
▁hmmm	-11.3282
▁acknowledge	-11.3284
▁numb	-11.3284
▁eli	-11.3285
▁thirst	-11.3286
▁technical	-11.3288
▁extreme	-11.3288
▁legends	-11.3288
▁teenage	-11.3291
▁sensation	-11.3293
▁spends	-11.3296
▁compass	-11.3296
▁extinct	-11.3296
▁egypt	-11.3296
▁inherit	-11.3297
▁abnegation	-11.3297
▁aggressive	-11.3297
▁altogether	-11.3297
▁anonymous	-11.3297
▁arnhem	-11.3297
▁baudelaire	-11.3297
▁celebrity	-11.3297
▁clemson	-11.3297
▁corporation	-11.3297
▁december	-11.3297
▁deuteronomy	-11.3297
▁distorted	-11.3297
▁economic	-11.3297
▁fountain	-11.3297
▁furnace	-11.3297
▁glitter	-11.3297
▁grendel	-11.3297
▁heggs	-11.3297
▁hendricks	-11.3297
▁horizon	-11.3297
▁hurricane	-11.3297
▁imaginary	-11.3297
▁inviting	-11.3297
▁juvenile	-11.3297
▁kocoum	-11.3297
▁kramer	-11.3297
▁lorraine	-11.3297
▁maligore	-11.3297
▁mccartney	-11.3297
▁napaloni	-11.3297
▁ominous	-11.3297
▁ornament	-11.3297
▁pentagon	-11.3297
▁pharaoh	-11.3297
▁quarrel	-11.3297
▁quarry	-11.3297
▁reckless	-11.3297
▁refuge	-11.3297
▁rommel	-11.3297
▁sherlock	-11.3297
▁significant	-11.3297
▁southwest	-11.3297
▁spretzle	-11.3297
▁supernatural	-11.3297
▁svetlana	-11.3297
▁transmooker	-11.3297
▁triangle	-11.3297
▁vanessa	-11.3297
▁wardrobe	-11.3297
▁zipadeeay	-11.3297
▁amusing	-11.3297
▁certificate	-11.3297
▁duties	-11.3297
▁eminence	-11.3297
▁frown	-11.3297
▁howre	-11.3297
▁protein	-11.3297
▁pursue	-11.3297
▁surveillance	-11.3297
▁fourteen	-11.3297
▁rabies	-11.3297
▁rascal	-11.3297
▁chipettes	-11.3297
▁stubbins	-11.3297
▁thorin	-11.3297
▁assuming	-11.3297
▁gossip	-11.3297
▁imitating	-11.3297
▁fabric	-11.3297
▁crikey	-11.3297
▁gravy	-11.3297
▁hawkins	-11.3297
▁income	-11.3297
▁baroness	-11.3297
▁burrito	-11.3297
▁engelberg	-11.3297
▁gambling	-11.3297
▁selva	-11.3297
▁evans	-11.3297
▁cheep	-11.3297
▁chemistry	-11.3297
▁harvard	-11.3297
▁scotch	-11.3297
▁creating	-11.3297
▁plaza	-11.3297
▁gerti	-11.3297
▁woodcock	-11.3298
▁democratic	-11.3298
▁revoir	-11.3298
▁bradford	-11.3298
▁calculate	-11.3298
▁transmitter	-11.3298
▁coughlin	-11.3298
▁susie	-11.3298
▁jockey	-11.3298
▁dizzy	-11.3298
▁normandy	-11.3298
▁bradley	-11.3298
▁gown	-11.3298
▁cosmic	-11.3298
▁hayden	-11.3298
▁loski	-11.3298
▁babysitter	-11.3298
▁token	-11.3298
▁stanley	-11.3298
▁clayton	-11.3298
▁banner	-11.3298
▁permitted	-11.3298
▁racket	-11.3298
▁elvis	-11.3298
▁serum	-11.3298
▁piay	-11.3298
▁vibe	-11.3298
▁timmy	-11.3299
▁welsh	-11.3299
▁oohooh	-11.3299
▁seville	-11.3299
▁laura	-11.3299
▁herman	-11.3299
▁replacement	-11.3299
▁occupation	-11.33
▁chump	-11.33
▁anderson	-11.33
▁cheerio	-11.33
▁static	-11.33
▁hardware	-11.33
▁isle	-11.33
▁johana	-11.33
▁gunfire	-11.33
▁allez	-11.33
▁fadela	-11.33
▁affection	-11.33
▁classified	-11.33
▁flock	-11.33
▁lockdown	-11.33
▁haul	-11.3301
▁classroom	-11.3301
▁pause	-11.3301
▁tempo	-11.3301
▁brass	-11.3302
▁admitted	-11.3302
▁brotherhood	-11.3302
▁ramp	-11.3302
▁lightfoot	-11.3303
▁drip	-11.3304
▁elsewhere	-11.3304
▁modest	-11.3304
▁shipping	-11.3304
▁yahoo	-11.3304
▁hugh	-11.3305
▁munch	-11.3306
▁hanson	-11.3306
▁grill	-11.3306
▁sneakers	-11.3307
▁dictate	-11.3307
▁fink	-11.3308
▁hospitality	-11.3309
▁weli	-11.3311
▁airline	-11.3311
▁accountant	-11.3312
▁realistic	-11.3312
▁discovery	-11.3313
▁keeper	-11.3313
▁exposed	-11.3314
▁pays	-11.3315
▁shipment	-11.3316
▁undo	-11.3317
▁wishing	-11.3317
▁iim	-11.3317
▁peaches	-11.3318
▁unlocked	-11.3318
▁baking	-11.3322
▁tora	-11.3322
▁possessed	-11.3323
▁twink	-11.3325
▁buzzes	-11.3325
▁desperately	-11.3328
▁sha	-11.3328
▁millie	-11.3329
▁physically	-11.333
▁cowardly	-11.3331
▁commands	-11.3332
▁trainer	-11.3333
▁published	-11.3335
▁lew	-11.3335
▁disturbed	-11.3339
▁healed	-11.3341
▁interrupted	-11.3343
▁cooperate	-11.3348
▁toll	-11.3348
▁lois	-11.3351
▁correctly	-11.3355
▁wired	-11.3355
▁interrupting	-11.3355
▁engineering	-11.3362
▁whys	-11.3365
▁tucker	-11.3367
▁mas	-11.3374
▁shatters	-11.3374
▁deer	-11.3375
▁zum	-11.3375
▁dup	-11.3379
▁atta	-11.3382
▁noodles	-11.3383
▁mod	-11.3387
▁hacker	-11.3391
▁cam	-11.3392
▁youngest	-11.3394
▁cups	-11.3395
▁added	-11.3403
ute	-11.3409
▁historical	-11.341
▁stoned	-11.3411
▁tearing	-11.3412
▁sonic	-11.3412
▁honesty	-11.3412
▁cou	-11.3412
▁if	-11.3417
▁rely	-11.3418
▁continued	-11.3421
▁rolls	-11.343
key	-11.344
▁frankie	-11.3443
▁discussing	-11.3445
▁pouring	-11.3445
▁bandits	-11.3446
▁coaching	-11.3457
fire	-11.346
▁designer	-11.3463
▁whiz	-11.3463
▁mutants	-11.3464
▁pickles	-11.3468
neck	-11.347
▁blinded	-11.347
▁blocking	-11.3471
top	-11.3471
▁watchers	-11.3486
▁magnetic	-11.3488
▁uses	-11.349
▁dealt	-11.3507
tra	-11.3508
▁beth	-11.3509
▁bothers	-11.3517
▁classy	-11.3518
▁accidents	-11.3525
▁yankees	-11.3527
▁sala	-11.3533
▁ana	-11.3537
▁exceptional	-11.3541
▁eu	-11.3542
▁carries	-11.3544
iness	-11.3547
▁kat	-11.355
▁that	-11.3552
han	-11.3559
▁measures	-11.3561
▁lawful	-11.3567
▁gardener	-11.3573
▁lightly	-11.358
▁zetas	-11.3582
▁situations	-11.3583
▁clip	-11.3598
▁finance	-11.3598
▁serves	-11.3599
▁rains	-11.3599
▁demo	-11.3623
▁stores	-11.3627
▁magi	-11.3628
ppy	-11.3634
▁ness	-11.3637
▁pickle	-11.3641
▁contacts	-11.3642
▁sans	-11.3646
▁counted	-11.3655
▁ohho	-11.3657
▁revs	-11.3657
▁cooi	-11.3659
▁misses	-11.3659
ome	-11.3661
▁explaining	-11.3663
▁ming	-11.3665
▁tow	-11.3666
och	-11.3668
▁chan	-11.3669
▁motherfuckers	-11.3684
▁method	-11.3685
▁fooling	-11.3688
▁sigh	-11.3692
▁fixing	-11.3692
▁turtles	-11.37
▁films	-11.3703
▁squeal	-11.3704
▁pla	-11.3716
▁burglar	-11.3718
▁prepar	-11.3723
loans	-11.3724
▁lecture	-11.3725
▁acorn	-11.3726
▁decade	-11.3727
▁expense	-11.3728
▁equals	-11.3728
▁puppet	-11.3729
▁feature	-11.373
▁terrorist	-11.373
▁hostage	-11.3731
▁wig	-11.3731
▁giggle	-11.3733
▁onion	-11.3735
▁rumble	-11.3739
▁bandit	-11.3745
▁careless	-11.3748
▁leaders	-11.375
▁mou	-11.3752
▁traps	-11.3756
cule	-11.376
▁tang	-11.3777
▁vet	-11.378
▁bikes	-11.3783
▁tons	-11.3786
▁troubled	-11.3787
▁roots	-11.379
▁nou	-11.379
▁accounts	-11.3793
▁adams	-11.38
▁bla	-11.3801
hold	-11.3805
▁tomorrows	-11.3805
▁smelling	-11.3814
cro	-11.3816
▁employ	-11.3822
▁playin	-11.3826
▁hoot	-11.3832
▁generals	-11.3847
ily	-11.3849
▁arab	-11.3851
itation	-11.3854
▁execution	-11.3854
worm	-11.3854
print	-11.3856
▁intercept	-11.3857
three	-11.3859
▁disrupt	-11.3863
▁bolt	-11.3863
▁melt	-11.3865
▁hun	-11.387
▁purchase	-11.3871
▁locate	-11.3874
▁react	-11.3874
▁practical	-11.3876
uring	-11.3876
▁effective	-11.3877
ew	-11.3878
▁inspire	-11.3878
▁sparta	-11.3879
▁compare	-11.388
▁trish	-11.3883
▁thirteen	-11.3884
▁brazil	-11.3885
▁abdullah	-11.3885
▁accompany	-11.3885
▁accurate	-11.3885
▁alabama	-11.3885
▁arrietty	-11.3885
▁artillery	-11.3885
▁authentic	-11.3885
▁awhile	-11.3885
▁brundish	-11.3885
▁calendar	-11.3885
▁cautious	-11.3885
▁conspiracy	-11.3885
▁convenient	-11.3885
▁curiosity	-11.3885
▁democracy	-11.3885
▁doberman	-11.3885
▁durbeyfield	-11.3885
▁eglantine	-11.3885
▁exaggerate	-11.3885
▁exploding	-11.3885
▁fanfare	-11.3885
▁fragile	-11.3885
▁frawley	-11.3885
▁frederick	-11.3885
▁geronimo	-11.3885
▁identification	-11.3885
▁krishna	-11.3885
▁literature	-11.3885
▁lonnegan	-11.3885
▁macdonald	-11.3885
▁manticore	-11.3885
▁mcsween	-11.3885
▁meadow	-11.3885
▁memorial	-11.3885
▁monterey	-11.3885
▁nicholas	-11.3885
▁occupied	-11.3885
▁oiiver	-11.3885
▁olivia	-11.3885
▁perspective	-11.3885
▁persuade	-11.3885
▁prettier	-11.3885
▁quadrant	-11.3885
▁rejoice	-11.3885
▁rockefeller	-11.3885
▁squish	-11.3885
▁stabilize	-11.3885
▁stanislav	-11.3885
▁stargazer	-11.3885
▁sukarno	-11.3885
▁syndicate	-11.3885
▁undercover	-11.3885
▁unicorn	-11.3885
▁bookstore	-11.3885
▁jenkins	-11.3885
▁kaiser	-11.3885
▁lunna	-11.3885
▁nashville	-11.3885
▁omelet	-11.3885
▁phony	-11.3885
▁possum	-11.3885
▁ufc	-11.3885
▁panicked	-11.3885
▁trousers	-11.3885
▁commotion	-11.3885
▁eerie	-11.3885
▁faulkner	-11.3885
▁backstage	-11.3885
▁beindorf	-11.3885
▁faggot	-11.3885
▁mewtwo	-11.3885
▁adrian	-11.3886
▁desmond	-11.3886
▁brutal	-11.3886
▁notify	-11.3886
▁babbling	-11.3886
▁blares	-11.3886
▁medlock	-11.3886
▁whatcha	-11.3886
▁whatwhat	-11.3886
▁twentyfive	-11.3886
▁heap	-11.3886
▁antonio	-11.3886
▁ninth	-11.3886
▁bamba	-11.3886
▁ginny	-11.3886
▁cocktail	-11.3886
▁hungarian	-11.3886
▁prudy	-11.3886
▁tinker	-11.3886
▁willow	-11.3886
▁outlaw	-11.3886
▁dashwood	-11.3886
▁gaze	-11.3886
▁barrier	-11.3886
▁kenny	-11.3886
▁niko	-11.3886
▁sophisticated	-11.3886
▁skipped	-11.3886
▁subtle	-11.3886
▁resident	-11.3886
▁beaver	-11.3886
▁denver	-11.3887
▁rewind	-11.3887
▁sidekick	-11.3887
▁retirement	-11.3887
▁basis	-11.3887
▁potty	-11.3887
▁edition	-11.3888
▁scam	-11.3888
▁gower	-11.3888
▁geneva	-11.3888
▁voiceover	-11.3888
▁craven	-11.3888
▁valve	-11.3889
▁trent	-11.3889
▁cork	-11.3889
▁vicar	-11.3889
▁slavery	-11.3889
▁dried	-11.3889
▁drax	-11.389
▁industrial	-11.389
▁aqua	-11.389
▁elected	-11.389
▁shelf	-11.389
▁panel	-11.389
▁cooperation	-11.389
▁bonney	-11.389
▁chute	-11.3891
▁crackling	-11.3891
▁chili	-11.3891
▁gundy	-11.3892
▁grain	-11.3893
▁crate	-11.3893
ement	-11.3893
▁veal	-11.3893
▁adela	-11.3894
▁cafe	-11.3894
▁presidential	-11.3894
▁roth	-11.3894
▁bamboo	-11.3895
▁ahold	-11.3896
▁amazed	-11.3896
▁lighthouse	-11.3898
▁jb	-11.39
▁hath	-11.3901
▁instantly	-11.3902
▁reel	-11.3903
▁fulltime	-11.3903
▁stranded	-11.3903
star	-11.3903
▁durant	-11.3904
▁mild	-11.3904
▁wealthy	-11.3906
▁sheriffs	-11.3908
▁controlled	-11.3909
▁snorts	-11.3909
▁brady	-11.3911
▁tempt	-11.3912
▁shithead	-11.3914
▁waitress	-11.3915
▁revealed	-11.3917
▁vent	-11.3917
▁cloth	-11.3919
▁krauts	-11.3919
▁bred	-11.392
▁stinky	-11.3921
▁trips	-11.3928
▁sla	-11.3928
▁dolls	-11.3929
▁drowned	-11.393
▁grandmothers	-11.3931
▁goldie	-11.3932
▁cocky	-11.3933
▁tum	-11.3934
▁sour	-11.3935
▁helena	-11.3936
▁informed	-11.3938
▁vibrations	-11.3938
▁cro	-11.3939
▁disturbing	-11.3944
▁chores	-11.3947
▁surfing	-11.395
▁ila	-11.3951
▁porter	-11.3952
▁gap	-11.3956
▁suspected	-11.3956
▁spartans	-11.3957
▁mainly	-11.3962
shot	-11.3966
▁meals	-11.3967
▁pajamas	-11.3967
▁experiences	-11.3972
▁sneaking	-11.3974
▁borrowed	-11.3974
▁hiphop	-11.3976
▁rig	-11.3978
▁existed	-11.398
▁treaty	-11.3985
▁ribs	-11.3985
uit	-11.3986
▁ruler	-11.3986
▁defending	-11.3987
▁caps	-11.3988
▁hasse	-11.3993
▁directions	-11.3997
▁rollin	-11.4
▁cracked	-11.4003
▁bot	-11.4004
▁coaches	-11.4004
▁knots	-11.4005
▁cutters	-11.4005
▁photographer	-11.4007
▁factor	-11.4009
▁raf	-11.401
▁smiled	-11.4013
▁deserted	-11.4013
▁sadly	-11.4014
▁republicans	-11.4015
▁riders	-11.4026
ical	-11.4034
sters	-11.4041
▁keg	-11.4047
▁tellin	-11.4048
▁fairly	-11.4049
▁bots	-11.4053
▁partys	-11.4053
▁moos	-11.4057
now	-11.4057
ux	-11.4063
▁hoe	-11.4076
▁phi	-11.4078
▁dats	-11.4084
▁greatness	-11.4085
▁dreamt	-11.4087
▁musicians	-11.4088
▁dared	-11.4092
▁visited	-11.4093
▁wink	-11.4097
▁employees	-11.4101
▁bakers	-11.4106
▁heroics	-11.4114
▁hee	-11.412
where	-11.4142
era	-11.4158
▁relaxed	-11.4168
▁cigars	-11.4169
▁habits	-11.4174
▁fin	-11.4175
rated	-11.4176
▁bu	-11.4177
▁unite	-11.4183
bble	-11.4184
▁tod	-11.4194
ric	-11.4213
▁connections	-11.4218
▁assholes	-11.4221
▁weekends	-11.4232
law	-11.4235
▁hunters	-11.4239
▁reads	-11.4247
▁wounds	-11.4266
▁queer	-11.4272
▁maids	-11.4276
▁debts	-11.4277
▁nee	-11.428
▁barge	-11.4281
▁creeps	-11.4286
set	-11.4291
▁medi	-11.4295
▁lands	-11.4303
▁rang	-11.4304
▁captains	-11.4313
str	-11.4319
▁suns	-11.4324
▁rams	-11.4324
▁exclaim	-11.4331
▁vie	-11.4339
▁anal	-11.4346
▁goats	-11.4347
▁bal	-11.435
▁parrot	-11.435
▁souvenir	-11.435
▁cheerleader	-11.4352
▁masterbuilder	-11.4352
▁obstacle	-11.4352
▁neighbour	-11.4354
▁carrot	-11.4355
▁instinct	-11.4356
▁flea	-11.4356
▁har	-11.4357
▁jap	-11.4359
▁zon	-11.4361
ito	-11.4365
▁nod	-11.4365
▁hoop	-11.4367
cht	-11.4368
▁at	-11.4368
▁types	-11.4372
▁ping	-11.4373
ana	-11.4375
▁fears	-11.4384
▁janet	-11.4385
▁ache	-11.4387
position	-11.4387
▁comments	-11.4393
▁shutter	-11.4397
▁uni	-11.4399
▁gunshots	-11.4402
▁deals	-11.4404
▁connais	-11.4412
▁cont	-11.4414
▁fielding	-11.4423
▁dana	-11.4437
▁outs	-11.4443
▁scramble	-11.4446
▁bats	-11.4448
power	-11.445
▁duel	-11.4457
▁you	-11.4457
▁author	-11.4458
▁leagues	-11.4461
sky	-11.4466
▁ec	-11.4471
▁hairs	-11.4473
place	-11.4476
▁ties	-11.4477
mark	-11.4479
walk	-11.448
burn	-11.4482
american	-11.4483
john	-11.4483
bury	-11.4485
▁lively	-11.4485
▁establish	-11.4488
▁neuter	-11.4488
▁encounter	-11.4489
▁resign	-11.4489
than	-11.449
war	-11.4492
▁nip	-11.4493
▁summon	-11.4494
▁underestimate	-11.4496
▁upgrade	-11.4496
▁collapse	-11.4497
▁multipl	-11.4498
▁alter	-11.4499
▁swift	-11.4501
▁banker	-11.4502
dog	-11.4503
▁moth	-11.4505
▁doom	-11.4505
▁iris	-11.451
▁bachelor	-11.451
▁scram	-11.451
responsibilities	-11.451
▁antoine	-11.451
▁atmosphere	-11.451
▁attila	-11.451
▁balcony	-11.451
▁bounty	-11.451
▁briefcase	-11.451
▁bulb	-11.451
▁canadian	-11.451
▁canyon	-11.451
▁capitol	-11.451
▁concrete	-11.451
▁creator	-11.451
▁devereaux	-11.451
▁easiest	-11.451
▁eisenhower	-11.451
▁elgyn	-11.451
▁enforcement	-11.451
▁exquisite	-11.451
▁facial	-11.451
▁frustrated	-11.451
▁godmother	-11.451
▁graduation	-11.451
▁hobart	-11.451
▁imbecile	-11.451
▁jehovah	-11.451
▁kaart	-11.451
▁kirby	-11.451
▁loretta	-11.451
▁mackerel	-11.451
▁maestro	-11.451
▁miguel	-11.451
▁molotov	-11.451
▁philadelphia	-11.451
▁phyllis	-11.451
▁ruettiger	-11.451
▁schnitzel	-11.451
▁schooi	-11.451
▁sheryl	-11.451
▁squirt	-11.451
▁suspense	-11.451
▁tahiti	-11.451
▁tambourine	-11.451
▁tricia	-11.451
▁unnatural	-11.451
▁wallpaper	-11.451
▁werewolf	-11.451
▁xavier	-11.451
▁dignity	-11.451
▁dispatch	-11.451
▁dynamite	-11.451
▁global	-11.451
▁vault	-11.451
▁porridge	-11.451
▁kgys	-11.451
▁bratitude	-11.451
▁overlapping	-11.451
▁strawberry	-11.451
▁amber	-11.451
▁coronation	-11.451
▁figuring	-11.451
▁flirt	-11.451
▁scalp	-11.451
▁microphone	-11.451
▁irwin	-11.451
▁warren	-11.451
▁exclusive	-11.4511
▁charlene	-11.4511
▁yasmin	-11.4511
▁recess	-11.4511
▁absence	-11.4511
▁luigi	-11.4511
▁tummy	-11.4511
▁lethal	-11.4511
▁lipstick	-11.4511
▁clich	-11.4511
▁visa	-11.4511
▁scatting	-11.4511
▁representative	-11.4511
▁whining	-11.4511
▁blob	-11.4511
▁dairy	-11.4511
▁milord	-11.4511
▁martial	-11.4511
▁winslow	-11.4511
▁adios	-11.4511
▁cannonball	-11.4511
▁gagging	-11.4511
▁motto	-11.4511
▁stiii	-11.4511
▁blitz	-11.4511
▁curve	-11.4511
▁bumble	-11.4511
▁lola	-11.4511
▁sniffles	-11.4512
▁dominic	-11.4512
▁pupil	-11.4512
▁amuse	-11.4512
▁carolina	-11.4512
▁cookbook	-11.4512
▁addiction	-11.4512
▁brewster	-11.4512
▁superstar	-11.4512
▁bozo	-11.4512
▁tension	-11.4513
▁ohara	-11.4513
▁otter	-11.4513
▁barbarella	-11.4513
▁railway	-11.4513
▁rita	-11.4513
▁sogo	-11.4513
▁popped	-11.4513
▁buon	-11.4514
▁feedback	-11.4514
▁louisette	-11.4514
▁considerate	-11.4514
▁petty	-11.4514
▁luckily	-11.4514
▁moet	-11.4516
▁regional	-11.4516
▁faut	-11.4516
▁attraction	-11.4516
▁chow	-11.4516
state	-11.4517
▁equipped	-11.4517
hearted	-11.4517
▁tanya	-11.4517
▁squirly	-11.4518
▁bizarre	-11.4518
▁mutual	-11.4519
▁branches	-11.4519
▁maude	-11.452
▁shuttle	-11.452
ative	-11.452
▁chum	-11.452
hut	-11.4521
▁yuk	-11.4521
▁tracy	-11.4521
▁zap	-11.4522
▁villagers	-11.4522
▁greed	-11.4523
▁publicity	-11.4523
▁promoted	-11.4524
▁riddler	-11.4525
▁machinery	-11.4526
▁activated	-11.4527
▁sincerely	-11.4527
▁antique	-11.4529
ille	-11.4529
▁tolly	-11.4531
▁hue	-11.4531
▁dega	-11.4533
▁coll	-11.4535
▁fri	-11.4536
▁convert	-11.4538
▁binder	-11.4539
▁chad	-11.4541
▁drunken	-11.4542
range	-11.4542
▁crashes	-11.4542
▁runaway	-11.4543
▁laden	-11.4544
jack	-11.4545
▁springboks	-11.4546
▁australian	-11.4547
▁righteous	-11.455
▁bugsy	-11.4552
▁calculations	-11.4556
▁guaranteed	-11.4561
▁stabb	-11.4561
▁qua	-11.4565
heim	-11.4569
▁scaring	-11.4573
▁canceled	-11.4573
ied	-11.4574
▁she	-11.4574
▁printed	-11.4576
▁attempted	-11.4577
▁dusty	-11.458
▁wrecking	-11.458
▁beaten	-11.4582
ians	-11.4587
▁gulps	-11.4587
▁swam	-11.4588
▁tillman	-11.459
▁attending	-11.459
▁girlfriends	-11.4592
▁shocking	-11.4598
▁doi	-11.4599
▁maxie	-11.4602
▁leerie	-11.4607
▁sensei	-11.461
don	-11.4611
▁performed	-11.4612
▁faced	-11.4617
▁bor	-11.4617
▁cur	-11.4617
▁teenagers	-11.4619
bus	-11.4621
▁pissing	-11.4622
▁bak	-11.4622
▁remained	-11.4628
▁seth	-11.463
▁voted	-11.4635
▁discussed	-11.4639
▁psychic	-11.464
▁scraps	-11.4642
▁failing	-11.4643
win	-11.4647
▁cl	-11.4649
▁spine	-11.4649
ray	-11.4656
▁irs	-11.4658
▁ble	-11.4658
▁ruled	-11.4661
▁hors	-11.4663
▁tighter	-11.4666
▁provid	-11.4668
▁carrots	-11.4669
▁paulas	-11.467
▁summers	-11.4671
▁reminder	-11.4671
uv	-11.4676
▁coats	-11.4676
sie	-11.4677
stop	-11.468
▁freaked	-11.4684
burg	-11.4687
▁colours	-11.4689
▁nations	-11.4692
▁poo	-11.4692
▁veer	-11.4695
▁vu	-11.4695
▁delivering	-11.4696
▁pasta	-11.4697
▁dun	-11.47
oma	-11.4703
▁pushy	-11.4705
▁vo	-11.4705
▁includes	-11.471
▁jag	-11.4713
▁shorter	-11.4716
iate	-11.4718
▁charger	-11.4719
▁contracts	-11.473
▁reap	-11.4744
▁foe	-11.475
▁yee	-11.4751
▁warmer	-11.4756
▁generally	-11.4765
▁peters	-11.4767
til	-11.4771
▁whoop	-11.4786
colo	-11.4786
rutti	-11.4794
nde	-11.4801
wan	-11.4805
▁barrels	-11.4813
▁washing	-11.4816
▁farts	-11.4817
▁colt	-11.482
▁individuals	-11.4821
▁differently	-11.4825
▁cooks	-11.4825
▁adi	-11.4832
▁importantly	-11.4835
▁clipp	-11.4836
not	-11.484
▁warming	-11.4843
▁mars	-11.4849
▁maya	-11.4851
▁tart	-11.4852
▁reaching	-11.4862
▁col	-11.4871
▁habitat	-11.4875
▁jess	-11.4878
▁cycle	-11.4899
▁clowns	-11.4916
▁inga	-11.4918
▁ida	-11.4921
▁bootleg	-11.4929
▁cove	-11.493
▁gil	-11.494
▁tee	-11.4946
▁explosions	-11.4947
bert	-11.4954
▁condo	-11.4955
▁picky	-11.4957
hole	-11.4981
▁pumps	-11.4986
▁stans	-11.4989
▁shooter	-11.5006
▁pur	-11.5012
ador	-11.5013
▁troop	-11.5015
▁indoor	-11.5018
▁emotion	-11.5018
▁jingle	-11.5019
▁coffin	-11.502
▁sample	-11.5021
▁survivor	-11.5021
▁rattle	-11.5021
▁falcon	-11.5022
▁limb	-11.5022
▁muppet	-11.5023
▁dinosaur	-11.5023
▁meetings	-11.5024
▁tourist	-11.5025
are	-11.5026
▁sob	-11.5029
▁slayer	-11.5031
▁trucks	-11.5032
▁complaint	-11.5033
ova	-11.5035
▁tut	-11.5043
▁boards	-11.5059
▁finishing	-11.5074
▁trumpets	-11.5081
▁barr	-11.5085
▁grin	-11.509
▁nazi	-11.5094
▁pic	-11.5097
▁tunes	-11.5107
▁bre	-11.511
▁chic	-11.5112
▁warp	-11.5117
▁sync	-11.5123
▁digit	-11.5125
▁adjust	-11.5127
▁understands	-11.5128
du	-11.5131
minded	-11.5133
▁dread	-11.5137
▁paula	-11.5137
cut	-11.514
las	-11.5141
▁convict	-11.5144
▁stab	-11.5144
▁pens	-11.5145
proof	-11.5148
guard	-11.5148
worth	-11.5149
grade	-11.5151
▁bluff	-11.5152
▁teen	-11.5153
▁download	-11.5156
▁translate	-11.5163
▁ordering	-11.5164
▁bribe	-11.5164
▁erase	-11.5164
▁silk	-11.5166
▁consult	-11.5167
▁griff	-11.5168
▁cynic	-11.5173
▁motherfuckin	-11.5174
▁leavin	-11.5174
aunt	-11.5175
▁grocer	-11.5175
▁inspect	-11.5175
▁strut	-11.5176
▁atahuallpa	-11.5177
▁bammbamm	-11.5177
▁bathtub	-11.5177
▁bourbon	-11.5177
▁brennan	-11.5177
▁byzanium	-11.5177
▁capulet	-11.5177
▁casual	-11.5177
▁challenging	-11.5177
▁comanche	-11.5177
▁compartment	-11.5177
▁concierge	-11.5177
▁creaks	-11.5177
▁darrell	-11.5177
▁everlasting	-11.5177
▁expedition	-11.5177
▁fitzhume	-11.5177
▁fourfendered	-11.5177
▁gamart	-11.5177
▁gondorff	-11.5177
▁graphic	-11.5177
▁groove	-11.5177
▁happiest	-11.5177
▁humiliating	-11.5177
▁icarus	-11.5177
▁iggy	-11.5177
▁inappropriate	-11.5177
▁innocence	-11.5177
▁introduction	-11.5177
▁invincible	-11.5177
▁ketchup	-11.5177
▁liszt	-11.5177
▁lynch	-11.5177
▁maximilian	-11.5177
▁mistoffelees	-11.5177
▁montague	-11.5177
▁morpheus	-11.5177
▁negotiate	-11.5177
▁overthrow	-11.5177
▁pegasus	-11.5177
▁pencil	-11.5177
▁pitiful	-11.5177
▁refrigerator	-11.5177
▁ribbon	-11.5177
▁rodrick	-11.5177
▁seminar	-11.5177
▁sensible	-11.5177
▁shogun	-11.5177
▁stunning	-11.5177
▁teresa	-11.5177
▁teschen	-11.5177
▁titties	-11.5177
▁tyrant	-11.5177
▁umbrella	-11.5177
▁valens	-11.5177
▁vietnam	-11.5177
▁winthrop	-11.5177
▁cantonese	-11.5177
▁disobey	-11.5177
▁grandparents	-11.5177
▁hamburger	-11.5177
▁jeffrey	-11.5177
▁manufacture	-11.5177
▁quentin	-11.5177
▁whatsoever	-11.5177
▁dardis	-11.5177
▁navigate	-11.5177
▁warehouse	-11.5177
▁opportunities	-11.5177
▁dragging	-11.5177
▁pact	-11.5177
▁doggone	-11.5177
▁thudding	-11.5177
▁lodge	-11.5177
▁murray	-11.5177
▁caddie	-11.5177
▁oscorp	-11.5177
▁beckett	-11.5177
▁jazamapajama	-11.5177
▁rhino	-11.5177
▁roussel	-11.5177
▁obtain	-11.5177
▁witchs	-11.5177
▁hyperspeed	-11.5177
▁muslim	-11.5177
▁howie	-11.5177
▁quark	-11.5177
▁resent	-11.5177
▁fortyfive	-11.5177
▁vogon	-11.5177
▁grasshopper	-11.5177
▁vasily	-11.5177
▁compound	-11.5177
▁slumberland	-11.5177
▁flack	-11.5177
▁blaming	-11.5177
▁lizard	-11.5177
▁finley	-11.5177
▁pecan	-11.5178
▁mambo	-11.5178
▁duane	-11.5178
▁liking	-11.5178
▁mattress	-11.5178
▁mnu	-11.5178
▁parole	-11.5178
▁ifyou	-11.5178
▁investment	-11.5178
▁cozy	-11.5178
▁rugby	-11.5178
▁iast	-11.5178
▁robbing	-11.5178
▁transferred	-11.5178
▁clack	-11.5178
▁amusement	-11.5178
▁competitive	-11.5178
▁admission	-11.5178
▁ronny	-11.5178
▁lemur	-11.5178
▁douglas	-11.5178
▁operating	-11.5178
▁medium	-11.5178
▁cellphone	-11.5179
▁whereas	-11.5179
▁uther	-11.5179
▁gib	-11.5179
▁befo	-11.5179
▁ammo	-11.5179
▁involvement	-11.5179
▁superpower	-11.5179
▁malia	-11.5179
▁peepers	-11.5179
▁juan	-11.5179
▁bij	-11.5179
▁stevenson	-11.5179
▁preferred	-11.5179
▁springfield	-11.5179
▁goldfish	-11.5179
▁eduardo	-11.518
▁reef	-11.518
▁lunchbox	-11.518
▁dimension	-11.518
▁ivory	-11.518
▁mutation	-11.518
▁overdo	-11.518
▁tripped	-11.518
▁acquired	-11.518
▁detain	-11.518
▁narnia	-11.5181
▁spitting	-11.5181
▁sunlight	-11.5181
▁lime	-11.5181
▁hatred	-11.5181
▁sensational	-11.5182
▁crust	-11.5182
▁mystical	-11.5182
▁spicy	-11.5182
▁rewrite	-11.5182
▁sandra	-11.5182
▁pudding	-11.5182
▁ifl	-11.5182
▁lovin	-11.5182
▁dorm	-11.5182
▁mutters	-11.5183
▁fluffy	-11.5183
▁void	-11.5185
▁tweedy	-11.5185
▁organic	-11.5186
▁harmless	-11.5186
▁heroin	-11.5186
▁distinguished	-11.5187
▁menace	-11.5187
▁lust	-11.5187
▁starve	-11.5187
▁stealth	-11.5188
▁tango	-11.5188
▁opposed	-11.519
▁luna	-11.519
▁maleb	-11.5191
▁lila	-11.5191
▁portion	-11.5191
▁sumo	-11.5192
▁masses	-11.5193
▁bayonets	-11.5194
▁slater	-11.5195
▁backpack	-11.5195
▁declared	-11.5195
▁flattered	-11.5196
▁stoke	-11.5197
▁invested	-11.5197
▁after	-11.5197
▁punches	-11.5198
▁quil	-11.5198
▁losin	-11.5199
▁slimy	-11.52
▁mustang	-11.52
▁clanging	-11.5201
▁meets	-11.5202
▁curly	-11.5202
▁benway	-11.5203
fo	-11.5203
▁trespassing	-11.5203
▁inning	-11.5203
▁mombi	-11.5204
▁babysit	-11.5205
▁ltll	-11.5206
▁distracted	-11.5207
▁framed	-11.5208
▁ack	-11.5211
▁butcher	-11.5212
▁helene	-11.5212
▁contained	-11.5214
▁races	-11.5214
▁shaved	-11.5215
▁stre	-11.5216
▁pepe	-11.5217
▁gulls	-11.5217
▁dk	-11.5218
▁saints	-11.522
▁palmer	-11.5222
▁strongest	-11.5223
▁tentacles	-11.5226
▁oysters	-11.5226
▁mating	-11.5226
▁farty	-11.5226
▁showtime	-11.5227
▁wie	-11.5228
▁madman	-11.5229
▁bumped	-11.5229
▁signals	-11.5231
▁eighty	-11.5232
▁toner	-11.5235
▁mangy	-11.5237
▁languages	-11.5243
▁mocker	-11.5252
▁merciful	-11.5254
▁ir	-11.5256
▁syne	-11.5256
▁alais	-11.5259
▁zit	-11.5259
▁dresses	-11.526
▁buzzer	-11.5263
▁fails	-11.5266
▁arse	-11.5268
▁excitedly	-11.5269
▁thorns	-11.5269
▁mammals	-11.527
▁cooler	-11.5281
ope	-11.5281
▁punched	-11.5283
▁requesting	-11.5286
▁taller	-11.5286
▁difficulty	-11.5288
iro	-11.5289
▁yelps	-11.5292
▁demanding	-11.5293
▁hooks	-11.5301
▁sneezes	-11.5303
▁hardest	-11.5306
▁publisher	-11.5309
tox	-11.5311
▁models	-11.5314
tell	-11.5314
▁jur	-11.5314
▁catches	-11.5315
▁relationships	-11.5315
ros	-11.5316
▁fil	-11.5318
▁pub	-11.5318
▁witnessed	-11.532
▁dune	-11.5321
▁joes	-11.5328
▁regi	-11.5329
oul	-11.5329
four	-11.5335
▁goodlooking	-11.5336
▁haste	-11.5339
▁shutters	-11.5346
▁neighbours	-11.5347
▁weg	-11.5347
▁learnt	-11.5352
▁loading	-11.5353
▁suggesting	-11.5355
▁madly	-11.5356
▁features	-11.5358
▁hostages	-11.5358
▁terrorists	-11.5358
▁decades	-11.5359
▁cri	-11.5361
▁callin	-11.5366
▁lent	-11.5373
▁brit	-11.5374
▁cane	-11.5376
▁tha	-11.5376
▁printer	-11.5378
▁grandfathers	-11.5379
thing	-11.5381
▁gune	-11.5386
▁rhymes	-11.5391
rif	-11.5396
▁swords	-11.5398
▁bandage	-11.5404
▁caring	-11.5405
▁krist	-11.5406
▁questioning	-11.5409
▁needing	-11.541
▁athletics	-11.5413
▁compliments	-11.5413
▁bites	-11.5415
▁frightful	-11.5417
▁sos	-11.5421
▁readers	-11.5422
▁sells	-11.5427
oggy	-11.543
▁neednt	-11.543
▁tro	-11.5438
▁slam	-11.5439
▁sleepin	-11.5453
▁cod	-11.5458
more	-11.5461
▁awaken	-11.5466
▁trac	-11.5466
▁villains	-11.5468
▁una	-11.5468
▁peas	-11.5473
▁camps	-11.5478
▁av	-11.5481
ound	-11.5486
▁watches	-11.5489
▁onetime	-11.5489
▁medals	-11.549
▁springs	-11.5491
▁balloons	-11.5501
▁roads	-11.5505
▁speeding	-11.5505
hen	-11.5508
uh	-11.5518
▁diver	-11.5526
nes	-11.5529
▁spe	-11.5543
whoa	-11.5549
eux	-11.5556
▁scholarships	-11.5557
▁towels	-11.5557
▁pulls	-11.5558
dan	-11.5562
▁nan	-11.5564
▁superb	-11.5565
▁mam	-11.557
▁inca	-11.5572
▁chaps	-11.5589
▁sor	-11.5596
▁fatal	-11.5612
ces	-11.5617
▁occasions	-11.5624
▁projects	-11.5632
▁camping	-11.5633
elli	-11.5634
▁championships	-11.5635
ward	-11.5641
▁wu	-11.5646
▁kee	-11.5651
ripping	-11.5651
▁sto	-11.566
ister	-11.566
▁fearful	-11.5662
▁fli	-11.5668
▁dated	-11.567
iff	-11.5673
doo	-11.5688
tive	-11.5689
▁lava	-11.5698
▁reject	-11.5706
rad	-11.5707
ello	-11.5709
▁wool	-11.5711
▁diaper	-11.5731
▁turk	-11.5732
▁application	-11.5733
▁olympic	-11.5733
▁bru	-11.5735
▁republican	-11.5737
▁hebrew	-11.5738
ele	-11.5738
▁danby	-11.5742
▁maker	-11.5744
▁jumps	-11.5744
▁artists	-11.5747
▁prim	-11.5763
▁doubts	-11.5769
▁proven	-11.5796
omp	-11.581
▁muck	-11.5829
▁lam	-11.5832
▁demands	-11.5834
▁surround	-11.5841
▁traveler	-11.5842
▁vin	-11.5842
▁haunt	-11.5843
▁cher	-11.5847
▁rad	-11.5856
▁cowards	-11.586
▁wade	-11.586
▁vip	-11.586
▁rio	-11.5861
▁predict	-11.5862
▁drool	-11.5862
brain	-11.5862
▁echo	-11.5862
▁trespass	-11.5864
yearold	-11.5864
minute	-11.5864
▁invest	-11.5867
▁sponsor	-11.5869
▁assign	-11.5869
▁satisfy	-11.587
▁exhaust	-11.587
▁strand	-11.587
ability	-11.5877
▁destin	-11.5878
▁milli	-11.5879
▁filth	-11.588
▁premier	-11.5881
▁surprising	-11.5882
▁ferm	-11.5887
faced	-11.5887
▁fiction	-11.5887
▁thankful	-11.5888
▁vanish	-11.5888
▁meteor	-11.5888
▁br	-11.589
▁refresh	-11.5891
▁architect	-11.5891
▁reynardo	-11.5891
▁substituti	-11.5891
▁towanda	-11.5891
▁abroad	-11.5891
▁adapt	-11.5891
▁ammunition	-11.5891
▁aquitaine	-11.5891
▁benedict	-11.5891
▁berkeley	-11.5891
▁bikini	-11.5891
▁bokke	-11.5891
▁bonjour	-11.5891
▁capacity	-11.5891
▁caution	-11.5891
▁charging	-11.5891
▁chimpanzee	-11.5891
▁clarinet	-11.5891
▁concludes	-11.5891
▁connolly	-11.5891
▁corcoran	-11.5891
▁crucial	-11.5891
▁edgar	-11.5891
▁facilities	-11.5891
▁farquaad	-11.5891
▁gasoline	-11.5891
▁gazelle	-11.5891
▁glimpse	-11.5891
▁gnarnia	-11.5891
▁grandchildren	-11.5891
▁gremlin	-11.5891
▁hetrick	-11.5891
▁interpol	-11.5891
▁jamaica	-11.5891
▁kibner	-11.5891
▁kornpett	-11.5891
▁laboratory	-11.5891
▁labyrinth	-11.5891
▁lyrics	-11.5891
▁mafia	-11.5891
▁maintenance	-11.5891
▁matthias	-11.5891
▁moreno	-11.5891
▁nikki	-11.5891
▁nuisance	-11.5891
▁paranoid	-11.5891
▁phoebe	-11.5891
▁pilgrim	-11.5891
▁propeller	-11.5891
▁prototype	-11.5891
▁psychiatrist	-11.5891
▁reboot	-11.5891
▁recognise	-11.5891
▁recognition	-11.5891
▁reconsider	-11.5891
▁rehab	-11.5891
▁rhonda	-11.5891
▁rooney	-11.5891
▁ruffin	-11.5891
▁samantha	-11.5891
▁santoro	-11.5891
▁separation	-11.5891
▁shepherd	-11.5891
▁snuck	-11.5891
▁stepmother	-11.5891
▁structure	-11.5891
▁thunderclap	-11.5891
▁tiffany	-11.5891
▁unauthorized	-11.5891
▁vanilla	-11.5891
▁virtue	-11.5891
▁wondrous	-11.5891
▁wrath	-11.5891
▁yippee	-11.5891
▁gesture	-11.5891
▁lcarus	-11.5891
▁ncaa	-11.5891
▁seventeen	-11.5891
▁depot	-11.5891
▁nevertheless	-11.5891
▁trask	-11.5891
▁chancellor	-11.5891
▁inmates	-11.5891
▁pineapple	-11.5891
▁unstable	-11.5891
▁mathmos	-11.5891
▁lorna	-11.5891
▁lndian	-11.5891
▁miniature	-11.5891
▁carbon	-11.5891
▁fading	-11.5891
▁reggie	-11.5891
▁psychological	-11.5891
▁truffle	-11.5891
▁shaving	-11.5892
▁onward	-11.5892
▁choosing	-11.5892
▁sharptooth	-11.5892
▁dibs	-11.5892
▁honk	-11.5892
▁bleep	-11.5892
▁slack	-11.5892
▁sloppy	-11.5892
▁yowling	-11.5892
▁cupcake	-11.5892
▁sissy	-11.5892
▁shuffle	-11.5892
▁audio	-11.5892
▁sushi	-11.5892
▁inconvenience	-11.5892
▁mellow	-11.5892
▁squadron	-11.5892
▁infantry	-11.5892
▁ksm	-11.5892
▁meneer	-11.5892
▁conform	-11.5892
▁cornelius	-11.5892
▁petition	-11.5892
▁plead	-11.5892
▁dunne	-11.5892
▁maniacally	-11.5892
▁snapped	-11.5892
▁drumming	-11.5893
▁hobby	-11.5893
▁consent	-11.5893
▁saul	-11.5893
▁astra	-11.5893
▁notebook	-11.5893
▁aslo	-11.5893
▁solomon	-11.5893
▁improvement	-11.5893
▁caii	-11.5893
▁benji	-11.5893
▁templeton	-11.5893
▁assemble	-11.5893
▁membership	-11.5893
▁groceries	-11.5893
▁oink	-11.5893
▁swap	-11.5894
▁olga	-11.5894
▁portland	-11.5894
▁soir	-11.5894
▁foam	-11.5894
hrer	-11.5894
▁iong	-11.5894
▁winston	-11.5894
▁landmark	-11.5894
▁snipes	-11.5895
▁alcoholic	-11.5895
▁thug	-11.5895
▁welker	-11.5895
▁poisonous	-11.5895
▁loony	-11.5896
▁batting	-11.5896
▁deborah	-11.5896
▁frye	-11.5897
▁shant	-11.5897
▁popping	-11.5897
▁unborn	-11.5897
▁exploring	-11.5897
▁topsy	-11.5898
▁shao	-11.5898
▁jammed	-11.5898
▁occasionally	-11.5898
▁tutor	-11.5898
▁fais	-11.5899
▁ballroom	-11.5899
▁educated	-11.59
▁hover	-11.59
▁bushes	-11.5901
▁travelling	-11.5902
▁regarde	-11.5902
▁parler	-11.5902
▁evolved	-11.5902
▁bracelet	-11.5902
▁troublemaker	-11.5902
▁superheroes	-11.5902
▁compromised	-11.5903
▁doit	-11.5903
▁successor	-11.5904
▁treats	-11.5904
▁footage	-11.5905
▁cmon	-11.5905
▁flights	-11.5908
▁turnip	-11.5908
▁tray	-11.5908
▁dismissed	-11.5908
▁waterboard	-11.5908
▁unlikely	-11.5909
▁whisrles	-11.5909
▁weighing	-11.5909
▁gump	-11.591
▁izzy	-11.591
ox	-11.591
▁tous	-11.591
▁wellknown	-11.5911
▁tact	-11.5911
▁crooked	-11.5911
▁accused	-11.5914
wind	-11.5914
▁downloaded	-11.5914
▁respectable	-11.5915
▁nightfall	-11.5915
string	-11.5916
▁ricky	-11.5917
ashcan	-11.5917
▁improved	-11.5917
▁entertaining	-11.5917
▁digest	-11.5919
▁retarded	-11.5919
▁adopted	-11.5921
▁transformed	-11.5921
▁honorable	-11.5922
vy	-11.5923
▁gibb	-11.5924
▁peeled	-11.5927
▁shitty	-11.5932
▁charter	-11.5932
▁uit	-11.5933
ait	-11.5933
▁oww	-11.5933
▁mooing	-11.5933
▁ahha	-11.5934
▁maze	-11.5935
▁hacked	-11.5938
▁bam	-11.5939
▁woe	-11.5941
▁rarely	-11.5942
▁badass	-11.5943
▁goblins	-11.5944
▁sodomites	-11.5945
▁personne	-11.5945
bug	-11.5946
▁campers	-11.5946
▁wrestler	-11.5946
▁smashed	-11.5946
ification	-11.5951
▁ruby	-11.5952
▁chilly	-11.5954
▁muckle	-11.5955
▁julien	-11.5956
▁hunk	-11.5956
▁daring	-11.5961
▁shirts	-11.5961
▁leaning	-11.5961
▁dolly	-11.5964
▁flippers	-11.5968
▁jealousy	-11.597
fraction	-11.5971
▁depending	-11.5972
▁yelled	-11.5973
▁miley	-11.5973
▁putty	-11.5979
▁politicians	-11.598
▁vitamins	-11.598
▁nighttime	-11.598
▁foryou	-11.598
und	-11.5981
▁boof	-11.5984
▁whove	-11.5986
▁forgiven	-11.5987
▁buns	-11.5991
▁germs	-11.5991
game	-11.5991
▁resumes	-11.5991
▁bosses	-11.5991
▁headlines	-11.5992
▁caw	-11.5994
▁bangs	-11.5995
▁checks	-11.5998
▁bolsheviks	-11.6003
▁waffles	-11.6003
▁yaya	-11.6009
eck	-11.6011
▁noses	-11.6013
▁insects	-11.6014
▁teenie	-11.6015
▁scratching	-11.6016
▁wages	-11.6024
▁blamed	-11.6025
▁lungs	-11.6025
▁owed	-11.6026
enthusiastically	-11.6026
▁colleagues	-11.6027
▁returns	-11.6031
▁touches	-11.6032
▁risky	-11.6032
▁busting	-11.6036
▁clangs	-11.6039
▁vine	-11.6039
▁sel	-11.6043
▁preed	-11.6044
▁layers	-11.6048
▁slams	-11.6054
form	-11.6058
▁survivors	-11.6061
▁mot	-11.6068
▁pauly	-11.6068
▁doubled	-11.608
▁practiced	-11.6082
▁wah	-11.6087
▁onions	-11.6088
▁mute	-11.6092
▁backside	-11.6095
▁flop	-11.6095
▁cuts	-11.6098
▁boost	-11.6102
▁tougher	-11.6103
▁tease	-11.6104
▁initials	-11.6109
proving	-11.6128
yard	-11.6135
keep	-11.6142
▁sleeps	-11.6143
▁alli	-11.6149
▁dav	-11.6152
▁bishops	-11.6157
wait	-11.6162
▁eva	-11.6172
▁truc	-11.6176
about	-11.6177
▁aged	-11.6185
▁smelly	-11.6187
van	-11.6192
rch	-11.6198
▁posters	-11.62
aged	-11.6202
▁items	-11.6205
▁pains	-11.6214
icate	-11.6217
▁standin	-11.6227
▁sac	-11.6228
▁wad	-11.6239
▁andrews	-11.6239
▁lasted	-11.624
▁intentions	-11.6249
▁capp	-11.6253
▁casey	-11.6254
▁sss	-11.6263
▁sank	-11.6265
▁mir	-11.6269
▁foods	-11.6274
▁submit	-11.6277
sey	-11.6279
▁tis	-11.6286
▁sorts	-11.6291
▁cla	-11.6291
▁pos	-11.6301
▁eatin	-11.6308
▁scrap	-11.6308
▁cowboys	-11.6312
erial	-11.6314
▁funds	-11.6319
▁goldi	-11.6327
anna	-11.6345
ronic	-11.6347
▁chambers	-11.636
▁maps	-11.6361
▁hips	-11.6361
▁boner	-11.6366
lessness	-11.637
▁covering	-11.6372
▁workshop	-11.6374
▁sap	-11.6375
▁remark	-11.6378
ump	-11.6379
▁disable	-11.638
▁deploy	-11.6396
▁sham	-11.6399
most	-11.6411
▁punks	-11.6418
itt	-11.6423
▁jets	-11.6437
▁span	-11.6444
▁squirrels	-11.6448
▁bur	-11.645
▁tit	-11.6454
▁posit	-11.6457
▁illness	-11.6462
▁don	-11.6463
rage	-11.6465
▁clink	-11.6475
▁oo	-11.6476
▁crook	-11.6479
▁clang	-11.6479
▁bums	-11.648
▁groan	-11.6482
▁por	-11.6486
ological	-11.6486
▁roar	-11.6489
▁grove	-11.6491
▁christians	-11.6492
▁grenade	-11.65
▁din	-11.65
▁rea	-11.6502
▁merchant	-11.6503
▁guinea	-11.6503
▁prophet	-11.6504
▁reference	-11.6505
eating	-11.6506
▁subtitle	-11.6508
▁knot	-11.6509
▁kidney	-11.6512
ace	-11.6512
▁asks	-11.6514
uf	-11.6514
▁youyou	-11.6515
▁alarms	-11.653
uil	-11.6531
▁pros	-11.6539
▁liv	-11.6539
▁feeds	-11.654
▁cages	-11.6541
tel	-11.6548
▁cutter	-11.655
▁purposes	-11.6561
▁ici	-11.6561
▁warble	-11.6574
▁uncles	-11.6576
▁demonstrate	-11.6582
▁hens	-11.6586
gged	-11.6588
▁entertain	-11.6598
▁exc	-11.6608
▁recruit	-11.661
▁strain	-11.6623
bbing	-11.6623
▁ail	-11.6623
style	-11.6623
piece	-11.6631
▁defy	-11.6631
dollar	-11.6633
▁flatter	-11.6634
making	-11.6635
▁forge	-11.6636
speed	-11.6637
▁norma	-11.6637
▁bind	-11.6638
▁squash	-11.6638
▁blindfold	-11.6639
▁snatch	-11.6639
▁suspend	-11.6639
▁stomp	-11.664
based	-11.6641
▁restrain	-11.6645
leg	-11.6646
▁amaze	-11.6646
▁delete	-11.6646
▁whoosh	-11.6647
▁determine	-11.6647
▁relieve	-11.6647
▁confuse	-11.6647
roll	-11.6647
▁combine	-11.6648
▁loft	-11.6649
▁cocks	-11.6649
▁hysterical	-11.6651
▁ll	-11.6653
▁extract	-11.6654
▁iot	-11.6654
▁carpathia	-11.6654
▁asia	-11.6655
▁shhh	-11.6657
▁bomber	-11.6658
▁tropic	-11.6658
▁sittin	-11.6658
▁posse	-11.6659
▁defect	-11.666
▁cuckoo	-11.666
▁domestic	-11.666
▁administration	-11.6661
▁alligator	-11.6661
▁aloft	-11.6661
▁aloha	-11.6661
▁aquarium	-11.6661
▁arrogant	-11.6661
▁autumn	-11.6661
▁aylwood	-11.6661
▁baltimore	-11.6661
▁barricade	-11.6661
▁belgium	-11.6661
▁beverage	-11.6661
▁bilbo	-11.6661
▁brochure	-11.6661
▁cactus	-11.6661
▁caviar	-11.6661
▁curfew	-11.6661
▁daccord	-11.6661
▁dahlberg	-11.6661
▁deputies	-11.6661
▁dirigible	-11.6661
▁disposal	-11.6661
▁erudite	-11.6661
▁femme	-11.6661
▁fregley	-11.6661
▁ghetto	-11.6661
▁greece	-11.6661
▁griselda	-11.6661
▁guvnor	-11.6661
▁hardborough	-11.6661
▁hartounian	-11.6661
▁healthcare	-11.6661
▁hebben	-11.6661
▁ildith	-11.6661
▁jeanloup	-11.6661
▁jeopardy	-11.6661
▁jordan	-11.6661
▁kerensky	-11.6661
▁macgregor	-11.6661
▁metropolitan	-11.6661
▁michigan	-11.6661
▁monument	-11.6661
▁mowbray	-11.6661
▁mysteries	-11.6661
▁oldknow	-11.6661
▁orchard	-11.6661
▁parrish	-11.6661
▁perrito	-11.6661
▁platoon	-11.6661
▁precaution	-11.6661
▁profound	-11.6661
▁puberty	-11.6661
▁raphael	-11.6661
▁rehearsing	-11.6661
▁reunion	-11.6661
▁saigon	-11.6661
▁selfdefense	-11.6661
▁sengh	-11.6661
▁striking	-11.6661
▁struggling	-11.6661
▁substance	-11.6661
▁sufficient	-11.6661
▁syrup	-11.6661
▁trajectory	-11.6661
▁twirl	-11.6661
▁urdu	-11.6661
▁vagina	-11.6661
▁venezuela	-11.6661
▁vitruvius	-11.6661
▁weasel	-11.6661
▁winifred	-11.6661
▁zaphod	-11.6661
▁aspirin	-11.6661
▁bennell	-11.6661
▁buoy	-11.6661
▁conceal	-11.6661
▁federation	-11.6661
▁fraser	-11.6661
▁generator	-11.6661
▁hazard	-11.6661
▁lesbian	-11.6661
▁lettuce	-11.6661
▁machete	-11.6661
▁proclaim	-11.6661
▁reinforcements	-11.6661
▁spontaneous	-11.6661
▁vargas	-11.6661
▁beardsley	-11.6661
▁beggar	-11.6661
▁behaviour	-11.6661
▁fingerprints	-11.6661
▁fischer	-11.6661
▁herald	-11.6661
▁cardinal	-11.6661
▁platform	-11.6661
▁bundle	-11.6661
▁wyldstyle	-11.6661
▁braxton	-11.6661
▁bulk	-11.6661
▁divatox	-11.6661
▁snitch	-11.6661
▁pourquoi	-11.6661
▁dissent	-11.6661
▁ensure	-11.6661
▁constable	-11.6661
▁loneliness	-11.6661
▁aryan	-11.6661
▁mug	-11.6661
▁polk	-11.6661
▁isaac	-11.6661
▁chunk	-11.6661
▁zorgons	-11.6661
▁monarch	-11.6661
▁helsing	-11.6661
▁exwife	-11.6661
▁streak	-11.6661
▁johanson	-11.6661
▁altitude	-11.6661
▁pretties	-11.6661
▁salvation	-11.6661
▁gallop	-11.6661
▁jesuit	-11.6661
▁maggie	-11.6661
▁morrow	-11.6661
▁circling	-11.6661
▁estella	-11.6661
▁oxford	-11.6661
▁banjo	-11.6661
▁mischief	-11.6661
▁channing	-11.6661
▁piace	-11.6661
▁actuaiiy	-11.6661
▁textbook	-11.6661
▁paratroopers	-11.6661
▁raptor	-11.6661
▁yeehaw	-11.6661
▁milner	-11.6661
▁racehorse	-11.6661
▁jongen	-11.6661
▁twentytwo	-11.6661
▁drummer	-11.6661
▁millionaire	-11.6662
▁powell	-11.6662
▁renew	-11.6662
▁southeast	-11.6662
▁techno	-11.6662
▁solar	-11.6662
▁accomplishment	-11.6662
▁kimberly	-11.6662
▁nonnie	-11.6662
▁fatso	-11.6662
▁raving	-11.6662
▁ferry	-11.6662
▁alison	-11.6662
▁capcom	-11.6662
▁harness	-11.6662
▁reform	-11.6662
▁unpack	-11.6662
▁sentimental	-11.6662
▁zipper	-11.6662
▁glance	-11.6663
▁owl	-11.6663
▁quand	-11.6663
▁hamster	-11.6663
▁legitimate	-11.6663
▁semi	-11.6663
▁spotlight	-11.6663
▁trom	-11.6663
▁sammy	-11.6663
▁hound	-11.6663
▁icy	-11.6663
▁elise	-11.6664
▁thanksgiving	-11.6664
▁cupboard	-11.6664
▁torment	-11.6664
▁gurgling	-11.6664
▁spur	-11.6664
▁foil	-11.6664
▁avis	-11.6664
▁juniper	-11.6664
▁batty	-11.6665
▁clare	-11.6665
▁overwhelmed	-11.6665
▁allowance	-11.6665
▁waist	-11.6665
▁kayem	-11.6666
▁rien	-11.6666
▁komen	-11.6666
▁slightest	-11.6666
▁intimidated	-11.6667
▁majestic	-11.6667
▁golly	-11.6667
▁bullies	-11.6667
▁contribution	-11.6668
▁thoroughly	-11.6668
▁grouchy	-11.6668
▁terrifying	-11.6668
▁promising	-11.6668
▁isolated	-11.6669
▁firebird	-11.667
▁cement	-11.667
▁recreation	-11.667
▁dose	-11.667
▁yoho	-11.6671
▁debut	-11.6671
▁dong	-11.6671
▁lunchtime	-11.6672
▁disapprove	-11.6672
▁vile	-11.6672
▁attendant	-11.6672
▁plantation	-11.6672
▁ironic	-11.6672
▁farther	-11.6673
▁turd	-11.6673
▁suh	-11.6673
▁combined	-11.6674
▁hq	-11.6674
▁knockout	-11.6675
▁departed	-11.6675
▁installed	-11.6675
▁trend	-11.6676
▁warmth	-11.6676
▁hola	-11.6676
▁batch	-11.6676
▁instructed	-11.6677
▁abilities	-11.6677
▁caf	-11.6678
▁wager	-11.6679
▁wept	-11.668
▁symptoms	-11.668
▁approaches	-11.668
▁fitting	-11.668
▁slime	-11.6681
▁hatches	-11.6681
▁restored	-11.6681
▁bulldozer	-11.6681
▁eastman	-11.6682
▁pou	-11.6684
▁emmett	-11.6685
▁encouraged	-11.6685
▁hardship	-11.6685
▁annabelle	-11.6686
▁dickon	-11.6686
▁blanky	-11.6687
▁deke	-11.6688
▁employed	-11.6689
▁tailor	-11.6689
▁restaurants	-11.669
▁parttime	-11.669
▁registered	-11.6691
▁barnes	-11.6692
▁hark	-11.6692
▁bumper	-11.6692
▁cackles	-11.6693
▁resources	-11.6693
▁armies	-11.6693
▁sow	-11.6697
▁childish	-11.6697
▁announced	-11.6698
▁jou	-11.6698
▁tolling	-11.67
▁donate	-11.6701
▁poof	-11.6703
▁sparky	-11.6704
▁breeding	-11.6705
▁affected	-11.6708
▁colon	-11.671
▁codes	-11.6713
▁frying	-11.6714
▁insulted	-11.6714
▁employer	-11.6714
▁teammates	-11.6718
▁rapids	-11.6718
▁crosses	-11.6718
shoot	-11.6719
▁beaches	-11.672
▁bunker	-11.6721
▁ons	-11.6722
▁dye	-11.6722
▁linked	-11.6727
▁tortured	-11.6727
▁topic	-11.6728
▁funk	-11.6728
▁responding	-11.6729
▁cheaper	-11.6731
▁conducted	-11.6734
▁spared	-11.6736
▁priests	-11.6737
▁lifeline	-11.6737
▁breathes	-11.6738
▁smashing	-11.6738
▁mounted	-11.6741
▁cured	-11.6743
▁fainted	-11.6744
dom	-11.6748
▁stretcher	-11.6748
▁bakery	-11.675
▁your	-11.6751
ake	-11.6755
cation	-11.6755
▁chewing	-11.6757
▁bror	-11.6758
▁stretching	-11.6759
▁insisted	-11.6759
▁shi	-11.6761
▁its	-11.6762
▁sailed	-11.6765
▁spite	-11.6768
▁attempting	-11.6769
▁chica	-11.6771
▁whim	-11.6772
▁weighs	-11.6775
▁simpler	-11.6776
▁bulls	-11.6779
▁hash	-11.6781
▁vase	-11.6783
▁businessman	-11.6785
▁mart	-11.6791
▁yesterdays	-11.6793
ancy	-11.6793
▁blokes	-11.6794
▁invad	-11.6806
▁dangers	-11.6806
▁ingredients	-11.6807
▁moist	-11.6817
▁disappearing	-11.682
▁references	-11.6821
▁punching	-11.6822
▁sweating	-11.6823
nner	-11.6827
▁shal	-11.6828
cular	-11.6833
net	-11.6835
▁erect	-11.6845
▁coffins	-11.6846
▁samples	-11.6846
▁import	-11.685
▁darko	-11.6856
▁gul	-11.6863
sinister	-11.6864
▁pitched	-11.687
▁bonds	-11.6875
▁battles	-11.6878
▁rebels	-11.6884
▁prawns	-11.6884
▁mono	-11.6884
aki	-11.6885
▁targets	-11.6886
▁meters	-11.689
▁spreading	-11.6897
▁hesitates	-11.6897
▁phillips	-11.6897
▁blacks	-11.6898
▁smiles	-11.6908
ane	-11.6909
▁comics	-11.691
▁elements	-11.691
▁slower	-11.6911
▁zou	-11.6915
take	-11.6919
▁zed	-11.6922
▁repeating	-11.6922
▁whi	-11.6922
▁seeking	-11.6925
▁dreamer	-11.6929
▁beliefs	-11.6936
▁pads	-11.6936
▁nurses	-11.6939
▁sera	-11.6944
▁undress	-11.6944
▁pressed	-11.6951
cept	-11.6952
▁supporting	-11.6952
lot	-11.6955
▁weeds	-11.696
ami	-11.6961
▁regards	-11.6963
▁bora	-11.6969
▁unsu	-11.6975
▁loads	-11.6976
atomic	-11.6978
▁recite	-11.698
▁longest	-11.6986
▁waar	-11.6991
▁respected	-11.6993
oooo	-11.7002
arian	-11.7003
▁lighting	-11.7011
▁slapp	-11.7015
eat	-11.7017
▁rhythmic	-11.7022
▁stings	-11.7023
▁oral	-11.7023
▁goodies	-11.703
here	-11.7035
▁feds	-11.7041
▁fini	-11.7044
amb	-11.706
▁fasten	-11.7065
▁ofa	-11.7076
▁hides	-11.708
▁cables	-11.7081
lets	-11.7081
▁lb	-11.7086
ura	-11.7088
▁hag	-11.7088
▁fuller	-11.7119
▁directors	-11.7122
▁tracker	-11.7128
▁wak	-11.7128
▁zal	-11.7128
air	-11.7128
▁communists	-11.713
▁diners	-11.7134
▁mic	-11.7147
▁by	-11.7148
dest	-11.7155
rford	-11.7158
▁perkis	-11.7161
▁lac	-11.7163
▁crocodiles	-11.7169
▁hehe	-11.7175
▁fare	-11.7179
elt	-11.7188
▁bathe	-11.719
youre	-11.7209
▁emails	-11.7211
put	-11.7216
▁stared	-11.7218
▁visions	-11.7235
▁arrives	-11.7246
▁coins	-11.7249
▁exterminate	-11.7253
liable	-11.7265
hee	-11.7266
▁dearly	-11.7272
▁whisper	-11.7291
▁pleasures	-11.7293
▁stub	-11.7304
press	-11.7307
▁bricks	-11.7307
▁hangs	-11.7315
▁lenin	-11.7318
urdy	-11.732
kn	-11.7321
▁monte	-11.7321
▁sentences	-11.7323
▁sneeze	-11.7323
▁fuckers	-11.7323
▁beautifully	-11.7324
▁masks	-11.7327
that	-11.7334
▁fiend	-11.7336
▁slowing	-11.7336
▁ingredient	-11.7337
▁colleague	-11.7337
▁vegetable	-11.734
▁label	-11.7342
▁fre	-11.7343
▁shack	-11.7375
▁laisse	-11.7381
▁lung	-11.7385
body	-11.7387
▁jab	-11.7399
aaaaah	-11.7402
ole	-11.7405
cci	-11.741
▁but	-11.7414
▁values	-11.7419
▁bens	-11.7436
▁descend	-11.7439
▁enchant	-11.7443
▁pow	-11.7451
▁plac	-11.7453
▁scoot	-11.7454
▁examine	-11.7459
▁spook	-11.746
sign	-11.7465
daughter	-11.7465
contact	-11.7467
slav	-11.7467
great	-11.7467
▁compos	-11.7467
yeah	-11.7469
around	-11.7469
▁mirrors	-11.7472
▁temp	-11.7473
▁soak	-11.7474
▁intent	-11.7474
▁hein	-11.7474
▁ravi	-11.7475
arious	-11.7478
▁despise	-11.748
▁compromise	-11.748
band	-11.7481
▁linger	-11.7481
▁sparkl	-11.7482
▁wail	-11.7482
▁walt	-11.7484
▁clone	-11.7484
▁triumphant	-11.7485
stein	-11.7486
▁heave	-11.7488
▁bryan	-11.7488
▁delusion	-11.749
▁constitution	-11.749
▁porn	-11.7492
▁violat	-11.7492
▁republic	-11.7493
▁lauren	-11.7493
charge	-11.7493
▁infant	-11.7493
▁serpent	-11.7493
▁wick	-11.7494
▁contempt	-11.7494
▁eccentric	-11.7494
nikov	-11.7494
▁academic	-11.7494
▁albrecht	-11.7494
▁allegations	-11.7494
▁apache	-11.7494
▁apologise	-11.7494
▁applesauce	-11.7494
▁appreciation	-11.7494
▁artificial	-11.7494
▁asthma	-11.7494
▁bernice	-11.7494
▁besoin	-11.7494
▁caprice	-11.7494
▁carpenter	-11.7494
▁chauffeur	-11.7494
▁cheetah	-11.7494
▁climate	-11.7494
▁closure	-11.7494
▁cockadoo	-11.7494
▁cologne	-11.7494
▁colwyn	-11.7494
▁companies	-11.7494
▁competitor	-11.7494
▁confusing	-11.7494
▁crummy	-11.7494
▁currency	-11.7494
▁darren	-11.7494
▁decency	-11.7494
▁depression	-11.7494
▁devotion	-11.7494
▁diondra	-11.7494
▁discount	-11.7494
▁drapes	-11.7494
▁extensive	-11.7494
▁fantasies	-11.7494
▁fommy	-11.7494
▁fronkonsteen	-11.7494
▁garcia	-11.7494
▁generosity	-11.7494
▁grogan	-11.7494
▁handkerchief	-11.7494
▁homicide	-11.7494
▁inferior	-11.7494
▁ingenious	-11.7494
▁karaoke	-11.7494
▁knack	-11.7494
▁korso	-11.7494
▁krabs	-11.7494
▁landlord	-11.7494
▁landolfa	-11.7494
▁lyssa	-11.7494
▁malenkov	-11.7494
▁mcafee	-11.7494
▁mcdonough	-11.7494
▁melvin	-11.7494
▁microbots	-11.7494
▁mongrel	-11.7494
▁mwah	-11.7494
▁nightclub	-11.7494
▁notorious	-11.7494
▁ntsb	-11.7494
▁octopus	-11.7494
▁parachute	-11.7494
▁pneumonia	-11.7494
▁portuguese	-11.7494
▁premises	-11.7494
▁relentless	-11.7494
▁rescuing	-11.7494
▁safari	-11.7494
▁sarge	-11.7494
▁shrunk	-11.7494
▁siberia	-11.7494
▁snickering	-11.7494
▁soothing	-11.7494
▁stefan	-11.7494
▁stryker	-11.7494
▁suspension	-11.7494
▁suspicion	-11.7494
▁suzanne	-11.7494
▁sympathy	-11.7494
▁synthetic	-11.7494
▁tintagel	-11.7494
▁transylvania	-11.7494
▁treacherous	-11.7494
▁troubling	-11.7494
▁umezaki	-11.7494
▁valerie	-11.7494
▁vancouver	-11.7494
▁venom	-11.7494
▁vienna	-11.7494
▁windshield	-11.7494
▁bicker	-11.7494
▁exploit	-11.7494
▁eyebrows	-11.7494
▁kaycee	-11.7494
▁licence	-11.7494
▁massacre	-11.7494
▁motherinlaw	-11.7494
▁nfl	-11.7494
▁nineteen	-11.7494
▁pronto	-11.7494
▁scaredycat	-11.7494
▁swirl	-11.7494
▁dispose	-11.7494
▁dynamic	-11.7494
▁imperfection	-11.7494
▁pioneer	-11.7494
▁telegraph	-11.7494
▁urine	-11.7494
▁busbee	-11.7494
▁laddie	-11.7494
▁nassau	-11.7494
▁relic	-11.7494
▁footprints	-11.7494
▁gerald	-11.7494
▁beaumont	-11.7494
▁bypass	-11.7494
▁lupus	-11.7494
▁decoy	-11.7494
▁boudreaux	-11.7494
▁sikes	-11.7494
▁yikes	-11.7494
▁wrightwood	-11.7494
▁lindsey	-11.7494
▁quelquun	-11.7494
▁aksel	-11.7494
▁doughnut	-11.7494
▁cluck	-11.7494
▁sipsey	-11.7494
▁blouse	-11.7494
▁mimic	-11.7494
▁kettle	-11.7494
▁pledge	-11.7494
▁gulag	-11.7494
▁gallery	-11.7494
▁temporal	-11.7494
▁fruitcake	-11.7494
▁parasite	-11.7494
▁biology	-11.7494
▁resemblance	-11.7494
▁intimate	-11.7494
▁erotic	-11.7494
▁injuries	-11.7494
▁jizz	-11.7494
▁ashira	-11.7494
▁nomad	-11.7494
▁consistent	-11.7494
▁bulldog	-11.7494
▁nadya	-11.7494
▁plunge	-11.7494
▁referring	-11.7494
▁kinky	-11.7494
▁berries	-11.7494
▁radiant	-11.7494
▁repulsive	-11.7494
▁whoville	-11.7494
▁merrick	-11.7494
▁velve	-11.7494
▁holland	-11.7494
▁strapped	-11.7494
▁sallie	-11.7495
▁skateboard	-11.7495
▁giddyup	-11.7495
▁maax	-11.7495
▁marcano	-11.7495
▁barnyard	-11.7495
▁sleigh	-11.7495
▁vendor	-11.7495
▁beacon	-11.7495
▁raincoat	-11.7495
▁chopped	-11.7495
▁hitchhikers	-11.7495
▁bushwood	-11.7495
▁fishfinger	-11.7495
▁absent	-11.7495
▁karp	-11.7495
▁slash	-11.7495
▁consciousness	-11.7495
▁confidential	-11.7495
▁reopen	-11.7495
▁schip	-11.7495
▁strutter	-11.7495
▁radius	-11.7495
▁jamais	-11.7495
▁merchandise	-11.7495
▁aaaah	-11.7495
▁unseen	-11.7495
▁fizz	-11.7495
▁plaster	-11.7495
▁stella	-11.7495
▁panties	-11.7496
▁wallace	-11.7496
▁marries	-11.7496
▁reliable	-11.7496
▁whiskers	-11.7496
▁hailey	-11.7496
▁mow	-11.7496
▁malone	-11.7496
▁arise	-11.7496
▁cancelled	-11.7496
▁charlestown	-11.7496
▁korean	-11.7496
▁embarrassment	-11.7496
▁pascal	-11.7496
▁urn	-11.7496
▁curb	-11.7496
▁milton	-11.7497
▁altar	-11.7497
andahalf	-11.7497
▁virtually	-11.7497
▁outdoor	-11.7497
▁trina	-11.7497
▁martinez	-11.7497
▁spade	-11.7497
▁coyle	-11.7497
▁chatting	-11.7497
▁gutter	-11.7497
▁hottest	-11.7497
▁yoast	-11.7498
▁rapidly	-11.7498
▁goals	-11.7498
▁marge	-11.7499
▁omar	-11.7499
▁rodent	-11.7499
▁rj	-11.75
▁tapping	-11.75
▁bunion	-11.75
▁sidewalk	-11.75
▁godfather	-11.75
▁hurl	-11.75
aging	-11.75
▁hotshot	-11.75
▁punt	-11.75
▁stung	-11.75
▁missin	-11.75
▁barbie	-11.7501
▁crude	-11.7502
▁elle	-11.7503
▁shithole	-11.7503
▁iota	-11.7503
▁denial	-11.7504
▁civilized	-11.7504
▁heartbreak	-11.7504
▁torch	-11.7504
▁organs	-11.7504
▁organism	-11.7504
▁betrayal	-11.7505
▁distraction	-11.7505
▁messina	-11.7505
▁surprisingly	-11.7505
▁crest	-11.7506
▁gday	-11.7506
▁vexin	-11.7507
▁slurping	-11.7508
▁elf	-11.7508
▁tito	-11.7509
▁playmate	-11.7509
▁flags	-11.751
▁zeg	-11.7511
▁dort	-11.7511
mal	-11.7512
▁neglected	-11.7512
▁whacked	-11.7512
▁berry	-11.7512
▁fitness	-11.7512
▁lester	-11.7513
▁countryside	-11.7513
▁longneck	-11.7513
▁detected	-11.7514
▁bestow	-11.7515
▁funky	-11.7515
▁questioned	-11.7516
▁coal	-11.7516
▁alongside	-11.7517
▁achieved	-11.7519
▁sadness	-11.752
▁frontier	-11.7522
▁ket	-11.7522
▁rental	-11.7522
▁dol	-11.7522
▁drone	-11.7522
▁beeper	-11.7522
▁spice	-11.7522
▁hometown	-11.7523
▁altered	-11.7523
▁thrive	-11.7525
▁freakin	-11.7525
▁tempted	-11.7525
▁cawing	-11.7527
▁q	-11.7528
▁blackout	-11.7528
▁whoaoh	-11.7529
▁toid	-11.753
chez	-11.753
▁hart	-11.7532
▁specialist	-11.7533
▁clothing	-11.7534
▁render	-11.7534
▁tyre	-11.7535
▁they	-11.7537
▁awaiting	-11.7537
▁recorder	-11.754
▁sewing	-11.7541
▁described	-11.7541
▁stalking	-11.7542
▁shutting	-11.7542
▁smartest	-11.7543
▁goodwill	-11.7545
▁decker	-11.7545
▁pointless	-11.7548
▁mec	-11.755
▁restless	-11.755
▁sneaky	-11.7551
▁matty	-11.7552
▁sab	-11.7552
▁recommended	-11.7553
▁reply	-11.7555
▁crawled	-11.7555
▁yii	-11.7556
▁ignored	-11.7556
▁donuts	-11.7556
▁elders	-11.7557
▁pri	-11.7557
▁desires	-11.7558
rop	-11.7559
▁repaired	-11.7559
▁gals	-11.7564
▁fowler	-11.7567
▁delayed	-11.7568
▁gained	-11.7568
▁kaye	-11.7569
▁beh	-11.757
▁marshmallows	-11.757
▁showoff	-11.7571
▁everyday	-11.7573
▁gents	-11.7573
▁pitcher	-11.7574
▁fau	-11.7575
▁pastor	-11.7576
▁steering	-11.7579
▁teaches	-11.758
▁yum	-11.758
▁healing	-11.7581
▁funding	-11.7584
▁lens	-11.7589
▁wewe	-11.7593
▁piedges	-11.7598
▁philly	-11.76
▁flake	-11.7604
▁ally	-11.7607
▁chained	-11.7609
▁licking	-11.7612
▁traded	-11.7616
▁wires	-11.7616
▁avoiding	-11.7618
▁crushing	-11.7621
▁domin	-11.7626
▁harrys	-11.7626
▁explosives	-11.7626
thats	-11.7627
▁pointed	-11.7631
▁savings	-11.7632
▁walters	-11.7632
▁defendants	-11.7641
▁biz	-11.7647
▁dez	-11.765
▁interviews	-11.7653
▁workout	-11.7658
▁souther	-11.7662
▁lure	-11.7665
▁wage	-11.7666
▁prophets	-11.7667
get	-11.7668
▁vic	-11.7669
▁wakes	-11.7671
▁singin	-11.7671
ugh	-11.7677
▁tighten	-11.7677
▁proved	-11.7677
▁clo	-11.7682
▁danbys	-11.7682
▁bridges	-11.7682
▁olympics	-11.7683
▁dew	-11.7688
▁rockin	-11.7689
▁crowned	-11.7698
▁noted	-11.7699
▁anton	-11.7699
▁badger	-11.7702
▁thankyou	-11.7712
▁miser	-11.7713
abie	-11.7716
▁marketing	-11.7717
▁drivein	-11.7718
▁switching	-11.772
▁puppets	-11.7723
▁breaths	-11.7733
▁wooo	-11.7738
▁gill	-11.7741
seven	-11.7743
▁posted	-11.7745
▁nous	-11.7751
▁tribes	-11.7752
▁flyers	-11.776
▁ranks	-11.7765
▁appearances	-11.7766
▁scouts	-11.7766
rov	-11.7776
▁bugle	-11.7778
▁takeoff	-11.7781
▁dreamers	-11.7804
▁pam	-11.7807
▁explains	-11.7808
▁pancakes	-11.7808
▁ruins	-11.7811
nut	-11.7814
▁yyou	-11.7817
ilia	-11.7821
▁tsars	-11.7822
▁grownups	-11.7822
▁permits	-11.7822
▁shorty	-11.7823
itch	-11.7826
▁spi	-11.7827
▁farming	-11.7831
▁buckets	-11.7836
▁contains	-11.7838
got	-11.784
▁zoom	-11.7842
anne	-11.7854
▁peasants	-11.7865
▁fishy	-11.7865
▁jerks	-11.7865
▁swells	-11.7866
▁bub	-11.7884
tric	-11.7884
▁gladly	-11.7891
▁divers	-11.7892
▁cleaners	-11.7896
▁conc	-11.79
▁grannys	-11.7901
▁rays	-11.7904
▁guarding	-11.7906
▁blankets	-11.7921
rous	-11.7929
▁rds	-11.7937
▁intr	-11.7947
▁boyfriends	-11.7956
▁riddle	-11.7959
▁panthe	-11.7964
▁females	-11.7969
▁favorites	-11.7975
▁nam	-11.7975
▁steaks	-11.7978
▁novels	-11.7992
▁quot	-11.8002
▁elbows	-11.8006
▁ninety	-11.8011
▁corners	-11.8014
▁cet	-11.8044
▁accuse	-11.8062
▁exercises	-11.8063
▁dart	-11.8066
▁halls	-11.8067
shi	-11.8069
ado	-11.8073
eft	-11.8081
▁dei	-11.8087
▁finn	-11.8119
▁bigtime	-11.8119
▁sont	-11.812
▁wi	-11.812
▁whores	-11.8136
▁snip	-11.814
▁gall	-11.8142
▁sn	-11.8143
▁some	-11.8153
▁scarf	-11.8153
▁tai	-11.8156
ior	-11.8159
▁inn	-11.8171
▁spins	-11.8182
aaaaa	-11.8184
▁gia	-11.8185
▁capt	-11.819
▁motors	-11.8193
▁var	-11.8194
▁baths	-11.8197
▁leon	-11.82
▁aaa	-11.8205
cks	-11.821
▁primar	-11.8214
▁chub	-11.8214
pressed	-11.8215
▁jin	-11.8216
▁howl	-11.8222
▁refuses	-11.8222
▁sanct	-11.8233
▁peanuts	-11.8236
▁durberville	-11.8242
▁cartoon	-11.8242
▁dictator	-11.8242
▁ninja	-11.8242
▁rib	-11.8245
▁bloke	-11.8246
▁yelp	-11.8247
▁insect	-11.8247
▁tam	-11.8249
▁moor	-11.8249
▁defendant	-11.8249
▁instruction	-11.8251
▁prend	-11.8253
▁freezer	-11.8253
▁teenager	-11.8256
▁buyer	-11.8257
▁noooo	-11.8257
▁carrier	-11.8259
▁nur	-11.826
▁tol	-11.8261
▁psych	-11.8264
▁grease	-11.8265
tain	-11.8265
made	-11.8279
▁foo	-11.8279
▁gravel	-11.8284
▁merc	-11.8287
▁newly	-11.8288
▁braces	-11.8294
rope	-11.8301
▁nato	-11.8306
▁fences	-11.8308
will	-11.8321
▁scrub	-11.8324
▁tex	-11.833
▁bitching	-11.8335
▁horri	-11.8337
▁boxe	-11.8347
wall	-11.8349
▁detect	-11.8352
▁wizards	-11.8355
boat	-11.8358
dding	-11.8362
wide	-11.8368
▁mati	-11.8368
▁ups	-11.8373
plane	-11.8373
world	-11.8374
▁shush	-11.8374
identified	-11.8375
life	-11.8375
horn	-11.8376
plus	-11.8376
▁select	-11.8379
▁corrupt	-11.838
berg	-11.838
▁enlighten	-11.838
▁efforts	-11.8381
▁bleach	-11.8381
▁dismiss	-11.8382
capable	-11.8382
pick	-11.8383
blow	-11.8385
▁soar	-11.8385
▁analyze	-11.8389
▁arc	-11.8389
▁resolve	-11.8389
▁activate	-11.8389
▁craz	-11.8391
▁felon	-11.8391
doodle	-11.8392
▁execute	-11.8393
through	-11.8393
five	-11.8394
▁electro	-11.8395
actual	-11.8396
▁randal	-11.8399
▁withdraw	-11.8399
▁sentiment	-11.8399
▁peyt	-11.8399
▁construct	-11.8401
▁puttin	-11.8401
▁lettin	-11.8402
▁numero	-11.8402
▁vibra	-11.8402
▁integra	-11.8403
▁scholar	-11.8403
▁bankrupt	-11.8403
▁squid	-11.8403
▁ultra	-11.8403
counterterrorism	-11.8403
greatgrandfather	-11.8403
▁abducted	-11.8403
▁adventurous	-11.8403
▁appliance	-11.8403
▁bacteria	-11.8403
▁bartolini	-11.8403
▁beaucoup	-11.8403
▁beiieve	-11.8403
▁bluenote	-11.8403
▁blunt	-11.8403
▁bourguignon	-11.8403
▁boycott	-11.8403
▁breadfruit	-11.8403
▁cafeteria	-11.8403
▁casualties	-11.8403
▁coggins	-11.8403
▁columbus	-11.8403
▁commodore	-11.8403
▁confound	-11.8403
▁conservatory	-11.8403
▁continuing	-11.8403
▁convenience	-11.8403
▁convincing	-11.8403
▁cymbal	-11.8403
▁dawson	-11.8403
▁declaration	-11.8403
▁determination	-11.8403
▁diablo	-11.8403
▁doshy	-11.8403
▁evict	-11.8403
▁examination	-11.8403
▁exposure	-11.8403
▁february	-11.8403
▁flank	-11.8403
▁fooglie	-11.8403
▁frenzy	-11.8403
▁furthermore	-11.8403
▁gasket	-11.8403
▁giraffe	-11.8403
▁glynnis	-11.8403
▁gracie	-11.8403
▁gradenko	-11.8403
▁grimsdyke	-11.8403
▁hauptmannkoenig	-11.8403
▁ibm	-11.8403
▁ignoring	-11.8403
▁incompetent	-11.8403
▁indonesia	-11.8403
▁inevitable	-11.8403
▁inferna	-11.8403
▁infiltrat	-11.8403
▁infinity	-11.8403
▁integrity	-11.8403
▁introducing	-11.8403
▁jaguar	-11.8403
▁jakarta	-11.8403
▁krupp	-11.8403
▁lantern	-11.8403
▁lasalles	-11.8403
▁makebelieve	-11.8403
▁malibu	-11.8403
▁maureen	-11.8403
▁mcelrathbey	-11.8403
▁mechanism	-11.8403
▁mercury	-11.8403
▁mermaid	-11.8403
▁microchip	-11.8403
▁misunderstood	-11.8403
▁nataiie	-11.8403
▁negotiating	-11.8403
▁oklahoma	-11.8403
▁onstage	-11.8403
▁ouimet	-11.8403
▁overflow	-11.8403
▁override	-11.8403
▁pastuzo	-11.8403
▁pennant	-11.8403
▁pikachu	-11.8403
▁possibilities	-11.8403
▁predicament	-11.8403
▁prevail	-11.8403
▁puppies	-11.8403
▁quimby	-11.8403
▁raspberry	-11.8403
▁rebuild	-11.8403
▁rendezvous	-11.8403
▁rothbart	-11.8403
▁samuel	-11.8403
▁sarsaparilla	-11.8403
▁schmuck	-11.8403
▁scissors	-11.8403
▁scuba	-11.8403
▁scuttlebutt	-11.8403
▁seagull	-11.8403
▁segretti	-11.8403
▁shaikh	-11.8403
▁shermin	-11.8403
▁slaghoople	-11.8403
▁smythe	-11.8403
▁snickers	-11.8403
▁snores	-11.8403
▁sparrow	-11.8403
▁spectacle	-11.8403
▁spidey	-11.8403
▁squire	-11.8403
▁staircase	-11.8403
▁stardust	-11.8403
▁strawberries	-11.8403
▁stupendous	-11.8403
▁tequila	-11.8403
▁toothbrush	-11.8403
▁twerp	-11.8403
▁undefeated	-11.8403
▁unleash	-11.8403
▁unnecessary	-11.8403
▁vaughn	-11.8403
▁vinci	-11.8403
▁vogel	-11.8403
▁vortex	-11.8403
▁vulnerable	-11.8403
▁wainwright	-11.8403
▁walkietalkie	-11.8403
▁wiggin	-11.8403
▁zordon	-11.8403
▁zubaydah	-11.8403
▁zumurrud	-11.8403
▁bonnie	-11.8403
▁censor	-11.8403
▁damato	-11.8403
▁delegate	-11.8403
▁deliberate	-11.8403
▁hyena	-11.8403
▁lailailailai	-11.8403
▁mtv	-11.8403
▁palermo	-11.8403
▁reece	-11.8403
▁sedative	-11.8403
▁stork	-11.8403
▁verona	-11.8403
▁abyss	-11.8403
▁agenda	-11.8403
▁ballerina	-11.8403
▁kimono	-11.8403
▁undoubted	-11.8403
▁wheezing	-11.8403
▁bandaid	-11.8403
▁yowls	-11.8403
▁catalogue	-11.8403
▁janessa	-11.8403
▁manwhore	-11.8403
▁shears	-11.8403
▁whichever	-11.8403
▁jackpot	-11.8403
▁skunk	-11.8403
▁ignorance	-11.8403
▁fisherman	-11.8403
▁psychology	-11.8403
▁bliss	-11.8403
▁ahmad	-11.8403
▁piston	-11.8403
▁yonder	-11.8403
▁sanctuary	-11.8403
▁banquet	-11.8403
▁marysville	-11.8403
▁transmission	-11.8403
▁farren	-11.8403
▁britain	-11.8403
▁database	-11.8403
▁sebastian	-11.8403
▁authorization	-11.8403
▁butterflies	-11.8403
▁lottery	-11.8403
▁corral	-11.8403
▁francs	-11.8403
▁kelp	-11.8403
▁kijk	-11.8403
▁theories	-11.8403
▁undertake	-11.8403
▁oats	-11.8403
▁severine	-11.8403
▁darwin	-11.8403
▁louisiana	-11.8403
▁riker	-11.8403
▁puckett	-11.8403
▁ritz	-11.8403
▁preview	-11.8403
▁fortytwo	-11.8403
▁munchkin	-11.8403
▁irresponsible	-11.8403
▁bubba	-11.8404
▁mildred	-11.8404
▁liddy	-11.8404
▁equation	-11.8404
▁rubbing	-11.8404
▁rabble	-11.8404
▁ounce	-11.8404
▁gnome	-11.8404
▁referred	-11.8404
▁merit	-11.8404
▁nogood	-11.8404
▁mixture	-11.8404
▁dunno	-11.8404
▁bonfire	-11.8404
▁colorado	-11.8404
▁ragged	-11.8404
▁descent	-11.8404
▁gorge	-11.8404
▁elves	-11.8404
▁waving	-11.8404
▁flapping	-11.8404
▁witchcraft	-11.8404
owski	-11.8404
▁bummer	-11.8404
▁ufo	-11.8404
▁slade	-11.8404
▁filter	-11.8404
▁elementary	-11.8404
▁jeering	-11.8404
▁langley	-11.8404
▁cochrane	-11.8404
▁niks	-11.8404
▁homesick	-11.8404
▁andand	-11.8404
▁humma	-11.8404
▁snappy	-11.8404
▁pouce	-11.8404
▁smite	-11.8404
▁fudge	-11.8404
▁ducksworth	-11.8405
▁experiencing	-11.8405
▁bugged	-11.8405
▁employment	-11.8405
▁selection	-11.8405
▁ferri	-11.8405
dylan	-11.8405
▁gulf	-11.8405
▁forehead	-11.8405
▁swine	-11.8405
▁inspection	-11.8405
nine	-11.8405
▁dripping	-11.8405
▁wasp	-11.8405
▁whwhat	-11.8405
▁repent	-11.8405
▁castaway	-11.8406
▁disappearance	-11.8406
hurst	-11.8406
▁trois	-11.8406
▁masterpiece	-11.8406
▁veil	-11.8406
▁dislike	-11.8406
▁expressway	-11.8406
▁joanne	-11.8406
▁requirement	-11.8406
▁corruption	-11.8406
▁consultant	-11.8406
ootchi	-11.8406
▁snowball	-11.8406
▁cruelty	-11.8406
▁instructor	-11.8406
▁capitalist	-11.8406
▁percy	-11.8406
▁contradiction	-11.8406
▁wuss	-11.8407
▁woah	-11.8407
▁yoshi	-11.8407
▁partnership	-11.8407
▁moira	-11.8407
▁starfish	-11.8407
▁gloomy	-11.8407
▁theft	-11.8407
▁snuff	-11.8407
▁rover	-11.8408
▁slay	-11.8408
▁pension	-11.8408
▁temptation	-11.8408
▁randy	-11.8408
▁illuminat	-11.8408
▁battlefield	-11.8408
▁vois	-11.8409
▁eise	-11.8409
▁joyce	-11.8409
▁muskie	-11.8409
▁ruthless	-11.8409
▁homing	-11.8409
▁shook	-11.841
▁wedgie	-11.841
▁travelled	-11.841
▁dickens	-11.841
▁wales	-11.841
▁romero	-11.841
▁heavier	-11.8411
▁ergo	-11.8411
▁environmental	-11.8411
▁fireplace	-11.8411
▁satis	-11.8411
ulent	-11.8411
▁enhanced	-11.8412
ternal	-11.8412
▁banished	-11.8412
▁freshmen	-11.8412
▁jocko	-11.8413
▁becky	-11.8413
▁colorful	-11.8413
▁bedford	-11.8414
▁quiz	-11.8414
▁drake	-11.8414
▁luisa	-11.8415
▁handbook	-11.8415
▁upsetting	-11.8416
▁hopping	-11.8416
▁williamson	-11.8417
▁cuddle	-11.8418
▁lifeboat	-11.8418
door	-11.842
▁barts	-11.842
▁moss	-11.842
▁acky	-11.8421
▁catherine	-11.8421
▁michaelson	-11.8422
▁collapsed	-11.8423
▁protective	-11.8424
▁conductor	-11.8424
▁mavericks	-11.8426
▁quitter	-11.8426
▁stem	-11.8427
▁chiming	-11.8427
▁firewood	-11.8427
▁acknowledged	-11.8427
▁hebt	-11.8428
▁grande	-11.8428
▁chapin	-11.8428
▁voting	-11.8429
ffel	-11.8429
▁turbot	-11.8429
▁appointed	-11.8429
▁raft	-11.843
▁beau	-11.843
▁morale	-11.8431
▁hanged	-11.8431
▁condor	-11.8431
▁soaring	-11.8431
▁advised	-11.8431
▁deze	-11.8434
▁located	-11.8434
▁stayin	-11.8435
▁successfully	-11.8435
▁gina	-11.8437
▁managing	-11.8441
▁handcuffs	-11.8441
▁mayol	-11.8442
▁willy	-11.8442
▁galactic	-11.8442
▁operational	-11.8444
▁hiring	-11.8444
▁earthling	-11.8446
▁loot	-11.8448
trap	-11.8451
▁driveway	-11.8451
▁entre	-11.8451
▁increased	-11.8453
▁signor	-11.8453
▁slippery	-11.8453
▁startled	-11.8453
▁idol	-11.8454
▁ads	-11.8456
▁proposed	-11.8459
▁bah	-11.8459
▁toughest	-11.8461
▁marche	-11.8461
▁lowest	-11.8462
▁condom	-11.8463
atch	-11.8464
▁boredom	-11.8465
▁bailed	-11.8466
▁pester	-11.8467
▁observed	-11.8472
▁regulations	-11.8472
▁hostilit	-11.8474
▁roberto	-11.8474
▁jour	-11.8475
▁burnt	-11.8475
▁shares	-11.8476
▁protector	-11.8478
rift	-11.8478
▁theo	-11.848
▁stirr	-11.8489
▁legally	-11.849
▁standup	-11.8491
▁oy	-11.8491
▁salty	-11.8493
▁thermos	-11.8495
▁irony	-11.8498
▁tug	-11.8498
▁flowing	-11.8502
▁knocks	-11.8504
▁yous	-11.8505
▁carson	-11.8506
▁avoided	-11.8508
▁marco	-11.8508
▁crisp	-11.8509
▁mooch	-11.8511
▁cose	-11.8515
vasive	-11.8519
▁organis	-11.852
uous	-11.8521
▁moles	-11.8523
▁stringer	-11.8532
▁klopeks	-11.8533
▁daytime	-11.8533
▁directed	-11.8539
▁sketch	-11.8541
▁fishes	-11.8541
▁steals	-11.8542
▁receipts	-11.8548
▁tshirts	-11.8548
▁gags	-11.855
▁howls	-11.8562
▁bending	-11.8563
▁fireman	-11.8563
action	-11.8565
▁snips	-11.8565
▁dougy	-11.8566
▁carriers	-11.8567
▁scrape	-11.8569
▁dinging	-11.8572
▁verbal	-11.8577
▁shred	-11.8579
▁sharpen	-11.8582
▁boiler	-11.8582
▁claiming	-11.8583
▁overlook	-11.8588
▁sunk	-11.859
▁pretended	-11.8591
▁toxic	-11.8593
▁guineas	-11.8594
▁merchants	-11.8594
▁clinks	-11.8595
▁greas	-11.8598
▁dearie	-11.8601
▁addie	-11.8605
▁erica	-11.8608
▁trashed	-11.8611
▁hooking	-11.8616
▁modeling	-11.8617
▁rows	-11.8622
▁ohoh	-11.8622
▁nazis	-11.8626
▁cot	-11.8626
▁complaints	-11.8627
▁disc	-11.8633
▁conditioning	-11.8635
▁expenses	-11.8656
▁methods	-11.8657
▁via	-11.8658
▁fins	-11.8664
▁outof	-11.8675
▁proudly	-11.8677
▁versa	-11.8686
▁storms	-11.8695
▁sighting	-11.8696
▁flyer	-11.8696
▁harp	-11.8698
lio	-11.87
▁keepin	-11.87
▁pizzas	-11.87
▁interrogations	-11.8702
iti	-11.8708
▁exceptions	-11.8716
hhhh	-11.8718
▁ankles	-11.8718
▁chemicals	-11.8718
▁hardon	-11.8719
▁elk	-11.8721
ega	-11.8723
▁madea	-11.8736
ttie	-11.8737
▁clocks	-11.8745
▁nicest	-11.8747
▁replica	-11.8748
▁patterns	-11.8764
▁correction	-11.8765
▁trainers	-11.8768
▁drinkin	-11.8769
▁kle	-11.8773
▁statues	-11.878
▁ger	-11.8797
ji	-11.88
▁slaps	-11.8802
ional	-11.8802
▁rises	-11.8804
▁explodes	-11.8811
▁mach	-11.8815
▁will	-11.8817
▁wits	-11.8825
tial	-11.8826
▁tags	-11.8836
▁puffs	-11.8848
▁mein	-11.8853
▁decides	-11.8855
▁seduce	-11.8856
▁zones	-11.8858
eau	-11.8862
▁verb	-11.8869
▁reader	-11.8873
iiy	-11.8875
▁guten	-11.8876
▁oceans	-11.8882
▁murdering	-11.8885
▁pranc	-11.89
▁marines	-11.8905
▁sailors	-11.8906
▁speeds	-11.8912
▁docks	-11.8932
▁blades	-11.8936
▁snails	-11.8936
quet	-11.8937
ometer	-11.894
▁designat	-11.8957
▁observ	-11.8957
▁aide	-11.8966
rent	-11.897
▁temperatures	-11.8983
▁relaxing	-11.9
▁floats	-11.9001
▁hav	-11.9002
▁agh	-11.9004
▁helicopters	-11.9015
▁views	-11.9027
huh	-11.9028
were	-11.9032
let	-11.9049
▁seals	-11.9049
▁pointy	-11.9068
ava	-11.9068
ending	-11.9074
▁chairs	-11.9074
lick	-11.9076
▁stables	-11.9079
▁watchin	-11.9082
vais	-11.9082
sir	-11.9083
emand	-11.9084
▁engineers	-11.909
▁askin	-11.909
▁paths	-11.9095
▁performer	-11.9104
▁mut	-11.9107
▁sundays	-11.9107
even	-11.9115
▁chlo	-11.9119
▁prints	-11.9125
▁poles	-11.9143
▁ces	-11.9149
▁stalins	-11.9157
▁idle	-11.9157
▁cleanse	-11.9159
▁gag	-11.9163
▁marsh	-11.9177
▁reai	-11.9179
wing	-11.92
▁terri	-11.9201
▁poems	-11.9205
▁dine	-11.9209
▁luce	-11.9211
▁sou	-11.9216
▁unre	-11.9216
tto	-11.9222
▁moan	-11.9231
▁robber	-11.9234
▁grape	-11.9243
▁civilian	-11.9244
▁receipt	-11.9245
▁tshirt	-11.9245
▁explosive	-11.9245
▁waffle	-11.9246
east	-11.9247
▁noodle	-11.9248
▁critter	-11.9248
▁bolshevik	-11.9248
▁knuckle	-11.9249
▁motions	-11.9253
▁oop	-11.9256
▁acre	-11.9256
▁concerts	-11.9262
▁dus	-11.9264
▁borders	-11.9265
▁sk	-11.9268
▁reg	-11.9273
▁murderers	-11.9274
ngbang	-11.9293
▁hei	-11.9307
▁conti	-11.9308
▁dome	-11.9313
▁intel	-11.9316
▁talents	-11.9318
very	-11.9319
▁critic	-11.932
▁retro	-11.9322
test	-11.9331
▁turkeys	-11.9332
▁devices	-11.9332
▁patron	-11.9332
▁sails	-11.9337
▁tube	-11.9344
▁unders	-11.9348
▁imma	-11.9352
▁annoy	-11.9354
gram	-11.9372
mission	-11.9373
level	-11.9374
feather	-11.9375
fifty	-11.9376
wheel	-11.9376
▁instruct	-11.9376
finished	-11.9376
▁lakes	-11.938
pants	-11.9381
week	-11.9381
▁appoint	-11.9381
▁neglect	-11.9381
type	-11.9383
▁whack	-11.9384
▁cripple	-11.9389
▁wrinkle	-11.9389
▁dedicate	-11.939
paid	-11.939
▁tweed	-11.9391
▁squirl	-11.9391
▁fuzz	-11.9393
▁ofyou	-11.9393
▁mush	-11.9393
▁thorough	-11.9393
▁salut	-11.9394
dont	-11.9397
▁flick	-11.9397
lost	-11.9398
▁clutch	-11.9398
▁hartman	-11.9399
▁coco	-11.94
▁givin	-11.94
▁multi	-11.9401
▁confront	-11.9401
▁decor	-11.9401
▁transmit	-11.9402
▁seasick	-11.9402
ndistinct	-11.9402
▁vandal	-11.9403
▁pippi	-11.9403
clamation	-11.9403
▁alyosha	-11.9403
▁amulet	-11.9403
▁analysis	-11.9403
▁antidote	-11.9403
▁baloney	-11.9403
▁bermuda	-11.9403
▁betelgeuse	-11.9403
▁blimp	-11.9403
▁boomerang	-11.9403
▁brethren	-11.9403
▁buddhist	-11.9403
▁cathedral	-11.9403
▁cecilia	-11.9403
▁chandelier	-11.9403
▁charmaine	-11.9403
▁chitchat	-11.9403
▁cocksucker	-11.9403
▁columbia	-11.9403
▁communicating	-11.9403
▁concluded	-11.9403
▁congrats	-11.9403
▁cougars	-11.9403
▁crumble	-11.9403
▁crusade	-11.9403
▁dedication	-11.9403
▁delamere	-11.9403
▁depravity	-11.9403
▁devastated	-11.9403
▁dishonest	-11.9403
▁disperse	-11.9403
▁disregard	-11.9403
▁dokter	-11.9403
▁dolores	-11.9403
▁dorothea	-11.9403
▁dumdum	-11.9403
▁dummies	-11.9403
▁eberhardt	-11.9403
▁elevar	-11.9403
▁eugene	-11.9403
▁excellence	-11.9403
▁filigree	-11.9403
▁fingernails	-11.9403
▁formidable	-11.9403
▁gavin	-11.9403
▁gazoo	-11.9403
▁ghastly	-11.9403
▁grizzlies	-11.9403
▁groovy	-11.9403
▁hampton	-11.9403
▁handwriting	-11.9403
▁hashimoto	-11.9403
▁helamites	-11.9403
▁hideandseek	-11.9403
▁himmel	-11.9403
▁ieave	-11.9403
▁imagining	-11.9403
▁implement	-11.9403
▁impulse	-11.9403
▁incandesto	-11.9403
▁incantation	-11.9403
▁incorrect	-11.9403
▁intrigue	-11.9403
▁intrusion	-11.9403
▁irrational	-11.9403
▁isiand	-11.9403
▁isolation	-11.9403
▁jabadu	-11.9403
▁jacquot	-11.9403
▁jamison	-11.9403
▁janitor	-11.9403
▁jefferson	-11.9403
▁jennyanydots	-11.9403
▁kazuhiko	-11.9403
▁kermie	-11.9403
▁kikakee	-11.9403
▁kilbourne	-11.9403
▁lasagna	-11.9403
▁lengyel	-11.9403
▁loulou	-11.9403
▁macmorrow	-11.9403
▁mademoiselle	-11.9403
▁magrathea	-11.9403
▁malcolm	-11.9403
▁manipulate	-11.9403
▁marguerite	-11.9403
▁maurice	-11.9403
▁meerkat	-11.9403
▁mekoides	-11.9403
▁melchior	-11.9403
▁mercenaries	-11.9403
▁minneapolis	-11.9403
▁misplaced	-11.9403
▁monsignor	-11.9403
▁monstrous	-11.9403
▁mulch	-11.9403
▁negotiation	-11.9403
▁norwegian	-11.9403
▁nugget	-11.9403
▁oatmeal	-11.9403
▁orgasm	-11.9403
▁orlando	-11.9403
▁papillon	-11.9403
▁perceval	-11.9403
▁picasso	-11.9403
▁pienaar	-11.9403
▁pingpong	-11.9403
▁pizarro	-11.9403
▁portugal	-11.9403
▁poverty	-11.9403
▁pretzel	-11.9403
▁qaeda	-11.9403
▁rizzo	-11.9403
▁roadblock	-11.9403
▁savior	-11.9403
▁scenario	-11.9403
▁schwow	-11.9403
▁seatbelt	-11.9403
▁secrecy	-11.9403
▁selfrespect	-11.9403
▁seymour	-11.9403
▁shuah	-11.9403
▁sicilian	-11.9403
▁sliding	-11.9403
▁slomo	-11.9403
▁solemn	-11.9403
▁sputtering	-11.9403
▁stacey	-11.9403
▁sublime	-11.9403
▁swedish	-11.9403
▁sycamore	-11.9403
▁symphony	-11.9403
▁syndrome	-11.9403
▁tatianna	-11.9403
▁teenchy	-11.9403
▁treason	-11.9403
▁trecorum	-11.9403
▁tremble	-11.9403
▁weimar	-11.9403
▁womb	-11.9403
▁anthem	-11.9403
▁bellhop	-11.9403
▁boulder	-11.9403
▁bueno	-11.9403
▁cabbage	-11.9403
▁canvas	-11.9403
▁cinema	-11.9403
▁decline	-11.9403
▁doublecross	-11.9403
▁embark	-11.9403
▁fresno	-11.9403
▁krim	-11.9403
▁miffy	-11.9403
▁pharmacy	-11.9403
▁rouge	-11.9403
▁shipwreck	-11.9403
▁smog	-11.9403
▁translation	-11.9403
▁baboon	-11.9403
▁clatters	-11.9403
▁czar	-11.9403
▁depressing	-11.9403
▁eberhart	-11.9403
▁ethics	-11.9403
▁locomotion	-11.9403
▁ltalian	-11.9403
▁plumbing	-11.9403
▁poodle	-11.9403
▁refusing	-11.9403
▁spectre	-11.9403
▁bleats	-11.9403
▁gnaw	-11.9403
▁northwest	-11.9403
▁savor	-11.9403
▁earrings	-11.9403
▁leeches	-11.9403
▁lullaby	-11.9403
▁promote	-11.9403
▁tactics	-11.9403
▁conservancy	-11.9403
▁tweet	-11.9403
▁landscape	-11.9403
▁metallic	-11.9403
▁goddess	-11.9403
▁austria	-11.9403
▁bubbling	-11.9403
▁cloquet	-11.9403
▁syncopat	-11.9403
ogee	-11.9403
▁automobile	-11.9403
▁probability	-11.9403
▁creed	-11.9403
▁ruoppoio	-11.9403
▁shabby	-11.9403
▁vocal	-11.9403
▁belmont	-11.9403
▁dawes	-11.9403
▁complication	-11.9403
▁memorize	-11.9403
▁fugitive	-11.9403
▁liberal	-11.9403
▁sought	-11.9403
▁eyeballs	-11.9403
▁humility	-11.9403
▁bullseye	-11.9403
▁homecoming	-11.9403
▁decorations	-11.9403
▁hammond	-11.9403
▁snob	-11.9403
▁fusion	-11.9403
▁outrage	-11.9403
▁underworld	-11.9403
▁waik	-11.9403
▁uncover	-11.9403
▁parce	-11.9403
▁dublin	-11.9403
▁prowl	-11.9403
▁nigel	-11.9403
▁interior	-11.9403
▁accomplice	-11.9403
▁scope	-11.9403
▁alleged	-11.9403
▁shillings	-11.9403
▁crotch	-11.9403
▁candidate	-11.9403
▁optimistic	-11.9403
▁bugging	-11.9403
▁trolley	-11.9403
▁biological	-11.9404
▁cornwall	-11.9404
▁housing	-11.9404
▁gentry	-11.9404
▁krissi	-11.9404
▁rigged	-11.9404
▁pianist	-11.9404
▁bloat	-11.9404
▁kumi	-11.9404
▁newcomer	-11.9404
▁thigh	-11.9404
▁barefoot	-11.9404
▁interference	-11.9404
▁alexandr	-11.9404
▁attaboy	-11.9404
▁accordion	-11.9404
▁briny	-11.9404
▁humour	-11.9404
▁twentyfour	-11.9404
▁juns	-11.9404
▁beanstalk	-11.9404
▁skitter	-11.9404
▁rudi	-11.9404
▁radlo	-11.9404
▁alibi	-11.9404
▁prolong	-11.9404
▁lisp	-11.9404
▁jello	-11.9404
▁rapping	-11.9404
▁patriotic	-11.9404
▁undead	-11.9404
▁whirl	-11.9404
▁picard	-11.9404
▁wither	-11.9404
▁ieft	-11.9405
▁ugli	-11.9405
▁regiment	-11.9405
▁fernandes	-11.9405
▁adjustment	-11.9405
▁thems	-11.9405
▁doodoo	-11.9405
▁establishment	-11.9405
▁jurisdiction	-11.9405
▁canine	-11.9405
▁grazie	-11.9405
▁ponies	-11.9405
▁sermon	-11.9405
▁input	-11.9405
▁retain	-11.9405
▁blacksmith	-11.9405
▁mormon	-11.9405
▁orphanage	-11.9405
▁pending	-11.9405
▁wildlife	-11.9405
▁waiver	-11.9405
▁kidnapper	-11.9405
▁pippa	-11.9405
▁stuey	-11.9405
▁enroll	-11.9405
▁achievement	-11.9405
▁sancho	-11.9405
▁kamp	-11.9405
▁feline	-11.9405
urban	-11.9405
▁munion	-11.9405
▁evidently	-11.9406
▁scarce	-11.9406
▁cuz	-11.9406
▁mound	-11.9406
▁suburb	-11.9406
▁catwoman	-11.9406
▁brody	-11.9406
▁overboard	-11.9406
▁tusk	-11.9406
▁mamaji	-11.9406
▁detonator	-11.9406
▁reset	-11.9406
▁ayah	-11.9407
▁courtroom	-11.9407
▁paycheck	-11.9407
▁penance	-11.9407
▁morality	-11.9407
▁rake	-11.9407
▁variety	-11.9408
▁wield	-11.9408
▁maxwell	-11.9408
▁constitutional	-11.9408
▁playground	-11.9408
oeuf	-11.9408
▁superstition	-11.9408
▁heelis	-11.9408
▁swiped	-11.9408
▁revel	-11.9408
▁tropical	-11.9408
▁caroline	-11.9408
▁damian	-11.9408
▁edit	-11.9408
▁muddy	-11.9408
▁iife	-11.9408
▁hence	-11.9409
▁gaat	-11.9409
▁ladybug	-11.9409
▁inverted	-11.9409
▁questce	-11.9409
▁outnumbered	-11.9409
▁plow	-11.9409
▁coil	-11.9409
▁foolishness	-11.9409
▁hawaiian	-11.9409
▁blot	-11.9409
certified	-11.941
▁dickhead	-11.941
▁woodland	-11.941
▁captur	-11.941
▁keyboard	-11.941
▁overwhelming	-11.9411
▁portrait	-11.9411
▁snorting	-11.9411
▁shipped	-11.9411
▁buzzard	-11.9411
▁lurk	-11.9412
▁yuki	-11.9412
▁dumpling	-11.9412
▁conqueror	-11.9412
▁oldtimer	-11.9412
▁clan	-11.9412
▁midst	-11.9412
▁mainland	-11.9412
▁injection	-11.9413
▁hallowe	-11.9413
▁carved	-11.9413
▁griffin	-11.9413
▁countdown	-11.9414
▁twinkle	-11.9414
▁officials	-11.9414
▁screwup	-11.9414
▁gaby	-11.9414
▁dday	-11.9414
▁foreclos	-11.9414
▁conscious	-11.9415
▁porno	-11.9415
▁worldwide	-11.9415
▁preparation	-11.9416
▁endangered	-11.9416
▁fab	-11.9416
▁pakistani	-11.9416
▁perish	-11.9416
▁coleman	-11.9416
▁homo	-11.9416
▁tonic	-11.9416
▁efficient	-11.9416
▁voir	-11.9417
▁defenseless	-11.9418
▁peep	-11.9418
▁tempy	-11.9418
▁pasture	-11.9418
▁respectfully	-11.9418
▁brushes	-11.9419
▁conviction	-11.942
▁tux	-11.9421
▁stickles	-11.9421
▁priceless	-11.9422
▁michelin	-11.9423
▁clanking	-11.9423
▁weighed	-11.9423
▁ames	-11.9424
▁escaping	-11.9425
▁rations	-11.9426
▁wonderland	-11.9426
▁unhand	-11.9426
▁scrambled	-11.9427
▁haif	-11.9429
▁splutters	-11.9429
▁spooked	-11.9429
▁reserved	-11.943
▁fireball	-11.943
▁doen	-11.9433
▁travels	-11.9433
▁abused	-11.9434
▁comprend	-11.9434
▁crud	-11.9434
▁latch	-11.9435
▁retract	-11.9435
▁forged	-11.9436
▁fag	-11.9437
▁trey	-11.9437
▁foreigners	-11.9438
▁resigned	-11.9439
▁binding	-11.944
▁clinking	-11.9441
▁intercepted	-11.9441
▁buckley	-11.9441
▁sil	-11.9441
▁hind	-11.9444
▁eliminated	-11.9444
▁bravest	-11.9445
▁maple	-11.9445
▁usses	-11.9446
▁aver	-11.9446
▁booty	-11.945
▁seeks	-11.9452
▁sexually	-11.9452
▁standby	-11.9454
▁tenth	-11.9455
▁disappointing	-11.9456
inthe	-11.9456
▁mio	-11.9458
▁pins	-11.9459
▁vomiting	-11.9461
▁fleeing	-11.9461
▁dah	-11.9462
▁obligations	-11.9463
▁originally	-11.9464
▁flushed	-11.9464
▁layer	-11.9466
▁detailed	-11.9469
▁secured	-11.947
▁followup	-11.947
▁mocking	-11.9471
▁pucker	-11.9471
▁wisely	-11.9473
nap	-11.9476
▁assistants	-11.9478
▁cling	-11.9479
▁raccoons	-11.9479
▁robotics	-11.9479
▁shivers	-11.9481
▁noone	-11.9481
▁bev	-11.9481
▁huntin	-11.9483
▁pry	-11.9484
▁vot	-11.9487
▁mule	-11.9489
▁cantrow	-11.9489
▁manita	-11.9489
▁wrecked	-11.9492
▁diseased	-11.9493
▁tuned	-11.9493
▁awarded	-11.9494
▁publishing	-11.9495
▁insulting	-11.9496
▁sonia	-11.9496
▁betraying	-11.9498
▁disappears	-11.9498
▁sweaty	-11.9498
▁digital	-11.9502
▁fled	-11.9502
▁attended	-11.9505
▁prune	-11.9506
▁whines	-11.9509
▁rhodes	-11.9513
▁leftovers	-11.9513
▁mur	-11.9515
▁parenting	-11.9517
▁denying	-11.9517
▁grad	-11.9517
▁troopers	-11.9518
ever	-11.9519
▁covert	-11.952
▁gaining	-11.9522
atten	-11.9525
▁roberta	-11.9526
▁blossoms	-11.9529
▁detainees	-11.953
▁klein	-11.953
▁troupe	-11.9531
▁stripes	-11.9532
▁govern	-11.9533
▁bog	-11.9534
vid	-11.9535
▁chester	-11.954
▁herds	-11.9542
rer	-11.9543
vol	-11.9545
▁comforting	-11.9549
▁tucked	-11.9556
▁wearin	-11.9558
ira	-11.9561
▁suing	-11.9561
ouse	-11.9563
▁wills	-11.9569
▁filed	-11.9575
▁bunt	-11.958
▁padd	-11.958
▁baa	-11.958
ility	-11.958
▁smokey	-11.9582
▁boob	-11.9583
▁moors	-11.9586
▁inhal	-11.9588
▁rosa	-11.9592
▁lai	-11.9594
onic	-11.9602
▁tack	-11.9609
▁rh	-11.9612
▁gotham	-11.9612
[...]
