<unk>	0
<s>	0
</s>	0
s	-4.16164
▁im	-4.42333
▁dont	-4.49368
▁know	-4.54455
▁get	-4.7241
▁go	-4.80041
▁right	-4.82136
▁like	-4.85819
▁oh	-4.88215
▁yeah	-4.90919
▁got	-4.92804
▁youre	-4.93266
▁come	-4.93685
▁well	-5.0963
▁thats	-5.12302
▁na	-5.14652
▁one	-5.17476
▁okay	-5.19896
▁good	-5.29034
▁want	-5.34314
▁think	-5.35252
▁see	-5.37914
▁gon	-5.39491
▁hey	-5.40621
▁look	-5.54159
▁back	-5.55236
▁man	-5.5619
▁yes	-5.64389
▁going	-5.64505
▁time	-5.64985
▁take	-5.65826
▁us	-5.66261
▁ill	-5.67094
▁hes	-5.67172
▁cant	-5.71361
▁l	-5.78538
▁	-5.80926
▁tell	-5.81404
▁would	-5.81409
▁say	-5.82088
▁need	-5.85779
▁really	-5.86518
ing	-5.89749
▁something	-5.91204
▁could	-5.95064
▁little	-5.95086
▁didnt	-5.96859
▁way	-5.971
▁whats	-5.98109
▁never	-5.98212
▁lets	-5.98964
▁make	-5.9929
▁sorry	-5.99425
▁love	-6.02407
▁let	-6.03846
▁please	-6.06213
▁mean	-6.06902
▁thank	-6.0963
▁theres	-6.15002
▁give	-6.16777
▁god	-6.17916
ed	-6.1814
▁ive	-6.1886
▁two	-6.23261
▁people	-6.25375
▁said	-6.26323
▁thing	-6.26603
▁shit	-6.29331
▁help	-6.30201
▁fuck	-6.32184
▁wait	-6.32273
▁shes	-6.34022
▁mr	-6.3583
▁sure	-6.35886
▁much	-6.37737
▁day	-6.38159
▁stop	-6.40067
▁fucking	-6.40219
▁even	-6.40447
▁home	-6.42486
▁uh	-6.43576
▁call	-6.43708
▁life	-6.46098
▁great	-6.46185
▁guys	-6.47313
▁theyre	-6.47484
▁put	-6.47775
▁maybe	-6.48357
▁find	-6.48497
▁still	-6.49188
▁first	-6.51017
▁anything	-6.52495
▁night	-6.52941
▁keep	-6.5459
▁work	-6.54828
d	-6.55393
▁better	-6.56345
▁nothing	-6.56998
▁sir	-6.58633
▁talk	-6.5881
▁away	-6.60077
▁guy	-6.60115
▁ever	-6.62377
▁thought	-6.62517
▁new	-6.63428
▁hi	-6.63546
▁last	-6.63885
▁hell	-6.67563
▁around	-6.6952
▁ta	-6.69713
▁must	-6.70708
▁always	-6.71068
▁things	-6.72022
▁name	-6.73214
▁everything	-6.73351
▁long	-6.73635
▁wan	-6.73717
▁feel	-6.74449
▁baby	-6.74649
▁nice	-6.74765
▁hello	-6.75733
▁stay	-6.75859
▁told	-6.77026
▁old	-6.77727
▁youve	-6.77887
▁leave	-6.78174
▁id	-6.78962
y	-6.79207
▁believe	-6.79937
▁hear	-6.80981
▁big	-6.81108
▁wont	-6.81929
▁every	-6.82513
▁boy	-6.83528
▁place	-6.83552
▁made	-6.84033
▁coming	-6.84149
▁years	-6.84219
▁kind	-6.85325
▁car	-6.8551
▁three	-6.85743
▁girl	-6.87197
▁listen	-6.87372
▁youll	-6.87837
▁doesnt	-6.89214
▁lot	-6.90022
▁fine	-6.90117
▁remember	-6.90142
▁house	-6.90873
▁money	-6.90892
▁huh	-6.91458
▁done	-6.92027
▁kill	-6.92523
▁bad	-6.92785
▁woman	-6.93105
▁thanks	-6.93939
▁world	-6.94081
▁dad	-6.94183
▁hold	-6.95879
▁real	-6.96706
▁wrong	-6.98126
ly	-6.98148
▁mom	-6.98371
▁dead	-6.98638
▁isnt	-6.99423
▁move	-6.99722
p	-6.99999
▁music	-7.00319
▁course	-7.01049
▁talking	-7.01146
▁enough	-7.01753
▁miss	-7.02478
▁happened	-7.03279
▁left	-7.03465
er	-7.04066
▁show	-7.04827
▁might	-7.04916
▁may	-7.05206
▁understand	-7.05797
▁son	-7.06064
▁care	-7.06291
▁mother	-7.06626
▁best	-7.06837
▁door	-7.06964
▁getting	-7.08039
▁someone	-7.08179
▁try	-7.08258
▁ok	-7.08828
▁next	-7.09088
▁another	-7.09342
▁ask	-7.09676
▁wanted	-7.1103
e	-7.11487
▁aint	-7.12707
▁play	-7.13183
▁else	-7.14572
▁looking	-7.14651
▁head	-7.15333
▁friend	-7.15346
▁mind	-7.16146
▁ready	-7.18084
▁um	-7.18528
▁trying	-7.20565
▁father	-7.20761
▁open	-7.21518
▁came	-7.21814
▁morning	-7.22269
▁found	-7.22296
▁guess	-7.22441
▁today	-7.2282
▁wasnt	-7.24412
▁die	-7.24919
▁room	-7.25205
▁whole	-7.26403
▁knew	-7.26705
▁run	-7.26848
▁family	-7.27488
▁job	-7.27839
▁playing	-7.2793
▁watch	-7.28544
▁meet	-7.28682
▁lm	-7.2953
▁phone	-7.29836
▁cause	-7.2988
▁live	-7.30629
▁whoa	-7.30933
▁many	-7.3104
▁actually	-7.31248
▁tonight	-7.3135
▁pretty	-7.31456
▁wouldnt	-7.31793
▁start	-7.32501
▁happy	-7.32627
▁hope	-7.32653
▁saw	-7.32842
▁school	-7.32876
▁turn	-7.32938
▁seen	-7.34577
▁kid	-7.34891
▁together	-7.349
▁excuse	-7.35008
▁heard	-7.35802
in	-7.3666
▁friends	-7.36916
▁ah	-7.37393
▁bring	-7.37571
▁whos	-7.37779
▁hard	-7.38468
▁kids	-7.38508
▁idea	-7.38865
▁weve	-7.39034
▁everybody	-7.39319
▁shut	-7.39472
n	-7.39486
▁men	-7.40484
▁end	-7.40912
a	-7.40969
▁tomorrow	-7.40992
▁alone	-7.4111
▁damn	-7.41598
▁use	-7.42737
▁days	-7.43224
▁face	-7.44066
▁used	-7.4456
▁went	-7.45031
▁saying	-7.45058
▁five	-7.45167
▁already	-7.45271
▁called	-7.4534
▁took	-7.4588
▁gone	-7.46098
▁hand	-7.46377
▁beautiful	-7.47883
▁matter	-7.47928
▁yet	-7.48231
▁lost	-7.48493
▁honey	-7.48605
▁sit	-7.48931
t	-7.49326
▁true	-7.5089
▁second	-7.51037
▁looks	-7.51101
▁bit	-7.5114
▁minute	-7.51499
▁problem	-7.51901
▁without	-7.52053
▁crazy	-7.53099
▁says	-7.53563
▁hit	-7.54935
▁fire	-7.55133
▁killed	-7.55196
▁everyone	-7.55276
▁havent	-7.5603
▁ago	-7.56165
▁wife	-7.56384
▁anyone	-7.56436
▁eat	-7.56718
▁business	-7.571
▁inside	-7.57255
▁four	-7.57665
▁couldnt	-7.57963
▁chuckles	-7.58303
▁fight	-7.58528
▁dog	-7.5868
▁ass	-7.58692
▁easy	-7.5891
▁stuff	-7.59126
▁laughing	-7.59142
▁late	-7.59329
▁worry	-7.5962
▁minutes	-7.59654
▁youd	-7.59894
▁heart	-7.60363
▁young	-7.60631
▁sighs	-7.60689
▁hurt	-7.60874
▁part	-7.61743
▁year	-7.62878
▁check	-7.63012
▁probably	-7.6303
▁forget	-7.63173
▁game	-7.63477
▁mine	-7.63655
▁point	-7.63742
▁eyes	-7.64114
▁story	-7.64198
i	-7.64271
▁supposed	-7.64593
▁pay	-7.64898
▁grunts	-7.65021
▁anyway	-7.65165
▁jesus	-7.65527
▁since	-7.65544
▁hands	-7.65965
▁mrs	-7.6623
▁whatever	-7.66273
▁john	-7.66707
▁wow	-7.66912
▁later	-7.66926
▁wheres	-7.67206
▁cut	-7.67755
▁somebody	-7.68061
▁read	-7.68094
▁bitch	-7.68831
o	-7.68858
▁water	-7.68976
▁close	-7.69134
▁brother	-7.69251
▁far	-7.69707
▁sleep	-7.69734
▁welcome	-7.71501
▁stand	-7.71527
▁wants	-7.71904
▁happen	-7.72275
▁red	-7.72516
▁drink	-7.7309
▁dr	-7.7334
▁thinking	-7.73403
▁fun	-7.73614
▁laughs	-7.73834
▁deal	-7.73908
▁black	-7.74025
▁cool	-7.74445
▁exactly	-7.74557
▁nbs	-7.74872
▁wish	-7.75841
▁town	-7.76019
▁rest	-7.76678
▁children	-7.76687
▁em	-7.76784
al	-7.76821
▁afraid	-7.77186
▁working	-7.77592
r	-7.7789
▁soon	-7.78277
▁girls	-7.78944
▁nobody	-7.7913
▁death	-7.79529
▁dear	-7.79641
▁word	-7.79985
▁person	-7.80365
▁jack	-7.80492
▁making	-7.80607
▁change	-7.80745
▁break	-7.80761
▁gun	-7.80864
▁though	-7.80872
▁police	-7.80911
▁captain	-7.81453
▁set	-7.81881
▁hot	-7.82151
▁gave	-7.82156
▁gasps	-7.82367
▁high	-7.8247
▁ha	-7.82671
▁trust	-7.82824
▁boys	-7.82896
▁times	-7.83669
▁makes	-7.8411
▁taking	-7.84117
▁light	-7.84538
▁met	-7.84582
▁number	-7.84634
▁week	-7.84702
▁hmm	-7.85009
▁dude	-7.85017
▁side	-7.8524
▁anybody	-7.85544
▁shot	-7.85653
▁walk	-7.85989
▁hate	-7.86285
▁chance	-7.86678
▁blood	-7.86711
es	-7.87584
▁half	-7.88085
▁moment	-7.88387
▁funny	-7.88499
▁question	-7.88813
▁screaming	-7.88919
▁anymore	-7.89057
▁bye	-7.89256
▁white	-7.89336
▁almost	-7.89434
▁speak	-7.8988
▁hang	-7.90406
▁party	-7.90485
▁air	-7.90652
▁sometimes	-7.91517
▁body	-7.91536
▁book	-7.91549
▁line	-7.91837
▁arent	-7.9192
▁different	-7.92212
▁trouble	-7.92507
▁safe	-7.92556
▁free	-7.92634
▁six	-7.93136
▁bed	-7.93952
▁goes	-7.93982
▁war	-7.94154
▁king	-7.94369
▁continues	-7.94943
▁hours	-7.95025
▁lady	-7.95283
▁means	-7.95717
▁power	-7.95728
▁child	-7.95942
▁died	-7.96183
▁doctor	-7.96439
▁outside	-7.96466
▁promise	-7.96552
▁de	-7.96889
▁drive	-7.97027
▁la	-7.97478
▁city	-7.97712
▁alive	-7.98114
▁also	-7.98116
▁save	-7.98388
▁sweet	-7.98513
▁daddy	-7.98755
▁quite	-7.98764
▁shall	-7.98932
▁shoot	-7.99264
▁stupid	-8.0019
▁least	-8.00191
▁lts	-8.00296
▁full	-8.0113
▁voice	-8.01287
▁plan	-8.0137
▁pick	-8.01399
▁lord	-8.01421
▁husband	-8.01511
▁goddamn	-8.01888
▁daughter	-8.02374
▁dream	-8.02483
▁couple	-8.03092
▁waiting	-8.05331
▁knows	-8.0571
▁ahead	-8.06038
▁win	-8.06043
▁sounds	-8.06074
▁telling	-8.06328
▁follow	-8.06436
▁asked	-8.06565
▁behind	-8.06933
▁speaking	-8.0725
▁sick	-8.0806
▁sister	-8.08205
▁married	-8.08519
▁perfect	-8.09564
l	-8.09851
▁alice	-8.09902
▁radio	-8.10361
▁food	-8.10366
▁dance	-8.11118
▁truth	-8.11523
▁heres	-8.11681
▁small	-8.11687
▁months	-8.1169
▁feeling	-8.12071
▁sound	-8.122
▁groans	-8.1258
▁touch	-8.12922
▁reason	-8.1293
▁send	-8.12937
▁clear	-8.13089
▁women	-8.13199
▁front	-8.1344
▁tried	-8.13949
▁bet	-8.13959
▁hows	-8.13978
▁important	-8.14069
▁started	-8.14621
▁lose	-8.14693
▁scared	-8.14719
▁running	-8.149
▁case	-8.15077
▁either	-8.15133
▁grunting	-8.1516
▁order	-8.15309
▁ya	-8.15718
▁pull	-8.16198
▁buy	-8.16234
▁hurry	-8.16609
▁living	-8.16942
▁team	-8.16973
▁ooh	-8.1711
▁fuckin	-8.17217
▁yo	-8.17275
▁theyll	-8.17606
▁comes	-8.17835
▁answer	-8.18199
▁dinner	-8.18208
▁control	-8.18454
▁fast	-8.18484
▁hour	-8.18684
▁cold	-8.18798
▁itll	-8.1912
▁hair	-8.19887
▁needs	-8.20592
▁road	-8.21052
▁peter	-8.21177
▁kidding	-8.21181
m	-8.21191
▁lucky	-8.2128
▁serious	-8.21341
▁ladies	-8.21435
▁ride	-8.21655
▁buddy	-8.21693
▁christ	-8.21878
▁news	-8.21964
▁ten	-8.22091
▁drop	-8.2236
▁special	-8.22976
▁brought	-8.23005
▁song	-8.23481
▁finally	-8.23581
▁leaving	-8.24336
▁wake	-8.24632
▁eye	-8.24834
▁luck	-8.25595
▁gentlemen	-8.25956
▁catch	-8.2636
▁sex	-8.26396
▁street	-8.26416
▁country	-8.26772
▁till	-8.27217
▁human	-8.27252
▁top	-8.27446
▁parents	-8.27479
▁along	-8.27598
▁happening	-8.28067
▁clean	-8.28624
▁straight	-8.28968
▁earth	-8.28997
▁seems	-8.2902
▁step	-8.29204
▁taken	-8.29294
▁mike	-8.29429
▁mama	-8.29501
▁lives	-8.29524
▁jay	-8.29575
en	-8.29581
▁rock	-8.29694
▁throw	-8.29782
▁able	-8.30004
▁paul	-8.30395
▁office	-8.30641
▁beat	-8.30742
▁un	-8.31137
▁ship	-8.31304
▁frank	-8.31725
▁dark	-8.3182
▁shouldnt	-8.31839
▁fly	-8.32173
▁piece	-8.32719
▁happens	-8.32759
▁weird	-8.32911
▁careful	-8.32942
▁mmm	-8.3329
▁train	-8.3335
▁goodbye	-8.33586
▁calm	-8.33597
▁past	-8.33951
▁fact	-8.34205
▁th	-8.34536
▁secret	-8.34695
▁maam	-8.34768
▁seem	-8.34849
▁lie	-8.35074
▁ow	-8.35156
▁ones	-8.35382
▁perhaps	-8.35663
▁moving	-8.35664
▁glad	-8.36775
▁jimmy	-8.36877
▁crowd	-8.36992
▁bill	-8.37018
▁loved	-8.37123
or	-8.37517
▁fall	-8.37569
▁meeting	-8.37665
▁asking	-8.37829
▁van	-8.37895
▁feet	-8.38098
▁learn	-8.38316
▁mark	-8.38356
▁worth	-8.38587
on	-8.38654
▁gets	-8.3948
▁bullshit	-8.40261
▁fault	-8.40579
▁blue	-8.40601
▁mouth	-8.40777
▁million	-8.41024
▁seven	-8.41263
▁words	-8.4137
▁lll	-8.41385
▁write	-8.41805
▁max	-8.42164
▁amazing	-8.42167
▁wonderful	-8.42199
▁weeks	-8.42202
▁sort	-8.42357
▁sign	-8.42416
▁felt	-8.42493
▁quiet	-8.43038
▁holy	-8.43193
▁sense	-8.43279
▁screams	-8.4328
▁poor	-8.43462
▁choice	-8.43712
ers	-8.43988
▁ball	-8.44036
▁mad	-8.44263
▁pain	-8.44265
▁sam	-8.44289
g	-8.44383
▁george	-8.44436
▁tv	-8.44446
▁calling	-8.44456
▁birthday	-8.4542
▁somewhere	-8.4575
▁forever	-8.45751
▁none	-8.45911
▁werent	-8.46416
▁blow	-8.46642
▁coffee	-8.4675
▁become	-8.46977
▁strong	-8.46979
▁sent	-8.47091
▁kiss	-8.47187
▁slow	-8.47301
▁indistinct	-8.47329
▁fair	-8.47528
▁space	-8.48104
▁known	-8.48176
▁york	-8.48437
▁meant	-8.4871
▁smell	-8.49059
▁boat	-8.49065
▁dave	-8.49164
▁fear	-8.49178
▁lt	-8.49187
▁smart	-8.4935
▁born	-8.49405
▁alright	-8.49468
▁james	-8.49722
▁shell	-8.49791
▁less	-8.49852
▁crying	-8.49961
▁picture	-8.50109
▁eddie	-8.50157
▁middle	-8.50505
▁company	-8.50853
▁henry	-8.50854
▁longer	-8.51009
▁english	-8.51203
▁fix	-8.51414
▁island	-8.5187
▁sing	-8.51909
▁wed	-8.52334
▁watching	-8.52475
▁christmas	-8.52609
▁figure	-8.52807
▁asshole	-8.52943
▁absolutely	-8.52978
▁relax	-8.53119
▁movie	-8.53299
▁broke	-8.53584
▁french	-8.54026
▁daisy	-8.54051
▁panting	-8.54053
▁quick	-8.54225
k	-8.54235
▁wear	-8.54384
▁daniel	-8.54389
est	-8.54452
▁uncle	-8.54759
▁possible	-8.54768
▁favorite	-8.55133
ie	-8.55164
▁david	-8.55497
▁state	-8.56247
▁g	-8.56283
▁protect	-8.56415
▁whoo	-8.56608
▁act	-8.5692
▁others	-8.5697
▁terrible	-8.5697
▁future	-8.56972
▁looked	-8.57011
▁boss	-8.5704
▁grab	-8.57403
▁c	-8.57456
an	-8.58062
▁breathe	-8.58631
▁across	-8.58843
▁anywhere	-8.58843
▁table	-8.5887
▁officer	-8.58952
▁finish	-8.59084
▁rather	-8.59223
▁class	-8.59438
▁theyve	-8.59603
▁cheering	-8.59657
▁worse	-8.59984
▁ik	-8.60053
▁jake	-8.60368
▁questions	-8.60664
▁bag	-8.60707
▁fat	-8.61027
ic	-8.61109
▁mmhmm	-8.61147
▁worked	-8.6117
b	-8.61264
▁entire	-8.61432
▁needed	-8.61573
▁mm	-8.61613
▁hed	-8.61656
man	-8.61921
▁coach	-8.61992
▁breathing	-8.62095
▁date	-8.62334
▁return	-8.62347
▁star	-8.62529
▁wall	-8.62699
▁land	-8.62761
▁stick	-8.62829
▁missed	-8.62913
▁darling	-8.63479
▁cell	-8.63668
▁murder	-8.63707
▁shh	-8.63719
c	-8.63753
▁swear	-8.64003
▁charlie	-8.64035
▁singing	-8.64187
▁cat	-8.64239
▁wind	-8.64343
▁month	-8.64832
▁floor	-8.64846
▁strange	-8.65014
▁history	-8.65083
▁wonder	-8.65131
▁s	-8.65425
h	-8.65627
▁laugh	-8.6597
▁missing	-8.66048
▁count	-8.66175
▁eight	-8.66203
▁evening	-8.66416
▁works	-8.66641
▁pass	-8.66653
▁seat	-8.66852
▁seriously	-8.66852
▁seeing	-8.66857
▁imagine	-8.66972
▁single	-8.66994
▁tired	-8.67139
▁groaning	-8.67146
▁spend	-8.67257
▁short	-8.67441
▁hospital	-8.67724
▁johnny	-8.67756
ve	-8.67903
▁definitely	-8.67941
▁deep	-8.682
▁private	-8.68259
▁unless	-8.68375
▁f	-8.6849
▁general	-8.68676
▁kept	-8.68772
▁giving	-8.68773
▁president	-8.68991
▁soul	-8.68993
▁turned	-8.69137
▁sally	-8.69252
▁attack	-8.69362
▁accident	-8.69538
▁aah	-8.69597
▁north	-8.69612
▁bird	-8.69711
▁window	-8.69844
▁lead	-8.69888
▁ring	-8.70089
▁je	-8.70097
▁except	-8.70439
▁forgot	-8.70452
▁dick	-8.70472
▁sad	-8.7059
▁cover	-8.70595
▁attention	-8.70881
▁lovely	-8.70955
▁explain	-8.71083
▁round	-8.71142
st	-8.71287
▁upon	-8.71318
▁seconds	-8.71655
▁changed	-8.71668
▁harry	-8.7174
u	-8.71897
▁mommy	-8.72032
▁rich	-8.72085
▁joe	-8.72085
▁expect	-8.72129
▁yall	-8.72191
▁honor	-8.72245
▁suppose	-8.72461
▁ground	-8.72688
▁cute	-8.72725
▁killing	-8.72921
▁church	-8.72993
ies	-8.73186
▁mistake	-8.73261
▁mess	-8.73276
▁motherfucker	-8.7333
▁message	-8.73333
▁throat	-8.73475
▁feels	-8.73483
▁busy	-8.73575
▁bro	-8.73608
▁report	-8.73622
▁professor	-8.73913
▁security	-8.73915
▁law	-8.73948
▁respect	-8.73996
▁dreams	-8.74255
f	-8.74273
▁horse	-8.74278
▁building	-8.74359
▁record	-8.74455
▁american	-8.74471
▁billy	-8.74514
▁standing	-8.74662
▁ice	-8.74687
▁stopped	-8.74837
▁totally	-8.74839
▁early	-8.74841
▁america	-8.74872
z	-8.75121
▁nine	-8.75198
▁sea	-8.75638
▁st	-8.75703
▁bar	-8.75705
▁sonny	-8.7571
le	-8.76105
▁enjoy	-8.7611
▁caught	-8.76134
▁age	-8.7635
▁sun	-8.7635
▁doc	-8.76409
▁saved	-8.76443
▁trip	-8.76724
▁club	-8.76726
▁worried	-8.77037
▁fish	-8.77096
▁ringing	-8.77325
▁push	-8.77474
▁hungry	-8.77494
▁pleasure	-8.77496
▁handle	-8.77889
▁paid	-8.77958
▁yep	-8.77964
▁takes	-8.78173
▁i	-8.78253
▁near	-8.78268
▁given	-8.78328
▁shouting	-8.78475
▁sell	-8.78585
▁tree	-8.7879
▁annie	-8.78875
▁fucked	-8.78909
▁doin	-8.78999
▁key	-8.79233
▁simple	-8.79287
▁cops	-8.79322
▁college	-8.79331
▁proud	-8.79698
▁band	-8.79781
▁al	-8.80112
▁dress	-8.8023
us	-8.80285
▁owe	-8.80421
▁names	-8.80442
▁marry	-8.80467
▁list	-8.80488
▁surprise	-8.81024
▁fool	-8.81155
▁system	-8.81159
▁suit	-8.81205
▁kick	-8.81206
▁join	-8.81645
▁clothes	-8.81677
▁gasping	-8.81786
▁hide	-8.81795
ion	-8.81829
▁knock	-8.82132
▁b	-8.82294
▁k	-8.82612
▁outta	-8.82635
▁bus	-8.82942
▁london	-8.83114
▁driving	-8.83115
▁box	-8.83146
▁roll	-8.83268
▁situation	-8.83597
▁in	-8.8391
▁tough	-8.83993
▁spent	-8.84083
▁quit	-8.84464
▁dying	-8.84571
▁sweetheart	-8.84572
▁hotel	-8.84619
▁present	-8.84637
▁forgive	-8.84986
re	-8.85009
▁wild	-8.8512
▁cop	-8.85166
▁burn	-8.8524
▁eh	-8.85377
▁miles	-8.85551
▁impossible	-8.85553
▁guard	-8.85872
▁glass	-8.8602
▁summer	-8.86084
▁offer	-8.86124
▁certainly	-8.86129
▁en	-8.86378
▁magic	-8.86399
▁wearing	-8.86423
▁language	-8.86586
▁russian	-8.866
▁bank	-8.86865
▁gold	-8.86917
▁moved	-8.86961
▁talked	-8.87009
▁favor	-8.87094
▁completely	-8.87108
▁keys	-8.87127
▁share	-8.87416
▁chatter	-8.87786
▁master	-8.87941
▁loud	-8.87945
▁rules	-8.88004
▁drunk	-8.88027
▁major	-8.88041
▁forward	-8.88062
▁goin	-8.88098
▁sky	-8.88101
▁ran	-8.88477
▁fell	-8.88509
▁dogs	-8.88543
▁machine	-8.8862
▁girlfriend	-8.88632
▁river	-8.88697
▁stu	-8.88715
▁bastard	-8.89143
▁tom	-8.89427
▁tight	-8.8947
▁uhhuh	-8.89584
▁cash	-8.89584
▁pack	-8.89597
▁green	-8.89707
▁papa	-8.89753
▁yesterday	-8.90099
▁shed	-8.90197
less	-8.90368
▁arm	-8.90452
▁peace	-8.90466
▁appreciate	-8.90472
▁realize	-8.90504
▁art	-8.90547
▁south	-8.90615
▁information	-8.90619
▁tommy	-8.90619
▁interesting	-8.90781
▁honest	-8.90936
▁dangerous	-8.91145
▁ben	-8.9121
able	-8.91229
▁paper	-8.91246
▁mission	-8.91293
▁personal	-8.91394
▁sitting	-8.91681
▁teach	-8.91778
▁service	-8.91781
▁denny	-8.91783
▁low	-8.91796
▁smoke	-8.91894
▁test	-8.91898
▁moon	-8.92168
▁finished	-8.9247
▁sake	-8.92853
▁mary	-8.92868
▁chattering	-8.93
▁brain	-8.93221
▁warm	-8.93336
▁gas	-8.93373
▁final	-8.93611
▁lock	-8.93672
▁charge	-8.93682
▁normal	-8.93699
▁lay	-8.93773
▁force	-8.93823
▁hero	-8.93824
▁joke	-8.93826
▁bell	-8.93982
▁walking	-8.94037
▁truck	-8.94041
▁shoes	-8.94217
▁wrote	-8.94321
▁foot	-8.94362
▁zo	-8.94376
na	-8.94535
▁rain	-8.94787
▁evil	-8.94863
▁hat	-8.94896
▁queen	-8.95011
▁hundred	-8.95033
▁plane	-8.95192
el	-8.95237
▁grand	-8.95293
▁station	-8.95381
▁lunch	-8.95399
▁plays	-8.95531
▁named	-8.95618
▁fighting	-8.95914
▁bought	-8.95952
▁instead	-8.95952
up	-8.96051
▁spot	-8.96138
▁park	-8.96405
▁bella	-8.9657
▁super	-8.96729
▁wouldve	-8.96904
▁third	-8.97054
▁broken	-8.97159
▁congratulations	-8.97609
▁stuck	-8.97615
▁re	-8.97616
▁west	-8.97687
▁arms	-8.98072
▁ho	-8.98073
▁video	-8.98168
▁folks	-8.98331
▁bob	-8.986
▁worst	-8.9873
▁bobby	-8.98742
▁board	-8.98778
▁battle	-8.98963
▁wedding	-8.98967
▁balls	-8.99007
▁jump	-8.99186
▁certain	-8.99194
▁alex	-8.99299
▁lying	-8.99309
▁gift	-8.99329
▁yelling	-8.9939
ll	-8.99503
▁field	-8.99575
▁prison	-8.99755
▁nose	-8.99917
by	-9.00148
▁e	-9.00192
▁hole	-9.00223
▁killer	-9.00237
▁leg	-9.00428
▁lights	-9.0048
▁interested	-9.0057
▁bear	-9.00643
▁birds	-9.00733
▁grace	-9.00749
▁smile	-9.01016
▁agree	-9.01139
▁ray	-9.01298
▁breath	-9.01396
▁army	-9.01712
▁chicken	-9.01872
▁learned	-9.01973
▁brothers	-9.02414
▁agent	-9.02463
▁planet	-9.02539
▁grow	-9.0257
▁chuckling	-9.02756
▁d	-9.02849
▁double	-9.02932
▁tape	-9.02977
▁legs	-9.03081
▁visit	-9.03145
▁hasnt	-9.03344
▁dumb	-9.03346
▁calls	-9.03409
▁pants	-9.03422
▁decided	-9.03436
▁lve	-9.03495
▁pal	-9.03505
▁buck	-9.03535
▁extra	-9.03596
▁engine	-9.03928
▁bathroom	-9.03934
ri	-9.03982
▁contact	-9.04254
▁choose	-9.04256
▁position	-9.04274
▁chris	-9.04477
▁listening	-9.0449
▁bunch	-9.04532
▁aye	-9.04548
▁een	-9.04583
▁afternoon	-9.05127
▁taste	-9.05405
▁difference	-9.05469
▁fit	-9.05499
▁begin	-9.05507
▁soft	-9.05593
▁marley	-9.05731
▁enzo	-9.05737
▁store	-9.05936
▁lived	-9.05948
▁weekend	-9.06093
▁lf	-9.06094
▁witch	-9.06298
▁angry	-9.06336
▁kitchen	-9.06349
out	-9.06529
▁aw	-9.06854
▁bigger	-9.06981
▁growls	-9.07026
▁princess	-9.07041
▁weapon	-9.07311
▁u	-9.07422
▁continue	-9.07801
▁boyfriend	-9.07957
▁destroy	-9.07962
▁exhales	-9.08176
▁sweetie	-9.08233
▁bomb	-9.08289
▁ii	-9.08312
▁nick	-9.08457
ation	-9.08596
▁reading	-9.08646
▁rid	-9.08799
▁cry	-9.09134
▁letter	-9.09366
▁lisa	-9.09423
▁memory	-9.09423
▁whatd	-9.09428
▁problems	-9.0953
▁match	-9.09535
▁feed	-9.09654
▁books	-9.09761
▁elephant	-9.09844
▁cheers	-9.0993
▁yells	-9.10002
ar	-9.10011
▁miyagi	-9.10051
▁twice	-9.10051
▁heavily	-9.10054
▁reach	-9.10078
▁gay	-9.10095
w	-9.10473
▁court	-9.10556
v	-9.10671
▁neck	-9.10686
▁dirty	-9.10745
▁babe	-9.11138
▁howd	-9.11222
▁upstairs	-9.11321
▁obviously	-9.11364
▁cross	-9.11444
▁camp	-9.11469
▁h	-9.11516
▁press	-9.11654
▁card	-9.11697
▁dollars	-9.11708
▁carry	-9.11765
▁flight	-9.11784
▁escape	-9.1182
▁corner	-9.11825
▁code	-9.11831
▁p	-9.11954
▁awesome	-9.11962
▁beach	-9.11965
▁strike	-9.12431
▁richard	-9.12437
ity	-9.12457
▁notice	-9.12465
▁dare	-9.12476
▁nervous	-9.12513
▁phil	-9.12562
▁excellent	-9.12607
▁neither	-9.12607
▁jail	-9.12611
▁quickly	-9.12774
▁pop	-9.1293
▁holding	-9.13003
▁wondering	-9.13039
▁idiot	-9.1307
▁thousand	-9.13093
▁spirit	-9.13094
▁apartment	-9.13095
▁camera	-9.13147
▁especially	-9.13257
▁everywhere	-9.1326
▁danny	-9.1326
▁within	-9.13263
▁stone	-9.13466
▁starts	-9.13578
▁hall	-9.13959
▁jacob	-9.14568
▁liked	-9.14769
▁whose	-9.14785
▁locked	-9.14817
▁color	-9.14895
▁starting	-9.14907
to	-9.15051
▁jones	-9.1513
▁mitch	-9.15229
▁incredible	-9.15231
▁scarlett	-9.15233
▁usually	-9.15283
▁ed	-9.15489
▁staying	-9.15497
▁awful	-9.15509
▁doubt	-9.15548
▁where	-9.15775
▁level	-9.15792
▁emergency	-9.15898
▁cheese	-9.15902
▁teeth	-9.15914
▁nuts	-9.16294
ur	-9.16347
▁promised	-9.16365
▁chief	-9.16568
▁shouldve	-9.16569
▁travel	-9.16646
▁julia	-9.16895
▁biggest	-9.17245
▁danger	-9.1726
▁group	-9.17451
▁lots	-9.17553
▁belong	-9.17609
▁action	-9.17847
▁admit	-9.17913
▁eating	-9.17923
▁colonel	-9.17924
▁michael	-9.17924
▁writing	-9.1795
▁using	-9.17969
▁pa	-9.18284
▁steal	-9.18329
▁monster	-9.18515
▁block	-9.18749
▁thinks	-9.19031
▁couldve	-9.19047
▁deserve	-9.19069
▁race	-9.19213
▁spanish	-9.19299
▁katie	-9.19342
ch	-9.19355
▁waste	-9.19505
▁besides	-9.19677
▁alarm	-9.19715
▁government	-9.19915
▁heaven	-9.19926
▁fresh	-9.19949
▁taught	-9.19993
▁detective	-9.19994
▁command	-9.20008
la	-9.20379
▁drinking	-9.20463
▁accept	-9.20469
▁arrest	-9.20489
ful	-9.20584
▁picked	-9.20656
▁beyond	-9.20693
▁marriage	-9.20693
▁whether	-9.20693
▁anna	-9.20819
▁mothers	-9.20993
ce	-9.21169
▁closed	-9.21337
▁type	-9.21358
▁following	-9.21538
▁figured	-9.21678
▁j	-9.21699
ness	-9.21714
▁speaks	-9.21867
▁sleeping	-9.21912
▁film	-9.21952
▁tea	-9.2204
▁beer	-9.22104
▁stories	-9.22106
▁silver	-9.22112
▁hoping	-9.22228
▁shame	-9.22406
▁greatest	-9.22416
▁victor	-9.22442
▁sal	-9.22679
▁beginning	-9.22823
▁putting	-9.22886
▁ex	-9.23098
▁wine	-9.23245
▁bloody	-9.23257
▁east	-9.23331
▁el	-9.23497
▁decision	-9.23515
▁charles	-9.23532
▁babies	-9.2354
▁enemy	-9.2354
▁evidence	-9.2354
▁bottom	-9.23543
▁military	-9.23549
▁interview	-9.23744
▁bite	-9.23765
▁an	-9.23918
lng	-9.23946
▁price	-9.24247
▁cousin	-9.24247
▁ridiculous	-9.24264
▁tony	-9.24288
▁teacher	-9.24373
th	-9.24442
um	-9.24819
▁lawyer	-9.2499
▁ghost	-9.24997
▁thunder	-9.25002
▁a	-9.25142
▁loves	-9.25207
▁z	-9.25496
▁prove	-9.25531
▁everythings	-9.25728
▁scene	-9.25729
▁lucas	-9.25812
▁rose	-9.25897
▁harold	-9.2647
▁plenty	-9.2647
▁janet	-9.26527
▁honestly	-9.26603
▁driver	-9.26642
▁r	-9.26936
▁complete	-9.26984
▁paris	-9.27201
▁crap	-9.27275
▁pete	-9.27327
▁softly	-9.27332
▁passed	-9.27589
▁computer	-9.27713
▁raise	-9.27827
▁risk	-9.27865
▁orders	-9.27934
▁thatll	-9.2797
▁edward	-9.28
▁monkey	-9.2801
▁copy	-9.28141
▁doors	-9.28206
▁states	-9.28565
▁difficult	-9.28592
▁consider	-9.28634
▁heavy	-9.28726
▁somehow	-9.28726
▁pressure	-9.28731
▁immediately	-9.28747
▁nature	-9.28774
▁area	-9.28776
▁clears	-9.28784
▁cup	-9.28812
▁dat	-9.2888
▁treat	-9.28932
▁dom	-9.28988
▁rings	-9.29258
▁william	-9.2928
▁butt	-9.29387
▁horn	-9.29414
▁dramatic	-9.29484
▁built	-9.29489
▁nowhere	-9.2949
▁ugh	-9.29519
▁suck	-9.29747
▁shop	-9.29927
▁rule	-9.30116
▁public	-9.3014
▁malcolm	-9.30259
▁lieutenant	-9.3026
▁breakfast	-9.30261
▁soldier	-9.3034
▁losing	-9.30381
▁hiding	-9.304
▁gives	-9.30407
▁gods	-9.30878
▁stole	-9.30972
▁games	-9.3099
▁turns	-9.31341
ous	-9.31401
▁address	-9.31531
▁tires	-9.31561
▁blame	-9.31671
▁survive	-9.31672
▁judge	-9.317
▁ought	-9.31752
▁practice	-9.31815
▁support	-9.31816
▁plus	-9.31817
▁madame	-9.31906
▁beth	-9.31931
▁n	-9.32043
▁football	-9.32067
▁o	-9.3215
▁keeping	-9.32156
▁cook	-9.32207
▁allow	-9.32219
▁seemed	-9.32353
▁matt	-9.32451
▁plans	-9.32469
▁excited	-9.32517
▁steve	-9.32536
▁bull	-9.32557
▁upset	-9.32599
▁sugar	-9.32602
▁brave	-9.32608
▁bernie	-9.32609
▁cream	-9.32624
▁dean	-9.32632
▁screeching	-9.3267
▁skin	-9.32685
▁egg	-9.32703
▁account	-9.32712
▁student	-9.32718
▁crime	-9.32721
▁jim	-9.32723
ro	-9.32765
▁wet	-9.32776
▁faster	-9.32874
▁showed	-9.32982
▁mum	-9.3301
ta	-9.33173
▁heat	-9.33194
▁loose	-9.33226
▁stars	-9.33302
▁often	-9.33397
▁jerry	-9.33399
▁wherever	-9.33401
▁pictures	-9.33571
▁deeply	-9.33575
▁played	-9.3362
▁guns	-9.33687
▁older	-9.33708
▁search	-9.33718
ist	-9.33786
▁correct	-9.33839
▁snow	-9.33897
▁saturday	-9.34196
▁lonely	-9.34204
▁famous	-9.3422
▁lies	-9.34292
▁ends	-9.34509
▁size	-9.34605
▁map	-9.34919
▁faith	-9.34937
▁eve	-9.34967
▁teddy	-9.35005
▁richie	-9.35137
▁conversation	-9.35153
▁pretend	-9.3533
▁bucks	-9.35378
▁crew	-9.35483
▁bother	-9.35497
▁roof	-9.35814
▁asleep	-9.35816
▁dancing	-9.35816
▁theyd	-9.35832
ia	-9.35868
▁partner	-9.35997
▁circle	-9.36117
▁fill	-9.36136
▁mayor	-9.36182
▁mij	-9.36267
ne	-9.36336
▁sean	-9.36541
▁nah	-9.36567
▁willing	-9.36634
▁became	-9.36635
▁duke	-9.3664
▁molly	-9.3665
▁sold	-9.3666
▁experience	-9.36675
▁lan	-9.3674
▁beeping	-9.3679
▁purpose	-9.36808
▁village	-9.37057
▁goodness	-9.37223
▁launch	-9.37254
▁lift	-9.37291
▁gosh	-9.3743
▁thou	-9.37475
▁held	-9.3749
▁aunt	-9.37582
▁cars	-9.37586
▁player	-9.37618
▁animal	-9.37659
▁san	-9.37976
▁main	-9.38133
▁du	-9.38147
▁brian	-9.38287
▁sydney	-9.38295
▁science	-9.38295
▁department	-9.38297
▁apparently	-9.38302
▁guest	-9.38507
▁heads	-9.38543
▁growing	-9.38679
▁knocking	-9.38766
▁per	-9.38917
▁mention	-9.3895
▁weak	-9.39007
▁joy	-9.39031
▁movies	-9.3921
▁punch	-9.39455
▁speed	-9.39495
▁sight	-9.39508
▁breaking	-9.39607
▁program	-9.39957
▁common	-9.39962
▁apologize	-9.39983
▁indeed	-9.39983
▁hadnt	-9.39983
▁stephen	-9.39987
▁kevin	-9.39993
▁angel	-9.40065
ass	-9.40114
▁fan	-9.40227
▁base	-9.40244
▁mountain	-9.4036
▁interest	-9.40379
▁build	-9.40553
▁farm	-9.40576
▁spoke	-9.40775
ment	-9.40848
▁fake	-9.40856
▁mate	-9.41
▁target	-9.4109
▁closer	-9.41163
▁ms	-9.4128
▁lied	-9.41366
▁acting	-9.41461
▁devil	-9.41491
▁apart	-9.41568
▁ld	-9.4159
rs	-9.41595
▁jungle	-9.417
▁elizabeth	-9.417
▁possibly	-9.41704
▁rome	-9.41741
▁te	-9.41783
▁allowed	-9.41922
▁stage	-9.42022
▁weapons	-9.42038
▁hanging	-9.42056
▁due	-9.42114
▁bright	-9.42436
▁training	-9.42495
▁freedom	-9.4257
▁het	-9.42601
▁growling	-9.42601
▁gary	-9.42622
▁united	-9.42716
▁co	-9.42741
▁roger	-9.42851
▁pray	-9.42859
▁shower	-9.42882
▁gotten	-9.42888
▁professional	-9.42919
▁crash	-9.42929
▁draw	-9.43015
▁tail	-9.43358
▁w	-9.43378
▁opens	-9.43402
▁empty	-9.43446
▁insane	-9.43446
▁remind	-9.43448
▁jason	-9.4345
▁whispering	-9.43496
▁dan	-9.43537
▁walked	-9.43539
▁decide	-9.43588
ling	-9.43679
▁surprised	-9.43711
▁cost	-9.44078
it	-9.44277
▁ryan	-9.44331
▁however	-9.44332
▁niet	-9.44334
▁huge	-9.44383
▁warning	-9.44462
▁robert	-9.44493
▁note	-9.44507
▁dig	-9.44511
▁feelings	-9.44532
▁post	-9.44554
▁operation	-9.44595
ng	-9.44633
ra	-9.44707
▁drugs	-9.44733
▁places	-9.44878
▁animals	-9.45015
▁helen	-9.4514
▁flying	-9.45161
▁strength	-9.45198
▁majesty	-9.45224
▁ate	-9.45225
▁pool	-9.45249
▁center	-9.45273
▁horses	-9.45397
▁sword	-9.45523
▁rat	-9.45599
li	-9.45729
▁grandma	-9.45918
▁focus	-9.45922
▁prepare	-9.45983
▁susan	-9.46112
▁sergeant	-9.46125
▁nope	-9.46128
▁comfortable	-9.46132
▁amen	-9.46149
▁involved	-9.46156
▁jane	-9.462
▁bridge	-9.4642
▁caesar	-9.46463
▁relationship	-9.46465
▁cake	-9.46471
▁piss	-9.46529
ive	-9.46535
▁screw	-9.46554
▁fathers	-9.46785
▁harder	-9.46813
▁ruin	-9.46834
▁helping	-9.4697
▁ugly	-9.47034
▁italian	-9.47035
▁rachel	-9.47036
▁scary	-9.47113
▁carl	-9.47127
▁powerful	-9.47143
▁sisters	-9.47387
▁belt	-9.47408
▁tie	-9.4743
▁woods	-9.47447
▁da	-9.47531
▁genius	-9.47908
▁large	-9.4791
▁pregnant	-9.47952
▁pardon	-9.47952
▁earlier	-9.47953
▁yellow	-9.47955
▁shake	-9.48003
▁numbers	-9.48004
▁suddenly	-9.48015
▁se	-9.48113
sh	-9.48236
▁bottle	-9.48331
▁track	-9.48485
te	-9.48584
▁freak	-9.48613
▁t	-9.48634
▁rough	-9.48781
▁russell	-9.48878
▁literally	-9.48883
▁milk	-9.48902
▁chain	-9.49076
▁v	-9.49181
▁keeps	-9.49325
▁paying	-9.49637
▁cares	-9.49683
▁kinda	-9.49739
▁penny	-9.49816
▁innocent	-9.49817
▁sobbing	-9.49823
ter	-9.50209
▁dressed	-9.50219
▁blind	-9.50548
▁opening	-9.50576
▁students	-9.50619
▁total	-9.50667
▁sarge	-9.50756
▁truly	-9.50756
▁distance	-9.50771
▁coat	-9.50816
▁form	-9.50831
▁ls	-9.50851
▁dry	-9.50952
and	-9.51141
▁turning	-9.51224
▁pen	-9.51321
▁candy	-9.5169
▁beg	-9.51695
▁opportunity	-9.51708
▁grew	-9.51709
▁beauty	-9.51715
▁linda	-9.51717
▁zach	-9.51724
▁foreign	-9.5182
ry	-9.51952
▁lake	-9.51986
▁shirt	-9.52162
▁repeat	-9.52174
ish	-9.52383
is	-9.5258
▁romantic	-9.52671
▁meat	-9.52674
▁castle	-9.52678
▁thee	-9.52729
▁letting	-9.52829
▁bones	-9.52876
▁exist	-9.52936
▁whispers	-9.52978
▁bringing	-9.53038
▁worlds	-9.53129
▁murdered	-9.53162
▁trick	-9.53342
▁serve	-9.53389
▁mans	-9.53392
▁hardly	-9.53464
▁watched	-9.53606
▁suggest	-9.53614
ton	-9.53639
▁downstairs	-9.5364
▁fortune	-9.5364
▁otherwise	-9.5364
▁announcer	-9.53658
▁guilty	-9.5368
▁barely	-9.53695
▁les	-9.53781
▁flowers	-9.53787
il	-9.54017
▁fingers	-9.54129
▁finger	-9.54137
▁file	-9.54299
▁witness	-9.54375
▁study	-9.54401
▁gate	-9.54467
▁although	-9.54621
▁split	-9.54622
▁maisie	-9.54623
▁brown	-9.54629
▁written	-9.54638
▁weight	-9.54646
▁scoffs	-9.54731
▁del	-9.54744
▁records	-9.54925
▁letters	-9.55034
▁storm	-9.55107
▁pocket	-9.55124
▁noise	-9.55126
▁lines	-9.55131
▁wave	-9.55199
▁rent	-9.55483
▁hook	-9.55551
▁prefer	-9.55607
▁horrible	-9.55611
▁sheriff	-9.55611
▁byebye	-9.55611
▁whoever	-9.55611
▁neighborhood	-9.55611
▁ashley	-9.55612
▁gentleman	-9.55627
▁birth	-9.55631
▁fired	-9.55914
▁saving	-9.56131
▁jacket	-9.56178
▁signal	-9.56264
▁falling	-9.56488
▁flat	-9.56604
▁california	-9.56611
▁thomas	-9.56611
▁friday	-9.56611
▁midnight	-9.56611
▁finn	-9.56612
▁scream	-9.56618
▁path	-9.56626
▁duty	-9.56627
▁er	-9.56643
▁rick	-9.56739
▁hunt	-9.57089
▁restaurant	-9.57138
▁pizza	-9.57138
▁beast	-9.57158
▁metal	-9.57172
▁introduce	-9.57479
▁familiar	-9.57621
▁fantasy	-9.57621
▁airport	-9.57633
▁silly	-9.57634
▁credit	-9.57647
▁june	-9.5765
▁director	-9.57662
▁jr	-9.57681
▁male	-9.57724
▁arrived	-9.57766
▁commander	-9.5781
▁plant	-9.57929
j	-9.58097
▁local	-9.58173
at	-9.58264
▁ears	-9.583
▁hm	-9.5842
▁assume	-9.58498
▁self	-9.58551
▁nothin	-9.58619
▁weather	-9.58622
▁exciting	-9.58641
▁kingdom	-9.58641
▁threw	-9.58642
▁caleb	-9.58642
▁wailing	-9.58642
▁row	-9.58741
▁talkin	-9.5883
▁helped	-9.5886
▁shows	-9.59139
▁prince	-9.59211
▁bless	-9.59229
▁expecting	-9.59283
▁rush	-9.59399
ty	-9.59408
▁papers	-9.59471
▁health	-9.59557
▁advice	-9.59672
▁female	-9.59672
▁research	-9.59672
▁mmmhmm	-9.59674
▁larry	-9.59678
▁trees	-9.5985
▁noticed	-9.599
▁discuss	-9.60207
▁spread	-9.60439
men	-9.60441
id	-9.60462
▁guards	-9.60665
▁lucy	-9.60715
▁afford	-9.60715
▁fancy	-9.60717
▁heh	-9.6072
▁clock	-9.6072
▁fantastic	-9.60723
▁whyd	-9.60727
▁medical	-9.60743
▁safety	-9.60751
▁alan	-9.60758
▁burned	-9.61146
▁regret	-9.61339
▁moms	-9.61393
▁eggs	-9.61506
ah	-9.61534
▁freeze	-9.61742
▁knife	-9.61767
▁suicide	-9.61767
▁brilliant	-9.61767
▁simply	-9.61767
▁junior	-9.61784
▁yeh	-9.618
▁coughing	-9.61829
▁crack	-9.61843
▁agreed	-9.62027
ge	-9.62038
▁stayed	-9.62094
▁patient	-9.62343
▁bullet	-9.62359
▁mirror	-9.62411
▁alien	-9.6243
▁button	-9.62442
▁drug	-9.62446
▁harm	-9.62587
▁anthony	-9.6283
▁bilbo	-9.6283
▁monsieur	-9.6283
▁understood	-9.6283
▁tiny	-9.6288
▁invited	-9.62941
▁brains	-9.62952
▁hurts	-9.62984
am	-9.62991
▁banging	-9.63035
▁wash	-9.63241
▁nigga	-9.63506
▁paint	-9.63519
▁fella	-9.63648
▁gentle	-9.63671
▁martin	-9.6368
▁madam	-9.63805
▁natural	-9.63812
▁twenty	-9.63895
▁lebron	-9.63906
▁universe	-9.63906
▁skipper	-9.63908
▁easier	-9.63909
▁todd	-9.63911
▁dawn	-9.63916
▁greg	-9.63916
▁nurse	-9.63926
▁nearly	-9.64125
▁smells	-9.64179
▁grown	-9.64197
▁fellas	-9.64314
▁op	-9.64371
▁mask	-9.64379
▁switch	-9.64461
▁chair	-9.64581
▁opinion	-9.64585
▁view	-9.64606
▁closet	-9.64691
▁cindy	-9.64993
▁kelly	-9.64993
▁terrific	-9.64993
▁bodies	-9.64996
▁cj	-9.65013
▁handsome	-9.65017
▁inhales	-9.651
▁up	-9.65248
▁remain	-9.65444
▁bond	-9.6559
▁matters	-9.65591
▁trade	-9.65668
▁ticket	-9.65722
x	-9.65741
▁pulled	-9.65891
ted	-9.65984
ey	-9.65991
▁stan	-9.65993
▁pink	-9.66077
▁pro	-9.66086
▁mostly	-9.66092
▁howard	-9.66094
▁jeff	-9.66098
▁dropped	-9.66109
▁tells	-9.66126
▁approaching	-9.66216
▁national	-9.66253
▁hearing	-9.663
▁sexy	-9.66545
▁tower	-9.66843
▁subject	-9.66859
▁career	-9.66868
▁sharp	-9.67117
▁fought	-9.67203
▁particular	-9.67203
▁simba	-9.67206
▁property	-9.67209
▁society	-9.6721
▁pussy	-9.67215
▁yearold	-9.6726
▁zero	-9.67282
▁concerned	-9.67346
▁rey	-9.67434
ma	-9.67538
▁destroyed	-9.6757
▁clearly	-9.67636
▁suspect	-9.67763
ant	-9.67764
▁con	-9.67784
▁tongue	-9.67958
▁whore	-9.67959
▁spell	-9.6797
▁knees	-9.68107
▁leader	-9.68202
▁wise	-9.68233
▁shine	-9.68256
▁m	-9.68272
▁mmhm	-9.68299
▁chinese	-9.68326
▁buried	-9.68327
▁danielsan	-9.68327
▁sunday	-9.68334
▁forest	-9.68343
▁neil	-9.68393
▁tara	-9.68744
▁swing	-9.68768
▁fate	-9.69223
▁release	-9.69319
▁toast	-9.6937
▁wide	-9.69456
▁dis	-9.69458
▁cancer	-9.69463
▁texas	-9.69463
▁whenever	-9.69463
▁vincent	-9.69467
▁baseball	-9.69467
▁pieces	-9.6947
▁bedroom	-9.69476
▁mister	-9.695
▁itd	-9.69506
▁square	-9.69552
▁tense	-9.69579
▁kate	-9.69613
ate	-9.69881
▁odd	-9.69937
▁ear	-9.69966
▁wood	-9.70118
▁score	-9.70134
▁awake	-9.70178
▁pig	-9.70186
▁nigger	-9.70284
ent	-9.70462
▁shape	-9.70463
▁chest	-9.70536
▁brenda	-9.70549
▁vacation	-9.70612
▁energy	-9.70622
▁beeps	-9.70639
▁manager	-9.70676
da	-9.70695
▁ships	-9.70701
▁buzzing	-9.70701
▁lab	-9.70832
▁headed	-9.70974
▁pie	-9.71002
▁stops	-9.71135
▁contract	-9.71153
▁expected	-9.71156
▁jerk	-9.71173
▁eli	-9.71259
▁march	-9.71431
▁character	-9.71468
▁adam	-9.7147
▁lesson	-9.71548
▁bust	-9.71658
▁pet	-9.71672
▁florida	-9.71775
▁rumbling	-9.71775
▁nancy	-9.71775
▁responsible	-9.71776
▁merry	-9.71776
▁cady	-9.71777
▁allen	-9.71804
▁stolen	-9.71868
▁royal	-9.7195
▁powers	-9.72014
▁believed	-9.72052
▁x	-9.72058
▁lower	-9.7208
▁everybodys	-9.72369
▁market	-9.72376
▁nights	-9.72522
▁wizard	-9.7263
▁robot	-9.72641
▁liar	-9.72645
▁pair	-9.72647
▁fellow	-9.72655
▁ge	-9.72799
▁rescue	-9.72826
▁dirt	-9.72845
▁mo	-9.72889
▁usual	-9.72898
▁swim	-9.72947
▁whirring	-9.72951
▁audience	-9.72952
▁style	-9.73
▁failed	-9.73126
▁hill	-9.73149
▁closes	-9.73307
▁realized	-9.73323
▁text	-9.7336
▁thy	-9.73401
▁joan	-9.73436
▁covered	-9.73516
▁meaning	-9.7373
▁chick	-9.7373
▁kat	-9.73797
▁ended	-9.73822
▁elevator	-9.7383
▁eagle	-9.73852
▁winter	-9.73882
▁jo	-9.74107
▁tess	-9.74112
▁percent	-9.74138
▁insurance	-9.74142
▁license	-9.74142
▁chicago	-9.74142
▁jenny	-9.74143
▁onto	-9.74153
▁according	-9.74163
▁boring	-9.74184
▁naked	-9.74236
▁sending	-9.7429
▁ln	-9.74442
one	-9.74875
▁signed	-9.74899
▁scare	-9.74963
▁gasp	-9.75009
▁trained	-9.75018
▁pilot	-9.75086
▁settle	-9.75176
▁secure	-9.75204
▁followed	-9.75231
▁regular	-9.7525
▁india	-9.75269
▁butler	-9.75347
▁aware	-9.75352
▁rise	-9.75445
▁lily	-9.7546
▁opened	-9.75469
ow	-9.75665
▁sat	-9.75698
be	-9.75893
▁returned	-9.75974
▁request	-9.76092
▁ted	-9.76169
▁toilet	-9.76293
▁client	-9.76316
▁shoulder	-9.76316
▁recognize	-9.76419
▁somethin	-9.76544
▁courage	-9.76557
▁stomach	-9.76566
▁esther	-9.76567
▁downtown	-9.76567
▁washington	-9.76568
▁chill	-9.76569
▁diane	-9.7657
▁clay	-9.76574
▁wicked	-9.76586
▁josh	-9.76597
▁doctors	-9.76751
der	-9.76769
▁shooting	-9.76921
▁simon	-9.77008
▁bone	-9.77134
go	-9.77188
▁load	-9.77365
time	-9.77376
▁bags	-9.77541
ian	-9.77553
▁tear	-9.77631
▁secrets	-9.77683
▁sucks	-9.77688
▁proper	-9.77717
▁boom	-9.77773
▁among	-9.77783
▁cruel	-9.77794
▁gandalf	-9.77801
▁someday	-9.77801
▁stood	-9.77801
▁piano	-9.77801
▁assistant	-9.77803
▁julie	-9.77804
▁claire	-9.77805
▁nina	-9.77808
▁sarah	-9.77814
▁holly	-9.77827
▁created	-9.77942
▁milo	-9.77957
▁raised	-9.78036
▁dads	-9.78161
▁coughs	-9.78202
▁grade	-9.78206
ee	-9.78341
▁sooner	-9.78436
▁talent	-9.78615
▁create	-9.78655
▁borrow	-9.78845
▁jet	-9.79002
▁europe	-9.79032
▁donnie	-9.79051
▁disgusting	-9.79083
▁fort	-9.79117
▁somebodys	-9.79266
▁sim	-9.79336
▁sand	-9.79546
▁lou	-9.7959
▁burning	-9.7974
▁cock	-9.79822
▁rip	-9.79885
son	-9.79904
▁sacrifice	-9.79937
▁bath	-9.80022
▁produce	-9.80105
▁winner	-9.80115
▁model	-9.80185
▁wat	-9.80199
▁social	-9.80201
▁fucker	-9.80301
▁traffic	-9.80312
▁oclock	-9.80316
▁clever	-9.80317
▁permission	-9.80317
▁prime	-9.80324
▁laid	-9.80384
▁pot	-9.80785
▁checked	-9.80815
▁nobodys	-9.80915
▁lion	-9.8093
▁virgin	-9.80953
▁rolling	-9.81032
▁tip	-9.81278
just	-9.81286
▁indian	-9.81375
▁prick	-9.81384
▁louis	-9.81445
▁soldiers	-9.81471
▁flower	-9.8151
▁heading	-9.81557
im	-9.81564
▁clark	-9.81597
▁complicated	-9.81599
▁memories	-9.81599
▁responsibility	-9.81599
▁monday	-9.81599
▁desk	-9.816
▁joking	-9.81603
▁confused	-9.81618
▁friendship	-9.81627
▁marie	-9.81773
▁personally	-9.81871
▁slowly	-9.81956
▁salt	-9.81973
▁showing	-9.81976
▁cos	-9.82075
off	-9.82136
▁lee	-9.82192
▁unit	-9.82364
ally	-9.82401
▁over	-9.82442
▁condition	-9.82445
▁everyones	-9.82488
▁chase	-9.82547
age	-9.82611
▁voices	-9.82654
▁points	-9.82675
▁giant	-9.82695
▁rope	-9.82734
▁plate	-9.82747
▁nation	-9.8282
▁ancient	-9.82897
▁route	-9.82898
▁governor	-9.829
land	-9.82908
▁nasty	-9.8291
▁began	-9.82925
▁prepared	-9.83103
▁panic	-9.834
oo	-9.83484
▁higher	-9.83539
▁ja	-9.83683
▁oil	-9.83686
▁dump	-9.83739
as	-9.83741
▁direct	-9.83758
▁si	-9.83913
▁issue	-9.83932
▁vehicle	-9.8405
▁gunshot	-9.84063
▁schedule	-9.84069
▁original	-9.84133
▁equipment	-9.84213
▁necessary	-9.84213
▁precious	-9.84213
▁revenge	-9.84213
▁example	-9.84214
▁england	-9.84214
▁smoking	-9.84214
▁whimpering	-9.84222
mo	-9.84224
▁hail	-9.84389
▁wade	-9.84455
▁cab	-9.84622
▁scar	-9.8467
▁armed	-9.8475
▁lips	-9.84801
ier	-9.84875
▁enter	-9.84931
▁trash	-9.85333
▁tour	-9.85372
▁clown	-9.85401
▁desire	-9.85405
▁curse	-9.85405
▁jealous	-9.85432
▁mood	-9.85465
▁federal	-9.85504
▁speech	-9.85505
▁adrian	-9.85546
▁gllllan	-9.85546
▁rhett	-9.85546
▁wolf	-9.85547
▁expensive	-9.85547
▁cohen	-9.85548
▁staff	-9.8555
▁fbi	-9.85553
▁mercy	-9.85554
▁location	-9.85556
▁loving	-9.85557
▁champion	-9.85561
▁anne	-9.85573
▁unfortunately	-9.8558
▁fourth	-9.85639
▁dust	-9.85652
▁ca	-9.85721
▁hired	-9.85756
▁tied	-9.85801
os	-9.85853
▁filled	-9.85922
▁streets	-9.85981
▁gettin	-9.86118
▁fixed	-9.86325
▁lately	-9.86445
▁walls	-9.86511
▁knowing	-9.86552
▁screen	-9.86638
▁coward	-9.86661
▁intend	-9.86691
▁spring	-9.86774
▁sudden	-9.86805
▁shots	-9.86872
▁fruit	-9.86886
▁access	-9.86897
▁desert	-9.86898
▁pride	-9.86901
▁silence	-9.86902
▁edge	-9.86913
▁chirping	-9.86915
▁basement	-9.86916
▁lightning	-9.86917
▁fleet	-9.86929
▁page	-9.86975
▁auntie	-9.87001
▁bleeding	-9.87028
de	-9.87092
▁ocean	-9.87176
▁tall	-9.87288
head	-9.87319
▁reached	-9.87336
▁perfectly	-9.87448
▁fail	-9.87651
▁younger	-9.87729
▁towards	-9.87747
▁garden	-9.87796
lo	-9.87807
▁jam	-9.87898
▁cap	-9.87912
▁bike	-9.88103
▁invite	-9.88126
▁shield	-9.88134
▁obvious	-9.88175
▁season	-9.88185
▁cleaning	-9.88217
ary	-9.88239
▁gross	-9.88248
▁slap	-9.88261
▁council	-9.88268
▁hazel	-9.88268
▁jessica	-9.88268
▁museum	-9.88268
▁gerry	-9.8827
▁basically	-9.88271
▁forgotten	-9.88279
▁amy	-9.88318
▁footsteps	-9.8832
▁chanting	-9.88322
▁grant	-9.88372
▁waited	-9.88398
ni	-9.88438
▁belongs	-9.88483
▁roars	-9.88776
▁sweat	-9.88928
▁wheel	-9.89134
▁climb	-9.89177
▁bow	-9.89193
▁project	-9.89346
▁ad	-9.89468
▁corn	-9.89508
▁vision	-9.89545
▁tiger	-9.89565
▁chocolate	-9.89565
▁source	-9.89572
▁spare	-9.89613
▁arthur	-9.89656
▁period	-9.89656
▁telephone	-9.89657
▁greville	-9.89657
▁justice	-9.89657
▁mouse	-9.89659
▁whatre	-9.89659
▁christian	-9.89675
▁jackson	-9.89717
▁zone	-9.89741
▁sandy	-9.89785
▁entirely	-9.89993
▁mighty	-9.90187
▁siren	-9.90283
▁gus	-9.90312
▁attacked	-9.90332
et	-9.90369
ad	-9.90397
▁pan	-9.90588
▁blast	-9.90623
▁answers	-9.90725
▁process	-9.90762
▁success	-9.90775
▁someones	-9.90789
▁checking	-9.90849
▁touched	-9.9085
▁german	-9.90901
▁officers	-9.90907
▁damage	-9.90925
▁firm	-9.90966
▁maid	-9.90973
▁exact	-9.90976
▁magazine	-9.90997
▁france	-9.91005
▁lars	-9.91032
▁drag	-9.91035
▁flesh	-9.91064
▁alert	-9.91065
▁grateful	-9.91065
▁curious	-9.91066
▁parts	-9.91068
▁connie	-9.91074
▁fence	-9.91076
▁eep	-9.91076
▁winning	-9.91105
▁impressive	-9.91117
▁rusty	-9.91133
▁golden	-9.91135
▁uhoh	-9.91147
▁latin	-9.91207
▁cameras	-9.91428
▁surely	-9.91466
▁tickets	-9.91545
▁leaves	-9.91584
ig	-9.91766
▁bugs	-9.9196
▁pleased	-9.91982
▁stock	-9.9222
▁ruth	-9.92317
▁beep	-9.92373
▁drinks	-9.92424
▁creature	-9.92458
▁defense	-9.92479
▁no	-9.92479
▁mail	-9.92479
▁ashamed	-9.92494
▁happiness	-9.92494
▁skull	-9.92494
▁patrick	-9.92494
▁zijn	-9.92494
▁conrad	-9.92495
▁unbelievable	-9.92496
▁mgan	-9.92502
▁voor	-9.92505
▁marvin	-9.92507
▁guardian	-9.9251
▁planning	-9.9251
▁taxi	-9.92515
▁laughter	-9.9252
▁fred	-9.92563
▁hunter	-9.92579
un	-9.92583
▁brooks	-9.92634
▁cave	-9.92654
▁rocks	-9.92697
▁reporter	-9.92724
▁cub	-9.92768
▁painting	-9.92828
▁vote	-9.92957
ul	-9.93157
▁daughters	-9.93553
ism	-9.93652
▁spy	-9.93734
▁physical	-9.93848
▁rare	-9.93896
way	-9.93907
▁comin	-9.93941
▁dorothy	-9.93943
▁garbage	-9.93943
▁harris	-9.93943
▁journey	-9.93943
▁potter	-9.93954
▁troy	-9.93965
▁secretary	-9.93968
▁title	-9.93969
▁bread	-9.9397
▁setting	-9.93977
▁mi	-9.94098
▁wing	-9.94116
▁sons	-9.94131
▁moves	-9.94226
▁mile	-9.94256
▁artist	-9.94465
▁hug	-9.94503
▁ideas	-9.94662
▁sports	-9.94786
▁bang	-9.94898
▁disappear	-9.94913
▁ohh	-9.95208
▁jobs	-9.95256
▁tune	-9.95267
▁refuse	-9.9527
▁riley	-9.95387
▁cowboy	-9.95389
▁clue	-9.95405
▁selina	-9.95413
▁jonathan	-9.95414
▁michelle	-9.95414
▁twelve	-9.95415
▁nightmare	-9.95416
▁mookie	-9.9542
▁gang	-9.95423
▁photo	-9.95438
▁woke	-9.95438
▁cow	-9.95457
line	-9.95463
▁whimpers	-9.95469
▁archer	-9.95507
▁pity	-9.95528
▁glasses	-9.95531
▁systems	-9.95556
▁families	-9.95669
ine	-9.95694
▁wha	-9.95699
ga	-9.95709
▁stronger	-9.95795
co	-9.958
▁event	-9.95908
▁lookin	-9.95968
▁ne	-9.96049
▁riding	-9.96058
▁highly	-9.962
▁tap	-9.9635
▁counting	-9.96397
▁finding	-9.9654
▁iii	-9.9668
▁port	-9.96726
▁image	-9.96794
▁pee	-9.96855
▁appointment	-9.96902
▁punk	-9.96903
▁eventually	-9.96906
▁illegal	-9.96907
▁lenny	-9.96907
▁slide	-9.96913
▁practical	-9.96913
▁hidden	-9.96924
▁booth	-9.96924
▁diamond	-9.96935
▁creatures	-9.96943
▁jamie	-9.96963
▁quarter	-9.96978
▁sue	-9.9698
▁rocket	-9.97018
▁writer	-9.97154
▁hunting	-9.9731
ci	-9.97353
ance	-9.97411
▁pure	-9.97587
ha	-9.97671
▁grave	-9.97674
▁deliver	-9.97796
▁brings	-9.97853
ver	-9.97854
▁di	-9.97992
▁guests	-9.98045
▁ron	-9.98251
▁cheap	-9.98309
▁doug	-9.98403
▁pepper	-9.98418
▁attitude	-9.98421
▁avoid	-9.98421
▁guitar	-9.98421
▁margaret	-9.98421
▁mexico	-9.98421
▁mowgli	-9.98421
▁spongebob	-9.98421
▁television	-9.98422
▁unknown	-9.98423
▁several	-9.98425
▁community	-9.98426
▁cunt	-9.98428
▁divine	-9.98432
▁criminal	-9.98468
▁standard	-9.98468
▁protection	-9.98482
▁bound	-9.98507
▁embarrassing	-9.98531
ai	-9.98534
▁barking	-9.98535
▁received	-9.98553
▁pulling	-9.98557
▁disappeared	-9.98631
▁pissed	-9.98763
▁lad	-9.98765
per	-9.98823
▁reports	-9.98928
▁lap	-9.98995
▁sin	-9.99242
▁bush	-9.99491
▁ahh	-9.99568
▁blowing	-9.99655
▁guarantee	-9.99814
▁beating	-9.99875
▁audrey	-9.99959
▁destiny	-9.99959
▁hassan	-9.99959
▁including	-9.99959
▁tuesday	-9.99959
▁slept	-9.9996
▁miracle	-9.99967
▁gemma	-9.99968
▁moaning	-10
▁honking	-10.0002
▁device	-10.0002
▁proof	-10.0002
▁effect	-10.0002
▁league	-10.0004
▁yard	-10.0013
▁prisoner	-10.0027
▁lance	-10.0031
▁cards	-10.0046
▁bum	-10.005
▁blows	-10.005
▁pre	-10.006
▁parking	-10.0072
▁toy	-10.0074
▁useless	-10.0087
▁led	-10.0092
▁suffer	-10.0098
▁singer	-10.012
▁loss	-10.0127
▁concern	-10.014
▁chuck	-10.0143
▁throwing	-10.0145
▁giggling	-10.0152
▁gloria	-10.0152
▁incident	-10.0152
▁lawrence	-10.0152
▁material	-10.0152
▁trapped	-10.0153
▁blew	-10.0153
▁laura	-10.0153
▁china	-10.0154
▁engaged	-10.0159
▁connection	-10.0161
▁priest	-10.0161
▁spider	-10.0162
▁apple	-10.0163
▁dragon	-10.0164
▁sa	-10.0178
▁tears	-10.0184
om	-10.0184
▁ruined	-10.0187
▁yee	-10.0187
▁ways	-10.0192
▁joey	-10.0194
▁iron	-10.0198
▁waters	-10.0207
▁kicked	-10.022
▁doll	-10.0237
▁ar	-10.0237
▁coast	-10.0253
▁pounds	-10.0256
▁staring	-10.0261
tic	-10.0264
▁yell	-10.0277
▁cal	-10.0278
▁remembered	-10.0291
▁scott	-10.0294
▁sexual	-10.0301
▁squad	-10.0311
▁amount	-10.0311
▁mcqueen	-10.0311
▁plankton	-10.0311
▁gorgeous	-10.0311
▁mallory	-10.0311
▁ease	-10.0311
▁closing	-10.0311
▁rude	-10.0311
▁anger	-10.0312
▁nonsense	-10.0312
▁decent	-10.0313
▁recently	-10.0315
▁goat	-10.032
▁miller	-10.0321
▁likely	-10.0321
▁sometime	-10.0324
▁sirens	-10.0325
▁lack	-10.0327
▁charming	-10.0327
▁maria	-10.0337
▁meal	-10.0344
▁screwed	-10.0347
▁bitches	-10.0352
▁picking	-10.0353
▁gru	-10.0354
▁county	-10.0355
▁changes	-10.036
▁fairy	-10.0365
▁mc	-10.0397
▁hop	-10.0423
▁crush	-10.0423
▁shock	-10.0424
beat	-10.0438
q	-10.0439
no	-10.0441
▁defend	-10.0444
▁celebrate	-10.0457
▁add	-10.0463
▁hearts	-10.0463
▁elliot	-10.0466
▁available	-10.0472
▁disease	-10.0472
▁lincoln	-10.0472
▁oxygen	-10.0472
▁progress	-10.0472
▁stairs	-10.0472
▁underpants	-10.0472
▁border	-10.0472
▁pathetic	-10.0472
▁hank	-10.0473
▁legal	-10.0475
▁brush	-10.0475
▁smith	-10.0476
▁sport	-10.0476
▁plain	-10.0477
▁pm	-10.0479
▁grandfather	-10.0485
▁discovered	-10.0485
▁spoken	-10.0486
▁member	-10.0487
▁stranger	-10.0504
red	-10.0508
ny	-10.0508
▁indistinctly	-10.0517
ts	-10.0523
▁loser	-10.0524
▁pin	-10.0524
▁crewe	-10.0541
▁teaching	-10.0556
▁hij	-10.0588
▁sub	-10.0596
▁receive	-10.0599
▁bail	-10.0615
▁separate	-10.0624
▁sandwich	-10.0632
▁unusual	-10.0636
▁modern	-10.0636
▁thief	-10.0636
▁muffled	-10.0636
▁couch	-10.0636
▁karate	-10.0636
▁ellen	-10.0636
▁estate	-10.0636
▁wilson	-10.0636
▁foul	-10.0637
▁review	-10.0637
▁gear	-10.0638
▁exit	-10.0638
▁technically	-10.0638
▁changing	-10.0641
▁creaking	-10.0642
▁thatd	-10.0643
▁impressed	-10.0644
▁nest	-10.0644
▁bury	-10.0648
▁core	-10.0651
▁victim	-10.0654
▁healthy	-10.0654
ure	-10.0657
▁tits	-10.0662
▁forced	-10.068
▁dies	-10.0682
me	-10.0686
▁cooking	-10.0693
▁clicks	-10.0725
▁spending	-10.0745
▁dealing	-10.0746
▁sec	-10.0752
▁kissing	-10.077
▁ordered	-10.0774
▁appear	-10.0774
▁divorce	-10.0789
▁flag	-10.0793
▁brand	-10.0795
▁russia	-10.0796
▁app	-10.0798
▁enemies	-10.0803
▁heighho	-10.0803
▁langdon	-10.0803
▁delicious	-10.0803
▁lampley	-10.0803
▁applause	-10.0803
▁ellie	-10.0803
▁kitty	-10.0803
▁bare	-10.0803
▁marcus	-10.0803
▁rob	-10.0805
▁bride	-10.0807
▁badge	-10.0807
▁hut	-10.0807
▁value	-10.0808
▁darkness	-10.0809
▁wire	-10.0809
▁sara	-10.0812
▁assholes	-10.0818
▁buying	-10.0818
▁funeral	-10.082
▁helicopter	-10.0821
▁greek	-10.0822
▁victory	-10.0829
▁based	-10.0839
▁joint	-10.084
▁laws	-10.0855
do	-10.0867
▁knocked	-10.0874
▁songs	-10.0885
▁selling	-10.0901
▁blu	-10.0912
▁scratch	-10.0923
▁appears	-10.0952
▁proceed	-10.0972
▁gym	-10.0972
▁beverly	-10.0972
▁british	-10.0972
▁intense	-10.0972
▁negative	-10.0972
▁policy	-10.0972
▁dennis	-10.0972
▁bunny	-10.0972
▁swimming	-10.0973
▁aside	-10.0973
▁therell	-10.0973
▁insist	-10.0973
▁claim	-10.0974
▁stink	-10.0984
▁weed	-10.0992
▁granny	-10.0994
▁reality	-10.0998
▁giggles	-10.1007
▁deck	-10.1011
▁considered	-10.1018
▁americans	-10.1026
▁sh	-10.1036
▁customers	-10.1039
▁stealing	-10.104
▁cast	-10.1046
▁casey	-10.1051
ley	-10.1077
▁wast	-10.1077
▁design	-10.1083
▁hits	-10.11
▁faces	-10.1113
▁aim	-10.112
▁los	-10.1122
ize	-10.1134
▁gene	-10.114
▁hills	-10.1144
▁advantage	-10.1145
▁sunshine	-10.1145
▁bravo	-10.1145
▁firing	-10.1145
▁counselor	-10.1146
▁fanny	-10.1146
▁sammy	-10.1146
▁purse	-10.1146
▁lena	-10.1148
▁betty	-10.115
▁carol	-10.1152
▁johnson	-10.1153
▁reasons	-10.1155
▁timing	-10.1155
▁phones	-10.1162
▁crystal	-10.1169
▁snake	-10.1171
▁pirate	-10.1171
▁term	-10.1182
▁butter	-10.119
▁lo	-10.1197
▁somethings	-10.1209
▁lane	-10.1215
▁degrees	-10.1222
▁signs	-10.1237
▁fully	-10.1249
▁millions	-10.1249
nt	-10.1253
▁queens	-10.1267
▁hatch	-10.127
led	-10.1285
▁poe	-10.1299
▁cheat	-10.1301
▁spin	-10.1303
▁members	-10.1304
back	-10.1305
▁pinch	-10.1307
▁emotional	-10.1311
▁cure	-10.1312
em	-10.1316
▁popular	-10.1319
▁subtitles	-10.132
▁kappa	-10.132
▁dublin	-10.132
▁blanket	-10.1321
▁planned	-10.1322
▁leena	-10.1322
▁gain	-10.1322
▁steady	-10.1323
▁choking	-10.1323
▁yup	-10.1323
▁nathan	-10.1324
▁lean	-10.1326
▁hath	-10.133
▁yelps	-10.1335
▁hon	-10.134
▁pitch	-10.1343
▁legend	-10.1347
▁comment	-10.1347
▁steps	-10.1348
▁effort	-10.1348
▁cage	-10.1349
▁pe	-10.1354
▁beard	-10.1365
▁non	-10.1376
se	-10.1378
▁patients	-10.1388
▁depends	-10.1393
▁carrying	-10.1395
ho	-10.1406
▁theo	-10.1413
lin	-10.1415
▁pills	-10.1417
▁details	-10.1428
▁belle	-10.1446
▁poison	-10.1449
▁lover	-10.1451
▁speakers	-10.1454
▁hates	-10.1485
▁silent	-10.1489
▁desperate	-10.1489
▁bo	-10.1491
▁diamonds	-10.1495
▁slip	-10.1498
▁therefore	-10.1499
▁warrant	-10.1499
▁intelligence	-10.1499
▁merlin	-10.1499
▁cotton	-10.1499
▁medicine	-10.1499
▁solid	-10.1499
▁saint	-10.1499
▁stanley	-10.1499
▁warren	-10.15
▁sensitive	-10.15
▁paddle	-10.15
▁minor	-10.1501
▁task	-10.1501
▁christine	-10.1502
▁labor	-10.1503
▁cutting	-10.1504
▁hitting	-10.1505
▁shout	-10.1506
▁sandie	-10.1507
▁convinced	-10.1509
▁kim	-10.1512
▁bud	-10.1513
▁sobs	-10.1515
▁woody	-10.1517
▁data	-10.1517
▁deserves	-10.1521
▁spit	-10.1522
▁monsters	-10.1524
▁treasure	-10.1529
▁citizen	-10.1533
▁williams	-10.1548
▁traveling	-10.1571
▁ma	-10.1574
ir	-10.1606
▁leading	-10.1614
▁knee	-10.1638
ated	-10.1641
▁bastards	-10.1655
ial	-10.166
▁challenge	-10.1661
▁sauce	-10.1661
▁masters	-10.1661
▁deny	-10.1663
▁potential	-10.167
▁hung	-10.1672
▁ga	-10.1674
ped	-10.1678
▁fashion	-10.1679
▁cheer	-10.168
▁ambulance	-10.1681
▁champagne	-10.1681
▁conference	-10.1681
▁offense	-10.1681
▁university	-10.1681
▁vatican	-10.1681
▁aaron	-10.1681
▁mickey	-10.1681
▁terry	-10.1681
▁basketball	-10.1681
▁section	-10.1681
▁theory	-10.1681
▁chef	-10.1681
▁shopping	-10.1682
▁maar	-10.1682
▁quinn	-10.1683
▁coke	-10.1684
▁juice	-10.1684
▁exchange	-10.1685
▁gray	-10.1685
▁chosen	-10.1686
▁squeeze	-10.1694
▁former	-10.1697
▁eggsy	-10.1701
▁ward	-10.1702
▁designed	-10.1702
▁doo	-10.1703
▁official	-10.1705
▁manage	-10.171
▁response	-10.1713
▁chamber	-10.1715
▁krab	-10.1716
▁tunnel	-10.1716
ting	-10.1716
▁shoe	-10.172
▁cia	-10.1727
▁arrested	-10.1734
▁murderer	-10.1754
▁offered	-10.1756
ba	-10.1766
▁pushing	-10.179
▁backup	-10.1811
▁flash	-10.1817
▁rap	-10.1827
▁shouts	-10.1832
▁runs	-10.185
▁crown	-10.1856
▁heb	-10.1861
▁tricks	-10.1862
▁orchestra	-10.1865
▁casablanca	-10.1866
▁halloween	-10.1866
▁mystery	-10.1866
▁reputation	-10.1866
▁suspense	-10.1866
▁thursday	-10.1866
▁worries	-10.1866
▁drove	-10.1866
▁holmes	-10.1866
▁denise	-10.1866
▁behavior	-10.1866
▁theater	-10.1866
▁internet	-10.1866
▁satine	-10.1866
▁bailey	-10.1867
▁hindi	-10.1867
▁lori	-10.1867
▁century	-10.1867
▁nuclear	-10.1867
▁drill	-10.1869
▁trial	-10.1869
▁wrap	-10.1872
▁scottie	-10.1873
▁extremely	-10.1874
▁bowl	-10.1874
▁andy	-10.1875
▁bored	-10.1875
▁arrive	-10.1876
▁shy	-10.1879
▁range	-10.188
▁union	-10.1881
▁fallen	-10.1881
▁confirmed	-10.1883
▁wound	-10.1884
▁bout	-10.1888
▁chip	-10.1893
▁bass	-10.1895
▁trunk	-10.1901
▁duck	-10.1903
▁flip	-10.1905
▁cigarette	-10.1905
▁escaped	-10.1907
▁dit	-10.1907
▁direction	-10.1907
▁kings	-10.1911
▁thousands	-10.1914
▁humans	-10.1914
▁gotcha	-10.1915
▁actor	-10.1917
▁rate	-10.1918
▁rod	-10.192
▁strip	-10.1944
▁yay	-10.1952
▁thoughts	-10.1971
▁woo	-10.1974
king	-10.1991
▁cells	-10.1992
▁hundreds	-10.1997
▁husbands	-10.201
▁mars	-10.2016
▁demon	-10.202
▁comfort	-10.2024
▁surrender	-10.2032
▁ignore	-10.204
▁jon	-10.2045
▁photos	-10.2051
▁barbara	-10.2054
▁disaster	-10.2054
▁dracula	-10.2054
▁presence	-10.2054
▁whistling	-10.2054
▁plastic	-10.2054
▁martha	-10.2054
▁surgery	-10.2055
▁investigation	-10.2055
▁begging	-10.2055
▁andrew	-10.2055
▁watson	-10.2055
▁wax	-10.2055
▁homework	-10.2061
▁chasing	-10.2066
▁statement	-10.2066
▁be	-10.2071
▁kills	-10.2072
▁monitor	-10.2073
▁express	-10.2078
▁bat	-10.2088
▁hated	-10.2091
▁jackie	-10.2096
▁owner	-10.2097
▁dreaming	-10.2102
▁studying	-10.2107
▁om	-10.2123
bo	-10.215
▁clouds	-10.2188
▁golf	-10.2208
▁terms	-10.2217
▁provide	-10.2232
ham	-10.2244
▁aibileen	-10.2247
▁campaign	-10.2247
▁library	-10.2247
▁senior	-10.2247
▁someplace	-10.2247
▁violence	-10.2247
▁dasong	-10.2247
▁tricia	-10.2247
▁thick	-10.2247
▁blaring	-10.2247
▁glory	-10.2247
▁reward	-10.2247
▁deaf	-10.2247
▁faint	-10.2247
▁jeez	-10.2248
▁santa	-10.2249
▁thorin	-10.225
▁fry	-10.225
▁narrat	-10.2252
▁ruby	-10.2257
▁roaring	-10.226
▁carson	-10.227
▁threat	-10.2285
▁successful	-10.2287
▁neighbor	-10.2294
▁finest	-10.2297
▁cookie	-10.2298
ster	-10.2301
▁tank	-10.2304
▁ohio	-10.2308
▁joined	-10.2331
▁windows	-10.2336
▁gates	-10.2343
▁ending	-10.2344
▁host	-10.2376
▁forces	-10.2389
▁jokes	-10.2389
▁rats	-10.2392
▁falls	-10.2392
▁turner	-10.2403
▁pit	-10.2426
▁worker	-10.2435
▁chose	-10.2437
▁painful	-10.2439
▁penis	-10.244
▁transfer	-10.2442
▁pleasant	-10.2443
▁terrance	-10.2443
▁bishop	-10.2443
▁miami	-10.2443
▁garage	-10.2443
▁dope	-10.2443
▁trent	-10.2443
▁bible	-10.2444
▁abby	-10.2444
▁colony	-10.2444
▁randy	-10.2444
▁thirty	-10.2444
▁drivers	-10.2446
▁gim	-10.2448
▁treatment	-10.2448
▁log	-10.2454
▁hilly	-10.2466
ang	-10.2466
▁down	-10.2467
▁eaten	-10.2479
▁yi	-10.2485
▁mac	-10.2488
▁role	-10.2489
▁explosion	-10.249
▁mentioned	-10.2491
▁holiday	-10.2493
▁richards	-10.2497
▁carefully	-10.251
▁haha	-10.251
tin	-10.2511
▁exercise	-10.2518
▁mere	-10.252
▁hire	-10.2538
▁penguins	-10.2543
▁tale	-10.2545
▁crow	-10.2559
▁fishing	-10.2562
side	-10.2574
▁passing	-10.2575
▁tryin	-10.2588
▁fe	-10.2595
▁vi	-10.2597
ator	-10.2614
▁warn	-10.2615
▁fighter	-10.2617
▁guide	-10.2628
▁prize	-10.2628
▁sink	-10.263
▁toys	-10.2632
▁tone	-10.2633
▁koning	-10.2641
▁anytime	-10.2643
▁central	-10.2643
▁dessert	-10.2643
▁melanie	-10.2643
▁wilkes	-10.2643
▁mistress	-10.2643
▁valentine	-10.2643
▁dalton	-10.2643
▁heck	-10.2643
▁noble	-10.2643
▁carried	-10.2644
▁vader	-10.2645
▁fetch	-10.2645
▁media	-10.2646
▁filthy	-10.2648
▁uhuh	-10.2648
▁poem	-10.2648
▁clattering	-10.265
minous	-10.265
▁wallet	-10.2652
▁pam	-10.2658
▁psycho	-10.2658
▁circumstances	-10.266
▁suits	-10.2661
▁exclaims	-10.2669
▁nu	-10.267
▁bully	-10.2672
▁served	-10.2674
▁po	-10.2675
▁survived	-10.268
ke	-10.2692
▁phillip	-10.2694
▁billion	-10.2697
▁walter	-10.2698
▁blade	-10.2698
▁trap	-10.2706
▁cats	-10.2712
▁mistakes	-10.2712
ard	-10.2724
ball	-10.2742
▁tend	-10.2747
▁le	-10.2752
▁enjoying	-10.2765
▁bon	-10.2775
▁chew	-10.2783
▁charges	-10.2792
▁nail	-10.2793
▁neighbors	-10.2797
▁sweep	-10.2809
▁sounded	-10.2817
▁respond	-10.2819
▁crawl	-10.2819
▁trail	-10.2823
▁q	-10.2824
ten	-10.2825
▁wipe	-10.2831
▁solve	-10.2833
house	-10.2845
▁becoming	-10.2847
▁debbie	-10.2847
▁ethan	-10.2847
▁explosiveskull	-10.2847
▁raymond	-10.2847
▁honour	-10.2847
▁supper	-10.2847
▁mitchell	-10.2848
▁ditch	-10.2849
▁doorbell	-10.2849
▁sack	-10.2849
▁macho	-10.2849
▁brick	-10.2852
▁pile	-10.2854
▁angeles	-10.2856
▁embarrassed	-10.2858
▁directly	-10.2862
▁passion	-10.2863
▁fools	-10.2864
▁issues	-10.2871
▁shift	-10.2871
▁suffering	-10.2883
▁trace	-10.2889
you	-10.2894
▁loan	-10.2903
▁adventure	-10.2905
▁quietly	-10.2907
▁freaking	-10.2907
▁remains	-10.2917
▁stevens	-10.2918
▁jumped	-10.2921
▁smaller	-10.2923
▁hai	-10.2937
▁hostages	-10.2942
ph	-10.295
▁marks	-10.2994
▁va	-10.3002
▁chances	-10.3013
▁tradition	-10.3019
▁vera	-10.3022
▁accounts	-10.3026
▁attend	-10.3032
▁site	-10.304
▁leonard	-10.3051
like	-10.3052
▁cherry	-10.3054
▁wings	-10.3055
▁combination	-10.3055
▁grief	-10.3055
▁morris	-10.3055
▁ralph	-10.3055
▁seymour	-10.3055
▁therapy	-10.3055
▁knowledge	-10.3055
▁fifth	-10.3055
▁eloise	-10.3055
▁valley	-10.3055
▁recall	-10.3056
▁authority	-10.3056
▁bruce	-10.3056
▁fifty	-10.3056
▁instrumental	-10.3056
▁batman	-10.3057
▁forth	-10.3059
▁out	-10.3059
▁highway	-10.3064
▁heroes	-10.3071
▁troops	-10.3079
▁boyd	-10.3087
▁ver	-10.3088
▁shitty	-10.3093
▁lamb	-10.3101
▁treated	-10.3111
▁specific	-10.3117
▁cloud	-10.3119
▁yankees	-10.3123
▁skills	-10.3124
▁crackers	-10.3125
▁stare	-10.3132
▁gee	-10.3134
he	-10.314
gen	-10.3155
▁oz	-10.316
▁resist	-10.3172
op	-10.3174
ex	-10.3209
▁damned	-10.3211
the	-10.3234
▁pump	-10.3246
▁wreck	-10.3247
▁counter	-10.3248
▁stress	-10.3248
▁bong	-10.3253
▁russians	-10.3254
▁under	-10.3258
▁sides	-10.3261
▁prins	-10.3264
▁liz	-10.3267
▁anniversary	-10.3268
▁benjamin	-10.3268
▁channel	-10.3268
▁custody	-10.3268
▁easily	-10.3268
▁gabriel	-10.3268
▁maintain	-10.3268
▁minionese	-10.3268
▁miserable	-10.3268
▁motel	-10.3268
▁virus	-10.3268
▁coincidence	-10.3268
▁italy	-10.3268
▁personnel	-10.3268
▁suspicious	-10.3268
▁minister	-10.3268
▁hart	-10.3268
▁youth	-10.3268
▁engagement	-10.3269
▁announcement	-10.3269
▁sophie	-10.3269
▁supply	-10.327
▁collection	-10.327
▁sadness	-10.3273
▁grass	-10.3274
▁players	-10.3275
▁echoing	-10.3278
▁friendly	-10.3278
ford	-10.3281
▁rooms	-10.3282
▁provided	-10.3284
▁mis	-10.3289
▁units	-10.3297
▁loaded	-10.3304
▁hooked	-10.3312
▁bee	-10.3313
▁hong	-10.3319
▁breaks	-10.332
▁stones	-10.3321
▁experiment	-10.3328
▁badly	-10.3332
▁praying	-10.3335
▁represent	-10.3335
▁string	-10.3336
▁frankly	-10.3338
▁messages	-10.3342
▁symbol	-10.3344
▁brakes	-10.3344
▁for	-10.3351
▁bend	-10.3352
▁hid	-10.3355
▁ol	-10.336
▁waves	-10.3373
▁testing	-10.3379
▁pipe	-10.3381
▁boot	-10.3388
▁mountains	-10.3389
ti	-10.3391
▁leo	-10.3401
▁reminds	-10.3412
ner	-10.3426
tra	-10.3427
ol	-10.3437
▁rub	-10.3438
▁citizens	-10.3444
hi	-10.346
▁victims	-10.3462
▁confirm	-10.3464
▁dam	-10.3472
▁random	-10.3476
▁positive	-10.3476
▁boo	-10.3478
ot	-10.3478
ble	-10.3478
boy	-10.3481
▁lads	-10.3481
▁agency	-10.3485
▁awkward	-10.3485
▁beneath	-10.3485
▁klara	-10.3485
▁vegas	-10.3485
▁jersey	-10.3485
▁permit	-10.3485
▁gollum	-10.3485
▁puppy	-10.3485
▁navy	-10.3486
▁digging	-10.3486
▁bacon	-10.3486
▁motion	-10.3486
▁orange	-10.3486
▁torment	-10.3486
▁blah	-10.3486
▁deadpool	-10.3486
▁temperature	-10.3486
▁ghosts	-10.3487
▁rufus	-10.3487
▁surface	-10.3487
▁milton	-10.3487
▁cries	-10.3487
▁kong	-10.3488
▁chow	-10.3488
▁series	-10.3489
▁foolish	-10.3489
▁balance	-10.3489
▁bay	-10.3492
▁abandoned	-10.3503
▁naturally	-10.3504
▁there	-10.3516
▁trusted	-10.3518
ler	-10.3527
▁pi	-10.3528
▁clients	-10.353
end	-10.3538
▁robots	-10.354
▁magical	-10.3552
▁attorney	-10.3553
▁grandpa	-10.3555
▁rabbit	-10.3555
▁expert	-10.3556
▁seal	-10.3559
▁hood	-10.3561
▁hip	-10.3563
▁makeup	-10.3586
▁scientists	-10.3587
▁broad	-10.3589
pe	-10.359
▁guts	-10.3596
ell	-10.3599
▁judgment	-10.3602
▁net	-10.361
ut	-10.3647
ac	-10.3655
▁bills	-10.3656
▁partners	-10.3662
▁hurting	-10.3683
▁recommend	-10.3686
ii	-10.3686
▁cr	-10.3687
▁dudes	-10.3692
▁tent	-10.3697
▁extreme	-10.3698
▁bounce	-10.3705
▁champ	-10.3705
▁amsterdam	-10.3708
▁brooklyn	-10.3708
▁charlotte	-10.3708
▁distorted	-10.3708
▁patience	-10.3708
▁smooth	-10.3708
▁collins	-10.3708
▁praise	-10.3708
▁headquarters	-10.3708
▁willie	-10.3708
▁sidney	-10.3708
▁network	-10.3708
▁hollywood	-10.3708
▁committed	-10.3708
▁species	-10.3709
▁skip	-10.3713
▁roman	-10.3714
▁tub	-10.3721
▁whod	-10.3721
▁sigh	-10.3724
▁normally	-10.3747
▁pound	-10.3762
▁hum	-10.3769
▁heights	-10.377
▁sniffs	-10.377
▁snap	-10.3775
▁crossed	-10.3779
▁uniform	-10.3782
▁dozen	-10.3785
▁oak	-10.3786
▁jew	-10.3789
▁dating	-10.379
▁houses	-10.3794
▁messed	-10.3811
ville	-10.3813
ca	-10.3821
▁seats	-10.3837
▁prom	-10.3856
ag	-10.3856
ger	-10.3857
che	-10.3861
▁lit	-10.387
res	-10.3895
▁twist	-10.3904
▁fa	-10.3914
▁defeat	-10.3914
▁dash	-10.392
▁sentence	-10.3922
▁current	-10.3926
▁remove	-10.393
▁column	-10.3934
▁galaxy	-10.3935
▁larusso	-10.3935
▁suzu	-10.3935
▁wednesday	-10.3935
▁kidnapped	-10.3935
▁waitress	-10.3935
▁davis	-10.3935
▁adler	-10.3935
▁patty	-10.3935
▁rosie	-10.3935
▁racing	-10.3936
▁soup	-10.3936
▁quality	-10.3936
▁incredibly	-10.3936
▁salad	-10.3936
▁toto	-10.3937
▁dropping	-10.3938
▁background	-10.3939
▁candyman	-10.3939
▁dna	-10.394
▁frightened	-10.394
▁arranged	-10.3942
▁kay	-10.3942
▁melly	-10.3942
▁content	-10.3943
▁germans	-10.3945
▁officially	-10.3947
▁cable	-10.3958
▁sighing	-10.3963
▁latest	-10.3967
▁whoohoo	-10.3967
▁louder	-10.3975
▁tomb	-10.399
ru	-10.4
▁wayne	-10.4006
▁outfit	-10.4016
▁burger	-10.4019
▁classic	-10.4022
▁gloves	-10.4026
▁dee	-10.4031
ab	-10.4034
▁dot	-10.4051
▁chickens	-10.4057
▁pr	-10.406
ay	-10.4074
▁bing	-10.4077
▁notes	-10.4087
▁ender	-10.4109
▁roy	-10.4118
down	-10.4119
▁speaker	-10.4125
▁tuck	-10.4137
▁learning	-10.4139
▁escort	-10.4145
▁cancel	-10.4147
▁breathes	-10.415
▁admire	-10.4153
▁patch	-10.4164
▁bug	-10.4165
▁contest	-10.4167
▁arizona	-10.4167
▁berlin	-10.4167
▁bianca	-10.4167
▁clamoring	-10.4167
▁distant	-10.4167
▁division	-10.4167
▁fabulous	-10.4167
▁generous	-10.4167
▁julius	-10.4167
▁kennedy	-10.4167
▁moscow	-10.4167
▁palace	-10.4167
▁paradise	-10.4167
▁routine	-10.4167
▁stammering	-10.4167
▁technology	-10.4167
▁themistokles	-10.4167
▁tournament	-10.4167
▁valuable	-10.4167
▁capsule	-10.4167
▁evelyn	-10.4167
▁cpo	-10.4167
▁freezing	-10.4167
▁international	-10.4168
▁helsing	-10.4168
▁patrol	-10.4168
▁urgent	-10.4168
▁cliff	-10.4168
▁grail	-10.4168
▁minny	-10.4168
▁chaney	-10.4168
▁pillow	-10.4168
▁skinny	-10.4168
▁carlos	-10.4169
▁torn	-10.417
▁theme	-10.4171
▁humming	-10.4173
▁hopefully	-10.4173
▁crooked	-10.4174
▁ava	-10.4176
▁scan	-10.4176
ck	-10.4177
▁stopping	-10.4184
▁germany	-10.4186
▁gl	-10.4188
▁clicking	-10.419
▁toe	-10.4198
▁managed	-10.42
▁thin	-10.4203
▁pops	-10.4227
▁understanding	-10.423
▁all	-10.4242
▁tina	-10.4247
▁senator	-10.4251
▁grandmother	-10.4253
▁wrist	-10.4254
▁toward	-10.4257
▁missile	-10.426
▁hoped	-10.4275
▁unh	-10.428
▁laughed	-10.4286
▁fades	-10.4287
▁dial	-10.4291
▁do	-10.4304
▁bottles	-10.4307
▁wa	-10.4313
▁diet	-10.4318
▁collect	-10.4346
▁aid	-10.4347
▁approach	-10.4353
▁cigarettes	-10.4355
que	-10.4372
▁mu	-10.4375
▁col	-10.4388
▁remote	-10.4395
▁violent	-10.4395
▁actual	-10.4397
▁electric	-10.44
▁education	-10.4401
ized	-10.4405
▁seek	-10.4405
▁centuries	-10.4406
▁circus	-10.4406
▁cocksucker	-10.4406
▁collar	-10.4406
▁empire	-10.4406
▁false	-10.4406
▁invisible	-10.4406
▁mahira	-10.4406
▁malorie	-10.4406
▁principal	-10.4406
▁samantha	-10.4406
▁vodka	-10.4406
▁privacy	-10.4406
▁confidence	-10.4406
▁skeeter	-10.4406
▁baloo	-10.4406
▁influence	-10.4406
▁online	-10.4406
▁ouch	-10.4406
▁christopher	-10.4406
▁performance	-10.4406
▁surveillance	-10.4406
▁zooey	-10.4406
▁vada	-10.4407
▁fever	-10.4407
▁selfish	-10.4407
▁stroke	-10.4409
▁snoring	-10.4409
▁mansur	-10.441
▁exclaiming	-10.4411
▁lili	-10.4411
▁here	-10.4413
▁politics	-10.4418
▁wins	-10.4419
▁sniffing	-10.4419
▁fucks	-10.442
▁yale	-10.4421
▁oops	-10.4422
▁connected	-10.4423
com	-10.4431
▁settled	-10.4434
▁events	-10.4434
▁ty	-10.445
▁deadly	-10.446
▁tire	-10.447
▁ab	-10.4472
▁detail	-10.448
▁wanting	-10.4481
▁creep	-10.449
▁que	-10.4492
▁bra	-10.4497
▁article	-10.4498
▁compliment	-10.4499
▁option	-10.4501
▁mikey	-10.4502
▁jewel	-10.4502
▁vic	-10.4506
▁dollar	-10.4507
▁inter	-10.4514
▁chuckle	-10.4515
▁leads	-10.4515
▁enjoyed	-10.4515
▁jumping	-10.4521
day	-10.4522
wa	-10.4533
▁odds	-10.4554
▁med	-10.4563
aw	-10.4564
▁sis	-10.4566
▁boots	-10.4571
▁tick	-10.4573
▁cleaned	-10.4582
▁fans	-10.4582
▁interrupt	-10.4595
▁confess	-10.4598
▁gather	-10.4602
▁stake	-10.4609
▁tin	-10.4609
▁complain	-10.4616
▁rot	-10.4623
▁hoo	-10.4629
io	-10.4631
▁strangers	-10.4632
▁glen	-10.4642
▁mass	-10.4646
ach	-10.4648
▁basket	-10.4649
▁basic	-10.4649
▁einar	-10.4649
▁pistol	-10.4649
▁rattling	-10.4649
▁terribly	-10.4649
▁uncomfortable	-10.4649
▁underground	-10.4649
▁donna	-10.465
▁studio	-10.465
▁foster	-10.465
▁purple	-10.465
▁stuart	-10.465
▁mummy	-10.465
▁rico	-10.4651
▁noah	-10.4651
▁starving	-10.4651
▁wears	-10.4651
▁reaction	-10.4651
▁beef	-10.4651
▁hammer	-10.4651
▁laughlng	-10.4655
▁quote	-10.4657
▁retired	-10.4661
▁ew	-10.4662
▁thus	-10.4663
▁kane	-10.4667
▁delivery	-10.4668
▁whistle	-10.467
▁pod	-10.4671
▁lame	-10.4673
▁halt	-10.4674
za	-10.4677
▁lifetime	-10.4681
▁stab	-10.4682
▁sch	-10.4683
▁roberta	-10.4687
▁cheating	-10.4687
▁stays	-10.4688
▁busted	-10.4696
▁honks	-10.4698
light	-10.4706
▁boyle	-10.4707
▁ages	-10.4711
▁smack	-10.4719
▁leon	-10.4719
▁root	-10.472
▁when	-10.4725
▁grunt	-10.4726
▁parker	-10.4735
over	-10.4738
▁para	-10.4747
▁habit	-10.4748
▁bi	-10.4749
▁nerve	-10.4749
▁affair	-10.4749
▁mud	-10.4755
▁label	-10.4756
▁begins	-10.4756
▁visiting	-10.4763
▁toss	-10.4768
ff	-10.4771
▁moron	-10.4772
▁su	-10.4772
▁files	-10.4774
▁wondered	-10.4775
▁wee	-10.4775
▁tickle	-10.4778
und	-10.4783
ja	-10.4784
▁nut	-10.479
▁chop	-10.4791
▁pope	-10.4792
▁options	-10.4801
▁messing	-10.4804
▁ze	-10.4817
▁olive	-10.482
▁tests	-10.4842
ping	-10.4842
ka	-10.4844
gh	-10.4849
ities	-10.4849
▁bulls	-10.4863
▁discover	-10.4871
▁daddys	-10.4877
▁succeed	-10.4878
▁concentrate	-10.4884
▁torture	-10.4885
▁propose	-10.4885
▁convince	-10.4885
▁monkeys	-10.4886
▁canada	-10.4899
▁competition	-10.4899
▁glorious	-10.4899
▁mckenna	-10.4899
▁mysterious	-10.4899
▁pumbaa	-10.4899
▁thompson	-10.4899
▁unhappy	-10.4899
▁dallas	-10.4899
▁appeal	-10.4899
▁unique	-10.4899
▁flew	-10.49
▁authorities	-10.49
▁francisco	-10.49
▁soap	-10.49
▁susie	-10.49
▁formula	-10.49
▁accent	-10.49
▁infection	-10.49
▁anderson	-10.49
▁juan	-10.49
▁rita	-10.49
▁gunfire	-10.4901
▁logan	-10.4902
▁owns	-10.4902
▁ira	-10.4903
▁soda	-10.4903
▁phase	-10.4903
▁machinery	-10.4903
▁omara	-10.4904
▁weaver	-10.4911
▁hunters	-10.4912
▁fond	-10.4913
▁ability	-10.4913
▁goodnight	-10.4927
▁warned	-10.4928
▁highest	-10.4928
▁hyenas	-10.4928
▁kisses	-10.4929
▁touching	-10.4933
▁bands	-10.4933
▁granted	-10.4937
▁and	-10.4947
▁combat	-10.4954
▁safer	-10.4955
▁winds	-10.4955
▁bars	-10.4961
▁manny	-10.4961
▁todays	-10.4971
▁edie	-10.4973
▁becomes	-10.4981
▁wasted	-10.4982
ki	-10.4982
▁nothings	-10.4982
▁considering	-10.499
den	-10.4991
▁wifes	-10.4997
▁object	-10.5001
▁journal	-10.5001
▁satellite	-10.5004
▁cardinal	-10.5005
▁warrior	-10.5005
▁sale	-10.501
▁tool	-10.5014
▁ross	-10.5023
▁julian	-10.5031
cat	-10.504
▁tracks	-10.5049
▁eric	-10.5071
fi	-10.5077
▁mak	-10.5079
▁shown	-10.5094
▁cole	-10.5109
▁flo	-10.5118
▁hells	-10.5123
▁killers	-10.5125
▁execution	-10.5126
▁prevent	-10.5134
▁abandon	-10.5134
itt	-10.5135
▁float	-10.5144
▁assure	-10.515
▁amanda	-10.5156
▁crisis	-10.5156
▁dillon	-10.5156
▁dudley	-10.5156
▁dutch	-10.5156
▁explanation	-10.5156
▁fifteen	-10.5156
▁identity	-10.5156
▁katherine	-10.5156
▁mercedes	-10.5156
▁razor	-10.5156
▁thistlewaite	-10.5156
▁vanessa	-10.5156
▁sniffles	-10.5156
▁individual	-10.5156
▁peggy	-10.5156
▁lainey	-10.5156
▁spock	-10.5156
▁repair	-10.5156
▁craig	-10.5156
▁mammy	-10.5156
▁campbell	-10.5156
▁scientific	-10.5156
▁heather	-10.5156
▁tasty	-10.5156
▁status	-10.5157
▁slut	-10.5157
▁morty	-10.5157
▁frozen	-10.5158
▁crackling	-10.5158
▁capable	-10.5158
▁robbery	-10.5159
▁quill	-10.5159
▁cody	-10.5161
▁disappointed	-10.5162
▁campus	-10.5163
▁nearby	-10.5163
▁pat	-10.5168
▁developed	-10.517
pa	-10.5173
▁mustnt	-10.5176
▁backwards	-10.5181
ical	-10.5185
▁carter	-10.5191
▁als	-10.5191
▁hugh	-10.5193
ding	-10.52
▁verne	-10.5202
▁boats	-10.5216
▁twins	-10.5224
▁ali	-10.523
▁crashing	-10.5237
▁minds	-10.5238
▁parent	-10.5243
▁caused	-10.525
▁anti	-10.5253
▁aliens	-10.5256
▁superior	-10.5264
▁newspaper	-10.5269
▁pockets	-10.5284
▁gar	-10.5294
▁sting	-10.5306
▁manner	-10.5317
▁transport	-10.5322
tan	-10.5324
ek	-10.5348
▁surf	-10.537
▁worship	-10.5372
▁au	-10.5386
mi	-10.5388
▁shrink	-10.539
tor	-10.5391
five	-10.5395
▁describe	-10.5404
▁mental	-10.5409
▁pont	-10.5416
▁rapid	-10.5416
▁prisoners	-10.5417
▁fed	-10.5417
▁hopes	-10.5419
▁chemical	-10.5419
▁hagrid	-10.5419
▁increase	-10.5419
▁mufasa	-10.5419
▁leaf	-10.5419
▁tragic	-10.5419
▁bonnie	-10.5419
▁culture	-10.5419
▁kenny	-10.5419
▁amber	-10.5419
▁dentist	-10.542
▁depressed	-10.542
▁jody	-10.542
▁aboard	-10.542
▁rowley	-10.542
▁henrik	-10.542
▁effective	-10.542
▁begun	-10.542
▁impression	-10.542
▁ox	-10.5421
▁irish	-10.5422
▁ronan	-10.5422
▁bingo	-10.5425
▁agreement	-10.5426
▁halfway	-10.5426
sen	-10.5426
▁plug	-10.5429
▁cabin	-10.543
▁mourning	-10.5434
▁sequence	-10.5435
▁gale	-10.5437
▁shrieks	-10.5441
▁passes	-10.5445
▁uit	-10.5445
ou	-10.5455
▁actions	-10.5461
▁bb	-10.5465
▁dish	-10.5466
▁earn	-10.5473
▁entering	-10.5473
▁belly	-10.5478
▁bid	-10.5481
▁of	-10.5482
▁attempt	-10.5486
dy	-10.5487
▁charm	-10.5493
▁lungs	-10.5494
▁flow	-10.5495
bu	-10.5497
▁sp	-10.55
▁award	-10.5519
▁mid	-10.5527
▁sid	-10.5538
▁knight	-10.554
▁beside	-10.5542
▁honored	-10.5545
▁pill	-10.5546
▁fi	-10.5551
▁gig	-10.5551
▁ruf	-10.5569
▁holes	-10.5572
▁recording	-10.5583
looking	-10.5588
▁landing	-10.5605
▁blessing	-10.5606
▁or	-10.5658
▁barr	-10.5671
▁ram	-10.5676
▁guilt	-10.5678
▁steel	-10.5681
▁loyal	-10.5685
▁egypt	-10.5689
▁adaline	-10.5689
▁dillinger	-10.5689
▁entrance	-10.5689
▁invitation	-10.5689
▁jeremy	-10.5689
▁marguerite	-10.5689
▁milady	-10.5689
▁reich	-10.5689
▁widow	-10.5689
▁reverse	-10.5689
▁gunnar	-10.5689
▁opposite	-10.5689
▁apology	-10.5689
▁leila	-10.5689
▁pulse	-10.5689
▁superstar	-10.569
▁helmet	-10.569
▁adorable	-10.569
▁orphanage	-10.569
▁temple	-10.569
▁countess	-10.569
▁laundry	-10.569
▁dining	-10.569
▁existence	-10.569
▁bold	-10.569
▁elsa	-10.569
▁failure	-10.569
▁ripped	-10.569
▁southern	-10.569
▁timon	-10.5691
▁childhood	-10.5691
▁chili	-10.5691
▁math	-10.5692
▁precisely	-10.5693
▁castor	-10.5693
▁accused	-10.5694
▁mobile	-10.5696
▁seri	-10.5696
▁shining	-10.5698
▁howling	-10.57
▁kai	-10.57
▁piper	-10.57
▁alley	-10.57
▁outer	-10.5701
▁berry	-10.5702
▁heir	-10.5703
▁assist	-10.5706
▁teachers	-10.5706
▁witches	-10.5707
▁satan	-10.5707
▁properly	-10.571
▁ash	-10.571
▁canceled	-10.5713
▁average	-10.5717
▁classes	-10.5718
▁blocks	-10.5725
ko	-10.5732
bra	-10.5733
▁blown	-10.574
▁shoulders	-10.5746
▁chicks	-10.5754
di	-10.5756
rr	-10.5766
▁cuts	-10.5768
▁photograph	-10.5772
▁print	-10.5776
▁motherfuckers	-10.5783
▁searching	-10.5783
▁barks	-10.5789
▁click	-10.5791
▁cons	-10.5797
▁fart	-10.5798
▁puts	-10.5811
▁pledge	-10.5814
▁sailor	-10.5816
▁adult	-10.5817
▁thud	-10.5819
▁gil	-10.5821
▁the	-10.5824
▁inform	-10.5834
▁offering	-10.584
iest	-10.5847
tion	-10.5855
▁kissed	-10.5857
▁hier	-10.5857
▁moments	-10.5857
▁dancer	-10.5866
cy	-10.5867
▁sc	-10.589
ill	-10.5892
oh	-10.59
▁services	-10.5906
▁heal	-10.592
▁bl	-10.5922
▁tr	-10.5936
▁spoon	-10.5948
▁spiders	-10.595
▁gin	-10.5953
▁listened	-10.5953
▁yards	-10.5953
▁permanent	-10.5957
▁off	-10.5959
▁spark	-10.596
▁presents	-10.5961
▁opera	-10.5962
▁porn	-10.5965
▁acid	-10.5966
▁nightmares	-10.5967
▁alexander	-10.5967
▁barbecue	-10.5967
▁ceremony	-10.5967
▁cocaine	-10.5967
▁dwarf	-10.5967
▁genuine	-10.5967
▁niece	-10.5967
▁physics	-10.5967
▁proposal	-10.5967
▁steak	-10.5967
▁saddam	-10.5967
▁douglas	-10.5967
▁anspeak	-10.5967
▁wives	-10.5967
▁stewart	-10.5967
▁stabbed	-10.5967
▁powder	-10.5967
▁allison	-10.5967
▁eleven	-10.5967
▁boston	-10.5967
▁robbed	-10.5967
▁throne	-10.5967
▁kitai	-10.5967
▁tyler	-10.5967
▁entry	-10.5967
▁lousy	-10.5968
▁chopper	-10.5968
▁genetic	-10.5968
▁spray	-10.5968
▁wore	-10.5968
▁fuel	-10.5968
▁humor	-10.597
▁shore	-10.597
▁sacred	-10.5971
▁annoying	-10.5972
hand	-10.5972
▁political	-10.5974
▁critical	-10.5974
▁version	-10.5974
cha	-10.5975
▁possession	-10.5977
▁captured	-10.5979
▁required	-10.5981
▁invented	-10.5982
▁whooping	-10.5983
▁chat	-10.5988
▁carver	-10.5988
▁baron	-10.5989
▁pigs	-10.6001
lock	-10.6015
▁finds	-10.6023
▁deserved	-10.6025
▁focused	-10.6031
▁lick	-10.6033
▁hem	-10.6035
▁wit	-10.6035
▁idiots	-10.604
▁sucked	-10.6042
▁rhythm	-10.6047
▁asses	-10.6048
▁shared	-10.6048
▁sales	-10.6051
▁colored	-10.6054
▁visitors	-10.6068
▁bent	-10.6072
ud	-10.6076
▁bullets	-10.6076
▁bump	-10.6078
▁equal	-10.6088
▁tastes	-10.609
for	-10.6097
▁application	-10.6098
▁squirrel	-10.6099
▁engines	-10.61
▁tad	-10.6101
▁procedure	-10.6101
▁vo	-10.611
▁tapes	-10.6123
▁counts	-10.613
▁gifts	-10.6133
▁mar	-10.6136
▁to	-10.6141
▁whip	-10.6145
▁hay	-10.615
▁shack	-10.6157
▁ko	-10.6158
▁swan	-10.6164
▁bells	-10.6171
▁ro	-10.6172
▁stretch	-10.6172
▁angels	-10.6174
▁actors	-10.6193
▁noon	-10.62
▁perform	-10.6201
▁connect	-10.6206
ring	-10.6218
▁dia	-10.6222
ties	-10.6234
▁dreamed	-10.6236
▁losers	-10.624
▁beck	-10.6246
▁unlike	-10.6247
▁actress	-10.6249
▁link	-10.625
▁alexandra	-10.6253
▁amelia	-10.6253
▁arguing	-10.6253
▁daiton	-10.6253
▁escobar	-10.6253
▁mandarin	-10.6253
▁pamela	-10.6253
▁selfdestruct	-10.6253
▁stammers	-10.6253
▁survival	-10.6253
▁taylor	-10.6253
▁therapist	-10.6253
▁vietnam	-10.6253
▁kansas	-10.6253
▁steam	-10.6253
▁alpha	-10.6253
▁reverend	-10.6253
▁babs	-10.6253
▁weasel	-10.6253
▁hallelujah	-10.6253
▁waldo	-10.6253
▁sharon	-10.6253
▁walsh	-10.6253
▁primary	-10.6253
▁nacho	-10.6253
▁meade	-10.6253
▁riddle	-10.6253
▁rubber	-10.6253
▁display	-10.6253
▁shaking	-10.6253
▁attractive	-10.6253
▁jazz	-10.6253
▁daily	-10.6253
▁pumpkin	-10.6253
▁dobby	-10.6253
▁pony	-10.6253
▁disappointment	-10.6253
▁quarterback	-10.6254
▁western	-10.6254
▁concert	-10.6254
▁karen	-10.6254
▁polite	-10.6255
▁obsessed	-10.6255
▁drama	-10.6256
▁pub	-10.6256
▁susanna	-10.6257
▁my	-10.6257
▁thirsty	-10.6258
▁hallway	-10.6258
▁classical	-10.626
▁orb	-10.6262
▁tri	-10.6263
▁attracted	-10.6263
▁scale	-10.6264
▁stable	-10.6264
ise	-10.6267
▁removed	-10.6271
▁earned	-10.6278
▁rug	-10.628
▁slams	-10.6282
▁heavens	-10.6285
▁zeke	-10.6301
gi	-10.6313
▁goldie	-10.6316
▁trie	-10.6319
▁accepted	-10.6338
▁forty	-10.6347
▁filling	-10.6349
▁rage	-10.6353
▁bananas	-10.6365
▁suite	-10.6368
▁kan	-10.6372
▁bleed	-10.6373
▁pushed	-10.6384
▁occasion	-10.6388
▁email	-10.6392
▁snack	-10.6394
▁kyle	-10.6397
▁package	-10.6397
▁penguin	-10.6398
▁agents	-10.6401
▁mob	-10.6401
▁fade	-10.6405
▁jean	-10.6407
▁tu	-10.6409
▁ranger	-10.6409
▁mel	-10.6414
▁sayin	-10.6414
▁sucker	-10.6428
so	-10.6434
ea	-10.6437
▁gut	-10.6474
▁drawing	-10.6486
▁conversations	-10.6492
▁pour	-10.6502
tle	-10.6502
▁der	-10.6502
room	-10.6505
▁sneak	-10.6505
▁swell	-10.652
▁worrying	-10.6524
▁advance	-10.6533
▁effects	-10.6535
▁za	-10.6536
▁dispatch	-10.6538
▁as	-10.6539
▁nee	-10.654
▁mall	-10.6543
▁alcohol	-10.6545
▁favour	-10.6547
▁zamunda	-10.6547
▁anchor	-10.6547
▁approximately	-10.6547
▁arrival	-10.6547
▁atlantic	-10.6547
▁bargain	-10.6547
▁bartender	-10.6547
▁dolores	-10.6547
▁kowalski	-10.6547
▁liberty	-10.6547
▁lobby	-10.6547
▁necessities	-10.6547
▁punjabi	-10.6547
▁rapunzel	-10.6547
▁shrek	-10.6547
▁vault	-10.6547
▁zazu	-10.6547
▁callahan	-10.6547
▁facility	-10.6547
▁maggie	-10.6547
▁hahaha	-10.6547
▁rudy	-10.6547
▁wolves	-10.6547
▁smiling	-10.6547
▁leap	-10.6547
▁fridge	-10.6547
▁rafo	-10.6547
ls	-10.6548
▁bluster	-10.6548
▁chapter	-10.6548
▁olmo	-10.6548
▁loyalty	-10.6548
▁jewish	-10.6548
▁classified	-10.6548
▁charity	-10.6548
▁flies	-10.6548
▁exam	-10.6549
▁lazy	-10.6549
▁potatoes	-10.655
▁stuttering	-10.6551
▁factory	-10.6553
▁surrounded	-10.6553
▁dull	-10.6562
▁answering	-10.6568
av	-10.6569
▁ob	-10.657
▁dresses	-10.6572
ub	-10.6575
▁needle	-10.6578
▁sets	-10.6579
▁parties	-10.6582
▁emotions	-10.6594
▁claws	-10.6599
▁levels	-10.6605
▁blessed	-10.6606
▁nap	-10.661
▁comp	-10.6615
▁spirits	-10.6624
tz	-10.6633
▁gu	-10.6644
tu	-10.6659
ight	-10.666
▁rocky	-10.6666
▁ai	-10.667
▁chi	-10.6671
▁require	-10.6685
port	-10.6687
▁wh	-10.6688
▁humble	-10.6688
▁product	-10.6694
▁matthew	-10.6697
▁slice	-10.6698
▁costume	-10.6699
▁commitment	-10.6699
▁towel	-10.67
▁medal	-10.67
▁roommate	-10.6703
▁hooker	-10.6722
▁wil	-10.6758
▁protecting	-10.6769
▁walks	-10.6775
▁mmmm	-10.6778
▁bake	-10.6778
▁barn	-10.6779
▁cookies	-10.6783
▁meg	-10.6792
▁pointing	-10.6801
▁gum	-10.6801
▁pirates	-10.6804
ina	-10.6813
▁stands	-10.6822
▁horns	-10.6826
▁swallow	-10.6829
▁replace	-10.6834
▁retire	-10.6835
▁include	-10.6835
▁hump	-10.685
▁knox	-10.685
▁cease	-10.685
▁alastair	-10.685
▁appropriate	-10.685
▁argument	-10.685
▁asteroid	-10.685
▁atmosphere	-10.685
▁district	-10.685
▁ferrari	-10.685
▁hiphop	-10.685
▁luggage	-10.685
▁motta	-10.685
▁promotion	-10.685
▁ritual	-10.685
▁rooster	-10.685
▁underneath	-10.685
▁viktor	-10.685
▁wrestling	-10.685
▁territory	-10.685
▁sparrow	-10.685
▁monica	-10.685
▁vagina	-10.685
▁tennis	-10.685
▁corso	-10.685
▁whatll	-10.685
▁behold	-10.685
▁wagon	-10.685
▁password	-10.685
▁specifically	-10.6851
▁sunset	-10.6851
▁hawaiian	-10.6851
▁scent	-10.6851
▁grabbed	-10.6851
▁fox	-10.6851
▁daley	-10.6851
▁webber	-10.6852
▁cmon	-10.6852
▁boogie	-10.6853
▁drew	-10.6853
▁lordship	-10.6853
▁buzzes	-10.6853
▁housekeeper	-10.6854
▁weakness	-10.6854
ker	-10.6854
▁battery	-10.6855
▁touchdown	-10.6855
▁so	-10.6855
▁cameron	-10.6855
▁expression	-10.6857
▁anton	-10.6858
▁buzzer	-10.6858
▁craft	-10.686
▁bert	-10.6862
▁waar	-10.6862
▁witnesses	-10.6862
▁motherfucking	-10.6864
▁betrayed	-10.687
▁frankie	-10.6871
▁min	-10.6876
▁refused	-10.688
▁sealed	-10.6881
ze	-10.6882
▁sha	-10.6883
▁corpse	-10.6888
▁released	-10.6889
▁introduced	-10.6894
▁ski	-10.6896
▁tooth	-10.6897
▁meantime	-10.6909
▁payment	-10.6917
▁thrown	-10.6918
▁imran	-10.6926
▁ay	-10.693
▁jaw	-10.6931
▁hogs	-10.6932
▁pays	-10.6934
▁tracking	-10.694
▁trauma	-10.6952
▁grip	-10.6977
▁hu	-10.6978
▁tilly	-10.6981
▁br	-10.6987
▁limit	-10.6987
▁positions	-10.6993
▁explode	-10.6995
▁jan	-10.7002
▁benefit	-10.7009
▁minnie	-10.701
▁landed	-10.7011
▁debt	-10.7011
▁candle	-10.7012
▁slave	-10.7012
▁result	-10.7013
▁angle	-10.7014
▁pearl	-10.7031
og	-10.7031
▁movement	-10.7044
▁jews	-10.7054
ak	-10.7057
▁sticking	-10.7063
▁pale	-10.7064
▁mal	-10.7075
berg	-10.7082
▁dates	-10.7088
▁environment	-10.7093
▁chips	-10.7096
▁krabs	-10.7101
ning	-10.7103
▁ye	-10.711
▁now	-10.7113
▁disturb	-10.7114
▁drown	-10.7114
▁lin	-10.7118
▁machines	-10.7121
▁planes	-10.7121
▁val	-10.7125
▁greater	-10.7129
▁she	-10.7129
▁advise	-10.7131
▁screech	-10.7131
▁weigh	-10.7133
▁whistles	-10.7136
▁herr	-10.7136
▁betray	-10.7138
▁trigger	-10.7142
▁register	-10.7142
▁spill	-10.7143
▁am	-10.7146
▁vice	-10.7147
▁tag	-10.7149
▁wack	-10.7152
▁graduate	-10.7159
▁terror	-10.7161
▁benedict	-10.7162
▁committee	-10.7162
▁dammit	-10.7162
▁duffy	-10.7162
▁envelope	-10.7162
▁extend	-10.7162
▁extraordinary	-10.7162
▁figaro	-10.7162
▁happily	-10.7162
▁imagination	-10.7162
▁independent	-10.7162
▁kindergarten	-10.7162
▁naughty	-10.7162
▁relief	-10.7162
▁similar	-10.7162
▁underwear	-10.7162
▁zidler	-10.7162
▁bureau	-10.7162
▁dragged	-10.7162
▁gently	-10.7162
▁sheep	-10.7162
▁fascinating	-10.7162
▁fireworks	-10.7162
▁spectacular	-10.7162
▁destruction	-10.7163
▁solution	-10.7163
▁burden	-10.7163
▁scotch	-10.7163
▁kidnapping	-10.7163
▁argue	-10.7163
espite	-10.7163
▁hostile	-10.7163
▁doubtfire	-10.7163
▁minho	-10.7163
▁radar	-10.7163
▁assignment	-10.7163
▁satisfied	-10.7163
▁chaos	-10.7163
▁motor	-10.7163
▁massive	-10.7163
▁surgeon	-10.7164
▁tide	-10.7164
▁nephew	-10.7164
▁possibility	-10.7164
▁claudio	-10.7164
▁minus	-10.7164
▁organism	-10.7164
▁diana	-10.7164
▁commit	-10.7164
▁chess	-10.7165
▁crain	-10.7165
▁haku	-10.7166
▁solo	-10.7167
▁ashes	-10.7167
▁brandon	-10.7168
▁grug	-10.7168
▁pole	-10.717
▁through	-10.7172
▁warden	-10.7172
▁mansion	-10.7174
▁roarke	-10.7175
▁maids	-10.7176
▁helpless	-10.7177
▁advanced	-10.7178
▁adopted	-10.718
▁drowned	-10.7183
▁internal	-10.7186
▁useful	-10.719
▁rape	-10.719
▁coin	-10.7192
▁separated	-10.7193
▁mae	-10.7194
▁instructions	-10.7199
▁poisoned	-10.7199
▁lovers	-10.7205
▁consequences	-10.7209
▁jacks	-10.721
▁che	-10.721
▁sensei	-10.7211
▁lawn	-10.7211
▁dumped	-10.7212
▁ban	-10.7224
▁scaring	-10.7227
▁lend	-10.7236
vo	-10.7241
▁wars	-10.7241
▁smarter	-10.7243
▁peaceful	-10.7256
▁zoon	-10.7265
▁bothering	-10.7269
▁tis	-10.7278
▁dings	-10.728
▁niggas	-10.7281
▁ci	-10.7294
▁leak	-10.7304
bl	-10.7308
▁civilians	-10.731
▁results	-10.7314
▁souls	-10.7315
cus	-10.7329
▁shooter	-10.733
▁album	-10.7331
▁tattoo	-10.7333
▁catholic	-10.7334
▁intention	-10.7335
▁muscle	-10.7335
▁shadow	-10.7335
▁civilian	-10.7336
▁scientist	-10.7336
▁hostage	-10.7337
ons	-10.7359
▁murders	-10.7374
▁fl	-10.7374
▁negotiate	-10.7378
▁rogers	-10.7382
▁fel	-10.7387
▁den	-10.7392
ving	-10.74
gg	-10.7401
ola	-10.7414
▁zoo	-10.7429
hole	-10.7432
ence	-10.7449
au	-10.745
how	-10.7452
▁retreat	-10.7456
ns	-10.7456
▁fo	-10.7457
▁fame	-10.7457
▁trains	-10.7457
▁hal	-10.746
▁whack	-10.7465
▁capture	-10.7471
sky	-10.7473
▁shoo	-10.7474
▁criminals	-10.7475
▁constant	-10.7475
▁peach	-10.7482
istic	-10.7482
▁tan	-10.7483
▁pimp	-10.7483
▁complex	-10.7483
▁athens	-10.7485
▁beloved	-10.7485
▁bertleman	-10.7485
▁bourne	-10.7485
▁broadcast	-10.7485
▁calvin	-10.7485
▁elaine	-10.7485
▁fountain	-10.7485
▁furniture	-10.7485
▁isaac	-10.7485
▁laszlo	-10.7485
▁luigi	-10.7485
▁natalie	-10.7485
▁terrified	-10.7485
▁turkey	-10.7485
▁wisdom	-10.7485
▁patriot	-10.7485
▁scoop	-10.7485
▁signior	-10.7485
▁darn	-10.7485
▁harvard	-10.7485
▁imitate	-10.7485
▁matata	-10.7485
▁vicious	-10.7485
▁serum	-10.7485
▁parade	-10.7486
▁hannah	-10.7486
▁arabic	-10.7486
▁myth	-10.7486
▁gail	-10.7486
▁ladder	-10.7486
▁drake	-10.7487
▁lawyers	-10.7487
▁primero	-10.7487
▁ghostface	-10.7489
▁jessie	-10.7489
▁fore	-10.7489
▁jj	-10.7489
▁stepped	-10.749
▁recipe	-10.749
▁murmuring	-10.749
▁loop	-10.7491
▁obey	-10.7496
▁comic	-10.7497
▁threatened	-10.7498
▁worthless	-10.75
▁creepy	-10.75
▁mixed	-10.7504
dog	-10.7505
▁films	-10.7507
▁breed	-10.7507
▁daylight	-10.7508
▁figures	-10.7508
▁pacific	-10.7511
▁mush	-10.7511
▁bald	-10.7512
▁divorced	-10.7516
▁grim	-10.7517
▁khan	-10.7519
▁suffered	-10.7528
▁elvis	-10.7529
▁conditions	-10.7529
▁nervously	-10.7533
▁cutter	-10.7542
▁proved	-10.7549
▁karl	-10.7552
▁fears	-10.7556
▁pilots	-10.7558
▁mindy	-10.7567
all	-10.7572
▁neat	-10.7585
▁driven	-10.7586
▁musical	-10.7586
▁wen	-10.7588
▁pretending	-10.7595
▁goal	-10.7597
▁bombs	-10.7603
▁owls	-10.7605
▁leaders	-10.7605
▁worthy	-10.7606
▁par	-10.7622
▁sail	-10.7624
▁recorded	-10.7637
▁virginia	-10.7649
▁lip	-10.7656
▁soviet	-10.7662
▁packing	-10.7663
▁kitten	-10.7664
▁commercial	-10.7665
▁lesbian	-10.7665
▁cheek	-10.7667
▁marble	-10.7667
▁shaw	-10.7671
▁joseph	-10.7674
▁degree	-10.7675
ters	-10.7691
▁checks	-10.7692
▁toes	-10.7702
▁costs	-10.7706
▁returning	-10.7714
▁dip	-10.7719
oc	-10.7742
ax	-10.777
▁ac	-10.7771
con	-10.7771
▁walker	-10.7782
bird	-10.7788
▁orbit	-10.779
▁affect	-10.7795
▁glob	-10.7797
▁apples	-10.7798
▁struggle	-10.7803
▁behave	-10.7803
▁crab	-10.7804
▁sins	-10.7807
we	-10.7807
▁immediate	-10.7809
▁apply	-10.7809
▁africa	-10.7811
▁measure	-10.7813
▁abort	-10.7816
▁lovin	-10.7816
▁brace	-10.7818
▁aggressive	-10.7818
▁candice	-10.7818
▁hermione	-10.7818
▁japanese	-10.7818
▁lewis	-10.7818
▁poopypants	-10.7818
▁religious	-10.7818
▁sheila	-10.7818
▁stormtrooper	-10.7818
▁umbrella	-10.7818
▁nicole	-10.7818
▁coconut	-10.7818
▁freddie	-10.7818
▁magnificent	-10.7818
▁shelter	-10.7818
▁robbie	-10.7818
▁debate	-10.7819
▁breeze	-10.7819
▁lydia	-10.7819
▁misery	-10.7819
▁clive	-10.7819
▁nickname	-10.7819
▁thisll	-10.7819
▁slick	-10.7819
▁medication	-10.7819
▁beings	-10.7819
▁salmon	-10.7819
▁mortal	-10.7819
▁vocalizing	-10.782
▁iike	-10.7821
▁inevitable	-10.7821
▁jax	-10.7821
▁replacement	-10.7821
▁hallet	-10.7821
▁grey	-10.7821
▁exhausted	-10.7822
▁production	-10.7822
▁inches	-10.7822
▁shiny	-10.7823
▁dishes	-10.7824
▁mice	-10.7825
▁barber	-10.7825
▁shuttle	-10.7825
▁newt	-10.7826
▁cellar	-10.7828
▁determined	-10.7828
▁authorized	-10.783
▁rice	-10.7831
▁squealing	-10.7831
▁currently	-10.7832
▁fights	-10.7834
▁eden	-10.7835
▁geen	-10.7836
▁stream	-10.7838
▁melt	-10.7838
▁squeaking	-10.7839
▁fur	-10.7841
▁brandy	-10.7841
▁boxes	-10.7846
▁informed	-10.7847
▁formal	-10.7857
▁gunshots	-10.7859
▁damon	-10.786
▁shocked	-10.7861
▁crushed	-10.7861
▁tada	-10.7862
▁severe	-10.7862
▁businessman	-10.7863
▁assumed	-10.7866
▁kindness	-10.787
▁models	-10.7874
▁washed	-10.7883
▁troubles	-10.7892
▁freaked	-10.7893
▁talks	-10.7898
▁sweater	-10.7899
▁wishes	-10.79
▁cracking	-10.7906
▁sl	-10.792
▁tablet	-10.792
ming	-10.7926
ber	-10.7934
▁heroin	-10.7948
▁dive	-10.7952
▁crossing	-10.7963
▁prayers	-10.7964
▁engineer	-10.7975
▁stud	-10.798
▁exists	-10.7997
ste	-10.8
▁me	-10.8
▁mexican	-10.8007
▁election	-10.8008
▁ch	-10.801
▁signature	-10.8011
▁mole	-10.8014
▁rumor	-10.8014
▁pattern	-10.8015
▁luke	-10.802
▁kicking	-10.8021
▁shove	-10.8021
▁aan	-10.8021
▁wonders	-10.8022
▁tube	-10.8031
▁cha	-10.805
▁targets	-10.8061
▁mat	-10.8062
▁cur	-10.8077
bi	-10.8082
▁greene	-10.8086
some	-10.8093
▁answered	-10.8096
▁passengers	-10.8099
▁gi	-10.8101
▁rum	-10.8105
▁ned	-10.8108
▁asks	-10.8115
▁vers	-10.812
mar	-10.8121
▁buzz	-10.8123
fl	-10.8127
▁recover	-10.8131
▁flush	-10.8134
▁conduct	-10.8138
▁junk	-10.8144
▁engage	-10.8147
▁evacuate	-10.8148
▁erase	-10.8149
▁ren	-10.8152
▁unexpected	-10.8153
▁fortunate	-10.8154
▁sends	-10.8157
▁roses	-10.816
▁capital	-10.8161
▁civil	-10.8162
▁vince	-10.8162
▁atlanta	-10.8163
▁benedick	-10.8163
▁buddies	-10.8163
▁carnival	-10.8163
▁celebration	-10.8163
▁conflict	-10.8163
▁deputy	-10.8163
▁hilarious	-10.8163
▁intelligent	-10.8163
▁liquid	-10.8163
▁marianne	-10.8163
▁mumbling	-10.8163
▁tequila	-10.8163
▁teresa	-10.8163
▁flank	-10.8163
▁rifle	-10.8163
▁mancub	-10.8163
▁twinkle	-10.8163
▁conclusion	-10.8163
▁turtle	-10.8163
▁statue	-10.8163
▁creative	-10.8163
▁tissue	-10.8163
▁choir	-10.8163
▁medium	-10.8163
▁ernie	-10.8164
▁yuri	-10.8164
▁poetry	-10.8164
▁slipped	-10.8164
▁rotten	-10.8164
▁augustus	-10.8164
▁temporary	-10.8165
▁romance	-10.8165
▁balin	-10.8165
▁raw	-10.8165
▁elise	-10.8166
▁judy	-10.8166
▁manual	-10.8166
▁polly	-10.8167
py	-10.8168
▁hans	-10.8168
▁rex	-10.8169
▁priory	-10.8169
▁facing	-10.817
▁hitler	-10.8172
▁multiple	-10.8173
▁copies	-10.8175
▁decisions	-10.8175
▁jared	-10.8176
▁dock	-10.8176
▁scraping	-10.8177
▁thinkin	-10.8178
▁frances	-10.8178
▁inch	-10.8178
▁chad	-10.8179
▁qui	-10.818
▁thrilled	-10.818
▁backyard	-10.8181
▁barry	-10.8184
▁shave	-10.8186
▁laser	-10.8192
ating	-10.8193
▁rd	-10.8196
▁dealer	-10.8197
▁lola	-10.8199
ack	-10.8202
ship	-10.8215
▁moans	-10.8219
▁trumpets	-10.8219
▁borrowed	-10.8221
▁ian	-10.8223
ose	-10.8224
▁nicky	-10.8227
▁painted	-10.8237
▁locker	-10.8251
▁suggesting	-10.8261
▁peel	-10.8264
ions	-10.8267
val	-10.8279
▁rag	-10.828
▁cents	-10.8283
▁socks	-10.8299
▁rounds	-10.8301
min	-10.8303
▁kw	-10.8311
▁anyways	-10.8319
▁gr	-10.8323
ade	-10.8326
▁sum	-10.8327
▁rig	-10.8336
▁hoe	-10.8338
uit	-10.8339
▁demand	-10.8341
▁groan	-10.8345
▁depend	-10.8347
▁protected	-10.8359
▁tellin	-10.8364
▁manners	-10.8364
▁backpack	-10.8366
▁belief	-10.8366
▁volunteer	-10.8368
▁colleague	-10.8368
▁marrying	-10.8369
▁bean	-10.8369
▁scout	-10.837
▁feather	-10.837
▁spots	-10.8393
mate	-10.8393
▁deer	-10.8394
▁beam	-10.8398
▁temper	-10.8405
▁bees	-10.8415
▁rep	-10.8428
▁observe	-10.844
▁spa	-10.8452
▁dime	-10.8453
ook	-10.8464
▁dye	-10.8464
▁cleared	-10.8465
▁stinks	-10.8472
▁girlfriends	-10.8473
▁commission	-10.8473
▁mix	-10.8474
wood	-10.8477
▁jen	-10.8478
ms	-10.8486
free	-10.849
▁audition	-10.8493
▁glow	-10.8494
▁ton	-10.8495
▁adopt	-10.8498
▁weep	-10.8506
ice	-10.851
▁ultimate	-10.8511
▁recent	-10.8512
ious	-10.8515
▁hydra	-10.8515
my	-10.8515
▁potato	-10.8516
▁blank	-10.8519
▁transform	-10.8519
▁revolution	-10.8519
urban	-10.852
▁visual	-10.852
▁interfere	-10.852
▁akeem	-10.852
▁dwight	-10.852
▁hockey	-10.852
▁jordan	-10.852
▁maintenance	-10.852
▁melvin	-10.852
▁miguel	-10.852
▁sienna	-10.852
▁sixpack	-10.852
▁sniper	-10.852
▁symptoms	-10.852
▁senate	-10.852
▁stalker	-10.852
▁leroy	-10.852
▁transmission	-10.852
▁carpet	-10.852
▁celebrating	-10.852
▁favourite	-10.852
▁concept	-10.852
▁donkey	-10.8521
▁pennywise	-10.8521
▁inspector	-10.8521
▁wendy	-10.8521
▁overnight	-10.8521
▁sheba	-10.8521
▁ohara	-10.8521
▁inaudible	-10.8521
▁volcano	-10.8521
▁mature	-10.8521
▁caroline	-10.8521
▁duties	-10.8521
▁droid	-10.8522
▁shotgun	-10.8522
▁passport	-10.8522
▁sober	-10.8522
▁hammy	-10.8522
▁alike	-10.8523
▁wel	-10.8524
▁taxes	-10.8524
▁peaches	-10.8525
▁blackwood	-10.8525
▁thatch	-10.8525
▁dice	-10.8525
▁dork	-10.8525
▁jury	-10.8528
▁compared	-10.8529
▁preacher	-10.853
▁auto	-10.853
▁forgetting	-10.8531
▁willy	-10.8532
▁pancakes	-10.8534
▁kiddo	-10.8535
▁beats	-10.8535
▁triple	-10.8536
▁pad	-10.8538
uc	-10.8539
▁threatening	-10.854
▁bitter	-10.8541
▁plot	-10.8547
▁faithful	-10.855
▁wart	-10.855
▁carries	-10.8551
▁chewie	-10.8552
ably	-10.8557
▁damaged	-10.8557
▁newland	-10.8557
▁hee	-10.8561
▁chimes	-10.8562
▁cheated	-10.8563
▁cocks	-10.858
▁experienced	-10.8584
▁poop	-10.8585
▁lecture	-10.8588
▁squeals	-10.8595
▁clubs	-10.8599
▁it	-10.8602
▁workers	-10.8603
▁reminded	-10.8606
▁bothered	-10.8612
▁lions	-10.8612
▁adams	-10.8618
▁lessons	-10.8621
▁scores	-10.8624
▁kit	-10.8628
▁screwing	-10.863
▁af	-10.8636
ov	-10.8637
▁jab	-10.8641
nd	-10.8644
ium	-10.8663
▁packed	-10.8666
▁drops	-10.8688
zz	-10.8689
▁requires	-10.8701
rate	-10.8709
▁bears	-10.8719
▁privilege	-10.8721
▁beaufort	-10.8736
▁thumb	-10.8739
▁employee	-10.8742
▁sample	-10.8742
eyed	-10.8751
ied	-10.8756
▁nd	-10.8759
▁lands	-10.8771
▁prayer	-10.8778
▁moral	-10.8779
▁devils	-10.878
ect	-10.8806
▁tables	-10.8809
▁peoples	-10.881
▁fianc	-10.8812
▁hack	-10.8823
ative	-10.8825
▁brief	-10.883
▁blink	-10.8841
▁insult	-10.8841
▁embarrass	-10.8842
ern	-10.8847
grade	-10.886
▁assault	-10.8869
▁buyer	-10.8869
▁fee	-10.8869
▁spoil	-10.887
▁delay	-10.8873
▁burglar	-10.8878
▁unfortunate	-10.8881
two	-10.8882
▁glove	-10.8886
▁cruise	-10.8886
▁omar	-10.8888
▁catching	-10.8888
▁arrogant	-10.8891
▁arvin	-10.8891
▁cackling	-10.8891
▁cadillac	-10.8891
▁cottage	-10.8891
▁detroit	-10.8891
▁dojo	-10.8891
▁dumbledore	-10.8891
▁fantasies	-10.8891
▁gardner	-10.8891
▁harriet	-10.8891
▁injured	-10.8891
▁invasion	-10.8891
▁jefferson	-10.8891
▁mademoiselle	-10.8891
▁maureen	-10.8891
▁outstanding	-10.8891
▁penalty	-10.8891
▁perimeter	-10.8891
▁specimen	-10.8891
▁struggling	-10.8891
▁sync	-10.8891
▁violation	-10.8891
▁weasley	-10.8891
▁willoughby	-10.8891
▁edition	-10.8891
▁incoming	-10.8891
▁irene	-10.8891
▁stereo	-10.8891
▁clerk	-10.8891
▁communicate	-10.8891
▁ogre	-10.8891
▁narrow	-10.8891
▁baggins	-10.8891
▁unfair	-10.8891
▁previous	-10.8891
▁bagheera	-10.8891
▁lunatic	-10.8891
▁whew	-10.8891
▁creek	-10.8891
▁brandnew	-10.8891
▁urge	-10.8891
▁sharing	-10.8891
▁celia	-10.8891
▁operator	-10.8891
▁donald	-10.8891
▁kayden	-10.8891
▁waking	-10.8891
▁tunes	-10.8891
▁oven	-10.8891
▁soil	-10.8892
▁retirement	-10.8892
▁babysitter	-10.8892
▁airplane	-10.8892
▁murphy	-10.8892
▁willingham	-10.8892
▁profile	-10.8892
▁unto	-10.8893
▁owned	-10.8893
▁development	-10.8893
▁silk	-10.8894
▁borat	-10.8894
▁elite	-10.8895
▁gilly	-10.8897
▁published	-10.8897
▁squawking	-10.8899
▁vest	-10.8899
▁dismissed	-10.89
▁discussion	-10.89
▁conor	-10.89
tre	-10.8901
▁bonsai	-10.8903
▁stunt	-10.8903
▁dc	-10.8903
▁fury	-10.8904
▁executed	-10.8905
▁gina	-10.8905
▁jesse	-10.8905
▁sickness	-10.8907
▁unable	-10.8909
▁pino	-10.8909
▁reasonable	-10.8912
headed	-10.8916
▁palmer	-10.8925
▁tax	-10.8925
▁sings	-10.893
▁tricky	-10.8935
▁tips	-10.8944
▁bru	-10.8946
▁bowling	-10.8948
▁placed	-10.8949
▁closest	-10.8951
▁chin	-10.8952
ue	-10.896
▁uhh	-10.8961
▁loudly	-10.8961
▁cracked	-10.8964
▁deeper	-10.8971
▁doris	-10.8973
ven	-10.8976
▁shortly	-10.8977
ned	-10.8984
▁workin	-10.8984
▁remaining	-10.8985
▁moons	-10.8991
tro	-10.9001
▁terrorists	-10.9003
ap	-10.901
▁vampires	-10.9014
▁ant	-10.9019
▁bev	-10.9032
▁explains	-10.9043
▁samples	-10.9043
▁fits	-10.905
fa	-10.9063
▁shadows	-10.9066
▁beasts	-10.9066
well	-10.9067
act	-10.9068
▁jackets	-10.9075
▁noises	-10.9078
▁raining	-10.9082
ified	-10.9089
▁regard	-10.909
▁rom	-10.909
▁joining	-10.9109
▁corporation	-10.912
▁investment	-10.9121
▁traitor	-10.9121
▁banana	-10.9126
▁suggestion	-10.9126
uff	-10.9126
▁generation	-10.9128
▁sock	-10.9129
▁customer	-10.9133
▁maniac	-10.9138
▁ap	-10.9141
▁drum	-10.9149
ev	-10.915
▁drawer	-10.9159
▁farmer	-10.9167
▁nails	-10.9173
▁flu	-10.9186
▁drives	-10.9187
▁shatters	-10.9187
gs	-10.9193
▁ku	-10.9205
▁rem	-10.9207
▁moe	-10.9216
▁disgrace	-10.9216
ery	-10.9217
▁cases	-10.9218
▁fold	-10.9219
town	-10.9224
test	-10.9225
nine	-10.9233
▁banks	-10.9239
place	-10.9244
year	-10.9245
▁splash	-10.9248
▁invent	-10.9248
▁polish	-10.9248
▁rank	-10.9256
▁announce	-10.9258
▁financial	-10.9265
▁absolute	-10.9266
▁activate	-10.9268
▁slight	-10.9268
▁origin	-10.927
▁quarters	-10.9271
▁crate	-10.9275
▁abuela	-10.9275
▁acknowledge	-10.9275
▁apologies	-10.9275
▁approval	-10.9275
▁corporal	-10.9275
▁ferdinand	-10.9275
▁gilcrest	-10.9275
▁grogan	-10.9275
▁hudson	-10.9275
▁inspiration	-10.9275
▁ireland	-10.9275
▁jennifer	-10.9275
▁macbeth	-10.9275
▁mississippi	-10.9275
▁piragua	-10.9275
▁purchase	-10.9275
▁racist	-10.9275
▁religion	-10.9275
▁september	-10.9275
▁sleeve	-10.9275
▁struck	-10.9275
▁syndrome	-10.9275
▁ugga	-10.9275
▁vessel	-10.9275
▁drank	-10.9275
▁envy	-10.9275
▁marisa	-10.9275
▁stew	-10.9275
▁lomax	-10.9275
▁myrtle	-10.9275
▁ellis	-10.9275
▁plague	-10.9275
▁groot	-10.9275
▁tracy	-10.9275
▁ba	-10.9275
▁parole	-10.9275
▁impact	-10.9275
▁leather	-10.9275
▁beware	-10.9275
▁farewell	-10.9275
▁distress	-10.9275
▁ferry	-10.9275
▁gerda	-10.9275
▁heeft	-10.9275
▁marvelous	-10.9276
▁jolly	-10.9276
▁rising	-10.9276
▁thieves	-10.9276
▁bruno	-10.9276
▁operating	-10.9276
▁booze	-10.9276
▁assistance	-10.9276
▁freddy	-10.9276
▁creation	-10.9276
▁paperwork	-10.9276
▁objective	-10.9277
▁lanning	-10.9277
▁mutters	-10.9277
▁electricity	-10.9277
▁memorial	-10.9277
▁phrase	-10.9277
▁accountant	-10.9278
▁quitting	-10.9279
▁footage	-10.9279
▁marshall	-10.928
▁coverage	-10.928
▁wrapped	-10.928
▁cans	-10.9281
▁structure	-10.9281
▁ballet	-10.9281
▁diner	-10.9282
▁carriage	-10.9282
▁grid	-10.9282
▁kirk	-10.9283
▁makin	-10.9283
▁personality	-10.9284
▁infected	-10.9285
▁relieved	-10.9285
▁visa	-10.9285
▁bedtime	-10.9287
▁ahem	-10.9288
▁tender	-10.929
▁mankind	-10.9291
▁tessa	-10.9296
▁booked	-10.9296
▁hint	-10.9302
▁toll	-10.9308
▁sharply	-10.9308
▁islands	-10.9315
▁policeman	-10.9316
▁scheduled	-10.9318
▁wounded	-10.9318
▁gathering	-10.9319
▁coordinates	-10.9322
▁cursed	-10.9322
▁clap	-10.9326
▁plates	-10.9329
▁mil	-10.9336
▁touches	-10.9341
▁talented	-10.9341
▁eats	-10.9342
of	-10.9342
▁bala	-10.9356
▁mechanic	-10.9367
▁funds	-10.9377
hy	-10.938
▁survivors	-10.9392
▁belonged	-10.9394
▁flames	-10.9398
▁suspects	-10.94
▁bonds	-10.941
▁lu	-10.941
▁colt	-10.9411
ken	-10.9411
▁imagined	-10.9414
▁watches	-10.9428
▁gotham	-10.943
▁cracks	-10.943
wi	-10.9431
▁menu	-10.9438
▁dicks	-10.9439
bj	-10.9441
▁feeding	-10.9447
uck	-10.9455
▁muscles	-10.9458
▁reported	-10.946
▁plants	-10.9464
▁explained	-10.9465
▁mill	-10.9466
▁safely	-10.9467
rd	-10.947
▁grows	-10.9473
▁dickie	-10.9479
▁rays	-10.9484
▁mouths	-10.9494
▁roar	-10.9498
▁chains	-10.9506
▁mack	-10.9509
▁marshal	-10.9517
▁affection	-10.9521
▁distraction	-10.9521
▁mist	-10.9523
▁relationships	-10.9523
▁grenade	-10.9524
▁bucket	-10.9524
▁villain	-10.9526
▁andre	-10.9526
▁cannon	-10.9526
▁burgers	-10.9531
▁sticks	-10.954
▁ka	-10.9542
▁et	-10.9544
▁schools	-10.955
▁cart	-10.9566
▁inc	-10.9569
▁holidays	-10.9573
oon	-10.9577
▁demons	-10.9588
uw	-10.9588
▁boil	-10.9599
tte	-10.9603
▁nor	-10.9603
car	-10.9606
▁grad	-10.9607
▁snakes	-10.9615
▁crimes	-10.9617
▁yul	-10.9618
ify	-10.963
▁ham	-10.9632
mon	-10.9633
board	-10.9634
▁rider	-10.9639
▁ri	-10.9641
▁invest	-10.9644
▁fuss	-10.9645
▁possess	-10.9651
▁punish	-10.9652
▁drain	-10.9655
▁computers	-10.9657
▁merci	-10.9657
▁burns	-10.9659
▁approve	-10.9661
▁declare	-10.9663
▁crank	-10.9664
▁wholl	-10.9664
▁disorder	-10.9665
▁eternal	-10.9665
ther	-10.9668
▁saun	-10.9668
▁iraq	-10.9671
▁restrain	-10.9672
mer	-10.9673
▁novel	-10.9674
▁alter	-10.9675
▁ethel	-10.9675
▁abdullah	-10.9675
▁avenue	-10.9675
▁avner	-10.9675
▁briggs	-10.9675
▁coffin	-10.9675
▁colqhoun	-10.9675
▁conscience	-10.9675
▁darius	-10.9675
▁december	-10.9675
▁destination	-10.9675
▁dignity	-10.9675
▁disagree	-10.9675
▁einstein	-10.9675
▁ferrars	-10.9675
▁greece	-10.9675
▁identify	-10.9675
▁jennings	-10.9675
▁koslow	-10.9675
▁lucinda	-10.9675
▁manhattan	-10.9675
▁marquis	-10.9675
▁mukhtar	-10.9675
▁okinawa	-10.9675
▁stubborn	-10.9675
▁swore	-10.9675
▁truce	-10.9675
▁zahra	-10.9675
▁carpenter	-10.9675
▁pursue	-10.9675
▁skirt	-10.9675
▁usnavi	-10.9675
▁violet	-10.9675
hrer	-10.9675
▁jerome	-10.9675
▁ensure	-10.9675
▁blake	-10.9676
▁update	-10.9676
▁albert	-10.9676
▁carolina	-10.9676
▁limo	-10.9676
▁suitcase	-10.9676
▁porch	-10.9676
▁mamma	-10.9676
▁priority	-10.9676
▁lauren	-10.9676
▁jelly	-10.9676
▁subway	-10.9676
▁festival	-10.9677
▁panties	-10.9677
▁bandera	-10.9677
▁atari	-10.9677
▁journalist	-10.9677
▁sector	-10.9677
▁dummy	-10.9677
▁strategy	-10.9678
▁static	-10.9678
▁vito	-10.9678
▁strap	-10.9678
▁worn	-10.9678
▁paddy	-10.9679
▁serving	-10.9679
▁ofthe	-10.968
▁motive	-10.968
▁dedicated	-10.968
▁strictly	-10.968
▁stepping	-10.968
▁mild	-10.968
▁screeches	-10.968
▁skies	-10.9681
▁exposed	-10.9681
▁bowman	-10.9681
▁july	-10.9681
▁spotted	-10.9683
▁slightly	-10.9685
▁takin	-10.9686
▁feelin	-10.9687
▁tugg	-10.9688
▁richter	-10.9688
▁restraint	-10.9688
▁paintings	-10.9688
▁doomed	-10.9694
wee	-10.97
▁electronic	-10.97
▁louisa	-10.97
▁matches	-10.9701
▁deadline	-10.9701
▁angela	-10.9705
▁oughta	-10.9708
▁beaten	-10.9711
▁limited	-10.9712
▁twisted	-10.9712
▁drowning	-10.9713
▁ticking	-10.9721
▁dearest	-10.9723
▁crickets	-10.9734
▁il	-10.9737
ments	-10.9738
tti	-10.9738
▁chased	-10.974
▁es	-10.9743
▁era	-10.9743
▁goodlooking	-10.9754
▁suggested	-10.9761
▁sadly	-10.9766
▁maze	-10.977
▁ding	-10.9772
▁bark	-10.9774
mat	-10.9779
▁searched	-10.9781
lon	-10.9783
▁illuminati	-10.9784
▁characters	-10.9785
ron	-10.9791
▁buildings	-10.9799
▁weirdo	-10.9801
▁documents	-10.9809
▁ev	-10.9816
▁thor	-10.982
▁shovel	-10.9831
▁dorm	-10.9867
▁grounded	-10.9869
bag	-10.9889
▁mop	-10.9893
ez	-10.9894
▁fields	-10.9914
hu	-10.9921
▁closely	-10.9927
▁floors	-10.9929
▁headache	-10.9939
▁method	-10.994
▁bolt	-10.9942
▁arrangement	-10.9942
▁brake	-10.9943
▁snaps	-10.9947
▁marked	-10.995
▁runner	-10.9953
ide	-10.9957
▁visitor	-10.9959
▁rec	-10.9967
era	-10.9968
cu	-10.9968
▁steven	-10.9977
ama	-10.9978
▁hats	-10.9981
▁owl	-10.9986
▁orc	-11.0003
▁rio	-11.0008
▁rust	-11.0009
▁we	-11.0017
▁caf	-11.0042
▁thrill	-11.0043
kin	-11.0044
▁on	-11.0049
field	-11.0053
ors	-11.0054
▁handy	-11.0056
▁mater	-11.0061
ong	-11.0067
▁blindfold	-11.007
▁trans	-11.007
▁pervert	-11.007
▁conquer	-11.0071
▁haul	-11.008
▁brutal	-11.0081
ik	-11.0083
▁react	-11.0084
▁cannonball	-11.009
▁conscious	-11.0091
▁occur	-11.0091
▁rail	-11.0092
lijk	-11.0092
▁arriving	-11.0092
▁aspirin	-11.0092
▁atlantis	-11.0092
▁bernard	-11.0092
▁bounty	-11.0092
▁cafeteria	-11.0092
▁cogburn	-11.0092
▁dialogue	-11.0092
▁gwen	-11.0092
▁honeymoon	-11.0092
▁kobayashi	-11.0092
▁krupp	-11.0092
▁lobster	-11.0092
▁lounge	-11.0092
▁messenger	-11.0092
▁ordinary	-11.0092
▁ossory	-11.0092
▁picnic	-11.0092
▁rainbow	-11.0092
▁sunglasses	-11.0092
▁tragedy	-11.0092
▁vittoria	-11.0092
▁volume	-11.0092
▁bloom	-11.0092
▁neighbourhood	-11.0092
▁analysis	-11.0092
▁brett	-11.0092
▁drummer	-11.0092
▁typewriter	-11.0092
▁institution	-11.0092
▁cocktail	-11.0092
▁whiskey	-11.0092
▁georgia	-11.0092
▁dashwood	-11.0092
▁kidnapper	-11.0092
▁activity	-11.0093
▁kathy	-11.0093
▁flashlight	-11.0093
▁wildfire	-11.0093
▁epic	-11.0093
▁saddle	-11.0093
▁define	-11.0093
▁pause	-11.0093
▁sentimental	-11.0093
▁construction	-11.0093
▁troll	-11.0094
▁forehead	-11.0094
▁studies	-11.0094
▁images	-11.0094
▁hence	-11.0094
▁poker	-11.0094
▁diary	-11.0095
▁fries	-11.0095
▁robby	-11.0095
▁aidan	-11.0095
▁management	-11.0096
▁fraud	-11.0096
▁invention	-11.0097
▁remarkable	-11.0097
▁georgie	-11.0097
▁clanging	-11.0097
▁harmless	-11.0097
▁homicide	-11.0098
▁asian	-11.0098
▁broom	-11.0098
▁yelping	-11.0098
▁quest	-11.0099
▁spain	-11.0099
▁moss	-11.0099
▁digit	-11.0099
▁african	-11.0101
▁aii	-11.0101
▁bribe	-11.0102
▁growth	-11.0102
▁fag	-11.0103
▁stomp	-11.0103
▁revealed	-11.0106
▁jamal	-11.0107
▁brad	-11.0107
▁approved	-11.0107
▁humanity	-11.0109
▁hotter	-11.011
▁cain	-11.0111
▁spite	-11.0112
▁applauding	-11.0112
▁punished	-11.0114
▁projects	-11.0119
▁spilled	-11.012
▁powerless	-11.0121
▁ra	-11.0122
stone	-11.0122
▁scotty	-11.0122
▁stutters	-11.0128
▁cargo	-11.0128
▁prey	-11.0132
▁glenn	-11.0133
▁floating	-11.0137
bed	-11.0138
▁teen	-11.0141
▁afterwards	-11.0141
▁appeared	-11.0144
▁boobs	-11.0146
▁mag	-11.0148
▁delivered	-11.015
▁hustle	-11.0153
▁mistaken	-11.0153
▁raped	-11.0159
▁cor	-11.0162
▁requested	-11.0164
▁howdy	-11.0168
▁homeless	-11.0171
▁choices	-11.018
▁colors	-11.0182
▁ribs	-11.0184
▁riot	-11.0185
▁bruises	-11.0186
▁crashed	-11.0192
▁lifted	-11.0198
▁dinosaurs	-11.0199
▁wiggin	-11.0208
▁smoked	-11.0212
▁niggers	-11.0214
▁blocked	-11.0219
▁fung	-11.0222
▁traveled	-11.0222
▁meters	-11.0227
▁handled	-11.0241
▁gran	-11.0245
▁reed	-11.0253
▁discipline	-11.0257
▁ants	-11.0264
▁kindly	-11.0265
▁beans	-11.0269
▁rolled	-11.0274
▁kneel	-11.0275
▁slaves	-11.0297
lan	-11.0311
▁laying	-11.0312
▁clan	-11.0313
▁shirts	-11.0322
▁shi	-11.0327
▁coma	-11.0335
▁feds	-11.0338
bar	-11.0339
▁mode	-11.0342
fully	-11.0349
▁affairs	-11.035
▁chan	-11.0357
▁reporting	-11.0359
▁missiles	-11.0363
▁covering	-11.0368
▁horror	-11.037
▁dungeon	-11.0371
▁balloon	-11.0373
▁savage	-11.0373
▁candidate	-11.0374
▁comrade	-11.0374
▁astronaut	-11.0375
▁inmate	-11.0377
▁servant	-11.0378
▁jer	-11.0379
▁evan	-11.0382
▁stations	-11.0387
▁asset	-11.0391
▁cent	-11.0392
▁locks	-11.0403
▁mei	-11.0404
▁ken	-11.0405
▁hol	-11.0415
▁mon	-11.0434
▁hah	-11.0435
▁directions	-11.0436
▁spits	-11.0449
▁protest	-11.0454
chi	-11.0469
▁corps	-11.0472
▁logic	-11.0472
▁roast	-11.0477
▁acts	-11.0481
▁ble	-11.0489
▁naar	-11.0492
found	-11.0496
box	-11.0498
foot	-11.0499
▁dragons	-11.0502
▁cloth	-11.0502
▁mount	-11.0505
top	-11.0508
▁abuse	-11.0516
▁initial	-11.0517
▁bree	-11.0521
▁frame	-11.0522
▁doom	-11.0523
▁cows	-11.0524
▁meteor	-11.0525
▁exhibit	-11.0525
▁grease	-11.0526
▁lamp	-11.0526
▁absurd	-11.0527
▁academy	-11.0527
▁alabanza	-11.0527
▁andromeda	-11.0527
▁blizzard	-11.0527
▁brogan	-11.0527
▁camerlengo	-11.0527
▁carlisle	-11.0527
▁convenient	-11.0527
▁dimitri	-11.0527
▁editor	-11.0527
▁empress	-11.0527
▁fitzgerald	-11.0527
▁gratitude	-11.0527
▁heffley	-11.0527
▁hurricane	-11.0527
▁ipad	-11.0527
▁isolation	-11.0527
▁jij	-11.0527
▁motorcycle	-11.0527
▁mulligan	-11.0527
▁patricia	-11.0527
▁pencil	-11.0527
▁possibilities	-11.0527
▁rouge	-11.0527
▁sebastian	-11.0527
▁soccer	-11.0527
▁supplies	-11.0527
▁welfare	-11.0527
▁wyatt	-11.0527
▁agnes	-11.0527
▁buckingham	-11.0527
▁faggot	-11.0527
▁houston	-11.0527
▁kurt	-11.0527
▁kershaw	-11.0527
▁assuming	-11.0527
▁gallery	-11.0527
▁cavalry	-11.0527
▁dragging	-11.0527
▁krell	-11.0527
▁tropic	-11.0527
▁chorus	-11.0527
▁lease	-11.0527
▁pension	-11.0527
▁denied	-11.0527
▁graduation	-11.0527
▁kofi	-11.0527
▁robinson	-11.0527
▁spud	-11.0527
▁excitement	-11.0527
▁nefarious	-11.0527
▁hissing	-11.0527
▁rack	-11.0527
▁smee	-11.0527
▁embassy	-11.0527
▁fluid	-11.0528
▁rustling	-11.0528
▁upside	-11.0528
▁glue	-11.0528
▁generator	-11.0528
▁triumphant	-11.0528
▁haircut	-11.0528
▁jewelry	-11.0528
▁puff	-11.0528
▁zeta	-11.0528
▁starboard	-11.0529
▁waist	-11.0529
▁fax	-11.0529
▁ridley	-11.053
▁revving	-11.053
▁abra	-11.053
▁emily	-11.053
▁confession	-11.053
▁cities	-11.0531
▁rj	-11.0531
▁centre	-11.0532
▁artists	-11.0532
▁joyce	-11.0532
▁reid	-11.0532
▁publicity	-11.0533
▁fitting	-11.0533
▁massage	-11.0534
▁erik	-11.0534
▁puke	-11.0535
▁clearance	-11.0535
▁swamp	-11.0535
▁forgiveness	-11.0536
▁wooden	-11.0537
▁rear	-11.0538
▁rookie	-11.0538
▁madness	-11.0541
▁haunted	-11.0541
▁bash	-11.0541
▁spike	-11.0544
▁discovery	-11.0547
▁blonde	-11.0548
▁stiff	-11.0549
▁drunken	-11.0549
▁sore	-11.055
▁ferris	-11.0551
▁chirps	-11.0557
▁registered	-11.0558
▁dayday	-11.0558
▁ana	-11.0559
▁mia	-11.0564
▁bunker	-11.0565
▁sewer	-11.0566
▁sato	-11.057
▁pace	-11.0571
▁shitting	-11.0576
▁whys	-11.0585
pped	-11.0586
▁bron	-11.0594
▁entered	-11.0595
▁deaths	-11.0599
bin	-11.06
▁germ	-11.0601
▁poet	-11.0605
▁bucky	-11.0612
▁fires	-11.062
▁dj	-11.062
bre	-11.063
▁marching	-11.0632
▁designer	-11.0632
▁busting	-11.0635
gging	-11.0636
▁washing	-11.064
pen	-11.064
▁messy	-11.0643
▁cooked	-11.0643
▁charged	-11.0647
▁familys	-11.0647
▁americas	-11.065
▁flights	-11.0655
▁bubbles	-11.0673
▁worms	-11.0673
▁salesman	-11.0679
▁wheeler	-11.0679
▁treating	-11.0687
▁gifted	-11.0689
ada	-11.0706
▁choke	-11.071
▁lefty	-11.071
▁feathers	-11.0714
▁chas	-11.0722
tes	-11.0724
ney	-11.0746
▁doe	-11.0765
ito	-11.0768
▁fu	-11.0786
▁freaks	-11.0791
▁smelled	-11.0795
▁nerves	-11.0796
▁cough	-11.0807
▁squeak	-11.0811
▁lords	-11.0814
▁cu	-11.0815
▁impress	-11.0819
▁prep	-11.0823
▁operations	-11.0823
▁session	-11.0826
▁pigeon	-11.0828
▁communication	-11.083
▁bubble	-11.0831
▁vampire	-11.0831
▁document	-11.0831
▁yankee	-11.0832
▁nazi	-11.0833
▁skill	-11.0835
▁nuke	-11.0835
▁cue	-11.0837
▁unc	-11.0838
ini	-11.084
▁photographer	-11.0841
▁fist	-11.0841
▁playin	-11.0843
▁stripper	-11.0847
▁worm	-11.0848
▁nicer	-11.0848
▁heel	-11.0854
rl	-11.086
▁he	-11.086
▁marys	-11.0866
ology	-11.088
old	-11.088
▁dang	-11.089
▁bea	-11.0897
▁sho	-11.0917
▁tim	-11.0924
▁flood	-11.093
▁develop	-11.0931
▁coop	-11.0934
book	-11.0939
▁elses	-11.0939
▁profession	-11.0945
▁ace	-11.0951
▁reckon	-11.0952
▁hawk	-11.0952
▁examine	-11.0952
▁reject	-11.0957
▁draft	-11.096
▁raid	-11.096
▁filth	-11.0969
▁predict	-11.0971
▁heave	-11.0975
▁resent	-11.0977
▁hawaii	-11.0979
▁nola	-11.0979
▁reception	-11.098
▁henri	-11.098
▁asgard	-11.0981
▁immortal	-11.0981
▁cobb	-11.0981
▁straw	-11.0981
▁bachelor	-11.0981
▁april	-11.0981
▁archibald	-11.0981
▁autopsy	-11.0981
▁bangkok	-11.0981
▁bikini	-11.0981
▁canyon	-11.0981
▁capacity	-11.0981
▁celebrity	-11.0981
▁cleopatra	-11.0981
▁confusing	-11.0981
▁dreyman	-11.0981
▁enterprise	-11.0981
▁eugene	-11.0981
▁evacuation	-11.0981
▁ferrigno	-11.0981
▁fugitive	-11.0981
▁gossip	-11.0981
▁happier	-11.0981
▁houssam	-11.0981
▁instance	-11.0981
▁matrix	-11.0981
▁miranda	-11.0981
▁october	-11.0981
▁olenska	-11.0981
▁phoenix	-11.0981
▁platform	-11.0981
▁prostitute	-11.0981
▁pyramus	-11.0981
▁retrieve	-11.0981
▁scarecrow	-11.0981
▁semester	-11.0981
▁snarls	-11.0981
▁tremendous	-11.0981
▁venice	-11.0981
▁joffer	-11.0981
▁klaus	-11.0981
▁whatsoever	-11.0981
▁mutual	-11.0981
▁harsh	-11.0981
▁oui	-11.0981
▁slippers	-11.0981
▁gracious	-11.0981
▁mckenzie	-11.0981
▁raspberry	-11.0981
▁exhusband	-11.0981
▁civilization	-11.0981
▁lipstick	-11.0981
▁rash	-11.0981
▁guldan	-11.0981
▁raising	-11.0982
▁executive	-11.0982
▁studied	-11.0982
▁feast	-11.0982
▁weii	-11.0982
▁radiation	-11.0982
▁patties	-11.0982
▁referee	-11.0982
▁population	-11.0982
▁maximum	-11.0982
▁intimate	-11.0982
▁ginny	-11.0982
▁psychiatrist	-11.0982
▁roam	-11.0982
▁transferred	-11.0982
▁thunk	-11.0983
▁jess	-11.0983
▁hansel	-11.0983
▁gps	-11.0983
▁resistance	-11.0983
▁burst	-11.0983
▁nova	-11.0984
▁freya	-11.0984
▁broadway	-11.0984
erstr	-11.0985
▁bangs	-11.0985
▁token	-11.0985
▁eastern	-11.0986
▁sympathy	-11.0986
▁wiggle	-11.0987
▁meanwhile	-11.0987
▁automatic	-11.0987
▁aiden	-11.0987
▁flavor	-11.0988
▁franklin	-11.0988
▁vow	-11.0988
▁stealth	-11.0988
▁shrieking	-11.0988
▁monk	-11.0989
▁cape	-11.099
▁benny	-11.0993
▁inner	-11.0994
▁brady	-11.0994
▁constantly	-11.0995
▁retarded	-11.0995
▁virtue	-11.0996
▁markum	-11.0996
▁sals	-11.0998
▁psychic	-11.0998
▁pork	-11.0999
▁hatter	-11.0999
▁herd	-11.1
▁andand	-11.1
▁activated	-11.1002
▁sew	-11.1003
▁replaced	-11.1003
▁stark	-11.1005
▁resources	-11.1006
▁ook	-11.1008
▁recovered	-11.1009
▁sources	-11.1011
▁queer	-11.1011
▁mamas	-11.1017
▁beers	-11.1019
▁disturbing	-11.1022
▁carmen	-11.1029
▁yum	-11.1033
▁burnt	-11.1035
▁understands	-11.1041
▁clearing	-11.1042
▁crawling	-11.1043
wind	-11.1059
▁tourists	-11.1063
▁beds	-11.1068
▁screamed	-11.1077
▁yea	-11.1081
▁waiter	-11.1085
▁untie	-11.109
▁olympic	-11.1099
▁orphans	-11.1105
ular	-11.1108
▁breasts	-11.1113
eg	-11.1123
ew	-11.1134
▁heels	-11.1135
▁walkin	-11.114
▁ei	-11.1141
▁servants	-11.1142
▁grounds	-11.1143
▁sucking	-11.1148
▁ni	-11.1156
▁putman	-11.1166
▁inn	-11.1171
eth	-11.1185
▁earl	-11.1186
▁questioning	-11.1188
if	-11.1193
▁attacks	-11.1194
▁lifes	-11.1195
▁roads	-11.12
▁li	-11.1228
▁thuds	-11.1235
▁knights	-11.1242
her	-11.1242
▁aha	-11.1243
ile	-11.1246
▁fra	-11.1247
▁newspapers	-11.1249
▁batt	-11.1251
▁teams	-11.1253
▁dressing	-11.1256
▁whisper	-11.126
ado	-11.1264
▁cube	-11.1268
▁meds	-11.1269
▁cared	-11.127
▁palm	-11.1283
▁bri	-11.1286
▁oaks	-11.1292
ast	-11.1295
▁guinea	-11.1302
▁canadian	-11.1303
▁technique	-11.1303
▁circuit	-11.1304
▁curtain	-11.1304
▁flame	-11.1307
▁shark	-11.1308
▁fork	-11.1309
ren	-11.1311
▁fuckers	-11.1338
term	-11.1345
▁cuba	-11.1348
▁cracker	-11.1348
ible	-11.1352
▁magnet	-11.1359
▁custom	-11.1361
▁domestic	-11.1362
▁cre	-11.1373
▁packs	-11.1377
▁signing	-11.1383
▁nala	-11.1386
▁zip	-11.1387
▁strain	-11.1391
▁claims	-11.1394
ath	-11.1395
night	-11.1396
▁nog	-11.1399
work	-11.1401
▁values	-11.1402
▁geez	-11.1402
▁sta	-11.1405
▁delight	-11.1411
born	-11.1412
▁fighters	-11.1413
water	-11.142
▁butts	-11.142
▁bunk	-11.1424
▁helpful	-11.1426
▁areas	-11.1426
▁wakes	-11.143
▁encounter	-11.1436
▁moo	-11.1437
▁mourn	-11.1439
▁arrange	-11.1442
▁translate	-11.1442
▁typical	-11.1447
▁instant	-11.1448
what	-11.1449
▁australia	-11.145
▁ere	-11.1455
▁runnin	-11.1456
▁august	-11.1456
▁kidnap	-11.1456
▁chap	-11.1457
▁algorithm	-11.1457
▁allergic	-11.1457
▁almighty	-11.1457
▁alternative	-11.1457
▁artemisia	-11.1457
▁bicycle	-11.1457
▁biosyn	-11.1457
▁bofur	-11.1457
▁cassidy	-11.1457
▁cleveland	-11.1457
▁curiosity	-11.1457
▁cypher	-11.1457
▁despise	-11.1457
▁dylan	-11.1457
▁edith	-11.1457
▁elegant	-11.1457
▁enormous	-11.1457
▁fabric	-11.1457
▁fraternity	-11.1457
▁gillian	-11.1457
▁gracias	-11.1457
▁honeycutt	-11.1457
▁inappropriate	-11.1457
▁industry	-11.1457
▁injury	-11.1457
▁keeler	-11.1457
▁kendricks	-11.1457
▁liquor	-11.1457
▁madison	-11.1457
▁medusa	-11.1457
▁militia	-11.1457
▁montgomery	-11.1457
▁morbius	-11.1457
▁munich	-11.1457
▁nelson	-11.1457
▁offensive	-11.1457
▁oldfashioned	-11.1457
▁olivia	-11.1457
▁philosophy	-11.1457
▁popcorn	-11.1457
▁raccoon	-11.1457
▁sausage	-11.1457
▁shannon	-11.1457
▁socalled	-11.1457
▁storage	-11.1457
▁thanksgiving	-11.1457
▁universal	-11.1457
▁website	-11.1457
▁wilcox	-11.1457
▁aisha	-11.1457
▁authentic	-11.1457
▁fourteen	-11.1457
▁hiya	-11.1457
▁imitating	-11.1457
▁pratt	-11.1457
▁hermia	-11.1457
▁insert	-11.1457
▁jasper	-11.1457
▁whitney	-11.1458
▁rational	-11.1458
▁unconscious	-11.1458
▁believing	-11.1458
▁grethe	-11.1458
▁goddess	-11.1458
▁arjun	-11.1458
▁sworn	-11.1458
▁burke	-11.1458
▁clapping	-11.1458
▁woodward	-11.1458
▁scholarship	-11.1458
▁psychotic	-11.1459
▁parlor	-11.1459
▁marina	-11.1459
▁sherman	-11.1459
▁dexter	-11.146
▁necessarily	-11.146
▁gravity	-11.1461
▁auction	-11.1461
▁stokely	-11.1461
▁stir	-11.1462
▁arendelle	-11.1462
▁jammed	-11.1462
▁jedi	-11.1462
▁sunny	-11.1462
▁grownup	-11.1463
▁formation	-11.1463
▁kinky	-11.1464
▁betrayal	-11.1464
▁frost	-11.1464
▁european	-11.1465
▁suspended	-11.1465
▁bench	-11.1467
▁cafe	-11.1467
▁mimic	-11.1467
▁feature	-11.1468
▁sandwiches	-11.1469
▁doen	-11.1469
▁ciao	-11.147
▁identified	-11.147
ata	-11.1471
▁honorable	-11.1473
▁fried	-11.1475
▁brat	-11.1477
▁deed	-11.1477
▁delighted	-11.1478
▁hunger	-11.1481
▁wandering	-11.1481
▁fuse	-11.1483
▁straining	-11.1485
▁highness	-11.1486
▁iim	-11.1486
▁coal	-11.1489
▁physically	-11.1489
▁gathered	-11.1499
▁pouring	-11.1503
▁performing	-11.1504
▁micro	-11.1515
▁vehicles	-11.1518
nce	-11.1518
four	-11.1519
▁cured	-11.1527
▁nations	-11.1527
▁catches	-11.1529
▁bam	-11.153
▁taj	-11.1535
▁hardest	-11.1543
▁clatters	-11.1551
▁logical	-11.1554
▁creaks	-11.1558
hat	-11.1561
ift	-11.1561
▁existed	-11.1562
▁coco	-11.1565
▁teller	-11.1572
▁eagles	-11.1576
▁hen	-11.1581
▁beta	-11.1583
▁resumes	-11.1588
▁trainer	-11.1597
▁squeaks	-11.1619
ets	-11.1626
▁orcs	-11.1633
▁methods	-11.1633
▁arrangements	-11.1633
▁vc	-11.1643
▁sm	-11.1644
▁generations	-11.1648
▁pointed	-11.1649
▁hopeless	-11.1649
▁tested	-11.1649
▁employees	-11.1656
▁fooled	-11.1671
▁candles	-11.1694
▁signals	-11.1696
▁pose	-11.1703
▁nicely	-11.1737
▁contain	-11.1744
▁roots	-11.1755
▁crop	-11.176
ple	-11.1767
ically	-11.177
▁oo	-11.1778
▁dated	-11.1779
▁gra	-11.1801
▁principle	-11.1802
▁spear	-11.1803
▁coaching	-11.1805
▁spice	-11.1806
▁survivor	-11.1807
▁terrorist	-11.1809
▁folk	-11.1809
▁marine	-11.1812
▁arch	-11.1821
thing	-11.1828
▁oi	-11.1834
etic	-11.1844
▁cleaner	-11.1851
▁experiences	-11.1851
▁wounds	-11.1853
▁facts	-11.1871
▁at	-11.1888
cular	-11.1896
▁clip	-11.1899
ric	-11.1902
▁sn	-11.1914
hold	-11.1916
▁promises	-11.1919
▁meals	-11.1921
▁threaten	-11.1923
▁priests	-11.1929
▁accomplish	-11.1932
▁triumph	-11.1935
▁israel	-11.1937
▁disguise	-11.1943
▁eliminate	-11.1943
▁collapse	-11.1943
▁seize	-11.1944
burn	-11.1948
▁restore	-11.1948
ological	-11.1949
▁medic	-11.1949
▁claus	-11.1949
▁flour	-11.1953
▁aaah	-11.1956
▁reflect	-11.1956
▁confident	-11.1957
▁octopus	-11.1957
▁abilities	-11.1957
▁activities	-11.1957
▁anxious	-11.1957
▁autograph	-11.1957
▁beatrice	-11.1957
▁behalf	-11.1957
▁boycott	-11.1957
▁cemetery	-11.1957
▁cheeseburger	-11.1957
▁dalgleish	-11.1957
▁definition	-11.1957
▁dwarves	-11.1957
▁eminence	-11.1957
▁entitled	-11.1957
▁lorraine	-11.1957
▁malekith	-11.1957
▁michigan	-11.1957
▁nemerov	-11.1957
▁nevins	-11.1957
▁occupation	-11.1957
▁orleans	-11.1957
▁ounce	-11.1957
▁preparing	-11.1957
▁refrigerator	-11.1957
▁rehearsal	-11.1957
▁residence	-11.1957
▁resort	-11.1957
▁selena	-11.1957
▁serrano	-11.1957
▁shanghai	-11.1957
▁shepard	-11.1957
▁shrimp	-11.1957
▁sixteen	-11.1957
▁sunrise	-11.1957
▁supreme	-11.1957
▁tenenbaum	-11.1957
▁undercover	-11.1957
▁violin	-11.1957
▁destined	-11.1957
▁smedt	-11.1957
▁causing	-11.1957
▁conspiracy	-11.1957
▁corporate	-11.1957
▁elena	-11.1957
▁havin	-11.1957
▁muttering	-11.1957
▁acquaintance	-11.1958
▁squidward	-11.1958
▁heydrich	-11.1958
▁ocp	-11.1958
▁lenora	-11.1958
▁confusion	-11.1958
▁cooing	-11.1958
▁nanny	-11.1958
▁cloak	-11.1958
▁trophy	-11.1958
▁everdene	-11.1958
▁practicing	-11.1958
▁mathew	-11.1958
▁josef	-11.1958
▁integrity	-11.1958
▁reserve	-11.1958
▁vicky	-11.1958
▁elementary	-11.1958
▁vermin	-11.1958
▁occurred	-11.1958
▁tray	-11.1958
▁barrio	-11.1958
▁liking	-11.1958
▁lambert	-11.1958
▁legacy	-11.1958
▁vulnerable	-11.1958
▁egyptian	-11.1959
▁bait	-11.1959
▁cellphone	-11.1959
▁lorena	-11.1959
▁tension	-11.1959
▁gangster	-11.1959
▁elsewhere	-11.1959
▁felicia	-11.196
▁transportation	-11.196
▁delicate	-11.196
▁sour	-11.196
▁evie	-11.196
▁popped	-11.1961
▁kron	-11.1961
▁misunderstand	-11.1961
▁fiction	-11.1961
▁qualified	-11.1961
▁hatred	-11.1962
▁panel	-11.1962
▁curve	-11.1962
▁copper	-11.1963
▁robertson	-11.1963
▁kilo	-11.1963
▁script	-11.1963
▁kingsman	-11.1963
▁slater	-11.1964
▁malena	-11.1964
▁hush	-11.1964
▁barnes	-11.1964
▁peep	-11.1965
▁amongst	-11.1965
▁biological	-11.1965
▁plead	-11.1966
▁darlington	-11.1967
▁active	-11.1968
▁employer	-11.1969
▁tore	-11.1969
▁enz	-11.197
▁maiden	-11.197
▁located	-11.1971
▁lester	-11.1972
play	-11.1972
▁cycle	-11.1972
▁trumpeting	-11.1973
▁cork	-11.1973
▁stillwater	-11.1974
▁summoned	-11.1975
▁everyday	-11.1981
▁ticky	-11.1982
▁straighten	-11.1982
▁possessed	-11.1984
▁adore	-11.1985
▁fingerprints	-11.1985
▁fran	-11.1985
▁skid	-11.1986
▁diego	-11.1987
▁endure	-11.1987
▁globe	-11.199
▁clangs	-11.1993
▁delightful	-11.1993
▁solved	-11.1994
▁seasons	-11.1997
▁attempted	-11.1997
right	-11.1998
▁sparta	-11.1998
nde	-11.1998
▁types	-11.1999
▁comb	-11.2003
▁sitar	-11.2004
▁pounding	-11.202
▁added	-11.2023
▁letham	-11.2024
▁sensors	-11.2024
▁demo	-11.203
▁sells	-11.2033
▁intended	-11.2036
▁babys	-11.2038
▁blamed	-11.2053
▁ruled	-11.2054
▁magnetic	-11.2062
▁grades	-11.2062
▁expenses	-11.2064
▁completed	-11.2064
▁owes	-11.2075
▁embrace	-11.2076
▁prayed	-11.2079
▁relatives	-11.2079
sized	-11.2082
▁gal	-11.2087
▁discussing	-11.2093
▁whoops	-11.2094
▁shorty	-11.21
▁gags	-11.2107
▁mach	-11.2115
▁strains	-11.2116
▁gag	-11.2118
▁spells	-11.2121
▁oldest	-11.2125
▁nazis	-11.2127
▁aa	-11.2132
nder	-11.2139
▁chairs	-11.2145
▁bub	-11.2157
▁memo	-11.2169
▁alle	-11.2173
▁beams	-11.2174
▁demands	-11.2175
cle	-11.218
row	-11.219
▁presidents	-11.2198
▁holds	-11.2206
▁lighter	-11.2209
▁counted	-11.2219
▁pals	-11.2226
▁rangers	-11.2226
▁pl	-11.2227
▁planets	-11.2227
ens	-11.223
▁photographs	-11.2239
▁tools	-11.2244
▁acted	-11.2246
▁warriors	-11.2262
▁waitin	-11.2263
▁roller	-11.2268
▁danced	-11.2276
▁supposedly	-11.2292
rat	-11.2293
▁dozens	-11.2302
▁sniff	-11.2306
more	-11.2309
▁tor	-11.2311
▁persian	-11.2327
▁reservation	-11.2328
▁antique	-11.2329
net	-11.2329
▁height	-11.233
kie	-11.2331
▁decade	-11.2331
▁breast	-11.2333
▁teenager	-11.2333
▁connor	-11.2334
▁dew	-11.2334
▁mates	-11.2341
▁shuts	-11.2345
▁sixty	-11.2357
▁nasa	-11.2357
▁lid	-11.2362
▁guessing	-11.2363
▁lung	-11.2364
▁dent	-11.2379
away	-11.2379
ran	-11.2389
▁brew	-11.2391
blo	-11.2394
▁mouthing	-11.241
▁offend	-11.2421
▁author	-11.2421
▁butch	-11.2421
▁favors	-11.243
mouth	-11.2431
gy	-11.2431
▁pins	-11.2434
▁smash	-11.2435
▁bur	-11.2445
job	-11.2449
stream	-11.2453
stand	-11.2456
▁addict	-11.2461
▁deploy	-11.2461
▁slaughter	-11.2463
▁marty	-11.2465
▁unlock	-11.2467
▁achieve	-11.2469
▁wo	-11.247
fucking	-11.2473
▁numb	-11.2473
▁eighth	-11.2474
▁hysterical	-11.2474
▁korea	-11.2475
▁flee	-11.2477
boat	-11.2477
▁tow	-11.2479
▁ul	-11.248
▁kev	-11.2481
▁casual	-11.2483
▁descend	-11.2483
▁plum	-11.2483
▁compartment	-11.2483
▁forbid	-11.2484
▁accurate	-11.2484
▁anyhow	-11.2484
▁bizarre	-11.2484
▁canvas	-11.2484
▁demetrius	-11.2484
▁equation	-11.2484
▁esteem	-11.2484
▁eternity	-11.2484
▁exotic	-11.2484
▁february	-11.2484
▁grazie	-11.2484
▁hamilton	-11.2484
▁hooray	-11.2484
▁intensifie	-11.2484
▁interlinked	-11.2484
▁judging	-11.2484
▁kenneth	-11.2484
▁kuwait	-11.2484
▁lndistinct	-11.2484
▁macleod	-11.2484
▁mccoy	-11.2484
▁mcquarry	-11.2484
▁minimum	-11.2484
▁monterey	-11.2484
▁napoleon	-11.2484
▁november	-11.2484
▁ozzie	-11.2484
▁paranoid	-11.2484
▁penkovsky	-11.2484
▁pennsylvania	-11.2484
▁pursuit	-11.2484
▁sanctuary	-11.2484
▁stunning	-11.2484
▁swiss	-11.2484
▁telfer	-11.2484
▁vicomte	-11.2484
▁vomit	-11.2484
▁wesiey	-11.2484
▁austin	-11.2484
▁bueno	-11.2484
▁nypd	-11.2484
▁terminal	-11.2484
▁wallace	-11.2484
▁equipped	-11.2484
▁gorilla	-11.2484
▁thrust	-11.2484
▁cereal	-11.2484
▁morgue	-11.2484
▁puddle	-11.2484
▁vital	-11.2484
▁wardrobe	-11.2484
▁sorrow	-11.2484
▁microphone	-11.2484
▁nikki	-11.2484
▁ninetysix	-11.2484
▁jennie	-11.2484
▁mumbles	-11.2484
▁croak	-11.2484
▁enforcement	-11.2484
▁plaza	-11.2484
▁kumar	-11.2484
▁alaska	-11.2484
▁slack	-11.2484
▁lemon	-11.2484
▁creating	-11.2484
▁rodney	-11.2484
▁cujo	-11.2484
▁lucius	-11.2484
▁undone	-11.2484
▁dewey	-11.2484
▁entertainment	-11.2485
▁spinning	-11.2485
▁profound	-11.2485
▁championship	-11.2485
▁description	-11.2485
▁leonato	-11.2485
▁negro	-11.2485
▁stroll	-11.2485
▁howre	-11.2485
▁skipped	-11.2485
▁vase	-11.2485
▁argh	-11.2485
▁moose	-11.2485
▁nino	-11.2485
▁buff	-11.2486
▁lockwood	-11.2486
▁padre	-11.2486
▁realise	-11.2486
▁barrel	-11.2486
▁buckle	-11.2486
▁twat	-11.2487
▁dodo	-11.2487
▁barney	-11.2487
▁maxwell	-11.2487
▁derry	-11.2487
▁zac	-11.2488
▁vast	-11.2489
▁doggy	-11.249
▁headmaster	-11.249
▁farther	-11.249
▁scarf	-11.249
▁grain	-11.2491
▁passage	-11.2491
▁meaningless	-11.2491
▁dinky	-11.2491
▁angie	-11.2491
▁rolls	-11.2491
▁socialist	-11.2492
▁clucking	-11.2492
▁chairman	-11.2493
▁programmed	-11.2493
▁pawn	-11.2493
▁greedy	-11.2493
▁electrical	-11.2493
▁starve	-11.2495
▁scissors	-11.2496
▁cousins	-11.2497
▁hose	-11.2497
▁vanished	-11.2497
▁restored	-11.2499
▁seventh	-11.2501
▁heartbeat	-11.2501
▁vet	-11.2502
▁vibe	-11.2502
▁offended	-11.2505
fuck	-11.2505
▁outsiders	-11.2508
▁magazines	-11.2511
▁jackass	-11.2511
▁smashing	-11.2511
▁uses	-11.2512
▁mustang	-11.2513
▁graduated	-11.2514
▁assured	-11.2514
▁nun	-11.2515
▁proposed	-11.2515
▁strongest	-11.2516
▁geek	-11.2519
▁louise	-11.252
▁wiped	-11.2522
▁shipment	-11.2522
▁drawn	-11.2524
▁fastest	-11.2527
▁surprises	-11.2528
▁marc	-11.2533
▁pages	-11.2536
▁stressed	-11.2536
▁items	-11.2538
▁relations	-11.2538
▁reeves	-11.2538
▁desires	-11.2541
ude	-11.2542
▁cd	-11.2543
▁stoner	-11.2543
▁interrupting	-11.2544
▁trailer	-11.2548
▁insisted	-11.2549
▁freaky	-11.255
▁veins	-11.2554
three	-11.2556
▁ropes	-11.2559
▁pu	-11.257
▁defending	-11.2576
▁accidental	-11.2577
▁texted	-11.2578
▁talents	-11.2585
▁jade	-11.2586
▁discussed	-11.2592
▁missus	-11.2593
atic	-11.2602
▁sole	-11.261
▁kar	-11.2611
▁mutants	-11.2612
▁wished	-11.2614
▁tasted	-11.2615
▁continued	-11.2618
▁peanuts	-11.2621
▁dreamt	-11.2625
elle	-11.2632
▁fairly	-11.2637
▁sur	-11.2638
your	-11.2646
▁communications	-11.2663
▁elephants	-11.2664
▁tracker	-11.2666
▁snowing	-11.2671
▁dealt	-11.2672
▁ce	-11.2681
bit	-11.2686
put	-11.269
▁blues	-11.2694
▁orderly	-11.2695
▁upgrade	-11.2699
gro	-11.2703
▁regrets	-11.2705
ised	-11.2707
▁dame	-11.2707
ana	-11.2709
bble	-11.271
▁guarded	-11.271
▁stores	-11.2713
▁just	-11.2715
▁senses	-11.2721
▁destroying	-11.2726
▁stuffed	-11.2736
cher	-11.2747
▁wink	-11.2751
▁sher	-11.2757
als	-11.2759
▁cooler	-11.2766
▁adults	-11.2779
▁fog	-11.2788
don	-11.2793
▁boxing	-11.2796
▁fare	-11.2806
omber	-11.2807
▁reds	-11.2812
▁feared	-11.2812
▁cone	-11.2813
▁deposit	-11.2817
▁bridges	-11.283
ero	-11.2831
▁wishing	-11.2839
▁naive	-11.2843
▁intern	-11.2854
▁presume	-11.2857
▁returns	-11.2862
▁strings	-11.2864
▁finishing	-11.2882
zero	-11.2883
▁companion	-11.2884
▁profit	-11.2884
▁sleepy	-11.2886
▁resume	-11.2888
▁orphan	-11.2888
▁twin	-11.2891
▁rebel	-11.2892
ite	-11.2893
▁brownie	-11.2894
▁bu	-11.2896
▁sakes	-11.2897
▁yous	-11.2898
▁limb	-11.2899
▁funk	-11.2901
air	-11.2912
▁whoop	-11.2915
▁ph	-11.2916
▁scrub	-11.2934
ire	-11.2937
▁subs	-11.294
ore	-11.2949
▁calor	-11.2952
▁who	-11.2969
▁endless	-11.2972
yo	-11.2977
▁hog	-11.2994
▁yu	-11.2997
▁fri	-11.3003
▁counsel	-11.3008
▁ir	-11.3008
▁applaud	-11.3012
ame	-11.3013
nts	-11.3013
▁attract	-11.3016
▁devices	-11.3017
▁flaw	-11.3018
▁select	-11.3018
ability	-11.302
▁violate	-11.3025
▁locate	-11.3025
▁relieve	-11.3025
▁wander	-11.3025
▁operate	-11.303
bound	-11.303
▁modest	-11.303
▁rang	-11.3034
▁mimi	-11.3034
▁convention	-11.3035
▁republic	-11.3037
▁alta	-11.3038
▁mutt	-11.3038
▁disrespect	-11.3038
▁horizon	-11.3039
▁bonjour	-11.3039
▁bourbon	-11.3039
▁buffalo	-11.3039
▁butterflies	-11.3039
▁ceiling	-11.3039
▁clacking	-11.3039
▁covington	-11.3039
▁deceased	-11.3039
▁erotic	-11.3039
▁garlic	-11.3039
▁garrett	-11.3039
▁janitor	-11.3039
▁kgb	-11.3039
▁lavelle	-11.3039
▁lemarc	-11.3039
▁mahjong	-11.3039
▁medivh	-11.3039
▁megasaki	-11.3039
▁mikael	-11.3039
▁mulgarath	-11.3039
▁necklace	-11.3039
▁nowadays	-11.3039
▁oklahoma	-11.3039
▁orlov	-11.3039
▁philadelphia	-11.3039
▁pittsburgh	-11.3039
▁pretzel	-11.3039
▁prospect	-11.3039
▁scenario	-11.3039
▁shampoo	-11.3039
▁sidewalk	-11.3039
▁slippery	-11.3039
▁spencer	-11.3039
▁stephanie	-11.3039
▁substance	-11.3039
▁terrifying	-11.3039
▁testimony	-11.3039
▁translation	-11.3039
▁trembling	-11.3039
▁voyage	-11.3039
▁emperor	-11.3039
▁langley	-11.3039
▁olaf	-11.3039
▁error	-11.3039
▁courtesy	-11.3039
▁aisle	-11.3039
▁rebecca	-11.3039
▁lottery	-11.3039
▁purvis	-11.3039
▁snitch	-11.3039
▁merrick	-11.3039
▁hobbit	-11.3039
▁tshirt	-11.3039
▁ramses	-11.3039
▁essay	-11.3039
▁wails	-11.304
▁economic	-11.304
▁investigating	-11.304
▁scumbag	-11.304
▁shelf	-11.304
▁fiona	-11.304
▁patterson	-11.304
▁malik	-11.304
▁parrot	-11.304
▁filthiest	-11.304
▁solomon	-11.304
▁kirby	-11.304
▁repay	-11.304
▁bulgarian	-11.304
▁cried	-11.304
▁thudding	-11.304
▁norway	-11.304
▁thane	-11.304
▁soho	-11.304
▁solar	-11.304
▁ferd	-11.304
▁domino	-11.304
▁notebook	-11.304
▁leadership	-11.304
▁oath	-11.304
▁jib	-11.304
▁stacy	-11.3041
▁spitting	-11.3041
▁batteries	-11.3041
▁grantham	-11.3041
▁attendant	-11.3041
▁kimble	-11.3041
▁mmmmmm	-11.3042
▁upper	-11.3042
▁emerald	-11.3042
▁scum	-11.3042
▁faye	-11.3042
▁barrier	-11.3042
▁manifest	-11.3042
▁diaz	-11.3043
▁clues	-11.3043
▁cabinet	-11.3043
▁utter	-11.3043
▁recommendation	-11.3043
▁oome	-11.3043
▁harper	-11.3044
▁gutter	-11.3044
▁dose	-11.3044
▁whereas	-11.3045
▁bravery	-11.3045
▁margot	-11.3045
hour	-11.3046
▁deliberately	-11.3046
▁restricted	-11.3046
▁lugo	-11.3046
▁magician	-11.3046
▁expired	-11.3046
▁devoted	-11.3046
▁lar	-11.3047
▁continental	-11.3048
▁barton	-11.3049
▁korean	-11.3049
▁attached	-11.3051
▁persons	-11.3051
▁protective	-11.3052
▁snails	-11.3053
▁fortunately	-11.3055
▁payback	-11.3055
▁peterson	-11.3055
▁nss	-11.3057
▁tribe	-11.3058
▁superman	-11.3058
▁bitten	-11.306
▁dreadful	-11.306
▁throws	-11.306
ily	-11.3061
▁teii	-11.3062
▁fearless	-11.3063
▁pond	-11.3064
▁poly	-11.3065
▁crashes	-11.3065
▁advised	-11.3066
▁contained	-11.3067
▁coup	-11.3069
▁desperately	-11.307
▁tai	-11.3071
▁mikes	-11.3071
▁developing	-11.3073
▁kom	-11.3074
▁poo	-11.3076
▁cara	-11.3076
▁tigers	-11.3077
▁rode	-11.3078
▁dez	-11.3078
▁paulie	-11.3079
▁fled	-11.3081
▁originally	-11.3081
▁setup	-11.3082
▁wheels	-11.3084
▁jealousy	-11.3088
▁blend	-11.3089
▁sneaking	-11.3092
▁kamal	-11.3092
▁guaranteed	-11.3093
▁hangman	-11.3094
▁healing	-11.3096
▁nailed	-11.3098
▁web	-11.3102
▁issued	-11.3102
▁verse	-11.3102
six	-11.3103
▁playlng	-11.3104
▁ideal	-11.3104
▁sacrificed	-11.3105
▁rescued	-11.311
▁viv	-11.3112
wo	-11.3112
▁vegetables	-11.3114
▁goblins	-11.3114
▁sinking	-11.3119
▁lighten	-11.3119
▁execute	-11.3124
▁legions	-11.3125
▁indians	-11.3131
▁jonesy	-11.3138
▁rely	-11.3142
▁passenger	-11.3145
▁suspected	-11.3145
ory	-11.315
▁oneill	-11.3153
▁doubts	-11.3156
▁della	-11.3159
bone	-11.3164
▁honesty	-11.3165
▁quicker	-11.3179
▁fatal	-11.3186
▁milt	-11.3188
▁cl	-11.3189
▁scares	-11.3189
▁spreading	-11.3191
▁rebels	-11.3193
win	-11.3199
▁connors	-11.3202
▁babes	-11.3213
▁jou	-11.3223
▁pressed	-11.3225
▁pies	-11.3226
▁knots	-11.3238
▁evans	-11.3238
▁assets	-11.3244
can	-11.3247
▁imma	-11.3248
▁vol	-11.3249
▁lure	-11.3249
pu	-11.3254
▁parked	-11.3256
▁drums	-11.3263
▁mirrors	-11.3266
lie	-11.3268
▁blocking	-11.3269
aries	-11.3278
▁weekends	-11.328
▁tons	-11.3283
ino	-11.3284
▁camping	-11.3287
▁parr	-11.3289
▁patterns	-11.3291
▁rumors	-11.3291
maker	-11.3295
▁sorts	-11.3298
▁marbles	-11.33
▁hel	-11.3302
▁bio	-11.3307
▁savings	-11.3318
▁towels	-11.3326
▁ape	-11.3337
▁audit	-11.3343
ji	-11.3368
▁kin	-11.3368
▁her	-11.3372
▁dancers	-11.3374
▁environmental	-11.3374
▁fooling	-11.3375
▁organ	-11.339
▁whitey	-11.3391
ologist	-11.3391
cht	-11.34
▁function	-11.3403
▁nash	-11.3417
vis	-11.3418
▁woohoo	-11.3418
▁summon	-11.3421
ano	-11.3428
▁represents	-11.3441
▁pipes	-11.3443
▁pulls	-11.3452
▁wig	-11.3457
▁cartoon	-11.3472
▁flea	-11.3472
▁elbow	-11.3473
▁tactic	-11.3474
▁element	-11.3475
▁protocol	-11.3475
▁arrow	-11.3475
▁peanut	-11.3476
▁refer	-11.3481
▁dinosaur	-11.3483
▁snoop	-11.3491
▁brow	-11.3493
▁heil	-11.35
▁bothers	-11.3512
▁wool	-11.3515
▁sleeps	-11.3517
▁ohhh	-11.352
▁stat	-11.352
are	-11.3533
▁region	-11.3537
▁gem	-11.3555
hood	-11.3557
▁hollow	-11.3559
his	-11.3564
olo	-11.3564
▁jur	-11.3568
▁stall	-11.3572
▁friggin	-11.3576
▁distract	-11.3577
▁entertain	-11.3578
▁languages	-11.3579
class	-11.3582
▁reg	-11.359
print	-11.3593
▁echo	-11.3597
minute	-11.3598
▁flatter	-11.3599
▁dwell	-11.3601
▁corrupt	-11.3605
▁unleash	-11.3606
▁roark	-11.3606
ft	-11.3609
▁resolve	-11.3612
▁compare	-11.3613
ky	-11.3618
▁stamp	-11.3619
▁essential	-11.3621
▁superhero	-11.3623
▁isabel	-11.3625
▁assassin	-11.3625
▁transit	-11.3626
▁hanna	-11.3626
responsibilities	-11.3628
▁amazon	-11.3628
▁appetite	-11.3628
▁archimedes	-11.3628
▁artificial	-11.3628
▁athena	-11.3628
▁athenian	-11.3628
▁blackmail	-11.3628
▁bollocks	-11.3628
▁chechnya	-11.3628
▁concentration	-11.3628
▁contempt	-11.3628
▁contrary	-11.3628
▁depression	-11.3628
▁donovan	-11.3628
▁dwalin	-11.3628
▁extension	-11.3628
▁fierce	-11.3628
▁gesture	-11.3628
▁ghetto	-11.3628
▁gracie	-11.3628
▁identical	-11.3628
▁ifyou	-11.3628
▁investigate	-11.3628
▁ipkiss	-11.3628
▁jocasta	-11.3628
▁kehoe	-11.3628
▁lancelot	-11.3628
▁lazlo	-11.3628
▁legitimate	-11.3628
▁length	-11.3628
▁massacre	-11.3628
▁obligation	-11.3628
▁occupied	-11.3628
▁peculiar	-11.3628
▁perrkins	-11.3628
▁persuade	-11.3628
▁ponch	-11.3628
▁prague	-11.3628
▁prescott	-11.3628
▁preserve	-11.3628
▁pronounce	-11.3628
▁renato	-11.3628
▁rendezvous	-11.3628
▁sabrina	-11.3628
▁shakily	-11.3628
▁shepherd	-11.3628
▁shrine	-11.3628
▁significant	-11.3628
▁snarling	-11.3628
▁somewhat	-11.3628
▁splendid	-11.3628
▁stevie	-11.3628
▁strasser	-11.3628
▁syrup	-11.3628
▁wheat	-11.3628
▁absence	-11.3628
▁brutus	-11.3628
▁butterfly	-11.3628
▁courtesan	-11.3628
▁eriksson	-11.3628
▁oink	-11.3628
▁slghs	-11.3628
▁stalking	-11.3628
plifting	-11.3628
▁stray	-11.3628
▁norris	-11.3628
▁knives	-11.3628
▁mystic	-11.3628
▁womb	-11.3628
▁inviting	-11.3628
▁leigh	-11.3628
▁wellesley	-11.3628
▁climate	-11.3628
▁chadwick	-11.3628
▁granddaughter	-11.3628
▁whining	-11.3628
▁commence	-11.3628
▁observation	-11.3628
▁moretti	-11.3628
▁wray	-11.3628
▁laboratory	-11.3628
▁defect	-11.3628
▁gambling	-11.3628
▁arsehole	-11.3628
▁heap	-11.3628
▁beacon	-11.3628
▁raglan	-11.3628
▁supermarket	-11.3628
▁dunno	-11.3628
▁wesley	-11.3628
▁venture	-11.3628
▁youyou	-11.3628
▁asap	-11.3628
▁squish	-11.3628
▁proposition	-11.3628
▁holler	-11.3628
▁outrageous	-11.3628
▁basis	-11.3628
▁obsession	-11.3628
▁denver	-11.3628
▁pettyman	-11.3628
▁wills	-11.3629
▁hobby	-11.3629
▁shortcut	-11.3629
▁lalala	-11.3629
▁glance	-11.3629
▁guapo	-11.3629
▁nixon	-11.3629
▁deacon	-11.3629
▁chopped	-11.3629
▁psst	-11.3629
▁retro	-11.363
▁aircraft	-11.363
▁confirmation	-11.3631
▁myrna	-11.3631
▁teasing	-11.3631
▁tomatoes	-11.3631
▁cabot	-11.3632
▁scam	-11.3632
▁keen	-11.3632
▁lust	-11.3632
▁salary	-11.3632
▁alcoholic	-11.3632
▁obliged	-11.3632
▁acquired	-11.3633
▁elk	-11.3633
▁itch	-11.3633
▁disappears	-11.3634
▁grandson	-11.3635
▁facebook	-11.3635
▁assigned	-11.3636
▁deleted	-11.3636
▁turd	-11.3637
▁snickering	-11.3637
▁betting	-11.3638
▁vig	-11.3639
▁crunching	-11.364
▁peak	-11.364
▁nickel	-11.3641
▁lifestyle	-11.3641
▁shushing	-11.3642
▁mattie	-11.3643
▁yen	-11.3643
▁dug	-11.3643
▁smartass	-11.3643
▁reply	-11.3644
▁portal	-11.3645
▁ranch	-11.3648
▁household	-11.3648
▁how	-11.3649
▁selected	-11.365
▁campers	-11.365
▁sang	-11.3653
▁nearest	-11.3654
▁specialist	-11.3655
▁larger	-11.3656
▁lime	-11.3659
▁described	-11.3661
▁tortured	-11.3663
▁pickup	-11.3665
oooo	-11.3665
▁producer	-11.3667
▁tailor	-11.3669
▁taser	-11.3669
▁eyebrows	-11.367
▁musketeers	-11.367
▁disturbed	-11.367
▁regarding	-11.3671
▁beak	-11.3673
▁indiana	-11.3675
rum	-11.3677
▁engineering	-11.3677
▁flunk	-11.368
▁liver	-11.368
▁reporters	-11.368
illa	-11.3683
▁ju	-11.3684
▁recommended	-11.3684
je	-11.3686
▁archives	-11.3688
▁cupcakes	-11.3688
▁towns	-11.3691
▁meer	-11.3691
▁followers	-11.3692
▁disco	-11.3698
ec	-11.3699
▁butcher	-11.3699
▁peters	-11.3701
▁badass	-11.3701
▁produced	-11.3702
berry	-11.3702
▁mason	-11.3704
▁jt	-11.3706
▁earrings	-11.3707
▁por	-11.3708
▁manning	-11.3711
▁treaty	-11.3719
▁gap	-11.3721
▁pitching	-11.3722
▁dolphins	-11.3726
▁traditional	-11.3732
▁diapers	-11.3735
▁ti	-11.3743
▁insects	-11.3744
▁tackle	-11.3745
len	-11.3746
▁hei	-11.3749
▁slim	-11.3751
▁heroic	-11.3754
gue	-11.3762
oy	-11.3769
▁frogs	-11.3773
▁swinging	-11.3776
▁eva	-11.3779
▁grub	-11.3779
▁bats	-11.3783
turn	-11.3785
▁appreciated	-11.3799
▁decades	-11.3801
▁goose	-11.3807
▁ax	-11.381
lf	-11.3816
▁peas	-11.382
▁deeds	-11.383
▁inmates	-11.3838
▁victoria	-11.3839
▁porter	-11.3844
▁fund	-11.3846
▁kyl	-11.3861
▁ranks	-11.3863
lt	-11.3879
rated	-11.3891
▁reaching	-11.3895
▁vl	-11.3898
▁ur	-11.3903
sigu	-11.3904
▁tubes	-11.3905
▁warmer	-11.3913
▁armor	-11.3913
▁respected	-11.3916
▁vip	-11.3918
let	-11.3918
▁com	-11.392
▁sup	-11.3922
▁limits	-11.3924
▁banker	-11.3924
ung	-11.3927
▁villager	-11.3929
▁deals	-11.3931
lly	-11.3935
▁arab	-11.3949
▁flows	-11.3972
▁damp	-11.3979
▁with	-11.3986
▁yah	-11.3988
▁cardinals	-11.3989
itus	-11.3999
▁jewels	-11.4005
▁creeps	-11.4007
eye	-11.4016
▁nurs	-11.403
nen	-11.4045
wing	-11.4045
▁reveal	-11.4047
▁causes	-11.4048
pot	-11.4059
ppy	-11.4062
▁frog	-11.4064
▁til	-11.4066
▁shifts	-11.4074
▁traces	-11.4074
▁relative	-11.4092
▁ramp	-11.4095
▁ambition	-11.4096
▁native	-11.4098
▁depth	-11.4098
▁apes	-11.4098
▁scanner	-11.4099
▁viking	-11.4099
▁explosive	-11.4099
▁zombie	-11.4099
▁paw	-11.41
▁mutant	-11.4101
▁appearance	-11.4101
▁complaint	-11.4115
▁elliott	-11.4119
▁pest	-11.412
▁arts	-11.4121
▁you	-11.4124
▁jar	-11.4129
▁chambers	-11.4133
▁loses	-11.4137
▁bind	-11.415
▁dur	-11.4153
hel	-11.4156
▁lass	-11.4168
▁grannys	-11.4171
ification	-11.4181
▁ref	-11.4195
▁piston	-11.42
heads	-11.421
▁cups	-11.4211
▁natures	-11.4213
▁ari	-11.4214
point	-11.4217
girl	-11.4223
aged	-11.4223
▁emma	-11.4224
bury	-11.4224
▁streak	-11.4224
▁steer	-11.4224
▁greet	-11.4225
▁inject	-11.4226
▁adjust	-11.4226
▁spank	-11.4226
▁haunt	-11.4235
▁usa	-11.4236
▁walt	-11.4237
▁tolerate	-11.4237
▁wealth	-11.4241
▁thirst	-11.4241
▁len	-11.4241
▁prior	-11.4242
▁anonymous	-11.4242
▁asia	-11.4246
▁attic	-11.4247
▁wrestle	-11.4247
▁marv	-11.4248
▁branch	-11.4249
▁greed	-11.4249
▁homosexual	-11.4251
▁douche	-11.4252
▁apologise	-11.4253
▁brazil	-11.4253
▁bulb	-11.4253
▁camilla	-11.4253
▁clumsy	-11.4253
▁clutch	-11.4253
▁czechoslovakia	-11.4253
▁defensive	-11.4253
▁despereaux	-11.4253
▁exegol	-11.4253
▁exwife	-11.4253
▁federation	-11.4253
▁garrison	-11.4253
▁harbor	-11.4253
▁impulse	-11.4253
▁industrial	-11.4253
▁kilometers	-11.4253
▁leonidas	-11.4253
▁lysander	-11.4253
▁marissa	-11.4253
▁melancholy	-11.4253
▁merchandise	-11.4253
▁parliament	-11.4253
▁penthouse	-11.4253
▁perfume	-11.4253
▁petroglyphs	-11.4253
▁phoebe	-11.4253
▁piranha	-11.4253
▁primitive	-11.4253
▁profion	-11.4253
▁renault	-11.4253
▁rhoda	-11.4253
▁salameh	-11.4253
▁shakespeare	-11.4253
▁slytherin	-11.4253
▁sophisticated	-11.4253
▁sponsor	-11.4253
▁stadium	-11.4253
▁subconscious	-11.4253
▁tennessee	-11.4253
▁toulouse	-11.4253
▁unacceptable	-11.4253
▁unicorn	-11.4253
▁wheezing	-11.4253
▁caretaker	-11.4253
▁elected	-11.4253
▁imbecile	-11.4253
▁ponies	-11.4253
▁countries	-11.4253
▁enchanted	-11.4253
▁cassie	-11.4253
▁francs	-11.4253
▁whooshing	-11.4253
▁lindsay	-11.4253
▁verris	-11.4253
▁schultz	-11.4253
▁whooshes	-11.4253
▁mustache	-11.4253
▁convertible	-11.4253
▁montana	-11.4253
▁jarvis	-11.4253
▁morocco	-11.4253
▁ilsa	-11.4253
▁override	-11.4253
▁console	-11.4253
▁krall	-11.4253
▁freight	-11.4253
▁escaping	-11.4253
▁whoaohoh	-11.4253
▁reference	-11.4253
▁booboo	-11.4253
▁groceries	-11.4253
▁houten	-11.4253
▁compass	-11.4253
▁ultra	-11.4253
▁terug	-11.4253
▁euro	-11.4253
▁chiming	-11.4253
▁panicked	-11.4253
▁dizzy	-11.4253
▁jaunt	-11.4253
▁cooperate	-11.4253
▁whwhat	-11.4253
▁peasant	-11.4253
▁laptop	-11.4253
▁leslie	-11.4253
▁oxford	-11.4253
▁gown	-11.4253
▁livin	-11.4254
▁moeder	-11.4254
▁probation	-11.4254
▁renee	-11.4254
▁jabberwocky	-11.4254
▁google	-11.4254
▁deckard	-11.4254
▁thread	-11.4254
▁tractor	-11.4254
▁tapping	-11.4254
met	-11.4254
▁salute	-11.4254
▁ginger	-11.4254
▁nonny	-11.4254
▁racecar	-11.4254
▁luv	-11.4254
▁reflection	-11.4254
▁allah	-11.4255
▁tranquil	-11.4255
▁regardless	-11.4255
▁jonah	-11.4255
▁conviction	-11.4255
▁celeste	-11.4255
▁vanilla	-11.4255
▁beau	-11.4256
▁gordon	-11.4256
▁fbl	-11.4256
▁dagger	-11.4256
▁popping	-11.4256
▁hound	-11.4256
▁stack	-11.4256
▁yorktown	-11.4256
▁gladys	-11.4256
▁punishment	-11.4256
▁moonlight	-11.4256
▁lockdown	-11.4256
▁teamwork	-11.4256
▁leah	-11.4256
▁cozy	-11.4257
▁classroom	-11.4257
▁hillard	-11.4257
▁sunlight	-11.4257
▁iris	-11.4257
▁sandra	-11.4257
▁shanty	-11.4257
▁portrait	-11.4258
▁amazed	-11.4258
▁virginity	-11.4258
▁vile	-11.4258
▁delta	-11.4258
▁iyou	-11.4259
▁shipping	-11.426
▁worldwide	-11.426
▁cartman	-11.426
▁referring	-11.426
▁devastating	-11.4261
▁dough	-11.4261
▁kidney	-11.4262
▁firewood	-11.4262
▁consideration	-11.4263
▁brianna	-11.4263
▁convicted	-11.4263
▁banished	-11.4263
▁bouncing	-11.4264
▁bleedin	-11.4264
▁aww	-11.4264
▁instantly	-11.4265
▁gunner	-11.4266
▁eggman	-11.4267
▁dried	-11.4268
▁sittin	-11.4269
▁pier	-11.4269
▁ultimately	-11.427
▁freshman	-11.427
▁mick	-11.427
▁fuckedup	-11.4272
▁leona	-11.4272
▁hebt	-11.4272
▁established	-11.4273
▁armies	-11.4274
▁unlikely	-11.4274
▁permanently	-11.4274
▁related	-11.4275
▁dodge	-11.4276
▁mayday	-11.4276
▁ridge	-11.4277
▁twister	-11.4277
▁decepticons	-11.4278
▁pajamas	-11.4278
▁premises	-11.4278
▁accomplished	-11.4279
▁declared	-11.4279
▁dove	-11.428
▁herb	-11.428
▁freezer	-11.428
▁conquered	-11.4284
▁millionaire	-11.4285
▁tech	-11.4286
ox	-11.4287
▁brendan	-11.4288
▁spoiled	-11.4288
▁clothing	-11.4293
▁sentenced	-11.4294
▁taller	-11.4295
▁princesses	-11.4295
▁lala	-11.4297
▁delegates	-11.4297
▁homo	-11.4298
▁teaches	-11.4302
ette	-11.4305
▁arse	-11.4306
▁tweet	-11.4306
▁whines	-11.4307
▁dusty	-11.4308
▁keyes	-11.4309
▁iso	-11.4311
▁nod	-11.4312
mus	-11.4314
▁snorts	-11.4317
▁reminder	-11.4317
▁rhodes	-11.4317
▁voted	-11.4319
▁flowing	-11.4319
▁clowns	-11.4323
▁bun	-11.4324
▁collecting	-11.4327
▁squawks	-11.4327
▁scars	-11.4328
▁secured	-11.433
▁claimed	-11.4331
▁responding	-11.434
▁bein	-11.434
▁spine	-11.4341
▁ancestors	-11.4347
▁handcuffs	-11.4347
▁sith	-11.4349
▁climbed	-11.4349
▁horny	-11.435
▁mule	-11.4356
lay	-11.4356
▁shocking	-11.4363
▁mer	-11.4364
▁louie	-11.4367
▁refugees	-11.4368
mes	-11.4372
▁disappearing	-11.4374
onze	-11.4377
▁thoughtful	-11.4379
▁ninety	-11.4381
▁warner	-11.4381
▁trips	-11.4382
▁jd	-11.4386
▁joker	-11.4387
▁instincts	-11.4387
▁caller	-11.4388
▁loosen	-11.4393
▁dim	-11.4397
▁benn	-11.44
cro	-11.4404
▁partys	-11.4419
▁herod	-11.4429
▁strikes	-11.443
▁pea	-11.4433
▁cod	-11.4433
▁codes	-11.444
ku	-11.4442
▁mines	-11.4452
tit	-11.4455
▁birdie	-11.4475
▁astronauts	-11.4477
▁las	-11.4481
▁breakin	-11.4488
▁masks	-11.4492
▁seeking	-11.4494
▁cannons	-11.4497
▁importantly	-11.451
▁buttons	-11.4512
tory	-11.4515
▁ahhh	-11.4516
aho	-11.4521
▁scrap	-11.4526
▁missy	-11.4532
▁that	-11.4535
▁pla	-11.4536
▁hairy	-11.4547
▁cheeks	-11.4547
▁sails	-11.4549
who	-11.455
▁longing	-11.4551
▁sci	-11.4557
▁intentions	-11.4557
▁catholics	-11.4557
▁shota	-11.4559
our	-11.4565
▁bearing	-11.4566
▁differently	-11.4574
rich	-11.4577
▁robe	-11.4578
▁costumes	-11.4578
▁commitments	-11.4578
▁lighting	-11.4587
▁hike	-11.4593
▁breaths	-11.4593
▁procedures	-11.4598
▁broads	-11.4607
talk	-11.4613
▁forms	-11.4621
pitched	-11.4624
▁farts	-11.463
▁extract	-11.4644
shoulda	-11.4649
▁compliments	-11.4658
▁nono	-11.466
iness	-11.4665
▁caesars	-11.4665
▁wrists	-11.4669
▁bin	-11.4671
▁needles	-11.4674
cal	-11.4688
▁swords	-11.4694
ves	-11.4699
▁experts	-11.47
▁tails	-11.4701
▁pint	-11.4714
▁demonstrate	-11.4722
▁wrinkle	-11.4723
▁ami	-11.4724
eck	-11.4737
fu	-11.4751
woman	-11.4751
▁tales	-11.4752
▁bruise	-11.4754
▁marker	-11.4759
▁ribbon	-11.4762
▁academic	-11.4763
▁tornado	-11.4763
▁amateur	-11.4765
▁quant	-11.4766
▁rattle	-11.4767
▁kinds	-11.4767
▁cuff	-11.4771
▁robotic	-11.4773
▁circles	-11.4787
uh	-11.4796
▁factor	-11.4805
▁boog	-11.4811
▁toot	-11.4825
▁mint	-11.4825
mine	-11.4827
ista	-11.4829
▁cho	-11.4835
▁hob	-11.4839
▁nooo	-11.4839
see	-11.4842
▁compete	-11.4842
▁greeks	-11.4843
▁helicopters	-11.4843
▁valid	-11.4855
▁mini	-11.4864
gram	-11.4869
rent	-11.4872
know	-11.4883
▁slay	-11.4884
bacca	-11.4884
▁concerns	-11.4885
legg	-11.4894
▁grill	-11.4898
▁grove	-11.4899
▁crook	-11.49
door	-11.4902
▁underestimate	-11.4904
▁fulfill	-11.4904
▁improve	-11.4904
▁retard	-11.4905
▁colombia	-11.4907
▁technical	-11.4909
▁precise	-11.491
▁dais	-11.4913
▁oswald	-11.4914
▁voil	-11.4915
▁sketch	-11.4915
▁tomato	-11.4915
▁torch	-11.4915
▁elder	-11.4915
▁transmit	-11.4917
▁movin	-11.4917
▁scenes	-11.4917
▁racin	-11.4917
▁petes	-11.4919
▁granddad	-11.4919
▁scholar	-11.4919
▁fundamental	-11.4919
▁aether	-11.4919
▁afghanistan	-11.4919
▁aladar	-11.4919
▁alleluia	-11.4919
▁association	-11.4919
▁balkan	-11.4919
▁brucie	-11.4919
▁cadet	-11.4919
▁cancan	-11.4919
▁cavendish	-11.4919
▁certificate	-11.4919
▁comanche	-11.4919
▁commodore	-11.4919
▁concrete	-11.4919
▁condolences	-11.4919
▁cynthia	-11.4919
▁dolittle	-11.4919
▁durotan	-11.4919
▁eclipse	-11.4919
▁economy	-11.4919
▁emmett	-11.4919
▁forfeit	-11.4919
▁gertrude	-11.4919
▁gretel	-11.4919
▁grissom	-11.4919
▁gurgling	-11.4919
▁hebrew	-11.4919
▁imagining	-11.4919
▁independence	-11.4919
▁injuries	-11.4919
▁invalid	-11.4919
▁koninklijk	-11.4919
▁luiz	-11.4919
▁luxury	-11.4919
▁malfoy	-11.4919
▁moulin	-11.4919
▁nebula	-11.4919
▁pedestrian	-11.4919
▁pitiful	-11.4919
▁predator	-11.4919
▁prefect	-11.4919
▁proportion	-11.4919
▁puppet	-11.4919
▁rabies	-11.4919
▁receipt	-11.4919
▁revoir	-11.4919
▁robocop	-11.4919
▁roosevelt	-11.4919
▁safranek	-11.4919
▁souvenir	-11.4919
▁strangle	-11.4919
▁swedish	-11.4919
▁swift	-11.4919
▁theodore	-11.4919
▁toffler	-11.4919
▁unicron	-11.4919
▁unpredictable	-11.4919
▁vacuum	-11.4919
▁warfare	-11.4919
▁wheelchair	-11.4919
▁wynne	-11.4919
▁housekeeping	-11.4919
▁increasing	-11.4919
▁kijk	-11.4919
▁leash	-11.4919
▁mumbai	-11.4919
▁nevertheless	-11.4919
▁noisy	-11.4919
▁spontaneous	-11.4919
▁vietnamese	-11.4919
▁wilderness	-11.4919
▁windigo	-11.4919
▁adios	-11.4919
▁bleats	-11.4919
▁harmony	-11.4919
▁mannix	-11.4919
▁sperm	-11.4919
▁videotape	-11.4919
▁lamia	-11.4919
▁unstable	-11.4919
▁chenkov	-11.4919
▁emerson	-11.4919
▁puerto	-11.4919
▁waverly	-11.4919
▁doughnut	-11.4919
▁miniature	-11.4919
▁sponge	-11.4919
▁thanos	-11.4919
▁invincible	-11.4919
▁menace	-11.4919
▁ventura	-11.4919
▁carbon	-11.4919
▁chronic	-11.4919
▁applied	-11.4919
▁organization	-11.4919
▁psychological	-11.4919
▁ursa	-11.4919
▁hisses	-11.4919
▁chekov	-11.4919
▁oscar	-11.4919
▁sloppy	-11.4919
▁bachelorette	-11.4919
▁weiss	-11.4919
▁interstate	-11.4919
▁clinic	-11.4919
▁mornin	-11.4919
▁database	-11.4919
▁rawlings	-11.4919
▁lethal	-11.4919
▁megget	-11.4919
▁harvey	-11.4919
▁squarepants	-11.4919
▁gulf	-11.4919
▁expectations	-11.492
▁turbo	-11.492
▁dinoco	-11.492
▁quack	-11.492
▁hippie	-11.492
▁nobel	-11.492
▁hugging	-11.492
▁navigation	-11.492
▁uplink	-11.492
▁boldwood	-11.492
▁finland	-11.492
▁alibi	-11.492
▁skeleton	-11.492
▁dimas	-11.492
▁recite	-11.492
▁harvest	-11.492
▁limp	-11.492
▁piggy	-11.492
▁robbing	-11.492
▁diversion	-11.492
▁bronx	-11.492
▁subtle	-11.492
▁flick	-11.492
▁containment	-11.492
▁mackey	-11.492
▁loki	-11.492
▁frequency	-11.492
▁renate	-11.492
▁gaze	-11.4921
▁consent	-11.4921
▁latte	-11.4921
▁furry	-11.4921
▁chapel	-11.4921
▁organic	-11.4921
▁budget	-11.4921
▁ripley	-11.4921
▁batter	-11.4922
▁ripping	-11.4922
▁alfredo	-11.4922
▁sulu	-11.4922
▁witter	-11.4922
▁kenton	-11.4922
▁waltz	-11.4922
▁swept	-11.4923
▁dimension	-11.4923
▁immune	-11.4923
▁stuntman	-11.4923
▁yield	-11.4923
▁oof	-11.4923
▁russo	-11.4923
▁branches	-11.4924
▁payroll	-11.4924
▁echoes	-11.4924
▁shattered	-11.4924
▁marta	-11.4924
encia	-11.4924
▁leia	-11.4925
▁interpret	-11.4926
▁oneders	-11.4926
▁perry	-11.4926
rii	-11.4926
▁admitted	-11.4926
▁divided	-11.4927
▁marion	-11.4927
▁bale	-11.4928
▁clinking	-11.4928
▁hydrant	-11.4928
▁boise	-11.4929
▁humiliated	-11.493
▁improvement	-11.4932
▁breakdown	-11.4932
▁inspired	-11.4932
▁rim	-11.4933
▁altar	-11.4934
vel	-11.4934
▁speedman	-11.4934
▁tempting	-11.4934
▁def	-11.4935
▁thumping	-11.4936
▁prob	-11.4937
▁losses	-11.4937
▁wie	-11.4938
▁hospitality	-11.4938
▁crave	-11.4938
▁peek	-11.4943
▁axe	-11.4944
▁shutting	-11.4945
▁antony	-11.4945
▁robin	-11.4945
▁slaughtered	-11.4946
▁silhouettes	-11.4946
▁yyou	-11.4946
▁hunk	-11.4947
▁ammo	-11.4947
meter	-11.4947
▁smashed	-11.4947
▁caves	-11.4947
▁potion	-11.4948
▁quid	-11.4948
thats	-11.4949
rick	-11.495
▁anus	-11.495
▁operational	-11.4953
▁kup	-11.4955
▁drained	-11.4955
▁booty	-11.4958
▁sailed	-11.4963
▁haar	-11.4965
▁munchkins	-11.4967
▁junkie	-11.4967
▁moet	-11.4968
▁splashing	-11.4968
▁pickle	-11.4971
▁killian	-11.4975
▁tossed	-11.4977
▁sailing	-11.4977
▁bikes	-11.4977
▁confessed	-11.4978
▁frickin	-11.4978
▁wired	-11.4979
▁proven	-11.498
ann	-11.4981
▁springs	-11.4982
itation	-11.4984
▁rib	-11.4985
▁helena	-11.4988
▁fasten	-11.4989
▁your	-11.499
▁acc	-11.499
▁cooper	-11.499
▁complaining	-11.4997
▁governments	-11.4998
▁dori	-11.5003
▁bailed	-11.5007
▁owens	-11.5007
▁farting	-11.5007
▁betterman	-11.5016
▁receiver	-11.5017
▁matty	-11.5022
hard	-11.5032
▁pots	-11.5036
▁bore	-11.5038
▁winners	-11.5039
aaaa	-11.5041
▁cord	-11.5049
▁switched	-11.5052
▁brag	-11.5053
▁stocking	-11.5054
▁estimate	-11.5057
▁jets	-11.5058
▁ford	-11.5066
▁tar	-11.5071
▁requests	-11.5072
▁stoned	-11.5074
▁cuffs	-11.5074
ished	-11.5074
▁tracked	-11.5075
▁generally	-11.5078
▁lil	-11.508
▁texting	-11.5081
▁bobbi	-11.5082
▁cher	-11.5083
▁complaints	-11.5086
▁launched	-11.5094
▁snoops	-11.5095
▁protocols	-11.5095
▁elements	-11.5096
▁fre	-11.5097
▁mul	-11.5099
▁ally	-11.5101
▁fellows	-11.5102
▁liars	-11.5102
▁lent	-11.5102
▁rushing	-11.5106
hit	-11.5108
▁sticky	-11.5122
▁pissing	-11.5131
pie	-11.5143
eur	-11.5144
▁cra	-11.5148
▁they	-11.515
▁oral	-11.5158
▁exceptional	-11.5162
▁nicks	-11.5163
▁visited	-11.5165
▁ps	-11.5167
ization	-11.5169
▁y	-11.5177
▁grenades	-11.5182
▁chant	-11.5184
▁drinkin	-11.5192
▁callin	-11.5197
▁import	-11.5203
▁thumbs	-11.5203
▁farmers	-11.5211
▁specialize	-11.523
▁pine	-11.5231
▁baa	-11.5244
▁cutie	-11.5246
▁exception	-11.5246
▁fin	-11.525
▁shorts	-11.526
▁hospitals	-11.5267
▁amp	-11.5272
ough	-11.5278
▁trucks	-11.5285
▁bre	-11.5288
▁usr	-11.5292
cap	-11.5295
▁hom	-11.5301
▁charms	-11.5313
▁destroyer	-11.5324
▁turnin	-11.5328
stein	-11.5341
kylo	-11.5343
▁vel	-11.5346
ever	-11.5348
▁paci	-11.5353
▁ker	-11.5356
▁ki	-11.5361
ando	-11.5366
chu	-11.5366
tag	-11.5366
▁poster	-11.5367
mper	-11.5376
▁ole	-11.5378
▁handed	-11.5378
▁roberts	-11.5382
aar	-11.5394
master	-11.5401
▁una	-11.5409
▁thr	-11.5417
ost	-11.5418
dest	-11.5424
get	-11.5425
rad	-11.5435
▁marsh	-11.5438
hill	-11.5442
▁billions	-11.5448
vert	-11.5452
▁creak	-11.5455
▁squeal	-11.5456
▁est	-11.5457
▁pits	-11.5459
▁beautifully	-11.546
▁associate	-11.5462
▁rivers	-11.5467
▁hor	-11.5474
▁instinct	-11.5481
▁expense	-11.5482
▁giggle	-11.5485
▁remembering	-11.5486
▁tunnels	-11.5498
▁maya	-11.5509
▁rehab	-11.5547
mmy	-11.5548
▁scr	-11.5549
▁painter	-11.5553
▁tack	-11.5568
▁boxer	-11.5571
▁grandfathers	-11.5575
▁expand	-11.5583
style	-11.5587
▁dolls	-11.559
▁writ	-11.5597
▁boost	-11.5599
▁layer	-11.5599
yearold	-11.5604
▁malfunction	-11.5604
▁detect	-11.5605
▁whee	-11.5609
phone	-11.5611
▁adapt	-11.5611
▁showers	-11.5611
▁stash	-11.5615
▁blaze	-11.5617
▁infinite	-11.5623
▁vague	-11.5624
▁exclusive	-11.5625
▁relate	-11.5626
▁continent	-11.5629
mark	-11.563
▁fright	-11.563
▁disrupt	-11.5631
▁chalk	-11.5632
▁kiddin	-11.5632
sistance	-11.5632
▁intel	-11.5633
▁administer	-11.5634
▁treason	-11.5634
▁vitamin	-11.5634
▁allergies	-11.5634
▁alonzo	-11.5634
▁babbling	-11.5634
▁barcelona	-11.5634
▁bathtub	-11.5634
▁bollix	-11.5634
▁cabbage	-11.5634
▁carnaval	-11.5634
▁cerebr	-11.5634
▁clitoris	-11.5634
▁contagious	-11.5634
▁contribution	-11.5634
▁convenience	-11.5634
▁cornwallis	-11.5634
▁corridor	-11.5634
▁crucial	-11.5634
▁currency	-11.5634
▁czech	-11.5634
▁damien	-11.5634
▁delilah	-11.5634
▁dictator	-11.5634
▁disciples	-11.5634
▁disposal	-11.5634
▁elrond	-11.5634
▁faculty	-11.5634
▁falcon	-11.5634
▁fellcla	-11.5634
▁filter	-11.5634
▁frankenstein	-11.5634
▁fuzzy	-11.5634
▁gasoline	-11.5634
▁generaal	-11.5634
▁godfather	-11.5634
▁grumpy	-11.5634
▁gryffindor	-11.5634
▁hartigan	-11.5634
▁hebben	-11.5634
▁humiliating	-11.5634
▁hurrah	-11.5634
▁identification	-11.5634
▁instructor	-11.5634
▁jericho	-11.5634
▁judith	-11.5634
▁kamiyah	-11.5634
▁kekambas	-11.5634
▁kemosabe	-11.5634
▁kennelly	-11.5634
▁landscape	-11.5634
▁lloyd	-11.5634
▁looney	-11.5634
▁lucille	-11.5634
▁magnus	-11.5634
▁marybeth	-11.5634
▁mcbride	-11.5634
▁mckinley	-11.5634
▁megatron	-11.5634
▁mosely	-11.5634
▁murmansk	-11.5634
▁neighing	-11.5634
▁peppermint	-11.5634
▁pollux	-11.5634
▁prevail	-11.5634
▁prophecy	-11.5634
▁prosecutor	-11.5634
▁protein	-11.5634
▁quincy	-11.5634
▁rachael	-11.5634
▁radagast	-11.5634
▁ramirez	-11.5634
▁receiving	-11.5634
▁reconsider	-11.5634
▁redneck	-11.5634
▁retain	-11.5634
▁rykov	-11.5634
▁savannah	-11.5634
▁splutters	-11.5634
▁striking	-11.5634
▁survey	-11.5634
▁tatiana	-11.5634
▁theatre	-11.5634
▁traynor	-11.5634
▁ugarte	-11.5634
▁ungrateful	-11.5634
▁vengeance	-11.5634
▁venom	-11.5634
▁vulgar	-11.5634
▁xander	-11.5634
▁bugged	-11.5634
▁distinguished	-11.5634
▁promising	-11.5634
▁wimp	-11.5634
▁duct	-11.5634
▁imperial	-11.5634
▁compound	-11.5634
▁jules	-11.5634
▁willis	-11.5634
▁reign	-11.5634
▁sasha	-11.5634
▁begged	-11.5634
▁insight	-11.5634
▁transplant	-11.5634
▁monarch	-11.5634
▁playtone	-11.5634
▁expelled	-11.5634
▁bleep	-11.5634
▁clich	-11.5634
▁klein	-11.5634
▁gilbert	-11.5634
▁senor	-11.5634
▁yukie	-11.5634
▁steep	-11.5634
▁attaboy	-11.5634
▁loneliness	-11.5634
▁jinx	-11.5634
▁tsk	-11.5634
▁elsie	-11.5634
▁grandchildren	-11.5634
▁regina	-11.5634
▁download	-11.5634
▁biology	-11.5634
▁housing	-11.5634
▁keith	-11.5634
▁administration	-11.5634
▁beatles	-11.5634
▁bulletproof	-11.5634
▁jingle	-11.5634
▁clarity	-11.5634
▁hesitate	-11.5634
▁excessive	-11.5634
▁expertise	-11.5634
▁communist	-11.5634
▁supervisor	-11.5634
▁membership	-11.5634
▁pinned	-11.5634
▁automatically	-11.5635
▁banner	-11.5635
▁compassion	-11.5635
▁sensible	-11.5635
▁determine	-11.5635
▁swimmer	-11.5635
▁raven	-11.5635
▁dawg	-11.5635
▁turf	-11.5635
▁southwest	-11.5635
▁chemistry	-11.5635
▁bonus	-11.5635
▁renew	-11.5635
▁armour	-11.5635
▁cleaves	-11.5635
▁blog	-11.5635
▁isis	-11.5635
▁partnership	-11.5635
▁anxiety	-11.5636
▁jock	-11.5636
▁battlefield	-11.5636
▁donor	-11.5636
▁stitches	-11.5636
▁aight	-11.5636
▁motherfuckin	-11.5636
▁testify	-11.5636
▁dumpster	-11.5636
▁downton	-11.5636
▁jaysis	-11.5636
▁hull	-11.5637
▁toby	-11.5637
▁anita	-11.5637
▁crypt	-11.5637
▁inclined	-11.5637
▁yacht	-11.5637
▁slightest	-11.5637
▁ronnie	-11.5637
▁sven	-11.5638
▁dag	-11.5638
▁motherinlaw	-11.5638
▁seattle	-11.5638
▁alpa	-11.5638
▁vent	-11.5638
▁midst	-11.5638
▁groom	-11.5639
▁ru	-11.5639
▁anika	-11.5639
▁abortion	-11.5639
▁courageous	-11.5639
▁flock	-11.5639
▁dental	-11.564
▁rival	-11.564
▁ego	-11.5641
▁vanger	-11.5641
▁yearbook	-11.5642
▁consumed	-11.5642
▁flushes	-11.5642
▁lothar	-11.5643
▁thisby	-11.5643
▁elves	-11.5643
▁runaway	-11.5644
▁stow	-11.5644
▁atomic	-11.5645
stick	-11.5646
▁masses	-11.5646
▁berger	-11.5646
▁controlled	-11.5646
▁prices	-11.5647
▁promoted	-11.5647
▁evolved	-11.5648
▁danceny	-11.5648
▁lighthouse	-11.5648
▁formic	-11.5648
▁zie	-11.5648
▁condemned	-11.5648
▁associated	-11.5648
▁hurst	-11.5649
▁vickie	-11.5649
▁homemade	-11.5649
▁marcy	-11.565
assic	-11.565
▁flirting	-11.5651
▁writers	-11.5652
▁whoaoh	-11.5652
▁knockout	-11.5652
gie	-11.5652
▁fireball	-11.5653
▁bloodline	-11.5653
▁specialty	-11.5653
tech	-11.5654
▁severely	-11.5654
▁knocks	-11.5654
▁frightening	-11.5657
▁cubs	-11.5657
▁hou	-11.5658
▁wu	-11.5658
▁iran	-11.5659
▁distracted	-11.5659
▁hyper	-11.566
▁sneeze	-11.566
▁sauna	-11.5661
▁quad	-11.5661
▁mow	-11.5663
▁stein	-11.5666
▁probe	-11.5667
▁exploded	-11.5668
▁doer	-11.5669
▁eer	-11.5673
▁grape	-11.5675
▁honk	-11.5676
hes	-11.5679
▁inconvenience	-11.568
▁ads	-11.568
▁admired	-11.568
▁triggered	-11.5682
▁howl	-11.5685
▁spooner	-11.5685
▁meows	-11.5685
▁bumper	-11.5686
▁aerobics	-11.5686
▁showtime	-11.5687
▁healed	-11.5689
▁hanged	-11.569
▁pear	-11.5691
▁depending	-11.5692
▁corny	-11.5696
▁handful	-11.5696
▁disks	-11.5697
hhh	-11.5699
▁withers	-11.5699
▁mining	-11.5703
▁runway	-11.5703
▁lapd	-11.5705
▁wrecked	-11.5706
▁dei	-11.5706
▁salty	-11.5707
▁lace	-11.5708
▁sane	-11.5712
▁historical	-11.5718
▁yawns	-11.572
▁dor	-11.5722
▁lever	-11.5722
▁mig	-11.5723
▁mcg	-11.5726
▁coolest	-11.5726
▁cecil	-11.5728
ward	-11.5731
▁shells	-11.5734
▁bikers	-11.5736
▁youngest	-11.574
▁seeds	-11.5741
▁zap	-11.5745
▁pri	-11.5749
most	-11.5756
▁groups	-11.5756
▁pac	-11.5756
▁pitcher	-11.5758
▁hoop	-11.5769
▁spying	-11.5776
▁ankles	-11.5777
▁outlaws	-11.5777
▁greetings	-11.5777
hunt	-11.5777
▁noted	-11.5779
▁processing	-11.578
▁climbing	-11.5782
▁wilt	-11.5784
bus	-11.5787
▁congratulate	-11.5795
▁princes	-11.5802
load	-11.5806
▁faced	-11.5808
▁dine	-11.5808
▁cc	-11.5809
▁planted	-11.581
unk	-11.5822
ani	-11.5824
▁apartments	-11.5828
▁slower	-11.583
ock	-11.5832
ards	-11.5838
cou	-11.5844
▁comedy	-11.5849
▁madly	-11.5853
▁marines	-11.5857
▁wes	-11.5866
▁weary	-11.5872
▁secretly	-11.5874
▁speeding	-11.5878
▁mol	-11.5883
▁longest	-11.5889
▁towers	-11.589
ella	-11.589
▁bij	-11.5895
▁allowing	-11.5897
▁bits	-11.5905
▁views	-11.5906
war	-11.5913
▁boyfriends	-11.5914
▁zee	-11.5922
▁recorder	-11.5933
▁hips	-11.5934
hot	-11.5937
low	-11.594
▁fates	-11.594
▁colleagues	-11.5951
▁volunteers	-11.5951
yard	-11.5953
▁ros	-11.5958
▁mont	-11.5961
kins	-11.5961
▁signatures	-11.5963
▁tease	-11.5965
▁ke	-11.5979
rpal	-11.5993
ety	-11.5998
▁tro	-11.6005
▁products	-11.601
▁misses	-11.6016
▁drawings	-11.6022
▁suggests	-11.6027
▁prop	-11.6027
▁serves	-11.6032
▁cro	-11.6035
▁mit	-11.6037
▁shithead	-11.6038
▁smiles	-11.6039
▁shhh	-11.6048
▁laisse	-11.6049
▁controls	-11.606
▁ann	-11.6062
eb	-11.6063
▁dinners	-11.607
pat	-11.6072
▁relaxed	-11.6073
▁satellites	-11.608
lings	-11.6086
▁chops	-11.6089
rock	-11.609
ways	-11.6093
▁charlies	-11.6102
▁articles	-11.6103
▁ml	-11.6112
▁outfits	-11.6127
eld	-11.6128
▁knot	-11.6133
proving	-11.6134
▁curl	-11.614
▁professionals	-11.6149
▁decides	-11.615
▁reader	-11.6151
unt	-11.6153
sis	-11.6158
▁rabbits	-11.6159
▁kl	-11.6171
nie	-11.6174
▁timer	-11.6183
▁sams	-11.6192
▁reel	-11.6194
▁traps	-11.6196
▁blades	-11.6198
▁olympics	-11.6203
▁laps	-11.6213
▁evolution	-11.6213
▁await	-11.622
▁clatter	-11.6224
lm	-11.623
trained	-11.6231
▁fixing	-11.6232
▁indicate	-11.6234
▁wilde	-11.6236
▁purposes	-11.624
egan	-11.6246
▁arrives	-11.6247
▁amigo	-11.6248
▁allie	-11.6249
▁pio	-11.6249
▁arc	-11.625
▁sheet	-11.625
▁ankle	-11.625
▁outlaw	-11.625
▁insect	-11.6251
roll	-11.6252
▁mem	-11.6254
▁officials	-11.6258
▁reads	-11.6265
▁grabs	-11.6281
▁bor	-11.6283
▁greeting	-11.6284
▁lai	-11.6285
▁childs	-11.6288
▁cooks	-11.6293
▁artie	-11.63
made	-11.6304
▁musician	-11.6304
▁wires	-11.6316
zo	-11.6316
▁historic	-11.6321
▁lively	-11.6327
burg	-11.6333
▁fig	-11.634
astic	-11.6342
▁thankful	-11.6347
▁sol	-11.6347
iac	-11.6349
▁offers	-11.635
▁dances	-11.6363
▁connections	-11.6365
utterly	-11.6369
eh	-11.6369
proof	-11.6372
smith	-11.6372
worm	-11.6372
with	-11.6373
▁satisfy	-11.6375
▁depart	-11.6376
▁mock	-11.6377
level	-11.6377
▁establish	-11.6379
▁hotels	-11.6381
▁neglect	-11.6381
▁breach	-11.6382
▁encourage	-11.6383
▁vocal	-11.6383
▁compromise	-11.6388
▁inspire	-11.6388
shop	-11.6389
▁promote	-11.6389
▁wick	-11.6392
▁puss	-11.6393
▁alli	-11.6397
▁addition	-11.6398
▁distinct	-11.6401
▁intent	-11.6401
▁extinct	-11.6401
▁resign	-11.6402
▁infant	-11.6402
▁excess	-11.6402
▁stern	-11.6402
▁caution	-11.6402
▁serpent	-11.6402
▁francis	-11.6402
▁cunning	-11.6402
▁inhabit	-11.6403
hyperventilating	-11.6403
▁abroad	-11.6403
▁admiral	-11.6403
▁affirmative	-11.6403
▁amerika	-11.6403
▁apologizing	-11.6403
▁baloney	-11.6403
▁baltimore	-11.6403
▁barbarian	-11.6403
▁battalion	-11.6403
▁blomkvist	-11.6403
▁boitano	-11.6403
▁canaima	-11.6403
▁celebrities	-11.6403
▁competitive	-11.6403
▁convincing	-11.6403
▁decency	-11.6403
▁despair	-11.6403
▁dissolve	-11.6403
▁domergue	-11.6403
▁eject	-11.6403
▁examination	-11.6403
▁exploding	-11.6403
▁fingernails	-11.6403
▁flava	-11.6403
▁frown	-11.6403
▁giovanni	-11.6403
▁giselle	-11.6403
▁guild	-11.6403
▁heavyweight	-11.6403
▁intimacy	-11.6403
▁jamshidi	-11.6403
▁jarrett	-11.6403
▁jassie	-11.6403
▁jewellery	-11.6403
▁jurisdiction	-11.6403
▁kaspbrak	-11.6403
▁kennard	-11.6403
▁kirsten	-11.6403
▁leefolt	-11.6403
▁leprechaun	-11.6403
▁lyrics	-11.6403
▁mardukas	-11.6403
▁melody	-11.6403
▁mercury	-11.6403
▁meserve	-11.6403
▁millennium	-11.6403
▁mingott	-11.6403
▁montmirail	-11.6403
▁natasha	-11.6403
▁opportunities	-11.6403
▁ottavio	-11.6403
▁participate	-11.6403
▁philatelist	-11.6403
▁possum	-11.6403
▁precinct	-11.6403
▁prissy	-11.6403
▁quarantine	-11.6403
▁raheem	-11.6403
▁railroad	-11.6403
▁recognition	-11.6403
▁refresh	-11.6403
▁reschedule	-11.6403
▁rubbish	-11.6403
▁sapper	-11.6403
▁saruman	-11.6403
▁satisfaction	-11.6403
▁segar	-11.6403
▁seizure	-11.6403
▁sobvechik	-11.6403
▁suicidal	-11.6403
▁superweapon	-11.6403
▁technician	-11.6403
▁twitter	-11.6403
▁variety	-11.6403
▁verdict	-11.6403
▁vilna	-11.6403
▁vogelmann	-11.6403
▁abstract	-11.6403
▁dyke	-11.6403
▁grandparents	-11.6403
▁harford	-11.6403
▁japan	-11.6403
▁jeffrey	-11.6403
▁ninth	-11.6403
▁porsche	-11.6403
▁quarrel	-11.6403
▁trilling	-11.6403
▁venus	-11.6403
▁blackbeard	-11.6403
▁dvd	-11.6403
▁happies	-11.6403
▁yikes	-11.6403
▁arena	-11.6403
▁dahye	-11.6403
▁ornithologist	-11.6403
▁prophet	-11.6403
▁madrid	-11.6403
▁preston	-11.6403
▁prosper	-11.6403
▁canal	-11.6403
▁metropoli	-11.6403
▁levy	-11.6403
▁reckless	-11.6403
▁ambassador	-11.6403
▁cuddle	-11.6403
▁rosalie	-11.6403
▁automobile	-11.6403
▁merino	-11.6403
▁fortress	-11.6403
▁guido	-11.6403
▁phew	-11.6403
▁titties	-11.6403
▁blouse	-11.6403
▁radiator	-11.6403
▁margie	-11.6403
▁pow	-11.6403
▁scroll	-11.6403
▁tivo	-11.6403
▁lemonade	-11.6403
killer	-11.6403
▁institute	-11.6403
▁lump	-11.6403
▁irina	-11.6403
▁casualties	-11.6403
▁thailand	-11.6403
▁baggage	-11.6403
▁paddling	-11.6403
▁rodrick	-11.6403
▁channing	-11.6403
▁akator	-11.6403
▁spartans	-11.6403
▁bonnet	-11.6403
▁creator	-11.6403
▁hazard	-11.6403
▁importance	-11.6403
▁grasp	-11.6403
▁luka	-11.6403
▁demonstration	-11.6403
▁deception	-11.6403
▁representative	-11.6403
▁gagging	-11.6403
▁franco	-11.6404
ok	-11.6404
▁trevor	-11.6404
▁mailbox	-11.6404
▁boris	-11.6404
▁gregory	-11.6404
▁bethany	-11.6404
▁nigel	-11.6404
▁denial	-11.6404
▁radius	-11.6404
▁fading	-11.6404
▁spiritual	-11.6404
▁hunch	-11.6404
▁cooperation	-11.6404
▁faking	-11.6404
▁category	-11.6404
▁revolutionary	-11.6404
▁parley	-11.6404
▁cancelled	-11.6404
▁chickenshit	-11.6404
▁eighteen	-11.6404
▁babysit	-11.6405
▁mook	-11.6405
ummel	-11.6405
city	-11.6405
▁simulation	-11.6405
▁passionate	-11.6405
▁dandy	-11.6405
▁tonto	-11.6405
▁theft	-11.6405
▁establishment	-11.6405
▁cuz	-11.6406
▁wong	-11.6406
▁winston	-11.6406
▁defendant	-11.6406
▁crude	-11.6406
▁antonio	-11.6406
▁percentage	-11.6407
▁seventeen	-11.6407
▁poof	-11.6407
▁kili	-11.6407
▁interference	-11.6407
▁refund	-11.6407
▁slot	-11.6407
▁kwan	-11.6407
▁dripping	-11.6407
▁hardware	-11.6407
▁spaceship	-11.6408
▁stead	-11.6408
▁casa	-11.6408
▁hailey	-11.6409
▁countdown	-11.6409
▁franchise	-11.6409
▁petra	-11.641
▁wretch	-11.641
▁provoke	-11.641
▁spitz	-11.641
▁stranded	-11.641
▁devastated	-11.641
▁slit	-11.641
▁hub	-11.6411
▁demonic	-11.6411
▁woof	-11.6412
▁justin	-11.6412
▁brass	-11.6412
▁disable	-11.6413
▁ascend	-11.6413
▁mailman	-11.6413
▁keg	-11.6414
▁blair	-11.6414
▁undo	-11.6414
▁legit	-11.6414
▁dumbass	-11.6415
▁homie	-11.6415
▁maxine	-11.6415
▁sustained	-11.6415
▁avi	-11.6416
▁lava	-11.6416
▁zoom	-11.6417
▁cherish	-11.6417
▁melon	-11.6419
▁employed	-11.642
yeah	-11.6421
▁steroids	-11.6422
▁flown	-11.6422
▁installed	-11.6422
▁pecker	-11.6422
▁cort	-11.6422
▁sway	-11.6423
▁plumber	-11.6423
▁radical	-11.6423
▁lupe	-11.6423
▁violated	-11.6423
▁dickhead	-11.6424
▁achieved	-11.6425
▁newborn	-11.6425
▁detected	-11.6425
▁buckley	-11.6426
▁collapsed	-11.6426
▁suitable	-11.6426
▁smuggler	-11.6427
▁colin	-11.6428
▁jayne	-11.6428
▁controlling	-11.6429
▁recovery	-11.6429
▁partial	-11.6429
▁rapidly	-11.6432
▁settlement	-11.6432
▁lowest	-11.6434
▁parttime	-11.6436
▁bumpy	-11.6436
▁ink	-11.6436
any	-11.6438
▁boop	-11.6439
uch	-11.644
▁tighten	-11.6443
▁sixth	-11.6443
▁fairies	-11.6443
iate	-11.6444
▁acres	-11.6447
▁mee	-11.6447
odi	-11.6449
▁sexually	-11.6451
▁booster	-11.6452
▁rarely	-11.6456
▁stinky	-11.6457
▁hornet	-11.6458
▁legally	-11.6458
▁vibrates	-11.6459
ckle	-11.646
▁performed	-11.6461
▁blackout	-11.6462
▁puttin	-11.6464
▁sung	-11.6464
▁awarded	-11.6465
▁hast	-11.6467
▁applying	-11.6469
▁caps	-11.6469
▁cling	-11.6469
ele	-11.6471
▁approached	-11.6473
▁questioned	-11.6476
▁gel	-11.6478
enne	-11.6482
▁politicians	-11.6484
▁chilly	-11.6487
▁mic	-11.6487
▁ruler	-11.6492
▁nipples	-11.6496
▁ordering	-11.6497
seven	-11.6499
▁dialing	-11.6499
▁recognized	-11.6499
▁correctly	-11.6499
▁after	-11.65
▁foundation	-11.6501
▁scratched	-11.6502
▁perk	-11.6502
▁spared	-11.6504
▁more	-11.6507
▁rollin	-11.6507
▁broker	-11.6511
▁bere	-11.6511
▁iets	-11.6511
▁darts	-11.652
▁shades	-11.6521
dra	-11.6521
▁risky	-11.6527
▁finale	-11.6529
▁regional	-11.653
▁puzzle	-11.6535
▁ont	-11.6536
▁explore	-11.6537
▁yule	-11.654
▁frigg	-11.6542
▁bundle	-11.6545
▁stap	-11.6547
▁perish	-11.6553
▁tab	-11.6556
▁bou	-11.6557
▁oy	-11.6557
▁realms	-11.6558
▁whale	-11.656
▁smiley	-11.6564
▁hunted	-11.657
▁dumping	-11.6573
▁rented	-11.6574
▁conditioning	-11.6574
▁tricked	-11.6575
▁sonic	-11.6588
ona	-11.6589
▁toi	-11.6592
▁posted	-11.6592
▁mog	-11.6593
▁zombies	-11.6596
▁appearances	-11.6596
▁arabs	-11.66
▁quota	-11.6603
▁texts	-11.6606
▁smiled	-11.6607
▁arrows	-11.6608
▁freed	-11.6609
▁winters	-11.6613
▁pairs	-11.6617
▁nuns	-11.6629
▁respects	-11.6634
▁teenagers	-11.6634
▁cds	-11.6635
▁repeating	-11.6637
shit	-11.6645
▁camps	-11.6646
card	-11.6648
ake	-11.6652
▁pasta	-11.6655
▁swings	-11.6657
▁sharks	-11.6659
▁curtains	-11.6659
▁forks	-11.6659
▁oliver	-11.6661
rawn	-11.6666
▁whores	-11.6666
▁mmmmm	-11.6669
▁sip	-11.6671
▁bites	-11.6672
▁shelly	-11.6673
▁lens	-11.6674
▁honors	-11.6674
▁baker	-11.6676
▁subjects	-11.6678
▁pains	-11.6678
▁meter	-11.6681
▁comrades	-11.6683
▁candidates	-11.6684
▁wand	-11.6685
▁bel	-11.6685
▁outrun	-11.6687
home	-11.669
▁powering	-11.6692
▁dem	-11.6698
▁trim	-11.6706
▁pic	-11.6706
▁awaken	-11.671
▁vin	-11.6718
▁not	-11.6719
▁filming	-11.6719
▁covers	-11.6722
osa	-11.673
▁tito	-11.673
▁couples	-11.6731
▁bog	-11.6737
▁ag	-11.6744
▁scouts	-11.6745
▁chooses	-11.6777
▁sor	-11.6789
▁suns	-11.679
▁picks	-11.6793
▁agreeing	-11.6794
▁minnies	-11.6798
▁explodes	-11.6798
▁bora	-11.68
▁kris	-11.6801
aff	-11.6801
she	-11.6806
▁sow	-11.6809
▁medals	-11.6811
eight	-11.6815
▁chu	-11.6815
▁movements	-11.6816
▁singles	-11.6823
▁snacks	-11.6823
▁packages	-11.6823
▁seated	-11.6833
cra	-11.6836
minded	-11.6841
▁lves	-11.6843
tis	-11.6849
▁nip	-11.6849
▁alis	-11.6868
bie	-11.6869
▁indulge	-11.6871
▁tops	-11.6875
▁dealers	-11.6876
▁metro	-11.688
cile	-11.688
▁weddings	-11.6885
▁hairs	-11.6885
▁objects	-11.6887
▁sire	-11.6887
▁startin	-11.689
▁morons	-11.6897
bal	-11.6898
nz	-11.6898
▁smacks	-11.6898
▁habits	-11.69
▁shoots	-11.6904
▁server	-11.6905
▁sprinkle	-11.6909
▁ruins	-11.6917
▁was	-11.6918
▁bos	-11.692
▁via	-11.6921
▁grandmothers	-11.6925
▁ironic	-11.6937
▁classics	-11.6938
▁attacking	-11.6942
horn	-11.6943
▁peer	-11.6958
ouse	-11.6978
heim	-11.6979
▁winding	-11.6982
▁rains	-11.699
▁enlighten	-11.6999
▁sights	-11.7
▁breaker	-11.7006
▁ties	-11.7016
▁walters	-11.7018
ifi	-11.702
ked	-11.7021
▁bc	-11.7022
nner	-11.7022
▁critic	-11.7024
ittie	-11.7031
onic	-11.7031
tial	-11.7044
▁aunts	-11.7049
▁owners	-11.7054
▁monitors	-11.7055
▁ida	-11.706
not	-11.7066
new	-11.7069
▁tramp	-11.707
▁dl	-11.7075
▁cheerleader	-11.7078
oul	-11.7078
▁opponent	-11.7079
▁pyramid	-11.708
▁shaft	-11.7081
▁condom	-11.7082
▁carrier	-11.7082
▁diaper	-11.7086
▁refugee	-11.7086
▁familie	-11.7087
▁tourist	-11.7091
▁claw	-11.7091
▁lined	-11.7091
▁treasures	-11.7092
ister	-11.7099
▁efforts	-11.7103
▁pp	-11.7106
▁chart	-11.7108
jun	-11.711
position	-11.7115
▁psych	-11.7116
▁nato	-11.712
van	-11.7121
name	-11.7126
▁murderers	-11.7127
oma	-11.7136
▁kor	-11.7145
▁chang	-11.7154
part	-11.7158
▁shops	-11.7159
keeper	-11.716
ale	-11.7161
▁gab	-11.7163
▁recruit	-11.7182
▁disappoint	-11.7185
▁soak	-11.7187
▁warp	-11.7188
▁blond	-11.7192
ddy	-11.7193
▁frighten	-11.7195
▁weave	-11.7197
power	-11.7199
wide	-11.72
piece	-11.7204
fer	-11.7205
▁swarm	-11.7207
har	-11.7207
▁convert	-11.7209
tail	-11.7209
▁gamble	-11.7209
▁snatch	-11.7212
▁rocking	-11.7213
▁confront	-11.7213
▁infect	-11.7213
▁yank	-11.7214
▁install	-11.7215
▁dismiss	-11.7215
shaped	-11.7218
▁excite	-11.7221
▁organize	-11.7222
▁accuse	-11.7223
▁dink	-11.7225
▁thorough	-11.7226
▁surprising	-11.7226
▁solemn	-11.7226
▁strict	-11.7227
▁deliberate	-11.7228
▁margo	-11.7229
▁villa	-11.723
▁froze	-11.723
▁purr	-11.7231
▁reli	-11.7233
▁poke	-11.7233
▁jeep	-11.7234
terior	-11.7234
▁buggin	-11.7234
▁leavin	-11.7234
▁hun	-11.7234
▁punks	-11.7235
▁xandar	-11.7235
▁condo	-11.7235
ograph	-11.7236
▁squat	-11.7236
▁confidential	-11.7236
▁toxic	-11.7236
▁cult	-11.7236
▁polar	-11.7236
▁bastaard	-11.7236
▁intellect	-11.7236
▁murray	-11.7236
▁pagoda	-11.7236
▁spaghetti	-11.7236
▁abducted	-11.7236
▁accompany	-11.7236
▁akela	-11.7236
▁aloha	-11.7236
▁altijd	-11.7236
▁becca	-11.7236
▁behaviour	-11.7236
▁billionaire	-11.7236
▁bloke	-11.7236
▁bouquet	-11.7236
▁brantley	-11.7236
▁crib	-11.7236
▁darren	-11.7236
▁declan	-11.7236
▁depressing	-11.7236
▁disengage	-11.7236
▁dorfler	-11.7236
▁dunnage	-11.7236
▁edvard	-11.7236
▁electromagnet	-11.7236
▁enthusiasm	-11.7236
▁episode	-11.7236
▁eskimo	-11.7236
▁eugenia	-11.7236
▁evaluation	-11.7236
▁feminine	-11.7236
▁gauge	-11.7236
▁gerardo	-11.7236
▁gleam	-11.7236
▁ignacio	-11.7236
▁ignorant	-11.7236
▁impeccable	-11.7236
▁instructed	-11.7236
▁january	-11.7236
▁jojo	-11.7236
▁jukebox	-11.7236
▁kachicka	-11.7236
▁kadam	-11.7236
▁klimek	-11.7236
▁koushik	-11.7236
▁lockhart	-11.7236
▁maharajah	-11.7236
▁marigold	-11.7236
▁martelli	-11.7236
▁medieval	-11.7236
▁miraculous	-11.7236
▁mozart	-11.7236
▁numerous	-11.7236
▁oberoi	-11.7236
▁offlimits	-11.7236
▁olympia	-11.7236
▁operative	-11.7236
▁overseas	-11.7236
▁palpatine	-11.7236
▁penniless	-11.7236
▁pentagon	-11.7236
▁perspective	-11.7236
▁qualities	-11.7236
▁reclaim	-11.7236
▁sapphire	-11.7236
▁sattler	-11.7236
▁scully	-11.7236
▁shreck	-11.7236
▁skullfucker	-11.7236
▁socrates	-11.7236
▁solitary	-11.7236
▁soprano	-11.7236
▁sputter	-11.7236
▁stepmother	-11.7236
▁stool	-11.7236
▁strife	-11.7236
▁submarine	-11.7236
▁switzerland	-11.7236
▁sybbie	-11.7236
▁tampon	-11.7236
▁tuscany	-11.7236
▁tyrant	-11.7236
▁unnatural	-11.7236
▁unprecedented	-11.7236
▁vortex	-11.7236
▁wegener	-11.7236
▁wendell	-11.7236
▁willard	-11.7236
▁wyoming	-11.7236
▁yondu	-11.7236
▁agenda	-11.7236
▁airborne	-11.7236
▁buzzsaw	-11.7236
▁chieftain	-11.7236
▁cinema	-11.7236
▁lindsey	-11.7236
▁ooooh	-11.7236
▁sermon	-11.7236
▁settling	-11.7236
▁sierra	-11.7236
▁trading	-11.7236
▁tumor	-11.7236
▁ulcer	-11.7236
▁warehouse	-11.7236
▁xray	-11.7236
▁foyt	-11.7236
▁gospel	-11.7236
▁scheme	-11.7236
▁scorn	-11.7236
▁fisherman	-11.7236
▁stove	-11.7236
▁twig	-11.7236
▁calculations	-11.7236
▁reinforce	-11.7236
▁convoy	-11.7236
▁llama	-11.7236
▁nightingale	-11.7236
▁sculpture	-11.7236
▁redcoats	-11.7236
▁tranquilizer	-11.7236
▁annual	-11.7236
▁patron	-11.7236
▁psychologist	-11.7236
▁headphones	-11.7236
▁hector	-11.7236
▁treadstone	-11.7236
▁kendra	-11.7236
▁whereabouts	-11.7236
▁aibee	-11.7236
▁strawberry	-11.7236
▁huntsman	-11.7236
▁choosing	-11.7236
▁registration	-11.7236
▁defence	-11.7236
▁cove	-11.7236
▁entity	-11.7236
▁garona	-11.7236
▁blares	-11.7236
▁mabel	-11.7236
▁viki	-11.7236
▁bonzo	-11.7236
▁pretties	-11.7237
▁vincenz	-11.7237
▁conform	-11.7237
▁bozo	-11.7237
▁forgery	-11.7237
▁outdoor	-11.7237
▁donation	-11.7237
▁tread	-11.7237
▁oblivion	-11.7237
▁pogue	-11.7237
▁bosom	-11.7237
▁eigen	-11.7237
▁marino	-11.7237
▁divert	-11.7237
▁urine	-11.7237
▁carveth	-11.7237
▁flex	-11.7237
▁temptation	-11.7237
▁yuck	-11.7237
▁cheque	-11.7237
▁derek	-11.7237
▁minions	-11.7237
▁hamster	-11.7237
▁documentary	-11.7237
▁racket	-11.7237
▁mossad	-11.7237
▁lawsuit	-11.7237
▁constantine	-11.7237
▁beeze	-11.7237
▁rashid	-11.7237
▁sniffling	-11.7237
▁whipped	-11.7237
▁crane	-11.7238
▁overall	-11.7238
▁accustomed	-11.7238
▁smuggling	-11.7238
▁bogus	-11.7238
▁twinkie	-11.7238
▁foam	-11.7238
▁informant	-11.7238
▁jackjack	-11.7238
▁snot	-11.7238
▁poland	-11.7238
▁tenderness	-11.7238
▁welch	-11.7238
▁rockets	-11.7238
▁eliot	-11.7239
▁grocery	-11.7239
▁audio	-11.7239
▁transmitter	-11.7239
▁borderline	-11.7239
▁slapped	-11.7239
▁puck	-11.7239
▁bohemian	-11.7239
▁litter	-11.7239
▁kink	-11.7239
▁meatball	-11.7239
▁declined	-11.7239
▁mutation	-11.724
▁heavier	-11.724
▁yahoo	-11.724
▁splitting	-11.724
▁oleg	-11.724
▁optic	-11.724
▁ratings	-11.724
▁cathy	-11.724
▁piace	-11.724
▁tuna	-11.724
▁curb	-11.7241
▁virtually	-11.7241
▁nile	-11.7241
▁xmen	-11.7241
▁cattle	-11.7241
▁chunky	-11.7242
▁agh	-11.7242
▁sincerely	-11.7242
▁halfhour	-11.7242
▁injection	-11.7243
▁rally	-11.7243
▁wireless	-11.7243
▁ceo	-11.7244
▁shattering	-11.7244
▁tripping	-11.7244
▁laughlin	-11.7245
▁hoof	-11.7245
▁spooky	-11.7246
▁assembled	-11.7246
▁charter	-11.7246
istine	-11.7247
▁rebuild	-11.7247
▁trespassing	-11.7247
▁exclusively	-11.7247
▁sanity	-11.7248
▁exhausting	-11.7248
▁limbo	-11.7248
▁alas	-11.7248
▁restroom	-11.7249
lnglng	-11.7249
▁mast	-11.7249
▁stamper	-11.7249
▁australian	-11.725
▁continuing	-11.725
▁fitness	-11.7251
▁porno	-11.7252
▁vu	-11.7252
▁wealthy	-11.7252
▁uv	-11.7252
▁compromised	-11.7252
▁warmth	-11.7252
▁colombian	-11.7253
▁flagg	-11.7253
▁bah	-11.7253
▁acceptable	-11.7253
hearted	-11.7254
▁grit	-11.7254
▁frontier	-11.7255
▁mentor	-11.7256
▁hooting	-11.7257
▁porky	-11.7258
▁educated	-11.7259
▁disguised	-11.7261
▁eliminated	-11.7261
▁mona	-11.7261
▁dispatcher	-11.7262
ctor	-11.7262
▁gambler	-11.7263
▁steele	-11.7263
▁respectable	-11.7264
▁examined	-11.7264
▁flattered	-11.7266
▁entertained	-11.7266
▁departing	-11.7267
▁mentally	-11.7268
▁interviews	-11.7268
▁addicted	-11.727
▁sneaky	-11.727
▁residents	-11.727
▁dunk	-11.7272
vol	-11.7273
▁shaved	-11.7273
▁soy	-11.7273
▁privileged	-11.7275
▁entertaining	-11.7276
▁mace	-11.7277
▁dun	-11.7278
▁salon	-11.7281
rry	-11.7284
▁angelo	-11.7284
▁clanks	-11.7284
▁romeo	-11.7284
▁rake	-11.7284
▁shithole	-11.7287
▁measured	-11.729
▁gri	-11.7292
▁reaches	-11.7292
▁contractor	-11.7293
▁swallowed	-11.7296
▁boiling	-11.7296
coat	-11.7296
▁sidekicks	-11.7297
▁irony	-11.73
▁dispose	-11.7301
▁weeping	-11.7304
▁chester	-11.7305
▁lanterns	-11.7311
▁preparations	-11.7311
▁likewise	-11.7311
▁interrupted	-11.7312
▁chia	-11.7315
▁commands	-11.7317
▁messes	-11.7317
▁freeman	-11.7319
▁fang	-11.7323
▁illusions	-11.7324
▁projector	-11.7325
▁multi	-11.7329
▁mainly	-11.7337
▁bodyguards	-11.7338
▁gadgets	-11.7338
▁homer	-11.7338
▁onions	-11.7338
▁nighttime	-11.7343
▁von	-11.7351
▁resisting	-11.7351
▁sweeping	-11.7355
▁reacher	-11.7359
▁barb	-11.7363
▁noodles	-11.7365
hoo	-11.7368
▁denying	-11.737
▁poisoning	-11.7372
wash	-11.7379
ula	-11.7382
▁putter	-11.7384
▁charts	-11.7393
▁doorway	-11.7399
▁tomas	-11.7404
▁awaits	-11.7406
▁sweating	-11.7412
▁saul	-11.7413
▁failing	-11.7414
▁erie	-11.7415
▁peed	-11.7423
▁witnessed	-11.7423
▁shorter	-11.7425
▁bathing	-11.7429
▁courts	-11.743
▁formed	-11.743
iy	-11.743
▁mug	-11.7431
▁toilets	-11.7432
▁chained	-11.7433
▁greatness	-11.7437
▁privately	-11.744
▁explosives	-11.7447
ige	-11.7452
▁viva	-11.7455
▁organs	-11.7463
▁mime	-11.7474
▁profits	-11.7474
▁ohoh	-11.7485
▁mend	-11.7485
▁jerks	-11.7487
▁char	-11.7489
▁eighty	-11.749
hen	-11.749
▁flop	-11.7492
fish	-11.7493
itis	-11.7493
▁corners	-11.7494
▁forming	-11.7495
bell	-11.7497
▁contains	-11.7501
▁swann	-11.7511
▁pur	-11.752
▁tongues	-11.7524
▁lug	-11.7525
nto	-11.7525
bat	-11.7526
▁punching	-11.7526
ora	-11.7526
▁iced	-11.753
▁fists	-11.753
▁eds	-11.7531
▁buster	-11.7533
▁pas	-11.7534
▁rosa	-11.7547
use	-11.7553
▁peg	-11.7555
▁headaches	-11.7557
▁coaster	-11.756
▁shutter	-11.7565
fo	-11.7566
stro	-11.7567
▁mechanical	-11.757
och	-11.7571
▁scrape	-11.7578
▁kr	-11.7593
▁dir	-11.7595
fire	-11.7597
▁polls	-11.7599
ipping	-11.7601
▁alf	-11.7602
oot	-11.7612
▁presented	-11.7613
▁differences	-11.7618
atch	-11.7626
▁ons	-11.7654
▁pizzas	-11.7658
▁deco	-11.7663
▁visits	-11.7666
open	-11.7666
▁debts	-11.7667
ota	-11.7671
▁hooks	-11.7673
take	-11.7673
ute	-11.7679
▁grandmas	-11.7681
▁matthews	-11.7681
gun	-11.7681
▁roommates	-11.7681
▁illness	-11.7682
try	-11.7683
▁jeans	-11.7695
▁hating	-11.7715
▁pend	-11.7717
▁suckers	-11.7718
▁esp	-11.7721
▁sailors	-11.7723
▁shin	-11.7724
▁fib	-11.7727
▁runt	-11.7735
▁coping	-11.7741
ggin	-11.7742
love	-11.7746
▁rad	-11.7784
▁mam	-11.7785
front	-11.7786
▁spi	-11.779
▁belts	-11.7792
say	-11.7814
▁ec	-11.7818
▁phi	-11.7827
▁uniforms	-11.7835
▁seals	-11.7854
sex	-11.7857
▁swearing	-11.7862
▁stages	-11.7866
dress	-11.788
tric	-11.7882
▁woe	-11.7894
▁bases	-11.7903
▁hare	-11.7907
▁exercises	-11.7918
▁smokes	-11.7926
eft	-11.7931
▁slime	-11.7938
▁prank	-11.7956
sible	-11.7963
▁trumpet	-11.7968
▁dea	-11.7975
▁maps	-11.798
▁involve	-11.7983
▁moan	-11.7983
▁sensation	-11.7984
▁instrument	-11.7985
▁artifact	-11.7987
▁coroner	-11.7988
▁napkin	-11.7989
▁rhyme	-11.7989
▁flap	-11.7989
▁cigar	-11.799
▁blur	-11.799
▁investigator	-11.799
▁athlete	-11.7991
▁emotion	-11.7991
▁objection	-11.7992
▁dolphin	-11.7993
▁comments	-11.8002
▁legends	-11.8004
kell	-11.8007
log	-11.8009
eel	-11.8015
▁crystals	-11.8018
▁mage	-11.8018
▁mums	-11.8019
▁killin	-11.8023
▁insists	-11.8025
▁allows	-11.8029
▁foreigner	-11.8034
▁yar	-11.8035
ugh	-11.8037
wise	-11.8038
var	-11.8047
▁joints	-11.8055
cut	-11.8057
itch	-11.8061
▁summers	-11.8076
▁decorati	-11.808
face	-11.8082
▁drip	-11.8086
▁neutral	-11.8087
▁rel	-11.8089
▁surround	-11.8096
▁tran	-11.8096
berries	-11.8097
eze	-11.8098
school	-11.8098
▁meek	-11.81
kind	-11.81
▁drift	-11.8102
▁radios	-11.8103
person	-11.8108
craft	-11.811
▁vanish	-11.811
word	-11.811
life	-11.8113
case	-11.8114
▁bums	-11.8114
american	-11.8115
quarter	-11.8115
filled	-11.8115
watch	-11.8116
▁smuggle	-11.8119
▁shite	-11.8119
▁tram	-11.8119
▁intercept	-11.8121
▁platt	-11.8122
▁obtain	-11.8124
▁ups	-11.8124
▁gall	-11.8129
▁discharge	-11.813
▁seduce	-11.813
▁humiliate	-11.8131
▁deactivate	-11.8131
▁confuse	-11.8131
based	-11.8132
▁hijack	-11.8132
▁withdraw	-11.8134
▁whisk	-11.8134
▁claudi	-11.8141
▁teenage	-11.8141
▁roach	-11.8142
view	-11.8143
▁psychiatri	-11.8143
▁atom	-11.8144
▁scandal	-11.8144
▁omelet	-11.8144
▁outrage	-11.8144
▁flaming	-11.8144
▁architect	-11.8145
▁metaphor	-11.8145
▁exterminat	-11.8145
▁kettle	-11.8145
▁aggression	-11.8145
▁ammunition	-11.8145
▁antidote	-11.8145
▁assumption	-11.8145
▁azamat	-11.8145
▁aztec	-11.8145
▁bahamas	-11.8145
▁balcony	-11.8145
▁barbossa	-11.8145
▁bastide	-11.8145
▁beowulf	-11.8145
▁bessie	-11.8145
▁blubbering	-11.8145
▁cabrini	-11.8145
▁calendar	-11.8145
▁cardiff	-11.8145
▁catherine	-11.8145
▁cawdor	-11.8145
▁cheetah	-11.8145
▁chubby	-11.8145
▁cinnamon	-11.8145
▁columbia	-11.8145
▁comfy	-11.8145
▁companies	-11.8145
▁compatible	-11.8145
▁congrats	-11.8145
▁curfew	-11.8145
▁decree	-11.8145
▁dempsey	-11.8145
▁denzel	-11.8145
▁dilip	-11.8145
▁discreet	-11.8145
▁edgar	-11.8145
▁elysium	-11.8145
▁espresso	-11.8145
▁exquisite	-11.8145
▁eyewitness	-11.8145
▁figuring	-11.8145
▁fleming	-11.8145
▁forensic	-11.8145
▁frequent	-11.8145
▁fudge	-11.8145
▁galadriel	-11.8145
▁geneva	-11.8145
▁giraffe	-11.8145
▁gravy	-11.8145
▁greasy	-11.8145
▁haberdashery	-11.8145
▁handicap	-11.8145
▁handshake	-11.8145
▁hogwarts	-11.8145
▁hybrid	-11.8145
▁iliad	-11.8145
▁izmer	-11.8145
▁jeopardy	-11.8145
▁johan	-11.8145
▁juggernaut	-11.8145
▁jupiter	-11.8145
▁kachow	-11.8145
▁kiwoo	-11.8145
▁klaven	-11.8145
▁kowalskl	-11.8145
▁krueger	-11.8145
▁lgbt	-11.8145
▁limousine	-11.8145
▁mammoth	-11.8145
▁mandrake	-11.8145
▁melissa	-11.8145
▁moltisanti	-11.8145
▁nicholas	-11.8145
▁ninny	-11.8145
▁oregon	-11.8145
▁overwhelmed	-11.8145
▁palancio	-11.8145
▁paprika	-11.8145
▁parachute	-11.8145
▁pendelton	-11.8145
▁physicist	-11.8145
▁piedmont	-11.8145
▁pompey	-11.8145
▁precision	-11.8145
▁prettier	-11.8145
▁qualify	-11.8145
▁renesmee	-11.8145
▁revelle	-11.8145
▁rocknroll	-11.8145
▁roxanne	-11.8145
▁sabotage	-11.8145
▁scoundrel	-11.8145
▁seatbelt	-11.8145
▁shinobu	-11.8145
▁shivering	-11.8145
▁shudders	-11.8145
▁starfleet	-11.8145
▁suellen	-11.8145
▁sufficient	-11.8145
▁surviving	-11.8145
▁suspicion	-11.8145
▁terrence	-11.8145
▁unnecessary	-11.8145
▁unpleasant	-11.8145
▁valiente	-11.8145
▁various	-11.8145
▁veronika	-11.8145
▁volturi	-11.8145
▁voodoo	-11.8145
▁windshield	-11.8145
▁wrench	-11.8145
▁xerxes	-11.8145
▁alvin	-11.8145
▁athos	-11.8145
▁brothel	-11.8145
▁canoe	-11.8145
▁chitter	-11.8145
▁dutton	-11.8145
▁eager	-11.8145
▁hanlon	-11.8145
▁hobbies	-11.8145
▁itsits	-11.8145
▁thirteen	-11.8145
▁valerie	-11.8145
▁zadie	-11.8145
▁amusing	-11.8145
▁croquet	-11.8145
▁deuce	-11.8145
▁forcing	-11.8145
▁gloin	-11.8145
▁molesley	-11.8145
▁angus	-11.8145
▁jingling	-11.8145
▁swipe	-11.8145
▁assessment	-11.8145
▁bypass	-11.8145
▁cameroon	-11.8145
▁mahalik	-11.8145
▁drugged	-11.8145
▁cinderella	-11.8145
▁consort	-11.8145
▁firearm	-11.8145
▁iove	-11.8145
▁infirmary	-11.8145
▁cultural	-11.8145
▁speer	-11.8145
▁mandible	-11.8145
▁grabbing	-11.8145
▁morrow	-11.8145
▁gomez	-11.8145
▁senshi	-11.8145
▁facial	-11.8145
▁ricca	-11.8145
▁notify	-11.8145
▁curtis	-11.8145
▁spicy	-11.8145
▁liability	-11.8145
▁gorgo	-11.8145
▁tummy	-11.8145
▁courier	-11.8145
▁justify	-11.8145
▁snuck	-11.8145
▁snuff	-11.8146
▁vouch	-11.8146
▁tutor	-11.8146
▁moira	-11.8146
▁overcome	-11.8146
▁forbidden	-11.8146
▁babysitting	-11.8146
▁stirring	-11.8146
▁awhile	-11.8146
▁furious	-11.8146
▁savior	-11.8146
▁yummy	-11.8146
▁oyster	-11.8146
▁dominate	-11.8146
▁janice	-11.8146
▁nonono	-11.8146
▁finance	-11.8146
▁underwater	-11.8146
▁whirs	-11.8146
▁webster	-11.8146
▁titty	-11.8146
▁disney	-11.8146
▁tourvel	-11.8146
▁employment	-11.8146
▁tutu	-11.8146
▁distribution	-11.8146
▁tinker	-11.8146
▁inhuman	-11.8146
▁staci	-11.8146
▁begbie	-11.8146
▁reboot	-11.8146
▁postcard	-11.8146
▁heathen	-11.8146
▁strapped	-11.8146
▁antler	-11.8146
▁irma	-11.8146
▁hazardous	-11.8146
▁karma	-11.8146
▁merit	-11.8146
▁typing	-11.8146
▁witchcraft	-11.8146
▁lyle	-11.8147
▁twentyfour	-11.8147
▁reopen	-11.8147
▁raptor	-11.8147
▁mobley	-11.8147
▁fache	-11.8147
▁oxley	-11.8147
▁jorgen	-11.8147
▁reliable	-11.8147
▁uptown	-11.8147
▁humiliation	-11.8147
▁lalalala	-11.8147
▁squire	-11.8147
▁poking	-11.8147
▁slipping	-11.8147
▁cynical	-11.8147
▁pierce	-11.8147
▁pussies	-11.8147
▁indoor	-11.8147
▁extraction	-11.8147
▁footprint	-11.8147
▁embarrassment	-11.8147
▁genie	-11.8147
mbles	-11.8147
▁diggy	-11.8147
▁marge	-11.8147
▁consciousness	-11.8148
▁courtney	-11.8148
▁railway	-11.8148
▁inbound	-11.8148
▁stella	-11.8148
▁ridgeman	-11.8148
▁michelin	-11.8148
▁unreal	-11.8148
▁blunt	-11.8148
▁fili	-11.8148
▁revolver	-11.8148
▁void	-11.8148
▁horseshit	-11.8148
▁nerd	-11.8148
▁peder	-11.8149
▁playground	-11.8149
▁horde	-11.8149
▁rodent	-11.8149
▁breakthrough	-11.8149
▁render	-11.8149
▁sensational	-11.815
▁shinin	-11.815
▁fascist	-11.815
▁luckily	-11.815
▁rach	-11.815
▁undergo	-11.815
▁proves	-11.815
▁pickett	-11.815
▁additional	-11.815
▁mira	-11.815
▁chum	-11.8151
▁belongings	-11.8151
▁fluffy	-11.8151
▁feedback	-11.8151
▁reek	-11.8152
▁analyst	-11.8152
▁coos	-11.8152
▁tonic	-11.8152
▁pepe	-11.8152
▁chino	-11.8152
▁joanne	-11.8152
▁glock	-11.8152
▁valve	-11.8153
▁acquainted	-11.8153
▁oogie	-11.8153
▁stasi	-11.8153
▁exile	-11.8153
▁farrat	-11.8153
▁marita	-11.8154
▁meaningful	-11.8155
▁attica	-11.8155
▁alai	-11.8155
▁aka	-11.8155
▁marco	-11.8155
▁zeg	-11.8155
▁clanking	-11.8156
▁opposed	-11.8157
▁bandage	-11.8157
▁whisky	-11.8157
▁iraqi	-11.8157
▁batch	-11.8157
▁annoyed	-11.8158
▁jos	-11.8159
▁opus	-11.8159
▁plumbing	-11.816
▁essentially	-11.816
▁approaches	-11.8161
▁organized	-11.8162
▁anticipated	-11.8162
▁hedge	-11.8163
▁sanders	-11.8164
▁lilies	-11.8164
dick	-11.8164
▁shelley	-11.8164
▁experimental	-11.8165
▁slope	-11.8166
▁dante	-11.8166
▁investor	-11.8167
▁wyler	-11.8167
playing	-11.8168
▁kovaks	-11.8168
▁luydens	-11.8168
▁kent	-11.8168
▁platter	-11.8168
▁sank	-11.8168
▁wring	-11.817
▁parish	-11.817
▁leven	-11.8171
▁deze	-11.8172
▁barbie	-11.8172
▁groove	-11.8173
▁vain	-11.8174
▁inhaler	-11.8174
▁debo	-11.8174
▁speeches	-11.8174
▁airline	-11.8174
smic	-11.8175
▁unpack	-11.8175
▁examiner	-11.8176
▁deem	-11.8176
▁agony	-11.8178
▁gage	-11.8179
▁wacko	-11.818
▁satisfying	-11.818
▁tucker	-11.8182
▁wanker	-11.8183
▁donuts	-11.8183
▁drone	-11.8183
▁becky	-11.8184
▁slug	-11.8186
▁positively	-11.8187
▁pisses	-11.8188
▁bose	-11.819
▁sunk	-11.8191
▁gally	-11.8191
▁hiring	-11.8194
▁hitch	-11.8195
▁thine	-11.8195
▁marshmallows	-11.8197
▁emotionally	-11.8198
▁delayed	-11.8199
▁bouncer	-11.8199
▁fink	-11.8205
▁benz	-11.8205
▁melted	-11.8207
▁whacked	-11.8207
▁correction	-11.8208
▁thrilling	-11.8208
▁perfection	-11.8209
▁this	-11.8209
▁handling	-11.8209
▁topic	-11.821
▁fussing	-11.8211
▁cowardly	-11.8213
▁sled	-11.8216
▁pullman	-11.8217
▁visions	-11.8218
▁chocolates	-11.822
▁demanding	-11.822
▁charmed	-11.822
iiing	-11.822
▁lone	-11.822
▁sweaty	-11.8225
▁cheerful	-11.8225
▁momma	-11.8225
▁restless	-11.8227
itude	-11.8228
▁detailed	-11.8228
▁valued	-11.8229
▁bongo	-11.823
▁cest	-11.8231
▁skiing	-11.8231
▁cay	-11.8233
▁defeated	-11.8233
▁bigtime	-11.8234
▁construct	-11.8236
▁speedo	-11.8237
▁greatly	-11.8237
▁rotate	-11.8238
▁oceans	-11.8241
▁tuned	-11.8241
inheritance	-11.8241
▁billboards	-11.8242
▁brighter	-11.8243
▁chewed	-11.8244
▁coaches	-11.8245
▁pinky	-11.8247
▁cowards	-11.8248
▁verbal	-11.825
▁oer	-11.8255
▁seagulls	-11.8257
▁carrots	-11.8257
▁rewrite	-11.8259
ille	-11.826
▁blackie	-11.8262
▁races	-11.8263
▁boiler	-11.8263
▁enters	-11.8264
ius	-11.8267
▁forgiven	-11.827
▁yelled	-11.8271
▁pelts	-11.8272
▁stokes	-11.8272
▁autobots	-11.8287
▁flares	-11.8287
▁takeover	-11.8288
▁flashing	-11.829
▁difficulty	-11.8292
▁cel	-11.8293
▁aiming	-11.8301
een	-11.8302
▁athletes	-11.8302
▁handles	-11.8304
▁scratching	-11.8307
▁understandable	-11.8309
cock	-11.831
▁mages	-11.8311
▁tighter	-11.8312
▁tot	-11.8322
ido	-11.8323
▁peeing	-11.8325
▁sheets	-11.8332
eren	-11.8335
▁gah	-11.8338
▁andrea	-11.8345
▁realm	-11.835
▁seas	-11.8354
▁tralala	-11.8357
▁amateurs	-11.8362
▁rattles	-11.8362
▁bettermans	-11.8364
▁starters	-11.8366
▁tit	-11.8367
▁rump	-11.8367
▁depths	-11.8377
▁jerking	-11.8377
▁stored	-11.8379
▁halls	-11.838
▁workout	-11.838
bear	-11.8384
▁gardener	-11.8389
▁elbows	-11.8392
▁tactics	-11.8392
▁functions	-11.8394
▁christa	-11.8396
▁mega	-11.8399
diac	-11.8407
uous	-11.841
▁hooking	-11.8417
▁easter	-11.8418
▁pets	-11.8418
▁contracts	-11.8418
▁santo	-11.842
▁interviewed	-11.8425
cent	-11.8427
bomb	-11.843
shot	-11.8431
▁cot	-11.8433
▁lindo	-11.8437
▁spices	-11.8437
▁canadians	-11.8453
▁techniques	-11.8453
▁gladly	-11.8453
▁customs	-11.8454
band	-11.8459
▁billie	-11.8459
▁doubted	-11.846
▁bacteria	-11.8462
▁hangin	-11.8467
▁nukes	-11.8468
▁strippers	-11.8468
▁feeds	-11.8476
▁mommys	-11.8478
lets	-11.8486
▁conn	-11.8488
ggle	-11.8489
▁spur	-11.8495
▁runners	-11.8497
▁pave	-11.8501
▁opinions	-11.8507
▁chil	-11.8513
▁zei	-11.852
▁nurses	-11.8522
▁cuban	-11.8526
▁conf	-11.8544
comb	-11.8544
range	-11.8546
▁booking	-11.8552
▁ny	-11.8554
▁maker	-11.8556
▁sac	-11.8557
▁herei	-11.8557
▁sweeter	-11.8562
▁bla	-11.8562
▁lukes	-11.8574
▁bombing	-11.8581
▁swap	-11.8584
▁ness	-11.8586
▁graceful	-11.8587
▁commercials	-11.8589
▁lesbians	-11.8589
▁contacts	-11.8593
▁eatin	-11.8597
▁tattoos	-11.8601
▁leaks	-11.8604
▁restaurants	-11.861
zen	-11.8613
▁cong	-11.8613
▁johnnys	-11.8614
▁dal	-11.8615
▁pearls	-11.8619
▁benefits	-11.862
doo	-11.8628
▁slices	-11.8632
▁buyers	-11.8635
▁storms	-11.8639
▁occasions	-11.8651
evi	-11.866
▁aro	-11.8661
▁warming	-11.8665
▁wits	-11.8666
▁equals	-11.8666
▁lordy	-11.8675
▁prints	-11.8684
▁dane	-11.8686
▁rive	-11.8696
▁attempts	-11.8699
▁os	-11.8705
▁neuro	-11.8705
▁superb	-11.8714
▁battles	-11.8721
▁ak	-11.8724
▁dub	-11.8734
▁kida	-11.8736
▁tickles	-11.8738
▁camel	-11.8743
▁adventures	-11.8745
▁cakes	-11.8772
▁founder	-11.8773
rez	-11.8775
▁vern	-11.8777
▁dots	-11.8783
▁explaining	-11.8783
uin	-11.8785
▁remark	-11.8791
▁crowded	-11.8821
▁experiments	-11.8836
▁upi	-11.8844
▁thorn	-11.8852
▁by	-11.8865
▁askin	-11.8874
bel	-11.8881
▁iv	-11.8882
▁dennys	-11.8908
▁threats	-11.8914
▁mim	-11.8917
rah	-11.8929
▁bop	-11.8929
▁qua	-11.8938
kov	-11.8947
acy	-11.8951
uke	-11.8966
▁sizes	-11.8977
ulu	-11.898
▁robber	-11.898
▁tur	-11.8984
▁merchant	-11.8988
▁autobot	-11.8991
▁flare	-11.8991
▁noodle	-11.8991
▁did	-11.8993
▁handcuff	-11.8993
▁ancestor	-11.8993
▁cricket	-11.8995
▁consequence	-11.8995
▁dart	-11.9002
▁shade	-11.9014
▁legion	-11.9021
ility	-11.903
▁deli	-11.9034
▁funerals	-11.9039
ridge	-11.905
fall	-11.9068
▁treats	-11.9075
▁uno	-11.9078
inch	-11.9083
self	-11.9084
▁generate	-11.9085
▁pup	-11.9087
heart	-11.9091
rest	-11.9094
▁disgust	-11.9096
▁employ	-11.9099
▁careless	-11.91
▁had	-11.91
▁edwards	-11.9103
faced	-11.9105
▁atta	-11.9106
plane	-11.9108
through	-11.9111
bee	-11.9112
▁involv	-11.9112
▁grin	-11.9113
holland	-11.9113
▁consult	-11.9114
famous	-11.9115
▁dread	-11.9115
dead	-11.9117
▁georg	-11.9117
▁leagues	-11.9117
▁motherfuck	-11.9118
block	-11.912
▁rook	-11.9122
▁dishonor	-11.9123
▁condemn	-11.9124
wall	-11.9124
cold	-11.9125
▁kn	-11.9126
▁clam	-11.9127
▁conclude	-11.913
▁confine	-11.913
▁isolate	-11.913
▁deceive	-11.913
▁automat	-11.9131
▁apprehend	-11.9131
shaw	-11.9131
▁delete	-11.9131
▁hamburg	-11.9134
▁spook	-11.9134
▁clo	-11.9137
▁stain	-11.9138
▁clint	-11.9138
▁garci	-11.914
▁dino	-11.9141
they	-11.9141
▁regime	-11.9143
▁trippin	-11.9143
▁congress	-11.9143
▁twa	-11.9143
▁exploit	-11.9144
▁snug	-11.9144
▁ravage	-11.9144
▁uncertain	-11.9144
▁wiz	-11.9145
▁hydro	-11.9145
▁correspond	-11.9145
▁infiniti	-11.9145
▁absolem	-11.9145
▁accelerate	-11.9145
▁accomplice	-11.9145
▁advisor	-11.9145
▁ahtohallan	-11.9145
▁altitude	-11.9145
▁anarchy	-11.9145
▁angrily	-11.9145
▁annihilation	-11.9145
▁aragog	-11.9145
▁arnold	-11.9145
▁athletic	-11.9145
▁aurelia	-11.9145
▁bedankt	-11.9145
▁beijing	-11.9145
▁benicio	-11.9145
▁beulah	-11.9145
▁bologna	-11.9145
▁caffeine	-11.9145
▁canister	-11.9145
▁cannibal	-11.9145
▁cassette	-11.9145
▁cheeco	-11.9145
▁compensation	-11.9145
▁concussion	-11.9145
▁confederate	-11.9145
▁conklin	-11.9145
▁cougar	-11.9145
▁couid	-11.9145
▁cybertron	-11.9145
▁dartagnan	-11.9145
▁daydream	-11.9145
▁dedication	-11.9145
▁dejesus	-11.9145
▁detonation	-11.9145
▁detonator	-11.9145
▁disregard	-11.9145
▁dominican	-11.9145
▁dopinder	-11.9145
▁dynamite	-11.9145
▁earthquake	-11.9145
▁elaborate	-11.9145
▁ethnic	-11.9145
▁evinrude	-11.9145
▁exhaling	-11.9145
▁exposure	-11.9145
▁extensive	-11.9145
▁fingertip	-11.9145
▁formuler	-11.9145
▁frenzy	-11.9145
▁frustrated	-11.9145
▁frustrating	-11.9145
▁gamora	-11.9145
▁generosity	-11.9145
▁goddammit	-11.9145
▁goldenbeard	-11.9145
▁greenwich	-11.9145
▁gulch	-11.9145
▁hammond	-11.9145
▁howayeh	-11.9145
▁hussein	-11.9145
▁implosion	-11.9145
▁incapable	-11.9145
▁irrelevant	-11.9145
▁jullie	-11.9145
▁kaufman	-11.9145
▁kryptonite	-11.9145
▁laxative	-11.9145
▁liefde	-11.9145
▁literature	-11.9145
▁macduff	-11.9145
▁mafia	-11.9145
▁maneuver	-11.9145
▁mathematics	-11.9145
▁mcgonagall	-11.9145
▁mercenary	-11.9145
▁minnesota	-11.9145
▁mischief	-11.9145
▁monopoly	-11.9145
▁morgan	-11.9145
▁moscone	-11.9145
▁mousetrap	-11.9145
▁narcotics	-11.9145
▁northeast	-11.9145
▁oasis	-11.9145
▁occupy	-11.9145
▁oracle	-11.9145
▁overdue	-11.9145
▁parcel	-11.9145
▁phenomenon	-11.9145
▁philosopher	-11.9145
▁physician	-11.9145
▁pilar	-11.9145
▁proffitt	-11.9145
▁prototype	-11.9145
▁psychopath	-11.9145
▁pudding	-11.9145
▁recognise	-11.9145
▁regulations	-11.9145
▁revolting	-11.9145
▁ritter	-11.9145
▁rochefort	-11.9145
▁rosario	-11.9145
▁roscuro	-11.9145
▁rourke	-11.9145
▁salvation	-11.9145
▁schmuck	-11.9145
▁scordia	-11.9145
▁serververse	-11.9145
▁sheldon	-11.9145
▁shuddering	-11.9145
▁skywalker	-11.9145
▁smithsonian	-11.9145
▁sobiech	-11.9145
▁sprout	-11.9145
▁stazek	-11.9145
▁suspension	-11.9145
▁sylvester	-11.9145
▁threshold	-11.9145
▁tobacco	-11.9145
▁tokyo	-11.9145
▁transaction	-11.9145
▁trudy	-11.9145
▁tucson	-11.9145
▁untrue	-11.9145
▁vanquished	-11.9145
▁vejle	-11.9145
▁velvet	-11.9145
▁veronica	-11.9145
▁vibrating	-11.9145
▁voicemail	-11.9145
▁voldemort	-11.9145
▁winyerp	-11.9145
▁xavier	-11.9145
▁yorgi	-11.9145
▁absorb	-11.9145
▁achter	-11.9145
▁analyze	-11.9145
▁charging	-11.9145
▁essence	-11.9145
▁glitter	-11.9145
▁grudge	-11.9145
▁jerska	-11.9145
▁kosher	-11.9145
▁madonna	-11.9145
▁monroe	-11.9145
▁namaste	-11.9145
▁rigged	-11.9145
▁samuel	-11.9145
▁theories	-11.9145
▁bmw	-11.9145
▁diminish	-11.9145
▁eyelash	-11.9145
▁fife	-11.9145
▁jimeno	-11.9145
▁liberal	-11.9145
▁viral	-11.9145
▁insectopia	-11.9145
▁squirt	-11.9145
▁vocabulary	-11.9145
▁burbank	-11.9145
▁elinor	-11.9145
▁galahad	-11.9145
▁swimsuit	-11.9145
▁tiffany	-11.9145
▁urinate	-11.9145
▁overhear	-11.9145
▁twitch	-11.9145
▁berman	-11.9145
▁mingle	-11.9145
▁cradle	-11.9145
▁floyd	-11.9145
▁matador	-11.9145
▁microwave	-11.9145
▁unfold	-11.9145
▁crazies	-11.9145
▁machete	-11.9145
▁seminar	-11.9145
▁initiative	-11.9145
▁redeem	-11.9145
▁wrath	-11.9145
▁furlong	-11.9145
▁casino	-11.9145
▁clarify	-11.9145
▁discount	-11.9145
▁motivation	-11.9145
▁felix	-11.9145
▁muslim	-11.9145
▁constitution	-11.9145
▁holiness	-11.9145
▁mudblood	-11.9145
▁kristoff	-11.9145
▁mwah	-11.9145
▁turay	-11.9146
▁helium	-11.9146
▁wilkins	-11.9146
▁wiping	-11.9146
▁nogood	-11.9146
▁interrogation	-11.9146
▁leisureland	-11.9146
▁midget	-11.9146
▁divinity	-11.9146
▁frodo	-11.9146
▁pedal	-11.9146
▁syd	-11.9146
▁shalt	-11.9146
▁silas	-11.9146
▁visible	-11.9146
▁incorrect	-11.9146
▁apron	-11.9146
▁xforce	-11.9146
▁chores	-11.9146
▁dormov	-11.9146
▁rogue	-11.9146
▁humour	-11.9146
▁ignition	-11.9146
▁inspection	-11.9146
▁freakshow	-11.9146
▁departure	-11.9146
▁alliance	-11.9146
▁transmitting	-11.9146
▁gravitation	-11.9146
▁adele	-11.9146
▁bleating	-11.9146
▁sofa	-11.9146
▁shaving	-11.9146
▁liddy	-11.9146
▁scope	-11.9146
▁bogey	-11.9146
▁licence	-11.9146
▁verify	-11.9146
▁boundaries	-11.9146
▁marathon	-11.9146
▁unhook	-11.9146
▁outof	-11.9146
▁shady	-11.9146
▁vasil	-11.9146
▁flapping	-11.9146
▁beaver	-11.9146
▁zulu	-11.9146
▁tuls	-11.9146
▁sleepyhead	-11.9146
▁schoolteacher	-11.9146
▁beetle	-11.9146
▁unarmed	-11.9146
▁hollis	-11.9146
▁twentythree	-11.9146
▁goggles	-11.9147
▁worthwhile	-11.9147
▁enlist	-11.9147
▁textbook	-11.9147
▁skipping	-11.9147
▁compell	-11.9147
▁overboard	-11.9147
▁canine	-11.9147
▁idont	-11.9147
▁pagan	-11.9147
▁huang	-11.9147
▁retail	-11.9147
▁voting	-11.9147
▁disturbance	-11.9147
▁annette	-11.9147
▁cement	-11.9147
▁reload	-11.9147
▁paramedic	-11.9147
▁botan	-11.9147
▁interior	-11.9147
▁fword	-11.9147
▁lingerie	-11.9147
▁info	-11.9147
▁receptionist	-11.9147
▁friar	-11.9147
▁sweden	-11.9147
▁telescope	-11.9147
▁estonian	-11.9148
▁bonny	-11.9148
▁pipeline	-11.9148
▁slapping	-11.9148
▁jacksonville	-11.9148
▁programming	-11.9148
▁afoot	-11.9148
▁tyson	-11.9148
▁pike	-11.9148
▁tinder	-11.9148
▁molecules	-11.9148
▁olson	-11.9148
▁alias	-11.9148
▁sloth	-11.9148
▁stanford	-11.9148
▁toddler	-11.9149
▁stability	-11.9149
▁lassie	-11.9149
▁rolex	-11.9149
▁republican	-11.9149
▁exhibition	-11.9149
▁hoax	-11.9149
▁tipped	-11.9149
▁appointments	-11.9149
▁devise	-11.9149
▁jonas	-11.9149
▁huff	-11.9149
▁blowjob	-11.9149
▁flake	-11.915
▁hotshot	-11.915
▁introducing	-11.915
▁arise	-11.915
▁degenerate	-11.915
▁toch	-11.915
▁panda	-11.915
▁overtime	-11.915
▁hotrod	-11.915
▁parallel	-11.915
▁mascot	-11.915
▁transition	-11.915
▁rotation	-11.915
▁stakeout	-11.915
▁rasp	-11.9152
▁alza	-11.9152
▁tango	-11.9152
▁comprehend	-11.9152
▁swu	-11.9152
▁icy	-11.9152
▁mainland	-11.9152
▁twistle	-11.9153
▁notion	-11.9153
▁semen	-11.9153
▁reiner	-11.9153
▁brotherhood	-11.9154
▁checkpoint	-11.9154
▁nero	-11.9154
▁crazed	-11.9154
▁anders	-11.9154
▁crunchy	-11.9154
▁signora	-11.9155
▁voila	-11.9155
aint	-11.9155
▁forged	-11.9155
▁combined	-11.9155
▁intruder	-11.9155
▁imim	-11.9156
▁ruthless	-11.9156
▁tripped	-11.9156
▁chump	-11.9156
▁komt	-11.9156
▁iq	-11.9156
▁dost	-11.9156
▁adjustment	-11.9156
▁elton	-11.9156
▁frey	-11.9156
▁halley	-11.9157
▁samba	-11.9158
▁benson	-11.9158
▁plow	-11.9158
▁zit	-11.9158
▁signore	-11.9158
▁wingman	-11.9159
▁decoy	-11.9159
▁neg	-11.9159
▁lyd	-11.916
▁dragan	-11.916
▁scattered	-11.916
▁deceived	-11.916
▁vivian	-11.916
▁halen	-11.9161
▁felon	-11.9162
▁salsa	-11.9162
▁supervised	-11.9162
▁woodman	-11.9162
▁ahold	-11.9162
▁barren	-11.9163
▁anthe	-11.9164
▁disc	-11.9164
▁attach	-11.9164
▁rapist	-11.9164
▁rileys	-11.9165
▁cowboys	-11.9165
▁tweety	-11.9165
▁snorting	-11.9165
▁priceless	-11.9166
▁reef	-11.9166
▁fuckface	-11.9166
▁hobo	-11.9167
▁edna	-11.9168
▁stripes	-11.9168
▁watchdog	-11.9169
▁viewers	-11.9169
▁drifted	-11.9169
▁penetrate	-11.9169
▁sage	-11.9169
▁brightest	-11.917
▁bravest	-11.917
▁challenger	-11.917
▁tenant	-11.9171
▁combo	-11.9172
▁indicated	-11.9173
▁morally	-11.9173
▁improved	-11.9174
▁fulltime	-11.9175
▁fiber	-11.9175
▁cranky	-11.9175
▁stashed	-11.9176
▁zipper	-11.9177
▁casing	-11.9177
▁collector	-11.9178
▁hardball	-11.9179
▁converting	-11.9179
▁balm	-11.9181
▁queenie	-11.9184
cop	-11.9184
▁childish	-11.9185
▁switches	-11.9185
▁playboy	-11.9185
▁engravings	-11.9187
▁grind	-11.9189
▁merciful	-11.9191
▁erased	-11.9191
▁hometown	-11.9191
▁impound	-11.9193
▁rejected	-11.9193
sided	-11.9194
▁strangest	-11.9194
▁distracting	-11.9194
▁framed	-11.9195
▁spar	-11.9195
▁bridger	-11.9196
▁filles	-11.9198
▁santi	-11.9199
▁invested	-11.92
▁signor	-11.9204
▁sass	-11.9207
▁commissioned	-11.9207
▁cla	-11.9208
▁soften	-11.9209
▁thermo	-11.9209
▁sewing	-11.9211
wyn	-11.9212
▁crosses	-11.9213
▁rental	-11.9214
▁inning	-11.9214
▁linger	-11.9214
▁abe	-11.9215
▁orion	-11.9215
▁wacht	-11.9216
▁deano	-11.9217
▁maggots	-11.922
▁mushrooms	-11.922
▁poured	-11.9221
▁hind	-11.9221
▁boomer	-11.9223
▁socially	-11.9226
▁photographed	-11.9226
▁bumped	-11.9226
▁glowing	-11.9227
▁tee	-11.9227
▁container	-11.9227
▁mixing	-11.9227
▁ignored	-11.9228
▁regularly	-11.923
▁joel	-11.9236
▁qualifications	-11.9236
▁leaking	-11.9237
▁collected	-11.9239
ita	-11.924
▁hopeful	-11.924
erald	-11.9242
brain	-11.9243
▁churches	-11.9245
▁swelling	-11.9245
▁gardens	-11.9248
▁connecting	-11.9248
▁wad	-11.9252
▁whims	-11.9253
▁earning	-11.9258
tina	-11.926
▁eerst	-11.9265
▁mustard	-11.9265
▁chicky	-11.9267
▁cramps	-11.9268
▁implants	-11.9269
▁pinched	-11.9272
▁fam	-11.9274
▁scored	-11.9281
ual	-11.9283
▁thugs	-11.9286
▁errands	-11.9286
▁cullens	-11.9286
▁tele	-11.9297
▁milan	-11.9297
▁banged	-11.9297
▁hacker	-11.9299
▁blasted	-11.9304
▁democratic	-11.9312
▁hash	-11.9313
▁trashed	-11.9313
▁lind	-11.9313
snt	-11.9314
▁sounding	-11.9317
▁cigars	-11.9319
▁investigators	-11.9319
▁appearing	-11.9323
forsaken	-11.9324
▁involves	-11.9324
▁pricks	-11.9324
▁beh	-11.9329
boom	-11.933
▁getaway	-11.933
lessness	-11.9332
▁eater	-11.9338
▁marched	-11.9338
▁neednt	-11.9341
▁sacrifices	-11.9341
▁tougher	-11.9341
▁judged	-11.9346
▁sprinkles	-11.9346
acci	-11.935
▁tha	-11.9356
lect	-11.9357
▁allies	-11.9366
making	-11.9367
▁prejudice	-11.9368
link	-11.9377
▁blinded	-11.9383
rod	-11.9385
▁scraps	-11.9389
▁tearing	-11.939
▁packet	-11.9395
▁scanners	-11.9403
▁ratio	-11.9403
▁paws	-11.9403
▁reveals	-11.9404
▁aura	-11.9405
▁punched	-11.9411
▁eu	-11.9415
▁fishy	-11.9419
▁switching	-11.9421
tto	-11.9425
uzz	-11.9425
call	-11.9429
▁limbs	-11.9435
▁wizards	-11.9436
fol	-11.9436
▁markets	-11.9439
▁patel	-11.9442
▁taco	-11.9443
▁takeoff	-11.9445
ova	-11.9446
▁cas	-11.9447
▁smoker	-11.9449
▁gals	-11.9469
▁hatcher	-11.9476
▁whit	-11.948
▁presum	-11.9497
▁smelly	-11.9508
ddle	-11.951
▁photographers	-11.9513
▁sly	-11.9518
lick	-11.9518
▁savages	-11.9519
▁bagg	-11.9534
ists	-11.9535
bert	-11.954
▁sod	-11.9556
▁buckets	-11.9557
▁mechanics	-11.9563
▁pitt	-11.9568
▁phoned	-11.9568
▁traitors	-11.9572
▁aged	-11.9577
▁sul	-11.958
▁privileges	-11.9589
▁epi	-11.96
▁papi	-11.9602
▁quo	-11.9612
▁docks	-11.9613
▁pressing	-11.9615
▁comm	-11.9622
art	-11.9623
▁sca	-11.9639
▁locals	-11.9639
▁kittens	-11.9639
▁shaws	-11.964
▁sweetly	-11.965
▁albums	-11.9656
▁bas	-11.9658
▁mor	-11.9663
▁fro	-11.9674
▁sig	-11.9675
▁lice	-11.9677
▁suited	-11.9678
▁semi	-11.969
lio	-11.969
▁valt	-11.9696
▁bleeds	-11.9709
table	-11.9712
▁kyles	-11.9714
ime	-11.9715
▁squirrels	-11.9725
▁weekly	-11.9725
▁lightly	-11.9726
▁bumps	-11.9726
oise	-11.9737
▁pledges	-11.9742
andere	-11.9747
▁poll	-11.9748
ware	-11.9757
▁awards	-11.9762
▁presenting	-11.9762
▁spl	-11.9766
▁shellie	-11.9772
▁das	-11.9776
▁journals	-11.9791
▁tang	-11.9802
▁engl	-11.9815
eating	-11.9816
▁bern	-11.9823
▁nig	-11.9829
lier	-11.9836
▁aids	-11.9836
oud	-11.9842
▁chl	-11.9852
▁artistic	-11.9858
▁mau	-11.9858
▁fees	-11.9859
▁astr	-11.9859
▁idol	-11.986
▁ori	-11.9868
▁seeks	-11.9868
▁graves	-11.987
▁bigg	-11.9872
manship	-11.9879
▁burner	-11.9884
ante	-11.9891
▁ree	-11.9902
ural	-11.991
hh	-11.9915
▁dau	-11.9933
did	-11.9941
▁wai	-11.9947
▁loans	-11.9955
▁phillips	-11.9966
▁troubled	-11.9967
poli	-11.9972
▁grah	-11.9974
vine	-11.9977
▁prepp	-11.998
▁explosions	-11.9983
des	-11.9989
▁tanks	-11.9994
otch	-12.0005
horse	-12.0015
▁ducks	-12.0032
▁wigg	-12.0045
▁responses	-12.0053
▁slowing	-12.0054
bend	-12.0054
loo	-12.0072
▁exclaim	-12.008
▁stoke	-12.0084
▁skate	-12.0085
lasting	-12.0087
▁nada	-12.0088
▁cages	-12.0088
▁slurp	-12.0098
▁orgasm	-12.0099
eva	-12.01
▁errand	-12.0101
▁pelt	-12.0103
▁cullen	-12.0104
▁goblin	-12.0104
▁vegetable	-12.0105
▁vein	-12.0105
▁sensor	-12.0106
▁earring	-12.0107
▁ballistic	-12.0108
▁iet	-12.012
▁thug	-12.0125
state	-12.0129
cept	-12.0135
list	-12.0139
▁twee	-12.0141
▁biker	-12.0141
▁israeli	-12.0144
▁why	-12.0144
▁growl	-12.0145
lne	-12.0145
▁publish	-12.0153
▁measur	-12.0179
▁adds	-12.018
igger	-12.0186
▁smyth	-12.0192
▁doub	-12.0199
▁temp	-12.0209
▁grap	-12.0212
date	-12.0215
▁hype	-12.0218
▁cycl	-12.0222
pipe	-12.0225
shire	-12.0225
▁shush	-12.0225
identified	-12.0226
league	-12.0226
authorized	-12.0226
blood	-12.0226
first	-12.0226
letting	-12.0227
mission	-12.0228
▁preach	-12.0228
▁flirt	-12.0228
▁milli	-12.0229
▁thump	-12.023
▁bluff	-12.023
type	-12.0231
▁unveil	-12.0234
▁ambush	-12.0235
▁buns	-12.0236
▁pluck	-12.0236
cream	-12.024
▁amuse	-12.024
▁emerge	-12.0241
▁expire	-12.0242
model	-12.0242
▁expose	-12.0242
▁tralalaaa	-12.0243
flower	-12.0243
▁sympath	-12.0245
▁whiz	-12.0246
▁commend	-12.0247
▁apparent	-12.0247
misunderstanding	-12.0247
▁jill	-12.0248
▁harp	-12.0248
▁toke	-12.0249
▁recon	-12.0249
▁advertise	-12.0249
▁haste	-12.025
▁gert	-12.0251
▁torpedo	-12.0252
▁interact	-12.0253
▁educate	-12.0253
▁traveler	-12.0254
▁standards	-12.0254
▁darlin	-12.0254
▁posse	-12.0254
▁assembly	-12.0254
▁poach	-12.0255
tara	-12.0255
▁differ	-12.0256
▁margarita	-12.0256
▁neighbour	-12.0256
▁acoustic	-12.0256
▁biometric	-12.0256
▁blossom	-12.0256
▁bullfight	-12.0256
▁canker	-12.0256
▁cushion	-12.0256
▁disobey	-12.0256
▁endeavor	-12.0256
▁harbour	-12.0256
▁inflict	-12.0256
▁phantom	-12.0256
▁pioneer	-12.0256
▁poverty	-12.0256
▁propriet	-12.0256
▁reelection	-12.0256
▁squash	-12.0256
▁abigail	-12.0256
▁alexandria	-12.0256
▁ambitious	-12.0256
▁antarctica	-12.0256
▁apocalypse	-12.0256
▁appreciation	-12.0256
▁armstrong	-12.0256
▁aspect	-12.0256
▁asthma	-12.0256
▁asylum	-12.0256
▁bakersfield	-12.0256
▁banzai	-12.0256
▁baptized	-12.0256
▁batroc	-12.0256
▁beseech	-12.0256
▁beverage	-12.0256
▁broccoli	-12.0256
▁brundon	-12.0256
▁cambridge	-12.0256
▁capitol	-12.0256
▁caribbean	-12.0256
▁cathedral	-12.0256
▁chariot	-12.0256
▁chimney	-12.0256
▁civic	-12.0256
▁claiborne	-12.0256
▁cobblepot	-12.0256
▁collision	-12.0256
▁colonial	-12.0256
▁colossus	-12.0256
▁conclave	-12.0256
▁conspicuous	-12.0256
▁contribute	-12.0256
▁crummy	-12.0256
▁dakota	-12.0256
▁damodar	-12.0256
▁darcy	-12.0256
▁delacourt	-12.0256
▁despicable	-12.0256
▁diagnosis	-12.0256
▁dilemma	-12.0256
▁diligence	-12.0256
▁dingdong	-12.0256
▁dmitri	-12.0256
▁doorknob	-12.0256
▁dundund	-12.0256
▁ecstasy	-12.0256
▁edinburgh	-12.0256
▁eileen	-12.0256
▁excellence	-12.0256
▁exgirlfriend	-12.0256
▁extortion	-12.0256
▁fireflies	-12.0256
▁forecast	-12.0256
▁frustration	-12.0256
▁galileo	-12.0256
▁galvatron	-12.0256
▁ganush	-12.0256
▁ghastly	-12.0256
▁giorgio	-12.0256
▁grouch	-12.0256
▁grumbling	-12.0256
▁guidance	-12.0256
▁gypsy	-12.0256
▁historian	-12.0256
▁housewife	-12.0256
▁hulk	-12.0256
▁humberfloob	-12.0256
▁infiltrat	-12.0256
▁injustice	-12.0256
▁intact	-12.0256
▁intrigue	-12.0256
▁irrational	-12.0256
▁juicy	-12.0256
▁kazakhstan	-12.0256
▁lennon	-12.0256
▁liaison	-12.0256
▁lisbeth	-12.0256
▁lisbon	-12.0256
▁lnspector	-12.0256
▁lnternet	-12.0256
▁lollipop	-12.0256
▁lurasetti	-12.0256
▁magdalene	-12.0256
▁magnum	-12.0256
▁masturbate	-12.0256
▁matrimon	-12.0256
▁meadow	-12.0256
▁metcalf	-12.0256
▁methane	-12.0256
▁mortgage	-12.0256
▁mushnik	-12.0256
▁norrington	-12.0256
▁obnoxious	-12.0256
▁obscur	-12.0256
▁octopi	-12.0256
▁organizing	-12.0256
▁overwhelming	-12.0256
▁palestinian	-12.0256
▁paranoia	-12.0256
▁paxton	-12.0256
▁peenalop	-12.0256
▁penitentiary	-12.0256
▁petrified	-12.0256
▁phelan	-12.0256
▁pineapple	-12.0256
▁prahba	-12.0256
▁premonition	-12.0256
▁raleigh	-12.0256
▁raphael	-12.0256
▁rascal	-12.0256
▁reggae	-12.0256
▁reunion	-12.0256
▁sabbath	-12.0256
▁satchel	-12.0256
▁scepter	-12.0256
▁securities	-12.0256
▁selfesteem	-12.0256
▁sizzling	-12.0256
▁sloane	-12.0256
▁smooch	-12.0256
▁sofia	-12.0256
▁southeast	-12.0256
▁stairwell	-12.0256
▁stateoftheart	-12.0256
▁stepfather	-12.0256
▁stunned	-12.0256
▁sublime	-12.0256
▁substation	-12.0256
▁substitute	-12.0256
▁temporarily	-12.0256
▁tortoise	-12.0256
▁trajectory	-12.0256
▁twilight	-12.0256
▁uncommon	-12.0256
▁uptight	-12.0256
▁urinating	-12.0256
▁vegetarian	-12.0256
▁veggie	-12.0256
▁velkan	-12.0256
▁vendor	-12.0256
▁vladimir	-12.0256
▁wallpaper	-12.0256
▁wayfinder	-12.0256
▁werewolf	-12.0256
▁werewolves	-12.0256
▁whilst	-12.0256
▁wisconsin	-12.0256
▁yvonne	-12.0256
▁zeppelin	-12.0256
▁barracks	-12.0256
▁critter	-12.0256
▁daffy	-12.0256
▁debby	-12.0256
▁deformed	-12.0256
▁ignoring	-12.0256
▁kirsch	-12.0256
▁lndlstlnct	-12.0256
▁maddox	-12.0256
▁margin	-12.0256
▁paralyze	-12.0256
[...]
