<unk>	0
<s>	0
</s>	0
s	-4.23322
▁dont	-4.78964
▁know	-4.81066
▁im	-4.81178
▁well	-4.83432
▁oh	-4.87457
▁go	-4.93365
▁like	-4.99127
▁get	-5.00172
▁one	-5.03296
▁come	-5.08697
▁right	-5.09966
▁youre	-5.19958
▁l	-5.20909
▁see	-5.2419
▁good	-5.29198
▁got	-5.30157
ing	-5.34208
▁thats	-5.40098
▁yes	-5.44327
▁	-5.44637
▁think	-5.51399
▁back	-5.55768
▁us	-5.57271
▁take	-5.60728
▁yeah	-5.6169
▁time	-5.62169
▁okay	-5.66721
▁going	-5.67408
▁would	-5.67766
▁look	-5.68809
ed	-5.69674
▁want	-5.70827
▁na	-5.72689
▁ill	-5.73185
▁man	-5.75725
▁cant	-5.79252
▁little	-5.80331
▁hes	-5.82562
▁way	-5.87789
▁never	-5.88953
▁hey	-5.9173
▁could	-5.9296
▁make	-5.9651
▁gon	-5.97871
▁tell	-5.98512
▁really	-6.00753
▁say	-6.01286
▁let	-6.02423
▁help	-6.10114
▁must	-6.12658
▁sure	-6.13743
▁theres	-6.14339
▁find	-6.14567
▁music	-6.1465
▁need	-6.16107
▁give	-6.16904
▁love	-6.17224
▁day	-6.18468
▁two	-6.19489
▁lets	-6.2057
▁thank	-6.22546
▁mr	-6.22971
▁whats	-6.24245
▁something	-6.24251
d	-6.24498
▁home	-6.24763
▁great	-6.26122
▁mean	-6.28868
▁ive	-6.28882
▁people	-6.29486
▁sir	-6.31963
▁please	-6.31995
▁much	-6.33288
▁didnt	-6.34395
y	-6.36004
▁new	-6.39987
▁wait	-6.41822
▁thing	-6.42419
▁first	-6.4293
▁away	-6.42972
▁even	-6.44729
▁life	-6.44887
▁keep	-6.46754
▁sorry	-6.47328
▁said	-6.49604
ly	-6.51154
▁big	-6.5128
▁night	-6.5329
▁youll	-6.54312
▁long	-6.54519
▁stop	-6.55795
▁work	-6.56068
▁theyre	-6.56405
▁anything	-6.57461
▁uh	-6.59201
▁nothing	-6.59978
e	-6.60311
▁boy	-6.61504
▁around	-6.62929
▁better	-6.63692
▁world	-6.63756
▁things	-6.65772
▁put	-6.65804
▁wont	-6.65982
▁father	-6.66073
▁thought	-6.66231
▁old	-6.67412
▁shes	-6.67661
▁always	-6.67929
▁still	-6.6795
▁ever	-6.67959
▁every	-6.69249
▁three	-6.69889
▁maybe	-6.70733
▁leave	-6.71207
▁place	-6.72319
▁miss	-6.7283
▁last	-6.72913
▁made	-6.74961
▁show	-6.75296
▁everything	-6.75316
▁nice	-6.7722
▁mother	-6.77245
▁may	-6.77925
▁coming	-6.7799
▁course	-6.80086
▁stay	-6.8028
▁told	-6.80534
▁another	-6.81422
▁dad	-6.82329
▁hear	-6.82903
▁years	-6.82936
▁girl	-6.83097
▁enough	-6.83705
▁youve	-6.84189
▁heart	-6.84336
▁la	-6.84354
▁kind	-6.86779
▁believe	-6.87213
▁men	-6.90438
▁fine	-6.90841
▁family	-6.90877
▁call	-6.91449
▁real	-6.91512
▁name	-6.92142
▁god	-6.9254
▁lm	-6.9335
▁water	-6.94961
▁done	-6.96087
▁hold	-6.96124
er	-6.96815
▁came	-6.97168
▁care	-6.97317
▁bring	-6.97825
▁guys	-6.98102
▁mom	-6.99099
▁many	-6.99801
▁son	-7.00589
▁try	-7.01009
▁id	-7.01218
▁isnt	-7.01348
▁king	-7.01615
▁ta	-7.01696
▁might	-7.01711
▁hello	-7.02299
▁lot	-7.02495
▁best	-7.02504
▁remember	-7.02692
▁thanks	-7.032
▁bear	-7.03241
▁seen	-7.04485
▁left	-7.04805
▁friend	-7.05835
▁woman	-7.06426
▁bad	-7.07043
▁girls	-7.08994
▁feel	-7.10252
▁mind	-7.10696
▁without	-7.11185
▁hi	-7.11577
▁found	-7.1301
▁hand	-7.13155
▁watch	-7.13734
▁ask	-7.1378
t	-7.14143
▁beautiful	-7.14765
▁saw	-7.15549
▁young	-7.16081
▁everyone	-7.16423
▁lost	-7.16861
▁shall	-7.17374
▁yogi	-7.17442
▁ready	-7.1757
a	-7.17777
▁head	-7.18167
▁listen	-7.19113
▁dear	-7.20054
▁doesnt	-7.20066
▁whoa	-7.20099
▁getting	-7.2018
▁talk	-7.20282
▁run	-7.21145
▁next	-7.21415
▁else	-7.21775
▁whole	-7.22285
▁playing	-7.22321
▁room	-7.22485
▁ha	-7.23001
n	-7.23045
▁morning	-7.24148
▁weve	-7.24858
▁understand	-7.25737
▁hope	-7.26444
▁move	-7.26814
es	-7.27379
▁wrong	-7.27654
▁gone	-7.2802
▁princess	-7.28327
▁aint	-7.28414
▁wanted	-7.28837
▁days	-7.29453
▁brother	-7.2947
▁speaking	-7.30046
▁today	-7.30565
▁live	-7.30595
▁hard	-7.30787
▁alone	-7.31318
▁huh	-7.31356
i	-7.31611
▁guess	-7.31776
▁house	-7.319
▁true	-7.32856
▁pretty	-7.33561
▁together	-7.33562
▁start	-7.3399
▁food	-7.34085
▁ah	-7.35086
▁horse	-7.35595
▁wan	-7.3574
▁dog	-7.35868
▁eat	-7.36109
▁heard	-7.3632
▁trying	-7.36399
▁knew	-7.3665
▁went	-7.36674
▁someone	-7.37438
▁money	-7.37439
ve	-7.37763
▁open	-7.38088
▁friends	-7.38154
▁hell	-7.40182
▁talking	-7.40321
▁looking	-7.4038
▁year	-7.40512
▁hurry	-7.41472
▁boat	-7.42072
▁lll	-7.42098
▁happened	-7.42419
▁wish	-7.43191
▁idea	-7.43603
▁happy	-7.43972
▁luna	-7.43972
▁lts	-7.44077
▁whos	-7.44456
▁dead	-7.44674
▁wouldnt	-7.44959
▁job	-7.45525
▁worry	-7.46219
▁excuse	-7.46273
▁harry	-7.47424
▁city	-7.47474
▁use	-7.47672
▁far	-7.47864
▁sea	-7.48274
▁already	-7.48281
▁yet	-7.48479
▁kid	-7.485
▁rest	-7.4858
▁crowd	-7.48981
▁fly	-7.49008
▁sam	-7.49654
▁high	-7.49935
▁soon	-7.49991
▁four	-7.5005
▁mrs	-7.502
▁eyes	-7.50526
▁part	-7.50537
▁prince	-7.50931
▁wasnt	-7.5187
▁tomorrow	-7.51887
▁land	-7.52405
▁tonight	-7.52662
▁sweet	-7.5289
▁lady	-7.529
▁kids	-7.52984
▁mine	-7.53639
▁fire	-7.54328
▁fun	-7.54389
▁matter	-7.55489
▁christmas	-7.5559
▁actually	-7.55594
▁s	-7.56766
▁max	-7.56913
▁face	-7.57506
▁everybody	-7.57527
o	-7.58087
▁lord	-7.58389
▁since	-7.58439
▁looks	-7.58552
▁stand	-7.59077
▁black	-7.592
▁angel	-7.59225
▁easy	-7.59492
▁welcome	-7.59509
▁ago	-7.5951
▁trouble	-7.59649
▁akita	-7.60443
▁ya	-7.60571
▁gold	-7.60629
▁turn	-7.60642
▁though	-7.6119
▁cool	-7.62344
▁wonderful	-7.62351
▁neecro	-7.62453
▁dream	-7.62762
▁end	-7.62779
▁took	-7.63483
▁five	-7.63586
▁cave	-7.63673
al	-7.64039
▁along	-7.64506
▁door	-7.64539
r	-7.64552
▁youd	-7.64618
▁change	-7.65257
▁perfect	-7.65439
▁un	-7.65501
▁town	-7.65544
▁earth	-7.65599
▁meet	-7.66268
▁kill	-7.66607
▁close	-7.66799
▁bit	-7.67358
▁guy	-7.67778
▁play	-7.67958
▁boo	-7.68257
▁stuff	-7.68384
▁couldnt	-7.68878
▁havent	-7.69831
▁forget	-7.69833
▁chance	-7.69843
▁afraid	-7.69846
▁car	-7.6985
▁sound	-7.7032
▁also	-7.70923
▁minute	-7.70926
▁almost	-7.70945
▁ok	-7.70956
▁dance	-7.70962
▁half	-7.70972
▁late	-7.70975
▁sal	-7.71861
▁business	-7.72035
▁arent	-7.72069
▁quite	-7.72089
▁later	-7.72252
▁called	-7.72629
▁catch	-7.72851
▁full	-7.72973
▁star	-7.73795
▁sleep	-7.74162
▁special	-7.74213
▁moment	-7.74374
▁used	-7.7446
▁pay	-7.75132
▁bird	-7.75419
▁singing	-7.75618
▁hands	-7.76322
▁knows	-7.76451
▁light	-7.76607
▁anyone	-7.7663
▁word	-7.76799
▁break	-7.77375
▁direction	-7.77869
▁hit	-7.78132
▁says	-7.78133
▁comes	-7.78832
▁um	-7.78835
▁strong	-7.7884
▁taking	-7.79102
▁hmm	-7.79247
▁waiting	-7.79349
▁follow	-7.79563
▁ride	-7.80111
▁inaudible	-7.80179
▁forever	-7.80204
▁set	-7.80304
▁maam	-7.80311
▁sun	-7.8041
▁gave	-7.81423
▁bye	-7.8143
▁wow	-7.81473
▁laughing	-7.8277
ll	-7.83366
▁check	-7.83381
est	-7.8358
▁camp	-7.83582
▁brought	-7.83883
▁child	-7.83912
▁free	-7.84051
▁dinner	-7.84052
▁royal	-7.84105
▁wheres	-7.84165
▁m	-7.84859
▁nobody	-7.8515
▁elvis	-7.85192
▁ball	-7.8525
in	-7.85475
▁promise	-7.86377
▁gasps	-7.86589
▁language	-7.86625
▁step	-7.86811
▁seems	-7.87392
l	-7.87519
▁ahead	-7.87737
▁least	-7.87775
▁em	-7.87999
▁die	-7.88258
▁save	-7.89097
▁ho	-7.89385
▁saying	-7.90181
▁ladies	-7.90447
▁whispers	-7.90574
▁heaven	-7.90613
▁p	-7.9078
▁return	-7.91314
▁fish	-7.9157
▁krasta	-7.91727
▁sanna	-7.91744
▁lt	-7.91788
▁making	-7.91821
▁started	-7.92181
▁speak	-7.92959
▁reason	-7.93392
▁lovely	-7.93711
▁count	-7.93985
▁cause	-7.94247
▁book	-7.94248
▁times	-7.94264
▁behind	-7.94486
▁julio	-7.94492
▁feet	-7.94549
▁summer	-7.94776
▁second	-7.94781
▁baby	-7.94865
▁point	-7.9492
▁mama	-7.94984
▁makes	-7.95211
▁learn	-7.95516
▁different	-7.95834
▁goodbye	-7.95933
▁children	-7.95983
▁school	-7.96256
▁bed	-7.96421
ers	-7.96579
▁sit	-7.96651
▁goes	-7.97193
▁chef	-7.97323
▁inside	-7.97332
▁groove	-7.97338
▁poor	-7.9734
▁tara	-7.97352
▁d	-7.97799
▁send	-7.98618
▁dark	-7.98638
▁c	-7.98743
▁perhaps	-7.98772
▁probably	-7.98773
▁somebody	-7.98773
▁tommy	-7.98777
▁means	-7.98779
▁exactly	-7.98784
▁fear	-7.99094
▁problem	-7.99127
▁daughter	-7.99132
▁sister	-7.99141
▁river	-7.99141
▁pa	-7.99232
▁laughs	-7.99277
▁animals	-7.99437
▁boys	-8.00135
▁drink	-8.00137
▁captain	-8.00243
▁honey	-8.00247
▁highness	-8.0026
▁sort	-8.00284
▁safe	-8.00397
▁de	-8.00512
▁air	-8.00522
▁secret	-8.00622
▁mark	-8.00625
▁tree	-8.00776
▁trust	-8.00796
▁ye	-8.01217
ies	-8.01378
▁bears	-8.01622
▁small	-8.01641
▁across	-8.01736
▁women	-8.01737
▁amazing	-8.01744
▁rock	-8.01826
▁tom	-8.0213
▁red	-8.02195
▁important	-8.03159
▁wake	-8.03278
▁heres	-8.04026
▁i	-8.04901
st	-8.05427
▁pick	-8.05509
▁side	-8.05623
▁fast	-8.05785
▁order	-8.06102
▁gentlemen	-8.06352
▁story	-8.06431
▁dreams	-8.06481
▁plan	-8.06948
▁mountain	-8.07234
▁walk	-8.0781
▁charlie	-8.0794
▁death	-8.07942
▁theyll	-8.07987
▁become	-8.08006
▁needs	-8.08804
▁seem	-8.09193
▁quiet	-8.09436
▁argh	-8.09553
▁moses	-8.09587
▁blood	-8.09595
▁able	-8.09596
▁cheering	-8.09619
▁hate	-8.09722
▁number	-8.09766
▁line	-8.09887
▁voice	-8.10093
▁mary	-8.10204
▁top	-8.10313
▁jack	-8.10997
▁cut	-8.1116
▁crazy	-8.11194
▁flipper	-8.11202
▁wife	-8.11223
▁sometimes	-8.11344
▁lf	-8.11619
▁anyway	-8.11689
▁week	-8.11701
▁uncle	-8.1172
or	-8.11763
▁horses	-8.11864
able	-8.11964
▁band	-8.12004
▁touch	-8.12042
ful	-8.12141
▁read	-8.1236
▁re	-8.12456
▁feeling	-8.12813
▁santa	-8.12863
▁sounds	-8.12872
▁forest	-8.12873
▁dolly	-8.12935
h	-8.13024
▁clear	-8.13116
▁till	-8.13209
▁group	-8.13443
▁phone	-8.13609
▁b	-8.13651
▁happen	-8.14397
▁quick	-8.14446
▁thinking	-8.14639
▁lve	-8.14666
▁pup	-8.15148
▁white	-8.15154
▁throw	-8.15522
▁glad	-8.15716
▁funny	-8.1629
▁tiny	-8.16294
▁train	-8.16512
▁bell	-8.16602
▁a	-8.16871
▁lead	-8.17035
▁shut	-8.18006
▁york	-8.18007
▁chuckles	-8.1805
▁clothes	-8.18054
▁others	-8.18071
▁tried	-8.18072
▁six	-8.18079
▁married	-8.18122
▁working	-8.18223
▁supposed	-8.18256
▁power	-8.18322
▁guard	-8.18554
▁vandergelder	-8.18664
▁team	-8.18694
▁yo	-8.18738
▁master	-8.18763
▁asked	-8.18818
▁watching	-8.19138
▁cry	-8.19638
▁hair	-8.19652
▁minutes	-8.1981
▁island	-8.19816
▁ray	-8.20235
▁cat	-8.20249
▁human	-8.20502
▁lives	-8.20651
▁stone	-8.2069
▁evening	-8.20795
▁ice	-8.20829
▁marry	-8.21211
▁grunting	-8.21635
▁buddy	-8.21673
▁running	-8.21675
▁anymore	-8.21704
▁paul	-8.21705
▁rain	-8.21877
▁st	-8.21977
▁mad	-8.22004
▁truth	-8.22184
▁grow	-8.22224
▁kings	-8.22259
▁case	-8.22282
▁smell	-8.22393
▁whale	-8.22411
▁john	-8.22777
▁charge	-8.22829
▁taken	-8.23033
▁wants	-8.23069
▁suppose	-8.23259
▁anybody	-8.23484
▁daddy	-8.23508
▁possible	-8.23512
▁hurt	-8.23767
▁party	-8.23924
▁fall	-8.24056
▁dogs	-8.24187
on	-8.24833
▁short	-8.25078
▁they	-8.2528
▁front	-8.25369
▁outside	-8.25372
▁jason	-8.25375
▁claus	-8.254
▁quickly	-8.2549
▁sick	-8.25598
▁cold	-8.25648
▁months	-8.25683
▁past	-8.25695
▁spring	-8.26145
▁tinker	-8.26201
▁question	-8.26214
▁hours	-8.26371
ion	-8.26435
▁sign	-8.26486
▁song	-8.26539
▁wed	-8.26629
▁fact	-8.26955
▁deal	-8.27089
▁fair	-8.27166
▁foreign	-8.27293
▁starbird	-8.27298
▁wedding	-8.27331
▁finally	-8.27338
▁alive	-8.27345
▁shoot	-8.27601
▁cook	-8.27688
▁sent	-8.28153
▁oksana	-8.28478
▁happens	-8.28605
▁akhoba	-8.29253
▁whatever	-8.29256
▁frankie	-8.29279
▁tired	-8.29382
▁be	-8.29469
▁fool	-8.29925
▁miles	-8.29934
▁billy	-8.3021
▁street	-8.30398
▁less	-8.31012
▁rat	-8.31111
▁careful	-8.31236
▁thousand	-8.31254
▁grunts	-8.3126
▁leaving	-8.31292
▁ooh	-8.31316
▁magic	-8.31461
▁g	-8.31529
▁honor	-8.31934
▁spirit	-8.32146
▁american	-8.32209
▁wind	-8.32397
▁t	-8.32462
▁person	-8.33236
▁ten	-8.33238
▁morgan	-8.33294
▁humphrey	-8.33295
▁majesty	-8.33298
▁dancing	-8.3331
▁busy	-8.33344
▁squeaks	-8.3336
▁killed	-8.33786
▁drop	-8.34224
▁ship	-8.34299
▁hour	-8.34363
▁luck	-8.34398
▁met	-8.34991
▁telling	-8.3509
▁reach	-8.35228
▁narrator	-8.35378
▁sheep	-8.35381
▁lose	-8.35442
▁restaurant	-8.36362
▁monster	-8.36385
▁shot	-8.36454
▁fathers	-8.37055
▁eye	-8.37061
▁words	-8.37338
▁spanish	-8.37505
▁hungry	-8.37506
▁screaming	-8.37556
▁living	-8.37579
ic	-8.37669
▁aye	-8.37675
▁se	-8.38048
▁clean	-8.3862
▁join	-8.3925
▁strange	-8.39426
▁somewhere	-8.39679
▁attention	-8.3968
▁proud	-8.39696
▁moving	-8.39778
▁unless	-8.39799
▁arms	-8.4022
▁hide	-8.40313
▁died	-8.40324
▁gets	-8.40368
▁present	-8.4047
▁w	-8.4063
▁news	-8.40795
▁kitchen	-8.419
▁raccoon	-8.419
▁afternoon	-8.41901
▁engine	-8.42026
▁born	-8.42062
▁fairy	-8.42149
▁early	-8.42181
▁da	-8.42212
▁lucky	-8.42218
ity	-8.42413
▁gods	-8.42505
▁tea	-8.42718
▁buy	-8.42728
▁kingdom	-8.43037
▁picture	-8.43043
▁birds	-8.4318
▁gun	-8.43206
▁park	-8.43273
▁table	-8.43317
▁given	-8.43357
▁couple	-8.44173
▁barnaby	-8.44173
▁upon	-8.44185
▁mister	-8.44206
▁none	-8.44247
▁certainly	-8.44278
▁nto	-8.443
▁moon	-8.4453
▁fans	-8.44717
▁talent	-8.45162
▁hot	-8.45371
▁pumpkin	-8.45424
less	-8.45483
▁crow	-8.4626
▁worth	-8.46303
▁box	-8.46313
▁certain	-8.46391
▁beyond	-8.46498
▁stupid	-8.46498
▁either	-8.46515
▁swifty	-8.46537
▁stars	-8.46572
▁position	-8.46616
▁shh	-8.46708
▁growls	-8.46799
▁growing	-8.47046
▁hang	-8.4708
▁wild	-8.47296
▁answer	-8.47439
▁road	-8.47561
▁emma	-8.47711
▁board	-8.47867
▁deep	-8.48659
▁forgive	-8.48699
▁south	-8.48832
▁levi	-8.48885
▁kolo	-8.48886
▁soup	-8.48896
▁impossible	-8.489
▁chief	-8.48906
▁kita	-8.48958
▁green	-8.4903
▁ow	-8.49082
▁giving	-8.49133
▁blue	-8.49733
▁sing	-8.49767
▁write	-8.49817
▁law	-8.49827
▁win	-8.49902
▁ground	-8.49991
▁known	-8.50112
▁animal	-8.50206
▁questions	-8.50282
▁joe	-8.50419
m	-8.5062
▁country	-8.50856
▁meeting	-8.51018
▁serve	-8.51189
▁indeed	-8.51318
▁coast	-8.51329
▁george	-8.51333
▁company	-8.51344
▁terrible	-8.51345
▁cindy	-8.5136
▁loved	-8.51389
▁wings	-8.51446
▁sighs	-8.5146
▁prove	-8.51913
▁beat	-8.5253
en	-8.52592
▁rich	-8.53004
▁trip	-8.53123
▁sense	-8.53299
▁taste	-8.53319
▁choice	-8.53547
▁share	-8.53578
▁except	-8.53625
▁straight	-8.53782
▁village	-8.53792
▁africa	-8.53819
▁simple	-8.53819
▁everywhere	-8.53822
▁continues	-8.54216
▁belong	-8.54422
▁skate	-8.5479
▁hed	-8.55118
▁calling	-8.55782
▁protect	-8.55854
▁fight	-8.55874
▁speed	-8.55949
▁president	-8.55974
▁enjoy	-8.55987
▁snow	-8.56122
▁police	-8.56381
▁colonel	-8.56381
▁alright	-8.56389
▁me	-8.56391
▁parents	-8.56422
▁heroes	-8.56504
▁tour	-8.56514
▁madame	-8.56653
▁wonder	-8.56688
▁spend	-8.56728
▁turned	-8.57035
▁heh	-8.57734
▁date	-8.57792
▁pole	-8.57971
▁looked	-8.58206
▁teach	-8.58247
▁e	-8.58514
▁egypt	-8.59004
▁felt	-8.59021
▁dangerous	-8.59023
▁empty	-8.59023
▁swear	-8.59028
▁n	-8.59053
▁husband	-8.59053
▁shell	-8.59081
▁decided	-8.59113
▁scared	-8.59125
▁wear	-8.59147
▁broken	-8.59154
▁besides	-8.59183
▁mayor	-8.59269
▁kiss	-8.59356
▁west	-8.59393
▁littlest	-8.59877
▁lived	-8.59914
▁act	-8.60018
▁pleasure	-8.60432
▁darling	-8.60558
▁doctor	-8.60573
▁asking	-8.60635
▁takes	-8.60755
▁swim	-8.60808
▁co	-8.60907
▁worked	-8.6091
▁imagine	-8.61479
▁fell	-8.6158
us	-8.61598
▁lunch	-8.61655
▁cornelius	-8.61715
▁professor	-8.61717
▁pool	-8.6178
▁growling	-8.61847
▁th	-8.62087
▁foot	-8.63145
▁lad	-8.63249
▁area	-8.63353
▁toy	-8.636
▁plane	-8.63653
le	-8.63684
▁k	-8.63738
▁search	-8.63788
▁pull	-8.63887
▁bet	-8.64077
▁queen	-8.64486
▁abbie	-8.64492
▁marriage	-8.64492
▁entire	-8.64493
▁caught	-8.64496
▁inspector	-8.64548
▁aggie	-8.64561
▁evil	-8.64583
▁sky	-8.64661
▁it	-8.64714
▁longer	-8.65232
▁jump	-8.65444
▁ohh	-8.66189
▁idiot	-8.66202
▁million	-8.66245
▁game	-8.66265
▁soft	-8.66534
▁pass	-8.66688
▁o	-8.667
▁ones	-8.66727
▁works	-8.66917
▁wall	-8.67071
▁risk	-8.67296
▁coffee	-8.6734
▁cougar	-8.6734
▁neecha	-8.67342
▁horace	-8.67343
▁often	-8.67353
▁instead	-8.67366
▁near	-8.67395
▁personal	-8.67443
▁aah	-8.67445
▁body	-8.67603
▁warm	-8.67712
▁ranger	-8.67918
▁groans	-8.68067
▁explain	-8.68816
▁broke	-8.68861
▁figure	-8.68877
▁grab	-8.68996
▁rose	-8.6912
▁chicken	-8.69148
an	-8.69381
▁hat	-8.69732
▁age	-8.69736
▁hole	-8.69771
▁damn	-8.70097
▁serious	-8.70189
▁among	-8.70222
▁ran	-8.70257
▁within	-8.70286
▁truck	-8.70311
▁slow	-8.70314
▁picnic	-8.70333
▁kidding	-8.70402
▁nature	-8.70441
▁lie	-8.71199
▁seven	-8.71756
▁visit	-8.71978
▁dare	-8.7207
▁missed	-8.72112
▁vo	-8.7228
▁weeks	-8.72298
g	-8.72338
▁peace	-8.72981
▁agree	-8.73074
it	-8.73095
▁allow	-8.73294
▁silver	-8.73303
▁excellency	-8.73312
▁female	-8.73312
▁jordan	-8.73312
▁fault	-8.73312
▁forward	-8.73312
▁squawks	-8.73314
▁coley	-8.73321
▁shouldnt	-8.73322
▁rather	-8.73335
▁needed	-8.73425
▁boss	-8.73427
▁faster	-8.73493
▁iii	-8.73524
▁tough	-8.73658
▁dry	-8.73821
▁hows	-8.73879
▁sad	-8.7405
▁respect	-8.74249
▁push	-8.7433
re	-8.74383
▁hearts	-8.74413
▁low	-8.74604
▁h	-8.74605
▁flying	-8.74667
▁aw	-8.75096
▁basket	-8.7524
▁service	-8.75278
▁stick	-8.75333
▁storm	-8.75381
▁horn	-8.75457
▁cross	-8.7575
to	-8.75753
▁r	-8.76003
▁william	-8.76114
▁louis	-8.76133
▁paris	-8.76181
▁difficult	-8.76183
▁destroy	-8.76185
▁radio	-8.76443
▁suddenly	-8.76459
▁castle	-8.76534
▁tight	-8.76545
▁arrived	-8.76592
▁screams	-8.76656
▁lamp	-8.76796
▁fix	-8.76846
▁carry	-8.76903
▁saved	-8.77003
▁promised	-8.77016
▁changed	-8.77156
ka	-8.77677
▁brothers	-8.78017
▁surprise	-8.7832
▁blow	-8.78345
▁future	-8.78372
▁mate	-8.78425
▁handle	-8.78489
▁detective	-8.78505
▁north	-8.78649
▁teacher	-8.78676
▁mile	-8.78836
▁cute	-8.79042
▁pop	-8.79394
▁office	-8.79441
▁double	-8.79442
▁fedor	-8.79512
▁feed	-8.79555
▁coop	-8.79625
▁absalom	-8.79662
▁sheriff	-8.79662
▁anywhere	-8.79663
▁danger	-8.79671
▁rusty	-8.79674
▁bride	-8.79688
▁randy	-8.79698
ie	-8.79704
▁yesterday	-8.79731
▁duty	-8.79733
▁aii	-8.79851
▁hunting	-8.79993
▁brave	-8.80001
▁eh	-8.80087
▁cover	-8.81202
▁control	-8.81723
▁sight	-8.82191
▁piece	-8.82336
▁missing	-8.8267
▁desert	-8.82734
▁ba	-8.82764
▁in	-8.82871
▁definitely	-8.82998
▁favorite	-8.82998
▁choose	-8.83003
▁noble	-8.83007
▁absolutely	-8.83009
▁excited	-8.83011
ness	-8.83019
▁silly	-8.83047
▁halo	-8.83054
▁mike	-8.83087
▁closer	-8.83359
c	-8.83441
▁tv	-8.83446
▁flowers	-8.83561
▁rules	-8.8362
▁crying	-8.83702
▁so	-8.84105
▁tum	-8.84119
ous	-8.84322
▁command	-8.84381
▁san	-8.84736
▁ring	-8.85374
▁rise	-8.8554
▁fresh	-8.85747
▁murder	-8.86022
▁finish	-8.86204
um	-8.86228
▁cinderella	-8.86444
▁udala	-8.86444
▁armelle	-8.86444
▁audience	-8.86444
▁buffins	-8.86444
▁snoring	-8.86445
▁biggest	-8.86445
▁breakfast	-8.86446
▁teeth	-8.86448
▁third	-8.8645
▁pardon	-8.86453
▁nour	-8.86517
▁mandie	-8.8656
▁tall	-8.86831
▁fit	-8.87173
▁war	-8.8726
▁bill	-8.87271
▁ches	-8.87579
▁wine	-8.87697
rs	-8.87823
▁ln	-8.87994
▁laugh	-8.88104
▁round	-8.88144
▁smile	-8.88516
▁bark	-8.88527
▁bottle	-8.8871
▁consider	-8.88997
▁sauce	-8.8901
▁treasure	-8.89017
▁key	-8.89098
id	-8.8934
▁relax	-8.89503
▁smart	-8.89679
▁babylon	-8.89998
▁brigadoon	-8.90015
▁pharaoh	-8.90015
▁sinbad	-8.90015
▁weather	-8.90023
▁large	-8.90028
▁doc	-8.90029
▁worse	-8.90036
▁fellow	-8.90104
▁trumpeting	-8.90181
▁officer	-8.90317
▁perfectly	-8.9039
▁greatest	-8.90475
▁ii	-8.90606
▁art	-8.90644
▁slaves	-8.91053
the	-8.91593
▁tracks	-8.91835
▁lay	-8.92167
▁places	-8.92246
▁bottom	-8.9241
▁beginning	-8.9248
▁hebrew	-8.92512
▁trees	-8.92649
▁rocks	-8.92657
▁fashion	-8.92738
▁mouth	-8.92769
▁state	-8.92811
▁hunt	-8.9295
▁offer	-8.9298
▁expect	-8.93074
▁realize	-8.93515
▁dr	-8.93589
▁class	-8.93667
▁drive	-8.93698
▁alex	-8.93715
▁jeff	-8.93719
▁kayera	-8.93719
▁chinese	-8.9372
▁werent	-8.93722
▁mummy	-8.93728
▁winter	-8.93771
▁borel	-8.93777
▁throne	-8.93778
▁court	-8.93785
▁indistinctly	-8.93787
▁famous	-8.9379
▁native	-8.93823
▁form	-8.9383
▁mention	-8.93871
▁hero	-8.93952
▁chattering	-8.94052
▁walt	-8.94303
▁bang	-8.94372
man	-8.94403
▁lions	-8.94718
▁hoo	-8.94805
▁bay	-8.94872
ty	-8.95094
▁mothers	-8.95513
▁sail	-8.95926
▁chuck	-8.96067
▁competition	-8.96241
▁goin	-8.96416
▁elephant	-8.96437
▁slave	-8.96552
▁row	-8.96837
▁bomb	-8.96847
▁leaves	-8.97072
▁spot	-8.97092
▁soul	-8.97386
▁english	-8.97565
▁ridiculous	-8.97565
▁neither	-8.97566
▁wandi	-8.97583
▁handsome	-8.97598
▁neck	-8.97604
▁sunday	-8.97607
▁witches	-8.97615
▁department	-8.97632
▁di	-8.97638
▁fill	-8.97647
▁shaw	-8.97715
▁applaud	-8.97733
▁bless	-8.97736
▁tess	-8.97832
▁finished	-8.97847
▁cubs	-8.97873
▁bank	-8.97908
▁single	-8.9792
▁mess	-8.97928
▁riding	-8.97971
▁dis	-8.9818
ar	-8.98497
▁list	-8.98573
▁salad	-8.98646
▁f	-8.98911
▁bag	-8.99133
▁earl	-8.99166
▁sand	-8.99338
▁bo	-8.99501
▁practice	-8.99636
▁stones	-8.99964
p	-9.00029
▁mmm	-9.00085
▁chair	-9.00339
▁adventure	-9.00357
▁doubt	-9.00443
▁prize	-9.00448
▁dress	-9.00494
▁seeing	-9.00793
▁pray	-9.00858
▁lots	-9.01138
▁steal	-9.0114
▁prepare	-9.01326
▁settle	-9.01388
▁stole	-9.01441
▁raise	-9.01442
▁lights	-9.01563
▁cabin	-9.01565
▁linguini	-9.01565
▁rameses	-9.01565
▁samantha	-9.01565
▁molloy	-9.01565
▁beloved	-9.01566
▁advice	-9.01566
▁garland	-9.01567
▁billboard	-9.01569
▁forgot	-9.01571
▁stopped	-9.01606
▁shop	-9.01611
▁totally	-9.01612
▁huge	-9.01633
▁completely	-9.01639
▁loose	-9.01727
▁woof	-9.0173
▁interested	-9.0173
▁camera	-9.01743
▁waters	-9.01881
▁jean	-9.01911
▁goodness	-9.02085
▁male	-9.02153
▁walking	-9.02551
came	-9.02619
▁ways	-9.02756
▁sleeping	-9.02924
▁stage	-9.03038
▁statue	-9.0331
▁where	-9.03899
ation	-9.04133
▁nah	-9.04316
▁bike	-9.04462
▁ocean	-9.04566
▁machine	-9.0457
▁gift	-9.04616
▁nose	-9.04665
▁sell	-9.0485
▁groan	-9.04904
▁general	-9.04921
▁honest	-9.04958
▁building	-9.05013
▁enter	-9.05387
▁fan	-9.05403
▁chatter	-9.05515
▁prison	-9.05599
▁super	-9.05724
▁arnaud	-9.05732
▁patience	-9.05732
▁private	-9.05732
▁system	-9.05732
▁dalton	-9.05732
▁karell	-9.05733
▁twice	-9.05735
▁dawn	-9.05736
▁suffer	-9.05737
▁stuck	-9.05739
▁built	-9.05742
▁taught	-9.05743
▁laughter	-9.05744
▁planned	-9.05745
▁fairies	-9.05787
▁baron	-9.05795
▁christy	-9.05795
▁grandfather	-9.05805
▁dust	-9.05809
▁roars	-9.05848
▁flight	-9.0586
▁fox	-9.05946
▁wise	-9.06342
▁names	-9.06421
▁grand	-9.06539
▁seemed	-9.06549
▁elephants	-9.06971
▁ideas	-9.07011
as	-9.07129
▁perform	-9.07187
out	-9.07907
et	-9.08045
▁garden	-9.08377
▁breath	-9.08402
▁store	-9.08514
ce	-9.08587
ry	-9.08593
▁bringing	-9.08705
▁trick	-9.0879
▁chestnut	-9.08911
▁hundred	-9.08924
▁cousin	-9.08941
▁bar	-9.08993
▁lesson	-9.09013
▁hackl	-9.09103
▁build	-9.09103
▁mon	-9.0927
and	-9.0949
▁health	-9.09868
▁journey	-9.1008
▁plenty	-9.1008
▁upbeat	-9.1008
▁brinstead	-9.1008
▁clawdeen	-9.1008
▁awesome	-9.1008
▁worried	-9.10081
▁support	-9.10082
▁swimming	-9.10096
▁beach	-9.10097
▁immediately	-9.10102
▁price	-9.10104
▁lisa	-9.10116
▁diego	-9.10141
▁yelling	-9.10141
at	-9.10144
▁square	-9.10168
▁yep	-9.10215
▁challenge	-9.10253
▁create	-9.10305
▁lips	-9.1033
▁interesting	-9.10355
▁view	-9.10377
▁eight	-9.1039
▁figured	-9.10459
▁ma	-9.10553
▁barking	-9.10568
▁ought	-9.10823
▁gosh	-9.10934
▁cooking	-9.10937
▁yay	-9.11015
▁fired	-9.11278
▁ju	-9.11467
▁walls	-9.11627
▁beg	-9.11673
▁toys	-9.11812
▁turning	-9.1182
▁surely	-9.12138
▁opening	-9.12203
▁pumpkins	-9.12233
▁br	-9.1252
▁devil	-9.13355
▁giant	-9.13484
▁gusteau	-9.13491
▁cloud	-9.13507
▁paper	-9.13509
▁window	-9.13514
▁size	-9.13553
▁rid	-9.13588
ian	-9.13617
▁heavens	-9.13717
▁judge	-9.1372
▁fella	-9.13746
▁weird	-9.13827
▁east	-9.13882
▁meant	-9.13888
▁pack	-9.1406
ia	-9.14184
▁survive	-9.14363
▁america	-9.14466
▁somethin	-9.14573
▁dig	-9.14609
▁grumio	-9.14625
▁memory	-9.14625
▁zorro	-9.14625
▁guitar	-9.14625
▁upstairs	-9.14625
▁jessica	-9.14625
▁museum	-9.14625
▁smith	-9.14625
▁beneath	-9.14626
▁davis	-9.14627
▁floud	-9.14628
▁asleep	-9.14629
▁parade	-9.14631
▁outta	-9.14632
▁bunch	-9.14635
▁cheese	-9.14637
▁alban	-9.14643
▁governor	-9.14655
▁willing	-9.14665
▁kept	-9.14677
▁stella	-9.14738
▁shouting	-9.14768
▁uhoh	-9.14787
▁hop	-9.14861
▁station	-9.14872
▁sandy	-9.14914
▁bright	-9.14972
▁locked	-9.14986
▁backup	-9.15027
▁leg	-9.15138
▁bath	-9.15191
▁cheers	-9.1523
▁social	-9.15283
▁planet	-9.15288
▁commander	-9.15354
▁shine	-9.15495
▁an	-9.15702
▁closed	-9.15709
w	-9.1579
ah	-9.15829
▁introduce	-9.15913
erry	-9.16052
▁hill	-9.16378
▁standing	-9.16495
up	-9.16653
▁appear	-9.16708
▁wet	-9.17129
▁stag	-9.17416
ii	-9.17464
▁humans	-9.1749
▁attack	-9.17913
▁orders	-9.17963
▁valley	-9.1802
▁shark	-9.18044
▁tusk	-9.18145
▁farm	-9.18204
▁distance	-9.18257
▁color	-9.18352
▁staying	-9.18632
▁cal	-9.18799
▁correct	-9.19023
nt	-9.19226
▁nervous	-9.1926
▁pain	-9.19326
▁mainland	-9.19346
▁dive	-9.19358
▁apart	-9.1938
▁kumalo	-9.19387
▁scrappy	-9.19387
▁mkan	-9.19387
▁vacation	-9.19387
▁difference	-9.19388
▁especially	-9.19388
▁friday	-9.19389
▁heavy	-9.1939
▁irena	-9.1939
▁throat	-9.19391
▁french	-9.19391
▁scaris	-9.19393
▁wiii	-9.19399
▁ahoy	-9.194
▁stroke	-9.19401
▁protocol	-9.19402
▁fancy	-9.19405
▁puppy	-9.19407
▁aboard	-9.19413
▁whimpers	-9.19433
▁charming	-9.19455
▁rope	-9.1946
▁glass	-9.19467
▁applause	-9.19476
▁report	-9.19512
▁folks	-9.19531
▁golden	-9.19533
▁army	-9.19539
▁ca	-9.19567
▁hiding	-9.19584
▁tears	-9.19729
▁card	-9.19798
▁bread	-9.19817
▁allowed	-9.19864
▁creatures	-9.20032
▁cart	-9.20035
▁joy	-9.20072
▁lion	-9.20088
▁keeping	-9.20293
▁buck	-9.20304
▁falling	-9.20401
▁weak	-9.2043
▁legs	-9.2048
▁fellas	-9.20598
▁there	-9.20802
▁main	-9.20932
▁rings	-9.2103
noot	-9.21122
▁ugh	-9.21134
▁ahh	-9.21179
▁shed	-9.21276
▁bite	-9.21351
▁mountains	-9.21567
▁mo	-9.21627
▁si	-9.21693
▁you	-9.21782
▁pre	-9.21974
ng	-9.22087
▁rats	-9.22143
▁admit	-9.22154
ment	-9.22727
▁remind	-9.22874
▁using	-9.2291
▁hoffman	-9.23038
▁secrets	-9.23067
▁pizza	-9.23128
▁alarm	-9.2317
▁servant	-9.23206
▁begin	-9.23262
▁whistle	-9.23352
▁season	-9.23429
▁space	-9.23473
▁letter	-9.23545
▁draw	-9.23662
▁knock	-9.23731
made	-9.23884
▁paint	-9.24101
▁strength	-9.24171
▁usual	-9.24291
▁tink	-9.24345
▁nebuchadnezzar	-9.24387
▁opportunity	-9.24387
▁yappasha	-9.24387
▁yonkers	-9.24387
▁example	-9.24387
▁rutland	-9.24387
▁whether	-9.24387
▁splendid	-9.24388
▁thief	-9.24388
▁elaine	-9.24389
▁johannesburg	-9.24389
▁ghostier	-9.2439
▁charity	-9.24393
▁floor	-9.24394
▁jail	-9.24396
▁henri	-9.24398
▁mexico	-9.244
▁middle	-9.24402
▁invention	-9.24404
▁glory	-9.24408
▁ahem	-9.24429
▁onto	-9.24431
▁sanders	-9.24442
▁steele	-9.24444
▁iike	-9.24445
▁simon	-9.24452
▁suspense	-9.2448
▁happiness	-9.24558
▁seriously	-9.24621
▁dressed	-9.24745
▁likes	-9.24798
▁bow	-9.24888
ge	-9.24942
▁race	-9.24946
▁final	-9.24981
▁wearing	-9.25056
▁champ	-9.25082
▁whoo	-9.25253
▁shame	-9.25296
▁learned	-9.25379
▁pro	-9.25483
▁tricks	-9.25682
son	-9.25735
▁hook	-9.25975
▁map	-9.26027
▁following	-9.26027
ow	-9.26045
▁design	-9.26162
▁awful	-9.26261
▁coat	-9.26476
▁mud	-9.26845
ate	-9.27089
otto	-9.2729
▁press	-9.27324
▁woods	-9.27843
▁feelings	-9.27971
▁faith	-9.2801
▁remain	-9.28088
▁mistake	-9.28223
▁arrive	-9.28237
▁mole	-9.28299
▁ti	-9.28308
▁daughters	-9.28335
▁iron	-9.2842
▁pen	-9.28783
▁stranger	-9.28789
▁wes	-9.28946
▁salt	-9.29111
▁spread	-9.29261
ting	-9.29302
ine	-9.29338
▁x	-9.294
▁pretend	-9.29476
▁natural	-9.29547
▁march	-9.2956
▁excellent	-9.2965
▁jeiiystone	-9.2965
▁purpose	-9.2965
▁rebecca	-9.2965
▁schooner	-9.2965
▁england	-9.29651
▁cuando	-9.29651
▁tongue	-9.29651
▁kosh	-9.29651
▁freedom	-9.29651
▁agnes	-9.29652
▁kitty	-9.29653
▁lonely	-9.29655
▁stepmother	-9.29658
▁seth	-9.29661
▁history	-9.29661
▁gentleman	-9.29663
▁whoever	-9.29666
▁irene	-9.29668
▁emily	-9.29671
▁dude	-9.29688
▁remy	-9.29716
▁hup	-9.29748
▁sweetie	-9.29749
▁clock	-9.29776
▁strike	-9.29777
▁glasses	-9.29785
▁mata	-9.29795
▁bok	-9.29795
▁hush	-9.29832
▁club	-9.29836
▁grass	-9.29869
▁deserve	-9.29886
▁mi	-9.30065
▁po	-9.30203
▁fat	-9.30204
▁do	-9.30205
▁shoes	-9.3022
▁eggs	-9.3023
▁lo	-9.3025
▁angels	-9.30259
▁mission	-9.30345
▁wash	-9.30573
▁seeds	-9.30576
▁panic	-9.30701
▁bones	-9.30782
▁cake	-9.3085
▁older	-9.30991
▁heat	-9.31403
▁test	-9.31518
▁dumb	-9.32082
▁finding	-9.3237
▁deliver	-9.32419
▁shows	-9.32443
▁travel	-9.32608
▁ham	-9.3295
▁whales	-9.32955
▁bands	-9.3325
▁doo	-9.33256
▁fi	-9.33343
▁lock	-9.33845
▁message	-9.33945
▁plain	-9.33977
te	-9.34069
▁force	-9.34154
▁lies	-9.34379
▁meal	-9.34485
▁climb	-9.34696
▁spare	-9.34991
▁escape	-9.35043
▁corner	-9.3514
▁nothin	-9.35147
▁borotyn	-9.35206
▁college	-9.35206
▁congratulations	-9.35206
▁joshua	-9.35206
▁khaku	-9.35206
▁memnet	-9.35206
▁mfundisi	-9.35206
▁taylor	-9.35206
▁trundle	-9.35206
▁tunnel	-9.35206
▁zelen	-9.35206
▁garbage	-9.35206
▁wrote	-9.35206
▁agency	-9.35206
▁wolf	-9.35208
▁giggling	-9.35208
▁ugly	-9.35209
▁according	-9.35209
▁sasha	-9.35212
▁pressure	-9.35215
▁sweetheart	-9.35218
▁heiio	-9.3522
▁hasnt	-9.35221
▁yellow	-9.35226
▁godmother	-9.35226
▁ls	-9.35245
▁bought	-9.35245
▁laura	-9.35246
▁worst	-9.3526
▁mommy	-9.35269
▁therell	-9.35284
▁cash	-9.35291
▁deliverer	-9.35295
▁potion	-9.3531
▁circumstances	-9.35312
you	-9.35329
cient	-9.35338
▁task	-9.35344
▁proof	-9.35426
▁pair	-9.35449
▁softly	-9.35494
▁held	-9.35579
▁spokes	-9.3559
▁sold	-9.356
▁surprised	-9.3563
ever	-9.35645
▁normal	-9.35906
▁theyd	-9.35974
▁nest	-9.36035
▁wishes	-9.36044
▁wondering	-9.36078
▁ear	-9.36139
▁guests	-9.3618
▁paintings	-9.36237
▁takers	-9.36401
▁training	-9.36526
▁gusteaus	-9.36617
▁imp	-9.36769
▁waiter	-9.3702
▁barks	-9.37026
▁pieces	-9.37143
ive	-9.37271
▁wei	-9.37297
▁loud	-9.37377
▁chase	-9.37414
▁meaning	-9.37474
▁caring	-9.37538
▁thinks	-9.37999
▁eating	-9.38074
▁ro	-9.38114
rry	-9.38627
▁smells	-9.3865
▁over	-9.39194
▁fl	-9.39301
▁sisters	-9.39622
▁hall	-9.39692
▁contact	-9.39727
▁shake	-9.39762
▁bone	-9.39769
▁cajella	-9.39815
▁kahuna	-9.39816
▁tradition	-9.39829
▁feels	-9.39915
▁movie	-9.39956
▁photo	-9.3997
▁indian	-9.40035
▁ticket	-9.40071
▁wheel	-9.40128
▁rule	-9.40267
▁con	-9.40319
▁sake	-9.4035
▁cell	-9.40437
▁haul	-9.40747
▁complete	-9.40816
▁separate	-9.40823
▁cup	-9.40831
ame	-9.40928
▁grandpa	-9.40942
▁occasion	-9.40986
▁mornin	-9.41039
▁indistinct	-9.41063
▁ghost	-9.41084
▁johannes	-9.41086
▁gashade	-9.41088
▁gideon	-9.41088
▁mystery	-9.41088
▁families	-9.41088
▁situation	-9.41089
▁excitement	-9.41089
▁nonsense	-9.41089
▁disaster	-9.41089
▁hadnt	-9.4109
▁hooray	-9.4109
▁edward	-9.41091
▁buried	-9.41091
▁bobby	-9.41097
▁nigel	-9.41099
▁pieta	-9.41102
▁classical	-9.41104
▁whimpering	-9.41107
▁blind	-9.41113
▁genie	-9.41117
▁hotel	-9.41117
▁began	-9.41136
▁bigger	-9.4115
▁dirty	-9.41154
▁obviously	-9.41158
▁charles	-9.41184
▁thirsty	-9.412
▁ch	-9.4121
▁cream	-9.41252
▁responsible	-9.41276
▁calm	-9.41279
▁ego	-9.41284
▁putting	-9.41306
▁slowly	-9.4131
▁pity	-9.41321
▁forgotten	-9.41322
▁counselors	-9.41338
▁warning	-9.41392
▁gotten	-9.41446
▁carefully	-9.41482
▁noise	-9.41491
ant	-9.41499
▁type	-9.41517
▁announcements	-9.41548
▁pulled	-9.41629
▁maid	-9.41633
▁artists	-9.41689
▁ringing	-9.41793
▁boots	-9.41855
▁searching	-9.41943
▁suit	-9.4206
▁paws	-9.4209
▁covered	-9.4216
▁punch	-9.42166
▁followed	-9.42359
▁played	-9.42578
▁sa	-9.42589
▁happening	-9.42745
▁fate	-9.42789
▁li	-9.43059
▁boats	-9.4312
▁horns	-9.43213
▁moved	-9.43216
▁we	-9.43488
▁rider	-9.43623
▁how	-9.43687
▁ass	-9.43692
▁per	-9.43895
▁starts	-9.44012
th	-9.44046
▁owe	-9.44239
se	-9.44417
▁should	-9.44432
▁aim	-9.44542
▁showed	-9.44727
▁interest	-9.45382
▁cats	-9.4555
▁film	-9.45605
▁plans	-9.45702
▁due	-9.4573
▁winds	-9.45847
▁hills	-9.45947
▁sword	-9.45958
▁ad	-9.45982
▁block	-9.46066
▁action	-9.46072
▁crew	-9.46091
▁peter	-9.46144
▁brain	-9.4616
▁partner	-9.46164
▁doll	-9.46185
▁agent	-9.46259
▁gram	-9.4626
▁guest	-9.46306
go	-9.46492
▁aunt	-9.4655
▁painting	-9.4669
▁madam	-9.46737
▁add	-9.4681
▁suggest	-9.46861
▁milk	-9.46945
▁notice	-9.47104
▁bother	-9.4722
fore	-9.4723
▁doug	-9.47246
▁equal	-9.47274
▁squaw	-9.47326
▁roof	-9.47337
▁hudson	-9.47338
▁rosamaria	-9.47338
▁suzanne	-9.47338
▁effort	-9.47338
▁caesar	-9.47338
▁evidence	-9.47338
▁entrance	-9.47338
▁magnificent	-9.47339
▁neighborhood	-9.47339
▁klaus	-9.47339
▁fiona	-9.47339
▁tyler	-9.4734
▁chauvet	-9.4734
▁palace	-9.47341
▁extra	-9.47342
▁delicious	-9.47343
▁moines	-9.47344
▁walsh	-9.47346
▁whistling	-9.47347
▁sally	-9.47349
▁celebration	-9.47349
▁circle	-9.47349
▁richard	-9.47351
▁circus	-9.47356
▁knight	-9.47362
▁calf	-9.47367
▁howd	-9.47368
▁guilty	-9.47371
▁loco	-9.4739
▁betty	-9.47393
▁safety	-9.47395
▁prefer	-9.47397
▁praise	-9.47401
▁button	-9.47418
k	-9.47488
▁sank	-9.47491
▁momma	-9.47503
▁require	-9.47512
▁comin	-9.4753
▁holly	-9.47531
▁skateboarding	-9.47532
▁eaten	-9.47569
▁wasted	-9.47574
▁noticed	-9.47578
▁impressed	-9.47595
▁honking	-9.47598
▁boob	-9.47611
▁sharp	-9.47621
▁gasping	-9.47624
nior	-9.47629
▁crown	-9.47672
▁sex	-9.47685
▁created	-9.47711
▁meat	-9.47713
▁clearly	-9.47748
▁soldiers	-9.47752
▁rare	-9.47755
▁expected	-9.4778
▁moo	-9.47977
▁marie	-9.4798
by	-9.48017
▁turns	-9.48059
▁smoke	-9.48304
▁bull	-9.48454
▁arm	-9.48656
▁friendly	-9.48679
▁reading	-9.48888
▁clouds	-9.49008
▁gifts	-9.49056
▁thy	-9.49086
▁learning	-9.49092
▁fishing	-9.49166
▁aha	-9.49174
▁tie	-9.49298
▁pale	-9.4932
▁corn	-9.49461
▁fur	-9.49579
▁loves	-9.49713
▁mighty	-9.49764
▁lookin	-9.49775
▁des	-9.49795
▁moan	-9.49918
▁liked	-9.50235
▁moves	-9.50761
▁hopes	-9.50772
▁monsters	-9.50785
▁wide	-9.50887
▁fools	-9.50922
ally	-9.50941
▁gas	-9.51081
▁net	-9.51114
b	-9.51417
▁guards	-9.5147
▁fa	-9.51494
▁helping	-9.51616
ch	-9.51686
ne	-9.52084
▁record	-9.52149
▁treat	-9.52203
way	-9.52246
▁al	-9.52443
▁level	-9.52645
▁battle	-9.52657
▁maria	-9.52669
▁nightmare	-9.52725
▁video	-9.52728
▁lndian	-9.52736
▁harm	-9.52756
▁album	-9.52775
▁mule	-9.52778
▁spear	-9.52786
▁waited	-9.52805
▁signal	-9.5281
▁tail	-9.52881
▁tower	-9.52899
▁ex	-9.52916
▁speaks	-9.52938
▁flower	-9.53156
▁gate	-9.53214
▁showing	-9.53245
▁month	-9.53263
▁rescue	-9.53301
▁dum	-9.53346
▁path	-9.53539
▁image	-9.53565
▁roll	-9.53653
▁stretch	-9.53713
▁waste	-9.53812
▁experience	-9.53822
▁grant	-9.53879
▁jan	-9.53891
king	-9.53948
▁daniel	-9.53966
▁match	-9.53969
▁sh	-9.53979
▁popular	-9.53988
▁accident	-9.53989
▁rome	-9.53993
na	-9.54
▁california	-9.54005
▁lapporte	-9.54005
▁mechagodzilla	-9.54005
▁nikki	-9.54005
▁orchestra	-9.54005
▁prophecy	-9.54005
▁stomach	-9.54005
▁butler	-9.54005
▁cornwall	-9.54005
▁journal	-9.54005
▁stephen	-9.54005
▁ensign	-9.54005
▁genius	-9.54005
▁lenore	-9.54005
▁somehow	-9.54006
▁creek	-9.54006
▁piano	-9.54006
▁security	-9.54007
▁robert	-9.5401
▁minnie	-9.54016
▁comfortable	-9.54016
▁imagination	-9.54016
▁simply	-9.54019
▁innocent	-9.54019
▁mercy	-9.5402
▁canine	-9.54021
▁slum	-9.54022
▁bridge	-9.54023
▁necessary	-9.54025
▁ginnie	-9.54026
▁planning	-9.54028
▁wherever	-9.5403
▁france	-9.54043
▁sneak	-9.54045
▁familiar	-9.54048
▁paw	-9.54056
▁darkness	-9.54056
▁chosen	-9.54062
▁nights	-9.54079
▁cody	-9.54088
▁liz	-9.54095
▁whatd	-9.54134
▁coigne	-9.54146
▁brandy	-9.54163
▁dearie	-9.5418
▁degrees	-9.5421
▁hospital	-9.5421
▁quit	-9.54279
▁burning	-9.54285
▁weight	-9.54339
▁captured	-9.54344
▁public	-9.54363
▁professional	-9.54407
▁doors	-9.5442
▁forth	-9.54428
▁boyfriend	-9.5446
▁realized	-9.54519
▁destroyed	-9.54554
▁manage	-9.54648
▁original	-9.54655
▁beer	-9.54667
res	-9.54689
▁hoping	-9.54732
▁pi	-9.54751
▁depends	-9.54757
▁pirates	-9.54764
▁younger	-9.55015
▁picked	-9.5513
▁gee	-9.55181
▁lying	-9.55202
▁can	-9.55229
▁ja	-9.55279
over	-9.55604
▁gives	-9.55719
▁load	-9.55838
▁states	-9.56009
▁rub	-9.56324
▁favor	-9.56749
▁headed	-9.56835
▁that	-9.56925
▁belongs	-9.57079
he	-9.57225
my	-9.57244
▁track	-9.57586
▁named	-9.57589
▁heath	-9.57617
▁iook	-9.57655
ts	-9.58168
▁bells	-9.58283
▁up	-9.58325
▁pups	-9.58557
ade	-9.58605
▁drama	-9.58696
▁numbers	-9.58818
ling	-9.59113
raz	-9.59158
▁whip	-9.59257
ta	-9.59569
▁transport	-9.5977
▁concert	-9.59771
▁ruin	-9.59859
▁duck	-9.59947
lestine	-9.59997
▁continue	-9.60111
▁herd	-9.60138
▁shift	-9.6022
▁slip	-9.6027
ted	-9.60316
▁fo	-9.60335
▁somethings	-9.60448
▁shape	-9.60547
ary	-9.60857
▁arrest	-9.60897
▁guide	-9.60929
▁capture	-9.60931
▁romantic	-9.61146
▁british	-9.61148
▁enemy	-9.61148
▁matthew	-9.61148
▁oclock	-9.61148
▁oonaya	-9.61148
▁penguins	-9.61148
▁japanese	-9.61148
▁london	-9.61148
▁giggles	-9.61148
▁underneath	-9.61148
▁hayley	-9.61148
▁courage	-9.61149
▁midnight	-9.61149
▁precious	-9.61149
▁temple	-9.6115
▁drunk	-9.61151
▁ahchoo	-9.61152
▁nope	-9.61152
▁modern	-9.61153
▁bathroom	-9.61154
▁struck	-9.61156
▁jamie	-9.61156
▁zak	-9.61156
▁foolish	-9.61156
▁childhood	-9.61157
▁monday	-9.61158
▁heip	-9.61158
▁dropped	-9.61159
▁scott	-9.61161
▁kane	-9.61163
▁toyland	-9.61165
▁alice	-9.61166
▁brown	-9.61166
▁chuckling	-9.61168
▁creaking	-9.6117
▁trapped	-9.61176
▁spent	-9.6118
▁fascinating	-9.61184
▁cleo	-9.61186
▁hyah	-9.61196
▁involved	-9.61203
▁shep	-9.61211
▁medal	-9.61213
▁trail	-9.61213
▁skating	-9.61214
▁incredible	-9.61219
▁defend	-9.61228
▁carried	-9.61238
▁sitting	-9.61241
▁diving	-9.61243
▁thatll	-9.61246
▁oui	-9.61268
▁steady	-9.61271
▁discovered	-9.61275
▁shopping	-9.61278
▁upset	-9.61285
▁failed	-9.61292
▁naturally	-9.61299
▁weekend	-9.61327
▁scientists	-9.61369
▁nearly	-9.6141
▁center	-9.61415
▁stolen	-9.6142
▁brooke	-9.61452
▁bein	-9.61491
▁hail	-9.61497
▁reality	-9.61521
▁students	-9.61538
▁slipper	-9.61551
▁reporter	-9.61625
▁prepared	-9.61693
▁agreed	-9.61723
▁le	-9.61816
▁matt	-9.61821
▁served	-9.61868
▁towards	-9.61881
▁lately	-9.61928
▁grrr	-9.61942
▁talented	-9.6196
▁peaceful	-9.61987
▁hunters	-9.62088
▁moans	-9.62097
▁jim	-9.62185
▁he	-9.62246
▁swing	-9.62294
▁walked	-9.62318
▁kate	-9.62337
▁nations	-9.62493
like	-9.62512
▁returned	-9.62542
▁grave	-9.62628
▁shooting	-9.62643
▁saint	-9.62714
▁papers	-9.6298
mber	-9.63142
▁mist	-9.63382
▁keys	-9.63427
▁rotte	-9.63503
sposit	-9.63578
▁sire	-9.63783
▁base	-9.64078
is	-9.64165
▁watched	-9.64204
▁regret	-9.64531
land	-9.64589
v	-9.64867
▁tent	-9.65032
▁maker	-9.65103
▁signs	-9.65167
▁wouldve	-9.65318
▁seat	-9.65715
▁el	-9.65745
▁clears	-9.66118
▁to	-9.66255
▁ri	-9.66459
▁dun	-9.66743
▁nation	-9.66844
▁insist	-9.66938
gorically	-9.66941
▁books	-9.6699
▁en	-9.67033
▁seconds	-9.67165
▁whisper	-9.67215
▁event	-9.67381
red	-9.67415
▁exist	-9.6751
▁miracle	-9.67631
▁field	-9.67676
▁style	-9.67709
▁vi	-9.67876
▁gather	-9.68178
▁directions	-9.68283
▁joke	-9.68324
ist	-9.68363
yah	-9.68391
▁coach	-9.6843
▁cow	-9.68549
▁ra	-9.68574
▁success	-9.68589
▁compare	-9.68743
▁attempt	-9.6884
▁emergency	-9.6884
▁eminence	-9.6884
▁exciting	-9.6884
▁napoleon	-9.6884
▁traffic	-9.6884
▁unusual	-9.6884
▁voyage	-9.6884
▁hawaii	-9.6884
▁pregnant	-9.6884
▁someday	-9.68841
▁although	-9.68841
▁silence	-9.68841
▁nowhere	-9.68841
▁humming	-9.68842
▁bagdad	-9.68842
▁kiko	-9.68842
▁hidden	-9.68844
▁information	-9.68844
▁apparently	-9.68845
▁energy	-9.68845
▁aware	-9.68846
▁jerk	-9.68846
▁fogle	-9.68846
▁stacy	-9.68847
▁earlier	-9.68849
▁extraordinary	-9.68851
▁barton	-9.68851
▁performance	-9.68852
▁keno	-9.68855
▁basement	-9.68864
▁studio	-9.68866
▁feast	-9.68868
▁justin	-9.68868
▁osor	-9.68869
▁pendragon	-9.68871
tic	-9.68875
▁physics	-9.68877
▁leland	-9.68878
▁marty	-9.68885
▁protection	-9.689
▁chick	-9.68917
▁flag	-9.68918
▁powerful	-9.68953
▁several	-9.68956
▁uhhuh	-9.68962
▁gettin	-9.68964
▁dragon	-9.68967
▁liza	-9.68979
sh	-9.68981
▁manager	-9.68989
▁buzzing	-9.69005
▁sharing	-9.69035
▁yup	-9.69079
▁exile	-9.69082
▁heads	-9.69135
▁deck	-9.69202
▁towns	-9.6922
▁prey	-9.69316
▁filled	-9.69318
nnie	-9.6932
▁traveling	-9.69394
▁v	-9.69415
▁skills	-9.69442
oksana	-9.69483
▁letting	-9.69508
▁goose	-9.69522
▁honk	-9.69535
▁string	-9.69548
well	-9.69604
▁helped	-9.69617
▁dollars	-9.69633
▁customer	-9.69639
▁sooner	-9.69664
▁expecting	-9.69672
▁higher	-9.69693
▁nuts	-9.69736
one	-9.69848
▁no	-9.69852
▁faces	-9.69925
▁driver	-9.69982
▁pitch	-9.69984
▁hanging	-9.70044
▁touched	-9.70073
▁under	-9.70167
▁career	-9.70241
ance	-9.70262
▁out	-9.70286
▁calls	-9.70339
▁gi	-9.70553
el	-9.70715
▁rent	-9.70734
u	-9.70762
▁port	-9.71025
▁buildings	-9.71035
▁counting	-9.71036
time	-9.71118
▁mm	-9.71197
ent	-9.71915
▁breaking	-9.71954
▁talked	-9.72171
▁youth	-9.72236
▁sport	-9.72269
▁j	-9.72305
▁am	-9.72329
▁fade	-9.7236
▁trap	-9.72594
▁lads	-9.72918
▁skin	-9.7318
▁bat	-9.73339
x	-9.73462
▁heading	-9.73585
▁runs	-9.73671
▁leads	-9.73717
▁lat	-9.7395
im	-9.74144
▁groups	-9.74202
▁grows	-9.74255
▁bowl	-9.74441
▁earn	-9.7449
▁worlds	-9.74543
▁wa	-9.74605
do	-9.74624
▁lines	-9.74643
▁who	-9.74802
fully	-9.75003
▁problems	-9.75084
▁butter	-9.75108
▁trumpet	-9.75248
▁reasons	-9.7539
▁thunder	-9.75625
▁demand	-9.7569
▁jacket	-9.7592
▁decision	-9.75937
▁friendship	-9.75938
▁crime	-9.75949
▁rabbit	-9.76013
▁gunshot	-9.76013
▁inter	-9.76029
▁fork	-9.76031
▁creature	-9.76038
▁cloth	-9.76322
▁claim	-9.76331
▁sta	-9.76368
▁pleased	-9.76533
▁member	-9.76736
tll	-9.76793
▁schedule	-9.76866
ter	-9.76948
▁warn	-9.76973
▁decide	-9.77071
▁ignore	-9.77098
▁heave	-9.77126
▁moms	-9.7715
▁europe	-9.77173
▁explanation	-9.77173
▁filiberto	-9.77173
▁godzilla	-9.77173
▁grifter	-9.77173
▁kalahari	-9.77173
▁lieutenant	-9.77173
▁michelangelo	-9.77173
▁mirror	-9.77173
▁paradise	-9.77173
▁totoche	-9.77173
▁backpack	-9.77173
▁laurence	-9.77174
▁written	-9.77174
▁cotton	-9.77174
▁coughing	-9.77174
▁mysterious	-9.77174
▁easily	-9.77174
▁succeed	-9.77174
▁condition	-9.77174
▁whenever	-9.77175
▁cruel	-9.77175
▁avoid	-9.77176
▁thieves	-9.77177
▁ambrose	-9.77177
▁cyclone	-9.77178
▁fruit	-9.7718
▁territory	-9.77181
▁chamber	-9.77181
▁flew	-9.77182
▁airport	-9.77182
▁logan	-9.77183
▁steak	-9.77183
▁bravo	-9.77184
▁crowley	-9.77184
▁review	-9.77185
▁government	-9.77186
▁nearby	-9.77192
▁stories	-9.77192
▁hammer	-9.77194
▁goldfoot	-9.77194
▁robbery	-9.77197
▁lemon	-9.77198
▁stood	-9.77207
▁ranch	-9.77213
▁robbie	-9.77224
▁penny	-9.77226
▁church	-9.77232
▁fantastic	-9.77237
▁joking	-9.77238
▁aside	-9.77254
▁glow	-9.77258
▁roaring	-9.77259
▁develop	-9.77285
▁leader	-9.77316
▁credit	-9.77326
▁sniffing	-9.77328
▁del	-9.7733
▁united	-9.77332
▁nine	-9.77372
▁usually	-9.77377
▁wicked	-9.77378
▁ruined	-9.7746
▁cars	-9.77464
▁invited	-9.77477
▁paid	-9.77482
▁treated	-9.77484
▁eve	-9.77528
▁driven	-9.77548
▁personally	-9.77557
▁sat	-9.77566
▁rolling	-9.77619
▁justice	-9.77663
▁flame	-9.77668
▁changes	-9.77724
▁mail	-9.77796
▁birth	-9.77846
▁range	-9.7788
la	-9.77904
▁stealing	-9.78
▁pounds	-9.78041
▁sailing	-9.78059
▁plants	-9.78066
▁shirt	-9.78174
▁pr	-9.782
▁highly	-9.78226
▁crack	-9.78238
▁harmon	-9.78273
▁trumpets	-9.78388
▁acting	-9.78487
▁gates	-9.78545
▁buying	-9.7867
▁finds	-9.78718
▁wh	-9.78737
▁hauler	-9.78881
▁attend	-9.78969
▁mines	-9.79014
▁cast	-9.79064
▁seasons	-9.79087
▁cards	-9.792
line	-9.79224
▁farmer	-9.79308
▁judges	-9.79346
▁gardens	-9.79472
▁pal	-9.79522
▁sale	-9.79543
what	-9.79647
▁returning	-9.79684
▁checked	-9.79813
cal	-9.79862
▁ida	-9.80095
▁paying	-9.80119
▁bend	-9.80211
▁deer	-9.80326
▁millions	-9.80686
▁gro	-9.80695
▁van	-9.80824
▁hats	-9.8092
▁bus	-9.81105
▁remembered	-9.81146
▁likely	-9.81167
▁guns	-9.81188
▁grounds	-9.81222
▁bi	-9.81309
age	-9.81357
▁spit	-9.81365
▁tu	-9.81456
▁ash	-9.81751
▁understanding	-9.82029
▁stayed	-9.82093
▁songs	-9.82165
house	-9.82181
▁rooms	-9.82199
▁sub	-9.82279
▁listening	-9.82314
▁falls	-9.82507
▁cent	-9.82734
have	-9.8274
ite	-9.82743
▁drum	-9.82874
▁bucks	-9.8289
▁lotte	-9.83033
▁walks	-9.83419
▁holding	-9.83649
ton	-9.83677
▁wood	-9.83723
ittie	-9.83846
▁cheer	-9.84408
▁pump	-9.84577
▁ne	-9.84588
▁account	-9.84625
▁gasp	-9.84725
▁relationship	-9.84971
▁recipe	-9.84973
ish	-9.84997
▁jenny	-9.85036
▁tractor	-9.85053
▁magician	-9.85054
▁grandmother	-9.8507
▁finger	-9.85134
▁growl	-9.85197
▁feather	-9.85214
▁off	-9.85384
▁score	-9.85527
▁yard	-9.85602
▁study	-9.85779
▁accept	-9.85944
▁request	-9.85947
▁content	-9.85992
▁faint	-9.86025
▁burn	-9.86033
▁drown	-9.86054
▁zoo	-9.86057
▁awake	-9.86121
▁refuse	-9.86135
▁positive	-9.86138
▁obvious	-9.86155
▁total	-9.86159
▁discuss	-9.86202
▁villa	-9.86259
▁absurd	-9.86264
▁brilliant	-9.86264
▁ciccio	-9.86264
▁darius	-9.86264
▁draculaura	-9.86264
▁elegance	-9.86264
▁elizabeth	-9.86264
▁enemies	-9.86264
▁ephraim	-9.86264
▁forsythe	-9.86264
▁jerusalem	-9.86264
▁major	-9.86264
▁matilda	-9.86264
▁opinion	-9.86264
▁roosevelt	-9.86264
▁rudolph	-9.86264
▁suspicious	-9.86264
▁sylvester	-9.86264
▁twenty	-9.86264
▁adult	-9.86264
▁cyclops	-9.86264
▁luanu	-9.86264
▁whirring	-9.86264
▁fragile	-9.86265
▁willett	-9.86265
▁bruno	-9.86265
▁easier	-9.86265
▁madison	-9.86265
▁temperature	-9.86265
▁underground	-9.86265
▁yacht	-9.86265
▁presence	-9.86265
▁permission	-9.86265
▁anxious	-9.86266
▁issue	-9.86266
▁terrific	-9.86266
▁potential	-9.86266
▁unique	-9.86266
▁babies	-9.86266
▁staff	-9.86267
▁fisheries	-9.86267
▁colette	-9.86267
▁ndye	-9.86267
▁sobbing	-9.86267
▁chanting	-9.86269
▁rifle	-9.86269
▁byebye	-9.8627
▁gym	-9.86271
▁branches	-9.86272
▁dathan	-9.86273
▁accent	-9.86275
▁sentence	-9.86275
▁tomley	-9.86282
▁jolly	-9.86283
▁jerry	-9.86283
▁reward	-9.86284
▁research	-9.86285
▁sunset	-9.86285
▁appreciate	-9.86286
▁scooter	-9.86287
▁grip	-9.86291
▁determined	-9.86292
▁gracious	-9.86293
▁clank	-9.86298
▁disease	-9.86298
▁fought	-9.86298
▁grew	-9.86301
▁fetch	-9.86302
▁preto	-9.86314
▁changing	-9.86322
▁cried	-9.86332
▁starving	-9.86337
▁unfortunately	-9.86339
▁express	-9.86342
▁idol	-9.86346
▁interaction	-9.86356
▁dishes	-9.86367
▁frightened	-9.86375
▁grain	-9.86382
▁firm	-9.86395
▁estate	-9.86405
▁smiling	-9.86405
▁channel	-9.8641
▁pleasant	-9.86411
▁blame	-9.86412
▁honour	-9.86415
▁route	-9.86415
▁stairs	-9.86417
▁snake	-9.86441
▁cha	-9.86445
▁witch	-9.86456
▁kindness	-9.8648
▁closing	-9.86492
▁comforting	-9.86511
▁owner	-9.86511
▁honestly	-9.86517
▁mansion	-9.86534
▁tender	-9.86544
▁produce	-9.86559
▁hired	-9.86678
▁losing	-9.86692
▁deeply	-9.86693
▁forced	-9.86709
▁lifetime	-9.8672
▁toes	-9.86776
de	-9.86796
▁smaller	-9.86864
▁raised	-9.86907
▁dodos	-9.86944
▁deeds	-9.86947
▁laid	-9.8698
▁knees	-9.86994
▁chest	-9.87055
▁kneel	-9.87057
▁cage	-9.87101
▁meows	-9.87195
▁ni	-9.87236
▁lower	-9.87256
▁grown	-9.87297
▁thick	-9.87337
▁wouid	-9.87339
▁harder	-9.87484
▁belly	-9.87506
▁cents	-9.87589
▁apple	-9.87601
▁seek	-9.87614
▁roam	-9.87634
▁rush	-9.87702
▁factor	-9.87957
▁gain	-9.88142
▁hire	-9.88313
▁strangers	-9.88413
▁letters	-9.8844
▁diver	-9.88489
▁bro	-9.8871
▁parts	-9.8873
▁drinking	-9.88789
▁breathe	-9.8904
▁ends	-9.89085
▁ears	-9.89089
▁cruise	-9.89441
▁roast	-9.89443
▁killer	-9.89458
ur	-9.89532
▁print	-9.89542
ho	-9.89597
ber	-9.89942
▁games	-9.90051
▁cos	-9.90409
side	-9.90535
ring	-9.9054
▁blast	-9.90601
om	-9.91091
▁ms	-9.91206
▁lake	-9.91282
▁driv	-9.91341
▁fake	-9.91506
▁troubles	-9.91558
▁ditch	-9.9161
▁streets	-9.91755
▁lack	-9.91782
ee	-9.91972
ized	-9.91996
▁distan	-9.92229
▁powers	-9.92503
▁whisk	-9.92632
ke	-9.92762
ons	-9.92766
▁everyones	-9.9281
ny	-9.92865
▁crab	-9.92871
▁shower	-9.92927
ure	-9.9304
il	-9.93085
▁minds	-9.93611
▁have	-9.93651
▁wha	-9.94106
▁target	-9.94596
▁hurricane	-9.94859
▁egyptian	-9.94887
▁panel	-9.94988
▁fed	-9.95006
▁glen	-9.95052
▁trunk	-9.95067
▁weapon	-9.95067
▁bubble	-9.95069
▁program	-9.95108
▁pirate	-9.95119
▁egg	-9.95145
▁grace	-9.95274
os	-9.95309
▁pound	-9.95382
▁trans	-9.95427
▁tale	-9.95653
▁frank	-9.958
▁recognize	-9.95986
▁wealth	-9.96035
▁trade	-9.9605
▁thirst	-9.96076
▁lift	-9.96097
▁suspect	-9.96106
▁address	-9.96124
▁direct	-9.96125
▁particular	-9.9615
▁cr	-9.96173
▁shin	-9.96175
▁desperate	-9.96187
▁weddin	-9.96236
▁weigh	-9.96241
▁afford	-9.96264
▁ermengarde	-9.96264
▁huerta	-9.96264
▁individual	-9.96264
▁israel	-9.96264
▁leprosy	-9.96264
▁literally	-9.96264
▁octopus	-9.96264
▁rhythm	-9.96264
▁unbelievable	-9.96264
▁unexpected	-9.96264
▁abraham	-9.96264
▁babette	-9.96264
▁bieber	-9.96264
▁horrible	-9.96264
▁papoose	-9.96264
▁stubborn	-9.96264
▁cyrus	-9.96264
▁crystal	-9.96265
▁amount	-9.96265
▁effie	-9.96265
▁necklace	-9.96265
▁sensible	-9.96265
▁garcia	-9.96265
▁carriage	-9.96265
▁jungle	-9.96265
▁burden	-9.96265
▁saturday	-9.96265
▁amanda	-9.96266
▁knife	-9.96266
▁surface	-9.96266
▁irina	-9.96266
▁rowboat	-9.96266
▁flesh	-9.96267
▁italian	-9.96268
▁unison	-9.96268
▁split	-9.96268
▁electricity	-9.96269
▁eventually	-9.9627
▁birthday	-9.96271
▁summon	-9.96272
▁false	-9.96273
▁ventura	-9.96276
▁trash	-9.96277
▁farewell	-9.96277
▁whew	-9.9628
▁seattle	-9.96282
▁technical	-9.96285
▁threw	-9.96285
▁roland	-9.96287
▁unknown	-9.96289
▁contract	-9.96289
▁minister	-9.96293
▁merely	-9.96298
▁alexander	-9.963
▁polite	-9.96305
▁scramble	-9.96305
▁divine	-9.96306
▁pride	-9.96307
▁laddie	-9.96318
▁winner	-9.96318
▁candy	-9.96319
▁nile	-9.96326
▁expression	-9.96327
▁spell	-9.96327
▁scoffs	-9.96334
▁steven	-9.96339
▁data	-9.96376
▁squeaking	-9.96385
▁michael	-9.96385
▁dying	-9.96391
▁cern	-9.96413
▁silk	-9.96424
▁heather	-9.96434
▁vast	-9.96435
▁fallen	-9.96437
▁socks	-9.96483
▁flat	-9.96486
▁convinced	-9.96499
▁harmony	-9.965
▁fallin	-9.96506
▁amen	-9.96508
▁german	-9.96538
▁smarter	-9.96551
▁skies	-9.96559
▁pin	-9.96565
▁behave	-9.96571
▁visitors	-9.96595
▁pipe	-9.96605
▁salta	-9.96631
▁practical	-9.96633
▁bound	-9.96678
▁pants	-9.96758
▁provide	-9.96801
ey	-9.96807
▁ghouls	-9.96827
ery	-9.9683
▁mar	-9.96871
led	-9.96875
all	-9.96955
▁sets	-9.96968
ps	-9.96978
▁fixed	-9.97093
▁skull	-9.97093
▁stronger	-9.97112
▁damned	-9.97185
▁details	-9.97194
▁jumped	-9.97223
▁passed	-9.97235
▁vampires	-9.97318
▁wave	-9.97352
▁depend	-9.97394
▁stake	-9.97431
▁mustnt	-9.97472
▁hank	-9.97476
▁burns	-9.97496
▁thee	-9.97501
▁members	-9.97515
▁fingers	-9.97546
▁ames	-9.97598
▁tr	-9.97601
ings	-9.97621
▁focus	-9.97648
▁ville	-9.97683
▁rabbits	-9.97687
▁sacrifice	-9.97715
▁pulling	-9.9774
▁drums	-9.97742
▁fighting	-9.97782
▁enjoying	-9.97869
▁dominan	-9.9793
▁swell	-9.97956
▁ordered	-9.9799
▁alec	-9.98016
▁kick	-9.98024
▁frog	-9.98245
▁badly	-9.9825
▁tickets	-9.98271
▁wick	-9.9831
▁marrying	-9.98542
▁reminds	-9.98661
▁kindly	-9.98673
▁begins	-9.98732
▁touching	-9.98758
▁events	-9.98794
▁boot	-9.98885
▁cousins	-9.99016
▁culture	-9.99045
▁pol	-9.9911
ily	-9.99118
▁switch	-9.99142
▁sails	-9.99478
▁grandma	-9.99503
▁y	-9.99549
bber	-9.99635
▁organ	-10.0006
▁sounding	-10.0006
▁opens	-10.0016
▁ai	-10.003
▁role	-10.0041
▁idiots	-10.0051
▁bind	-10.0057
▁thinkin	-10.0072
▁itd	-10.0078
▁cost	-10.0079
▁fully	-10.0091
▁mans	-10.0095
▁danced	-10.01
▁pink	-10.0109
▁ed	-10.0109
▁plant	-10.012
▁bid	-10.0131
▁siren	-10.0139
▁pictures	-10.016
▁celebrate	-10.0163
▁on	-10.0168
▁engines	-10.0169
▁pet	-10.0189
▁ships	-10.0192
▁starting	-10.0193
▁believed	-10.0195
ay	-10.0201
▁lou	-10.021
▁unlike	-10.0258
▁tinkers	-10.0268
fish	-10.028
▁spoil	-10.0281
▁ld	-10.0283
▁nap	-10.0295
▁ac	-10.0312
▁complex	-10.0316
▁mood	-10.0331
ding	-10.0333
dino	-10.0356
ern	-10.0402
▁hol	-10.0411
this	-10.0412
we	-10.0445
▁poop	-10.0451
▁desp	-10.0478
ink	-10.048
que	-10.048
▁va	-10.048
▁points	-10.0496
▁crash	-10.0508
f	-10.0534
▁seal	-10.0552
▁steps	-10.0553
▁til	-10.0562
finding	-10.0562
wood	-10.0573
▁scare	-10.0583
be	-10.0589
▁sigurd	-10.0597
▁connection	-10.0597
▁motor	-10.0598
▁snack	-10.0598
▁post	-10.0601
op	-10.0606
▁victim	-10.0606
▁lab	-10.0606
▁vessel	-10.0608
▁scar	-10.0613
▁canoe	-10.0613
▁dolphin	-10.0616
ko	-10.0616
▁jewel	-10.0616
▁holiday	-10.0619
ver	-10.0621
▁vampire	-10.0621
▁artist	-10.0623
▁scale	-10.0624
▁item	-10.0624
▁toward	-10.0624
▁here	-10.0636
▁magical	-10.0639
▁bandit	-10.0641
▁dollar	-10.0644
▁meow	-10.0644
▁murderer	-10.0649
▁ses	-10.0649
▁clue	-10.0651
▁invent	-10.0668
▁te	-10.0681
▁collect	-10.0688
▁palm	-10.0692
rous	-10.0695
▁approach	-10.0697
▁neglect	-10.0709
▁surround	-10.0712
▁divide	-10.0714
▁invite	-10.0716
▁curse	-10.0717
▁habit	-10.0721
▁arrange	-10.0721
▁swift	-10.0722
ux	-10.0722
▁cheat	-10.0724
▁comb	-10.0724
▁shout	-10.0724
▁cind	-10.0727
▁brand	-10.0729
▁convince	-10.073
▁stands	-10.0731
▁annoying	-10.0738
▁bahamas	-10.0738
▁chocolate	-10.0738
▁concentrate	-10.0738
▁essential	-10.0738
▁headquarters	-10.0738
▁heeheehee	-10.0738
▁ndotsheni	-10.0738
▁nefretiri	-10.0738
▁otherwise	-10.0738
▁perspective	-10.0738
▁preparing	-10.0738
▁rainbow	-10.0738
▁rochelle	-10.0738
▁routine	-10.0738
▁society	-10.0738
▁torpedo	-10.0738
▁assume	-10.0738
▁fortune	-10.0738
▁buffalo	-10.0738
▁understood	-10.0738
▁champagne	-10.0738
▁parkwold	-10.0738
▁sergeant	-10.0738
▁simmons	-10.0738
▁anytime	-10.0738
▁access	-10.0738
▁plastic	-10.0738
▁elevator	-10.0738
▁lundie	-10.0738
▁curious	-10.0738
▁funeral	-10.0738
▁worship	-10.0738
▁ayak	-10.0738
▁monarch	-10.0738
▁underwater	-10.0738
▁chicago	-10.0738
▁colony	-10.0738
▁inspiration	-10.0738
▁possibly	-10.0738
▁basically	-10.0738
▁roger	-10.0738
▁ceremony	-10.0739
▁debut	-10.0739
▁banner	-10.0739
▁myth	-10.0739
▁kingsley	-10.0739
▁property	-10.074
▁shelter	-10.074
▁alien	-10.074
▁emile	-10.074
▁spain	-10.0741
▁silverback	-10.0741
▁generous	-10.0741
▁panting	-10.0742
▁thorn	-10.0743
▁narrow	-10.0743
▁universe	-10.0745
▁bible	-10.0745
▁witness	-10.0745
▁bore	-10.0745
▁goshen	-10.0745
▁release	-10.0746
▁swallow	-10.0746
▁reveal	-10.0746
▁churring	-10.0747
your	-10.0747
▁appeal	-10.0747
▁disappointed	-10.0747
▁creepy	-10.0748
▁truly	-10.0748
▁blend	-10.0749
▁kano	-10.0749
▁trial	-10.075
▁delicate	-10.075
▁sync	-10.0752
▁dining	-10.0753
▁toast	-10.0753
▁influence	-10.0755
▁option	-10.0755
▁whoohoo	-10.0755
▁barrel	-10.0757
▁wagon	-10.0758
▁brush	-10.0758
▁beings	-10.0758
▁concerned	-10.0759
▁coward	-10.076
▁snicker	-10.0761
▁ming	-10.0761
▁matches	-10.0761
▁barely	-10.0762
▁breed	-10.0764
▁former	-10.0765
▁oops	-10.0766
▁july	-10.0766
▁creation	-10.0767
▁uk	-10.0768
▁drill	-10.0769
▁isabel	-10.0769
▁sinking	-10.077
▁edge	-10.077
▁wrecked	-10.0772
ill	-10.0774
▁drawn	-10.0774
▁solid	-10.0774
▁naked	-10.0774
▁arrested	-10.0779
▁yells	-10.078
▁heck	-10.0786
▁loving	-10.0792
▁du	-10.0792
▁national	-10.0793
▁attacked	-10.0799
▁regular	-10.0804
▁latest	-10.0805
▁plead	-10.0812
▁offered	-10.0817
through	-10.0818
▁iet	-10.0819
▁timing	-10.082
▁meerkats	-10.0828
▁trace	-10.0833
▁thrown	-10.0845
▁ants	-10.0863
▁clam	-10.0872
▁feeding	-10.0875
▁honored	-10.0883
▁gunshots	-10.0897
▁beating	-10.09
▁tied	-10.0901
nah	-10.0902
▁blar	-10.0909
▁trib	-10.0922
no	-10.0923
▁suits	-10.0931
▁waitin	-10.0932
▁wore	-10.0945
oring	-10.0946
▁fred	-10.0949
▁vote	-10.095
▁agents	-10.095
▁goats	-10.0954
▁sethi	-10.0955
▁movies	-10.0964
▁bond	-10.099
▁ended	-10.1024
ra	-10.1028
▁souls	-10.1032
ving	-10.1035
▁lass	-10.1047
▁hundreds	-10.105
▁echo	-10.1064
▁treasures	-10.1115
▁opened	-10.1123
▁confess	-10.1161
▁patch	-10.1161
ors	-10.1161
▁tag	-10.1167
▁surprises	-10.1169
▁playful	-10.1198
▁listened	-10.1201
▁chickens	-10.1202
for	-10.1211
▁u	-10.1215
▁proper	-10.1222
if	-10.1239
▁doctors	-10.1243
▁wo	-10.1249
▁supp	-10.127
▁sink	-10.129
▁pie	-10.1291
▁oil	-10.1297
▁couid	-10.1297
▁hallo	-10.1319
ard	-10.1321
▁rm	-10.1329
▁missy	-10.1337
▁kingdoms	-10.134
wa	-10.1345
▁deb	-10.1355
how	-10.1366
▁flap	-10.1366
boxes	-10.1379
▁ren	-10.1395
▁dee	-10.1415
eii	-10.1415
trick	-10.143
work	-10.1434
▁tells	-10.1439
▁bon	-10.1454
▁charges	-10.1464
▁thoughts	-10.1471
▁goal	-10.1471
▁tire	-10.1484
me	-10.1502
back	-10.1508
▁placed	-10.1508
▁z	-10.1509
▁trains	-10.1532
▁faithful	-10.154
▁cur	-10.1584
ando	-10.162
people	-10.1646
▁jug	-10.1666
▁mix	-10.1674
▁lum	-10.1693
▁sw	-10.1721
▁tick	-10.1745
▁vanish	-10.1748
▁cares	-10.1762
coat	-10.1802
z	-10.1808
▁champion	-10.1817
▁chi	-10.1834
ville	-10.1839
▁tri	-10.184
▁technique	-10.1846
▁computer	-10.1847
▁concern	-10.1848
▁com	-10.1852
▁prophet	-10.1853
▁shepherd	-10.1857
that	-10.1857
▁appearance	-10.1859
▁quarter	-10.1863
▁compliment	-10.1863
▁tiger	-10.1865
▁sometime	-10.1865
▁legend	-10.1865
▁generation	-10.1868
▁site	-10.1871
▁detail	-10.1872
▁shoulder	-10.1875
▁dock	-10.1886
▁hearing	-10.1902
▁hunter	-10.1907
les	-10.1912
ways	-10.1913
▁disappear	-10.1915
▁prayer	-10.1917
▁skater	-10.1923
▁fail	-10.1931
▁moments	-10.1935
▁min	-10.1935
▁twitter	-10.1939
▁skateboard	-10.1939
▁rev	-10.1945
▁ace	-10.1951
▁anna	-10.1954
▁spin	-10.1955
▁apologize	-10.1957
▁conquer	-10.1957
▁desire	-10.1959
▁continent	-10.1964
▁shoe	-10.1968
▁meter	-10.197
▁instant	-10.1976
▁exact	-10.1977
▁mutt	-10.1983
▁gentle	-10.1984
▁dump	-10.1984
▁china	-10.1986
▁favour	-10.1987
▁expert	-10.1987
▁miguel	-10.1987
▁recommend	-10.1988
▁abigail	-10.1988
▁academy	-10.1988
▁acquaintance	-10.1988
▁assassin	-10.1988
▁awkward	-10.1988
▁azumi	-10.1988
▁belknap	-10.1988
▁bertrand	-10.1988
▁bithiah	-10.1988
▁caliph	-10.1988
▁cathedral	-10.1988
▁cheesenewt	-10.1988
▁commodore	-10.1988
▁dessert	-10.1988
▁dozen	-10.1988
▁frederick	-10.1988
▁gypsies	-10.1988
▁messenger	-10.1988
▁passenger	-10.1988
▁period	-10.1988
▁periscope	-10.1988
▁phantom	-10.1988
▁purgatory	-10.1988
▁sephora	-10.1988
▁valuable	-10.1988
▁downstairs	-10.1988
▁duchess	-10.1988
▁keegan	-10.1988
▁loneliness	-10.1988
▁observation	-10.1988
▁udela	-10.1988
▁dainty	-10.1988
▁landscape	-10.1988
▁lonesome	-10.1988
▁explosion	-10.1988
▁squids	-10.1988
▁television	-10.1988
▁arthur	-10.1988
▁villemont	-10.1988
▁conversation	-10.1988
▁destiny	-10.1988
▁jesus	-10.1988
▁scotland	-10.1988
▁antonio	-10.1988
▁mistress	-10.1988
▁survival	-10.1988
▁submarine	-10.1988
▁forbidden	-10.1988
▁urgent	-10.1988
▁angry	-10.1988
▁mostly	-10.1988
▁suitcase	-10.1988
▁terror	-10.1988
▁damage	-10.1988
▁beauty	-10.1988
▁destruction	-10.1988
▁average	-10.1988
▁equipment	-10.1988
▁bondage	-10.1988
▁skateoff	-10.1988
▁christian	-10.1988
▁spinning	-10.1988
▁babysitter	-10.1988
▁failure	-10.1988
▁widow	-10.1989
▁treason	-10.1989
▁harsh	-10.1989
▁contest	-10.1989
▁attractive	-10.1989
▁quack	-10.1989
▁raft	-10.1989
▁holler	-10.1989
▁humble	-10.199
▁tucker	-10.199
▁coffin	-10.199
▁digging	-10.199
▁thou	-10.199
▁principle	-10.199
▁trench	-10.1991
orita	-10.1992
▁filthy	-10.1992
▁wasting	-10.1992
▁guardian	-10.1993
▁typical	-10.1993
▁stealth	-10.1993
▁twist	-10.1994
▁specific	-10.1995
▁bison	-10.1995
▁torn	-10.1995
▁sole	-10.1995
▁beeping	-10.1995
▁gambling	-10.1995
▁dismissed	-10.1996
▁captive	-10.1997
▁cub	-10.1997
▁mouse	-10.1997
▁disgusting	-10.1998
▁clown	-10.1998
▁rude	-10.1999
▁mount	-10.1999
▁teii	-10.1999
▁groom	-10.2
▁directly	-10.2001
▁judy	-10.2003
▁forgetting	-10.2003
▁stopping	-10.2004
▁insult	-10.2005
▁impressive	-10.2006
▁her	-10.2006
▁intended	-10.2007
▁recall	-10.2007
▁century	-10.2007
▁desk	-10.201
▁unto	-10.201
▁polly	-10.2011
▁olympics	-10.2012
▁comment	-10.2013
▁ruler	-10.2013
▁howling	-10.2013
▁weeping	-10.2013
▁senior	-10.2015
▁disappeared	-10.2015
▁setting	-10.2015
▁shade	-10.2016
▁exhausted	-10.2017
▁marketing	-10.2017
▁cowell	-10.2017
▁keeps	-10.2019
▁papa	-10.202
▁gotcha	-10.2021
▁repairs	-10.2024
▁warned	-10.2028
▁practicing	-10.2029
▁tourists	-10.2029
▁brad	-10.2029
▁dresses	-10.203
▁monk	-10.2036
▁sincere	-10.2038
▁code	-10.2038
ier	-10.2038
▁barn	-10.204
▁dial	-10.2041
▁awaits	-10.2041
▁orcas	-10.2042
▁completed	-10.2043
▁ouch	-10.2047
▁passes	-10.2051
▁metal	-10.2052
▁chat	-10.2053
▁designed	-10.2058
▁doin	-10.206
▁condo	-10.2061
▁christ	-10.2062
▁inner	-10.2063
▁sweep	-10.2065
just	-10.2068
▁settled	-10.2069
▁saving	-10.2077
▁painted	-10.2078
▁inn	-10.2079
▁vision	-10.2081
▁chop	-10.2083
▁knocking	-10.2088
▁youngsters	-10.2092
▁shadows	-10.2092
▁manners	-10.2093
▁pits	-10.2095
▁selling	-10.2104
▁steam	-10.2107
▁sn	-10.2109
▁searched	-10.2112
▁plu	-10.2113
▁robe	-10.2113
▁breathing	-10.2113
▁campers	-10.2113
▁praying	-10.2114
▁callin	-10.2127
▁prints	-10.2129
ba	-10.2135
▁su	-10.2137
▁targets	-10.2139
▁jo	-10.2139
▁builder	-10.2143
▁joined	-10.2145
▁retire	-10.217
amed	-10.2171
▁sack	-10.2172
nce	-10.2173
let	-10.2179
▁matters	-10.2181
▁slice	-10.2205
▁loss	-10.2218
▁pe	-10.222
▁sons	-10.2225
▁gall	-10.223
▁official	-10.2231
▁photos	-10.2238
▁pan	-10.2252
▁dealing	-10.2259
▁thin	-10.2268
▁forces	-10.227
▁caller	-10.2275
▁mid	-10.2276
▁assure	-10.2279
ma	-10.2281
▁colors	-10.2288
▁whistles	-10.2291
▁boom	-10.2292
▁arrives	-10.2296
▁appears	-10.23
un	-10.2302
▁fires	-10.2303
▁loser	-10.2309
▁stuffed	-10.2312
▁announce	-10.2314
media	-10.2328
▁windows	-10.2329
rising	-10.2333
▁dreamed	-10.2335
▁title	-10.2351
▁aring	-10.2353
▁bags	-10.2355
▁machines	-10.236
ez	-10.2386
▁tip	-10.2389
bar	-10.2396
▁pu	-10.2418
bone	-10.2419
▁rises	-10.2431
ied	-10.2433
ap	-10.2443
rus	-10.2461
▁begg	-10.2478
▁gray	-10.2481
umn	-10.2513
▁ew	-10.2516
ments	-10.252
▁tires	-10.2523
tions	-10.2529
▁dreaming	-10.253
▁regula	-10.2542
▁shown	-10.2561
rene	-10.2565
ixie	-10.2566
illa	-10.2575
▁dates	-10.2594
▁subtitle	-10.2615
▁junk	-10.2624
▁houses	-10.263
▁gal	-10.2638
▁hatch	-10.2642
sighing	-10.2659
▁fri	-10.2664
▁planes	-10.2684
▁bush	-10.2725
▁bob	-10.2741
yi	-10.2747
▁gang	-10.2778
ions	-10.2785
ities	-10.2797
▁sp	-10.2831
▁gre	-10.2849
▁pile	-10.2849
▁dancer	-10.2878
ial	-10.2885
▁plate	-10.2906
▁voices	-10.292
▁mono	-10.2939
▁che	-10.2964
▁hon	-10.2978
▁bing	-10.2982
▁critic	-10.299
▁rough	-10.2995
ations	-10.3041
ld	-10.3067
board	-10.3092
room	-10.3115
ping	-10.3126
▁sees	-10.3135
▁loyal	-10.3136
▁counts	-10.3151
nd	-10.3167
▁prop	-10.3176
oksanochka	-10.319
malenkaya	-10.3193
street	-10.32
piece	-10.3205
▁knee	-10.3211
▁tear	-10.3215
▁bean	-10.3231
ad	-10.3247
▁tim	-10.3247
▁delay	-10.3252
▁snap	-10.3252
ong	-10.3255
about	-10.3265
lly	-10.327
pt	-10.3277
▁apartment	-10.3277
▁girlfriend	-10.3277
▁fence	-10.3282
▁skill	-10.3282
▁increase	-10.3286
oli	-10.329
▁outfit	-10.3291
▁neighbor	-10.3291
▁soap	-10.3294
▁contestant	-10.3295
▁subject	-10.3296
▁nephew	-10.3296
▁princes	-10.3296
▁drag	-10.3296
▁scene	-10.3299
▁meerkat	-10.3299
▁jam	-10.33
▁announcement	-10.3302
▁brick	-10.3304
▁maiden	-10.3306
▁youngster	-10.3306
uce	-10.331
▁broom	-10.3313
▁dodo	-10.3313
▁beast	-10.3318
▁page	-10.3319
▁fee	-10.3322
▁hits	-10.3331
▁manner	-10.3333
▁concept	-10.3333
▁tribe	-10.3333
▁poison	-10.3333
▁bud	-10.334
▁lu	-10.3343
▁gr	-10.3359
▁drain	-10.336
▁comfort	-10.3374
▁convent	-10.3383
▁splash	-10.3387
▁fulfill	-10.3388
▁murmur	-10.3388
▁decree	-10.3392
▁advance	-10.3393
▁reno	-10.3395
▁thrill	-10.3397
▁crush	-10.3397
▁speech	-10.3403
▁screech	-10.3403
▁sudden	-10.3405
▁interpret	-10.3407
▁shore	-10.3413
▁represent	-10.3415
▁ahhh	-10.3416
▁abandon	-10.3416
▁antidote	-10.3416
▁anzio	-10.3416
▁campaign	-10.3416
▁chamberlain	-10.3416
▁cormoran	-10.3416
▁disguise	-10.3416
▁elliot	-10.3416
▁floretta	-10.3416
▁garrett	-10.3416
▁harufa	-10.3416
▁laundry	-10.3416
▁masahiko	-10.3416
▁monaghan	-10.3416
▁pafuri	-10.3416
▁pheasant	-10.3416
▁platform	-10.3416
▁reunion	-10.3416
▁similar	-10.3416
▁stonecutter	-10.3416
▁supernatural	-10.3416
▁talitha	-10.3416
▁thursday	-10.3416
▁tragedy	-10.3416
▁choochoo	-10.3416
▁compartment	-10.3416
▁mdana	-10.3416
▁sunshine	-10.3416
▁porett	-10.3416
▁pulse	-10.3416
▁telephone	-10.3416
▁material	-10.3416
▁insane	-10.3416
▁interrupt	-10.3416
▁phase	-10.3416
▁triumph	-10.3416
▁kyle	-10.3416
▁griffen	-10.3416
▁purple	-10.3416
▁downtown	-10.3416
▁mugger	-10.3416
▁proceed	-10.3416
▁tools	-10.3416
▁uniform	-10.3416
▁chorus	-10.3416
▁almighty	-10.3416
▁grieve	-10.3416
▁robbed	-10.3416
▁vidia	-10.3416
▁herbie	-10.3416
▁nicole	-10.3416
▁benson	-10.3416
▁rosanna	-10.3416
▁odessa	-10.3416
▁wolves	-10.3416
▁mademoiselle	-10.3416
▁albright	-10.3416
▁happily	-10.3417
▁sugar	-10.3417
▁slept	-10.3417
▁operator	-10.3417
▁denver	-10.3417
▁gorgeous	-10.3417
▁gwen	-10.3417
▁pathetic	-10.3417
▁draft	-10.3417
▁oscar	-10.3417
▁thudding	-10.3417
▁whee	-10.3417
▁hinu	-10.3417
▁cheap	-10.3417
▁overboard	-10.3417
▁silent	-10.3417
▁saloon	-10.3417
▁grainger	-10.3417
▁monkey	-10.3417
▁nancy	-10.3417
▁bargain	-10.3418
▁arrival	-10.3418
▁register	-10.3418
▁cunning	-10.3418
▁capable	-10.3418
▁global	-10.3418
▁foolishness	-10.3418
▁transformed	-10.3419
▁teenage	-10.3419
▁depiction	-10.3419
▁struggling	-10.3419
▁climate	-10.3419
▁salmon	-10.3419
▁breast	-10.3419
▁poof	-10.3419
▁writing	-10.342
▁publicity	-10.342
als	-10.342
▁savannah	-10.342
▁cheerful	-10.342
▁series	-10.3421
▁collar	-10.3421
▁successful	-10.3421
▁galina	-10.3422
▁whiskey	-10.3422
▁precisely	-10.3422
▁ieave	-10.3424
▁daily	-10.3424
▁accused	-10.3424
▁doomed	-10.3424
▁threat	-10.3424
▁whatll	-10.3424
▁waaah	-10.3425
▁seventy	-10.3425
▁recently	-10.3426
▁steer	-10.3426
▁personality	-10.3426
▁mac	-10.3426
▁heir	-10.3426
▁blinking	-10.3427
its	-10.3427
▁pinging	-10.3428
▁celebrating	-10.3428
▁slightly	-10.3428
▁beeps	-10.3428
▁complain	-10.3429
▁untie	-10.3429
▁province	-10.343
▁spoken	-10.343
▁sittin	-10.343
▁helen	-10.3431
▁heels	-10.3432
▁particularly	-10.3433
▁solved	-10.3433
▁cries	-10.3433
▁stove	-10.3434
▁spies	-10.3435
▁satisfied	-10.3436
▁mayday	-10.3436
▁is	-10.3437
▁repeat	-10.3437
▁casual	-10.3438
▁bitch	-10.3439
▁yawn	-10.344
▁saddle	-10.3442
▁duh	-10.3442
▁dating	-10.3443
▁struggle	-10.3444
▁disturbing	-10.3445
▁instructions	-10.3445
▁pigs	-10.3445
▁scary	-10.3446
▁fourth	-10.3446
▁divided	-10.3447
▁backstage	-10.3448
▁magnet	-10.3448
▁kicked	-10.3449
▁clay	-10.3451
ept	-10.3451
▁clicks	-10.3452
▁zoom	-10.3452
▁aut	-10.3452
▁shock	-10.3453
▁hollow	-10.3455
▁unlock	-10.3455
▁nut	-10.3456
▁hopeless	-10.3456
▁hash	-10.3457
▁drowned	-10.3457
▁raw	-10.3458
▁refused	-10.3459
▁bout	-10.3459
▁ol	-10.3462
ou	-10.3464
▁mice	-10.3465
▁howdy	-10.3466
▁approaching	-10.3469
▁tries	-10.3472
▁anchor	-10.3474
▁jane	-10.3477
▁whoops	-10.3478
▁coyotes	-10.3481
▁predators	-10.3481
▁loaded	-10.3485
▁delivered	-10.3486
▁washed	-10.3486
▁scheme	-10.3487
▁gathered	-10.3487
▁sonar	-10.3488
▁escaped	-10.3488
oo	-10.3492
▁gap	-10.3493
▁dearest	-10.3495
▁terms	-10.3497
▁transfer	-10.3497
▁muscles	-10.3498
▁thuds	-10.3499
▁weave	-10.3499
oh	-10.3502
▁jr	-10.3503
▁recording	-10.3506
▁manure	-10.3508
▁scent	-10.3512
▁pots	-10.3517
▁units	-10.3524
aze	-10.3525
▁realm	-10.3526
▁customs	-10.3526
▁safely	-10.353
▁maidens	-10.3536
▁led	-10.3537
▁bricks	-10.3538
▁differently	-10.354
▁anger	-10.3545
▁shat	-10.3545
▁swan	-10.3547
▁dave	-10.3548
▁halt	-10.3551
▁tryin	-10.3552
▁spill	-10.3552
▁explained	-10.3554
▁pickle	-10.3557
▁devour	-10.3557
▁ate	-10.357
▁scales	-10.3572
▁holidays	-10.3573
▁promote	-10.3578
▁canad	-10.358
▁shorty	-10.3581
▁melt	-10.3589
▁dated	-10.3589
ated	-10.3591
▁pushing	-10.3591
▁wonderfully	-10.3593
▁blowing	-10.3602
▁tune	-10.361
▁accounts	-10.3611
▁baiul	-10.3615
injured	-10.3628
▁expense	-10.3629
▁note	-10.3635
▁remove	-10.364
▁leap	-10.3643
▁bare	-10.3646
▁styles	-10.3647
▁tales	-10.3652
▁ruins	-10.3654
ogue	-10.3657
▁shy	-10.3657
▁sallys	-10.3676
▁pl	-10.368
▁cap	-10.368
ship	-10.3688
▁protected	-10.3691
▁cleaning	-10.3696
▁meals	-10.3702
▁caused	-10.3704
▁cups	-10.3709
▁sakes	-10.371
▁deed	-10.3714
▁down	-10.3714
ome	-10.3719
youre	-10.3727
▁fe	-10.3747
▁teaching	-10.3749
▁uhh	-10.375
▁remains	-10.3754
▁dish	-10.3764
▁designs	-10.3775
▁admire	-10.3791
▁sounded	-10.3791
▁bor	-10.3799
▁mass	-10.38
▁giants	-10.3808
▁rocking	-10.3825
▁chestnuts	-10.3831
▁pur	-10.3834
wed	-10.3835
▁lessons	-10.3835
▁bathe	-10.3836
▁tend	-10.3847
▁oceans	-10.3849
▁easter	-10.3854
▁jin	-10.3874
sor	-10.3902
▁all	-10.3904
▁traveler	-10.3905
▁checking	-10.391
▁flash	-10.391
▁cock	-10.3915
can	-10.3918
▁bra	-10.395
▁catching	-10.3973
▁detectives	-10.3978
atch	-10.3984
▁services	-10.3996
hoo	-10.4048
▁hee	-10.4051
lic	-10.4056
▁figures	-10.4056
▁jumps	-10.4066
▁cans	-10.4072
fic	-10.4078
nder	-10.4079
ri	-10.4098
right	-10.4126
vy	-10.4138
end	-10.4141
▁jun	-10.4171
▁wishing	-10.4173
ical	-10.4184
▁joes	-10.4188
▁accomplish	-10.42
ot	-10.4219
▁file	-10.4238
ten	-10.4238
▁ka	-10.4239
oda	-10.4255
▁restaurants	-10.4273
▁bea	-10.4275
▁gu	-10.4297
▁drops	-10.4302
▁brat	-10.4311
▁stas	-10.4315
ize	-10.4346
ria	-10.4355
▁dash	-10.4367
▁await	-10.4381
▁bl	-10.44
▁cases	-10.441
iest	-10.4411
per	-10.4428
ul	-10.4428
▁statues	-10.4438
▁beds	-10.4478
▁rear	-10.4503
head	-10.4517
cy	-10.4528
▁discover	-10.4541
co	-10.4548
▁mor	-10.4555
ley	-10.4577
▁asks	-10.4585
▁drinks	-10.4649
▁rivers	-10.4654
use	-10.4674
▁seas	-10.468
ious	-10.4685
ut	-10.4721
▁bust	-10.473
▁wrap	-10.4749
fold	-10.4753
arag	-10.4755
even	-10.4757
su	-10.4798
vice	-10.4819
▁cared	-10.4825
▁custom	-10.4829
new	-10.4831
guy	-10.4844
our	-10.4849
▁gamble	-10.4874
▁ding	-10.488
with	-10.4881
ble	-10.4883
fall	-10.4906
ipped	-10.4907
▁scream	-10.4912
water	-10.4922
▁shee	-10.4924
marine	-10.493
▁stink	-10.493
▁react	-10.4939
checked	-10.4941
▁spoke	-10.4948
▁unit	-10.4951
▁bastard	-10.4952
▁particle	-10.4952
▁eagle	-10.4953
▁blade	-10.4959
▁model	-10.4961
▁result	-10.4962
▁reservation	-10.4963
▁tropic	-10.4964
▁shadow	-10.4965
▁mel	-10.4965
▁soldier	-10.4968
mexic	-10.4969
▁sailor	-10.4977
▁will	-10.4977
▁beside	-10.4977
▁iove	-10.4982
▁chart	-10.4985
▁root	-10.4992
▁includ	-10.4996
▁prisoner	-10.5002
▁liar	-10.5016
▁tee	-10.5032
▁vault	-10.5039
so	-10.5045
ns	-10.505
ably	-10.5052
▁india	-10.5054
▁buzz	-10.5054
▁wreck	-10.5057
▁preserve	-10.5057
▁tweet	-10.5057
▁intend	-10.5059
▁butt	-10.506
▁borrow	-10.506
▁float	-10.5067
▁sandwich	-10.507
▁endure	-10.507
▁constant	-10.5071
▁darn	-10.5072
▁familia	-10.5072
▁unfortunate	-10.5072
▁chose	-10.5072
▁pays	-10.5074
▁recent	-10.5075
▁market	-10.5076
▁attract	-10.5079
▁scienti	-10.5081
▁quinoa	-10.5083
▁abbey	-10.5083
▁algeria	-10.5083
▁australia	-10.5083
▁barbecue	-10.5083
▁bloodbath	-10.5083
▁bronze	-10.5083
▁caaccff	-10.5083
▁caiifornia	-10.5083
▁calcite	-10.5083
▁caradec	-10.5083
▁cetera	-10.5083
▁chariie	-10.5083
▁chariot	-10.5083
▁communicate	-10.5083
▁convict	-10.5083
▁crossbow	-10.5083
▁curiosity	-10.5083
▁diamond	-10.5083
▁documents	-10.5083
▁eskimo	-10.5083
▁excellence	-10.5083
▁francisco	-10.5083
▁hortensia	-10.5083
▁korda	-10.5083
▁length	-10.5083
▁mitchell	-10.5083
▁monsieur	-10.5083
▁procedure	-10.5083
▁pulido	-10.5083
▁rodrigo	-10.5083
▁roulette	-10.5083
▁rudder	-10.5083
▁russell	-10.5083
▁saffron	-10.5083
▁shimizu	-10.5083
▁sokurah	-10.5083
▁thorburn	-10.5083
▁toothbrush	-10.5083
▁treacherous	-10.5083
▁vancouver	-10.5083
▁vincenty	-10.5083
▁yochabel	-10.5083
▁breeze	-10.5083
▁broadcast	-10.5083
▁constance	-10.5083
▁explosive	-10.5083
▁memories	-10.5083
▁neumann	-10.5083
▁technology	-10.5083
▁tokyo	-10.5083
▁unsaya	-10.5083
▁wilderness	-10.5083
▁ancestors	-10.5083
▁capital	-10.5083
▁latigo	-10.5083
▁melvin	-10.5083
▁outrage	-10.5083
▁rearrange	-10.5083
▁shannon	-10.5083
▁accusations	-10.5083
▁autograph	-10.5083
▁bonanza	-10.5083
▁destined	-10.5083
▁sorcer	-10.5083
▁advise	-10.5083
▁bopeep	-10.5083
▁fortress	-10.5083
▁jerome	-10.5083
▁reverse	-10.5083
▁sensitive	-10.5083
▁teedle	-10.5083
▁inheritance	-10.5083
▁receptionist	-10.5083
▁willory	-10.5083
▁apology	-10.5083
▁dignity	-10.5083
▁amusing	-10.5083
▁niece	-10.5083
▁escort	-10.5083
▁prague	-10.5083
▁clarion	-10.5083
▁grief	-10.5083
▁washington	-10.5083
▁jeez	-10.5083
▁philip	-10.5083
▁yoohoo	-10.5083
▁eldest	-10.5083
▁coughs	-10.5083
▁religio	-10.5083
▁perros	-10.5083
▁compete	-10.5083
▁lawyer	-10.5083
▁offense	-10.5083
▁value	-10.5083
▁unpack	-10.5083
▁interview	-10.5083
▁brief	-10.5083
▁kathy	-10.5083
▁orphanage	-10.5083
▁discharge	-10.5083
▁astrologers	-10.5083
▁kitten	-10.5083
▁chain	-10.5083
▁clerk	-10.5083
▁internet	-10.5083
▁mumbling	-10.5083
▁university	-10.5083
▁envy	-10.5083
▁punishment	-10.5083
▁hmph	-10.5083
▁pennant	-10.5083
▁oniy	-10.5083
▁obey	-10.5083
▁eloise	-10.5083
▁sculpture	-10.5083
▁invitation	-10.5084
▁species	-10.5084
▁benefit	-10.5084
▁contrary	-10.5084
▁modest	-10.5084
▁secure	-10.5084
▁unhappy	-10.5084
▁marcus	-10.5084
▁ultimately	-10.5084
▁valleyville	-10.5084
▁finster	-10.5084
▁representation	-10.5084
▁freight	-10.5084
▁sarin	-10.5084
▁complicated	-10.5084
▁elsewhere	-10.5085
▁consent	-10.5085
▁whining	-10.5085
▁motel	-10.5085
▁common	-10.5085
▁warden	-10.5085
▁campbell	-10.5085
▁text	-10.5085
▁baboon	-10.5086
▁altar	-10.5086
▁exchange	-10.5086
▁lazy	-10.5086
▁overcome	-10.5086
▁freezing	-10.5086
▁behavior	-10.5086
▁behold	-10.5086
▁iife	-10.5086
▁herman	-10.5087
▁corpse	-10.5087
▁appetite	-10.5087
▁gigi	-10.5087
▁passage	-10.5087
▁katya	-10.5087
▁bicycle	-10.5088
▁sacred	-10.5088
ked	-10.5088
▁begun	-10.5088
▁stripped	-10.5088
▁sadness	-10.5088
▁scratches	-10.5088
▁critical	-10.5089
▁gross	-10.5089
▁slide	-10.5089
▁spray	-10.5089
▁hunk	-10.5089
▁mattie	-10.5089
▁chasing	-10.509
▁introduction	-10.509
▁chances	-10.5091
▁revol	-10.5091
▁nasty	-10.5091
▁relieved	-10.5091
▁schoolhouse	-10.5091
▁dreadful	-10.5091
▁balance	-10.5091
▁squealing	-10.5092
▁astronomy	-10.5092
▁presentation	-10.5092
▁grandson	-10.5092
▁warmth	-10.5093
▁grade	-10.5093
▁feminine	-10.5093
▁softens	-10.5094
▁waist	-10.5094
▁lira	-10.5095
▁supplies	-10.5095
▁judea	-10.5096
regon	-10.5097
▁upper	-10.5097
▁russian	-10.5097
▁compass	-10.5098
▁rival	-10.5099
▁alas	-10.5099
▁knowledge	-10.51
▁bricka	-10.51
▁theme	-10.5101
▁neigh	-10.5102
▁yuri	-10.5102
▁embarrassing	-10.5102
▁daylight	-10.5103
▁intention	-10.5103
▁caroline	-10.5103
▁dove	-10.5104
▁received	-10.5106
▁camper	-10.5107
▁whooping	-10.5108
▁pocket	-10.5109
▁clapping	-10.5109
▁legal	-10.511
▁luo	-10.5111
▁creating	-10.5111
▁pouring	-10.5111
▁utter	-10.5112
▁familys	-10.5112
▁becoming	-10.5112
▁tank	-10.5112
▁jumpin	-10.5113
▁endless	-10.5114
▁leather	-10.5116
▁inventor	-10.5116
▁vegetables	-10.5117
▁arrangements	-10.5117
▁skilled	-10.5118
▁freak	-10.5118
▁plot	-10.5119
▁actor	-10.5119
▁fuss	-10.5119
▁properly	-10.512
▁tape	-10.512
▁lode	-10.5122
▁fever	-10.5124
▁surrounded	-10.5124
▁farid	-10.5127
▁shootin	-10.5128
▁etta	-10.5133
▁wounds	-10.5139
▁coconuts	-10.5139
▁cro	-10.5142
▁flies	-10.5143
▁clothed	-10.5143
▁sitter	-10.5144
▁contain	-10.5145
▁arranged	-10.5145
▁pearls	-10.515
▁heights	-10.5152
▁dna	-10.5152
▁shit	-10.5154
▁cracking	-10.5154
▁isle	-10.5154
▁keen	-10.5159
▁rescued	-10.5159
▁eternal	-10.5159
old	-10.516
▁delight	-10.516
▁rice	-10.516
▁mammoths	-10.5161
▁mushrooms	-10.5161
▁crocodiles	-10.5161
▁orange	-10.5161
▁june	-10.5162
▁greatness	-10.5163
▁dew	-10.5163
▁pointers	-10.5165
▁leak	-10.5168
▁loom	-10.5168
▁yearold	-10.5173
▁adapt	-10.5178
▁term	-10.518
▁spice	-10.5181
▁deai	-10.5182
▁shortly	-10.519
▁arch	-10.5198
▁hait	-10.52
▁lawn	-10.5201
ight	-10.5206
▁sailed	-10.5209
▁marching	-10.5211
▁quietly	-10.5212
▁solve	-10.5214
▁talkin	-10.5217
▁weary	-10.5218
▁beasts	-10.522
▁award	-10.5222
▁nephews	-10.5227
▁subjects	-10.5227
▁politic	-10.5227
▁boil	-10.5229
▁ay	-10.5236
▁ideal	-10.5239
eva	-10.524
▁stir	-10.5241
▁rail	-10.5241
▁zach	-10.5247
▁generations	-10.5249
▁squa	-10.5251
▁lords	-10.5257
▁pete	-10.526
▁prayers	-10.5264
▁items	-10.5266
▁chew	-10.5267
▁clues	-10.5267
ripped	-10.5269
▁tide	-10.5271
▁wondered	-10.5276
▁grounded	-10.528
▁closely	-10.5281
▁sore	-10.5292
▁weapons	-10.5293
▁cracks	-10.5293
ned	-10.5296
▁feathers	-10.5296
▁joint	-10.5296
▁reached	-10.5302
▁fixing	-10.5309
▁fooled	-10.5321
▁str	-10.5326
▁lands	-10.5327
▁cows	-10.5328
▁deadly	-10.533
▁colossa	-10.5334
▁warming	-10.5337
▁demands	-10.5337
▁inform	-10.5345
▁passing	-10.5349
nny	-10.535
▁jumping	-10.5351
▁ki	-10.5356
stage	-10.5366
▁herds	-10.537
▁celesti	-10.5373
▁propose	-10.5377
▁labor	-10.5381
▁trained	-10.5385
▁lively	-10.5386
▁gil	-10.5398
▁tube	-10.54
▁records	-10.5403
▁images	-10.5405
▁kn	-10.5405
▁trusted	-10.5407
▁howl	-10.5407
▁princesses	-10.5417
▁partners	-10.5424
▁blues	-10.5432
▁indians	-10.5439
▁wheels	-10.544
ya	-10.5445
ellow	-10.5453
va	-10.5455
▁rode	-10.5465
▁paddle	-10.547
▁wee	-10.5479
▁pursue	-10.5485
sion	-10.5493
▁mistakes	-10.55
da	-10.5507
▁servants	-10.5512
▁lash	-10.552
▁flow	-10.5534
▁mob	-10.5541
▁host	-10.5544
▁bats	-10.5544
▁belt	-10.5551
hey	-10.5554
▁generals	-10.5557
▁nicely	-10.5563
▁mer	-10.5576
▁noses	-10.5615
▁hid	-10.5626
ating	-10.5636
▁vib	-10.564
▁tomato	-10.5653
ction	-10.5657
▁mouths	-10.5659
▁wander	-10.567
▁fits	-10.5676
▁finer	-10.5705
▁coo	-10.5717
▁fianc	-10.5718
▁blows	-10.5733
lo	-10.5762
igger	-10.5767
▁wanting	-10.5778
▁rate	-10.5781
▁teachers	-10.5781
ro	-10.5788
▁picking	-10.5789
▁booing	-10.5792
▁formal	-10.5797
▁ease	-10.5805
▁not	-10.5815
ney	-10.5817
▁designer	-10.5829
▁staring	-10.5858
▁nu	-10.5866
mp	-10.5869
bo	-10.5872
▁opera	-10.5877
▁darlings	-10.5885
ooked	-10.5891
kind	-10.5916
▁ned	-10.5945
▁lane	-10.5973
ward	-10.5979
▁was	-10.5983
▁meetings	-10.5997
▁resist	-10.6003
od	-10.6009
ide	-10.6017
owns	-10.6026
▁tables	-10.6048
men	-10.6056
okie	-10.606
▁puts	-10.6072
▁swam	-10.6099
mi	-10.6107
tella	-10.6149
▁ven	-10.615
▁spirits	-10.6153
▁clawd	-10.6174
▁measure	-10.6185
thic	-10.6201
bs	-10.6211
kate	-10.6215
▁cooks	-10.6238
▁fort	-10.624
good	-10.6306
▁bur	-10.6308
▁ann	-10.6314
pped	-10.6314
▁sway	-10.636
ins	-10.6368
rious	-10.6369
▁op	-10.6383
▁peep	-10.6389
▁kim	-10.641
▁sadi	-10.6416
▁hay	-10.6424
▁por	-10.6431
away	-10.6442
▁stops	-10.6447
tch	-10.6479
▁ver	-10.6488
▁conver	-10.6493
mine	-10.6495
ice	-10.6497
▁sos	-10.6533
ni	-10.6551
▁triple	-10.6562
going	-10.6583
nal	-10.6608
▁pearl	-10.6617
ess	-10.6625
▁limit	-10.6668
▁fr	-10.6686
▁sha	-10.6708
place	-10.671
▁returns	-10.6719
▁slap	-10.6747
izing	-10.6748
▁wal	-10.6752
tor	-10.6757
ax	-10.6781
▁straw	-10.6796
▁balls	-10.6799
▁figurin	-10.682
eyed	-10.682
▁clip	-10.6846
▁dro	-10.6861
foot	-10.6861
▁pas	-10.6864
looking	-10.6873
national	-10.688
▁rob	-10.6883
try	-10.689
seif	-10.6912
▁hyena	-10.694
▁basic	-10.695
▁sorrow	-10.6951
▁vulture	-10.6952
▁peanut	-10.6952
berry	-10.6954
pect	-10.6955
▁ingredient	-10.6957
▁for	-10.6959
▁current	-10.6963
▁muscle	-10.6966
lights	-10.6966
▁thud	-10.6967
▁sucker	-10.6967
▁student	-10.6967
▁phon	-10.697
▁uhuh	-10.6971
▁gar	-10.6974
▁bedroom	-10.6978
▁hu	-10.6987
▁ghoul	-10.6989
▁flip	-10.699
▁breaks	-10.6992
▁interact	-10.701
▁disturb	-10.7011
▁ox	-10.7012
▁mat	-10.7019
▁fang	-10.702
ries	-10.7024
▁andr	-10.7026
wise	-10.7034
▁hug	-10.704
▁sec	-10.7043
▁caw	-10.7047
air	-10.7049
▁cancel	-10.7054
▁pour	-10.7055
▁describe	-10.7055
▁hung	-10.7055
▁frighten	-10.7062
▁receive	-10.7063
▁elope	-10.7064
▁restore	-10.7065
▁lightning	-10.7066
▁affect	-10.7067
▁bum	-10.7068
ise	-10.7068
▁impress	-10.707
▁creep	-10.7071
▁photograph	-10.7071
▁extreme	-10.7071
open	-10.7071
▁mis	-10.7071
▁immediate	-10.7072
▁actual	-10.7072
eemed	-10.7073
▁mmhm	-10.7076
▁gymnast	-10.7079
▁circums	-10.7082
▁tutt	-10.7083
▁belshazzar	-10.7083
▁belteshazzar	-10.7083
▁cherokee	-10.7083
▁chiyoko	-10.7083
▁comparison	-10.7083
▁cottage	-10.7083
▁criminal	-10.7083
▁dalrymple	-10.7083
▁demonstrate	-10.7083
▁demonstration	-10.7083
▁downstream	-10.7083
▁dungeon	-10.7083
▁ernestina	-10.7083
▁excelsis	-10.7083
▁exercise	-10.7083
▁fiddledeedee	-10.7083
▁frozen	-10.7083
▁fundamental	-10.7083
▁garlotti	-10.7083
▁greatgranddad	-10.7083
▁gypsy	-10.7083
▁helpseeker	-10.7083
▁increasing	-10.7083
▁irritating	-10.7083
▁jealous	-10.7083
▁jothergill	-10.7083
▁license	-10.7083
▁lloyd	-10.7083
▁magazine	-10.7083
▁marduk	-10.7083
▁mathilde	-10.7083
▁moscow	-10.7083
▁newspaper	-10.7083
▁nowadays	-10.7083
▁panzanera	-10.7083
▁ratatouille	-10.7083
▁scenario	-10.7083
▁sceptre	-10.7083
▁sedgewick	-10.7083
▁skelita	-10.7083
▁supermarket	-10.7083
▁symmetry	-10.7083
▁toralei	-10.7083
▁ulido	-10.7083
▁volauvent	-10.7083
▁yippee	-10.7083
▁apologies	-10.7083
▁character	-10.7083
▁council	-10.7083
▁dialect	-10.7083
▁lifestyle	-10.7083
▁meadow	-10.7083
▁reckon	-10.7083
▁symbol	-10.7083
▁troubie	-10.7083
▁twelve	-10.7083
▁victory	-10.7083
▁heavily	-10.7083
▁nonstop	-10.7083
▁observe	-10.7083
▁torture	-10.7083
▁athlet	-10.7083
▁combination	-10.7083
▁commercial	-10.7083
▁bullseye	-10.7083
▁offspring	-10.7083
▁railroad	-10.7083
▁shriek	-10.7083
▁bonjour	-10.7083
▁sniveiy	-10.7083
▁turkey	-10.7083
▁exhibit	-10.7083
normous	-10.7083
▁attitude	-10.7083
▁cliff	-10.7083
▁adorable	-10.7083
▁confront	-10.7083
▁monteria	-10.7083
▁ooph	-10.7083
▁surroyal	-10.7083
▁advantage	-10.7083
▁exclusive	-10.7083
▁jelly	-10.7083
▁gesture	-10.7083
▁medicine	-10.7083
▁strict	-10.7083
▁civilization	-10.7083
▁alliance	-10.7083
▁granddaughter	-10.7083
▁douglas	-10.7083
▁coronation	-10.7083
▁richmond	-10.7083
▁banana	-10.7083
▁source	-10.7083
▁antler	-10.7083
▁authority	-10.7083
▁possibility	-10.7083
▁winslow	-10.7083
▁toymaker	-10.7083
▁rainforest	-10.7083
▁carpet	-10.7083
▁declar	-10.7083
▁subtle	-10.7083
▁miserable	-10.7083
▁sprout	-10.7083
▁barani	-10.7083
▁shipmate	-10.7083
▁telegram	-10.7083
▁insignificant	-10.7083
▁merchan	-10.7083
▁pussy	-10.7083
▁bounty	-10.7083
▁peaks	-10.7083
▁donkey	-10.7083
▁rosemary	-10.7083
▁central	-10.7083
▁client	-10.7083
▁marvel	-10.7083
▁object	-10.7083
▁alert	-10.7083
▁presum	-10.7083
▁hostess	-10.7083
▁snowball	-10.7083
▁illustrious	-10.7083
▁airplane	-10.7084
▁judgment	-10.7084
▁favourite	-10.7084
▁ghoulia	-10.7084
▁poetry	-10.7084
▁yankee	-10.7084
▁heiress	-10.7084
▁hahaha	-10.7084
▁transformation	-10.7084
▁sunrise	-10.7084
▁exhusband	-10.7084
▁romance	-10.7084
▁salvation	-10.7084
▁sidewinder	-10.7084
▁courtney	-10.7084
▁mallet	-10.7084
▁location	-10.7084
▁stiff	-10.7084
▁garna	-10.7084
▁verdes	-10.7084
▁salami	-10.7084
▁rudy	-10.7084
▁grabbed	-10.7084
▁humor	-10.7084
▁lousy	-10.7085
▁wallace	-10.7085
▁drool	-10.7085
▁edict	-10.7085
▁conductor	-10.7085
▁responsibility	-10.7085
▁choosing	-10.7085
▁western	-10.7085
▁thataway	-10.7085
▁q	-10.7085
▁michelle	-10.7085
▁attraction	-10.7085
▁matri	-10.7085
▁oldfashioned	-10.7086
▁hesitate	-10.7086
▁bodies	-10.7086
▁product	-10.7086
▁detect	-10.7086
▁combined	-10.7086
▁cuff	-10.7086
▁wages	-10.7086
▁disobey	-10.7086
▁striking	-10.7086
▁misery	-10.7086
▁sundown	-10.7086
▁porch	-10.7087
▁collection	-10.7087
▁appointment	-10.7087
islav	-10.7087
▁marsh	-10.7087
▁assess	-10.7087
▁permit	-10.7087
▁encouraging	-10.7087
▁martin	-10.7087
▁assistant	-10.7088
▁illegal	-10.7088
▁superstition	-10.7088
▁glance	-10.7088
▁audition	-10.7088
▁piace	-10.7088
▁respond	-10.7088
▁surprising	-10.7088
▁statement	-10.7088
▁afterward	-10.7088
▁poaching	-10.7088
▁prettier	-10.7088
▁raji	-10.7089
▁wheat	-10.7089
▁waitress	-10.7089
▁slim	-10.7089
▁motion	-10.7089
▁sensual	-10.7089
▁fbi	-10.7089
▁glowin	-10.7089
▁coral	-10.7089
▁occasionally	-10.709
▁potatoes	-10.709
▁pork	-10.709
▁homesick	-10.709
▁crap	-10.7091
▁pinch	-10.7091
▁newborn	-10.7091
▁finch	-10.7091
▁towel	-10.7091
▁lucy	-10.7092
▁confused	-10.7092
▁amazed	-10.7092
▁background	-10.7092
▁wailing	-10.7093
▁petting	-10.7093
▁flute	-10.7093
▁chico	-10.7094
▁millimeter	-10.7094
▁operation	-10.7094
▁extremely	-10.7095
▁elegant	-10.7096
▁interpretation	-10.7096
▁shook	-10.7096
▁ricks	-10.7096
▁alongside	-10.7097
▁copies	-10.7097
▁constantly	-10.7097
▁escaping	-10.7097
▁remarkable	-10.7097
▁threatened	-10.7098
▁haunted	-10.7099
▁elements	-10.7099
▁sandwiches	-10.7099
▁display	-10.7099
▁tossed	-10.7099
▁beastly	-10.7099
▁profit	-10.7099
▁willis	-10.7099
▁opposite	-10.71
▁mobo	-10.71
▁passion	-10.71
▁oooh	-10.7101
▁guts	-10.7101
▁brakes	-10.7101
▁slight	-10.7102
latine	-10.7102
▁gourd	-10.7102
▁ryan	-10.7102
▁reserves	-10.7102
▁traditional	-10.7103
▁smoking	-10.7104
▁engaged	-10.7104
▁james	-10.7104
▁blah	-10.7104
▁annie	-10.7105
▁humanity	-10.7105
▁coco	-10.7106
▁baka	-10.7106
▁footprint	-10.7107
▁grouch	-10.7107
▁discussion	-10.7107
▁pilot	-10.7108
▁noon	-10.7108
▁beck	-10.7109
▁tooth	-10.711
▁delighted	-10.711
▁sonny	-10.7111
▁restored	-10.7112
▁movement	-10.7112
▁atmosphere	-10.7112
▁worms	-10.7113
▁discovery	-10.7113
▁committee	-10.7113
▁expensive	-10.7114
▁gravel	-10.7114
▁babushka	-10.7115
▁borrowed	-10.7115
▁lepers	-10.7115
▁cattle	-10.7118
▁arrow	-10.7118
▁knots	-10.7118
▁rebuild	-10.712
▁fuel	-10.712
▁greed	-10.7122
▁delayed	-10.7122
▁exit	-10.7124
▁hunger	-10.7124
ellen	-10.7125
▁vase	-10.7125
▁airline	-10.7125
▁ducklings	-10.7125
▁she	-10.7126
▁cou	-10.7126
▁locker	-10.7126
▁latin	-10.7128
▁shoo	-10.7128
▁ballet	-10.7131
▁revealed	-10.7132
▁floating	-10.7133
▁whoosh	-10.7137
▁hawk	-10.7137
▁tense	-10.7138
▁haha	-10.7139
▁decid	-10.7139
▁logs	-10.714
▁crucial	-10.7142
▁scraps	-10.7143
▁self	-10.7143
▁extend	-10.7143
▁broad	-10.7145
▁odds	-10.7147
▁hounds	-10.7149
▁cheating	-10.7149
▁flush	-10.7149
▁useful	-10.715
ketch	-10.7152
▁comic	-10.7152
▁affairs	-10.7152
▁colleagues	-10.7152
▁poachers	-10.7152
▁crashing	-10.7153
liness	-10.7153
▁gaining	-10.7153
▁orphans	-10.7153
▁failing	-10.7154
▁smoothies	-10.7154
▁ignored	-10.7156
▁sheets	-10.7157
▁jud	-10.7162
▁alike	-10.7162
▁nighttime	-10.7163
▁vein	-10.7163
▁lassie	-10.7164
▁tow	-10.7164
▁belief	-10.7164
▁prob	-10.7166
▁stray	-10.7167
ole	-10.7167
▁goodnight	-10.7167
▁initial	-10.7169
▁mmhmm	-10.7171
▁recorded	-10.7171
heavenly	-10.7171
▁tug	-10.7175
▁govern	-10.7176
▁mistaken	-10.7177
▁followin	-10.7179
▁highlands	-10.718
▁ounce	-10.7182
▁loan	-10.7182
are	-10.7186
▁rath	-10.7186
▁healthy	-10.719
▁closet	-10.719
▁seated	-10.7192
▁experienced	-10.72
▁clothing	-10.72
▁reminded	-10.7202
▁tiller	-10.7203
▁spy	-10.7212
lass	-10.7213
▁starters	-10.7215
▁mast	-10.7222
▁ioves	-10.7224
▁charts	-10.7225
▁lookout	-10.723
▁messed	-10.7231
▁results	-10.7232
▁suckers	-10.7232
▁chains	-10.7235
▁getaway	-10.7236
▁sailors	-10.7236
▁worn	-10.724
▁sc	-10.7241
▁pretending	-10.7243
▁juli	-10.7246
tes	-10.7248
▁hunted	-10.725
▁mu	-10.7251
▁prisoners	-10.7254
▁notes	-10.7255
▁spreading	-10.7257
▁murdered	-10.7259
▁concepts	-10.7261
▁contestants	-10.7262
▁lime	-10.7263
▁yall	-10.7264
▁neighbors	-10.7265
▁commanded	-10.7265
▁alter	-10.7265
▁cycle	-10.7265
▁packing	-10.7269
▁waves	-10.727
▁suck	-10.7272
▁lighter	-10.7272
ren	-10.7273
▁tribes	-10.7277
▁helpless	-10.7278
▁torch	-10.7279
▁at	-10.728
▁reign	-10.728
▁oldest	-10.7282
▁parties	-10.7286
▁mus	-10.7289
▁jackass	-10.7294
▁tricking	-10.7294
ire	-10.7296
▁imagined	-10.73
▁los	-10.7302
▁partial	-10.7307
▁dope	-10.731
▁graceful	-10.7311
▁posts	-10.7312
▁pone	-10.7315
▁dolphins	-10.7316
▁choices	-10.7322
▁mum	-10.7326
▁alley	-10.7335
▁answered	-10.7338
▁murderers	-10.7339
▁trunks	-10.7342
▁hanged	-10.7347
mmit	-10.7349
▁rowing	-10.7354
▁pans	-10.7357
limited	-10.7368
▁sis	-10.7369
bag	-10.7369
▁tractors	-10.737
▁bug	-10.7371
pit	-10.7376
▁wound	-10.7383
▁iv	-10.7385
▁fond	-10.7391
▁picky	-10.7392
▁argue	-10.7397
▁bella	-10.7407
▁par	-10.7408
▁malenkaya	-10.7414
venge	-10.7414
▁kissing	-10.7415
▁lovers	-10.7425
▁miracles	-10.7425
▁county	-10.7426
▁fishy	-10.7434
▁cleared	-10.7436
ped	-10.7438
fortunately	-10.7438
▁ru	-10.7438
corn	-10.7445
▁eel	-10.7451
▁lap	-10.7454
▁guarded	-10.7455
zo	-10.7456
east	-10.7463
▁worthy	-10.7465
hh	-10.7472
▁treats	-10.7475
▁aunts	-10.7482
▁bulls	-10.7491
▁spine	-10.7493
▁marina	-10.7499
▁gown	-10.7514
▁wat	-10.7522
▁buckle	-10.7524
▁hanks	-10.7534
ying	-10.7534
ours	-10.7534
ars	-10.7536
▁traditions	-10.7538
▁tilt	-10.7557
ets	-10.7568
ves	-10.7572
▁interfere	-10.7574
▁deserves	-10.7578
▁flee	-10.7582
▁bu	-10.7609
▁ar	-10.7613
▁butterfl	-10.762
▁tw	-10.7622
▁hoho	-10.7622
▁disc	-10.7633
coming	-10.7639
▁vital	-10.7641
▁jamm	-10.766
shed	-10.7662
▁compos	-10.7664
▁pod	-10.7665
▁char	-10.7675
dy	-10.7684
ify	-10.7684
▁tin	-10.7692
ha	-10.7698
gen	-10.771
▁troubled	-10.7711
ama	-10.7712
olic	-10.7715
while	-10.7723
▁doubts	-10.7735
ung	-10.7741
▁sum	-10.7747
▁bombs	-10.7753
▁penalt	-10.7767
▁excused	-10.7773
▁den	-10.778
wling	-10.7787
more	-10.7788
▁cleaner	-10.7795
▁pai	-10.7797
▁killing	-10.7814
▁fore	-10.7817
ib	-10.7821
▁husk	-10.7836
▁menu	-10.7836
▁lever	-10.7838
appeared	-10.7842
ac	-10.7885
ana	-10.7897
ddy	-10.7899
▁commands	-10.7905
pe	-10.791
car	-10.7923
lets	-10.7924
ragged	-10.793
▁handy	-10.7945
▁swe	-10.7972
oop	-10.7985
▁just	-10.799
vent	-10.8007
ze	-10.8015
▁bold	-10.8022
ir	-10.8056
▁holes	-10.8058
▁val	-10.8068
▁carol	-10.8075
iyi	-10.8078
▁edit	-10.8084
iy	-10.8084
▁carrie	-10.8088
ming	-10.809
▁fu	-10.8108
did	-10.811
▁erase	-10.8114
▁senses	-10.813
▁sniff	-10.8142
▁gras	-10.8145
lder	-10.8153
▁worrying	-10.8155
▁polk	-10.8165
ikk	-10.8169
▁lick	-10.8176
▁cue	-10.8197
▁anne	-10.8215
▁cont	-10.8218
▁answers	-10.8226
▁skates	-10.8227
leigh	-10.823
▁ensu	-10.8232
▁ton	-10.8235
am	-10.8241
ue	-10.8242
che	-10.8245
▁recover	-10.8247
lus	-10.825
▁explode	-10.8263
come	-10.8265
▁talents	-10.8268
▁mam	-10.827
▁broker	-10.827
▁offend	-10.8291
▁perch	-10.8301
▁pil	-10.8303
ending	-10.831
nda	-10.8312
ration	-10.834
of	-10.8349
aria	-10.8355
ugged	-10.838
▁unh	-10.8392
iss	-10.8401
▁americans	-10.8415
mo	-10.8418
▁ga	-10.8428
ethi	-10.8439
tro	-10.844
▁player	-10.8451
gar	-10.8474
gue	-10.8482
▁companions	-10.8485
▁ev	-10.8493
▁pla	-10.8506
ast	-10.8507
▁hurts	-10.8521
con	-10.8556
arious	-10.8558
pressed	-10.8623
▁venture	-10.8645
ove	-10.8649
▁ke	-10.865
rr	-10.8655
▁talks	-10.8659
lings	-10.8663
hi	-10.8668
gging	-10.8677
light	-10.8703
ina	-10.8708
ists	-10.8708
▁marys	-10.8712
ence	-10.8715
▁pee	-10.8719
▁uncles	-10.8729
▁maxim	-10.8758
▁mora	-10.8773
act	-10.8803
cha	-10.8805
▁fin	-10.8815
utting	-10.8841
ath	-10.8843
▁sunk	-10.8845
▁hates	-10.8847
ita	-10.8867
▁jill	-10.8878
ose	-10.8887
ology	-10.8934
▁rip	-10.8937
▁uns	-10.8947
▁span	-10.8953
▁swi	-10.8976
oid	-10.8979
▁sides	-10.898
▁et	-10.8999
▁owl	-10.9009
▁bre	-10.9014
rie	-10.9028
pie	-10.9039
▁suns	-10.9045
▁cop	-10.9047
ection	-10.9058
burg	-10.9059
▁para	-10.9059
icken	-10.9073
▁seaman	-10.9097
hood	-10.9101
▁rac	-10.9106
▁gau	-10.9112
hand	-10.9125
▁demo	-10.9136
▁vers	-10.9147
ism	-10.9163
tial	-10.9167
▁cla	-10.9173
rator	-10.9193
▁mont	-10.9193
▁bumme	-10.9195
▁them	-10.9202
▁batter	-10.9208
boy	-10.9213
dog	-10.9222
▁ve	-10.923
▁this	-10.924
arch	-10.9243
guard	-10.927
▁sits	-10.9276
book	-10.9283
covered	-10.9283
free	-10.9308
pper	-10.9315
▁undo	-10.9341
▁stall	-10.9345
▁har	-10.9345
▁defi	-10.9347
▁administ	-10.9349
giving	-10.9352
worthy	-10.9353
bread	-10.936
skull	-10.9363
birth	-10.9365
protected	-10.9369
▁lea	-10.938
handed	-10.9402
ches	-10.9405
▁clap	-10.9413
year	-10.9422
▁director	-10.9423
▁vene	-10.9429
▁bump	-10.943
ach	-10.9433
owed	-10.9437
▁prairie	-10.9439
▁squirrel	-10.9439
▁incident	-10.9439
▁peasant	-10.944
▁candle	-10.9442
vision	-10.9444
▁butch	-10.9445
▁caboose	-10.9452
▁feature	-10.9452
▁reputation	-10.9452
▁experiment	-10.9452
▁patient	-10.9455
▁classic	-10.9455
maid	-10.9459
▁crocodile	-10.9462
▁mushroom	-10.9462
▁mammoth	-10.9462
▁predator	-10.9463
▁coyote	-10.9463
▁nerve	-10.9465
▁include	-10.9467
▁counselor	-10.9467
▁orca	-10.9468
▁border	-10.9469
▁region	-10.947
▁cookie	-10.9473
▁greet	-10.9479
▁eli	-10.9481
▁profession	-10.9481
▁highland	-10.9482
▁zone	-10.9485
known	-10.9487
hole	-10.9489
▁twin	-10.9491
▁whoop	-10.9495
shift	-10.9496
▁sleeps	-10.9505
▁cath	-10.9505
▁muffle	-10.9515
▁strip	-10.9519
▁charm	-10.9519
▁height	-10.9521
▁veno	-10.9526
▁remark	-10.9529
▁invest	-10.9532
▁temper	-10.9536
▁continu	-10.9537
▁judg	-10.9538
▁reject	-10.9543
▁atmospher	-10.9545
▁acknowledge	-10.9552
▁perfume	-10.9552
▁polish	-10.9553
▁defeat	-10.9554
▁disappoint	-10.9559
▁weep	-10.9561
▁dirt	-10.9561
▁euphrania	-10.9563
▁organize	-10.9564
▁punish	-10.9565
▁numb	-10.957
▁absolute	-10.9572
▁execut	-10.9572
▁deny	-10.9573
▁ag	-10.9574
▁precise	-10.9575
▁savanna	-10.9575
▁inspect	-10.9578
▁smooth	-10.9578
▁dynami	-10.958
▁axel	-10.9581
▁refresh	-10.9582
▁discreet	-10.9583
▁agatha	-10.9583
▁angrily	-10.9583
▁antarctica	-10.9583
▁anticipation	-10.9583
▁apprentice	-10.9583
▁atlantic	-10.9583
▁atlantis	-10.9583
▁available	-10.9583
▁beware	-10.9583
▁bungee	-10.9583
▁calarosa	-10.9583
▁caribbean	-10.9583
▁centuries	-10.9583
▁chigga	-10.9583
▁chiquita	-10.9583
▁clumsy	-10.9583
▁concentrating	-10.9583
▁confirm	-10.9583
▁consequence	-10.9583
▁crossroads	-10.9583
▁curfew	-10.9583
▁cymbal	-10.9583
▁cyril	-10.9583
▁daphne	-10.9583
▁dinosaur	-10.9583
▁disagree	-10.9583
▁dwarf	-10.9583
▁earthquake	-10.9583
▁elodie	-10.9583
▁enthusiasm	-10.9583
▁esmerelda	-10.9583
▁eugenia	-10.9583
▁fabric	-10.9583
▁ferocious	-10.9583
▁fifteen	-10.9583
▁frascati	-10.9583
▁furnace	-10.9583
▁giuseppe	-10.9583
▁glimpse	-10.9583
▁guarantee	-10.9583
▁highwire	-10.9583
▁imbecile	-10.9583
▁impostor	-10.9583
▁insanity	-10.9583
▁instagram	-10.9583
▁instinct	-10.9583
▁jersey	-10.9583
▁jethro	-10.9583
▁kremlin	-10.9583
▁leclaire	-10.9583
▁leschenhaut	-10.9583
▁library	-10.9583
▁masomori	-10.9583
▁morillon	-10.9583
▁ndelas	-10.9583
▁pajamas	-10.9583
▁pencil	-10.9583
▁premature	-10.9583
▁preparations	-10.9583
▁privilege	-10.9583
▁rafaelito	-10.9583
▁remington	-10.9583
▁scherzinger	-10.9583
▁sequence	-10.9583
▁sovereign	-10.9583
▁spaghetti	-10.9583
▁squirt	-10.9583
▁sultan	-10.9583
▁tragic	-10.9583
▁trembling	-10.9583
▁twombley	-10.9583
▁umbrella	-10.9583
▁volunteer	-10.9583
▁yunque	-10.9583
▁creepedeep	-10.9583
▁fifth	-10.9583
▁footsteps	-10.9583
▁formula	-10.9583
▁permanent	-10.9583
▁pigeon	-10.9583
▁unfurl	-10.9583
▁visual	-10.9583
▁yield	-10.9583
otodo	-10.9583
▁artifact	-10.9583
▁bundle	-10.9583
▁dewdrop	-10.9583
▁ibex	-10.9583
▁migration	-10.9583
▁tammo	-10.9583
▁wisdom	-10.9583
▁monument	-10.9583
▁tattoo	-10.9583
▁cullen	-10.9583
▁dawg	-10.9583
▁snorts	-10.9583
▁communication	-10.9583
▁patrol	-10.9583
▁equator	-10.9583
▁throttle	-10.9583
▁easiest	-10.9583
▁gregory	-10.9583
▁muffins	-10.9583
▁possibilities	-10.9583
▁debbie	-10.9583
▁devries	-10.9583
▁coincidence	-10.9583
▁adventurous	-10.9583
▁grappling	-10.9583
▁mutiny	-10.9583
▁nickname	-10.9583
▁beiieve	-10.9583
▁samuel	-10.9583
▁terence	-10.9583
▁ceiling	-10.9583
▁clanging	-10.9583
▁edmond	-10.9583
▁mumbles	-10.9583
▁facility	-10.9583
▁ivory	-10.9583
▁brianna	-10.9583
▁untidy	-10.9583
▁absence	-10.9583
▁kemper	-10.9583
▁knockoffs	-10.9583
▁trophy	-10.9583
▁gratitude	-10.9583
▁instance	-10.9583
▁oyster	-10.9583
▁hohle	-10.9583
▁scram	-10.9583
▁poiice	-10.9583
▁arctic	-10.9583
▁honeymoon	-10.9583
▁phew	-10.9583
▁halyard	-10.9583
▁analysis	-10.9583
▁intelligence	-10.9583
▁someplace	-10.9583
quila	-10.9583
▁anyhow	-10.9583
▁octo	-10.9583
▁flirt	-10.9583
▁alpha	-10.9583
▁cuckold	-10.9583
▁virginia	-10.9583
▁forbid	-10.9583
▁kilomet	-10.9583
▁patti	-10.9583
▁solving	-10.9583
▁dumplings	-10.9583
▁fertil	-10.9583
▁importance	-10.9583
▁bessie	-10.9583
▁nickel	-10.9583
▁powder	-10.9583
▁tixo	-10.9583
▁monsoon	-10.9583
▁patron	-10.9583
▁choir	-10.9583
▁earrings	-10.9583
▁instructor	-10.9583
▁sinai	-10.9583
▁yuan	-10.9583
▁ramir	-10.9583
▁enchantment	-10.9583
▁tardes	-10.9583
▁survivor	-10.9583
▁stomp	-10.9583
▁refill	-10.9584
▁krill	-10.9584
▁unveil	-10.9584
▁chalk	-10.9584
▁garage	-10.9584
▁gamekeeper	-10.9584
▁signature	-10.9584
▁titanium	-10.9584
▁sailboat	-10.9584
▁eggshell	-10.9584
▁nobility	-10.9584
▁david	-10.9584
▁cmere	-10.9584
▁mirage	-10.9584
▁ltaly	-10.9584
▁aargh	-10.9584
▁bartle	-10.9584
▁independent	-10.9584
▁worries	-10.9584
▁shrine	-10.9584
▁fairchild	-10.9584
▁sightseeing	-10.9584
▁attic	-10.9584
▁buddies	-10.9584
▁hughes	-10.9584
▁skinner	-10.9584
▁movin	-10.9584
▁plunge	-10.9584
▁grub	-10.9584
▁providence	-10.9584
▁angus	-10.9584
▁luau	-10.9584
▁blew	-10.9584
▁reverend	-10.9584
▁commissioner	-10.9584
▁executioner	-10.9584
▁balloon	-10.9584
▁onward	-10.9584
▁crump	-10.9584
▁assignment	-10.9585
▁pillow	-10.9585
▁passport	-10.9585
▁commitment	-10.9585
▁mural	-10.9585
▁headache	-10.9585
▁ginger	-10.9585
▁skinny	-10.9585
▁midian	-10.9585
▁whack	-10.9585
▁ciean	-10.9585
▁niche	-10.9585
▁foster	-10.9585
▁ribs	-10.9585
▁ruff	-10.9585
▁yowls	-10.9585
▁eww	-10.9586
▁ravenous	-10.9586
▁albert	-10.9586
▁forefather	-10.9586
▁onboard	-10.9586
▁unseen	-10.9586
▁hooves	-10.9586
▁slumber	-10.9586
▁snag	-10.9586
▁moonlight	-10.9586
▁online	-10.9586
▁muttering	-10.9586
▁axelle	-10.9586
▁gnarly	-10.9586
▁dibs	-10.9586
▁frown	-10.9586
▁dominion	-10.9586
▁kidnapping	-10.9586
▁ciose	-10.9586
▁donations	-10.9587
▁shovel	-10.9587
▁fatigued	-10.9587
▁beautifui	-10.9587
▁condemned	-10.9587
▁pepe	-10.9587
▁rapidly	-10.9588
▁injury	-10.9588
▁angle	-10.9588
▁copper	-10.9588
▁clever	-10.9588
▁peek	-10.9588
▁lurk	-10.9589
▁archaeologist	-10.9589
▁venus	-10.9589
▁nude	-10.9589
▁smack	-10.9589
▁purse	-10.9589
▁taiking	-10.9589
▁artistic	-10.9589
▁blake	-10.9589
▁settlement	-10.9589
▁virtu	-10.9589
▁lagoona	-10.9589
▁munch	-10.959
▁reflect	-10.959
▁tempting	-10.959
▁arguing	-10.959
▁executive	-10.959
▁conqueror	-10.959
▁replaced	-10.959
▁freeze	-10.959
▁succession	-10.959
▁oath	-10.959
▁headmaster	-10.959
▁deputy	-10.9591
▁twig	-10.9591
▁nue	-10.9591
▁yonder	-10.9591
▁trickster	-10.9591
▁depart	-10.9591
▁timber	-10.9591
▁marta	-10.9591
▁household	-10.9591
▁shaking	-10.9591
▁spider	-10.9592
▁hissing	-10.9592
▁grumpy	-10.9592
▁overall	-10.9592
▁priest	-10.9593
▁symmetrical	-10.9593
▁shack	-10.9593
▁juice	-10.9593
▁projection	-10.9593
venue	-10.9594
▁community	-10.9594
▁persuade	-10.9594
▁starboard	-10.9594
▁spotted	-10.9594
▁reply	-10.9594
▁wetter	-10.9594
▁cmon	-10.9595
▁acquired	-10.9595
▁bacon	-10.9595
▁maintain	-10.9595
▁bullies	-10.9595
▁tidy	-10.9595
▁shush	-10.9596
▁screw	-10.9596
▁fitting	-10.9596
▁adopted	-10.9596
▁dedicated	-10.9596
▁midst	-10.9596
▁hometown	-10.9596
oodoo	-10.9597
▁copy	-10.9597
▁oven	-10.9597
▁carved	-10.9597
ans	-10.9598
▁thorough	-10.9598
▁lighthouse	-10.9598
▁deadline	-10.9598
▁deceived	-10.9598
conna	-10.9598
▁spike	-10.9598
▁melody	-10.9599
▁cities	-10.9599
▁repay	-10.9599
▁regarded	-10.9599
▁residents	-10.9599
▁tsk	-10.96
▁package	-10.96
diction	-10.96
▁wond	-10.96
▁doggy	-10.96
▁armor	-10.96
▁fragments	-10.96
▁sammy	-10.9601
▁sewing	-10.9601
▁lobby	-10.9601
▁decorate	-10.9601
▁grill	-10.9602
▁hoof	-10.9602
▁bravery	-10.9602
▁scratched	-10.9602
▁sleeves	-10.9602
▁marbles	-10.9603
▁embarrassed	-10.9603
▁persians	-10.9603
▁jamaica	-10.9603
▁scissors	-10.9604
▁duke	-10.9604
▁rags	-10.9605
▁outline	-10.9605
▁bedtime	-10.9605
▁pacific	-10.9606
▁tamar	-10.9607
▁screeches	-10.9607
▁vamos	-10.9607
▁speeches	-10.9608
▁soil	-10.9608
▁creaks	-10.9608
▁greedy	-10.9608
▁reek	-10.9608
▁instantly	-10.9608
▁bumped	-10.9608
▁pit	-10.961
▁sellin	-10.961
▁makebelieve	-10.9612
▁stock	-10.9612
▁porter	-10.9613
▁yelled	-10.9613
▁rumor	-10.9613
▁entertaining	-10.9614
▁bitter	-10.9615
▁valid	-10.9615
▁organized	-10.9615
▁desperately	-10.9615
▁navy	-10.9618
▁aquarium	-10.9618
▁heap	-10.9618
▁ambitio	-10.9618
▁solo	-10.9618
▁surp	-10.9619
▁fuse	-10.9619
▁beak	-10.9619
▁bien	-10.9619
▁april	-10.9619
▁bribe	-10.9619
▁doublecross	-10.962
▁selfish	-10.962
play	-10.962
▁eddie	-10.9621
▁coins	-10.9621
down	-10.9622
▁grateful	-10.9623
▁burst	-10.9623
▁overlapping	-10.9624
▁rejecting	-10.9624
▁neu	-10.9624
▁romeo	-10.9624
▁shaft	-10.9625
▁halfway	-10.9625
▁yelps	-10.9625
sa	-10.9626
▁filet	-10.9627
ys	-10.9628
▁hooker	-10.9628
▁balanced	-10.9628
▁roman	-10.9629
▁hitting	-10.963
▁wires	-10.963
▁thrilled	-10.9631
▁masa	-10.9631
▁their	-10.9631
▁historic	-10.9632
▁wandering	-10.9632
▁yank	-10.9632
▁casa	-10.9633
▁physical	-10.9633
▁okinawan	-10.9633
▁tada	-10.9634
▁murmured	-10.9635
▁fulfilled	-10.9635
▁grapes	-10.9635
▁connected	-10.9636
▁spoons	-10.9636
▁singin	-10.9636
▁advanced	-10.9636
▁cheeks	-10.9636
▁chill	-10.9636
▁slay	-10.9636
▁heartbeat	-10.9637
▁predict	-10.9638
▁stepsisters	-10.9638
▁cigarettes	-10.9638
▁bury	-10.964
quisition	-10.964
▁wipe	-10.964
▁conquered	-10.9641
▁sought	-10.9641
elders	-10.9642
hara	-10.9644
▁claw	-10.9645
▁tweeting	-10.9646
▁inspired	-10.9646
▁drawings	-10.9647
▁doggie	-10.9647
▁factory	-10.9648
▁bully	-10.9648
▁collected	-10.965
▁neglected	-10.9651
▁waking	-10.9651
libert	-10.9653
▁lifted	-10.9653
▁dough	-10.9654
▁chin	-10.9654
▁focused	-10.9656
otic	-10.9656
▁chilling	-10.9656
▁muffler	-10.9657
▁mustard	-10.9657
▁noone	-10.9658
▁disgrace	-10.9658
▁suspected	-10.9659
▁provided	-10.9659
▁splashing	-10.966
vinci	-10.9661
▁inspire	-10.9661
▁email	-10.9662
▁blond	-10.9662
▁cryin	-10.9662
▁gloves	-10.9663
▁useless	-10.9664
renown	-10.9665
▁cove	-10.9665
▁accepted	-10.9667
▁relatives	-10.9667
▁bev	-10.9668
li	-10.9669
▁jet	-10.9669
▁strongest	-10.9671
ass	-10.9672
▁competitors	-10.9674
▁gorillas	-10.9674
▁citizens	-10.9674
▁compared	-10.9676
▁shutters	-10.9676
▁rumbling	-10.9676
▁steel	-10.9679
▁posters	-10.968
▁wipes	-10.9681
▁curls	-10.9682
than	-10.9684
▁dork	-10.9685
▁classes	-10.9686
▁studies	-10.9686
▁lashes	-10.9687
▁pistol	-10.9687
▁ali	-10.9688
▁granted	-10.9689
▁delivery	-10.969
▁standard	-10.9695
▁anton	-10.9695
met	-10.9696
▁michel	-10.9696
▁correction	-10.9699
▁borders	-10.9702
▁melod	-10.9704
▁regions	-10.9704
▁nerves	-10.9704
▁toss	-10.9704
▁logical	-10.9705
▁mild	-10.9706
▁sip	-10.9707
▁bop	-10.9708
▁separated	-10.9708
▁donna	-10.9709
▁cav	-10.9709
▁parker	-10.971
▁prosper	-10.9714
▁studying	-10.9715
▁maley	-10.9716
▁brae	-10.9716
▁oof	-10.9721
▁fedora	-10.9722
▁butcher	-10.9725
▁parisa	-10.9726
▁landers	-10.9727
▁blown	-10.973
▁math	-10.9732
▁nails	-10.9734
▁coaching	-10.9735
▁barge	-10.9735
▁currents	-10.9738
▁aiming	-10.974
▁jay	-10.974
▁welcom	-10.9742
▁scatter	-10.9745
▁ingredients	-10.9746
▁survived	-10.9747
▁pot	-10.9749
▁sniffs	-10.975
▁whispering	-10.975
▁bothering	-10.9752
▁raid	-10.9752
▁tar	-10.9755
▁flaw	-10.9756
▁bored	-10.9756
▁treating	-10.9757
late	-10.9758
▁slop	-10.976
▁roots	-10.976
▁dec	-10.9764
▁pitt	-10.9764
▁stormy	-10.9769
▁grease	-10.977
▁performed	-10.9771
ras	-10.9772
▁prayed	-10.9773
gs	-10.9775
▁models	-10.9778
▁chime	-10.9779
▁gladly	-10.9781
▁testing	-10.9781
▁forgiven	-10.9783
▁earned	-10.9787
▁ideals	-10.9787
▁believes	-10.9788
▁lifting	-10.9788
▁waits	-10.9789
▁caves	-10.979
hem	-10.9791
gie	-10.9791
▁smiled	-10.9794
▁mere	-10.9799
▁shores	-10.98
ile	-10.9807
▁banging	-10.9808
▁importantly	-10.9808
▁remaining	-10.9808
▁emotional	-10.9812
▁dizzi	-10.9813
▁realms	-10.9815
▁hack	-10.9815
▁outfits	-10.9818
▁ridge	-10.9823
ermit	-10.9827
▁zan	-10.9829
▁feelin	-10.9831
▁laughed	-10.9832
▁finale	-10.9833
bon	-10.9835
▁shant	-10.9836
▁concerns	-10.9839
▁fry	-10.9844
▁grim	-10.9846
▁hm	-10.9849
rvis	-10.985
▁tigers	-10.9852
▁compliments	-10.9853
▁lantern	-10.9854
▁legends	-10.9855
▁bugs	-10.9861
▁gardening	-10.9864
▁performing	-10.9869
▁skip	-10.987
▁stan	-10.9873
erto	-10.9873
▁wi	-10.9873
▁nun	-10.9877
▁ale	-10.9885
▁antiquit	-10.9886
▁meters	-10.9888
▁frogs	-10.9889
▁stream	-10.989
▁bandits	-10.9891
▁canoes	-10.9893
▁glob	-10.9893
▁fishes	-10.9894
andy	-10.9898
▁sen	-10.9899
▁acted	-10.9908
▁shared	-10.9909
ds	-10.9917
armed	-10.992
▁mask	-10.992
▁relaxing	-10.9921
▁mystic	-10.9924
▁tens	-10.9924
▁def	-10.9934
ms	-10.9937
▁stayin	-10.9939
▁spark	-10.9939
▁clove	-10.9943
pee	-10.9947
▁lease	-10.9947
▁hy	-10.9949
▁snive	-10.9954
▁shallow	-10.9958
▁jennys	-10.9962
▁magicians	-10.9963
▁sang	-10.997
▁teen	-10.9978
▁forks	-10.9981
▁angeles	-10.9981
▁the	-10.9984
▁auto	-10.9988
after	-10.9989
▁crimes	-10.9995
itive	-10.9996
▁decisions	-10.9999
▁tons	-11.0003
▁cooked	-11.0007
▁spar	-11.001
▁er	-11.0011
▁sins	-11.0013
▁engage	-11.0013
▁oksanochka	-11.0019
▁remo	-11.002
tha	-11.0035
▁cells	-11.0039
▁presidente	-11.004
track	-11.0041
▁mala	-11.0042
▁rap	-11.0048
▁sheer	-11.0052
▁protecting	-11.0054
▁ez	-11.0073
▁link	-11.0073
ives	-11.0088
zing	-11.0094
▁tur	-11.0101
▁mall	-11.0105
▁towers	-11.0106
▁albums	-11.0106
▁lowing	-11.0109
▁dressing	-11.0109
▁donate	-11.0111
▁rescues	-11.0113
▁whi	-11.0115
▁offering	-11.0116
▁mill	-11.0119
▁sleepy	-11.0128
▁loot	-11.0131
els	-11.0151
▁shipp	-11.0161
▁examine	-11.0162
▁fra	-11.0169
▁vocal	-11.0172
istic	-11.0186
mpire	-11.0187
iness	-11.0189
tte	-11.02
az	-11.0206
▁approve	-11.0214
▁app	-11.0217
doodle	-11.0219
▁rethink	-11.0223
▁or	-11.0231
▁travels	-11.0237
rn	-11.0242
ster	-11.0248
▁assemble	-11.0253
ki	-11.0274
▁tang	-11.0274
▁alarms	-11.0288
▁distances	-11.0326
▁sayin	-11.0328
▁und	-11.0331
▁seed	-11.0336
▁unde	-11.034
▁sells	-11.0343
rt	-11.0344
▁nail	-11.0345
▁sales	-11.0347
▁sl	-11.0358
hales	-11.0373
▁worker	-11.0374
▁core	-11.0386
▁compromis	-11.0388
ndy	-11.0407
▁arti	-11.0413
▁click	-11.043
▁infer	-11.0433
ude	-11.0436
mb	-11.0466
▁counter	-11.0491
parable	-11.0491
▁mourn	-11.0498
▁tha	-11.0503
▁sy	-11.0509
▁hebrews	-11.054
▁respectful	-11.0555
ook	-11.0572
▁wished	-11.0577
▁musical	-11.0583
ittering	-11.0584
▁cons	-11.059
▁pietr	-11.0591
▁foods	-11.0595
why	-11.0597
▁rested	-11.0601
▁buen	-11.0608
▁fay	-11.0618
▁smiles	-11.0623
ties	-11.0628
▁au	-11.0629
▁beard	-11.0629
rench	-11.0646
urity	-11.0647
▁bills	-11.0648
▁exhaust	-11.0657
ooooo	-11.0665
▁wins	-11.0669
▁covers	-11.0671
▁helps	-11.0676
ora	-11.0682
▁ripe	-11.0701
▁nicer	-11.0704
▁sticks	-11.0708
▁gay	-11.0711
▁bei	-11.0713
▁riches	-11.0715
▁closes	-11.0715
sm	-11.072
▁baskets	-11.0721
▁dam	-11.0733
tical	-11.0742
gh	-11.0759
uddle	-11.0763
▁gear	-11.0768
▁tub	-11.0781
▁explains	-11.0805
▁err	-11.0816
▁flipp	-11.0818
▁roses	-11.0838
▁ob	-11.0846
▁wool	-11.085
yard	-11.085
top	-11.0855
▁fend	-11.0855
▁pronounce	-11.0857
▁areas	-11.0858
▁noto	-11.0862
▁moons	-11.0864
ks	-11.0866
▁bearing	-11.0866
ium	-11.0867
▁select	-11.0875
▁improve	-11.0894
will	-11.0901
▁bros	-11.0902
▁greatly	-11.0905
▁insect	-11.0911
▁adi	-11.0927
ca	-11.0931
long	-11.0937
▁dine	-11.0945
ggage	-11.0951
ram	-11.0952
▁landing	-11.0955
▁tastes	-11.0956
event	-11.0956
▁rely	-11.096
lence	-11.0962
▁spi	-11.097
▁hel	-11.0971
▁trusting	-11.0972
xi	-11.0982
unny	-11.0985
▁kin	-11.1011
▁don	-11.1012
▁bel	-11.102
oose	-11.1029
em	-11.1037
▁bars	-11.1049
▁blo	-11.1052
erits	-11.1052
ishing	-11.1069
▁institut	-11.1084
iards	-11.1091
▁coil	-11.1106
ckle	-11.1109
▁sparkle	-11.111
main	-11.111
not	-11.1114
▁starve	-11.1131
▁notch	-11.1131
▁sm	-11.1145
agus	-11.1152
▁yak	-11.1166
▁explod	-11.1172
▁dem	-11.1185
put	-11.1207
▁sigh	-11.1215
ease	-11.1219
▁statu	-11.1224
▁za	-11.1225
ti	-11.1234
▁acts	-11.125
▁pun	-11.1251
▁verse	-11.1256
▁identif	-11.1271
berries	-11.1274
lor	-11.1299
roach	-11.1303
▁identifi	-11.1314
▁insects	-11.1317
ck	-11.1348
▁ris	-11.1355
▁billys	-11.137
ible	-11.1378
▁rep	-11.1388
ior	-11.1392
ulations	-11.143
pendant	-11.146
cular	-11.1479
▁wedd	-11.1496
▁heal	-11.15
ander	-11.1503
▁penn	-11.1507
ga	-11.1517
▁gonde	-11.1558
arm	-11.1567
▁frustrati	-11.1569
▁strain	-11.158
▁vandergelders	-11.1596
▁glo	-11.1615
▁prev	-11.1615
ella	-11.1627
▁trim	-11.1639
▁faithfull	-11.1647
signed	-11.1651
▁scrape	-11.1661
▁rains	-11.1665
▁blueberr	-11.1669
▁elevate	-11.1674
gling	-11.1679
lar	-11.1681
some	-11.1707
▁dos	-11.1715
aws	-11.1715
▁evenings	-11.1725
▁fac	-11.1729
▁ole	-11.1732
▁lip	-11.1739
▁studie	-11.1743
ave	-11.1744
▁enchant	-11.1745
thing	-11.1752
los	-11.1759
▁ski	-11.1765
▁sil	-11.1768
▁cor	-11.1786
▁bred	-11.1802
▁crunch	-11.1807
▁nd	-11.1815
mmer	-11.1816
icycle	-11.1829
▁terribl	-11.1852
bility	-11.1852
▁penal	-11.1918
iding	-11.1925
▁cultur	-11.1938
▁qui	-11.1942
agging	-11.1944
uck	-11.1958
▁fau	-11.1963
▁babys	-11.1965
gged	-11.1976
▁limb	-11.1977
pen	-11.1978
▁fright	-11.1984
misunderstanding	-11.1985
▁fro	-11.1986
▁lover	-11.1987
▁sous	-11.1991
▁rei	-11.1994
▁picks	-11.1996
▁stress	-11.2006
▁dip	-11.2006
▁bla	-11.2013
announced	-11.2016
▁possess	-11.2017
▁medica	-11.2034
▁cran	-11.2036
▁enthusiast	-11.2042
heard	-11.2048
▁grumbl	-11.2051
pping	-11.207
yes	-11.2086
day	-11.2086
▁ge	-11.2107
bell	-11.2128
lawdy	-11.2134
▁fears	-11.2146
tary	-11.2148
thy	-11.2156
▁om	-11.2158
▁bri	-11.2177
▁swis	-11.2184
shot	-11.2189
please	-11.2196
▁marks	-11.2196
▁ir	-11.2197
itz	-11.2236
llery	-11.2241
▁cakes	-11.2263
star	-11.2274
▁fortunate	-11.2305
▁ban	-11.2318
▁expose	-11.2322
▁fel	-11.2327
▁gala	-11.2333
▁wretch	-11.234
thank	-11.2343
ller	-11.237
▁clink	-11.2372
much	-11.2373
▁lance	-11.2374
mplaine	-11.2388
ssy	-11.2411
▁neat	-11.2415
▁fame	-11.2417
▁mace	-11.2426
▁clan	-11.2429
▁itch	-11.2431
▁rrr	-11.2443
exter	-11.2447
igi	-11.2448
master	-11.2452
▁unp	-11.2458
life	-11.2464
ator	-11.2475
tie	-11.2477
▁checks	-11.2481
ig	-11.2506
ute	-11.2513
rant	-11.2522
hall	-11.2525
dict	-11.2526
ake	-11.2528
power	-11.2528
but	-11.2537
uga	-11.2549
▁iso	-11.2551
▁tutor	-11.2555
see	-11.2559
here	-11.2561
▁pim	-11.2566
▁workshop	-11.2587
ttering	-11.2588
▁sur	-11.2596
▁eag	-11.2603
ridge	-11.2605
oni	-11.2611
▁identi	-11.263
regard	-11.263
▁fivepoints	-11.2631
fire	-11.2631
children	-11.2633
half	-11.2634
ku	-11.2634
▁chris	-11.2642
poly	-11.2645
give	-11.2653
hearted	-11.2656
▁sooth	-11.2657
view	-11.2658
▁hock	-11.266
▁dra	-11.2663
cut	-11.2663
grim	-11.2663
green	-11.2669
▁humiliat	-11.2669
case	-11.2677
ged	-11.2677
bugs	-11.2682
▁gunfight	-11.2683
box	-11.2684
▁sow	-11.269
shore	-11.269
force	-11.2692
flowing	-11.2695
justice	-11.27
mouth	-11.2702
public	-11.2703
forth	-11.2705
▁carolin	-11.2707
ust	-11.2708
ning	-11.2709
bb	-11.2712
▁trot	-11.2715
▁seize	-11.2717
icious	-11.2723
ckles	-11.2727
marks	-11.2731
breaking	-11.2735
gible	-11.2747
ja	-11.2747
gent	-11.275
lying	-11.2761
face	-11.2765
▁effect	-11.2768
der	-11.2769
olly	-11.2771
▁pyramid	-11.2772
▁resource	-11.2772
▁dares	-11.2781
▁reef	-11.2784
▁misfortune	-11.2785
▁raindrop	-11.2785
miss	-11.2785
▁suggestion	-11.2786
▁blanket	-11.2787
▁citizen	-11.279
▁orphan	-11.279
▁gorilla	-11.2791
▁competitor	-11.2791
▁bullet	-11.2791
wind	-11.2792
▁colleague	-11.2793
▁affair	-11.2794
▁coconut	-11.2795
fare	-11.2796
▁smoothie	-11.2796
▁vida	-11.2796
▁poacher	-11.2796
▁flock	-11.2797
▁degree	-11.28
▁folk	-11.2803
▁relative	-11.2803
▁spur	-11.2805
▁tourist	-11.2807
▁odd	-11.2808
stone	-11.281
▁scientist	-11.281
▁repair	-11.2811
▁shutter	-11.2817
▁serpent	-11.2817
ched	-11.2817
▁sho	-11.282
donna	-11.2821
married	-11.2823
▁scout	-11.2826
mental	-11.2826
bella	-11.2829
▁germa	-11.2832
▁poster	-11.2835
broad	-11.2837
▁entertain	-11.2841
▁snob	-11.2842
▁visitor	-11.2845
▁okinawa	-11.2846
▁embarrass	-11.2846
tery	-11.2847
lin	-11.2848
▁foundation	-11.2849
▁glove	-11.2849
▁swab	-11.285
▁calculat	-11.2854
▁highway	-11.2858
▁bonn	-11.2858
hic	-11.2863
ip	-11.2864
▁shi	-11.2864
tting	-11.2865
▁psych	-11.2866
▁snoop	-11.2868
▁retreat	-11.287
▁celebr	-11.287
▁squeak	-11.2876
▁scratch	-11.2877
▁appoint	-11.2879
▁incredibl	-11.288
▁fre	-11.288
▁foo	-11.2884
▁russia	-11.2884
▁scorch	-11.2887
▁bloom	-11.289
▁stumble	-11.2891
▁flood	-11.2891
▁dismiss	-11.2893
▁haunt	-11.2894
mit	-11.2897
▁pendrago	-11.2901
▁allergi	-11.2902
▁announc	-11.2902
▁potato	-11.2903
iddle	-11.2904
▁bubbl	-11.2907
▁chic	-11.2907
▁guilt	-11.2907
▁cement	-11.2908
▁scoot	-11.2908
▁sensation	-11.2911
ochka	-11.2911
▁conduct	-11.2913
▁runnin	-11.2913
▁driftin	-11.2914
▁sculpt	-11.2915
▁electric	-11.2915
▁establish	-11.2915
▁hydro	-11.2915
olution	-11.2915
inlaw	-11.2916
▁defense	-11.2916
▁cloak	-11.2916
▁reluctan	-11.2916
▁aborigine	-11.2916
▁accommodation	-11.2916
▁accursed	-11.2916
▁accustomed	-11.2916
▁achua	-11.2916
▁affirmative	-11.2916
▁aggressive	-11.2916
▁ammunition	-11.2916
▁arrogance	-11.2916
▁august	-11.2916
▁balcony	-11.2916
▁bathtub	-11.2916
▁bernadette	-11.2916
▁bucephalus	-11.2916
▁burritos	-11.2916
▁bygones	-11.2916
▁calcutta	-11.2916
▁carolsfeld	-11.2916
▁catacombs	-11.2916
▁chihuahua	-11.2916
▁comrades	-11.2916
▁congratulate	-11.2916
▁convenience	-11.2916
▁cuisine	-11.2916
▁cyborg	-11.2916
▁decipher	-11.2916
▁deliberate	-11.2916
▁delicacy	-11.2916
▁delicatessen	-11.2916
▁destination	-11.2916
▁detention	-11.2916
▁divorce	-11.2916
▁duplicate	-11.2916
▁eliminate	-11.2916
▁environment	-11.2916
▁exaggerate	-11.2916
▁excavation	-11.2916
▁fencing	-11.2916
▁fernando	-11.2916
▁fiftyfifty	-11.2916
▁fukuda	-11.2916
▁furniture	-11.2916
▁genuine	-11.2916
▁geronim	-11.2916
▁gertrude	-11.2916
▁gigantic	-11.2916
▁grassroots	-11.2916
▁handkerchief	-11.2916
▁hargrove	-11.2916
▁hierarchy	-11.2916
▁hieroglyph	-11.2916
▁himalaya	-11.2916
▁historians	-11.2916
▁independence	-11.2916
▁insecure	-11.2916
▁instrument	-11.2916
▁jeremiah	-11.2916
▁kabob	-11.2916
▁kansas	-11.2916
▁kazu	-11.2916
▁kelvin	-11.2916
▁lacassagne	-11.2916
▁lnjun	-11.2916
▁locomotive	-11.2916
▁maclntosh	-11.2916
▁maneuver	-11.2916
▁maquinna	-11.2916
▁microwave	-11.2916
▁millemiglia	-11.2916
▁mississippi	-11.2916
▁mongrel	-11.2916
▁motorbike	-11.2916
▁nicholas	-11.2916
▁nuttiness	-11.2916
▁participate	-11.2916
▁pavarotti	-11.2916
▁premier	-11.2916
▁preposterous	-11.2916
▁ravishing	-11.2916
▁recognise	-11.2916
▁reconsider	-11.2916
▁reinforcements	-11.2916
▁reisenweber	-11.2916
▁rejoic	-11.2916
▁rembrandt	-11.2916
▁rhyme	-11.2916
▁richieboy	-11.2916
▁roanoke	-11.2916
▁scoundrel	-11.2916
▁shalimar	-11.2916
▁skeleton	-11.2916
▁snorkel	-11.2916
▁soccer	-11.2916
▁spectacular	-11.2916
▁squirm	-11.2916
▁sunraider	-11.2916
▁supreme	-11.2916
▁supuecio	-11.2916
▁sustain	-11.2916
▁treachery	-11.2916
▁unnatural	-11.2916
▁uproot	-11.2916
▁wardrobe	-11.2916
▁webcam	-11.2916
▁wednesday	-11.2916
▁wilkinson	-11.2916
▁withdraw	-11.2916
▁yippyyippyyay	-11.2916
▁zuwa	-11.2916
▁amateur	-11.2916
▁aristocrat	-11.2916
▁encounter	-11.2916
▁gabriel	-11.2916
▁immortal	-11.2916
▁jacob	-11.2916
▁joseph	-11.2916
▁neighbour	-11.2916
▁reindeer	-11.2916
▁scepter	-11.2916
▁shroud	-11.2916
▁vehicle	-11.2916
▁cricket	-11.2916
▁devastat	-11.2916
▁harvest	-11.2916
▁heiicopter	-11.2916
▁illinois	-11.2916
▁obsession	-11.2916
▁postpone	-11.2916
▁ravage	-11.2916
▁rotelli	-11.2916
▁sayonara	-11.2916
▁tabloid	-11.2916
▁tremendous	-11.2916
▁unprecedented	-11.2916
▁zulu	-11.2916
▁activities	-11.2916
▁bouquet	-11.2916
▁brutal	-11.2916
▁contraption	-11.2916
▁einstein	-11.2916
▁hardware	-11.2916
▁helmsman	-11.2916
▁industri	-11.2916
▁lipstick	-11.2916
▁sausage	-11.2916
▁schultz	-11.2916
▁tyrant	-11.2916
▁abyss	-11.2916
▁fierce	-11.2916
▁granaries	-11.2916
▁keyholes	-11.2916
▁overseer	-11.2916
▁relief	-11.2916
▁ballerina	-11.2916
▁kidnap	-11.2916
▁rcc	-11.2916
▁caravan	-11.2916
▁herbert	-11.2916
▁stanford	-11.2916
▁authorities	-11.2916
▁bateson	-11.2916
▁snorting	-11.2916
▁terrace	-11.2916
▁windshie	-11.2916
▁bleeding	-11.2916
▁chancellor	-11.2916
▁harbor	-11.2916
▁insured	-11.2916
▁zayn	-11.2916
▁critters	-11.2916
▁fuji	-11.2916
▁lizzie	-11.2916
▁burglar	-11.2916
▁entitled	-11.2916
▁pattern	-11.2916
▁attached	-11.2916
▁boundaries	-11.2916
▁bracelet	-11.2916
▁distributed	-11.2916
▁presley	-11.2916
▁replacement	-11.2916
▁zero	-11.2916
▁memorize	-11.2916
▁tennis	-11.2916
▁sarah	-11.2916
▁aloft	-11.2916
▁costume	-11.2916
▁omelet	-11.2916
▁superstars	-11.2916
▁commend	-11.2916
▁december	-11.2916
▁perkins	-11.2916
▁snowflake	-11.2916
▁skiff	-11.2916
▁traitor	-11.2916
▁gordon	-11.2916
▁monkees	-11.2916
▁exploration	-11.2916
▁jeffrey	-11.2916
▁doubie	-11.2916
▁frisco	-11.2916
▁malaria	-11.2916
▁miguelito	-11.2916
▁invisible	-11.2916
▁taskmasters	-11.2916
▁dividing	-11.2916
▁axis	-11.2916
▁barrier	-11.2916
▁conquest	-11.2916
▁enlist	-11.2916
▁decorations	-11.2916
▁mixture	-11.2916
▁dentist	-11.2916
▁japan	-11.2916
▁blarney	-11.2916
▁contribut	-11.2916
▁baseball	-11.2916
▁blanc	-11.2916
▁initiative	-11.2916
▁inferior	-11.2916
▁outbreak	-11.2916
▁rubenstein	-11.2916
▁dimple	-11.2916
▁column	-11.2916
▁sofia	-11.2916
▁replica	-11.2916
▁unbroken	-11.2916
▁ollie	-11.2916
▁ukrain	-11.2916
▁munchkin	-11.2917
▁meatball	-11.2917
▁testament	-11.2917
▁welfare	-11.2917
▁twinkl	-11.2917
▁elmer	-11.2917
▁liquid	-11.2917
▁aloha	-11.2917
▁adele	-11.2917
▁knowitall	-11.2917
▁silvermist	-11.2917
▁cabbage	-11.2917
▁euros	-11.2917
▁forsaken	-11.2917
▁epic	-11.2917
▁saucepan	-11.2917
▁blindfold	-11.2917
▁adios	-11.2917
▁horizon	-11.2917
▁scareport	-11.2917
▁tremble	-11.2917
▁demographic	-11.2917
▁dispatch	-11.2917
▁italy	-11.2917
▁demise	-11.2917
▁pudding	-11.2917
▁activity	-11.2917
▁yikes	-11.2917
▁ashcan	-11.2917
▁spiritual	-11.2917
▁expertise	-11.2917
▁happier	-11.2917
▁ooooooh	-11.2917
▁jellyfish	-11.2917
▁clemen	-11.2917
▁devotion	-11.2917
▁swung	-11.2917
▁quote	-11.2917
▁turtle	-11.2917
▁susan	-11.2917
▁existence	-11.2917
▁abide	-11.2917
▁located	-11.2917
▁hydrophone	-11.2917
▁priority	-11.2917
▁surgery	-11.2917
▁despair	-11.2917
▁oaf	-11.2917
▁physicist	-11.2917
▁milliner	-11.2917
▁disturbance	-11.2917
▁tuttut	-11.2917
▁disposition	-11.2917
▁stench	-11.2917
▁lipsync	-11.2917
▁blacklist	-11.2918
▁procession	-11.2918
▁gently	-11.2918
▁seadoo	-11.2918
▁charade	-11.2918
▁fluid	-11.2918
▁infant	-11.2918
▁frail	-11.2918
▁network	-11.2918
▁superior	-11.2918
▁token	-11.2918
▁hannes	-11.2918
▁jaak	-11.2918
▁hurrah	-11.2918
▁viper	-11.2918
▁muzzle	-11.2918
▁popcorn	-11.2918
▁blume	-11.2918
▁reggie	-11.2918
▁youknowwh	-11.2918
▁bobble	-11.2918
▁evans	-11.2918
▁lilia	-11.2918
▁password	-11.2918
▁scoop	-11.2918
▁snuffle	-11.2918
▁cradle	-11.2919
▁leavin	-11.2919
▁impact	-11.2919
▁poker	-11.2919
▁investment	-11.2919
▁policy	-11.2919
▁inspection	-11.2919
▁marries	-11.2919
▁riff	-11.2919
▁vul	-11.2919
▁vamp	-11.292
▁temptation	-11.292
▁nursery	-11.292
▁wanderin	-11.292
conscious	-11.292
▁additional	-11.292
▁naples	-11.292
▁impression	-11.292
▁gallop	-11.292
▁reunited	-11.292
▁dynamic	-11.292
▁rebellion	-11.292
▁splendor	-11.292
▁improving	-11.292
▁organization	-11.292
▁unsuitabl	-11.292
▁production	-11.292
▁deposit	-11.292
▁taxes	-11.292
▁medium	-11.292
▁frazer	-11.292
▁graci	-11.2921
▁arranging	-11.2921
▁trek	-11.2921
▁dumpster	-11.2921
▁ooooh	-11.2921
▁massive	-11.2921
▁multiply	-11.2921
▁seafar	-11.2921
▁pomp	-11.2921
▁psst	-11.2921
▁wingding	-11.2921
▁fuzzy	-11.2921
▁grizzly	-11.2921
▁carrot	-11.2921
▁festiv	-11.2921
▁thrive	-11.2921
▁blubber	-11.2921
▁hurray	-11.2922
▁mustache	-11.2922
▁unmarried	-11.2922
▁scarf	-11.2922
▁juliet	-11.2922
▁panicked	-11.2922
▁awareness	-11.2922
▁travelled	-11.2922
▁rehearsed	-11.2922
▁swap	-11.2922
▁iowa	-11.2922
▁rubble	-11.2922
▁planner	-11.2922
▁ladder	-11.2922
▁gleam	-11.2922
▁rooftop	-11.2922
▁breach	-11.2923
▁paddlers	-11.2923
▁fridge	-11.2923
▁ashore	-11.2923
▁chaos	-11.2923
▁decent	-11.2923
▁proposal	-11.2923
▁category	-11.2924
▁whirl	-11.2924
▁ability	-11.2924
▁fresnes	-11.2924
▁whinny	-11.2924
▁hunch	-11.2924
▁mmmhmm	-11.2924
▁panther	-11.2924
▁jewelry	-11.2924
▁budget	-11.2924
▁session	-11.2924
▁confident	-11.2925
▁stranded	-11.2925
▁squeeze	-11.2925
▁travelling	-11.2925
▁accidentally	-11.2925
▁contemplati	-11.2925
▁geese	-11.2925
▁dizzy	-11.2925
▁worldwide	-11.2925
▁halves	-11.2925
▁astonishing	-11.2926
▁theory	-11.2926
▁willin	-11.2926
▁overreac	-11.2926
▁flour	-11.2926
▁hermit	-11.2926
▁bongo	-11.2926
▁conceal	-11.2927
gative	-11.2927
▁popularity	-11.2927
▁dazzle	-11.2927
▁tulip	-11.2927
▁gulp	-11.2928
▁knob	-11.2928
▁beatles	-11.2928
profile	-11.2928
▁bailed	-11.2928
▁armand	-11.2929
▁obliged	-11.2929
▁mutters	-11.2929
▁clunk	-11.2929
▁chlo	-11.293
betroth	-11.293
▁toil	-11.293
▁allergies	-11.293
▁snuffy	-11.293
▁arf	-11.293
▁churr	-11.2931
▁biologist	-11.2931
▁riddle	-11.2931
laden	-11.2931
▁secretary	-11.2931
▁titi	-11.2931
▁geez	-11.2932
▁gomez	-11.2932
▁mock	-11.2932
▁pucker	-11.2932
▁stamped	-11.2932
▁bonus	-11.2932
▁sample	-11.2932
▁motherhood	-11.2932
▁exceed	-11.2932
▁prior	-11.2933
shma	-11.2933
▁superb	-11.2933
▁conclude	-11.2933
▁grimes	-11.2933
▁download	-11.2933
▁murderous	-11.2933
▁lovin	-11.2933
▁possession	-11.2934
month	-11.2934
▁install	-11.2935
▁error	-11.2935
hickey	-11.2935
▁chump	-11.2935
▁salary	-11.2935
▁popped	-11.2936
▁studyin	-11.2936
▁mantel	-11.2936
▁yell	-11.2936
▁inches	-11.2936
▁sherry	-11.2936
▁chica	-11.2937
▁fantas	-11.2937
ordinary	-11.2937
▁forgiveness	-11.2938
▁threaten	-11.2938
▁tolerate	-11.2939
▁dragging	-11.2939
▁makin	-11.2939
▁beets	-11.2939
▁investigate	-11.294
▁moist	-11.294
▁siege	-11.294
▁gidd	-11.294
▁charter	-11.294
bois	-11.294
▁yaps	-11.2941
▁chirping	-11.2942
▁rogue	-11.2942
▁rico	-11.2943
▁distracting	-11.2943
▁ciown	-11.2944
▁exalt	-11.2944
▁cemented	-11.2944
▁brew	-11.2944
▁farther	-11.2944
▁principal	-11.2945
▁affection	-11.2945
▁brighten	-11.2945
▁kettles	-11.2945
▁capone	-11.2945
▁beginners	-11.2946
▁refine	-11.2946
▁renew	-11.2946
▁contenders	-11.2946
▁robbing	-11.2946
▁angemals	-11.2946
▁gla	-11.2946
▁countdowns	-11.2946
▁stewards	-11.2946
▁gymnastics	-11.2946
▁ranks	-11.2946
▁appointed	-11.2947
▁awakened	-11.2947
▁ahso	-11.2948
▁flashes	-11.2948
▁tresses	-11.2949
▁archaeolog	-11.2949
▁runaway	-11.2949
▁skateboarder	-11.2949
▁science	-11.295
▁tote	-11.295
▁sandals	-11.295
▁daydreams	-11.295
▁regain	-11.295
▁troublemaker	-11.2951
▁abs	-11.2951
▁painters	-11.2951
▁toxic	-11.2951
▁fraud	-11.2951
▁tickles	-11.2952
▁oxy	-11.2952
▁flutter	-11.2952
▁abilities	-11.2952
anda	-11.2953
▁takin	-11.2955
▁aokay	-11.2955
▁takeoff	-11.2955
▁juan	-11.2955
▁smashed	-11.2955
▁butterfly	-11.2955
▁invested	-11.2956
▁punished	-11.2956
▁mocking	-11.2956
▁defeated	-11.2957
▁prettie	-11.2957
▁wallet	-11.2958
▁hotter	-11.2958
▁engineering	-11.2958
▁francs	-11.2958
▁awaken	-11.2959
▁tasting	-11.2959
▁apply	-11.296
▁lizard	-11.296
▁bushel	-11.296
▁cease	-11.296
▁ceo	-11.2961
▁villagers	-11.2961
▁cutie	-11.2961
▁blank	-11.2961
▁backyard	-11.2962
▁poured	-11.2962
▁snarls	-11.2963
▁stripes	-11.2964
▁psycho	-11.2967
▁croaking	-11.2967
▁troop	-11.2968
▁rover	-11.2968
▁canceled	-11.2969
▁positively	-11.2969
▁described	-11.2969
▁witnesses	-11.2969
▁addresses	-11.2969
arted	-11.2969
▁kirk	-11.2972
▁straighten	-11.2972
▁colour	-11.2972
▁believing	-11.2973
▁preserved	-11.2973
▁melted	-11.2974
▁daisy	-11.2974
▁inc	-11.2974
▁decorating	-11.2975
▁funding	-11.2975
vapor	-11.2975
▁fivepointnine	-11.2975
▁revolution	-11.2975
▁championship	-11.2975
▁promotion	-11.2975
▁blossom	-11.2975
▁fabulous	-11.2976
▁nipper	-11.2976
▁yaah	-11.2977
▁craft	-11.2977
▁batch	-11.2977
▁tomb	-11.2978
▁endured	-11.2978
▁odor	-11.2979
▁janey	-11.2979
▁what	-11.2979
▁fog	-11.2979
▁bullying	-11.298
▁whisky	-11.2981
▁louder	-11.2982
▁collector	-11.2983
▁requirement	-11.2984
they	-11.2984
▁robbers	-11.2985
▁chewing	-11.2985
▁gorge	-11.2985
▁management	-11.2986
▁continental	-11.2987
zers	-11.2988
▁personne	-11.2989
▁wimp	-11.299
▁equally	-11.2991
▁stables	-11.2992
▁robin	-11.2993
▁distress	-11.2993
▁decreed	-11.2995
▁depths	-11.2995
▁sheiks	-11.2995
▁fiat	-11.2996
▁blunt	-11.2996
▁scam	-11.2997
▁proclaim	-11.2997
▁rehearsals	-11.2997
▁tru	-11.2997
▁cowboys	-11.2997
▁vow	-11.2997
▁amongst	-11.2998
▁demons	-11.2999
▁goldie	-11.2999
▁fireman	-11.2999
▁sneezes	-11.2999
▁fumble	-11.3001
▁drawer	-11.3001
▁inch	-11.3002
ido	-11.3003
▁wealthy	-11.3003
▁disturbed	-11.3004
▁nailed	-11.3005
▁isa	-11.3006
▁mixed	-11.3006
racket	-11.3007
ernation	-11.3007
▁cursed	-11.3008
▁chile	-11.3009
▁blended	-11.301
▁stinking	-11.3011
▁scouts	-11.3012
▁shiver	-11.3013
▁bul	-11.3013
ceman	-11.3013
▁vaulting	-11.3013
▁convention	-11.3014
▁weeds	-11.3014
▁dug	-11.3014
▁ashes	-11.3015
▁homework	-11.3016
▁farthe	-11.3016
▁successor	-11.3017
▁dang	-11.3019
▁connect	-11.3019
▁nervously	-11.3019
▁cargo	-11.3019
▁webs	-11.3021
▁recognized	-11.3021
ston	-11.3021
nterpol	-11.3022
▁venom	-11.3022
vie	-11.3022
▁plaster	-11.3023
▁sweater	-11.3025
▁kilo	-11.3025
▁emotions	-11.3026
▁crushing	-11.3026
▁batt	-11.3026
▁dots	-11.3027
▁streams	-11.303
▁discovering	-11.303
▁tease	-11.303
▁hopewell	-11.3031
▁shaken	-11.3032
▁fainted	-11.3034
▁feei	-11.3035
▁spurs	-11.3037
alry	-11.3039
▁inse	-11.304
▁twer	-11.3041
▁vidas	-11.3043
▁moat	-11.3044
▁flocks	-11.3047
▁involve	-11.3047
off	-11.3048
▁raindrops	-11.3049
▁misfortunes	-11.3049
▁blankets	-11.3049
▁disappearing	-11.3052
▁demanded	-11.3053
▁doom	-11.3053
▁wiser	-11.3054
▁sweat	-11.3057
▁spank	-11.3058
▁walkin	-11.3058
▁blasting	-11.306
▁crawl	-11.306
tribute	-11.3065
▁undress	-11.3065
▁guided	-11.3066
flame	-11.3067
▁slower	-11.3068
▁gloooo	-11.3069
▁morons	-11.307
▁inventing	-11.3073
▁burned	-11.3074
▁highways	-11.3075
▁heii	-11.3075
▁formation	-11.3076
litter	-11.3077
▁varie	-11.3077
▁hotte	-11.3078
▁hil	-11.3078
▁favored	-11.308
▁rolled	-11.308
ucci	-11.308
▁fighter	-11.308
▁cops	-11.3082
▁log	-11.3084
lsey	-11.3085
bound	-11.3086
▁taco	-11.3088
▁pip	-11.309
▁knot	-11.3091
▁depending	-11.3093
▁crowned	-11.3095
▁backs	-11.3096
▁prot	-11.3096
▁patients	-11.3097
▁heartless	-11.3097
▁fiower	-11.3098
▁handful	-11.3099
mobil	-11.3101
▁experiments	-11.3101
▁cabooses	-11.3102
▁reputations	-11.3102
▁features	-11.3102
▁playin	-11.3102
▁rig	-11.3103
vo	-11.3103
▁tested	-11.3105
▁accounting	-11.3106
▁tangle	-11.3111
▁snip	-11.3112
▁classics	-11.3114
▁stretched	-11.3117
▁meantime	-11.3119
take	-11.3124
▁hike	-11.3124
▁flatter	-11.3126
she	-11.3127
▁rumble	-11.3128
▁gathering	-11.3133
▁captiv	-11.3134
irty	-11.3135
scarred	-11.3137
▁sch	-11.3137
acas	-11.3139
▁knocked	-11.314
▁killin	-11.314
▁oak	-11.3142
▁lunches	-11.3143
▁spared	-11.3144
tzer	-11.3146
▁strangely	-11.3147
▁tele	-11.3147
▁harmed	-11.3154
▁peanuts	-11.3154
▁vultures	-11.3154
▁operate	-11.3154
▁basics	-11.3157
ham	-11.3158
▁spices	-11.316
▁kay	-11.3161
▁fudg	-11.3174
▁tracking	-11.3175
oyalty	-11.3176
oever	-11.3176
▁disarm	-11.3177
▁tropics	-11.3181
▁tricked	-11.3184
▁stinks	-11.3186
voir	-11.3188
▁archer	-11.3189
dge	-11.3192
▁encourage	-11.3192
▁onion	-11.3194
▁suggesting	-11.3196
▁leaders	-11.32
▁superconduct	-11.3202
▁blades	-11.3203
▁fir	-11.3205
▁eagles	-11.3206
▁bastards	-11.3207
▁reservations	-11.3207
▁particles	-11.3207
▁risky	-11.3209
ok	-11.321
▁bass	-11.3211
▁whims	-11.3212
▁reconstruct	-11.3213
▁roar	-11.3213
▁stored	-11.3219
▁hib	-11.322
addle	-11.322
▁exception	-11.322
▁tunes	-11.3222
▁pleasing	-11.3225
▁stunt	-11.3226
▁yelp	-11.3227
show	-11.323
▁climbing	-11.3233
▁punk	-11.324
works	-11.324
▁deserted	-11.3249
anim	-11.3249
▁soaps	-11.3251
urus	-11.3251
▁increases	-11.3258
▁scenes	-11.326
▁surre	-11.3265
airy	-11.3276
▁craze	-11.3281
▁seals	-11.3286
▁wilt	-11.3291
ories	-11.3306
▁boar	-11.3306
▁rink	-11.331
▁shepherds	-11.3312
▁vine	-11.3313
▁appearances	-11.3314
hair	-11.3317
▁entering	-11.3318
▁quarters	-11.3319
▁belch	-11.332
▁persisten	-11.3323
▁pupp	-11.3324
▁alp	-11.3326
▁but	-11.333
ques	-11.333
▁sieep	-11.333
rd	-11.333
stein	-11.3333
▁shoulders	-11.3334
▁habits	-11.3334
▁caps	-11.3338
▁squat	-11.3345
▁mil	-11.335
▁shapes	-11.335
▁skaters	-11.3351
▁jewels	-11.3358
▁boarded	-11.336
▁holdin	-11.3362
▁vessels	-11.3365
▁victims	-11.3368
▁unch	-11.3372
▁nerd	-11.3373
scription	-11.3374
▁quant	-11.3374
▁joyous	-11.3375
▁strangle	-11.3379
meter	-11.3379
luster	-11.3385
gner	-11.3385
▁glens	-11.3392
chy	-11.3395
wards	-11.3405
ators	-11.341
▁pic	-11.3413
▁bits	-11.3414
▁panels	-11.3414
▁programs	-11.3418
▁ceme	-11.3421
▁hose	-11.3428
▁sweeter	-11.3428
vation	-11.3429
▁bubbles	-11.343
pkin	-11.3438
▁scores	-11.3449
▁sham	-11.345
stand	-11.3451
▁bench	-11.3452
▁covering	-11.3452
▁iight	-11.3458
▁yards	-11.3464
scribed	-11.3465
▁tonights	-11.3466
▁recipes	-11.347
▁grandmothers	-11.3471
▁relationships	-11.3471
▁louise	-11.3473
rita	-11.3477
▁prope	-11.3485
▁stays	-11.3493
▁clarif	-11.3496
▁mold	-11.3496
▁cri	-11.3503
timer	-11.3507
▁contra	-11.351
▁forge	-11.3516
▁conn	-11.3525
▁friendships	-11.3525
ris	-11.354
▁jokes	-11.3549
▁snowing	-11.355
▁scatt	-11.3551
▁youyou	-11.3555
▁domini	-11.3557
ening	-11.3565
▁overhear	-11.3566
now	-11.3566
▁fields	-11.3574
tz	-11.3575
aft	-11.3578
▁workers	-11.3583
▁dri	-11.3596
▁soak	-11.3599
▁massag	-11.3599
▁pope	-11.36
▁swipe	-11.3604
▁grind	-11.3609
phone	-11.3609
▁sol	-11.3611
▁shifts	-11.3615
precedent	-11.3616
▁bent	-11.3618
nch	-11.3619
▁ken	-11.3626
▁qualif	-11.3631
ustic	-11.3632
▁hlro	-11.3638
ores	-11.364
▁hip	-11.3641
▁weaken	-11.3642
dance	-11.3643
▁needle	-11.3644
▁hideous	-11.3652
▁purr	-11.3653
tuary	-11.3661
▁spaces	-11.3661
▁goddam	-11.3661
cle	-11.3662
▁spears	-11.3665
ura	-11.3678
▁videos	-11.368
▁lndians	-11.3681
▁nightmares	-11.3682
▁mexic	-11.3684
▁mules	-11.3684
▁halls	-11.3686
▁jobs	-11.3692
▁rolls	-11.3694
ens	-11.3695
lot	-11.3706
van	-11.3709
▁blocks	-11.3715
▁sid	-11.3717
▁liking	-11.372
uction	-11.3724
▁beautifully	-11.3726
▁curl	-11.3727
▁films	-11.3729
▁potter	-11.3732
▁your	-11.3742
▁freshen	-11.3743
▁peters	-11.3745
ified	-11.3746
skate	-11.3748
ament	-11.375
ack	-11.3756
▁glu	-11.3757
▁brains	-11.376
▁exp	-11.3763
▁crews	-11.377
▁spa	-11.377
eams	-11.3773
▁tails	-11.3777
▁with	-11.378
▁comp	-11.3782
▁kahunas	-11.3787
▁plains	-11.3787
▁cajellas	-11.3788
▁conspir	-11.3799
▁parking	-11.3801
▁sill	-11.3803
▁shatter	-11.3814
▁nationals	-11.3817
lt	-11.3826
▁bows	-11.3831
ones	-11.3832
ically	-11.3834
▁interests	-11.3838
▁messages	-11.3841
aga	-11.3845
sy	-11.3855
▁dolls	-11.3855
▁est	-11.3863
▁clubs	-11.3866
▁gov	-11.3868
▁gim	-11.3868
audible	-11.3871
▁irons	-11.3872
▁wrappe	-11.3897
▁dreamy	-11.3897
iam	-11.39
des	-11.3902
▁weed	-11.3906
▁nau	-11.3911
▁hah	-11.3919
sed	-11.3931
▁dei	-11.394
▁gad	-11.3941
zi	-11.3944
▁pizzas	-11.3944
ebra	-11.3946
hopping	-11.3956
cat	-11.3956
inning	-11.3961
▁guil	-11.3961
iled	-11.3969
▁buff	-11.397
▁powering	-11.3974
▁attacks	-11.3982
ew	-11.3983
▁annu	-11.3983
hes	-11.3984
▁tusks	-11.3985
▁fuck	-11.3994
▁stags	-11.4005
cent	-11.4008
▁communit	-11.4011
▁gour	-11.4011
▁bounc	-11.4013
▁dan	-11.4028
▁discoverer	-11.4031
▁poet	-11.4038
ru	-11.4054
▁sin	-11.4068
▁aa	-11.4068
▁glade	-11.407
▁cl	-11.4077
histles	-11.4081
▁studi	-11.4092
brace	-11.4094
▁rightful	-11.4094
▁tik	-11.4103
▁rug	-11.4117
▁gir	-11.4123
iem	-11.4134
real	-11.4138
▁pies	-11.4148
▁exten	-11.4151
▁scu	-11.4151
eluded	-11.4166
▁landed	-11.417
mon	-11.4172
rove	-11.4177
▁reai	-11.418
waiting	-11.4183
▁spots	-11.4192
▁chairs	-11.4207
▁adventures	-11.4208
▁aco	-11.4213
▁findings	-11.4216
▁tro	-11.4219
▁stores	-11.4223
▁dent	-11.4226
▁crowded	-11.4229
cian	-11.4237
ai	-11.4239
fro	-11.4249
som	-11.426
sta	-11.4292
gal	-11.4293
▁belonging	-11.4298
▁beginnings	-11.4318
amp	-11.4335
mans	-11.4336
▁diet	-11.4339
▁cas	-11.4344
▁dre	-11.4349
roughly	-11.435
razier	-11.4367
ather	-11.4373
▁nove	-11.4376
▁sauces	-11.4386
▁lighting	-11.4414
ering	-11.4421
aaah	-11.4424
▁sting	-11.443
▁hint	-11.4444
asses	-11.4461
▁measur	-11.4465
▁advers	-11.447
▁frustrat	-11.4471
eth	-11.4485
napping	-11.4496
olit	-11.4506
▁poss	-11.4511
never	-11.4513
ger	-11.4519
xie	-11.4521
ft	-11.4523
fi	-11.4525
▁tap	-11.453
ndra	-11.4537
rang	-11.454
▁diplomat	-11.4541
ded	-11.4575
▁newly	-11.4583
▁rea	-11.4587
tan	-11.4589
▁import	-11.4608
▁expos	-11.4613
kar	-11.4617
▁spoils	-11.4627
bed	-11.463
▁sands	-11.4632
▁conc	-11.4638
ante	-11.4649
▁swoo	-11.4653
▁rubb	-11.4654
llow	-11.4674
▁companion	-11.4675
▁lyn	-11.4683
▁reg	-11.4686
▁gra	-11.4698
ick	-11.4712
dged	-11.4716
▁ext	-11.4717
▁lung	-11.4719
▁moll	-11.4719
▁regard	-11.4726
▁fist	-11.4733
▁thati	-11.4738
▁understands	-11.4744
▁keeper	-11.4745
▁nami	-11.4747
▁engineer	-11.4779
▁outrun	-11.4781
ock	-11.48
▁sunb	-11.4826
▁barre	-11.4832
lai	-11.4866
▁elses	-11.4866
lia	-11.4868
▁practic	-11.4877
position	-11.4877
stan	-11.4887
▁examin	-11.4904
▁zip	-11.4905
song	-11.4907
mation	-11.4914
▁nob	-11.4914
▁yeii	-11.4918
▁investigat	-11.4938
▁buyer	-11.4939
ady	-11.4942
most	-11.4947
▁scur	-11.4963
▁equ	-11.4974
▁sniffl	-11.4976
▁trips	-11.4981
▁sann	-11.4983
vious	-11.5001
▁cable	-11.5006
▁ph	-11.5018
▁thre	-11.5041
▁goat	-11.5047
▁needing	-11.5058
rainer	-11.5063
whoo	-11.5069
▁broo	-11.5078
▁lump	-11.5089
era	-11.5094
▁poles	-11.5111
▁locke	-11.5114
▁liver	-11.5124
▁chow	-11.514
accomplished	-11.5163
ails	-11.5164
nie	-11.5173
▁listens	-11.5173
lapped	-11.5182
low	-11.5195
nik	-11.5203
▁birdie	-11.5207
▁dim	-11.5207
nes	-11.5212
▁smash	-11.5219
▁lure	-11.5223
▁eats	-11.5235
▁flexi	-11.5244
▁cling	-11.5247
▁ame	-11.5267
▁handed	-11.5271
▁parks	-11.5274
astic	-11.5282
▁presents	-11.531
moi	-11.5316
stra	-11.5346
veal	-11.5347
done	-11.5381
▁iock	-11.5396
▁empti	-11.5398
▁mira	-11.5398
enade	-11.5406
▁ans	-11.541
▁flo	-11.5411
gage	-11.5413
▁unbe	-11.5458
▁dement	-11.5468
ographer	-11.5468
▁lam	-11.5475
▁sparkl	-11.5479
▁honors	-11.5484
▁tops	-11.5508
▁vie	-11.5512
▁exasperat	-11.553
▁origin	-11.5541
▁wire	-11.5551
▁screen	-11.5554
issy	-11.5572
▁plum	-11.5578
▁bene	-11.5582
eeling	-11.5583
▁wonders	-11.5586
▁shots	-11.5587
mic	-11.561
▁cher	-11.5616
fa	-11.5619
liding	-11.5629
▁springs	-11.5645
pho	-11.5647
ttle	-11.5666
ct	-11.5668
ened	-11.5668
▁arr	-11.5696
▁prim	-11.5696
ication	-11.5696
ford	-11.5698
▁scholars	-11.5698
▁blu	-11.5711
▁diploma	-11.5718
▁wail	-11.572
ister	-11.5722
▁provo	-11.5736
ank	-11.574
▁grower	-11.5771
▁rust	-11.578
▁nos	-11.5806
gets	-11.5819
uration	-11.5835
▁sou	-11.5839
mes	-11.584
▁seren	-11.5844
▁eleva	-11.5859
elves	-11.5871
gy	-11.5877
▁nooo	-11.5895
po	-11.5911
▁sle	-11.5917
▁kar	-11.593
za	-11.5945
▁are	-11.5945
ump	-11.5958
ancho	-11.5961
milit	-11.5962
jury	-11.5981
rying	-11.5984
▁teams	-11.5988
▁guer	-11.5992
▁cruis	-11.5994
ats	-11.6008
▁masters	-11.601
▁mega	-11.6015
▁whites	-11.6016
ggle	-11.6029
▁pig	-11.6035
nks	-11.6036
ading	-11.6037
▁testif	-11.604
rrr	-11.607
mama	-11.6073
oa	-11.6083
stine	-11.6092
read	-11.6092
▁wing	-11.6095
nut	-11.6111
▁cho	-11.6134
rest	-11.6136
▁kit	-11.614
ther	-11.6152
gi	-11.6165
cial	-11.6183
▁ab	-11.6186
▁monta	-11.6193
ffi	-11.6197
ix	-11.6228
▁remembering	-11.6231
dings	-11.6244
▁phones	-11.6245
cier	-11.6258
used	-11.6279
mmon	-11.6282
▁smuggle	-11.6283
▁atten	-11.6291
▁mash	-11.6294
▁compose	-11.6298
tent	-11.6308
thats	-11.6308
wing	-11.6313
▁gru	-11.6317
eek	-11.6325
▁communi	-11.6329
zzle	-11.634
ates	-11.6348
lusion	-11.6356
▁mini	-11.6356
▁scat	-11.639
▁centa	-11.6396
▁sanita	-11.6402
nish	-11.6448
dies	-11.6453
▁noo	-11.6464
peck	-11.6477
▁yi	-11.648
▁pace	-11.6491
▁vol	-11.6491
links	-11.6506
graphy	-11.6507
een	-11.651
▁res	-11.6514
tem	-11.6525
bi	-11.6537
ati	-11.6537
yeah	-11.6538
▁ste	-11.6542
ider	-11.6545
▁audibl	-11.6548
▁flashl	-11.6553
ously	-11.6554
ike	-11.6558
▁admir	-11.656
▁mare	-11.6561
▁prima	-11.6566
▁legit	-11.6571
gna	-11.6573
▁prov	-11.6586
print	-11.6597
▁pierce	-11.66
▁dami	-11.6604
nky	-11.6612
assured	-11.6636
▁fad	-11.6643
▁skipp	-11.6655
▁collapse	-11.6665
tle	-11.6674
▁summers	-11.6675
▁bal	-11.6691
▁thingy	-11.6694
itt	-11.6697
▁dogg	-11.6732
▁lyric	-11.6741
▁graves	-11.6744
coal	-11.6752
▁mol	-11.6761
▁glori	-11.6769
aw	-11.6773
iiy	-11.6781
lon	-11.6795
any	-11.68
alling	-11.6815
dren	-11.6827
▁officia	-11.6829
▁engrav	-11.6847
▁creativ	-11.6861
ito	-11.6865
logy	-11.6866
▁inconsisten	-11.6882
▁uph	-11.6887
▁hum	-11.6888
lipped	-11.6891
lip	-11.6905
bank	-11.6906
wo	-11.6908
▁primi	-11.691
tter	-11.6917
tches	-11.6918
▁kinder	-11.6926
▁corone	-11.6928
▁prom	-11.6929
ol	-11.6931
▁gener	-11.6934
oodle	-11.6936
cet	-11.6937
▁ink	-11.6949
▁spr	-11.6958
▁smok	-11.6968
mashed	-11.6973
ab	-11.6974
inos	-11.6981
▁languages	-11.6984
▁med	-11.6999
ull	-11.7015
▁alb	-11.7034
something	-11.704
cks	-11.7046
riving	-11.7049
▁fam	-11.7051
tubb	-11.7054
▁pest	-11.7063
▁coloss	-11.7074
▁dinners	-11.7085
snt	-11.7098
▁fran	-11.7102
▁gag	-11.7103
tling	-11.7104
▁ache	-11.7111
umber	-11.712
ub	-11.7132
gon	-11.7135
ane	-11.7139
mean	-11.7142
▁clu	-11.7152
▁miner	-11.7162
▁norma	-11.7165
▁rescu	-11.7165
ames	-11.7166
city	-11.7175
rance	-11.7185
sky	-11.7198
▁supposin	-11.7208
ffle	-11.7208
▁scr	-11.7217
▁promises	-11.722
sp	-11.7224
▁soci	-11.7225
▁woo	-11.7232
▁emotion	-11.7246
▁reads	-11.7252
arms	-11.7254
unky	-11.7258
▁babysit	-11.7263
earned	-11.7265
point	-11.7265
whats	-11.7267
▁maams	-11.7269
min	-11.7271
▁lov	-11.7273
ces	-11.7284
▁sew	-11.7289
three	-11.7294
▁camps	-11.7302
ois	-11.7317
bis	-11.7326
unch	-11.7337
door	-11.7341
▁leapin	-11.7352
girl	-11.7354
nner	-11.7358
▁spun	-11.7363
▁ei	-11.7367
bird	-11.7378
ipper	-11.7379
ively	-11.7395
▁stroll	-11.7395
pot	-11.7396
di	-11.7398
generate	-11.7403
mind	-11.7404
▁jess	-11.7405
tive	-11.742
▁refer	-11.7424
sicle	-11.7427
dia	-11.7433
mpressive	-11.7442
lock	-11.7444
▁magn	-11.7465
stay	-11.7472
lag	-11.7477
sses	-11.7484
word	-11.7488
horse	-11.7493
ony	-11.7495
▁sauc	-11.7502
▁alli	-11.7505
construction	-11.7517
set	-11.7521
lost	-11.7523
▁swingin	-11.7528
▁satisf	-11.753
▁follows	-11.7534
row	-11.7534
▁pea	-11.7541
league	-11.7546
ager	-11.7549
lla	-11.7551
▁je	-11.7553
ith	-11.7565
easy	-11.757
bucket	-11.7577
mile	-11.7579
ladies	-11.7584
▁drug	-11.7587
fly	-11.7587
▁brok	-11.7595
tion	-11.7595
different	-11.7605
elvis	-11.7605
wash	-11.7606
tenant	-11.761
determine	-11.7612
mas	-11.7614
born	-11.7615
▁civil	-11.7615
anymore	-11.762
ju	-11.7631
paul	-11.7636
talent	-11.7637
story	-11.7639
write	-11.7644
worm	-11.7648
carbon	-11.7648
mydochka	-11.7649
▁orang	-11.7649
▁etern	-11.7652
rapped	-11.7653
unless	-11.7654
ummy	-11.7656
hoots	-11.7656
respect	-11.766
joyous	-11.766
lift	-11.766
proof	-11.7661
jack	-11.7661
wide	-11.7662
walk	-11.7663
keeper	-11.7666
bang	-11.7667
aaa	-11.7668
▁challeng	-11.7668
iall	-11.767
tube	-11.767
prints	-11.767
mmhmm	-11.7671
called	-11.7674
woof	-11.7674
morons	-11.7674
▁brook	-11.7675
forgotten	-11.7677
iving	-11.7679
belief	-11.7683
pistol	-11.7684
flower	-11.7689
▁reve	-11.7689
type	-11.7692
▁beau	-11.7694
glass	-11.7694
apple	-11.7698
driver	-11.7699
yearold	-11.77
pants	-11.77
happiness	-11.7703
louis	-11.7704
squeak	-11.7704
▁blabb	-11.7704
chuck	-11.7706
michel	-11.7708
lucky	-11.771
marie	-11.7714
▁rec	-11.7715
▁depress	-11.7715
responsible	-11.7718
▁partie	-11.7724
etta	-11.7725
loyal	-11.7726
hunters	-11.773
ox	-11.7735
lookin	-11.7736
▁unf	-11.7737
▁tuck	-11.774
▁bou	-11.7744
lifting	-11.7747
▁hen	-11.7752
concept	-11.7754
ife	-11.7756
▁sup	-11.7757
▁spe	-11.776
▁owners	-11.7761
▁troubl	-11.7768
tech	-11.7771
▁crawdad	-11.7773
▁skunk	-11.7773
▁renata	-11.7773
▁cartwheel	-11.7773
▁postcard	-11.7773
▁curtain	-11.7774
▁savage	-11.7776
tun	-11.7777
▁escap	-11.7781
▁rehearsal	-11.7786
eith	-11.7786
ush	-11.7787
▁stamp	-11.7788
▁cowboy	-11.7788
▁ori	-11.7788
▁wrist	-11.7789
▁carnivore	-11.779
▁depth	-11.7791
▁cigarette	-11.7791
▁sheik	-11.7791
card	-11.7791
▁stepsister	-11.7794
▁ji	-11.7795
iga	-11.7795
▁vegetable	-11.7795
block	-11.7796
▁olympic	-11.7797
▁instruction	-11.7797
▁circumstance	-11.7798
▁cheek	-11.7801
▁arrangement	-11.7801
▁sneeze	-11.7802
▁robber	-11.7802
▁grape	-11.7803
▁spoon	-11.7803
▁credi	-11.7804
▁duckling	-11.7806
▁relation	-11.7818
ray	-11.7821
▁dick	-11.7823
cker	-11.7824
▁arena	-11.7824
▁loo	-11.7826
▁pho	-11.7826
watch	-11.7828
▁dub	-11.7833
▁braves	-11.7835
▁croak	-11.7836
roadway	-11.7838
▁anti	-11.7841
self	-11.7848
▁multi	-11.7849
▁deci	-11.7853
▁rod	-11.7855
▁princip	-11.7857
▁demon	-11.7859
▁stepp	-11.7861
▁drift	-11.7862
▁meteor	-11.7863
▁amaz	-11.7864
▁uni	-11.7865
▁chape	-11.7867
▁disgust	-11.7867
▁overwhelm	-11.7868
▁inevitabl	-11.7872
▁distract	-11.7872
▁preten	-11.7873
▁hound	-11.7873
working	-11.7873
▁chirp	-11.7874
▁univers	-11.7877
▁sieg	-11.7879
▁feminin	-11.7879
▁deceiv	-11.7879
▁employ	-11.788
▁sneakin	-11.7884
▁shou	-11.7884
▁restrict	-11.7884
▁descend	-11.7884
opher	-11.7885
▁astronom	-11.7885
▁cherish	-11.7886
▁squeal	-11.7886
▁excite	-11.7888
▁adopt	-11.7888
▁betray	-11.7889
▁swoon	-11.7889
▁snuff	-11.789
▁gaunt	-11.7892
▁confus	-11.7892
▁project	-11.7893
▁acquire	-11.7893
▁symmetri	-11.7893
▁dedicate	-11.7896
▁neces	-11.7897
▁necessar	-11.7898
zar	-11.7899
▁filth	-11.7899
▁grump	-11.79
▁lagoon	-11.7901
▁rememb	-11.7901
▁gran	-11.7902
▁relieve	-11.7902
▁ancho	-11.7903
omin	-11.7905
▁behavio	-11.7905
▁stair	-11.7908
▁accuse	-11.7908
hoohoohoo	-11.7908
▁accordi	-11.7913
▁katy	-11.7913
▁corrupt	-11.7914
▁invade	-11.7914
ddledee	-11.7914
▁process	-11.7915
▁angui	-11.7915
▁procla	-11.7915
▁eloi	-11.7915
▁radi	-11.7915
▁virgin	-11.7915
▁slick	-11.7915
▁differ	-11.7916
knockin	-11.7916
▁anthropomorphi	-11.7916
▁dillydally	-11.7916
▁expiain	-11.7916
▁incompeten	-11.7916
▁intimidat	-11.7916
▁petti	-11.7916
▁subtract	-11.7916
▁trallala	-11.7916
adequate	-11.7916
▁abednego	-11.7916
▁absorb	-11.7916
▁acacia	-11.7916
▁accurate	-11.7916
▁achieve	-11.7916
▁advertise	-11.7916
▁aeronautic	-11.7916
▁aiieyoop	-11.7916
▁allegiance	-11.7916
▁almanac	-11.7916
▁anniversary	-11.7916
▁arrabiata	-11.7916
▁arrogant	-11.7916
▁astaire	-11.7916
▁astyages	-11.7916
▁balboa	-11.7916
▁bikini	-11.7916
▁bizarre	-11.7916
▁bourdieu	-11.7916
▁brigantine	-11.7916
▁brumel	-11.7916
▁brunette	-11.7916
▁buiiding	-11.7916
▁catalina	-11.7916
▁catastroph	-11.7916
▁centimetre	-11.7916
▁changyu	-11.7916
▁chelsea	-11.7916
▁chinwag	-11.7916
▁chronicle	-11.7916
▁chupacabra	-11.7916
▁cocktail	-11.7916
▁columbia	-11.7916
▁communicating	-11.7916
▁conifers	-11.7916
▁crewneck	-11.7916
▁daffodils	-11.7916
▁dakota	-11.7916
▁diagnosis	-11.7916
▁dioxide	-11.7916
▁discretion	-11.7916
▁distinguish	-11.7916
▁dnipropetrovst	-11.7916
▁documentar	-11.7916
▁dolvidadez	-11.7916
▁dynasty	-11.7916
▁eiephant	-11.7916
▁eleanor	-11.7916
▁embedded	-11.7916
▁enigmatic	-11.7916
▁envelope	-11.7916
▁eunuch	-11.7916
▁euphrates	-11.7916
▁excerpts	-11.7916
▁exquisite	-11.7916
▁february	-11.7916
▁fintastic	-11.7916
▁flimsy	-11.7916
▁florida	-11.7916
▁frequently	-11.7916
▁furrific	-11.7916
▁furthermore	-11.7916
▁gonzorgo	-11.7916
▁hairdress	-11.7916
▁henderson	-11.7916
▁hideandseek	-11.7916
▁hippopotamus	-11.7916
▁hormones	-11.7916
▁hubcaps	-11.7916
▁huckleberry	-11.7916
▁humidity	-11.7916
▁iadder	-11.7916
▁ignoramus	-11.7916
▁illustrated	-11.7916
▁impatient	-11.7916
▁incentive	-11.7916
▁inconvenience	-11.7916
▁indecent	-11.7916
▁indigestion	-11.7916
▁industry	-11.7916
▁inhumane	-11.7916
▁invasion	-11.7916
▁january	-11.7916
▁jeopardize	-11.7916
▁joaquin	-11.7916
▁kauai	-11.7916
▁kbmu	-11.7916
▁labyrinth	-11.7916
▁lalalala	-11.7916
▁leprechaun	-11.7916
▁magellan	-11.7916
▁marooned	-11.7916
▁marshmallow	-11.7916
▁mayonnaise	-11.7916
▁memphis	-11.7916
▁metaphor	-11.7916
▁mineowners	-11.7916
▁miraculous	-11.7916
▁mischievously	-11.7916
▁misunderstood	-11.7916
▁miyajima	-11.7916
▁mnumzane	-11.7916
▁mutual	-11.7916
▁mysteries	-11.7916
▁negotiat	-11.7916
▁noogified	-11.7916
▁obiivious	-11.7916
▁obstacle	-11.7916
▁omasoosee	-11.7916
▁outnumbered	-11.7916
▁outsmarted	-11.7916
▁parliament	-11.7916
▁patootie	-11.7916
▁peculiar	-11.7916
▁peekaboo	-11.7916
▁pelican	-11.7916
▁penetrate	-11.7916
▁perimeter	-11.7916
▁permeability	-11.7916
▁piranha	-11.7916
▁precaution	-11.7916
▁privacy	-11.7916
▁qtip	-11.7916
▁radicalized	-11.7916
▁rebuilt	-11.7916
▁redundant	-11.7916
▁refrigerator	-11.7916
▁releasing	-11.7916
▁relentless	-11.7916
▁repulsive	-11.7916
▁rhinoceros	-11.7916
▁rhyming	-11.7916
▁rinaldirogers	-11.7916
▁ritual	-11.7916
▁shadrach	-11.7916
▁shanghai	-11.7916
▁shrub	-11.7916
▁sicilian	-11.7916
▁slaughter	-11.7916
▁sluggish	-11.7916
▁snuffleguppygus	-11.7916
▁souvenir	-11.7916
▁spectacle	-11.7916
▁spinnaker	-11.7916
▁sponsorships	-11.7916
▁striptease	-11.7916
▁sungiasses	-11.7916
▁suspicion	-11.7916
▁sympathy	-11.7916
▁taxpay	-11.7916
▁telenovela	-11.7916
▁theatricalit	-11.7916
▁theatrics	-11.7916
▁thoroughbred	-11.7916
▁titihoya	-11.7916
▁toadstool	-11.7916
▁trivial	-11.7916
▁unanswered	-11.7916
▁unaware	-11.7916
▁undeserving	-11.7916
▁unfamiliar	-11.7916
▁unhunh	-11.7916
▁unleash	-11.7916
▁upgrade	-11.7916
▁velocity	-11.7916
▁voltageous	-11.7916
▁walkietalkie	-11.7916
▁warthog	-11.7916
▁willoughby	-11.7916
▁wimbley	-11.7916
iulskatfivepoint	-11.7916
▁accumu	-11.7916
▁afflict	-11.7916
▁backfiring	-11.7916
▁blathering	-11.7916
▁certificate	-11.7916
▁congregat	-11.7916
▁dishwasher	-11.7916
▁eavesdrop	-11.7916
▁eureka	-11.7916
▁gelada	-11.7916
▁horror	-11.7916
▁ieader	-11.7916
▁leopard	-11.7916
▁mandarin	-11.7916
▁memorable	-11.7916
▁microphones	-11.7916
▁miiiion	-11.7916
▁ornament	-11.7916
▁outshine	-11.7916
▁pablo	-11.7916
▁pepsi	-11.7916
▁philanthrop	-11.7916
▁simpleminded	-11.7916
▁skydiving	-11.7916
▁ssshhhhh	-11.7916
▁stratospher	-11.7916
▁adolescen	-11.7916
▁adonis	-11.7916
▁bolognese	-11.7916
▁bureau	-11.7916
▁consult	-11.7916
▁daunting	-11.7916
▁elbow	-11.7916
▁forgetfulness	-11.7916
▁incense	-11.7916
▁landslide	-11.7916
▁lavish	-11.7916
▁offensive	-11.7916
▁penthouse	-11.7916
▁plumbing	-11.7916
▁spectra	-11.7916
▁teievision	-11.7916
▁temptress	-11.7916
phrase	-11.7916
▁baloney	-11.7916
▁chimney	-11.7916
▁cynic	-11.7916
▁fifty	-11.7916
▁girolle	-11.7916
▁hammock	-11.7916
▁heavier	-11.7916
▁leisure	-11.7916
▁lucifer	-11.7916
▁makebeiieve	-11.7916
▁manhattan	-11.7916
▁nauseating	-11.7916
▁secrecy	-11.7916
▁thermos	-11.7916
▁trinket	-11.7916
▁heehee	-11.7916
ordination	-11.7916
▁ambush	-11.7916
▁banjo	-11.7916
▁bennett	-11.7916
▁capsule	-11.7916
▁commence	-11.7916
▁constrict	-11.7916
▁extensive	-11.7916
▁vneck	-11.7916
▁warehouse	-11.7916
▁essence	-11.7916
▁olivi	-11.7916
▁buyaka	-11.7916
▁providential	-11.7916
▁slurp	-11.7916
▁solitude	-11.7916
▁stupor	-11.7916
▁tendency	-11.7916
▁unshelled	-11.7916
▁yolks	-11.7916
▁assuming	-11.7916
▁boxcars	-11.7916
▁leonard	-11.7916
▁reckless	-11.7916
▁vodka	-11.7916
▁whirlpool	-11.7916
▁democra	-11.7916
▁foiks	-11.7916
▁jockey	-11.7916
▁lewis	-11.7916
▁nigeria	-11.7916
▁pylon	-11.7916
▁reproduction	-11.7916
▁ireland	-11.7916
▁magistra	-11.7916
▁miaow	-11.7916
▁terrain	-11.7916
▁collision	-11.7916
▁termites	-11.7916
▁apron	-11.7916
▁brocade	-11.7916
▁slobs	-11.7916
▁specimen	-11.7916
▁vineyard	-11.7916
▁warbler	-11.7916
▁counterpart	-11.7916
▁gunslinger	-11.7916
▁chaplin	-11.7916
▁crisis	-11.7916
▁janitor	-11.7916
▁skimming	-11.7916
▁annulled	-11.7916
▁scampering	-11.7916
▁stingray	-11.7916
▁geography	-11.7916
▁method	-11.7916
▁penniless	-11.7916
▁snooty	-11.7916
▁warrior	-11.7916
▁indications	-11.7916
▁ramada	-11.7916
▁inconvenient	-11.7916
▁sabba	-11.7916
▁sermon	-11.7916
▁underwear	-11.7916
▁terrified	-11.7916
▁stowaway	-11.7916
▁incorporate	-11.7916
▁siddown	-11.7916
▁cigar	-11.7916
▁profane	-11.7916
▁jalapeno	-11.7916
▁limestone	-11.7916
▁tantaliz	-11.7916
▁tremor	-11.7916
▁vulgar	-11.7916
▁wizard	-11.7916
▁chateau	-11.7916
▁midwife	-11.7916
▁ramsey	-11.7916
▁arbor	-11.7916
▁pimville	-11.7916
ronique	-11.7916
▁stewardship	-11.7916
▁golfoot	-11.7916
▁scrapbook	-11.7916
▁swindle	-11.7916
▁japin	-11.7916
▁stitches	-11.7916
▁kenya	-11.7917
▁legacy	-11.7917
▁disqualified	-11.7917
▁gstring	-11.7917
▁intrud	-11.7917
▁oleary	-11.7917
▁bartlett	-11.7917
▁skimmer	-11.7917
▁thwart	-11.7917
▁hospitable	-11.7917
▁resemblance	-11.7917
▁waterfalls	-11.7917
cogni	-11.7917
▁imaginary	-11.7917
▁pebble	-11.7917
arithm	-11.7917
synthesis	-11.7917
▁prompt	-11.7917
▁thisaway	-11.7917
▁foretold	-11.7917
▁pussycat	-11.7917
▁infrared	-11.7917
▁supervise	-11.7917
▁theatre	-11.7917
▁violence	-11.7917
▁torment	-11.7917
▁anonymous	-11.7917
▁intermission	-11.7917
▁mermaid	-11.7917
▁automatically	-11.7917
▁competing	-11.7917
▁razor	-11.7917
▁geneste	-11.7917
▁tornado	-11.7917
▁amigo	-11.7917
▁trimming	-11.7917
▁vermin	-11.7917
▁bunkhouse	-11.7917
▁blinkin	-11.7917
▁crooner	-11.7917
▁intercom	-11.7917
▁virility	-11.7917
▁runnerup	-11.7917
▁automation	-11.7917
▁calamit	-11.7917
▁cunningham	-11.7917
▁bridle	-11.7917
▁freakier	-11.7917
▁bowwow	-11.7917
▁overthrow	-11.7917
▁rubbish	-11.7917
▁classmate	-11.7917
▁evoke	-11.7917
▁evolution	-11.7917
▁exaggerating	-11.7917
▁stumbling	-11.7917
▁chapter	-11.7917
▁cloakroom	-11.7917
▁refreshments	-11.7917
▁fraction	-11.7917
▁lounge	-11.7917
▁seedlings	-11.7917
▁obtain	-11.7917
▁excess	-11.7917
▁ninas	-11.7917
▁whatnot	-11.7917
▁sologne	-11.7917
▁awoke	-11.7917
▁thighs	-11.7917
ipulat	-11.7917
▁inmate	-11.7917
▁again	-11.7917
▁regiment	-11.7917
▁bushwhackers	-11.7917
▁skirt	-11.7917
▁pushpull	-11.7917
▁flamingos	-11.7917
▁random	-11.7917
▁consummate	-11.7917
▁ponies	-11.7917
▁reformed	-11.7917
▁reacquainted	-11.7917
▁snippet	-11.7917
▁suede	-11.7917
▁ashley	-11.7917
▁singular	-11.7917
cathed	-11.7917
▁snowstorm	-11.7917
▁lucien	-11.7917
▁stabbing	-11.7918
▁snores	-11.7918
▁karate	-11.7918
▁strateg	-11.7918
▁anguish	-11.7918
▁icecream	-11.7918
▁fresn	-11.7918
▁glide	-11.7918
▁prospect	-11.7918
▁serenade	-11.7918
▁cheval	-11.7918
▁nadine	-11.7918
▁stimulus	-11.7918
▁concede	-11.7918
▁altogether	-11.7918
▁marketplace	-11.7918
▁milord	-11.7918
tatatta	-11.7918
▁lhc	-11.7918
▁deigo	-11.7918
▁corral	-11.7918
▁kinship	-11.7918
▁coefficient	-11.7918
▁establishment	-11.7918
▁alexei	-11.7918
▁amenities	-11.7918
▁enforce	-11.7918
▁stardom	-11.7918
▁underworld	-11.7918
▁viral	-11.7918
▁minimal	-11.7918
▁miami	-11.7918
▁corset	-11.7918
▁fishermen	-11.7918
▁postponing	-11.7918
▁dripping	-11.7918
▁charrr	-11.7918
▁phenomenal	-11.7918
▁romanticists	-11.7918
▁corruption	-11.7918
▁educational	-11.7919
▁doorstep	-11.7919
▁granddad	-11.7919
▁generator	-11.7919
▁thumb	-11.7919
▁departure	-11.7919
▁majestic	-11.7919
▁granny	-11.7919
▁aurora	-11.7919
▁fiddledee	-11.7919
▁audit	-11.7919
▁resistance	-11.7919
▁plague	-11.7919
▁kidnapped	-11.7919
▁clinic	-11.7919
▁website	-11.7919
ailment	-11.7919
▁boredom	-11.7919
▁titani	-11.7919
▁toddle	-11.7919
▁pepper	-11.7919
▁pillar	-11.7919
▁emerge	-11.7919
▁invaders	-11.7919
▁wasps	-11.7919
▁eighteen	-11.7919
▁provision	-11.7919
whowho	-11.7919
fivepointeight	-11.7919
▁vicious	-11.7919
▁triang	-11.7919
▁approval	-11.7919
▁puzzle	-11.7919
▁ogre	-11.7919
▁vendor	-11.7919
▁uboat	-11.7919
▁allure	-11.7919
▁malik	-11.792
▁boundary	-11.792
▁southwest	-11.792
▁defenseless	-11.792
nerlo	-11.792
▁shrink	-11.792
▁brisk	-11.792
▁foresee	-11.792
▁davinci	-11.792
▁neglige	-11.792
▁porc	-11.792
▁overnight	-11.792
▁victori	-11.792
▁disappearance	-11.792
▁partnership	-11.792
▁rigged	-11.792
comprehend	-11.792
▁castaway	-11.792
▁hotshot	-11.792
▁effective	-11.792
▁colonial	-11.792
▁picturesque	-11.792
▁righteous	-11.792
▁earthbound	-11.792
▁circuit	-11.7921
▁slickers	-11.7921
▁permitted	-11.7921
utiful	-11.7921
▁toilet	-11.7921
▁choke	-11.7921
▁spicy	-11.7921
▁miserly	-11.7921
▁whatii	-11.7921
▁furiously	-11.7921
▁hypothetically	-11.7921
▁puppet	-11.7921
▁mortal	-11.7921
▁crabby	-11.7921
▁telegrapher	-11.7921
▁adjust	-11.7921
skil	-11.7921
▁mammal	-11.7921
▁bodyguard	-11.7921
▁employee	-11.7921
▁resort	-11.7921
▁andrew	-11.7922
rutab	-11.7922
▁pancakes	-11.7922
▁basis	-11.7922
▁acceptance	-11.7922
▁fleas	-11.7922
▁lattes	-11.7922
▁caution	-11.7922
▁courtship	-11.7922
▁cobra	-11.7922
▁bosun	-11.7922
▁ent	-11.7922
▁ciick	-11.7922
▁shilling	-11.7922
▁inlaws	-11.7922
▁chimp	-11.7922
▁plunder	-11.7922
▁wonderfui	-11.7922
▁medicare	-11.7922
▁sock	-11.7922
▁stifl	-11.7922
▁figuration	-11.7922
▁hysteria	-11.7922
▁description	-11.7923
▁sworn	-11.7923
▁flaming	-11.7923
▁sevenfoot	-11.7923
▁empha	-11.7923
▁predictable	-11.7923
▁parole	-11.7923
▁rooster	-11.7923
▁pokey	-11.7923
▁bunk	-11.7923
▁depot	-11.7923
▁poisonous	-11.7923
▁deedee	-11.7923
significant	-11.7923
▁repel	-11.7923
▁farewe	-11.7923
▁scheming	-11.7923
▁devious	-11.7924
▁salud	-11.7924
▁overheated	-11.7924
▁hadyh	-11.7924
▁upside	-11.7924
▁handlebar	-11.7924
▁housekeeper	-11.7924
▁defile	-11.7924
▁cranky	-11.7925
▁surreal	-11.7925
▁finesse	-11.7925
▁desolat	-11.7925
▁tapestr	-11.7925
▁befriend	-11.7925
▁obedient	-11.7925
▁mimic	-11.7925
▁clubhouse	-11.7925
▁temporary	-11.7925
▁philosophy	-11.7925
▁salute	-11.7925
▁undead	-11.7925
spel	-11.7925
▁entrust	-11.7926
▁armour	-11.7926
▁dikes	-11.7926
▁refund	-11.7926
▁trustworthy	-11.7926
▁abundant	-11.7926
▁brakey	-11.7926
▁theater	-11.7926
▁concretion	-11.7926
▁gondoi	-11.7926
▁poppy	-11.7926
▁flapping	-11.7926
▁referred	-11.7926
▁abdication	-11.7926
▁whoohoohoo	-11.7926
▁dense	-11.7926
▁stoked	-11.7927
▁preference	-11.7927
▁jammies	-11.7927
▁sensational	-11.7927
▁consistent	-11.7927
▁rapping	-11.7927
▁outcome	-11.7927
▁petty	-11.7927
▁canary	-11.7927
▁dreaded	-11.7927
izzy	-11.7927
▁illuminated	-11.7927
▁jours	-11.7927
▁storybook	-11.7927
▁senores	-11.7927
▁sleepyhead	-11.7927
▁surge	-11.7928
▁exploit	-11.7928
▁specialties	-11.7928
▁imprisoned	-11.7928
▁testicle	-11.7928
▁bracket	-11.7928
▁inherited	-11.7928
▁paved	-11.7928
▁chatting	-11.7928
▁depriv	-11.7929
▁hothead	-11.7929
▁ratio	-11.7929
▁slain	-11.7929
▁peso	-11.7929
▁sobs	-11.7929
▁iost	-11.793
ecca	-11.793
▁woodland	-11.793
▁pouch	-11.793
▁canned	-11.793
▁waterproof	-11.793
▁confine	-11.793
▁voil	-11.793
▁victimized	-11.793
▁nopety	-11.7931
▁intervene	-11.7931
▁fiddle	-11.7931
▁carib	-11.7931
▁turnip	-11.7931
ignon	-11.7931
▁readiness	-11.7931
▁ohhoho	-11.7931
▁weakness	-11.7932
▁rapid	-11.7932
▁kiddin	-11.7932
▁translated	-11.7932
▁surf	-11.7932
▁rainwater	-11.7932
▁consist	-11.7932
▁mortar	-11.7933
▁voila	-11.7933
▁tension	-11.7933
▁goofy	-11.7933
▁glisten	-11.7933
▁croc	-11.7933
ss	-11.7933
▁framed	-11.7933
▁info	-11.7933
▁inclined	-11.7934
▁intriguing	-11.7934
▁daydreaming	-11.7934
▁trespassing	-11.7934
▁dropping	-11.7934
▁stakeout	-11.7934
▁tonya	-11.7934
▁darc	-11.7935
▁neater	-11.7935
▁evident	-11.7935
▁bestsell	-11.7935
▁falter	-11.7935
▁diary	-11.7936
▁wonthy	-11.7936
▁electro	-11.7936
▁phar	-11.7936
▁honourable	-11.7936
▁policemen	-11.7936
rimstone	-11.7937
▁diviners	-11.7937
▁jew	-11.7937
▁acceptable	-11.7937
▁squawking	-11.7937
▁deaf	-11.7937
uffing	-11.7938
▁shiest	-11.7938
▁circula	-11.7938
▁insight	-11.7938
▁circulate	-11.7938
titude	-11.7938
▁grumbled	-11.7939
▁snuggl	-11.7939
▁associated	-11.7939
▁squabbl	-11.794
▁severe	-11.794
▁published	-11.794
▁oksanawhat	-11.794
▁lefthanded	-11.794
lulu	-11.794
▁disposed	-11.794
▁lordship	-11.7941
▁showdown	-11.7941
▁jinx	-11.7941
lusive	-11.7941
▁ruies	-11.7941
tobe	-11.7942
cinema	-11.7944
reliable	-11.7944
▁expand	-11.7944
▁dyed	-11.7944
▁glue	-11.7944
▁braid	-11.7944
▁shameless	-11.7944
▁sheet	-11.7944
▁bun	-11.7944
▁ballroom	-11.7944
▁gauntlet	-11.7944
▁volcano	-11.7945
▁puttin	-11.7945
▁intense	-11.7945
▁soaked	-11.7945
▁tubo	-11.7945
▁snarl	-11.7945
▁curry	-11.7945
▁nappy	-11.7946
▁stead	-11.7947
▁willie	-11.7947
▁descended	-11.7948
▁betrayed	-11.7948
▁restricted	-11.7948
▁lazi	-11.7948
▁cherished	-11.7948
▁marc	-11.7949
held	-11.7949
bidden	-11.7949
ool	-11.7949
▁carefree	-11.795
▁hardship	-11.795
▁flattery	-11.795
▁protest	-11.795
▁photographer	-11.7951
▁troll	-11.7951
ckety	-11.7951
▁battery	-11.7951
▁apprehend	-11.7952
▁danielle	-11.7952
pert	-11.7952
▁deput	-11.7952
▁smuggling	-11.7953
▁worid	-11.7953
▁menace	-11.7953
▁babylonian	-11.7953
▁onthe	-11.7954
▁rodeo	-11.7954
▁shameful	-11.7954
▁repent	-11.7954
▁horan	-11.7954
▁posse	-11.7954
▁vaccin	-11.7955
▁bluff	-11.7955
▁theor	-11.7955
quished	-11.7955
▁salva	-11.7955
▁income	-11.7956
▁jade	-11.7957
▁lamb	-11.7957
▁crawled	-11.7957
rium	-11.7957
▁parishes	-11.7958
▁transmit	-11.7958
▁kayak	-11.7958
▁forc	-11.7958
plex	-11.7958
pending	-11.7959
delphi	-11.7959
▁nick	-11.796
▁steve	-11.796
▁euphranian	-11.796
▁inevitable	-11.7961
taur	-11.7961
▁taxi	-11.7961
▁uploade	-11.7962
▁bluffing	-11.7962
▁countess	-11.7963
▁supple	-11.7963
▁swooning	-11.7964
▁chinaman	-11.7964
millionaire	-11.7964
▁stumbled	-11.7964
▁realise	-11.7965
▁humanness	-11.7965
▁overwhelming	-11.7965
urre	-11.7965
▁doubtful	-11.7965
uated	-11.7965
▁aspects	-11.7966
▁linds	-11.7966
igna	-11.7966
otten	-11.7966
▁moth	-11.7967
▁parson	-11.7967
▁blisters	-11.7967
▁mapped	-11.7967
▁cretins	-11.7968
▁lunatic	-11.7968
incomp	-11.7968
▁stutters	-11.7968
▁snares	-11.7969
ijuana	-11.7969
▁sparkly	-11.7969
▁references	-11.7969
▁ankles	-11.7969
▁violins	-11.7969
▁bolts	-11.797
entina	-11.797
▁alto	-11.797
▁stirrups	-11.797
▁stragglers	-11.797
▁entertained	-11.797
▁quo	-11.797
▁admiring	-11.797
▁lifeguard	-11.797
▁frontiers	-11.7971
▁buzzes	-11.7971
▁improvements	-11.7971
▁rhinos	-11.7971
▁worldmedia	-11.7971
▁explorers	-11.7971
▁leagues	-11.7971
▁exclaims	-11.7971
▁flooding	-11.7972
▁hasty	-11.7972
▁adore	-11.7972
▁malone	-11.7974
▁setup	-11.7974
▁meteorolog	-11.7974
▁directory	-11.7974
▁poign	-11.7975
▁sacr	-11.7975
▁drifting	-11.7975
▁airtime	-11.7975
▁gunman	-11.7976
▁rash	-11.7977
▁blooming	-11.7977
▁jose	-11.7978
▁mainlanders	-11.7978
▁thrash	-11.7979
▁musicians	-11.7979
▁treetop	-11.7979
▁mort	-11.798
▁cockles	-11.7981
▁obi	-11.7983
▁winged	-11.7985
▁shutting	-11.7985
▁perfumed	-11.7986
▁climbin	-11.7986
▁acknowledged	-11.7986
▁dippe	-11.7986
▁sophisticat	-11.7987
▁lyin	-11.7987
▁intens	-11.7988
▁spreadin	-11.799
▁lightningy	-11.799
▁bandage	-11.7991
▁frost	-11.7991
▁walkway	-11.7991
▁upward	-11.7991
▁polished	-11.7992
▁heed	-11.7992
▁retreating	-11.7992
imaginable	-11.7993
▁chilly	-11.7993
acao	-11.7993
▁sputter	-11.7993
izer	-11.7994
▁fug	-11.7994
▁lovelies	-11.7994
▁vega	-11.7995
aaaah	-11.7995
▁yuk	-11.7995
▁snooping	-11.7996
▁yorkie	-11.7996
bet	-11.7998
▁aching	-11.7999
▁snout	-11.8
▁busted	-11.8
vocat	-11.8
▁waah	-11.8001
▁cam	-11.8001
fect	-11.8001
▁charmed	-11.8002
▁naught	-11.8004
▁eloped	-11.8004
mission	-11.8004
▁tony	-11.8007
rovin	-11.8007
▁reins	-11.8007
▁appropriate	-11.8007
▁howled	-11.8008
flavor	-11.8009
▁decor	-11.8009
▁saad	-11.8011
▁beaten	-11.8011
▁manufacturer	-11.8011
▁stealin	-11.8011
▁strand	-11.8012
▁fearless	-11.8012
▁manual	-11.8012
▁bio	-11.8013
▁ringin	-11.8014
▁kong	-11.8014
▁faii	-11.8014
run	-11.8014
▁lln	-11.8017
▁helm	-11.8017
▁proto	-11.8018
▁occup	-11.8018
calculation	-11.8018
▁stern	-11.8019
▁darned	-11.8019
▁structure	-11.802
▁footers	-11.802
▁pointless	-11.802
▁bueno	-11.8021
▁protector	-11.8021
▁whereve	-11.8021
▁snubb	-11.8021
▁poem	-11.8022
▁denying	-11.8025
▁dete	-11.8028
▁development	-11.8028
▁which	-11.803
▁jackal	-11.8031
▁shove	-11.8033
release	-11.8036
▁static	-11.8037
▁knave	-11.8037
▁merci	-11.8039
▁everyday	-11.8041
▁arenas	-11.8043
▁imagining	-11.8045
▁infectio	-11.8045
▁chaps	-11.8045
▁bakes	-11.8046
▁employed	-11.8047
ubs	-11.8047
▁awe	-11.8047
emma	-11.8047
▁wrists	-11.8048
▁rump	-11.8048
▁ascend	-11.8048
▁sophi	-11.8049
▁confessed	-11.805
▁oats	-11.8051
▁stamps	-11.8052
▁glis	-11.8053
▁forged	-11.8053
▁poisoned	-11.8053
etical	-11.8056
▁frame	-11.8057
▁boyard	-11.8058
▁plainly	-11.8058
▁pullin	-11.8059
▁relations	-11.806
▁stable	-11.806
▁savages	-11.806
▁curtains	-11.8061
▁renatas	-11.8061
▁skunks	-11.8061
▁postcards	-11.8061
▁cartwheels	-11.8061
▁crawdads	-11.8061
aiul	-11.8062
▁brute	-11.8062
▁skit	-11.8063
▁loren	-11.8064
▁apologized	-11.8066
▁carnivores	-11.8066
▁ehh	-11.8066
▁dire	-11.8068
mony	-11.8068
▁chunk	-11.8069
▁interacting	-11.807
▁cheated	-11.807
▁desired	-11.8072
uch	-11.8072
▁occ	-11.8073
nizing	-11.8073
▁wonderin	-11.8074
▁foul	-11.8075
▁reminder	-11.8075
▁imaginati	-11.8075
▁sche	-11.8077
▁released	-11.8079
▁controlling	-11.8079
▁shaker	-11.808
▁tric	-11.8081
▁unite	-11.8085
▁jackals	-11.8085
▁traced	-11.8085
▁fanc	-11.8085
▁spade	-11.8085
▁restrain	-11.8085
▁vocali	-11.8085
▁sca	-11.8085
▁combed	-11.8086
isis	-11.8086
▁pledge	-11.8087
▁emanati	-11.8087
rott	-11.8089
▁ancestr	-11.8091
rad	-11.8092
▁fastest	-11.8093
▁buyin	-11.8093
▁leper	-11.8094
▁pooped	-11.8095
▁dul	-11.8095
▁arriv	-11.8096
▁shocking	-11.8097
▁digest	-11.8097
▁parish	-11.8098
▁gardener	-11.8098
▁boxers	-11.8098
▁traded	-11.8099
▁posted	-11.8099
▁switcher	-11.8099
▁crawls	-11.81
▁fal	-11.81
▁likin	-11.81
▁cured	-11.8102
▁ridin	-11.8102
▁meddl	-11.8103
▁included	-11.8105
▁wreak	-11.8107
▁willingly	-11.8108
pan	-11.8109
randa	-11.8109
▁bran	-11.8112
▁recit	-11.8112
▁yum	-11.8117
fficient	-11.8118
zy	-11.8118
▁eric	-11.8121
enstein	-11.8122
burger	-11.8122
▁footst	-11.8122
▁contented	-11.8124
▁poisoning	-11.8126
▁gravit	-11.8126
▁paskat	-11.8127
▁bil	-11.8127
wi	-11.8129
▁occurre	-11.813
▁hobb	-11.813
lou	-11.813
▁oppos	-11.8133
▁requested	-11.8135
▁tighter	-11.8137
ploy	-11.8137
▁reefs	-11.8138
▁marryin	-11.8139
tra	-11.8142
lling	-11.8143
▁inhale	-11.8144
▁dumping	-11.8144
▁tech	-11.8144
kina	-11.8145
▁ticking	-11.8146
ubbed	-11.8147
▁scheduled	-11.8147
hal	-11.815
▁tab	-11.815
▁roasting	-11.8153
▁resources	-11.8155
▁serpents	-11.8155
▁pyramids	-11.8155
▁effects	-11.8157
▁twittering	-11.8158
ello	-11.8161
▁suggestions	-11.8161
▁bullets	-11.8161
▁kicking	-11.8168
▁frolic	-11.8168
esday	-11.8169
▁remarkabl	-11.8169
▁strat	-11.8171
▁booty	-11.8172
edible	-11.8173
▁trumpeted	-11.8173
▁rally	-11.8176
▁iri	-11.8178
▁terri	-11.8178
▁rais	-11.8179
▁slit	-11.8182
▁closeup	-11.8184
essa	-11.8185
▁boulder	-11.8186
▁caim	-11.8187
▁greeting	-11.8187
yup	-11.8188
▁mydochka	-11.8191
▁strengthen	-11.8192
▁cre	-11.8196
▁mino	-11.8196
▁crus	-11.8199
▁wort	-11.82
▁senor	-11.8201
▁carbon	-11.8201
▁twins	-11.8202
▁wager	-11.8205
▁foundations	-11.8211
▁baptis	-11.8212
▁softer	-11.8212
▁waitir	-11.8213
▁filter	-11.8217
▁geo	-11.8219
▁sato	-11.8222
▁horrifi	-11.8222
mar	-11.8225
▁targeting	-11.8227
ettes	-11.8228
▁rivet	-11.8232
▁watchable	-11.8232
cycle	-11.8233
dain	-11.8234
▁tarry	-11.8237
▁worm	-11.8238
▁hottie	-11.8238
▁fum	-11.8239
▁hick	-11.8239
▁animai	-11.8244
▁candles	-11.8244
▁blocked	-11.8248
▁zones	-11.8248
andie	-11.8248
▁peasants	-11.8249
▁incidents	-11.825
▁squirrels	-11.825
▁prairies	-11.8251
▁toe	-11.8251
liver	-11.8252
▁goof	-11.8252
▁deeper	-11.8254
▁directors	-11.8255
opi	-11.8258
mote	-11.8264
ime	-11.8265
sburg	-11.8268
ppling	-11.8268
vant	-11.8268
▁aft	-11.8271
▁hoots	-11.8273
▁bashfu	-11.8274
▁figurati	-11.8275
▁cornered	-11.8277
very	-11.8278
lbert	-11.8282
▁glowing	-11.8284
ember	-11.8285
▁oooo	-11.8289
▁iow	-11.8296
▁maxs	-11.83
▁ignor	-11.8308
▁gunfighter	-11.8309
▁includes	-11.831
ility	-11.8311
▁rot	-11.8311
lves	-11.8311
▁runner	-11.8312
▁hacks	-11.8312
uvre	-11.8313
▁ooooo	-11.8313
▁sorrows	-11.8316
dez	-11.8317
▁pointer	-11.8318
▁pelt	-11.8319
▁stow	-11.8321
▁indicate	-11.8324
aye	-11.8326
sail	-11.8327
▁now	-11.833
▁mcc	-11.833
▁doves	-11.8333
lutz	-11.8336
sione	-11.8339
▁liars	-11.8342
▁layin	-11.8343
▁slaps	-11.8344
▁hyenas	-11.8344
▁waltz	-11.8345
▁bedrooms	-11.8345
▁rosa	-11.8348
▁cookies	-11.8349
mu	-11.8354
mies	-11.8356
▁coven	-11.8357
akes	-11.8358
▁packed	-11.8359
▁aur	-11.836
wer	-11.8366
fed	-11.8372
▁simp	-11.8375
▁tether	-11.8383
▁lame	-11.8384
▁jingl	-11.8386
▁thrower	-11.8394
▁ascen	-11.8394
▁after	-11.8395
▁measures	-11.8397
▁drawing	-11.8399
odium	-11.8404
▁friendlie	-11.8404
▁hom	-11.8407
▁eatin	-11.8408
▁fivepoint	-11.8408
▁blink	-11.8413
▁filming	-11.8415
▁longing	-11.8417
iffe	-11.8421
▁cob	-11.8421
nning	-11.8428
si	-11.8436
▁milking	-11.8438
fair	-11.8438
▁killings	-11.8439
ven	-11.844
▁sled	-11.8441
▁sav	-11.8441
▁difficulty	-11.8445
▁trey	-11.8446
ushl	-11.8447
▁limits	-11.845
heads	-11.8454
▁itit	-11.846
▁administer	-11.8467
nflict	-11.8473
ug	-11.8474
▁teem	-11.8475
cence	-11.8475
▁necessit	-11.8477
▁darker	-11.8485
▁yow	-11.8485
▁stare	-11.8487
▁tho	-11.8488
▁dow	-11.8488
▁pages	-11.8491
▁flowing	-11.8493
▁resemble	-11.8498
▁hood	-11.8499
▁fille	-11.85
claims	-11.85
▁sass	-11.8508
uffer	-11.8509
▁merc	-11.851
ooww	-11.8514
▁plates	-11.8515
▁qualit	-11.8518
swan	-11.852
▁fences	-11.8524
eem	-11.8524
▁talon	-11.8528
iful	-11.8528
▁flu	-11.8531
▁washing	-11.8532
▁pressing	-11.8533
▁denounc	-11.8536
▁apartments	-11.854
▁askin	-11.8545
unning	-11.8546
▁delays	-11.8549
▁acce	-11.8553
▁reassign	-11.8554
▁tips	-11.8555
▁girlfriends	-11.8556
▁crave	-11.8557
▁proc	-11.8557
ssed	-11.8559
▁carve	-11.8559
tyl	-11.8569
▁jaw	-11.857
▁tenant	-11.857
▁reader	-11.8579
▁mechanical	-11.8581
▁touches	-11.8586
▁crazies	-11.8592
▁williams	-11.8594
vol	-11.8595
▁broch	-11.8596
▁prophets	-11.8596
▁annas	-11.8599
ribb	-11.8604
▁treade	-11.8613
▁graz	-11.8615
kel	-11.8617
ibbling	-11.8619
▁luc	-11.8623
▁techniques	-11.8632
▁pooch	-11.8633
▁computers	-11.8633
▁docks	-11.8634
▁farming	-11.8638
▁nor	-11.8639
icity	-11.8653
▁gull	-11.8654
▁fascinat	-11.8665
▁trampl	-11.8667
▁crop	-11.867
▁shreddi	-11.8675
▁organis	-11.8676
bu	-11.8677
opsy	-11.8686
▁forg	-11.8691
▁bess	-11.8695
▁legi	-11.8702
integra	-11.8703
▁any	-11.8704
ran	-11.8705
ushe	-11.872
▁snacks	-11.8723
▁sigurds	-11.8726
sters	-11.8726
▁cooler	-11.8727
teen	-11.8727
▁wax	-11.8728
▁nef	-11.8728
▁connections	-11.8728
▁churn	-11.8729
▁midmorni	-11.8733
wee	-11.8733
▁motors	-11.8734
▁about	-11.8736
▁budd	-11.8752
ppy	-11.8753
▁specialist	-11.8755
aitre	-11.8755
▁thump	-11.8755
▁amuse	-11.8756
fo	-11.8768
warm	-11.877
rolls	-11.8781
▁yyy	-11.8785
▁kah	-11.8798
anch	-11.8798
▁devot	-11.8802
port	-11.8808
▁strawberr	-11.8811
▁casey	-11.8811
▁singed	-11.8813
▁sour	-11.882
▁hurricanes	-11.8823
▁egyptians	-11.8823
▁cure	-11.8828
▁swa	-11.8828
▁settie	-11.883
tonne	-11.8831
ppe	-11.8837
▁heel	-11.8839
▁bucket	-11.8843
rmo	-11.8845
alah	-11.8847
tty	-11.8847
den	-11.8852
▁tra	-11.8852
▁spits	-11.8853
▁barg	-11.8853
▁skated	-11.8868
ammer	-11.8869
▁educate	-11.8872
▁jeanne	-11.8872
▁alexandr	-11.8875
houses	-11.8894
ls	-11.89
▁dragg	-11.8906
ads	-11.8914
▁feat	-11.892
▁hig	-11.8922
ik	-11.8926
bog	-11.8931
inch	-11.8933
nautic	-11.8941
▁pine	-11.8941
▁coin	-11.8942
▁misplace	-11.8943
▁aren	-11.8945
cock	-11.8948
▁payment	-11.8951
▁suspende	-11.8955
▁hind	-11.8962
▁sic	-11.8964
▁lang	-11.8971
ucking	-11.8976
rish	-11.8986
▁earning	-11.8989
adly	-11.899
▁outs	-11.8994
umpkin	-11.8997
▁demote	-11.9
eologists	-11.9009
▁bah	-11.9014
▁earns	-11.9027
sol	-11.9033
▁jackets	-11.904
▁uran	-11.9045
glade	-11.905
▁col	-11.9053
nto	-11.9054
▁scares	-11.9058
consistency	-11.9066
▁exists	-11.9073
elp	-11.9077
bited	-11.9082
▁footing	-11.9084
▁clipp	-11.9087
oras	-11.9087
▁roadway	-11.9088
▁alba	-11.9089
membert	-11.9093
▁weirdo	-11.9097
▁evenin	-11.9099
▁nipp	-11.9101
arden	-11.9113
▁soar	-11.9115
▁honesty	-11.912
hill	-11.9122
▁applie	-11.9125
▁aki	-11.913
▁violati	-11.9132
▁ci	-11.9134
size	-11.9139
▁pamper	-11.9148
▁speeding	-11.9151
▁leas	-11.9154
▁pumps	-11.9161
osity	-11.9162
▁wit	-11.9163
▁burp	-11.9163
issed	-11.9169
▁likeness	-11.9169
▁traps	-11.9172
▁qu	-11.9177
▁ducks	-11.9182
▁blaze	-11.9187
med	-11.9187
tell	-11.9193
ative	-11.9193
talking	-11.9195
▁prostitut	-11.9197
▁nomina	-11.9198
▁concerts	-11.9204
▁transports	-11.9207
gus	-11.9211
▁rung	-11.9216
igment	-11.922
tit	-11.922
▁numbered	-11.9234
ished	-11.924
▁lyrical	-11.9244
manship	-11.9255
▁retain	-11.926
▁resign	-11.9272
▁funi	-11.9275
▁battles	-11.9285
▁levels	-11.9285
▁oka	-11.9301
▁signals	-11.9305
tivated	-11.9307
▁henr	-11.9311
▁zig	-11.9321
sfor	-11.9321
lation	-11.9321
▁mariach	-11.9329
▁collaps	-11.9341
▁waaa	-11.9344
▁elect	-11.9351
still	-11.9354
tched	-11.9356
cry	-11.9359
▁nab	-11.936
▁bake	-11.9361
versati	-11.9363
▁toot	-11.9363
▁recycl	-11.9367
hach	-11.9371
▁waked	-11.9385
▁ripp	-11.9388
ils	-11.9388
▁gradua	-11.94
▁chap	-11.9401
itation	-11.9409
▁pose	-11.9409
▁slipp	-11.941
▁crashe	-11.9412
witch	-11.9414
▁dail	-11.9418
▁alco	-11.9427
▁vanishe	-11.9438
▁pierc	-11.9439
▁producer	-11.9444
▁ups	-11.9447
auche	-11.9452
aboli	-11.9454
ased	-11.9458
▁plays	-11.9461
tage	-11.9469
fried	-11.9472
▁mari	-11.9475
▁meanin	-11.9477
▁swords	-11.9479
raced	-11.9489
eum	-11.949
▁contacts	-11.949
▁actions	-11.9498
endar	-11.9498
▁stor	-11.9498
arable	-11.95
weed	-11.95
und	-11.9511
bel	-11.9513
die	-11.9517
▁pri	-11.9521
eisu	-11.9526
▁enthusiastic	-11.9527
▁meditat	-11.9529
▁thi	-11.9531
▁scann	-11.9534
▁kus	-11.9534
▁une	-11.9534
▁counted	-11.9535
▁pooper	-11.9546
▁chand	-11.9549
▁chip	-11.9551
tender	-11.9554
▁blam	-11.9569
ocal	-11.9578
topped	-11.9579
▁sla	-11.9579
▁ferr	-11.9581
▁inha	-11.9594
▁publish	-11.9601
talked	-11.9601
▁genet	-11.9606
▁pastor	-11.9614
▁asp	-11.9622
apping	-11.9636
▁mower	-11.9638
▁cater	-11.9638
▁misunderstand	-11.9646
▁hurting	-11.9652
▁camped	-11.9661
erior	-11.9665
ture	-11.9672
itching	-11.9674
▁styl	-11.9684
ickering	-11.9685
hat	-11.9685
lina	-11.9685
▁doe	-11.9689
ggling	-11.9689
aise	-11.9694
▁hors	-11.9698
▁commute	-11.9705
▁calli	-11.9714
town	-11.9719
phers	-11.972
illion	-11.9728
▁ping	-11.9729
▁puk	-11.9729
mist	-11.9731
ittle	-11.9737
▁desperat	-11.9754
▁cu	-11.9756
▁beam	-11.9756
ingle	-11.9774
▁aspir	-11.9783
▁sling	-11.9784
▁hoffmans	-11.9784
iney	-11.9784
uffy	-11.9792
last	-11.9796
▁ec	-11.9804
ner	-11.9812
▁smuggl	-11.9814
▁defin	-11.9819
▁beth	-11.9819
isco	-11.982
▁emb	-11.9824
ilized	-11.9826
sabel	-11.9842
▁brow	-11.9848
sick	-11.9852
ingly	-11.9859
hehehey	-11.9871
▁throwing	-11.9875
▁clo	-11.9883
▁shir	-11.9884
▁sharks	-11.9888
▁crane	-11.9889
og	-11.9895
cted	-11.9895
▁critici	-11.9906
▁valleys	-11.9915
▁undertake	-11.9918
aying	-11.9923
▁creat	-11.9927
▁tapa	-11.9929
ugging	-11.9931
eaving	-11.9935
▁qua	-11.9938
▁devils	-11.9948
▁sizes	-11.9949
leaf	-11.9953
▁raining	-11.9956
▁watches	-11.997
▁dreamer	-11.9974
▁prophesi	-11.9979
tigate	-11.9983
▁overtu	-11.9984
ledge	-11.9997
▁dodg	-12.0002
▁behead	-12.0005
quet	-12.0012
▁terrib	-12.0016
▁hackls	-12.0018
ature	-12.002
ell	-12.0022
crunching	-12.0035
storms	-12.0055
▁ordering	-12.0056
portions	-12.0057
▁ret	-12.0064
utwit	-12.0065
pick	-12.0078
leg	-12.0089
ode	-12.0101
▁dar	-12.0103
▁hehe	-12.0105
▁slid	-12.0112
neath	-12.0113
▁repr	-12.0114
rrrr	-12.0115
lies	-12.0116
▁bod	-12.0118
▁couch	-12.0121
nourished	-12.0122
▁din	-12.0143
▁lin	-12.0146
▁distinct	-12.0146
▁scrap	-12.0149
▁bikes	-12.0163
▁bellow	-12.0175
▁trend	-12.0175
ylo	-12.0188
▁cork	-12.019
▁poul	-12.0194
▁slash	-12.0213
▁prizes	-12.0213
▁norther	-12.0219
▁minor	-12.0222
ht	-12.0224
ums	-12.0246
rill	-12.0248
▁oi	-12.0261
code	-12.0272
ear	-12.0297
▁shops	-12.0301
▁infu	-12.0301
▁boned	-12.0303
oya	-12.0311
▁swede	-12.0314
▁roy	-12.0318
bby	-12.0325
▁las	-12.0336
▁molecul	-12.0337
▁sights	-12.0344
▁rott	-12.0353
▁hor	-12.0355
maura	-12.037
▁competitions	-12.0383
▁yuck	-12.0397
asp	-12.0401
▁imper	-12.0404
ere	-12.0406
ramp	-12.0413
▁smu	-12.0419
zed	-12.0431
▁quarr	-12.0438
get	-12.0454
oes	-12.0456
str	-12.0456
▁bottoms	-12.0456
cho	-12.046
▁jab	-12.047
▁comput	-12.0471
▁manor	-12.0473
sit	-12.0475
▁deli	-12.0483
▁hous	-12.0525
till	-12.0528
▁isolate	-12.0539
oku	-12.0543
▁rel	-12.0544
▁inf	-12.055
▁bottles	-12.0563
▁jabbe	-12.0576
▁dreamt	-12.0576
▁drumm	-12.0578
▁parche	-12.06
▁swabbi	-12.0612
▁tipto	-12.0636
amination	-12.0655
econ	-12.0668
▁fasten	-12.0681
▁aide	-12.0684
roy	-12.0719
▁hav	-12.0725
bara	-12.0727
▁guessed	-12.0741
▁scholar	-12.0746
▁babbl	-12.0746
▁cru	-12.0752
▁pub	-12.0757
▁controll	-12.0768
▁johns	-12.0768
▁loc	-12.077
uffle	-12.0794
▁singer	-12.0801
▁makers	-12.0805
lled	-12.0806
choo	-12.0808
ealed	-12.0822
vous	-12.0825
tioning	-12.0833
zzi	-12.0852
▁futures	-12.0853
▁and	-12.0865
▁graphic	-12.0898
▁sap	-12.0907
vati	-12.0927
person	-12.0931
▁respects	-12.098
▁cra	-12.0981
▁lucki	-12.0982
gone	-12.0985
hut	-12.0985
▁loca	-12.0986
▁glor	-12.0999
▁screens	-12.1001
▁slee	-12.1012
ex	-12.1017
taking	-12.102
▁bert	-12.1037
▁vamo	-12.1051
▁archi	-12.1058
▁sprinkl	-12.1059
yama	-12.1073
▁pac	-12.1075
sk	-12.1075
▁surve	-12.108
rank	-12.1083
asked	-12.1086
shl	-12.1087
mmed	-12.1098
tile	-12.11
▁mir	-12.1104
▁semi	-12.1111
uits	-12.1119
egal	-12.112
▁roa	-12.1123
▁visits	-12.1126
rvation	-12.1161
gate	-12.117
emn	-12.1172
nsel	-12.1177
▁subd	-12.1179
▁grabs	-12.1186
kit	-12.1191
▁ser	-12.1209
▁iand	-12.1209
▁majesti	-12.1218
lecross	-12.1231
▁chippe	-12.1233
ered	-12.1233
▁mais	-12.1237
▁relate	-12.1248
▁fins	-12.1253
aring	-12.1264
▁roads	-12.1268
▁ami	-12.1271
ached	-12.1274
▁empt	-12.1277
▁when	-12.1303
▁bail	-12.1304
▁luci	-12.1304
itory	-12.1307
▁lc	-12.1314
sca	-12.1322
elf	-12.1328
▁tral	-12.1341
▁fare	-12.1347
▁mankin	-12.1364
▁poo	-12.1366
rty	-12.1371
pace	-12.1374
▁assist	-12.1393
aut	-12.1408
▁padd	-12.142
▁steep	-12.1422
mor	-12.1426
▁stru	-12.1441
rot	-12.1445
shape	-12.1448
▁progr	-12.1456
han	-12.1468
▁coll	-12.1473
▁gy	-12.1509
▁custod	-12.1523
cia	-12.1524
▁ama	-12.1524
▁grandm	-12.1528
▁devo	-12.1549
▁pleasures	-12.1552
▁bugg	-12.1558
ocked	-12.1565
▁humiliati	-12.1572
▁flexib	-12.1585
▁smashe	-12.1586
▁transp	-12.1587
▁helper	-12.159
ouldve	-12.1597
high	-12.1598
sier	-12.1616
▁congr	-12.1616
cul	-12.1628
ryan	-12.163
▁eth	-12.1633
▁woke	-12.1649
ndergar	-12.1649
▁tellin	-12.1663
oche	-12.1667
▁hears	-12.1677
ender	-12.17
▁oow	-12.1717
▁my	-12.1724
▁performer	-12.1725
▁mes	-12.1726
▁anth	-12.1741
▁cong	-12.1743
kin	-12.1756
▁garc	-12.1756
ky	-12.1765
▁sly	-12.1782
ehehey	-12.1785
▁bragg	-12.1789
aves	-12.1795
itate	-12.1799
▁aqu	-12.1804
ters	-12.1813
othing	-12.1828
iah	-12.1833
▁tast	-12.1837
ggy	-12.1852
olstered	-12.1854
aggie	-12.1856
▁shal	-12.1858
▁prime	-12.1866
▁uncover	-12.1867
ctic	-12.1868
▁crumb	-12.1877
izz	-12.188
▁mates	-12.1881
▁beret	-12.1887
rge	-12.1888
▁hea	-12.1903
tine	-12.1916
▁construct	-12.1932
boarding	-12.1934
eat	-12.1938
▁emmas	-12.1941
affi	-12.1952
etting	-12.1979
▁imitat	-12.1981
sana	-12.1985
▁confide	-12.1994
too	-12.1998
▁faker	-12.2012
▁lsa	-12.2033
▁viv	-12.2059
▁garl	-12.2061
shes	-12.2076
emote	-12.2077
▁knit	-12.2083
▁dil	-12.2091
isk	-12.211
vena	-12.2125
yeeyeeyee	-12.2135
yeeyeeyeeyee	-12.2135
▁scot	-12.2155
nne	-12.2161
shi	-12.2165
▁es	-12.2171
▁assistan	-12.2175
▁patri	-12.2181
dding	-12.2183
▁committ	-12.2184
▁subtitl	-12.2194
cla	-12.2208
ipping	-12.2213
hing	-12.2217
▁emp	-12.2252
ag	-12.2252
▁kee	-12.2259
hy	-12.2264
▁regrett	-12.2265
iiow	-12.2289
▁iuck	-12.2293
dar	-12.2295
dly	-12.2295
uh	-12.2296
mere	-12.2298
▁boost	-12.2301
cession	-12.2312
▁rata	-12.2336
▁stalk	-12.2338
▁hangs	-12.2355
ucky	-12.2395
tis	-12.2404
▁sleeper	-12.241
▁favorabl	-12.2411
▁overc	-12.243
imize	-12.2435
▁iake	-12.2444
▁heli	-12.2445
cast	-12.2473
▁hurri	-12.2479
eisha	-12.2486
▁skippe	-12.2488
andbag	-12.2504
dra	-12.2505
▁eras	-12.2511
zard	-12.2511
▁looki	-12.2513
▁puck	-12.2517
▁ap	-12.2536
tier	-12.254
rania	-12.2544
ara	-12.2544
▁sprinkle	-12.2552
▁destruct	-12.2578
wwhat	-12.2583
▁stingi	-12.2587
▁equi	-12.2636
liz	-12.2638
ek	-12.2658
ttie	-12.2674
hearing	-12.2694
▁preca	-12.2709
ff	-12.271
▁verti	-12.2718
moving	-12.2722
sing	-12.2724
▁chan	-12.2735
ows	-12.2752
▁tun	-12.2756
ark	-12.2772
▁modif	-12.2774
▁epi	-12.2778
▁sto	-12.2782
tortion	-12.2786
▁hides	-12.2794
lls	-12.2799
laying	-12.2807
tya	-12.2816
▁redo	-12.2817
▁caress	-12.2827
nows	-12.2835
ants	-12.2836
ught	-12.2845
▁bai	-12.2859
rise	-12.2877
stic	-12.289
anned	-12.2899
▁stu	-12.2903
▁bray	-12.2903
omb	-12.2903
dian	-12.2946
yyou	-12.2958
▁aio	-12.2969
mmy	-12.2971
▁pubi	-12.2975
wine	-12.2992
osh	-12.2994
▁entr	-12.2995
ye	-12.3039
▁litter	-12.3051
▁oksanayour	-12.3061
oor	-12.3062
▁mmmm	-12.3072
int	-12.3079
ano	-12.3089
issi	-12.3096
▁ages	-12.3104
amps	-12.3109
▁bulldo	-12.3112
▁truths	-12.3115
▁funk	-12.312
▁immun	-12.3135
saver	-12.3137
▁conclu	-12.3138
▁categor	-12.3142
▁esp	-12.3143
▁corr	-12.3152
▁fla	-12.3155
▁diab	-12.3187
ken	-12.3219
▁reserve	-12.3234
stat	-12.3243
izzi	-12.3243
bbing	-12.3246
▁modifi	-12.3256
orm	-12.3272
lis	-12.3272
▁shoots	-12.3273
tow	-12.3285
gura	-12.329
ec	-12.3292
▁corporat	-12.3292
lut	-12.3298
▁retro	-12.33
▁preci	-12.3306
▁fol	-12.3314
▁iive	-12.3316
▁humiliate	-12.3317
usion	-12.3318
aster	-12.3327
hip	-12.3328
ported	-12.3337
▁categori	-12.3354
ody	-12.3359
wit	-12.3361
▁swabb	-12.3361
▁formalit	-12.3365
sports	-12.3369
▁recess	-12.3373
▁puke	-12.3374
ouch	-12.3374
▁eva	-12.3393
▁tor	-12.3394
▁as	-12.3434
rig	-12.3442
mps	-12.3443
▁devi	-12.3451
rm	-12.3453
▁writer	-12.3456
ea	-12.3463
suits	-12.347
▁reli	-12.3475
avo	-12.3493
cape	-12.3534
rks	-12.3539
inda	-12.3543
▁lit	-12.3549
bear	-12.3553
▁slu	-12.3557
hol	-12.3561
▁wilde	-12.3564
rify	-12.3575
atter	-12.3583
▁ske	-12.3588
yl	-12.359
bling	-12.3607
nent	-12.361
kol	-12.3612
ak	-12.3616
▁cinc	-12.3616
lish	-12.3618
▁constitut	-12.3657
▁sme	-12.3657
oudly	-12.3673
▁sti	-12.3676
▁minu	-12.3679
ani	-12.3685
▁savi	-12.3686
ami	-12.3693
▁asi	-12.3707
▁elevat	-12.3717
ition	-12.373
kie	-12.3741
aning	-12.375
alo	-12.3761
▁mane	-12.3768
▁tomatoe	-12.3773
▁veni	-12.3781
▁uphol	-12.3789
▁vil	-12.3802
▁isolat	-12.3805
▁anyways	-12.3819
ound	-12.3826
headed	-12.3836
oving	-12.3837
ailing	-12.3847
hold	-12.3877
ask	-12.3887
▁carr	-12.3903
▁nam	-12.3904
tres	-12.3921
▁overd	-12.3934
▁slippe	-12.395
▁prophesie	-12.3956
▁mea	-12.3958
oot	-12.3965
pl	-12.3969
halt	-12.3976
ulation	-12.4012
name	-12.4016
dable	-12.402
▁peac	-12.403
bro	-12.4044
oned	-12.4044
▁vau	-12.4052
tre	-12.4052
▁runt	-12.4065
▁barb	-12.407
▁moder	-12.4071
▁introduc	-12.4075
▁meanwhi	-12.408
▁guin	-12.4095
▁lifes	-12.41
▁unrea	-12.4105
rick	-12.4107
▁portion	-12.4109
▁replac	-12.4143
▁vanb	-12.4144
lit	-12.4151
core	-12.4153
nice	-12.4164
etic	-12.4174
▁echoe	-12.4178
umb	-12.4181
▁upt	-12.4182
uv	-12.4196
flies	-12.4201
▁fil	-12.422
tinction	-12.4224
inary	-12.424
tri	-12.4263
gies	-12.4264
▁nood	-12.4269
eared	-12.4284
deserved	-12.4292
fluff	-12.4297
tures	-12.4321
▁mamas	-12.4345
▁fer	-12.4351
artial	-12.4362
alves	-12.4363
▁flick	-12.4368
▁ramb	-12.4378
think	-12.4385
aid	-12.4398
wn	-12.4416
▁fashionabl	-12.4426
nn	-12.4446
bering	-12.4454
table	-12.4454
▁roaste	-12.4461
vid	-12.4462
▁dune	-12.4463
dor	-12.4465
ava	-12.4482
uni	-12.4498
▁ful	-12.4506
▁justa	-12.451
▁guine	-12.4516
ania	-12.4531
ress	-12.4539
▁underl	-12.4542
oral	-12.4543
rtial	-12.4556
▁unc	-12.456
quin	-12.4576
loads	-12.459
ros	-12.4591
ounce	-12.4606
▁contr	-12.4622
▁minim	-12.4625
uous	-12.4627
▁appi	-12.463
ckling	-12.4644
▁eco	-12.4646
rath	-12.4648
imate	-12.4661
▁assembl	-12.4679
▁braggi	-12.4683
urvey	-12.4688
eration	-12.4706
hin	-12.4711
▁gia	-12.4716
una	-12.4729
ordan	-12.4732
uz	-12.4734
eeping	-12.4741
uda	-12.4742
▁okoksan	-12.4758
ermo	-12.4758
▁kidd	-12.4761
mm	-12.4764
cation	-12.4775
▁evolv	-12.4791
▁some	-12.4797
▁pursu	-12.482
▁eeh	-12.4831
uri	-12.4839
cuse	-12.485
date	-12.4861
▁harr	-12.4868
brows	-12.4902
▁charg	-12.4908
▁rele	-12.4915
apped	-12.4951
lf	-12.4951
▁handl	-12.4952
servation	-12.4956
funnie	-12.4959
▁spittin	-12.496
▁pushe	-12.4962
▁approv	-12.4964
lighted	-12.4972
nary	-12.4976
kee	-12.4979
iease	-12.4986
itched	-12.5005
▁winnin	-12.5007
▁wille	-12.5028
ssi	-12.5028
▁gui	-12.5032
cious	-12.5037
▁expo	-12.5037
ouse	-12.5044
toe	-12.5049
pa	-12.5059
ean	-12.5059
ail	-12.5068
graduate	-12.508
▁versa	-12.5083
▁toms	-12.5084
ugg	-12.509
dame	-12.5095
raff	-12.5112
▁undertak	-12.5154
▁inclin	-12.5167
look	-12.5186
win	-12.5196
sque	-12.5202
▁rag	-12.5211
golia	-12.5211
trollin	-12.5214
awdy	-12.5223
ev	-12.5226
▁shei	-12.523
▁sim	-12.5244
arty	-12.5248
kissed	-12.5262
harley	-12.5264
▁ins	-12.5276
pac	-12.5289
ob	-12.5294
sman	-12.5303
ends	-12.5314
stered	-12.532
▁tickli	-12.5327
▁nurse	-12.5335
night	-12.5345
rk	-12.5348
ready	-12.5349
▁learns	-12.535
▁tumble	-12.5352
tired	-12.5356
erato	-12.537
▁deni	-12.5372
▁stat	-12.5384
▁ratt	-12.5385
arc	-12.5386
▁preceden	-12.5408
▁ther	-12.5415
ore	-12.5427
make	-12.543
▁af	-12.544
love	-12.5455
deration	-12.5482
amura	-12.5485
▁conspira	-12.5491
▁compe	-12.5495
ologists	-12.5497
▁sel	-12.5504
beats	-12.5507
▁bowle	-12.5509
witched	-12.5516
▁commut	-12.5524
▁web	-12.5525
ference	-12.5529
urable	-12.5544
▁div	-12.5549
▁hlr	-12.5552
▁opt	-12.5556
lam	-12.5556
▁propos	-12.556
godzllla	-12.5569
▁engag	-12.5584
ui	-12.5595
▁margar	-12.5609
▁mend	-12.5624
ooding	-12.5632
little	-12.5654
▁mobi	-12.5654
ctua	-12.5672
zz	-12.5679
▁frie	-12.5712
ues	-12.5712
stylis	-12.5725
▁ov	-12.5736
▁gri	-12.5759
▁rein	-12.5771
booked	-12.5773
nh	-12.5793
ggie	-12.5796
▁obsc	-12.5798
ache	-12.5805
▁argu	-12.5806
eased	-12.5819
▁hamp	-12.5822
erial	-12.5835
dry	-12.5841
grams	-12.5849
▁disp	-12.5852
▁sacrific	-12.5864
▁fli	-12.587
▁hal	-12.5884
▁paddl	-12.591
abel	-12.5919
ista	-12.5919
oy	-12.592
▁mati	-12.5922
▁gen	-12.5932
theres	-12.5937
▁hmmm	-12.5937
arded	-12.5942
▁disco	-12.5952
owe	-12.5958
opped	-12.5959
▁bather	-12.596
iii	-12.5961
nic	-12.5964
▁mos	-12.5973
must	-12.5977
bod	-12.598
tall	-12.5984
▁ave	-12.5988
uit	-12.5998
▁fisher	-12.6003
arrow	-12.6004
parking	-12.6016
▁assign	-12.6021
fer	-12.6029
▁popp	-12.6053
ory	-12.6066
▁unsatisf	-12.6071
nge	-12.6075
pole	-12.609
ado	-12.6117
j	-12.6142
▁rests	-12.6149
▁tou	-12.6165
▁wel	-12.617
eating	-12.6181
great	-12.6202
shirts	-12.6224
aron	-12.623
idding	-12.6236
ific	-12.624
▁fabu	-12.6246
▁hur	-12.6246
ams	-12.6252
acks	-12.6262
▁injur	-12.6277
two	-12.6279
esome	-12.6288
▁vert	-12.6293
eal	-12.6299
▁canter	-12.631
▁bru	-12.6328
▁shred	-12.6338
▁colli	-12.6355
▁jilli	-12.6363
▁persist	-12.6368
signing	-12.6399
ould	-12.64
▁que	-12.6401
▁codd	-12.6404
▁vive	-12.6405
▁friendli	-12.6405
▁purv	-12.6421
ler	-12.6426
father	-12.6427
▁fund	-12.6428
nds	-12.6442
▁mechanic	-12.6448
male	-12.6451
ree	-12.6453
▁fisherm	-12.6455
▁wink	-12.646
▁craz	-12.6466
anterns	-12.6466
▁rem	-12.6474
bes	-12.6475
▁rides	-12.6485
▁tramp	-12.6486
theyre	-12.6487
▁var	-12.6491
lers	-12.6504
ocks	-12.6508
uckles	-12.6512
ride	-12.6513
ved	-12.6514
anything	-12.6516
lk	-12.6525
▁devoure	-12.6532
▁antiqu	-12.6534
▁prog	-12.6539
elon	-12.654
▁skippin	-12.6545
▁mexi	-12.655
▁resembl	-12.6563
big	-12.6566
better	-12.6568
thetic	-12.6572
▁hans	-12.6574
▁ati	-12.6575
▁cuck	-12.6582
▁conce	-12.6583
acy	-12.6585
world	-12.6586
▁twit	-12.6598
ption	-12.6603
believe	-12.6604
oc	-12.6617
boat	-12.6618
▁whol	-12.6624
▁bis	-12.6627
▁av	-12.6629
▁ram	-12.6629
▁unwi	-12.6642
▁dist	-12.6662
▁jok	-12.6663
pets	-12.6673
under	-12.6675
▁polo	-12.6697
▁commit	-12.6697
leave	-12.6698
▁genera	-12.6721
isplaced	-12.6722
mat	-12.6739
care	-12.6747
igh	-12.6749
▁clar	-12.675
course	-12.6753
py	-12.6755
▁upst	-12.6757
rrow	-12.6762
ury	-12.6762
▁suffic	-12.6769
nia	-12.6773
ored	-12.6777
cracker	-12.6778
fl	-12.6784
ivity	-12.679
erci	-12.6795
dition	-12.6799
mer	-12.6805
▁moos	-12.6805
istant	-12.6812
lio	-12.6818
lizz	-12.6822
▁whim	-12.6854
▁slo	-12.6865
dock	-12.6873
nation	-12.6881
▁igno	-12.6887
velt	-12.6888
ures	-12.6889
member	-12.6892
posed	-12.6904
▁compromisin	-12.6911
▁whoow	-12.6925
▁dental	-12.6929
rioch	-12.6934
pu	-12.6935
▁nay	-12.6939
▁indicat	-12.6939
▁wart	-12.6947
▁nois	-12.6952
erable	-12.6958
bec	-12.6961
▁boos	-12.697
ique	-12.6971
▁ampl	-12.6974
▁sadde	-12.6977
without	-12.698
▁pigm	-12.6982
load	-12.6995
▁kno	-12.7001
▁pad	-12.7005
ddling	-12.7009
▁magnifi	-12.7015
pla	-12.702
ball	-12.7021
▁provid	-12.7024
found	-12.7034
wave	-12.7039
▁interfer	-12.7042
isnt	-12.7044
▁settlin	-12.7047
attered	-12.7053
▁plug	-12.7061
stitute	-12.7086
young	-12.709
▁adaptat	-12.7091
ngs	-12.7108
▁plea	-12.7115
bons	-12.712
▁apo	-12.7128
next	-12.7128
mont	-12.713
speaking	-12.7136
▁vest	-12.714
lated	-12.7143
inis	-12.7156
when	-12.7157
▁flippin	-12.7169
▁addition	-12.7174
▁syn	-12.7183
▁ahhhh	-12.7184
amin	-12.7201
▁anima	-12.7207
▁elude	-12.7211
cade	-12.7211
anger	-12.7214
tomorrow	-12.7217
extinct	-12.7219
ext	-12.7239
whos	-12.7239
everybody	-12.7241
ides	-12.7243
ene	-12.7246
left	-12.7249
ote	-12.7251
▁bapti	-12.7251
▁rubbin	-12.7259
lasting	-12.7267
job	-12.7269
▁oppo	-12.7278
▁treasur	-12.7286
uded	-12.729
▁inspir	-12.7294
tically	-12.7302
park	-12.7304
roll	-12.7308
▁ditche	-12.731
haw	-12.731
oulders	-12.7314
oon	-12.7315
otted	-12.7319
heart	-12.7319
where	-12.7329
close	-12.733
▁typ	-12.7333
ost	-12.7337
▁aaa	-12.7341
almost	-12.7347
cher	-12.7354
anyone	-12.7356
child	-12.7357
▁ben	-12.7359
break	-12.7361
▁tel	-12.7362
afraid	-12.7367
forever	-12.7369
five	-12.7374
▁saves	-12.7378
ond	-12.7379
▁involv	-12.7379
▁connecti	-12.7384
zier	-12.7391
▁occur	-12.7391
▁craw	-12.7399
fast	-12.74
goodbye	-12.7403
school	-12.7409
▁scen	-12.7409
camp	-12.7415
carts	-12.7421
njured	-12.7421
laughs	-12.7422
▁whinn	-12.7425
▁redistri	-12.7425
speak	-12.7429
hires	-12.7429
feet	-12.7443
important	-12.7446
gold	-12.7446
baby	-12.7447
making	-12.7451
trip	-12.7452
charge	-12.7452
illian	-12.7457
▁lntern	-12.7457
essed	-12.746
mitted	-12.7462
nstein	-12.7462
moses	-12.7462
nprofessional	-12.7466
white	-12.7471
clear	-12.7472
wife	-12.7476
seems	-12.7478
forget	-12.7481
nker	-12.7483
blood	-12.7485
bat	-12.7486
buddy	-12.7487
▁certif	-12.7489
whale	-12.7491
question	-12.7496
▁boun	-12.7497
▁exha	-12.7498
storm	-12.7507
▁tossin	-12.7509
cris	-12.7511
truth	-12.7512
lashes	-12.7518
practical	-12.7522
▁bas	-12.7523
▁amb	-12.7524
▁cruci	-12.7529
pumpkin	-12.7532
country	-12.7534
lead	-12.7537
ips	-12.7551
heroes	-12.7553
▁underst	-12.7555
▁sparkin	-12.7556
inspector	-12.7557
bie	-12.7559
growing	-12.7562
▁practi	-12.7563
▁curat	-12.7563
kadi	-12.7564
join	-12.7564
horn	-12.7566
maker	-12.7577
▁oksanayou	-12.7577
yesterday	-12.7579
million	-12.758
wow	-12.758
▁trou	-12.7582
castle	-12.7583
▁acqui	-12.7584
▁balanc	-12.7585
teacher	-12.7585
raise	-12.7586
paw	-12.7587
ustve	-12.7588
pool	-12.7592
plane	-12.7593
▁coign	-12.7593
uff	-12.7596
duty	-12.7597
ermin	-12.7599
rlin	-12.76
zan	-12.7601
lunch	-12.7602
pull	-12.7602
▁hawkin	-12.7603
judic	-12.7608
▁plac	-12.7609
broke	-12.7611
crack	-12.7611
lazed	-12.7612
hhhhh	-12.7615
surprise	-12.7619
square	-12.7623
politic	-12.7623
shoot	-12.7625
distance	-12.7625
watching	-12.7628
applause	-12.7628
wheel	-12.7632
lity	-12.7635
▁tickl	-12.7636
strike	-12.7636
sharp	-12.764
tified	-12.7642
bble	-12.7644
▁bash	-12.7644
spread	-12.7644
order	-12.7645
contra	-12.7646
which	-12.7646
boyfriend	-12.7646
department	-12.7648
▁zil	-12.7649
blast	-12.7653
potion	-12.7653
▁pacif	-12.7653
▁convinc	-12.7654
historic	-12.7654
nature	-12.7655
controlling	-12.7656
structure	-12.7656
development	-12.7657
ckadoo	-12.7658
goodness	-12.7661
flow	-12.7661
grandfather	-12.7661
occup	-12.7661
burn	-12.7662
insulat	-12.7662
taik	-12.7663
bother	-12.7664
boob	-12.7664
ligraph	-12.7664
chief	-12.7664
honour	-12.7665
milk	-12.7667
organis	-12.7667
channel	-12.7668
dumb	-12.7668
limits	-12.7669
▁horri	-12.7669
doubt	-12.767
employed	-12.7671
captured	-12.7671
snare	-12.7671
tral	-12.7672
▁weighin	-12.7673
craft	-12.7673
prepared	-12.7674
wrecked	-12.7674
fabulous	-12.7674
blossom	-12.7674
▁carniv	-12.7675
fivepointnine	-12.7676
frog	-12.7676
whoohoo	-12.7676
promotion	-12.7676
field	-12.7677
smiling	-12.7677
influence	-12.7677
▁manufactur	-12.7677
barrel	-12.7677
revolution	-12.7677
static	-12.7677
pleasant	-12.7677
century	-12.7678
flap	-12.7678
complete	-12.7678
exhausted	-12.7678
dollar	-12.7679
daisy	-12.7679
championship	-12.7679
evil	-12.768
barely	-12.768
babushka	-12.7681
drums	-12.7681
prayer	-12.7682
reality	-12.7682
overlapping	-12.7682
company	-12.7682
pocket	-12.7682
develop	-12.7683
meet	-12.7684
lance	-12.7684
native	-12.7685
bedroom	-12.7685
nickers	-12.7685
grateful	-12.7686
q	-12.7686
clapping	-12.7687
curls	-12.7687
bull	-12.7687
appropriate	-12.7687
decorating	-12.7688
slave	-12.7689
webs	-12.769
chilling	-12.769
indistinct	-12.7691
sheets	-12.7691
closing	-12.7692
leader	-12.7692
several	-12.7692
wagon	-12.7692
hour	-12.7692
shaft	-12.7693
com	-12.7693
expensive	-12.7694
kirk	-12.7694
cattle	-12.7695
sharing	-12.7696
experienced	-12.7696
gathered	-12.7696
▁exam	-12.7697
examine	-12.7698
▁rang	-12.7698
buzz	-12.7698
clouds	-12.7699
grown	-12.77
shoes	-12.7701
ridin	-12.7702
arranged	-12.7702
hell	-12.7702
program	-12.7703
route	-12.7703
invited	-12.7703
friendly	-12.7704
float	-12.7704
throne	-12.7706
flight	-12.7706
april	-12.7707
shadows	-12.7707
bite	-12.7709
▁experienc	-12.7709
softly	-12.771
steady	-12.771
connected	-12.7711
regular	-12.7712
discover	-12.7712
▁whimper	-12.7713
selfish	-12.7713
anchor	-12.7713
training	-12.7714
wick	-12.7714
aquarium	-12.7716
brains	-12.7718
jet	-12.7718
hounds	-12.7721
fu	-12.7723
▁tact	-12.7723
oaded	-12.7724
sync	-12.7724
uality	-12.7724
measur	-12.7726
▁overs	-12.7726
properly	-12.7726
brick	-12.7727
serpent	-12.7729
youd	-12.7729
racu	-12.7731
snout	-12.7732
hores	-12.7732
manual	-12.7732
▁flavo	-12.7733
sittin	-12.7736
delicate	-12.7737
▁repeatin	-12.7737
famous	-12.7738
lm	-12.7738
mail	-12.7739
crews	-12.774
▁fasci	-12.7742
michael	-12.7742
senior	-12.7743
joint	-12.7744
▁sophisti	-12.7747
▁creak	-12.7747
lived	-12.7751
grandmother	-12.7752
plate	-12.7752
▁groov	-12.7753
▁recei	-12.7753
feed	-12.7754
▁stew	-12.7757
season	-12.7757
intention	-12.7758
lifetime	-12.7762
teau	-12.7763
▁temp	-12.7763
cups	-12.7763
noses	-12.7765
valid	-12.7765
▁hirin	-12.7765
▁scan	-12.7766
tel	-12.7766
climat	-12.7767
▁crib	-12.7767
▁overlo	-12.7768
astors	-12.7768
abilities	-12.7769
ograph	-12.777
class	-12.7772
tails	-12.7772
▁appro	-12.7773
toxic	-12.7774
▁carryin	-12.7776
disturbed	-12.7777
wool	-12.7777
nnon	-12.7778
science	-12.7778
▁rhino	-12.7778
suspect	-12.7779
▁irr	-12.778
▁straggler	-12.778
▁stirrup	-12.778
colour	-12.7781
▁exclaim	-12.7782
▁ankle	-12.7783
pilot	-12.7783
▁ambi	-12.7783
plum	-12.7784
yuri	-12.7785
ghoul	-12.7786
▁violin	-12.7786
tresses	-12.7786
pacific	-12.7786
▁cretin	-12.7787
▁improvement	-12.7788
▁stutter	-12.779
▁archaeologi	-12.779
▁tiju	-12.779
temper	-12.7791
▁angemal	-12.7792
▁blister	-12.7793
▁reference	-12.7793
cake	-12.7793
destructi	-12.7796
▁scissor	-12.7796
▁persian	-12.7798
pers	-12.7799
▁kettle	-12.7799
▁aspect	-12.78
frost	-12.7801
▁miche	-12.7801
▁contender	-12.7801
▁element	-12.7803
ple	-12.7806
▁explorer	-12.7807
dden	-12.7808
▁serv	-12.7808
behave	-12.7809
▁fanta	-12.7809
▁daydream	-12.7809
▁georg	-12.781
suckers	-12.781
▁beginner	-12.7811
▁scoff	-12.7811
▁etc	-12.7811
fraud	-12.7812
lphi	-12.7813
▁audi	-12.7813
▁promo	-12.7813
▁frontier	-12.7814
yuk	-12.7815
▁countdown	-12.7815
mighty	-12.7817
▁fragment	-12.7817
▁gymnastic	-12.7818
▁invol	-12.7818
hasty	-12.7819
yyi	-12.782
magneti	-12.782
▁vacc	-12.782
▁positio	-12.7821
rowing	-12.7821
▁agr	-12.7822
▁marble	-12.7822
rich	-12.7822
▁churc	-12.7823
▁quarte	-12.7824
rew	-12.7825
rring	-12.7825
▁apprehen	-12.7825
paws	-12.7825
zone	-12.7825
elegant	-12.7826
▁associat	-12.783
▁steward	-12.783
burned	-12.7832
▁cockle	-12.7832
▁resident	-12.7833
▁ordina	-12.7834
▁jamai	-12.7835
▁millimet	-12.7835
weavin	-12.7836
▁os	-12.7837
▁dispos	-12.7838
alive	-12.7838
▁nigh	-12.7839
other	-12.784
warming	-12.784
▁beep	-12.7842
comb	-12.7842
▁determin	-12.7842
▁mechani	-12.7842
▁oblig	-12.7844
▁volcan	-12.7845
▁sleeve	-12.7845
caps	-12.7846
traps	-12.7847
ash	-12.7849
loaded	-12.7849
▁captur	-12.7849
urban	-12.785
crum	-12.7851
task	-12.7851
▁anyth	-12.7852
▁persua	-12.7852
makers	-12.7852
▁decre	-12.7854
▁advanc	-12.7855
kano	-12.7856
calm	-12.7859
uhh	-12.786
▁specifi	-12.786
▁refus	-12.7861
nounce	-12.7862
judge	-12.7862
▁bolt	-12.7863
▁sneez	-12.7865
sibilities	-12.7869
▁accus	-12.7869
▁extraordina	-12.7869
fix	-12.7869
▁insid	-12.787
nstitution	-12.787
▁trespass	-12.7871
▁intrigu	-12.7872
▁oksan	-12.7872
lute	-12.7873
galinas	-12.7873
▁archaeo	-12.7873
leaned	-12.7874
▁poach	-12.7874
▁phil	-12.7874
▁insta	-12.7875
quest	-12.7876
▁astonish	-12.7876
▁raj	-12.7877
amenta	-12.7877
▁dazzl	-12.7878
stretched	-12.7878
▁appreciat	-12.7878
▁contemp	-12.7879
aii	-12.7879
▁appetit	-12.7879
ji	-12.7879
▁superstitio	-12.7879
▁invit	-12.788
sticks	-12.788
mons	-12.7881
▁squeez	-12.7881
▁reliev	-12.7881
▁omg	-12.7883
▁innocen	-12.7884
▁brake	-12.7884
▁corps	-12.7884
rambled	-12.7884
fits	-12.7885
narl	-12.7885
▁inherit	-12.7886
▁imprison	-12.7887
▁illuminate	-12.7888
ud	-12.7889
▁condemn	-12.789
▁exchang	-12.789
▁rehearse	-12.7891
▁fatigue	-12.7891
▁depict	-12.7891
▁additio	-12.7892
▁concret	-12.7892
▁educatio	-12.7893
▁temporar	-12.7893
pink	-12.7893
▁abundan	-12.7893
▁philosoph	-12.7894
kidding	-12.7895
▁grizzl	-12.7895
oggi	-12.7895
▁disobe	-12.7896
▁abdicat	-12.7896
▁victimize	-12.7896
▁fuzz	-12.7896
formed	-12.7897
▁ceremon	-12.7897
pokes	-12.7897
▁accompli	-12.7897
▁hono	-12.7898
▁snug	-12.7898
▁ambr	-12.7899
▁traditio	-12.7899
▁infa	-12.7899
itude	-12.79
▁jenn	-12.79
▁splend	-12.79
▁hysteri	-12.7901
▁reunit	-12.7901
▁pancak	-12.7903
▁telegraphe	-12.7903
▁rebellio	-12.7903
▁hypothetical	-12.7903
▁profess	-12.7904
▁regist	-12.7904
▁obedien	-12.7904
▁gnarl	-12.7904
ncomprehen	-12.7905
▁ultimate	-12.7905
ject	-12.7906
ligence	-12.7906
▁apparent	-12.7907
▁tempt	-12.7908
▁tickle	-12.7908
racking	-12.7908
popula	-12.7909
▁recepti	-12.7909
▁phenomen	-12.791
nvestment	-12.791
▁instruct	-12.791
trained	-12.7911
eteor	-12.7911
▁postponin	-12.7911
adduc	-12.7911
ncredible	-12.7911
nteresting	-12.7911
llustrious	-12.7911
poundin	-12.7911
saving	-12.7912
▁freezin	-12.7912
▁stimul	-12.7912
demoiselle	-12.7912
escue	-12.7913
▁chuckle	-12.7913
racious	-12.7913
barrassing	-12.7913
acquainted	-12.7913
▁counsel	-12.7913
▁astrolog	-12.7913
▁bushwhacke	-12.7913
ontaine	-12.7914
▁succ	-12.7914
▁exaggerati	-12.7914
nonym	-12.7914
▁nonsen	-12.7914
excus	-12.7914
▁possibil	-12.7914
▁commission	-12.7914
▁cautio	-12.7914
▁intelligen	-12.7915
▁darlin	-12.7915
▁influen	-12.7915
▁plannin	-12.7915
bulous	-12.7915
▁obli	-12.7915
jour	-12.7915
spiration	-12.7915
▁automatic	-12.7915
▁especia	-12.7915
▁astron	-12.7915
prote	-12.7915
▁regime	-12.7915
▁jalape	-12.7915
▁energ	-12.7916
merci	-12.7916
▁thundercl	-12.7916
▁coincide	-12.7916
▁ridicul	-12.7916
euro	-12.7916
gregor	-12.7916
grette	-12.7916
logne	-12.7916
▁reproduc	-12.7916
prises	-12.7916
bupbupbup	-12.7916
haihaihai	-12.7916
predictab	-12.7916
icopter	-12.7916
uuuuuu	-12.7916
yippyyay	-12.7916
▁sponsor	-12.7916
bupbupbupbup	-12.7916
oceros	-12.7916
inaudi	-12.7916
▁translate	-12.7916
▁insigni	-12.7916
▁competiti	-12.7916
fuku	-12.7916
▁analys	-12.7916
jord	-12.7917
▁branch	-12.7917
beiiev	-12.7917
jection	-12.7917
▁hippo	-12.7917
phant	-12.7917
cilia	-12.7917
▁bologn	-12.7917
probabl	-12.7917
tempo	-12.7917
▁hypo	-12.7917
abilit	-12.7917
urgat	-12.7917
▁circumstan	-12.7918
occasi	-12.7918
simmon	-12.7918
▁commerc	-12.7918
▁combine	-12.7918
▁micro	-12.7918
▁decei	-12.7918
athtu	-12.7918
▁author	-12.7919
▁schul	-12.7919
▁michelang	-12.7919
▁volun	-12.7919
evator	-12.7919
ologies	-12.7919
▁permis	-12.7919
▁infra	-12.7919
ophy	-12.7919
▁inscr	-12.792
gmast	-12.792
semble	-12.792
finite	-12.792
kong	-12.792
rupt	-12.7921
ritis	-12.7921
tuation	-12.7921
relation	-12.7921
▁liqu	-12.7922
convenient	-12.7922
uffl	-12.7922
▁furious	-12.7922
hahha	-12.7922
ization	-12.7923
▁reception	-12.7923
▁anonym	-12.7923
▁techno	-12.7923
brid	-12.7923
▁hurra	-12.7923
ebrate	-12.7923
salem	-12.7924
▁afterw	-12.7924
▁tremen	-12.7924
dopted	-12.7924
▁langu	-12.7924
cherous	-12.7924
▁axe	-12.7924
culty	-12.7924
bilt	-12.7924
loom	-12.7925
▁urge	-12.7925
estate	-12.7925
oria	-12.7925
talian	-12.7925
clusive	-12.7925
actory	-12.7925
▁execution	-12.7926
contain	-12.7926
rov	-12.7926
wich	-12.7926
nurse	-12.7927
▁pantin	-12.7927
hands	-12.7927
ustria	-12.7927
▁achin	-12.7928
washing	-12.7928
▁sidewind	-12.7928
cqu	-12.7928
▁deco	-12.7928
▁potent	-12.7929
▁anthr	-12.793
gado	-12.7931
▁terrif	-12.7931
▁complicat	-12.7931
▁gamblin	-12.7931
uppet	-12.7931
▁carefu	-12.7932
honest	-12.7932
ennan	-12.7932
▁transform	-12.7932
▁considerin	-12.7933
frey	-12.7933
▁changin	-12.7933
▁slug	-12.7933
birds	-12.7933
▁almo	-12.7933
▁osc	-12.7933
trude	-12.7933
orbid	-12.7934
▁dancin	-12.7934
▁swimmin	-12.7934
dience	-12.7934
▁explore	-12.7935
poos	-12.7935
▁philo	-12.7935
▁education	-12.7935
▁diggin	-12.7935
▁magi	-12.7936
▁stoppin	-12.7936
meric	-12.7936
elain	-12.7936
▁trump	-12.7936
creases	-12.7936
chael	-12.7937
▁budge	-12.7937
runk	-12.7937
▁shuttin	-12.7937
ular	-12.7937
▁intim	-12.7938
▁jokin	-12.7939
▁auro	-12.7939
keeping	-12.7939
▁forsak	-12.7939
tural	-12.794
diot	-12.7941
▁herb	-12.7941
▁thiev	-12.7942
▁satur	-12.7942
▁dyin	-12.7943
▁extraordinar	-12.7943
manded	-12.7943
pleted	-12.7943
▁smokin	-12.7943
▁esco	-12.7943
tinent	-12.7944
▁associate	-12.7944
cree	-12.7944
adore	-12.7944
▁dispose	-12.7945
zac	-12.7945
▁phila	-12.7945
▁vander	-12.7945
▁oblige	-12.7946
▁broth	-12.7946
tifully	-12.7946
fort	-12.7947
▁intent	-12.7947
▁ambro	-12.7947
▁provinc	-12.7948
▁crank	-12.7948
▁responsibilit	-12.7948
ement	-12.7949
hydr	-12.7949
prised	-12.795
bab	-12.795
yak	-12.7951
orites	-12.7952
▁yellin	-12.7952
ragm	-12.7952
▁consum	-12.7954
udent	-12.7954
▁benne	-12.7956
vato	-12.7956
▁hij	-12.7956
weet	-12.7957
▁refu	-12.7958
agne	-12.7958
▁atta	-12.7958
▁abra	-12.7958
▁viril	-12.7959
▁definite	-12.7959
▁lndia	-12.7959
▁humbl	-12.7961
imately	-12.7962
manner	-12.7962
memor	-12.7963
▁caj	-12.7963
ountain	-12.7963
▁admin	-12.7964
eepin	-12.7965
petition	-12.7965
ustra	-12.7965
▁twee	-12.7965
rizon	-12.7966
ssip	-12.7966
guarded	-12.7968
▁vot	-12.7969
annel	-12.7971
▁inau	-12.7973
nothe	-12.7973
▁drip	-12.7974
abie	-12.7974
olette	-12.7974
▁heigh	-12.7974
▁stubb	-12.7975
▁howlin	-12.7975
▁acro	-12.7975
cture	-12.7976
▁incon	-12.7977
atically	-12.7977
▁antar	-12.7977
inspired	-12.7978
fe	-12.7979
zum	-12.798
racle	-12.7981
ritan	-12.7981
▁peop	-12.7982
valua	-12.7983
▁frag	-12.7983
▁josh	-12.7983
▁conf	-12.7984
traction	-12.7985
▁screamin	-12.7985
uard	-12.7986
▁stinkin	-12.7987
val	-12.7988
▁cheri	-12.7988
afra	-12.7989
ignor	-12.7989
uble	-12.7991
ancy	-12.7996
▁intr	-12.7996
▁forgo	-12.7996
▁hump	-12.7997
▁dread	-12.7997
▁raven	-12.7998
taker	-12.7999
mised	-12.7999
xious	-12.8001
ombi	-12.8001
▁pardo	-12.8003
spot	-12.8003
rillo	-12.8003
▁skim	-12.8005
hoff	-12.8005
▁sacri	-12.8005
▁campai	-12.8008
sterda	-12.8009
▁biz	-12.8009
▁soc	-12.8011
professional	-12.8012
▁unshe	-12.8012
▁cheatin	-12.8014
gical	-12.8016
▁serge	-12.8017
▁chev	-12.8018
ruly	-12.8019
▁justi	-12.8019
▁practicin	-12.8021
▁receiv	-12.8022
ream	-12.8023
▁brag	-12.8023
▁arg	-12.8023
▁bub	-12.8024
takers	-12.8024
cists	-12.8025
▁minist	-12.8025
mez	-12.8027
▁reaii	-12.8027
▁sunda	-12.8028
parents	-12.8029
dext	-12.803
▁antic	-12.8031
exas	-12.8033
▁juic	-12.8034
▁territor	-12.8034
▁chun	-12.8035
nich	-12.8036
▁pref	-12.8037
vantage	-12.8037
▁galin	-12.8038
▁deceive	-12.8039
aqua	-12.8039
kety	-12.804
rewd	-12.804
anna	-12.8042
napped	-12.8042
▁investi	-12.8042
col	-12.8043
teration	-12.8044
▁maximi	-12.8044
▁coloni	-12.8046
kaya	-12.8047
claim	-12.8049
pai	-12.805
saying	-12.805
mites	-12.8051
▁unho	-12.8051
▁joh	-12.8052
▁unti	-12.8053
▁dependin	-12.8054
lum	-12.8056
gnan	-12.8057
klin	-12.8057
▁earnin	-12.8059
▁amu	-12.806
nados	-12.8061
▁nige	-12.8061
▁allo	-12.8061
fricas	-12.8062
agram	-12.8069
▁multipl	-12.8069
agile	-12.807
haha	-12.8071
▁kol	-12.8072
▁interv	-12.8073
▁cuc	-12.8074
key	-12.8075
destine	-12.8076
▁morn	-12.8079
ert	-12.808
sional	-12.808
▁nig	-12.8082
▁shri	-12.8082
▁irre	-12.8084
standing	-12.8084
▁ce	-12.8085
▁poke	-12.8085
ndependent	-12.8086
ndeed	-12.8087
ictions	-12.8087
eather	-12.8087
goose	-12.8087
ety	-12.809
verage	-12.809
▁fili	-12.8092
▁pamp	-12.8093
▁atte	-12.8096
quaint	-12.8097
▁distra	-12.8098
▁residen	-12.8099
holder	-12.8099
irec	-12.8099
blin	-12.8103
duck	-12.8105
▁desir	-12.8105
▁hmp	-12.8105
▁auth	-12.8106
▁carnivor	-12.8106
▁aimin	-12.8106
icate	-12.8107
unty	-12.8107
stock	-12.8111
spense	-12.8115
▁chum	-12.8116
▁caii	-12.8117
▁miser	-12.8118
wei	-12.8119
icul	-12.8119
▁snare	-12.8119
▁saps	-12.8119
gian	-12.812
▁bry	-12.812
ookin	-12.8121
▁repli	-12.8121
▁kra	-12.8122
▁syl	-12.8123
bond	-12.8123
▁swip	-12.8124
loos	-12.8126
▁aaan	-12.8126
eighte	-12.8132
▁anni	-12.8134
oof	-12.8137
fles	-12.8137
▁congrat	-12.8138
▁neve	-12.8138
▁scorche	-12.814
umph	-12.8141
▁demi	-12.8145
▁occasional	-12.8145
pots	-12.8147
jing	-12.8148
pathy	-12.8148
▁lettin	-12.8149
honor	-12.815
later	-12.8152
operate	-12.8153
▁bough	-12.8153
ibut	-12.8154
visible	-12.8154
pice	-12.8157
needs	-12.8157
▁stripe	-12.8158
▁travelin	-12.8159
rating	-12.816
▁esta	-12.8161
▁grun	-12.8161
▁babe	-12.8162
dessa	-12.8164
▁unknow	-12.8165
▁sandal	-12.8167
utz	-12.8171
▁stewar	-12.8171
▁aro	-12.8171
▁rack	-12.8173
mals	-12.8173
▁pon	-12.8175
▁alre	-12.8179
ief	-12.8182
angels	-12.8185
utes	-12.8186
bump	-12.8189
▁irres	-12.8189
▁eff	-12.8191
▁specialis	-12.8193
▁sor	-12.8193
stella	-12.8197
fia	-12.8198
▁anxi	-12.8204
bbage	-12.8207
▁adol	-12.8208
▁overheat	-12.8209
ellish	-12.8211
▁buildin	-12.8211
ational	-12.8215
rito	-12.8215
▁ros	-12.822
bor	-12.8221
▁tram	-12.8223
tar	-12.8224
▁laughin	-12.8224
▁spir	-12.8225
feeling	-12.8226
▁cei	-12.8226
▁genes	-12.823
▁arc	-12.823
dealing	-12.8231
faire	-12.8232
icial	-12.8234
▁taik	-12.8238
balls	-12.8239
▁leadin	-12.8242
▁baboo	-12.8243
nez	-12.8243
test	-12.8245
roya	-12.8248
▁acr	-12.825
kers	-12.825
laus	-12.8251
boats	-12.8252
aura	-12.8252
oze	-12.8253
beii	-12.8253
wilder	-12.8254
▁bourd	-12.8254
ymn	-12.8261
apar	-12.8261
▁quest	-12.8262
▁grad	-12.8263
▁enth	-12.8267
manage	-12.8269
▁capa	-12.827
▁nobod	-12.8272
fif	-12.8277
▁bigg	-12.8278
flake	-12.828
ggles	-12.8282
bas	-12.8283
ately	-12.8284
haven	-12.8284
pier	-12.8285
▁teie	-12.8288
maste	-12.8289
▁farmin	-12.829
naka	-12.8291
ffers	-12.8291
▁isin	-12.8291
▁supplie	-12.8291
▁noti	-12.8291
▁monter	-12.8291
arboard	-12.8292
itted	-12.8292
nip	-12.8292
sie	-12.8293
venty	-12.8298
▁laug	-12.8299
painted	-12.8303
▁caus	-12.8304
trot	-12.8311
anza	-12.8311
oksanal	-12.8316
▁toni	-12.8317
▁relaxin	-12.832
▁monst	-12.8322
pend	-12.833
trap	-12.8332
iated	-12.8332
poles	-12.8334
quit	-12.8347
▁pacifi	-12.8347
cting	-12.8348
obbery	-12.835
yester	-12.8351
doors	-12.8352
claw	-12.8352
▁aok	-12.8355
mz	-12.8355
licious	-12.8359
hov	-12.8361
pleased	-12.8362
▁gig	-12.8364
▁diggi	-12.8364
points	-12.8374
▁conven	-12.8379
▁fath	-12.838
lowly	-12.8381
▁chine	-12.8383
▁wearin	-12.8384
isten	-12.8384
▁andre	-12.8385
▁mush	-12.8387
yet	-12.839
▁plank	-12.8393
nternet	-12.8394
hauvet	-12.8394
aries	-12.8396
▁searchin	-12.8398
etically	-12.8399
affe	-12.8402
lege	-12.8402
ained	-12.8412
erves	-12.8413
oops	-12.8414
mond	-12.8416
▁rumb	-12.8423
distribut	-12.8429
▁fightin	-12.8431
inters	-12.8433
settl	-12.8433
▁kissin	-12.8439
▁roos	-12.844
▁begon	-12.8444
▁passin	-12.8446
tto	-12.845
▁teachin	-12.8453
▁deter	-12.8454
▁certifi	-12.8455
▁hangin	-12.8458
lack	-12.8462
▁rams	-12.8464
▁tempera	-12.8468
▁backing	-12.8469
▁lowin	-12.8471
▁contende	-12.8473
oarding	-12.8474
▁abi	-12.8475
▁actin	-12.8481
rect	-12.8481
mong	-12.8484
▁bes	-12.8485
▁correcti	-12.8487
uvet	-12.849
▁delu	-12.8498
▁franki	-12.8502
ayout	-12.8504
▁reput	-12.8504
ndar	-12.8509
rances	-12.8511
▁airwa	-12.8512
ndia	-12.8517
phones	-12.8519
▁abd	-12.8522
rade	-12.8522
willing	-12.8523
▁outla	-12.8525
▁charl	-12.8527
▁testi	-12.8542
orted	-12.8542
▁yah	-12.8542
annas	-12.8549
osi	-12.855
oat	-12.8554
mble	-12.856
stol	-12.8565
trut	-12.857
eight	-12.8573
▁tax	-12.8574
ocate	-12.8574
elicious	-12.8578
upl	-12.8581
▁vall	-12.8583
▁laure	-12.8586
▁violen	-12.8588
flying	-12.8591
roo	-12.8592
astics	-12.8594
chow	-12.8594
inner	-12.8597
▁cookin	-12.8597
cous	-12.86
uge	-12.8602
▁fren	-12.8604
nati	-12.8607
▁sandba	-12.861
▁growin	-12.8611
▁musician	-12.8611
▁neech	-12.8618
▁divin	-12.8628
▁socia	-12.8629
▁were	-12.8629
wai	-12.8631
vement	-12.8633
▁solit	-12.8633
agem	-12.8635
efficient	-12.8638
calls	-12.8648
▁strangl	-12.8648
bei	-12.8648
hum	-12.8649
dise	-12.865
▁mul	-12.8655
▁monte	-12.8656
cold	-12.8657
stian	-12.8657
tered	-12.8659
gas	-12.8672
offs	-12.8676
▁organiz	-12.8682
assigned	-12.8683
plings	-12.8686
lc	-12.87
masters	-12.87
eech	-12.8706
hone	-12.871
petite	-12.8713
powering	-12.8714
▁embe	-12.8715
beds	-12.8721
▁civiliz	-12.8723
▁additiona	-12.8725
uhhuh	-12.8725
▁cherr	-12.8727
mol	-12.8729
rati	-12.8729
ripe	-12.8731
▁gai	-12.8731
▁brim	-12.8732
▁stri	-12.8733
▁backsta	-12.8733
▁dedicat	-12.8739
sounds	-12.8743
need	-12.8751
▁arth	-12.8754
▁readin	-12.8761
▁determine	-12.8761
▁figur	-12.8765
bai	-12.8767
awful	-12.8776
wal	-12.8777
▁league	-12.8781
▁dal	-12.8787
bbering	-12.8788
omm	-12.8789
allowed	-12.879
▁hob	-12.8791
tant	-12.8797
▁chees	-12.8801
▁southe	-12.8803
▁improvi	-12.8812
▁mug	-12.8812
▁itth	-12.8819
ffed	-12.8829
saw	-12.883
rumming	-12.883
yok	-12.8831
rling	-12.8834
▁ind	-12.8835
loud	-12.8835
etch	-12.8837
pits	-12.8844
▁pickin	-12.885
▁sno	-12.8852
augh	-12.8854
▁cheeri	-12.886
icio	-12.8865
[...]
