<unk>	0
<s>	0
</s>	0
s	-3.91237
▁im	-4.47772
▁dont	-4.53261
▁know	-4.61686
▁get	-4.78346
▁go	-4.85824
▁like	-4.85981
▁oh	-4.89657
▁right	-4.93024
▁come	-4.97516
▁well	-4.98351
▁youre	-4.99487
▁got	-5.01056
▁thats	-5.15369
▁one	-5.15444
▁na	-5.23146
▁yeah	-5.25247
▁good	-5.31683
▁see	-5.32183
ing	-5.32918
▁think	-5.40042
▁back	-5.46638
▁want	-5.47193
▁look	-5.49288
▁yes	-5.53097
▁hey	-5.53755
▁gon	-5.54966
▁ill	-5.60377
▁us	-5.61517
▁going	-5.61538
▁hes	-5.62169
▁time	-5.62632
▁man	-5.64586
▁okay	-5.65236
ed	-5.66855
▁take	-5.68357
▁cant	-5.69301
▁would	-5.70257
▁mr	-5.75436
▁could	-5.8546
▁say	-5.86241
▁tell	-5.8741
▁never	-5.87451
▁way	-5.90427
▁little	-5.9492
▁really	-5.97
▁	-5.98086
▁l	-5.98138
▁something	-5.98428
▁need	-6.00265
▁make	-6.00427
▁whats	-6.01264
▁let	-6.02996
▁ive	-6.06817
▁love	-6.08398
▁theres	-6.10007
▁sir	-6.12673
▁please	-6.14316
▁lets	-6.1475
▁give	-6.15987
d	-6.1602
▁mean	-6.16629
▁didnt	-6.20161
▁thank	-6.20241
▁people	-6.24828
▁sure	-6.25465
▁sorry	-6.26521
▁thing	-6.27762
▁help	-6.28577
▁find	-6.30183
▁said	-6.30676
▁day	-6.30937
▁wait	-6.31027
▁two	-6.315
y	-6.37791
▁home	-6.39374
▁life	-6.39466
▁much	-6.40974
▁nothing	-6.41969
▁stop	-6.42738
▁must	-6.44119
▁uh	-6.44272
▁theyre	-6.45398
▁great	-6.47638
▁father	-6.47672
▁away	-6.5162
▁first	-6.52288
▁call	-6.52379
e	-6.527
▁always	-6.52802
▁even	-6.53267
ly	-6.5388
▁anything	-6.54005
▁work	-6.54652
▁new	-6.55373
▁better	-6.5593
▁ever	-6.57188
▁shes	-6.57369
▁night	-6.58309
▁ta	-6.5949
▁put	-6.59751
▁wan	-6.59869
▁god	-6.60218
▁maybe	-6.60997
▁youll	-6.61356
▁still	-6.61543
▁keep	-6.61991
▁old	-6.6215
▁huh	-6.63616
▁around	-6.63998
▁boy	-6.66075
▁big	-6.67492
▁name	-6.67735
▁thought	-6.67989
▁long	-6.68181
▁everything	-6.70101
▁stay	-6.70689
▁things	-6.72513
▁wont	-6.72566
▁id	-6.72798
▁talk	-6.73982
▁miss	-6.74876
▁youve	-6.76169
▁guys	-6.76405
▁nice	-6.7733
▁believe	-6.77694
▁leave	-6.7772
▁world	-6.77772
▁place	-6.79283
▁girl	-6.79738
er	-6.80104
▁dad	-6.80833
▁listen	-6.80996
▁feel	-6.81246
▁hear	-6.81739
▁told	-6.82171
▁last	-6.82642
▁coming	-6.83582
▁show	-6.85264
▁remember	-6.86621
▁made	-6.86869
▁music	-6.87759
▁fine	-6.89204
▁every	-6.89515
▁bad	-6.90246
▁years	-6.90368
▁hi	-6.92362
▁lot	-6.92513
▁may	-6.92745
▁doesnt	-6.9305
▁hello	-6.9337
▁thanks	-6.94047
▁house	-6.94597
▁son	-6.95818
▁wrong	-6.96692
▁course	-6.96693
▁another	-6.97223
▁hold	-6.98271
▁mother	-6.98773
▁best	-6.98848
▁kind	-7.00198
▁enough	-7.00471
▁left	-7.00724
▁money	-7.00747
▁guy	-7.01001
▁done	-7.01581
▁isnt	-7.01856
▁ready	-7.01956
▁kid	-7.0241
▁today	-7.02417
▁care	-7.02957
▁ah	-7.03549
▁hell	-7.03751
▁mind	-7.04187
▁move	-7.05414
▁three	-7.05864
▁whoa	-7.06437
▁real	-7.06591
▁family	-7.07894
▁friend	-7.08155
▁ok	-7.08199
▁run	-7.08322
▁looking	-7.0853
▁morning	-7.09689
▁understand	-7.11004
▁might	-7.11295
r	-7.12063
▁watch	-7.14042
▁wouldnt	-7.15317
▁school	-7.15915
▁seen	-7.15949
▁try	-7.16009
▁bring	-7.16347
▁car	-7.16531
▁job	-7.17527
▁ask	-7.17676
▁playing	-7.19619
▁talking	-7.19939
▁guess	-7.19963
▁excuse	-7.20508
▁found	-7.20823
a	-7.20906
▁weve	-7.21184
▁many	-7.22683
▁baby	-7.22891
▁else	-7.23005
▁head	-7.23201
▁mom	-7.23338
▁whos	-7.23816
▁aint	-7.24275
▁together	-7.24625
▁trying	-7.24804
▁happened	-7.25882
▁someone	-7.26203
▁cause	-7.26529
▁fight	-7.26964
o	-7.27116
▁hope	-7.27241
▁play	-7.27415
▁getting	-7.28339
▁wanted	-7.28869
▁heart	-7.29018
▁friends	-7.2914
▁whole	-7.29287
▁hard	-7.2936
▁dog	-7.29605
▁everybody	-7.30022
▁next	-7.30022
▁tonight	-7.30022
▁grunts	-7.30463
t	-7.31171
▁gone	-7.31188
in	-7.31247
▁dead	-7.31362
▁came	-7.31844
▁turn	-7.32103
▁men	-7.32238
▁boys	-7.32663
▁matter	-7.32967
▁water	-7.34011
▁minute	-7.34141
▁tomorrow	-7.35312
▁pretty	-7.35336
▁idea	-7.35456
▁live	-7.35974
▁george	-7.36119
▁true	-7.36119
▁without	-7.36119
▁kids	-7.36512
▁wasnt	-7.36513
▁open	-7.36855
▁face	-7.37372
▁everyone	-7.37713
▁king	-7.37844
▁beautiful	-7.37952
▁bit	-7.37972
▁meet	-7.38017
▁woman	-7.38112
▁eat	-7.38346
▁lord	-7.38903
▁kill	-7.39174
▁harry	-7.39313
▁gasps	-7.4033
▁door	-7.40629
▁worry	-7.41362
▁saw	-7.41364
▁knew	-7.41777
▁sit	-7.41871
▁use	-7.44624
▁havent	-7.4516
▁hand	-7.45538
▁ha	-7.4681
▁mrs	-7.47229
▁city	-7.47559
▁heard	-7.47747
es	-7.47918
▁jack	-7.48144
n	-7.48365
▁end	-7.48423
▁young	-7.48511
▁lm	-7.48804
▁room	-7.48916
▁laughing	-7.49285
▁youd	-7.49562
▁lost	-7.50019
▁used	-7.50705
▁start	-7.50712
al	-7.51154
▁mine	-7.52628
▁yet	-7.53228
▁somebody	-7.53573
▁already	-7.53685
▁looks	-7.53707
▁part	-7.54372
▁read	-7.5442
▁shall	-7.54628
▁went	-7.54628
▁alone	-7.55102
▁took	-7.56044
▁lady	-7.5607
▁fire	-7.56304
▁stand	-7.56531
▁um	-7.56679
▁afraid	-7.57504
▁forget	-7.57981
▁anyone	-7.58975
▁general	-7.59452
▁light	-7.59631
▁crazy	-7.59968
▁stuff	-7.61109
▁nobody	-7.61983
▁easy	-7.63009
▁wish	-7.6362
▁eyes	-7.64596
▁set	-7.64628
▁trust	-7.64718
▁second	-7.65206
▁couldnt	-7.65678
▁town	-7.66282
▁saying	-7.66949
▁late	-7.66971
▁close	-7.67343
▁soon	-7.67634
▁happy	-7.67745
▁de	-7.67881
▁shut	-7.68268
▁days	-7.68422
▁em	-7.69021
▁power	-7.69041
▁hmm	-7.69603
▁wheres	-7.69831
▁hit	-7.69887
▁welcome	-7.69923
▁hands	-7.70339
▁actually	-7.70487
▁says	-7.70585
▁break	-7.7068
▁since	-7.70995
▁phone	-7.71061
▁pay	-7.71112
▁daddy	-7.71299
▁ago	-7.71546
▁far	-7.71694
▁chance	-7.71835
▁high	-7.71884
▁change	-7.72115
▁four	-7.72145
▁brother	-7.72439
▁thinking	-7.72582
ve	-7.73786
▁anybody	-7.73856
▁gave	-7.7386
▁exactly	-7.73874
▁wow	-7.74433
▁die	-7.7447
▁probably	-7.75011
▁check	-7.75033
▁important	-7.75596
▁minutes	-7.75647
▁year	-7.75988
▁tom	-7.76148
▁point	-7.7663
▁honey	-7.76764
▁trouble	-7.76891
▁later	-7.76905
▁different	-7.77204
▁called	-7.77382
▁chuckles	-7.77457
▁children	-7.78352
i	-7.78407
▁sighs	-7.79231
▁send	-7.79255
▁damn	-7.79403
▁cool	-7.79607
▁side	-7.79784
▁happen	-7.80006
▁taking	-7.81
▁waiting	-7.81314
▁fun	-7.81393
▁almost	-7.81599
▁word	-7.82119
▁quite	-7.82299
▁un	-7.82329
▁dear	-7.82714
▁wants	-7.83266
▁wolf	-7.83331
▁cut	-7.8344
▁theyll	-7.83473
▁gentlemen	-7.83474
▁sherman	-7.84086
▁arent	-7.84108
or	-7.8412
▁five	-7.8413
▁dr	-7.84291
▁anyway	-7.84743
▁perfect	-7.85212
▁making	-7.86037
▁hot	-7.86253
▁la	-7.86542
▁sleep	-7.8665
▁deal	-7.86818
▁rest	-7.87092
▁walk	-7.87135
▁save	-7.8788
▁follow	-7.88445
▁inside	-7.88655
▁six	-7.89297
▁wife	-7.89328
▁rocky	-7.89486
▁ya	-7.89849
▁behind	-7.8999
▁captain	-7.8999
▁top	-7.90003
▁moment	-7.90034
▁business	-7.90647
▁story	-7.90665
▁sister	-7.90705
▁papa	-7.90837
▁girls	-7.91187
▁rock	-7.91222
▁ahead	-7.91349
▁hate	-7.91566
▁marty	-7.92032
▁bye	-7.92037
▁week	-7.92124
▁half	-7.92365
▁dance	-7.92407
▁promise	-7.92575
▁laura	-7.92721
▁least	-7.92743
▁problem	-7.92825
▁ooh	-7.93417
▁air	-7.9342
▁miles	-7.93581
▁hurt	-7.93716
▁red	-7.93815
▁joe	-7.93954
▁laughs	-7.94543
▁goes	-7.9473
▁hurry	-7.94819
▁front	-7.94819
▁party	-7.95074
▁parents	-7.95153
▁batman	-7.95535
▁food	-7.95535
▁working	-7.96076
▁line	-7.96234
▁jerry	-7.96247
▁supposed	-7.96422
▁free	-7.96758
▁along	-7.9696
▁whatever	-7.97687
▁continues	-7.97726
▁full	-7.98239
▁though	-7.98374
▁doctor	-7.98625
▁feeling	-7.98721
▁clear	-7.98861
▁stupid	-7.99152
▁ship	-8.00159
▁yi	-8.00451
▁strong	-8.00524
▁wonderful	-8.00666
▁number	-8.00897
▁running	-8.01398
est	-8.01588
▁sometimes	-8.01763
h	-8.01787
▁plan	-8.02099
▁outside	-8.02149
c	-8.02227
b	-8.02245
▁times	-8.02905
▁child	-8.02906
▁master	-8.02919
▁case	-8.03157
▁means	-8.03218
▁pick	-8.03351
▁war	-8.03541
▁killed	-8.03569
▁also	-8.03683
▁met	-8.0381
l	-8.04052
▁hang	-8.0432
▁bed	-8.04348
▁speak	-8.04381
m	-8.04561
▁truth	-8.04734
▁dragon	-8.05626
▁dark	-8.05989
▁amanda	-8.06025
▁person	-8.07129
▁shot	-8.07142
▁ow	-8.07196
▁sound	-8.07249
▁luck	-8.07315
▁reason	-8.08015
▁game	-8.08054
▁heres	-8.08664
▁jim	-8.08814
▁mary	-8.09265
▁voice	-8.09644
▁human	-8.09691
▁comes	-8.09776
▁touch	-8.10014
▁goodbye	-8.10057
▁step	-8.10548
▁jesus	-8.10885
▁catch	-8.11153
▁dinner	-8.11309
▁safe	-8.11484
p	-8.11502
▁quiet	-8.11568
f	-8.11608
▁black	-8.11702
▁living	-8.11718
▁bet	-8.12021
▁started	-8.12361
▁drink	-8.12613
▁married	-8.13413
▁grunting	-8.13445
▁needs	-8.13633
▁lose	-8.14208
▁future	-8.1426
▁alive	-8.14271
▁s	-8.14308
▁office	-8.14685
▁sweet	-8.15051
▁knows	-8.15072
▁anymore	-8.15122
▁perhaps	-8.15122
▁win	-8.15322
▁fish	-8.15337
▁cat	-8.1565
▁doc	-8.15891
▁police	-8.15972
▁learn	-8.16024
▁panting	-8.16039
▁r	-8.16164
▁street	-8.16626
▁brought	-8.16868
▁wonder	-8.16871
▁fly	-8.16978
▁land	-8.17484
▁blood	-8.17673
▁funny	-8.17756
▁ladies	-8.17757
▁sam	-8.17762
▁asked	-8.17807
▁uncle	-8.18426
▁sea	-8.18632
▁itll	-8.18646
▁suppose	-8.19342
▁fast	-8.19373
▁buy	-8.19958
▁ten	-8.20328
▁rather	-8.20459
▁ball	-8.20481
▁fall	-8.20642
▁singing	-8.20839
▁answer	-8.21285
▁book	-8.21316
▁makes	-8.21582
▁doyle	-8.2215
g	-8.22158
▁piece	-8.22193
▁seems	-8.2223
▁pinocchio	-8.223
▁couple	-8.223
▁earth	-8.22302
▁tony	-8.22325
▁hows	-8.22346
en	-8.23093
st	-8.23093
▁tree	-8.23136
▁special	-8.23228
▁chief	-8.23238
▁poor	-8.23247
▁sort	-8.23249
▁attack	-8.23305
▁yo	-8.23531
▁throw	-8.23627
▁order	-8.23753
▁eye	-8.24113
▁ugh	-8.24178
▁shouldnt	-8.24178
▁lives	-8.24185
▁died	-8.24594
▁york	-8.24938
▁president	-8.24972
ic	-8.25033
▁become	-8.25054
▁kane	-8.25139
▁feet	-8.25139
▁join	-8.25519
▁hours	-8.2578
▁quick	-8.25845
▁careful	-8.26009
▁robin	-8.261
▁charlie	-8.27067
re	-8.27679
▁sign	-8.27939
▁either	-8.28043
▁peabody	-8.28043
▁gun	-8.28139
▁screams	-8.28452
▁slow	-8.28758
ion	-8.28847
▁shell	-8.28862
▁daughter	-8.29016
▁sick	-8.29031
▁kiss	-8.29092
▁finally	-8.291
▁less	-8.29202
▁lts	-8.29295
▁mark	-8.29654
▁lead	-8.2988
▁fact	-8.29942
▁elliott	-8.30033
w	-8.30654
▁dream	-8.30883
▁wed	-8.30943
▁tried	-8.31043
▁round	-8.31058
▁cold	-8.3106
▁country	-8.32068
▁spot	-8.32084
▁seem	-8.32435
▁ones	-8.3287
▁death	-8.33098
▁blue	-8.33123
▁news	-8.33247
▁words	-8.33261
▁able	-8.33292
▁happens	-8.33331
▁beat	-8.33773
▁question	-8.33883
▁hair	-8.33952
▁glad	-8.33983
▁others	-8.34136
▁c	-8.34202
▁taken	-8.34948
▁fair	-8.35
▁pull	-8.35375
▁lucky	-8.35414
▁th	-8.35772
▁shoot	-8.35777
▁short	-8.35918
▁worth	-8.36071
▁figure	-8.36149
▁court	-8.36263
▁tired	-8.36265
▁team	-8.36397
▁return	-8.37071
▁b	-8.37229
▁class	-8.37249
▁annie	-8.37328
▁fault	-8.37329
▁jungle	-8.37329
▁wake	-8.37333
▁control	-8.37451
▁picture	-8.37512
▁song	-8.37601
▁respect	-8.38381
▁seven	-8.38427
▁present	-8.38543
▁magic	-8.39182
▁evening	-8.39334
▁small	-8.39395
▁write	-8.39413
▁bill	-8.39506
▁body	-8.39513
▁jump	-8.39513
▁attention	-8.39514
▁maam	-8.39515
▁sense	-8.39545
▁mama	-8.39561
▁expect	-8.39775
u	-8.39872
▁drive	-8.40505
▁rupert	-8.40625
▁moving	-8.40627
▁sun	-8.41144
▁bell	-8.41147
▁bird	-8.41278
▁shit	-8.41748
▁kidding	-8.41753
▁super	-8.41754
▁till	-8.41761
▁chattering	-8.41884
▁ground	-8.41997
▁mayor	-8.42127
▁t	-8.42159
▁sounds	-8.4227
▁telling	-8.42287
▁questions	-8.42754
▁absolutely	-8.42905
▁ride	-8.42927
▁boat	-8.43084
▁husband	-8.43097
▁soldier	-8.43194
ity	-8.43315
▁meeting	-8.43339
▁weeks	-8.43874
▁quit	-8.43893
▁amazing	-8.43898
▁leaving	-8.44034
▁lake	-8.44076
ers	-8.44278
▁secret	-8.44339
▁marry	-8.44684
▁possible	-8.45197
▁smart	-8.45197
▁forward	-8.45197
▁force	-8.45296
▁sent	-8.45345
▁act	-8.45424
▁sing	-8.45444
▁clean	-8.45514
▁hour	-8.45584
▁colonel	-8.46373
▁buddy	-8.4638
▁darling	-8.46394
▁scared	-8.46465
▁position	-8.46678
▁pass	-8.46768
▁paper	-8.46826
▁crowd	-8.47205
▁hungry	-8.47566
▁known	-8.47871
on	-8.4791
▁group	-8.47917
▁judge	-8.47973
▁wind	-8.48
▁choice	-8.48164
▁finish	-8.4842
▁proud	-8.48603
▁felt	-8.48769
▁somewhere	-8.48769
▁busy	-8.48847
▁stick	-8.4888
▁a	-8.48935
▁gets	-8.48964
▁smell	-8.49023
▁hed	-8.49096
▁fix	-8.49136
▁rules	-8.49446
▁laugh	-8.496
▁law	-8.49693
ar	-8.49726
▁handle	-8.49888
▁gold	-8.49902
▁re	-8.50106
▁born	-8.5018
▁e	-8.50331
▁loved	-8.51198
▁forever	-8.5122
▁tough	-8.51223
▁vada	-8.51223
▁nose	-8.51229
▁terrible	-8.51289
▁push	-8.51417
▁prince	-8.51568
▁million	-8.51715
▁d	-8.52332
▁broke	-8.5243
it	-8.52433
▁broken	-8.5253
▁army	-8.5258
▁screaming	-8.52601
▁happening	-8.53482
▁fool	-8.53596
▁shh	-8.53711
▁women	-8.53739
▁hub	-8.53763
▁white	-8.53815
▁cheering	-8.53831
▁princess	-8.54073
▁da	-8.54099
▁machine	-8.54284
▁longer	-8.54461
▁p	-8.54664
▁calling	-8.54844
▁mad	-8.54904
▁straight	-8.5499
▁evil	-8.55022
▁dangerous	-8.55029
▁count	-8.55281
▁lovely	-8.55443
▁be	-8.55991
▁simple	-8.56402
▁greatest	-8.56588
ies	-8.56669
▁asking	-8.56963
▁state	-8.57218
▁frank	-8.57478
▁turned	-8.57528
▁theyve	-8.57635
▁robyn	-8.57637
▁ella	-8.57639
▁link	-8.57685
▁calm	-8.57692
▁in	-8.57963
▁robot	-8.58333
▁watching	-8.58362
▁star	-8.58515
▁except	-8.5894
▁sisu	-8.58969
▁pooh	-8.58969
▁standing	-8.58982
▁ice	-8.59014
▁fighting	-8.59452
▁drop	-8.59578
▁normal	-8.60172
▁loud	-8.60212
▁strange	-8.60227
▁race	-8.60325
▁certainly	-8.60418
▁commander	-8.60493
▁groans	-8.60582
▁pants	-8.60632
▁et	-8.61039
able	-8.61095
▁carry	-8.61266
man	-8.6137
▁favorite	-8.61691
▁jones	-8.61698
▁raya	-8.61713
▁press	-8.61919
k	-8.62479
▁relax	-8.62724
▁serious	-8.62932
el	-8.62936
us	-8.63065
▁company	-8.63078
▁monsieur	-8.63078
▁unless	-8.63111
▁fear	-8.63237
ness	-8.63306
▁given	-8.63762
▁floor	-8.638
▁meant	-8.63871
▁spirit	-8.63871
▁j	-8.64074
▁deep	-8.64236
▁entire	-8.6434
▁past	-8.64408
▁worked	-8.64478
▁hospital	-8.64487
▁major	-8.64496
▁upon	-8.64498
▁mmm	-8.64502
▁early	-8.6465
▁seat	-8.65104
▁stone	-8.65181
▁summer	-8.65292
▁loves	-8.65469
▁date	-8.65716
▁dreams	-8.65837
▁impossible	-8.65916
▁giving	-8.65917
▁none	-8.65964
▁interesting	-8.66092
▁saved	-8.66389
▁cover	-8.66499
▁teach	-8.66672
▁table	-8.66772
▁radio	-8.6678
▁g	-8.66791
▁offer	-8.66885
ry	-8.67061
ll	-8.67186
▁h	-8.67339
▁werent	-8.67365
▁holy	-8.6749
▁peter	-8.67537
▁wear	-8.67583
▁lll	-8.67626
▁months	-8.67713
▁destroy	-8.67974
▁search	-8.68032
▁plane	-8.68467
▁anywhere	-8.68835
▁lunch	-8.68838
▁outta	-8.68839
▁uhhuh	-8.68839
▁mouth	-8.68841
▁tv	-8.6885
▁train	-8.68858
▁aah	-8.69227
▁al	-8.69487
▁lie	-8.69833
▁honor	-8.69949
▁appreciate	-8.70088
▁mess	-8.70157
▁ugly	-8.70326
▁visit	-8.70333
▁daisy	-8.70334
▁moon	-8.7037
▁cross	-8.70947
▁speaking	-8.71274
th	-8.71385
▁teacher	-8.71465
ment	-8.71476
▁ring	-8.71735
▁boom	-8.71886
▁shouting	-8.71916
▁planet	-8.7198
▁bag	-8.72581
an	-8.72582
▁rain	-8.72813
▁cry	-8.72853
▁hole	-8.72992
▁han	-8.73001
▁arthur	-8.73381
▁stuck	-8.73385
▁speed	-8.73406
▁eh	-8.73503
▁test	-8.73616
▁needed	-8.7406
▁spend	-8.74443
▁mistake	-8.74453
▁enemy	-8.74944
▁space	-8.74951
▁crime	-8.74953
▁command	-8.75326
▁works	-8.75383
▁dre	-8.75611
▁box	-8.75995
▁month	-8.7616
▁age	-8.7626
▁breaking	-8.76344
▁report	-8.76449
▁church	-8.76461
▁ought	-8.76466
▁miguel	-8.76528
▁breakfast	-8.76531
▁english	-8.76531
▁alright	-8.76532
▁forest	-8.76543
▁mike	-8.76546
▁station	-8.76554
▁brave	-8.76615
▁code	-8.76751
over	-8.77532
▁looked	-8.77687
▁doubt	-8.77731
▁horse	-8.77783
▁weird	-8.77948
▁hide	-8.78135
▁grab	-8.78155
▁cute	-8.78228
▁eight	-8.7846
▁promised	-8.78646
▁grow	-8.78725
▁charge	-8.78907
▁enjoy	-8.7892
▁flying	-8.79052
▁walking	-8.79363
▁queen	-8.79401
▁hill	-8.79543
▁imagine	-8.79593
▁letter	-8.79692
▁audience	-8.79784
▁coffee	-8.79784
▁difference	-8.79784
▁mommy	-8.79784
▁kept	-8.79784
▁superman	-8.7981
▁foot	-8.79815
▁brain	-8.79997
▁dogs	-8.8034
▁reach	-8.8055
▁blow	-8.80569
▁share	-8.80597
▁smile	-8.80738
▁m	-8.8092
▁sad	-8.81061
▁window	-8.81085
▁knight	-8.81122
▁raise	-8.81236
▁near	-8.81303
▁south	-8.81445
▁college	-8.8145
▁history	-8.8145
▁mitsuha	-8.8145
▁moxy	-8.8145
▁thomas	-8.8145
▁robert	-8.8145
▁neil	-8.81452
▁madame	-8.81539
te	-8.81855
▁shoes	-8.82046
▁kick	-8.82271
▁sen	-8.82514
▁lock	-8.82685
▁monkey	-8.82764
le	-8.82982
▁ran	-8.83075
▁worse	-8.83145
▁dancing	-8.83146
▁garth	-8.83148
ce	-8.83161
▁smith	-8.83169
▁lion	-8.83233
▁protect	-8.83907
▁lt	-8.84046
▁knock	-8.84086
▁gift	-8.84103
▁talked	-8.8426
▁surprise	-8.84276
less	-8.84284
▁st	-8.84313
▁n	-8.84344
▁heaven	-8.84621
▁afternoon	-8.84869
▁christopher	-8.84869
▁neither	-8.84869
▁ursula	-8.84869
▁birthday	-8.8487
▁walter	-8.84879
▁battle	-8.85005
▁lou	-8.85194
▁dress	-8.85639
▁kingdom	-8.86289
▁buck	-8.86344
ter	-8.86373
na	-8.86438
▁beer	-8.86477
▁trip	-8.86585
▁takes	-8.86593
▁crew	-8.86624
▁grand	-8.86681
▁low	-8.86688
▁ape	-8.8671
▁monster	-8.87597
ive	-8.87754
▁pet	-8.87982
▁explain	-8.8804
ist	-8.88062
▁lo	-8.88097
▁pal	-8.88121
▁computer	-8.88179
▁service	-8.88189
▁notice	-8.88218
▁waste	-8.88236
▁angel	-8.88328
▁alex	-8.88363
▁arms	-8.88402
▁balboa	-8.88409
▁road	-8.88409
▁definitely	-8.88421
▁yep	-8.88427
▁indeed	-8.88432
▁single	-8.88433
▁folks	-8.88829
▁fill	-8.89888
▁prove	-8.89962
▁forgive	-8.90148
▁dramatic	-8.90219
▁christmas	-8.90228
▁swear	-8.90229
▁everywhere	-8.90232
▁heavy	-8.90235
▁se	-8.90371
▁ho	-8.90435
▁hero	-8.90566
▁double	-8.90661
▁rich	-8.90827
▁track	-8.9138
▁aw	-8.91654
▁peace	-8.91844
▁message	-8.91871
▁field	-8.91923
▁begin	-8.91939
▁system	-8.9194
▁continue	-8.91986
▁glass	-8.92019
▁worst	-8.92079
▁extra	-8.9208
▁charles	-8.92082
▁clothes	-8.92085
▁weather	-8.92097
▁christ	-8.92104
▁completely	-8.92215
▁interested	-8.92244
▁ass	-8.92374
▁finished	-8.92627
▁goodness	-8.92743
▁park	-8.92986
▁k	-8.93048
▁seeing	-8.93094
▁warm	-8.93216
▁brown	-8.93612
▁note	-8.93805
▁area	-8.93817
▁fell	-8.93886
▁bat	-8.93915
▁tight	-8.93944
▁favor	-8.93964
▁blind	-8.93966
▁excited	-8.93966
▁shrek	-8.93966
▁truman	-8.93966
▁worried	-8.93966
▁pleasure	-8.93967
▁hasnt	-8.93967
▁fancy	-8.93968
▁spiderman	-8.93976
▁center	-8.93986
▁salt	-8.93993
▁danger	-8.9401
▁howling	-8.94096
▁orders	-8.94143
▁awful	-8.94243
up	-8.9445
▁gosh	-8.94517
▁wearing	-8.94604
▁changed	-8.94689
▁mac	-8.94692
▁bomb	-8.9479
▁brothers	-8.94901
ie	-8.94997
▁missed	-8.95187
▁soul	-8.95347
▁gods	-8.95365
▁fathers	-8.95491
▁sight	-8.95787
▁earl	-8.95789
▁action	-8.95824
▁adrian	-8.95889
▁flint	-8.95889
▁geppetto	-8.95889
▁lawrence	-8.95889
▁north	-8.95889
▁fiona	-8.95889
▁silly	-8.95889
▁middle	-8.9589
▁distance	-8.95897
▁haku	-8.95907
▁lying	-8.9592
▁doin	-8.95924
▁shake	-8.95996
is	-8.96063
▁stan	-8.96178
▁allowed	-8.96199
▁whoo	-8.96222
▁f	-8.96427
▁missing	-8.96467
▁mm	-8.96555
▁bother	-8.96966
▁pray	-8.97156
▁papers	-8.97204
▁build	-8.97345
out	-8.97454
▁dave	-8.97763
▁mario	-8.97791
▁apollo	-8.9785
▁ghost	-8.9785
▁guitar	-8.9785
▁creed	-8.9785
▁stories	-8.9785
▁sadiel	-8.97851
▁bought	-8.97851
▁soren	-8.97865
▁store	-8.97871
▁bridge	-8.97874
▁bigger	-8.97878
▁baron	-8.97892
▁breathing	-8.98217
▁arm	-8.98336
▁lon	-8.98484
▁ringing	-8.98492
▁burn	-8.9893
▁pack	-8.99015
▁cards	-8.99036
▁sell	-8.991
▁complete	-8.99473
▁certain	-8.99701
▁soft	-8.99705
▁ii	-8.99719
▁bar	-8.99772
▁witch	-8.99791
▁green	-8.99846
▁across	-8.9985
▁ridiculous	-8.9985
▁truly	-8.9985
▁yesterday	-8.9985
▁contact	-8.9985
▁spell	-8.99852
▁champion	-8.99856
▁castle	-8.99864
▁handsome	-8.99865
▁cake	-8.99899
▁tail	-8.99925
▁fired	-9.00751
▁cook	-9.0097
▁hat	-9.01292
▁over	-9.01581
▁taste	-9.01668
▁realize	-9.01702
▁horn	-9.01741
▁joke	-9.01793
▁personal	-9.01861
▁rumbling	-9.01891
▁royal	-9.01902
▁wedding	-9.01936
▁bloody	-9.02289
ch	-9.02385
ous	-9.0247
▁crying	-9.02549
▁learned	-9.02725
▁lived	-9.03018
▁feels	-9.03165
um	-9.03512
▁swing	-9.03569
▁problems	-9.03657
▁deserve	-9.03745
▁river	-9.03893
▁paris	-9.03938
▁teeth	-9.03974
▁wolves	-9.03974
▁foster	-9.03974
▁luca	-9.03975
▁strength	-9.03977
▁throat	-9.03977
▁wrote	-9.03977
▁paid	-9.0399
▁pure	-9.03991
▁doll	-9.04033
▁corner	-9.04046
▁belong	-9.04066
▁starting	-9.0415
▁ja	-9.04206
▁quickly	-9.04294
ary	-9.04369
▁gru	-9.04688
ting	-9.04842
ling	-9.04849
▁per	-9.04989
▁pop	-9.05519
z	-9.05591
▁trick	-9.05658
ful	-9.05677
▁public	-9.05987
▁wild	-9.06014
▁america	-9.06039
▁price	-9.06088
▁whether	-9.06102
▁dude	-9.06102
▁twice	-9.06102
▁growls	-9.06103
▁caught	-9.06103
▁tuk	-9.06104
▁aunt	-9.06104
▁emergency	-9.06104
▁driving	-9.06105
▁van	-9.06107
▁david	-9.06109
▁jail	-9.06112
▁sky	-9.06121
▁dirty	-9.06148
▁mi	-9.06221
▁core	-9.06309
▁faster	-9.06369
▁leader	-9.06407
om	-9.06428
▁base	-9.06442
▁officer	-9.06463
▁movie	-9.06521
▁joey	-9.0663
▁final	-9.06913
▁owe	-9.07371
▁feelings	-9.07683
▁allow	-9.0793
▁agree	-9.0802
▁french	-9.08254
▁mademoiselle	-9.08276
▁palace	-9.08276
▁pupkin	-9.08277
▁penny	-9.08277
▁chair	-9.08277
▁toby	-9.08279
▁spent	-9.08279
▁woodhouse	-9.0828
▁chocolate	-9.08284
▁gentleman	-9.08285
▁pig	-9.08314
▁bates	-9.08349
▁totally	-9.0841
▁chicken	-9.08419
▁killing	-9.08734
▁fit	-9.08784
▁toys	-9.0982
▁lots	-9.09881
nt	-9.10088
▁honest	-9.10174
▁boss	-9.1044
▁especially	-9.10498
▁exclaims	-9.10498
▁majesty	-9.10498
▁instead	-9.10498
▁taught	-9.10499
▁gang	-9.10504
▁boyfriend	-9.10505
▁match	-9.10506
▁within	-9.10508
▁engine	-9.10567
▁situation	-9.1061
▁copy	-9.10619
▁island	-9.10662
▁ay	-9.10727
▁photo	-9.10734
▁monsters	-9.10742
▁key	-9.10833
▁manage	-9.10835
▁fred	-9.11084
▁bro	-9.11248
▁building	-9.11278
▁lies	-9.11692
▁holding	-9.12355
▁con	-9.12598
▁howd	-9.12607
v	-9.12701
▁angry	-9.12771
▁fortune	-9.12771
▁mebh	-9.12771
▁pardon	-9.12771
▁professor	-9.12771
▁science	-9.12771
▁thunder	-9.12772
▁beginning	-9.12774
▁village	-9.12776
▁mmhmm	-9.12777
▁writing	-9.12792
▁john	-9.12797
▁sitting	-9.12838
▁farm	-9.12914
▁lois	-9.12927
▁choose	-9.12935
▁pressure	-9.12936
▁joker	-9.12942
▁jackie	-9.13061
▁ogre	-9.13061
▁dragons	-9.1395
▁wondering	-9.14057
▁tea	-9.14325
▁rush	-9.14541
▁main	-9.14676
ation	-9.1494
▁taki	-9.15029
▁fresh	-9.15068
▁fat	-9.15072
▁forgot	-9.15093
▁mystery	-9.15096
▁plenty	-9.15096
▁sweetheart	-9.15096
▁excellent	-9.15096
▁bathroom	-9.15098
▁arlo	-9.15101
▁mason	-9.15102
▁thatll	-9.15103
▁sake	-9.15193
▁parker	-9.15237
▁shed	-9.15269
▁idiot	-9.15316
▁clock	-9.1535
▁beast	-9.15407
▁fellow	-9.15447
▁besides	-9.15502
▁where	-9.15542
▁pain	-9.15627
▁hardly	-9.16038
▁picked	-9.1617
▁paint	-9.16232
▁guests	-9.16511
▁heads	-9.16763
▁fuck	-9.16987
▁names	-9.17081
▁escape	-9.17255
▁private	-9.17312
▁total	-9.17331
▁fentry	-9.17477
▁reynolds	-9.17477
▁third	-9.17477
▁duty	-9.17483
▁roger	-9.17494
▁screeching	-9.17495
▁luke	-9.17499
▁powerful	-9.17529
▁remain	-9.17872
▁giant	-9.17875
▁pap	-9.17891
▁driver	-9.17933
▁wood	-9.18089
▁expected	-9.1824
ts	-9.18758
▁treat	-9.18852
▁roll	-9.18906
▁liked	-9.19001
▁record	-9.19385
▁accept	-9.19539
▁arrest	-9.19565
▁prepare	-9.197
▁bright	-9.19718
▁difficult	-9.19728
▁correct	-9.19734
▁nervous	-9.19755
▁stole	-9.19863
▁board	-9.19884
▁maid	-9.19911
▁bread	-9.19916
▁michael	-9.19916
▁negative	-9.19916
▁saturday	-9.19916
▁awesome	-9.19916
▁bunch	-9.19917
▁however	-9.19917
▁neck	-9.19918
▁nope	-9.19921
▁rise	-9.19929
▁hoover	-9.19939
▁shop	-9.19941
▁reading	-9.2001
▁mia	-9.20033
▁guard	-9.20038
▁x	-9.20067
▁goin	-9.20074
▁stacks	-9.20194
▁relationship	-9.20256
▁art	-9.20298
▁condition	-9.20356
▁thousand	-9.20386
▁american	-9.20399
▁letters	-9.20419
ur	-9.20496
▁rings	-9.20683
▁butt	-9.20761
▁points	-9.20785
▁closed	-9.20903
to	-9.21115
▁consider	-9.21326
▁ba	-9.21404
▁powers	-9.21443
▁switch	-9.2153
▁bum	-9.21683
▁moved	-9.21758
▁following	-9.21762
▁deliver	-9.21875
▁serve	-9.22099
▁bear	-9.22187
▁weak	-9.22196
age	-9.22201
▁august	-9.22343
▁mate	-9.22379
▁apart	-9.224
▁self	-9.22403
▁langford	-9.22416
▁russell	-9.22416
▁justin	-9.22416
▁wizard	-9.22416
▁support	-9.22416
▁chuckling	-9.22418
▁dibble	-9.22418
▁sunday	-9.22421
▁often	-9.22421
▁club	-9.22431
▁bottom	-9.22439
▁punch	-9.2245
▁cup	-9.22454
▁silence	-9.22454
▁sweetie	-9.22455
▁color	-9.22484
▁stopped	-9.22493
▁softly	-9.226
▁pre	-9.22625
▁wheel	-9.22847
▁gas	-9.22861
▁gem	-9.22917
▁dare	-9.23004
▁mam	-9.23316
▁wing	-9.24251
▁steal	-9.24469
▁feed	-9.24521
▁movies	-9.24768
▁dig	-9.24916
▁nothin	-9.24953
▁built	-9.2498
▁congratulations	-9.2498
▁deuce	-9.2498
▁exclaiming	-9.2498
▁justice	-9.2498
▁theyd	-9.24981
▁lyla	-9.24981
▁upset	-9.24982
▁information	-9.24983
▁cabin	-9.2499
▁lonely	-9.25006
▁emma	-9.2501
▁storm	-9.25011
▁held	-9.25027
▁band	-9.2503
▁protector	-9.25079
▁nine	-9.25126
▁seriously	-9.25253
▁suit	-9.25303
▁pieces	-9.25319
▁books	-9.25366
▁higher	-9.255
▁blessing	-9.25937
▁beg	-9.26003
▁acting	-9.26077
co	-9.26115
▁bath	-9.26188
▁animals	-9.26651
▁bless	-9.26806
▁travel	-9.27347
lo	-9.27434
▁scoob	-9.27438
▁louis	-9.27484
▁large	-9.27531
ctor	-9.27551
▁breath	-9.27572
▁view	-9.27584
▁program	-9.27607
▁address	-9.27612
▁someday	-9.27612
▁kitty	-9.27615
▁nancy	-9.27626
▁immediately	-9.27626
▁bus	-9.27704
▁hall	-9.27738
▁bob	-9.27794
▁woods	-9.27823
ally	-9.28098
▁dressed	-9.28146
▁shield	-9.28153
▁target	-9.28209
▁destroyed	-9.28249
▁strike	-9.28265
▁mountain	-9.28297
▁pa	-9.28367
▁training	-9.28497
▁assume	-9.28523
▁loser	-9.28606
▁up	-9.2861
▁staying	-9.28688
▁ee	-9.28868
▁mighty	-9.29117
no	-9.29123
▁legs	-9.2933
▁post	-9.29348
▁dis	-9.29399
ine	-9.29429
▁freak	-9.29524
ro	-9.29528
▁murder	-9.29786
▁risk	-9.29793
▁simpl	-9.29813
▁pictures	-9.29848
▁collect	-9.29901
▁rescue	-9.30095
▁char	-9.30113
ant	-9.30168
▁chris	-9.30186
▁dumb	-9.30276
▁wall	-9.30306
▁bigweld	-9.30315
▁famous	-9.30315
▁merlyn	-9.30315
▁opportunity	-9.30315
▁grace	-9.3032
▁maggie	-9.30321
▁chewie	-9.30326
▁energy	-9.30327
▁tower	-9.30328
▁growling	-9.30335
▁paulie	-9.30357
▁boring	-9.30369
▁whispering	-9.30418
▁named	-9.30537
▁surprised	-9.30654
▁surely	-9.30667
▁noticed	-9.30676
▁list	-9.30717
▁listening	-9.30773
▁an	-9.3091
▁newspaper	-9.31021
▁mon	-9.31054
▁turning	-9.31135
▁en	-9.31272
▁mission	-9.31279
la	-9.31695
son	-9.31844
▁rid	-9.32035
▁er	-9.32205
▁prison	-9.32967
▁common	-9.32971
▁played	-9.33007
▁admit	-9.33068
▁innocent	-9.33092
▁lieutenant	-9.33092
▁practice	-9.33092
▁rodney	-9.33092
▁vader	-9.33092
▁susan	-9.33093
▁security	-9.33093
▁keating	-9.33093
▁material	-9.33093
▁milk	-9.33094
▁clark	-9.33097
▁james	-9.33169
▁due	-9.33365
▁lights	-9.33506
▁remind	-9.33597
▁adventure	-9.33627
▁tall	-9.33814
▁cost	-9.34009
▁toy	-9.34042
▁dollars	-9.34332
▁el	-9.34361
▁po	-9.34462
▁hanging	-9.34885
▁worlds	-9.34887
▁form	-9.34943
▁w	-9.35119
▁no	-9.35289
▁i	-9.35587
▁keys	-9.35607
▁experience	-9.35755
▁accident	-9.3595
▁asleep	-9.3595
▁hiccup	-9.3595
▁pizza	-9.3595
▁mammy	-9.3595
▁swim	-9.3595
▁mummy	-9.35951
▁dying	-9.35954
▁mirror	-9.35956
▁v	-9.35959
▁safety	-9.35969
▁meat	-9.35991
▁tc	-9.36034
rs	-9.36125
▁decided	-9.36146
▁perfectly	-9.36614
▁button	-9.36834
▁hundred	-9.36846
▁co	-9.3686
▁carlo	-9.36905
▁students	-9.3746
▁tape	-9.37515
eful	-9.38042
▁birds	-9.38191
▁ex	-9.38456
▁goddamn	-9.38502
▁doo	-9.38719
▁suspens	-9.38861
▁split	-9.38881
▁advice	-9.38891
▁beyond	-9.38891
▁cruz	-9.38891
▁kludd	-9.38891
▁opinion	-9.38891
▁possibly	-9.38891
▁samantha	-9.38891
▁whimpers	-9.38891
▁sammy	-9.38891
▁nowhere	-9.38891
▁italian	-9.38896
▁biff	-9.38896
▁zone	-9.38897
▁hiding	-9.38904
▁uhoh	-9.38913
▁universe	-9.38934
▁dee	-9.38968
▁groaning	-9.39038
ta	-9.39087
sh	-9.39149
▁letting	-9.39244
▁wine	-9.39411
ee	-9.39491
▁spring	-9.39499
et	-9.39627
ish	-9.39814
id	-9.39917
▁couldve	-9.40421
▁walked	-9.40499
▁dads	-9.40808
▁soldiers	-9.41096
ri	-9.41149
▁sleeping	-9.41169
ted	-9.41464
▁extreme	-9.41921
▁language	-9.41921
▁luigi	-9.41921
▁martin	-9.41921
▁mcfly	-9.41921
▁otherwise	-9.41921
▁simon	-9.41921
▁conversation	-9.41921
▁london	-9.41921
▁credit	-9.41922
▁flight	-9.41924
▁chew	-9.41928
▁tour	-9.4193
▁shouldve	-9.41933
▁cream	-9.41933
▁rita	-9.41935
▁monte	-9.41938
▁size	-9.41942
▁deck	-9.41943
▁laughter	-9.41957
▁huge	-9.41989
▁ben	-9.42025
▁signal	-9.42095
▁hoping	-9.42165
▁warning	-9.42199
▁heh	-9.42268
▁trees	-9.42281
▁shape	-9.4231
▁using	-9.42391
▁jane	-9.42449
▁blows	-9.4252
▁figured	-9.4254
▁locked	-9.42555
▁eating	-9.42621
▁cave	-9.42732
▁boun	-9.42758
▁ye	-9.42809
▁passed	-9.42834
▁weekend	-9.4284
▁leg	-9.42998
▁animal	-9.43042
ian	-9.43155
ton	-9.43493
▁plans	-9.43805
▁joy	-9.44598
▁ruin	-9.4471
▁thinks	-9.44792
beat	-9.44795
▁release	-9.44838
▁decide	-9.4484
▁suggest	-9.45019
▁prefer	-9.45045
▁hidden	-9.45046
▁kevin	-9.45046
▁nahnahnah	-9.45046
▁unicorn	-9.45046
▁steve	-9.45046
▁government	-9.45047
▁sugar	-9.45048
▁koopa	-9.45051
▁responsibility	-9.45051
▁cousin	-9.45051
▁forgotten	-9.45051
▁astro	-9.45057
▁path	-9.45075
▁grave	-9.45103
▁obviously	-9.45142
▁account	-9.45157
▁arrived	-9.45168
▁yelling	-9.45247
▁putting	-9.45261
▁concerned	-9.45314
▁nearly	-9.45324
▁failed	-9.45365
at	-9.45406
▁matters	-9.45601
▁bank	-9.45887
▁kinda	-9.45907
▁cop	-9.45912
▁lf	-9.46022
▁mo	-9.46029
▁purpose	-9.46066
▁apartment	-9.46088
▁type	-9.461
▁block	-9.46169
▁swallow	-9.46178
▁girlfriend	-9.46199
▁weapon	-9.46233
▁tear	-9.46383
▁falling	-9.46771
▁older	-9.46968
▁helped	-9.47001
▁all	-9.47176
▁add	-9.4757
▁survive	-9.48052
▁speech	-9.48255
▁character	-9.48272
▁alarm	-9.48272
▁desmond	-9.48272
▁garbage	-9.48272
▁necessary	-9.48272
▁rough	-9.48272
▁taylor	-9.48272
▁upstairs	-9.48272
▁whimpering	-9.48272
▁donkey	-9.48272
▁knox	-9.48272
▁candy	-9.48273
▁telephone	-9.48273
▁fetch	-9.48273
▁brilliant	-9.48273
▁druun	-9.48273
▁washington	-9.48274
▁precious	-9.48274
▁monday	-9.48274
▁lyle	-9.48274
▁comfortable	-9.4828
▁therell	-9.4828
▁clever	-9.48281
▁television	-9.48286
▁france	-9.483
▁steady	-9.48331
▁stage	-9.48343
▁vote	-9.48376
▁highness	-9.48378
time	-9.48378
▁created	-9.48395
ag	-9.48419
▁cars	-9.48506
▁gasping	-9.48681
by	-9.48757
▁fairy	-9.48808
▁riding	-9.48853
▁comet	-9.48886
▁si	-9.49051
▁ms	-9.4909
▁reporter	-9.49096
▁rip	-9.49194
▁tommy	-9.49444
▁level	-9.49447
▁chip	-9.4945
▁noise	-9.49472
▁sever	-9.49511
▁clown	-9.49549
▁guest	-9.49607
▁gate	-9.49615
▁fake	-9.49696
and	-9.49848
os	-9.49937
▁tickets	-9.49986
▁butch	-9.50123
▁wash	-9.50573
ent	-9.50872
▁hurts	-9.51043
ng	-9.51053
▁fi	-9.51081
cina	-9.51195
▁focus	-9.51213
▁mention	-9.51277
▁smoke	-9.51352
▁bow	-9.51441
men	-9.5149
▁wage	-9.51533
▁marcel	-9.51593
▁applause	-9.51605
▁became	-9.51605
▁bruce	-9.51605
▁california	-9.51605
▁empty	-9.51605
▁harvey	-9.51605
▁kitchen	-9.51605
▁rosebud	-9.51605
▁whistling	-9.51605
▁surrender	-9.51605
▁benny	-9.5161
▁department	-9.51611
▁potter	-9.51612
▁knightley	-9.51613
▁planning	-9.51618
▁shining	-9.51649
▁deland	-9.51653
▁guns	-9.51671
▁willing	-9.51683
▁lex	-9.51684
▁ark	-9.51697
▁ahh	-9.51713
▁card	-9.51756
▁climb	-9.51961
▁carl	-9.52136
▁stealing	-9.52253
▁yay	-9.52477
▁load	-9.52595
▁nation	-9.52677
▁calls	-9.52861
▁agent	-9.52998
▁bite	-9.53023
▁heading	-9.53052
▁ends	-9.53132
as	-9.53183
▁heat	-9.53192
▁robots	-9.53228
▁followed	-9.53416
se	-9.53568
▁keeping	-9.53743
▁san	-9.54528
▁faith	-9.54549
▁approach	-9.54556
▁fail	-9.54703
▁gum	-9.54749
back	-9.54813
▁zoo	-9.54868
▁spit	-9.54941
▁ashamed	-9.55053
▁cinderella	-9.55053
▁cricket	-9.55053
▁evelyn	-9.55053
▁spanish	-9.55053
▁strickland	-9.55053
▁violin	-9.55053
▁staff	-9.55054
▁nature	-9.55056
▁local	-9.55057
▁alberto	-9.5506
▁available	-9.55068
▁west	-9.5507
▁indy	-9.5507
▁planned	-9.55077
▁crown	-9.55078
▁mouse	-9.55078
▁trap	-9.55081
▁eric	-9.55088
▁haha	-9.55113
▁involved	-9.55114
▁usually	-9.55165
▁marion	-9.55206
▁metal	-9.55311
▁losing	-9.55384
▁tires	-9.55449
▁gives	-9.55471
▁out	-9.55555
▁falls	-9.55651
▁owl	-9.55677
▁parts	-9.55713
▁breathe	-9.55834
▁schedule	-9.5603
ium	-9.56218
▁rule	-9.56252
▁seemed	-9.56265
▁starts	-9.56285
▁ordered	-9.56366
▁scene	-9.56434
▁snow	-9.56461
▁lesson	-9.56497
▁shine	-9.56534
▁decision	-9.56536
▁musician	-9.56539
▁pocket	-9.56543
▁creature	-9.56579
ah	-9.567
▁cos	-9.57022
▁tie	-9.5721
▁tears	-9.5727
▁clears	-9.57519
▁draw	-9.5752
▁places	-9.57744
▁wings	-9.57817
you	-9.57884
▁corps	-9.57994
▁coach	-9.58106
▁mae	-9.58416
▁range	-9.58438
▁particular	-9.58474
▁spider	-9.58608
▁sand	-9.58608
▁apologize	-9.58625
▁chicago	-9.58625
▁derek	-9.58625
▁jasmine	-9.58625
▁kelani	-9.58625
▁lorraine	-9.58625
▁luthor	-9.58625
▁poirot	-9.58625
▁shaggy	-9.58625
▁video	-9.58625
▁among	-9.58625
▁female	-9.58625
▁somehow	-9.58625
▁darien	-9.58626
▁gwen	-9.58626
▁betsie	-9.58626
▁mercy	-9.58626
▁gertie	-9.58627
▁heck	-9.58627
▁tongue	-9.58627
▁bike	-9.58629
▁junk	-9.58629
▁medical	-9.5863
▁mask	-9.58631
▁society	-9.58635
▁poppa	-9.58636
▁destiny	-9.58647
▁nurse	-9.58648
▁friday	-9.58666
▁worthless	-9.58675
▁incredible	-9.58677
▁proof	-9.5868
▁jacket	-9.58695
▁hail	-9.58717
▁o	-9.58728
▁shy	-9.58733
▁barking	-9.58748
▁dune	-9.58753
▁invited	-9.5883
▁guide	-9.58839
▁raised	-9.59094
▁covered	-9.59512
▁cats	-9.59665
▁z	-9.59745
x	-9.59837
▁bones	-9.59914
▁camera	-9.60194
▁page	-9.60202
▁snake	-9.60256
▁direction	-9.60285
▁bobble	-9.60286
▁lawyer	-9.60291
▁stars	-9.60343
▁landing	-9.60666
her	-9.60883
▁ships	-9.6107
ate	-9.61299
▁discuss	-9.61366
▁direct	-9.61399
▁doors	-9.6158
▁guards	-9.61602
▁ate	-9.61711
▁harm	-9.61817
do	-9.61891
▁lower	-9.62029
ious	-9.62093
▁blame	-9.62097
▁damage	-9.62113
▁refuse	-9.62113
▁madam	-9.62151
▁natural	-9.62206
▁mail	-9.62309
▁silver	-9.62327
▁puppet	-9.62328
▁afford	-9.62329
▁disaster	-9.62329
▁federal	-9.62329
▁journey	-9.62329
▁lieberman	-9.62329
▁nonsense	-9.62329
▁ocean	-9.62329
▁biggest	-9.62329
▁defend	-9.62329
▁insurance	-9.62329
▁empire	-9.6233
▁beauty	-9.6233
▁indistinct	-9.6233
▁shame	-9.62331
▁basic	-9.62332
▁barrow	-9.62333
▁whoohoo	-9.62336
▁hoke	-9.62339
▁data	-9.62357
▁began	-9.62358
▁mister	-9.62368
▁momma	-9.62378
▁row	-9.62379
▁engaged	-9.62414
▁whatd	-9.62416
▁gotham	-9.625
▁do	-9.62561
▁personally	-9.62644
▁provide	-9.62687
em	-9.6275
go	-9.62829
▁answers	-9.62924
▁cares	-9.62926
▁fucking	-9.63109
▁kicked	-9.63115
▁sooner	-9.63122
▁turns	-9.63148
▁stink	-9.63345
▁growing	-9.63471
▁bug	-9.6376
▁ra	-9.63882
▁cleaning	-9.63928
▁bert	-9.63947
▁bottle	-9.64009
▁ticket	-9.64166
▁student	-9.64166
mo	-9.64174
▁states	-9.64292
be	-9.64384
▁weapons	-9.64701
▁fan	-9.64799
▁br	-9.6483
▁pleased	-9.65635
▁ma	-9.65704
▁shower	-9.65812
▁square	-9.65934
▁spare	-9.65953
▁invite	-9.65959
▁curse	-9.6596
▁ohh	-9.66034
▁somethin	-9.66148
▁drunk	-9.66152
▁alakay	-9.66175
▁brooklyn	-9.66175
▁harriet	-9.66175
▁itomori	-9.66175
▁oconnor	-9.66175
▁rabbit	-9.66175
▁responsible	-9.66175
▁someplace	-9.66175
▁latin	-9.66175
▁avoid	-9.66175
▁granny	-9.66175
▁grail	-9.66179
▁truck	-9.66179
▁ni	-9.66181
▁dante	-9.66183
ia	-9.66184
▁onto	-9.66185
▁aboard	-9.66187
▁dick	-9.66195
▁missile	-9.66216
▁chet	-9.66222
▁section	-9.66222
▁metro	-9.66223
▁protection	-9.66233
▁golden	-9.66261
▁stairs	-9.66297
▁bitch	-9.6631
▁union	-9.66336
▁ideas	-9.66365
▁busted	-9.66428
▁groov	-9.66461
▁mass	-9.66481
▁value	-9.66533
▁bucks	-9.66685
▁shelly	-9.66859
▁clearly	-9.66963
ey	-9.67036
▁nan	-9.67044
▁interest	-9.67286
▁sail	-9.67396
▁flowers	-9.67594
he	-9.67645
▁talent	-9.67687
▁gasp	-9.67735
▁who	-9.67816
▁pen	-9.67851
▁fingers	-9.67909
▁expecting	-9.67938
▁bang	-9.67999
j	-9.68006
▁showed	-9.68098
▁sometime	-9.68188
▁fans	-9.68229
▁pro	-9.68471
▁pie	-9.68622
▁pr	-9.6879
ure	-9.68848
▁ca	-9.69104
▁gather	-9.69286
im	-9.69572
▁chatter	-9.69725
▁freeze	-9.69923
▁terribl	-9.69957
▁hook	-9.69959
▁amen	-9.69968
▁wise	-9.70067
▁camp	-9.70078
▁fran	-9.7011
▁chill	-9.70116
▁rhythm	-9.70124
▁jeff	-9.70173
▁priest	-9.70174
▁bullshit	-9.70175
▁conference	-9.70175
▁easily	-9.70175
▁example	-9.70175
▁invisible	-9.70175
▁klaus	-9.70175
▁lindsay	-9.70175
▁marriage	-9.70175
▁positive	-9.70175
▁warehouse	-9.70175
▁byebye	-9.70175
▁corrie	-9.70176
▁itd	-9.70177
▁heavily	-9.70178
▁screeches	-9.70179
▁trade	-9.7018
▁dido	-9.7018
▁spread	-9.70181
▁march	-9.70182
▁roof	-9.70184
▁horrible	-9.70184
▁technology	-9.70186
▁coat	-9.70186
▁lightning	-9.70197
▁hammer	-9.70198
▁jedi	-9.70203
▁ease	-9.70206
▁express	-9.70206
▁float	-9.70234
▁minister	-9.70237
▁unfortunately	-9.70238
▁cutting	-9.70255
▁scary	-9.70257
▁challenge	-9.70262
▁meeks	-9.70302
one	-9.70312
▁headed	-9.70402
▁honestly	-9.70444
▁solo	-9.70461
▁showing	-9.70525
▁entirely	-9.70601
▁treated	-9.70766
ol	-9.70772
▁model	-9.70899
▁balls	-9.70903
ier	-9.70915
▁seek	-9.70946
▁on	-9.71186
▁dry	-9.71213
▁guardians	-9.71305
▁lately	-9.71334
▁bud	-9.71627
▁eggs	-9.71635
▁loss	-9.71682
▁cookies	-9.71683
per	-9.71724
▁request	-9.71825
▁devil	-9.71833
▁concern	-9.71873
▁german	-9.71936
ess	-9.71968
▁games	-9.72091
▁source	-9.72183
▁winter	-9.72279
▁shoulder	-9.72299
▁hunter	-9.72349
▁parent	-9.72357
po	-9.72451
▁drinking	-9.72589
▁checked	-9.7268
▁picking	-9.72831
▁career	-9.72998
▁mountains	-9.73259
▁announce	-9.73272
▁jerk	-9.73629
▁mel	-9.73758
▁desert	-9.73814
▁study	-9.73825
ois	-9.73883
▁plant	-9.73925
ance	-9.73989
▁kings	-9.74077
ors	-9.74119
▁sharp	-9.742
ial	-9.74202
ery	-9.74216
▁champ	-9.74316
▁regret	-9.74334
▁transfer	-9.74339
▁mount	-9.74339
▁dimitri	-9.74341
▁eeyore	-9.74341
▁interview	-9.74341
▁jealous	-9.74341
▁mackenzie	-9.74341
▁namaari	-9.74341
▁progress	-9.74341
▁regular	-9.74341
▁subject	-9.74341
▁terrific	-9.74341
▁tradition	-9.74341
▁treasure	-9.74341
▁lulu	-9.74341
▁presence	-9.74341
▁todd	-9.74342
▁darlene	-9.74342
▁binky	-9.74342
▁glory	-9.74343
▁easier	-9.74343
▁trail	-9.74345
▁lewis	-9.74346
▁wherever	-9.74347
▁sheriff	-9.74349
▁inspector	-9.74352
▁randy	-9.74357
▁poppy	-9.74361
▁wide	-9.74362
▁desk	-9.74366
▁guilty	-9.74367
▁century	-9.74373
▁murmuring	-9.74374
▁under	-9.7438
▁wet	-9.74397
▁stock	-9.74402
▁map	-9.74404
▁sally	-9.74439
▁darkness	-9.74439
▁mere	-9.74441
▁prize	-9.74536
▁lay	-9.74579
▁gotcha	-9.74607
▁wayne	-9.7462
▁eaten	-9.74629
▁discovered	-9.74667
▁fo	-9.74735
▁troops	-9.74909
▁drawing	-9.74928
▁meaning	-9.74944
▁knights	-9.7516
▁filled	-9.75167
▁fixed	-9.75582
▁cha	-9.75623
dy	-9.75761
▁drinks	-9.75866
il	-9.75886
▁carrying	-9.75887
▁stu	-9.76017
▁fl	-9.76499
▁nah	-9.76598
▁heffalump	-9.76625
▁whistle	-9.76625
am	-9.76631
▁bastard	-9.76637
▁bringing	-9.76644
▁daddys	-9.76698
▁fishing	-9.76797
▁smells	-9.77106
▁lee	-9.77257
▁helping	-9.77259
▁thre	-9.77389
ne	-9.7743
▁stayed	-9.77475
▁screw	-9.77777
▁blast	-9.77779
▁education	-9.77803
▁enter	-9.77869
▁charm	-9.77929
▁poison	-9.78317
▁ed	-9.78338
▁equal	-9.785
▁mood	-9.7857
▁gross	-9.78666
▁coast	-9.78686
▁according	-9.78689
▁attitude	-9.78689
▁babies	-9.78689
▁bernstein	-9.78689
▁cheese	-9.78689
▁council	-9.78689
▁elizabeth	-9.78689
▁junior	-9.78689
▁knowledge	-9.78689
▁linderman	-9.78689
▁purrbles	-9.78689
▁reserve	-9.78689
▁thatcher	-9.78689
▁wildhorn	-9.78689
▁fantastic	-9.7869
▁parade	-9.7869
▁fought	-9.78691
▁elaine	-9.78692
▁hm	-9.78693
▁leland	-9.78693
▁miserable	-9.78693
▁nuclear	-9.78697
▁santa	-9.787
▁duck	-9.78705
▁alley	-9.78711
▁liar	-9.78712
▁columbia	-9.78718
▁chop	-9.78722
▁literally	-9.78733
▁defense	-9.78734
▁season	-9.78741
▁lina	-9.78758
▁sold	-9.78759
▁recently	-9.78778
▁squeaking	-9.78789
▁recall	-9.78817
▁giggles	-9.78828
▁glasses	-9.78842
▁moody	-9.78864
▁wounded	-9.78902
▁lick	-9.78924
▁grown	-9.79071
▁prepared	-9.7908
▁kate	-9.79317
▁heavens	-9.7937
▁carefully	-9.79405
▁lips	-9.79557
▁towards	-9.79648
▁port	-9.79721
▁hood	-9.79847
▁howls	-9.7993
▁knocking	-9.79973
▁harder	-9.80069
▁returned	-9.80151
ty	-9.80281
head	-9.80357
▁servants	-9.80477
li	-9.80561
▁fellas	-9.80588
▁humans	-9.80605
▁image	-9.80782
▁shooting	-9.80789
▁rope	-9.80908
▁airplane	-9.81078
▁bedroom	-9.81093
▁exist	-9.81158
▁finger	-9.81219
▁dollar	-9.81291
▁badly	-9.81372
▁gates	-9.81416
▁cops	-9.81508
bo	-9.81622
▁seconds	-9.82164
▁woo	-9.82183
▁witness	-9.82241
▁discover	-9.82332
way	-9.82429
▁arab	-9.82471
▁sneak	-9.82526
▁lab	-9.82535
▁leaves	-9.826
▁fighter	-9.82631
▁function	-9.82644
▁attend	-9.82676
▁repeat	-9.82695
▁lift	-9.8284
▁attempt	-9.82858
ay	-9.8286
▁den	-9.82878
▁assure	-9.83022
▁exact	-9.8309
▁lookin	-9.83103
▁proper	-9.8314
▁usual	-9.83161
▁genius	-9.83163
▁transport	-9.83224
▁slip	-9.83226
▁birth	-9.83233
▁campaign	-9.83235
▁chihiro	-9.83235
▁complex	-9.83235
▁henry	-9.83235
▁memory	-9.83235
▁ordinary	-9.83235
▁sarris	-9.83235
▁shelter	-9.83235
▁skywalker	-9.83235
▁spazzatura	-9.83235
▁stomach	-9.83235
▁footsteps	-9.83235
▁salesman	-9.83235
▁miracle	-9.83235
▁vacation	-9.83235
▁delicious	-9.83235
▁swimming	-9.83235
▁alert	-9.83236
▁miami	-9.83236
▁zero	-9.83237
▁rotten	-9.83239
▁blink	-9.8324
▁lockwood	-9.83241
▁richard	-9.83243
▁stephen	-9.83245
▁churchill	-9.83246
▁grandma	-9.83247
▁soup	-9.83247
▁weasel	-9.83247
▁elton	-9.83248
▁mick	-9.8325
▁plus	-9.83251
▁fungus	-9.83253
▁grew	-9.83255
▁giles	-9.83255
▁jason	-9.83256
▁exit	-9.83266
▁darn	-9.83267
▁panic	-9.83269
▁sword	-9.8327
▁rare	-9.8327
▁estate	-9.83274
▁owner	-9.83281
▁ox	-9.83285
▁spoil	-9.83288
▁cage	-9.8329
▁madeline	-9.83323
▁tiny	-9.83326
▁stolen	-9.83344
▁male	-9.83358
▁cast	-9.83358
▁dean	-9.83429
▁manager	-9.83449
▁murderer	-9.83516
▁impressed	-9.83682
▁spine	-9.83718
▁chase	-9.83945
▁juice	-9.83956
▁guts	-9.84052
▁cell	-9.84082
▁forced	-9.84096
▁nuts	-9.84184
phant	-9.8421
▁shows	-9.84331
▁horses	-9.84337
▁mistakes	-9.84525
ac	-9.84558
▁oil	-9.84612
ha	-9.84891
▁staring	-9.84973
▁ne	-9.85302
▁sons	-9.85316
me	-9.85445
▁scream	-9.85511
ig	-9.85603
oo	-9.85617
▁youth	-9.8584
▁diamond	-9.85865
▁bobblehead	-9.85893
▁file	-9.85919
▁tip	-9.85922
▁poem	-9.8595
▁ray	-9.8596
▁mud	-9.8601
▁ar	-9.86157
▁fella	-9.86161
▁com	-9.86231
▁judges	-9.86355
▁flip	-9.86445
▁closes	-9.86487
ow	-9.86812
▁losers	-9.86839
▁awake	-9.86847
▁crack	-9.86862
▁ended	-9.86997
▁bay	-9.87416
▁paying	-9.87459
ship	-9.87542
▁sp	-9.87587
▁intend	-9.87613
▁officers	-9.87706
▁concentrate	-9.87762
▁recognize	-9.87776
▁faces	-9.87787
▁contract	-9.8783
▁obvious	-9.8785
▁russia	-9.87906
▁sandwich	-9.87928
▁krypto	-9.87938
▁success	-9.87982
▁percent	-9.87986
▁popular	-9.87987
▁advantage	-9.87997
▁alexander	-9.87997
▁alfred	-9.87997
▁appointment	-9.87997
▁emperor	-9.87997
▁equipment	-9.87997
▁fredricksen	-9.87997
▁joseph	-9.87997
▁jubal	-9.87997
▁museum	-9.87997
▁piano	-9.87997
▁quilok	-9.87997
▁stephanie	-9.87997
▁underneath	-9.87997
▁vespa	-9.87997
▁written	-9.87997
▁surface	-9.87997
▁concert	-9.87997
▁giggling	-9.87997
▁hadnt	-9.87997
▁funeral	-9.87997
▁england	-9.87997
▁milady	-9.87998
▁velma	-9.87998
▁distant	-9.87998
▁yellow	-9.88
▁bingo	-9.88
▁johnny	-9.88001
▁fruit	-9.88002
▁detective	-9.88003
▁heir	-9.88003
▁military	-9.88004
▁daily	-9.88009
▁obey	-9.8801
▁earlier	-9.88012
▁freedom	-9.88013
▁johnson	-9.88018
▁secure	-9.88019
▁wave	-9.88023
▁carried	-9.88028
▁skin	-9.88034
▁toilet	-9.88051
▁rocket	-9.88059
▁commissioner	-9.8807
▁east	-9.88092
▁disappointed	-9.88109
▁clattering	-9.88131
▁hotel	-9.88134
▁fourth	-9.88142
▁naturally	-9.88189
▁sobs	-9.88407
▁cents	-9.8846
▁writer	-9.88478
▁so	-9.88519
▁charming	-9.88554
▁bi	-9.88579
▁finest	-9.88581
▁slowly	-9.88728
▁billy	-9.88765
▁reb	-9.8878
▁inc	-9.88807
▁knocked	-9.89002
▁mothers	-9.89104
▁boots	-9.89147
▁laws	-9.89217
▁relaxed	-9.89242
▁fully	-9.89265
▁opening	-9.89271
▁fii	-9.89524
▁pulled	-9.89636
▁signed	-9.89768
▁fr	-9.89983
ot	-9.90002
▁steps	-9.90013
▁thin	-9.90519
▁settle	-9.90548
▁throwing	-9.90594
▁villain	-9.90656
ke	-9.90728
▁flank	-9.90764
▁rose	-9.90784
▁operation	-9.90785
▁uniform	-9.90836
▁su	-9.90875
▁elephant	-9.90888
▁servant	-9.90973
▁quest	-9.91118
▁ln	-9.91422
▁boo	-9.9146
▁di	-9.9166
▁lines	-9.91876
▁shock	-9.9206
ick	-9.92194
▁sacrifice	-9.92209
▁bee	-9.92303
▁knowing	-9.92319
▁pretend	-9.92483
just	-9.92534
▁loose	-9.92553
ned	-9.92632
▁defeat	-9.92635
ns	-9.92673
▁belongs	-9.92747
▁earn	-9.92792
▁health	-9.92834
▁cheap	-9.92872
▁shoo	-9.92882
▁ears	-9.92914
▁gettin	-9.92977
▁smooth	-9.9298
▁pitts	-9.92985
▁artillery	-9.92997
▁british	-9.92997
▁cmon	-9.92997
▁davinier	-9.92997
▁exciting	-9.92997
▁galaxy	-9.92997
▁goodfellowe	-9.92997
▁hagrid	-9.92997
▁ikioi	-9.92997
▁including	-9.92997
▁kumandra	-9.92997
▁mmmhmm	-9.92997
▁oclock	-9.92997
▁paradise	-9.92997
▁review	-9.92997
▁sergeant	-9.92997
▁subtitle	-9.92997
▁tokyo	-9.92997
▁wallace	-9.92997
▁zuba	-9.92997
▁greg	-9.92997
▁humming	-9.92997
▁knife	-9.92997
▁patient	-9.92997
▁alodor	-9.92997
▁insist	-9.92998
▁otis	-9.92998
▁valley	-9.92998
▁curious	-9.92999
▁wilson	-9.93
▁downton	-9.93003
▁leia	-9.93003
▁inquirer	-9.93003
▁ripper	-9.93006
▁sat	-9.93007
▁radar	-9.93008
▁starving	-9.93011
▁impression	-9.93012
▁reward	-9.93013
▁dropped	-9.93015
▁brush	-9.93017
▁ouch	-9.93019
▁cash	-9.93019
▁assist	-9.9302
▁fuel	-9.93022
▁tenma	-9.93022
▁cries	-9.93027
▁postman	-9.93032
▁bowers	-9.93034
▁fang	-9.93046
▁winning	-9.93048
▁barely	-9.93053
▁apparently	-9.93054
▁bride	-9.93071
▁print	-9.93072
▁bury	-9.93101
▁homework	-9.93117
▁yall	-9.93133
▁sexy	-9.93136
▁iron	-9.93137
▁chin	-9.93149
▁manny	-9.9315
▁instructions	-9.93157
▁pity	-9.93172
▁carson	-9.93183
▁united	-9.93217
▁lane	-9.93241
▁louise	-9.93296
▁agreed	-9.93505
▁gotten	-9.93521
▁fry	-9.93539
▁approaching	-9.93729
▁closer	-9.93785
▁non	-9.94021
▁brains	-9.94069
▁lied	-9.94101
▁to	-9.9416
▁citizens	-9.94214
▁mis	-9.94238
un	-9.94583
▁counting	-9.94981
▁hoo	-9.94985
▁touched	-9.95228
ron	-9.95267
▁dang	-9.95348
▁issue	-9.95358
▁que	-9.95411
▁roar	-9.95632
▁ap	-9.95695
▁changes	-9.95724
▁appear	-9.95818
off	-9.95838
▁scare	-9.96002
▁saving	-9.96099
▁led	-9.96111
▁winner	-9.96114
▁professional	-9.96117
▁tigger	-9.96164
▁slave	-9.96208
▁tale	-9.96647
▁walls	-9.96827
▁crash	-9.97303
▁wha	-9.9751
▁mill	-9.97519
▁phil	-9.97565
▁opened	-9.97684
down	-9.97718
▁spin	-9.97846
▁wreck	-9.97891
▁ear	-9.97933
▁rat	-9.97987
knock	-9.98002
though	-9.98003
▁argue	-9.98021
▁disease	-9.98036
▁jokes	-9.98121
▁pink	-9.98149
▁africa	-9.98179
▁bullet	-9.98186
▁corn	-9.98193
▁spoke	-9.98202
▁chose	-9.98202
▁object	-9.98215
▁babo	-9.98248
▁ron	-9.98258
▁annette	-9.9826
▁cavalry	-9.9826
▁damascus	-9.9826
▁election	-9.9826
▁elevator	-9.9826
▁escalante	-9.9826
▁false	-9.9826
▁foreign	-9.9826
▁league	-9.9826
▁linnet	-9.9826
▁mandrake	-9.9826
▁orange	-9.9826
▁policy	-9.9826
▁reputation	-9.9826
▁scratch	-9.9826
▁snoring	-9.9826
▁therefore	-9.9826
▁wabac	-9.9826
▁plummer	-9.9826
▁susie	-9.9826
▁pump	-9.9826
▁believing	-9.98261
▁closing	-9.98261
▁toast	-9.98261
▁grantham	-9.98261
▁sacred	-9.98261
▁sniffles	-9.98261
▁pleasant	-9.98261
▁community	-9.98261
▁camelot	-9.98262
▁whenever	-9.98262
▁reckon	-9.98262
▁ridge	-9.98263
▁bubble	-9.98263
▁rising	-9.98263
▁plain	-9.98264
▁kemo	-9.98264
▁admiral	-9.98266
▁property	-9.98266
▁padre	-9.98267
▁imagination	-9.98268
▁asshole	-9.98269
▁coward	-9.9827
▁piglet	-9.98271
▁pair	-9.98271
▁deputy	-9.98274
▁library	-9.98274
▁sentence	-9.98276
▁willie	-9.98276
▁potatoes	-9.98278
▁nasty	-9.98278
▁christian	-9.98283
▁melman	-9.98284
▁bette	-9.98287
▁familiar	-9.98297
▁charity	-9.98304
▁collection	-9.98311
▁statement	-9.98329
▁pool	-9.98335
▁manual	-9.98349
▁disgusting	-9.98355
▁rent	-9.98365
▁jobs	-9.98369
▁jackson	-9.9838
▁jet	-9.98396
▁china	-9.98399
▁embarrassed	-9.98424
▁coughs	-9.9843
pe	-9.98446
▁embarrassing	-9.98491
▁fur	-9.98509
▁circumstances	-9.9854
▁latest	-9.9856
▁structure	-9.98566
▁foolish	-9.98575
▁systems	-9.98665
▁tied	-9.98702
▁original	-9.98703
▁bounce	-9.98743
▁maine	-9.98964
▁makeup	-9.98978
▁lando	-9.98984
▁locker	-9.98994
▁skills	-9.99097
side	-9.9918
▁bump	-9.99433
▁sin	-9.99449
ba	-9.99663
▁keeps	-9.99739
▁streets	-9.99739
▁killer	-9.99788
▁magical	-9.9986
ized	-9.99962
▁talkin	-9.99987
ped	-9.99988
▁slaves	-10.0034
op	-10.0062
▁friendly	-10.01
ab	-10.0116
▁suspect	-10.0127
▁arrive	-10.014
▁circle	-10.0166
▁connection	-10.0167
▁banks	-10.0171
▁partner	-10.0173
▁finding	-10.0174
▁nights	-10.0175
▁detail	-10.0177
▁los	-10.0183
▁cookie	-10.0184
▁odd	-10.0187
▁prisoner	-10.02
▁ko	-10.0205
▁flower	-10.0229
▁egg	-10.0233
▁towns	-10.0234
line	-10.0238
▁thousands	-10.0274
▁te	-10.0277
▁cow	-10.028
▁u	-10.0283
▁vision	-10.0291
▁fellows	-10.0297
lin	-10.0312
▁of	-10.0323
▁garden	-10.0326
▁warn	-10.0327
▁proceed	-10.0329
▁lean	-10.0329
▁rocks	-10.0338
▁pigs	-10.0344
▁disappear	-10.0346
▁introduce	-10.0359
▁create	-10.0361
let	-10.0365
▁dust	-10.0366
▁solve	-10.0369
▁project	-10.0374
nah	-10.0376
▁beach	-10.0376
▁inherit	-10.0381
▁twenty	-10.0381
▁bruno	-10.0382
▁bubba	-10.0382
▁channel	-10.0382
▁dracone	-10.0382
▁enemies	-10.0382
▁experiment	-10.0382
▁grunion	-10.0382
▁lucinda	-10.0382
▁marvin	-10.0382
▁moonquake	-10.0382
▁ralph	-10.0382
▁salmon	-10.0382
▁tuesday	-10.0382
▁understood	-10.0382
▁yubaba	-10.0382
▁encourage	-10.0382
▁slight	-10.0382
▁reveal	-10.0382
▁gahhh	-10.0382
▁jimmy	-10.0382
▁central	-10.0382
▁opposite	-10.0382
▁narrat	-10.0382
▁forbidden	-10.0382
▁mysterious	-10.0382
▁willow	-10.0382
▁assignment	-10.0382
▁steel	-10.0382
▁permission	-10.0382
▁woke	-10.0382
▁lucy	-10.0382
▁meteorite	-10.0382
▁social	-10.0382
▁theory	-10.0382
▁neighborhood	-10.0382
▁jabba	-10.0382
▁performance	-10.0382
▁solid	-10.0382
▁poetry	-10.0382
▁theme	-10.0382
▁whoever	-10.0382
▁fbi	-10.0382
▁toothless	-10.0382
▁political	-10.0382
▁peak	-10.0382
▁communist	-10.0383
▁shep	-10.0383
▁omice	-10.0383
▁sentimental	-10.0383
▁shirt	-10.0384
▁solution	-10.0384
▁rude	-10.0385
▁precisely	-10.0385
▁standard	-10.0386
▁shao	-10.0386
▁market	-10.0387
▁taxi	-10.0387
▁math	-10.0388
▁chosen	-10.0388
▁exhales	-10.0388
▁hogwarts	-10.0388
▁fhe	-10.0392
▁suddenly	-10.0394
▁sniffing	-10.0398
▁surrounded	-10.0399
▁witches	-10.0399
▁hired	-10.04
▁chirping	-10.04
▁event	-10.0401
▁perfection	-10.0405
▁butter	-10.0409
▁sink	-10.041
▁lily	-10.0411
▁bowl	-10.0411
▁thrown	-10.0417
▁reality	-10.0425
▁houses	-10.0428
▁ruined	-10.0446
▁bust	-10.0447
▁chest	-10.0448
▁blessed	-10.0459
▁packed	-10.0483
▁ld	-10.0494
ma	-10.051
▁parking	-10.0534
▁speaks	-10.0547
▁matt	-10.0568
▁teaching	-10.058
▁fund	-10.0584
▁gus	-10.0586
▁score	-10.0595
▁sh	-10.0599
▁bone	-10.0603
og	-10.0613
▁fixing	-10.0618
land	-10.0623
▁pound	-10.0709
▁learning	-10.0713
▁pilot	-10.0749
ated	-10.0751
▁pipe	-10.0753
▁outfit	-10.0754
▁generator	-10.0754
▁dimension	-10.0757
▁rebel	-10.076
▁thumb	-10.076
▁costume	-10.0765
▁numbers	-10.0765
▁bon	-10.0773
▁trusted	-10.0777
ever	-10.079
▁prayer	-10.0793
▁doctors	-10.08
tic	-10.0805
▁secrets	-10.0807
▁that	-10.0821
▁mile	-10.0831
▁flow	-10.0858
▁cra	-10.0863
▁suffer	-10.0882
ight	-10.0886
ize	-10.0911
house	-10.0934
ett	-10.0936
▁he	-10.0938
▁site	-10.0941
loved	-10.0944
▁permanent	-10.0953
▁paul	-10.096
▁moto	-10.0962
▁sweep	-10.0967
▁anderson	-10.097
▁bessner	-10.097
▁clifford	-10.097
▁device	-10.097
▁downstairs	-10.097
▁dumbledore	-10.097
▁gabriel	-10.097
▁gryffindor	-10.097
▁happiness	-10.097
▁longstreet	-10.097
▁luisa	-10.097
▁memories	-10.097
▁mexico	-10.097
▁period	-10.097
▁politics	-10.097
▁pride	-10.097
▁principal	-10.097
▁sheep	-10.097
▁temple	-10.097
▁unique	-10.097
▁wednesday	-10.097
▁chinese	-10.097
▁mostly	-10.097
▁morgan	-10.097
▁joking	-10.097
▁edgar	-10.097
▁plaza	-10.097
▁supper	-10.097
▁amigo	-10.097
▁lisa	-10.097
▁stood	-10.097
▁jayson	-10.097
▁unbelievable	-10.097
▁giulia	-10.097
▁football	-10.0971
▁thou	-10.0971
▁brewery	-10.0971
▁aware	-10.0971
▁expensive	-10.0972
▁aim	-10.0973
▁crap	-10.0973
▁panel	-10.0974
▁bratt	-10.0974
▁dug	-10.0974
▁evan	-10.0974
▁moral	-10.0975
▁weston	-10.0976
▁tense	-10.0977
▁spoken	-10.0977
▁contain	-10.0979
▁yearold	-10.098
▁task	-10.0981
▁gray	-10.0983
▁hitting	-10.0983
▁cable	-10.0984
▁doon	-10.0986
▁christal	-10.0988
▁sighing	-10.099
ge	-10.0993
▁walks	-10.0997
▁oughta	-10.0998
▁yah	-10.1
▁grandpa	-10.1005
▁hunting	-10.1014
▁bound	-10.102
▁safer	-10.103
▁mentioned	-10.1034
▁frankly	-10.1038
▁wishes	-10.1042
▁national	-10.1043
▁stoney	-10.1044
▁stronger	-10.1063
▁pete	-10.1066
▁hearing	-10.1082
▁becom	-10.1085
▁pearls	-10.1102
▁es	-10.1114
les	-10.1114
▁siren	-10.1125
▁yells	-10.1129
ical	-10.1151
nd	-10.1155
cer	-10.1165
▁nate	-10.1174
▁cher	-10.1183
▁le	-10.1188
▁prisoners	-10.1196
▁roses	-10.1217
▁mu	-10.1248
▁plays	-10.1256
▁reasons	-10.1264
▁dreaming	-10.1272
▁lawyers	-10.1306
▁admire	-10.1317
que	-10.1318
▁owls	-10.1323
ley	-10.1328
▁waited	-10.1328
▁demand	-10.1331
▁claim	-10.1341
▁millions	-10.1346
▁or	-10.1371
▁du	-10.1374
▁article	-10.1379
▁division	-10.1382
▁meal	-10.1382
iest	-10.1383
▁squeal	-10.1384
▁hop	-10.1385
▁ace	-10.1386
▁paw	-10.1402
▁actor	-10.1413
▁rate	-10.1425
▁eve	-10.1437
▁seal	-10.1475
▁rep	-10.1481
▁skip	-10.1482
▁crush	-10.149
▁songs	-10.15
the	-10.1514
▁photos	-10.1527
▁interrupt	-10.1538
▁sex	-10.1544
▁heal	-10.1545
▁borrow	-10.1555
▁sisters	-10.1558
io	-10.1564
▁arrange	-10.157
▁moments	-10.1571
hood	-10.1576
▁desperate	-10.1578
▁horns	-10.1581
▁heave	-10.1589
▁believed	-10.1592
▁mutt	-10.1592
▁confess	-10.1592
▁courage	-10.1594
▁yank	-10.1594
▁meteor	-10.1595
▁recommend	-10.1595
▁egypt	-10.1595
▁argument	-10.1595
▁audrey	-10.1595
▁bargain	-10.1595
▁cotton	-10.1595
▁district	-10.1595
▁episode	-10.1595
▁expert	-10.1595
▁gloria	-10.1595
▁grateful	-10.1595
▁invitation	-10.1595
▁llorona	-10.1595
▁rematch	-10.1595
▁william	-10.1595
▁changing	-10.1595
▁fabulous	-10.1595
▁gordon	-10.1595
▁imperial	-10.1595
▁launch	-10.1595
▁scoffs	-10.1595
▁snipe	-10.1595
▁larry	-10.1595
▁thump	-10.1595
▁institute	-10.1595
▁stretch	-10.1595
▁glob	-10.1595
▁wrapped	-10.1595
▁leap	-10.1595
▁flash	-10.1595
▁fairfax	-10.1595
▁alternative	-10.1595
▁pumpkin	-10.1596
▁ripped	-10.1596
▁wore	-10.1596
▁trial	-10.1596
▁porch	-10.1596
▁unknown	-10.1596
▁poop	-10.1596
▁loving	-10.1596
▁brent	-10.1597
▁pitch	-10.1597
▁adoption	-10.1597
▁drag	-10.1597
▁forth	-10.1597
▁hattie	-10.1598
▁filthy	-10.1598
▁unlike	-10.1598
▁capable	-10.1599
▁gim	-10.1599
▁coughing	-10.16
▁labor	-10.16
▁bucket	-10.1601
▁perry	-10.1601
▁patch	-10.1602
▁secretary	-10.1602
▁talon	-10.1602
▁comin	-10.1602
▁tia	-10.1602
▁lordship	-10.1603
▁ember	-10.1606
▁russian	-10.1607
▁nightmare	-10.1608
va	-10.1609
▁laid	-10.161
min	-10.1613
▁fallen	-10.1614
▁properly	-10.1616
▁designed	-10.1617
▁useless	-10.1618
▁weight	-10.162
▁pulse	-10.162
▁fu	-10.1622
ring	-10.1626
▁wilder	-10.1632
▁disappeared	-10.1635
▁snape	-10.1637
▁aaah	-10.1641
cient	-10.1644
▁mandy	-10.1653
▁mat	-10.1666
▁stands	-10.1671
▁realized	-10.1674
▁cres	-10.1679
▁accepted	-10.1689
▁whispers	-10.1696
ill	-10.1696
▁customers	-10.171
▁gump	-10.1713
▁orphans	-10.1722
▁depends	-10.1724
▁lack	-10.1727
▁fuss	-10.1728
▁rolling	-10.1728
▁je	-10.1734
▁ac	-10.1734
▁hills	-10.174
ating	-10.1747
▁shadows	-10.1749
▁trained	-10.1751
▁reports	-10.1764
▁tend	-10.1768
rate	-10.1777
▁mid	-10.1788
ise	-10.179
▁blowing	-10.179
▁enjoying	-10.1793
▁teachers	-10.1817
▁pounds	-10.1818
▁details	-10.1831
▁odds	-10.1831
king	-10.1835
▁ton	-10.1846
▁pushing	-10.1857
ka	-10.1872
▁hearts	-10.1878
ren	-10.1907
▁the	-10.1908
▁beating	-10.1911
▁bo	-10.1948
▁ad	-10.1979
▁ohhh	-10.1997
▁flag	-10.2002
ward	-10.2013
▁shoe	-10.2021
▁cheer	-10.2025
▁carrot	-10.2041
▁dinosaur	-10.2041
ug	-10.2045
▁brigade	-10.2045
▁helicopter	-10.2045
▁clue	-10.2048
▁cl	-10.2049
▁crystal	-10.2052
▁balloon	-10.2055
▁pi	-10.2057
▁reminds	-10.2066
▁tone	-10.2068
▁here	-10.2072
ten	-10.2074
▁stranger	-10.209
▁singer	-10.2115
ink	-10.2116
ane	-10.2125
ell	-10.2135
▁giants	-10.2148
▁teams	-10.2176
▁tim	-10.2199
ities	-10.2207
▁disturb	-10.2221
▁smash	-10.2223
▁limit	-10.2224
▁mer	-10.2225
board	-10.2227
▁ev	-10.2235
▁license	-10.2238
▁behave	-10.2239
ving	-10.224
▁sudden	-10.2247
▁hug	-10.2247
▁actual	-10.2248
▁gentle	-10.2259
▁cec	-10.2261
▁resist	-10.2261
▁agnes	-10.2261
▁ceremony	-10.2261
▁concept	-10.2261
▁families	-10.2261
▁happily	-10.2261
▁honeymoon	-10.2261
▁jeez	-10.2261
▁manhattan	-10.2261
▁nolan	-10.2261
▁patience	-10.2261
▁resident	-10.2261
▁shakespeare	-10.2261
▁slannen	-10.2261
▁sunrise	-10.2261
▁technical	-10.2261
▁virginia	-10.2261
▁recruit	-10.2261
▁salad	-10.2261
▁praise	-10.2261
▁senior	-10.2261
▁transmission	-10.2261
▁courbet	-10.2261
▁whyd	-10.2261
▁ashford	-10.2262
▁entrance	-10.2262
▁marshall	-10.2262
▁meade	-10.2262
▁blanket	-10.2262
▁medicine	-10.2262
▁triumph	-10.2262
▁reverse	-10.2262
▁midnight	-10.2262
▁title	-10.2262
▁rosa	-10.2262
▁identity	-10.2262
▁scott	-10.2262
▁flesh	-10.2262
▁exercise	-10.2262
▁audition	-10.2262
▁stallion	-10.2262
▁tune	-10.2262
▁foul	-10.2262
▁senator	-10.2262
▁retreat	-10.2262
▁muntz	-10.2262
▁blew	-10.2263
▁bounty	-10.2263
▁max	-10.2263
▁dino	-10.2263
▁chef	-10.2263
▁airport	-10.2263
▁fender	-10.2264
▁sphere	-10.2264
▁basement	-10.2267
▁studio	-10.2267
▁masha	-10.2268
▁kent	-10.2269
▁style	-10.227
▁influence	-10.227
▁convinced	-10.2271
▁herd	-10.2271
▁lacey	-10.2272
▁boiler	-10.2273
▁friendship	-10.2274
▁rage	-10.2274
▁daughters	-10.2274
▁stopping	-10.2274
▁rode	-10.2276
▁pole	-10.2276
▁abandoned	-10.228
▁honking	-10.2285
▁moron	-10.2285
headed	-10.229
▁goodnight	-10.2292
▁ew	-10.2293
▁adopted	-10.2295
▁lifetime	-10.2298
▁bats	-10.2306
▁earned	-10.2313
▁deeper	-10.2319
▁suffering	-10.2319
▁loaded	-10.2333
▁thor	-10.2335
▁sniffs	-10.2341
▁services	-10.2346
▁tis	-10.2351
▁watched	-10.2353
▁oneil	-10.2357
▁delivered	-10.236
▁considered	-10.2361
▁arrested	-10.2362
▁degrees	-10.2369
▁doyles	-10.2373
▁shorty	-10.2375
▁carol	-10.2402
ff	-10.2404
da	-10.2411
▁charges	-10.2422
▁plumbers	-10.2427
▁somebodys	-10.2428
▁selling	-10.2436
▁wire	-10.244
▁rd	-10.2448
▁down	-10.2452
▁pushed	-10.2461
▁bags	-10.2479
▁spending	-10.2485
▁pan	-10.2516
▁passing	-10.2557
▁planes	-10.2575
▁hated	-10.2624
▁someones	-10.2634
▁lous	-10.2643
▁creatures	-10.2661
▁runs	-10.2662
▁machines	-10.2664
▁sue	-10.2666
our	-10.2681
▁prom	-10.2696
▁suck	-10.2698
▁oops	-10.2704
ence	-10.2707
▁howl	-10.2724
▁badge	-10.2729
▁adult	-10.2756
▁twin	-10.2759
▁explosion	-10.276
▁peanut	-10.2762
▁knee	-10.2764
▁bu	-10.2765
▁yard	-10.2768
▁turk	-10.277
▁drug	-10.2773
▁guardian	-10.2776
▁at	-10.2782
een	-10.2787
ul	-10.2802
ii	-10.2808
▁suits	-10.2812
▁comment	-10.2821
▁bells	-10.2823
▁hu	-10.2824
▁cheat	-10.2827
▁tr	-10.283
ck	-10.2843
▁remains	-10.2856
▁there	-10.2864
work	-10.2868
bit	-10.287
▁checking	-10.2875
▁pot	-10.2877
▁ogres	-10.2886
▁rob	-10.2891
▁sub	-10.2902
▁hunt	-10.2907
▁dump	-10.2917
▁comfort	-10.2919
▁research	-10.292
▁regard	-10.2924
▁adopt	-10.2937
▁wound	-10.294
like	-10.2944
▁grant	-10.2946
coco	-10.2952
▁separate	-10.2953
▁physical	-10.2958
▁inter	-10.2959
▁recent	-10.2961
ach	-10.2963
▁electric	-10.2965
▁declare	-10.2966
par	-10.2968
▁withdraw	-10.2968
▁flatter	-10.297
▁sheik	-10.2972
▁worship	-10.2976
▁astrid	-10.2976
▁australia	-10.2976
▁beatrice	-10.2976
▁behavior	-10.2976
▁bieber	-10.2976
▁bolivia	-10.2976
▁chronicle	-10.2976
▁estimate	-10.2976
▁evidence	-10.2976
▁frederick	-10.2976
▁garcin	-10.2976
▁geneva	-10.2976
▁glorious	-10.2976
▁grandmother	-10.2976
▁intelligence	-10.2976
▁jennifer	-10.2976
▁jersey	-10.2976
▁maintain	-10.2976
▁majesties	-10.2976
▁mathesar	-10.2976
▁melanie	-10.2976
▁messenger	-10.2976
▁metropolis	-10.2976
▁molesley	-10.2976
▁munchausen	-10.2976
▁nicholas	-10.2976
▁parallel	-10.2976
▁process	-10.2976
▁scapelli	-10.2976
▁sobbing	-10.2976
▁squirrel	-10.2976
▁struck	-10.2976
▁stubborn	-10.2976
▁supply	-10.2976
▁terrified	-10.2976
▁thief	-10.2976
▁ultimate	-10.2976
▁unexpected	-10.2976
▁werthan	-10.2976
▁idella	-10.2976
▁otterbourne	-10.2976
▁dumpster	-10.2976
▁doris	-10.2976
▁drove	-10.2976
▁halloween	-10.2976
▁consent	-10.2976
▁competition	-10.2976
▁chanice	-10.2976
▁cruel	-10.2976
▁europe	-10.2976
▁whirring	-10.2976
▁marvelous	-10.2976
▁patrick	-10.2976
▁divine	-10.2976
▁editor	-10.2976
▁kryptonite	-10.2976
▁berthold	-10.2976
▁rogas	-10.2976
▁angle	-10.2976
▁myra	-10.2976
▁ellie	-10.2976
▁radiation	-10.2976
▁chapter	-10.2976
▁greetings	-10.2976
▁bravo	-10.2977
▁shane	-10.2977
▁carriage	-10.2977
▁dynamite	-10.2977
▁yonder	-10.2977
▁eddie	-10.2977
▁failure	-10.2977
▁authority	-10.2977
▁gear	-10.2977
▁howard	-10.2977
▁legend	-10.2977
▁chasing	-10.2977
▁appropriate	-10.2977
▁insane	-10.2977
▁placed	-10.2977
▁halt	-10.2978
▁peril	-10.2978
▁civil	-10.2978
▁beak	-10.2978
▁yoda	-10.2979
▁announcement	-10.2979
▁favour	-10.298
▁owned	-10.2981
▁silent	-10.2981
▁agreement	-10.2981
▁whore	-10.2982
▁habit	-10.2982
▁rust	-10.2982
▁thirsty	-10.2983
▁intern	-10.2983
▁gee	-10.2984
▁applauding	-10.2985
▁cameron	-10.2986
▁mobile	-10.2987
▁cargo	-10.2991
▁sweetness	-10.2992
▁historical	-10.2993
ap	-10.2994
▁mum	-10.2995
▁pub	-10.2996
▁nest	-10.2996
▁unable	-10.2998
▁confirmed	-10.2998
▁invented	-10.2999
▁gig	-10.3
of	-10.3001
▁blown	-10.3002
▁this	-10.3003
▁chanting	-10.3004
▁healthy	-10.3004
▁parties	-10.3007
▁straining	-10.3008
▁hint	-10.3008
▁received	-10.3013
▁flame	-10.3018
▁carter	-10.3024
▁scooby	-10.3025
▁cheating	-10.3027
▁mustnt	-10.303
▁circuits	-10.3045
▁crashing	-10.3045
▁deeply	-10.3055
▁becomes	-10.306
▁disguise	-10.3063
▁terms	-10.3076
▁manners	-10.3076
▁gr	-10.3085
▁sale	-10.3087
▁pine	-10.309
▁fate	-10.3092
▁wasted	-10.31
▁sports	-10.3108
▁yea	-10.3115
▁traveling	-10.3117
▁shouts	-10.3124
gh	-10.3127
▁messed	-10.3154
▁burning	-10.3163
▁painful	-10.3168
▁highly	-10.3175
▁souls	-10.3186
▁aha	-10.3198
▁searching	-10.3232
▁costumes	-10.3232
ard	-10.3267
itation	-10.3286
▁stones	-10.3287
▁bastards	-10.3327
▁we	-10.3334
pa	-10.334
▁fighters	-10.336
▁joining	-10.3371
▁bobbles	-10.3392
ode	-10.3413
▁mar	-10.3417
▁para	-10.3421
▁damned	-10.3424
ado	-10.345
▁yell	-10.3454
▁ver	-10.3463
▁ideal	-10.3465
▁jam	-10.3494
▁wished	-10.3502
▁official	-10.351
ou	-10.3512
▁niece	-10.3518
▁viking	-10.3518
▁edge	-10.352
▁appearance	-10.352
▁belt	-10.3525
▁desire	-10.3525
▁pe	-10.3527
▁grin	-10.353
▁grade	-10.353
▁shift	-10.353
▁instinct	-10.3532
▁feather	-10.3534
▁chamber	-10.3537
▁chain	-10.3548
▁strikes	-10.3552
▁goal	-10.3561
▁craft	-10.357
ze	-10.3574
▁snap	-10.3585
ably	-10.3624
▁gl	-10.3628
ries	-10.3629
▁dam	-10.3659
▁connect	-10.366
▁glow	-10.3693
▁cancel	-10.3707
▁delay	-10.3714
▁moan	-10.3718
foot	-10.3719
▁divide	-10.372
▁advance	-10.3723
▁soc	-10.3726
▁dirt	-10.3728
▁describe	-10.373
▁absolute	-10.373
▁emotional	-10.3732
▁weigh	-10.3735
▁mash	-10.3742
▁legal	-10.3744
▁access	-10.3745
▁benja	-10.3745
▁forbid	-10.3745
▁revolution	-10.3745
▁thud	-10.3745
▁allomere	-10.3745
▁amount	-10.3745
▁anytime	-10.3745
▁autopilot	-10.3745
▁branson	-10.3745
▁broccoli	-10.3745
▁ciccio	-10.3745
▁dalton	-10.3745
▁earthquake	-10.3745
▁einstein	-10.3745
▁fortunate	-10.3745
▁gauntlet	-10.3745
▁gorgeous	-10.3745
▁gracias	-10.3745
▁hamilton	-10.3745
▁hollywood	-10.3745
▁importance	-10.3745
▁intelligent	-10.3745
▁judgment	-10.3745
▁magnificent	-10.3745
▁mcallister	-10.3745
▁melvin	-10.3745
▁miyamizu	-10.3745
▁multiple	-10.3745
▁mumbles	-10.3745
▁mumbling	-10.3745
▁mutual	-10.3745
▁orchestra	-10.3745
▁possibility	-10.3745
▁practicing	-10.3745
▁romantic	-10.3745
▁smack	-10.3745
▁southpaw	-10.3745
▁sunshine	-10.3745
▁thrust	-10.3745
▁torture	-10.3745
▁tournament	-10.3745
▁tremendous	-10.3745
▁vessel	-10.3745
▁wisdom	-10.3745
▁eternal	-10.3745
▁hyah	-10.3745
▁strict	-10.3745
▁headquarters	-10.3745
▁jesper	-10.3745
▁demon	-10.3745
▁farewell	-10.3745
▁suprem	-10.3745
▁infant	-10.3745
▁basis	-10.3745
▁saloon	-10.3745
▁volpe	-10.3745
▁lemonade	-10.3745
▁boolie	-10.3745
▁propose	-10.3745
▁lizzy	-10.3745
▁regiment	-10.3745
▁blaring	-10.3745
▁flat	-10.3745
▁permit	-10.3745
▁sarah	-10.3745
▁bamba	-10.3745
▁tank	-10.3745
▁primary	-10.3745
▁adorable	-10.3745
▁sophie	-10.3745
▁aaron	-10.3745
▁meow	-10.3745
▁noble	-10.3746
▁university	-10.3746
▁western	-10.3746
▁evacuate	-10.3746
▁academy	-10.3746
▁personnel	-10.3746
▁upside	-10.3746
▁slipped	-10.3746
▁anger	-10.3746
▁online	-10.3746
▁wrap	-10.3746
▁dedicated	-10.3746
▁backwards	-10.3746
▁scent	-10.3746
▁brief	-10.3746
▁network	-10.3746
▁role	-10.3746
▁doorbell	-10.3746
▁vice	-10.3747
▁eventually	-10.3747
▁electricity	-10.3747
▁bobby	-10.3748
▁muffled	-10.3748
▁humor	-10.3748
▁gently	-10.3748
▁aside	-10.3748
▁ernesto	-10.3748
imelda	-10.3749
▁grass	-10.3749
▁shore	-10.3749
▁bible	-10.3749
▁mental	-10.3749
▁tong	-10.3749
▁prime	-10.3749
▁caveman	-10.375
▁facts	-10.3751
▁projector	-10.3751
▁fraud	-10.3751
▁robbery	-10.3751
▁halfway	-10.3751
▁practically	-10.3753
▁krypton	-10.3753
▁elf	-10.3754
▁rendezvous	-10.3754
▁creepy	-10.3754
▁whale	-10.3755
▁preacher	-10.3756
▁drawn	-10.3758
▁tax	-10.376
▁coco	-10.3761
▁determined	-10.3762
hole	-10.3762
▁wast	-10.3766
▁rear	-10.3766
▁frightened	-10.3767
▁advanced	-10.3767
▁shave	-10.3769
▁herb	-10.3771
▁deny	-10.3778
▁armor	-10.3781
▁spite	-10.3788
burg	-10.3789
▁classes	-10.3791
▁barn	-10.3795
▁route	-10.3795
▁fee	-10.3796
eyed	-10.3796
▁warned	-10.3801
▁released	-10.3805
▁neat	-10.3806
▁auto	-10.3806
▁howdy	-10.3807
▁rescued	-10.3809
▁stare	-10.3814
▁kinds	-10.3816
▁seize	-10.3816
about	-10.3816
▁snarls	-10.3821
gr	-10.3822
ily	-10.383
▁sneaking	-10.3833
▁robe	-10.3836
▁greatness	-10.3837
▁county	-10.3854
sure	-10.3857
▁fever	-10.3858
▁dope	-10.3859
▁cape	-10.3869
▁worthy	-10.3883
▁jews	-10.3888
▁feeding	-10.3902
▁criminals	-10.3904
▁bend	-10.3919
▁clouds	-10.3921
▁neighbors	-10.3938
▁swinging	-10.3939
▁cooking	-10.3944
▁units	-10.3945
▁host	-10.397
▁turks	-10.3972
▁dressing	-10.3978
ga	-10.3983
▁feelin	-10.3987
▁cheers	-10.3992
▁holes	-10.4
more	-10.4003
▁childrens	-10.4016
▁scores	-10.4029
▁dreamed	-10.4032
▁unit	-10.4046
▁pod	-10.4051
ni	-10.4064
▁wondered	-10.4076
▁poems	-10.4092
▁spirits	-10.41
▁flora	-10.4115
▁fe	-10.4124
▁sola	-10.4127
▁pin	-10.4142
▁cora	-10.4143
tion	-10.4146
▁hunters	-10.4146
▁cal	-10.4148
▁spark	-10.4164
▁interests	-10.4164
▁answering	-10.4192
▁gra	-10.4227
▁fools	-10.4228
▁thoughts	-10.4243
all	-10.4245
▁clowns	-10.4248
▁caused	-10.4251
▁likely	-10.4264
ave	-10.4274
▁hundreds	-10.4318
▁for	-10.4333
ver	-10.4334
pt	-10.4336
▁guarantee	-10.4341
▁woozle	-10.4352
▁hon	-10.4356
▁require	-10.4357
▁represent	-10.4357
▁companion	-10.4362
good	-10.4364
▁op	-10.4365
▁scientist	-10.4369
▁turtle	-10.4369
▁neighbor	-10.4372
▁pickett	-10.4373
▁plumber	-10.4373
▁shadow	-10.4374
▁citizen	-10.4375
▁alien	-10.4378
▁folk	-10.4379
▁li	-10.4388
▁mode	-10.4412
▁dar	-10.4414
▁til	-10.4427
ail	-10.4431
▁bills	-10.4431
▁pointing	-10.4453
▁buildings	-10.4494
▁promises	-10.4495
▁engines	-10.4496
▁ration	-10.4501
▁min	-10.4503
lic	-10.4508
▁sweat	-10.4517
sa	-10.4521
ang	-10.4524
▁sona	-10.4524
▁possess	-10.4532
▁tricks	-10.4535
▁boot	-10.4536
▁dolls	-10.4548
▁privilege	-10.4553
▁doom	-10.4554
▁replace	-10.4555
▁cease	-10.4556
some	-10.4558
▁piss	-10.4563
cam	-10.4566
away	-10.4566
▁remove	-10.4569
▁rounds	-10.4569
▁opens	-10.4569
▁achieve	-10.4572
▁fashion	-10.4576
▁maharaja	-10.4577
▁reaction	-10.4578
▁anxious	-10.4578
▁approval	-10.4578
▁assassin	-10.4578
▁bagshaw	-10.4578
▁butler	-10.4578
▁calculus	-10.4578
▁chorus	-10.4578
▁combination	-10.4578
▁dimple	-10.4578
▁disagree	-10.4578
▁disgrace	-10.4578
▁exchange	-10.4578
▁explosiveskull	-10.4578
▁fantasy	-10.4578
▁film	-10.4578
▁frequency	-10.4578
▁gazzo	-10.4578
▁grumble	-10.4578
▁impact	-10.4578
▁instance	-10.4578
▁introduction	-10.4578
▁liberty	-10.4578
▁murray	-10.4578
▁nephew	-10.4578
▁ofrenda	-10.4578
▁prevent	-10.4578
▁procedure	-10.4578
▁quantonium	-10.4578
▁renata	-10.4578
▁santiago	-10.4578
▁slept	-10.4578
▁splendid	-10.4578
▁stuart	-10.4578
▁sultan	-10.4578
▁teenager	-10.4578
▁teschmacher	-10.4578
▁unusual	-10.4578
▁vault	-10.4578
▁vehicle	-10.4578
▁victory	-10.4578
▁vivian	-10.4578
▁wickles	-10.4578
▁xanadu	-10.4578
▁assault	-10.4578
▁kubitz	-10.4578
▁scandal	-10.4578
▁wicked	-10.4578
▁linda	-10.4578
▁error	-10.4578
▁coolsville	-10.4578
▁kidnapping	-10.4578
▁zoe	-10.4578
▁harewood	-10.4578
▁thread	-10.4578
▁broadcast	-10.4578
▁rogue	-10.4578
▁gizzard	-10.4578
▁burden	-10.4578
▁vicious	-10.4578
▁screen	-10.4578
▁owlets	-10.4578
▁sunset	-10.4578
▁patmore	-10.4578
▁trunk	-10.4578
▁destruction	-10.4579
▁shrine	-10.4579
▁culture	-10.4579
▁daphne	-10.4579
▁portorosso	-10.4579
while	-10.4579
▁stream	-10.4579
▁dawn	-10.4579
▁vain	-10.4579
▁swamp	-10.4579
▁pathetic	-10.4579
▁festival	-10.4579
▁dignity	-10.4579
▁extraordinary	-10.4579
▁assistance	-10.4579
▁puff	-10.458
▁altitude	-10.458
▁collider	-10.458
▁column	-10.458
▁traffic	-10.458
▁impressive	-10.458
▁southern	-10.458
▁bock	-10.458
zio	-10.458
▁dozen	-10.458
▁jacobo	-10.458
▁novel	-10.458
▁collar	-10.4581
▁selfish	-10.4581
▁crawl	-10.4582
▁stella	-10.4582
▁hunh	-10.4582
▁bodies	-10.4582
▁visitors	-10.4582
▁finn	-10.4583
▁fleet	-10.4583
▁emily	-10.4584
▁blonde	-10.4584
▁doggy	-10.4584
▁betty	-10.4584
▁attached	-10.4586
▁agh	-10.4586
▁tub	-10.4587
▁currently	-10.4588
▁african	-10.4591
▁accomplished	-10.4592
▁trigger	-10.4593
▁related	-10.4594
▁impress	-10.4596
▁ruby	-10.4597
▁divorced	-10.4598
▁snarling	-10.4599
▁setting	-10.4599
▁townie	-10.46
▁frell	-10.4601
▁forgetting	-10.4601
▁pm	-10.4601
▁businessman	-10.4603
town	-10.4604
▁yelps	-10.4606
ack	-10.4609
▁signor	-10.461
▁tempo	-10.4611
▁mistaken	-10.4611
▁removed	-10.4611
▁former	-10.4613
▁particularly	-10.4614
▁directly	-10.4617
▁rub	-10.462
▁viva	-10.4621
nix	-10.4628
▁damaged	-10.4629
▁refused	-10.463
▁jr	-10.463
car	-10.4631
▁tomorrows	-10.4635
▁aye	-10.4639
▁uglydolls	-10.4642
▁nick	-10.4642
▁seth	-10.4643
put	-10.4647
sk	-10.4647
▁louder	-10.4653
▁caf	-10.4654
▁foryou	-10.4654
▁served	-10.4654
▁gathered	-10.4656
▁lass	-10.466
▁rumors	-10.4661
▁roaring	-10.4662
▁element	-10.4662
ire	-10.4672
▁flyn	-10.4673
▁jar	-10.4684
▁ab	-10.4702
▁switched	-10.4704
▁useful	-10.4716
▁toes	-10.4725
ass	-10.4726
▁documents	-10.4734
▁comedy	-10.4734
▁quietly	-10.4737
▁armed	-10.4737
cat	-10.4737
▁fore	-10.4739
▁inch	-10.4762
▁lads	-10.4763
▁reached	-10.4768
▁enjoyed	-10.4771
▁lu	-10.4774
▁aliens	-10.4789
▁net	-10.479
▁sparks	-10.4794
▁doubts	-10.4802
▁uncles	-10.4803
mb	-10.4804
ung	-10.4809
▁ages	-10.482
▁dreamer	-10.4835
▁protecting	-10.4837
▁celebrate	-10.4837
▁tests	-10.4849
ito	-10.485
▁reporting	-10.4858
ars	-10.4861
▁backup	-10.4869
▁tin	-10.4871
ake	-10.4877
▁offering	-10.4885
▁kissed	-10.4898
ger	-10.4902
com	-10.4906
▁beautifully	-10.4912
▁appears	-10.4921
▁ram	-10.493
cy	-10.4938
hand	-10.494
▁handy	-10.4944
▁del	-10.4945
▁wh	-10.496
▁psych	-10.4961
▁seats	-10.4965
▁heffalumps	-10.4995
▁whistles	-10.4995
ern	-10.4995
▁dies	-10.5035
ties	-10.5054
▁por	-10.5082
▁cam	-10.5109
▁cab	-10.5111
▁pant	-10.5113
▁thankful	-10.5115
▁scar	-10.5139
▁tap	-10.5171
▁hoped	-10.5181
ew	-10.5182
▁nap	-10.5222
▁costs	-10.5227
▁adventures	-10.5228
▁occasion	-10.5259
▁effort	-10.5261
▁yankee	-10.5262
▁troll	-10.5262
▁effect	-10.527
▁instrument	-10.527
▁roommate	-10.5271
▁restaurant	-10.5271
▁option	-10.5272
▁towel	-10.5272
▁apple	-10.5273
▁creak	-10.5274
▁client	-10.5278
▁quarter	-10.528
▁cloud	-10.5282
▁pearl	-10.5283
▁explorer	-10.5285
▁toward	-10.5286
▁grounds	-10.5289
▁bears	-10.5309
▁what	-10.531
▁movement	-10.5316
▁butts	-10.5317
ok	-10.5323
looking	-10.5328
▁whip	-10.5334
▁zip	-10.5341
fe	-10.536
▁bot	-10.5362
▁pee	-10.5368
▁dancer	-10.5386
▁figures	-10.5389
▁counsel	-10.5391
izing	-10.5418
▁fits	-10.5419
▁text	-10.5432
▁weep	-10.5436
▁burst	-10.5436
▁twist	-10.5437
▁wander	-10.5442
▁photograph	-10.5444
▁stress	-10.5448
▁inform	-10.545
▁insult	-10.545
▁mix	-10.5454
power	-10.5455
▁pl	-10.5458
tooth	-10.546
▁accuse	-10.5462
▁spots	-10.5463
▁engage	-10.5464
▁trace	-10.5465
▁divorce	-10.5465
▁include	-10.5466
▁silen	-10.5466
▁graduate	-10.5467
▁bull	-10.5471
▁unfortunate	-10.5473
▁painting	-10.5473
▁stead	-10.5474
▁smit	-10.5474
▁dive	-10.5478
▁advise	-10.5478
▁rug	-10.5479
▁olive	-10.548
▁liz	-10.548
what	-10.5482
▁terror	-10.5486
▁patroni	-10.5486
▁receive	-10.5486
▁squad	-10.5487
▁apologies	-10.5487
▁arriba	-10.5487
▁avenue	-10.5487
▁awkward	-10.5487
▁beneath	-10.5487
▁butkus	-10.5487
▁chamaco	-10.5487
▁entitled	-10.5487
▁ercole	-10.5487
▁excitement	-10.5487
▁executive	-10.5487
▁explanation	-10.5487
▁foofie	-10.5487
▁francisco	-10.5487
▁frankenstein	-10.5487
▁gibberish	-10.5487
▁godmother	-10.5487
▁granddad	-10.5487
▁greedy	-10.5487
▁gylfie	-10.5487
▁hamegg	-10.5487
▁highbury	-10.5487
▁jello	-10.5487
▁lalalala	-10.5487
▁lancelot	-10.5487
▁lincoln	-10.5487
▁mariejosephe	-10.5487
▁mayfleet	-10.5487
▁milord	-10.5487
▁miraculous	-10.5487
▁muertos	-10.5487
▁omega	-10.5487
▁pellet	-10.5487
▁philadelphia	-10.5487
▁platform	-10.5487
▁pledge	-10.5487
▁pterodactyl	-10.5487
▁pursuit	-10.5487
▁rasputin	-10.5487
▁simpkins	-10.5487
▁steak	-10.5487
▁succeed	-10.5487
▁suitcase	-10.5487
▁terrifying	-10.5487
▁thompson	-10.5487
▁uncomfortable	-10.5487
▁widow	-10.5487
▁wyler	-10.5487
▁yoohoo	-10.5487
▁ciao	-10.5487
▁commie	-10.5487
▁extend	-10.5487
▁mclaws	-10.5487
▁crust	-10.5487
▁illegal	-10.5487
▁ribs	-10.5487
▁mustache	-10.5487
▁locksley	-10.5487
▁trixie	-10.5487
▁lyze	-10.5487
▁purr	-10.5487
▁accent	-10.5487
▁vocalizing	-10.5487
▁crook	-10.5487
▁swanson	-10.5488
▁underwear	-10.5488
▁tyler	-10.5488
▁sorrow	-10.5488
▁proposition	-10.5488
▁lesley	-10.5488
▁repair	-10.5488
▁pregnant	-10.5488
▁scoop	-10.5488
▁elected	-10.5488
▁favourite	-10.5488
▁display	-10.5488
▁plug	-10.5488
▁furball	-10.5488
▁legacy	-10.5488
▁poker	-10.5488
▁wingfield	-10.5488
▁aircraft	-10.5488
▁bacon	-10.5488
▁florine	-10.5488
▁investigation	-10.5488
▁jewish	-10.5488
▁ferguson	-10.5488
▁lamp	-10.5488
▁batteries	-10.5488
▁development	-10.5488
▁fame	-10.5488
▁mijo	-10.5488
▁flux	-10.5489
▁misery	-10.5489
▁hush	-10.5489
▁shark	-10.5489
▁mistress	-10.5489
▁worm	-10.5489
▁clang	-10.5489
▁electron	-10.5489
▁decent	-10.5489
▁rustling	-10.5489
▁buff	-10.5489
▁brat	-10.5489
▁bold	-10.5489
▁ewell	-10.5489
▁reactor	-10.5489
▁routine	-10.5489
▁punk	-10.5489
▁waltz	-10.5489
▁stanley	-10.5489
▁discipline	-10.549
▁barron	-10.549
▁playground	-10.549
▁shrubbery	-10.549
▁whatre	-10.549
▁dull	-10.549
▁raft	-10.549
▁buried	-10.549
▁laser	-10.5491
▁indiana	-10.5491
▁confession	-10.5491
▁confidence	-10.5491
▁vine	-10.5491
▁minor	-10.5492
▁dishes	-10.5492
▁driveway	-10.5492
▁award	-10.5492
▁romeo	-10.5493
▁stroke	-10.5494
▁elves	-10.5494
▁weakness	-10.5494
▁digger	-10.5495
▁beings	-10.5495
▁whoosh	-10.5495
▁mice	-10.5495
▁spotted	-10.5496
▁jon	-10.5496
▁sack	-10.5496
▁katie	-10.5497
▁highway	-10.5497
▁frankie	-10.5497
▁maiden	-10.5498
▁diego	-10.5499
▁ability	-10.5499
▁marie	-10.5499
▁shaking	-10.5499
▁captured	-10.5501
▁inner	-10.5501
▁bald	-10.5501
▁headline	-10.5502
▁anne	-10.5502
▁fist	-10.5503
▁leads	-10.5504
▁bars	-10.5505
▁jab	-10.5505
▁navy	-10.5506
▁whooping	-10.5506
▁officially	-10.5507
▁lame	-10.5508
▁passion	-10.5509
▁fascinating	-10.5509
▁beeping	-10.551
▁billion	-10.5511
▁sixth	-10.5512
▁thee	-10.5517
▁required	-10.5517
▁peache	-10.5521
▁rad	-10.5523
▁drill	-10.5528
▁settled	-10.5529
▁connected	-10.5531
▁pastor	-10.5534
▁sweater	-10.5535
▁cap	-10.5536
▁nu	-10.5544
▁rin	-10.5555
▁statues	-10.5558
▁defeated	-10.5559
▁dial	-10.5563
bi	-10.5567
▁whoops	-10.5572
▁tracks	-10.5582
▁gar	-10.5591
▁normally	-10.5595
▁victims	-10.5598
▁honour	-10.5605
▁sailing	-10.561
▁barks	-10.5615
▁computers	-10.5616
▁emotions	-10.5618
▁deploy	-10.5632
▁ending	-10.5633
ca	-10.5633
▁suckers	-10.5641
▁ty	-10.5645
▁vi	-10.5647
lousy	-10.5649
ible	-10.5658
▁bur	-10.5659
▁ding	-10.5659
▁artist	-10.5676
▁members	-10.5679
▁fades	-10.5686
▁treating	-10.5689
▁tryin	-10.5692
▁protected	-10.5693
▁queens	-10.5716
▁tele	-10.572
▁requires	-10.5721
▁flyer	-10.5728
▁differently	-10.5734
▁aa	-10.5736
▁goat	-10.5738
▁younger	-10.5739
ory	-10.574
▁players	-10.5741
▁fa	-10.5755
▁comb	-10.5769
▁cleaned	-10.5785
ping	-10.5786
▁acted	-10.5786
▁demands	-10.5803
▁wins	-10.5809
▁thingy	-10.5809
▁wanting	-10.5816
▁destroying	-10.5822
▁est	-10.5836
▁rats	-10.586
▁attacked	-10.5861
▁troubles	-10.5867
▁issues	-10.5867
▁answered	-10.5868
uck	-10.5872
▁radios	-10.5879
▁deadly	-10.588
▁ofthe	-10.5884
ue	-10.5885
▁tales	-10.5889
mm	-10.5906
▁ropes	-10.5927
▁me	-10.5945
▁cleared	-10.5966
▁fed	-10.5977
▁lad	-10.5984
▁kissing	-10.5985
tch	-10.6007
▁bottles	-10.6009
iggly	-10.6011
▁snakes	-10.603
iss	-10.6037
▁chances	-10.6039
ied	-10.6055
▁mend	-10.6079
kung	-10.6082
▁depend	-10.6089
▁touching	-10.6093
tro	-10.6095
▁ele	-10.6108
▁par	-10.611
▁understanding	-10.6137
▁fade	-10.6146
▁moms	-10.6155
iv	-10.6165
ations	-10.6173
tra	-10.6177
▁fus	-10.6187
▁ana	-10.6188
▁arabia	-10.619
▁forms	-10.6192
▁tent	-10.6204
uka	-10.6214
▁newspapers	-10.6221
▁scrap	-10.6225
▁shout	-10.6235
▁groan	-10.6238
▁grunt	-10.6245
jo	-10.6249
▁hee	-10.6255
▁dealing	-10.6259
▁magazine	-10.6261
▁struggle	-10.6261
▁mermaid	-10.6261
▁cigar	-10.6267
▁snack	-10.6267
▁cannon	-10.6268
▁tyto	-10.6268
for	-10.6269
▁wolfwalker	-10.6271
▁sheet	-10.6275
▁spike	-10.6276
▁package	-10.6277
▁nun	-10.6277
▁relative	-10.6279
▁member	-10.628
▁criminal	-10.6281
▁orphan	-10.6282
red	-10.6285
wa	-10.6288
▁lip	-10.6298
ning	-10.6299
▁ali	-10.6303
▁conditions	-10.6306
his	-10.6307
▁sets	-10.631
▁design	-10.6327
▁cone	-10.6338
▁jan	-10.6364
tri	-10.6373
▁amor	-10.6374
▁perform	-10.6384
▁cared	-10.6385
▁fog	-10.6398
▁drown	-10.64
ak	-10.6404
▁appeal	-10.6434
▁beats	-10.6434
▁fold	-10.6445
▁tuck	-10.6449
ball	-10.6454
▁stops	-10.6456
ev	-10.6457
box	-10.646
▁affection	-10.646
▁counter	-10.6462
weight	-10.6462
▁ignore	-10.6463
▁approve	-10.6464
▁ski	-10.6467
▁incredibl	-10.6473
▁wipe	-10.6473
▁as	-10.6473
▁spy	-10.6474
▁successful	-10.6475
use	-10.6475
▁off	-10.6476
▁sw	-10.6477
▁hung	-10.6479
▁thick	-10.6479
▁tut	-10.6483
▁doug	-10.6485
▁plot	-10.6486
▁detect	-10.6486
▁occur	-10.6487
▁calculat	-10.6487
▁abbey	-10.6487
▁activities	-10.6487
▁allenby	-10.6487
▁alpha	-10.6487
▁architect	-10.6487
▁arrival	-10.6487
▁brandnew	-10.6487
▁candlewick	-10.6487
▁carnival	-10.6487
▁chump	-10.6487
▁clamoring	-10.6487
▁coffin	-10.6487
▁coincidence	-10.6487
▁escort	-10.6487
▁falcon	-10.6487
▁federation	-10.6487
▁financial	-10.6487
▁fridge	-10.6487
▁froze	-10.6487
▁gallahxar	-10.6487
▁gorignak	-10.6487
▁grandfather	-10.6487
▁guinea	-10.6487
▁gunnison	-10.6487
▁harriman	-10.6487
▁hawaii	-10.6487
▁hexham	-10.6487
▁intercept	-10.6487
▁jonathan	-10.6487
▁kassar	-10.6487
▁kosterman	-10.6487
▁madison	-10.6487
▁misunderstand	-10.6487
▁pankot	-10.6487
▁password	-10.6487
▁paxian	-10.6487
▁peculiar	-10.6487
▁portuguese	-10.6487
▁powder	-10.6487
▁protocol	-10.6487
▁purse	-10.6487
▁radioactiv	-10.6487
▁scoobydoo	-10.6487
▁slytherin	-10.6487
▁smiling	-10.6487
▁supplies	-10.6487
▁trilling	-10.6487
▁twilight	-10.6487
▁winslow	-10.6487
▁zong	-10.6487
▁blackmail	-10.6487
▁jaime	-10.6487
▁jefferies	-10.6487
▁neigh	-10.6487
▁preparing	-10.6487
▁stiltskin	-10.6487
▁transform	-10.6487
▁vanished	-10.6487
▁hamster	-10.6487
▁copperbottom	-10.6487
▁raspberry	-10.6487
▁skirt	-10.6487
▁prototype	-10.6487
▁reelect	-10.6487
▁muttering	-10.6487
▁rumble	-10.6487
▁somewhat	-10.6487
▁lunatic	-10.6487
▁ricky	-10.6487
▁interfere	-10.6488
▁faint	-10.6488
▁basketball	-10.6488
▁humble	-10.6488
▁tiger	-10.6488
▁edith	-10.6488
▁absence	-10.6488
▁silk	-10.6488
▁whew	-10.6488
▁beachport	-10.6488
▁eg	-10.6488
▁tanis	-10.6488
▁whiskers	-10.6488
▁welton	-10.6488
▁screwball	-10.6488
▁snowball	-10.6488
▁stiff	-10.6488
▁existence	-10.6488
▁soda	-10.6488
▁specific	-10.6488
▁apprentice	-10.6488
▁resistance	-10.6488
▁grey	-10.6488
▁couch	-10.6488
▁turkey	-10.6488
▁garage	-10.6489
▁mold	-10.6489
▁centre	-10.6489
ware	-10.6489
▁polite	-10.6489
▁slide	-10.6489
▁brandon	-10.6489
▁echo	-10.6489
▁whatll	-10.6489
▁begun	-10.6489
▁webb	-10.6489
▁sworn	-10.649
▁lemon	-10.649
▁parlor	-10.649
▁profit	-10.649
▁benefit	-10.649
▁romance	-10.649
▁blades	-10.649
▁oak	-10.649
▁connie	-10.649
▁oooh	-10.649
▁babe	-10.649
▁blah	-10.649
▁possession	-10.6491
▁megan	-10.6491
▁scum	-10.6491
▁capital	-10.6491
▁barbara	-10.6491
▁gettys	-10.6491
▁stake	-10.6492
▁shiny	-10.6492
▁tourist	-10.6492
▁nearby	-10.6492
▁sector	-10.6493
▁email	-10.6493
▁exhausted	-10.6493
▁arrow	-10.6495
▁product	-10.6497
▁classical	-10.6497
▁alter	-10.6498
▁offense	-10.65
▁confused	-10.65
▁located	-10.65
▁bout	-10.6501
▁sang	-10.6501
▁wailing	-10.6501
▁portal	-10.6501
▁hut	-10.6501
▁soak	-10.6502
▁carpe	-10.6502
▁loan	-10.6504
ryll	-10.6506
▁flea	-10.6506
▁classic	-10.6508
▁gay	-10.6509
▁sweaty	-10.6509
▁flu	-10.6511
▁bleeding	-10.6512
▁prop	-10.6512
▁moder	-10.6512
▁warner	-10.6512
▁reasonable	-10.6512
▁tooth	-10.6514
▁hooting	-10.6517
▁separated	-10.6519
▁fond	-10.652
▁forgiven	-10.6521
▁intruders	-10.6522
▁log	-10.6523
▁creeping	-10.6523
▁restore	-10.6524
▁fury	-10.6525
▁bond	-10.6528
▁informed	-10.6528
▁actions	-10.6546
▁chart	-10.655
▁daring	-10.6554
▁appeared	-10.656
▁mortal	-10.6573
▁notes	-10.6573
▁blasted	-10.6575
▁hire	-10.6579
▁director	-10.6579
▁minu	-10.6579
▁ranger	-10.6582
▁experienced	-10.6582
▁escaped	-10.6585
▁boobs	-10.6588
▁begins	-10.659
ye	-10.6591
▁deserved	-10.6599
▁fields	-10.66
▁wa	-10.6615
▁laying	-10.6616
▁formed	-10.6621
▁player	-10.6623
▁closet	-10.6625
▁murdered	-10.663
▁coconuts	-10.6633
▁faithful	-10.664
▁comic	-10.6644
sday	-10.6653
▁principles	-10.6655
▁if	-10.6655
▁belly	-10.6656
▁imagined	-10.6662
▁ditch	-10.6682
▁produce	-10.6684
▁freaking	-10.6688
▁fightin	-10.6691
ite	-10.6693
ski	-10.6717
▁windows	-10.6724
▁when	-10.6726
▁reported	-10.6729
▁wolfe	-10.6729
ux	-10.673
▁announc	-10.6752
▁puzzle	-10.6757
▁der	-10.6758
▁packing	-10.6759
▁bothering	-10.6764
▁pla	-10.677
▁emb	-10.6775
▁woohoo	-10.6783
▁drugs	-10.6791
▁knees	-10.6791
dodoo	-10.6793
▁commands	-10.6801
gue	-10.6806
▁balloons	-10.6814
▁actors	-10.6843
za	-10.685
▁visiting	-10.685
▁nana	-10.6852
▁ken	-10.6855
▁ru	-10.6862
▁pit	-10.6862
▁bl	-10.6873
▁sins	-10.6892
your	-10.6914
▁wears	-10.6915
▁hay	-10.6931
▁tips	-10.6952
▁events	-10.6954
▁fem	-10.6964
▁rooms	-10.6972
▁qui	-10.7001
ner	-10.7003
▁mc	-10.7004
▁shoulders	-10.7024
▁qu	-10.7029
ark	-10.7043
bot	-10.7048
▁guessing	-10.7055
▁lover	-10.7063
▁ga	-10.7063
▁persons	-10.7064
▁stinks	-10.7073
▁cor	-10.7076
▁attacking	-10.7076
zy	-10.708
ora	-10.7084
▁devot	-10.7087
▁pockets	-10.7117
▁agents	-10.7139
▁breaks	-10.7149
▁beds	-10.7155
▁shots	-10.7155
▁catching	-10.7155
chi	-10.716
▁dot	-10.7175
cha	-10.7178
▁lend	-10.7183
▁girlfriends	-10.7188
▁che	-10.7194
▁mop	-10.72
ther	-10.7203
uel	-10.7203
▁sul	-10.721
▁fin	-10.7211
erry	-10.7228
▁nicely	-10.7251
▁buttons	-10.7258
ons	-10.7285
▁clap	-10.7295
▁forces	-10.7302
hoo	-10.7309
▁fle	-10.7331
▁sport	-10.734
▁carbon	-10.7358
▁strip	-10.7369
▁ven	-10.737
▁author	-10.737
▁critter	-10.7372
▁holiday	-10.7372
▁warrior	-10.7372
▁individual	-10.7372
▁scheme	-10.7372
▁gems	-10.7377
▁stamp	-10.7379
▁sardine	-10.7385
▁nerve	-10.7386
▁riddle	-10.7387
▁plate	-10.7387
ex	-10.7389
▁document	-10.7391
▁string	-10.7397
▁jew	-10.7397
▁chuckle	-10.7401
▁gut	-10.7401
▁beside	-10.7402
▁customer	-10.7404
▁compliment	-10.741
oid	-10.7415
▁coin	-10.7415
was	-10.7429
▁cart	-10.7433
▁beasts	-10.745
che	-10.746
▁ahhh	-10.7461
az	-10.747
▁invent	-10.7476
▁entertain	-10.7486
▁swis	-10.7486
ita	-10.7498
▁embarrass	-10.7511
▁bolt	-10.7512
▁gain	-10.7514
night	-10.7525
▁capt	-10.7532
ica	-10.7541
▁swell	-10.7547
▁strain	-10.7548
▁tick	-10.7549
▁herr	-10.755
ator	-10.755
▁confirm	-10.7556
▁invest	-10.7557
▁hous	-10.7557
room	-10.7557
▁surround	-10.7563
wood	-10.7569
woman	-10.7569
lock	-10.757
girl	-10.7571
phone	-10.7574
▁activate	-10.7576
tto	-10.7576
pack	-10.7577
▁hum	-10.7578
▁should	-10.7579
▁remote	-10.7581
looker	-10.7585
▁temper	-10.7587
▁loop	-10.7589
▁pacifi	-10.7595
▁mmhm	-10.7595
▁convent	-10.7596
▁chemist	-10.7596
ological	-10.7596
▁congress	-10.7597
▁nucle	-10.7597
▁mornin	-10.7597
▁germ	-10.7597
▁limb	-10.7598
nce	-10.7598
▁casual	-10.7598
▁shrimp	-10.7598
▁enthrall	-10.7598
▁acconetti	-10.7598
▁activity	-10.7598
▁airspeed	-10.7598
▁almighty	-10.7598
▁ammunition	-10.7598
▁average	-10.7598
▁calcifer	-10.7598
▁catholic	-10.7598
▁cereal	-10.7598
▁chittering	-10.7598
▁choking	-10.7598
▁circus	-10.7598
▁complicated	-10.7598
▁confusion	-10.7598
▁creative	-10.7598
▁dismiss	-10.7598
▁facility	-10.7598
▁fiji	-10.7598
▁fountain	-10.7598
▁fundamental	-10.7598
▁goomgoom	-10.7598
▁gustavus	-10.7598
▁hartfield	-10.7598
▁haunted	-10.7598
▁hmph	-10.7598
▁independent	-10.7598
▁industries	-10.7598
▁jacqueline	-10.7598
▁kaiser	-10.7598
▁laundry	-10.7598
▁makunga	-10.7598
▁morehouse	-10.7598
▁musket	-10.7598
▁naughty	-10.7598
▁obiwan	-10.7598
▁okudera	-10.7598
▁patrol	-10.7598
▁picnic	-10.7598
▁pitiful	-10.7598
▁premature	-10.7598
▁quarrel	-10.7598
▁rattling	-10.7598
▁religion	-10.7598
▁respond	-10.7598
▁response	-10.7598
▁rumpelstiltskin	-10.7598
▁satisfy	-10.7598
▁smeerensburg	-10.7598
▁stanhope	-10.7598
▁struggling	-10.7598
▁tragic	-10.7598
▁underestimate	-10.7598
▁unfair	-10.7598
▁vegas	-10.7598
▁volcano	-10.7598
▁chimes	-10.7598
▁income	-10.7598
▁irish	-10.7598
▁seattle	-10.7598
▁serving	-10.7598
acek	-10.7599
▁deposit	-10.7599
▁instant	-10.7599
▁oscar	-10.7599
▁robbed	-10.7599
▁shuttle	-10.7599
▁tolling	-10.7599
▁employees	-10.7599
▁knives	-10.7599
▁yawp	-10.7599
▁acquaintance	-10.7599
▁ellen	-10.7599
▁spectrum	-10.7599
▁superior	-10.7599
▁foretold	-10.7599
▁arriving	-10.7599
▁mcq	-10.7599
▁greasy	-10.7599
▁ratchet	-10.7599
▁murney	-10.7599
▁reference	-10.7599
▁bracelet	-10.7599
▁thiev	-10.7599
▁resent	-10.7599
▁administration	-10.7599
▁eager	-10.7599
▁hulie	-10.7599
▁mentor	-10.7599
▁wives	-10.7599
▁cliff	-10.7599
▁puppy	-10.7599
▁yoyo	-10.7599
▁choke	-10.7599
▁plague	-10.7599
▁cecil	-10.7599
▁noface	-10.7599
▁spray	-10.7599
▁fifteen	-10.7599
▁marble	-10.7599
▁occurred	-10.7599
▁gettysburg	-10.7599
▁amusing	-10.7599
▁vital	-10.7599
▁canine	-10.7599
▁whys	-10.7599
▁leaf	-10.7599
▁cords	-10.7599
▁balance	-10.7599
▁retirement	-10.7599
▁kiel	-10.7599
▁mabel	-10.7599
▁righteous	-10.7599
▁stroll	-10.7599
▁construction	-10.7599
▁redmond	-10.7599
▁valet	-10.7599
▁thorpe	-10.7599
▁entry	-10.7599
▁urgent	-10.7599
▁trash	-10.76
▁myth	-10.76
▁delta	-10.76
▁orphanage	-10.76
▁calvin	-10.76
▁quiz	-10.76
▁baseball	-10.76
▁incoming	-10.76
▁species	-10.76
▁bodyguard	-10.76
▁uglyville	-10.76
▁protest	-10.76
▁wax	-10.76
▁mickey	-10.76
▁measure	-10.76
▁occupation	-10.76
▁thirty	-10.76
▁violet	-10.76
▁congressman	-10.76
▁engagement	-10.7601
▁assistant	-10.7601
▁series	-10.7601
▁mock	-10.7601
▁dropping	-10.7601
▁nov	-10.7601
▁crispin	-10.7601
▁fox	-10.7601
▁hawkes	-10.7602
▁betcha	-10.7602
▁alva	-10.7602
▁liege	-10.7602
▁await	-10.7602
▁headpiece	-10.7603
▁ellison	-10.7603
▁elbow	-10.7603
▁trumpet	-10.7603
▁operator	-10.7604
▁bushes	-10.7604
▁mailman	-10.7604
▁hola	-10.7605
asive	-10.7605
▁conduct	-10.7605
▁crab	-10.7605
▁beef	-10.7606
▁flavor	-10.7607
▁location	-10.7607
▁hideous	-10.7608
▁bait	-10.7608
▁suggestion	-10.7608
▁raw	-10.7609
▁coll	-10.7609
▁mall	-10.7609
▁lace	-10.761
▁grid	-10.761
▁programmed	-10.761
▁deed	-10.7611
▁boil	-10.7611
▁publicity	-10.7611
▁alan	-10.7612
▁mule	-10.7612
▁cried	-10.7612
▁maniac	-10.7613
▁hopefully	-10.7613
▁rendered	-10.7614
▁dating	-10.7614
▁wedge	-10.7616
▁dreadful	-10.7618
▁threatened	-10.7618
▁sac	-10.7619
▁etta	-10.762
▁flies	-10.762
▁thus	-10.762
▁sec	-10.7621
▁exploded	-10.7621
▁fried	-10.7623
▁wiser	-10.7623
▁challenger	-10.7624
▁inventor	-10.7624
▁delighted	-10.7627
▁reign	-10.7628
▁banana	-10.763
▁humanity	-10.7632
▁nailed	-10.7632
▁sailor	-10.7632
▁dru	-10.7635
▁proven	-10.7637
▁lew	-10.7638
▁naked	-10.7639
▁described	-10.7639
▁drowned	-10.764
▁sore	-10.764
▁elevate	-10.7641
▁starve	-10.7641
▁mixed	-10.7644
▁fastest	-10.7644
▁boxes	-10.7645
▁tro	-10.7646
▁spic	-10.7647
▁hopeless	-10.7649
eur	-10.7654
▁performing	-10.7656
▁commandments	-10.7661
ile	-10.7664
▁sealed	-10.7666
▁correctly	-10.7672
▁warmer	-10.7673
▁gummi	-10.7677
▁coke	-10.7677
▁ruled	-10.7678
▁sincere	-10.7679
▁exceptional	-10.7682
▁root	-10.7683
▁consequences	-10.7686
▁foundation	-10.7688
▁hah	-10.769
▁areas	-10.7695
▁entered	-10.7696
▁jay	-10.7698
▁poets	-10.7699
▁socks	-10.7712
▁pretending	-10.7717
▁ami	-10.7722
pit	-10.7736
▁vegetables	-10.7737
▁waters	-10.7749
▁dan	-10.7761
▁scouts	-10.7762
▁gi	-10.7763
▁speakers	-10.7772
▁sticky	-10.7774
▁climbing	-10.7779
▁claws	-10.7787
▁tricked	-10.7801
▁compliments	-10.7812
▁burned	-10.7816
▁lucki	-10.7825
▁cooler	-10.7828
▁watches	-10.7838
▁relatives	-10.7838
▁beers	-10.7841
ule	-10.7844
▁lions	-10.7846
▁nash	-10.7848
▁lookout	-10.7861
▁clients	-10.7863
ir	-10.7873
gen	-10.7876
▁hai	-10.7877
raising	-10.7881
▁musical	-10.7884
▁rot	-10.7886
▁crossed	-10.7887
▁picketts	-10.7889
▁scientists	-10.7889
▁turtles	-10.7889
▁honored	-10.789
▁curt	-10.7899
▁grows	-10.7905
▁chains	-10.7915
▁chambers	-10.7918
▁gu	-10.7918
af	-10.7922
dle	-10.7928
▁yards	-10.794
▁callers	-10.7952
nde	-10.7956
▁sha	-10.7958
ble	-10.7965
▁crystals	-10.7966
▁shove	-10.7971
▁axe	-10.7977
▁commanding	-10.7987
▁stat	-10.7988
▁waiter	-10.799
▁watering	-10.7993
etic	-10.8013
ash	-10.8016
▁thumbs	-10.8018
▁greatgreatgrand	-10.8019
▁pipes	-10.8019
▁imagin	-10.8053
spect	-10.8066
▁tiggers	-10.807
pre	-10.8083
▁fooling	-10.8085
▁callin	-10.8091
▁landed	-10.8095
▁arr	-10.8097
▁disco	-10.8099
▁summers	-10.8125
▁marrying	-10.8131
▁cells	-10.8132
▁clar	-10.8136
▁devo	-10.8141
▁princes	-10.8146
▁exists	-10.8148
▁formal	-10.8148
gy	-10.815
▁am	-10.8154
▁jerks	-10.8192
▁devils	-10.8204
▁buds	-10.8206
▁citys	-10.8216
ik	-10.8223
▁spa	-10.8226
▁rap	-10.8232
▁gin	-10.8244
▁od	-10.825
▁belle	-10.8254
▁liver	-10.8281
ade	-10.8304
▁decisions	-10.8307
▁mes	-10.8309
▁manor	-10.8319
rick	-10.8325
▁loads	-10.8336
▁breathes	-10.8342
▁au	-10.8358
▁sta	-10.8367
▁severe	-10.8371
▁bron	-10.8379
bel	-10.8382
fully	-10.8385
▁swallows	-10.8387
▁cur	-10.8412
▁moves	-10.8454
▁groups	-10.8466
itched	-10.8475
▁ol	-10.8486
▁stuffed	-10.8491
▁ooo	-10.8502
▁hurting	-10.8502
▁realise	-10.8502
ax	-10.8539
▁minds	-10.8551
▁dale	-10.8563
▁resting	-10.8569
ny	-10.8594
▁whisper	-10.8594
▁nut	-10.8599
▁cock	-10.8602
▁kn	-10.8611
hh	-10.8614
berry	-10.8621
▁headache	-10.8622
▁improvement	-10.8623
▁complaint	-10.8627
▁tunnel	-10.8629
▁threat	-10.8632
▁goblin	-10.8633
▁grownup	-10.8633
▁americans	-10.8635
▁objection	-10.8635
▁principle	-10.864
▁degree	-10.8644
▁skill	-10.8646
fish	-10.8649
▁claw	-10.8649
▁drum	-10.8659
▁sucker	-10.8663
▁payment	-10.8663
▁scu	-10.8674
▁rank	-10.8678
▁presents	-10.868
▁oo	-10.8684
▁toe	-10.8684
ans	-10.87
▁pond	-10.8713
▁critic	-10.8722
▁joint	-10.8724
val	-10.8734
▁origin	-10.874
▁slap	-10.8747
▁bri	-10.8756
▁receiv	-10.8757
▁frighten	-10.8759
▁chickens	-10.8764
▁nail	-10.8765
▁pour	-10.8767
▁roo	-10.8769
▁flam	-10.877
▁shush	-10.8794
▁bliss	-10.8794
ocus	-10.8798
▁chant	-10.8803
▁distract	-10.8804
kind	-10.8806
▁sak	-10.8807
book	-10.881
▁abandon	-10.8813
▁ham	-10.8814
ridden	-10.8821
james	-10.8823
quick	-10.8823
year	-10.8829
▁explode	-10.883
walk	-10.883
▁minist	-10.8832
▁slice	-10.8832
▁puss	-10.8833
▁custom	-10.8833
▁current	-10.8833
▁apparent	-10.8834
▁fift	-10.8836
ice	-10.884
▁voil	-10.8841
▁rome	-10.8841
port	-10.8843
▁attract	-10.8844
▁agricola	-10.8844
ville	-10.8845
▁immortal	-10.8846
▁employ	-10.8847
▁greet	-10.8848
▁alternat	-10.8848
▁confident	-10.8848
▁broad	-10.8848
▁similar	-10.8848
▁unreal	-10.8848
▁modest	-10.8848
▁ajam	-10.8848
▁albrecht	-10.8848
▁alliance	-10.8848
▁altogether	-10.8848
▁apologise	-10.8848
▁aqaba	-10.8848
▁asteroid	-10.8848
▁baku	-10.8848
▁barbecue	-10.8848
▁behalf	-10.8848
▁bicycle	-10.8848
▁bixler	-10.8848
▁brigid	-10.8848
▁cairo	-10.8848
▁calrissian	-10.8848
▁chamberlain	-10.8848
▁champagne	-10.8848
▁choosing	-10.8848
▁commence	-10.8848
▁constitution	-10.8848
▁consult	-10.8848
▁dagger	-10.8848
▁dixon	-10.8848
▁domestic	-10.8848
▁elefun	-10.8848
▁ellingboe	-10.8848
▁environment	-10.8848
▁fluffy	-10.8848
▁genetic	-10.8848
▁hairdresser	-10.8848
▁hancock	-10.8848
▁harridan	-10.8848
▁harvard	-10.8848
▁helmet	-10.8848
▁hermione	-10.8848
▁hyperdrive	-10.8848
▁jernigan	-10.8848
▁laszlo	-10.8848
▁longhorns	-10.8848
▁luggage	-10.8848
▁mechanic	-10.8848
▁mortgage	-10.8848
▁nottingham	-10.8848
▁nuisance	-10.8848
▁obsessed	-10.8848
▁outnumbered	-10.8848
▁overstreet	-10.8848
▁pawpaws	-10.8848
▁pencil	-10.8848
▁pennington	-10.8848
▁pennsylvania	-10.8848
▁prefix	-10.8848
▁prevail	-10.8848
▁proposal	-10.8848
▁reception	-10.8848
▁relief	-10.8848
▁result	-10.8848
▁reverend	-10.8848
▁robotolution	-10.8848
▁rossmore	-10.8848
▁satisfied	-10.8848
▁snatch	-10.8848
▁suspicious	-10.8848
▁texas	-10.8848
▁thanksgiving	-10.8848
▁token	-10.8848
▁tookietookie	-10.8848
▁toothache	-10.8848
▁traction	-10.8848
▁trembling	-10.8848
▁turgidson	-10.8848
▁unbreakable	-10.8848
▁unmask	-10.8848
▁voldemort	-10.8848
▁wookiee	-10.8848
▁zeniba	-10.8848
▁zulu	-10.8848
▁delicate	-10.8848
▁drank	-10.8848
▁harold	-10.8848
▁illuminat	-10.8848
▁laredo	-10.8848
▁marcus	-10.8848
▁mhm	-10.8848
▁plumbing	-10.8848
▁worf	-10.8848
▁worn	-10.8848
▁essence	-10.8849
▁kyle	-10.8849
▁pipeworks	-10.8849
▁regulations	-10.8849
▁yummy	-10.8849
▁ancest	-10.8849
▁saint	-10.8849
▁tattoo	-10.8849
▁android	-10.8849
▁bruise	-10.8849
▁identify	-10.8849
▁bauer	-10.8849
▁coronation	-10.8849
▁forster	-10.8849
▁gym	-10.8849
▁humility	-10.8849
▁preserv	-10.8849
▁kidney	-10.8849
▁lrish	-10.8849
▁estonia	-10.8849
▁typical	-10.8849
▁description	-10.8849
▁orale	-10.8849
▁evacuation	-10.8849
▁previous	-10.8849
▁curtain	-10.8849
▁rosalie	-10.8849
▁bostock	-10.8849
▁hunch	-10.8849
▁libby	-10.8849
▁unto	-10.8849
▁varga	-10.8849
▁clarence	-10.8849
▁pistol	-10.8849
▁willem	-10.8849
▁survival	-10.8849
▁swimmer	-10.8849
▁tsar	-10.8849
▁nazis	-10.8849
ford	-10.8849
▁downtown	-10.8849
▁oooow	-10.8849
▁oath	-10.8849
▁psst	-10.8849
▁comedian	-10.8849
▁contest	-10.8849
▁rico	-10.8849
▁nerd	-10.8849
▁groot	-10.8849
▁organization	-10.8849
▁celebration	-10.8849
▁ehoh	-10.885
▁salary	-10.885
▁theater	-10.885
▁hamburger	-10.885
▁bookwright	-10.885
▁motion	-10.885
▁penalty	-10.885
▁tessie	-10.885
▁commitment	-10.885
▁oona	-10.885
▁whine	-10.885
▁internet	-10.885
▁helen	-10.885
▁jock	-10.885
▁representation	-10.885
▁colorado	-10.885
▁firing	-10.885
▁kong	-10.885
▁spaz	-10.885
▁todo	-10.885
▁collapse	-10.8851
▁housekeeper	-10.8851
▁exile	-10.8851
▁stewar	-10.8851
▁governor	-10.8851
▁attraction	-10.8851
▁sunny	-10.8851
▁clive	-10.8851
▁gunshot	-10.8851
▁transferred	-10.8851
▁upper	-10.8852
▁transportation	-10.8852
▁heist	-10.8852
▁stove	-10.8852
▁heth	-10.8853
▁effective	-10.8853
▁traitor	-10.8853
▁rice	-10.8853
▁chopper	-10.8853
▁lauren	-10.8853
▁youse	-10.8853
▁drain	-10.8853
▁raid	-10.8853
▁alike	-10.8853
▁vow	-10.8853
▁thug	-10.8853
▁adore	-10.8854
▁sequence	-10.8854
▁betsy	-10.8854
▁temporary	-10.8854
▁smoking	-10.8854
▁lenin	-10.8854
▁skate	-10.8854
▁critical	-10.8854
▁dried	-10.8854
▁farther	-10.8855
▁rowan	-10.8855
▁tango	-10.8855
▁grip	-10.8855
▁footmen	-10.8855
▁unger	-10.8855
▁maud	-10.8855
▁scenery	-10.8855
▁spacetime	-10.8855
▁infinitely	-10.8856
how	-10.8856
▁offend	-10.8856
▁flamel	-10.8857
▁portion	-10.8857
▁alongside	-10.8857
▁increase	-10.8857
▁cooperate	-10.8858
▁lens	-10.8858
▁fiction	-10.8858
▁precedent	-10.8858
▁utterly	-10.8858
▁drunken	-10.8858
▁broom	-10.8859
▁management	-10.8859
▁boost	-10.8859
▁chunk	-10.8859
▁pile	-10.886
▁apply	-10.886
▁clearance	-10.886
▁passage	-10.886
▁bedtime	-10.8862
▁fearless	-10.8863
uous	-10.8864
▁pup	-10.8864
▁operational	-10.8864
▁delightful	-10.8865
▁sole	-10.8866
▁successfully	-10.8869
▁heroic	-10.8869
▁cello	-10.887
atory	-10.8871
▁piper	-10.8871
▁bully	-10.8874
▁bam	-10.8874
tore	-10.8875
▁begging	-10.8878
▁policeman	-10.8878
▁tada	-10.8879
▁fifty	-10.8879
▁communicate	-10.888
▁included	-10.888
▁organized	-10.8881
▁wager	-10.8883
▁generate	-10.8886
▁grind	-10.8887
▁tribe	-10.8887
▁clicking	-10.8888
▁soot	-10.8888
▁dragging	-10.8889
▁brand	-10.8891
▁pinky	-10.8893
▁behaved	-10.8894
▁arranged	-10.8895
▁bitter	-10.8899
▁solved	-10.8901
▁introduced	-10.8901
▁hoc	-10.8903
▁diseased	-10.8904
oon	-10.8908
usp	-10.8909
▁lever	-10.891
▁haste	-10.891
bra	-10.8911
day	-10.8911
▁miner	-10.8913
▁drowning	-10.8915
▁cheated	-10.8916
▁ranch	-10.8919
▁dolphins	-10.892
▁driven	-10.892
▁ink	-10.8921
▁wandering	-10.8921
kin	-10.893
▁kisses	-10.8934
▁engineers	-10.8935
▁moaning	-10.8935
▁hooker	-10.8935
▁factor	-10.8937
▁wrecked	-10.894
▁bugle	-10.894
▁kindness	-10.8941
▁bella	-10.8941
▁il	-10.8945
▁cole	-10.8947
lapping	-10.8948
▁catches	-10.8951
▁flyin	-10.8953
▁placement	-10.8953
ology	-10.8954
▁youngest	-10.8955
▁screwed	-10.896
▁lice	-10.8965
gram	-10.8966
▁helpful	-10.8973
yup	-10.8975
▁hardest	-10.8977
▁brakes	-10.8977
▁tools	-10.8977
▁guessed	-10.898
▁directed	-10.8986
▁homeless	-10.8988
▁smaller	-10.8992
▁dun	-10.8995
▁methods	-10.9006
▁camel	-10.9012
▁oww	-10.9013
▁proved	-10.9014
▁farts	-10.9021
▁bored	-10.9024
▁hack	-10.9034
▁affairs	-10.9035
▁cigarettes	-10.9035
▁upgrades	-10.9035
▁honks	-10.9036
▁rem	-10.9039
▁chu	-10.9043
▁colored	-10.9044
▁dock	-10.9044
▁gladly	-10.9047
▁mightve	-10.9053
▁peas	-10.9053
▁drawer	-10.9056
▁tag	-10.9069
mat	-10.907
▁bre	-10.9071
▁pea	-10.908
ain	-10.9084
▁coins	-10.9093
▁safely	-10.9098
▁beau	-10.9098
▁lao	-10.9104
▁pits	-10.911
▁bare	-10.9117
▁tra	-10.9119
▁explained	-10.9125
▁boyle	-10.913
▁fishy	-10.913
▁recording	-10.9132
▁quarters	-10.9152
▁instruments	-10.9152
itch	-10.916
▁indi	-10.9178
▁melt	-10.9184
▁searched	-10.9188
▁feathers	-10.921
ama	-10.923
▁squ	-10.9233
▁counted	-10.9234
▁sucks	-10.9242
▁eee	-10.9243
▁cure	-10.9256
▁mines	-10.927
fer	-10.9287
▁danced	-10.9294
▁squeals	-10.9299
▁mob	-10.9305
▁ke	-10.9314
▁wi	-10.9315
▁rebels	-10.9329
▁squeez	-10.934
sm	-10.9343
▁prayers	-10.9345
▁marked	-10.9352
▁partners	-10.9359
▁mari	-10.9364
cca	-10.9391
▁roars	-10.9391
app	-10.9391
otic	-10.9398
▁fuse	-10.9416
▁formula	-10.9417
▁elephants	-10.9418
▁pu	-10.942
cle	-10.9424
▁oi	-10.9425
▁mal	-10.9442
hes	-10.9447
▁bobbleheads	-10.9449
▁files	-10.945
ral	-10.9451
▁arabs	-10.947
dom	-10.9488
▁dep	-10.9489
aided	-10.9493
▁fights	-10.9497
▁choices	-10.9538
▁concerns	-10.9542
old	-10.9551
▁sarge	-10.958
east	-10.9585
▁caller	-10.9588
▁not	-10.9592
▁bombs	-10.9622
▁directions	-10.9631
▁cameras	-10.9631
▁buying	-10.9638
▁shines	-10.9664
▁riches	-10.9674
▁bin	-10.9679
istic	-10.9686
▁pat	-10.9688
kins	-10.9702
cc	-10.971
▁abs	-10.9722
▁squeeze	-10.9739
▁blocks	-10.9754
were	-10.9762
rine	-10.9794
▁hits	-10.9827
▁ch	-10.9835
hen	-10.9839
▁inn	-10.9844
shot	-10.9856
▁produc	-10.9866
▁greater	-10.987
▁remark	-10.9874
▁mist	-10.9881
▁targets	-10.9942
▁pas	-10.996
▁flap	-10.9967
▁var	-10.9969
uld	-10.9973
▁creep	-10.9978
minated	-10.9984
▁symbol	-10.9998
▁sigh	-11.0004
▁meetings	-11.0007
▁opera	-11.0007
▁colors	-11.0013
obs	-11.0018
▁honk	-11.0018
▁dish	-11.0024
▁mayors	-11.0044
▁straw	-11.0045
▁records	-11.0049
▁rhyme	-11.0051
▁xray	-11.0051
▁punishment	-11.0052
▁sal	-11.0054
▁autograph	-11.0057
▁neville	-11.0058
▁chat	-11.0063
▁emotion	-11.0063
▁cheek	-11.0064
har	-11.0065
▁scale	-11.0065
▁affair	-11.0066
▁cigarette	-11.0066
▁upgrade	-11.0067
iness	-11.0068
▁scout	-11.0069
▁coconut	-11.0069
▁troop	-11.0076
▁motor	-11.0079
we	-11.0084
▁bal	-11.009
▁term	-11.0103
faced	-11.0108
ores	-11.011
▁manner	-11.0125
▁returns	-11.0141
▁hahaha	-11.0148
ham	-11.0149
▁islands	-11.0166
late	-11.0167
cap	-11.0175
▁magn	-11.0207
zing	-11.0214
▁deflect	-11.0216
▁gil	-11.0218
▁leak	-11.022
ara	-11.022
▁delight	-11.0222
▁develop	-11.0224
▁shriek	-11.0225
▁chirp	-11.0227
▁vo	-11.0234
▁draft	-11.0238
▁disappoint	-11.024
▁jazz	-11.0241
▁predict	-11.0241
wit	-11.0244
▁slim	-11.0245
grown	-11.0251
john	-11.0251
▁pops	-11.0252
▁persuade	-11.0254
job	-11.0255
▁convince	-11.0255
▁retrieve	-11.0255
wise	-11.0256
▁capture	-11.0256
cake	-11.0257
▁relate	-11.0257
five	-11.0258
▁examine	-11.0258
▁premier	-11.026
▁frida	-11.026
talk	-11.0261
▁slipper	-11.0261
▁practical	-11.0262
▁julie	-11.0264
▁studi	-11.0264
▁literal	-11.0265
▁leaders	-11.0266
▁organize	-11.0267
▁cockroach	-11.027
▁bodi	-11.0272
▁scarf	-11.0272
▁commit	-11.0273
▁convention	-11.0273
▁ellis	-11.0273
tead	-11.0274
▁chuck	-11.0275
semble	-11.0275
▁diner	-11.0276
▁tech	-11.0277
▁horizon	-11.0277
▁snicker	-11.0277
▁stimulat	-11.0277
▁abbess	-11.0277
▁agency	-11.0277
▁allergic	-11.0277
▁ambassador	-11.0277
▁ambush	-11.0277
▁ankhvanharis	-11.0277
▁ashtray	-11.0277
▁avalanna	-11.0277
▁beijing	-11.0277
▁belloq	-11.0277
▁bikini	-11.0277
▁bourget	-11.0277
▁burglar	-11.0277
▁buzzing	-11.0277
▁cautious	-11.0277
▁cheerleader	-11.0277
▁choochoo	-11.0277
▁companies	-11.0277
▁conclusion	-11.0277
▁conflict	-11.0277
▁continuum	-11.0277
▁convincing	-11.0277
▁covenant	-11.0277
▁crossbow	-11.0277
▁deception	-11.0277
▁despair	-11.0277
▁dispute	-11.0277
▁dougherty	-11.0277
▁dylan	-11.0277
▁eclipse	-11.0277
▁eglantine	-11.0277
▁elaborate	-11.0277
▁enormous	-11.0277
▁errand	-11.0277
▁essential	-11.0277
▁expense	-11.0277
▁fireplace	-11.0277
▁galahad	-11.0277
▁gambling	-11.0277
▁genuine	-11.0277
▁gestapo	-11.0277
▁goober	-11.0277
▁gossip	-11.0277
▁gratitude	-11.0277
▁griffith	-11.0277
▁gronckle	-11.0277
▁hannigan	-11.0277
▁harbor	-11.0277
▁hercule	-11.0277
▁hollow	-11.0277
▁hustle	-11.0277
▁implosion	-11.0277
▁inaudible	-11.0277
▁incident	-11.0277
▁increasing	-11.0277
▁intense	-11.0277
▁invasion	-11.0277
▁january	-11.0277
▁japanese	-11.0277
▁jasperhowe	-11.0277
▁liquid	-11.0277
▁lobster	-11.0277
▁macklin	-11.0277
▁maizy	-11.0277
▁malfunction	-11.0277
▁marvellous	-11.0277
▁maurice	-11.0277
▁misfortune	-11.0277
▁musubi	-11.0277
▁nesmith	-11.0277
▁nowadays	-11.0277
▁obedient	-11.0277
▁oldfashioned	-11.0277
▁override	-11.0277
▁parliament	-11.0277
▁perimeter	-11.0277
▁popcorn	-11.0277
▁potential	-11.0277
▁primitive	-11.0277
▁pritchard	-11.0277
▁quidditch	-11.0277
▁quirrell	-11.0277
▁railroad	-11.0277
▁rainbow	-11.0277
▁randamonium	-11.0277
▁reform	-11.0277
▁ribbon	-11.0277
▁ritual	-11.0277
▁sennett	-11.0277
▁stepmother	-11.0277
▁sultenfuss	-11.0277
▁sydney	-11.0277
▁tackle	-11.0277
▁truce	-11.0277
▁unhappy	-11.0277
▁unnecessary	-11.0277
▁unpredictable	-11.0277
▁versailles	-11.0277
▁vinci	-11.0277
▁violence	-11.0277
▁vogel	-11.0277
▁vulgar	-11.0277
▁wimp	-11.0277
▁yeehaw	-11.0277
▁childcare	-11.0277
▁creation	-11.0277
▁fifi	-11.0277
▁humbly	-11.0277
▁lefors	-11.0277
▁orrin	-11.0277
▁oven	-11.0277
▁retard	-11.0277
▁unstable	-11.0277
▁update	-11.0277
▁alfa	-11.0277
▁barrel	-11.0277
▁britons	-11.0277
▁carpia	-11.0277
▁chiming	-11.0277
▁dork	-11.0277
▁shalt	-11.0277
▁slick	-11.0277
▁territor	-11.0277
▁motivat	-11.0277
▁oyster	-11.0277
▁slay	-11.0277
▁fluids	-11.0277
▁lodge	-11.0277
▁rooster	-11.0277
▁turnip	-11.0277
▁basket	-11.0277
▁intellectual	-11.0277
▁choir	-11.0277
▁referral	-11.0277
▁sankara	-11.0277
▁scroll	-11.0277
▁yuck	-11.0277
▁bouncing	-11.0277
▁finnegan	-11.0277
▁yield	-11.0277
▁independence	-11.0277
▁opponent	-11.0277
▁sloppy	-11.0277
▁zebra	-11.0277
▁harpoon	-11.0277
▁montage	-11.0277
▁breeze	-11.0277
▁bunny	-11.0277
▁referring	-11.0277
▁leather	-11.0277
▁automatically	-11.0277
▁blush	-11.0277
▁willard	-11.0277
▁guidance	-11.0277
▁campbell	-11.0277
▁cowboy	-11.0277
▁underground	-11.0277
▁conbaby	-11.0278
▁dryden	-11.0278
▁golf	-11.0278
▁waving	-11.0278
▁silverstone	-11.0278
▁archery	-11.0278
▁mansfield	-11.0278
▁patty	-11.0278
▁violation	-11.0278
▁narrow	-11.0278
▁dutch	-11.0278
▁enforce	-11.0278
▁lizard	-11.0278
▁outrageous	-11.0278
▁freddie	-11.0278
▁generous	-11.0278
▁burger	-11.0278
▁dentist	-11.0278
▁racket	-11.0278
▁uphold	-11.0278
▁confront	-11.0278
▁preschool	-11.0278
▁andrew	-11.0278
▁civilized	-11.0278
▁cobra	-11.0278
▁cupcake	-11.0278
▁haircut	-11.0278
▁karen	-11.0278
▁exam	-11.0278
▁descend	-11.0278
▁dining	-11.0278
▁danny	-11.0278
▁chapman	-11.0278
▁irresponsible	-11.0278
▁margo	-11.0278
▁adam	-11.0278
▁orbit	-11.0278
▁naptime	-11.0279
▁specifically	-11.0279
▁cour	-11.0279
▁visible	-11.0279
▁ridgeway	-11.0279
▁observation	-11.0279
▁pupil	-11.0279
▁anita	-11.0279
▁random	-11.0279
▁region	-11.0279
▁daph	-11.0279
▁paranoid	-11.0279
▁harmonica	-11.0279
▁trapped	-11.0279
▁owooo	-11.0279
▁recover	-11.0279
▁crm	-11.0279
▁investment	-11.0279
▁embarrassment	-11.0279
▁ambulance	-11.0279
▁valuable	-11.0279
▁with	-11.028
▁knit	-11.028
▁pauline	-11.028
▁payroll	-11.028
▁probe	-11.028
▁armour	-11.028
▁rodent	-11.028
▁dictator	-11.028
▁mature	-11.028
▁nickel	-11.028
▁beans	-11.0281
▁ballroom	-11.0281
▁proto	-11.0281
▁countries	-11.0281
▁static	-11.0281
▁production	-11.0281
▁whisky	-11.0281
▁shish	-11.0281
▁alice	-11.0282
▁lena	-11.0282
▁vip	-11.0282
▁theatre	-11.0282
▁slavery	-11.0282
▁voters	-11.0282
▁diary	-11.0282
▁spaceship	-11.0282
▁jury	-11.0282
▁royalty	-11.0283
▁elderly	-11.0283
cover	-11.0283
▁looney	-11.0283
▁sufficient	-11.0284
▁juliet	-11.0284
▁kneel	-11.0284
▁objective	-11.0285
ouf	-11.0285
▁stripes	-11.0286
▁anna	-11.0286
▁modesto	-11.0286
▁loco	-11.0286
▁wholl	-11.0286
▁tries	-11.0286
▁voila	-11.0286
▁spain	-11.0286
▁duh	-11.0287
▁resign	-11.0287
▁soninlaw	-11.0287
▁carrier	-11.0287
▁hutt	-11.0288
▁carpet	-11.0288
▁skipper	-11.0288
▁authorized	-11.0288
▁magician	-11.0289
▁taxes	-11.0289
▁toss	-11.029
▁mmmm	-11.029
▁constantly	-11.029
▁grain	-11.0291
▁oliver	-11.0291
▁associate	-11.0291
▁injured	-11.0291
▁julio	-11.0292
▁zoom	-11.0292
▁bitten	-11.0292
▁via	-11.0293
▁compared	-11.0293
▁runaway	-11.0293
▁presentation	-11.0293
▁phy	-11.0293
▁flee	-11.0294
▁bush	-11.0294
▁slippery	-11.0295
▁gigawatts	-11.0296
▁consideration	-11.0296
▁forty	-11.0296
▁andy	-11.0296
▁ramp	-11.0297
▁active	-11.0297
▁stashed	-11.0297
▁vel	-11.0297
▁builders	-11.0297
▁annoying	-11.0297
▁brutal	-11.0297
▁brightest	-11.0299
▁madman	-11.03
▁bark	-11.0301
▁lala	-11.0302
key	-11.0303
▁chillin	-11.0304
▁respectable	-11.0305
▁squawking	-11.0305
▁dwell	-11.0307
▁nanny	-11.0307
▁emotionally	-11.0308
▁dime	-11.0308
▁betrayed	-11.0309
▁endure	-11.0309
class	-11.031
gant	-11.0311
aw	-11.0314
▁restless	-11.0314
▁virtue	-11.0314
▁snot	-11.0314
▁predicted	-11.0314
▁jazzed	-11.0314
▁bumper	-11.0315
▁shhh	-11.0316
▁punches	-11.0316
▁soil	-11.0317
▁buster	-11.0318
bu	-11.0319
▁pb	-11.0319
▁mankind	-11.0321
▁complaining	-11.0321
dog	-11.0322
▁jammin	-11.0322
▁gary	-11.0322
▁camper	-11.0323
▁tookie	-11.0323
▁peep	-11.0325
▁era	-11.0329
▁shrieking	-11.033
gon	-11.0331
▁takin	-11.0331
▁lint	-11.0331
cal	-11.0334
▁featur	-11.0334
▁dresses	-11.0335
▁gown	-11.0336
▁insulted	-11.0337
▁wand	-11.0337
▁youyou	-11.0339
inlaw	-11.0341
▁val	-11.0341
▁doomed	-11.0343
take	-11.0344
desta	-11.0345
▁coordinates	-11.0348
▁ford	-11.0351
▁setup	-11.0351
▁pegg	-11.0352
▁granted	-11.0355
▁lone	-11.0358
uc	-11.036
▁limited	-11.036
▁danburrys	-11.0361
▁pasta	-11.0364
▁goodlooking	-11.0364
▁seeker	-11.0366
▁crushed	-11.0367
▁suffered	-11.0372
hl	-11.0375
▁tomb	-11.0376
▁imitat	-11.0377
▁glowing	-11.0378
air	-11.0385
▁regarding	-11.0386
▁survived	-11.0388
▁guided	-11.0389
▁delivery	-11.0389
lon	-11.039
▁provided	-11.0391
▁treaty	-11.0392
▁mammals	-11.0394
▁pirates	-11.0394
▁underdogs	-11.0394
▁slams	-11.0394
▁fallin	-11.0394
▁sights	-11.0394
▁kly	-11.0404
▁poisoned	-11.0407
▁pale	-11.0413
▁sup	-11.0415
▁signs	-11.0417
ox	-11.0418
▁goombas	-11.0427
▁communications	-11.0427
▁sco	-11.0429
▁beard	-11.0431
▁porter	-11.0436
▁mah	-11.044
▁dealt	-11.045
moi	-11.045
stop	-11.0453
▁messages	-11.046
▁entering	-11.046
▁intentions	-11.0461
get	-11.0465
▁studying	-11.0468
▁ohio	-11.0468
▁quicker	-11.0469
▁bea	-11.048
pot	-11.0482
▁lap	-11.0486
jan	-11.0488
▁collected	-11.0489
▁ge	-11.0493
▁traveled	-11.0494
▁cheeks	-11.0495
▁scales	-11.0495
step	-11.0497
▁coaching	-11.0501
▁diet	-11.0502
▁seller	-11.0503
▁miller	-11.0507
term	-11.0509
▁smelly	-11.051
ette	-11.0517
▁washing	-11.0519
▁cue	-11.0533
▁ae	-11.0537
▁whee	-11.054
▁her	-11.0544
hi	-11.0551
▁trips	-11.0553
▁unh	-11.0557
dict	-11.056
▁strings	-11.0563
▁nerves	-11.0563
▁riddles	-11.0563
▁sardines	-11.0563
▁apes	-11.0572
▁bothered	-11.0572
▁oldest	-11.0573
▁educational	-11.0591
▁sheets	-11.0597
▁vis	-11.0605
▁fort	-11.0607
▁tw	-11.0617
▁tents	-11.0622
▁monkeys	-11.0627
▁creaks	-11.0631
▁explorers	-11.0634
▁poster	-11.0638
▁traveler	-11.0641
▁hank	-11.0651
ath	-11.0655
▁senor	-11.0666
▁guarantees	-11.0666
▁shown	-11.068
▁explore	-11.0687
▁bla	-11.0697
▁instincts	-11.07
rous	-11.0707
▁weas	-11.0707
▁closely	-11.0733
▁peanuts	-11.0734
mate	-11.0747
▁coo	-11.0759
▁frog	-11.0767
▁crowded	-11.0768
▁clues	-11.0769
▁flags	-11.0771
ler	-11.0772
▁ned	-11.0776
▁strangers	-11.078
▁tones	-11.0784
ngling	-11.0792
▁singers	-11.0802
▁divisions	-11.0804
▁freed	-11.0808
▁arch	-11.0818
▁she	-11.082
bby	-11.0837
▁dimensions	-11.0839
▁hav	-11.0847
▁sire	-11.0854
rge	-11.0894
ism	-11.0919
▁operat	-11.0921
▁scares	-11.0921
unk	-11.0923
han	-11.0934
▁sacrifices	-11.0937
▁wil	-11.0944
▁tables	-11.0969
▁sol	-11.0975
▁diamonds	-11.098
▁mars	-11.102
leg	-11.1022
▁travell	-11.1036
▁checks	-11.105
▁fears	-11.1051
▁mucho	-11.1062
▁pulling	-11.1066
▁voices	-11.108
▁winters	-11.1087
▁ifyou	-11.1088
▁requests	-11.109
▁kr	-11.1096
ony	-11.1098
ates	-11.11
▁pos	-11.1104
top	-11.1113
▁jims	-11.1115
▁talents	-11.1126
▁ast	-11.1144
▁wo	-11.1167
▁bugs	-11.1169
uff	-11.1183
ify	-11.1189
▁eli	-11.1205
rd	-11.1209
stage	-11.1238
ub	-11.1239
▁scenes	-11.125
▁hmmm	-11.1254
ised	-11.1288
▁jo	-11.1296
▁sel	-11.1316
▁ph	-11.1318
▁iii	-11.1325
▁accounts	-11.1351
▁elses	-11.1353
▁wars	-11.1362
acy	-11.1395
bar	-11.1396
▁maker	-11.1397
are	-11.1411
▁sto	-11.1424
span	-11.1434
▁you	-11.1437
con	-11.1454
▁carlos	-11.1456
maker	-11.1461
▁positions	-11.1503
▁spec	-11.1515
coming	-11.1525
▁urge	-11.154
▁sum	-11.154
▁flor	-11.1554
▁chi	-11.1557
▁heroin	-11.1568
▁ups	-11.1584
pping	-11.1599
▁husbands	-11.1612
▁explor	-11.1627
▁carve	-11.1637
▁organ	-11.1648
ups	-11.1666
ole	-11.1674
▁loyal	-11.1674
hal	-11.1675
▁click	-11.1677
▁sniff	-11.1686
▁stack	-11.1688
▁thankyou	-11.1698
ked	-11.1716
▁muscle	-11.1718
▁kingpin	-11.1718
▁shar	-11.1722
▁shade	-11.1724
▁tire	-11.1726
▁relation	-11.1728
▁chick	-11.1728
▁outmode	-11.1728
▁sample	-11.1728
▁sch	-11.1731
▁intention	-11.1732
▁method	-11.1733
▁vegetable	-11.1734
▁victim	-11.1736
▁perk	-11.175
▁clocks	-11.1753
▁shatter	-11.1764
press	-11.1806
▁bore	-11.1814
▁ob	-11.182
▁manipulat	-11.1824
▁bits	-11.1826
▁bra	-11.184
▁ban	-11.1852
▁bloom	-11.1857
▁plac	-11.1866
▁declar	-11.1868
▁mort	-11.1877
through	-11.188
pi	-11.188
▁complain	-11.1883
▁depart	-11.1884
▁crunch	-11.189
▁clatter	-11.1895
▁rack	-11.1897
▁highp	-11.1897
▁establish	-11.1901
▁dragg	-11.1902
▁encounter	-11.1902
▁banish	-11.1905
▁slaughter	-11.1905
▁betray	-11.1907
called	-11.1907
▁harp	-11.1908
free	-11.1908
cious	-11.191
▁squash	-11.1913
▁crow	-11.1915
well	-11.1915
order	-11.1915
guard	-11.1915
grade	-11.1917
mobile	-11.1917
fall	-11.1917
bride	-11.1918
school	-11.1918
yearold	-11.1918
proof	-11.1918
▁inspire	-11.1919
▁frame	-11.1919
▁gamble	-11.1919
▁improve	-11.192
▁locate	-11.1921
▁confuse	-11.1922
▁weaken	-11.1923
▁spook	-11.1924
print	-11.1925
four	-11.1926
qu	-11.1927
▁constant	-11.1928
▁ratio	-11.1928
▁determine	-11.1929
jar	-11.1934
▁happie	-11.1934
▁tomato	-11.1937
▁potato	-11.1938
▁sentiment	-11.1938
▁rang	-11.1938
▁navigat	-11.1939
▁communi	-11.194
▁refu	-11.194
▁sherif	-11.1941
▁reflect	-11.1941
▁affect	-11.1941
cide	-11.1941
▁makin	-11.1942
ndistinct	-11.1943
▁torn	-11.1943
▁capit	-11.1944
▁uplift	-11.1944
▁gurgl	-11.1944
▁abilities	-11.1944
▁absurd	-11.1944
▁accommodate	-11.1944
▁alebrije	-11.1944
▁algerian	-11.1944
▁altimeter	-11.1944
▁ambition	-11.1944
▁andiamo	-11.1944
▁anubis	-11.1944
▁anyhow	-11.1944
▁appointed	-11.1944
▁barbados	-11.1944
▁batcave	-11.1944
▁batsignal	-11.1944
▁blix	-11.1944
▁bottling	-11.1944
▁brazil	-11.1944
▁briefcase	-11.1944
▁buongiorno	-11.1944
▁capacitor	-11.1944
▁capacity	-11.1944
▁chauffeur	-11.1944
▁chomofsky	-11.1944
▁clifton	-11.1944
▁collateral	-11.1944
▁committee	-11.1944
▁compensation	-11.1944
▁concentration	-11.1944
▁creator	-11.1944
▁crusade	-11.1944
▁curriculum	-11.1944
▁deceased	-11.1944
▁december	-11.1944
▁dialogue	-11.1944
▁disregard	-11.1944
▁effendi	-11.1944
▁evolution	-11.1944
▁exhusband	-11.1944
▁expotition	-11.1944
▁fragment	-11.1944
▁gahoole	-11.1944
▁georgia	-11.1944
▁gramoo	-11.1944
▁handkerchief	-11.1944
▁hideandseek	-11.1944
▁hilarious	-11.1944
▁holeinthewall	-11.1944
▁holland	-11.1944
▁incorrect	-11.1944
▁industry	-11.1944
▁inspiration	-11.1944
▁jedediah	-11.1944
▁kamajii	-11.1944
▁kristen	-11.1944
▁kwame	-11.1944
▁lettuce	-11.1944
▁marcie	-11.1944
▁mccann	-11.1944
▁melody	-11.1944
▁memorial	-11.1944
▁mississippi	-11.1944
▁murdock	-11.1944
▁mushroom	-11.1944
▁nerra	-11.1944
▁neutr	-11.1944
▁nitwit	-11.1944
▁oasis	-11.1944
▁october	-11.1944
▁offspring	-11.1944
▁pharaoh	-11.1944
▁philosopher	-11.1944
▁philosophy	-11.1944
▁pillow	-11.1944
▁piranhas	-11.1944
▁porridge	-11.1944
▁portrait	-11.1944
▁possibilities	-11.1944
▁privacy	-11.1944
▁pruitt	-11.1944
▁ravensbruck	-11.1944
▁resources	-11.1944
▁roast	-11.1944
▁sakana	-11.1944
▁scientific	-11.1944
▁scullery	-11.1944
▁sebastian	-11.1944
▁sermon	-11.1944
▁shelby	-11.1944
▁shotgun	-11.1944
▁shrink	-11.1944
▁skating	-11.1944
▁skull	-11.1944
▁spaghetti	-11.1944
▁spideybells	-11.1944
▁stuttering	-11.1944
▁substance	-11.1944
▁surprising	-11.1944
▁survey	-11.1944
▁sylvia	-11.1944
▁thorough	-11.1944
▁thursday	-11.1944
▁thwip	-11.1944
▁tragedy	-11.1944
▁trajectory	-11.1944
▁trousers	-11.1944
▁twelve	-11.1944
▁valentin	-11.1944
▁valiant	-11.1944
▁vodka	-11.1944
▁voyage	-11.1944
▁weymouth	-11.1944
▁yorkshire	-11.1944
▁bogey	-11.1944
▁cindy	-11.1944
▁courtyard	-11.1944
▁deceive	-11.1944
▁deraa	-11.1944
▁dolores	-11.1944
▁dungeon	-11.1944
▁earphones	-11.1944
▁incinerat	-11.1944
▁interior	-11.1944
▁jinx	-11.1944
▁length	-11.1944
▁nevertheless	-11.1944
▁norton	-11.1944
▁randall	-11.1944
▁retain	-11.1944
▁slum	-11.1944
▁ankle	-11.1944
▁cattle	-11.1944
▁enslav	-11.1944
▁firm	-11.1944
▁fresno	-11.1944
▁holler	-11.1944
▁pepper	-11.1944
▁promising	-11.1944
▁abducted	-11.1944
▁actress	-11.1944
▁album	-11.1944
▁carmine	-11.1944
▁classmates	-11.1944
▁item	-11.1944
▁ladder	-11.1944
▁toad	-11.1944
▁ebersol	-11.1944
▁exceed	-11.1944
▁molecul	-11.1944
▁vase	-11.1944
▁aaaargh	-11.1944
▁italy	-11.1944
▁phoenix	-11.1944
▁querer	-11.1944
▁numero	-11.1944
▁zod	-11.1944
▁feldstein	-11.1944
▁nuwanda	-11.1944
▁stammer	-11.1944
▁execute	-11.1944
▁plutonium	-11.1944
▁florida	-11.1944
▁scrub	-11.1944
▁steep	-11.1944
▁whinnies	-11.1944
▁clucking	-11.1944
▁consume	-11.1944
▁violent	-11.1944
▁grease	-11.1944
▁courtesy	-11.1944
▁identical	-11.1944
▁trashcan	-11.1944
▁picard	-11.1944
▁uhuh	-11.1944
▁heels	-11.1944
▁hockey	-11.1944
▁horizontal	-11.1944
▁fireworks	-11.1944
▁phase	-11.1944
▁snitch	-11.1944
▁conviction	-11.1944
▁banner	-11.1944
▁divert	-11.1944
▁cancer	-11.1944
▁rumour	-11.1944
▁lamia	-11.1944
▁reckless	-11.1944
▁ominous	-11.1944
▁bluff	-11.1944
▁lonesome	-11.1944
▁pedal	-11.1944
▁economic	-11.1944
▁muggle	-11.1944
▁peacekeeper	-11.1944
▁chou	-11.1944
▁surgery	-11.1944
▁slop	-11.1944
▁abner	-11.1944
▁celia	-11.1944
▁robbing	-11.1944
▁flourish	-11.1944
▁rubbish	-11.1944
▁predator	-11.1944
▁refresh	-11.1944
▁buddies	-11.1944
▁departure	-11.1944
▁classification	-11.1944
▁hasty	-11.1944
▁waking	-11.1944
creating	-11.1944
▁sprinkle	-11.1945
▁sparrin	-11.1945
▁oxford	-11.1945
▁ginormica	-11.1945
▁woah	-11.1945
▁harrow	-11.1945
▁population	-11.1945
▁fratern	-11.1945
▁skinny	-11.1945
▁finance	-11.1945
▁tension	-11.1945
▁squish	-11.1945
▁fanny	-11.1945
▁decoration	-11.1945
▁rapid	-11.1945
▁hooligan	-11.1945
which	-11.1945
▁otra	-11.1945
▁racing	-11.1945
▁soap	-11.1945
▁trolley	-11.1945
▁fluent	-11.1945
▁krum	-11.1945
▁hissing	-11.1945
▁medium	-11.1945
▁jatt	-11.1945
▁jeffries	-11.1945
▁approximately	-11.1945
▁suicide	-11.1945
▁native	-11.1945
▁lobby	-11.1945
▁wiggly	-11.1945
▁inspection	-11.1945
▁onward	-11.1946
▁maxim	-11.1946
▁behold	-11.1946
▁hip	-11.1946
▁decade	-11.1946
▁harrison	-11.1946
▁pause	-11.1946
▁merton	-11.1946
▁documentary	-11.1946
▁overnight	-11.1946
▁kik	-11.1946
▁plotting	-11.1946
▁zog	-11.1946
▁detention	-11.1946
▁lime	-11.1946
▁hyper	-11.1946
▁dislike	-11.1946
▁saddle	-11.1946
▁quant	-11.1946
▁detonator	-11.1946
▁enterprise	-11.1947
▁phrase	-11.1947
▁rumpel	-11.1947
▁aaaah	-11.1947
▁pinch	-11.1947
▁geez	-11.1947
▁scarce	-11.1947
▁colour	-11.1947
▁interpretation	-11.1947
▁amar	-11.1947
▁remarkable	-11.1947
▁leonardo	-11.1947
▁elsewhere	-11.1947
▁buts	-11.1947
▁guido	-11.1947
▁distraction	-11.1947
▁classroom	-11.1948
▁hallway	-11.1948
▁chow	-11.1948
▁invention	-11.1948
▁unwell	-11.1948
▁presume	-11.1948
▁ferry	-11.1948
▁golly	-11.1948
▁atom	-11.1948
▁crackling	-11.1949
▁jean	-11.1949
▁eyeball	-11.1949
▁freezing	-11.1949
▁frown	-11.1949
▁canal	-11.1949
▁reduce	-11.1949
▁gravity	-11.1949
▁web	-11.1949
▁leviosa	-11.1949
▁notion	-11.1949
▁moth	-11.1949
▁donation	-11.195
▁lobo	-11.195
▁anchor	-11.195
▁deserves	-11.195
▁rubies	-11.195
▁oof	-11.195
▁cabinet	-11.195
▁curve	-11.1951
▁jill	-11.1951
▁catastrophe	-11.1951
▁vigilante	-11.1951
▁occupied	-11.1951
▁chess	-11.1952
▁rev	-11.1952
▁jake	-11.1952
▁campus	-11.1953
▁digg	-11.1953
▁household	-11.1953
▁bail	-11.1954
▁nile	-11.1954
name	-11.1954
▁siva	-11.1954
▁childhood	-11.1954
▁cube	-11.1954
▁bugger	-11.1954
▁grandson	-11.1954
▁humiliated	-11.1954
▁relieved	-11.1954
▁denied	-11.1954
▁nno	-11.1954
▁bien	-11.1954
▁stepped	-11.1955
▁gag	-11.1955
▁skies	-11.1955
▁assigned	-11.1955
▁realistic	-11.1955
▁duce	-11.1956
ency	-11.1956
▁alas	-11.1956
▁beam	-11.1956
▁celeste	-11.1957
▁discussion	-11.1957
▁mein	-11.1957
▁oppress	-11.1957
▁mansion	-11.1958
▁wel	-11.1958
▁tickle	-11.1958
▁tweety	-11.1959
▁sharpe	-11.196
▁asset	-11.196
▁rifle	-11.1962
▁slime	-11.1963
▁melon	-11.1963
▁quitting	-11.1964
▁bravery	-11.1965
▁slimy	-11.1966
▁hatch	-11.1966
▁stable	-11.1966
▁crashes	-11.1966
▁scissors	-11.1966
▁hesitate	-11.1966
▁rhythmic	-11.1966
▁sharpen	-11.1966
▁bagel	-11.1967
▁untied	-11.1967
▁honorable	-11.1968
▁recycling	-11.1968
▁engineering	-11.1968
▁fence	-11.1969
▁gambler	-11.1969
▁satin	-11.1969
▁clapping	-11.1969
▁rink	-11.197
▁slack	-11.1971
▁madness	-11.1971
▁donate	-11.1971
▁tighten	-11.1972
▁croc	-11.1972
▁alo	-11.1972
▁lava	-11.1973
▁factory	-11.1974
▁hates	-11.1974
▁quote	-11.1975
nium	-11.1976
▁cocoa	-11.1978
▁crusher	-11.1978
▁partial	-11.1978
▁logical	-11.1978
▁activated	-11.1979
▁observe	-11.198
▁fre	-11.198
▁lair	-11.1982
▁ridden	-11.1983
▁approved	-11.1984
▁booty	-11.1985
▁immortality	-11.1985
▁involve	-11.1986
aka	-11.1987
▁threatening	-11.199
▁app	-11.1992
▁ceased	-11.1992
mal	-11.1994
▁workingman	-11.1995
▁poured	-11.1996
▁melted	-11.1997
aaah	-11.1998
▁handling	-11.1998
▁graduated	-11.1998
▁wit	-11.1999
▁buckle	-11.1999
▁ble	-11.1999
▁hiya	-11.2001
▁dusty	-11.2003
▁cooing	-11.2003
▁larger	-11.2004
▁afterwards	-11.2004
▁beliefs	-11.2004
▁catapults	-11.2004
▁licensed	-11.2005
▁heroes	-11.2008
▁av	-11.2009
▁performed	-11.2009
▁rosey	-11.2011
mic	-11.2012
▁speaker	-11.2014
▁generals	-11.2015
▁twisted	-11.2016
▁pouring	-11.2016
▁pork	-11.2017
▁wr	-11.2018
▁possessed	-11.2023
▁weirdo	-11.2028
▁zoot	-11.2031
▁owes	-11.2034
▁assured	-11.2034
bur	-11.2035
▁lawn	-11.2037
▁ruler	-11.2037
▁tre	-11.204
▁sandy	-11.204
▁arrangements	-11.2044
▁gloves	-11.2044
▁ingredients	-11.2044
▁passengers	-11.2044
▁puls	-11.2045
▁chaser	-11.2045
▁passes	-11.2045
▁weeping	-11.2045
▁taco	-11.2048
sexual	-11.2051
▁spared	-11.2052
▁coolest	-11.2052
dess	-11.2053
▁eta	-11.2064
▁cathe	-11.2076
▁weirder	-11.208
▁contents	-11.2084
▁generations	-11.2084
▁idle	-11.2085
megaton	-11.2086
▁hats	-11.209
▁attempted	-11.2092
▁cans	-11.2095
▁ash	-11.2095
dies	-11.2097
▁pad	-11.2098
▁charmed	-11.21
▁cling	-11.2106
stone	-11.2106
▁requested	-11.2109
▁proceeding	-11.2114
▁sadly	-11.2116
▁talented	-11.2116
▁heights	-11.2124
▁candles	-11.2124
▁politicians	-11.2124
▁resumes	-11.2124
▁discussed	-11.2128
py	-11.2129
▁costa	-11.2134
▁yii	-11.2149
any	-11.2152
▁functioning	-11.2153
▁my	-11.2153
▁completed	-11.2154
▁witnessing	-11.2154
▁loudly	-11.2157
▁shatters	-11.2163
▁outmodes	-11.2164
▁relations	-11.2164
▁samples	-11.2164
▁chicks	-11.2164
going	-11.2175
▁peaceful	-11.2177
owns	-11.2177
▁harmon	-11.2182
uther	-11.2186
▁gathering	-11.2191
▁charged	-11.2202
▁cater	-11.2206
▁creeps	-11.2207
yman	-11.2216
▁shortly	-11.2216
▁fad	-11.2216
ified	-11.2218
▁and	-11.2219
gie	-11.2222
ripping	-11.2227
▁joyful	-11.2227
▁cracker	-11.2228
▁ally	-11.2232
field	-11.2239
▁ale	-11.2243
▁fires	-11.2245
▁goblins	-11.2245
▁drums	-11.2246
▁threats	-11.2246
▁presidents	-11.2255
▁dia	-11.2257
▁dated	-11.226
▁corpse	-11.2265
▁plates	-11.2287
▁parl	-11.2287
▁interpret	-11.23
▁risking	-11.2302
▁kingdoms	-11.2302
fire	-11.2316
▁skipp	-11.2318
war	-11.2322
▁col	-11.2323
▁spikes	-11.2327
▁packages	-11.2327
▁wolfwalkers	-11.2327
▁endor	-11.2332
▁switching	-11.2333
ya	-11.2341
▁knot	-11.2342
▁tease	-11.2343
▁moo	-11.2344
▁surprises	-11.2347
▁gifts	-11.2351
▁artists	-11.2353
▁apples	-11.2368
nder	-11.2368
▁dings	-11.2368
▁towels	-11.2369
▁options	-11.2369
▁restaurants	-11.2369
▁effects	-11.2369
▁sa	-11.2378
▁indo	-11.2383
▁lighter	-11.2394
▁dancers	-11.2395
ran	-11.2395
▁ano	-11.2408
▁companions	-11.241
▁dearly	-11.2413
▁scrape	-11.2415
▁workers	-11.2422
▁shifts	-11.2452
cia	-11.2454
▁grove	-11.2457
▁gulp	-11.2458
▁seated	-11.2458
ock	-11.2478
som	-11.248
▁adi	-11.2483
▁comments	-11.249
▁explosions	-11.2493
thing	-11.2497
▁misses	-11.2519
▁laughed	-11.2519
▁kicking	-11.2527
▁vers	-11.2533
▁brigades	-11.2535
▁helicopters	-11.2535
▁lightly	-11.2538
▁ri	-11.2547
ker	-11.2555
▁lands	-11.2572
▁paws	-11.2576
▁meals	-11.2577
▁articles	-11.2577
▁claims	-11.258
▁testing	-11.2581
▁speeding	-11.2584
▁raining	-11.2588
corporate	-11.2594
▁kat	-11.2601
▁crossing	-11.2603
▁generators	-11.262
▁outfits	-11.262
▁questioned	-11.2621
▁covering	-11.2631
can	-11.2639
verge	-11.2643
lam	-11.2647
▁mango	-11.2654
▁fiddle	-11.2655
gal	-11.266
▁circles	-11.2662
▁connections	-11.2662
▁pon	-11.2663
▁suspects	-11.2665
▁medi	-11.2672
▁troubled	-11.2684
▁define	-11.2685
▁hoot	-11.2688
▁sc	-11.2688
▁visits	-11.2694
▁offices	-11.2695
saver	-11.2703
▁lively	-11.2703
▁professionals	-11.2705
▁winners	-11.2705
dium	-11.2708
this	-11.2715
▁workin	-11.272
got	-11.2721
▁ax	-11.273
▁trains	-11.2735
▁uniforms	-11.2748
▁operations	-11.2748
▁villains	-11.2749
ronto	-11.275
▁sticking	-11.277
▁fart	-11.2778
▁youths	-11.2791
▁stre	-11.2796
hold	-11.2798
heads	-11.2812
▁hog	-11.2816
▁dens	-11.2819
▁bedrooms	-11.2834
▁airplanes	-11.2834
anne	-11.2837
▁vari	-11.2846
ppy	-11.2846
tal	-11.2848
▁crate	-11.2849
▁media	-11.2851
▁dinners	-11.2853
tz	-11.2853
▁mit	-11.287
▁floors	-11.2881
flies	-11.2885
ood	-11.2901
▁gall	-11.2912
▁sources	-11.2921
▁label	-11.2926
▁compete	-11.2928
▁wal	-11.2936
au	-11.2961
▁sails	-11.2972
▁lem	-11.2979
▁gala	-11.2991
ina	-11.2995
▁warp	-11.3008
urn	-11.3032
▁drops	-11.3035
▁worker	-11.3046
▁pages	-11.3053
▁rested	-11.3054
gia	-11.3055
▁snows	-11.3101
sea	-11.3107
iff	-11.3135
agon	-11.3142
▁chips	-11.3186
▁tommys	-11.3186
▁noises	-11.3192
▁hangs	-11.3203
▁corporat	-11.3203
▁puter	-11.3225
▁fer	-11.323
awa	-11.3262
▁cases	-11.3267
▁ti	-11.327
▁chen	-11.3279
mos	-11.329
▁noon	-11.3311
▁keeper	-11.3317
▁om	-11.3324
angling	-11.3332
chin	-11.3336
▁lit	-11.335
▁wease	-11.3352
▁ze	-11.337
▁tapes	-11.3372
▁mmmmmm	-11.3401
▁multi	-11.3412
pressed	-11.3434
dor	-11.3438
▁operate	-11.3438
bru	-11.3443
▁missions	-11.346
lating	-11.3462
ders	-11.347
gan	-11.3471
▁are	-11.3491
▁dela	-11.35
▁shields	-11.3505
ttler	-11.3506
▁cent	-11.3508
▁gal	-11.3508
▁hale	-11.3515
wal	-11.3521
▁aaa	-11.3526
inny	-11.3531
ada	-11.3538
▁baths	-11.354
ima	-11.3548
▁blessings	-11.3552
mption	-11.3567
▁boats	-11.3582
bre	-11.3589
▁wheels	-11.3598
▁downs	-11.3598
mot	-11.3607
water	-11.3611
mou	-11.3614
▁beep	-11.3621
trus	-11.3635
▁rides	-11.3638
▁spi	-11.364
▁relationships	-11.3645
zz	-11.3659
▁drives	-11.3685
▁snarl	-11.3687
ida	-11.3705
ability	-11.3709
itat	-11.3715
▁preparation	-11.3718
▁stardestroyer	-11.3724
agging	-11.3726
▁politician	-11.3728
▁resume	-11.3728
▁candle	-11.3728
▁goomba	-11.3731
▁height	-11.3731
▁airline	-11.3733
▁bloodsh	-11.3734
eye	-11.3734
▁brake	-11.3735
▁tool	-11.3736
▁communication	-11.3736
▁poll	-11.3739
▁idiots	-11.3739
▁circuit	-11.374
▁rumor	-11.3742
▁boob	-11.3747
▁cy	-11.3748
▁claus	-11.3749
▁reject	-11.3761
▁qua	-11.3762
▁gua	-11.3769
join	-11.3773
▁sock	-11.3773
orium	-11.3781
▁chooses	-11.3787
▁les	-11.3789
▁farms	-11.379
▁meg	-11.3799
▁disc	-11.3799
▁controls	-11.3807
▁oblige	-11.3812
▁strap	-11.3814
kay	-11.3822
▁situations	-11.3835
▁exception	-11.3835
atu	-11.3835
den	-11.3845
▁dispatch	-11.3856
▁threaten	-11.3859
▁rio	-11.3861
alei	-11.3863
▁crib	-11.3864
▁commission	-11.387
force	-11.3876
▁splash	-11.3879
▁shudder	-11.3888
▁amaz	-11.3889
▁spank	-11.3889
▁frost	-11.3889
▁suppos	-11.3892
▁fascinat	-11.3893
▁scan	-11.3893
ute	-11.3894
▁squeak	-11.3894
▁react	-11.3896
▁will	-11.3898
▁cruise	-11.3898
▁conquer	-11.3903
▁select	-11.3904
front	-11.3906
▁spill	-11.3906
▁accomplish	-11.3908
▁dodge	-11.3909
▁sar	-11.391
piece	-11.3913
▁greatly	-11.3913
identified	-11.3913
known	-11.3914
historic	-11.3915
attering	-11.3916
section	-11.3916
clap	-11.3917
maniac	-11.3917
found	-11.3917
connect	-11.3917
bound	-11.3918
seven	-11.3918
storm	-11.3918
hearted	-11.3918
cky	-11.3918
dead	-11.3918
believe	-11.3918
space	-11.3919
▁historic	-11.3919
▁deevolve	-11.392
▁pursue	-11.392
safe	-11.392
around	-11.3921
▁compare	-11.3922
pool	-11.3923
▁sew	-11.3924
least	-11.3925
▁tweet	-11.3925
▁kit	-11.3925
▁thirst	-11.3926
▁robber	-11.3926
▁programme	-11.3927
▁harsh	-11.3927
▁utter	-11.3929
▁precise	-11.393
▁norm	-11.3931
▁celest	-11.3932
▁prodig	-11.3934
▁curl	-11.3934
▁definite	-11.3935
▁barbar	-11.3936
▁insect	-11.3936
▁pengu	-11.3936
▁negro	-11.3936
▁walt	-11.3936
▁coloni	-11.3936
▁superhero	-11.3937
▁delusion	-11.3937
▁hawk	-11.3937
▁attic	-11.3938
stand	-11.3938
▁mug	-11.3939
▁indian	-11.3939
▁bleed	-11.3939
mono	-11.394
▁anti	-11.394
▁jeep	-11.3941
▁alcohol	-11.3941
▁dictat	-11.3941
▁roy	-11.3941
▁drivin	-11.3941
▁movin	-11.3941
bbie	-11.3941
▁judicia	-11.3942
▁vocal	-11.3942
▁hazard	-11.3942
▁fabric	-11.3942
▁gert	-11.3943
caution	-11.3943
▁scholar	-11.3943
scope	-11.3943
have	-11.3943
▁emerge	-11.3943
▁drip	-11.3943
▁pluto	-11.3944
▁babysit	-11.3944
dolph	-11.3944
▁restrict	-11.3944
▁anarch	-11.3944
▁inferior	-11.3944
▁irritat	-11.3944
▁multiply	-11.3944
▁polish	-11.3944
▁uhuhuh	-11.3944
continental	-11.3944
sustain	-11.3944
▁abduction	-11.3944
▁abuelita	-11.3944
▁accusing	-11.3944
▁agenda	-11.3944
▁amateur	-11.3944
▁anastasia	-11.3944
▁appalling	-11.3944
▁arguing	-11.3944
▁arrogant	-11.3944
▁assessment	-11.3944
▁athlete	-11.3944
▁atlanta	-11.3944
▁atmosphere	-11.3944
▁audacity	-11.3944
▁baloney	-11.3944
▁belches	-11.3944
▁belfry	-11.3944
▁belgian	-11.3944
▁bernadette	-11.3944
▁binturi	-11.3944
▁blossom	-11.3944
▁bourbon	-11.3944
▁branzino	-11.3944
▁briggs	-11.3944
▁broomstick	-11.3944
▁bujumbura	-11.3944
▁burpelson	-11.3944
▁buzzer	-11.3944
▁ceiling	-11.3944
▁charlotte	-11.3944
▁chewbacca	-11.3944
▁concord	-11.3944
▁conspiracy	-11.3944
▁continuing	-11.3944
▁convenience	-11.3944
▁convenient	-11.3944
▁cornelia	-11.3944
▁crippled	-11.3944
▁crucial	-11.3944
▁custody	-11.3944
▁dagobah	-11.3944
▁daydream	-11.3944
▁deevolution	-11.3944
▁depression	-11.3944
▁dessert	-11.3944
▁detroit	-11.3944
▁devaney	-11.3944
▁disposal	-11.3944
▁diversion	-11.3944
▁dobbs	-11.3944
▁downpour	-11.3944
▁dubuque	-11.3944
▁embrace	-11.3944
▁enscombe	-11.3944
▁everlasting	-11.3944
▁evolve	-11.3944
▁expelled	-11.3944
▁exquisite	-11.3944
▁fanfare	-11.3944
▁flashlight	-11.3944
▁fremont	-11.3944
▁frolic	-11.3944
▁frustration	-11.3944
▁gesture	-11.3944
▁gibson	-11.3944
▁gobber	-11.3944
▁gobbling	-11.3944
▁gorilla	-11.3944
▁graveyard	-11.3944
▁grazie	-11.3944
▁greece	-11.3944
▁hench	-11.3944
▁herlihy	-11.3944
▁hermia	-11.3944
▁honcho	-11.3944
▁humiliating	-11.3944
▁hurray	-11.3944
▁hurricane	-11.3944
▁inconvenien	-11.3944
▁industrial	-11.3944
▁injustice	-11.3944
▁innocence	-11.3944
▁jergens	-11.3944
▁jerusalem	-11.3944
▁jonquils	-11.3944
▁juilliard	-11.3944
▁jurisdiction	-11.3944
▁juvie	-11.3944
▁kirk	-11.3944
▁lazarus	-11.3944
▁lenore	-11.3944
▁lionheart	-11.3944
▁lizzie	-11.3944
▁ltomori	-11.3944
▁lydia	-11.3944
▁malfoy	-11.3944
▁matrimony	-11.3944
▁matrix	-11.3944
▁mellow	-11.3944
▁memoirs	-11.3944
▁merchandise	-11.3944
▁miranda	-11.3944
▁mongrel	-11.3944
▁moonlight	-11.3944
▁mutiny	-11.3944
▁niebold	-11.3944
▁november	-11.3944
▁numbskull	-11.3944
▁olivier	-11.3944
▁overload	-11.3944
▁paycheck	-11.3944
▁persuasion	-11.3944
▁pianoforte	-11.3944
▁pineapple	-11.3944
▁pneumonia	-11.3944
▁preposterous	-11.3944
▁pretzel	-11.3944
▁puberty	-11.3944
▁quality	-11.3944
▁rattlesnake	-11.3944
▁receipt	-11.3944
▁refrain	-11.3944
▁residence	-11.3944
▁revenge	-11.3944
▁salome	-11.3944
▁sangimel	-11.3944
▁sausage	-11.3944
▁semester	-11.3944
▁separation	-11.3944
▁shanghai	-11.3944
▁shirley	-11.3944
▁sludge	-11.3944
▁smuggl	-11.3944
▁solitude	-11.3944
▁starfleet	-11.3944
▁subtle	-11.3944
▁surveillance	-11.3944
▁swift	-11.3944
▁switzerland	-11.3944
▁taggert	-11.3944
▁tatiana	-11.3944
▁technique	-11.3944
▁teetsi	-11.3944
▁testimony	-11.3944
▁thrilling	-11.3944
▁transplant	-11.3944
▁treasury	-11.3944
▁trespassing	-11.3944
▁tvprogram	-11.3944
▁unacceptable	-11.3944
▁vacuum	-11.3944
▁vanilla	-11.3944
▁vanquish	-11.3944
▁virana	-11.3944
▁worries	-11.3944
▁bullseye	-11.3944
▁cheeseburger	-11.3944
▁detach	-11.3944
▁eleven	-11.3944
▁endanger	-11.3944
▁enhance	-11.3944
▁hudson	-11.3944
▁ingenious	-11.3944
▁inhabit	-11.3944
▁jefferson	-11.3944
▁jorel	-11.3944
▁monarch	-11.3944
▁parasite	-11.3944
▁razor	-11.3944
▁steam	-11.3944
greatgrandfather	-11.3944
haired	-11.3944
▁crisis	-11.3944
▁ferris	-11.3944
▁holyoke	-11.3944
▁jolly	-11.3944
▁milan	-11.3944
▁ninth	-11.3944
▁plastic	-11.3944
▁reluctan	-11.3944
▁roam	-11.3944
▁wrappings	-11.3944
▁corrupt	-11.3944
▁ferret	-11.3944
▁forsak	-11.3944
▁hysterical	-11.3944
▁sundance	-11.3944
▁theft	-11.3944
▁throne	-11.3944
undre	-11.3944
▁devin	-11.3944
▁buena	-11.3944
▁combined	-11.3944
▁kelly	-11.3944
▁luncheon	-11.3944
▁optimistic	-11.3944
▁spectacular	-11.3944
▁deciding	-11.3944
▁gilbert	-11.3944
▁ignoring	-11.3944
▁minimum	-11.3944
▁plaster	-11.3944
▁warrant	-11.3944
▁clums	-11.3944
▁loveliness	-11.3944
▁mariachi	-11.3944
▁stephans	-11.3944
▁torment	-11.3944
▁blares	-11.3944
▁goddard	-11.3944
▁harness	-11.3944
▁hostages	-11.3944
▁lump	-11.3944
▁essay	-11.3944
▁lounge	-11.3944
▁sustained	-11.3944
▁ongi	-11.3944
▁vector	-11.3944
▁cleo	-11.3944
▁treason	-11.3944
▁waffle	-11.3944
▁bakewell	-11.3944
▁donwell	-11.3944
▁congregation	-11.3944
▁mockingly	-11.3944
▁slurping	-11.3944
▁visual	-11.3944
▁calculations	-11.3944
▁profile	-11.3944
▁tennis	-11.3944
▁victoria	-11.3944
renched	-11.3944
▁grabbed	-11.3944
▁thermians	-11.3944
▁civilization	-11.3944
▁jigs	-11.3944
▁enchantment	-11.3944
▁nugs	-11.3944
▁debt	-11.3944
▁insectosaurus	-11.3944
▁pills	-11.3944
▁chickenpox	-11.3944
▁conserv	-11.3944
▁kidnapped	-11.3944
▁onions	-11.3944
▁typewriter	-11.3944
▁youngstown	-11.3944
▁thudding	-11.3944
▁yarn	-11.3944
▁minions	-11.3944
▁representative	-11.3944
▁ignition	-11.3944
▁lallie	-11.3944
▁parole	-11.3944
▁satisfaction	-11.3944
▁greek	-11.3944
▁underworld	-11.3944
▁savage	-11.3944
▁striking	-11.3944
▁funky	-11.3944
▁phew	-11.3944
▁tornado	-11.3944
▁delhi	-11.3944
▁edition	-11.3944
▁marlon	-11.3944
▁defective	-11.3944
▁stew	-11.3944
epsi	-11.3944
▁forge	-11.3944
▁casualties	-11.3944
▁primate	-11.3944
▁june	-11.3944
▁olga	-11.3944
▁judy	-11.3944
▁weasley	-11.3944
▁booboo	-11.3944
▁barkley	-11.3944
▁cooperation	-11.3944
▁quellek	-11.3944
▁toot	-11.3944
▁groceries	-11.3944
▁shrubberies	-11.3944
▁ducts	-11.3944
▁salute	-11.3944
▁gallery	-11.3944
▁rehearsal	-11.3944
▁envy	-11.3945
▁expand	-11.3945
▁velocity	-11.3945
▁russkies	-11.3945
▁monitor	-11.3945
▁babs	-11.3945
▁selfdestruct	-11.3945
▁initiative	-11.3945
▁janice	-11.3945
▁destination	-11.3945
▁robotics	-11.3945
▁spoon	-11.3945
▁disrespectful	-11.3945
▁republican	-11.3945
▁bomposa	-11.3945
▁moses	-11.3945
▁contrary	-11.3945
▁duties	-11.3945
▁radical	-11.3945
▁giddyup	-11.3945
▁harlem	-11.3945
▁cloth	-11.3945
▁singlehanded	-11.3945
▁breast	-11.3945
▁compassion	-11.3945
▁tapped	-11.3945
▁babysitting	-11.3945
▁committed	-11.3945
▁marrow	-11.3945
▁goose	-11.3945
▁investors	-11.3945
▁lungs	-11.3945
▁properties	-11.3945
▁squid	-11.3945
▁mailbox	-11.3945
▁promotion	-11.3945
▁tangle	-11.3945
▁surgeon	-11.3945
▁eternity	-11.3945
▁descent	-11.3946
▁archaeologist	-11.3946
▁battlefield	-11.3946
▁chapel	-11.3946
▁isle	-11.3946
▁crocodile	-11.3946
▁monologue	-11.3946
▁spade	-11.3946
▁adios	-11.3946
▁rebellion	-11.3946
▁signature	-11.3946
▁loony	-11.3946
▁proving	-11.3946
▁establishment	-11.3946
▁survivor	-11.3946
▁tart	-11.3946
▁piggy	-11.3946
▁peasant	-11.3946
▁puke	-11.3946
▁aspirin	-11.3946
▁drool	-11.3946
▁chopped	-11.3946
▁yawn	-11.3946
▁leftovers	-11.3946
spective	-11.3946
▁flick	-11.3947
▁barbaric	-11.3947
▁outhouse	-11.3947
▁hughes	-11.3947
▁isolated	-11.3947
▁dripping	-11.3947
▁employment	-11.3947
▁senile	-11.3947
▁void	-11.3947
▁hunk	-11.3947
▁baggy	-11.3947
▁wrist	-11.3947
▁entertainment	-11.3947
▁necessarily	-11.3947
▁wrestling	-11.3947
▁sync	-11.3947
▁grudge	-11.3947
▁revolutionary	-11.3947
▁cloak	-11.3947
▁crop	-11.3947
▁status	-11.3947
whupp	-11.3948
▁warden	-11.3948
▁venus	-11.3948
▁horror	-11.3948
▁waterwheel	-11.3948
▁nadder	-11.3948
▁cheerful	-11.3948
▁pronounce	-11.3948
▁shopping	-11.3948
▁expir	-11.3948
▁rox	-11.3948
▁replacement	-11.3948
▁acquainted	-11.3948
▁flare	-11.3949
▁mast	-11.3949
▁volunteered	-11.3949
▁spur	-11.3949
▁babysitter	-11.3949
▁butthead	-11.3949
▁negotiate	-11.3949
▁cult	-11.395
▁terry	-11.395
▁debat	-11.395
▁caption	-11.395
▁mmmmm	-11.395
▁norman	-11.395
▁mccat	-11.395
▁gunner	-11.395
▁luci	-11.395
▁hotshot	-11.395
▁vien	-11.395
▁superheroes	-11.395
▁splashes	-11.395
▁paperwork	-11.3951
▁toothp	-11.3951
▁tur	-11.3951
▁baba	-11.3951
▁sidewalk	-11.3951
▁dough	-11.3951
▁insecto	-11.3951
▁geek	-11.3951
▁teamwork	-11.3952
▁quake	-11.3952
▁decreed	-11.3952
▁wallet	-11.3952
▁tomatoes	-11.3952
▁kim	-11.3952
▁omen	-11.3952
▁cities	-11.3952
▁blur	-11.3952
▁quiere	-11.3952
▁waterfall	-11.3953
▁julien	-11.3953
▁stepping	-11.3953
▁harmless	-11.3953
▁stern	-11.3953
▁reasonably	-11.3953
▁shelf	-11.3953
ative	-11.3954
▁droid	-11.3954
▁prodigious	-11.3954
▁logan	-11.3954
▁excellency	-11.3954
▁cellar	-11.3955
▁popularity	-11.3955
▁potion	-11.3955
▁colorful	-11.3955
▁pew	-11.3955
cast	-11.3955
▁apprais	-11.3955
▁kissoff	-11.3955
▁dine	-11.3956
▁deaf	-11.3956
▁equality	-11.3956
▁executioner	-11.3956
▁collective	-11.3956
▁hague	-11.3957
oh	-11.3957
▁scam	-11.3957
▁touchdown	-11.3958
▁instrumental	-11.3958
▁july	-11.3958
▁specialty	-11.3958
▁peachy	-11.3959
▁planters	-11.3959
▁gerry	-11.3959
▁expression	-11.3959
▁daddies	-11.3959
▁sour	-11.3959
▁stealth	-11.3959
▁vulnerable	-11.396
▁dip	-11.396
▁hager	-11.396
▁treatment	-11.396
▁priceless	-11.396
▁biggie	-11.3961
▁booth	-11.3961
▁swap	-11.3962
▁acceptable	-11.3962
▁moustache	-11.3962
▁goddess	-11.3962
▁caw	-11.3963
▁liza	-11.3963
▁sway	-11.3963
▁battery	-11.3963
▁tapping	-11.3963
▁legion	-11.3964
▁runner	-11.3964
▁flunk	-11.3964
▁triple	-11.3964
youre	-11.3964
▁sixty	-11.3964
▁blended	-11.3965
▁stirred	-11.3965
▁overwhelmed	-11.3965
▁vida	-11.3965
▁haul	-11.3966
▁dinnertime	-11.3966
▁waf	-11.3966
▁tinker	-11.3966
▁investigating	-11.3967
▁pint	-11.3968
▁drone	-11.3968
▁wig	-11.3969
▁hunger	-11.397
▁acknowledged	-11.397
▁sadness	-11.397
▁flop	-11.3971
▁bayonets	-11.3971
▁freshen	-11.3972
▁framed	-11.3972
▁contender	-11.3973
▁twofive	-11.3973
▁forgiveness	-11.3973
▁flipped	-11.3973
▁ego	-11.3973
▁phd	-11.3974
▁breeding	-11.3974
▁vest	-11.3974
▁digest	-11.3976
▁batter	-11.3976
▁aww	-11.3976
ending	-11.3976
▁persuaded	-11.3978
▁examined	-11.3978
▁marine	-11.3978
▁bane	-11.3978
▁burp	-11.3979
▁lipstick	-11.398
▁chap	-11.398
▁rum	-11.3981
▁losses	-11.3981
▁aftersh	-11.3981
▁bind	-11.3982
▁revolt	-11.3983
▁flipping	-11.3983
▁pickup	-11.3985
▁stalling	-11.3986
essie	-11.3989
▁fairies	-11.3989
▁harper	-11.3989
boy	-11.399
▁slaughtered	-11.3991
▁hometown	-11.3991
▁tame	-11.3992
▁nicky	-11.3992
▁scr	-11.3993
▁prune	-11.3993
▁amuse	-11.3994
rak	-11.3994
▁mona	-11.3995
▁straighten	-11.3995
▁cel	-11.3996
▁legally	-11.3996
▁traced	-11.3999
▁dumpy	-11.4
▁orly	-11.4001
▁fatal	-11.4001
tell	-11.4002
qualified	-11.4002
▁developed	-11.4003
▁kiddo	-11.4005
▁guaranteed	-11.4005
▁sewer	-11.4006
▁freeman	-11.4006
▁tide	-11.4007
rnie	-11.4007
▁righthanded	-11.4008
▁augustin	-11.4008
▁replaced	-11.4009
▁fatherland	-11.4009
▁scann	-11.4009
▁crunching	-11.401
▁racking	-11.401
▁sor	-11.401
▁hopeful	-11.4012
▁shermanus	-11.4015
▁bb	-11.4016
▁handout	-11.4016
▁gained	-11.4017
▁fasten	-11.4017
▁flaws	-11.4019
illac	-11.402
▁endless	-11.4024
▁shipp	-11.4027
▁villainy	-11.4027
▁grovel	-11.4027
▁metre	-11.4028
▁advised	-11.4029
▁vane	-11.4029
▁mio	-11.4029
▁rivera	-11.4029
▁wisely	-11.4031
▁wandered	-11.4034
▁frightening	-11.4034
▁churches	-11.4036
▁sanza	-11.4036
▁flirt	-11.4039
▁taller	-11.4041
▁cro	-11.4043
▁angela	-11.4044
▁chic	-11.4045
▁teaches	-11.4046
▁swelling	-11.4046
▁entertaining	-11.4047
▁canceled	-11.4051
▁delayed	-11.4051
▁concentrated	-11.4051
▁stinky	-11.4053
▁narc	-11.4058
▁spying	-11.4058
▁appealing	-11.4058
▁ringo	-11.4058
▁flush	-11.4065
▁nois	-11.4067
▁smashed	-11.4068
▁leftist	-11.4068
▁biscuits	-11.4068
▁commercials	-11.4068
▁terrorists	-11.4068
▁bid	-11.4068
thats	-11.4069
▁bein	-11.4069
▁brad	-11.407
▁careless	-11.4071
▁verses	-11.4076
▁cursed	-11.4079
▁pry	-11.408
iri	-11.4081
row	-11.4082
▁diem	-11.4083
▁ec	-11.4085
▁emm	-11.4086
▁nervously	-11.4089
drops	-11.409
▁suitor	-11.4095
▁unan	-11.4096
▁suspected	-11.4097
essa	-11.41
▁virtual	-11.41
▁dresser	-11.41
▁pul	-11.4101
▁shocked	-11.4112
▁sucking	-11.4112
nows	-11.4114
▁difficulty	-11.4114
▁lid	-11.4116
▁bricks	-11.4118
▁bulbs	-11.4118
▁flecks	-11.4118
▁souvenirs	-11.4118
▁intended	-11.412
▁cracked	-11.4122
▁daves	-11.4125
▁pickles	-11.4131
▁cheater	-11.4131
▁healing	-11.4131
▁interrupting	-11.4131
▁honesty	-11.4131
bag	-11.4136
▁closeup	-11.4137
▁farmers	-11.4142
▁flowing	-11.4144
▁rede	-11.4145
▁leaning	-11.4155
ordi	-11.4158
▁polls	-11.4168
▁stardestroyers	-11.4168
▁iv	-11.4171
wind	-11.4177
test	-11.4178
lie	-11.4186
▁bead	-11.419
▁banker	-11.4194
▁simpler	-11.4198
▁stain	-11.42
▁tasted	-11.4203
▁repeating	-11.4205
▁attending	-11.4205
▁goof	-11.4205
▁realm	-11.4214
▁screwing	-11.4218
▁clicks	-11.422
▁reminder	-11.4225
▁peer	-11.4229
▁heston	-11.4232
eek	-11.4234
▁weary	-11.4236
▁breakin	-11.4238
▁oneway	-11.4257
▁amazingly	-11.4257
▁lure	-11.4257
▁juju	-11.4262
fold	-11.4263
▁posted	-11.4263
▁lowering	-11.4266
▁layer	-11.4267
▁autographs	-11.4269
▁nevilles	-11.4269
▁flaps	-11.4272
ario	-11.4273
▁motors	-11.4273
▁manos	-11.428
buns	-11.4287
▁rational	-11.4292
▁guarded	-11.4293
▁recorded	-11.4295
▁indis	-11.43
▁tal	-11.4308
allah	-11.4317
▁wang	-11.4319
▁tunnels	-11.432
▁objections	-11.432
▁grownups	-11.4321
▁cocks	-11.4323
olog	-11.433
▁pun	-11.4345
▁starter	-11.4349
▁exp	-11.4351
▁hairy	-11.4355
▁bolts	-11.4364
▁stamps	-11.4372
uch	-11.4384
▁cooked	-11.4386
▁sadde	-11.4387
▁yorker	-11.4399
▁hive	-11.4402
▁timeout	-11.4404
▁parked	-11.4405
▁warmed	-11.4414
▁mole	-11.4421
▁dice	-11.4422
▁snacks	-11.4423
▁tytos	-11.4423
▁cigars	-11.4423
▁cannons	-11.4423
▁nuns	-11.4425
▁lag	-11.4425
▁bearing	-11.4428
▁ey	-11.4439
▁gifted	-11.4448
▁blo	-11.4456
▁accelerat	-11.4473
▁despi	-11.4473
▁paintings	-11.4475
▁roommates	-11.4475
▁occasions	-11.4476
etta	-11.4482
▁begg	-11.4482
▁budge	-11.449
fam	-11.4493
▁tested	-11.4506
elle	-11.4507
▁represents	-11.4527
▁by	-11.4531
sses	-11.4541
▁pins	-11.4545
▁mor	-11.4557
▁finer	-11.4566
▁embezzle	-11.4573
▁cr	-11.4573
▁desires	-11.458
▁belts	-11.458
▁officials	-11.4581
▁smiles	-11.4584
osis	-11.4589
▁wedd	-11.4594
▁educat	-11.4601
▁ea	-11.4604
▁sleepy	-11.4607
▁fare	-11.4614
▁warming	-11.4614
ante	-11.4632
▁adults	-11.4632
▁twins	-11.4632
lli	-11.4645
▁wires	-11.4665
ame	-11.4668
▁dinosaurs	-11.4685
ggle	-11.4687
▁carrots	-11.4689
▁reaching	-11.4691
ual	-11.4695
▁bake	-11.4723
▁oft	-11.4726
▁seals	-11.4734
▁hologra	-11.4739
▁don	-11.4766
▁rates	-11.4772
▁hel	-11.4775
▁pilots	-11.4792
att	-11.4793
▁cul	-11.4834
▁cows	-11.4836
▁sob	-11.4848
▁arrives	-11.4848
▁fearful	-11.4855
▁conf	-11.4884
▁poet	-11.4895
▁savings	-11.49
hot	-11.4915
sick	-11.4917
▁grit	-11.4929
▁spr	-11.4935
mund	-11.4941
▁ripe	-11.495
▁flanks	-11.4955
▁settles	-11.4957
▁investigate	-11.496
▁hom	-11.4964
▁butcher	-11.497
▁ju	-11.4974
▁ent	-11.4975
▁penetrate	-11.4975
oni	-11.499
ja	-11.5006
▁rays	-11.501
▁clan	-11.5021
win	-11.5038
gar	-11.504
▁stri	-11.5041
right	-11.5041
inence	-11.5062
alo	-11.508
eight	-11.5088
▁ji	-11.5114
tant	-11.5173
nuff	-11.5175
renz	-11.5175
▁germans	-11.5179
than	-11.519
▁bangs	-11.5232
▁signing	-11.5244
xa	-11.5249
▁invalid	-11.5254
▁gallo	-11.5255
▁sca	-11.5278
ttery	-11.5289
▁expos	-11.5294
evel	-11.5294
nf	-11.532
▁dos	-11.5324
▁aid	-11.5338
▁kindly	-11.5345
ata	-11.5368
▁rein	-11.5396
▁musicians	-11.5402
▁bor	-11.5407
▁lessons	-11.5409
▁nations	-11.547
▁truthful	-11.5477
▁levels	-11.5517
gged	-11.5528
▁purchase	-11.5529
▁rout	-11.5554
▁plung	-11.5556
▁showers	-11.5558
▁purposes	-11.5575
▁apartments	-11.5575
▁types	-11.5579
aid	-11.5606
▁gri	-11.5624
▁weekends	-11.5636
morrow	-11.5638
▁yiwe	-11.5646
▁rud	-11.5664
amorous	-11.5671
▁wir	-11.5684
▁jer	-11.5695
odoo	-11.5724
minent	-11.5725
mer	-11.5737
▁wee	-11.5743
climber	-11.5745
die	-11.5756
plication	-11.5768
spite	-11.5774
▁provid	-11.5778
mad	-11.5787
▁sip	-11.5793
▁leas	-11.581
▁clip	-11.5812
leme	-11.5817
shop	-11.582
ement	-11.5825
▁pose	-11.5829
▁ofyour	-11.5835
rial	-11.584
nces	-11.5843
eau	-11.5865
▁domin	-11.5867
▁dec	-11.5907
▁cu	-11.5914
hill	-11.5919
lim	-11.5953
goro	-11.5992
▁blad	-11.6014
ummy	-11.6018
▁addition	-11.6032
quat	-11.6036
borne	-11.6043
itor	-11.6048
uk	-11.6051
ookie	-11.6055
heard	-11.6057
ast	-11.6058
▁can	-11.6058
igned	-11.6067
mbus	-11.6082
lk	-11.6089
iel	-11.6101
ashing	-11.611
eater	-11.6116
puta	-11.6122
chester	-11.6147
making	-11.6161
itz	-11.6173
▁whwh	-11.6174
ishly	-11.6182
▁whoop	-11.6195
▁yiyou	-11.6198
rell	-11.62
▁raci	-11.6208
▁prep	-11.6217
▁explosive	-11.6218
▁provision	-11.6218
▁sleeve	-11.6218
▁diaper	-11.6219
▁jewel	-11.6221
▁souvenir	-11.6224
▁bulb	-11.6224
▁fleck	-11.6225
▁slam	-11.6228
▁content	-11.6228
▁generation	-11.623
drop	-11.623
▁acre	-11.623
▁underdog	-11.6232
▁pirate	-11.6233
▁brick	-11.6235
▁consequence	-11.6235
▁mammal	-11.6235
bia	-11.6237
▁statue	-11.6238
▁uglydoll	-11.6238
▁jaw	-11.6258
▁whit	-11.6267
▁deca	-11.6277
ith	-11.6289
▁ruff	-11.6296
eddy	-11.6305
ino	-11.6307
▁brew	-11.6308
▁trig	-11.6309
▁demonstrat	-11.631
▁eth	-11.631
▁tid	-11.6314
▁inde	-11.6331
▁peach	-11.6331
▁pickle	-11.6339
▁shari	-11.6345
handed	-11.6345
▁gener	-11.6352
▁observ	-11.6354
▁remov	-11.6361
▁advis	-11.6363
minded	-11.6365
▁feat	-11.6375
▁adventur	-11.6376
▁abu	-11.6379
▁farmer	-11.6383
▁experienc	-11.6384
▁clump	-11.6386
▁steer	-11.6386
▁notic	-11.6387
sky	-11.6387
▁astonish	-11.6389
▁taunt	-11.6389
▁bustin	-11.639
▁squawk	-11.6392
▁disgust	-11.6394
▁stall	-11.6397
worth	-11.6398
▁univers	-11.6401
▁disrupt	-11.6403
play	-11.6403
bottom	-11.6403
▁tempt	-11.6404
▁flood	-11.6405
▁influen	-11.6407
▁contend	-11.6407
ground	-11.6411
erci	-11.6412
▁stash	-11.6413
▁render	-11.6413
balt	-11.6413
life	-11.6416
augh	-11.6416
julio	-11.6416
fifty	-11.6417
fried	-11.6417
flyer	-11.6418
people	-11.6418
writing	-11.6418
bridge	-11.6418
haku	-11.6418
opening	-11.6418
held	-11.6418
weather	-11.6418
control	-11.6418
wanted	-11.6418
point	-11.6418
▁dispose	-11.6419
important	-11.6419
watch	-11.6419
pants	-11.6419
fax	-11.642
sharp	-11.642
root	-11.6421
▁frau	-11.6423
▁destin	-11.6423
flop	-11.6423
food	-11.6424
▁strateg	-11.6424
▁guilt	-11.6425
hov	-11.6426
roll	-11.6427
▁convey	-11.6427
▁infinite	-11.6428
▁immediate	-11.6429
▁wealth	-11.6429
▁villa	-11.643
letter	-11.643
▁metaph	-11.6431
tub	-11.6432
▁swor	-11.6432
homor	-11.6434
▁daniel	-11.6434
▁trans	-11.6434
▁sabe	-11.6435
brain	-11.6435
▁familia	-11.6435
▁prim	-11.6436
▁crisp	-11.6437
▁mosquito	-11.6437
high	-11.6437
▁rosi	-11.6437
▁profession	-11.6438
▁crumb	-11.6438
▁rog	-11.6439
▁drumm	-11.6439
▁inspect	-11.6439
▁merge	-11.644
rbour	-11.644
▁annihilat	-11.6441
▁mcca	-11.6441
uction	-11.6441
▁audit	-11.6441
▁runnin	-11.6441
▁fergus	-11.6442
▁rubb	-11.6442
▁imbecil	-11.6442
▁giddy	-11.6442
▁outrage	-11.6442
▁disrespect	-11.6442
▁dorm	-11.6443
destruct	-11.6443
▁kiddin	-11.6443
▁compass	-11.6443
actical	-11.6443
▁whaaa	-11.6443
▁drift	-11.6443
▁raven	-11.6444
▁thermi	-11.6444
▁trauma	-11.6444
▁mira	-11.6444
▁intim	-11.6444
▁facilitat	-11.6444
▁melanchol	-11.6444
▁smooch	-11.6444
▁bamboo	-11.6444
▁upload	-11.6444
issimo	-11.6444
tempered	-11.6444
▁ababa	-11.6444
▁abdullah	-11.6444
▁abnormal	-11.6444
▁acrobat	-11.6444
▁adequate	-11.6444
▁afresh	-11.6444
▁agamemnon	-11.6444
▁agitate	-11.6444
▁agricolis	-11.6444
▁aisle	-11.6444
▁ambitious	-11.6444
▁amnesty	-11.6444
▁anatomy	-11.6444
▁annual	-11.6444
▁anonymous	-11.6444
▁antidote	-11.6444
▁anxiety	-11.6444
▁archaeology	-11.6444
▁artifact	-11.6444
▁assembled	-11.6444
▁asylum	-11.6444
▁attorney	-11.6444
▁austin	-11.6444
▁autumn	-11.6444
▁auxiliary	-11.6444
▁bagpipes	-11.6444
▁beehive	-11.6444
▁behaving	-11.6444
▁blimey	-11.6444
▁bouquet	-11.6444
▁bucephalos	-11.6444
▁bulldozer	-11.6444
▁bundle	-11.6444
▁burbank	-11.6444
▁burroughs	-11.6444
▁calamo	-11.6444
▁candidate	-11.6444
▁celebrity	-11.6444
▁cemetery	-11.6444
▁ceremoni	-11.6444
▁chimichanga	-11.6444
▁chimney	-11.6444
▁chlorine	-11.6444
▁clobber	-11.6444
▁clutche	-11.6444
▁competitive	-11.6444
▁compound	-11.6444
▁compromise	-11.6444
▁comrade	-11.6444
▁condemn	-11.6444
▁connelly	-11.6444
▁connolly	-11.6444
▁corporal	-11.6444
▁corridor	-11.6444
▁cottage	-11.6444
▁crackalackin	-11.6444
▁cucumber	-11.6444
▁deliberately	-11.6444
▁dialect	-11.6444
▁dilemma	-11.6444
▁disastrous	-11.6444
▁discreetly	-11.6444
▁domain	-11.6444
▁download	-11.6444
▁drastic	-11.6444
▁dynamic	-11.6444
▁dynasty	-11.6444
▁envelope	-11.6444
▁equivalent	-11.6444
▁escaping	-11.6444
▁exemplary	-11.6444
▁extortion	-11.6444
▁eyebrow	-11.6444
▁farraj	-11.6444
▁fascist	-11.6444
▁feisal	-11.6444
▁felicity	-11.6444
▁fortress	-11.6444
▁fracture	-11.6444
▁fragile	-11.6444
▁fraulein	-11.6444
▁fudge	-11.6444
▁galaxies	-11.6444
▁garrison	-11.6444
▁giraffe	-11.6444
▁giuseppe	-11.6444
▁glaux	-11.6444
▁graffiti	-11.6444
▁graph	-11.6444
▁grenade	-11.6444
▁griswald	-11.6444
▁haycorn	-11.6444
▁heartbroken	-11.6444
▁heritage	-11.6444
▁honolulu	-11.6444
▁horrifying	-11.6444
▁humiliation	-11.6444
▁hydrant	-11.6444
▁immune	-11.6444
▁indianapolis	-11.6444
▁intensif	-11.6444
▁intrigue	-11.6444
▁irrelevant	-11.6444
▁irrevocable	-11.6444
▁isabella	-11.6444
▁japan	-11.6444
▁jeopard	-11.6444
▁jettison	-11.6444
▁jewellery	-11.6444
▁jinkies	-11.6444
▁judging	-11.6444
▁kaboom	-11.6444
▁knighfs	-11.6444
▁kuchikamizake	-11.6444
▁lecture	-11.6444
▁malvolia	-11.6444
▁maneuver	-11.6444
▁manuscript	-11.6444
▁mccadden	-11.6444
▁mcgonagall	-11.6444
▁mechanism	-11.6444
▁meddling	-11.6444
▁mercedes	-11.6444
▁militant	-11.6444
▁mineshaft	-11.6444
▁misunderstood	-11.6444
▁mitsubishi	-11.6444
▁moulage	-11.6444
▁mozart	-11.6444
▁multiverse	-11.6444
▁narissa	-11.6444
▁necklace	-11.6444
▁nectar	-11.6444
▁neighbourhood	-11.6444
▁norbert	-11.6444
▁obedience	-11.6444
▁obnoxious	-11.6444
▁occupy	-11.6444
▁orientation	-11.6444
▁orleans	-11.6444
▁outstanding	-11.6444
▁pajamas	-11.6444
▁participate	-11.6444
▁pattern	-11.6444
▁pentagon	-11.6444
▁perfume	-11.6444
▁perigee	-11.6444
▁perpetual	-11.6444
▁piccoletto	-11.6444
▁platinum	-11.6444
▁practis	-11.6444
▁probability	-11.6444
▁prostate	-11.6444
▁purple	-11.6444
▁pyramid	-11.6444
▁quadrant	-11.6444
▁qualities	-11.6444
▁ragazzi	-11.6444
▁recollect	-11.6444
▁reindeer	-11.6444
▁reinforcements	-11.6444
▁religious	-11.6444
▁resolve	-11.6444
▁reverence	-11.6444
▁romania	-11.6444
▁romanov	-11.6444
▁romans	-11.6444
▁rouannet	-11.6444
▁scarecrow	-11.6444
▁schuyler	-11.6444
▁scrunchie	-11.6444
▁semifinal	-11.6444
▁sensitive	-11.6444
▁serpent	-11.6444
▁sibling	-11.6444
▁sidney	-11.6444
▁sleigh	-11.6444
▁sleuth	-11.6444
▁slug	-11.6444
▁snoop	-11.6444
▁snotlout	-11.6444
▁spewlia	-11.6444
▁sponsor	-11.6444
▁spotlight	-11.6444
▁subscription	-11.6444
▁suffocating	-11.6444
▁sunlight	-11.6444
▁superpets	-11.6444
▁sussex	-11.6444
▁swahili	-11.6444
▁tasokare	-11.6444
▁taxicab	-11.6444
▁temporarily	-11.6444
▁terrain	-11.6444
▁thrilled	-11.6444
▁thuggee	-11.6444
▁tydirium	-11.6444
▁ungrateful	-11.6444
▁unload	-11.6444
▁unpleasant	-11.6444
▁unravel	-11.6444
▁veggie	-11.6444
▁vincent	-11.6444
▁vittori	-11.6444
▁vivid	-11.6444
▁wardrobe	-11.6444
▁welfare	-11.6444
▁wijnsto	-11.6444
▁willoughby	-11.6444
▁woodcock	-11.6444
▁yippee	-11.6444
▁yotsuha	-11.6444
▁zippleback	-11.6444
▁zombie	-11.6444
▁batdad	-11.6444
▁blokes	-11.6444
▁caravan	-11.6444
▁cezi	-11.6444
▁congee	-11.6444
▁dowry	-11.6444
▁jennings	-11.6444
▁jutt	-11.6444
▁keypad	-11.6444
▁machiavelli	-11.6444
▁martha	-11.6444
▁monroe	-11.6444
▁pennies	-11.6444
▁pervert	-11.6444
▁pfft	-11.6444
▁probation	-11.6444
▁pudding	-11.6444
▁reptile	-11.6444
▁rustlers	-11.6444
▁seatbelt	-11.6444
▁skelet	-11.6444
▁storage	-11.6444
▁twinkle	-11.6444
▁zapping	-11.6444
▁aloud	-11.6444
▁beattie	-11.6444
▁bedevere	-11.6444
▁charmont	-11.6444
▁chord	-11.6444
▁defence	-11.6444
▁disarm	-11.6444
▁doreen	-11.6444
▁harith	-11.6444
▁invade	-11.6444
▁jennie	-11.6444
▁kittens	-11.6444
▁landlord	-11.6444
▁lifeform	-11.6444
▁luxur	-11.6444
▁moondance	-11.6444
▁strut	-11.6444
▁sybil	-11.6444
▁terminal	-11.6444
▁tolerate	-11.6444
▁tuna	-11.6444
▁whiz	-11.6444
▁iki	-11.6444
▁toodle	-11.6444
▁confedera	-11.6444
▁fiber	-11.6444
▁fuehrer	-11.6444
▁intimidat	-11.6444
▁klan	-11.6444
▁linkav	-11.6444
▁prank	-11.6444
▁rascal	-11.6444
▁sassy	-11.6444
▁seduce	-11.6444
▁sixteen	-11.6444
▁unjustly	-11.6444
▁accumulat	-11.6444
▁dairy	-11.6444
▁illustr	-11.6444
▁quaffle	-11.6444
▁sheila	-11.6444
▁desperation	-11.6444
▁goverment	-11.6444
▁macho	-11.6444
▁petitioner	-11.6444
▁ramsey	-11.6444
▁townsend	-11.6444
▁acquisition	-11.6444
▁goodwill	-11.6444
▁isham	-11.6444
▁mattress	-11.6444
▁impose	-11.6444
▁irre	-11.6444
▁casper	-11.6444
▁facing	-11.6444
▁revoir	-11.6444
▁whatsoever	-11.6444
daunted	-11.6444
▁brawl	-11.6444
▁pigeon	-11.6444
▁blanche	-11.6444
▁fishlegs	-11.6444
▁slammer	-11.6444
▁traumatiz	-11.6444
▁eagle	-11.6444
▁tarla	-11.6444
▁foyer	-11.6444
▁exclusive	-11.6444
▁retraction	-11.6444
▁solberg	-11.6444
▁irregular	-11.6444
▁freedonia	-11.6444
▁vez	-11.6444
▁accreditation	-11.6444
▁fergal	-11.6444
▁melrose	-11.6444
▁recognise	-11.6444
▁bestowed	-11.6444
▁dublin	-11.6444
▁illusion	-11.6444
▁jude	-11.6444
arctic	-11.6444
▁lettie	-11.6444
▁tombstone	-11.6444
▁unemployment	-11.6444
▁cabbage	-11.6444
▁scripture	-11.6444
▁bureau	-11.6444
▁genova	-11.6444
▁blouse	-11.6444
▁martial	-11.6444
▁chores	-11.6444
▁international	-11.6444
▁streak	-11.6444
▁hijack	-11.6444
▁mandated	-11.6444
▁forecast	-11.6444
▁helga	-11.6444
▁wheat	-11.6444
▁fliers	-11.6444
▁merchant	-11.6444
▁railway	-11.6444
▁appreciation	-11.6444
▁contribution	-11.6444
▁reset	-11.6444
▁yikes	-11.6444
▁hamps	-11.6444
▁inviting	-11.6444
▁bandits	-11.6444
▁petersons	-11.6444
▁poachers	-11.6444
▁revelation	-11.6444
▁grimble	-11.6444
▁scotch	-11.6444
▁gracious	-11.6444
▁cartoon	-11.6444
▁donut	-11.6444
▁tropical	-11.6444
▁atlantic	-11.6444
▁nurhachi	-11.6444
▁outlaw	-11.6444
hall	-11.6444
▁futility	-11.6444
▁townspeople	-11.6444
▁witchcraft	-11.6444
oohoohooh	-11.6444
▁poochie	-11.6444
▁revving	-11.6444
▁vouch	-11.6444
▁exwife	-11.6444
▁bleating	-11.6444
▁shoemaker	-11.6444
▁prision	-11.6444
▁limp	-11.6444
▁physician	-11.6444
▁pickets	-11.6444
▁prowl	-11.6445
▁boogie	-11.6445
▁arden	-11.6445
▁referee	-11.6445
▁dipper	-11.6445
▁breweries	-11.6445
karetasokawatare	-11.6445
▁douche	-11.6445
▁startled	-11.6445
▁vernon	-11.6445
▁enroll	-11.6445
bilize	-11.6445
▁tissue	-11.6445
▁apology	-11.6445
▁cheque	-11.6445
▁amba	-11.6445
▁significant	-11.6445
▁transparent	-11.6445
▁upright	-11.6445
▁fluoridation	-11.6445
▁kenwood	-11.6445
▁gps	-11.6445
▁tracy	-11.6445
▁transition	-11.6445
▁inhale	-11.6445
▁cunt	-11.6445
abide	-11.6445
▁andand	-11.6445
▁confidential	-11.6445
▁erased	-11.6445
▁symp	-11.6445
▁shred	-11.6445
▁sherry	-11.6445
▁tourism	-11.6445
▁mija	-11.6445
▁midget	-11.6445
▁detonat	-11.6445
▁insurers	-11.6445
▁magnet	-11.6445
▁abys	-11.6445
▁guiltless	-11.6445
▁quail	-11.6445
▁serial	-11.6445
▁absent	-11.6445
ometric	-11.6445
▁dandy	-11.6445
▁reef	-11.6446
▁plow	-11.6446
▁eastern	-11.6446
ologist	-11.6446
▁slipping	-11.6446
▁rapping	-11.6446
pathy	-11.6446
▁amp	-11.6446
▁cuz	-11.6446
▁unfinished	-11.6446
▁crem	-11.6446
▁grape	-11.6446
▁sidekick	-11.6446
▁abortion	-11.6446
▁denver	-11.6446
▁refrigerator	-11.6446
▁optic	-11.6446
▁summon	-11.6446
▁mimic	-11.6446
sander	-11.6446
▁gingy	-11.6446
▁coeur	-11.6446
▁grady	-11.6446
▁rainwater	-11.6446
▁spiritual	-11.6446
▁labour	-11.6446
▁giantville	-11.6446
▁cozy	-11.6446
▁pike	-11.6446
▁tarath	-11.6446
▁plotted	-11.6446
▁khan	-11.6446
▁combat	-11.6446
▁flour	-11.6446
▁limo	-11.6446
▁twig	-11.6447
▁fiind	-11.6447
▁waitress	-11.6447
▁stabb	-11.6447
▁mormo	-11.6447
▁apron	-11.6447
ternity	-11.6447
▁cement	-11.6447
▁gloomy	-11.6447
▁swine	-11.6447
mpse	-11.6447
▁branches	-11.6447
▁translat	-11.6447
▁auda	-11.6447
▁unconscious	-11.6447
▁clone	-11.6447
▁inheritance	-11.6447
▁farroni	-11.6447
▁civilian	-11.6447
▁storeroom	-11.6447
▁morphia	-11.6447
▁batgirl	-11.6447
▁casa	-11.6447
▁stitches	-11.6447
▁alcoholic	-11.6448
▁reunited	-11.6448
▁captive	-11.6448
▁preferred	-11.6448
▁guesthouse	-11.6448
▁bonne	-11.6448
▁attendance	-11.6448
▁manero	-11.6448
▁hatred	-11.6448
▁reflection	-11.6448
▁cupboard	-11.6448
▁mafia	-11.6448
▁maintenance	-11.6448
▁therapy	-11.6448
▁sauce	-11.6448
▁pillar	-11.6448
▁bueno	-11.6448
▁salon	-11.6448
▁organic	-11.6449
▁candie	-11.6449
▁torches	-11.6449
▁outof	-11.6449
▁hutch	-11.6449
▁michel	-11.6449
▁spectacle	-11.6449
▁cork	-11.6449
▁riff	-11.6449
▁passport	-11.6449
▁debut	-11.6449
▁mummifi	-11.6449
unque	-11.6449
▁twit	-11.6449
▁robbi	-11.6449
▁jamie	-11.6449
▁scooter	-11.6449
▁elite	-11.6449
▁gusto	-11.6449
▁worldwide	-11.6449
▁dormant	-11.6449
▁obligation	-11.6449
▁copper	-11.645
▁glug	-11.645
▁sillie	-11.645
▁border	-11.645
▁enli	-11.645
vard	-11.645
▁greenhouse	-11.645
▁fashionable	-11.6451
▁fork	-11.6451
▁mosquitoes	-11.6451
imble	-11.6451
▁volt	-11.6451
▁navigator	-11.6451
▁napis	-11.6451
▁prote	-11.6451
▁undies	-11.6451
▁tow	-11.6451
▁cycle	-11.6451
voca	-11.6451
▁attractive	-11.6452
▁massage	-11.6452
▁hump	-11.6452
haven	-11.6452
▁iike	-11.6452
▁traders	-11.6452
▁morrison	-11.6452
▁enchanting	-11.6453
▁certainty	-11.6453
▁publisher	-11.6453
▁grrr	-11.6453
▁santo	-11.6453
▁cappy	-11.6453
▁brass	-11.6453
▁admitted	-11.6453
▁penguin	-11.6453
▁hobo	-11.6454
magno	-11.6454
▁settlement	-11.6454
oula	-11.6454
▁billboard	-11.6454
▁soph	-11.6454
▁plead	-11.6454
▁oz	-11.6454
▁attica	-11.6455
▁hija	-11.6455
ulation	-11.6455
▁loot	-11.6455
▁unlock	-11.6455
▁rite	-11.6455
▁eww	-11.6455
▁filing	-11.6455
▁breach	-11.6455
▁province	-11.6456
▁shuffle	-11.6456
▁bung	-11.6456
▁jug	-11.6456
▁directive	-11.6456
▁huma	-11.6456
▁baboon	-11.6456
▁metaphor	-11.6456
▁blameless	-11.6456
▁supes	-11.6456
▁aggressive	-11.6456
▁equipped	-11.6456
▁fiine	-11.6456
▁mutters	-11.6457
▁postage	-11.6457
▁studies	-11.6457
▁sympathy	-11.6458
▁soar	-11.6458
cise	-11.6458
▁mooney	-11.6459
▁gutter	-11.6459
olent	-11.6459
▁facebook	-11.6459
▁adjust	-11.6459
▁maddy	-11.6459
▁composer	-11.6459
▁certificate	-11.646
▁fiend	-11.646
▁plainti	-11.646
▁gap	-11.646
▁duplicate	-11.646
llivan	-11.646
▁rosie	-11.646
▁rancho	-11.646
stock	-11.6461
▁reinforced	-11.6461
▁concealed	-11.6461
▁cramped	-11.6461
▁prejudiced	-11.6461
▁retired	-11.6461
▁flutter	-11.6461
zul	-11.6461
▁vous	-11.6461
▁splitting	-11.6461
▁enco	-11.6462
▁fulfill	-11.6462
▁strategy	-11.6463
▁wealthy	-11.6463
▁copies	-11.6463
▁slacker	-11.6463
▁princeton	-11.6464
▁lawton	-11.6465
▁handicapp	-11.6465
▁harshly	-11.6465
▁ache	-11.6465
start	-11.6465
▁coverage	-11.6466
▁preach	-11.6466
▁possesses	-11.6466
anyon	-11.6466
▁suitable	-11.6466
▁dire	-11.6467
▁nish	-11.6467
▁knockout	-11.6468
uish	-11.6468
▁scorching	-11.6468
▁raging	-11.6468
▁branching	-11.6468
▁homeboy	-11.6468
▁highland	-11.6468
▁everyday	-11.6469
▁avenged	-11.6469
▁wither	-11.6469
▁grr	-11.6469
▁teen	-11.6469
▁bach	-11.6469
▁eyesight	-11.647
▁scatter	-11.647
▁dose	-11.6471
guer	-11.6472
▁acquired	-11.6472
▁promoted	-11.6472
▁suspended	-11.6472
▁annoyed	-11.6472
ulf	-11.6473
▁spooky	-11.6474
▁armus	-11.6474
▁looper	-11.6474
▁markings	-11.6475
▁deevolved	-11.6475
▁pursued	-11.6475
▁rummy	-11.6475
izer	-11.6475
▁berli	-11.6475
▁morales	-11.6476
▁published	-11.6477
▁correction	-11.6477
▁prof	-11.6477
▁fulltime	-11.6477
▁personality	-11.6478
▁undo	-11.6478
▁signora	-11.6478
▁fax	-11.6478
▁labar	-11.6479
▁analysis	-11.6479
▁plump	-11.6479
▁stoke	-11.648
▁coyotes	-11.648
▁vitamins	-11.648
▁brow	-11.648
aurus	-11.648
▁deriv	-11.648
▁frisk	-11.6482
bil	-11.6482
▁functional	-11.6482
▁deadline	-11.6482
▁shoveled	-11.6483
▁flooded	-11.6483
▁tempted	-11.6483
▁sandwiches	-11.6484
own	-11.6484
▁hup	-11.6486
antic	-11.6486
▁cocky	-11.6487
▁lethal	-11.6487
▁improved	-11.6488
▁tel	-11.6489
▁reli	-11.649
▁formation	-11.6491
▁lieu	-11.6492
▁exec	-11.6492
▁flushed	-11.6494
link	-11.6494
▁selected	-11.6495
ision	-11.6495
▁sling	-11.6497
▁astonishing	-11.6499
▁taunting	-11.6499
▁dana	-11.65
▁brewing	-11.65
▁outdo	-11.6502
▁tender	-11.6502
▁sickness	-11.6502
▁coal	-11.6505
▁squashed	-11.6506
▁banished	-11.6506
▁yyou	-11.6507
▁abr	-11.6509
▁ignored	-11.6509
▁bottler	-11.6512
▁cheaper	-11.6514
▁wink	-11.6514
ational	-11.6514
ication	-11.6515
▁shuddering	-11.6515
▁spanking	-11.6515
list	-11.6515
not	-11.6516
▁desperately	-11.6517
▁drafted	-11.6517
▁flattery	-11.6518
▁cynic	-11.6519
▁freakin	-11.652
▁ahem	-11.652
▁permanently	-11.6521
dang	-11.6522
▁lud	-11.6522
▁anth	-11.6529
▁eel	-11.6531
▁philly	-11.6531
▁muchach	-11.6531
▁jen	-11.6533
▁exc	-11.6535
theres	-11.6536
▁cf	-11.6536
▁logo	-11.6537
▁pic	-11.6538
ayah	-11.6539
▁sung	-11.6539
▁invested	-11.654
pie	-11.6542
escent	-11.6542
▁relics	-11.6543
▁footprints	-11.6543
▁implies	-11.6543
▁gymnastics	-11.6543
▁boogers	-11.6543
▁complications	-11.6543
▁bumpy	-11.6546
▁some	-11.6547
▁showtime	-11.6548
▁equally	-11.655
▁ese	-11.6551
▁trigg	-11.6554
mus	-11.6556
▁burnt	-11.6556
▁ohoh	-11.6557
▁compress	-11.656
▁damp	-11.6562
▁shushing	-11.6563
▁shovel	-11.657
▁argued	-11.6571
▁stepsister	-11.6572
▁jerky	-11.6574
▁lug	-11.6576
▁photographer	-11.6576
▁raine	-11.6576
▁rile	-11.6576
▁gaining	-11.6579
▁herring	-11.658
▁lsd	-11.658
▁cryin	-11.6581
▁sporting	-11.6581
▁nur	-11.6587
▁yelled	-11.6588
▁boarder	-11.659
▁dash	-11.6593
▁farting	-11.6594
ntraven	-11.6595
▁folding	-11.6595
luxe	-11.6596
▁dumped	-11.6597
estini	-11.6597
▁declared	-11.6599
▁peel	-11.6605
▁disturbed	-11.6608
▁blackouts	-11.6608
▁texting	-11.6611
▁initials	-11.6611
aching	-11.6612
▁strapp	-11.6615
▁scaring	-11.6616
▁amend	-11.6618
wright	-11.6618
▁borrowed	-11.6619
▁squared	-11.662
eryl	-11.6621
▁sooo	-11.6623
▁pest	-11.6623
▁garn	-11.6628
▁abuse	-11.6633
▁rightfully	-11.6633
▁menu	-11.6635
illed	-11.6638
▁privately	-11.664
▁connecting	-11.6644
▁mega	-11.6644
▁mainly	-11.6646
uke	-11.6649
▁meantime	-11.6653
▁provider	-11.6655
▁crashed	-11.6655
▁takeoff	-11.6655
▁blamed	-11.6656
▁comforting	-11.6659
▁researching	-11.6659
▁finale	-11.6664
skell	-11.6664
▁prey	-11.6667
▁jaws	-11.6674
▁diapers	-11.6674
▁explosives	-11.6674
▁provisions	-11.6674
▁sleeves	-11.6674
▁acres	-11.6674
▁jewels	-11.6674
▁timing	-11.6675
▁producer	-11.6683
▁lifted	-11.6688
▁witnessed	-11.669
▁crushing	-11.6693
▁loosen	-11.6693
aire	-11.6696
▁demanding	-11.6696
▁tricky	-11.6703
▁subm	-11.6705
▁hare	-11.6711
▁deserted	-11.6712
lip	-11.6712
▁pounding	-11.6713
▁horny	-11.6714
▁seeds	-11.6722
▁gardening	-11.6724
▁aqua	-11.6726
▁nooo	-11.6734
llis	-11.6735
gle	-11.6737
▁rejects	-11.674
▁airlines	-11.6741
▁preparations	-11.6741
▁hal	-11.6741
▁bash	-11.6744
▁beeps	-11.6744
fields	-11.6747
▁shocking	-11.6758
▁centur	-11.676
ature	-11.6763
▁fled	-11.6767
ibble	-11.677
▁focused	-11.6781
▁knots	-11.6782
chop	-11.6783
▁conver	-11.6786
▁chaf	-11.6786
▁discovering	-11.6791
▁clause	-11.6798
▁ny	-11.6801
▁cub	-11.6801
▁accounted	-11.6802
▁helpless	-11.6802
vy	-11.6803
lent	-11.6803
▁hips	-11.6808
▁kingpins	-11.6808
▁muscles	-11.6808
▁organs	-11.681
▁lesser	-11.6812
▁shades	-11.6812
▁slower	-11.6812
▁goddamned	-11.6828
▁ahhhh	-11.6836
▁rely	-11.6837
▁snaps	-11.6838
▁proudly	-11.684
▁frogs	-11.6845
▁usted	-11.6849
but	-11.6853
estro	-11.6855
▁was	-11.6855
pierre	-11.6861
▁smiled	-11.6863
▁discussing	-11.6874
▁punishments	-11.6876
▁rhymes	-11.6876
▁xrays	-11.6876
▁pushy	-11.6896
▁una	-11.6899
vast	-11.69
▁starters	-11.6904
ria	-11.6911
▁rolled	-11.6913
whipped	-11.6916
▁changer	-11.6917
uda	-11.6919
▁appreciated	-11.6919
▁ponds	-11.694
▁ranks	-11.6942
▁improvements	-11.6944
▁payments	-11.6944
▁headaches	-11.6944
nounce	-11.6945
▁nails	-11.6946
▁complaints	-11.6946
▁oy	-11.6948
▁dishwa	-11.695
▁accounting	-11.6951
aine	-11.696
rummy	-11.6969
▁joints	-11.6982
▁eatin	-11.6988
tial	-11.6995
▁spics	-11.6997
▁tinkl	-11.7003
cial	-11.7012
▁stinker	-11.7012
▁individuals	-11.7013
▁schemes	-11.7013
▁critters	-11.7013
▁holidays	-11.7013
▁warriors	-11.7013
▁authors	-11.7013
nny	-11.7019
▁handled	-11.7022
▁dots	-11.7032
▁tab	-11.7053
zi	-11.7058
▁logs	-11.707
potent	-11.7076
▁magazines	-11.7082
▁mermaids	-11.7082
▁struggles	-11.7082
▁seeking	-11.7095
▁picky	-11.7113
▁bringin	-11.7129
▁rushing	-11.7142
▁efforts	-11.7152
▁trolls	-11.7152
▁yankees	-11.7152
▁movements	-11.7152
▁sparkl	-11.7158
plicate	-11.7161
▁scars	-11.7163
▁cones	-11.7168
▁fau	-11.7169
▁addi	-11.7169
tif	-11.7199
▁feli	-11.7204
▁visited	-11.722
▁woozles	-11.7222
▁plank	-11.7228
▁deer	-11.7228
▁holdin	-11.7271
▁routes	-11.7277
▁praying	-11.7281
▁wadi	-11.7289
▁edges	-11.7293
▁grades	-11.7293
▁appearances	-11.7293
▁nieces	-11.7293
▁vikings	-11.7293
▁scurr	-11.7295
▁flipp	-11.7302
▁liner	-11.7308
▁dim	-11.7314
▁priorit	-11.733
▁cuddle	-11.7333
iate	-11.7338
ami	-11.7339
ocks	-11.7353
position	-11.7354
▁dazzle	-11.7369
▁resemble	-11.7375
aham	-11.7375
▁flo	-11.7378
▁dea	-11.7386
▁cri	-11.7394
▁rider	-11.7404
▁sticker	-11.7412
mented	-11.7413
▁dent	-11.7413
▁stared	-11.7419
▁trib	-11.742
▁plunge	-11.7423
iterate	-11.7435
▁expose	-11.7461
▁amu	-11.7468
▁eng	-11.7483
ope	-11.7487
▁journalis	-11.7488
tensi	-11.7521
aste	-11.753
wend	-11.7536
▁pac	-11.7539
terian	-11.758
til	-11.7595
dadada	-11.7624
▁nic	-11.7626
▁glamo	-11.7632
nel	-11.7694
pending	-11.7723
bell	-11.7732
rnal	-11.7742
▁arti	-11.7782
mation	-11.7826
anda	-11.7909
pun	-11.7928
most	-11.7967
zers	-11.8002
anning	-11.8046
rmal	-11.8073
ient	-11.8079
nching	-11.8113
▁mini	-11.8149
▁amm	-11.8168
illes	-11.8178
▁shu	-11.8194
ouncy	-11.8204
tis	-11.8205
▁psycho	-11.8205
▁faker	-11.821
▁carrie	-11.8244
ooo	-11.8266
olo	-11.8277
ofthem	-11.8285
▁liter	-11.8306
▁sancti	-11.833
archers	-11.8332
claim	-11.8348
▁eu	-11.8361
▁oppos	-11.8404
▁mint	-11.8406
fort	-11.841
▁shov	-11.842
hit	-11.8448
nky	-11.8473
▁odo	-11.849
▁pace	-11.8496
oul	-11.8512
▁assum	-11.8542
reatgreatgrandpa	-11.8569
ganas	-11.8586
mmer	-11.8592
oui	-11.8593
berg	-11.8607
▁toto	-11.8629
▁lease	-11.8645
▁celebrat	-11.8674
aahh	-11.8676
lage	-11.8692
lore	-11.8696
tonic	-11.87
roid	-11.8706
ava	-11.8711
▁peni	-11.8731
otts	-11.8751
goes	-11.8756
cent	-11.8771
indicated	-11.8777
ograph	-11.8779
▁stun	-11.8809
▁cav	-11.883
fren	-11.884
▁doubl	-11.8886
▁raisin	-11.89
▁accelerate	-11.8903
nches	-11.8925
▁umm	-11.8994
▁grub	-11.8998
ease	-11.9
bet	-11.9031
▁tink	-11.9033
▁cowl	-11.9044
doc	-11.9068
▁springs	-11.9082
meters	-11.9082
mentary	-11.9087
cut	-11.9093
▁ani	-11.9106
ounce	-11.9119
gone	-11.9136
ition	-11.9163
▁fue	-11.9187
▁corr	-11.919
mir	-11.9201
ancy	-11.9211
▁inca	-11.9213
▁fri	-11.9221
ndish	-11.9235
tained	-11.9242
under	-11.9244
▁scramble	-11.9249
▁guid	-11.9267
▁shin	-11.9314
hey	-11.9324
havin	-11.934
▁juan	-11.9351
▁initial	-11.9393
▁fianc	-11.9394
▁pier	-11.9408
fulness	-11.9424
vel	-11.9428
nut	-11.9437
itches	-11.9444
ando	-11.9471
owner	-11.9472
▁battl	-11.9474
▁dieu	-11.9474
arrow	-11.9485
▁div	-11.9495
bann	-11.9496
▁indulge	-11.9499
▁gran	-11.9506
anza	-11.952
edded	-11.9538
▁crock	-11.9544
remi	-11.955
▁biscuit	-11.9558
▁commercial	-11.9558
law	-11.9561
▁ingredient	-11.9562
▁passenger	-11.9562
▁glove	-11.9562
▁danburry	-11.9565
▁terrorist	-11.9565
that	-11.9565
▁dolphin	-11.9567
▁discourage	-11.9567
▁contra	-11.9571
▁arrangement	-11.9574
▁circumstance	-11.9575
▁stinkin	-11.9579
▁mantel	-11.9584
ficial	-11.9587
▁cod	-11.9592
▁verse	-11.96
waiting	-11.9601
▁flir	-11.9612
▁commandment	-11.9616
▁whir	-11.9617
▁blackout	-11.9622
▁noi	-11.9625
▁ut	-11.9631
▁valid	-11.9634
▁refer	-11.9636
▁phon	-11.9644
▁yithe	-11.9664
▁compli	-11.9668
▁tou	-11.9671
▁pope	-11.9678
▁fag	-11.9682
▁communicat	-11.9683
▁peg	-11.9684
▁greatgreat	-11.9684
▁yum	-11.9686
▁annoy	-11.9686
▁leo	-11.969
▁tang	-11.9693
▁rod	-11.9701
face	-11.9703
▁mun	-11.9704
ntact	-11.9704
lander	-11.9705
▁quot	-11.9714
▁dread	-11.9714
rig	-11.9719
▁unti	-11.9722
▁determin	-11.9724
▁recycl	-11.9725
▁publish	-11.9725
▁applaud	-11.9727
friend	-11.9727
▁offens	-11.9732
▁blam	-11.9732
▁wail	-11.9734
▁plum	-11.9734
▁punish	-11.9736
▁rattle	-11.9737
▁how	-11.9738
▁injur	-11.9738
▁acquir	-11.9738
ghten	-11.9739
▁overwhelm	-11.9739
▁suspend	-11.9739
ought	-11.974
▁promot	-11.9741
▁engineer	-11.9741
▁attach	-11.9742
wheel	-11.9744
▁upsta	-11.9745
privileged	-11.9747
fitting	-11.9747
two	-11.9748
▁styl	-11.9748
warming	-11.9749
cooked	-11.9749
wn	-11.9749
vulnerable	-11.9749
build	-11.9749
▁turb	-11.975
▁duc	-11.975
fiction	-11.975
precedent	-11.975
location	-11.975
flavor	-11.975
product	-11.975
stroke	-11.9751
world	-11.9751
columbia	-11.9751
natural	-11.9751
given	-11.9751
jedi	-11.9751
▁retire	-11.9751
floor	-11.9751
major	-11.9751
winning	-11.9752
blood	-11.9752
please	-11.9752
left	-11.9752
bird	-11.9752
minute	-11.9752
wife	-11.9753
authorized	-11.9753
pops	-11.9753
▁prejudice	-11.9753
▁after	-11.9754
beard	-11.9754
claw	-11.9754
wear	-11.9754
▁humiliate	-11.9754
▁relieve	-11.9754
▁pec	-11.9755
▁compose	-11.9756
type	-11.9756
took	-11.9757
▁conclude	-11.9757
baby	-11.9757
▁sympath	-11.9758
▁excellenc	-11.9759
long	-11.9759
▁blend	-11.9759
mission	-11.9759
▁filth	-11.976
▁gerr	-11.976
boat	-11.976
▁energ	-11.976
▁debri	-11.976
▁provinc	-11.9761
▁shuffl	-11.9761
butt	-11.9762
dont	-11.9762
▁deactivate	-11.9762
trap	-11.9763
maid	-11.9763
▁aft	-11.9763
▁cooper	-11.9764
with	-11.9764
▁acknowledge	-11.9764
▁morris	-11.9765
▁scatt	-11.9765
▁intrude	-11.9766
▁antiqu	-11.9766
etched	-11.9767
▁kidnap	-11.9767
▁compute	-11.9768
▁instruct	-11.9769
▁youknowwh	-11.9769
▁ignoran	-11.9769
▁leonard	-11.977
wig	-11.977
▁torch	-11.977
▁italia	-11.9771
▁bunk	-11.9771
ellers	-11.9771
▁albert	-11.9771
lude	-11.9771
▁trait	-11.9772
▁nigh	-11.9772
string	-11.9773
▁harris	-11.9773
q	-11.9773
▁cleve	-11.9773
rific	-11.9773
▁circulat	-11.9774
▁exhibit	-11.9774
▁archaeologi	-11.9774
▁cruisin	-11.9774
▁figurin	-11.9774
▁patriot	-11.9774
▁abort	-11.9774
▁intent	-11.9774
▁livin	-11.9774
▁gyps	-11.9775
▁extract	-11.9775
escribed	-11.9775
▁harass	-11.9775
▁infr	-11.9775
▁transmit	-11.9775
▁puttin	-11.9775
▁appeti	-11.9776
▁initiat	-11.9776
▁indigna	-11.9776
▁integr	-11.9776
▁republic	-11.9776
▁sarcastic	-11.9776
after	-11.9776
▁posse	-11.9776
▁simul	-11.9776
rdles	-11.9777
ization	-11.9777
lacc	-11.9777
▁consist	-11.9777
▁slur	-11.9777
versary	-11.9777
▁cunning	-11.9777
▁intellect	-11.9777
▁koushik	-11.9777
▁marxist	-11.9777
▁overreacti	-11.9777
▁gleam	-11.9777
▁reload	-11.9777
aaayy	-11.9777
bweb	-11.9777
demolition	-11.9777
dextrose	-11.9777
eavesdropper	-11.9777
responsibilities	-11.9777
tiktik	-11.9777
trimmed	-11.9777
voluntarily	-11.9777
▁abroad	-11.9777
▁abstract	-11.9777
▁accomplice	-11.9777
▁accurate	-11.9777
▁advertising	-11.9777
▁aggravate	-11.9777
▁alchem	-11.9777
▁allegiance	-11.9777
▁allergy	-11.9777
▁alligator	-11.9777
▁amnesia	-11.9777
▁amputate	-11.9777
▁amsterdam	-11.9777
▁anthrax	-11.9777
▁anticipat	-11.9777
▁antihero	-11.9777
▁anyplace	-11.9777
▁astray	-11.9777
▁athletic	-11.9777
▁audible	-11.9777
▁bachelor	-11.9777
▁bartender	-11.9777
▁bbomb	-11.9777
▁beethoven	-11.9777
▁behaviour	-11.9777
▁bennett	-11.9777
▁bernard	-11.9777
▁bludger	-11.9777
▁blumburtt	-11.9777
▁bourgeois	-11.9777
▁britain	-11.9777
▁brunches	-11.9777
▁brunette	-11.9777
▁buckaroo	-11.9777
▁bukuvu	-11.9777
▁burghard	-11.9777
▁buzzes	-11.9777
▁cackling	-11.9777
▁cadillac	-11.9777
▁cafeteria	-11.9777
▁calendar	-11.9777
▁cannoli	-11.9777
▁cantaloupe	-11.9777
▁cassidy	-11.9777
▁catalogue	-11.9777
▁cavalier	-11.9777
▁census	-11.9777
▁charisma	-11.9777
▁childbirth	-11.9777
▁chivalry	-11.9777
▁chloe	-11.9777
▁clergyman	-11.9777
▁colleague	-11.9777
▁commune	-11.9777
▁competitor	-11.9777
▁concoction	-11.9777
▁condiment	-11.9777
▁condominiums	-11.9777
▁connecticut	-11.9777
▁continual	-11.9777
▁conundrum	-11.9777
▁convoy	-11.9777
▁copilot	-11.9777
▁croix	-11.9777
▁crucifix	-11.9777
▁crud	-11.9777
▁curiosity	-11.9777
▁dandelion	-11.9777
▁deficien	-11.9777
▁degenerate	-11.9777
▁deteriorated	-11.9777
▁devereaux	-11.9777
▁dewdrop	-11.9777
▁diabolical	-11.9777
▁digitise	-11.9777
▁disadvantage	-11.9777
▁discharge	-11.9777
▁disloyal	-11.9777
▁dismount	-11.9777
▁disneyland	-11.9777
▁disobey	-11.9777
▁displeased	-11.9777
▁distress	-11.9777
▁dizzy	-11.9777
▁doughnuts	-11.9777
▁dunphy	-11.9777
▁eccentric	-11.9777
▁embassy	-11.9777
▁ensign	-11.9777
▁enthusiasm	-11.9777
▁eskimo	-11.9777
▁esteem	-11.9777
▁eunuch	-11.9777
▁exaggerat	-11.9777
▁exxon	-11.9777
▁filippo	-11.9777
▁fldsmdfr	-11.9777
▁fonnard	-11.9777
▁frazier	-11.9777
▁freckle	-11.9777
▁fremantle	-11.9777
▁frequent	-11.9777
▁frustrating	-11.9777
▁furniture	-11.9777
▁glaciers	-11.9777
▁godzilla	-11.9777
▁gonzangas	-11.9777
▁grievances	-11.9777
▁grumbling	-11.9777
▁guilders	-11.9777
▁haarlem	-11.9777
▁hallelujah	-11.9777
▁hallucinate	-11.9777
▁handmedown	-11.9777
▁hebrew	-11.9777
▁heidi	-11.9777
▁hemorrhaging	-11.9777
▁hollister	-11.9777
▁hombres	-11.9777
▁hufflepuff	-11.9777
▁impenetrable	-11.9777
▁imperfect	-11.9777
▁incomplete	-11.9777
▁indicator	-11.9777
▁inflict	-11.9777
▁insignificant	-11.9777
▁inspiring	-11.9777
▁insurrection	-11.9777
▁interrogate	-11.9777
▁intoxicated	-11.9777
▁introducing	-11.9777
▁invincible	-11.9777
▁israel	-11.9777
▁itinerary	-11.9777
▁juvenile	-11.9777
▁katanga	-11.9777
▁katawaredoki	-11.9777
▁kendrick	-11.9777
▁kennedy	-11.9777
▁kentucky	-11.9777
▁klutz	-11.9777
▁kobolowski	-11.9777
▁koonstra	-11.9777
▁kraut	-11.9777
▁lasalle	-11.9777
▁liberal	-11.9777
▁liberties	-11.9777
▁libyans	-11.9777
▁limelight	-11.9777
▁limousine	-11.9777
▁livelihood	-11.9777
▁lovable	-11.9777
▁loverlover	-11.9777
▁lyrics	-11.9777
▁mackerel	-11.9777
▁magali	-11.9777
▁maguire	-11.9777
▁maktar	-11.9777
▁marshmallow	-11.9777
▁mccullough	-11.9777
▁mckitty	-11.9777
▁mediocre	-11.9777
▁memorize	-11.9777
▁mercenaries	-11.9777
▁metropolitan	-11.9777
▁mexican	-11.9777
▁minivan	-11.9777
▁mixture	-11.9777
▁momentarily	-11.9777
▁mosaic	-11.9777
▁mouldy	-11.9777
▁mozzarella	-11.9777
▁murphy	-11.9777
▁musicmusic	-11.9777
▁mutineers	-11.9777
▁nagila	-11.9777
▁nebula	-11.9777
▁neighbours	-11.9777
▁nigger	-11.9777
▁nincompoop	-11.9777
▁ninepence	-11.9777
▁ninja	-11.9777
▁noctu	-11.9777
▁norwegia	-11.9777
▁occult	-11.9777
▁ofjail	-11.9777
▁oklahoma	-11.9777
▁omalley	-11.9777
▁opportunities	-11.9777
▁orangutan	-11.9777
▁orchard	-11.9777
▁outlook	-11.9777
▁outsmart	-11.9777
▁overdress	-11.9777
▁overmutate	-11.9777
▁oxygen	-11.9777
▁pamphlet	-11.9777
▁pancho	-11.9777
▁paragraph	-11.9777
▁participant	-11.9777
▁participation	-11.9777
▁pendragon	-11.9777
▁perpetuate	-11.9777
▁phenomenal	-11.9777
▁philharmonic	-11.9777
▁physics	-11.9777
▁piffle	-11.9777
▁pipeworkers	-11.9777
▁pitchfork	-11.9777
▁policies	-11.9777
▁poodle	-11.9777
▁pottytrained	-11.9777
▁preceded	-11.9777
▁precinct	-11.9777
▁premises	-11.9777
▁prescription	-11.9777
▁prosperity	-11.9777
▁purcell	-11.9777
▁purdy	-11.9777
▁python	-11.9777
▁quincy	-11.9777
▁rafael	-11.9777
▁reconsider	-11.9777
▁recurr	-11.9777
▁rehabilitate	-11.9777
▁rejuvenated	-11.9777
▁remini	-11.9777
▁repulsive	-11.9777
▁rescuing	-11.9777
▁reservation	-11.9777
▁resurrection	-11.9777
▁retiring	-11.9777
▁reunion	-11.9777
▁revenue	-11.9777
▁rhapsody	-11.9777
▁ridicule	-11.9777
▁rigid	-11.9777
▁rocknroll	-11.9777
▁roulette	-11.9777
▁rrrah	-11.9777
▁sabotage	-11.9777
▁safari	-11.9777
▁safragi	-11.9777
▁salvation	-11.9777
▁satellite	-11.9777
▁saviour	-11.9777
▁scalpel	-11.9777
▁separating	-11.9777
▁serendipity	-11.9777
▁servir	-11.9777
▁shortcircuit	-11.9777
▁slogan	-11.9777
▁sneeze	-11.9777
▁snorts	-11.9777
▁solitary	-11.9777
▁somnambulating	-11.9777
▁soviet	-11.9777
▁specimen	-11.9777
▁spuds	-11.9777
▁squander	-11.9777
▁staircase	-11.9777
▁stevie	-11.9777
▁strykers	-11.9777
▁stugats	-11.9777
▁subscribe	-11.9777
▁substantial	-11.9777
▁supervision	-11.9777
▁suspicion	-11.9777
▁sweeney	-11.9777
▁sweetgrass	-11.9777
▁swimsuit	-11.9777
▁tennyson	-11.9777
▁theories	-11.9777
▁throttle	-11.9777
▁tommaso	-11.9777
▁trenette	-11.9777
▁trombone	-11.9777
▁tumble	-11.9777
▁ultra	-11.9777
▁unconditionally	-11.9777
▁unthinkable	-11.9777
▁unwrapped	-11.9777
▁upriver	-11.9777
▁vagrant	-11.9777
▁valerie	-11.9777
▁vendetta	-11.9777
▁veteran	-11.9777
▁victorious	-11.9777
▁vignaud	-11.9777
▁virgins	-11.9777
▁vocabulary	-11.9777
▁volkswagen	-11.9777
▁vulcan	-11.9777
▁wacko	-11.9777
▁whitney	-11.9777
▁wimbledon	-11.9777
▁windshield	-11.9777
▁wwwait	-11.9777
▁yanquis	-11.9777
▁ziener	-11.9777
▁zoinks	-11.9777
▁zurich	-11.9777
compensate	-11.9777
▁alleged	-11.9777
▁bicker	-11.9777
▁blasphem	-11.9777
▁concession	-11.9777
▁grief	-11.9777
▁impound	-11.9777
▁millimeter	-11.9777
▁parrot	-11.9777
▁pimple	-11.9777
▁savior	-11.9777
▁smirk	-11.9777
▁vomit	-11.9777
▁aroma	-11.9777
▁ballancourt	-11.9777
▁bamboozle	-11.9777
▁bentley	-11.9777
▁bogus	-11.9777
▁charcoal	-11.9777
▁chemical	-11.9777
▁chomp	-11.9777
▁condole	-11.9777
▁coolsonian	-11.9777
▁diaph	-11.9777
▁disillusion	-11.9777
▁dominoes	-11.9777
▁eggbeater	-11.9777
▁elitist	-11.9777
▁evidently	-11.9777
▁expend	-11.9777
▁figment	-11.9777
▁freud	-11.9777
▁iggy	-11.9777
▁inmediately	-11.9777
▁junkyard	-11.9777
▁keller	-11.9777
▁kush	-11.9777
▁lazard	-11.9777
▁mccoy	-11.9777
▁measly	-11.9777
▁oberon	-11.9777
▁oblivio	-11.9777
▁outdated	-11.9777
▁overdue	-11.9777
▁overture	-11.9777
▁puppies	-11.9777
▁purity	-11.9777
▁shaft	-11.9777
▁sherri	-11.9777
▁siege	-11.9777
▁spontaneous	-11.9777
▁statistics	-11.9777
▁stench	-11.9777
▁stooge	-11.9777
▁strangelove	-11.9777
▁supervisor	-11.9777
▁untimeout	-11.9777
▁verdun	-11.9777
▁volume	-11.9777
▁whimsical	-11.9777
▁aggr	-11.9777
▁backflip	-11.9777
▁benoit	-11.9777
▁brooch	-11.9777
▁carcass	-11.9777
▁casino	-11.9777
▁confusing	-11.9777
▁dedication	-11.9777
▁ekg	-11.9777
▁filter	-11.9777
▁galleon	-11.9777
▁kalel	-11.9777
▁klein	-11.9777
▁mandolin	-11.9777
▁motive	-11.9777
▁niko	-11.9777
▁resort	-11.9777
▁slammed	-11.9777
▁torso	-11.9777
▁undress	-11.9777
iquette	-11.9777
▁adapt	-11.9777
▁affirmative	-11.9777
▁barbarians	-11.9777
▁deduce	-11.9777
▁knicks	-11.9777
▁maynard	-11.9777
▁negotiations	-11.9777
▁obstacle	-11.9777
▁ofthings	-11.9777
▁register	-11.9777
▁rippling	-11.9777
▁session	-11.9777
▁sofa	-11.9777
▁swoop	-11.9777
▁veins	-11.9777
eflex	-11.9777
▁daylight	-11.9777
▁eusie	-11.9777
▁gnat	-11.9777
▁godspeed	-11.9777
▁implore	-11.9777
▁itsits	-11.9777
▁kilo	-11.9777
▁kwan	-11.9777
▁cardinal	-11.9777
▁corpu	-11.9777
▁depressing	-11.9777
▁iook	-11.9777
▁monsoon	-11.9777
▁pranee	-11.9777
▁reich	-11.9777
▁thrive	-11.9777
▁caramba	-11.9777
▁altar	-11.9777
▁earrings	-11.9777
▁efficiency	-11.9777
▁info	-11.9777
▁katrien	-11.9777
▁prosecut	-11.9777
▁vibes	-11.9777
▁wendy	-11.9777
▁barber	-11.9777
▁clayface	-11.9777
▁devastat	-11.9777
▁immature	-11.9777
▁mangano	-11.9777
▁registr	-11.9777
▁vato	-11.9777
▁forcing	-11.9777
▁ufo	-11.9777
▁folly	-11.9777
▁jammed	-11.9777
▁panthers	-11.9777
▁restrictions	-11.9777
▁rosy	-11.9777
▁egyptians	-11.9777
▁melodramatic	-11.9777
▁proverb	-11.9777
▁seperate	-11.9777
▁timber	-11.9777
▁gloss	-11.9777
▁apprehend	-11.9777
▁hadley	-11.9777
▁rrf	-11.9777
▁shredded	-11.9777
▁berk	-11.9777
▁bongogram	-11.9777
▁idiom	-11.9777
▁molly	-11.9777
▁pattos	-11.9777
▁talaal	-11.9777
▁truffle	-11.9777
▁voltaire	-11.9777
▁pedro	-11.9777
▁criminolog	-11.9777
▁herbert	-11.9777
▁scowl	-11.9777
▁oneliners	-11.9777
▁southend	-11.9777
▁whining	-11.9777
▁characteristics	-11.9777
▁mild	-11.9777
▁namath	-11.9777
▁latte	-11.9777
▁democracy	-11.9777
▁stomp	-11.9777
▁bidding	-11.9777
▁rerout	-11.9777
▁vibration	-11.9777
doubledgoddamn	-11.9777
▁expulsion	-11.9777
▁foureyes	-11.9777
▁surgeries	-11.9777
▁facade	-11.9777
▁schmuck	-11.9777
▁snob	-11.9777
▁syndicate	-11.9777
solation	-11.9777
▁grieve	-11.9777
▁nylon	-11.9777
▁valves	-11.9777
▁fester	-11.9777
▁hovering	-11.9777
▁hippie	-11.9777
▁tolls	-11.9777
recede	-11.9777
▁sanctuary	-11.9777
▁stump	-11.9777
▁grasp	-11.9777
▁vamos	-11.9777
▁neces	-11.9777
▁ravenwood	-11.9777
▁stunning	-11.9777
▁bulg	-11.9777
▁shiver	-11.9777
▁granddaughter	-11.9777
▁lardy	-11.9777
▁sensors	-11.9777
▁blunder	-11.9777
▁inevitable	-11.9777
▁unaware	-11.9777
kettle	-11.9777
▁elsie	-11.9777
▁billionaire	-11.9777
▁budbuddy	-11.9777
▁defy	-11.9777
▁heaviness	-11.9777
▁untr	-11.9777
▁skeletons	-11.9777
▁backyard	-11.9778
▁beacon	-11.9778
▁diagram	-11.9778
▁shrimporium	-11.9778
▁cavities	-11.9778
▁notify	-11.9778
▁omelet	-11.9778
▁gravy	-11.9778
▁sympathize	-11.9778
▁emptie	-11.9778
▁outburst	-11.9778
sumption	-11.9778
▁opposition	-11.9778
▁paddle	-11.9778
▁peanutlovin	-11.9778
▁renaissance	-11.9778
▁inquiry	-11.9778
▁wiggle	-11.9778
▁trimble	-11.9778
nourish	-11.9778
▁darwin	-11.9778
▁pension	-11.9778
▁frigid	-11.9778
▁medal	-11.9778
▁controlled	-11.9778
▁yuk	-11.9778
▁ethical	-11.9778
▁sidelines	-11.9778
mutation	-11.9778
▁clanking	-11.9778
▁nickname	-11.9778
▁hooves	-11.9778
▁concrete	-11.9778
▁decode	-11.9778
▁saga	-11.9778
▁euro	-11.9778
▁atheist	-11.9778
▁mutate	-11.9778
▁canadian	-11.9778
▁consistent	-11.9778
▁menace	-11.9778
▁swoon	-11.9778
▁aloof	-11.9778
▁scram	-11.9778
▁beauties	-11.9778
dammit	-11.9778
▁sensuous	-11.9778
onnais	-11.9778
▁verbal	-11.9778
▁iq	-11.9778
▁ireland	-11.9778
▁conju	-11.9778
▁ingles	-11.9778
▁scholarship	-11.9778
▁induce	-11.9778
▁refuge	-11.9778
▁scopes	-11.9778
▁sarcastically	-11.9778
iglie	-11.9778
▁felon	-11.9778
▁libel	-11.9778
▁regulat	-11.9778
▁finito	-11.9778
▁abbot	-11.9778
▁pluck	-11.9778
▁skateboard	-11.9778
▁deliri	-11.9778
▁capabilities	-11.9778
▁melodi	-11.9778
▁colleen	-11.9778
▁twentyfive	-11.9778
▁vicar	-11.9778
▁laboratory	-11.9778
▁radius	-11.9778
▁zipping	-11.9778
▁disposition	-11.9778
▁bragging	-11.9778
▁dormitories	-11.9778
▁shaving	-11.9778
▁vaca	-11.9778
▁exalt	-11.9778
▁welty	-11.9779
▁daniella	-11.9779
▁obsession	-11.9779
▁originated	-11.9779
▁tasties	-11.9779
▁panicked	-11.9779
▁accessory	-11.9779
▁justifie	-11.9779
▁fancies	-11.9779
▁stinger	-11.9779
▁polk	-11.9779
▁polar	-11.9779
▁tshirt	-11.9779
▁voltage	-11.9779
▁snapping	-11.9779
worthy	-11.9779
▁transmitter	-11.9779
▁relevation	-11.9779
▁appetite	-11.9779
tigious	-11.9779
▁expedit	-11.9779
▁discrimination	-11.9779
▁retaliation	-11.9779
▁brood	-11.9779
▁frapp	-11.9779
▁matchmaking	-11.9779
▁addict	-11.9779
▁broadway	-11.9779
▁harassment	-11.9779
▁orca	-11.9779
▁ugliest	-11.9779
▁titani	-11.9779
▁socializing	-11.9779
▁wong	-11.9779
▁fabrication	-11.9779
▁benjamin	-11.9779
▁confound	-11.9779
▁gypsies	-11.9779
▁lowlife	-11.9779
▁bribe	-11.9779
▁rebuild	-11.9779
▁snail	-11.978
▁chacha	-11.978
▁intentionally	-11.978
▁cecilia	-11.978
▁hazardous	-11.978
▁impost	-11.978
▁boris	-11.978
▁dissection	-11.978
▁superficial	-11.978
▁jagan	-11.978
▁topsecret	-11.978
▁fulfillment	-11.978
▁liking	-11.978
▁sketch	-11.978
▁excel	-11.978
▁tuppe	-11.978
▁descendant	-11.978
▁jewelry	-11.978
▁oaf	-11.978
▁oversea	-11.978
▁forehead	-11.978
▁enchanter	-11.978
▁meier	-11.978
▁pollut	-11.978
▁extraction	-11.978
hicke	-11.978
▁goggles	-11.978
pati	-11.978
▁howre	-11.978
▁monstrous	-11.978
▁aero	-11.978
▁surre	-11.978
▁fluke	-11.978
▁sniffling	-11.978
▁cruising	-11.978
▁figuring	-11.978
▁tractor	-11.978
▁seahorse	-11.978
▁lupe	-11.978
▁obscur	-11.978
▁brace	-11.9781
▁amusement	-11.9781
▁rarebit	-11.9781
▁dummy	-11.9781
▁judiciary	-11.9781
▁swat	-11.9781
▁bookstore	-11.9781
▁squirm	-11.9781
▁iora	-11.9781
▁clay	-11.9781
▁tummy	-11.9781
▁meatball	-11.9781
▁drunkard	-11.9781
▁andre	-11.9781
▁tasty	-11.9781
▁disturbance	-11.9781
▁tubby	-11.9781
▁wellbeing	-11.9781
▁caii	-11.9781
▁coupon	-11.9781
▁customary	-11.9781
▁demonstration	-11.9781
ponent	-11.9781
▁maharajaton	-11.9781
▁wwhat	-11.9781
▁cheet	-11.9782
▁testify	-11.9782
▁raving	-11.9782
▁mamma	-11.9782
▁blowjob	-11.9782
▁notebook	-11.9782
▁decorator	-11.9782
▁drought	-11.9782
▁sargent	-11.9782
▁coastline	-11.9782
▁venom	-11.9782
▁cretin	-11.9782
▁speck	-11.9782
▁heeee	-11.9782
▁weeds	-11.9782
▁hoax	-11.9782
▁ballast	-11.9782
▁jumb	-11.9782
▁civi	-11.9782
linder	-11.9782
▁rejection	-11.9782
▁nosy	-11.9783
▁repent	-11.9783
▁ronda	-11.9783
▁ofem	-11.9783
▁loaf	-11.9783
▁paralyzed	-11.9783
▁brook	-11.9783
▁dessie	-11.9783
▁slink	-11.9783
▁whoohoohoo	-11.9783
▁parch	-11.9783
▁underway	-11.9783
▁micro	-11.9783
▁enlist	-11.9783
▁blueprint	-11.9783
▁affi	-11.9783
▁percy	-11.9783
▁cherish	-11.9783
nias	-11.9783
▁fiinal	-11.9783
▁fiix	-11.9783
▁thereto	-11.9783
tention	-11.9783
▁translator	-11.9784
▁zig	-11.9784
▁clink	-11.9784
aught	-11.9784
itism	-11.9784
▁regrettabl	-11.9784
▁absorb	-11.9784
▁cyborg	-11.9784
▁cushion	-11.9784
▁shroud	-11.9784
uji	-11.9784
owl	-11.9784
▁huff	-11.9784
▁ruth	-11.9784
▁yithats	-11.9784
▁exert	-11.9784
▁checklist	-11.9784
▁whiskey	-11.9784
▁thaw	-11.9784
▁bathhouse	-11.9784
▁hark	-11.9785
▁maze	-11.9785
▁clubhouse	-11.9785
▁beginner	-11.9785
▁deflection	-11.9785
▁overwork	-11.9785
gestion	-11.9785
▁acid	-11.9785
▁bummer	-11.9785
▁unfold	-11.9785
▁youknowwho	-11.9785
▁avl	-11.9785
▁miguelito	-11.9785
apul	-11.9785
▁icebox	-11.9785
▁overboard	-11.9785
▁piling	-11.9785
braw	-11.9786
▁cuss	-11.9786
▁glue	-11.9786
ulous	-11.9786
▁bombard	-11.9786
▁courageous	-11.9786
▁layton	-11.9786
stay	-11.9786
▁confine	-11.9786
▁ratings	-11.9786
▁vandaliz	-11.9786
▁enchanted	-11.9786
▁removal	-11.9786
▁marqu	-11.9786
▁percentage	-11.9787
minous	-11.9787
torious	-11.9787
conscious	-11.9787
▁synchronize	-11.9787
▁trespasser	-11.9787
▁ninety	-11.9787
▁input	-11.9787
▁despise	-11.9787
▁juggl	-11.9787
trum	-11.9787
▁catfish	-11.9787
▁hassle	-11.9788
▁modul	-11.9788
▁annihilation	-11.9788
▁decorat	-11.9788
▁pacifist	-11.9788
▁fruitful	-11.9788
▁karate	-11.9788
▁stalk	-11.9788
▁expectations	-11.9788
▁joss	-11.9789
▁caball	-11.9789
▁beets	-11.9789
▁delusional	-11.9789
▁breakthrough	-11.9789
▁bucklin	-11.9789
▁championship	-11.9789
▁lifestyle	-11.9789
▁daniela	-11.9789
▁staines	-11.979
▁checkmate	-11.979
▁considerate	-11.979
▁drama	-11.979
▁amazes	-11.979
▁dogsitting	-11.979
▁rehearsing	-11.979
▁hence	-11.979
▁cutler	-11.979
infu	-11.979
fied	-11.979
▁storybook	-11.979
▁bunker	-11.979
idos	-11.979
▁accountant	-11.979
▁minefield	-11.9791
▁gull	-11.9791
epid	-11.9791
manos	-11.9791
horse	-11.9791
▁marsh	-11.9792
▁buggy	-11.9792
▁awol	-11.9792
▁occasionally	-11.9792
latter	-11.9792
▁contrived	-11.9792
▁restroom	-11.9792
▁glen	-11.9793
▁brian	-11.9793
▁integrated	-11.9793
▁hitler	-11.9793
estate	-11.9793
▁brag	-11.9793
▁shook	-11.9793
▁lazy	-11.9794
▁marra	-11.9794
▁perri	-11.9794
▁sorr	-11.9794
▁ador	-11.9794
▁constructed	-11.9794
▁blank	-11.9795
▁tutor	-11.9795
hael	-11.9795
itzer	-11.9795
▁gente	-11.9795
▁feud	-11.9795
▁bench	-11.9795
▁antique	-11.9795
model	-11.9795
▁rubber	-11.9795
▁cockroaches	-11.9795
▁northwest	-11.9796
▁tush	-11.9796
▁sweepers	-11.9796
▁whoaoh	-11.9796
▁stab	-11.9796
▁pong	-11.9796
▁drummer	-11.9796
▁yahoo	-11.9796
▁yeast	-11.9796
aaaaaaaa	-11.9796
▁horrifi	-11.9796
reland	-11.9796
▁elder	-11.9797
▁admitting	-11.9797
▁wept	-11.9797
▁perro	-11.9798
cations	-11.9798
▁lefthanded	-11.9798
▁sheikh	-11.9798
▁longbottom	-11.9798
▁happier	-11.9798
▁speechless	-11.9798
▁toi	-11.9798
▁confirmation	-11.9798
▁belongings	-11.9798
▁vile	-11.9799
▁howe	-11.9799
▁twoface	-11.9799
▁monstro	-11.9799
▁rail	-11.9799
▁hors	-11.9799
▁moist	-11.9799
jit	-11.9799
▁phony	-11.9799
▁tito	-11.9799
▁gent	-11.98
▁flankers	-11.98
▁pug	-11.98
idna	-11.98
▁shithead	-11.98
▁lamb	-11.98
▁carefree	-11.98
▁dinero	-11.98
▁conveyor	-11.98
▁sank	-11.9801
▁dramatically	-11.9801
▁dj	-11.9801
band	-11.9801
▁afflicted	-11.9802
▁disintegrated	-11.9802
▁stranded	-11.9802
▁concluded	-11.9802
▁stirr	-11.9803
ulein	-11.9803
▁respectfully	-11.9803
▁cir	-11.9803
▁marco	-11.9803
▁chaw	-11.9804
▁pender	-11.9805
▁teb	-11.9805
▁motherinlaw	-11.9805
▁fab	-11.9805
▁footage	-11.9805
▁lathe	-11.9806
▁recipe	-11.9807
▁tidy	-11.9807
▁flynn	-11.9808
▁boop	-11.9808
quit	-11.9809
▁conceived	-11.9809
▁jimbo	-11.9809
▁respectful	-11.981
▁raf	-11.9811
▁sanders	-11.9811
▁xk	-11.9811
▁batch	-11.9811
▁countrymen	-11.9811
▁brightness	-11.9811
▁developer	-11.9811
▁monta	-11.9811
▁sputtering	-11.9812
▁creeper	-11.9812
▁inches	-11.9812
▁unveiling	-11.9812
▁disposed	-11.9812
▁negotiating	-11.9812
▁exhausting	-11.9812
▁linkage	-11.9812
▁vent	-11.9812
▁epi	-11.9813
▁vol	-11.9814
▁kite	-11.9814
▁conman	-11.9814
▁brady	-11.9814
▁canning	-11.9815
▁its	-11.9815
▁jot	-11.9816
▁frenchman	-11.9816
▁mous	-11.9816
▁agreeable	-11.9816
▁lighthouse	-11.9816
▁breakdown	-11.9816
▁huntin	-11.9817
▁suspension	-11.9817
▁brighton	-11.9817
wling	-11.9818
gent	-11.9818
▁clic	-11.9818
▁warmth	-11.9818
▁punished	-11.9818
▁redone	-11.9819
tribute	-11.9819
asic	-11.9819
▁frontier	-11.9819
▁electrici	-11.9819
▁winni	-11.9819
▁esto	-11.982
▁coverup	-11.982
▁viewers	-11.982
▁popped	-11.9821
▁booby	-11.9821
▁stunt	-11.9821
▁premiere	-11.9822
▁hijo	-11.9822
▁ech	-11.9822
▁pim	-11.9822
▁flown	-11.9823
▁dense	-11.9823
▁growth	-11.9825
▁tina	-11.9825
▁tamed	-11.9825
rrito	-11.9825
▁rash	-11.9826
▁pino	-11.9826
▁beaches	-11.9827
▁thicker	-11.9827
▁thorn	-11.9827
▁deactivated	-11.9827
▁performer	-11.9827
▁unbe	-11.9827
▁luna	-11.9829
▁peck	-11.9829
▁kar	-11.9829
▁stance	-11.983
correspondent	-11.983
▁macon	-11.983
▁gnomes	-11.983
▁jellybeans	-11.983
▁suburbs	-11.983
▁sweepstakes	-11.983
▁wrinkles	-11.983
▁obtaine	-11.983
▁volunteers	-11.983
▁leopards	-11.9832
▁inspired	-11.9832
▁twister	-11.9832
▁jive	-11.9832
▁passive	-11.9833
▁fitting	-11.9833
▁dumbest	-11.9834
▁fulfilled	-11.9834
▁disrupted	-11.9835
holy	-11.9835
▁fable	-11.9835
▁nicelooking	-11.9835
▁bulletin	-11.9835
▁remotely	-11.9835
▁electro	-11.9835
▁moss	-11.9835
▁pussy	-11.9837
▁funni	-11.9837
▁slicey	-11.9837
▁identified	-11.9837
▁gable	-11.9838
▁geniuses	-11.9838
▁sig	-11.9838
▁witnesses	-11.9838
▁doorway	-11.9839
ubdu	-11.984
▁balt	-11.9841
▁oversize	-11.9842
▁breed	-11.9845
▁pater	-11.9845
▁spicy	-11.9845
▁munch	-11.9846
▁reel	-11.9846
plane	-11.9847
▁interrogati	-11.9847
▁troy	-11.9848
▁sandal	-11.9849
▁rundown	-11.9851
▁conquered	-11.9851
▁reacted	-11.9851
▁commissioned	-11.9851
▁deci	-11.9852
▁spilled	-11.9852
▁bitches	-11.9853
▁firsthand	-11.9854
▁parish	-11.9854
▁marrie	-11.9856
▁peeler	-11.9856
▁receiver	-11.9857
imming	-11.9857
▁tyrann	-11.9858
▁clumping	-11.9858
▁cruiser	-11.9859
▁steering	-11.9859
ately	-11.986
▁mustang	-11.9863
cyclop	-11.9864
▁pave	-11.9866
▁trustee	-11.9867
▁curly	-11.9867
▁retrieved	-11.9867
▁encountered	-11.9867
▁organiz	-11.9867
▁weakened	-11.9867
▁established	-11.9867
▁sharpened	-11.9868
▁windott	-11.9869
▁physically	-11.987
▁showdown	-11.987
▁pleas	-11.987
erical	-11.9871
▁drew	-11.9871
▁rotor	-11.9871
▁hither	-11.9875
▁actua	-11.9876
▁mustard	-11.9876
▁gobs	-11.9877
▁lav	-11.9879
consequent	-11.988
▁frosting	-11.9881
▁splashing	-11.9881
▁lana	-11.9882
▁berry	-11.9882
▁accused	-11.9883
▁esta	-11.9883
▁reply	-11.9884
▁jm	-11.9884
▁gat	-11.9886
▁alexi	-11.9887
▁cory	-11.9887
▁jc	-11.9887
▁deem	-11.9888
▁suite	-11.9888
▁beeper	-11.9888
▁cath	-11.9889
▁linger	-11.9891
▁cardi	-11.9892
cies	-11.9893
▁improbab	-11.9893
▁darkies	-11.9894
▁pointless	-11.9894
▁sur	-11.9898
cell	-11.9898
choo	-11.9898
▁wiped	-11.9898
▁beaten	-11.9899
▁wat	-11.9899
awny	-11.99
▁distracted	-11.9901
▁deserter	-11.9901
▁shutter	-11.9902
igible	-11.9902
pensive	-11.9904
▁lament	-11.9904
▁bosses	-11.9904
▁departing	-11.9904
▁seethrough	-11.9906
▁stacking	-11.9907
▁divided	-11.991
▁hellton	-11.991
▁cray	-11.9912
▁contractor	-11.9914
▁awaited	-11.9916
▁achieved	-11.9918
▁particles	-11.9923
▁disorders	-11.9923
▁hounds	-11.9923
▁narcotics	-11.9923
▁ornaments	-11.9923
▁schematics	-11.9923
▁privileged	-11.9924
▁institution	-11.9924
▁atit	-11.9924
▁dryer	-11.9925
amer	-11.9925
▁pickers	-11.9926
mint	-11.9927
▁scanners	-11.9927
▁leaking	-11.9928
▁deflecting	-11.9928
ends	-11.9928
▁messin	-11.9928
▁server	-11.9928
▁tucked	-11.9934
▁mystical	-11.9937
cdc	-11.9938
▁initializ	-11.9939
▁blissful	-11.9941
iously	-11.9943
eury	-11.9943
▁ident	-11.9944
turing	-11.9945
▁your	-11.9947
▁honoured	-11.9947
▁followers	-11.995
▁stressed	-11.995
▁typ	-11.9951
▁muck	-11.9951
▁offland	-11.9952
▁implicate	-11.9953
▁magnif	-11.9958
▁tit	-11.9958
▁sneaky	-11.9959
▁sweetest	-11.9959
yra	-11.9959
▁demonstrate	-11.9962
easy	-11.9963
▁riot	-11.9963
▁jest	-11.9965
▁commoner	-11.9965
▁pissed	-11.9967
▁entertainer	-11.9972
▁germany	-11.9972
▁ticking	-11.9974
▁inventing	-11.9976
inder	-11.9977
elves	-11.9978
▁feeder	-11.9982
illion	-11.9988
ional	-11.9991
▁brighter	-11.9992
cery	-11.9993
▁squir	-11.9994
▁roller	-11.9994
ucking	-11.9995
▁roped	-11.9999
▁shak	-12.0002
▁sane	-12.0002
▁cope	-12.0005
▁overcom	-12.0006
▁oblig	-12.0008
▁recognized	-12.001
▁lars	-12.001
▁readers	-12.0021
▁bursting	-12.0022
▁foolin	-12.0022
▁traveller	-12.0026
fan	-12.0032
ipulate	-12.0036
▁coop	-12.0037
▁madeup	-12.0038
▁hath	-12.0038
▁claimed	-12.004
ttered	-12.005
▁weakly	-12.0051
▁tic	-12.0055
▁swam	-12.0063
working	-12.0064
▁richer	-12.0065
▁tric	-12.0066
▁arse	-12.0066
▁freaky	-12.0076
▁smoked	-12.0077
▁dreamt	-12.0092
▁diplomat	-12.0106
▁heartbreak	-12.0106
onald	-12.0117
▁stunne	-12.0118
gt	-12.0123
▁inflat	-12.0124
where	-12.0125
▁freezer	-12.0125
▁literat	-12.0158
▁linen	-12.0158
▁awe	-12.0161
▁mace	-12.0161
▁dung	-12.0168
▁overlook	-12.018
roni	-12.0186
▁counsell	-12.0187
roy	-12.0187
▁rega	-12.0188
▁restrain	-12.019
▁phi	-12.0192
▁wart	-12.0194
icle	-12.0195
▁queer	-12.0205
▁pobr	-12.0228
▁adventurer	-12.024
ueste	-12.0247
▁juanit	-12.0251
aza	-12.026
▁medic	-12.0277
▁designat	-12.0279
ifu	-12.0279
▁blaster	-12.0286
▁faim	-12.0313
▁pina	-12.0315
▁hostil	-12.0351
▁gam	-12.0359
▁unlad	-12.0361
aaaaa	-12.0365
ixi	-12.0366
ndale	-12.0369
▁chatt	-12.038
▁kanga	-12.0385
oyalty	-12.0389
▁washer	-12.0442
▁charger	-12.0445
▁lam	-12.0445
▁pore	-12.0474
▁canad	-12.0474
aria	-12.0475
based	-12.0478
▁brownie	-12.0554
▁govern	-12.0569
▁distribute	-12.0581
▁gah	-12.0587
hop	-12.0608
▁poise	-12.0612
agh	-12.0612
bonite	-12.0628
arters	-12.0632
▁dominat	-12.0638
▁hemi	-12.0684
▁urg	-12.0738
▁delan	-12.0741
▁grim	-12.076
▁awaken	-12.0766
tingly	-12.0775
gagging	-12.0778
▁thresh	-12.0799
▁juic	-12.08
oir	-12.0801
▁rott	-12.0808
▁fogg	-12.0829
rtz	-12.0831
▁denie	-12.0837
▁clapp	-12.0873
▁wri	-12.0876
issolution	-12.0892
▁comp	-12.0925
▁chico	-12.0929
▁tracker	-12.0952
▁scor	-12.0959
▁kan	-12.0973
▁blob	-12.0979
▁coordinate	-12.0997
▁leon	-12.1018
▁mau	-12.1085
▁igna	-12.1129
▁boxer	-12.1141
▁korea	-12.1154
▁conn	-12.1177
▁bask	-12.1195
▁hali	-12.1202
ender	-12.123
▁monstermak	-12.1237
wash	-12.1277
▁avenge	-12.1318
▁schn	-12.1323
▁cellul	-12.1342
▁swindle	-12.1343
▁shad	-12.1365
▁oppose	-12.1365
quil	-12.1413
entic	-12.1429
▁schm	-12.1492
flier	-12.1562
palm	-12.1574
oggy	-12.1585
▁clo	-12.1606
▁reassure	-12.1609
eros	-12.164
▁admir	-12.1662
nimal	-12.1677
ather	-12.1685
▁popp	-12.1696
▁insur	-12.1727
ugged	-12.1812
argeant	-12.1831
prit	-12.1877
▁relev	-12.1882
▁shi	-12.1893
▁doze	-12.1909
▁tog	-12.1966
hopping	-12.1991
ppe	-12.2075
china	-12.2077
rloin	-12.2091
arian	-12.2103
▁investigat	-12.2165
ility	-12.2191
oise	-12.2194
▁penetrat	-12.2258
▁intr	-12.2384
uddle	-12.2418
laine	-12.2456
eech	-12.2484
quel	-12.2582
▁fiddl	-12.2585
ular	-12.2663
cade	-12.267
▁speeder	-12.2697
nati	-12.2737
▁journal	-12.2739
▁birdie	-12.2787
▁brainwa	-12.2882
orean	-12.2892
▁prior	-12.301
▁feu	-12.3026
rried	-12.3074
tsu	-12.3087
solution	-12.3158
▁sacrific	-12.3215
▁infiltrat	-12.3243
▁kin	-12.3371
eira	-12.3394
imposition	-12.3421
ezy	-12.3457
self	-12.3464
moth	-12.3477
vu	-12.356
dios	-12.3587
inner	-12.3606
chet	-12.3612
▁mee	-12.3629
ife	-12.3655
qualify	-12.3679
lacking	-12.368
eighth	-12.3687
eeze	-12.3728
onda	-12.3767
egan	-12.3781
specifi	-12.3785
asses	-12.38
oft	-12.381
wanda	-12.3883
lady	-12.3883
arra	-12.3895
▁kang	-12.3926
egged	-12.3939
uries	-12.3975
▁spl	-12.3979
imous	-12.3985
▁bali	-12.3999
tible	-12.3999
harr	-12.4008
mmm	-12.4042
shaped	-12.406
▁inject	-12.4072
aki	-12.4092
verish	-12.4112
oiled	-12.4116
bbled	-12.4129
▁teasin	-12.4171
▁aqu	-12.4176
▁virtu	-12.4188
scot	-12.4198
▁hagg	-12.4212
breaking	-12.4214
▁cana	-12.4215
▁horr	-12.4218
icki	-12.4254
tamina	-12.428
ronic	-12.4308
▁radi	-12.4319
▁clog	-12.4319
▁enti	-12.4322
media	-12.4331
logy	-12.4334
▁ske	-12.4359
sphere	-12.4362
ggio	-12.4376
mortality	-12.4387
▁brav	-12.4394
▁pressur	-12.4411
luc	-12.4424
amente	-12.444
▁sav	-12.4466
mill	-12.4484
▁utili	-12.4491
▁plea	-12.4519
▁involv	-12.4519
▁mystic	-12.4521
▁cough	-12.4527
moles	-12.4542
▁ornament	-12.4544
▁schematic	-12.4544
▁hound	-12.4544
▁narcotic	-12.4544
▁disorder	-12.4548
▁particle	-12.4554
▁gymnastic	-12.4555
▁implie	-12.4556
▁complication	-12.4556
adjust	-12.4558
▁petti	-12.4559
▁booger	-12.4559
hony	-12.4561
▁footprint	-12.4561
▁clau	-12.4562
▁belief	-12.4564
▁catapult	-12.4564
▁afterward	-12.4565
▁flaw	-12.4566
stein	-12.4572
▁yelp	-12.4574
▁giggle	-12.4579
hut	-12.4582
▁instruction	-12.4583
▁relic	-12.4584
▁scanner	-12.4586
▁meek	-12.4586
▁stair	-12.4587
▁intruder	-12.4589
▁tuff	-12.4592
▁achiev	-12.4597
rky	-12.4609
sequent	-12.4612
▁cycl	-12.4621
▁blu	-12.4625
ermelo	-12.4625
hok	-12.4627
tyli	-12.463
▁muff	-12.4636
▁fulfil	-12.4638
lash	-12.464
mares	-12.4644
▁prun	-12.4644
mala	-12.4656
▁tyran	-12.4658
▁dwel	-12.4661
▁revol	-12.4666
rella	-12.4669
▁requir	-12.4672
tropho	-12.4672
liest	-12.4675
▁dodg	-12.4675
▁logic	-12.4678
▁describ	-12.468
▁stir	-12.4684
▁exhaust	-12.4684
mums	-12.4685
olia	-12.4686
▁recogniz	-12.4694
▁hypnoti	-12.4696
▁negotiat	-12.4704
craz	-12.4707
utters	-12.4708
▁onehor	-12.471
▁fenc	-12.471
bbles	-12.4711
▁defens	-12.4711
▁branch	-12.4716
▁associat	-12.4718
▁releas	-12.4718
▁deactivat	-12.4719
▁unveil	-12.472
▁retriev	-12.4721
▁acknowledg	-12.4722
elimina	-12.4723
▁screech	-12.4723
▁graduat	-12.4725
▁scorch	-12.4725
mond	-12.4725
earned	-12.4726
▁murmur	-12.4728
nice	-12.4729
rrraaa	-12.473
style	-12.4733
quarter	-12.4735
huh	-12.4736
gencies	-12.4736
born	-12.4736
▁afflict	-12.4736
▁disintegrat	-12.4736
▁strand	-12.4736
▁monstr	-12.4737
▁wrestle	-12.4737
keeper	-12.4738
wide	-12.4738
▁uncl	-12.4738
▁cramp	-12.4738
▁conceal	-12.4738
▁assign	-12.4738
▁blond	-12.4739
▁conceiv	-12.4739
▁execution	-12.4741
▁toil	-12.4742
▁morn	-12.4743
kids	-12.4743
craft	-12.4746
northwest	-12.4747
marco	-12.4747
finished	-12.4747
tush	-12.4747
juan	-12.4747
secret	-12.4747
count	-12.4747
blank	-12.4748
cream	-12.4748
dryer	-12.4748
aggressive	-12.4748
equipped	-12.4748
shirt	-12.4749
sequence	-12.4749
warmed	-12.4749
shelf	-12.4749
occupied	-12.475
sufficient	-12.475
organize	-12.475
directed	-12.475
temporary	-12.475
elbow	-12.475
smoking	-12.475
partial	-12.4751
lenin	-12.4751
protected	-12.4751
defeated	-12.4751
confidence	-12.4751
▁crim	-12.4751
directly	-12.4751
related	-12.4751
trigger	-12.4751
ernesto	-12.4751
chamber	-12.4751
healthy	-12.4751
civil	-12.4751
studio	-12.4751
bugs	-12.4751
bucket	-12.4751
issue	-12.4751
wilder	-12.4751
hunting	-12.4751
flower	-12.4751
alien	-12.4751
chief	-12.4751
familiar	-12.4751
dollar	-12.4751
fruit	-12.4751
secure	-12.4751
fungus	-12.4751
schedule	-12.4751
available	-12.4751
lsize	-12.4752
american	-12.4752
common	-12.4752
condition	-12.4752
prison	-12.4752
chocolate	-12.4752
engine	-12.4752
computer	-12.4752
continue	-12.4752
expensive	-12.4752
heavy	-12.4752
distance	-12.4752
ification	-12.4752
president	-12.4752
blue	-12.4752
charlie	-12.4752
course	-12.4752
hello	-12.4752
child	-12.4752
three	-12.4752
▁contrive	-12.4752
married	-12.4752
attack	-12.4753
family	-12.4753
hammer	-12.4753
anche	-12.4753
▁integrate	-12.4754
curse	-12.4754
rrit	-12.4754
▁decree	-12.4754
▁sputter	-12.4754
writer	-12.4754
raff	-12.4754
grew	-12.4754
knot	-12.4754
track	-12.4755
brush	-12.4755
▁ancho	-12.4755
buddy	-12.4756
▁whisk	-12.4756
gathering	-12.4757
▁fuzz	-12.4757
could	-12.4757
▁shrubber	-12.4757
daisy	-12.4758
throw	-12.4758
mouth	-12.4758
today	-12.4758
▁rejoic	-12.4758
▁undeniabl	-12.4758
▁levio	-12.4758
▁wif	-12.4759
▁gravit	-12.4759
wept	-12.4759
help	-12.4759
racks	-12.4759
▁librar	-12.476
ggling	-12.476
synchroniz	-12.4761
▁presum	-12.4761
nald	-12.4761
▁definit	-12.4761
▁karat	-12.4762
▁romanc	-12.4762
▁societ	-12.4762
▁bibl	-12.4762
▁prompt	-12.4762
level	-12.4762
▁vandali	-12.4763
master	-12.4763
▁choreograph	-12.4763
▁fend	-12.4763
burst	-12.4763
taking	-12.4763
hundred	-12.4763
▁jacob	-12.4763
▁eventual	-12.4764
▁insan	-12.4764
nancy	-12.4764
▁wond	-12.4765
ermit	-12.4765
▁disciplin	-12.4765
▁objectiv	-12.4765
▁horribl	-12.4766
▁numb	-12.4766
capable	-12.4767
▁scoot	-12.4768
▁regi	-12.4768
breaker	-12.4768
▁hype	-12.4768
cryp	-12.4769
▁morphi	-12.4769
▁probabl	-12.4769
▁lear	-12.477
▁giuli	-12.477
curity	-12.477
▁aspir	-12.477
partment	-12.477
▁inquire	-12.477
▁crom	-12.4771
▁goddam	-12.4771
along	-12.4771
cold	-12.4771
▁popula	-12.4772
▁tramp	-12.4773
lected	-12.4773
▁indu	-12.4773
alming	-12.4774
▁surge	-12.4774
▁uglie	-12.4774
▁transfus	-12.4774
ouch	-12.4774
▁discriminat	-12.4774
▁retaliat	-12.4774
▁fluoridat	-12.4774
▁mummif	-12.4774
▁steppin	-12.4774
▁dancin	-12.4774
▁givin	-12.4774
▁violat	-12.4774
▁obsessi	-12.4775
easant	-12.4775
annon	-12.4775
aredoki	-12.4775
▁dormitor	-12.4775
▁nonono	-12.4775
▁grocer	-12.4775
▁dyin	-12.4775
▁defect	-12.4776
▁bleach	-12.4776
▁kurt	-12.4776
▁alum	-12.4776
▁pooch	-12.4776
maste	-12.4776
tinct	-12.4776
unction	-12.4776
crete	-12.4776
▁mysteri	-12.4776
gnant	-12.4776
▁differ	-12.4776
▁quelle	-12.4776
▁automatic	-12.4776
mpossible	-12.4776
▁pregn	-12.4776
▁technolog	-12.4776
▁slit	-12.4776
▁guarant	-12.4776
▁script	-12.4776
kick	-12.4776
▁avail	-12.4777
▁marvel	-12.4777
syndica	-12.4777
tastic	-12.4777
▁democra	-12.4777
▁hydro	-12.4777
scapes	-12.4777
wire	-12.4777
tacular	-12.4777
▁chrys	-12.4777
▁inmediat	-12.4777
intolera	-12.4777
taneously	-12.4777
▁georgie	-12.4777
▁ithink	-12.4777
▁lactose	-12.4777
▁strait	-12.4777
ititito	-12.4777
▁besmirch	-12.4777
▁blacksmith	-12.4777
▁chromosom	-12.4777
▁contemplat	-12.4777
▁dishearten	-12.4777
▁disproportion	-12.4777
▁enclos	-12.4777
▁exploit	-12.4777
▁exterminat	-12.4777
▁harvest	-12.4777
▁hoodlum	-12.4777
▁overshoot	-12.4777
▁reconfigur	-12.4777
▁reread	-12.4777
▁sabbat	-12.4777
▁slouch	-12.4777
▁stagger	-12.4777
▁strafe	-12.4777
▁symmetr	-12.4777
▁trifl	-12.4777
▁tweak	-12.4777
accommodating	-12.4777
extraterrestrial	-12.4777
hazar	-12.4777
hydrating	-12.4777
knucklehead	-12.4777
manservant	-12.4777
nkowski	-12.4777
phylactic	-12.4777
precipitat	-12.4777
profe	-12.4777
raiser	-12.4777
rrogate	-12.4777
rubarubarubaruba	-12.4777
tjk	-12.4777
visibility	-12.4777
▁accommodation	-12.4777
▁accordance	-12.4777
▁accusation	-12.4777
▁acorns	-12.4777
▁acquitted	-12.4777
▁adrift	-12.4777
▁advancing	-12.4777
▁aegolius	-12.4777
▁aerodynamic	-12.4777
▁aggravation	-12.4777
▁aggression	-12.4777
▁agricolarum	-12.4777
▁agua	-12.4777
▁alabama	-12.4777
▁albuquerque	-12.4777
▁algorithm	-12.4777
▁alpoca	-12.4777
▁amalgamat	-12.4777
▁amarillo	-12.4777
▁ambiguity	-12.4777
▁anguish	-12.4777
▁antenna	-12.4777
▁antoinette	-12.4777
▁apenapped	-12.4777
▁arbitro	-12.4777
▁armistead	-12.4777
▁assembly	-12.4777
▁attentive	-12.4777
▁backhoe	-12.4777
▁bahamas	-12.4777
▁ballpark	-12.4777
▁bankrupt	-12.4777
▁barcelona	-12.4777
▁barnstaple	-12.4777
▁barnyard	-12.4777
▁barracuda	-12.4777
▁barrister	-12.4777
▁batrope	-12.4777
▁beddybye	-12.4777
▁beguile	-12.4777
▁benefactor	-12.4777
▁beresford	-12.4777
▁beulah	-12.4777
▁billiards	-12.4777
▁binoculars	-12.4777
▁birmingham	-12.4777
▁bloodstream	-12.4777
▁bonjour	-12.4777
▁boombastic	-12.4777
▁boundaries	-12.4777
▁buttonhook	-12.4777
▁buzzards	-12.4777
▁bypass	-12.4777
▁calcium	-12.4777
▁candlelight	-12.4777
▁cannula	-12.4777
▁cappoli	-12.4777
▁cartridge	-12.4777
▁casserole	-12.4777
▁cempasuchil	-12.4777
▁chachalacos	-12.4777
▁chaperone	-12.4777
▁cheffaw	-12.4777
▁chihuahua	-12.4777
▁chitchat	-12.4777
▁chorizo	-12.4777
▁cinnamon	-12.4777
▁clamp	-12.4777
▁clarinet	-12.4777
▁clovis	-12.4777
▁commish	-12.4777
▁commotion	-12.4777
▁commute	-12.4777
▁compelled	-12.4777
▁comprehensi	-12.4777
▁concede	-12.4777
▁conceited	-12.4777
▁concentrating	-12.4777
▁concussi	-12.4777
▁conglomerate	-12.4777
▁congratulate	-12.4777
▁contempt	-12.4777
▁contraption	-12.4777
▁corkscrew	-12.4777
▁cranecam	-12.4777
▁cronkite	-12.4777
▁croquette	-12.4777
▁croutons	-12.4777
▁cyberdude	-12.4777
▁dahlgren	-12.4777
▁daisley	-12.4777
▁deceiving	-12.4777
▁defiant	-12.4777
▁defibrillate	-12.4777
▁delicacy	-12.4777
▁demolish	-12.4777
▁demoralizing	-12.4777
▁desolate	-12.4777
▁deterrent	-12.4777
▁deviate	-12.4777
▁diligent	-12.4777
▁diminish	-12.4777
▁discretion	-12.4777
▁disengage	-12.4777
▁dishonor	-12.4777
▁dispensation	-12.4777
▁doppler	-12.4777
▁dostoyevsky	-12.4777
▁dracula	-12.4777
▁electrif	-12.4777
▁enigma	-12.4777
▁enthusiastic	-12.4777
▁epidemic	-12.4777
▁episcopalians	-12.4777
▁equation	-12.4777
▁escalator	-12.4777
▁espresso	-12.4777
▁estabrook	-12.4777
▁evarist	-12.4777
▁excessive	-12.4777
▁eyewitnesses	-12.4777
▁facilities	-12.4777
▁faculty	-12.4777
▁fantasies	-12.4777
▁fastforward	-12.4777
▁ferrari	-12.4777
▁firecrackers	-12.4777
▁flapjack	-12.4777
[...]
