<unk>	0
<s>	0
</s>	0
s	-3.62105
▁oh	-4.72937
▁dont	-4.731
▁im	-4.74719
▁well	-4.77284
▁get	-4.933
▁go	-4.9332
▁know	-4.93506
▁come	-4.99343
ing	-5.03115
▁right	-5.04977
▁like	-5.06081
▁one	-5.20964
▁got	-5.25194
ed	-5.26122
▁thats	-5.28568
▁youre	-5.28922
▁see	-5.31335
▁yes	-5.32091
▁us	-5.46722
▁good	-5.47883
▁ill	-5.53343
▁think	-5.56158
▁look	-5.57859
▁back	-5.59333
▁	-5.62666
▁time	-5.64533
▁cant	-5.69405
▁want	-5.6977
▁going	-5.71374
▁na	-5.72775
▁take	-5.73136
▁yeah	-5.74988
d	-5.76559
▁way	-5.78052
▁hes	-5.78944
▁never	-5.79664
▁hey	-5.83447
▁say	-5.84455
▁man	-5.85388
▁sir	-5.85431
▁little	-5.9007
▁could	-5.93152
y	-5.93282
▁would	-5.93683
▁tell	-5.94586
▁let	-5.96548
▁gon	-6.0196
▁whats	-6.03633
▁love	-6.04559
▁make	-6.04846
▁ive	-6.04857
▁theres	-6.09947
ly	-6.10522
▁must	-6.11583
e	-6.13864
▁help	-6.1475
▁lets	-6.18681
▁thank	-6.19984
er	-6.2113
▁mean	-6.22761
▁wait	-6.23459
▁give	-6.24317
▁mr	-6.2636
▁away	-6.26968
▁please	-6.28139
▁find	-6.28797
▁boy	-6.29447
▁l	-6.29889
▁didnt	-6.31262
▁theyre	-6.31781
▁day	-6.31848
▁said	-6.32042
▁something	-6.32308
▁stop	-6.32811
▁really	-6.33164
▁keep	-6.33242
▁two	-6.33358
▁need	-6.34311
▁sure	-6.37176
▁much	-6.37675
▁chance	-6.38505
▁home	-6.4173
▁better	-6.41903
▁old	-6.44602
in	-6.4529
▁okay	-6.4722
▁long	-6.49476
▁sorry	-6.50928
▁people	-6.51243
▁youll	-6.51561
▁great	-6.51824
▁first	-6.51876
▁place	-6.52889
▁anything	-6.54782
▁night	-6.55437
▁shes	-6.55509
▁nothing	-6.55776
▁wont	-6.56431
▁even	-6.57233
▁life	-6.57425
▁uh	-6.57574
▁thing	-6.5904
▁around	-6.61556
▁lot	-6.63277
▁still	-6.64755
▁put	-6.65097
t	-6.65444
▁miss	-6.67292
▁aint	-6.67321
▁ever	-6.6743
▁stay	-6.68762
▁hear	-6.68943
▁world	-6.7008
a	-6.71268
▁leave	-6.71664
▁name	-6.71729
▁things	-6.72499
▁new	-6.76935
▁ah	-6.77319
▁everything	-6.77375
r	-6.78021
▁work	-6.78746
▁talk	-6.79462
▁every	-6.79827
▁may	-6.79872
▁men	-6.80007
▁always	-6.80381
▁course	-6.81662
▁coming	-6.8173
▁big	-6.82886
▁youve	-6.83385
▁run	-6.83696
▁maybe	-6.83834
▁last	-6.84305
▁enough	-6.84701
▁isnt	-6.85143
▁id	-6.85196
es	-6.86054
▁believe	-6.86934
▁girl	-6.87521
▁three	-6.89233
▁thought	-6.89727
▁mother	-6.90395
▁show	-6.90792
▁ta	-6.90913
▁huh	-6.91284
▁em	-6.91602
▁made	-6.92549
o	-6.94315
▁left	-6.94926
▁music	-6.95892
n	-6.96287
▁dear	-6.96638
▁hold	-6.97752
▁nice	-6.98038
▁ha	-6.98607
▁might	-6.98891
▁bad	-7.00226
▁weve	-7.01488
▁mind	-7.01565
▁kind	-7.02332
▁call	-7.02511
▁told	-7.03617
▁god	-7.04028
▁father	-7.04244
▁fine	-7.04676
▁live	-7.05068
▁friend	-7.05083
▁without	-7.0685
▁turn	-7.07093
▁done	-7.07409
▁guys	-7.07502
▁house	-7.07981
▁try	-7.0827
▁doesnt	-7.08516
▁hope	-7.0985
▁care	-7.10895
▁remember	-7.11358
▁understand	-7.11358
▁seen	-7.11369
al	-7.13305
▁prince	-7.13621
▁came	-7.1366
▁another	-7.1369
▁gone	-7.1401
▁king	-7.14173
▁feel	-7.15701
▁hurry	-7.16078
i	-7.16306
▁pretty	-7.16684
▁move	-7.16979
▁young	-7.17645
▁heard	-7.18418
▁play	-7.18431
▁hello	-7.18609
▁best	-7.19025
▁shadow	-7.19146
▁water	-7.19156
▁many	-7.19527
▁de	-7.19625
▁found	-7.20403
g	-7.20703
▁bang	-7.21044
▁ask	-7.22252
▁matter	-7.22303
▁morning	-7.22315
▁far	-7.22934
▁john	-7.23619
▁ready	-7.23724
▁heart	-7.24322
m	-7.24345
▁listen	-7.24366
▁next	-7.24917
▁uncle	-7.24921
▁true	-7.24926
▁years	-7.25575
▁george	-7.25579
▁today	-7.26246
▁whoa	-7.26925
▁word	-7.27015
l	-7.27196
▁chitty	-7.27593
▁wrong	-7.28273
▁everybody	-7.2896
▁son	-7.29587
st	-7.29733
▁days	-7.30296
▁yet	-7.30362
▁friends	-7.30899
▁hell	-7.30949
▁minute	-7.31256
▁ya	-7.31433
▁whole	-7.31748
▁watch	-7.31792
▁else	-7.32456
▁open	-7.32678
▁wanted	-7.32946
▁wouldnt	-7.33232
▁mine	-7.33401
▁eat	-7.33864
▁shall	-7.33883
▁worry	-7.33888
▁dog	-7.34186
▁along	-7.34605
▁sun	-7.34675
▁head	-7.35853
▁laughing	-7.36234
k	-7.36679
or	-7.36695
▁dead	-7.38317
▁sassy	-7.38326
▁town	-7.38327
▁hand	-7.38488
▁happened	-7.38675
▁soon	-7.38878
▁havent	-7.39075
▁fire	-7.39101
▁room	-7.39104
▁boys	-7.39199
▁idea	-7.39762
▁cat	-7.39765
▁whos	-7.40124
▁children	-7.4061
▁land	-7.41067
▁job	-7.41106
▁bring	-7.41272
▁someone	-7.41382
p	-7.42392
▁river	-7.42706
▁beautiful	-7.43745
▁goodbye	-7.43745
▁everyone	-7.43757
▁start	-7.44015
▁part	-7.44339
▁stand	-7.44518
▁nobody	-7.44545
▁knew	-7.44545
▁use	-7.44996
▁war	-7.45017
b	-7.45792
▁waiting	-7.45936
▁end	-7.46472
▁captain	-7.46986
▁city	-7.47004
▁real	-7.47331
▁la	-7.47425
h	-7.47429
▁face	-7.47482
▁bit	-7.47646
▁die	-7.48467
▁trouble	-7.48529
▁sea	-7.48597
▁lord	-7.48638
▁tomorrow	-7.48643
▁door	-7.48666
▁kid	-7.49406
▁wasnt	-7.49484
▁pig	-7.49652
▁jamie	-7.50337
▁re	-7.51306
ion	-7.51637
▁animals	-7.52261
c	-7.52558
▁together	-7.52918
▁lost	-7.52964
▁car	-7.5327
▁talking	-7.53423
▁money	-7.53796
▁professor	-7.53796
▁feet	-7.53803
▁getting	-7.54171
▁hard	-7.54266
▁thanks	-7.54806
▁un	-7.55513
▁family	-7.55573
▁eyes	-7.55622
▁cause	-7.55753
▁wan	-7.56203
ar	-7.56319
est	-7.5643
▁poor	-7.56489
▁guess	-7.56821
▁dance	-7.57119
▁happy	-7.57383
▁wish	-7.57386
▁couldnt	-7.57464
▁rest	-7.58032
▁alone	-7.58302
▁took	-7.58303
▁earth	-7.58305
▁trying	-7.5846
▁general	-7.59226
▁papa	-7.59226
▁saw	-7.59231
▁set	-7.59273
▁mrs	-7.59659
▁gold	-7.60071
▁aye	-7.60189
▁meet	-7.60471
▁wheres	-7.60652
▁afraid	-7.61104
▁went	-7.61111
▁light	-7.6115
▁kill	-7.61827
▁dream	-7.6203
▁forget	-7.62062
▁youd	-7.63018
▁side	-7.6335
▁high	-7.63751
▁four	-7.63966
▁already	-7.63989
▁looking	-7.64243
▁c	-7.64725
▁mama	-7.64971
▁ahead	-7.64979
▁wonderful	-7.65012
▁song	-7.65422
f	-7.65762
▁hi	-7.65782
▁till	-7.6597
▁lady	-7.6603
▁used	-7.66114
▁since	-7.66929
▁excuse	-7.66959
▁close	-7.67538
▁hmm	-7.67987
▁madam	-7.68764
▁woman	-7.68992
en	-7.69001
▁fun	-7.69005
▁easy	-7.69006
▁sit	-7.69132
ers	-7.69472
▁theyll	-7.70021
▁free	-7.70125
▁fight	-7.70349
▁a	-7.70751
▁late	-7.70828
▁chatters	-7.71247
▁looks	-7.71259
▁food	-7.72117
▁ago	-7.72125
▁full	-7.72249
▁plan	-7.73105
▁business	-7.73179
▁doctor	-7.7318
▁brer	-7.73204
▁magic	-7.73289
▁fly	-7.73372
▁s	-7.74171
▁cut	-7.74203
▁baby	-7.7426
▁daddy	-7.74263
▁ho	-7.74461
▁sing	-7.74781
▁happen	-7.74826
▁called	-7.75316
ic	-7.75382
▁quite	-7.75407
▁sweet	-7.76004
▁horse	-7.76037
▁hit	-7.76668
▁change	-7.76798
an	-7.76906
▁walk	-7.7707
▁master	-7.77134
▁glad	-7.77551
w	-7.78425
▁ice	-7.7867
▁brought	-7.78675
▁joe	-7.78708
▁hot	-7.78956
▁clear	-7.80155
▁pick	-7.80425
▁promise	-7.80645
▁says	-7.80649
▁arent	-7.8096
▁somebody	-7.8096
▁nemo	-7.80965
▁kiss	-7.8145
u	-7.81944
▁future	-7.82123
▁welcome	-7.82123
▁sarah	-7.82174
▁airport	-7.8305
▁send	-7.83304
▁catch	-7.83342
▁air	-7.83346
▁dad	-7.8428
▁guy	-7.84334
able	-7.84475
▁follow	-7.84489
▁anyone	-7.8449
▁tonight	-7.8449
▁ow	-7.84671
▁behind	-7.85695
▁ok	-7.85799
▁least	-7.86915
▁dat	-7.88282
▁seems	-7.88674
▁rock	-7.89111
▁fast	-7.89215
▁sheriff	-7.89399
▁gentlemen	-7.894
▁castle	-7.89404
▁mom	-7.8942
▁fish	-7.8947
▁wed	-7.89504
▁hurt	-7.89851
▁goin	-7.90321
▁means	-7.90366
▁fair	-7.90399
▁sara	-7.90611
▁luther	-7.90665
▁sort	-7.90693
▁hate	-7.91225
▁sleep	-7.91281
▁girls	-7.91564
▁cinderella	-7.91947
▁speak	-7.9206
▁party	-7.92376
▁ride	-7.92518
▁pip	-7.92638
▁knows	-7.92747
▁save	-7.92943
▁though	-7.93137
▁daughter	-7.9322
▁perhaps	-7.93246
▁inside	-7.93251
▁taking	-7.93252
▁year	-7.93283
▁sound	-7.93329
re	-7.9341
▁safe	-7.9429
▁exactly	-7.94561
▁gave	-7.94565
▁crazy	-7.94567
▁country	-7.94572
▁learn	-7.94678
▁peter	-7.94711
on	-7.95085
ve	-7.95848
▁moment	-7.95923
▁lovely	-7.96069
▁drink	-7.96567
▁important	-7.97246
▁short	-7.97249
▁hands	-7.97839
▁anyway	-7.98616
▁wilbur	-7.98616
▁wife	-7.98624
▁wow	-7.98627
▁st	-7.98664
▁six	-7.99088
▁wind	-7.99095
▁makes	-7.998
▁probably	-8.00005
▁shine	-8.00016
▁hair	-8.0002
▁sent	-8.00031
▁wonder	-8.00103
▁voice	-8.00147
▁break	-8.00765
▁answer	-8.00853
▁pay	-8.00854
▁smell	-8.00902
▁chisum	-8.01413
▁ooh	-8.01416
▁five	-8.015
▁grunts	-8.01587
▁train	-8.02206
▁trust	-8.02293
▁goes	-8.02417
▁mark	-8.02829
▁saying	-8.02839
▁almost	-8.02842
▁ladies	-8.02851
▁billy	-8.02878
▁screaming	-8.0302
▁read	-8.03386
▁fall	-8.03872
▁stupid	-8.04264
▁later	-8.04487
▁fact	-8.04576
▁words	-8.05547
▁actually	-8.05783
▁army	-8.05853
▁gasps	-8.05903
▁boat	-8.06067
▁lm	-8.06163
▁rosie	-8.07255
▁chanticleer	-8.07257
▁thou	-8.07263
▁alive	-8.07266
▁princess	-8.0743
ment	-8.076
▁second	-8.0764
▁horses	-8.07814
▁sign	-8.08152
▁minutes	-8.08307
▁delilah	-8.08769
▁white	-8.08771
▁buy	-8.08809
▁truth	-8.09137
▁question	-8.09211
▁bed	-8.09544
▁killed	-8.09603
▁hang	-8.09613
▁point	-8.09661
▁secret	-8.10295
▁special	-8.10308
▁also	-8.10309
▁scared	-8.10478
▁fool	-8.10629
▁attack	-8.10659
▁heres	-8.10672
▁flying	-8.11263
▁stuff	-8.11312
▁perfect	-8.11579
▁b	-8.11627
▁machine	-8.11855
▁child	-8.11868
▁colonel	-8.1187
▁forward	-8.11871
▁shut	-8.11879
▁lucky	-8.12135
▁band	-8.12816
▁lives	-8.13125
▁laughs	-8.13186
▁luck	-8.13193
▁death	-8.13458
▁bye	-8.13459
▁da	-8.13797
▁comes	-8.13857
▁pull	-8.13859
▁win	-8.14523
▁damn	-8.14561
▁in	-8.14821
▁red	-8.15072
▁wants	-8.15081
▁wake	-8.15093
it	-8.1518
▁folks	-8.15225
▁dreams	-8.16248
▁quiet	-8.16471
▁t	-8.16494
▁remus	-8.1671
▁shell	-8.16739
▁top	-8.1679
▁shot	-8.16814
▁mary	-8.16862
▁sometimes	-8.16911
▁yo	-8.17272
▁reason	-8.17323
▁human	-8.17426
ies	-8.17506
▁working	-8.17647
▁singing	-8.17722
us	-8.17981
▁georgie	-8.18377
▁lewis	-8.18377
▁small	-8.18377
▁moving	-8.1839
▁lose	-8.18411
▁charles	-8.18516
▁thinking	-8.1893
▁number	-8.19001
▁step	-8.19051
▁problem	-8.19073
▁game	-8.19105
▁feeling	-8.19163
▁bear	-8.19507
▁fix	-8.19542
▁strange	-8.19822
▁anywhere	-8.20072
▁school	-8.20072
▁anybody	-8.20072
▁story	-8.20075
▁half	-8.20088
▁dr	-8.20781
▁message	-8.20809
ll	-8.20926
▁line	-8.21132
▁asked	-8.21461
▁lead	-8.2153
▁times	-8.21632
▁rat	-8.21713
▁met	-8.21736
▁calm	-8.21796
▁terrible	-8.21797
▁foot	-8.21814
▁ball	-8.21885
▁barking	-8.21919
▁kids	-8.21958
▁quickly	-8.2199
▁supposed	-8.22062
▁expect	-8.22328
ch	-8.2241
th	-8.22537
▁straight	-8.2326
▁throw	-8.23456
▁drive	-8.23456
▁rainbow	-8.2355
▁theyve	-8.2355
▁fault	-8.23553
▁rabbit	-8.23554
▁funny	-8.23563
▁ten	-8.23606
▁star	-8.24164
▁miles	-8.242
▁tree	-8.24497
▁check	-8.24781
▁count	-8.24845
▁reach	-8.24845
▁travel	-8.25292
▁caleb	-8.25336
▁north	-8.25336
▁pardon	-8.25336
▁honey	-8.25336
▁majesty	-8.25343
▁radio	-8.25352
le	-8.25656
te	-8.25698
▁g	-8.257
ting	-8.2707
▁truly	-8.27182
▁control	-8.27209
less	-8.27227
▁none	-8.27234
▁bet	-8.27491
ation	-8.2887
▁blue	-8.29004
▁front	-8.29005
▁itll	-8.29006
▁dinner	-8.29008
▁leaving	-8.29014
▁anna	-8.29027
▁seem	-8.29051
▁certainly	-8.29147
▁thy	-8.29255
▁grow	-8.29317
▁bird	-8.29939
ive	-8.30421
▁couple	-8.30893
▁kingdom	-8.30893
▁christmas	-8.30893
▁koki	-8.30893
▁different	-8.30897
▁hide	-8.3095
▁playing	-8.30991
▁return	-8.31471
▁present	-8.32067
▁ran	-8.32165
ce	-8.32369
x	-8.32535
ity	-8.32809
▁sergeant	-8.32816
▁davy	-8.32816
▁sky	-8.32816
▁steady	-8.32834
▁carry	-8.32848
▁making	-8.32856
▁orders	-8.3341
▁blow	-8.33426
▁deal	-8.34338
▁near	-8.34582
ous	-8.34667
▁company	-8.34776
▁royal	-8.34777
▁mistake	-8.34777
▁black	-8.34779
▁sanada	-8.34782
▁rather	-8.34783
▁born	-8.34803
▁brave	-8.34804
▁hill	-8.34834
▁low	-8.34895
ie	-8.35005
▁di	-8.35143
ful	-8.35176
▁law	-8.35269
▁order	-8.35632
▁th	-8.35752
▁murder	-8.35772
▁humans	-8.35913
▁hat	-8.36002
▁rain	-8.36036
▁started	-8.36081
▁fellow	-8.36119
▁heaven	-8.36136
ant	-8.3615
▁rose	-8.36163
▁week	-8.36176
▁no	-8.36277
▁join	-8.3629
▁quick	-8.36555
▁fell	-8.36644
▁south	-8.36773
▁either	-8.36776
▁jacob	-8.36776
▁whatever	-8.36776
▁write	-8.36776
▁silly	-8.36779
▁cold	-8.36788
▁married	-8.36792
▁cool	-8.3681
▁thee	-8.36821
um	-8.37644
▁o	-8.37749
▁dogs	-8.37975
▁explain	-8.38099
▁suppose	-8.38503
▁w	-8.38583
▁dark	-8.38814
▁edmond	-8.38817
▁maam	-8.38817
▁tight	-8.38817
▁ground	-8.38818
▁running	-8.38852
▁act	-8.38857
▁con	-8.38887
▁mission	-8.39122
ty	-8.39771
ur	-8.39778
▁telling	-8.4013
▁fear	-8.40367
▁animal	-8.40385
▁become	-8.40901
▁smart	-8.40901
▁somewhere	-8.40901
▁riley	-8.40901
▁drop	-8.40905
▁wild	-8.40926
▁exclaims	-8.41159
▁e	-8.4116
▁be	-8.41183
▁beat	-8.41972
▁stick	-8.42028
▁touch	-8.42341
▁destroy	-8.42438
▁power	-8.42455
▁brother	-8.42539
▁ship	-8.42728
▁evening	-8.42918
▁anymore	-8.43028
▁henry	-8.4303
▁caught	-8.43031
▁sense	-8.43033
▁tea	-8.43037
▁upon	-8.43039
▁kim	-8.43044
▁jack	-8.43065
up	-8.43078
▁moon	-8.4309
▁pole	-8.43367
▁clean	-8.43445
il	-8.43623
▁able	-8.43729
▁p	-8.43899
▁known	-8.44016
▁pass	-8.44219
ness	-8.44426
▁escape	-8.44873
▁sad	-8.4498
▁shh	-8.45028
▁turned	-8.45067
▁jump	-8.45198
▁across	-8.45202
▁enemy	-8.45202
▁others	-8.45202
▁spring	-8.45202
▁lay	-8.4525
▁finally	-8.45324
▁cats	-8.46089
▁months	-8.47205
▁mmm	-8.47365
▁rooster	-8.47424
▁thomas	-8.47424
▁road	-8.47426
▁women	-8.47426
▁outside	-8.4743
▁bridge	-8.47437
▁johnny	-8.47448
▁arrived	-8.47553
▁salt	-8.47572
▁dis	-8.48122
▁f	-8.48196
age	-8.48281
▁garden	-8.48899
ter	-8.4917
▁figure	-8.49373
▁protect	-8.49644
▁se	-8.49678
▁trip	-8.49689
▁sodom	-8.49693
▁shouldnt	-8.49697
▁shani	-8.49697
▁kitty	-8.497
▁marry	-8.49708
▁van	-8.49742
▁eh	-8.49759
▁sell	-8.49816
▁mayor	-8.50206
et	-8.50471
▁d	-8.50539
▁push	-8.50796
▁slow	-8.50875
▁um	-8.51453
▁island	-8.51653
▁husband	-8.51666
▁deep	-8.5179
▁neither	-8.52023
▁mike	-8.52023
▁gaia	-8.52026
▁battle	-8.52028
▁romeo	-8.52033
▁bike	-8.52036
▁green	-8.52045
▁round	-8.52063
▁sight	-8.52086
▁grunting	-8.52095
▁tom	-8.52097
▁sighs	-8.5225
▁faster	-8.52403
▁longer	-8.53554
at	-8.53594
▁ii	-8.53652
▁dare	-8.5367
▁field	-8.5395
▁tail	-8.54071
▁surprise	-8.54083
▁fox	-8.54122
▁sho	-8.54255
▁hour	-8.54287
▁peace	-8.5438
▁matthew	-8.54404
▁conrad	-8.54404
▁clothes	-8.54419
▁soul	-8.54421
▁boss	-8.54443
▁tried	-8.54479
▁knock	-8.54481
ck	-8.54495
▁sick	-8.54529
man	-8.54924
▁weeks	-8.55142
▁her	-8.55293
▁grab	-8.56207
▁trumpet	-8.56603
▁key	-8.56617
▁spirit	-8.56655
▁doc	-8.5679
▁lieutenant	-8.56843
▁pleasure	-8.56843
▁president	-8.56847
▁rhythm	-8.56848
▁outta	-8.56856
▁indeed	-8.56875
▁blood	-8.56876
▁form	-8.56968
▁eye	-8.57042
▁hours	-8.57068
▁dig	-8.57083
▁hed	-8.57233
▁awful	-8.57254
▁lots	-8.57357
▁pa	-8.57377
▁unit	-8.57985
▁cross	-8.58104
▁meant	-8.5819
▁farm	-8.58733
▁delight	-8.5881
▁mad	-8.58965
v	-8.59097
▁serious	-8.5911
▁teach	-8.59122
▁worse	-8.59343
▁hungry	-8.59347
▁bright	-8.59348
▁strong	-8.59357
▁body	-8.59391
▁birdie	-8.59559
▁looked	-8.5971
▁gun	-8.599
▁less	-8.5992
▁promised	-8.60037
▁pl	-8.60374
▁speaking	-8.60631
▁needs	-8.6073
▁ring	-8.61278
▁worth	-8.6164
▁park	-8.61696
▁careful	-8.61767
▁ought	-8.61782
▁ones	-8.61842
▁mountain	-8.6186
▁attention	-8.61907
▁swear	-8.61907
▁chef	-8.61907
▁loose	-8.61908
▁smith	-8.6191
▁swim	-8.61922
▁map	-8.61939
▁living	-8.6196
▁past	-8.6206
▁wall	-8.62078
▁aw	-8.62733
▁happens	-8.62948
▁dress	-8.63195
▁mo	-8.63366
▁bank	-8.63548
▁died	-8.63578
▁taken	-8.63626
▁honor	-8.63918
▁lts	-8.64283
▁charlotte	-8.64538
▁wickens	-8.6454
▁forever	-8.6454
▁hasnt	-8.6454
▁within	-8.64561
▁airplane	-8.64562
▁sister	-8.64569
▁haru	-8.64572
▁amazing	-8.6458
▁early	-8.64654
na	-8.65166
▁seal	-8.65289
▁news	-8.65342
▁realize	-8.65444
▁given	-8.65594
go	-8.65633
▁bother	-8.66536
▁bell	-8.67054
▁wear	-8.67059
▁visit	-8.67232
▁sounds	-8.67237
▁difference	-8.67241
▁possible	-8.67241
▁simmons	-8.67241
▁stuck	-8.67241
▁sudden	-8.67241
▁valley	-8.67241
▁weather	-8.67241
▁beauty	-8.67242
▁tough	-8.67245
▁queen	-8.6725
▁journey	-8.67257
▁albert	-8.67267
▁nose	-8.67276
▁idiot	-8.67287
▁piece	-8.67322
▁book	-8.6738
▁flower	-8.67383
▁chuckles	-8.67725
▁changed	-8.6802
as	-8.68901
ary	-8.69118
▁steal	-8.69339
▁search	-8.69339
▁build	-8.69354
▁cover	-8.69536
zo	-8.69569
ra	-8.69842
▁harbor	-8.70019
▁instead	-8.70019
▁murphy	-8.70019
▁werent	-8.70019
▁imagine	-8.70019
▁spend	-8.70019
▁darling	-8.70033
▁case	-8.70034
▁lucy	-8.7006
▁taste	-8.7006
▁absolutely	-8.70073
▁unless	-8.70101
▁picture	-8.70143
▁chicken	-8.7015
▁hundred	-8.70195
▁trees	-8.71344
▁fighting	-8.71811
▁flip	-8.72315
▁offer	-8.72375
▁nothin	-8.72802
▁contact	-8.72876
▁excellent	-8.72876
▁whether	-8.72876
▁respect	-8.72876
▁thousand	-8.72877
▁nuys	-8.72878
▁seven	-8.72878
▁out	-8.72879
▁built	-8.72882
▁dangerous	-8.72899
▁patch	-8.72901
▁tired	-8.72905
▁shake	-8.72907
▁path	-8.72976
▁group	-8.7302
▁toy	-8.73021
▁bella	-8.73068
▁street	-8.73109
▁month	-8.73165
▁age	-8.73382
▁ed	-8.73466
ance	-8.73876
▁fat	-8.74208
ia	-8.74931
▁roll	-8.75234
▁lock	-8.75431
▁certain	-8.75609
▁jes	-8.75642
▁person	-8.75732
▁nightmare	-8.75817
▁beast	-8.75817
▁proud	-8.75817
▁aleu	-8.75818
▁tib	-8.75831
▁comin	-8.75842
rs	-8.75872
▁camp	-8.75888
▁cup	-8.75897
▁force	-8.76161
▁finished	-8.76162
to	-8.76327
▁hebrews	-8.76426
▁herd	-8.76492
▁cow	-8.76965
▁ol	-8.77503
▁happening	-8.7763
lo	-8.77638
▁lt	-8.77701
▁le	-8.77728
▁success	-8.78281
▁agree	-8.78525
▁paul	-8.78568
▁pray	-8.78579
utti	-8.78643
▁clouseau	-8.78848
▁odette	-8.78848
▁simple	-8.78848
▁thunder	-8.78848
▁grandpa	-8.78848
▁alec	-8.78848
▁grand	-8.78848
▁fresh	-8.78849
▁jomo	-8.7885
▁patou	-8.78851
▁bout	-8.78876
▁throat	-8.78886
▁leg	-8.7896
▁m	-8.79027
▁danger	-8.7923
▁belong	-8.79278
nt	-8.79488
▁lookin	-8.79536
▁worked	-8.79609
▁ne	-8.79634
ro	-8.80172
ta	-8.80383
▁v	-8.80735
▁laugh	-8.8111
sh	-8.81279
▁fr	-8.81637
▁prepare	-8.81692
▁mar	-8.81786
▁broke	-8.81876
▁capsule	-8.81973
▁coffee	-8.81973
▁heavy	-8.81973
▁science	-8.81973
▁treasure	-8.81973
▁universe	-8.81973
▁tower	-8.81973
▁blunden	-8.81974
▁piglet	-8.81985
▁bottom	-8.81991
▁evil	-8.82003
▁prove	-8.82003
▁share	-8.82013
▁tar	-8.82023
▁baron	-8.82037
▁takes	-8.82039
▁decided	-8.82129
▁gee	-8.82259
▁language	-8.82475
▁commander	-8.8248
▁letter	-8.82815
▁sweets	-8.83157
el	-8.83474
ling	-8.83504
▁rich	-8.83715
▁lived	-8.83835
▁works	-8.83883
ate	-8.83906
la	-8.83987
▁elephants	-8.84012
▁record	-8.84043
▁forest	-8.84719
ri	-8.84832
▁shoot	-8.84886
▁large	-8.85099
▁chief	-8.85198
▁murky	-8.85198
▁yesterday	-8.85198
▁duke	-8.85198
▁fink	-8.85198
▁mommy	-8.85199
▁desert	-8.85199
▁foreign	-8.852
▁village	-8.852
▁aircraft	-8.852
▁french	-8.85202
▁supper	-8.85203
▁james	-8.85235
▁mouth	-8.85239
▁judge	-8.85273
▁suit	-8.8528
▁sitting	-8.85294
▁interested	-8.85433
▁usual	-8.85452
▁cheering	-8.85456
▁lll	-8.8556
▁pigeon	-8.85819
▁lie	-8.85856
▁rule	-8.85939
▁fella	-8.86055
ry	-8.86273
ble	-8.86471
▁birds	-8.86649
▁creatures	-8.86675
da	-8.86742
▁states	-8.87308
▁hole	-8.87783
▁planes	-8.87826
▁command	-8.87982
▁pet	-8.88179
▁toot	-8.88519
▁afternoon	-8.88532
▁choice	-8.88532
▁isabelle	-8.88532
▁derek	-8.88532
▁hilili	-8.88534
▁hows	-8.88538
▁monkey	-8.88544
▁marian	-8.88549
▁size	-8.88555
▁sake	-8.8867
▁ringo	-8.88672
enty	-8.88821
▁crowd	-8.89018
▁spot	-8.89225
▁paper	-8.89261
▁airports	-8.89267
▁brothers	-8.89309
▁beg	-8.89352
▁al	-8.89466
▁slaves	-8.89701
▁nah	-8.89872
▁loved	-8.90572
▁bless	-8.90807
▁co	-8.90943
ff	-8.90973
▁los	-8.91008
▁pain	-8.9118
▁mess	-8.91301
▁accept	-8.91431
▁j	-8.916
▁storm	-8.91708
▁except	-8.91918
▁dumb	-8.9198
▁jeremy	-8.9198
▁kept	-8.9198
▁monsieur	-8.9198
▁oliver	-8.9198
▁service	-8.9198
▁area	-8.9198
▁monk	-8.91982
▁forgive	-8.91983
▁littlefoot	-8.92005
▁sh	-8.92008
▁hugo	-8.92019
▁witch	-8.92021
is	-8.92029
▁barn	-8.9203
▁single	-8.92077
▁double	-8.92122
▁table	-8.92179
▁crow	-8.92443
▁shed	-8.92588
▁cute	-8.92706
▁gift	-8.92768
▁ticket	-8.9284
▁art	-8.92886
▁cap	-8.92973
▁missed	-8.93423
▁picked	-8.9359
over	-8.93863
▁arms	-8.94171
▁uhhuh	-8.94611
▁fort	-8.9528
▁pink	-8.95325
▁aha	-8.95428
▁breath	-8.95447
▁court	-8.95544
▁forgot	-8.95546
▁delicious	-8.95551
▁grandfather	-8.95551
▁havisham	-8.95551
▁history	-8.95551
▁strength	-8.95551
▁japanese	-8.95551
▁english	-8.95552
▁zebra	-8.95553
▁growls	-8.95555
▁inspector	-8.95555
▁gentleman	-8.95562
▁noise	-8.95564
▁race	-8.95574
▁kidding	-8.95596
▁immediately	-8.95597
▁quit	-8.95597
▁winter	-8.95601
▁git	-8.95608
▁aah	-8.95611
▁engine	-8.95742
▁po	-8.9584
▁nearly	-8.95971
▁en	-8.9624
▁warm	-8.96338
▁saved	-8.96487
▁sword	-8.96498
▁color	-8.96525
▁officer	-8.96567
▁shoes	-8.96659
▁soldiers	-8.96993
▁gives	-8.97087
▁tor	-8.97409
▁loves	-8.97641
▁lads	-8.97795
▁savages	-8.97996
ah	-8.98862
▁raise	-8.98996
▁soft	-8.99025
▁flowers	-8.9912
▁bag	-8.99167
by	-8.99219
▁hans	-8.99226
▁estella	-8.99255
▁pocahontas	-8.99255
▁somehow	-8.99255
▁valiant	-8.99255
▁dramatic	-8.99257
▁marvelous	-8.99257
▁favorite	-8.99258
▁diamond	-8.99259
▁smile	-8.99262
▁laughter	-8.99281
▁everywhere	-8.99296
▁teeth	-8.99299
▁phone	-8.99304
▁lonely	-8.99311
▁uhoh	-8.99349
▁mister	-8.99365
▁broken	-8.99369
▁bigger	-8.99373
▁feed	-8.99731
▁fit	-9.00016
▁charge	-9.00357
▁ca	-9.00379
▁closed	-9.00444
ig	-9.00523
▁tale	-9.00591
▁wings	-9.00757
▁ding	-9.00933
▁plane	-9.01043
▁walking	-9.01525
ey	-9.02282
▁fellas	-9.02355
▁gets	-9.02483
▁pack	-9.02567
▁pro	-9.028
way	-9.02806
ine	-9.02807
▁honest	-9.02866
▁entire	-9.02867
▁thin	-9.02897
▁report	-9.02906
▁expedition	-9.03101
▁piano	-9.03101
▁sullivan	-9.03101
▁whoohoo	-9.03101
▁felt	-9.03101
▁police	-9.03101
▁monster	-9.03101
▁recognize	-9.03102
▁summer	-9.03103
▁potts	-9.03105
▁impossible	-9.03106
▁bunch	-9.03108
▁space	-9.03126
▁pat	-9.03178
▁dirty	-9.0318
▁doin	-9.03185
▁strike	-9.03185
▁highness	-9.0319
▁team	-9.0323
▁crown	-9.03231
▁worried	-9.03232
son	-9.03234
▁paris	-9.03308
▁leader	-9.03717
▁greatest	-9.03761
▁besides	-9.03905
▁lili	-9.04101
▁trick	-9.04298
▁savage	-9.04428
▁learned	-9.04666
▁singer	-9.0507
▁wid	-9.05329
▁rid	-9.05351
▁mi	-9.05371
▁continues	-9.05375
▁n	-9.05527
ng	-9.05841
▁treat	-9.05849
▁enjoy	-9.05857
▁questions	-9.05936
z	-9.06238
▁sail	-9.06365
ping	-9.06425
third	-9.06541
▁load	-9.06557
▁allow	-9.06575
▁cry	-9.06613
▁final	-9.06876
▁america	-9.07004
▁gal	-9.0701
▁audience	-9.07101
▁aviation	-9.07101
▁class	-9.07101
▁crockett	-9.07101
▁hyah	-9.07101
▁miracle	-9.07101
▁pepper	-9.07101
▁pocket	-9.07101
▁someday	-9.07101
▁support	-9.07101
▁milk	-9.07101
▁speed	-9.07102
▁fancy	-9.07105
▁giving	-9.07106
▁ordinary	-9.07107
▁distance	-9.07111
▁wagon	-9.07112
▁handsome	-9.07121
▁truck	-9.07123
▁position	-9.07125
▁direction	-9.07127
▁lunch	-9.07133
▁rope	-9.07146
▁hm	-9.07147
▁stage	-9.07166
▁wet	-9.07192
▁gasping	-9.07206
▁skin	-9.07221
ent	-9.07236
▁test	-9.07272
▁doris	-9.0738
▁shouting	-9.07387
▁interesting	-9.07471
▁lve	-9.07674
▁dry	-9.07872
▁gate	-9.08582
▁elephant	-9.08598
▁fur	-9.0863
▁state	-9.08682
▁notes	-9.08766
▁ted	-9.08879
▁stars	-9.0906
▁ch	-9.0966
▁east	-9.0985
▁fill	-9.10531
▁surely	-9.10545
▁climb	-9.10562
▁so	-9.10592
▁legs	-9.10669
came	-9.10901
▁glass	-9.11136
▁organ	-9.11216
▁angry	-9.11268
▁cheep	-9.11268
▁deserve	-9.11268
▁dolittle	-9.11268
▁francisco	-9.11268
▁humming	-9.11268
▁london	-9.11268
▁definitely	-9.11268
▁spider	-9.11268
▁scrumptious	-9.11268
▁film	-9.11268
▁admit	-9.11269
▁spread	-9.1127
▁guide	-9.11273
▁horrible	-9.11273
▁flight	-9.11277
▁william	-9.11277
▁nope	-9.11287
▁excited	-9.11289
▁enter	-9.11295
▁hotel	-9.11323
▁box	-9.11332
▁aunt	-9.1138
▁action	-9.11383
▁joy	-9.11385
▁bo	-9.11457
▁bath	-9.11474
▁pete	-9.11612
▁corner	-9.11679
▁arm	-9.11716
▁plays	-9.12
▁tune	-9.12163
▁bri	-9.12204
▁nine	-9.12433
▁runt	-9.1265
▁guard	-9.12828
▁mate	-9.12936
▁woods	-9.13634
eth	-9.13651
be	-9.13824
▁lo	-9.14205
land	-9.14209
▁west	-9.14467
ap	-9.14476
▁missing	-9.14622
ti	-9.14627
out	-9.15052
▁gather	-9.15055
▁nick	-9.15107
and	-9.15179
▁corn	-9.15205
▁loud	-9.15244
▁ex	-9.15386
▁books	-9.15498
▁gettin	-9.15556
▁nurse	-9.156
▁favor	-9.15612
▁defend	-9.15616
▁middle	-9.15616
▁snow	-9.15616
▁crew	-9.15616
▁stories	-9.15616
▁mouse	-9.15616
▁nerve	-9.15617
▁bremen	-9.15617
▁among	-9.15618
▁birthday	-9.15618
▁wolf	-9.1562
▁alright	-9.1562
▁square	-9.15621
▁beginning	-9.15621
▁cera	-9.15623
▁written	-9.15624
▁lena	-9.15674
▁movie	-9.15677
▁mu	-9.15708
▁stopped	-9.15727
▁lad	-9.15852
▁hiding	-9.1593
▁stranger	-9.16278
▁i	-9.16808
▁devil	-9.17315
▁joke	-9.17315
▁h	-9.17462
▁american	-9.17522
ne	-9.17713
▁handle	-9.17879
▁screams	-9.17883
▁draw	-9.18146
un	-9.18529
ver	-9.18682
head	-9.18799
▁continue	-9.19294
▁norm	-9.19298
▁starting	-9.19417
▁played	-9.19446
▁wha	-9.195
▁finish	-9.19637
▁pre	-9.19663
▁settle	-9.19788
▁watching	-9.19854
▁duck	-9.19882
▁waste	-9.19923
▁doubt	-9.19941
▁eight	-9.19953
▁beach	-9.20041
▁personal	-9.20058
▁burn	-9.20059
▁crysta	-9.20079
▁airplanes	-9.20119
▁flat	-9.20155
▁major	-9.20161
▁glory	-9.20161
▁mexico	-9.20161
▁ocean	-9.20161
▁sheep	-9.20161
▁thieves	-9.20161
▁unusual	-9.20161
▁empty	-9.20161
▁shinn	-9.20161
▁lupo	-9.20162
▁willie	-9.20162
▁saint	-9.20162
▁whoever	-9.20163
▁jail	-9.20168
▁muta	-9.20178
▁dying	-9.20181
▁famous	-9.20189
▁belt	-9.2019
▁aboard	-9.20192
▁mountains	-9.20245
▁busy	-9.2026
▁center	-9.20323
▁completely	-9.20357
▁sally	-9.20369
▁web	-9.2042
▁board	-9.20424
▁k	-9.20609
▁closer	-9.20688
▁sin	-9.20837
do	-9.2108
▁sooner	-9.21412
▁pin	-9.21555
ut	-9.21576
▁bob	-9.21608
▁raining	-9.21711
ier	-9.21729
▁brings	-9.21794
ally	-9.21919
▁bars	-9.22085
ious	-9.22418
▁sp	-9.22508
▁tall	-9.22534
▁slip	-9.22612
ma	-9.22876
▁reports	-9.23357
▁crows	-9.23718
▁wood	-9.23813
▁den	-9.23954
▁standing	-9.24048
▁seed	-9.24281
▁serve	-9.24733
▁cop	-9.24801
▁je	-9.2486
▁express	-9.24863
▁faith	-9.24892
▁smoke	-9.24916
▁spike	-9.24919
▁sharp	-9.24923
▁breakfast	-9.24923
▁brilliant	-9.24923
▁cream	-9.24923
▁especially	-9.24923
▁familiar	-9.24923
▁heggs	-9.24923
▁hooray	-9.24923
▁pearl	-9.24923
▁saizo	-9.24923
▁simply	-9.24923
▁spectra	-9.24923
▁territory	-9.24923
▁therefore	-9.24923
▁weird	-9.24923
▁zelda	-9.24923
▁fleet	-9.24923
▁jealous	-9.24923
▁boris	-9.24923
▁upset	-9.24923
▁jones	-9.24924
▁plain	-9.24924
▁whatd	-9.24924
▁target	-9.24926
▁balto	-9.24927
▁jake	-9.24929
▁harry	-9.2493
▁thatll	-9.24933
▁buddy	-9.24938
▁yup	-9.2494
▁dancing	-9.24947
▁mice	-9.24953
▁fern	-9.24957
▁cash	-9.2497
▁hilo	-9.25
▁wise	-9.25016
▁scare	-9.25031
▁shop	-9.25043
▁stone	-9.25067
▁asking	-9.25078
ted	-9.25085
▁pity	-9.25113
▁rise	-9.25128
▁parents	-9.25259
▁nava	-9.25314
im	-9.25423
▁seat	-9.25468
▁survive	-9.25519
▁rogers	-9.2566
▁com	-9.25785
▁ships	-9.26052
ev	-9.26099
▁calling	-9.26134
▁wearing	-9.26136
▁talked	-9.26174
▁thinkin	-9.2621
▁pleased	-9.26223
▁blame	-9.26233
▁bones	-9.2655
▁feather	-9.26743
dy	-9.26803
▁gu	-9.27109
▁station	-9.27167
▁spell	-9.27184
▁guest	-9.27227
ot	-9.27653
▁ye	-9.27679
▁where	-9.2768
▁introduce	-9.27794
led	-9.28068
op	-9.28183
▁worlds	-9.28279
▁pal	-9.2847
id	-9.28531
mon	-9.28919
▁cook	-9.29129
ber	-9.29176
▁disappear	-9.29333
▁eating	-9.29502
▁difficult	-9.29636
▁prison	-9.29676
▁needed	-9.29706
ul	-9.29732
▁livin	-9.29851
▁sisters	-9.29885
▁sub	-9.29887
▁mount	-9.29923
▁applause	-9.29923
▁bertie	-9.29923
▁channel	-9.29923
▁clever	-9.29923
▁daisuke	-9.29923
▁emergency	-9.29923
▁girlfriend	-9.29923
▁goetaborg	-9.29923
▁hannah	-9.29923
▁jenna	-9.29923
▁mermaid	-9.29923
▁midnight	-9.29923
▁petrie	-9.29923
▁relax	-9.29923
▁repeat	-9.29923
▁saknussem	-9.29923
▁satellite	-9.29923
▁tunstall	-9.29923
▁upstairs	-9.29923
▁nature	-9.29923
▁kibble	-9.29924
▁fievel	-9.29924
▁ridiculous	-9.29925
▁mercy	-9.29925
▁prize	-9.29925
▁taught	-9.29927
▁gang	-9.29928
▁information	-9.29932
▁floor	-9.29934
▁twice	-9.29934
▁prudy	-9.29941
▁nation	-9.29943
▁france	-9.2995
▁crash	-9.29974
▁yep	-9.29984
▁keyes	-9.30159
▁pie	-9.30295
▁mustnt	-9.30312
▁to	-9.30494
▁ahh	-9.30543
▁blessed	-9.30708
pe	-9.30921
▁shooting	-9.31001
▁dressed	-9.31007
▁can	-9.31248
▁ba	-9.31421
▁ear	-9.31556
▁attacked	-9.31678
▁scream	-9.31847
▁prefer	-9.32287
▁santa	-9.32347
▁breaking	-9.32369
▁remain	-9.32394
▁indian	-9.32433
▁pup	-9.32434
▁pipe	-9.32451
▁egg	-9.32477
▁ghost	-9.32485
▁lines	-9.32681
▁begin	-9.32687
▁names	-9.32967
▁crack	-9.33115
▁fl	-9.33185
ure	-9.3324
▁pol	-9.34182
▁magi	-9.34255
▁intend	-9.34597
▁sand	-9.34627
▁ot	-9.34836
▁hundreds	-9.3486
▁coward	-9.3497
▁office	-9.35054
▁somethin	-9.35065
▁stole	-9.35102
▁weak	-9.35163
▁broomstick	-9.35186
▁carriage	-9.35186
▁exciting	-9.35186
▁ieyasu	-9.35186
▁juliet	-9.35186
▁opinion	-9.35186
▁osaka	-9.35186
▁particular	-9.35186
▁polynesia	-9.35186
▁regret	-9.35186
▁sceptre	-9.35186
▁sunshine	-9.35186
▁unfortunate	-9.35186
▁flew	-9.35186
▁memory	-9.35186
▁price	-9.35187
▁africa	-9.35187
▁blind	-9.35187
▁subject	-9.35187
▁andrew	-9.35188
▁horn	-9.35188
▁project	-9.35188
▁harold	-9.35189
▁shame	-9.35189
▁avoid	-9.3519
▁cannon	-9.35191
▁view	-9.35192
▁property	-9.35196
▁antarctica	-9.35196
▁common	-9.35197
▁wherever	-9.35197
▁system	-9.35198
▁nowhere	-9.35199
▁duty	-9.35199
▁calf	-9.352
▁grave	-9.35206
▁filthy	-9.35209
▁zak	-9.35211
▁paid	-9.35212
▁invention	-9.35221
▁spain	-9.35227
▁trap	-9.35241
▁tv	-9.35251
▁harm	-9.35257
▁caw	-9.35264
▁spare	-9.35281
▁safety	-9.35283
▁claim	-9.35302
▁hut	-9.35382
▁chattering	-9.35427
▁planet	-9.35513
▁date	-9.35604
▁complete	-9.35703
▁christ	-9.35723
▁correct	-9.35745
▁tie	-9.35857
▁wine	-9.35953
ho	-9.36023
▁ahhh	-9.36253
▁spit	-9.36276
▁everythings	-9.36364
▁troops	-9.36454
▁per	-9.36641
▁accident	-9.36697
lin	-9.37066
▁talkin	-9.37205
▁tear	-9.37506
▁me	-9.37529
▁si	-9.37587
▁falling	-9.3768
▁fe	-9.37756
▁keeping	-9.37866
▁million	-9.37914
▁german	-9.37923
▁indians	-9.37962
▁track	-9.37965
▁servant	-9.3797
▁remind	-9.37971
▁ad	-9.38087
ac	-9.38277
▁wh	-9.38704
▁seek	-9.38837
▁fools	-9.39011
▁heh	-9.39022
▁meeting	-9.39074
time	-9.39114
▁whoo	-9.3913
▁seconds	-9.39302
▁patient	-9.39486
▁rush	-9.39563
▁named	-9.39721
▁breathe	-9.39825
▁places	-9.39871
▁landing	-9.39927
▁talent	-9.40182
▁heading	-9.40206
▁exist	-9.40208
▁lies	-9.40381
▁gods	-9.404
▁store	-9.40429
▁mix	-9.40531
▁tu	-9.40572
▁main	-9.40662
▁asleep	-9.40742
▁blanket	-9.40742
▁bound	-9.40742
▁cheese	-9.40742
▁college	-9.40742
▁farewell	-9.40742
▁fathoms	-9.40742
▁guilty	-9.40742
▁liszt	-9.40742
▁pleasant	-9.40742
▁reynardo	-9.40742
▁separate	-9.40742
▁shouldve	-9.40742
▁silence	-9.40742
▁snail	-9.40742
▁speech	-9.40742
▁winthrop	-9.40742
▁alex	-9.40742
▁emperor	-9.40742
▁radar	-9.40742
▁groans	-9.40742
▁onto	-9.40742
▁humble	-9.40743
▁british	-9.40743
▁maggie	-9.40743
▁navy	-9.40744
▁partner	-9.40746
▁delta	-9.40748
▁helping	-9.40748
▁bread	-9.4075
▁witness	-9.40751
▁trapped	-9.40751
▁match	-9.40753
▁colin	-9.40757
▁instrumental	-9.40759
▁block	-9.40772
▁apple	-9.40775
▁coach	-9.40776
▁shape	-9.40799
▁listening	-9.40805
▁rude	-9.4081
▁flies	-9.40829
ard	-9.40833
▁dust	-9.40843
▁thirsty	-9.4087
▁camera	-9.4091
▁sincere	-9.4095
▁howdy	-9.40967
▁row	-9.40995
▁golden	-9.41018
▁signal	-9.41051
▁swing	-9.41064
▁hall	-9.41144
▁fa	-9.41242
▁post	-9.41285
▁hunting	-9.4132
▁due	-9.41376
▁bigge	-9.4146
▁allowed	-9.4149
▁filled	-9.41494
▁ends	-9.41699
▁fairy	-9.41963
▁seemed	-9.42398
▁marc	-9.42774
▁expecting	-9.42941
bo	-9.42951
ical	-9.43672
▁ghosts	-9.43679
▁sleeping	-9.43756
▁feathers	-9.43856
▁creature	-9.43952
ow	-9.44128
▁camel	-9.44567
▁older	-9.44747
▁ohh	-9.45165
ian	-9.45244
▁calls	-9.45759
▁belongs	-9.45781
ack	-9.45821
▁pen	-9.45979
lf	-9.45988
▁fail	-9.46094
▁extra	-9.46325
▁regular	-9.4638
▁ru	-9.46388
fe	-9.46403
ge	-9.46549
▁pump	-9.46622
▁behave	-9.46624
▁chocolate	-9.46624
▁courage	-9.46624
▁freedom	-9.46624
▁government	-9.46624
▁knight	-9.46624
▁kocoum	-9.46624
▁langdon	-9.46624
▁mccartney	-9.46624
▁sasuke	-9.46624
▁shipoopi	-9.46624
▁vaslov	-9.46624
▁weaver	-9.46624
▁whistling	-9.46624
▁wrote	-9.46624
▁situation	-9.46624
▁whew	-9.46624
▁dawn	-9.46624
▁worst	-9.46624
▁firing	-9.46625
▁theyd	-9.46625
▁fabulous	-9.46625
▁alert	-9.46625
▁practice	-9.46626
▁roof	-9.46628
▁pride	-9.46628
▁willing	-9.46628
▁consider	-9.46632
▁pressure	-9.46632
▁garage	-9.46643
▁dropped	-9.46643
▁incredible	-9.46658
▁adventure	-9.46659
▁grass	-9.46667
▁type	-9.46684
▁according	-9.46686
ok	-9.4669
▁director	-9.46691
▁bugsy	-9.46699
▁began	-9.46701
▁under	-9.46715
▁saving	-9.46726
▁walls	-9.46748
▁pure	-9.46761
▁indiana	-9.46778
▁lying	-9.46824
▁lem	-9.46897
▁grown	-9.46913
▁personally	-9.46946
ache	-9.46951
ish	-9.47021
▁sum	-9.47021
oh	-9.47148
▁rocks	-9.47215
▁fo	-9.47303
▁dats	-9.47357
▁lips	-9.47389
▁surprised	-9.47436
▁receive	-9.47477
▁log	-9.47501
▁san	-9.47578
▁crying	-9.4763
▁chase	-9.47688
▁goodness	-9.47826
▁gar	-9.47898
▁roses	-9.48568
ee	-9.48727
ile	-9.48837
ung	-9.4892
▁port	-9.49079
▁warn	-9.49087
▁dey	-9.49323
▁mothers	-9.49567
▁lamp	-9.49862
▁clan	-9.50016
▁jehovah	-9.50018
▁dreamed	-9.50023
▁following	-9.50054
▁experience	-9.50062
▁finger	-9.5014
ton	-9.50155
▁whistle	-9.50157
▁prisoner	-9.50331
▁ra	-9.50332
nd	-9.50404
▁hoo	-9.50675
▁ways	-9.50703
▁landed	-9.50853
▁tricks	-9.509
▁non	-9.51148
▁tent	-9.51227
▁mutt	-9.51325
▁staying	-9.51326
ual	-9.51465
▁fathers	-9.5155
▁r	-9.51562
se	-9.51606
▁dam	-9.51727
no	-9.51951
ral	-9.51977
cat	-9.52003
ley	-9.52086
▁forces	-9.52158
▁deliver	-9.52285
▁faint	-9.52295
ore	-9.52329
▁bum	-9.52433
▁dee	-9.52446
▁wash	-9.52515
▁release	-9.52528
▁decide	-9.52561
ically	-9.52607
▁arrive	-9.52632
▁woo	-9.52645
ui	-9.5267
▁spoke	-9.52774
▁awake	-9.52776
▁gentle	-9.52847
▁li	-9.52872
▁contest	-9.52874
▁apart	-9.52874
▁bamboo	-9.52874
▁bonney	-9.52874
▁champion	-9.52874
▁conversation	-9.52874
▁drunk	-9.52874
▁grub	-9.52874
▁houston	-9.52874
▁jazamapajama	-9.52874
▁kitchen	-9.52874
▁mcmurdo	-9.52874
▁mysterious	-9.52874
▁ouessant	-9.52874
▁permission	-9.52874
▁picnic	-9.52874
▁possibly	-9.52874
▁private	-9.52874
▁raven	-9.52874
▁stanislav	-9.52874
▁stomach	-9.52874
▁thief	-9.52874
▁typical	-9.52874
▁depth	-9.52874
▁viking	-9.52874
▁choose	-9.52874
▁risk	-9.52875
▁ugly	-9.52875
▁australia	-9.52875
▁weekend	-9.52875
▁easily	-9.52875
▁fantastic	-9.52877
▁spanish	-9.52877
▁solid	-9.52877
▁thick	-9.52878
▁local	-9.5288
▁clint	-9.5288
▁coosh	-9.52883
▁japan	-9.52884
▁ridge	-9.52887
▁hush	-9.52891
▁fuck	-9.52892
▁edge	-9.52895
▁club	-9.52898
▁reward	-9.52899
▁often	-9.52899
▁inter	-9.52904
▁mick	-9.52906
▁inca	-9.52906
▁sunday	-9.52924
▁robbery	-9.52936
▁aim	-9.52939
▁growling	-9.52965
▁tony	-9.52979
▁huge	-9.53001
▁goldie	-9.53042
down	-9.53068
▁goose	-9.53088
▁bend	-9.53107
▁boom	-9.53108
▁panting	-9.53215
▁hero	-9.53228
▁ducky	-9.53252
mo	-9.53272
▁mud	-9.53327
▁hoping	-9.53379
▁instruments	-9.53501
▁doll	-9.53653
▁wa	-9.53828
▁lover	-9.53841
▁ma	-9.53942
▁fan	-9.54019
▁locked	-9.54036
▁ln	-9.54042
▁loser	-9.54069
▁bar	-9.54194
rt	-9.543
▁lately	-9.54308
▁building	-9.54427
▁destroyed	-9.54491
men	-9.54528
▁starts	-9.54589
▁over	-9.546
▁base	-9.54631
▁dancer	-9.54834
ashcan	-9.54854
▁towards	-9.54937
▁heavens	-9.54968
▁holding	-9.5497
▁bon	-9.55073
▁blows	-9.55151
▁buzz	-9.55315
▁bow	-9.55395
▁helped	-9.55436
▁dar	-9.55608
rudy	-9.55898
▁training	-9.55929
▁paying	-9.55993
j	-9.56006
ding	-9.56102
nny	-9.56141
▁eggs	-9.56207
ise	-9.56296
▁heads	-9.56382
▁leaves	-9.56422
▁brake	-9.56691
▁female	-9.56719
▁pound	-9.5681
▁drum	-9.56868
▁season	-9.56871
▁soldier	-9.56872
ay	-9.57136
▁songs	-9.5717
▁brain	-9.57191
co	-9.57199
▁note	-9.57221
▁pop	-9.57366
▁killing	-9.57487
▁lights	-9.57825
▁hunt	-9.58162
▁bl	-9.58384
side	-9.58432
▁smells	-9.58646
ze	-9.5867
▁tra	-9.58871
▁jess	-9.58954
board	-9.59103
▁sl	-9.59117
▁refuse	-9.59204
▁notice	-9.59217
red	-9.59223
▁howd	-9.59272
▁frank	-9.59311
▁create	-9.59346
▁slipper	-9.59355
per	-9.59416
▁wing	-9.59442
▁super	-9.59459
▁apologize	-9.59541
▁appreciate	-9.59541
▁bought	-9.59541
▁bravo	-9.59541
▁caractacus	-9.59541
▁caribou	-9.59541
▁congratulations	-9.59541
▁cuckoo	-9.59541
▁gertrude	-9.59541
▁governor	-9.59541
▁halliwell	-9.59541
▁however	-9.59541
▁lcarus	-9.59541
▁lindenbrook	-9.59541
▁mcsween	-9.59541
▁shoulder	-9.59541
▁snake	-9.59541
▁tongue	-9.59541
▁turkey	-9.59541
▁whenever	-9.59541
▁zipadeedoda	-9.59541
▁alarm	-9.59541
▁presence	-9.59541
▁gib	-9.59541
▁pool	-9.59541
▁iron	-9.59541
▁forbidden	-9.59541
▁iowa	-9.59541
▁purpose	-9.59542
▁tunnel	-9.59542
▁odd	-9.59544
▁tiger	-9.59544
▁opportunity	-9.59545
▁library	-9.59546
▁solene	-9.59546
▁staff	-9.59548
▁flag	-9.59548
▁lift	-9.59549
▁health	-9.59549
▁admiral	-9.59549
▁rds	-9.5955
▁magnificent	-9.59555
▁basket	-9.59555
▁molly	-9.59556
▁therell	-9.59556
▁public	-9.59561
▁grew	-9.59563
▁comfortable	-9.59567
▁clock	-9.59573
▁nasty	-9.5958
▁model	-9.5958
▁coast	-9.59581
▁alma	-9.59602
▁obviously	-9.59629
▁brite	-9.5963
▁press	-9.59639
ue	-9.5965
▁ahem	-9.59663
▁noon	-9.59667
▁batty	-9.59678
em	-9.5968
▁trade	-9.59693
▁hunger	-9.59704
▁wire	-9.59712
▁fu	-9.59721
▁wheel	-9.59726
▁mm	-9.59755
▁file	-9.59764
hhh	-9.5978
▁miley	-9.59813
▁bare	-9.59833
ft	-9.59879
▁guns	-9.59882
air	-9.59892
▁list	-9.5994
▁range	-9.59942
▁sal	-9.60012
▁giggles	-9.60021
▁pigs	-9.60087
our	-9.60244
▁warning	-9.6034
▁bull	-9.60371
▁inn	-9.604
▁owner	-9.60516
▁perfectly	-9.6056
▁rode	-9.60748
ern	-9.6075
▁engineer	-9.6086
▁clearly	-9.60938
oo	-9.6094
▁couldve	-9.60972
▁basic	-9.60976
▁lions	-9.60988
▁passed	-9.61243
▁hardly	-9.61356
▁ordered	-9.61383
▁fixed	-9.61724
▁plant	-9.6201
▁squeals	-9.6214
▁vo	-9.62367
ors	-9.62575
▁am	-9.62588
▁followed	-9.62652
▁fade	-9.62703
▁reading	-9.62784
▁gas	-9.62896
▁rats	-9.63188
▁assume	-9.63316
▁an	-9.63529
▁acorn	-9.63826
▁chap	-9.63877
▁cousin	-9.63906
▁mile	-9.63912
▁squeal	-9.63966
▁russian	-9.63974
▁pee	-9.64082
▁dreaming	-9.64474
▁wave	-9.64508
one	-9.64848
▁ob	-9.649
▁ham	-9.65063
▁seeing	-9.65222
line	-9.65231
▁holes	-9.65253
▁rules	-9.65285
▁ab	-9.65454
▁do	-9.65588
▁interest	-9.65596
▁owe	-9.65902
▁collect	-9.65903
▁squeak	-9.65942
▁suffer	-9.65975
▁approach	-9.66015
▁march	-9.6612
house	-9.66247
▁trail	-9.66293
▁boo	-9.66302
motion	-9.66345
▁rescue	-9.66357
▁complain	-9.66399
▁hearts	-9.66486
▁torpedo	-9.66561
▁church	-9.66677
▁cheap	-9.66684
▁croak	-9.66684
▁request	-9.66684
▁splendid	-9.66684
▁surrender	-9.66684
▁suspect	-9.66684
▁atahuallpa	-9.66684
▁beyond	-9.66684
▁blanky	-9.66684
▁concert	-9.66684
▁equipment	-9.66684
▁explosion	-9.66684
▁genius	-9.66684
▁hawaii	-9.66684
▁invasion	-9.66684
▁jabadu	-9.66684
▁paradise	-9.66684
▁regard	-9.66684
▁secure	-9.66684
▁starlite	-9.66684
▁throne	-9.66684
▁unique	-9.66684
▁yukimura	-9.66684
▁brown	-9.66684
▁credit	-9.66684
▁medlock	-9.66684
▁sugar	-9.66684
▁discuss	-9.66684
▁peepers	-9.66684
▁carried	-9.66684
▁fortune	-9.66684
▁zipadeeay	-9.66685
▁ginny	-9.66685
▁minister	-9.66685
▁interrupt	-9.66686
▁insist	-9.66686
▁bottle	-9.66687
▁disgusting	-9.66687
▁templeton	-9.66687
▁excitement	-9.66687
▁york	-9.66688
▁pizza	-9.66688
▁kirby	-9.66689
▁merry	-9.6669
▁robinson	-9.6669
▁ginger	-9.66694
▁kick	-9.66695
▁mmhmm	-9.66697
▁collar	-9.66697
▁remarkable	-9.667
▁department	-9.66704
▁broom	-9.66708
▁apparently	-9.6671
▁bride	-9.66721
▁maleb	-9.66728
▁lava	-9.66728
▁squat	-9.6673
▁neck	-9.66732
▁rare	-9.66739
▁meat	-9.66746
▁grateful	-9.66755
▁peterson	-9.66757
▁squad	-9.66762
▁mass	-9.66766
▁cake	-9.66784
▁page	-9.66786
▁saddle	-9.66801
▁yeller	-9.66802
▁stolen	-9.66818
▁daughters	-9.66829
▁sold	-9.66846
▁cost	-9.66937
▁invited	-9.66952
▁coughing	-9.6696
▁bust	-9.6696
▁nest	-9.66969
▁goob	-9.67007
▁charming	-9.67009
▁goodwin	-9.67022
▁dive	-9.67163
▁dean	-9.67203
iv	-9.67317
just	-9.67461
▁agreed	-9.67465
ily	-9.67532
▁burned	-9.67541
lida	-9.67597
les	-9.67634
▁onethird	-9.67721
▁boots	-9.67861
ca	-9.67973
▁up	-9.67989
▁stands	-9.68382
▁bowl	-9.68414
▁squawks	-9.68418
ible	-9.68427
▁he	-9.68507
▁bite	-9.68687
▁moo	-9.68697
ph	-9.68748
▁tryin	-9.68748
▁weapons	-9.68857
▁danbys	-9.68857
▁barks	-9.68871
▁y	-9.69219
▁er	-9.69287
▁stayed	-9.69724
▁drums	-9.69737
▁plans	-9.70055
ade	-9.70957
▁shoo	-9.71084
▁angel	-9.71519
▁turns	-9.71544
he	-9.71593
▁window	-9.71598
▁condition	-9.71635
▁depend	-9.71636
▁seeds	-9.71672
▁paw	-9.71757
▁slave	-9.71761
hi	-9.71782
▁sc	-9.71883
ka	-9.71913
▁opened	-9.72358
▁ohho	-9.72445
▁tickets	-9.72451
pp	-9.72509
ull	-9.72681
su	-9.72746
▁pigeons	-9.7288
▁lil	-9.72907
os	-9.73175
▁bringing	-9.73259
ther	-9.73467
▁mor	-9.73542
▁study	-9.73654
▁streets	-9.73743
▁reckon	-9.73803
▁concern	-9.73813
▁shove	-9.73831
▁heat	-9.73931
▁ruin	-9.74041
we	-9.74113
q	-9.74159
▁pieces	-9.74177
▁natural	-9.74184
▁sam	-9.74243
▁suggest	-9.74318
▁perform	-9.74359
▁boyfriend	-9.74376
▁coggins	-9.74376
▁confidence	-9.74376
▁corporal	-9.74376
▁council	-9.74376
▁escort	-9.74376
▁fourfendered	-9.74376
▁frozen	-9.74376
▁happiness	-9.74376
▁hideyori	-9.74376
▁iceberg	-9.74376
▁ildith	-9.74376
▁marriage	-9.74376
▁maximilian	-9.74376
▁mcafee	-9.74376
▁mistress	-9.74376
▁montana	-9.74376
▁nervous	-9.74376
▁niju	-9.74376
▁oclock	-9.74376
▁photograph	-9.74376
▁pirates	-9.74376
▁saemonnosuke	-9.74376
▁saturday	-9.74376
▁security	-9.74376
▁stubbins	-9.74376
▁terrific	-9.74376
▁changing	-9.74376
▁closing	-9.74376
▁holiday	-9.74376
▁milord	-9.74376
▁nonsense	-9.74376
▁obstacle	-9.74376
▁tokugawa	-9.74376
▁feast	-9.74376
▁ugh	-9.74376
▁tommy	-9.74376
▁krys	-9.74377
▁felix	-9.74377
▁jemima	-9.74377
▁sharptooth	-9.74377
▁arrest	-9.74377
▁tour	-9.74377
▁scene	-9.74377
▁imagination	-9.74378
▁librarian	-9.74378
▁precious	-9.74378
▁zone	-9.74378
▁chuckling	-9.7438
▁mask	-9.74381
▁demand	-9.74381
▁yellow	-9.74381
▁madison	-9.74381
▁becoming	-9.74383
▁orin	-9.74383
▁ollie	-9.74388
▁beef	-9.74389
▁ashes	-9.74391
▁chair	-9.74401
▁trom	-9.74411
▁cities	-9.74414
▁foolish	-9.74417
▁wilt	-9.74421
▁frontier	-9.74424
▁plate	-9.74424
▁twenty	-9.74429
▁victory	-9.74431
▁mocker	-9.74454
▁suh	-9.74457
▁worthless	-9.74459
▁ballet	-9.74475
▁arrow	-9.74487
▁havin	-9.74488
▁lake	-9.74494
▁totally	-9.74497
▁code	-9.74499
▁dash	-9.745
▁helamites	-9.74501
▁measure	-9.74565
lma	-9.74588
▁shore	-9.74599
▁babe	-9.74641
▁planned	-9.74664
▁gray	-9.7467
▁jet	-9.74674
▁rings	-9.74678
▁sailor	-9.74709
▁manners	-9.74718
▁palm	-9.7472
▁gotcha	-9.74722
▁noticed	-9.748
▁spy	-9.74893
ball	-9.74959
▁sonar	-9.74994
▁player	-9.75026
▁quarters	-9.75171
ts	-9.75174
▁paint	-9.75392
▁bump	-9.75485
▁county	-9.75597
▁degrees	-9.75606
▁uniforms	-9.75606
▁mis	-9.75612
kin	-9.75639
tic	-9.75724
tomi	-9.75754
▁fred	-9.75847
▁bullet	-9.7591
the	-9.75958
ped	-9.75965
▁higher	-9.76083
ell	-9.76151
▁harder	-9.76255
▁members	-9.7628
▁returned	-9.76627
▁reached	-9.76796
▁moos	-9.77031
▁brains	-9.77641
▁pounds	-9.77644
▁ump	-9.77836
▁whistles	-9.77868
▁wide	-9.77986
▁ate	-9.78176
ny	-9.7832
▁shows	-9.78338
▁au	-9.78531
omp	-9.78625
ide	-9.78662
▁moved	-9.78691
gu	-9.78742
ip	-9.78759
▁hay	-9.78789
▁cheer	-9.78969
int	-9.78996
rian	-9.79003
stly	-9.79096
ning	-9.79511
▁guards	-9.79541
▁tribe	-9.79921
▁toward	-9.80001
▁meal	-9.80008
▁frog	-9.80127
rank	-9.80129
▁spin	-9.80131
ten	-9.80227
▁hu	-9.80234
▁coat	-9.80282
▁bone	-9.80347
▁add	-9.8036
gy	-9.80373
▁hearing	-9.80682
cy	-9.80729
▁undo	-9.81137
five	-9.81151
▁bat	-9.8135
▁flood	-9.81464
▁fi	-9.81536
ign	-9.81702
mi	-9.81823
ist	-9.81869
▁winds	-9.81995
▁sneak	-9.82001
▁melt	-9.82005
▁invent	-9.82041
ship	-9.82112
▁design	-9.82155
▁suck	-9.82197
▁mention	-9.82198
port	-9.82242
▁ro	-9.82284
▁thre	-9.8231
▁direct	-9.82332
▁toast	-9.82502
▁hung	-9.8252
▁bells	-9.82535
▁india	-9.82643
▁fruit	-9.82663
▁account	-9.82709
▁bureau	-9.82709
▁cholena	-9.82709
▁circus	-9.82709
▁cockadoo	-9.82709
▁curious	-9.82709
▁drift	-9.82709
▁enthusiast	-9.82709
▁garbage	-9.82709
▁guarantee	-9.82709
▁irish	-9.82709
▁mcewen	-9.82709
▁morpheus	-9.82709
▁reservation	-9.82709
▁silent	-9.82709
▁slumberland	-9.82709
▁submarine	-9.82709
▁symbol	-9.82709
▁torture	-9.82709
▁volcano	-9.82709
▁whiskey	-9.82709
▁writing	-9.82709
▁flank	-9.82709
▁snipes	-9.82709
▁voyage	-9.82709
▁befo	-9.8271
▁humor	-9.8271
▁blast	-9.8271
▁praise	-9.8271
▁england	-9.82711
▁friday	-9.82711
▁virginia	-9.82712
▁easier	-9.82712
▁propose	-9.82713
▁community	-9.82715
▁sallie	-9.82715
▁quack	-9.82715
▁chanting	-9.82716
▁palace	-9.82717
▁vacation	-9.8272
▁extremely	-9.82721
▁punch	-9.82721
▁ohio	-9.82722
▁creation	-9.82722
▁fence	-9.82722
▁owls	-9.82723
▁innocent	-9.82727
▁military	-9.82728
▁spent	-9.8273
▁portia	-9.82732
yard	-9.82735
▁split	-9.82737
▁button	-9.82737
▁bold	-9.8274
▁juan	-9.8274
▁posh	-9.8275
▁gim	-9.82765
▁chosen	-9.82774
▁maid	-9.82778
▁doggy	-9.8278
▁weight	-9.82782
▁level	-9.82789
▁address	-9.8279
▁uhuh	-9.82794
▁friendship	-9.828
▁powerful	-9.8281
▁ouch	-9.82826
▁amen	-9.82829
▁angeles	-9.82838
▁jem	-9.82854
▁snarling	-9.82858
▁chain	-9.82865
▁july	-9.82873
▁cose	-9.82906
▁shy	-9.82912
▁matters	-9.8292
▁frightened	-9.82923
▁whimpering	-9.82976
▁stable	-9.82979
▁exclaiming	-9.82982
▁yall	-9.83068
▁tiny	-9.83076
▁manage	-9.83085
▁discovered	-9.83176
▁host	-9.83298
▁warriors	-9.8332
day	-9.83343
lly	-9.83351
▁pinky	-9.83368
▁putting	-9.83395
▁magical	-9.83397
ash	-9.83427
▁seriously	-9.83514
▁imp	-9.83578
▁tied	-9.83609
▁fields	-9.83718
▁digg	-9.83724
rous	-9.83782
▁sodomites	-9.83807
▁raised	-9.83818
▁prepared	-9.83913
▁figured	-9.83947
▁foe	-9.83978
▁begg	-9.84089
▁chill	-9.84093
▁enjoying	-9.84177
▁dollars	-9.84297
▁covered	-9.84391
▁for	-9.84442
▁yells	-9.84557
▁crossed	-9.84594
de	-9.84661
▁led	-9.8467
▁tis	-9.84723
▁lessons	-9.84787
▁scientists	-9.84787
▁meows	-9.84801
▁clouds	-9.85033
▁passing	-9.85444
ski	-9.85457
▁beating	-9.85495
▁tend	-9.85506
▁defeat	-9.85547
▁pot	-9.85591
▁fellows	-9.85623
▁conditions	-9.85775
▁angels	-9.85779
▁el	-9.85967
▁jesu	-9.86029
▁haha	-9.86099
▁bearing	-9.86225
▁pulling	-9.8643
▁friendly	-9.86504
▁fingers	-9.86523
▁hanging	-9.8658
▁vi	-9.86772
tain	-9.87034
▁begins	-9.87276
old	-9.87459
▁su	-9.87483
▁games	-9.87844
ens	-9.87917
mp	-9.88314
▁wound	-9.88426
▁ears	-9.88447
▁bark	-9.88477
▁event	-9.88532
▁tube	-9.88585
▁cha	-9.88703
▁wee	-9.88873
▁bomb	-9.88904
▁circle	-9.88947
▁crook	-9.88991
▁gunshot	-9.89036
▁weapon	-9.89074
▁danby	-9.89085
▁runway	-9.89206
▁hah	-9.89286
▁colors	-9.89296
▁papers	-9.89807
▁tol	-9.89991
▁du	-9.90044
▁languages	-9.9032
▁har	-9.90427
▁gra	-9.90683
▁bra	-9.90712
▁maw	-9.90843
▁plum	-9.90906
▁deed	-9.90936
▁switch	-9.91076
▁pour	-9.91174
▁pr	-9.91182
▁shout	-9.91211
▁limit	-9.91211
room	-9.91326
brain	-9.91394
aby	-9.91466
▁invite	-9.91477
▁worrie	-9.91483
▁slight	-9.91597
que	-9.91634
▁pu	-9.91702
▁makin	-9.91735
▁movin	-9.91737
▁object	-9.91737
▁rockadoodle	-9.918
▁cruel	-9.918
▁extend	-9.918
▁advice	-9.918
▁ancient	-9.918
▁attila	-9.918
▁beneath	-9.918
▁carnival	-9.918
▁charlie	-9.918
▁current	-9.918
▁emotional	-9.918
▁estimate	-9.918
▁headquarters	-9.918
▁icarus	-9.918
▁indistinct	-9.918
▁issue	-9.918
▁jacques	-9.918
▁justice	-9.918
▁leyasu	-9.918
▁lincoln	-9.918
▁maestro	-9.918
▁memories	-9.918
▁messenger	-9.918
▁newspaper	-9.918
▁precisely	-9.918
▁puddleby	-9.918
▁shuah	-9.918
▁sophie	-9.918
▁stretch	-9.918
▁terribly	-9.918
▁underwear	-9.918
▁violent	-9.918
▁wizard	-9.918
▁chew	-9.918
▁jerry	-9.918
▁longneck	-9.918
▁martha	-9.918
▁dawg	-9.918
▁attempt	-9.918
▁powder	-9.918
▁salesman	-9.91801
▁martin	-9.91801
▁magwitch	-9.91801
▁patience	-9.91801
▁tank	-9.91802
▁vineyard	-9.91803
▁rotten	-9.91804
▁rough	-9.91804
▁shift	-9.91804
▁shirt	-9.91804
▁monday	-9.91804
▁hidden	-9.91804
▁principle	-9.91805
▁yankee	-9.91805
▁washington	-9.91806
▁margot	-9.91807
▁rising	-9.91808
▁anger	-9.91808
▁retreat	-9.91808
▁attractive	-9.91809
▁baseball	-9.91809
hrer	-9.9181
▁louis	-9.91811
▁ashore	-9.91812
▁motor	-9.91813
▁aaah	-9.91817
▁abby	-9.91817
▁involved	-9.91818
▁factory	-9.91818
▁advantage	-9.91821
▁jungle	-9.91821
▁knife	-9.91821
▁moonlight	-9.91821
▁heck	-9.91826
▁slop	-9.91828
▁grapes	-9.9183
▁pair	-9.91834
▁snap	-9.91838
▁alike	-9.91839
▁winning	-9.91839
▁cellar	-9.9184
itles	-9.91842
gative	-9.91848
▁christian	-9.91858
▁inventor	-9.91873
▁exercise	-9.91875
▁obliged	-9.91879
▁liar	-9.91882
▁peaceful	-9.91899
arne	-9.91915
▁hup	-9.91917
▁wick	-9.91922
▁accomplished	-9.9193
▁gain	-9.91934
▁gutsy	-9.91943
▁grain	-9.91956
▁sew	-9.91984
▁ew	-9.91994
▁rent	-9.92006
▁emma	-9.92007
▁score	-9.92012
▁hatch	-9.9202
▁beeping	-9.92033
▁toaster	-9.92034
▁subt	-9.92036
▁lair	-9.92064
▁ke	-9.92096
▁useful	-9.921
▁abandoned	-9.92137
▁pm	-9.92138
▁arg	-9.92138
▁maine	-9.92195
▁rescued	-9.92221
▁hopeless	-9.92254
▁doo	-9.92263
▁sinking	-9.92293
▁yelling	-9.92302
▁cher	-9.92304
▁thrown	-9.92332
▁floating	-9.92355
▁meowing	-9.92368
▁entirely	-9.92371
▁gotten	-9.92428
▁male	-9.92476
▁sue	-9.92505
▁eaten	-9.92505
▁served	-9.9252
▁hunter	-9.92559
▁keys	-9.92607
▁fate	-9.92637
▁approaching	-9.9268
▁chips	-9.92745
▁unc	-9.92772
▁sat	-9.92828
▁troubles	-9.93019
▁cooking	-9.93104
▁ace	-9.93229
▁falcons	-9.93276
▁injuns	-9.93276
▁carriers	-9.93276
▁cra	-9.93365
▁offered	-9.93597
▁cr	-9.93605
▁normal	-9.93606
▁headin	-9.93824
lousy	-9.93851
win	-9.93866
ki	-9.93944
▁chat	-9.94068
▁searching	-9.94131
▁stealing	-9.94135
ag	-9.94607
▁cl	-9.94759
▁cor	-9.94807
▁cheers	-9.94933
▁pulled	-9.95045
▁younger	-9.95065
▁farmer	-9.95227
▁tin	-9.95244
▁growing	-9.95277
▁grace	-9.95406
▁presents	-9.95561
▁pe	-9.95693
▁wo	-9.96009
chasing	-9.96031
▁attacking	-9.96034
▁lamps	-9.96076
▁pointing	-9.96081
ger	-9.96396
dor	-9.96429
▁drinking	-9.96682
cent	-9.96986
for	-9.97001
▁spells	-9.97105
▁guests	-9.97106
▁nu	-9.97715
row	-9.97867
▁finding	-9.98148
▁waitin	-9.98275
fish	-9.98346
▁we	-9.98622
▁sides	-9.9888
▁str	-9.98936
▁traitor	-9.98938
oooo	-9.99028
▁cloud	-9.99058
▁jo	-9.99184
▁br	-9.99527
▁who	-9.99984
▁ju	-10.0002
ize	-10.0004
▁shoe	-10.0008
▁cab	-10.0025
▁drown	-10.0053
▁hop	-10.0054
ial	-10.0056
▁minds	-10.0067
▁voices	-10.0074
light	-10.0098
▁roar	-10.0116
where	-10.0116
▁sweat	-10.0119
▁opening	-10.0123
▁disturb	-10.0123
▁par	-10.0124
wa	-10.0124
▁mist	-10.0125
ou	-10.0127
▁discover	-10.0127
▁wast	-10.013
▁pictures	-10.0134
▁chickens	-10.0134
▁dec	-10.0148
▁bill	-10.0148
roll	-10.0149
▁cheek	-10.0149
▁stink	-10.0151
▁idiots	-10.0162
▁yuk	-10.0168
▁dang	-10.017
▁drag	-10.0174
▁comfort	-10.0176
looking	-10.0176
▁develop	-10.0176
▁loyal	-10.0178
▁anders	-10.0179
▁babies	-10.018
▁beckett	-10.018
▁buffalo	-10.018
▁capulet	-10.018
▁catherine	-10.018
▁challenge	-10.018
▁character	-10.018
▁cheechee	-10.018
▁cheyenne	-10.018
▁continent	-10.018
▁crocodile	-10.018
▁dozen	-10.018
▁fought	-10.018
▁garrett	-10.018
▁hospital	-10.018
▁invitation	-10.018
▁melchior	-10.018
▁mmmhmm	-10.018
▁montague	-10.018
▁official	-10.018
▁password	-10.018
▁patrol	-10.018
▁permanent	-10.018
▁ralph	-10.018
▁restaurant	-10.018
▁satisfact	-10.018
▁schedule	-10.018
▁section	-10.018
▁sweetheart	-10.018
▁tuesday	-10.018
▁weimar	-10.018
▁withdraw	-10.018
▁attend	-10.018
▁birdsong	-10.018
▁doshy	-10.018
▁firm	-10.018
▁nodeen	-10.018
▁normandy	-10.018
▁speck	-10.018
▁succeed	-10.018
▁byebye	-10.018
▁cheat	-10.018
▁hotaru	-10.018
▁nichol	-10.018
▁whatll	-10.018
▁alien	-10.018
▁beak	-10.018
▁carpet	-10.018
▁puppy	-10.018
▁freak	-10.018
▁chemistry	-10.018
▁hadnt	-10.018
▁stairs	-10.018
▁susan	-10.018
▁intent	-10.018
▁resign	-10.018
through	-10.018
▁rumbling	-10.018
▁lump	-10.0181
▁poison	-10.0181
▁height	-10.0181
▁cattle	-10.0181
▁route	-10.0181
▁beans	-10.0181
▁edison	-10.0181
▁print	-10.0181
▁sunset	-10.0181
▁paratroopers	-10.0181
▁driving	-10.0181
▁festival	-10.0181
▁jenny	-10.0181
▁disaster	-10.0181
▁unknown	-10.0181
▁winner	-10.0182
▁biddy	-10.0182
▁miserable	-10.0182
▁obey	-10.0182
▁boring	-10.0182
▁allen	-10.0182
▁villain	-10.0183
▁greet	-10.0183
▁marshall	-10.0183
▁assistant	-10.0183
▁toto	-10.0183
▁otto	-10.0183
▁trace	-10.0184
▁pitch	-10.0184
▁starboard	-10.0184
▁tinkles	-10.0184
▁instruction	-10.0185
▁cornet	-10.0185
▁captured	-10.0185
▁pluck	-10.0186
▁bid	-10.0186
▁stock	-10.0186
▁satisfied	-10.0186
▁scale	-10.0186
▁taxi	-10.0187
▁soup	-10.0187
▁inland	-10.0187
▁fifty	-10.0188
▁madness	-10.0189
▁solo	-10.019
▁standard	-10.0191
▁darkness	-10.0192
▁secretary	-10.0192
▁sonny	-10.0193
▁penny	-10.0194
▁historic	-10.0196
▁butter	-10.0197
▁cast	-10.0197
▁distan	-10.0198
▁stream	-10.0198
▁mere	-10.02
▁banks	-10.0202
ery	-10.0202
▁inf	-10.0203
▁passion	-10.0208
▁directly	-10.0209
▁gall	-10.0211
▁sore	-10.0213
▁honking	-10.0214
▁hose	-10.0215
▁whispering	-10.022
ities	-10.0229
▁oughta	-10.0231
▁cope	-10.0234
▁lack	-10.0239
ries	-10.0241
▁sniffing	-10.0243
▁honestly	-10.0243
▁hip	-10.0246
▁rear	-10.0246
▁min	-10.0248
▁ruined	-10.0252
▁texas	-10.0255
▁tires	-10.0255
▁flooding	-10.0264
▁golly	-10.0274
▁qu	-10.0274
▁failed	-10.0275
▁mood	-10.0276
▁hurts	-10.0284
▁slowly	-10.0287
▁celebrate	-10.0292
▁ole	-10.03
▁hath	-10.0307
tch	-10.0314
▁pit	-10.0333
lie	-10.0336
▁students	-10.0344
▁cent	-10.0371
▁critters	-10.0374
▁nuts	-10.04
▁wouldve	-10.0402
off	-10.0409
▁pushed	-10.0428
▁hid	-10.0436
ren	-10.0443
▁teachers	-10.0455
▁murdered	-10.0469
▁gunshots	-10.0495
▁damned	-10.0539
▁depends	-10.0552
▁dove	-10.0556
▁paws	-10.0556
▁dun	-10.0558
doodle	-10.0584
wee	-10.0623
▁bows	-10.0624
act	-10.0649
▁wondering	-10.0705
ute	-10.0723
▁sounding	-10.0747
ove	-10.0761
ais	-10.0794
▁cares	-10.0824
▁americans	-10.0833
▁dan	-10.0836
▁career	-10.0846
▁homer	-10.0851
▁desire	-10.0867
ized	-10.0869
▁radi	-10.0877
▁numbers	-10.0886
▁furs	-10.0893
ill	-10.0897
▁bug	-10.0909
▁fli	-10.0914
top	-10.0937
▁sniff	-10.0942
▁meow	-10.0949
fully	-10.095
▁rev	-10.0955
▁appear	-10.0955
▁hei	-10.0969
▁tales	-10.0974
gal	-10.0992
▁operation	-10.101
▁arts	-10.1012
▁scientist	-10.1017
▁member	-10.1018
▁pajama	-10.102
▁troop	-10.1022
▁squawk	-10.1022
nder	-10.1023
▁lesson	-10.1034
▁scar	-10.1046
▁gut	-10.1048
▁spots	-10.1053
▁lass	-10.1062
hood	-10.1099
▁falls	-10.1099
▁rob	-10.11
▁declare	-10.1101
▁teacher	-10.111
▁custom	-10.1155
▁mos	-10.1171
▁ga	-10.1177
▁herds	-10.118
▁betray	-10.1207
▁wool	-10.1221
▁float	-10.1224
ood	-10.1227
▁amaze	-10.1229
▁awar	-10.123
▁grant	-10.1235
▁spoil	-10.1236
▁adopt	-10.1236
like	-10.1241
▁seas	-10.1242
fall	-10.1249
▁rip	-10.1249
john	-10.1254
▁earn	-10.1259
▁creep	-10.1262
▁whee	-10.1262
▁butt	-10.1267
▁absolute	-10.1268
▁mill	-10.1272
new	-10.1273
▁contract	-10.1275
▁hug	-10.1276
▁jam	-10.1276
▁confess	-10.1285
▁depart	-10.1287
▁arrange	-10.1288
▁commit	-10.1291
▁cigar	-10.1291
polit	-10.1291
▁ambassador	-10.1291
▁ashamed	-10.1291
▁barrel	-10.1291
▁bicycle	-10.1291
▁border	-10.1291
▁california	-10.1291
▁champagne	-10.1291
▁cliff	-10.1291
▁combination	-10.1291
▁convinced	-10.1291
▁cotton	-10.1291
▁delicate	-10.1291
▁earlier	-10.1291
▁enemies	-10.1291
▁example	-10.1291
▁explanation	-10.1291
▁fifteen	-10.1291
▁giddyup	-10.1291
▁helmet	-10.1291
▁icecream	-10.1291
▁insane	-10.1291
▁jewel	-10.1291
▁kelsey	-10.1291
▁lawrence	-10.1291
▁marguerite	-10.1291
▁maxwell	-10.1291
▁meanwhile	-10.1291
▁motorcar	-10.1291
▁naughty	-10.1291
▁orleans	-10.1291
▁otherwise	-10.1291
▁pizarro	-10.1291
▁relieve	-10.1291
▁reputation	-10.1291
▁several	-10.1291
▁sobbing	-10.1291
▁thalberg	-10.1291
▁trunk	-10.1291
▁underground	-10.1291
▁valuable	-10.1291
▁knowledge	-10.1291
▁niece	-10.1291
▁squadron	-10.1291
▁strict	-10.1291
▁balloon	-10.1291
▁giant	-10.1291
▁groaning	-10.1291
▁importance	-10.1291
▁bubber	-10.1291
▁tanya	-10.1291
▁blew	-10.1291
▁starving	-10.1291
maneuver	-10.1291
ddya	-10.1291
▁evans	-10.1291
▁fireworks	-10.1291
▁cigarette	-10.1291
▁cried	-10.1291
▁debt	-10.1291
▁merci	-10.1291
▁funeral	-10.1291
▁burden	-10.1291
▁romantic	-10.1291
▁birth	-10.1292
▁vedor	-10.1292
▁wilson	-10.1292
▁oft	-10.1292
▁zaral	-10.1292
▁lawyer	-10.1292
▁kelly	-10.1292
▁paroo	-10.1292
▁steer	-10.1292
▁confusion	-10.1292
▁accordion	-10.1292
▁balance	-10.1292
▁scrap	-10.1292
▁buck	-10.1292
▁arrival	-10.1293
▁logical	-10.1293
▁spaceship	-10.1293
▁admire	-10.1293
▁haircut	-10.1293
▁thirty	-10.1293
▁forgotten	-10.1293
▁brand	-10.1293
▁performance	-10.1294
▁necessary	-10.1294
▁weeds	-10.1294
▁arrangement	-10.1294
▁desk	-10.1294
▁superman	-10.1295
▁grade	-10.1295
▁stood	-10.1295
▁lick	-10.1295
▁southern	-10.1295
▁panic	-10.1295
▁role	-10.1296
▁habit	-10.1296
▁anto	-10.1296
▁gno	-10.1296
▁alley	-10.1297
▁lordship	-10.1299
▁instruct	-10.13
▁halfway	-10.13
▁wedding	-10.13
▁treatment	-10.1301
▁surrounded	-10.1301
▁beings	-10.1301
▁self	-10.1302
▁them	-10.1303
▁chirping	-10.1304
▁upper	-10.1304
▁plus	-10.1306
▁pisto	-10.1307
▁taint	-10.1308
▁bass	-10.1308
▁not	-10.1308
▁steele	-10.1308
▁cave	-10.1309
▁whale	-10.1313
▁forth	-10.1314
▁disappointed	-10.1314
▁stray	-10.1316
ace	-10.1317
▁mori	-10.1318
▁defense	-10.1318
▁sighing	-10.1321
▁bleat	-10.1321
▁tam	-10.1322
▁scary	-10.1322
▁te	-10.1322
▁bud	-10.1323
▁rifle	-10.1325
▁useless	-10.1332
▁larger	-10.1334
▁tora	-10.1335
▁inch	-10.1335
▁corpse	-10.1336
lock	-10.1341
▁slide	-10.1341
▁prophets	-10.1342
▁kindness	-10.1342
▁cowardly	-10.1343
▁motion	-10.1355
▁trailer	-10.1357
atter	-10.1362
▁created	-10.1364
▁snorts	-10.1365
▁softly	-10.1365
▁invented	-10.1366
▁madly	-10.1402
▁wholl	-10.1404
▁spirits	-10.1405
▁trumpets	-10.1406
▁dish	-10.1406
▁sw	-10.1407
▁til	-10.1411
ug	-10.1412
▁buzzing	-10.1414
▁crawl	-10.142
ator	-10.1423
▁halt	-10.1431
▁the	-10.1437
▁workers	-10.1446
▁hates	-10.1447
den	-10.145
▁loaded	-10.1451
▁showed	-10.146
▁ben	-10.1461
sa	-10.1463
gh	-10.1468
▁escaped	-10.1469
▁husbands	-10.1471
▁legal	-10.1499
lic	-10.151
▁dies	-10.1512
▁pilots	-10.1543
▁appears	-10.1579
▁sire	-10.1603
ba	-10.1634
▁pushing	-10.1644
▁acknowledge	-10.1646
▁rivers	-10.1663
▁pan	-10.1669
▁cleaning	-10.1671
▁blowing	-10.1709
▁signed	-10.1721
▁jobs	-10.1725
▁cousins	-10.1748
▁russians	-10.1748
▁masters	-10.1751
▁cosm	-10.1762
▁din	-10.1764
▁operate	-10.1765
▁grows	-10.18
va	-10.18
▁camels	-10.1853
▁sta	-10.1866
ire	-10.1868
▁walked	-10.1883
▁servants	-10.1887
▁learning	-10.1917
min	-10.2005
▁problems	-10.2006
▁steps	-10.2006
cal	-10.2023
ite	-10.2048
▁tellin	-10.2049
▁cell	-10.2071
▁bands	-10.2096
▁gates	-10.2098
▁ended	-10.2098
nce	-10.2108
▁trash	-10.2148
cha	-10.2149
▁bu	-10.2165
▁charges	-10.2169
▁yell	-10.2184
▁headed	-10.2195
▁officers	-10.2209
aaaa	-10.2238
▁ti	-10.2239
▁pilot	-10.2264
▁hebrew	-10.2274
▁beside	-10.2277
ake	-10.2281
▁coo	-10.2313
▁uhhh	-10.2323
▁letters	-10.2349
▁medic	-10.2363
▁carl	-10.241
▁cows	-10.2412
▁kin	-10.2433
▁net	-10.2436
▁chi	-10.2452
tter	-10.2462
▁peck	-10.247
hu	-10.247
▁rais	-10.247
▁wander	-10.2474
uff	-10.2476
▁sink	-10.2492
right	-10.2503
zero	-10.2504
tail	-10.2504
▁thirst	-10.2514
▁loft	-10.2514
▁nut	-10.2514
▁proper	-10.2517
▁dirt	-10.2519
arbles	-10.252
▁puff	-10.2527
▁branch	-10.2529
▁gre	-10.2529
some	-10.253
▁russia	-10.2531
▁mornin	-10.2534
▁knee	-10.2534
▁trans	-10.2537
▁pant	-10.2537
▁detect	-10.2538
▁invade	-10.2539
▁resist	-10.2539
▁junk	-10.2541
▁eve	-10.2541
▁employ	-10.2541
▁wretch	-10.2541
commanderinchief	-10.2541
▁afford	-10.2541
▁altogether	-10.2541
▁attitude	-10.2541
▁august	-10.2541
▁awesome	-10.2541
▁bargain	-10.2541
▁blacksmith	-10.2541
▁burgomaster	-10.2541
▁cavalry	-10.2541
▁click	-10.2541
▁closure	-10.2541
▁comanche	-10.2541
▁compeyson	-10.2541
▁cornelius	-10.2541
▁credentials	-10.2541
▁cricket	-10.2541
▁demonstrat	-10.2541
▁deputy	-10.2541
▁device	-10.2541
▁division	-10.2541
▁dixie	-10.2541
▁dungeon	-10.2541
▁effort	-10.2541
▁environment	-10.2541
▁excellency	-10.2541
▁ferngully	-10.2541
▁giggling	-10.2541
▁harvest	-10.2541
▁initial	-10.2541
▁jeanne	-10.2541
▁katherine	-10.2541
▁mcatee	-10.2541
▁neighing	-10.2541
▁paisley	-10.2541
▁responsibility	-10.2541
▁responsible	-10.2541
▁rival	-10.2541
▁rothbart	-10.2541
▁scoop	-10.2541
▁scotland	-10.2541
▁steam	-10.2541
▁stockholm	-10.2541
▁stubborn	-10.2541
▁suitcase	-10.2541
▁surface	-10.2541
▁teenchy	-10.2541
▁traffic	-10.2541
▁turtle	-10.2541
▁twelve	-10.2541
▁unbelievable	-10.2541
▁university	-10.2541
▁vanessa	-10.2541
▁venture	-10.2541
▁wittles	-10.2541
▁wolves	-10.2541
▁yawns	-10.2541
▁crime	-10.2541
▁empire	-10.2541
▁herbert	-10.2541
▁honour	-10.2541
▁natalie	-10.2541
▁observe	-10.2541
▁saloon	-10.2541
▁scanner	-10.2541
▁doorbell	-10.2541
▁echo	-10.2541
▁flame	-10.2541
▁rascal	-10.2541
▁recently	-10.2541
▁dithering	-10.2541
▁roast	-10.2541
▁worm	-10.2541
▁avery	-10.2541
▁carrot	-10.2541
▁worn	-10.2541
▁jerk	-10.2541
▁legend	-10.2541
▁reveal	-10.2541
▁dishyer	-10.2541
▁laddie	-10.2541
▁pinned	-10.2541
▁vain	-10.2541
▁style	-10.2541
▁kitten	-10.2541
▁society	-10.2541
▁vision	-10.2541
▁medal	-10.2541
▁convert	-10.2541
▁oats	-10.2541
▁vast	-10.2542
▁crush	-10.2542
▁rubber	-10.2542
▁afore	-10.2542
▁contrary	-10.2542
▁tucker	-10.2542
▁hostile	-10.2542
▁formula	-10.2543
▁pierre	-10.2543
▁polish	-10.2543
▁meeko	-10.2543
▁chart	-10.2543
▁pork	-10.2543
▁raid	-10.2544
▁bodies	-10.2544
▁fever	-10.2544
▁straw	-10.2544
▁candy	-10.2544
▁loop	-10.2544
▁telephone	-10.2544
▁rib	-10.2544
▁dude	-10.2544
▁connection	-10.2545
▁calver	-10.2545
▁jim	-10.2545
▁lend	-10.2546
▁lazy	-10.2546
▁bedroom	-10.2546
▁gear	-10.2546
▁social	-10.2546
▁wax	-10.2547
▁dong	-10.2547
▁electric	-10.2547
▁argue	-10.2547
▁trim	-10.2547
▁brace	-10.2547
▁trial	-10.2548
▁yous	-10.2548
▁fame	-10.2548
▁boil	-10.2549
▁iceland	-10.2549
▁tide	-10.255
▁trickle	-10.255
▁malo	-10.2551
▁decent	-10.2553
▁passage	-10.2554
▁tries	-10.2554
▁sank	-10.2556
▁bounce	-10.2557
▁classic	-10.2557
▁devoted	-10.256
▁darn	-10.2561
▁spoken	-10.2562
▁thus	-10.2562
▁seals	-10.2563
▁moan	-10.2564
▁rocket	-10.2565
away	-10.2565
▁haul	-10.2568
▁laid	-10.2568
▁loving	-10.257
▁lion	-10.2571
▁mum	-10.2572
▁screeching	-10.2574
▁protection	-10.2575
national	-10.258
▁naturally	-10.2581
▁restless	-10.2581
▁reality	-10.2583
▁dot	-10.2583
▁setting	-10.2584
▁bus	-10.2585
▁ce	-10.2585
▁endless	-10.2586
▁vulgaria	-10.2593
▁convict	-10.2593
▁ere	-10.2597
▁ancestors	-10.2599
▁ray	-10.2604
▁adopted	-10.2604
▁laughin	-10.2604
▁appeared	-10.2605
▁stopping	-10.2608
▁managed	-10.2611
▁wandering	-10.2611
what	-10.2612
▁fighters	-10.2612
▁bay	-10.2619
▁down	-10.262
▁lab	-10.2621
▁speaks	-10.2629
▁string	-10.2632
her	-10.2636
▁communications	-10.2637
▁hook	-10.264
▁bein	-10.2646
▁fore	-10.2653
▁washed	-10.2656
▁citizens	-10.2675
▁tha	-10.2682
▁musicians	-10.2685
ington	-10.269
▁dearest	-10.2691
▁counter	-10.2699
ety	-10.2703
▁treated	-10.2725
▁wag	-10.2729
roy	-10.2738
gary	-10.2742
▁that	-10.2751
▁islands	-10.2753
zing	-10.2761
▁bush	-10.2766
▁nail	-10.2772
▁za	-10.278
tion	-10.2784
▁terms	-10.2791
▁rein	-10.2794
▁delighted	-10.2836
▁madame	-10.284
bus	-10.2847
▁sniffs	-10.287
call	-10.2891
▁dressing	-10.2897
▁ki	-10.2898
▁feels	-10.2901
▁powers	-10.2906
▁beats	-10.291
lan	-10.291
▁automatic	-10.292
▁swi	-10.2922
▁aid	-10.2935
▁bombs	-10.2942
fied	-10.2944
▁slowing	-10.2944
▁wounds	-10.2949
▁fed	-10.2962
▁hehe	-10.2965
▁expected	-10.2968
▁frogs	-10.2985
▁kings	-10.2997
▁studio	-10.3005
▁boob	-10.3008
▁temper	-10.3013
▁dealing	-10.302
tor	-10.3024
▁cos	-10.3029
bed	-10.303
▁wit	-10.3031
▁here	-10.3031
▁alt	-10.3033
ened	-10.3059
▁workin	-10.3066
▁changes	-10.3079
ians	-10.3103
▁seasons	-10.3104
ult	-10.3105
▁shhh	-10.3107
▁cape	-10.3127
ja	-10.3132
▁dim	-10.3151
how	-10.3156
▁prisoners	-10.3158
▁kindly	-10.3161
▁patients	-10.3212
▁tracks	-10.3224
▁ignore	-10.3244
▁remains	-10.3264
▁hurting	-10.3293
▁mon	-10.333
vers	-10.339
gged	-10.3391
▁aa	-10.3398
mes	-10.3406
▁feelings	-10.3407
▁mag	-10.3413
▁del	-10.3413
▁ka	-10.3416
more	-10.3417
ole	-10.3437
▁sos	-10.3441
▁af	-10.3446
ying	-10.3457
ward	-10.3521
▁flu	-10.3581
▁lu	-10.3582
▁desp	-10.36
oka	-10.3604
▁yah	-10.3614
▁gifts	-10.3632
▁chatter	-10.3643
▁boats	-10.3666
▁facts	-10.3675
▁compliment	-10.3678
▁decision	-10.3678
▁penguin	-10.3678
▁passenger	-10.3683
▁rumor	-10.3687
▁term	-10.3693
▁critter	-10.3693
▁hen	-10.3694
nies	-10.37
▁chuckle	-10.3704
▁loss	-10.3707
▁cu	-10.3707
▁dollar	-10.3708
▁ami	-10.3735
▁yard	-10.3749
hhhh	-10.3757
▁und	-10.3791
▁dangers	-10.3806
▁mob	-10.3832
▁conv	-10.3843
▁she	-10.3843
▁wal	-10.3851
let	-10.386
▁pi	-10.3866
▁lou	-10.3869
▁plann	-10.3875
▁prepar	-10.3894
ham	-10.3907
▁there	-10.3908
▁inform	-10.3908
▁abandon	-10.3916
▁tru	-10.3917
work	-10.3917
▁charm	-10.3925
aunt	-10.3927
bird	-10.393
feather	-10.3932
▁require	-10.3933
▁ja	-10.3934
▁improve	-10.3934
▁judg	-10.3935
range	-10.3937
ork	-10.3938
▁damage	-10.394
▁flow	-10.394
▁invest	-10.394
▁fortunate	-10.3946
▁total	-10.3947
▁steel	-10.3948
nel	-10.3949
▁cars	-10.395
▁cam	-10.395
▁pur	-10.3951
▁actual	-10.3953
ana	-10.3957
stone	-10.396
▁dancin	-10.3962
▁europe	-10.3965
▁batt	-10.3966
▁yoohoo	-10.3966
▁transit	-10.3967
▁atta	-10.3967
▁vegeta	-10.3968
▁occasion	-10.3968
▁woohoo	-10.3969
▁abraham	-10.397
▁agency	-10.397
▁apology	-10.397
▁apprentice	-10.397
▁astronaut	-10.397
▁authority	-10.397
▁bastard	-10.397
▁berthalet	-10.397
▁bicker	-10.397
▁bomburst	-10.397
▁carolyne	-10.397
▁casino	-10.397
▁cavalier	-10.397
▁circumstances	-10.397
▁communicate	-10.397
▁compass	-10.397
▁cottage	-10.397
▁curiosity	-10.397
▁david	-10.397
▁dinosaur	-10.397
▁disease	-10.397
▁dismount	-10.397
▁eagle	-10.397
▁encounter	-10.397
▁eulalie	-10.397
▁evidence	-10.397
▁exchange	-10.397
▁fanfare	-10.397
▁franny	-10.397
▁halfbreed	-10.397
▁hexxus	-10.397
▁industry	-10.397
▁intelligence	-10.397
▁jinpachi	-10.397
▁kulinda	-10.397
▁laboratory	-10.397
▁langley	-10.397
▁miraculous	-10.397
▁mirror	-10.397
▁okavango	-10.397
▁pacific	-10.397
▁phew	-10.397
▁photo	-10.397
▁positive	-10.397
▁prospect	-10.397
▁quarrel	-10.397
▁relief	-10.397
▁roosevelt	-10.397
▁sabotage	-10.397
▁sausage	-10.397
▁scientific	-10.397
▁scratch	-10.397
▁sensation	-10.397
▁shelter	-10.397
▁slaughter	-10.397
▁snatch	-10.397
▁stroke	-10.397
▁toilet	-10.397
▁tokyo	-10.397
▁tremaine	-10.397
▁wealth	-10.397
▁wilkes	-10.397
▁wisdom	-10.397
▁ambush	-10.397
▁canada	-10.397
▁capital	-10.397
▁charity	-10.397
▁cheerio	-10.397
▁dickon	-10.397
▁doggone	-10.397
▁mlck	-10.397
▁notches	-10.397
▁outfit	-10.397
▁parrot	-10.397
▁silver	-10.397
▁sixteen	-10.397
▁sledge	-10.397
ummies	-10.397
▁envy	-10.397
▁jimmy	-10.397
▁pattern	-10.397
▁sorrow	-10.397
▁annoy	-10.397
▁committee	-10.397
▁youth	-10.397
▁attic	-10.397
▁deleon	-10.397
▁elders	-10.397
▁misha	-10.397
▁period	-10.397
▁porch	-10.397
▁stuey	-10.397
▁bolt	-10.397
▁spear	-10.397
▁substitute	-10.397
▁battleships	-10.397
▁stew	-10.397
▁thud	-10.397
▁distress	-10.397
▁onx	-10.397
▁shears	-10.397
▁expense	-10.397
▁result	-10.397
▁refuge	-10.397
▁calculat	-10.397
▁consent	-10.397
▁urn	-10.397
▁rumble	-10.397
▁animat	-10.397
▁extraordinary	-10.397
▁gracious	-10.397
▁theory	-10.397
▁crumb	-10.397
▁neighborhood	-10.397
▁ivor	-10.397
▁brush	-10.397
▁heathens	-10.397
▁gaspard	-10.397
▁existence	-10.397
▁heaveho	-10.397
▁dodge	-10.397
▁kidnapped	-10.397
▁mature	-10.397
▁narr	-10.397
▁gamble	-10.397
▁bandits	-10.397
▁invisible	-10.397
▁chuch	-10.397
▁morrow	-10.3971
▁international	-10.3971
▁selfish	-10.3971
▁departure	-10.3971
▁dummy	-10.3971
▁transformation	-10.3971
▁sleeve	-10.3971
▁pitts	-10.3971
▁pumpkin	-10.3971
▁native	-10.3971
▁percy	-10.3971
▁flash	-10.3971
▁behold	-10.3971
▁predict	-10.3971
▁estate	-10.3971
▁lune	-10.3972
▁sentence	-10.3972
▁shatter	-10.3972
▁reject	-10.3972
▁blend	-10.3972
▁acre	-10.3972
▁civilian	-10.3972
▁auxiliary	-10.3972
▁glow	-10.3972
▁tool	-10.3972
▁source	-10.3972
▁haste	-10.3972
▁attach	-10.3973
▁punishment	-10.3973
oohooh	-10.3973
▁operator	-10.3973
▁gomorrah	-10.3973
▁crater	-10.3973
▁fuel	-10.3973
▁research	-10.3973
▁underneath	-10.3973
▁belief	-10.3973
▁swamp	-10.3973
▁toby	-10.3974
▁panel	-10.3974
▁disgrace	-10.3974
▁hee	-10.3974
▁swell	-10.3975
▁visitors	-10.3975
▁grandma	-10.3975
▁swan	-10.3975
▁rail	-10.3976
▁recall	-10.3976
▁bible	-10.3976
▁divers	-10.3976
▁anderson	-10.3976
▁acoming	-10.3977
▁rehearsal	-10.3977
▁unlock	-10.3977
▁concentrate	-10.3977
▁tamar	-10.3977
▁oui	-10.3978
▁allies	-10.3978
ler	-10.3978
▁ease	-10.3979
▁ann	-10.3979
▁oops	-10.3979
▁minor	-10.398
▁static	-10.398
▁guardian	-10.398
ative	-10.398
▁exit	-10.398
▁sport	-10.398
▁lurky	-10.3981
▁aside	-10.3981
▁suggestion	-10.3981
▁muffin	-10.3981
▁rudder	-10.3982
▁collection	-10.3982
▁eventual	-10.3983
▁peek	-10.3984
▁lemon	-10.3985
▁facility	-10.3985
▁berry	-10.3985
▁troublemaker	-10.3985
▁juice	-10.3986
▁fuss	-10.3986
▁freeze	-10.3987
▁shock	-10.3987
▁sack	-10.3988
▁pond	-10.3989
▁tempy	-10.399
▁china	-10.399
▁robin	-10.3991
▁marie	-10.3992
▁ranch	-10.3992
▁confused	-10.3993
▁sour	-10.3993
▁badge	-10.3995
▁heel	-10.3996
▁cabin	-10.3996
▁properly	-10.3997
▁bald	-10.3998
▁daylight	-10.3998
▁pace	-10.3999
▁hoop	-10.4
▁now	-10.4006
▁brat	-10.4006
boy	-10.4007
▁dave	-10.4008
▁lifetime	-10.4011
▁starve	-10.4014
▁riders	-10.4016
▁moose	-10.4017
▁ape	-10.4018
▁cord	-10.4021
▁dock	-10.4022
▁bitch	-10.4024
▁mail	-10.4025
▁hangar	-10.4025
▁cheerful	-10.4026
▁puppets	-10.4037
▁taller	-10.4039
ville	-10.4041
▁spoiled	-10.4043
▁earned	-10.4043
▁manager	-10.4044
▁nicker	-10.4044
▁lace	-10.4045
▁metal	-10.4045
▁herr	-10.4046
▁dump	-10.4049
▁disturbed	-10.4051
metro	-10.4052
▁cub	-10.4052
▁bubble	-10.4053
uh	-10.4057
▁lone	-10.4058
▁ass	-10.4062
▁preserve	-10.4065
▁why	-10.4066
▁stare	-10.4069
▁designed	-10.4069
▁details	-10.4081
▁chanti	-10.4084
▁driver	-10.4084
▁armor	-10.4097
▁weep	-10.4119
▁marching	-10.412
▁rushed	-10.4122
com	-10.4127
▁div	-10.4133
▁worthy	-10.4139
▁belly	-10.4146
▁ni	-10.4147
▁customer	-10.4151
▁sale	-10.4152
▁wasted	-10.4164
▁tails	-10.4186
▁ve	-10.4196
▁quietly	-10.4196
▁prayers	-10.4196
uc	-10.42
▁peer	-10.4203
▁provide	-10.4206
▁tub	-10.4213
ami	-10.4216
▁accepted	-10.4217
▁mono	-10.4225
▁robe	-10.4226
▁treating	-10.424
▁bur	-10.4248
▁plug	-10.4257
▁successful	-10.4257
mer	-10.426
uous	-10.4261
▁rumors	-10.4261
▁cards	-10.4262
▁oldest	-10.4266
▁breathing	-10.4269
▁blessing	-10.4283
▁card	-10.4284
▁ge	-10.4293
vet	-10.4298
ification	-10.4302
cker	-10.4304
▁murderer	-10.4328
▁kn	-10.4331
▁rolling	-10.4337
▁nicer	-10.4341
▁operations	-10.4352
aw	-10.4355
▁cleaned	-10.4371
ush	-10.4376
skin	-10.4378
▁feared	-10.4382
▁op	-10.4425
of	-10.4442
▁rot	-10.4444
▁ay	-10.4452
▁checked	-10.4455
ldo	-10.4489
▁meals	-10.4489
▁bod	-10.4495
▁tro	-10.4499
ated	-10.4501
▁speaker	-10.4514
▁windows	-10.4535
ists	-10.4563
▁trusted	-10.4583
▁waves	-10.4588
▁boot	-10.4591
▁manor	-10.4618
▁describe	-10.4623
▁females	-10.4628
▁faced	-10.4631
▁returns	-10.4634
▁sounded	-10.4639
aster	-10.4679
▁tri	-10.4693
▁kissed	-10.473
▁cleared	-10.474
▁dearly	-10.4742
▁smelling	-10.4755
▁reminds	-10.4757
▁scr	-10.4764
▁germans	-10.4769
▁tears	-10.4789
▁pups	-10.4817
vin	-10.4855
ila	-10.4891
▁messages	-10.4896
▁peri	-10.4956
nine	-10.4971
chi	-10.4972
▁reasons	-10.4987
▁sol	-10.5003
▁sixty	-10.5023
iest	-10.5065
▁lettin	-10.5087
anc	-10.5112
oul	-10.5124
▁et	-10.5132
you	-10.5197
pped	-10.5199
▁swords	-10.5202
ata	-10.5214
▁engines	-10.5216
oni	-10.528
▁prim	-10.5296
elle	-10.5302
▁pets	-10.5317
▁helicopter	-10.5345
▁experiment	-10.5345
▁failure	-10.5348
▁wearin	-10.535
▁priest	-10.5351
▁neighbor	-10.5351
▁root	-10.5353
▁listened	-10.5355
▁falcon	-10.5361
▁injun	-10.5361
▁student	-10.5361
▁degree	-10.5363
▁uniform	-10.5363
▁carrier	-10.5365
▁roger	-10.5368
cle	-10.5371
▁squir	-10.5392
▁ram	-10.5414
oring	-10.5471
▁cla	-10.5536
▁civil	-10.5544
▁groups	-10.5549
▁tick	-10.5557
▁pretend	-10.5562
▁insult	-10.5562
▁corps	-10.5568
▁whisper	-10.5568
▁cough	-10.5573
▁punish	-10.5577
▁borrow	-10.5578
▁shi	-10.5578
▁select	-10.558
field	-10.5593
claim	-10.5599
score	-10.5599
mouth	-10.5599
point	-10.56
▁organize	-10.5605
▁snor	-10.5606
▁solve	-10.5606
ugg	-10.5608
▁wipe	-10.5613
▁obvious	-10.5613
▁immediate	-10.5614
▁baker	-10.5617
▁stir	-10.5619
▁faithful	-10.5619
▁weigh	-10.5623
hour	-10.5624
unch	-10.5625
▁cloth	-10.5625
▁rehears	-10.5628
cow	-10.5629
▁leavin	-10.5629
▁moth	-10.5632
▁announce	-10.5633
▁bake	-10.5634
▁langu	-10.5634
▁achieve	-10.5635
▁righteous	-10.5635
▁scott	-10.5635
▁yank	-10.5636
oever	-10.5636
▁fantas	-10.5636
▁represent	-10.5636
ldren	-10.5636
arctic	-10.5636
▁fraidy	-10.5636
▁frustrat	-10.5636
alalalala	-10.5636
burgh	-10.5636
reeglise	-10.5636
▁anyhow	-10.5636
▁apologies	-10.5636
▁arnold	-10.5636
▁associat	-10.5636
▁atlanta	-10.5636
▁audio	-10.5636
▁autograph	-10.5636
▁benefactor	-10.5636
▁bourbon	-10.5636
▁bulldoze	-10.5636
▁chamber	-10.5636
▁chicago	-10.5636
▁claverton	-10.5636
▁companion	-10.5636
▁competition	-10.5636
▁corridor	-10.5636
▁creek	-10.5636
▁december	-10.5636
▁disagree	-10.5636
▁disguise	-10.5636
▁display	-10.5636
▁distinct	-10.5636
▁donkey	-10.5636
▁earthquake	-10.5636
▁embrace	-10.5636
▁equal	-10.5636
▁extinct	-10.5636
▁ferraday	-10.5636
▁flybynight	-10.5636
▁forswear	-10.5636
▁gargery	-10.5636
▁goblins	-10.5636
▁granddaughter	-10.5636
▁guineas	-10.5636
▁gunpowder	-10.5636
▁hehheh	-10.5636
▁increase	-10.5636
▁install	-10.5636
▁intercept	-10.5636
▁intruder	-10.5636
▁ishmael	-10.5636
▁kamanosuke	-10.5636
▁kangaroo	-10.5636
▁kansas	-10.5636
▁katsunaga	-10.5636
▁keelboat	-10.5636
▁lazarus	-10.5636
▁lugleg	-10.5636
▁matriarch	-10.5636
▁murray	-10.5636
▁necessarily	-10.5636
▁necklace	-10.5636
▁nomura	-10.5636
▁november	-10.5636
▁ocarina	-10.5636
▁orphan	-10.5636
▁overcome	-10.5636
▁peanut	-10.5636
▁pheasant	-10.5636
▁pianist	-10.5636
▁privilege	-10.5636
▁pumblechook	-10.5636
▁ragwort	-10.5636
▁ravine	-10.5636
▁recruit	-10.5636
▁relationship	-10.5636
▁rosalie	-10.5636
▁scuttlebutt	-10.5636
▁sebastian	-10.5636
▁shackleton	-10.5636
▁shawnee	-10.5636
▁solution	-10.5636
▁species	-10.5636
▁specimen	-10.5636
▁stumble	-10.5636
▁technical	-10.5636
▁throttle	-10.5636
▁tournament	-10.5636
▁tradition	-10.5636
▁trombone	-10.5636
▁vacuum	-10.5636
▁verona	-10.5636
▁virtue	-10.5636
▁worship	-10.5636
▁zebedee	-10.5636
▁airborne	-10.5636
▁bonnet	-10.5636
▁broadcast	-10.5636
▁butcher	-10.5636
▁camille	-10.5636
▁century	-10.5636
▁chorus	-10.5636
▁curtain	-10.5636
▁instance	-10.5636
▁micro	-10.5636
▁monitor	-10.5636
▁repent	-10.5636
▁reserve	-10.5636
▁rhyme	-10.5636
▁riker	-10.5636
▁thumb	-10.5636
▁title	-10.5636
▁wreck	-10.5636
▁crust	-10.5636
▁element	-10.5636
▁false	-10.5636
▁gulp	-10.5636
▁inhabitants	-10.5636
▁modern	-10.5636
▁pathetic	-10.5636
▁recover	-10.5636
▁skill	-10.5636
▁sloppy	-10.5636
▁frame	-10.5636
▁onboard	-10.5636
▁overall	-10.5636
▁reinforcements	-10.5636
▁silk	-10.5636
▁yassum	-10.5636
▁brief	-10.5636
▁frightful	-10.5636
▁tavern	-10.5636
▁fisherman	-10.5636
▁ike	-10.5636
▁limb	-10.5636
▁protest	-10.5636
▁rachel	-10.5636
▁ahahh	-10.5636
▁yacht	-10.5636
▁jonas	-10.5636
▁region	-10.5636
▁pledge	-10.5636
▁untie	-10.5636
▁drumming	-10.5637
▁scalp	-10.5637
▁yapping	-10.5637
▁imitate	-10.5637
▁tango	-10.5637
▁greedy	-10.5637
▁banana	-10.5637
▁forfeit	-10.5637
▁wiggins	-10.5637
▁gym	-10.5637
▁waltz	-10.5637
text	-10.5637
▁clanking	-10.5637
▁doggies	-10.5637
▁lame	-10.5637
▁maude	-10.5637
▁wrapped	-10.5637
▁soak	-10.5637
▁popular	-10.5637
▁hiya	-10.5637
wept	-10.5637
▁ladder	-10.5637
▁glorious	-10.5637
▁expectations	-10.5637
▁urgent	-10.5637
▁bingo	-10.5637
▁footbridge	-10.5637
▁blush	-10.5637
▁utah	-10.5637
▁shiny	-10.5637
misunderstanding	-10.5637
▁delay	-10.5637
▁adult	-10.5638
▁behavior	-10.5638
▁confirmation	-10.5638
▁central	-10.5638
▁backwards	-10.5638
▁behalf	-10.5638
▁millard	-10.5638
▁comb	-10.5638
▁itd	-10.5638
▁divine	-10.5638
▁fetch	-10.5638
▁recommend	-10.5638
▁particle	-10.5638
▁poodle	-10.5638
▁gloom	-10.5638
▁available	-10.5638
▁dinah	-10.5638
▁adrian	-10.5638
▁rattle	-10.5638
▁hump	-10.5639
▁dread	-10.5639
▁twothirds	-10.5639
▁lisa	-10.5639
▁severe	-10.5639
▁broad	-10.5639
▁sheet	-10.5639
▁assure	-10.5639
▁heap	-10.5639
▁shortcut	-10.5639
▁hmph	-10.5639
▁guardhouse	-10.5639
▁bluebird	-10.564
▁tasty	-10.564
▁fake	-10.564
▁skinny	-10.564
▁cootchi	-10.564
▁bucket	-10.564
▁genda	-10.564
▁kidnap	-10.564
▁seize	-10.564
▁owns	-10.564
▁slept	-10.564
▁struck	-10.564
▁flap	-10.5641
▁defenseless	-10.5641
▁loyalty	-10.5641
▁shred	-10.5641
▁toad	-10.5641
▁heeya	-10.5641
▁brook	-10.5641
▁stake	-10.5642
▁profit	-10.5642
▁potatoes	-10.5642
▁professional	-10.5642
▁twosies	-10.5642
▁contain	-10.5642
▁begun	-10.5642
▁whine	-10.5642
▁commerce	-10.5643
▁parade	-10.5643
▁furry	-10.5643
▁grownup	-10.5644
▁sandwiches	-10.5644
▁weakness	-10.5644
▁household	-10.5644
▁clam	-10.5644
▁pupil	-10.5645
▁consideration	-10.5645
▁lennon	-10.5645
▁temple	-10.5646
▁mush	-10.5646
▁keen	-10.5646
▁guhguhguhguhguh	-10.5646
▁spitting	-10.5646
▁chose	-10.5646
▁maiden	-10.5647
▁bait	-10.5647
▁poet	-10.5647
▁quote	-10.5647
▁screen	-10.5647
▁adore	-10.5648
acious	-10.5649
▁scent	-10.565
▁artist	-10.565
▁threaten	-10.565
▁jumpin	-10.5651
▁alas	-10.5651
▁doth	-10.5652
▁tense	-10.5653
▁mansion	-10.5653
▁takin	-10.5653
sort	-10.5654
▁machinery	-10.5655
▁alongside	-10.5655
▁dug	-10.5655
yoshi	-10.5656
▁surrounding	-10.5656
▁labor	-10.5656
▁sex	-10.5657
▁yuki	-10.5657
▁bitter	-10.566
▁highway	-10.5661
zy	-10.5661
▁stirred	-10.5662
▁exhausted	-10.5662
▁oil	-10.5662
▁ohhh	-10.5663
ient	-10.5663
▁clearance	-10.5664
▁lean	-10.5664
▁footsteps	-10.5666
▁sap	-10.5666
▁market	-10.5668
▁chl	-10.5669
▁descend	-10.5669
▁stur	-10.5669
▁intr	-10.5669
▁heroes	-10.567
▁solved	-10.567
▁proof	-10.5671
▁tone	-10.5672
▁organized	-10.5672
▁scattered	-10.5672
▁proceed	-10.5672
▁sez	-10.5675
▁cargo	-10.5676
▁drawn	-10.5677
▁toes	-10.5677
▁purr	-10.5678
▁exp	-10.5679
▁removed	-10.568
▁axe	-10.568
▁tooth	-10.5681
▁grind	-10.5681
▁bury	-10.5681
▁tender	-10.5682
▁embarrassing	-10.5682
▁impressed	-10.5683
▁with	-10.5684
▁beaches	-10.5684
▁era	-10.5688
ister	-10.5689
▁fourth	-10.5691
▁para	-10.5691
▁plow	-10.5692
▁punished	-10.5693
▁selected	-10.5694
iction	-10.5698
▁som	-10.5699
▁ruler	-10.5704
▁expos	-10.5706
▁bal	-10.5706
▁deck	-10.5709
▁godet	-10.5715
agan	-10.5716
▁affairs	-10.5717
▁panzers	-10.5717
▁dresses	-10.572
▁refused	-10.5727
▁loudly	-10.5737
▁drowned	-10.5737
▁difficulty	-10.5738
▁pine	-10.5739
▁pale	-10.574
ega	-10.5745
▁wounded	-10.5747
▁sucker	-10.5749
▁eighty	-10.5749
▁minu	-10.5749
▁flooded	-10.5756
▁roaring	-10.5759
▁drowning	-10.576
▁concerned	-10.5765
▁settled	-10.577
▁neutrinos	-10.577
▁threehorns	-10.577
▁chores	-10.577
▁outer	-10.5773
▁ton	-10.5779
▁sneaking	-10.5786
▁bond	-10.5789
▁bred	-10.5801
▁sunk	-10.5806
▁my	-10.5812
▁suffering	-10.5812
▁existed	-10.5817
▁shovel	-10.5817
▁generations	-10.5823
▁beer	-10.5833
▁mer	-10.5833
▁deny	-10.5843
▁this	-10.5866
▁gathered	-10.587
▁bloom	-10.5882
▁squire	-10.5887
▁enjoyed	-10.5892
▁includ	-10.5898
▁reported	-10.5899
▁and	-10.5902
▁drawing	-10.5921
▁forester	-10.5927
▁fry	-10.5931
▁roots	-10.5931
▁priests	-10.5931
▁neighbors	-10.5931
▁climbing	-10.5943
▁laughed	-10.5964
▁reporting	-10.5967
fire	-10.5981
▁passengers	-10.5985
▁flyer	-10.6008
▁messing	-10.601
▁mac	-10.603
jury	-10.6038
▁cells	-10.6047
▁trop	-10.6047
twas	-10.6049
▁cleaner	-10.6068
liest	-10.6087
▁tap	-10.6091
▁pajamas	-10.6095
▁gro	-10.6111
low	-10.6115
▁bothering	-10.6119
▁touched	-10.6125
▁luc	-10.6126
▁ringing	-10.6145
▁traitors	-10.615
▁fol	-10.615
▁crossing	-10.6162
▁crooks	-10.6205
▁circles	-10.6205
▁runways	-10.6205
▁forty	-10.6215
▁rag	-10.6221
▁vers	-10.6226
▁hom	-10.6236
au	-10.6239
▁sticking	-10.625
▁tribes	-10.6269
▁gardener	-10.6297
▁squ	-10.6307
▁stuffed	-10.6308
▁connect	-10.6311
▁guts	-10.6332
▁magn	-10.6339
tyfive	-10.6358
▁explode	-10.6362
▁intro	-10.6366
▁acorns	-10.6373
▁chaps	-10.6373
▁answered	-10.6382
ory	-10.6388
▁wondered	-10.6391
mate	-10.6411
▁rub	-10.6417
cul	-10.6419
tual	-10.6419
will	-10.6424
▁pops	-10.6426
▁brakes	-10.6429
pher	-10.6438
▁ko	-10.6444
▁jehovahs	-10.6486
▁clans	-10.6487
▁caro	-10.651
▁pil	-10.6521
▁slippe	-10.6521
▁riches	-10.6529
▁badly	-10.6534
▁nicely	-10.6554
▁siren	-10.6562
▁graduate	-10.6576
▁millions	-10.66
zu	-10.6603
▁hav	-10.6619
▁buzze	-10.6631
▁sis	-10.6641
▁dia	-10.6654
▁santas	-10.6658
lov	-10.6666
▁gri	-10.6668
eyed	-10.6671
tial	-10.6672
ob	-10.6706
▁stations	-10.6716
▁hated	-10.6716
▁lid	-10.6731
br	-10.6736
▁flea	-10.6778
▁guessed	-10.6824
▁jokes	-10.6832
▁devils	-10.6832
▁overt	-10.684
▁yea	-10.6855
▁goats	-10.6865
▁portla	-10.6877
glo	-10.6898
▁sa	-10.694
tempered	-10.6942
▁all	-10.6951
mine	-10.6972
tious	-10.6973
hold	-10.6977
▁pill	-10.7006
▁bobb	-10.7006
▁bras	-10.7015
▁snore	-10.7022
▁temp	-10.7037
▁tee	-10.7057
itted	-10.7074
▁bro	-10.708
▁verse	-10.7095
inch	-10.711
▁pad	-10.7142
▁fad	-10.7155
inner	-10.717
mois	-10.7174
▁gen	-10.7218
ism	-10.7261
▁exclaim	-10.7303
ault	-10.7306
tz	-10.7309
▁grunt	-10.7309
▁poop	-10.7324
read	-10.7329
get	-10.7344
▁lollipop	-10.7345
▁zuckerman	-10.7345
▁sodomite	-10.7366
▁sometime	-10.7371
scr	-10.7399
▁chris	-10.7406
aded	-10.7415
▁barb	-10.7432
▁lip	-10.7435
▁cart	-10.7491
▁preserv	-10.7501
▁zip	-10.7505
▁produce	-10.7507
▁frighten	-10.7508
▁prayer	-10.7509
well	-10.7525
armed	-10.7526
look	-10.7538
▁mat	-10.7556
rid	-10.756
▁honk	-10.7568
▁whimper	-10.7569
itty	-10.757
gram	-10.7573
▁impress	-10.758
proof	-10.7588
eight	-10.7593
worth	-10.7594
stream	-10.7598
world	-10.76
timer	-10.7602
▁advance	-10.7602
▁roun	-10.7603
though	-10.7604
water	-10.7605
▁aroun	-10.7605
▁ital	-10.7607
▁confuse	-10.7608
▁remove	-10.761
▁chos	-10.7614
rich	-10.7615
▁widow	-10.7618
▁original	-10.7618
▁sass	-10.762
▁juic	-10.7623
hut	-10.7624
▁threat	-10.7625
▁conduct	-10.7625
back	-10.7626
▁lenno	-10.7626
▁rome	-10.7627
▁soci	-10.7628
▁practicin	-10.7628
▁endure	-10.7629
▁muff	-10.763
▁affect	-10.763
▁indi	-10.7631
▁refresh	-10.7633
▁triumph	-10.7634
▁revolution	-10.7634
amond	-10.7634
▁libra	-10.7634
▁drama	-10.7635
▁negotiat	-10.7636
ological	-10.7636
▁inherit	-10.7636
▁precaution	-10.7636
greatgreat	-10.7636
quisit	-10.7636
responsibilities	-10.7636
visibility	-10.7636
▁acquaint	-10.7636
▁activity	-10.7636
▁afterward	-10.7636
▁alfred	-10.7636
▁annihilation	-10.7636
▁appeal	-10.7636
▁argument	-10.7636
▁authorize	-10.7636
▁average	-10.7636
▁benedict	-10.7636
▁billiard	-10.7636
▁biscuit	-10.7636
▁blasphem	-10.7636
▁bonjour	-10.7636
▁coincidence	-10.7636
▁colleague	-10.7636
▁colours	-10.7636
▁conclusion	-10.7636
▁conservatory	-10.7636
▁counsel	-10.7636
▁courier	-10.7636
▁cripple	-10.7636
▁dirigible	-10.7636
▁dorado	-10.7636
▁downstairs	-10.7636
▁edinburgh	-10.7636
▁eliminate	-10.7636
▁emporium	-10.7636
▁envelope	-10.7636
▁evident	-10.7636
▁fairfax	-10.7636
▁feature	-10.7636
▁flanagan	-10.7636
▁fuchida	-10.7636
▁function	-10.7636
▁gasket	-10.7636
▁glrl	-10.7636
▁gracias	-10.7636
▁happily	-10.7636
▁hehhehheh	-10.7636
▁hollywood	-10.7636
▁hurrah	-10.7636
▁hurricane	-10.7636
▁hyena	-10.7636
▁hypnotized	-10.7636
▁inaudible	-10.7636
▁incident	-10.7636
▁insect	-10.7636
▁intelligent	-10.7636
▁jacquot	-10.7636
▁kaiai	-10.7636
▁kalahari	-10.7636
▁kugutsu	-10.7636
▁kuramoto	-10.7636
▁learjet	-10.7636
▁leopard	-10.7636
▁manhattan	-10.7636
▁mcgillicuddy	-10.7636
▁mciver	-10.7636
▁meakin	-10.7636
▁melancholy	-10.7636
▁merrylegs	-10.7636
▁michael	-10.7636
▁mixture	-10.7636
▁morichika	-10.7636
▁motherinlaw	-10.7636
▁mousekewitz	-10.7636
▁mystery	-10.7636
▁natchez	-10.7636
▁navigat	-10.7636
▁nephew	-10.7636
▁nuclear	-10.7636
▁omaha	-10.7636
▁peasant	-10.7636
▁philosoph	-10.7636
▁pipsqueak	-10.7636
▁pluskat	-10.7636
▁porridge	-10.7636
▁prevent	-10.7636
▁previous	-10.7636
▁propeller	-10.7636
▁qualifications	-10.7636
▁ransom	-10.7636
▁rendezvous	-10.7636
▁rennes	-10.7636
▁rosaline	-10.7636
▁rupert	-10.7636
▁salutations	-10.7636
▁samurai	-10.7636
▁savior	-10.7636
▁scoundrel	-10.7636
▁senior	-10.7636
▁sentimental	-10.7636
▁shepherd	-10.7636
▁smiling	-10.7636
▁smooth	-10.7636
▁somewhat	-10.7636
▁stepmother	-10.7636
▁sublime	-10.7636
▁surprising	-10.7636
▁technique	-10.7636
▁terrifying	-10.7636
▁undoubted	-10.7636
▁ursula	-10.7636
▁value	-10.7636
▁volunteer	-10.7636
▁wednesday	-10.7636
▁wheaton	-10.7636
▁whitlow	-10.7636
▁worthwhile	-10.7636
▁yeehoo	-10.7636
▁yuck	-10.7636
▁zelozelos	-10.7636
▁anytime	-10.7636
▁bacon	-10.7636
▁bubba	-10.7636
▁canopy	-10.7636
▁collapse	-10.7636
▁craven	-10.7636
▁drool	-10.7636
▁energy	-10.7636
▁eternal	-10.7636
▁fashion	-10.7636
▁guitar	-10.7636
▁knave	-10.7636
▁manufactur	-10.7636
▁parlor	-10.7636
▁peculiar	-10.7636
▁pioneer	-10.7636
▁population	-10.7636
▁pudding	-10.7636
▁puppies	-10.7636
▁remote	-10.7636
▁sarge	-10.7636
▁siege	-10.7636
▁smash	-10.7636
▁sneeze	-10.7636
▁snuff	-10.7636
▁sprout	-10.7636
▁thrill	-10.7636
▁vermin	-10.7636
▁wrath	-10.7636
▁yooeeyooeeyooee	-10.7636
▁compar	-10.7636
▁garbled	-10.7636
▁interior	-10.7636
▁pulp	-10.7636
▁punk	-10.7636
▁razor	-10.7636
▁relative	-10.7636
▁stiff	-10.7636
▁error	-10.7636
▁granddad	-10.7636
▁nursing	-10.7636
▁scoffs	-10.7636
▁cease	-10.7636
▁snack	-10.7636
▁token	-10.7636
▁tremendous	-10.7636
▁gidda	-10.7636
▁method	-10.7636
▁pecos	-10.7636
▁shilling	-10.7636
▁billows	-10.7636
▁expert	-10.7636
▁flesh	-10.7636
▁harmony	-10.7636
▁peaches	-10.7636
▁woke	-10.7636
▁arguing	-10.7636
▁beauties	-10.7636
▁memorize	-10.7636
▁banner	-10.7636
▁buried	-10.7636
▁milt	-10.7636
▁sweep	-10.7636
▁oink	-10.7636
▁spores	-10.7636
▁yippee	-10.7636
▁joking	-10.7637
▁kilometers	-10.7637
▁sustain	-10.7637
▁skies	-10.7637
▁material	-10.7637
▁illegal	-10.7637
▁cultur	-10.7637
▁elves	-10.7637
▁frost	-10.7637
▁drain	-10.7637
▁gratitude	-10.7637
▁meself	-10.7637
▁vents	-10.7637
▁opposite	-10.7637
▁selfdefence	-10.7637
▁hollow	-10.7637
▁decod	-10.7637
▁columbus	-10.7637
▁agin	-10.7637
▁pebble	-10.7637
▁swimming	-10.7637
▁blaz	-10.7637
▁philip	-10.7637
▁sacred	-10.7637
▁destruction	-10.7637
▁vital	-10.7637
eeze	-10.7637
▁mammy	-10.7637
▁floodwater	-10.7637
▁mcc	-10.7637
▁lisp	-10.7637
▁laund	-10.7637
▁dried	-10.7637
▁rapid	-10.7637
▁vocali	-10.7637
▁battery	-10.7637
lasting	-10.7637
▁confound	-10.7637
▁celebration	-10.7637
▁mammal	-10.7637
▁leveller	-10.7637
▁zoo	-10.7637
▁location	-10.7637
▁transport	-10.7637
▁link	-10.7637
▁trigger	-10.7637
▁appointment	-10.7638
▁transmit	-10.7638
▁bind	-10.7638
▁cluck	-10.7638
▁domin	-10.7638
▁production	-10.7638
▁impact	-10.7638
▁viva	-10.7638
▁program	-10.7638
▁cramp	-10.7638
▁cutters	-10.7638
▁clatter	-10.7638
▁trout	-10.7638
▁chess	-10.7638
▁cozy	-10.7638
▁spinning	-10.7638
▁investigation	-10.7638
▁ayah	-10.7638
▁purse	-10.7639
▁tsar	-10.7639
▁blade	-10.7639
▁morton	-10.7639
▁belloni	-10.7639
▁dough	-10.7639
▁reception	-10.7639
▁brady	-10.7639
▁combat	-10.7639
▁horizon	-10.7639
▁raft	-10.7639
▁coins	-10.7639
▁civilization	-10.7639
▁britain	-10.7639
stand	-10.7639
▁brew	-10.764
▁smokehouse	-10.764
▁appearance	-10.764
▁chump	-10.764
▁lovin	-10.764
▁litter	-10.764
▁tonit	-10.764
▁bulb	-10.764
▁muddy	-10.764
▁tragic	-10.764
▁threesies	-10.764
▁catnip	-10.7641
▁vac	-10.7641
▁swine	-10.7641
▁detective	-10.7641
▁mainland	-10.7641
▁mason	-10.7641
▁grandmother	-10.7641
▁margaret	-10.7641
▁temperature	-10.7641
▁hallway	-10.7642
▁woodland	-10.7642
▁dispens	-10.7642
▁pronounce	-10.7642
▁roman	-10.7642
▁subway	-10.7642
▁affection	-10.7642
▁yonder	-10.7642
▁teddy	-10.7642
▁abuse	-10.7642
▁birdbrain	-10.7643
▁twink	-10.7643
▁composer	-10.7643
▁runner	-10.7643
skate	-10.7643
▁whoosh	-10.7644
▁stall	-10.7644
▁ditch	-10.7644
▁caution	-10.7645
oohoohoo	-10.7645
▁vanish	-10.7645
▁diversion	-10.7645
colo	-10.7645
▁grim	-10.7645
▁fee	-10.7645
▁astonishing	-10.7645
▁milo	-10.7646
▁shopping	-10.7646
▁stepped	-10.7646
▁geez	-10.7646
▁luckily	-10.7647
▁irre	-10.7647
▁satan	-10.7647
▁hull	-10.7648
▁reverend	-10.7648
▁render	-10.7648
▁childish	-10.7649
▁soil	-10.7649
▁curl	-10.7649
▁flatter	-10.765
▁leggo	-10.765
▁warden	-10.7651
▁beggar	-10.7651
▁cock	-10.7651
▁yodo	-10.7651
▁twin	-10.7652
▁bash	-10.7652
▁vine	-10.7652
▁puk	-10.7652
▁whip	-10.7652
▁reign	-10.7652
state	-10.7652
▁spooky	-10.7653
▁pinch	-10.7653
▁lighthouse	-10.7653
hugging	-10.7653
▁hardship	-10.7654
▁conductor	-10.7654
zz	-10.7654
▁mouthful	-10.7654
▁fireball	-10.7655
cla	-10.7655
▁determined	-10.7656
▁philly	-10.7656
▁mutters	-10.7656
▁tip	-10.7656
▁hired	-10.7657
▁paddle	-10.7658
▁gag	-10.7659
▁combine	-10.7659
▁explorer	-10.7659
▁entry	-10.7659
▁destiny	-10.7659
▁heal	-10.766
▁kir	-10.766
▁wel	-10.766
vation	-10.766
▁neat	-10.7661
▁dishes	-10.7662
▁replaced	-10.7663
▁engaged	-10.7663
▁expression	-10.7664
▁hansen	-10.7665
jazama	-10.7665
▁chest	-10.7667
▁misery	-10.7667
▁miser	-10.7668
▁modest	-10.7671
▁advanced	-10.7671
▁insur	-10.7671
▁fig	-10.7671
▁torpedoes	-10.7673
▁awaken	-10.7673
▁rust	-10.7674
▁reeds	-10.7675
▁bleeding	-10.7677
▁straining	-10.7677
oked	-10.7677
▁stupidity	-10.7677
▁tur	-10.7678
▁wiped	-10.7679
▁transformed	-10.7681
▁ripe	-10.7682
▁sixth	-10.7684
▁bop	-10.7684
▁lofty	-10.7685
▁grey	-10.7686
▁active	-10.7689
▁onesies	-10.7689
bred	-10.7689
▁creepy	-10.7691
▁shrieking	-10.7692
▁destroyers	-10.7696
▁gum	-10.7698
▁off	-10.7704
▁zero	-10.7704
▁mule	-10.7705
▁spine	-10.7705
▁fallen	-10.7711
▁newby	-10.7712
▁trespasser	-10.7716
▁frankly	-10.7716
▁vet	-10.7717
cycl	-10.7717
▁mechanical	-10.7719
▁exceptional	-10.7719
▁perfection	-10.7721
▁stark	-10.7722
mail	-10.7722
▁mixer	-10.7722
▁when	-10.7727
▁hal	-10.7728
▁tickle	-10.7735
▁comrades	-10.7737
▁status	-10.7737
▁doubter	-10.7742
▁mal	-10.7744
▁louder	-10.7747
ired	-10.7749
ough	-10.7754
▁released	-10.7756
▁hail	-10.7758
▁cable	-10.7763
▁clum	-10.7763
▁sweater	-10.7765
▁heath	-10.7766
▁civiliz	-10.7767
▁dreamers	-10.7769
arian	-10.7773
▁scaring	-10.7776
▁stored	-10.7783
▁dispos	-10.7783
▁thine	-10.7787
▁ther	-10.7789
▁reckoned	-10.7797
▁cro	-10.78
▁hog	-10.7801
▁lance	-10.7802
▁awaits	-10.7803
▁stamps	-10.7806
▁pouring	-10.7806
▁sole	-10.7815
▁buster	-10.7821
▁stormy	-10.7822
▁melting	-10.7823
▁chin	-10.7825
▁missus	-10.7835
▁studying	-10.7839
▁forge	-10.784
▁youngest	-10.7848
▁pauly	-10.7849
▁collecting	-10.7855
▁heed	-10.7856
▁shade	-10.786
▁ideal	-10.7861
▁lily	-10.7868
▁carefully	-10.7869
▁plumb	-10.7869
▁knots	-10.7869
▁chicks	-10.787
▁kisses	-10.7873
▁cracked	-10.7874
▁bugg	-10.7889
▁pic	-10.7897
▁swor	-10.7899
▁petit	-10.7903
lante	-10.7905
▁foxy	-10.7908
nh	-10.7914
▁core	-10.7916
▁epi	-10.7922
▁rushing	-10.7922
▁tearing	-10.7928
▁lollipops	-10.7937
▁zuckermans	-10.7937
▁sailed	-10.7952
pri	-10.7964
▁spa	-10.7968
▁aft	-10.7977
▁armed	-10.7978
▁singin	-10.7985
▁span	-10.7995
▁experiments	-10.8004
▁helicopters	-10.8004
▁failures	-10.8004
ify	-10.8023
▁ohoh	-10.8024
▁dial	-10.8026
choo	-10.8036
▁anticipate	-10.8041
limp	-10.8047
▁safely	-10.806
tract	-10.8068
rect	-10.807
▁yards	-10.8072
▁compliments	-10.8072
▁decisions	-10.8072
▁penguins	-10.8072
▁ignor	-10.8075
strip	-10.8078
▁walker	-10.8083
▁sow	-10.8096
lev	-10.8099
awa	-10.8099
itch	-10.8101
lobs	-10.8111
got	-10.8113
▁honored	-10.8126
wind	-10.8131
poo	-10.8136
▁overhea	-10.8136
▁tun	-10.8144
▁redha	-10.8145
aged	-10.8148
▁lighter	-10.8159
▁cruise	-10.8163
▁struggle	-10.817
▁advertise	-10.8172
mal	-10.8185
▁bugs	-10.8186
dh	-10.8211
▁bestow	-10.8235
▁cain	-10.8238
▁grabb	-10.8238
▁askin	-10.8238
emo	-10.8253
rb	-10.8262
▁encourag	-10.8263
▁z	-10.8265
▁gosh	-10.8266
▁lit	-10.8268
▁feelin	-10.827
▁joined	-10.8284
akey	-10.829
▁flor	-10.8292
ose	-10.8323
▁penn	-10.8328
ari	-10.8331
▁academi	-10.835
ripped	-10.8355
rade	-10.8374
▁concept	-10.8383
▁medi	-10.8385
▁laying	-10.8404
▁dem	-10.8418
▁hol	-10.8418
eneva	-10.8423
cut	-10.8427
▁que	-10.8441
▁explaining	-10.8442
▁banker	-10.8461
bbling	-10.8526
tains	-10.8575
▁identi	-10.8596
lutter	-10.8651
▁nap	-10.8654
imeter	-10.8679
▁lambs	-10.8687
ierce	-10.8699
nap	-10.8701
▁ri	-10.8723
here	-10.8752
yama	-10.8753
▁disc	-10.8765
uri	-10.8781
▁qui	-10.8819
aid	-10.8909
hark	-10.8931
▁ban	-10.8937
ando	-10.8951
▁lamb	-10.8963
owed	-10.8964
▁fri	-10.9032
mic	-10.9045
▁tw	-10.9063
ably	-10.9081
bit	-10.9106
oodle	-10.9126
tang	-10.917
nish	-10.9192
ads	-10.9235
▁stra	-10.926
duction	-10.9312
▁fer	-10.9329
far	-10.9338
rap	-10.934
cation	-10.9361
▁automat	-10.9374
▁accidental	-10.9378
des	-10.9382
▁leak	-10.9383
▁rio	-10.9411
▁wil	-10.9435
bag	-10.9459
▁tab	-10.9469
tta	-10.9481
▁truthful	-10.9481
lous	-10.9512
▁bre	-10.9546
ties	-10.9586
▁amo	-10.9619
▁anticipat	-10.964
mour	-10.9669
▁losin	-10.9696
cian	-10.9697
ular	-10.9699
hm	-10.9701
▁sha	-10.971
▁ac	-10.9718
▁sigh	-10.9726
apt	-10.9729
rita	-10.9736
owners	-10.9746
▁anti	-10.9756
ario	-10.9757
▁bloomin	-10.9766
▁chip	-10.9769
gie	-10.9783
▁rod	-10.9796
▁gasp	-10.9829
▁chick	-10.9843
shes	-10.9847
▁knot	-10.9848
▁generation	-10.985
▁citizen	-10.9856
▁instrument	-10.9857
▁quarter	-10.9859
▁appli	-10.9859
arrow	-10.9874
▁fif	-10.9879
aki	-10.9888
▁folk	-10.9888
▁rig	-10.9889
▁musician	-10.9907
▁spark	-10.9907
ssel	-10.993
poster	-10.9931
illa	-10.9948
pla	-10.995
▁glob	-10.9955
apa	-10.996
▁accu	-10.9965
ense	-10.9995
▁embarrass	-11.0007
otic	-11.0026
▁vulgar	-11.0027
▁mechanic	-11.0032
keep	-11.0034
controll	-11.0044
▁refer	-11.0047
keeper	-11.0048
▁sak	-11.0056
▁howl	-11.0063
▁shriek	-11.0065
▁screech	-11.0067
ilities	-11.0072
▁beep	-11.0075
▁transform	-11.0076
▁disappoint	-11.0082
▁exception	-11.0082
▁scatter	-11.0082
hand	-11.0082
town	-11.0082
▁sur	-11.0087
▁spl	-11.0089
break	-11.0091
scope	-11.0093
▁proce	-11.0093
handed	-11.0094
leaf	-11.0095
place	-11.0096
faced	-11.0098
why	-11.0098
wick	-11.0098
▁engage	-11.0098
burn	-11.0098
pajama	-11.0099
▁retrieve	-11.0099
shoot	-11.0099
blood	-11.0099
born	-11.01
making	-11.01
three	-11.01
▁curse	-11.0101
▁baptize	-11.0101
▁despise	-11.0102
phone	-11.0102
wood	-11.0103
talking	-11.0103
bang	-11.0104
▁slav	-11.0104
tiny	-11.0107
▁clip	-11.0107
movie	-11.0107
▁destin	-11.0108
▁replace	-11.0108
▁stead	-11.011
▁facilit	-11.0111
▁phil	-11.0111
▁robber	-11.0112
two	-11.0112
▁trib	-11.0114
wise	-11.0119
▁sandwich	-11.0124
▁heave	-11.0126
▁origin	-11.0126
▁appro	-11.0127
ootchi	-11.0128
▁acomin	-11.0128
ouch	-11.0129
▁marshal	-11.0129
▁sittin	-11.013
▁profession	-11.013
▁gomorra	-11.013
walla	-11.0131
▁chuck	-11.0131
▁cautio	-11.0132
▁darlin	-11.0133
▁matt	-11.0134
▁attract	-11.0134
ovie	-11.0134
▁recon	-11.0134
ague	-11.0135
▁contra	-11.0135
imerakazam	-11.0135
▁permit	-11.0135
▁transfer	-11.0135
nking	-11.0136
udder	-11.0136
harde	-11.0136
rupt	-11.0136
ompbomp	-11.0136
▁thorough	-11.0136
execute	-11.0136
structure	-11.0136
▁accompany	-11.0136
▁adequate	-11.0136
▁advise	-11.0136
▁alligator	-11.0136
▁amount	-11.0136
▁anvil	-11.0136
▁appreciati	-11.0136
▁arabella	-11.0136
▁assignment	-11.0136
▁autopsy	-11.0136
▁bathtub	-11.0136
▁beethoven	-11.0136
▁berlioz	-11.0136
▁beware	-11.0136
▁britannia	-11.0136
▁bulldog	-11.0136
▁bullfrog	-11.0136
▁canadian	-11.0136
▁casualties	-11.0136
▁cheeseburger	-11.0136
▁chemical	-11.0136
▁chestnut	-11.0136
▁chickasaw	-11.0136
▁circumference	-11.0136
▁clarinet	-11.0136
▁cloak	-11.0136
▁colony	-11.0136
▁compete	-11.0136
▁complex	-11.0136
▁concludes	-11.0136
▁conference	-11.0136
▁consolation	-11.0136
▁corvier	-11.0136
▁costigan	-11.0136
▁description	-11.0136
▁documents	-11.0136
▁doorstep	-11.0136
▁doughnut	-11.0136
▁duchess	-11.0136
▁dynamite	-11.0136
▁edbrooke	-11.0136
▁enlist	-11.0136
▁entrance	-11.0136
▁exclusive	-11.0136
▁exploring	-11.0136
▁eyewitness	-11.0136
▁families	-11.0136
▁flounder	-11.0136
▁footprint	-11.0136
▁franz	-11.0136
▁gentlewoman	-11.0136
▁giddyap	-11.0136
▁girliegirl	-11.0136
▁gleam	-11.0136
▁goodfornothing	-11.0136
▁goodnight	-11.0136
▁grandparents	-11.0136
▁gruel	-11.0136
▁heavie	-11.0136
▁heavily	-11.0136
▁hidetada	-11.0136
▁hurray	-11.0136
▁icumen	-11.0136
▁incantation	-11.0136
▁inferior	-11.0136
▁influence	-11.0136
▁injured	-11.0136
▁instinct	-11.0136
▁inviting	-11.0136
▁jaggers	-11.0136
▁jehovanh	-11.0136
▁juarez	-11.0136
▁kneedeep	-11.0136
▁luxury	-11.0136
▁marcellus	-11.0136
▁misslethwaite	-11.0136
▁museum	-11.0136
▁noggin	-11.0136
▁observation	-11.0136
▁oklahoma	-11.0136
▁orchestra	-11.0136
▁parachute	-11.0136
▁participate	-11.0136
▁persecut	-11.0136
▁pesky	-11.0136
▁pharisee	-11.0136
▁phenomenon	-11.0136
▁phony	-11.0136
▁physical	-11.0136
▁pilgrim	-11.0136
▁politics	-11.0136
▁popcorn	-11.0136
▁presumptuous	-11.0136
▁proportion	-11.0136
▁pushmipullyu	-11.0136
▁qualified	-11.0136
▁quetzamal	-11.0136
▁raspberry	-11.0136
▁reuben	-11.0136
▁revoir	-11.0136
▁reykjavik	-11.0136
▁sarsaparilla	-11.0136
▁schrader	-11.0136
▁screenplay	-11.0136
▁sekigahara	-11.0136
▁shakespeare	-11.0136
▁shrift	-11.0136
▁significance	-11.0136
▁skydancer	-11.0136
▁slurping	-11.0136
▁smoking	-11.0136
▁someplace	-11.0136
▁specifically	-11.0136
▁stagecoach	-11.0136
▁steak	-11.0136
▁strategy	-11.0136
▁suicide	-11.0136
▁supply	-11.0136
▁supposing	-11.0136
▁surpass	-11.0136
▁suspense	-11.0136
▁temporarily	-11.0136
▁toffelmier	-11.0136
▁toymaker	-11.0136
▁transmission	-11.0136
▁trenches	-11.0136
▁twobyfour	-11.0136
▁ultimate	-11.0136
▁upriver	-11.0136
▁varmint	-11.0136
▁vehicle	-11.0136
▁vienna	-11.0136
▁volcani	-11.0136
▁welfare	-11.0136
▁whizzer	-11.0136
▁wildlife	-11.0136
▁yamamoto	-11.0136
▁yikes	-11.0136
▁zambezi	-11.0136
▁zulu	-11.0136
▁zurich	-11.0136
dikadik	-11.0136
▁banished	-11.0136
▁bonbon	-11.0136
▁britches	-11.0136
▁candles	-11.0136
▁colorado	-11.0136
▁conscien	-11.0136
▁contempt	-11.0136
▁depress	-11.0136
▁divorce	-11.0136
▁eruption	-11.0136
▁gravy	-11.0136
▁handcuff	-11.0136
▁heritage	-11.0136
▁homesick	-11.0136
▁jersey	-11.0136
▁lucille	-11.0136
▁montez	-11.0136
▁pidge	-11.0136
▁pitiful	-11.0136
▁postpone	-11.0136
▁premier	-11.0136
▁reaction	-11.0136
▁repay	-11.0136
▁survey	-11.0136
▁video	-11.0136
▁youyou	-11.0136
▁addition	-11.0136
▁anchor	-11.0136
▁bassoon	-11.0136
▁batteries	-11.0136
▁beloved	-11.0136
▁constant	-11.0136
▁enchant	-11.0136
▁entertaining	-11.0136
▁formality	-11.0136
▁fourteen	-11.0136
▁gnaw	-11.0136
▁intact	-11.0136
▁multipl	-11.0136
▁mushrooms	-11.0136
▁offend	-11.0136
▁outrage	-11.0136
▁peak	-11.0136
▁repair	-11.0136
▁scorn	-11.0136
▁shotgun	-11.0136
▁spunk	-11.0136
▁superior	-11.0136
▁torches	-11.0136
▁wingspan	-11.0136
▁sample	-11.0136
▁beetle	-11.0136
▁dignity	-11.0136
▁distinguished	-11.0136
▁frown	-11.0136
▁instant	-11.0136
▁sunrise	-11.0136
anza	-11.0136
▁caesar	-11.0136
▁devastat	-11.0136
▁prospero	-11.0136
▁redeem	-11.0136
▁scaredycat	-11.0136
▁tomato	-11.0136
▁ethel	-11.0136
▁occupied	-11.0136
▁tucked	-11.0136
▁tweet	-11.0136
▁cockadoodledo	-11.0136
▁noisy	-11.0136
▁translate	-11.0136
▁wardroom	-11.0136
▁francs	-11.0136
▁loony	-11.0136
▁slam	-11.0136
decisive	-11.0136
▁jammed	-11.0136
▁confine	-11.0136
ahara	-11.0136
▁warrant	-11.0136
▁doomed	-11.0136
▁beeves	-11.0136
▁summons	-11.0136
▁consult	-11.0137
▁trills	-11.0137
▁blaring	-11.0137
▁stabbe	-11.0137
▁abort	-11.0137
▁taxes	-11.0137
▁stagg	-11.0137
▁residence	-11.0137
▁offense	-11.0137
▁yelp	-11.0137
ordan	-11.0137
▁babysitt	-11.0137
▁interference	-11.0137
▁laura	-11.0137
▁willow	-11.0137
▁denied	-11.0137
▁electronic	-11.0137
▁convictions	-11.0137
dmother	-11.0137
▁pothole	-11.0137
▁backstage	-11.0137
▁skipp	-11.0137
▁sharing	-11.0137
▁randolph	-11.0137
▁generous	-11.0137
▁jamison	-11.0137
▁confederate	-11.0137
▁appliances	-11.0137
▁hammering	-11.0137
▁incorporate	-11.0137
▁notify	-11.0137
▁frymore	-11.0137
▁mildred	-11.0137
▁breeze	-11.0137
▁commenc	-11.0137
▁housing	-11.0137
▁shazama	-11.0137
▁weems	-11.0137
▁twist	-11.0137
article	-11.0137
▁outnumbered	-11.0137
▁consequence	-11.0137
▁meadow	-11.0137
▁crunch	-11.0137
▁indoors	-11.0137
▁stress	-11.0137
▁retire	-11.0137
▁karate	-11.0138
▁permitted	-11.0138
▁occupation	-11.0138
▁tramp	-11.0138
hound	-11.0138
▁lolli	-11.0138
▁elite	-11.0138
▁industrial	-11.0138
▁drummer	-11.0138
▁benning	-11.0138
▁religion	-11.0138
▁league	-11.0138
incomp	-11.0138
▁commission	-11.0138
▁recit	-11.0138
▁shelf	-11.0138
pines	-11.0138
▁isle	-11.0138
▁yeehaw	-11.0138
▁scrambl	-11.0138
▁gents	-11.0138
▁neva	-11.0139
▁rustling	-11.0139
elope	-11.0139
▁barren	-11.0139
▁churchyard	-11.0139
▁polite	-11.0139
▁utter	-11.0139
spoon	-11.0139
▁happie	-11.0139
▁decoration	-11.0139
▁basis	-11.0139
▁robot	-11.0139
▁wrap	-11.0139
▁fatso	-11.0139
▁fragran	-11.0139
▁berth	-11.0139
skirt	-11.0139
▁spill	-11.0139
▁committed	-11.0139
▁vegetable	-11.0139
kov	-11.0139
▁hippo	-11.0139
▁submi	-11.014
▁harpe	-11.014
▁terri	-11.014
draft	-11.014
▁maze	-11.014
▁engagement	-11.014
▁prettiest	-11.014
▁adjust	-11.014
▁righteousness	-11.014
▁classroom	-11.014
▁revel	-11.014
▁woah	-11.0141
▁fond	-11.0141
▁survival	-11.0141
▁lode	-11.0141
▁atlantic	-11.0141
▁strand	-11.0141
▁elevation	-11.0141
▁scout	-11.0141
▁parry	-11.0141
dios	-11.0141
▁junkman	-11.0141
▁disturbance	-11.0141
▁overdo	-11.0141
▁clark	-11.0141
▁isolat	-11.0142
▁announcement	-11.0142
▁courthouse	-11.0142
▁sept	-11.0142
▁dislike	-11.0142
rufus	-11.0143
▁fuse	-11.0143
▁bored	-11.0143
▁forsaken	-11.0143
▁detonat	-11.0143
▁outrun	-11.0143
▁shiver	-11.0143
▁trembling	-11.0143
▁airfield	-11.0143
▁naked	-11.0144
▁zion	-11.0144
▁unworth	-11.0144
▁drill	-11.0144
▁conque	-11.0144
brin	-11.0144
▁brigad	-11.0144
▁process	-11.0144
▁shining	-11.0144
▁flint	-11.0144
▁thru	-11.0145
▁richard	-11.0145
▁rally	-11.0145
▁claw	-11.0145
▁groom	-11.0145
itou	-11.0145
▁foul	-11.0146
▁probe	-11.0146
▁development	-11.0146
▁launch	-11.0147
▁disperse	-11.0147
▁rejoice	-11.0147
▁duckling	-11.0147
duran	-11.0147
▁practicing	-11.0147
▁biz	-11.0147
▁pasture	-11.0148
▁burp	-11.0148
▁jaw	-11.0148
▁rack	-11.0148
▁plot	-11.0148
▁spose	-11.0148
▁captiv	-11.0148
▁canine	-11.0148
▁firstclass	-11.0148
▁grr	-11.0149
▁payday	-11.0149
▁bozo	-11.0149
▁playmate	-11.0149
▁task	-11.0149
ffel	-11.015
▁slice	-11.0151
▁tact	-11.0151
cz	-11.0151
▁grumbl	-11.0152
▁perch	-11.0152
▁vari	-11.0152
loom	-11.0152
▁hoist	-11.0153
▁billion	-11.0153
▁marine	-11.0153
▁patie	-11.0154
▁greg	-11.0154
▁slime	-11.0154
▁jap	-11.0154
▁chim	-11.0154
▁ability	-11.0154
▁unlikely	-11.0155
▁held	-11.0155
▁dull	-11.0155
▁hometown	-11.0155
▁unno	-11.0155
▁shaft	-11.0155
▁indo	-11.0156
▁flown	-11.0156
▁sunlight	-11.0156
▁noooo	-11.0157
▁agony	-11.0157
▁strat	-11.0158
▁coll	-11.0159
▁pester	-11.0159
▁patron	-11.0159
▁moat	-11.016
▁renny	-11.016
▁hesitate	-11.016
▁wore	-11.016
▁wonderland	-11.0161
▁tourist	-11.0161
▁crank	-11.0161
▁appointed	-11.0162
▁neglected	-11.0162
▁brag	-11.0163
ummy	-11.0163
▁clara	-11.0163
▁branches	-11.0163
▁dna	-11.0164
daisy	-11.0165
▁otf	-11.0165
▁abso	-11.0165
▁poke	-11.0166
▁rh	-11.0166
▁showoff	-11.0166
▁gaze	-11.0167
▁breach	-11.0167
▁rug	-11.0168
▁sunny	-11.0169
▁galloping	-11.0169
▁pony	-11.0169
▁lef	-11.0169
▁formation	-11.0169
▁veter	-11.017
▁originally	-11.017
▁homework	-11.0171
▁despera	-11.0171
nito	-11.0171
▁baptized	-11.0172
▁cursed	-11.0172
▁shallow	-11.0172
▁oppos	-11.0173
▁triple	-11.0173
▁markings	-11.0175
▁ox	-11.0175
▁italy	-11.0175
▁clang	-11.0176
▁hideous	-11.0177
▁sang	-11.0177
▁hopin	-11.0177
▁leaf	-11.0178
sef	-11.0178
ttle	-11.0178
▁established	-11.0179
▁swallowed	-11.0179
▁confirmed	-11.0179
▁dragged	-11.0179
tabe	-11.018
▁sne	-11.018
▁www	-11.0181
▁endured	-11.0182
▁fortunately	-11.0184
riend	-11.0184
▁amaryllis	-11.0185
▁crossroads	-11.0185
▁sprinkles	-11.0185
▁whiskers	-11.0185
drew	-11.0186
bble	-11.0187
▁rena	-11.0187
▁clay	-11.0188
▁youse	-11.019
▁investor	-11.0191
▁option	-11.0191
▁luna	-11.0192
▁hint	-11.0192
▁hound	-11.0195
▁embarrassed	-11.0196
verse	-11.0196
▁timing	-11.0197
forgiv	-11.0199
eached	-11.0201
▁improved	-11.0202
▁huntin	-11.0203
▁damaged	-11.0203
lley	-11.0204
▁resid	-11.0204
▁sweetie	-11.0206
▁occurr	-11.0206
ence	-11.0206
xic	-11.0211
▁howling	-11.0211
▁cage	-11.0212
▁shal	-11.0212
▁slightly	-11.0213
▁lust	-11.0213
▁definit	-11.0214
▁carla	-11.0216
▁realise	-11.0217
▁stinky	-11.0218
aye	-11.0221
▁pest	-11.0222
coming	-11.0225
semble	-11.0228
▁marble	-11.0229
▁cookin	-11.0229
▁borrowed	-11.0229
▁travelers	-11.023
▁provided	-11.023
▁frightening	-11.0233
▁tape	-11.0234
▁mightnt	-11.0237
mental	-11.0241
▁mae	-11.0241
▁dumped	-11.0245
▁kite	-11.0245
▁complaint	-11.0246
▁hesitat	-11.025
▁oi	-11.025
▁insulting	-11.0253
▁pretending	-11.0253
▁sch	-11.026
▁slippery	-11.0263
▁regularly	-11.0263
▁informed	-11.0264
▁rap	-11.0269
▁lampy	-11.0273
▁granted	-11.028
▁shootin	-11.0283
urgeo	-11.0288
▁filler	-11.0289
▁pecking	-11.0296
▁rin	-11.0296
▁reporter	-11.0301
▁touches	-11.0305
owned	-11.0308
▁mai	-11.0308
▁needle	-11.031
▁eatable	-11.0313
▁raines	-11.0317
▁betraying	-11.0318
fusion	-11.0319
▁limited	-11.0321
▁tinkl	-11.0322
▁watt	-11.0323
dure	-11.0329
▁nicky	-11.033
▁mentioned	-11.0331
▁ache	-11.0334
▁blo	-11.0336
▁tada	-11.0356
erial	-11.0356
▁vow	-11.0357
▁switching	-11.0361
▁bel	-11.0362
liber	-11.0364
▁proposal	-11.0379
▁num	-11.038
▁horri	-11.0385
▁mid	-11.0386
▁parker	-11.0387
meter	-11.0391
mile	-11.0392
▁fainted	-11.0398
▁award	-11.0399
▁delivered	-11.04
▁cue	-11.04
▁ut	-11.0401
▁foolin	-11.0406
▁fielder	-11.0406
▁warned	-11.0409
▁gin	-11.0413
▁slower	-11.0416
▁painting	-11.0425
▁squeaking	-11.0426
▁talented	-11.0432
alion	-11.0436
▁deeply	-11.0449
awnin	-11.045
▁intended	-11.0452
▁humiliat	-11.0462
▁disappeared	-11.0469
▁sadly	-11.0471
sso	-11.0472
▁feathered	-11.0477
prop	-11.0492
▁vote	-11.0493
ssen	-11.051
▁rockin	-11.051
▁seated	-11.0526
▁whoops	-11.0533
rugged	-11.0536
▁sticky	-11.054
▁painful	-11.056
▁packed	-11.0566
▁bee	-11.0581
▁walkin	-11.0587
▁flyin	-11.0604
▁declar	-11.0611
▁alli	-11.0623
camp	-11.0659
▁primar	-11.0697
log	-11.0735
▁idle	-11.0746
▁mall	-11.0774
iness	-11.0788
resent	-11.0812
ison	-11.0828
rro	-11.0832
uttered	-11.0838
ocks	-11.0868
asta	-11.0871
▁barbe	-11.0906
▁unbea	-11.0907
▁drawer	-11.0909
rica	-11.0913
▁medicin	-11.0921
rov	-11.0991
quishe	-11.102
▁perp	-11.1044
▁charle	-11.1077
▁yahoo	-11.1101
▁squa	-11.111
▁intrigue	-11.1141
amps	-11.1156
▁wrinkl	-11.1158
▁recorder	-11.1203
▁mare	-11.1226
padre	-11.1285
jah	-11.1314
▁don	-11.1321
▁thi	-11.1434
▁pon	-11.1447
▁tele	-11.1465
ooo	-11.1472
pose	-11.1545
ium	-11.1562
▁assum	-11.159
identifi	-11.1638
▁spu	-11.1639
kra	-11.1687
▁experienc	-11.1703
▁fog	-11.1735
▁tim	-11.1746
▁fre	-11.1805
cine	-11.1831
tale	-11.1842
▁unto	-11.187
▁pow	-11.1879
▁vl	-11.1894
▁yer	-11.1927
bony	-11.1956
cane	-11.1981
▁operat	-11.2011
oooow	-11.2024
▁carol	-11.2032
▁pier	-11.2073
iro	-11.2087
▁ahha	-11.2126
▁vib	-11.2179
▁brit	-11.2194
zi	-11.2205
rude	-11.2223
cious	-11.2265
course	-11.2289
▁nit	-11.2298
▁lite	-11.2306
▁academ	-11.2309
rose	-11.2336
ude	-11.2357
▁sparkle	-11.2397
uction	-11.2411
▁mari	-11.243
ench	-11.2439
▁encourage	-11.2441
▁bul	-11.2449
hair	-11.247
beat	-11.2488
mous	-11.2518
▁tel	-11.2545
▁ninety	-11.2549
▁cran	-11.2552
▁cruis	-11.2594
uine	-11.2614
▁mona	-11.2725
▁caus	-11.2741
▁salar	-11.2776
▁clu	-11.2921
▁include	-11.2923
ologist	-11.2963
▁grip	-11.2975
ima	-11.3002
▁gene	-11.3011
epid	-11.3038
▁distr	-11.304
gging	-11.3042
rating	-11.3047
irring	-11.3052
duct	-11.3085
enth	-11.3097
most	-11.3107
wart	-11.3109
▁horr	-11.3131
eaten	-11.3144
ette	-11.315
▁stamp	-11.3181
▁neutrino	-11.3184
▁threehorn	-11.3184
▁await	-11.3184
▁tire	-11.3186
▁communication	-11.3191
▁chore	-11.3193
▁warrior	-11.3197
▁texa	-11.3199
▁giggle	-11.3199
▁parent	-11.3207
▁detail	-11.3214
▁tink	-11.3229
ooooh	-11.3244
▁dori	-11.3253
van	-11.3255
nip	-11.3271
mulate	-11.3291
evil	-11.3297
mble	-11.3308
▁lov	-11.3309
▁slid	-11.3312
▁trespass	-11.3329
▁creat	-11.3332
▁remark	-11.3335
▁grin	-11.3336
▁vip	-11.3342
▁cobb	-11.3356
▁raw	-11.336
▁reduc	-11.3366
▁defin	-11.337
rby	-11.337
▁bubbl	-11.3371
▁kit	-11.3372
hhuh	-11.3376
▁bububu	-11.3376
▁bunk	-11.3376
ounds	-11.3381
▁occur	-11.3382
▁strik	-11.3385
▁bleed	-11.3402
▁snarl	-11.3402
dressed	-11.3405
foot	-11.3405
▁confirm	-11.3409
▁establish	-11.3411
▁swallow	-11.3411
▁exhaust	-11.3414
▁devot	-11.3415
jacket	-11.3416
▁accomplish	-11.3416
▁strain	-11.3426
hall	-11.3427
known	-11.3428
civiliz	-11.3429
▁explore	-11.343
▁urge	-11.3431
stray	-11.3432
grateful	-11.3432
albert	-11.3433
listen	-11.3433
class	-11.3434
▁inde	-11.3435
▁determine	-11.3435
▁oblige	-11.3437
▁virtuos	-11.3438
▁possibilit	-11.3439
▁shave	-11.3439
active	-11.344
met	-11.344
veling	-11.344
▁spook	-11.3441
upper	-11.3441
▁wond	-11.3441
▁lurk	-11.3442
shake	-11.3442
▁victor	-11.3443
▁chum	-11.3443
shore	-11.3443
berry	-11.3444
ptions	-11.3444
▁dragg	-11.3445
coat	-11.3445
▁sav	-11.3446
entry	-11.3446
path	-11.3446
wait	-11.3447
▁incredibl	-11.3448
six	-11.3448
▁eas	-11.3451
▁sni	-11.3451
▁slim	-11.3452
box	-11.3452
type	-11.3453
cake	-11.3454
▁potato	-11.3458
▁calve	-11.3458
▁compose	-11.3459
not	-11.3461
umbling	-11.3461
teeth	-11.3461
▁shinin	-11.3462
aught	-11.3462
solate	-11.3462
▁garde	-11.3462
▁stoppin	-11.3464
▁atlanti	-11.3464
▁elevat	-11.3464
▁mmhm	-11.3464
▁puttin	-11.3465
▁assemble	-11.3465
nez	-11.3465
▁unlike	-11.3465
▁solemn	-11.3467
▁effect	-11.3467
ject	-11.3467
▁communi	-11.3467
▁opportun	-11.3467
▁marvel	-11.3467
▁misunderst	-11.3468
▁craft	-11.3468
▁zeb	-11.3468
udent	-11.3468
▁outdo	-11.3468
iculous	-11.3469
▁zeal	-11.3469
▁recogni	-11.3469
▁acqu	-11.3469
▁mead	-11.3469
bourg	-11.3469
▁mild	-11.3469
▁favour	-11.3469
▁interfere	-11.3469
ization	-11.3469
stitut	-11.3469
▁hypocri	-11.347
▁anonym	-11.347
▁fertili	-11.347
▁gurgl	-11.347
▁obstruct	-11.347
andahalf	-11.347
blehbleh	-11.347
convenience	-11.347
lmeratazam	-11.347
lubber	-11.347
osphere	-11.347
▁abominabl	-11.347
▁abomination	-11.347
▁abroad	-11.347
▁access	-11.347
▁accurate	-11.347
▁activities	-11.347
▁advancing	-11.347
▁amateur	-11.347
▁ammunition	-11.347
▁anniversary	-11.347
▁antares	-11.347
▁anyplace	-11.347
▁apostle	-11.347
▁applaud	-11.347
▁approval	-11.347
▁aspect	-11.347
▁atmosphere	-11.347
▁authentic	-11.347
▁avenue	-11.347
▁aviator	-11.347
▁aztec	-11.347
▁baboon	-11.347
▁background	-11.347
▁bagpipes	-11.347
▁balzac	-11.347
▁baobab	-11.347
▁barracks	-11.347
▁biochemi	-11.347
▁bizarre	-11.347
▁blonde	-11.347
▁blueprints	-11.347
▁bodyguard	-11.347
▁bounty	-11.347
▁braithwaite	-11.347
▁bristol	-11.347
▁brrrr	-11.347
▁burglar	-11.347
▁cabaret	-11.347
▁carbolic	-11.347
▁caretaker	-11.347
▁challenging	-11.347
▁chickama	-11.347
▁chimney	-11.347
▁chivalr	-11.347
▁clutterbuck	-11.347
▁columns	-11.347
▁competitor	-11.347
▁complicated	-11.347
▁composing	-11.347
▁compromise	-11.347
▁congratulate	-11.347
▁convenient	-11.347
▁convincing	-11.347
▁corruption	-11.347
▁creaking	-11.347
▁custody	-11.347
▁dagoult	-11.347
▁daughterinlaw	-11.347
▁decipher	-11.347
▁demolition	-11.347
▁deposit	-11.347
▁dimension	-11.347
▁diploma	-11.347
▁djilas	-11.347
▁downriver	-11.347
▁dunkirk	-11.347
▁dynamic	-11.347
▁eccentric	-11.347
▁einstein	-11.347
▁empress	-11.347
▁entertainment	-11.347
▁entitled	-11.347
▁exaggerate	-11.347
▁exclamation	-11.347
▁expensive	-11.347
▁facial	-11.347
▁fibber	-11.347
▁fiddle	-11.347
▁fiddling	-11.347
▁fingernails	-11.347
▁fissure	-11.347
▁flavor	-11.347
▁foraminifera	-11.347
▁frequently	-11.347
▁frisbee	-11.347
▁frittering	-11.347
▁furthermore	-11.347
▁glendarach	-11.347
▁glitter	-11.347
▁glitterbots	-11.347
▁grasshopper	-11.347
▁grenade	-11.347
▁grumpy	-11.347
▁gubgub	-11.347
▁gullywhumper	-11.347
▁gunfight	-11.347
▁hahahahaha	-11.347
▁haleiwa	-11.347
▁handkerchief	-11.347
▁harrington	-11.347
▁himalayan	-11.347
▁honolulu	-11.347
▁husky	-11.347
▁impeccable	-11.347
▁incognito	-11.347
▁indefinitely	-11.347
▁independen	-11.347
▁individuals	-11.347
▁injuries	-11.347
▁insignia	-11.347
▁interview	-11.347
▁jeepers	-11.347
▁jehoshaphat	-11.347
▁jeopardiz	-11.347
▁jerusalem	-11.347
▁kaminsky	-11.347
▁kekchi	-11.347
▁kudoyama	-11.347
▁kurusu	-11.347
▁landscape	-11.347
▁landslide	-11.347
▁leonard	-11.347
▁lisnin	-11.347
▁liverpool	-11.347
▁locomotive	-11.347
▁lurvy	-11.347
▁mackerel	-11.347
▁magistrate	-11.347
▁magnitude	-11.347
▁manifestation	-11.347
▁mattress	-11.347
▁mcbrusque	-11.347
▁mebbe	-11.347
▁mopani	-11.347
▁mortars	-11.347
▁mumblechook	-11.347
▁muscles	-11.347
▁nicole	-11.347
▁nocturnal	-11.347
▁notorious	-11.347
▁nowadays	-11.347
▁nugget	-11.347
▁oaks	-11.347
▁obsessed	-11.347
▁oldfashioned	-11.347
▁ominous	-11.347
▁onstage	-11.347
▁optimistic	-11.347
▁overseas	-11.347
▁parachutist	-11.347
▁peabody	-11.347
▁perfume	-11.347
▁phenomenal	-11.347
▁plastic	-11.347
▁platoon	-11.347
▁playground	-11.347
▁premium	-11.347
▁privacy	-11.347
▁prodigy	-11.347
▁proprietor	-11.347
▁prosperity	-11.347
▁prototype	-11.347
▁provision	-11.347
▁puberty	-11.347
▁pullaook	-11.347
▁purchase	-11.347
▁quaint	-11.347
▁quarantine	-11.347
▁ratcliffe	-11.347
▁recreation	-11.347
▁refined	-11.347
▁refinement	-11.347
▁reflection	-11.347
▁reflexes	-11.347
▁registered	-11.347
▁regroup	-11.347
▁reliable	-11.347
▁resolve	-11.347
▁revenge	-11.347
▁rokuro	-11.347
▁rosebud	-11.347
▁roubles	-11.347
▁routine	-11.347
▁rubbish	-11.347
▁ruckus	-11.347
▁rundstedt	-11.347
▁santiano	-11.347
▁scartaris	-11.347
▁scrawny	-11.347
▁scurvy	-11.347
▁sensible	-11.347
▁shortsighted	-11.347
▁shrimp	-11.347
▁situated	-11.347
▁skeleton	-11.347
▁skunk	-11.347
▁solitude	-11.347
▁soninlaw	-11.347
▁spectacle	-11.347
▁spectacular	-11.347
▁staircase	-11.347
▁stepdaughter	-11.347
▁stereo	-11.347
▁stokey	-11.347
▁subordinates	-11.347
▁superficial	-11.347
▁supplies	-11.347
▁switzerland	-11.347
▁sycamore	-11.347
▁symphony	-11.347
▁synagogue	-11.347
▁sync	-11.347
▁teenagers	-11.347
▁temporary	-11.347
▁throng	-11.347
▁thursday	-11.347
▁titanic	-11.347
▁toodleoo	-11.347
▁troubadours	-11.347
▁tsuge	-11.347
▁tybalt	-11.347
▁ultimatum	-11.347
▁underestimate	-11.347
▁unexpected	-11.347
▁unhappy	-11.347
▁unpopular	-11.347
▁unpredictable	-11.347
▁vagabond	-11.347
▁vassal	-11.347
▁venice	-11.347
▁victim	-11.347
▁violate	-11.347
▁violence	-11.347
▁violet	-11.347
▁virtuous	-11.347
▁vulnerable	-11.347
▁wampum	-11.347
▁wardrobe	-11.347
▁warthog	-11.347
▁wheelchair	-11.347
▁willerstein	-11.347
▁wolverine	-11.347
▁zaneeta	-11.347
▁zenkuro	-11.347
synchronize	-11.347
▁aerodynamic	-11.347
▁bundle	-11.347
▁domestic	-11.347
▁doubledeal	-11.347
▁endanger	-11.347
▁lammas	-11.347
▁linguist	-11.347
▁mechanism	-11.347
▁overreact	-11.347
▁railroad	-11.347
▁skirmish	-11.347
▁sleigh	-11.347
▁swolle	-11.347
▁technolog	-11.347
▁antelope	-11.347
▁awhile	-11.347
▁bellowes	-11.347
▁brawl	-11.347
▁breast	-11.347
▁burnford	-11.347
▁chaplain	-11.347
▁choosing	-11.347
▁clown	-11.347
▁conform	-11.347
▁conspiracy	-11.347
▁cushion	-11.347
▁davis	-11.347
▁econom	-11.347
▁eliza	-11.347
▁explosive	-11.347
▁focus	-11.347
▁gordon	-11.347
▁grotty	-11.347
▁indicated	-11.347
▁inspire	-11.347
▁jocko	-11.347
▁leather	-11.347
▁lebec	-11.347
▁otfice	-11.347
▁outlaw	-11.347
▁physici	-11.347
▁requit	-11.347
▁ribbon	-11.347
▁shawl	-11.347
▁towel	-11.347
▁translation	-11.347
▁ultra	-11.347
▁woooah	-11.347
▁yawning	-11.347
heimer	-11.347
▁arthur	-11.347
▁bunion	-11.347
▁dixon	-11.347
▁endurance	-11.347
▁enlighten	-11.347
▁excess	-11.347
▁grief	-11.347
▁inkling	-11.347
▁ireland	-11.347
▁kimmel	-11.347
▁llama	-11.347
▁overlap	-11.347
▁pregnan	-11.347
▁related	-11.347
▁revol	-11.347
▁shrine	-11.347
▁totem	-11.347
▁vamp	-11.347
▁wimp	-11.347
▁yarns	-11.347
wield	-11.347
▁aggr	-11.347
▁chutn	-11.347
▁editor	-11.347
▁entertained	-11.347
▁glance	-11.347
▁hydr	-11.347
▁loathe	-11.347
▁maniacal	-11.347
▁mayfair	-11.347
▁motto	-11.347
▁pappy	-11.347
▁screw	-11.347
▁seagull	-11.347
▁smack	-11.347
▁theater	-11.347
▁valpa	-11.347
otamus	-11.347
▁bawn	-11.347
▁crowbar	-11.347
▁depot	-11.347
▁nuthin	-11.347
▁onward	-11.347
▁orbit	-11.347
▁prick	-11.347
▁protein	-11.347
▁roam	-11.347
▁rojas	-11.347
▁valve	-11.347
▁vicar	-11.347
titude	-11.347
▁bueno	-11.347
▁finance	-11.347
▁loaf	-11.347
▁muddle	-11.347
▁pooch	-11.347
▁ceiling	-11.347
▁lifesaver	-11.347
▁constable	-11.347
▁content	-11.347
▁cruci	-11.347
▁cusco	-11.347
▁deceit	-11.347
▁ninth	-11.347
▁orient	-11.347
▁persuad	-11.347
▁salesmen	-11.347
▁sherman	-11.347
▁blink	-11.347
▁prompt	-11.347
▁rebel	-11.347
▁thrive	-11.347
▁eager	-11.347
▁hypocrites	-11.347
▁masque	-11.347
▁mayhem	-11.347
▁petitioner	-11.347
▁prior	-11.347
▁typesett	-11.347
▁berlin	-11.347
▁disobeyed	-11.347
▁promote	-11.347
▁salvage	-11.347
▁nomad	-11.347
▁whiz	-11.347
unning	-11.347
▁clink	-11.347
▁seduce	-11.347
▁astern	-11.347
▁cinna	-11.347
▁macke	-11.347
▁oaf	-11.347
▁sermon	-11.347
▁gently	-11.347
▁orgy	-11.347
▁perkins	-11.347
▁bawd	-11.347
▁exceed	-11.347
▁scots	-11.347
▁gallows	-11.347
▁haydn	-11.347
▁forcing	-11.347
▁margin	-11.347
eparation	-11.347
▁item	-11.347
flicted	-11.347
▁cycle	-11.347
▁fancie	-11.347
▁hissef	-11.347
▁mock	-11.347
▁wiggl	-11.347
shuffle	-11.347
▁horsy	-11.347
▁clarify	-11.347
▁hawk	-11.347
▁precede	-11.347
▁vista	-11.347
▁dorm	-11.347
▁hallelu	-11.347
▁practical	-11.347
▁abyss	-11.347
▁angola	-11.347
▁scholar	-11.347
▁exaggerating	-11.347
▁negotiations	-11.347
▁racing	-11.347
▁serum	-11.347
▁trouser	-11.347
▁tweed	-11.347
▁nimble	-11.347
▁meteor	-11.347
▁response	-11.347
script	-11.347
▁baking	-11.347
▁courtesy	-11.347
yearold	-11.347
▁allerg	-11.347
▁hovering	-11.347
▁deaf	-11.347
▁dickens	-11.347
▁dragons	-11.347
ritis	-11.347
▁gregory	-11.347
▁marketplace	-11.347
▁bloke	-11.347
▁contestants	-11.347
▁crops	-11.347
▁pastime	-11.347
▁favourite	-11.347
▁nibble	-11.347
▁ritual	-11.347
▁newcomer	-11.347
▁herald	-11.347
▁altered	-11.347
▁perilous	-11.347
▁tranquilizers	-11.347
▁sinned	-11.347
▁waitress	-11.347
▁fascinating	-11.347
▁abett	-11.347
▁gorge	-11.347
▁hideandseek	-11.347
▁winston	-11.347
▁gambling	-11.347
▁idol	-11.347
▁reply	-11.347
▁downwind	-11.347
ovsky	-11.347
shrunk	-11.347
▁identical	-11.347
▁acute	-11.347
▁deputi	-11.347
▁inscription	-11.347
▁insignificant	-11.347
▁repuls	-11.3471
▁knob	-11.3471
▁upsidedown	-11.3471
▁visor	-11.3471
▁proposition	-11.3471
▁duties	-11.3471
categori	-11.3471
▁construction	-11.3471
▁toffe	-11.3471
▁emerge	-11.3471
▁muttering	-11.3471
▁snare	-11.3471
▁lunatic	-11.3471
▁examin	-11.3471
▁abrupt	-11.3471
▁phd	-11.3471
scotch	-11.3471
▁promisin	-11.3471
sturgeon	-11.3471
▁network	-11.3471
▁avail	-11.3471
▁hungarian	-11.3471
▁yummy	-11.3471
▁timid	-11.3471
▁chubby	-11.3471
▁rabble	-11.3471
▁bias	-11.3471
▁mallard	-11.3471
chunk	-11.3471
ulsion	-11.3471
logue	-11.3471
▁highlands	-11.3471
▁tusk	-11.3471
▁reyn	-11.3471
▁whipped	-11.3471
▁consum	-11.3471
▁salvation	-11.3471
heel	-11.3471
▁pucker	-11.3471
▁lenin	-11.3471
▁teeny	-11.3471
▁overlook	-11.3471
▁austria	-11.3471
▁lasz	-11.3471
▁substance	-11.3471
▁buns	-11.3471
▁educat	-11.3471
▁blong	-11.3472
▁brute	-11.3472
▁mississippi	-11.3472
▁scottish	-11.3472
▁cyrus	-11.3472
rooney	-11.3472
▁clapp	-11.3472
▁ketch	-11.3472
▁beckman	-11.3472
▁bratton	-11.3472
▁thirtyfive	-11.3472
▁parading	-11.3472
▁hicks	-11.3472
▁machi	-11.3472
▁nevada	-11.3472
▁riff	-11.3472
▁ferry	-11.3472
rizon	-11.3472
▁whwhat	-11.3473
▁favers	-11.3473
▁effective	-11.3473
▁industries	-11.3473
vail	-11.3473
▁woodwork	-11.3473
▁kiev	-11.3473
▁freight	-11.3473
▁racket	-11.3473
▁spiketail	-11.3473
▁revolutionary	-11.3473
▁upside	-11.3473
▁meatball	-11.3473
▁salute	-11.3473
▁scull	-11.3473
▁frag	-11.3474
▁tubby	-11.3474
▁wootchi	-11.3474
▁runnin	-11.3474
▁convention	-11.3474
▁possession	-11.3474
▁tidy	-11.3474
▁percent	-11.3474
▁bayou	-11.3474
▁seesaw	-11.3474
▁maintain	-11.3474
▁pranc	-11.3474
▁narrow	-11.3474
▁ammo	-11.3474
▁dwell	-11.3474
▁divide	-11.3475
▁triumphant	-11.3475
▁swoo	-11.3475
▁tummy	-11.3475
▁rice	-11.3475
▁kilo	-11.3475
▁homage	-11.3475
▁plaster	-11.3475
▁slack	-11.3475
▁songwriter	-11.3475
aniu	-11.3475
▁benefit	-11.3475
▁reinforce	-11.3475
▁barge	-11.3475
▁climate	-11.3475
▁improvise	-11.3475
▁resistance	-11.3475
▁whinn	-11.3475
▁yyou	-11.3475
▁criminal	-11.3475
▁cynical	-11.3475
ranea	-11.3475
▁bragging	-11.3476
▁livestock	-11.3476
▁overtime	-11.3476
▁troup	-11.3476
▁movements	-11.3476
▁horrib	-11.3476
▁juzo	-11.3476
▁variable	-11.3476
▁leadership	-11.3476
▁refreshment	-11.3476
▁karen	-11.3476
▁steven	-11.3476
▁invaders	-11.3477
▁myth	-11.3477
▁ethnology	-11.3477
▁stitch	-11.3477
▁copper	-11.3477
▁slap	-11.3477
▁wuh	-11.3477
▁approve	-11.3477
▁harsh	-11.3477
▁satis	-11.3477
gghh	-11.3477
▁monty	-11.3477
▁grap	-11.3477
▁jip	-11.3478
▁ugli	-11.3478
▁achievement	-11.3478
zmo	-11.3478
crete	-11.3478
▁confident	-11.3479
nuck	-11.3479
▁flour	-11.3479
▁jose	-11.3479
▁abel	-11.3479
▁chapel	-11.3479
▁lenape	-11.3479
▁suis	-11.3479
▁studies	-11.3479
▁lunchtime	-11.3479
▁whim	-11.3479
▁circuit	-11.3479
▁frequency	-11.3479
▁literally	-11.3479
▁shield	-11.3479
▁magnet	-11.3479
▁crisp	-11.348
▁slee	-11.348
▁sober	-11.348
kwood	-11.348
▁spout	-11.348
▁controller	-11.348
▁billie	-11.348
▁solicitor	-11.348
▁retract	-11.3481
made	-11.3481
▁hence	-11.3481
▁admirers	-11.3481
▁chimp	-11.3481
▁mold	-11.3481
▁heartbreak	-11.3482
▁vibrat	-11.3482
▁midst	-11.3482
▁shark	-11.3482
▁commandos	-11.3482
▁european	-11.3483
▁chatting	-11.3483
▁lizzy	-11.3483
▁ax	-11.3483
▁zipadee	-11.3483
mortal	-11.3483
▁stove	-11.3484
▁housekeeper	-11.3484
▁logistic	-11.3484
▁executioner	-11.3484
iddy	-11.3484
▁spotted	-11.3484
actic	-11.3484
▁clar	-11.3485
▁smit	-11.3485
▁harmoni	-11.3485
▁icelandic	-11.3485
▁grasp	-11.3485
▁nursery	-11.3485
▁lind	-11.3485
▁stroll	-11.3485
pril	-11.3485
▁soda	-11.3485
▁patri	-11.3486
▁waterproof	-11.3486
▁rash	-11.3486
▁ramp	-11.3486
▁transition	-11.3486
asco	-11.3486
▁omen	-11.3486
▁wail	-11.3487
saynwittgenstein	-11.3487
▁barney	-11.3487
▁outdoor	-11.3487
▁nutri	-11.3488
▁mixup	-11.3488
▁freefall	-11.3488
▁eddy	-11.3488
insula	-11.3488
▁hatred	-11.3488
▁ira	-11.3488
▁eco	-11.3488
▁geese	-11.349
▁fluh	-11.349
▁riddl	-11.349
▁eber	-11.349
iiii	-11.3491
tany	-11.3491
feit	-11.3491
▁rim	-11.3491
▁confession	-11.3491
▁bail	-11.3491
▁whore	-11.3492
▁sacrificed	-11.3492
▁wooow	-11.3492
▁acquired	-11.3492
▁vern	-11.3492
▁buc	-11.3493
▁sinful	-11.3494
▁kate	-11.3494
▁kneel	-11.3494
seen	-11.3494
▁scan	-11.3495
▁burst	-11.3495
sufficient	-11.3495
▁airline	-11.3496
rench	-11.3496
▁southeast	-11.3496
▁shaking	-11.3496
▁objection	-11.3497
▁cookies	-11.3497
ency	-11.3498
▁eee	-11.3498
▁spies	-11.3498
▁fruition	-11.3499
▁infra	-11.3499
▁notion	-11.3499
▁comment	-11.3499
▁quil	-11.3501
▁zag	-11.3501
▁crafty	-11.3501
▁possibility	-11.3501
▁virtuoso	-11.3501
▁settlement	-11.3501
▁quest	-11.3502
▁betrayal	-11.3502
ybody	-11.3502
▁stepping	-11.3503
▁barf	-11.3503
▁fitting	-11.3503
▁eva	-11.3503
lamit	-11.3504
▁warmth	-11.3504
cco	-11.3504
▁bravery	-11.3504
▁statement	-11.3505
▁madman	-11.3506
▁urged	-11.3507
▁shaved	-11.3507
▁hooter	-11.3507
▁haunted	-11.3507
▁superb	-11.3507
▁ross	-11.3508
▁mandat	-11.3508
▁hoho	-11.3509
▁mab	-11.3509
▁riot	-11.3509
▁vince	-11.351
▁torment	-11.351
▁organise	-11.351
▁gem	-11.351
ission	-11.351
lene	-11.3511
▁beck	-11.3511
▁mitt	-11.3511
▁toggle	-11.3511
borg	-11.3512
▁widower	-11.3512
easy	-11.3512
▁wooh	-11.3513
▁farther	-11.3514
▁vel	-11.3514
▁moron	-11.3516
▁correction	-11.3517
▁campus	-11.3517
pole	-11.3517
▁ragged	-11.3517
▁sump	-11.3517
▁bombo	-11.3518
▁assembled	-11.3521
▁enable	-11.3521
▁container	-11.3521
▁retrieved	-11.3521
▁prof	-11.3522
▁sac	-11.3523
▁despised	-11.3523
populat	-11.3523
ushi	-11.3525
▁puffin	-11.3525
▁arch	-11.3525
▁kiddo	-11.3526
▁bitterly	-11.3528
nator	-11.3528
▁contractor	-11.353
itable	-11.353
phoni	-11.353
▁scope	-11.3531
▁vig	-11.3531
level	-11.3531
▁faithfully	-11.3532
▁mental	-11.3532
ppen	-11.3532
reet	-11.3537
generat	-11.3537
▁honorable	-11.354
▁crystal	-11.354
▁wah	-11.3541
▁shit	-11.3542
▁bakery	-11.3542
mind	-11.3547
▁miller	-11.355
▁cob	-11.3551
▁kar	-11.3551
▁savor	-11.3552
▁grinn	-11.3553
▁picket	-11.3555
zar	-11.3556
▁eu	-11.3558
gate	-11.3563
▁bunker	-11.3564
▁required	-11.3566
abilities	-11.3566
▁hugg	-11.3568
▁diego	-11.357
▁dese	-11.3571
▁payment	-11.3574
▁gay	-11.3578
▁seaman	-11.3579
▁goldminin	-11.358
unting	-11.3585
▁ruse	-11.3586
▁cheeky	-11.3588
▁glasses	-11.3593
▁produced	-11.3594
▁cobble	-11.3595
▁gr	-11.36
izza	-11.3602
▁vie	-11.361
▁mmmm	-11.3615
▁amaz	-11.3617
▁mur	-11.3619
▁tolerate	-11.3634
rison	-11.3634
▁viper	-11.3641
oid	-11.3642
▁carlo	-11.3648
▁simulat	-11.3656
oooooh	-11.366
itte	-11.3663
▁clue	-11.3666
pension	-11.3671
▁mode	-11.3682
▁unsh	-11.3687
▁marrie	-11.369
hyster	-11.3694
▁zipad	-11.3696
▁mast	-11.37
asis	-11.3706
▁accuse	-11.3707
▁kinsm	-11.3721
▁globe	-11.3727
erick	-11.3732
▁perjur	-11.3738
vive	-11.3738
eens	-11.3741
▁rese	-11.3762
rode	-11.3763
▁tailor	-11.3765
icht	-11.3781
liness	-11.3796
kask	-11.3804
obi	-11.3832
▁cann	-11.3866
▁stirr	-11.3887
mobile	-11.3928
▁moor	-11.3948
▁produc	-11.3975
olar	-11.3984
chev	-11.3984
eologist	-11.4002
nickers	-11.4043
▁cav	-11.4051
▁trea	-11.4102
oof	-11.4126
▁straighten	-11.4139
▁rambl	-11.418
▁braz	-11.4197
antic	-11.4223
lena	-11.4243
▁wedde	-11.4276
mitt	-11.4278
witch	-11.4306
▁damp	-11.4316
▁blan	-11.4335
▁posi	-11.4338
gel	-11.4381
▁gam	-11.4412
▁sou	-11.4415
▁bagg	-11.4421
▁haaa	-11.4422
▁despi	-11.4442
▁wewe	-11.4442
hopping	-11.4466
wash	-11.4467
▁snort	-11.4468
▁hoot	-11.4483
▁amig	-11.4591
▁too	-11.4668
▁wester	-11.47
▁ignoran	-11.4712
dict	-11.4747
▁pris	-11.4755
▁chil	-11.4772
▁fift	-11.4778
▁moi	-11.481
▁easter	-11.4915
▁sparkl	-11.504
▁desir	-11.5052
pence	-11.52
▁fleab	-11.521
▁jun	-11.5286
hole	-11.5305
brow	-11.5334
nard	-11.5369
oooooo	-11.5407
coup	-11.5416
rock	-11.5485
ometer	-11.5568
lop	-11.5616
▁unsu	-11.5684
ohhoh	-11.5814
rud	-11.5853
ferred	-11.5896
lia	-11.5937
itious	-11.5963
▁flo	-11.5992
emia	-11.6017
▁explod	-11.624
▁continu	-11.6241
graceful	-11.6313
▁studi	-11.6468
ception	-11.6555
defeated	-11.6579
oatskin	-11.6591
▁avenge	-11.6731
ask	-11.683
▁blam	-11.6879
▁trem	-11.6896
huhuh	-11.7063
nfection	-11.7127
harley	-11.719
▁enca	-11.7324
▁provid	-11.7341
pad	-11.7405
hook	-11.7476
▁complet	-11.762
hail	-11.762
trip	-11.7624
ceived	-11.7653
▁surviv	-11.7704
unite	-11.7736
▁dumplin	-11.7914
calib	-11.7973
▁lime	-11.8069
patiently	-11.808
▁conscious	-11.8093
anned	-11.8123
▁blea	-11.8141
jell	-11.8146
webs	-11.8152
icken	-11.8162
▁comrade	-11.8185
▁statu	-11.8187
▁affair	-11.8187
▁panzer	-11.8187
▁puppet	-11.819
▁ancestor	-11.8193
▁prophet	-11.8195
▁manner	-11.821
▁serv	-11.8237
shod	-11.8237
▁defens	-11.8307
▁measur	-11.8318
▁arriv	-11.8337
▁forgi	-11.8338
▁surround	-11.8346
numbered	-11.8351
rawlin	-11.8357
bellie	-11.8383
▁miniatur	-11.8383
azama	-11.8385
▁remov	-11.8391
▁bounc	-11.8395
▁accord	-11.8398
▁chirp	-11.8402
makers	-11.8405
▁gallop	-11.8406
▁appoint	-11.8408
wipe	-11.8411
▁neglect	-11.8412
▁haunt	-11.8415
▁concei	-11.8419
craft	-11.8423
talkin	-11.8425
shaking	-11.8427
southeast	-11.8427
oops	-11.8427
lili	-11.8428
informed	-11.8429
ability	-11.8429
shaft	-11.8429
gedy	-11.8429
held	-11.8429
lust	-11.8429
tooth	-11.843
whip	-11.843
bridge	-11.843
quote	-11.843
screen	-11.8431
driver	-11.8431
natural	-11.8431
filled	-11.8432
static	-11.8432
found	-11.8432
historic	-11.8432
satisfied	-11.8432
sounding	-11.8432
twenty	-11.8432
growling	-11.8433
waves	-11.8433
coast	-11.8433
adventure	-11.8433
apple	-11.8433
interest	-11.8433
meat	-11.8433
assemble	-11.8433
tune	-11.8433
bottom	-11.8433
▁sacrifice	-11.8433
large	-11.8433
engine	-11.8433
journey	-11.8433
bike	-11.8433
▁admir	-11.8433
jump	-11.8433
strong	-11.8433
charge	-11.8433
power	-11.8433
front	-11.8433
green	-11.8433
wife	-11.8433
damn	-11.8434
anything	-11.8434
living	-11.8434
▁acquire	-11.8434
free	-11.8434
storm	-11.8435
famous	-11.8435
▁excite	-11.8435
space	-11.8435
horse	-11.8436
hguhguhguh	-11.8436
scale	-11.8436
consider	-11.8437
▁capture	-11.8437
year	-11.8438
▁majest	-11.844
book	-11.844
▁rudd	-11.8441
china	-11.8441
▁filth	-11.8443
pulate	-11.8443
▁rejoic	-11.8446
▁execution	-11.8446
▁dispers	-11.8447
▁apparent	-11.8447
▁commerc	-11.8447
position	-11.8447
istics	-11.8448
crosse	-11.8449
double	-11.8449
noticed	-11.845
▁steep	-11.845
certain	-11.8451
▁secre	-11.8452
▁solicit	-11.8452
▁assistan	-11.8453
▁reveren	-11.8454
▁rabbi	-11.8454
▁villa	-11.8455
▁heli	-11.8456
▁craz	-11.8456
▁innocen	-11.8457
▁magnificen	-11.8457
ummin	-11.8457
▁profess	-11.8458
▁antarctic	-11.8458
▁regula	-11.8459
▁steve	-11.8459
▁meek	-11.846
▁cynic	-11.846
▁crimin	-11.846
▁braggin	-11.8461
▁festiv	-11.8461
▁posse	-11.8462
▁prettie	-11.8462
▁drivin	-11.8462
▁givin	-11.8462
▁inspect	-11.8463
▁settin	-11.8464
▁birt	-11.8464
circl	-11.8464
quat	-11.8464
▁publi	-11.8464
▁paratroop	-11.8464
▁investigat	-11.8464
▁dyin	-11.8465
▁behal	-11.8465
▁yeeha	-11.8465
rigger	-11.8466
aahhh	-11.8467
▁substan	-11.8467
▁kiddin	-11.8467
ormula	-11.8468
▁critici	-11.8468
nounce	-11.8468
▁refu	-11.8468
▁virgin	-11.8468
▁extraordina	-11.8468
nscription	-11.8468
mpressed	-11.8469
ammering	-11.8469
ruly	-11.8469
kids	-11.8469
▁aaaaaaaaa	-11.8469
▁forbid	-11.8469
ggler	-11.8469
▁psych	-11.8469
yyyy	-11.8469
▁occup	-11.847
▁convent	-11.847
doodledoo	-11.847
▁inhabit	-11.847
valent	-11.847
▁pterodid	-11.847
▁equi	-11.847
▁snook	-11.847
▁absurd	-11.847
▁alibi	-11.847
▁amputat	-11.847
▁circulat	-11.847
▁condemn	-11.847
▁contemplat	-11.847
▁corresponden	-11.847
▁dehydrat	-11.847
▁dillydally	-11.847
▁dissolv	-11.847
▁hairdress	-11.847
▁hitchhik	-11.847
▁impertinen	-11.847
▁journal	-11.847
▁punctual	-11.847
▁pygm	-11.847
▁suspend	-11.847
advertently	-11.847
comprehen	-11.847
hearted	-11.847
inancially	-11.847
newfoundlander	-11.847
onetwentyfour	-11.847
ppressed	-11.847
spiration	-11.847
▁abolish	-11.847
▁aboveaverage	-11.847
▁accelerati	-11.847
▁acrobat	-11.847
▁adjourned	-11.847
▁advisor	-11.847
▁aeronautics	-11.847
▁agricultur	-11.847
▁ajob	-11.847
▁akagi	-11.847
▁almighty	-11.847
▁ambula	-11.847
▁amelia	-11.847
▁andiron	-11.847
▁apologizing	-11.847
▁appetite	-11.847
▁apprehen	-11.847
▁artillery	-11.847
▁automobile	-11.847
▁bachelor	-11.847
▁banjo	-11.847
▁barricade	-11.847
▁battlewagons	-11.847
▁bazaar	-11.847
▁bbbbbbbbb	-11.847
▁believing	-11.847
▁benevolence	-11.847
▁benji	-11.847
▁benvolio	-11.847
▁beseech	-11.847
▁birdzilla	-11.847
▁bishop	-11.847
▁blossom	-11.847
▁bosom	-11.847
▁braggart	-11.847
▁brotherinlaw	-11.847
▁brunette	-11.847
▁bumbumbum	-11.847
▁bureaucratic	-11.847
▁bushwhackers	-11.847
▁butler	-11.847
▁candlestick	-11.847
▁caramel	-11.847
▁cardigan	-11.847
▁catastrophe	-11.847
▁catastrophic	-11.847
▁caterpillar	-11.847
▁cedric	-11.847
▁celebrit	-11.847
▁ceremon	-11.847
▁certificate	-11.847
▁cheetah	-11.847
▁choir	-11.847
▁chrome	-11.847
▁cirque	-11.847
▁classified	-11.847
▁claustrophobi	-11.847
▁clodhopper	-11.847
▁cocoon	-11.847
▁cognac	-11.847
▁compensat	-11.847
▁complication	-11.847
▁computer	-11.847
▁concierge	-11.847
▁conflict	-11.847
▁cooperation	-11.847
▁coordinates	-11.847
▁cornflower	-11.847
▁cornhuskers	-11.847
▁counterattack	-11.847
▁crisis	-11.847
▁cymbal	-11.847
▁debris	-11.847
▁degrad	-11.847
▁democra	-11.847
▁dessert	-11.847
▁detached	-11.847
▁dewdrop	-11.847
▁dingdong	-11.847
▁dismissed	-11.847
▁disoriented	-11.847
▁disrespect	-11.847
▁domyoji	-11.847
▁dubois	-11.847
▁dubuque	-11.847
▁dwarf	-11.847
▁eavesdrop	-11.847
▁ejection	-11.847
▁embassies	-11.847
▁encampment	-11.847
▁endeavor	-11.847
▁enraptured	-11.847
▁ethiop	-11.847
▁eureka	-11.847
▁exhibit	-11.847
▁fabrication	-11.847
▁famished	-11.847
▁faretheewell	-11.847
▁fascinate	-11.847
▁fencing	-11.847
▁fivequebecsie	-11.847
▁flaming	-11.847
▁flatboat	-11.847
▁fractured	-11.847
▁frazzle	-11.847
▁furniture	-11.847
▁generosity	-11.847
▁georgia	-11.847
▁geranium	-11.847
▁germinat	-11.847
▁gikkingen	-11.847
▁giraffe	-11.847
▁glider	-11.847
▁glinka	-11.847
▁goepner	-11.847
▁grammar	-11.847
▁grizzly	-11.847
▁guatemala	-11.847
▁gymnasium	-11.847
▁hahahahahahaha	-11.847
▁herpolsheimers	-11.847
▁hickam	-11.847
▁humbly	-11.847
▁idolatry	-11.847
▁immaterial	-11.847
▁impartial	-11.847
▁impostor	-11.847
▁impresario	-11.847
▁indubitably	-11.847
▁infinite	-11.847
▁injection	-11.847
▁inquir	-11.847
▁integr	-11.847
▁intimidate	-11.847
▁istanbul	-11.847
▁jabbering	-11.847
▁jeanbob	-11.847
▁jeopardy	-11.847
▁junction	-11.847
▁kentner	-11.847
▁kentucky	-11.847
▁kohler	-11.847
▁kramer	-11.847
▁krunklehorn	-11.847
▁landmark	-11.847
▁lasagna	-11.847
▁laurence	-11.847
▁lecture	-11.847
▁lindbergh	-11.847
▁liquid	-11.847
▁liquor	-11.847
▁lisbon	-11.847
▁lllinois	-11.847
▁magazine	-11.847
▁magnifier	-11.847
▁marseilles	-11.847
▁marshmallow	-11.847
▁massawomecks	-11.847
▁mathematics	-11.847
▁mcbane	-11.847
▁mclntosh	-11.847
▁menthol	-11.847
▁merchandise	-11.847
▁mercutio	-11.847
▁misfortune	-11.847
▁mislaid	-11.847
▁mitgang	-11.847
▁moisture	-11.847
▁monolith	-11.847
▁mousetrap	-11.847
▁musket	-11.847
▁nakoma	-11.847
▁newsflash	-11.847
▁niitaka	-11.847
▁novelty	-11.847
▁nutshell	-11.847
▁obligation	-11.847
▁obliterate	-11.847
▁oblivio	-11.847
▁odysse	-11.847
▁ooeeooahah	-11.847
▁orangutan	-11.847
▁ornament	-11.847
▁overload	-11.847
▁overnight	-11.847
▁oyster	-11.847
▁pachyderm	-11.847
▁pantaloni	-11.847
▁peddler	-11.847
▁pemsel	-11.847
▁permanency	-11.847
▁persever	-11.847
▁pestilence	-11.847
▁phantasmagori	-11.847
▁phase	-11.847
▁phillips	-11.847
▁phraseology	-11.847
▁pimples	-11.847
▁platform	-11.847
▁pneumatic	-11.847
▁pontiff	-11.847
▁portugal	-11.847
▁potential	-11.847
▁predators	-11.847
▁prefect	-11.847
▁presume	-11.847
▁pseudopod	-11.847
▁qualities	-11.847
▁receipt	-11.847
▁reconnect	-11.847
▁resource	-11.847
▁revitalize	-11.847
▁rhinoceros	-11.847
▁samaritan	-11.847
▁sanctuary	-11.847
▁satsuma	-11.847
▁sauerkraut	-11.847
▁saxophone	-11.847
▁scepter	-11.847
▁schulz	-11.847
▁scorpions	-11.847
▁seaplane	-11.847
▁selves	-11.847
▁shapiro	-11.847
▁sisterinlaw	-11.847
▁sosuke	-11.847
▁speculati	-11.847
▁stowaways	-11.847
▁straddle	-11.847
▁straightforward	-11.847
▁stunned	-11.847
▁summerjob	-11.847
▁superintendent	-11.847
▁sympath	-11.847
▁tahnimara	-11.847
▁tajima	-11.847
▁talktalk	-11.847
▁terrain	-11.847
▁terror	-11.847
▁testimony	-11.847
▁thicklipped	-11.847
▁tiffany	-11.847
▁torpex	-11.847
▁treacherous	-11.847
▁troubie	-11.847
▁truncheon	-11.847
▁turbine	-11.847
▁twentyfour	-11.847
▁twiddlydee	-11.847
▁uberta	-11.847
▁uncomfortabl	-11.847
▁unicorn	-11.847
▁upsydaisy	-11.847
▁vaporize	-11.847
▁viceroy	-11.847
▁violation	-11.847
