<unk>	0
<s>	0
</s>	0
s	-3.46208
▁im	-4.58379
▁dont	-4.64485
▁know	-4.74587
▁get	-4.81606
▁oh	-4.83825
▁go	-4.86126
▁right	-4.96333
▁come	-4.97092
▁like	-4.97683
▁well	-5.01157
ing	-5.0479
▁got	-5.09897
▁youre	-5.13575
▁one	-5.19762
▁yeah	-5.20927
▁thats	-5.21913
▁good	-5.24396
ed	-5.25019
▁see	-5.3558
▁think	-5.3968
▁hey	-5.45255
▁na	-5.47067
▁want	-5.48177
▁back	-5.54678
▁look	-5.55732
▁okay	-5.59673
▁time	-5.60489
▁yes	-5.64284
▁us	-5.64976
d	-5.67835
▁going	-5.68974
▁l	-5.71158
▁gon	-5.72424
▁ill	-5.72943
▁take	-5.73951
▁would	-5.77755
▁cant	-5.78259
▁hes	-5.80941
y	-5.8527
▁say	-5.88194
▁little	-5.90263
▁way	-5.90373
▁never	-5.91422
▁man	-5.92136
▁mr	-5.93942
▁could	-5.95693
▁really	-5.95915
▁tell	-5.99181
▁need	-6.01326
▁thank	-6.0238
▁make	-6.0285
▁	-6.03976
er	-6.04968
▁lets	-6.06531
▁something	-6.06614
▁love	-6.07658
e	-6.11926
▁let	-6.13322
▁mean	-6.14791
▁ive	-6.14963
▁theres	-6.17338
▁whats	-6.18424
▁sorry	-6.19374
▁didnt	-6.19375
▁please	-6.19989
▁wait	-6.24376
▁thing	-6.26807
ly	-6.2691
▁day	-6.30406
▁help	-6.31204
▁give	-6.32262
▁two	-6.36246
▁great	-6.3747
▁home	-6.3898
▁much	-6.40874
▁uh	-6.44002
▁sure	-6.44299
▁stop	-6.46027
▁must	-6.46135
▁said	-6.47608
▁away	-6.48574
▁ever	-6.4863
▁sir	-6.48885
▁guys	-6.48918
▁find	-6.50689
▁new	-6.50745
▁theyre	-6.50989
▁even	-6.51391
▁better	-6.51952
▁people	-6.52143
▁life	-6.53972
▁shes	-6.56214
▁music	-6.56782
▁first	-6.57766
▁keep	-6.5885
▁thought	-6.59926
in	-6.61645
▁night	-6.64661
▁always	-6.65035
▁put	-6.65729
▁nothing	-6.65989
▁long	-6.66525
▁maybe	-6.6714
▁things	-6.67274
▁anything	-6.70656
▁feel	-6.71051
▁guy	-6.7142
▁place	-6.71781
▁still	-6.72266
p	-6.72313
▁big	-6.73279
▁dad	-6.74381
a	-6.74861
▁whoa	-6.75149
▁stay	-6.75869
▁old	-6.7618
▁work	-6.76628
▁huh	-6.77041
▁boy	-6.78101
▁believe	-6.78405
▁leave	-6.78752
▁youve	-6.78754
▁call	-6.78828
t	-6.79509
▁best	-6.80737
▁wont	-6.81826
▁youll	-6.81827
▁around	-6.82502
r	-6.83033
▁course	-6.83399
▁hello	-6.83469
▁world	-6.83627
▁nice	-6.85462
▁bad	-6.8624
n	-6.86743
▁hi	-6.86953
▁id	-6.87291
▁talk	-6.87449
▁hear	-6.87662
▁miss	-6.87676
▁done	-6.88516
▁house	-6.88752
▁coming	-6.89738
▁may	-6.89998
▁everything	-6.90122
▁ta	-6.906
▁last	-6.91211
▁try	-6.91313
▁baby	-6.91416
▁kind	-6.91779
o	-6.91958
▁name	-6.92067
▁mom	-6.92204
▁play	-6.92528
▁ah	-6.94194
▁god	-6.94631
▁isnt	-6.95163
▁made	-6.95482
▁show	-6.95593
▁hold	-6.95814
▁every	-6.9664
al	-6.97708
▁might	-6.97716
▁gasps	-6.98357
▁told	-6.98534
▁lot	-6.98759
es	-6.98763
▁mother	-6.99557
m	-6.99799
▁playing	-7.0135
▁ready	-7.0188
▁doesnt	-7.02017
▁girl	-7.02254
▁enough	-7.0229
▁remember	-7.02311
g	-7.02851
▁thanks	-7.02879
▁run	-7.04277
▁dog	-7.04857
▁left	-7.05913
▁laughing	-7.06064
▁grunts	-7.06667
▁found	-7.06778
▁listen	-7.06998
▁morning	-7.07056
▁happy	-7.07634
▁years	-7.08867
▁three	-7.10561
▁another	-7.12356
▁getting	-7.12633
▁car	-7.13457
▁fine	-7.13589
▁wrong	-7.1388
c	-7.14489
▁knew	-7.14806
b	-7.15271
▁together	-7.15428
▁hell	-7.1594
▁ask	-7.16478
▁next	-7.17318
▁school	-7.17325
▁excuse	-7.18277
▁understand	-7.1892
▁chuckles	-7.19008
▁wan	-7.19423
▁move	-7.1947
▁guess	-7.19569
▁money	-7.2088
▁ha	-7.20944
▁aint	-7.21208
▁king	-7.21384
▁came	-7.2152
▁weve	-7.22543
▁ok	-7.22557
▁today	-7.23889
▁hope	-7.24574
▁family	-7.24917
▁mind	-7.24941
▁father	-7.25369
▁someone	-7.25601
▁real	-7.25756
i	-7.25978
▁wouldnt	-7.2605
▁talking	-7.26191
▁happened	-7.26247
▁everyone	-7.26313
▁la	-7.27008
▁live	-7.2726
▁captain	-7.28049
h	-7.28395
▁son	-7.285
▁idea	-7.2877
▁friend	-7.2908
▁bring	-7.2956
▁head	-7.29985
▁tomorrow	-7.30195
▁everybody	-7.30558
▁red	-7.31066
▁meet	-7.31387
l	-7.31895
▁true	-7.3202
▁whole	-7.32397
▁end	-7.32521
▁watch	-7.32704
▁kill	-7.33328
▁whos	-7.33614
▁um	-7.34002
▁fight	-7.34238
▁cause	-7.34256
▁fun	-7.34314
▁seen	-7.35413
▁heard	-7.35945
u	-7.36052
▁laughs	-7.3639
en	-7.36483
▁dear	-7.36514
le	-7.36544
▁care	-7.36599
▁start	-7.36694
▁hand	-7.36977
▁kids	-7.37163
▁trying	-7.38721
▁worry	-7.3888
▁dead	-7.3888
▁far	-7.39386
ion	-7.39391
▁friends	-7.39494
▁heart	-7.39725
▁else	-7.40078
▁jack	-7.40404
▁lost	-7.40477
▁kid	-7.40833
▁looking	-7.4088
▁pretty	-7.41275
▁job	-7.41275
▁wanted	-7.42021
▁turn	-7.42332
▁woman	-7.42495
▁wasnt	-7.42495
▁eat	-7.42659
▁gone	-7.427
▁without	-7.43317
▁alone	-7.43326
f	-7.4384
on	-7.43909
▁alice	-7.44567
▁tonight	-7.4498
▁room	-7.44992
▁youd	-7.45427
▁em	-7.45791
ers	-7.45892
▁minute	-7.46161
ic	-7.46172
▁yet	-7.46255
▁sighs	-7.46801
▁matter	-7.4755
▁mrs	-7.47785
▁open	-7.48572
▁honey	-7.4883
▁many	-7.48891
▁s	-7.50165
▁lm	-7.5027
▁screaming	-7.50734
▁sit	-7.51193
▁afraid	-7.51924
▁beautiful	-7.51924
▁peter	-7.52014
w	-7.52247
▁bit	-7.52421
▁dream	-7.53467
▁face	-7.53471
or	-7.53618
▁an	-7.53835
▁use	-7.54134
▁door	-7.55389
▁days	-7.55456
▁havent	-7.56053
▁part	-7.56398
▁already	-7.56522
▁ooh	-7.56535
est	-7.56676
▁hard	-7.57047
▁saw	-7.5748
▁game	-7.5827
▁christmas	-7.58409
▁went	-7.58906
▁wish	-7.59296
▁five	-7.59923
▁easy	-7.6036
▁die	-7.60383
▁g	-7.61468
▁forget	-7.61838
▁quite	-7.62406
▁men	-7.62724
▁since	-7.62837
▁water	-7.6284
ve	-7.63105
▁welcome	-7.63337
▁saying	-7.63454
▁actually	-7.63858
la	-7.64127
▁de	-7.64239
▁anyone	-7.6435
▁looks	-7.64368
▁says	-7.64533
▁un	-7.64942
▁stuff	-7.65889
▁wow	-7.65894
▁soon	-7.66179
▁mine	-7.66295
▁used	-7.66513
▁couldnt	-7.66536
▁problem	-7.67015
▁point	-7.67048
▁second	-7.67277
▁check	-7.67449
▁late	-7.67479
▁hmm	-7.67996
▁moment	-7.68517
▁inside	-7.69043
▁food	-7.69046
▁change	-7.69243
▁sleep	-7.69707
▁re	-7.69709
▁break	-7.69875
▁win	-7.70083
▁stand	-7.70571
▁boys	-7.70746
▁fire	-7.70875
▁young	-7.70957
▁hit	-7.71473
▁close	-7.72241
k	-7.72315
▁later	-7.72459
▁cool	-7.72851
▁p	-7.73781
▁side	-7.74044
it	-7.74193
▁arent	-7.74521
▁called	-7.75875
▁read	-7.75883
▁wheres	-7.75996
▁lady	-7.76268
▁al	-7.76549
▁shall	-7.76806
▁book	-7.77265
▁chance	-7.77383
▁year	-7.77809
▁grunting	-7.78037
▁full	-7.78078
▁c	-7.78455
▁enzo	-7.78554
▁team	-7.78579
▁high	-7.78661
▁four	-7.79721
▁happen	-7.8029
▁hands	-7.80468
▁brother	-7.81488
▁exactly	-7.81534
▁speak	-7.82223
▁business	-7.82701
▁power	-7.82749
▁voice	-7.82756
▁cat	-7.83103
us	-7.83281
▁crazy	-7.83349
▁children	-7.83351
▁pay	-7.83399
▁half	-7.83962
▁wife	-7.83982
▁boss	-7.83994
re	-7.84111
▁rest	-7.84216
▁nobody	-7.84587
▁making	-7.84593
▁supposed	-7.84781
▁hurt	-7.85281
na	-7.85298
▁perfect	-7.85648
▁perhaps	-7.85841
▁somebody	-7.85841
▁anyway	-7.85841
▁follow	-7.85929
▁b	-7.86367
▁though	-7.8638
▁working	-7.86467
▁cut	-7.86599
▁hate	-7.87229
▁sound	-7.87269
▁fast	-7.8747
▁step	-7.87746
▁town	-7.87758
▁hair	-7.87885
▁hurry	-7.88397
▁deal	-7.89163
▁a	-7.89669
▁miyagi	-7.897
▁took	-7.89703
▁radio	-7.89712
▁light	-7.89936
an	-7.90081
▁ow	-7.90352
▁denny	-7.90365
▁elephant	-7.9102
▁george	-7.9102
▁marley	-7.91023
▁mmm	-7.91063
ar	-7.91204
▁save	-7.91358
▁luck	-7.91479
▁almost	-7.91687
▁catch	-7.91733
▁free	-7.92364
▁speaking	-7.92384
▁continues	-7.92456
▁crowd	-7.92465
▁safe	-7.92899
▁trouble	-7.93033
▁probably	-7.93034
▁bob	-7.93047
▁waiting	-7.93072
▁groans	-7.93174
ter	-7.93204
▁whatever	-7.93714
▁ahead	-7.93723
▁sister	-7.94078
▁eyes	-7.94227
▁john	-7.94385
▁trust	-7.94401
▁papa	-7.94403
▁air	-7.94435
▁ago	-7.9446
▁dance	-7.94864
▁number	-7.95089
▁drink	-7.95128
▁means	-7.95307
ri	-7.95491
▁ball	-7.95638
st	-7.95741
▁control	-7.95787
▁pull	-7.96001
▁fly	-7.96038
ie	-7.96251
▁important	-7.96482
▁different	-7.96485
▁johnny	-7.96488
▁bet	-7.96589
▁plan	-7.96936
▁thinking	-7.96997
▁dinner	-7.97186
ies	-7.97832
▁girls	-7.97991
▁shut	-7.98615
▁secret	-7.99149
▁week	-7.99149
▁sweet	-7.9927
▁wonderful	-7.99406
▁goes	-7.99451
▁met	-7.99763
▁small	-7.99814
el	-7.99917
▁finally	-8.00116
▁makes	-8.00474
▁gentlemen	-8.00785
▁war	-8.00868
▁train	-8.01131
▁bed	-8.0138
▁question	-8.01404
▁anymore	-8.01519
▁bye	-8.0152
▁growls	-8.0152
▁hot	-8.01589
▁queen	-8.0226
▁forever	-8.02264
▁line	-8.02837
▁walk	-8.03346
▁pick	-8.03352
▁lord	-8.03753
▁behind	-8.03758
▁special	-8.03758
▁gave	-8.03773
▁sing	-8.03868
▁lll	-8.04046
▁buddy	-8.04519
▁along	-8.04523
▁hang	-8.04673
▁ship	-8.04889
▁promise	-8.04933
▁party	-8.04984
▁funny	-8.05291
ment	-8.05323
man	-8.05906
▁set	-8.06118
ro	-8.06344
ation	-8.0673
▁wants	-8.06885
▁ya	-8.07121
▁feet	-8.07611
▁parents	-8.07792
▁learn	-8.0801
▁smell	-8.08222
▁cheering	-8.08541
▁clear	-8.09094
▁least	-8.09189
▁story	-8.09194
▁word	-8.09307
ch	-8.09322
▁asked	-8.09702
▁lose	-8.09806
▁private	-8.09986
able	-8.10495
▁j	-8.10649
▁running	-8.10794
▁ladies	-8.10797
▁dr	-8.1083
▁lts	-8.11052
▁kidding	-8.11609
▁tried	-8.11625
▁top	-8.11709
▁eye	-8.11811
▁in	-8.11953
▁james	-8.12441
▁wake	-8.13258
▁till	-8.13263
▁phone	-8.13268
▁taking	-8.13295
ry	-8.14043
▁stupid	-8.14085
to	-8.14247
▁sea	-8.14691
▁person	-8.14823
▁coach	-8.14932
v	-8.15219
▁heres	-8.15233
▁buck	-8.15421
▁mama	-8.15525
▁anybody	-8.15772
▁damn	-8.15791
▁city	-8.15806
▁minutes	-8.15942
▁touch	-8.15988
th	-8.16066
▁married	-8.16627
▁harry	-8.16627
▁outside	-8.16631
▁daddy	-8.16667
▁seems	-8.16693
▁anna	-8.167
▁island	-8.17001
▁jacob	-8.17489
▁also	-8.17494
▁panting	-8.17505
▁tree	-8.17904
▁ten	-8.18054
▁fall	-8.18094
ish	-8.18129
▁evening	-8.18242
▁fear	-8.18349
▁professor	-8.18359
up	-8.18361
▁f	-8.18433
▁reason	-8.18498
▁th	-8.18693
▁mad	-8.19227
▁blood	-8.19248
ll	-8.20082
▁princess	-8.20098
▁itll	-8.20131
um	-8.20255
▁send	-8.20382
▁beat	-8.20407
by	-8.20528
▁french	-8.21014
▁theyll	-8.21014
▁fact	-8.21021
▁ho	-8.21037
▁r	-8.21111
▁song	-8.21787
▁death	-8.21915
▁living	-8.21915
▁land	-8.21961
▁sign	-8.2213
ting	-8.22141
▁started	-8.22234
▁con	-8.22413
ur	-8.22446
▁singing	-8.22693
▁daniel	-8.22823
▁brought	-8.22824
▁dude	-8.22824
▁lucky	-8.23217
▁bill	-8.23405
▁shouldnt	-8.23741
▁birthday	-8.23742
▁goodbye	-8.23743
▁t	-8.23769
▁times	-8.24062
▁feeling	-8.24445
▁lucy	-8.24667
▁white	-8.24695
il	-8.2546
li	-8.25564
▁able	-8.25925
▁drive	-8.26213
▁e	-8.26304
▁slow	-8.26365
▁country	-8.26572
▁taken	-8.26905
▁sounds	-8.27292
▁glad	-8.27488
▁cross	-8.27494
▁hat	-8.27634
▁bird	-8.27861
▁screams	-8.28104
▁six	-8.28451
▁shot	-8.285
▁hours	-8.28809
ty	-8.29118
▁killed	-8.29813
▁news	-8.29852
▁yi	-8.30306
▁daughter	-8.30416
▁sick	-8.30437
▁blue	-8.30482
▁buy	-8.30746
▁fair	-8.31082
▁died	-8.31351
▁truth	-8.314
▁ice	-8.31485
▁wed	-8.31828
▁scared	-8.31832
▁future	-8.324
▁sent	-8.32403
▁boat	-8.32429
▁eh	-8.32474
et	-8.32533
▁record	-8.32697
▁cute	-8.33121
▁prince	-8.33315
▁horse	-8.33368
▁either	-8.3341
ist	-8.33474
▁count	-8.33493
▁seem	-8.33713
te	-8.33725
▁dom	-8.33762
▁co	-8.34029
▁rock	-8.34142
▁amazing	-8.34431
▁wind	-8.35166
▁quiet	-8.35266
▁dogs	-8.35278
▁witch	-8.35364
▁child	-8.35457
▁simba	-8.35462
▁case	-8.35489
▁doctor	-8.35489
▁past	-8.35515
▁cold	-8.35669
▁sun	-8.35798
▁z	-8.35859
▁telling	-8.35972
▁magic	-8.36077
▁sometimes	-8.36139
z	-8.36198
▁aunt	-8.364
▁leaving	-8.36503
▁lebron	-8.36503
▁alive	-8.36552
▁loved	-8.36734
▁return	-8.3703
▁darling	-8.3754
▁husband	-8.37556
▁somewhere	-8.37556
▁york	-8.37558
▁terrible	-8.3761
▁deep	-8.38371
▁whoo	-8.38483
▁wonder	-8.38513
▁uncle	-8.3862
▁danielsan	-8.38621
▁couple	-8.38626
▁k	-8.38785
▁weeks	-8.3889
▁gun	-8.39084
ity	-8.39333
nt	-8.39373
▁short	-8.39494
▁careful	-8.39558
▁ground	-8.39695
▁felt	-8.39695
▁yall	-8.39734
▁poor	-8.39752
▁el	-8.39939
▁lives	-8.4038
▁jump	-8.40679
ne	-8.4068
▁pass	-8.407
▁shell	-8.40789
▁present	-8.4098
▁join	-8.41017
▁ring	-8.41206
▁needs	-8.41524
▁suppose	-8.41538
▁become	-8.41881
▁stick	-8.41881
▁drop	-8.41896
▁throw	-8.42231
▁fish	-8.42365
▁known	-8.42671
▁order	-8.4273
▁serious	-8.42801
▁quick	-8.42803
▁bear	-8.42972
▁riley	-8.42992
▁hows	-8.42996
▁tommy	-8.42997
▁mouth	-8.43029
▁yelling	-8.43173
▁beast	-8.43279
ma	-8.43306
▁wear	-8.43491
▁rather	-8.44118
▁d	-8.44284
▁sad	-8.44499
▁gasping	-8.44666
ck	-8.44767
▁imagine	-8.44906
▁earth	-8.45261
▁ride	-8.45314
ness	-8.45455
▁strong	-8.46162
ive	-8.46299
▁table	-8.46367
is	-8.46392
▁except	-8.46401
▁shrek	-8.46402
▁le	-8.46404
▁front	-8.46417
sh	-8.4702
ra	-8.47241
ia	-8.47372
▁absolutely	-8.47588
▁happening	-8.47639
▁mary	-8.47782
▁pain	-8.47964
▁laugh	-8.48016
▁act	-8.4806
ous	-8.48203
▁destroy	-8.48214
▁weird	-8.48517
▁english	-8.48707
▁excellent	-8.48741
▁harold	-8.48741
▁jamie	-8.48842
▁kiss	-8.49304
▁ma	-8.49572
▁yells	-8.49673
▁super	-8.49928
▁road	-8.49931
▁dawn	-8.49934
▁sort	-8.49938
▁cj	-8.49956
▁h	-8.5005
▁answer	-8.50491
▁protect	-8.50569
ul	-8.50909
▁dark	-8.51117
▁fault	-8.51136
▁maisie	-8.51136
▁possible	-8.51136
▁kevin	-8.51138
▁space	-8.5114
▁born	-8.51174
▁foot	-8.51175
▁hed	-8.5148
▁months	-8.51754
ta	-8.5179
▁knows	-8.51833
ba	-8.51978
▁mistake	-8.52356
▁sh	-8.5245
▁shoot	-8.5252
▁plays	-8.5256
▁clean	-8.5305
▁report	-8.53103
ant	-8.53194
▁surprise	-8.53244
▁office	-8.53358
▁straight	-8.53525
▁travel	-8.53572
▁choice	-8.53592
▁suit	-8.53602
▁rick	-8.53611
▁taste	-8.53646
▁strange	-8.54712
▁sense	-8.54768
▁elsa	-8.54846
▁pop	-8.54854
▁bar	-8.54875
▁groaning	-8.54894
▁bond	-8.54984
▁tim	-8.55449
da	-8.55496
▁picture	-8.55553
▁kick	-8.55579
▁figure	-8.55759
▁explain	-8.56106
▁throat	-8.56106
▁growling	-8.56122
▁maam	-8.56125
▁date	-8.56211
no	-8.5626
▁less	-8.56448
▁warm	-8.5684
▁pack	-8.56859
▁mess	-8.56876
▁human	-8.56891
▁bell	-8.57213
▁over	-8.57368
▁general	-8.57388
▁dramatic	-8.57388
▁moving	-8.57388
▁hungry	-8.57394
▁clothes	-8.57394
▁window	-8.57405
▁tired	-8.57419
▁longer	-8.57687
ce	-8.57874
▁piece	-8.58227
▁hour	-8.58266
▁smart	-8.58443
▁eve	-8.58622
▁anywhere	-8.58687
▁joy	-8.58687
▁wizard	-8.58688
▁rain	-8.58729
▁bella	-8.58815
▁certainly	-8.58851
▁gasp	-8.58976
▁ba	-8.59291
▁guard	-8.59558
▁meeting	-8.59666
▁zo	-8.59691
less	-8.59827
▁evil	-8.60003
▁impossible	-8.60003
▁relax	-8.60003
▁north	-8.60003
▁club	-8.60005
▁sky	-8.60022
▁marry	-8.60024
▁happens	-8.60158
▁ran	-8.60172
and	-8.6054
▁mountain	-8.60919
▁wall	-8.6099
▁worth	-8.61018
▁sc	-8.61113
▁words	-8.61133
▁wolf	-8.61299
▁majesty	-8.61336
▁middle	-8.61336
▁summer	-8.61337
am	-8.61379
▁unless	-8.61386
▁broken	-8.61426
▁wild	-8.6144
▁hide	-8.6145
▁push	-8.61486
▁enjoy	-8.61488
▁tom	-8.61509
▁gru	-8.61595
▁fix	-8.62169
ling	-8.62668
▁pal	-8.62672
▁chocolate	-8.62687
▁folks	-8.62687
▁chuckling	-8.62698
▁tv	-8.62728
▁tense	-8.62896
▁blow	-8.62958
ance	-8.63
▁teach	-8.6315
▁goodness	-8.63322
▁saved	-8.63392
▁butt	-8.6365
▁near	-8.6387
▁hero	-8.639
▁calling	-8.63965
▁seven	-8.64027
▁favorite	-8.64057
▁malcolm	-8.64057
▁martha	-8.64057
▁pleasure	-8.64057
▁million	-8.64062
▁max	-8.64068
▁skipper	-8.64102
▁madame	-8.64225
▁knock	-8.64278
▁needed	-8.64282
▁missed	-8.64335
▁bag	-8.64407
lo	-8.64523
▁crying	-8.64551
▁po	-8.64714
▁attack	-8.64916
▁fool	-8.651
▁bull	-8.65112
▁mm	-8.65428
▁morgan	-8.65446
▁brown	-8.65461
▁soul	-8.65471
▁shouting	-8.65506
▁carol	-8.65524
co	-8.6561
▁race	-8.65635
▁lead	-8.65705
un	-8.65967
▁sp	-8.66031
▁star	-8.66199
▁handle	-8.66385
▁write	-8.66608
▁class	-8.6672
▁meant	-8.66822
▁forgive	-8.66831
▁attention	-8.66854
▁proud	-8.66854
▁fiona	-8.66855
▁history	-8.66855
▁alright	-8.66862
▁decided	-8.67028
▁aw	-8.67088
ng	-8.6735
mo	-8.67932
▁normal	-8.68087
▁indistinct	-8.68093
▁soft	-8.68095
▁afternoon	-8.68283
▁london	-8.68283
▁selina	-8.68283
▁others	-8.68283
▁eight	-8.68287
▁calm	-8.68324
▁breathe	-8.68391
▁vi	-8.68479
▁lt	-8.68897
▁roll	-8.69087
▁lovely	-8.69436
▁street	-8.69547
▁box	-8.69659
▁fat	-8.69684
▁forgot	-8.69726
▁worse	-8.69732
▁eep	-8.69733
ke	-8.69889
▁grow	-8.70402
▁st	-8.70695
▁lock	-8.70764
▁cover	-8.70768
▁trip	-8.70788
▁given	-8.70869
▁visit	-8.7114
▁w	-8.71183
▁south	-8.71192
▁across	-8.71203
▁jesus	-8.71203
▁body	-8.7121
▁odie	-8.71228
▁gold	-8.71398
▁monster	-8.7259
▁women	-8.72695
▁aah	-8.72724
▁mark	-8.72758
▁expect	-8.73032
▁greatest	-8.73252
▁low	-8.73435
▁certain	-8.74019
▁si	-8.74148
▁belong	-8.74194
▁flight	-8.74222
age	-8.74379
▁comes	-8.74785
out	-8.74893
▁wondering	-8.75124
▁miles	-8.75128
▁quit	-8.75548
▁company	-8.75749
▁doubt	-8.75749
▁giving	-8.75749
▁major	-8.75749
▁police	-8.75749
▁puppy	-8.75749
▁lunch	-8.75749
▁extra	-8.75756
▁paper	-8.75759
▁key	-8.7587
▁pa	-8.75998
▁list	-8.7625
do	-8.76389
▁seat	-8.7655
ig	-8.77066
▁broke	-8.77215
ted	-8.77226
▁flo	-8.77244
▁definitely	-8.77311
▁dorothy	-8.77311
▁cheese	-8.77312
▁eddie	-8.77312
▁chicken	-8.77324
▁busy	-8.7754
▁names	-8.77643
▁finished	-8.77821
▁lie	-8.77836
▁roars	-8.77843
▁pan	-8.77978
▁snow	-8.78205
▁tea	-8.78538
ton	-8.78681
ot	-8.78755
▁simple	-8.78859
▁spot	-8.78892
▁thunder	-8.78899
▁nose	-8.78924
▁eagle	-8.78933
▁plane	-8.78976
▁shh	-8.79
▁sam	-8.79158
▁seriously	-8.79174
▁standing	-8.79186
id	-8.79753
▁finish	-8.79997
▁fighting	-8.80017
▁up	-8.80243
▁caught	-8.80512
▁mitchell	-8.80512
▁uhhuh	-8.80512
▁helen	-8.80512
▁hassan	-8.80512
▁tough	-8.80518
▁ross	-8.8056
▁board	-8.80572
▁tiny	-8.80608
▁none	-8.80833
▁leg	-8.80998
▁moon	-8.81081
▁mu	-8.81111
▁lots	-8.81228
▁changed	-8.81565
▁rules	-8.81585
▁clears	-8.81904
▁master	-8.82056
ped	-8.82109
▁breakfast	-8.82151
▁david	-8.82151
▁respect	-8.82151
▁speed	-8.82153
▁circle	-8.82153
▁kept	-8.82155
▁message	-8.82172
▁grab	-8.82195
▁san	-8.82221
▁floor	-8.82234
▁mo	-8.82261
ful	-8.8257
▁turned	-8.82597
▁worked	-8.82885
▁treat	-8.83255
▁offer	-8.83286
▁helping	-8.83355
▁to	-8.83432
me	-8.83484
▁peace	-8.83616
▁yep	-8.83621
▁entire	-8.83623
rs	-8.83722
▁church	-8.83818
▁giant	-8.83818
▁service	-8.83818
▁wrote	-8.83818
▁aye	-8.8382
▁black	-8.83824
▁karate	-8.83826
▁charge	-8.83832
▁asking	-8.83858
▁fit	-8.83989
▁questions	-8.8408
▁hole	-8.84134
▁fairy	-8.84307
▁chattering	-8.84336
▁owe	-8.84413
we	-8.84492
▁n	-8.84566
ti	-8.84997
vi	-8.85116
▁u	-8.8536
▁donkey	-8.85513
▁spongebob	-8.85513
▁kingdom	-8.85513
▁tight	-8.85518
▁dangerous	-8.85534
▁jill	-8.85534
▁round	-8.85546
▁uhoh	-8.85573
▁danger	-8.85576
▁totally	-8.85586
▁ugh	-8.85618
▁movie	-8.85818
▁dis	-8.8613
▁steal	-8.86606
▁sell	-8.86803
▁agree	-8.86885
▁victor	-8.86943
▁scar	-8.87057
▁julia	-8.87129
▁america	-8.87131
▁rich	-8.87228
▁machine	-8.87242
▁upon	-8.87294
▁share	-8.87315
▁looked	-8.87346
▁american	-8.87349
▁charming	-8.87467
▁quickly	-8.87536
▁v	-8.87722
x	-8.87803
one	-8.88025
▁o	-8.88255
▁out	-8.8827
▁village	-8.88381
▁watching	-8.88497
▁raise	-8.88645
▁realize	-8.88678
▁hospital	-8.88991
▁plankton	-8.88991
▁president	-8.88991
▁angry	-8.88991
▁wedding	-8.88995
▁molly	-8.88996
at	-8.8903
▁dave	-8.89039
▁sight	-8.89055
op	-8.8909
▁pre	-8.89229
▁interesting	-8.89342
▁flower	-8.89566
▁law	-8.89606
▁age	-8.89749
os	-8.89819
▁cry	-8.90345
▁m	-8.90517
▁madam	-8.90596
▁fell	-8.90662
▁punch	-8.90777
▁silver	-8.90777
▁worst	-8.90777
▁idiot	-8.90777
▁ugly	-8.90777
▁bright	-8.90786
▁stuck	-8.90787
ol	-8.91047
▁engine	-8.91731
▁wearing	-8.9181
▁ch	-8.91931
▁dress	-8.91999
▁reach	-8.92106
▁tr	-8.92181
▁da	-8.92207
▁mar	-8.92396
▁sail	-8.92499
▁michael	-8.92595
▁werent	-8.92596
▁castle	-8.92624
▁powerful	-8.92639
▁dumb	-8.9265
be	-8.92691
▁tony	-8.92714
ow	-8.92804
▁army	-8.92834
▁prove	-8.93059
▁monkey	-8.93183
▁boo	-8.93471
▁trees	-8.93571
▁dreams	-8.9369
▁rid	-8.93811
▁rule	-8.93873
im	-8.94153
▁wicked	-8.94447
▁bomb	-8.94447
▁merry	-8.94447
▁pardon	-8.94447
▁shake	-8.9446
▁scream	-8.94513
▁golden	-8.94526
▁press	-8.94539
▁rose	-8.94541
▁sitting	-8.94563
▁begin	-8.94565
ate	-8.95253
▁do	-8.9558
▁per	-8.95594
der	-8.95608
▁spend	-8.95687
▁cl	-8.95971
▁force	-8.95993
▁se	-8.96033
▁feels	-8.9606
▁spirit	-8.96334
▁charley	-8.96334
▁fresh	-8.96334
▁snake	-8.96334
▁green	-8.96334
▁price	-8.9634
▁yellow	-8.9634
▁match	-8.96355
▁cake	-8.96383
▁field	-8.96392
▁letters	-8.96408
▁early	-8.96469
▁ass	-8.96693
▁building	-8.96916
▁where	-8.9699
▁faster	-8.97039
▁soldier	-8.9707
▁state	-8.97092
▁wood	-8.97151
▁learned	-8.97605
▁lf	-8.97865
▁stole	-8.98168
▁lived	-8.98215
▁stone	-8.9823
▁congratulations	-8.98257
▁instead	-8.98257
▁gift	-8.98257
▁theyve	-8.98257
▁view	-8.98257
▁beauty	-8.9826
▁corner	-8.98377
▁barking	-8.98461
▁planet	-8.98501
▁hiding	-8.98517
▁shit	-8.98548
lin	-8.9867
ee	-8.98958
go	-8.98993
mp	-8.99097
▁pig	-8.99134
ka	-8.99367
▁awful	-8.99371
ian	-8.99448
▁park	-8.9959
ally	-8.99739
▁bugs	-8.99771
oo	-8.99913
▁loud	-8.99919
time	-8.99952
▁legs	-8.99973
▁appreciate	-8.99984
▁nine	-8.99998
▁everywhere	-9.00218
▁incredible	-9.00218
▁indeed	-9.00218
▁underpants	-9.00218
▁dalton	-9.00221
▁truck	-9.00227
▁heaven	-9.00258
▁mommy	-9.00264
▁station	-9.00265
▁bus	-9.00306
▁bigger	-9.00323
▁ar	-9.00328
▁seeing	-9.00462
▁van	-9.00693
▁birdie	-9.00881
▁ones	-9.00997
▁dollars	-9.01521
▁woods	-9.01523
▁honor	-9.01677
land	-9.01819
▁escape	-9.01865
▁lay	-9.0213
ge	-9.02152
▁paris	-9.02158
▁driving	-9.02217
▁language	-9.02217
▁byebye	-9.02218
▁cousin	-9.02218
▁risk	-9.02218
▁river	-9.02218
▁winner	-9.0222
▁france	-9.02223
▁sunday	-9.02225
▁shame	-9.02235
▁shop	-9.02288
▁winter	-9.02354
▁band	-9.02355
▁softly	-9.02488
▁tail	-9.02495
j	-9.02654
▁birds	-9.02826
▁sa	-9.02875
ever	-9.03057
▁month	-9.03229
▁ni	-9.03252
▁hunt	-9.03316
▁bare	-9.03526
off	-9.03774
tin	-9.04166
way	-9.04229
▁computer	-9.04258
▁enemy	-9.04258
▁sweetheart	-9.04258
▁third	-9.04258
▁worried	-9.04258
▁joan	-9.04258
▁nature	-9.04259
▁granny	-9.04263
▁memory	-9.04268
▁forest	-9.04303
▁pants	-9.04307
▁allowed	-9.04699
▁tu	-9.04821
our	-9.05019
▁beg	-9.05131
▁animal	-9.05326
▁breath	-9.0554
se	-9.05562
▁teacher	-9.05669
▁chatter	-9.05706
▁missing	-9.05717
▁pet	-9.06091
ah	-9.06157
▁accident	-9.06329
▁brave	-9.06334
▁charlie	-9.06342
▁coffee	-9.06342
▁olaf	-9.06342
▁paddington	-9.06342
▁saturday	-9.06342
▁wonka	-9.06342
▁babies	-9.06342
▁dancing	-9.06342
▁candy	-9.06348
▁potter	-9.06361
▁track	-9.06362
▁rope	-9.06411
▁jones	-9.06414
▁emma	-9.06448
▁bong	-9.0647
▁completely	-9.06498
▁works	-9.06509
▁besides	-9.06713
▁unit	-9.07047
▁lucas	-9.07051
▁brain	-9.07571
the	-9.07652
▁starting	-9.0776
▁build	-9.07824
▁no	-9.08018
▁bo	-9.08045
▁notice	-9.08122
▁cook	-9.08234
▁honest	-9.08297
pe	-9.08432
▁however	-9.08469
▁monsieur	-9.08469
▁smile	-9.08469
▁spent	-9.08469
▁annie	-9.0847
▁beginning	-9.0847
▁crown	-9.08472
▁losing	-9.08488
▁enter	-9.08505
▁color	-9.08518
▁laughter	-9.08535
▁usually	-9.08604
▁putting	-9.08784
▁interested	-9.08817
ger	-9.08848
ey	-9.0885
▁stars	-9.08902
▁blows	-9.09021
▁map	-9.09255
king	-9.09545
▁thousand	-9.09692
▁ticket	-9.09723
▁pretend	-9.09986
▁note	-9.10087
▁di	-9.10156
▁mike	-9.10357
▁awesome	-9.10621
▁launch	-9.10643
▁marriage	-9.10643
▁battle	-9.10643
▁situation	-9.10643
▁teeth	-9.10643
▁partner	-9.10646
▁kitchen	-9.10649
▁bottom	-9.10657
▁handsome	-9.10685
▁size	-9.10697
▁en	-9.10872
▁goin	-9.11003
▁scary	-9.11025
▁holy	-9.1112
▁mission	-9.11269
▁belle	-9.11454
▁named	-9.11522
▁lion	-9.1154
▁consider	-9.11631
▁trick	-9.11672
ho	-9.11799
▁penguins	-9.11967
▁position	-9.11983
▁krab	-9.11989
▁blind	-9.1232
son	-9.1233
▁problems	-9.12489
▁prepare	-9.12518
ver	-9.12536
▁arm	-9.12579
▁ad	-9.12673
▁dobby	-9.12865
▁horrible	-9.12865
▁kristoff	-9.12865
▁ogre	-9.12866
▁remain	-9.12866
▁smash	-9.12866
▁forward	-9.12868
led	-9.1287
▁christ	-9.13002
▁hut	-9.13162
ble	-9.13212
▁so	-9.13346
▁driver	-9.13452
▁giggles	-9.13478
▁ab	-9.13577
▁seconds	-9.13638
▁bother	-9.13935
▁hall	-9.14039
▁yelps	-9.1413
▁keeping	-9.14195
▁joke	-9.14285
▁lights	-9.143
▁fellow	-9.14313
▁accept	-9.14599
▁bless	-9.14608
▁crow	-9.14653
▁fill	-9.14667
▁ruin	-9.14711
ure	-9.14769
ill	-9.14983
▁final	-9.14991
▁appear	-9.1512
▁hundred	-9.15138
▁pumbaa	-9.15138
▁thatll	-9.15138
▁double	-9.15138
▁mallory	-9.15138
▁biggest	-9.15139
▁patrick	-9.15139
▁spell	-9.15148
▁sake	-9.15171
▁mercy	-9.15181
▁arrived	-9.15278
▁dare	-9.15366
▁reading	-9.15419
▁eating	-9.16455
▁carry	-9.17029
▁pe	-9.17216
▁nervous	-9.1727
▁flying	-9.17275
▁strength	-9.17396
▁discuss	-9.174
▁difference	-9.17464
▁europe	-9.17464
▁fortune	-9.17464
▁isabella	-9.17464
▁journey	-9.17464
▁minionese	-9.17464
▁possibly	-9.17464
▁scoffs	-9.17464
▁public	-9.17465
▁garfield	-9.17465
▁troop	-9.17468
▁countess	-9.17471
▁mmhmm	-9.17476
▁jungle	-9.17478
▁hook	-9.1751
▁horn	-9.17601
ts	-9.17637
▁pro	-9.17684
▁ends	-9.17687
▁doo	-9.18425
▁leader	-9.18442
▁cave	-9.18538
▁liked	-9.18841
as	-9.18868
▁ka	-9.19166
▁remind	-9.19207
▁gosh	-9.19238
▁chuck	-9.19429
▁walking	-9.19492
▁dirt	-9.19567
ha	-9.19774
▁suggest	-9.1978
▁wet	-9.19843
▁bunch	-9.19845
▁character	-9.19845
▁college	-9.19845
▁contact	-9.19845
▁decision	-9.19845
▁exhales	-9.19845
▁larusso	-9.19845
▁plenty	-9.19845
▁swear	-9.19845
▁alarm	-9.19845
▁powers	-9.19845
▁ellen	-9.19845
▁hasnt	-9.1985
▁admit	-9.19852
▁wax	-9.19856
▁nope	-9.19859
▁mansur	-9.19866
▁paid	-9.19868
▁tower	-9.19897
▁sandy	-9.20028
▁ben	-9.20204
▁officer	-9.20296
rt	-9.20362
▁breathing	-9.20589
▁yay	-9.20741
ci	-9.21186
▁adventure	-9.21245
▁whose	-9.2128
ine	-9.21499
▁picked	-9.21536
▁climb	-9.21737
▁doin	-9.21738
▁allow	-9.21762
▁starts	-9.21896
▁serve	-9.21934
▁form	-9.22255
▁bunny	-9.22284
▁especially	-9.22284
▁giggling	-9.22284
▁mahira	-9.22284
▁restaurant	-9.22284
▁whimpers	-9.22284
▁ramsey	-9.22284
▁taught	-9.22284
▁repeat	-9.22284
▁upset	-9.22285
▁whatd	-9.22285
▁blame	-9.22295
▁exist	-9.22298
▁football	-9.22301
▁oz	-9.22315
▁store	-9.22324
▁toto	-9.22327
▁fade	-9.22339
▁simpl	-9.22357
tion	-9.2241
ary	-9.2242
▁single	-9.2252
▁stopped	-9.22529
▁fan	-9.22568
▁boom	-9.22615
▁listening	-9.22854
▁devil	-9.22881
▁surprised	-9.22976
▁prefer	-9.23157
res	-9.23211
▁feelings	-9.23316
que	-9.23444
ni	-9.23462
▁ex	-9.23609
pa	-9.23721
▁test	-9.23738
▁tune	-9.24227
▁it	-9.24275
▁bite	-9.2445
▁east	-9.24587
▁ought	-9.24682
▁apart	-9.24761
▁casablanca	-9.24784
▁difficult	-9.24784
▁england	-9.24784
▁hagrid	-9.24784
▁opinion	-9.24784
▁empty	-9.24784
▁heck	-9.24791
▁court	-9.24795
▁noise	-9.24796
▁column	-9.24799
▁famous	-9.24799
▁score	-9.24804
▁agent	-9.24822
▁sadness	-9.24832
▁rocket	-9.24844
▁card	-9.24858
▁dust	-9.24876
▁west	-9.24887
▁cup	-9.24909
▁fo	-9.24971
▁vo	-9.25003
▁milo	-9.25428
▁yo	-9.25573
di	-9.2564
▁arms	-9.25714
▁dry	-9.25759
▁du	-9.25914
▁burn	-9.26114
▁gas	-9.26285
ank	-9.26343
▁port	-9.26561
les	-9.26644
ki	-9.2677
▁deserve	-9.26792
▁stink	-9.26948
▁complete	-9.27156
▁arendelle	-9.27348
▁beyond	-9.27348
▁courage	-9.27348
▁marmalade	-9.27348
▁neither	-9.27348
▁release	-9.27348
▁thistlewaite	-9.27348
▁henry	-9.27348
▁chief	-9.27348
▁bought	-9.27351
▁rough	-9.27353
▁camp	-9.27354
▁rowley	-9.27355
▁bridge	-9.2736
▁verne	-9.27362
▁cub	-9.27368
▁grandma	-9.27369
▁dragon	-9.27371
▁outta	-9.27378
▁jim	-9.27387
▁tuck	-9.27398
▁friendship	-9.27401
▁staying	-9.27413
▁personal	-9.27422
▁hotel	-9.27466
▁grand	-9.27505
▁hyenas	-9.27558
▁art	-9.27673
▁bath	-9.27683
▁beeping	-9.27755
ay	-9.27978
▁shape	-9.28068
▁hm	-9.28155
▁fort	-9.28388
▁waste	-9.28493
▁heads	-9.28526
▁promised	-9.28531
▁crack	-9.28612
▁ii	-9.28658
▁seemed	-9.2872
▁ringing	-9.28891
▁li	-9.29007
ence	-9.29019
▁fella	-9.29697
▁chip	-9.29817
ley	-9.29913
▁became	-9.29979
▁built	-9.29979
▁laszlo	-9.29979
▁security	-9.29979
▁sugar	-9.29979
▁phil	-9.2998
▁often	-9.29981
▁stories	-9.29981
▁howd	-9.29982
▁royal	-9.30006
▁shine	-9.30053
▁path	-9.30058
ac	-9.30075
▁cost	-9.30088
▁timon	-9.30107
▁wa	-9.3021
▁bow	-9.30259
▁draw	-9.30688
▁paw	-9.30885
▁hip	-9.31352
ut	-9.31473
▁continue	-9.31935
▁orders	-9.32024
▁bringing	-9.32076
▁lo	-9.32132
▁pie	-9.32361
▁joe	-9.32382
▁sport	-9.3247
rr	-9.3264
▁regret	-9.32669
▁gloria	-9.32682
▁halloween	-9.32682
▁twice	-9.32682
▁sven	-9.32683
▁factory	-9.32683
▁chamber	-9.32684
▁loose	-9.3269
▁toast	-9.3269
▁block	-9.32694
▁level	-9.32696
▁gentleman	-9.32705
▁dash	-9.32714
▁exclaiming	-9.32728
▁freeze	-9.32737
ard	-9.32781
▁page	-9.32786
▁shirt	-9.32852
▁sale	-9.32874
▁exclaims	-9.32905
▁spit	-9.33116
ga	-9.33144
▁sub	-9.33335
▁figured	-9.33443
dy	-9.33866
▁sisters	-9.33963
head	-9.34429
▁falling	-9.34717
ap	-9.34735
▁flowers	-9.34762
▁fi	-9.34832
▁nah	-9.3494
ring	-9.35025
▁survive	-9.35098
▁decide	-9.35115
▁hoo	-9.3515
eat	-9.35167
▁archer	-9.35329
▁dig	-9.35359
▁greg	-9.35366
▁nothin	-9.35372
▁weak	-9.35438
▁bastard	-9.3546
▁delicious	-9.3546
▁genius	-9.3546
▁marguerite	-9.3546
▁mufasa	-9.3546
▁society	-9.3546
▁terrific	-9.3546
▁exciting	-9.3546
▁soccer	-9.3546
▁silly	-9.35461
▁dennis	-9.35462
▁switch	-9.35464
▁neck	-9.35479
▁hill	-9.3548
▁beach	-9.35482
▁information	-9.35484
▁zero	-9.35501
▁engaged	-9.35514
▁cream	-9.35524
▁sword	-9.35563
▁button	-9.35583
▁camera	-9.35643
▁grug	-9.35647
▁played	-9.35711
▁sweetie	-9.35717
▁sue	-9.35753
▁dirty	-9.358
▁ate	-9.36005
▁clearly	-9.36141
▁everythings	-9.36285
▁add	-9.36323
▁hardly	-9.36612
▁chi	-9.36663
▁shoes	-9.36778
▁ne	-9.37137
▁bones	-9.37142
▁freak	-9.37355
line	-9.37609
▁va	-9.37884
▁rescue	-9.37959
▁creature	-9.381
▁feed	-9.38132
ball	-9.38162
▁bing	-9.3823
▁dolphin	-9.38317
▁foreign	-9.38317
▁heavy	-9.38317
▁rayleen	-9.38317
▁squirrel	-9.38317
▁stuart	-9.38317
▁suzu	-9.38317
▁intend	-9.38317
▁storm	-9.38317
▁gross	-9.38317
▁hadnt	-9.38318
▁larry	-9.38318
▁jeanne	-9.38325
▁comfortable	-9.38334
▁rise	-9.38345
▁correct	-9.38349
▁lionel	-9.38362
▁obviously	-9.38376
▁bank	-9.38393
▁stage	-9.38461
▁oil	-9.38474
▁moved	-9.38491
▁using	-9.38517
▁manny	-9.38517
▁newland	-9.38535
▁huge	-9.38546
▁hug	-9.38719
▁sleeping	-9.38886
em	-9.38896
ise	-9.39126
va	-9.39189
▁beard	-9.39223
▁magical	-9.3947
▁reporter	-9.39503
end	-9.39699
▁holding	-9.39762
uck	-9.39795
▁pen	-9.40317
▁ru	-9.4075
▁ted	-9.40771
ern	-9.40839
▁training	-9.40876
▁fingers	-9.40903
▁settle	-9.40916
▁california	-9.41258
▁effort	-9.41258
▁fantastic	-9.41258
▁happiness	-9.41258
▁julius	-9.41258
▁rapunzel	-9.41258
▁somehow	-9.41258
▁mercedes	-9.41258
▁crystal	-9.41259
▁rico	-9.41259
▁sweat	-9.41263
▁edward	-9.41264
▁judge	-9.41265
▁desk	-9.41266
▁patty	-9.41271
▁diary	-9.41272
▁daley	-9.41278
▁wheel	-9.41286
▁meat	-9.41289
▁chef	-9.41289
▁robin	-9.4129
▁apartment	-9.41296
▁haha	-9.41345
ied	-9.41348
▁jon	-9.41461
ade	-9.41494
▁eggs	-9.41612
▁prepared	-9.41722
▁ge	-9.41735
▁bud	-9.41911
wa	-9.41919
▁closer	-9.41928
▁butter	-9.42015
▁books	-9.42065
just	-9.42089
▁letter	-9.42106
▁bon	-9.4223
▁schedule	-9.4232
▁turns	-9.4243
▁sw	-9.42584
beat	-9.42902
▁due	-9.42938
▁closed	-9.43156
▁paint	-9.43482
you	-9.43555
▁gather	-9.43619
▁scott	-9.43948
▁tie	-9.43961
ial	-9.44051
▁doc	-9.44162
▁wee	-9.44179
▁fe	-9.44204
▁member	-9.44254
▁angel	-9.44256
▁guest	-9.44267
▁pilot	-9.44277
▁beaufort	-9.44289
▁condition	-9.44289
▁dublin	-9.44289
▁female	-9.44289
▁hermione	-9.44289
▁rumbling	-9.44289
▁writing	-9.44289
▁knuckles	-9.44289
▁common	-9.44291
▁held	-9.44291
▁scarlet	-9.44295
▁wilson	-9.44295
▁fancy	-9.44297
▁rocks	-9.44311
▁within	-9.44315
▁immediately	-9.44321
▁reed	-9.44339
▁wave	-9.44346
▁blast	-9.4435
▁usual	-9.4436
▁lying	-9.44403
▁lesson	-9.44435
▁badge	-9.44538
▁hoping	-9.44681
▁failed	-9.44705
▁nearly	-9.4472
▁gotten	-9.44748
▁mumbles	-9.44834
bo	-9.44857
▁fur	-9.4488
▁ew	-9.44937
▁rent	-9.44965
▁pete	-9.4509
▁post	-9.45207
▁stayed	-9.4574
pr	-9.45782
▁animals	-9.45792
ated	-9.4593
▁bananas	-9.46131
▁col	-9.46677
▁can	-9.46844
▁arrest	-9.46877
ran	-9.46911
▁bro	-9.46986
▁egg	-9.47039
▁louis	-9.47208
▁sharp	-9.47212
▁barrie	-9.47277
▁large	-9.47307
▁bum	-9.47319
▁photo	-9.4736
▁account	-9.47414
▁focus	-9.47414
▁heavily	-9.47414
▁lawrence	-9.47414
▁purpose	-9.47414
▁regular	-9.47414
▁science	-9.47414
▁whimpering	-9.47414
▁yesterday	-9.47414
▁hindi	-9.47414
▁type	-9.47414
▁theyd	-9.47414
▁stevens	-9.47416
▁bailey	-9.47416
▁among	-9.47417
▁choose	-9.47417
▁basketball	-9.47418
▁pepper	-9.47421
▁garden	-9.47426
▁clock	-9.4743
▁kong	-9.47439
▁prime	-9.47467
▁heat	-9.47472
▁milk	-9.47478
▁villain	-9.4751
▁willy	-9.47511
▁showed	-9.47513
▁talent	-9.47519
▁mum	-9.4762
ther	-9.47646
▁ray	-9.47764
▁tall	-9.47779
▁older	-9.4781
ass	-9.47828
▁cash	-9.47886
▁scare	-9.47888
▁takes	-9.48146
over	-9.48294
ans	-9.48566
ze	-9.48579
▁pieces	-9.48598
▁expecting	-9.48778
▁destroyed	-9.48839
tor	-9.48941
▁male	-9.49
ized	-9.49126
▁gus	-9.49262
▁turning	-9.49266
▁fishing	-9.49274
▁ed	-9.49341
▁bucks	-9.49385
▁interest	-9.49516
▁lu	-9.49565
▁ro	-9.49663
old	-9.49942
▁pray	-9.5011
▁ears	-9.5016
▁mention	-9.50173
▁ron	-9.50178
▁command	-9.50259
ize	-9.50301
▁base	-9.50335
back	-9.50441
▁adorable	-9.50639
▁asteroid	-9.50639
▁grandfather	-9.50639
▁interrupt	-9.50639
▁justice	-9.50639
▁permanent	-9.50639
▁ridiculous	-9.50639
▁snoring	-9.50639
▁sobbing	-9.50639
▁system	-9.50639
▁zazu	-9.50639
▁hidden	-9.5064
▁belt	-9.5064
▁area	-9.5064
▁weather	-9.50642
▁address	-9.50642
▁trent	-9.50646
▁teddy	-9.50651
▁duke	-9.50662
▁airport	-9.50674
▁paul	-9.50681
▁rj	-9.50684
▁skin	-9.50708
▁suddenly	-9.50738
▁brothers	-9.50801
▁cow	-9.50881
▁gate	-9.50928
▁mighty	-9.5099
▁tour	-9.51029
▁te	-9.51038
▁beer	-9.51264
▁hu	-9.51314
▁log	-9.51315
▁talked	-9.51326
▁wise	-9.51357
▁expected	-9.51789
ung	-9.519
ber	-9.5191
▁barks	-9.52183
▁fate	-9.52189
ors	-9.5219
▁plus	-9.52345
ide	-9.52394
▁doors	-9.52417
hi	-9.52627
▁fired	-9.52761
vin	-9.52998
act	-9.53098
▁me	-9.53158
▁suffer	-9.53314
▁chew	-9.53359
pl	-9.53381
▁wha	-9.53418
ship	-9.53582
▁introduce	-9.53613
▁cheers	-9.53733
▁cheer	-9.53769
▁glass	-9.53908
▁keys	-9.53951
▁hai	-9.53959
▁lift	-9.53971
▁jealous	-9.53973
▁military	-9.53973
▁oclock	-9.53973
▁ossory	-9.53973
▁stomach	-9.53973
▁upstairs	-9.53973
▁whether	-9.53973
▁ethan	-9.53973
▁thief	-9.53973
▁saving	-9.53973
▁when	-9.53973
▁bluster	-9.53973
▁demand	-9.53973
▁practice	-9.53974
▁jenny	-9.53975
▁tiger	-9.53977
▁fred	-9.53987
▁angeline	-9.53996
▁trash	-9.54012
▁strike	-9.54023
▁spare	-9.54064
▁bobby	-9.54113
▁sniffing	-9.54137
▁stolen	-9.54159
▁action	-9.5416
▁sensei	-9.54167
▁code	-9.543
▁auntie	-9.54328
▁squeals	-9.54359
▁shrieks	-9.54469
if	-9.54593
▁ant	-9.54707
▁secrets	-9.5481
▁pit	-9.54917
▁perfectly	-9.55017
▁hunters	-9.55225
port	-9.55291
▁i	-9.55372
▁lips	-9.55392
▁brains	-9.55468
ex	-9.55484
▁goat	-9.55503
hop	-9.55739
▁students	-9.56007
ious	-9.56497
▁who	-9.56597
▁crash	-9.56699
▁click	-9.56753
chi	-9.57026
▁or	-9.57094
mer	-9.57255
▁proper	-9.57352
▁papers	-9.57399
▁attitude	-9.57421
▁criminal	-9.57421
▁familiar	-9.57421
▁innocent	-9.57421
▁kitten	-9.57421
▁margaret	-9.57421
▁marianne	-9.57421
▁pocket	-9.57421
▁romantic	-9.57421
▁toilet	-9.57421
▁mancub	-9.57421
▁colony	-9.57421
▁truly	-9.57421
▁film	-9.57421
▁brit	-9.57424
▁robert	-9.57425
▁shark	-9.57425
▁pride	-9.57425
▁hammy	-9.57426
▁bonsai	-9.57427
▁gang	-9.57433
▁forgotten	-9.57435
▁salt	-9.57437
ib	-9.57446
▁frozen	-9.57449
▁weekend	-9.57464
▁season	-9.57475
▁coat	-9.57514
▁anson	-9.5752
▁zone	-9.57528
▁odd	-9.57545
▁for	-9.57579
▁sold	-9.57615
▁hellno	-9.57641
▁sailor	-9.57675
▁warning	-9.57778
▁russian	-9.57807
▁signal	-9.57817
▁farm	-9.57828
▁finger	-9.57856
▁lake	-9.57863
▁pity	-9.57892
ier	-9.57909
ler	-9.57969
men	-9.57991
▁betterman	-9.58113
▁filled	-9.58233
▁ruined	-9.58233
che	-9.58335
side	-9.58393
▁shower	-9.58578
▁locked	-9.58682
▁bur	-9.58709
▁cha	-9.58842
▁fart	-9.5885
ible	-9.58858
▁jj	-9.5886
▁tickets	-9.58918
▁pictures	-9.5896
▁bello	-9.59145
▁lies	-9.59255
▁acting	-9.59386
ai	-9.59407
ache	-9.60131
▁nuts	-9.6022
▁ahh	-9.60274
▁rings	-9.60391
▁poison	-9.60454
▁plant	-9.60512
▁pleased	-9.60514
▁wash	-9.60607
▁app	-9.60728
▁excited	-9.60822
▁direct	-9.60856
▁cats	-9.60899
▁inform	-9.60961
▁maid	-9.6097
▁anthony	-9.60992
▁ferdinand	-9.60992
▁formula	-9.60992
▁miracle	-9.60992
▁recognize	-9.60992
▁someday	-9.60992
▁squad	-9.60992
▁tenneray	-9.60992
▁tradition	-9.60992
▁willoughby	-9.60992
▁coughing	-9.60992
▁desire	-9.60992
▁ocean	-9.60992
▁smoke	-9.60992
▁nerve	-9.60993
▁violet	-9.60993
▁nightmare	-9.60993
▁ernie	-9.60993
▁jerk	-9.60994
▁edmund	-9.60994
▁bathroom	-9.60997
▁easier	-9.61002
▁grandpa	-9.61007
▁coward	-9.6102
▁fake	-9.61027
▁jimmy	-9.6105
▁inter	-9.61102
▁sally	-9.61111
▁trumpets	-9.61172
▁manage	-9.61176
▁weight	-9.61197
▁ear	-9.61202
▁ble	-9.61221
▁whispers	-9.61289
▁bee	-9.61467
▁row	-9.61496
▁whistle	-9.61521
▁reg	-9.61582
fully	-9.61771
for	-9.61802
mit	-9.6187
▁cards	-9.61944
▁del	-9.62344
▁higher	-9.62478
▁shed	-9.6272
▁passed	-9.6276
▁bra	-9.62844
▁fa	-9.62894
▁main	-9.62934
▁couldve	-9.62943
air	-9.63031
▁suck	-9.63496
▁pee	-9.63716
▁rat	-9.63809
▁bang	-9.64154
▁march	-9.64176
▁cheat	-9.64245
▁load	-9.64253
ab	-9.64557
▁harm	-9.6467
▁advice	-9.64696
▁government	-9.64696
▁guinea	-9.64696
▁joseph	-9.64696
▁kowalski	-9.64696
▁leonard	-9.64696
▁mowgli	-9.64696
▁opportunity	-9.64696
▁patient	-9.64696
▁poopypants	-9.64696
▁principal	-9.64696
▁tournament	-9.64696
▁twinkle	-9.64696
▁claim	-9.64696
▁crime	-9.64696
▁threw	-9.64696
▁refuse	-9.64696
▁owner	-9.64699
▁cowboy	-9.64699
▁dutch	-9.64703
▁spock	-9.64707
▁cruel	-9.64708
▁damage	-9.64709
▁roger	-9.64709
▁crew	-9.64715
▁girlfriend	-9.64718
▁whispering	-9.6476
▁energy	-9.64768
▁under	-9.64792
▁ape	-9.64854
▁mood	-9.64855
▁bala	-9.64856
▁mister	-9.64899
▁trap	-9.64942
▁cab	-9.6508
▁tablet	-9.65107
▁concerned	-9.65108
▁commander	-9.65135
▁lower	-9.65296
▁sha	-9.65341
▁claws	-9.65369
▁raised	-9.65444
▁loser	-9.65882
▁plans	-9.65884
▁games	-9.65937
▁tricks	-9.66219
▁headed	-9.66469
▁kinda	-9.66523
▁harder	-9.66615
▁soc	-9.66699
▁pi	-9.6688
▁singer	-9.66904
ice	-9.67286
▁prison	-9.67902
▁su	-9.67914
▁helped	-9.67946
▁hanging	-9.67948
▁hurts	-9.67987
▁request	-9.68001
▁crush	-9.68011
▁cr	-9.68044
▁fail	-9.68046
▁tape	-9.68078
▁grant	-9.6811
▁gods	-9.68348
▁frank	-9.68373
▁gentle	-9.68503
▁favor	-9.68542
▁astronaut	-9.68542
▁combination	-9.68542
▁experience	-9.68542
▁experiment	-9.68542
▁goddamn	-9.68542
▁kansas	-9.68542
▁okinawa	-9.68542
▁orange	-9.68542
▁particular	-9.68542
▁precious	-9.68542
▁sacrifice	-9.68542
▁weasley	-9.68542
▁adult	-9.68542
▁target	-9.68542
▁washington	-9.68542
▁grew	-9.68542
▁pacino	-9.68543
▁froggy	-9.68544
▁earlier	-9.68544
▁nowhere	-9.68544
▁program	-9.68544
▁nacho	-9.68545
▁humming	-9.68546
▁operation	-9.6855
▁aboard	-9.68562
▁emergency	-9.68571
▁assure	-9.68581
▁primero	-9.68582
▁pink	-9.68584
▁babe	-9.6859
▁trade	-9.68593
▁liar	-9.686
▁duck	-9.68605
▁photograph	-9.68609
▁proof	-9.68624
▁mail	-9.68635
▁safety	-9.68691
▁halt	-9.68695
▁rush	-9.68696
▁panic	-9.68697
▁weep	-9.68699
▁prize	-9.68714
▁yard	-9.68734
▁paying	-9.68735
▁chest	-9.68746
▁yell	-9.68764
▁creatures	-9.68837
▁nervously	-9.68866
▁yah	-9.68887
▁robb	-9.68915
▁mothers	-9.69057
com	-9.69098
▁noticed	-9.69182
▁gra	-9.69226
▁mel	-9.69252
▁deeply	-9.69256
▁inc	-9.6927
▁rabbit	-9.69359
▁twin	-9.69365
▁bug	-9.69439
▁announce	-9.69516
▁walls	-9.69766
▁keeps	-9.69841
ev	-9.69852
▁guards	-9.69875
ft	-9.69963
ugh	-9.69965
▁krabs	-9.70098
▁nut	-9.70231
bra	-9.70677
▁there	-9.70678
ries	-9.70807
▁believed	-9.70955
▁career	-9.70997
▁fl	-9.71138
▁sta	-9.71201
▁killing	-9.71415
▁heading	-9.71621
▁strain	-9.71926
▁lab	-9.71964
▁disappear	-9.72009
▁bowl	-9.72205
▁cap	-9.72206
▁pot	-9.72236
▁francis	-9.72525
▁quarter	-9.72534
▁bottle	-9.72542
▁brilliant	-9.72542
▁charles	-9.72542
▁colonel	-9.72542
▁destiny	-9.72542
▁ferrars	-9.72542
▁happily	-9.72542
▁matata	-9.72542
▁peanut	-9.72542
▁suspect	-9.72542
▁telephone	-9.72542
▁thomas	-9.72542
▁treasure	-9.72542
▁written	-9.72542
▁group	-9.72542
▁flame	-9.72542
▁split	-9.72542
▁clue	-9.72543
▁lonely	-9.72544
▁minions	-9.72544
▁templeton	-9.72544
▁twist	-9.72545
▁memories	-9.72546
kuna	-9.72546
▁dashwood	-9.72546
▁fetch	-9.72548
▁brick	-9.72553
▁brandon	-9.72553
▁vincent	-9.72554
▁champion	-9.72554
▁francisco	-9.72559
▁root	-9.72565
▁steve	-9.72568
▁clever	-9.72568
▁spring	-9.72571
▁property	-9.72572
▁lordship	-9.72582
▁scout	-9.72591
▁foul	-9.72592
▁guilty	-9.72608
▁hans	-9.72614
▁potion	-9.72634
▁be	-9.72666
▁setting	-9.72691
ism	-9.72723
▁hatch	-9.72773
▁gum	-9.72835
▁beep	-9.72984
bur	-9.73094
▁gotcha	-9.73118
▁eaten	-9.73177
ities	-9.73244
▁fellas	-9.73271
▁file	-9.7342
▁bay	-9.73502
▁burning	-9.73578
▁mountains	-9.73823
▁billy	-9.73844
all	-9.7389
▁sand	-9.73926
▁jackets	-9.74069
▁ver	-9.74083
▁tear	-9.74323
▁growing	-9.74347
▁opening	-9.74537
▁throwing	-9.74952
▁sat	-9.75057
▁soldiers	-9.75092
▁states	-9.75094
▁min	-9.7525
▁monkeys	-9.75358
light	-9.76304
▁speaks	-9.76309
ell	-9.76329
ten	-9.76412
use	-9.76428
▁terribl	-9.76491
▁natural	-9.76511
▁express	-9.76644
▁jew	-9.76698
▁medic	-9.767
▁whoohoo	-9.76701
▁atlantis	-9.76709
▁borrow	-9.76709
▁heir	-9.76709
▁judy	-9.76709
▁shoulder	-9.76709
▁shouldve	-9.76709
▁stammering	-9.76709
▁frightened	-9.76709
▁grateful	-9.76709
▁conrad	-9.76709
▁source	-9.76714
▁solid	-9.76717
▁scene	-9.76717
▁chanting	-9.76722
▁burger	-9.76723
▁shock	-9.76723
▁bread	-9.76727
▁mid	-9.76737
▁elise	-9.76741
▁taxi	-9.76758
▁pilots	-9.76761
▁blah	-9.76762
▁mush	-9.76779
▁standard	-9.76779
▁earn	-9.76838
▁involved	-9.76863
▁bound	-9.76872
▁barrier	-9.76914
ual	-9.76938
▁preacher	-9.76961
▁roaring	-9.77009
▁invited	-9.77015
▁cares	-9.7715
▁flow	-9.77437
▁oops	-9.77469
▁mon	-9.77479
▁opened	-9.77579
▁slowly	-9.77585
▁breaking	-9.77591
▁stairs	-9.77746
▁letting	-9.7783
▁richard	-9.77867
▁hunting	-9.78068
▁cur	-9.782
▁ham	-9.7858
▁au	-9.78935
pper	-9.78984
▁ld	-9.78985
▁pounds	-9.7906
▁mi	-9.79108
▁val	-9.79347
▁fathers	-9.79618
▁player	-9.79626
▁chop	-9.80273
but	-9.80388
▁faith	-9.80609
▁finding	-9.80647
▁separate	-9.80697
▁corn	-9.80861
▁snap	-9.80866
▁total	-9.80875
▁wing	-9.80906
▁lap	-9.80984
▁collect	-9.80993
ky	-9.80998
▁self	-9.81028
▁percent	-9.81039
▁flat	-9.8104
▁asleep	-9.81057
▁attend	-9.81057
▁conversation	-9.81057
▁device	-9.81057
▁drunk	-9.81057
▁dumbledore	-9.81057
▁headquarters	-9.81057
▁lieutenant	-9.81057
▁mirror	-9.81057
▁ominous	-9.81057
▁support	-9.81057
▁ugga	-9.81057
▁twenty	-9.81057
▁madeleine	-9.81057
▁mostly	-9.81057
▁piano	-9.81057
▁stood	-9.81057
▁julie	-9.81057
▁plate	-9.81058
▁motes	-9.81059
▁priest	-9.8106
▁imagination	-9.8106
▁planned	-9.81061
▁planning	-9.81061
▁tongue	-9.81062
▁palace	-9.81062
▁roof	-9.81064
▁estate	-9.81065
▁willing	-9.81071
▁whoever	-9.81072
▁apparently	-9.81078
▁wherever	-9.81083
▁glow	-9.8109
▁hannah	-9.81098
▁duty	-9.81101
▁pair	-9.8111
▁darlington	-9.81123
▁direction	-9.81134
▁lola	-9.8114
▁johnson	-9.81141
▁following	-9.81158
▁shant	-9.81174
▁approaching	-9.81188
▁glasses	-9.81191
▁pitch	-9.81194
▁pure	-9.81224
▁deck	-9.81239
▁copy	-9.81258
▁bike	-9.81279
▁national	-9.81281
▁louise	-9.81376
▁bump	-9.81397
away	-9.81424
▁honestly	-9.81459
▁universe	-9.81515
red	-9.81532
▁chase	-9.81568
▁par	-9.81607
▁exp	-9.81625
▁kw	-9.81629
ny	-9.81698
tro	-9.81724
▁moves	-9.81814
▁er	-9.81941
▁tunes	-9.82114
▁grave	-9.82135
▁guide	-9.82159
ach	-9.82162
nny	-9.82174
▁indian	-9.82181
▁bron	-9.82245
▁den	-9.82306
▁counter	-9.82317
▁bust	-9.82347
vel	-9.82416
▁ln	-9.82599
my	-9.82607
▁fighter	-9.82641
▁places	-9.82812
oh	-9.82816
▁kicked	-9.82928
▁tale	-9.82942
▁dan	-9.83042
▁gr	-9.83059
▁knocking	-9.83162
▁returned	-9.83313
eful	-9.83329
▁answers	-9.83459
▁mac	-9.83659
▁fra	-9.83854
▁ir	-9.83857
▁counting	-9.83919
▁seal	-9.84131
▁announc	-9.8442
▁movies	-9.84775
▁learning	-9.84775
▁crap	-9.85131
▁drown	-9.85297
▁creep	-9.85305
▁mc	-9.85447
▁dads	-9.85476
▁honour	-9.8558
▁chair	-9.85584
▁aslan	-9.85602
▁butler	-9.85602
▁defense	-9.85602
▁desperate	-9.85602
▁divorce	-9.85602
▁interview	-9.85602
▁krupp	-9.85602
▁museum	-9.85602
▁narnia	-9.85602
▁nixon	-9.85602
▁occasion	-9.85602
▁scratch	-9.85602
▁speech	-9.85602
▁sweep	-9.85602
▁thunk	-9.85602
▁unknown	-9.85602
▁video	-9.85602
▁weaver	-9.85602
▁meteorite	-9.85602
▁oven	-9.85602
▁minister	-9.85602
▁otto	-9.85602
▁nevins	-9.85603
▁superstar	-9.85603
▁plain	-9.85603
▁onto	-9.85603
▁insist	-9.85607
▁fought	-9.85607
▁seats	-9.85609
▁jared	-9.85609
▁defend	-9.85609
▁awake	-9.8561
▁spread	-9.85611
▁olenska	-9.85615
▁rudy	-9.85617
▁section	-9.85627
▁pressure	-9.8563
▁style	-9.85643
▁trumpeting	-9.8565
▁juice	-9.85654
▁study	-9.85667
▁nasty	-9.85674
▁exit	-9.85683
▁chill	-9.85688
▁began	-9.85689
▁pool	-9.85691
▁screeching	-9.85861
▁ra	-9.85906
cha	-9.85941
▁haul	-9.85947
▁heroes	-9.85948
▁dep	-9.8603
ify	-9.86247
▁lines	-9.86306
▁prisoner	-9.8641
▁kings	-9.86442
▁chewing	-9.86504
▁stronger	-9.86574
of	-9.86591
▁knee	-9.86614
▁lou	-9.86614
mon	-9.86617
▁bulls	-9.86629
▁grunt	-9.86675
ong	-9.86749
ged	-9.86892
▁closet	-9.86954
▁flavor	-9.86961
▁dressed	-9.86962
▁mis	-9.87119
▁ani	-9.87173
▁apologize	-9.87215
▁sometime	-9.87236
▁dollar	-9.87255
▁bea	-9.87475
▁we	-9.87816
▁ke	-9.8795
▁orl	-9.87985
ating	-9.88268
▁ton	-9.88312
▁faces	-9.88483
gue	-9.88614
car	-9.88618
▁dam	-9.88676
▁gal	-9.88845
▁ca	-9.89111
▁ms	-9.89156
▁tip	-9.892
▁tears	-9.89227
▁cell	-9.89235
▁points	-9.89374
▁toe	-9.89445
itch	-9.89492
▁aha	-9.89681
▁charm	-9.89721
▁concern	-9.89835
▁receive	-9.90014
▁invite	-9.90015
▁fund	-9.90102
down	-9.90115
▁pin	-9.90138
▁gee	-9.90158
everend	-9.90266
▁villains	-9.90279
▁success	-9.90341
hand	-9.90354
▁birth	-9.90361
▁advantage	-9.90364
▁applause	-9.90364
▁autobot	-9.90364
▁chinese	-9.90364
▁fortunate	-9.90364
▁garbage	-9.90364
▁georgi	-9.90364
▁governor	-9.90364
▁instrument	-9.90364
▁journal	-9.90364
▁knife	-9.90364
▁mystery	-9.90364
▁otherwise	-9.90364
▁remote	-9.90364
▁sergeant	-9.90364
▁strasser	-9.90364
▁stretch	-9.90364
▁subtitle	-9.90364
▁suspens	-9.90364
▁swallow	-9.90364
▁tunnel	-9.90364
▁william	-9.90364
▁threat	-9.90364
▁screw	-9.90364
▁worm	-9.90364
▁knowledge	-9.90364
▁pigeon	-9.90364
▁squidward	-9.90365
▁expensive	-9.90365
▁audience	-9.90366
▁blanket	-9.9037
▁alert	-9.9037
▁golf	-9.9037
▁thatch	-9.90376
▁revenge	-9.90376
▁coast	-9.90389
▁clay	-9.9039
▁chasing	-9.90393
▁heal	-9.90404
▁chap	-9.90407
▁loving	-9.90415
▁blo	-9.90428
▁dropped	-9.90433
▁iron	-9.90437
▁mansion	-9.90468
ose	-9.90479
▁anger	-9.90483
▁ja	-9.90485
▁jet	-9.90512
▁created	-9.90582
▁down	-9.90632
▁stonea	-9.90663
▁nest	-9.90686
▁received	-9.90722
▁string	-9.90824
▁rip	-9.90909
▁entirely	-9.90931
▁abe	-9.90965
mate	-9.91019
▁ian	-9.9105
what	-9.91121
hel	-9.91186
▁legal	-9.91437
▁sin	-9.91482
lic	-9.91551
▁silence	-9.91786
▁smaller	-9.91989
▁riding	-9.92076
jo	-9.92239
▁penguin	-9.92342
▁bars	-9.92537
▁tra	-9.92653
zz	-9.9267
▁cops	-9.92763
▁tin	-9.92848
▁lied	-9.93007
ld	-9.93013
▁weapons	-9.93162
▁pigs	-9.93328
▁germans	-9.93332
▁cookies	-9.93407
▁wast	-9.93456
ast	-9.93624
hy	-9.93748
▁beasts	-9.94115
▁pulled	-9.94122
▁bre	-9.94174
▁twins	-9.94298
▁rot	-9.94376
▁nala	-9.94509
▁moms	-9.94518
▁whistles	-9.94624
▁embarrass	-9.94708
▁hop	-9.94839
▁jam	-9.95036
like	-9.95111
though	-9.95121
▁the	-9.95203
ute	-9.9523
▁heave	-9.95258
▁somethin	-9.95276
▁distract	-9.95304
▁enz	-9.95319
▁opera	-9.95323
tra	-9.95335
▁effect	-9.95342
▁flash	-9.95358
▁square	-9.95363
▁afford	-9.95364
▁cackling	-9.95364
▁capsule	-9.95364
▁davies	-9.95364
▁heffley	-9.95364
▁koskov	-9.95364
▁necessary	-9.95364
▁phoenix	-9.95364
▁pizza	-9.95364
▁produce	-9.95364
▁staff	-9.95364
▁stroke	-9.95364
▁understood	-9.95364
▁volcano	-9.95364
▁weasel	-9.95364
▁worries	-9.95364
▁arthur	-9.95364
▁sarah	-9.95364
▁transform	-9.95364
▁balance	-9.95364
▁desert	-9.95364
▁darn	-9.95365
▁expert	-9.95365
▁physical	-9.95366
▁height	-9.95366
▁susan	-9.95366
▁permission	-9.9537
▁feather	-9.95371
▁basically	-9.95371
▁engagement	-9.95373
▁secure	-9.95374
▁impressive	-9.95375
▁dying	-9.95376
▁social	-9.95376
▁witness	-9.95378
▁legend	-9.95381
ward	-9.95384
▁peaches	-9.95388
▁task	-9.95393
▁value	-9.95393
▁credit	-9.95397
▁trail	-9.95402
▁steady	-9.95402
▁boyfriend	-9.95403
▁according	-9.95415
▁soup	-9.9543
▁rare	-9.95431
▁bride	-9.95433
▁blew	-9.95442
▁guests	-9.95443
▁pile	-9.95449
▁chirping	-9.95516
▁bucket	-9.95519
▁chain	-9.95583
▁useless	-9.95584
▁pole	-9.95612
▁sato	-9.95621
▁discovered	-9.95707
▁fallen	-9.95739
▁dean	-9.95745
▁grown	-9.95766
▁racing	-9.95842
att	-9.959
▁settled	-9.95969
▁streets	-9.96019
ming	-9.96022
▁disappeared	-9.96037
▁shoo	-9.96128
▁mentioned	-9.96203
▁fin	-9.96345
▁dump	-9.96427
▁swing	-9.96475
▁swim	-9.96578
▁sniffs	-9.9658
▁hid	-9.96741
▁cooking	-9.96924
▁blu	-9.96932
▁towards	-9.96956
▁para	-9.97046
▁parking	-9.97088
▁ye	-9.97102
▁german	-9.97147
▁covered	-9.97231
▁nail	-9.97236
▁tag	-9.97269
▁lately	-9.97284
▁calls	-9.97295
▁manners	-9.97297
▁selling	-9.97311
▁stealing	-9.97314
▁issue	-9.97404
▁siren	-9.97452
▁term	-9.97466
▁student	-9.97467
▁banana	-9.97471
▁concentrate	-9.9749
▁cookie	-9.97534
▁ali	-9.97564
▁mile	-9.97652
▁hon	-9.97728
▁boots	-9.9791
▁metal	-9.98011
▁teachers	-9.98162
ini	-9.98188
▁all	-9.98223
▁ac	-9.98279
▁vil	-9.98453
▁passing	-9.98459
▁touched	-9.98592
art	-9.98973
▁you	-9.99022
ome	-9.99063
▁sending	-9.99174
▁india	-9.99404
cal	-9.99587
▁smells	-9.9976
▁grace	-9.9995
fa	-9.99997
▁opens	-10.0012
▁tend	-10.0012
more	-10.0028
▁rub	-10.004
wind	-10.0046
▁sandwich	-10.0052
▁pipe	-10.0058
▁fashion	-10.0059
▁comfort	-10.006
▁attempt	-10.0063
▁brenda	-10.0063
▁challenge	-10.0063
▁compliment	-10.0063
▁dauphin	-10.0063
▁downstairs	-10.0063
▁insane	-10.0063
▁milady	-10.0063
▁miniboss	-10.0063
▁nonsense	-10.0063
▁popcorn	-10.0063
▁precisely	-10.0063
▁respond	-10.0063
▁responsible	-10.0063
▁result	-10.0063
▁rufus	-10.0063
▁television	-10.0063
▁therefore	-10.0063
▁traitor	-10.0063
▁distance	-10.0063
▁freedom	-10.0063
▁ginny	-10.0063
▁hudson	-10.0063
▁shadow	-10.0063
▁watergate	-10.0063
▁buddies	-10.0063
▁cherry	-10.0063
▁gently	-10.0063
▁pushkin	-10.0063
▁recall	-10.0063
▁aisha	-10.0063
▁aware	-10.0063
▁plot	-10.0063
▁muttering	-10.0063
▁smee	-10.0063
▁riddle	-10.0063
▁patties	-10.0063
▁leak	-10.0063
▁cannonball	-10.0063
▁navy	-10.0063
▁greetings	-10.0064
▁kitty	-10.0064
▁dojo	-10.0064
▁closing	-10.0064
▁bloom	-10.0065
▁simon	-10.0065
▁ouch	-10.0065
▁sauce	-10.0065
▁oome	-10.0065
▁youth	-10.0066
▁barber	-10.0066
▁chapman	-10.0066
▁chart	-10.0067
▁cast	-10.0067
▁vocalizing	-10.0068
▁lick	-10.0068
▁belongs	-10.0068
▁scottie	-10.0069
▁crab	-10.0071
▁mere	-10.0071
▁oi	-10.0071
▁filthy	-10.0071
▁propose	-10.0074
▁nearby	-10.0074
▁arranged	-10.0077
▁cock	-10.0078
▁meal	-10.0078
▁disappointed	-10.0079
▁bake	-10.0084
▁wire	-10.0085
▁horses	-10.0087
▁delighted	-10.0087
▁bla	-10.009
bi	-10.0093
▁assume	-10.0102
▁tank	-10.0108
▁gray	-10.0109
▁personally	-10.0112
▁coal	-10.0113
▁hint	-10.012
▁ga	-10.0132
▁hoped	-10.0137
▁served	-10.014
ery	-10.0142
▁macho	-10.0143
▁doll	-10.0143
▁victory	-10.0154
▁curse	-10.0157
▁forced	-10.0163
▁realized	-10.0183
▁reached	-10.0221
▁benn	-10.0225
▁offered	-10.0236
▁fellows	-10.0264
▁fixed	-10.0277
▁positions	-10.0281
▁toys	-10.0285
▁songs	-10.0288
▁wine	-10.0293
▁bone	-10.0294
▁weapon	-10.03
▁brakes	-10.0302
▁yelp	-10.0304
ney	-10.0317
▁cho	-10.0322
tri	-10.0334
▁signed	-10.0383
▁pound	-10.0431
ron	-10.0464
▁wings	-10.0465
atic	-10.0467
can	-10.0473
▁search	-10.0497
shed	-10.0498
▁presents	-10.0515
▁followed	-10.0526
rk	-10.0535
▁picking	-10.0541
ties	-10.0552
▁wonders	-10.0552
▁buzz	-10.0553
wn	-10.0578
▁arrive	-10.0584
found	-10.0594
▁positive	-10.0598
▁sex	-10.0604
▁doctors	-10.0604
▁matters	-10.0609
▁cancel	-10.0617
▁admire	-10.0618
▁andrew	-10.0618
▁audrey	-10.0618
▁behalf	-10.0618
▁brandnew	-10.0618
▁commercial	-10.0618
▁conference	-10.0618
▁douglas	-10.0618
▁enterprise	-10.0618
▁equipment	-10.0618
▁jeremy	-10.0618
▁magnificent	-10.0618
▁monterey	-10.0618
▁mukhtar	-10.0618
▁mysterious	-10.0618
▁newspaper	-10.0618
▁pleasant	-10.0618
▁praise	-10.0618
▁quarrel	-10.0618
▁rehearsal	-10.0618
▁relationship	-10.0618
▁responsibility	-10.0618
▁savage	-10.0618
▁shield	-10.0618
▁signature	-10.0618
▁strangways	-10.0618
▁succeed	-10.0618
▁entertain	-10.0618
▁garrad	-10.0618
▁ilsa	-10.0618
▁scrap	-10.0618
▁content	-10.0618
▁title	-10.0618
▁decepticons	-10.0618
▁zeta	-10.0618
▁thumb	-10.0618
▁nurse	-10.0618
▁friday	-10.0618
▁medal	-10.0618
▁ramses	-10.0619
▁rosie	-10.0619
▁grantham	-10.0619
▁jazz	-10.0619
▁nazi	-10.0619
▁robot	-10.0619
▁assistant	-10.0619
▁ease	-10.0619
▁supper	-10.0619
▁resist	-10.0619
▁lawyer	-10.0619
▁puss	-10.062
▁permit	-10.062
▁visa	-10.0621
▁boring	-10.0621
▁noble	-10.0621
▁stock	-10.0621
▁complicated	-10.0621
▁tool	-10.0623
▁soda	-10.0623
▁unlike	-10.0624
▁aside	-10.0625
▁mock	-10.0627
▁smith	-10.0628
▁model	-10.063
▁aim	-10.063
▁tuna	-10.0631
▁fore	-10.0632
▁av	-10.0638
▁hatter	-10.064
▁healthy	-10.0643
▁germany	-10.065
▁inf	-10.0653
▁julian	-10.0654
▁billion	-10.0658
▁deny	-10.0662
▁core	-10.0663
▁jackie	-10.067
▁clip	-10.0671
▁former	-10.0675
▁poop	-10.069
▁indistinctly	-10.0696
▁ko	-10.0698
▁finest	-10.0699
▁prayer	-10.0716
▁jos	-10.0725
▁shouts	-10.0741
▁imitate	-10.075
▁tied	-10.0752
▁grade	-10.0769
▁honored	-10.0771
▁passengers	-10.0777
▁nu	-10.0793
▁balls	-10.0828
▁rider	-10.0838
olly	-10.0841
▁cure	-10.0854
▁comp	-10.0889
▁cor	-10.089
▁teaching	-10.0895
▁pushing	-10.0899
▁sting	-10.0918
▁friendly	-10.0934
▁hal	-10.0935
▁islands	-10.0947
▁che	-10.0952
▁lad	-10.0958
▁gut	-10.0961
top	-10.0964
ix	-10.0968
iva	-10.0971
▁lip	-10.0985
▁dive	-10.1055
ville	-10.1063
▁def	-10.1068
vo	-10.1069
tch	-10.1078
▁rabbits	-10.1082
▁pat	-10.1086
▁murder	-10.1098
▁oo	-10.1101
bit	-10.1107
▁bi	-10.1112
▁rats	-10.112
▁russians	-10.114
▁design	-10.1152
▁pulling	-10.1165
▁if	-10.1172
▁complain	-10.1177
ray	-10.1182
▁crate	-10.1188
▁actual	-10.1192
▁am	-10.1195
▁custom	-10.12
▁woohoo	-10.1202
▁cassidy	-10.1207
▁classified	-10.1207
▁client	-10.1207
▁competition	-10.1207
▁ferrari	-10.1207
▁glorious	-10.1207
▁guarantee	-10.1207
▁hockey	-10.1207
▁invitation	-10.1207
▁league	-10.1207
▁literally	-10.1207
▁lydia	-10.1207
▁magazine	-10.1207
▁mmmhmm	-10.1207
▁ordinary	-10.1207
▁polite	-10.1207
▁renault	-10.1207
▁scarecrow	-10.1207
▁slytherin	-10.1207
▁someplace	-10.1207
▁splendid	-10.1207
▁stammers	-10.1207
▁surface	-10.1207
▁tuesday	-10.1207
▁underwear	-10.1207
▁valentine	-10.1207
▁vehicle	-10.1207
▁vicious	-10.1207
▁carriage	-10.1207
▁material	-10.1207
▁option	-10.1207
▁resume	-10.1207
▁snack	-10.1207
▁laurel	-10.1207
▁junk	-10.1207
▁warrior	-10.1207
▁saint	-10.1207
▁rude	-10.1207
▁skills	-10.1207
▁subject	-10.1207
▁webs	-10.1207
▁critic	-10.1207
through	-10.1207
▁vacation	-10.1207
▁monday	-10.1207
▁suitcase	-10.1207
▁gorgeous	-10.1207
▁kenton	-10.1207
▁flashlight	-10.1207
▁behold	-10.1207
▁triumphant	-10.1207
▁winning	-10.1207
▁powder	-10.1207
▁curious	-10.1208
▁massey	-10.1208
cient	-10.1208
▁melvin	-10.1208
▁rattl	-10.1208
▁reject	-10.1208
▁route	-10.1209
▁item	-10.1209
▁bedroom	-10.1209
▁angels	-10.1209
▁housekeeper	-10.1209
▁detail	-10.121
▁transit	-10.121
▁invention	-10.121
▁rhythmic	-10.121
▁valuable	-10.121
▁trace	-10.1211
▁faye	-10.1212
▁artist	-10.1212
▁habit	-10.1214
▁oneders	-10.1215
▁corp	-10.1219
▁recipe	-10.1221
▁narrat	-10.1222
▁shrieking	-10.1225
▁disgusting	-10.1229
▁laid	-10.1234
▁spin	-10.1241
▁hum	-10.1242
▁classes	-10.1251
▁gain	-10.1251
▁gary	-10.1251
rate	-10.1254
dog	-10.1259
▁kisses	-10.1259
▁boost	-10.126
▁tickle	-10.1268
▁waited	-10.1274
▁lack	-10.1275
▁orphans	-10.1276
▁sink	-10.1281
▁peaceful	-10.1281
▁bitch	-10.1287
▁dearest	-10.1292
▁lala	-10.1293
some	-10.1298
▁object	-10.1304
▁straining	-10.1305
▁escaped	-10.1313
▁hire	-10.1325
▁agreed	-10.133
▁wishes	-10.1336
▁bags	-10.1346
▁meows	-10.1357
▁bat	-10.1366
▁surely	-10.1374
▁iii	-10.1379
▁bubbles	-10.1396
▁turnin	-10.1402
▁sucker	-10.1419
▁mud	-10.1425
▁com	-10.1431
▁prop	-10.1451
▁ira	-10.1453
▁humans	-10.1454
▁menu	-10.1455
▁host	-10.146
▁thousands	-10.1474
▁led	-10.1484
▁sooner	-10.1492
▁pirates	-10.1496
▁wil	-10.1512
▁showing	-10.1516
▁falls	-10.153
▁buying	-10.1615
▁knees	-10.162
▁whip	-10.164
▁gar	-10.1648
▁laws	-10.1669
ock	-10.1698
▁por	-10.173
▁leo	-10.1744
ium	-10.1752
ub	-10.1768
▁warn	-10.1782
▁teller	-10.1785
ook	-10.179
▁cop	-10.1792
▁gu	-10.1794
▁woo	-10.1801
mount	-10.1806
▁voices	-10.1811
▁sudden	-10.1812
▁spoke	-10.1821
▁mall	-10.1824
kill	-10.1827
▁cape	-10.1827
qui	-10.1829
▁basket	-10.1831
▁cannon	-10.1831
▁neighbor	-10.1831
▁mamma	-10.1831
▁blackbeard	-10.1832
▁champagne	-10.1832
▁clamoring	-10.1832
▁clarity	-10.1832
▁companion	-10.1832
▁dalgleish	-10.1832
▁disaster	-10.1832
▁disguise	-10.1832
▁downtown	-10.1832
▁dylan	-10.1832
▁emperor	-10.1832
▁equal	-10.1832
▁exercise	-10.1832
▁explode	-10.1832
▁ffynnon	-10.1832
▁grimlock	-10.1832
▁holiday	-10.1832
▁italian	-10.1832
▁jamboree	-10.1832
▁jeez	-10.1832
▁junior	-10.1832
▁maintain	-10.1832
▁megatron	-10.1832
▁pumpkin	-10.1832
▁reputation	-10.1832
▁seagull	-10.1832
▁servant	-10.1832
▁smedt	-10.1832
▁technology	-10.1832
▁truce	-10.1832
▁veruca	-10.1832
▁accus	-10.1832
▁becoming	-10.1832
▁charity	-10.1832
▁distant	-10.1832
▁glory	-10.1832
▁joking	-10.1832
▁trunk	-10.1832
▁unique	-10.1832
▁contain	-10.1832
▁edith	-10.1832
▁mimic	-10.1832
▁renner	-10.1832
▁superior	-10.1832
▁thick	-10.1832
▁costume	-10.1832
▁throne	-10.1832
▁cigarette	-10.1832
▁moaning	-10.1832
▁slam	-10.1832
▁flood	-10.1832
▁torn	-10.1832
▁neighborhood	-10.1832
▁evans	-10.1832
▁project	-10.1832
▁shining	-10.1832
▁cooing	-10.1832
▁whooping	-10.1832
▁cheek	-10.1832
▁dining	-10.1832
▁attractive	-10.1832
▁cliff	-10.1833
▁unhappy	-10.1833
▁flag	-10.1833
▁memo	-10.1833
▁valley	-10.1833
▁authority	-10.1833
▁staci	-10.1833
▁understanding	-10.1833
▁argue	-10.1833
▁couch	-10.1833
▁eugene	-10.1834
▁dang	-10.1834
▁inhales	-10.1834
▁historic	-10.1834
▁terry	-10.1834
▁penny	-10.1834
▁kron	-10.1834
▁stake	-10.1835
▁motion	-10.1836
▁selfish	-10.1836
▁ox	-10.1836
▁trim	-10.1836
▁marie	-10.1837
▁extremely	-10.1837
▁china	-10.1837
▁fence	-10.1839
▁customers	-10.1839
▁wales	-10.1839
▁ships	-10.1841
▁murmuring	-10.1842
▁market	-10.1842
▁professional	-10.1843
▁patch	-10.1844
▁piper	-10.1845
▁snowman	-10.1845
▁unfortunately	-10.1845
▁marine	-10.185
▁morty	-10.1853
hole	-10.1853
▁carried	-10.1854
▁print	-10.1855
▁sec	-10.1856
▁oliver	-10.1857
▁doomed	-10.1861
tal	-10.1861
ork	-10.1864
▁sexy	-10.1865
▁dial	-10.1866
▁realise	-10.1872
▁monsters	-10.1877
▁bitter	-10.1884
▁wandering	-10.1893
▁lookin	-10.1897
▁buzzing	-10.1906
▁normally	-10.192
▁x	-10.1921
▁bend	-10.1936
▁safer	-10.1936
▁mat	-10.1957
▁sid	-10.1963
▁burned	-10.1967
▁tires	-10.1971
ppy	-10.1981
▁tests	-10.1988
▁pod	-10.1989
▁politics	-10.1991
ko	-10.2005
▁hor	-10.2009
▁he	-10.2012
▁mic	-10.2015
▁visitors	-10.2016
▁rocky	-10.2018
ain	-10.2024
▁pretending	-10.2027
▁dim	-10.2033
▁highly	-10.2049
▁dancer	-10.2057
▁liz	-10.206
gy	-10.2061
▁mate	-10.2062
here	-10.2066
▁jokes	-10.2075
▁attacked	-10.208
▁shown	-10.2106
▁watched	-10.2107
▁pr	-10.2109
▁younger	-10.2122
▁useful	-10.2129
train	-10.2133
val	-10.215
▁reasons	-10.2154
▁bid	-10.2155
that	-10.2156
▁boot	-10.2159
▁melt	-10.2164
▁squeak	-10.2176
▁pirate	-10.2179
▁shoe	-10.2183
▁bark	-10.2185
ham	-10.2211
▁whi	-10.2285
▁workers	-10.2289
▁trained	-10.2307
▁ob	-10.2308
▁vera	-10.2309
iff	-10.2313
▁declare	-10.2326
▁mist	-10.2328
▁bears	-10.2339
▁beeps	-10.234
▁sum	-10.2343
low	-10.2357
▁carl	-10.2381
▁anti	-10.2397
▁clo	-10.2422
▁sneak	-10.2431
▁drag	-10.2441
▁possess	-10.2443
▁abandon	-10.2444
▁remembered	-10.2445
▁award	-10.2452
▁seek	-10.2453
▁measure	-10.2459
▁wander	-10.2465
▁health	-10.2473
print	-10.2474
▁cove	-10.2495
▁perform	-10.2496
▁annoying	-10.2498
▁avoid	-10.2498
▁awkward	-10.2498
▁brush	-10.2498
▁confused	-10.2498
▁covington	-10.2498
▁example	-10.2498
▁furniture	-10.2498
▁gorilla	-10.2498
▁invisible	-10.2498
▁matrix	-10.2498
▁meatloaf	-10.2498
▁merrick	-10.2498
▁necessities	-10.2498
▁offense	-10.2498
▁opposite	-10.2498
▁paradise	-10.2498
▁period	-10.2498
▁popular	-10.2498
▁prophet	-10.2498
▁quality	-10.2498
▁sybok	-10.2498
▁thursday	-10.2498
▁unusual	-10.2498
▁volunteer	-10.2498
▁wolves	-10.2498
▁wrestling	-10.2498
▁border	-10.2498
▁carrots	-10.2498
▁decent	-10.2498
▁determin	-10.2498
▁dexter	-10.2498
▁illegal	-10.2498
▁klingon	-10.2498
▁lewis	-10.2498
▁silent	-10.2498
▁slippers	-10.2498
▁welsh	-10.2498
▁whyd	-10.2498
▁wrist	-10.2498
▁flesh	-10.2498
▁theater	-10.2498
▁devon	-10.2498
▁khan	-10.2498
▁diane	-10.2498
▁wailing	-10.2498
▁ellie	-10.2498
▁wore	-10.2498
▁serum	-10.2498
▁aaah	-10.2498
▁bounc	-10.2498
▁influence	-10.2498
▁glenn	-10.2498
▁midnight	-10.2498
▁shore	-10.2499
▁spark	-10.2499
▁sunset	-10.2499
▁product	-10.2499
▁ferd	-10.2499
▁swimming	-10.2499
▁romance	-10.2499
▁knight	-10.2499
▁antique	-10.2499
▁maxwell	-10.25
▁rumble	-10.25
▁contract	-10.25
▁regard	-10.25
▁steam	-10.25
▁dimas	-10.25
▁dunk	-10.25
▁ladder	-10.25
▁contest	-10.25
▁whoops	-10.2501
▁confidence	-10.2501
▁fuel	-10.2501
▁pony	-10.2501
▁boogie	-10.2501
▁edge	-10.2501
▁limo	-10.2503
▁practically	-10.2503
▁martin	-10.2503
▁checked	-10.2504
▁hung	-10.2504
▁garw	-10.2504
▁reward	-10.2505
▁humor	-10.2505
▁nick	-10.2505
▁fuss	-10.2507
▁winds	-10.2507
▁gear	-10.2507
▁artie	-10.2508
tric	-10.2509
▁bedtime	-10.251
▁inner	-10.2511
▁specific	-10.2512
▁retired	-10.2517
▁kup	-10.2517
▁net	-10.2518
▁gim	-10.2519
▁poke	-10.2521
▁forth	-10.2522
▁dai	-10.2522
▁hurting	-10.2523
▁pour	-10.2527
▁fourth	-10.2528
▁circumstances	-10.2533
▁frankly	-10.2533
▁impressed	-10.2534
▁properly	-10.2537
▁kai	-10.2538
▁records	-10.2539
▁mixed	-10.2541
▁anne	-10.2545
▁mach	-10.255
▁loudly	-10.2567
rg	-10.2568
▁cra	-10.2571
▁based	-10.2582
▁mikey	-10.2591
▁arrested	-10.2616
▁lamb	-10.2623
▁munchkins	-10.2623
▁eva	-10.2626
▁gran	-10.2634
▁deserves	-10.2647
▁now	-10.2647
ren	-10.2653
stone	-10.2662
▁event	-10.2663
▁pea	-10.2664
▁drawing	-10.2668
▁cal	-10.2668
berg	-10.2675
▁yii	-10.2679
▁testing	-10.2679
▁rac	-10.2686
▁raf	-10.2708
▁diamonds	-10.2715
▁imagined	-10.2724
▁mustve	-10.2725
▁spending	-10.274
day	-10.274
cut	-10.2776
▁thin	-10.2779
▁killer	-10.2784
▁messed	-10.2789
▁lions	-10.281
▁rolling	-10.2815
iest	-10.282
▁engineer	-10.283
▁enjoying	-10.284
▁poo	-10.2872
▁brake	-10.2897
▁lads	-10.29
ulu	-10.2911
▁plu	-10.2912
▁palm	-10.2949
▁taff	-10.2955
hh	-10.2981
oul	-10.2984
▁image	-10.299
▁wipe	-10.2998
▁beating	-10.3022
met	-10.3029
▁stab	-10.3035
▁yar	-10.3041
oooo	-10.3078
▁sucks	-10.3104
▁greas	-10.3107
▁boil	-10.3111
▁moons	-10.3122
▁tro	-10.3169
▁require	-10.3177
▁gates	-10.3182
board	-10.3183
▁lame	-10.3185
▁advise	-10.3185
foot	-10.3188
mouth	-10.3188
free	-10.3188
fire	-10.3188
▁official	-10.3193
rb	-10.3194
▁hanna	-10.3206
▁stutter	-10.3212
▁wound	-10.3212
▁aladar	-10.3212
▁ashamed	-10.3212
▁beloved	-10.3212
▁campaign	-10.3212
▁celebrate	-10.3212
▁disgrace	-10.3212
▁electric	-10.3212
▁enemies	-10.3212
▁explosion	-10.3212
▁explosive	-10.3212
▁extraordinary	-10.3212
▁godmother	-10.3212
▁including	-10.3212
▁kowalskl	-10.3212
▁laundry	-10.3212
▁library	-10.3212
▁lucille	-10.3212
▁merino	-10.3212
▁montmirail	-10.3212
▁nigger	-10.3212
▁patrol	-10.3212
▁plastic	-10.3212
▁prophecy	-10.3212
▁proposal	-10.3212
▁prospect	-10.3212
▁recover	-10.3212
▁rizzio	-10.3212
▁slept	-10.3212
▁technique	-10.3212
▁tumnus	-10.3212
▁turtle	-10.3212
▁underneath	-10.3212
▁unicron	-10.3212
▁corporal	-10.3212
▁homework	-10.3212
▁honeycutt	-10.3212
▁ireland	-10.3212
▁process	-10.3212
▁spoil	-10.3212
▁collar	-10.3212
▁cupcakes	-10.3212
▁firm	-10.3212
▁proceed	-10.3212
▁sheet	-10.3213
▁tempt	-10.3213
▁angus	-10.3213
▁grip	-10.3213
▁jelly	-10.3213
▁shuttle	-10.3213
▁digging	-10.3213
▁playtone	-10.3213
▁faint	-10.3213
▁jaunt	-10.3213
▁clown	-10.3213
▁herd	-10.3213
▁identity	-10.3213
▁cruise	-10.3213
▁bravo	-10.3213
▁mask	-10.3213
▁committed	-10.3214
▁convert	-10.3214
▁obey	-10.3214
▁defeat	-10.3214
▁herr	-10.3214
▁arrangement	-10.3214
▁static	-10.3215
▁department	-10.3215
▁reverse	-10.3215
▁trapped	-10.3216
▁spoon	-10.3216
▁guapo	-10.3216
▁lupe	-10.3216
▁augustus	-10.3216
▁naked	-10.3216
▁geez	-10.3216
▁motor	-10.3216
▁troll	-10.3217
▁impression	-10.3217
▁screen	-10.3217
▁batter	-10.3217
▁tooth	-10.3218
▁barnes	-10.3219
▁jail	-10.3219
▁demon	-10.322
▁classical	-10.3221
▁chosen	-10.3223
ggle	-10.3223
▁recently	-10.3225
▁squawking	-10.3225
▁spoken	-10.3226
▁darkness	-10.3226
▁director	-10.3228
▁fran	-10.3228
▁foolish	-10.3228
▁squealing	-10.323
▁beam	-10.323
▁jab	-10.323
▁pill	-10.3231
▁manager	-10.3235
▁sew	-10.3235
▁drum	-10.3237
▁fifty	-10.3238
▁echoing	-10.324
▁betty	-10.324
▁fairies	-10.324
▁tax	-10.3247
▁complaint	-10.3248
▁stable	-10.3249
▁chen	-10.3251
▁moral	-10.3252
▁pup	-10.3252
▁purr	-10.3253
▁honk	-10.3253
▁original	-10.3256
▁loss	-10.3257
▁dish	-10.3262
▁chased	-10.3275
▁warned	-10.3275
▁amen	-10.3275
▁wide	-10.3287
▁mass	-10.3289
▁dumped	-10.3289
▁searching	-10.3299
▁drowned	-10.33
▁gonga	-10.3306
▁embarrassing	-10.3308
▁ree	-10.3319
get	-10.3321
▁nation	-10.3323
▁slip	-10.3323
▁tent	-10.3326
▁actor	-10.333
oli	-10.3353
▁spa	-10.3371
▁local	-10.3374
▁freaking	-10.3384
▁fools	-10.3386
▁der	-10.3408
let	-10.342
▁bruises	-10.3421
▁carrying	-10.3423
▁bothering	-10.3429
▁reminds	-10.3446
▁strangers	-10.3456
▁qua	-10.348
door	-10.3499
bell	-10.3504
▁upb	-10.3546
urg	-10.3552
▁thud	-10.3564
▁staring	-10.3565
▁squeaks	-10.357
hu	-10.3573
za	-10.3607
▁guts	-10.3613
▁protecting	-10.3622
ines	-10.3628
▁wit	-10.3635
ack	-10.3644
▁ki	-10.373
▁walked	-10.3752
▁not	-10.3757
▁richards	-10.3772
▁ending	-10.3774
▁ste	-10.3798
▁toy	-10.38
▁sau	-10.3822
▁wrap	-10.3824
▁cole	-10.3851
▁ram	-10.3853
ipping	-10.3896
aging	-10.3907
q	-10.3925
▁wreck	-10.3926
▁discover	-10.3932
▁weigh	-10.3937
room	-10.3941
▁activate	-10.3945
▁create	-10.3948
▁comb	-10.3948
▁ag	-10.3948
field	-10.3954
right	-10.3956
born	-10.3963
▁exact	-10.3965
▁rust	-10.3967
▁shush	-10.3971
shot	-10.3972
▁affect	-10.3975
▁chose	-10.3976
▁element	-10.3981
▁splash	-10.3981
▁attorney	-10.3982
▁beneath	-10.3982
▁benedict	-10.3982
▁butterflies	-10.3982
▁carlotta	-10.3982
▁committee	-10.3982
▁consequence	-10.3982
▁crisis	-10.3982
▁debbie	-10.3982
▁discipline	-10.3982
▁division	-10.3982
▁easily	-10.3982
▁eduardo	-10.3982
▁einstein	-10.3982
▁eleven	-10.3982
▁elizabeth	-10.3982
▁eventually	-10.3982
▁explosiveskull	-10.3982
▁fruit	-10.3982
▁grandmother	-10.3982
▁grogan	-10.3982
▁gryffindor	-10.3982
▁hogwarts	-10.3982
▁ignacio	-10.3982
▁include	-10.3982
▁individual	-10.3982
▁inevitable	-10.3982
▁lincoln	-10.3982
▁luggage	-10.3982
▁mademoiselle	-10.3982
▁malfoy	-10.3982
▁mingott	-10.3982
▁mulgarath	-10.3982
▁sequence	-10.3982
▁shinobu	-10.3982
▁sidekicks	-10.3982
▁smoking	-10.3982
▁splutters	-10.3982
▁suicide	-10.3982
▁sunshine	-10.3982
▁superhero	-10.3982
▁superweapon	-10.3982
▁supply	-10.3982
▁tranquil	-10.3982
▁ugarte	-10.3982
▁uplift	-10.3982
▁valiente	-10.3982
▁whistling	-10.3982
▁farewell	-10.3982
▁ghost	-10.3982
▁instruct	-10.3982
▁license	-10.3982
▁miserable	-10.3982
▁policy	-10.3982
▁repair	-10.3982
▁spanish	-10.3982
▁modern	-10.3982
▁dreadful	-10.3982
▁hazel	-10.3982
▁socrates	-10.3982
▁gulp	-10.3982
▁kamal	-10.3982
▁shift	-10.3982
▁twp	-10.3982
▁reveal	-10.3982
▁salad	-10.3982
▁text	-10.3982
▁shivering	-10.3982
▁coughs	-10.3982
▁candle	-10.3982
▁degrees	-10.3982
▁current	-10.3982
▁meteor	-10.3982
▁whitney	-10.3982
▁stress	-10.3982
▁chick	-10.3982
▁poopsie	-10.3982
▁yup	-10.3982
▁porky	-10.3982
▁skull	-10.3983
▁craft	-10.3983
rpal	-10.3983
▁lightning	-10.3983
▁kidnapped	-10.3983
▁assistance	-10.3983
▁unbelievable	-10.3983
▁herb	-10.3983
▁fond	-10.3983
▁vision	-10.3983
▁purse	-10.3983
▁hooray	-10.3983
▁booboo	-10.3983
▁education	-10.3983
▁beaver	-10.3984
▁medicine	-10.3984
▁garage	-10.3984
▁waitress	-10.3984
▁beans	-10.3984
▁remark	-10.3984
▁trial	-10.3985
▁lenny	-10.3986
▁lemon	-10.3986
▁effective	-10.3986
▁grownup	-10.3986
▁dealing	-10.3986
▁kara	-10.3987
▁comment	-10.3987
▁leap	-10.3988
▁personality	-10.3989
▁swish	-10.3989
▁heh	-10.399
▁wholl	-10.399
▁members	-10.3991
▁comin	-10.3991
▁comic	-10.3991
▁poochy	-10.3992
▁archie	-10.3993
▁fascinating	-10.3995
▁rumor	-10.3995
▁bullet	-10.3998
▁dating	-10.3998
▁bowers	-10.4002
▁tina	-10.4005
▁sock	-10.4007
▁vow	-10.4009
▁lamp	-10.4011
▁vol	-10.4013
▁non	-10.4015
▁sore	-10.4016
▁howling	-10.4016
▁straighten	-10.4023
▁hitting	-10.4024
▁creepy	-10.4033
▁sighing	-10.4034
▁lane	-10.4035
book	-10.4041
▁dragg	-10.4041
▁mop	-10.4049
mble	-10.4069
▁hills	-10.408
▁tada	-10.4085
▁hare	-10.4089
▁coin	-10.4091
▁crushed	-10.4093
▁mal	-10.4106
▁rap	-10.4122
▁marching	-10.4123
▁smarter	-10.4132
▁lovers	-10.4136
▁suffering	-10.4139
ado	-10.4141
▁carefully	-10.4144
▁spy	-10.4148
▁str	-10.417
▁accepted	-10.4172
▁considered	-10.4177
▁ami	-10.4182
▁apples	-10.4183
doo	-10.4187
▁seize	-10.4196
hoohoo	-10.4202
▁blessing	-10.4214
▁sto	-10.4237
ail	-10.4241
▁treated	-10.4242
▁villager	-10.4262
bus	-10.4292
▁enjoyed	-10.4306
ative	-10.4317
▁snowing	-10.4319
dent	-10.4334
▁laughed	-10.4352
▁plum	-10.4353
▁leading	-10.4364
ada	-10.4371
▁ordered	-10.4373
▁blowing	-10.4374
▁jumped	-10.4382
▁loca	-10.4387
▁passion	-10.4389
▁moo	-10.4413
▁events	-10.4426
▁prob	-10.4436
▁musical	-10.4441
▁ter	-10.4462
▁joining	-10.4472
hold	-10.4474
▁jumping	-10.4475
▁issues	-10.4479
▁terms	-10.4479
▁depend	-10.4486
▁of	-10.4498
▁manner	-10.4499
▁at	-10.4514
▁here	-10.4548
▁jacket	-10.455
▁kin	-10.4576
▁worker	-10.4578
looking	-10.4625
▁ast	-10.4636
ably	-10.4658
▁tick	-10.466
uch	-10.4681
▁badly	-10.4683
▁turner	-10.4696
tical	-10.4719
ura	-10.4723
▁univers	-10.4724
rack	-10.4731
ept	-10.4743
▁crawl	-10.4748
▁wrestle	-10.4756
▁drinking	-10.4766
▁mix	-10.4766
▁convince	-10.4779
▁remove	-10.4781
hood	-10.4787
wood	-10.479
▁talents	-10.4791
boo	-10.4791
▁fift	-10.4799
▁mornin	-10.4806
▁confess	-10.4809
▁lovin	-10.4809
▁whit	-10.4809
▁august	-10.4811
▁replace	-10.4812
▁whee	-10.4813
▁vince	-10.4813
▁jean	-10.4813
▁represent	-10.4815
▁trans	-10.4815
▁favour	-10.4815
▁neigh	-10.4815
▁muffled	-10.4815
▁progress	-10.4815
▁smooth	-10.4815
▁worship	-10.4815
▁yukie	-10.4815
▁amsterdam	-10.4815
▁application	-10.4815
▁appointment	-10.4815
▁arriving	-10.4815
▁behavior	-10.4815
▁cafeteria	-10.4815
▁carpenter	-10.4815
▁dessert	-10.4815
▁elevator	-10.4815
▁escort	-10.4815
▁execute	-10.4815
▁felix	-10.4815
▁florida	-10.4815
▁footsteps	-10.4815
▁happier	-10.4815
▁humiliate	-10.4815
▁hurrah	-10.4815
▁incident	-10.4815
▁insect	-10.4815
▁intelligence	-10.4815
▁jabberwocky	-10.4815
▁jeepers	-10.4815
▁kamiyah	-10.4815
▁merrily	-10.4815
▁moneypenny	-10.4815
▁mumbling	-10.4815
▁nuclear	-10.4815
▁oompaloompa	-10.4815
▁orleans	-10.4815
▁pathetic	-10.4815
▁piranha	-10.4815
▁pittsburgh	-10.4815
▁pregnant	-10.4815
▁privacy	-10.4815
▁procedure	-10.4815
▁pyramid	-10.4815
▁raspberry	-10.4815
▁receipt	-10.4815
▁refresh	-10.4815
▁resign	-10.4815
▁surgery	-10.4815
▁surrender	-10.4815
▁thrust	-10.4815
▁traffic	-10.4815
▁wednesday	-10.4815
▁cassie	-10.4815
▁conceal	-10.4815
▁insult	-10.4815
▁komay	-10.4815
▁outfit	-10.4815
▁slide	-10.4815
▁woah	-10.4815
▁woke	-10.4815
▁chorus	-10.4815
▁punk	-10.4815
▁puppies	-10.4815
▁reckon	-10.4815
▁smack	-10.4815
▁swamp	-10.4815
▁center	-10.4815
▁flew	-10.4815
▁spear	-10.4815
▁anytime	-10.4815
▁cartoon	-10.4815
▁changing	-10.4815
▁vermin	-10.4815
▁distort	-10.4815
▁whines	-10.4815
▁kelly	-10.4815
▁termite	-10.4815
▁blink	-10.4815
▁phase	-10.4815
▁potential	-10.4815
▁decorat	-10.4815
▁proposition	-10.4815
▁squarepants	-10.4815
▁francs	-10.4815
▁slay	-10.4815
▁oak	-10.4815
▁ponyboy	-10.4815
▁regina	-10.4816
▁punish	-10.4816
▁bink	-10.4816
▁auto	-10.4816
▁struck	-10.4816
▁strap	-10.4816
▁rotten	-10.4816
▁orbit	-10.4816
▁radi	-10.4816
▁fisherman	-10.4816
▁detective	-10.4816
▁roast	-10.4816
▁toot	-10.4817
▁fudge	-10.4817
▁automatic	-10.4817
▁buried	-10.4817
▁quack	-10.4818
▁sharing	-10.4818
▁merci	-10.4818
▁amuse	-10.4818
▁mouse	-10.4818
▁danny	-10.4818
▁waking	-10.4819
stein	-10.4819
▁stopping	-10.4819
▁unload	-10.482
▁jolly	-10.482
▁chaos	-10.482
▁balloon	-10.482
▁touchdown	-10.482
▁gruber	-10.4821
▁pinch	-10.4821
▁dummy	-10.4822
▁affection	-10.4822
▁spill	-10.4822
▁swell	-10.4823
▁fuse	-10.4823
▁alike	-10.4825
▁magician	-10.4826
▁painful	-10.4827
▁drill	-10.4827
▁loan	-10.4828
▁chum	-10.4829
▁flip	-10.483
erald	-10.483
▁chess	-10.4831
▁dings	-10.4832
▁halfway	-10.4832
▁teen	-10.4833
▁sack	-10.4833
▁bored	-10.4835
five	-10.4838
▁discussion	-10.4839
▁noon	-10.484
▁ability	-10.4841
▁surrounded	-10.4841
▁wig	-10.4841
▁applauding	-10.4841
▁bout	-10.4841
▁classic	-10.4842
▁fog	-10.4846
▁ahem	-10.4847
▁pear	-10.4847
▁mount	-10.4849
▁conduct	-10.485
▁convinced	-10.4851
▁invented	-10.4855
▁naturally	-10.4856
▁payment	-10.4862
▁cutter	-10.4866
▁skipp	-10.4869
▁unable	-10.4869
ability	-10.487
▁alter	-10.4873
boy	-10.4877
▁sch	-10.4883
▁jen	-10.4884
▁designed	-10.4893
▁honking	-10.4895
▁hail	-10.4907
▁kneel	-10.4915
rous	-10.4926
▁requested	-10.4936
▁neverland	-10.4938
▁greaser	-10.494
▁loaded	-10.4941
▁gag	-10.4943
▁washed	-10.4947
▁stinker	-10.4951
tory	-10.497
▁dope	-10.497
▁shortly	-10.4976
▁weirdo	-10.4981
▁quietly	-10.4983
▁wrapp	-10.4989
▁wy	-10.4996
▁worthy	-10.502
▁anthe	-10.505
▁considering	-10.5076
lk	-10.5077
▁bros	-10.5086
▁frogs	-10.5091
▁flu	-10.5098
▁tis	-10.5129
▁rely	-10.5138
▁marc	-10.5151
acu	-10.5155
▁knocked	-10.5159
bag	-10.5163
cap	-10.5166
how	-10.5177
ight	-10.5178
▁cleaned	-10.5201
▁fu	-10.5238
▁wi	-10.5257
▁dal	-10.526
▁wondered	-10.526
▁arch	-10.5273
▁chan	-10.53
▁talkin	-10.5328
ridge	-10.534
▁concentrat	-10.5341
▁landed	-10.5343
▁limit	-10.5345
▁organ	-10.5349
▁roar	-10.5354
▁lava	-10.5368
▁recording	-10.5398
▁jed	-10.5404
▁luca	-10.541
test	-10.5416
well	-10.5447
▁parr	-10.5455
▁mort	-10.5464
▁landing	-10.5466
▁hom	-10.547
▁sniffl	-10.5518
▁hunter	-10.5519
▁pad	-10.5549
▁indi	-10.5592
bri	-10.5605
▁walt	-10.5627
▁intent	-10.5653
▁them	-10.5657
▁chris	-10.5667
▁disturb	-10.5668
▁origin	-10.5669
▁preach	-10.5671
▁jan	-10.5682
▁solve	-10.5693
load	-10.5695
wife	-10.57
around	-10.57
read	-10.5703
▁unfortunate	-10.5705
▁obvious	-10.5705
uk	-10.5705
▁absolute	-10.5705
▁swor	-10.5709
▁cav	-10.5713
house	-10.5713
▁rhythm	-10.5718
▁statu	-10.5722
oogie	-10.5723
▁hawaii	-10.5724
▁absolem	-10.5724
▁accent	-10.5724
▁achieve	-10.5724
▁acquaintance	-10.5724
▁arrival	-10.5724
▁beware	-10.5724
▁breeze	-10.5724
▁charlotte	-10.5724
▁comrade	-10.5724
▁convention	-10.5724
▁cottage	-10.5724
▁council	-10.5724
▁delicate	-10.5724
▁destination	-10.5724
▁employer	-10.5724
▁enchant	-10.5724
▁exhibit	-10.5724
▁expedition	-10.5724
▁explanation	-10.5724
▁figaro	-10.5724
▁gadget	-10.5724
▁gracious	-10.5724
▁graduate	-10.5724
▁grissom	-10.5724
▁guitar	-10.5724
▁ignore	-10.5724
▁improve	-10.5724
▁judgment	-10.5724
▁juvenile	-10.5724
▁lobster	-10.5724
▁lockhart	-10.5724
▁luydens	-10.5724
▁monarch	-10.5724
▁muscle	-10.5724
▁myrna	-10.5724
▁myrtle	-10.5724
▁nefario	-10.5724
▁neighbour	-10.5724
▁orchestra	-10.5724
▁ozzie	-10.5724
▁pacific	-10.5724
▁pagogo	-10.5724
▁principle	-10.5724
▁promotion	-10.5724
▁recommend	-10.5724
▁relative	-10.5724
▁reserve	-10.5724
▁satisfied	-10.5724
▁scavenger	-10.5724
▁sensor	-10.5724
▁serververse	-10.5724
▁shrimp	-10.5724
▁smiling	-10.5724
▁squeeze	-10.5724
▁studio	-10.5724
▁sylvia	-10.5724
▁teamwork	-10.5724
▁temper	-10.5724
▁thanksgiving	-10.5724
▁unexpected	-10.5724
▁uniform	-10.5724
▁victim	-10.5724
▁vulture	-10.5724
▁whitaker	-10.5724
▁wisdom	-10.5724
▁average	-10.5724
▁capital	-10.5724
▁curtain	-10.5724
▁divine	-10.5724
▁hustle	-10.5724
▁instance	-10.5724
▁instant	-10.5724
▁malik	-10.5724
▁ultra	-10.5724
▁arrow	-10.5724
▁medium	-10.5724
▁mourn	-10.5724
▁whatll	-10.5724
▁diaper	-10.5724
▁hyah	-10.5724
▁scully	-10.5724
▁several	-10.5724
▁therap	-10.5724
▁attic	-10.5724
▁kadam	-10.5724
▁tomato	-10.5724
▁branch	-10.5724
▁method	-10.5724
▁appeal	-10.5724
▁personnel	-10.5724
▁drove	-10.5724
▁flint	-10.5724
▁agnes	-10.5724
▁connected	-10.5724
▁basic	-10.5724
▁false	-10.5724
▁starving	-10.5724
▁deaf	-10.5724
▁foyt	-10.5724
▁lilies	-10.5724
▁drew	-10.5724
▁presence	-10.5724
▁limb	-10.5724
▁torch	-10.5724
▁develop	-10.5724
▁rising	-10.5724
▁mandible	-10.5724
▁shiny	-10.5724
▁pump	-10.5724
▁greek	-10.5724
▁aliens	-10.5724
▁ethel	-10.5725
▁patience	-10.5725
▁authorities	-10.5725
▁federation	-10.5725
▁summon	-10.5725
▁excitement	-10.5725
▁referee	-10.5725
▁elster	-10.5725
▁nibs	-10.5725
▁daisy	-10.5725
▁depart	-10.5725
▁cheap	-10.5726
▁parrot	-10.5726
▁bacon	-10.5726
▁hahaha	-10.5726
▁vega	-10.5727
▁humble	-10.5727
▁failure	-10.5727
▁massive	-10.5727
▁downton	-10.5727
▁jackjack	-10.5727
▁series	-10.5728
▁heist	-10.5728
▁sensitive	-10.5728
▁fanny	-10.5728
▁garry	-10.5729
▁starship	-10.5729
▁armour	-10.5729
▁hostage	-10.5729
▁roam	-10.573
tail	-10.5731
▁thirsty	-10.5731
▁booya	-10.5732
▁begun	-10.5733
▁flies	-10.5733
▁sentence	-10.5733
▁awesomeness	-10.5734
▁jibe	-10.5734
suit	-10.5734
▁fluffy	-10.5734
▁jaw	-10.5735
▁dull	-10.5735
▁santa	-10.5736
▁collection	-10.5738
this	-10.5739
▁neat	-10.574
▁fame	-10.5741
▁vice	-10.5741
▁missile	-10.5742
▁yithe	-10.5742
▁cries	-10.5743
▁captured	-10.5743
▁highway	-10.5744
▁suggestion	-10.575
▁officially	-10.575
▁grass	-10.575
▁cage	-10.5754
▁gala	-10.5755
▁fry	-10.5758
▁warner	-10.5761
▁eeri	-10.5761
▁tinker	-10.5762
▁pola	-10.5765
▁required	-10.577
▁creaking	-10.5772
▁thus	-10.5772
▁rank	-10.5774
▁floating	-10.5774
▁louie	-10.5775
▁this	-10.5777
▁thee	-10.5782
istic	-10.5782
▁disturbed	-10.5783
▁itch	-10.5785
▁tray	-10.5791
▁lifetime	-10.5797
▁ticking	-10.5798
▁roy	-10.5802
▁flap	-10.5802
▁squawks	-10.5804
▁bury	-10.5805
▁walter	-10.5806
▁kindness	-10.5811
▁owl	-10.5826
▁beef	-10.583
▁samples	-10.5835
▁rescued	-10.5843
▁midge	-10.5846
▁busted	-10.5848
trud	-10.5849
▁ti	-10.585
▁range	-10.5855
▁yawns	-10.5867
▁banging	-10.5894
▁matt	-10.5904
▁prov	-10.5925
▁defect	-10.5932
▁nd	-10.5937
▁bah	-10.5941
▁belly	-10.5948
▁shy	-10.5969
▁ext	-10.5995
▁kida	-10.6016
mber	-10.6024
▁clouds	-10.6028
▁q	-10.6044
▁limits	-10.6062
▁aid	-10.6063
▁arc	-10.6079
▁zoo	-10.6086
▁dodge	-10.6087
▁depends	-10.6093
▁brad	-10.6095
pan	-10.6101
▁maria	-10.6111
ille	-10.6126
▁kissed	-10.6164
▁carrie	-10.618
▁fri	-10.6189
jous	-10.6244
▁ward	-10.6254
▁sleepy	-10.6266
▁sigh	-10.6314
▁stare	-10.6331
▁sol	-10.6355
▁approve	-10.637
▁cloud	-10.6399
▁frog	-10.64
▁diamond	-10.6403
▁bubble	-10.6404
▁toward	-10.6409
▁od	-10.6453
rock	-10.6482
▁stranger	-10.6492
▁helpful	-10.6561
con	-10.6566
▁explor	-10.6581
▁tan	-10.6587
part	-10.6594
ison	-10.6602
▁deliver	-10.6638
▁lee	-10.6646
▁impress	-10.6662
▁assum	-10.6665
▁accomplish	-10.6669
attered	-10.6683
▁mayo	-10.6695
life	-10.67
know	-10.67
▁glob	-10.6701
two	-10.6702
▁devot	-10.6718
wise	-10.6719
inlaw	-10.6719
▁loyal	-10.6721
▁uhuh	-10.6723
▁octopus	-10.6723
▁academy	-10.6724
▁acknowledge	-10.6724
▁africa	-10.6724
▁agency	-10.6724
▁ahtohallan	-10.6724
▁alvarez	-10.6724
▁anneclaire	-10.6724
▁ashore	-10.6724
▁available	-10.6724
▁bagheera	-10.6724
▁barnacle	-10.6724
▁buchanan	-10.6724
▁casserole	-10.6724
▁century	-10.6724
▁cheerleader	-10.6724
▁community	-10.6724
▁conclusion	-10.6724
▁coronation	-10.6724
▁croaks	-10.6724
▁culture	-10.6724
▁cybertron	-10.6724
▁diagusta	-10.6724
▁dimension	-10.6724
▁dwayne	-10.6724
▁eternity	-10.6724
▁exhausted	-10.6724
▁february	-10.6724
▁hilarious	-10.6724
▁injured	-10.6724
▁instinct	-10.6724
▁insurance	-10.6724
▁jennings	-10.6724
▁jumpathon	-10.6724
▁kananga	-10.6724
▁kennedy	-10.6724
▁lecture	-10.6724
▁magnus	-10.6724
▁mandrake	-10.6724
▁mcgonagall	-10.6724
▁mexican	-10.6724
▁miami	-10.6724
▁miniature	-10.6724
▁minnesota	-10.6724
▁obstacle	-10.6724
▁opponent	-10.6724
▁pendelton	-10.6724
▁philosophy	-10.6724
▁proffitt	-10.6724
▁retreat	-10.6724
▁reynolds	-10.6724
▁sebastian	-10.6724
▁sensation	-10.6724
▁shepard	-10.6724
▁snorts	-10.6724
▁suspicious	-10.6724
▁swift	-10.6724
▁sybbie	-10.6724
▁territory	-10.6724
▁texas	-10.6724
▁thirty	-10.6724
▁tragedy	-10.6724
▁tremendous	-10.6724
▁underground	-10.6724
▁wardrobe	-10.6724
▁yeehaw	-10.6724
▁access	-10.6724
▁bullfight	-10.6724
▁channel	-10.6724
▁dunno	-10.6724
▁forbidden	-10.6724
▁glitch	-10.6724
▁maureen	-10.6724
▁monitor	-10.6724
▁orlando	-10.6724
▁rainbow	-10.6724
▁relief	-10.6724
▁shelby	-10.6724
▁spiders	-10.6724
▁steak	-10.6724
▁cotton	-10.6724
▁distinguished	-10.6724
▁fifteen	-10.6724
▁hunk	-10.6724
▁spike	-10.6724
▁sprout	-10.6724
▁teeam	-10.6724
▁transfer	-10.6724
▁zebra	-10.6724
▁article	-10.6724
▁stella	-10.6724
▁argh	-10.6724
▁blister	-10.6724
▁frost	-10.6724
▁honeymoon	-10.6724
▁aaron	-10.6724
▁burden	-10.6724
▁kgb	-10.6724
▁leaf	-10.6724
▁ponies	-10.6724
▁repay	-10.6724
▁eema	-10.6724
▁jerry	-10.6724
▁knot	-10.6724
▁cancer	-10.6724
▁elite	-10.6724
▁excellenc	-10.6724
▁scent	-10.6724
▁slurps	-10.6724
▁llama	-10.6724
▁carpet	-10.6724
▁hotrod	-10.6724
▁thatd	-10.6724
▁puff	-10.6724
▁july	-10.6724
▁shopping	-10.6725
▁linda	-10.6725
▁orphanage	-10.6725
▁fading	-10.6725
ghorn	-10.6725
▁looney	-10.6725
stage	-10.6725
▁circus	-10.6725
▁outrageous	-10.6725
▁author	-10.6725
▁confident	-10.6725
▁donald	-10.6725
▁iso	-10.6726
▁wiz	-10.6726
▁landmark	-10.6726
▁urgent	-10.6726
▁courtney	-10.6726
▁psst	-10.6727
▁rustling	-10.6727
▁sentimental	-10.6727
▁hissing	-10.6727
▁commitment	-10.6727
▁childhood	-10.6727
▁lousy	-10.6727
▁western	-10.6728
▁replacement	-10.6728
▁puddle	-10.6729
▁porch	-10.6729
▁owns	-10.673
▁sled	-10.673
▁gigantor	-10.673
▁drain	-10.673
▁shaking	-10.673
▁haircut	-10.673
▁echoes	-10.673
▁accidentally	-10.6731
▁entr	-10.6731
▁potty	-10.6731
▁ditch	-10.6731
duct	-10.6731
▁potatoes	-10.6732
▁announcement	-10.6733
▁moron	-10.6733
▁mental	-10.6737
▁steele	-10.6737
▁bench	-10.6738
▁rumi	-10.6738
▁magnetic	-10.6738
▁package	-10.6738
▁bible	-10.6738
▁fever	-10.6743
▁bates	-10.6744
▁alley	-10.6745
▁tweety	-10.6745
▁qui	-10.6749
ancy	-10.675
▁stepped	-10.675
▁gig	-10.6756
▁pow	-10.6762
▁gaze	-10.6763
▁highness	-10.6764
▁sneeze	-10.6764
▁parish	-10.6768
▁heroic	-10.6771
▁slo	-10.6771
▁rusty	-10.6777
▁snickering	-10.6777
▁showtime	-10.6778
▁coordinates	-10.6778
▁measured	-10.6779
▁chat	-10.6779
eggie	-10.6781
▁hopeless	-10.6785
▁toss	-10.6787
▁chore	-10.6788
▁goodlooking	-10.6793
▁tone	-10.6806
▁abandoned	-10.6808
▁separated	-10.681
▁hired	-10.6816
▁nanny	-10.6826
▁searched	-10.6826
▁managed	-10.6829
▁freaky	-10.6835
tified	-10.6836
▁introduced	-10.6837
▁joey	-10.684
▁driven	-10.6847
▁lend	-10.6856
▁union	-10.6858
▁louder	-10.6859
▁agee	-10.6862
▁geek	-10.687
▁dine	-10.6872
▁granted	-10.6875
▁sucked	-10.688
▁helpless	-10.688
▁whale	-10.6882
▁affairs	-10.6883
▁citizens	-10.6883
▁scientists	-10.6883
▁poisoned	-10.6883
▁inch	-10.6904
ake	-10.6909
▁cheating	-10.6914
▁crashing	-10.6928
gged	-10.6932
▁putter	-10.6933
gan	-10.6934
▁farmer	-10.6935
▁feeding	-10.6971
cee	-10.6972
▁rag	-10.6981
▁blinded	-10.6983
▁cello	-10.6984
pie	-10.6988
▁breakin	-10.6992
▁whim	-10.702
tar	-10.7088
▁smelly	-10.7129
▁scaring	-10.7134
▁nun	-10.7142
ont	-10.7144
▁pushed	-10.7158
▁dent	-10.7176
▁packed	-10.7179
will	-10.7228
net	-10.7238
▁bush	-10.7253
▁cru	-10.7282
▁diet	-10.7322
▁conve	-10.7432
tom	-10.7442
▁pac	-10.745
▁pier	-10.7476
▁et	-10.7489
▁baa	-10.7496
▁bruise	-10.7513
▁passenger	-10.7516
tak	-10.7516
▁giggle	-10.7521
▁visitor	-10.7558
ounding	-10.7568
ograph	-10.7571
▁mor	-10.7583
▁inherit	-10.759
▁grah	-10.7598
squ	-10.7686
▁una	-10.7687
▁imitat	-10.7696
▁dime	-10.7705
▁aft	-10.7712
cat	-10.7713
▁chuckle	-10.7718
▁skip	-10.7724
▁invent	-10.7769
▁stew	-10.7769
▁screech	-10.777
▁tralala	-10.7794
▁delight	-10.7795
ulation	-10.7799
cream	-10.7804
mission	-10.7809
break	-10.7811
school	-10.7811
▁recent	-10.7816
turn	-10.7817
▁walker	-10.7822
▁cre	-10.7826
▁doom	-10.7829
▁commit	-10.7832
▁greet	-10.7833
▁aircraft	-10.7835
▁airplane	-10.7835
▁apologies	-10.7835
▁aragog	-10.7835
▁atlantic	-10.7835
▁auction	-10.7835
▁avenue	-10.7835
▁barbecue	-10.7835
▁baxter	-10.7835
▁blubbering	-10.7835
▁bonjour	-10.7835
▁carnahan	-10.7835
▁carnotaurs	-10.7835
▁ceiling	-10.7835
▁charities	-10.7835
▁coincidence	-10.7835
▁cotwell	-10.7835
▁cricket	-10.7835
▁custody	-10.7835
▁cynthia	-10.7835
▁deposit	-10.7835
▁despicable	-10.7835
▁devastat	-10.7835
▁display	-10.7835
▁dunkaccino	-10.7835
▁emotional	-10.7835
▁fantasy	-10.7835
▁ferguson	-10.7835
▁galvatron	-10.7835
▁helmet	-10.7835
▁humberfloob	-10.7835
▁increase	-10.7835
▁incredibly	-10.7835
▁ingredient	-10.7835
▁initiating	-10.7835
▁insectopia	-10.7835
▁install	-10.7835
▁judith	-10.7835
▁lanterns	-10.7835
▁limousine	-10.7835
▁lucius	-10.7835
▁matador	-10.7835
▁mexico	-10.7835
▁michelin	-10.7835
▁monique	-10.7835
▁napoleon	-10.7835
▁ninja	-10.7835
▁noodle	-10.7835
▁occupation	-10.7835
▁persuade	-10.7835
▁portrait	-10.7835
▁preparing	-10.7835
▁reception	-10.7835
▁reindeer	-10.7835
▁rourke	-10.7835
▁routine	-10.7835
▁sarabi	-10.7835
▁serving	-10.7835
▁skeleton	-10.7835
▁sputter	-10.7835
▁stubborn	-10.7835
▁survival	-10.7835
▁syndrome	-10.7835
▁terrifying	-10.7835
▁theodore	-10.7835
▁torture	-10.7835
▁vegetable	-10.7835
▁vessel	-10.7835
▁voldemort	-10.7835
▁xhosa	-10.7835
▁apology	-10.7835
▁beuler	-10.7835
▁claire	-10.7835
▁constant	-10.7835
▁galaxy	-10.7835
▁jersey	-10.7835
▁octa	-10.7835
▁plague	-10.7835
▁profit	-10.7835
▁purple	-10.7835
▁unfair	-10.7835
▁widow	-10.7835
▁worid	-10.7835
▁cents	-10.7835
▁dozen	-10.7835
▁eliot	-10.7835
▁formuler	-10.7835
▁molesley	-10.7835
▁akela	-10.7835
▁clucking	-10.7835
▁gleam	-10.7835
▁jinx	-10.7835
▁marnie	-10.7835
▁straw	-10.7835
▁wagon	-10.7835
ology	-10.7835
▁barrow	-10.7835
▁mound	-10.7835
▁favourite	-10.7835
▁wilderness	-10.7835
▁incoming	-10.7835
▁juan	-10.7835
▁tribe	-10.7835
▁canyon	-10.7835
▁rebel	-10.7835
▁thug	-10.7835
▁elinor	-10.7835
▁yacht	-10.7835
▁menace	-10.7835
▁deleted	-10.7835
▁antarctic	-10.7835
▁reich	-10.7835
▁whys	-10.7835
▁chunk	-10.7835
▁fortress	-10.7835
▁hollywood	-10.7835
▁rodrick	-10.7835
▁bunk	-10.7835
▁facing	-10.7835
▁investigat	-10.7835
▁yung	-10.7835
▁oates	-10.7836
▁hysterical	-10.7836
▁yyou	-10.7836
▁maniac	-10.7836
▁yum	-10.7836
▁flea	-10.7836
▁backyard	-10.7836
shire	-10.7836
▁gym	-10.7836
▁crims	-10.7836
▁wives	-10.7836
▁whwhat	-10.7836
▁yeager	-10.7836
▁mushroom	-10.7836
ygen	-10.7836
ternal	-10.7836
▁flipping	-10.7836
▁extend	-10.7836
▁rodent	-10.7836
▁civilization	-10.7837
▁ahoy	-10.7837
▁exchange	-10.7837
▁delightful	-10.7837
▁elementary	-10.7837
▁function	-10.7837
▁maximu	-10.7837
▁prank	-10.7837
▁superpower	-10.7837
▁andie	-10.7837
▁duties	-10.7837
▁mature	-10.7837
▁assignment	-10.7837
▁skinny	-10.7837
▁blaring	-10.7837
▁cancelled	-10.7838
▁slipped	-10.7838
▁bayard	-10.7838
▁towel	-10.7838
▁parade	-10.7838
▁starboard	-10.7838
▁babysitter	-10.7838
▁overboard	-10.7838
▁performance	-10.7838
▁mutt	-10.7838
▁religio	-10.7838
▁delay	-10.7839
▁shortcut	-10.7839
face	-10.7839
▁bop	-10.784
▁quote	-10.784
▁luka	-10.784
▁soap	-10.784
▁jock	-10.7841
▁spice	-10.7842
▁compare	-10.7842
▁flynn	-10.7842
▁evidence	-10.7843
▁poem	-10.7843
▁groom	-10.7843
▁curry	-10.7844
▁confession	-10.7844
▁pub	-10.7844
▁weakness	-10.7845
▁brace	-10.7845
▁generation	-10.7845
▁appearance	-10.7845
▁margo	-10.7845
▁brow	-10.7845
▁caf	-10.7845
▁adore	-10.7846
scope	-10.7846
▁scale	-10.7847
▁woof	-10.7847
▁dino	-10.7847
▁react	-10.7847
▁centre	-10.7847
▁mason	-10.7848
▁minor	-10.785
▁brandy	-10.7851
▁darry	-10.7851
▁angle	-10.7852
▁secretary	-10.7853
▁technically	-10.7853
▁slightly	-10.7853
who	-10.7854
▁shiv	-10.7854
▁described	-10.7854
▁hitler	-10.7855
▁coos	-10.7857
▁treatment	-10.7859
▁hopefully	-10.786
iki	-10.7862
▁fearless	-10.7862
▁mild	-10.7866
▁ace	-10.7866
▁diego	-10.7868
owee	-10.787
▁provided	-10.7871
▁tingle	-10.7873
▁grumbl	-10.7873
▁jackson	-10.7875
▁goodnight	-10.7875
▁bait	-10.7876
▁dip	-10.7884
▁kiddo	-10.7885
▁rage	-10.7886
▁provide	-10.7886
▁carson	-10.7887
▁role	-10.7889
▁curly	-10.789
▁flatter	-10.7892
onnie	-10.7894
▁clattering	-10.7895
▁deepest	-10.7897
▁accomplished	-10.7897
▁delivered	-10.7897
▁protection	-10.7899
▁apply	-10.79
▁rig	-10.7901
▁dresses	-10.7904
▁mustard	-10.7905
▁restore	-10.7909
▁label	-10.791
▁hack	-10.7916
▁boxes	-10.7921
▁musician	-10.7925
anshe	-10.7928
▁rum	-10.793
▁dock	-10.7948
▁cork	-10.7949
▁sneaking	-10.7951
▁exc	-10.7953
▁witches	-10.7956
▁studie	-10.7968
▁rod	-10.7969
▁erie	-10.7977
loom	-10.7978
▁touches	-10.7982
▁dame	-10.7983
▁survived	-10.7988
▁cosm	-10.7989
ofthe	-10.7989
▁robe	-10.799
▁bleat	-10.7995
▁tricky	-10.7996
▁hood	-10.8023
itious	-10.8032
▁pm	-10.8042
headed	-10.8042
▁mee	-10.8044
▁ahhh	-10.8049
▁did	-10.8059
ette	-10.8062
▁clicking	-10.8062
▁rate	-10.8088
▁gathering	-10.8097
▁climbed	-10.8099
▁bothered	-10.8122
owned	-10.8139
▁reli	-10.8156
▁ban	-10.8165
▁dup	-10.8174
ocate	-10.8198
cation	-10.8241
▁lid	-10.8255
skin	-10.8284
▁plug	-10.8293
▁lass	-10.8363
mbus	-10.8368
▁drawer	-10.843
▁hee	-10.8442
itty	-10.8452
ole	-10.847
▁ren	-10.8475
atch	-10.8487
▁labor	-10.8542
ati	-10.8553
▁construct	-10.8615
▁barn	-10.8701
▁meow	-10.8701
verse	-10.8742
▁ou	-10.8764
▁politic	-10.8765
▁stair	-10.8774
▁parent	-10.8775
▁apple	-10.8797
ility	-10.8804
▁rob	-10.8809
nned	-10.8827
▁refer	-10.8843
ji	-10.8856
rab	-10.8889
maker	-10.8978
▁sniff	-10.8998
▁crunch	-10.9017
▁clatter	-10.9018
▁snicker	-10.9018
▁creak	-10.9019
▁unveil	-10.903
izing	-10.9031
▁select	-10.9031
▁encourage	-10.9044
▁arrange	-10.9047
▁bik	-10.9047
▁retire	-10.905
▁era	-10.9058
power	-10.9059
proof	-10.9061
point	-10.9061
knock	-10.9061
class	-10.9061
kind	-10.9062
▁technical	-10.9065
dress	-10.9067
cake	-10.9072
▁froze	-10.9075
▁potato	-10.9075
▁blond	-10.9081
▁buff	-10.9083
▁urge	-10.9083
▁champ	-10.9084
▁broad	-10.9084
▁vent	-10.9084
▁invest	-10.9085
connect	-10.9085
▁daydream	-10.9085
▁electro	-10.9085
▁interfere	-10.9085
▁twelve	-10.9085
▁absurd	-10.9085
▁afterwards	-10.9085
▁algorithm	-10.9085
▁amazed	-10.9085
▁ambulance	-10.9085
▁amelia	-10.9085
▁ancestor	-10.9085
▁anxious	-10.9085
▁apologise	-10.9085
▁arguing	-10.9085
▁atmosphere	-10.9085
▁background	-10.9085
▁bandersnatch	-10.9085
▁basilisk	-10.9085
▁brundon	-10.9085
▁bruton	-10.9085
▁caterpillar	-10.9085
▁cathedral	-10.9085
▁catherine	-10.9085
▁ceremonies	-10.9085
▁ceremony	-10.9085
▁christopher	-10.9085
▁chubby	-10.9085
▁cleveland	-10.9085
▁coconut	-10.9085
▁complex	-10.9085
▁concert	-10.9085
▁confirm	-10.9085
▁continent	-10.9085
▁contrary	-10.9085
▁crocodile	-10.9085
▁cuddle	-10.9085
▁cuddly	-10.9085
▁cuisine	-10.9085
▁curiosity	-10.9085
▁dempsey	-10.9085
▁descend	-10.9085
▁disengage	-10.9085
▁dismissed	-10.9085
▁dundund	-10.9085
▁dynamite	-10.9085
▁empress	-10.9085
▁encounter	-10.9085
▁enforce	-10.9085
▁exclusive	-10.9085
▁fabulous	-10.9085
▁families	-10.9085
▁felipe	-10.9085
▁fixerupper	-10.9085
▁glacier	-10.9085
▁gloves	-10.9085
▁gunfight	-10.9085
▁helicopter	-10.9085
▁initial	-10.9085
▁injury	-10.9085
▁inspiration	-10.9085
▁institution	-10.9085
▁international	-10.9085
▁jedediah	-10.9085
▁jessica	-10.9085
▁jewellery	-10.9085
▁kahmunrah	-10.9085
▁ketchup	-10.9085
▁lamlam	-10.9085
▁liberty	-10.9085
▁lisbon	-10.9085
▁lollipop	-10.9085
▁loneliness	-10.9085
▁medieval	-10.9085
▁mermaid	-10.9085
▁microphone	-10.9085
▁moonbase	-10.9085
▁motorcycle	-10.9085
▁moxie	-10.9085
▁obliged	-10.9085
▁oyster	-10.9085
▁pajamas	-10.9085
▁paperwork	-10.9085
▁parseltongue	-10.9085
▁patroltec	-10.9085
▁patterson	-10.9085
▁pedestrian	-10.9085
▁presscott	-10.9085
▁privilege	-10.9085
▁reptile	-10.9085
▁revolution	-10.9085
▁revving	-10.9085
▁satisfaction	-10.9085
▁solution	-10.9085
▁sponsor	-10.9085
▁struggle	-10.9085
▁surprising	-10.9085
▁sylvester	-10.9085
▁tattoo	-10.9085
▁teenager	-10.9085
▁terrified	-10.9085
▁tiffany	-10.9085
▁treason	-10.9085
▁ultimate	-10.9085
▁unleash	-10.9085
▁vulcan	-10.9085
▁whinnies	-10.9085
▁bargain	-10.9085
▁blimp	-10.9085
▁document	-10.9085
▁gallant	-10.9085
▁houston	-10.9085
▁jalape	-10.9085
▁japanese	-10.9085
▁overwhelm	-10.9085
▁pellet	-10.9085
▁pencil	-10.9085
▁pinata	-10.9085
▁rubbish	-10.9085
▁salaz	-10.9085
▁stream	-10.9085
▁suburb	-10.9085
▁theatre	-10.9085
▁tragic	-10.9085
▁assassin	-10.9085
▁banished	-10.9085
▁bozo	-10.9085
▁cease	-10.9085
▁gallery	-10.9085
▁grandparents	-10.9085
▁gulch	-10.9085
▁hyatt	-10.9085
▁salmon	-10.9085
▁shelter	-10.9085
▁sunrise	-10.9085
▁tropic	-10.9085
▁unlock	-10.9085
▁titus	-10.9085
▁wendy	-10.9085
▁wiggly	-10.9085
▁alpha	-10.9085
▁leash	-10.9085
▁raising	-10.9085
▁register	-10.9085
▁related	-10.9085
▁anchor	-10.9085
▁baloo	-10.9085
▁ciao	-10.9085
▁envy	-10.9085
▁gunilla	-10.9085
▁oink	-10.9085
▁scandal	-10.9085
▁trilling	-10.9085
▁harmony	-10.9085
▁radar	-10.9085
▁brine	-10.9085
▁karl	-10.9085
▁mistress	-10.9085
▁turbo	-10.9085
▁arrey	-10.9085
▁gagging	-10.9085
▁herman	-10.9085
▁awaits	-10.9085
▁omelet	-10.9085
▁presume	-10.9085
▁puny	-10.9085
▁undone	-10.9085
▁opto	-10.9085
▁todd	-10.9085
▁lashly	-10.9085
▁dallas	-10.9085
▁atlas	-10.9085
▁lazy	-10.9086
▁pursuit	-10.9086
▁freezing	-10.9086
▁mudblood	-10.9086
▁assembl	-10.9086
▁cue	-10.9086
▁transmission	-10.9086
▁ankle	-10.9086
▁telegra	-10.9086
▁grabbed	-10.9086
▁preston	-10.9086
▁heels	-10.9086
▁commission	-10.9086
▁inquir	-10.9086
▁version	-10.9086
▁yummy	-10.9086
▁adopt	-10.9086
▁traiala	-10.9086
▁funeral	-10.9086
▁slight	-10.9086
▁dropping	-10.9086
▁debt	-10.9086
▁kirk	-10.9086
▁optic	-10.9086
▁violence	-10.9086
▁broadway	-10.9086
▁puke	-10.9087
▁sobs	-10.9087
▁scram	-10.9087
▁shrink	-10.9087
▁gavin	-10.9087
▁robbery	-10.9087
▁gordo	-10.9087
▁cardiff	-10.9087
▁stomp	-10.9087
▁confront	-10.9087
▁rubber	-10.9087
▁amigo	-10.9087
▁feast	-10.9087
▁disappointment	-10.9088
▁championship	-10.9088
▁location	-10.9088
▁denied	-10.9088
▁backwards	-10.9089
▁denver	-10.9089
▁tramp	-10.9089
▁bind	-10.9089
▁grill	-10.9089
▁spook	-10.9089
▁acid	-10.9089
▁bronx	-10.909
▁ripped	-10.909
▁crean	-10.909
▁kite	-10.909
▁stray	-10.9091
▁inventor	-10.9092
▁operating	-10.9093
▁benefit	-10.9094
▁depth	-10.9094
▁hamish	-10.9095
▁chairman	-10.9095
▁bald	-10.9095
▁severe	-10.9095
▁allowance	-10.9095
▁federa	-10.9095
▁hush	-10.9096
▁capable	-10.9096
▁kwan	-10.9097
▁brooke	-10.9099
▁spotted	-10.91
▁retro	-10.91
▁fleet	-10.9101
▁raw	-10.9101
▁scarce	-10.9101
▁wonderland	-10.9101
▁allen	-10.9102
▁distraction	-10.9102
▁relieved	-10.9102
▁yiyou	-10.9102
▁barton	-10.9103
▁yearold	-10.9103
▁shovel	-10.9104
▁rebuild	-10.9105
▁worthless	-10.9105
▁bold	-10.9106
▁expression	-10.9106
▁passage	-10.9106
▁stow	-10.9109
▁solo	-10.911
▁wallet	-10.9111
▁growth	-10.9112
▁seventh	-10.9114
▁globe	-10.9115
▁surfer	-10.9115
▁spain	-10.9116
▁madness	-10.912
▁bail	-10.9121
▁vet	-10.9121
▁christmastime	-10.9122
▁wolfie	-10.9122
▁triple	-10.9123
▁esp	-10.9129
▁swan	-10.9132
▁lean	-10.9132
jon	-10.9132
▁erin	-10.9133
▁attracted	-10.9133
▁solved	-10.9137
gun	-10.9137
▁selected	-10.9141
▁unveiled	-10.9141
tract	-10.9142
▁dispos	-10.9144
▁activated	-10.9146
▁cutting	-10.9147
▁oughta	-10.915
▁starve	-10.9155
▁meowing	-10.9156
boat	-10.9158
▁pur	-10.9158
▁jur	-10.9159
▁businessman	-10.9159
▁excitedly	-10.916
ooooo	-10.9162
▁limited	-10.9165
▁sharply	-10.9171
▁zipp	-10.9172
▁ruby	-10.9174
▁wrecked	-10.9178
▁huff	-10.9179
▁reality	-10.9179
▁pine	-10.9183
▁lawn	-10.9186
▁crowna	-10.9186
▁beaten	-10.9186
▁tralalaa	-10.9188
▁gay	-10.9188
▁lily	-10.9189
▁crawling	-10.919
▁possessed	-10.9193
▁awarded	-10.9193
▁blown	-10.9195
▁easter	-10.9197
▁fastest	-10.9206
▁murdered	-10.9209
▁tack	-10.9213
▁fang	-10.9214
▁vel	-10.9215
▁scotty	-10.9218
▁lighten	-10.922
▁thrown	-10.922
▁faithful	-10.922
▁taz	-10.9222
▁movement	-10.9224
▁atch	-10.9228
▁nailed	-10.9228
▁archery	-10.9231
▁stayne	-10.9235
sync	-10.9237
▁appreciat	-10.9244
▁princesses	-10.9246
▁hohoho	-10.9261
▁explore	-10.927
witz	-10.9284
▁kei	-10.9287
occ	-10.9305
▁writer	-10.932
▁kilo	-10.9337
▁joint	-10.9337
▁float	-10.9351
list	-10.9355
▁kidnap	-10.9356
▁negotiat	-10.9408
▁ooo	-10.944
nks	-10.9473
▁inn	-10.9478
▁detect	-10.9545
▁wip	-10.9556
ffy	-10.96
udge	-10.9711
rator	-10.976
▁mob	-10.9776
lace	-11.0016
▁wal	-11.0039
oir	-11.0068
state	-11.009
▁observe	-11.0108
roni	-11.0116
▁wink	-11.0119
▁groan	-11.0136
▁shout	-11.0149
▁tire	-11.0164
▁mil	-11.0183
▁buckle	-11.0184
rick	-11.019
oney	-11.0244
▁dari	-11.0271
ux	-11.0323
rent	-11.0349
▁spec	-11.0396
▁slap	-11.0401
▁scrub	-11.0409
bound	-11.0414
▁tralalaaa	-11.0439
▁howl	-11.0451
▁olive	-11.0453
▁attract	-11.0457
▁tink	-11.0466
▁betray	-11.0467
affe	-11.0468
friend	-11.0469
▁prim	-11.0475
▁tweet	-11.0484
▁mode	-11.0486
mark	-11.0488
pick	-11.049
year	-11.0491
think	-11.0491
▁energ	-11.0492
box	-11.0497
▁merc	-11.0502
eller	-11.0504
▁magnet	-11.0508
▁automat	-11.0509
▁gigant	-11.0509
▁fami	-11.0511
▁triumph	-11.0512
twis	-11.0514
▁drama	-11.0514
▁lilliput	-11.0514
intelligent	-11.0514
▁abraham	-11.0514
▁activities	-11.0514
▁administration	-11.0514
▁aggressive	-11.0514
▁altogether	-11.0514
▁amulet	-11.0514
▁analysis	-11.0514
▁anniversary	-11.0514
▁anticipat	-11.0514
▁aokay	-11.0514
▁argument	-11.0514
▁babbles	-11.0514
▁babbling	-11.0514
▁bachelor	-11.0514
▁banzai	-11.0514
▁bicycle	-11.0514
▁blimey	-11.0514
▁blizzard	-11.0514
▁broomstick	-11.0514
▁brutal	-11.0514
▁burglar	-11.0514
▁carnival	-11.0514
▁celebrity	-11.0514
▁chicago	-11.0514
▁circuit	-11.0514
▁civilian	-11.0514
▁commence	-11.0514
▁concept	-11.0514
▁czechoslovakia	-11.0514
▁declan	-11.0514
▁demonstration	-11.0514
▁despair	-11.0514
▁disagree	-11.0514
▁disrupt	-11.0514
▁diversion	-11.0514
▁earhart	-11.0514
▁eleanor	-11.0514
▁empire	-11.0514
▁escaping	-11.0514
▁establish	-11.0514
▁esteem	-11.0514
▁evacuate	-11.0514
▁executive	-11.0514
▁feature	-11.0514
▁fomard	-11.0514
▁funbucket	-11.0514
▁generous	-11.0514
▁giris	-11.0514
▁gratitude	-11.0514
▁handcuff	-11.0514
▁harvey	-11.0514
▁imperial	-11.0514
▁initiate	-11.0514
▁inspire	-11.0514
▁intense	-11.0514
▁intriguing	-11.0514
▁isolation	-11.0514
▁kreese	-11.0514
▁kumiko	-11.0514
▁marvellous	-11.0514
▁mcallister	-11.0514
▁mechanic	-11.0514
▁melanchol	-11.0514
▁michigan	-11.0514
▁miyaji	-11.0514
▁mozart	-11.0514
▁nermal	-11.0514
▁northuldra	-11.0514
▁nuhuh	-11.0514
▁octopi	-11.0514
▁oldfashioned	-11.0514
▁petrified	-11.0514
▁pevensie	-11.0514
▁pharaoh	-11.0514
▁platform	-11.0514
▁pretzels	-11.0514
▁puzzl	-11.0514
▁recognise	-11.0514
▁refund	-11.0514
▁revoir	-11.0514
▁rooster	-11.0514
▁scholarship	-11.0514
▁senior	-11.0514
▁shepherd	-11.0514
▁sleeve	-11.0514
▁slingshot	-11.0514
▁snarls	-11.0514
▁squirt	-11.0514
▁struggling	-11.0514
▁supplies	-11.0514
▁supposing	-11.0514
▁surveillance	-11.0514
▁survey	-11.0514
▁translation	-11.0514
▁twilight	-11.0514
▁unicorn	-11.0514
▁unofficial	-11.0514
▁vampire	-11.0514
▁virtue	-11.0514
▁whiskey	-11.0514
▁yoohoo	-11.0514
▁alaska	-11.0514
▁amateur	-11.0514
▁axel	-11.0514
▁blossom	-11.0514
▁brute	-11.0514
▁chancho	-11.0514
▁crescen	-11.0514
▁dignity	-11.0514
▁dizzy	-11.0514
▁exotic	-11.0514
▁frannie	-11.0514
▁horizon	-11.0514
▁messenger	-11.0514
▁mirage	-11.0514
▁pattern	-11.0514
▁persad	-11.0514
▁ribbon	-11.0514
▁rupees	-11.0514
▁satchel	-11.0514
▁skitch	-11.0514
▁squirm	-11.0514
▁treves	-11.0514
▁bullshit	-11.0514
▁clinking	-11.0514
▁examine	-11.0514
▁expense	-11.0514
▁fundrais	-11.0514
▁gloop	-11.0514
▁goofball	-11.0514
▁lunatic	-11.0514
▁obtain	-11.0514
▁prosper	-11.0514
▁puppet	-11.0514
▁random	-11.0514
▁sprinkle	-11.0514
▁virgin	-11.0514
▁delegat	-11.0514
▁hibernat	-11.0514
▁snatche	-11.0514
▁strict	-11.0514
▁anyhow	-11.0514
▁cocoa	-11.0514
▁holland	-11.0514
▁piggies	-11.0514
▁slick	-11.0514
▁tractor	-11.0514
▁voyage	-11.0514
▁walden	-11.0514
▁aqua	-11.0514
▁chancellor	-11.0514
▁hobby	-11.0514
▁philip	-11.0514
▁bigenders	-11.0514
▁hostile	-11.0514
▁whatre	-11.0514
▁fraud	-11.0514
▁howre	-11.0514
▁igoe	-11.0514
▁motel	-11.0514
▁prior	-11.0514
▁theory	-11.0514
▁thou	-11.0514
▁jackpot	-11.0514
▁barrel	-11.0514
▁snout	-11.0514
▁utter	-11.0514
▁berlin	-11.0514
▁importance	-11.0514
▁kidnapping	-11.0514
▁pledge	-11.0514
▁june	-11.0514
▁buh	-11.0514
▁fabric	-11.0514
▁yancy	-11.0514
▁natives	-11.0514
▁sascha	-11.0514
▁snappy	-11.0514
▁matienne	-11.0514
▁mongolia	-11.0514
▁gann	-11.0514
▁requirements	-11.0514
▁adele	-11.0514
▁corset	-11.0514
▁biggie	-11.0514
▁ensure	-11.0514
▁attaboy	-11.0514
▁hawks	-11.0514
▁qualifications	-11.0514
▁chimes	-11.0514
▁mockingly	-11.0514
▁boston	-11.0514
▁yuck	-11.0514
▁toad	-11.0514
▁genuine	-11.0514
▁occurred	-11.0514
▁mammals	-11.0514
▁bolt	-11.0514
ization	-11.0514
▁wiggle	-11.0514
fall	-11.0514
▁soak	-11.0515
▁kibbl	-11.0515
▁fuzz	-11.0515
▁whew	-11.0515
▁expectations	-11.0515
▁pratt	-11.0515
▁patron	-11.0515
▁meaningful	-11.0515
▁boca	-11.0515
▁octopussy	-11.0515
▁crook	-11.0515
▁bleeding	-11.0515
▁marvelous	-11.0515
▁drummer	-11.0515
▁goalie	-11.0516
▁supervillain	-11.0516
▁overnight	-11.0516
uhuhuh	-11.0516
▁wimp	-11.0516
▁ifyou	-11.0516
▁necessarily	-11.0516
▁rations	-11.0517
▁entrance	-11.0517
▁icy	-11.0517
▁captiv	-11.0517
▁piggy	-11.0517
▁dandy	-11.0517
▁ohio	-11.0518
▁dentist	-11.0518
▁lisa	-11.0518
▁stiff	-11.0518
▁grey	-11.0518
▁westside	-11.0518
▁thread	-11.0519
▁fregleyl	-11.0519
▁babysit	-11.0519
▁ginger	-11.0519
▁choke	-11.0519
▁manero	-11.0519
▁depot	-11.0519
▁grape	-11.0519
▁fright	-11.052
▁percentage	-11.052
▁temperature	-11.052
▁existence	-11.052
▁lump	-11.052
▁zini	-11.0521
▁measurement	-11.0521
▁faun	-11.0522
▁owens	-11.0522
▁countdown	-11.0522
▁reaction	-11.0522
▁fox	-11.0523
▁sunlight	-11.0523
▁oui	-11.0523
▁fashionable	-11.0523
▁shane	-11.0524
▁irish	-11.0524
sical	-11.0524
▁jewish	-11.0525
▁stall	-11.0525
▁shade	-11.0527
▁suri	-11.0528
▁roman	-11.0529
▁rail	-11.0529
▁rome	-11.053
▁yea	-11.053
▁nora	-11.053
▁assist	-11.0531
▁coverage	-11.0532
▁marvin	-11.0532
▁soil	-11.0533
▁annu	-11.0533
▁oof	-11.0535
▁medu	-11.0535
▁offended	-11.0536
four	-11.0536
▁dishes	-11.0536
▁doggy	-11.0537
▁mayday	-11.0538
▁wetter	-11.0538
▁forgiveness	-11.0539
▁earl	-11.0539
▁hideous	-11.054
▁statement	-11.0541
▁involve	-11.0543
▁triplet	-11.0543
▁cutler	-11.0544
itude	-11.0544
▁bravest	-11.0544
▁nina	-11.0544
▁tow	-11.0546
▁flour	-11.0546
▁shave	-11.0546
▁burst	-11.0549
▁posters	-11.0549
▁atta	-11.055
▁clearance	-11.055
▁pail	-11.0551
▁eden	-11.0551
astic	-11.0552
▁sledge	-11.0554
▁suitable	-11.0554
▁booth	-11.0556
▁voted	-11.0556
▁sixty	-11.0557
▁englishman	-11.0558
▁delivery	-11.0559
▁rug	-11.056
▁crashes	-11.0562
▁gregg	-11.0565
wait	-11.0566
▁dally	-11.0568
▁positively	-11.0569
▁larger	-11.0569
▁betrayed	-11.057
▁cabin	-11.057
▁adviser	-11.0571
▁bingo	-11.0572
▁gah	-11.0575
eek	-11.0578
▁mole	-11.0579
▁removed	-11.0579
▁coma	-11.0579
▁fist	-11.0584
▁spine	-11.0585
▁crater	-11.0592
▁crunching	-11.0593
▁dab	-11.0593
▁snape	-11.0595
iege	-11.0596
▁burnt	-11.0598
▁endless	-11.0598
▁fried	-11.0598
▁pem	-11.0602
▁signor	-11.0616
▁boop	-11.063
ptu	-11.0637
▁mally	-11.064
▁murderer	-11.0651
▁mega	-11.0662
▁with	-11.0686
▁scan	-11.0698
▁vari	-11.0745
▁boiler	-11.0749
▁advance	-11.0755
▁gale	-11.0762
uffe	-11.0788
▁oan	-11.0796
guff	-11.0799
▁hedge	-11.0817
▁crust	-11.0847
▁prom	-11.0894
▁beh	-11.0971
amari	-11.0994
▁whiz	-11.104
▁beau	-11.1122
▁comme	-11.1132
loss	-11.1158
angle	-11.1167
night	-11.1234
cracker	-11.1355
▁mill	-11.1476
▁om	-11.1491
ribb	-11.1559
oise	-11.1564
stand	-11.1575
ection	-11.158
immer	-11.1615
clap	-11.1626
race	-11.163
▁ken	-11.1647
hard	-11.1673
aka	-11.1723
▁cooper	-11.1748
▁stan	-11.1753
zero	-11.1759
nuk	-11.1764
aaa	-11.1845
ggi	-11.1855
▁munchkin	-11.1859
▁beside	-11.187
▁mumble	-11.1876
have	-11.1901
▁oop	-11.1918
▁eliminate	-11.1928
▁jane	-11.1994
ification	-11.1995
▁trie	-11.2005
atta	-11.2006
▁zip	-11.2065
ometer	-11.2067
▁echo	-11.2104
▁disgust	-11.2115
▁disappoint	-11.2124
▁surround	-11.2126
▁recite	-11.2139
▁engage	-11.2143
▁capture	-11.2145
▁filth	-11.2151
▁guilt	-11.2151
front	-11.2153
jack	-11.2153
villain	-11.2154
▁shove	-11.2155
bird	-11.2155
blood	-11.2156
jimmy	-11.2156
food	-11.2156
▁intensi	-11.2161
▁immediate	-11.2161
▁vote	-11.2163
letting	-11.2163
▁successful	-11.2166
▁steel	-11.2166
sick	-11.2167
three	-11.2168
▁mmhm	-11.2171
▁flush	-11.2175
▁reflect	-11.2177
▁assign	-11.2177
▁physi	-11.218
venge	-11.218
▁brief	-11.218
▁alcohol	-11.218
▁congress	-11.218
▁magnif	-11.218
activity	-11.218
structure	-11.218
▁alternative	-11.218
▁appease	-11.218
▁appropriate	-11.218
▁aspirin	-11.218
▁assault	-11.218
▁athlet	-11.218
▁australia	-11.218
▁autograph	-11.218
▁beetroot	-11.218
▁believing	-11.218
▁bizarre	-11.218
▁blueberry	-11.218
▁bristlemoss	-11.218
▁bubby	-11.218
▁caution	-11.218
▁celebrating	-11.218
▁clumsy	-11.218
▁compartment	-11.218
▁confusion	-11.218
▁congratulate	-11.218
▁currency	-11.218
▁cushion	-11.218
▁destruction	-11.218
▁dinobots	-11.218
▁dinosaur	-11.218
▁dregmorr	-11.218
▁dwarf	-11.218
▁entitled	-11.218
▁envelope	-11.218
▁environment	-11.218
▁fireflies	-11.218
▁follerin	-11.218
▁frisbee	-11.218
▁glitter	-11.218
▁grocer	-11.218
▁guelston	-11.218
▁hairspray	-11.218
▁hallelujah	-11.218
▁harcourt	-11.218
▁imbecile	-11.218
▁incrediboy	-11.218
▁innovation	-11.218
▁insignificant	-11.218
▁jamaica	-11.218
▁jefferson	-11.218
▁jewelry	-11.218
▁judging	-11.218
▁juicy	-11.218
▁kamishin	-11.218
▁kindergarten	-11.218
▁kozlova	-11.218
▁lefferts	-11.218
▁lemuel	-11.218
▁leslie	-11.218
▁livres	-11.218
▁lucinda	-11.218
▁manhattan	-11.218
▁mannequin	-11.218
▁masquerade	-11.218
▁maurier	-11.218
▁miniaturization	-11.218
▁miniaturize	-11.218
▁mmmmmm	-11.218
▁moscow	-11.218
▁negative	-11.218
▁nephew	-11.218
▁network	-11.218
▁nicholas	-11.218
▁norris	-11.218
▁offensive	-11.218
▁olivia	-11.218
▁overdue	-11.218
▁parallel	-11.218
▁parliament	-11.218
▁paxton	-11.218
▁pennsylvania	-11.218
▁perimeter	-11.218
▁philadelphia	-11.218
▁picnic	-11.218
▁pleureur	-11.218
▁predator	-11.218
▁previous	-11.218
▁refrigerator	-11.218
▁relations	-11.218
▁rescuing	-11.218
▁research	-11.218
▁reservation	-11.218
▁review	-11.218
▁roadblock	-11.218
▁satellite	-11.218
▁scientific	-11.218
▁selfdestruct	-11.218
▁senator	-11.218
▁shackleton	-11.218
▁shannon	-11.218
▁shenzi	-11.218
▁smithsonian	-11.218
▁sniper	-11.218
▁soviet	-11.218
▁specimen	-11.218
▁spuddie	-11.218
▁strategy	-11.218
▁sublime	-11.218
▁sunglasses	-11.218
▁superduper	-11.218
▁sussex	-11.218
▁sympathy	-11.218
▁temporary	-11.218
▁thunderstorms	-11.218
▁translator	-11.218
▁trigger	-11.218
▁trophy	-11.218
▁typical	-11.218
▁uncomfortable	-11.218
▁underestimate	-11.218
▁unlucky	-11.218
▁unpleasant	-11.218
▁veeko	-11.218
▁verdict	-11.218
▁anderson	-11.218
▁bullseye	-11.218
▁caviar	-11.218
▁chickenshit	-11.218
▁counsel	-11.218
▁dishonor	-11.218
▁divry	-11.218
▁electronic	-11.218
▁elsewhere	-11.218
▁expelled	-11.218
▁giddy	-11.218
▁gossip	-11.218
▁harbour	-11.218
▁heinous	-11.218
▁intimidat	-11.218
▁murray	-11.218
▁neglect	-11.218
▁orlov	-11.218
▁pixum	-11.218
▁purchase	-11.218
▁slug	-11.218
▁stampede	-11.218
▁tucson	-11.218
▁tummy	-11.218
▁wealth	-11.218
▁connection	-11.218
▁dudley	-11.218
▁handicap	-11.218
▁mccoy	-11.218
▁practicing	-11.218
▁ritz	-11.218
▁vanilla	-11.218
▁wrinkle	-11.218
▁addition	-11.2181
▁angrily	-11.2181
▁divide	-11.2181
▁nobel	-11.2181
▁parlor	-11.2181
▁publish	-11.2181
▁rabies	-11.2181
▁unpack	-11.2181
▁consult	-11.2181
▁dwan	-11.2181
▁embrace	-11.2181
▁obsess	-11.2181
▁rival	-11.2181
▁sardine	-11.2181
▁stroll	-11.2181
▁thrill	-11.2181
▁veteran	-11.2181
▁abstract	-11.2181
▁glance	-11.2181
▁lilliputians	-11.2181
▁naughty	-11.2181
▁calculations	-11.2181
▁decline	-11.2181
▁donation	-11.2181
▁gulf	-11.2181
▁prettie	-11.2181
▁horror	-11.2181
▁beetle	-11.2181
▁recess	-11.2181
▁scusa	-11.2181
▁stunn	-11.2181
hurst	-11.2181
▁reseda	-11.2181
▁manifest	-11.2181
▁measuring	-11.2181
▁online	-11.2181
▁ascen	-11.2181
▁casual	-11.2181
▁polish	-11.2181
▁reduce	-11.2181
▁skies	-11.2181
▁chinon	-11.2181
▁clerk	-11.2181
▁fierce	-11.2181
▁terrier	-11.2181
▁archives	-11.2181
▁attagirl	-11.2181
▁canoe	-11.2181
▁epic	-11.2181
▁rehearse	-11.2181
▁buen	-11.2181
▁conquer	-11.2181
▁entrust	-11.2181
▁travis	-11.2181
▁conroy	-11.2181
▁whining	-11.2181
▁backpack	-11.2181
▁spinning	-11.2181
▁visual	-11.2181
▁carolina	-11.2181
▁whooshing	-11.2181
▁flexib	-11.2181
▁rood	-11.2181
▁balm	-11.2181
▁cement	-11.2181
▁groov	-11.2181
mascot	-11.2181
▁litter	-11.2181
▁steep	-11.2181
▁underworld	-11.2181
▁tarla	-11.2181
▁davis	-11.2181
▁sizzl	-11.2181
▁begging	-11.2181
▁egyptian	-11.2181
▁dannyboy	-11.2181
▁tempos	-11.2181
▁sensu	-11.2181
▁redeem	-11.2181
▁lottery	-11.2181
▁elvis	-11.2181
▁inconvenience	-11.2181
▁reply	-11.2181
▁goofy	-11.2181
▁basis	-11.2182
▁necklace	-11.2182
▁internet	-11.2182
▁tracts	-11.2182
▁morris	-11.2182
▁greed	-11.2182
▁cooperate	-11.2182
▁bore	-11.2182
▁biome	-11.2182
▁blade	-11.2182
▁villaincon	-11.2182
▁sleepyhead	-11.2182
▁heather	-11.2182
▁sailboat	-11.2182
▁nonono	-11.2183
▁promote	-11.2183
fuge	-11.2183
▁slope	-11.2183
▁election	-11.2183
▁venture	-11.2183
▁gambling	-11.2183
▁automatically	-11.2183
▁festival	-11.2183
▁cabinet	-11.2184
▁phew	-11.2184
▁hammer	-11.2184
▁clipping	-11.2184
▁lounge	-11.2184
▁vague	-11.2184
▁mummy	-11.2184
▁quarterback	-11.2184
▁pillow	-11.2184
▁petrol	-11.2184
▁adjust	-11.2184
ranged	-11.2184
▁buffet	-11.2184
▁allergic	-11.2184
▁blares	-11.2185
▁wright	-11.2185
▁classroom	-11.2185
▁choking	-11.2185
▁pond	-11.2185
▁species	-11.2185
▁silk	-11.2185
▁sacr	-11.2185
▁crabbe	-11.2185
▁independent	-11.2185
▁dwell	-11.2185
▁molt	-11.2186
▁university	-11.2186
▁compete	-11.2186
▁sloth	-11.2186
▁association	-11.2186
▁tread	-11.2186
▁freddy	-11.2186
▁fiber	-11.2186
▁internal	-11.2186
▁leadership	-11.2187
▁multipl	-11.2187
▁raid	-11.2187
▁waterfall	-11.2187
▁crossfield	-11.2187
antenna	-11.2187
▁sensible	-11.2187
▁sober	-11.2187
▁development	-11.2187
▁infant	-11.2187
▁saddle	-11.2187
▁phrase	-11.2188
▁stallion	-11.2188
▁hesitate	-11.2189
▁sector	-11.2189
▁liking	-11.2189
▁timmy	-11.2189
▁grasp	-11.219
▁deliberately	-11.219
▁chinaman	-11.219
▁kingston	-11.219
▁brandt	-11.219
▁chalo	-11.2191
▁beck	-11.2191
▁flushes	-11.2191
▁pav	-11.2191
▁goyle	-11.2192
▁oooh	-11.2192
▁devotion	-11.2192
▁psycho	-11.2192
▁tube	-11.2193
▁excel	-11.2193
▁honourable	-11.2193
▁harmoni	-11.2193
▁chapel	-11.2194
▁breach	-11.2195
rink	-11.2196
▁jelli	-11.2196
▁anthat	-11.2196
▁zap	-11.2197
▁kata	-11.2197
▁spitz	-11.2197
▁grump	-11.2198
▁communicate	-11.22
▁hooting	-11.22
▁transporter	-11.2201
▁watchdog	-11.2202
▁whore	-11.2203
▁successfully	-11.2204
▁sash	-11.2204
▁logan	-11.2204
▁payback	-11.2204
▁household	-11.2205
▁valor	-11.2205
▁elder	-11.2205
▁shushes	-11.2205
▁alex	-11.2206
▁considerable	-11.2207
▁crou	-11.2208
▁travelling	-11.221
▁honorable	-11.221
▁puck	-11.2211
▁digit	-11.2212
▁vast	-11.2212
▁colum	-11.2214
▁coke	-11.2214
▁maiden	-11.2214
▁sandwiches	-11.2217
▁toro	-11.2218
▁snag	-11.2218
▁nono	-11.222
▁cuteness	-11.2222
▁coup	-11.2225
▁fulfill	-11.2225
▁barry	-11.2226
▁pati	-11.2228
▁spies	-11.2231
▁piss	-11.2231
uary	-11.2232
▁duh	-11.2232
▁strengthen	-11.2233
▁oot	-11.2234
▁sour	-11.2262
wash	-11.2268
▁laser	-11.2278
▁math	-11.228
ominate	-11.2282
drift	-11.2303
hereabouts	-11.2303
▁wrestler	-11.2304
oken	-11.2311
▁slapp	-11.2316
▁disco	-11.2331
▁allie	-11.2333
mph	-11.2367
▁rosa	-11.2396
▁continu	-11.2415
pants	-11.2477
oons	-11.2541
▁marv	-11.2545
▁tingl	-11.257
operative	-11.2632
▁combat	-11.2639
▁observ	-11.2679
asu	-11.2682
onald	-11.2684
galact	-11.2794
gram	-11.2824
▁peek	-11.2987
▁vei	-11.3013
llyho	-11.3061
chur	-11.3072
▁dow	-11.3097
ject	-11.3111
coat	-11.3134
nik	-11.3169
antoni	-11.3204
▁holly	-11.3232
passionate	-11.3252
▁anhe	-11.3276
ector	-11.3374
▁forag	-11.3403
▁stud	-11.3521
flavored	-11.3558
▁audi	-11.3573
rusty	-11.372
zoom	-11.3728
omic	-11.3758
▁claw	-11.3795
▁shriek	-11.3797
reference	-11.3815
gent	-11.3847
▁affair	-11.3854
▁citizen	-11.3854
▁scientist	-11.3854
▁yawn	-11.3868
curr	-11.388
▁jeopard	-11.3982
▁terror	-11.3987
▁hahahaha	-11.4017
keeper	-11.4021
tub	-11.4093
guar	-11.4104
▁applaud	-11.4114
▁chirp	-11.4115
▁approach	-11.4115
▁surf	-11.4131
▁brand	-11.4133
▁describe	-11.4144
rice	-11.4154
case	-11.4154
pound	-11.4155
fleet	-11.4155
worthy	-11.4155
grown	-11.4156
juice	-11.4156
correct	-11.4156
girl	-11.4156
secret	-11.4156
grade	-11.4156
glass	-11.4156
▁communicat	-11.4157
▁transport	-11.4157
▁brook	-11.4157
drop	-11.4158
close	-11.4159
piece	-11.4161
▁extreme	-11.4161
▁pooch	-11.4164
▁centr	-11.4164
▁psych	-11.4166
second	-11.4167
▁darr	-11.417
▁takin	-11.4172
▁fregley	-11.4173
▁guap	-11.4174
▁associat	-11.4174
▁gibber	-11.4177
unction	-11.4178
▁confide	-11.4178
▁outrage	-11.4178
▁compassion	-11.4179
▁whwh	-11.4179
▁violen	-11.4179
degree	-11.418
▁jib	-11.418
▁gorge	-11.418
mund	-11.418
▁occur	-11.418
▁cigar	-11.418
▁deceptic	-11.418
▁centuries	-11.418
▁hypno	-11.418
paragraph	-11.418
responsibilities	-11.418
sufficient	-11.418
▁admiral	-11.418
▁akhiya	-11.418
▁almighty	-11.418
▁ambassador	-11.418
▁amnesia	-11.418
▁amundsen	-11.418
▁appliance	-11.418
▁arrogant	-11.418
▁baudricourt	-11.418
▁behaviour	-11.418
▁belief	-11.418
▁blasphemy	-11.418
▁bouquet	-11.418
▁broccoli	-11.418
▁catarina	-11.418
▁cauldron	-11.418
▁celebration	-11.418
▁celeste	-11.418
▁chemical	-11.418
▁chimney	-11.418
▁choochoo	-11.418
▁clevedon	-11.418
▁conscience	-11.418
▁couriers	-11.418
▁culdesac	-11.418
▁cunning	-11.418
▁cynic	-11.418
▁datsun	-11.418
▁dedicated	-11.418
▁description	-11.418
▁despise	-11.418
▁diagon	-11.418
▁diarrhea	-11.418
▁diddlyey	-11.418
▁disobey	-11.418
▁dungeon	-11.418
▁employee	-11.418
▁enormous	-11.418
▁enthusiasm	-11.418
▁excessive	-11.418
▁exquisite	-11.418
▁eyelashes	-11.418
▁flawless	-11.418
▁forbid	-11.418
▁fountain	-11.418
▁frequent	-11.418
▁frozone	-11.418
▁frustrated	-11.418
▁frustrati	-11.418
▁fundamental	-11.418
▁gestapo	-11.418
▁girdle	-11.418
▁glasdale	-11.418
▁glumdalclitch	-11.418
▁grildrig	-11.418
▁hamilton	-11.418
▁honeysuckle	-11.418
▁hutchins	-11.418
▁hyperventilat	-11.418
▁ignition	-11.418
▁ignorant	-11.418
▁impostor	-11.418
▁inferior	-11.418
▁invader	-11.418
▁jonathan	-11.418
▁jordan	-11.418
▁lacrosse	-11.418
▁landlord	-11.418
▁legitimate	-11.418
▁letterblair	-11.418
▁librarian	-11.418
▁lyrics	-11.418
▁mackerel	-11.418
▁marshmallow	-11.418
▁mccarthy	-11.418
▁mcginty	-11.418
▁menatarms	-11.418
▁ministry	-11.418
▁montreal	-11.418
▁occupied	-11.418
▁optimus	-11.418
▁organisation	-11.418
▁outcast	-11.418
▁participat	-11.418
▁password	-11.418
▁perceptor	-11.418
▁perrault	-11.418
▁persnikitty	-11.418
▁persuasi	-11.418
▁phantom	-11.418
▁pilgrimtown	-11.418
▁pollito	-11.418
▁prefect	-11.418
▁prevail	-11.418
▁primitive	-11.418
▁profile	-11.418
▁reconsider	-11.418
▁reentry	-11.418
▁resolved	-11.418
▁resourceful	-11.418
▁response	-11.418
▁rheims	-11.418
▁rhino	-11.418
▁sabbath	-11.418
▁salvation	-11.418
▁satisfying	-11.418
▁saunders	-11.418
▁scrimshaw	-11.418
▁separation	-11.418
▁september	-11.418
▁shakespeare	-11.418
▁shoving	-11.418
▁similar	-11.418
▁singsongy	-11.418
▁sketch	-11.418
▁sleigh	-11.418
▁smooch	-11.418
▁snarling	-11.418
▁snug	-11.418
▁sophie	-11.418
▁sophisticated	-11.418
▁souffl	-11.418
▁spectacular	-11.418
▁spiderwick	-11.418
▁spontaneous	-11.418
▁stockbroker	-11.418
▁strawberry	-11.418
▁streak	-11.418
▁succotash	-11.418
▁supermarket	-11.418
▁superstition	-11.418
▁surgeon	-11.418
▁symbol	-11.418
▁talbot	-11.418
▁ticktock	-11.418
▁titov	-11.418
▁translate	-11.418
▁trembling	-11.418
▁trophies	-11.418
▁turkey	-11.418
▁twerp	-11.418
▁twostroke	-11.418
▁unacceptable	-11.418
▁unprecedented	-11.418
▁venom	-11.418
▁virgil	-11.418
▁virtual	-11.418
▁vulgar	-11.418
▁windshield	-11.418
▁wizzie	-11.418
▁wretch	-11.418
▁yourejokin	-11.418
▁altitude	-11.418
▁canbury	-11.418
▁chestnut	-11.418
▁cyclo	-11.418
▁dinobirds	-11.418
▁disrespect	-11.418
▁firework	-11.418
▁gagarin	-11.418
▁grief	-11.418
▁joyride	-11.418
▁leopard	-11.418
▁melody	-11.418
▁obrien	-11.418
▁outstanding	-11.418
▁petrox	-11.418
▁poetry	-11.418
▁saloon	-11.418
▁sodapop	-11.418
▁sorcer	-11.418
▁sorrow	-11.418
▁substance	-11.418
▁tangier	-11.418
▁tapping	-11.418
▁telegraph	-11.418
▁ticklish	-11.418
▁wheat	-11.418
▁yonder	-11.418
▁yowch	-11.418
while	-11.418
▁betroth	-11.418
▁bryce	-11.418
▁crisp	-11.418
▁donut	-11.418
▁gabby	-11.418
▁joshie	-11.418
▁muffin	-11.418
▁norland	-11.418
▁opium	-11.418
▁prevent	-11.418
▁promising	-11.418
▁salsa	-11.418
▁quinn	-11.418
▁rabid	-11.418
▁racket	-11.418
▁raven	-11.418
▁happies	-11.4181
▁pulse	-11.4181
▁rifle	-11.4181
▁scorch	-11.4181
▁sheep	-11.4181
▁bogus	-11.4181
▁colossal	-11.4181
▁decree	-11.4181
▁filch	-11.4181
▁friggin	-11.4181
▁fannie	-11.4181
▁motto	-11.4181
▁squish	-11.4181
▁vernon	-11.4181
▁loaf	-11.4181
▁reign	-11.4181
▁stunt	-11.4181
▁subtle	-11.4181
▁flaming	-11.4181
▁lutz	-11.4181
▁salary	-11.4181
▁slack	-11.4181
▁glum	-11.4181
▁worn	-11.4181
▁bluff	-11.4181
▁lease	-11.4181
▁affirmative	-11.4181
▁ivan	-11.4181
▁paddle	-11.4181
▁zeke	-11.4181
▁cardinal	-11.4181
▁quadr	-11.4181
▁breech	-11.4181
▁knit	-11.4181
▁briefcase	-11.4181
▁myth	-11.4181
▁retting	-11.4181
▁trench	-11.4181
▁cozy	-11.4181
▁drug	-11.4181
▁hound	-11.4181
▁canker	-11.4181
▁harness	-11.4181
▁thaw	-11.4181
▁licence	-11.4181
▁ryder	-11.4181
▁blighter	-11.4181
▁mercenar	-11.4181
▁seattle	-11.4181
▁sofie	-11.4181
▁blend	-11.4181
▁whirl	-11.4181
▁courtesy	-11.4181
▁groin	-11.4181
▁frivida	-11.4181
▁resembl	-11.4181
▁snore	-11.4181
▁twinkie	-11.4181
▁arena	-11.4181
▁berger	-11.4181
▁porthos	-11.4181
▁memorize	-11.4181
▁strangle	-11.4181
▁gertie	-11.4181
▁vandal	-11.4181
▁aaaaa	-11.4181
▁persian	-11.4181
▁ryan	-11.4181
▁mongoose	-11.4181
▁granddaughter	-11.4181
▁reeks	-11.4181
▁stump	-11.4181
▁yowl	-11.4181
▁imaginary	-11.4181
▁halves	-11.4181
▁stirred	-11.4181
▁cedar	-11.4181
▁supervise	-11.4181
▁behave	-11.4181
▁insert	-11.4181
▁disqualified	-11.4181
▁dingle	-11.4181
▁inaudible	-11.4181
▁lovebirds	-11.4181
enlargement	-11.4181
squire	-11.4181
▁exposed	-11.4181
▁emory	-11.4182
corporate	-11.4182
▁audition	-11.4182
▁korea	-11.4182
▁japan	-11.4182
▁poodleton	-11.4182
▁fester	-11.4182
▁doris	-11.4182
▁numero	-11.4182
▁popping	-11.4182
▁pinned	-11.4182
▁gents	-11.4182
▁xray	-11.4182
▁gogol	-11.4182
▁contribute	-11.4182
▁senor	-11.4182
▁jumprop	-11.4182
ffian	-11.4182
▁alleg	-11.4182
▁clapp	-11.4182
▁primate	-11.4183
▁spectr	-11.4183
▁choir	-11.4183
▁conviction	-11.4183
▁kapu	-11.4183
▁canada	-11.4183
▁laptop	-11.4183
▁abduct	-11.4183
▁tidy	-11.4183
▁terrorist	-11.4183
▁departure	-11.4183
▁protest	-11.4183
▁esquire	-11.4183
▁tinkling	-11.4183
▁heap	-11.4184
▁gibberish	-11.4184
▁donate	-11.4184
▁stir	-11.4184
mobile	-11.4184
▁forehead	-11.4184
▁observation	-11.4184
▁inject	-11.4184
▁aero	-11.4185
▁merciful	-11.4185
▁nerd	-11.4185
▁adjustment	-11.4185
▁blaine	-11.4185
▁disturbance	-11.4185
▁legendary	-11.4185
▁divert	-11.4185
▁violation	-11.4186
▁flank	-11.4186
▁burial	-11.4186
▁peach	-11.4186
▁loyalty	-11.4186
naiss	-11.4187
▁hiyah	-11.4187
▁kitch	-11.4187
▁reliable	-11.4187
▁blondie	-11.4187
▁modest	-11.4187
▁earring	-11.4187
▁panties	-11.4187
from	-11.4187
▁dislike	-11.4187
▁creation	-11.4188
▁dorm	-11.4188
▁sisterinlaw	-11.4189
▁reflection	-11.4189
▁crop	-11.4189
▁firing	-11.4189
▁liftoff	-11.4189
▁isle	-11.4189
▁spotlight	-11.4189
▁gateway	-11.4189
▁blank	-11.419
▁brotherinlaw	-11.419
▁marvel	-11.419
▁mime	-11.419
▁geese	-11.419
▁stature	-11.4191
▁mince	-11.4191
▁cheerful	-11.4191
▁recon	-11.4192
▁broom	-11.4192
▁moore	-11.4192
▁frisk	-11.4193
▁amber	-11.4193
▁shred	-11.4193
▁yearbook	-11.4193
▁mongo	-11.4193
▁woh	-11.4193
▁stern	-11.4195
▁vase	-11.4197
▁packard	-11.4197
▁maga	-11.4198
▁wade	-11.4199
semit	-11.4199
eather	-11.42
▁adam	-11.42
infested	-11.4201
▁shack	-11.4201
▁lndia	-11.4202
lalalala	-11.4202
▁gladys	-11.4203
▁minus	-11.4203
rietta	-11.4206
intensifie	-11.4211
▁combine	-11.4214
▁frame	-11.4217
epid	-11.4217
▁muck	-11.4223
▁define	-11.4229
▁encourag	-11.425
mpos	-11.4298
▁rappin	-11.4338
▁intr	-11.4339
intentional	-11.435
▁erase	-11.435
obedience	-11.4367
sportsman	-11.4396
ensive	-11.44
▁haste	-11.4421
after	-11.4452
easant	-11.4454
lumber	-11.4461
▁graceful	-11.4481
▁cloth	-11.4519
ncarna	-11.4524
niner	-11.4531
▁deceive	-11.4538
entice	-11.4553
haul	-11.461
▁jingl	-11.4638
vida	-11.4666
ettle	-11.468
▁pose	-11.4698
▁deca	-11.4839
agh	-11.4916
happy	-11.5058
▁fianc	-11.5133
▁adventur	-11.5163
▁muj	-11.5522
▁gobble	-11.5661
▁dodg	-11.5673
posed	-11.5802
deli	-11.5892
umpty	-11.5912
angri	-11.5942
hoohoohoo	-11.5961
about	-11.6023
hew	-11.6034
shaped	-11.6161
▁squeal	-11.6297
eau	-11.632
ohohoh	-11.6325
▁orphan	-11.6359
▁sample	-11.6363
minded	-11.6374
▁hydra	-11.6427
▁crav	-11.6578
changes	-11.6605
▁multi	-11.6616
phones	-11.6622
▁profession	-11.663
▁strik	-11.6641
▁brid	-11.6642
▁relieve	-11.6644
▁fluff	-11.6651
apple	-11.6655
magnetic	-11.6655
world	-11.6656
pipe	-11.6656
crowd	-11.6656
people	-11.6656
nothing	-11.6657
opening	-11.6657
yeah	-11.6657
sweet	-11.6658
charge	-11.6658
prison	-11.6658
ointed	-11.6659
scale	-11.6659
pilot	-11.666
▁practical	-11.6661
ought	-11.6665
ashes	-11.6666
▁diploma	-11.667
▁garde	-11.667
▁inhal	-11.6671
▁violat	-11.6674
flect	-11.6676
hattering	-11.6677
▁civiliz	-11.6677
▁temple	-11.6679
▁poodle	-11.6679
▁enlarg	-11.6679
▁hysteri	-11.668
measur	-11.668
▁squid	-11.668
▁slur	-11.668
▁blitz	-11.668
▁industri	-11.668
▁metaphor	-11.668
▁obnoxious	-11.668
▁toodle	-11.668
adequate	-11.668
awchuckleamalus	-11.668
cracy	-11.668
discretion	-11.668
hearted	-11.668
osaurus	-11.668
rpentine	-11.668
schnitzel	-11.668
▁acquainted	-11.668
▁acrophobia	-11.668
▁afflict	-11.668
▁afghanistan	-11.668
▁ahkmenrah	-11.668
▁ambition	-11.668
▁anonymous	-11.668
▁antelope	-11.668
▁approximately	-11.668
▁arachnneka	-11.668
▁arizona	-11.668
▁arrogance	-11.668
▁attentive	-11.668
▁balcony	-11.668
▁beauregarde	-11.668
▁beryllium	-11.668
▁blunder	-11.668
▁bubbling	-11.668
▁calendar	-11.668
▁capacity	-11.668
▁cardamom	-11.668
▁carrgomm	-11.668
▁cereal	-11.668
▁challenging	-11.668
▁chocolatier	-11.668
▁clutch	-11.668
▁complication	-11.668
▁comprehend	-11.668
▁compromise	-11.668
▁conflict	-11.668
▁confusing	-11.668
▁corrado	-11.668
▁correspondence	-11.668
▁corridor	-11.668
▁cougar	-11.668
▁crazier	-11.668
▁crikey	-11.668
▁croods	-11.668
▁crucial	-11.668
▁crucified	-11.668
▁dedication	-11.668
▁delaford	-11.668
▁discount	-11.668
▁dispatch	-11.668
▁disregard	-11.668
▁distinct	-11.668
▁distress	-11.668
▁easley	-11.668
▁eccentric	-11.668
▁elegant	-11.668
▁enthusiast	-11.668
▁ethical	-11.668
▁exaggerat	-11.668
▁exhaling	-11.668
▁exosuit	-11.668
▁extinct	-11.668
▁fanfare	-11.668
▁fawkes	-11.668
▁feminine	-11.668
▁fencing	-11.668
▁fertilizer	-11.668
▁figuring	-11.668
▁financial	-11.668
▁fingernails	-11.668
▁fjord	-11.668
▁fleury	-11.668
▁follered	-11.668
▁fracture	-11.668
▁futterwacken	-11.668
▁garrison	-11.668
▁gaucourt	-11.668
▁genetic	-11.668
▁glimpse	-11.668
▁gonzalez	-11.668
▁grinning	-11.668
▁gunpowder	-11.668
▁gypsies	-11.668
▁hallucinat	-11.668
▁hamburger	-11.668
▁hampstead	-11.668
▁heavier	-11.668
▁henchmen	-11.668
▁hisself	-11.668
▁hornagold	-11.668
▁hyper	-11.668
▁immaculat	-11.668
▁immature	-11.668
▁imminent	-11.668
▁immortal	-11.668
▁impatient	-11.668
▁indebted	-11.668
▁industry	-11.668
▁innocence	-11.668
▁intellect	-11.668
▁intercept	-11.668
▁interference	-11.668
▁ironhide	-11.668
▁irregular	-11.668
▁jupiter	-11.668
▁kampai	-11.668
▁kathleen	-11.668
▁kazoo	-11.668
▁kingsleigh	-11.668
▁knives	-11.668
▁krishna	-11.668
▁laboratory	-11.668
▁lamborghini	-11.668
▁lesbian	-11.668
▁lipstick	-11.668
▁majestic	-11.668
▁mammoth	-11.668
▁maneuver	-11.668
▁manipulat	-11.668
▁marseilles	-11.668
▁massacre	-11.668
▁matrimon	-11.668
▁mcclure	-11.668
▁mccord	-11.668
▁merchandise	-11.668
▁minimum	-11.668
▁mississippi	-11.668
▁molecul	-11.668
▁monstrous	-11.668
▁muggleborns	-11.668
▁neutral	-11.668
▁nougat	-11.668
▁november	-11.668
▁obligation	-11.668
▁oblivio	-11.668
▁optimistic	-11.668
▁oregon	-11.668
▁peckerwood	-11.668
▁penetrate	-11.668
▁phony	-11.668
▁pianoforte	-11.668
▁platter	-11.668
▁pleasing	-11.668
▁possibilities	-11.668
▁precaution	-11.668
▁premises	-11.668
▁prototype	-11.668
▁provisions	-11.668
▁quidditch	-11.668
▁receiving	-11.668
▁recognition	-11.668
▁registration	-11.668
▁replacing	-11.668
▁retrieve	-11.668
▁revolting	-11.668
▁rupert	-11.668
▁salvage	-11.668
▁samantha	-11.668
▁samaritan	-11.668
▁scotland	-11.668
▁scoundrel	-11.668
▁seventyfive	-11.668
▁shaggy	-11.668
▁shampoo	-11.668
▁significant	-11.668
▁slippery	-11.668
▁slobber	-11.668
▁snorting	-11.668
▁solemn	-11.668
▁solitaire	-11.668
▁solleks	-11.668
▁souvenir	-11.668
▁spaghetti	-11.668
▁stallyns	-11.668
▁stavros	-11.668
▁steadfast	-11.668
▁stupendous	-11.668
▁sturdy	-11.668
▁supervisor	-11.668
▁supreme	-11.668
▁taylor	-11.668
▁theoretical	-11.668
▁thieves	-11.668
▁throttle	-11.668
▁tofutti	-11.668
▁trickortreat	-11.668
▁turkish	-11.668
▁twirl	-11.668
▁umbrella	-11.668
▁unaware	-11.668
▁underbutler	-11.668
▁undercover	-11.668
▁underwater	-11.668
▁ungrateful	-11.668
▁unoccupied	-11.668
▁uptempo	-11.668
▁vaccinate	-11.668
▁vaucouleurs	-11.668
▁verified	-11.668
▁veronica	-11.668
▁vicksburgs	-11.668
▁villapianos	-11.668
▁vinegar	-11.668
▁volleyball	-11.668
▁waistcoat	-11.668
▁walnut	-11.668
▁wazoo	-11.668
▁whupp	-11.668
▁wilcox	-11.668
▁wisconsin	-11.668
▁wlfe	-11.668
▁womb	-11.668
▁wwwait	-11.668
▁xosha	-11.668
▁yippee	-11.668
▁yvonne	-11.668
ezvous	-11.668
▁baylene	-11.668
▁beehive	-11.668
▁bodyguard	-11.668
▁branson	-11.668
▁cavalry	-11.668
▁cepes	-11.668
▁chozen	-11.668
▁climate	-11.668
▁corporation	-11.668
▁efficiency	-11.668
▁footwork	-11.668
▁gasoline	-11.668
▁grazie	-11.668
▁hurray	-11.668
▁indulg	-11.668
▁length	-11.668
▁masala	-11.668
▁matonne	-11.668
▁methane	-11.668
▁mutual	-11.668
▁nelson	-11.668
▁ounce	-11.668
▁oxford	-11.668
▁pixies	-11.668
▁refugees	-11.668
▁savior	-11.668
▁sheesh	-11.668
▁skirt	-11.668
▁swirl	-11.668
▁tenspeed	-11.668
▁benign	-11.668
▁charging	-11.668
▁delusion	-11.668
▁duarto	-11.668
▁enhance	-11.668
▁foxington	-11.668
▁juggle	-11.668
▁korrd	-11.668
▁mickey	-11.668
▁nickname	-11.668
▁pistol	-11.668
▁posterized	-11.668
▁raymond	-11.668
▁rejoic	-11.668
▁scotch	-11.668
▁snoop	-11.668
▁trotting	-11.668
▁valiant	-11.668
▁vendor	-11.668
▁devious	-11.668
▁disease	-11.668
▁draft	-11.668
▁liquid	-11.668
drudd	-11.6681
▁attached	-11.6681
▁brainiac	-11.6681
▁bribe	-11.6681
▁certified	-11.6681
▁deputy	-11.6681
▁jehu	-11.6681
▁outrun	-11.6681
▁richmond	-11.6681
▁serene	-11.6681
▁shawl	-11.6681
▁squat	-11.6681
▁stranded	-11.6681
▁whirring	-11.6681
apoca	-11.6681
▁buffalo	-11.6681
▁cabbage	-11.6681
▁colleen	-11.6681
▁lntyre	-11.6681
▁salina	-11.6681
▁teapot	-11.6681
▁arturo	-11.6681
▁legacy	-11.6681
▁semental	-11.6681
▁sixteen	-11.6681
▁vicki	-11.6681
▁vienna	-11.6681
▁aroma	-11.6681
▁brodad	-11.6681
▁ripple	-11.6681
▁bandaid	-11.6681
▁fourteen	-11.6681
▁fowl	-11.6681
▁nevertheless	-11.6681
▁violin	-11.6681
▁butch	-11.6681
▁deja	-11.6681
▁flick	-11.6681
▁frightening	-11.6681
▁laurie	-11.6681
▁norby	-11.6681
▁postpone	-11.6681
▁scoot	-11.6681
▁update	-11.6681
▁voila	-11.6681
▁debate	-11.6681
▁senate	-11.6681
▁eager	-11.6681
▁glue	-11.6681
▁abort	-11.6681
▁sermon	-11.6681
▁smog	-11.6681
▁yeshuh	-11.6681
▁foca	-11.6681
▁magna	-11.6681
▁missouri	-11.6681
▁oaf	-11.6681
▁snail	-11.6681
▁sponge	-11.6681
▁fender	-11.6681
▁grove	-11.6681
▁youknowwh	-11.6681
▁goddess	-11.6681
▁turf	-11.6681
▁empti	-11.6681
▁retching	-11.6681
▁scanner	-11.6681
▁flare	-11.6681
▁draco	-11.6681
▁brig	-11.6681
▁claus	-11.6681
▁diana	-11.6681
▁loire	-11.6681
▁polka	-11.6681
▁gregory	-11.6681
▁marquis	-11.6681
▁banner	-11.6681
▁crude	-11.6681
▁runeard	-11.6681
▁adapt	-11.6681
▁console	-11.6681
▁resort	-11.6681
▁flunk	-11.6681
▁fret	-11.6681
▁houseelf	-11.6681
▁dvd	-11.6681
▁media	-11.6681
▁accurate	-11.6681
▁swabb	-11.6681
▁toppling	-11.6681
▁jeanpierre	-11.6681
▁pascal	-11.6681
▁jammed	-11.6681
▁whatsoever	-11.6681
▁brood	-11.6681
▁skid	-11.6681
obbies	-11.6681
▁harsh	-11.6681
▁absence	-11.6681
▁newark	-11.6681
▁hooper	-11.6681
▁rita	-11.6681
▁forfeit	-11.6681
▁slice	-11.6681
▁sincerely	-11.6681
orama	-11.6681
▁eldest	-11.6681
▁chopping	-11.6681
▁compound	-11.6681
▁neera	-11.6681
tumn	-11.6681
▁kyle	-11.6681
▁laddie	-11.6681
▁pretens	-11.6681
▁teammates	-11.6681
rjob	-11.6681
ccino	-11.6681
▁decade	-11.6681
▁trio	-11.6681
▁creative	-11.6681
▁actress	-11.6681
▁bidding	-11.6682
▁vibes	-11.6682
▁representative	-11.6682
▁wails	-11.6682
▁creek	-11.6682
▁undertake	-11.6682
▁griev	-11.6682
▁dribbl	-11.6682
▁boomsies	-11.6682
▁humiliating	-11.6682
▁barging	-11.6682
▁lapati	-11.6682
hospita	-11.6682
allagh	-11.6682
▁warrant	-11.6682
▁beacon	-11.6682
▁toddler	-11.6682
▁geroni	-11.6682
▁logical	-11.6682
▁allright	-11.6682
▁albert	-11.6682
▁upgrade	-11.6682
▁upsies	-11.6682
▁splashdown	-11.6682
▁sideways	-11.6683
▁cornfield	-11.6683
▁compassionate	-11.6683
▁bonnet	-11.6683
▁yihe	-11.6683
▁bawl	-11.6683
▁exceptional	-11.6683
▁lund	-11.6683
▁downwind	-11.6683
▁winston	-11.6683
▁beginner	-11.6684
▁relocat	-11.6684
▁meaningless	-11.6684
▁degrad	-11.6684
▁sooth	-11.6684
ligans	-11.6684
▁stalk	-11.6684
▁drumming	-11.6685
▁cinema	-11.6685
phee	-11.6686
▁sweatshirt	-11.6686
▁denise	-11.6686
▁actua	-11.6687
▁gulli	-11.6687
▁dekk	-11.6688
▁doodle	-11.6689
▁triba	-11.669
▁bapti	-11.669
▁glee	-11.6691
▁andr	-11.6691
▁diplomati	-11.6691
▁apri	-11.6695
▁silli	-11.6695
affle	-11.6696
ekka	-11.6699
▁semi	-11.67
▁freelanc	-11.67
▁dusk	-11.6702
eemaw	-11.6702
auxi	-11.6714
▁dissect	-11.6714
▁sku	-11.6715
▁untie	-11.6719
▁justifi	-11.6724
udic	-11.6725
ential	-11.6729
closure	-11.673
rainstorm	-11.6731
ggado	-11.6739
▁hiya	-11.6743
▁recit	-11.6748
aiala	-11.675
▁identi	-11.6754
▁fisherm	-11.6755
style	-11.6757
▁swede	-11.6763
▁tusk	-11.6777
iscard	-11.6784
▁dyn	-11.6819
humping	-11.6828
▁lagu	-11.6835
▁mastermind	-11.6848
▁speculat	-11.6857
gestion	-11.6893
▁overhea	-11.6913
▁terrorize	-11.6931
▁organize	-11.7061
edford	-11.7062
arrell	-11.7063
▁strip	-11.7072
▁eliminat	-11.7089
sipp	-11.7253
graphic	-11.7298
ennis	-11.7658
▁approv	-11.7704
owning	-11.7926
pierre	-11.8332
▁oppos	-11.8344
john	-11.8554
impo	-11.8621
scheduled	-11.8705
muff	-11.8707
▁apologiz	-11.8739
▁burbl	-11.8791
poster	-11.9078
guided	-11.9089
negotiate	-11.9114
cooked	-11.9185
hiti	-11.9199
bbled	-11.9221
ceived	-11.9402
▁advanc	-11.9418
protective	-11.9523
udding	-11.9555
oggin	-11.9563
gloo	-11.957
▁squawk	-11.9622
▁whisper	-11.9633
▁exclaim	-11.9634
▁hyena	-11.97
shirts	-11.9765
▁involv	-11.9798
▁sneez	-11.9864
▁fulfil	-11.9917
▁recip	-11.9925
uffing	-11.9929
▁imagin	-11.9931
▁fascinat	-11.9948
▁murmur	-11.9948
▁offend	-11.9958
▁excite	-11.9976
▁thirst	-11.9984
▁dumm	-11.9984
▁emergenc	-11.9985
▁stead	-11.9985
evidence	-11.9988
generation	-11.9988
daughter	-11.9989
▁benefi	-11.9989
screen	-11.9989
valuable	-11.9989
whee	-11.9989
credit	-11.9989
proper	-11.9989
jungle	-11.9989
bottom	-11.9989
record	-11.9989
control	-11.999
keeping	-11.999
flower	-11.9992
famous	-11.9993
▁deliberate	-11.9993
▁apparent	-11.9994
▁sentiment	-12.0004
▁shakin	-12.0005
▁allergi	-12.0005
▁educat	-12.0007
▁generat	-12.0008
heddin	-12.001
▁easie	-12.001
tribute	-12.0011
▁humiliati	-12.0012
izi	-12.0012
qualified	-12.0012
▁egypt	-12.0012
rumming	-12.0013
knuckle	-12.0013
plore	-12.0013
qualification	-12.0013
ologist	-12.0013
▁practi	-12.0014
▁cataclysm	-12.0014
accompanied	-12.0014
avocado	-12.0014
consistent	-12.0014
degenerate	-12.0014
doughnut	-12.0014
employment	-12.0014
heinliken	-12.0014
losovi	-12.0014
misunderstanding	-12.0014
muscular	-12.0014
punctu	-12.0014
vascular	-12.0014
vavoom	-12.0014
visibility	-12.0014
▁aaarg	-12.0014
▁abroad	-12.0014
▁accommodation	-12.0014
▁accompany	-12.0014
▁admirabl	-12.0014
▁amazon	-12.0014
▁anyplace	-12.0014
▁armagnac	-12.0014
▁artifact	-12.0014
▁ascertain	-12.0014
▁asylum	-12.0014
▁bagshaw	-12.0014
▁barbarian	-12.0014
▁barbatus	-12.0014
▁battalion	-12.0014
▁bechamel	-12.0014
▁beretta	-12.0014
▁bernadette	-12.0014
▁blabbering	-12.0014
▁bleeker	-12.0014
▁blynken	-12.0014
▁boggart	-12.0014
▁bourbon	-12.0014
▁brumble	-12.0014
▁brunette	-12.0014
▁buddhist	-12.0014
▁bundle	-12.0014
▁bunnies	-12.0014
▁butterscotch	-12.0014
▁candidates	-12.0014
▁caravan	-12.0014
▁cardiologist	-12.0014
▁caricature	-12.0014
▁cautious	-12.0014
▁chimichanga	-12.0014
▁cinderella	-12.0014
▁cinnamon	-12.0014
▁clarkson	-12.0014
▁claustrophobi	-12.0014
▁colleague	-12.0014
▁commencing	-12.0014
▁communist	-12.0014
▁comparison	-12.0014
▁concoct	-12.0014
▁conspicuous	-12.0014
▁conspirac	-12.0014
▁contaminated	-12.0014
▁contradict	-12.0014
▁convenient	-12.0014
▁convincing	-12.0014
▁cortez	-12.0014
▁corvettes	-12.0014
▁creators	-12.0014
▁crippled	-12.0014
▁critters	-12.0014
▁croaking	-12.0014
▁crumbling	-12.0014
▁crumpets	-12.0014
▁cucaracha	-12.0014
▁cucumber	-12.0014
▁culprit	-12.0014
▁currants	-12.0014
▁cutthroat	-12.0014
▁dalrymple	-12.0014
▁debutante	-12.0014
▁deceiving	-12.0014
▁december	-12.0014
▁demonstrate	-12.0014
▁diabolical	-12.0014
▁dialogue	-12.0014
▁diarmuid	-12.0014
▁dimwitte	-12.0014
▁discomfort	-12.0014
▁disintegrate	-12.0014
▁dissipat	-12.0014
▁doorknob	-12.0014
▁doublecrossed	-12.0014
▁dulcinea	-12.0014
▁earthquake	-12.0014
▁economy	-12.0014
▁elbows	-12.0014
▁elected	-12.0014
▁elegance	-12.0014
▁eloquence	-12.0014
▁endeavors	-12.0014
▁escargot	-12.0014
▁essential	-12.0014
▁evidently	-12.0014
▁evolution	-12.0014
▁exboyfriend	-12.0014
▁excavat	-12.0014
▁exploding	-12.0014
▁exterminator	-12.0014
▁fairfarren	-12.0014
▁faucet	-12.0014
▁fitzherbert	-12.0014
▁flirtatious	-12.0014
▁folklore	-12.0014
▁frankenstein	-12.0014
▁freckles	-12.0014
▁frequenc	-12.0014
▁freud	-12.0014
▁friction	-12.0014
▁gallons	-12.0014
▁generosity	-12.0014
▁geotopia	-12.0014
▁ginormous	-12.0014
▁giuseppe	-12.0014
▁grasshopper	-12.0014
▁griffiin	-12.0014
▁guidance	-12.0014
▁harlem	-12.0014
▁hayride	-12.0014
▁hazardous	-12.0014
▁hazelnut	-12.0014
▁heathrow	-12.0014
▁hedgehog	-12.0014
▁hemmet	-12.0014
▁hexham	-12.0014
▁hickory	-12.0014
▁hideandseek	-12.0014
▁horoscope	-12.0014
▁hufflepuff	-12.0014
▁hypothe	-12.0014
▁incoherent	-12.0014
▁incompetence	-12.0014
▁indestructible	-12.0014
▁infinite	-12.0014
▁inhumane	-12.0014
▁inscription	-12.0014
▁insecur	-12.0014
▁inseparable	-12.0014
▁insuricare	-12.0014
▁intertwine	-12.0014
▁intimate	-12.0014
▁introduction	-12.0014
▁intrusion	-12.0014
▁invading	-12.0014
▁invasion	-12.0014
▁isolated	-12.0014
▁jeff	-12.0014
▁jetpack	-12.0014
▁karlmarxstadt	-12.0014
▁kilbourne	-12.0014
▁kindygarten	-12.0014
▁kingfisher	-12.0014
▁kobaya	-12.0014
▁krystal	-12.0014
▁kupkakeinator	-12.0014
▁labradoodle	-12.0014
▁ladybug	-12.0014
▁lavaughn	-12.0014
▁lindsey	-12.0014
▁lorraine	-12.0014
▁luchador	-12.0014
▁luminous	-12.0014
▁luxury	-12.0014
▁macadamia	-12.0014
▁maggot	-12.0014
▁megatunnel	-12.0014
▁microchip	-12.0014
▁milliwatt	-12.0014
▁mimosa	-12.0014
▁mischief	-12.0014
▁misfortune	-12.0014
▁misjudged	-12.0014
▁mitzvah	-12.0014
▁mizzen	-12.0014
▁monolith	-12.0014
▁monopol	-12.0014
▁mosquito	-12.0014
▁narcissism	-12.0014
▁neonazi	-12.0014
▁nogood	-12.0014
▁norwegian	-12.0014
▁nowadays	-12.0014
▁nuisance	-12.0014
▁nutrients	-12.0014
▁oatmeal	-12.0014
▁obstructi	-12.0014
▁october	-12.0014
▁oraculum	-12.0014
▁panpisco	-12.0014
▁paperclip	-12.0014
▁parachute	-12.0014
▁pastuzo	-12.0014
▁penniless	-12.0014
▁perspective	-12.0014
▁phillips	-12.0014
▁physician	-12.0014
▁precedent	-12.0014
▁prejudice	-12.0014
▁preparation	-12.0014
▁prescription	-12.0014
▁presidency	-12.0014
▁preview	-12.0014
▁protocol	-12.0014
