<unk>	0
<s>	0
</s>	0
s	-3.84533
▁im	-4.47961
▁dont	-4.52902
▁know	-4.65943
▁get	-4.74945
▁go	-4.79243
▁oh	-4.81106
▁right	-4.86928
▁come	-4.91062
▁like	-4.92656
▁well	-4.96793
▁got	-4.97585
▁youre	-5.02986
▁yeah	-5.1197
▁thats	-5.14574
▁one	-5.16751
▁good	-5.27079
▁na	-5.29319
▁see	-5.33843
▁think	-5.38594
▁want	-5.42109
▁okay	-5.44549
▁yes	-5.47627
▁hey	-5.48818
▁look	-5.51359
▁back	-5.53902
▁gon	-5.54564
▁ill	-5.58723
▁time	-5.60617
▁us	-5.61434
▁going	-5.63567
ing	-5.64671
▁hes	-5.68017
▁cant	-5.68142
▁take	-5.68618
▁man	-5.71875
▁say	-5.82643
▁would	-5.87996
ed	-5.88005
▁way	-5.88357
▁little	-5.90405
▁really	-5.90515
▁could	-5.914
▁	-5.92959
▁tell	-5.93345
▁lets	-5.9381
▁never	-5.94176
▁thank	-5.98983
▁something	-6.00685
▁make	-6.00755
▁need	-6.00758
▁let	-6.03439
▁love	-6.04506
▁whats	-6.06056
▁ive	-6.07687
▁didnt	-6.0835
▁mean	-6.10015
▁please	-6.11329
▁sorry	-6.11742
▁mr	-6.12149
▁theres	-6.15391
▁give	-6.17706
▁l	-6.19288
▁sir	-6.24858
▁two	-6.25501
▁wait	-6.27087
▁help	-6.28618
▁said	-6.3112
▁sure	-6.31906
▁people	-6.32575
▁thing	-6.32929
d	-6.36147
▁theyre	-6.37824
▁day	-6.37996
▁much	-6.38541
y	-6.41016
▁stop	-6.42542
▁great	-6.42705
▁uh	-6.43223
▁even	-6.47953
▁first	-6.48167
▁find	-6.48457
▁night	-6.48959
▁guys	-6.4919
▁home	-6.50375
▁work	-6.51192
▁life	-6.52146
▁away	-6.52441
▁god	-6.53204
▁ever	-6.5492
▁shes	-6.55652
▁anything	-6.55696
▁maybe	-6.55987
▁put	-6.56536
▁better	-6.57565
▁keep	-6.57565
▁must	-6.57726
er	-6.57746
▁nothing	-6.58033
▁call	-6.58816
▁new	-6.59418
▁thought	-6.62071
▁still	-6.62917
▁boy	-6.63095
▁big	-6.6475
▁old	-6.65925
▁around	-6.66972
▁nice	-6.68321
▁talk	-6.69286
▁id	-6.70016
▁always	-6.70258
▁long	-6.70988
▁ta	-6.7112
▁wont	-6.72419
▁everything	-6.73968
▁things	-6.74058
▁hi	-6.74423
▁place	-6.74921
▁last	-6.75737
▁youll	-6.76419
▁youve	-6.76769
▁dad	-6.77663
e	-6.77824
▁name	-6.78201
▁stay	-6.80722
ly	-6.80819
▁hello	-6.8126
▁feel	-6.81455
▁told	-6.82117
in	-6.82833
▁coming	-6.82866
▁every	-6.83873
▁house	-6.83963
▁listen	-6.84062
▁lot	-6.85223
▁made	-6.85916
▁believe	-6.85974
▁world	-6.86263
▁three	-6.86663
▁fine	-6.87199
▁hear	-6.88276
▁leave	-6.88514
▁hell	-6.88586
▁miss	-6.89012
▁isnt	-6.90277
▁doesnt	-6.90411
▁hold	-6.9085
▁kind	-6.91063
▁girl	-6.91221
▁bad	-6.91854
▁huh	-6.92243
▁father	-6.93497
▁course	-6.95643
▁may	-6.9592
▁years	-6.96582
▁play	-6.96615
▁done	-6.96642
▁show	-6.9689
▁wan	-6.97408
▁thanks	-6.97744
▁move	-6.97745
▁baby	-6.97993
a	-6.98172
▁money	-6.98435
▁mom	-6.98519
▁remember	-6.98742
▁enough	-6.99457
▁ready	-7.01317
▁left	-7.01608
▁guy	-7.02135
r	-7.03346
▁mother	-7.03511
▁try	-7.03742
▁wrong	-7.04886
▁real	-7.05647
t	-7.06234
▁run	-7.06397
▁understand	-7.06417
▁best	-7.06932
▁car	-7.07474
▁today	-7.07795
▁might	-7.08985
▁next	-7.09241
▁morning	-7.09567
▁whoa	-7.10069
▁talking	-7.10089
▁mind	-7.10921
▁care	-7.1095
▁weve	-7.10956
▁another	-7.13204
▁wanted	-7.15949
▁aint	-7.17155
▁ask	-7.19735
▁ah	-7.20046
▁happened	-7.20961
▁guess	-7.21633
▁getting	-7.21763
▁kill	-7.22039
▁watch	-7.22763
▁came	-7.23156
▁son	-7.23421
▁friend	-7.23764
▁kids	-7.25004
▁dead	-7.25162
▁else	-7.25558
▁together	-7.25653
▁excuse	-7.25939
▁live	-7.26009
▁room	-7.26319
▁door	-7.26481
▁shit	-7.26508
▁head	-7.2675
▁ok	-7.27791
n	-7.27929
▁seen	-7.28363
▁start	-7.28418
▁hope	-7.28452
o	-7.28518
▁wouldnt	-7.28998
▁tonight	-7.29642
▁school	-7.29759
▁pretty	-7.30039
▁meet	-7.30197
▁family	-7.3084
▁turn	-7.31004
▁heard	-7.31505
▁job	-7.3194
▁looking	-7.32031
▁minute	-7.33202
▁trying	-7.33234
▁em	-7.3333
▁wasnt	-7.33693
▁men	-7.33781
▁without	-7.339
▁found	-7.34481
▁many	-7.34836
▁use	-7.34999
▁idea	-7.35115
▁whole	-7.35675
▁woman	-7.35994
▁bring	-7.36013
▁someone	-7.36576
▁matter	-7.37332
▁fuck	-7.38534
▁yet	-7.40546
▁everybody	-7.41795
▁open	-7.41845
▁music	-7.41985
▁saw	-7.42327
▁worry	-7.42995
▁playing	-7.43325
▁friends	-7.43433
▁eat	-7.43774
▁tomorrow	-7.44028
▁chance	-7.44486
▁hard	-7.4464
▁second	-7.449
▁went	-7.44952
▁cause	-7.45362
▁gone	-7.45552
▁whos	-7.45825
▁ha	-7.45978
▁happy	-7.46349
▁boys	-7.46915
▁face	-7.47413
▁knew	-7.47646
▁kid	-7.47734
▁havent	-7.48242
▁youd	-7.48249
▁lost	-7.4861
▁de	-7.49036
▁game	-7.49372
▁alone	-7.49567
▁honey	-7.49931
▁easy	-7.50662
▁beautiful	-7.51163
i	-7.51262
▁mrs	-7.51386
▁water	-7.51807
▁bit	-7.51982
▁true	-7.52532
▁actually	-7.52775
es	-7.53271
▁dear	-7.53524
▁four	-7.53639
▁fire	-7.53693
▁days	-7.53775
g	-7.53885
▁hand	-7.54679
▁used	-7.54727
▁everyone	-7.54996
▁five	-7.55184
▁took	-7.553
▁fucking	-7.55461
▁wish	-7.55483
▁sit	-7.55825
▁laughing	-7.56187
▁since	-7.56564
▁um	-7.56865
▁jack	-7.57581
▁stuff	-7.57621
▁end	-7.58244
▁business	-7.60028
▁town	-7.60315
▁young	-7.61087
▁john	-7.61373
▁dance	-7.61519
▁heart	-7.61713
▁part	-7.61899
▁george	-7.6193
▁late	-7.62156
▁already	-7.6234
▁set	-7.62656
▁die	-7.6268
▁says	-7.62725
▁far	-7.62931
▁couldnt	-7.63097
▁called	-7.63402
▁stand	-7.63531
▁dog	-7.63687
▁hit	-7.637
▁shut	-7.63982
▁king	-7.64185
▁children	-7.64289
▁mine	-7.64487
▁looks	-7.64536
▁eyes	-7.64978
▁fun	-7.65085
▁check	-7.65933
▁fight	-7.664
▁forget	-7.66549
▁shall	-7.66552
▁problem	-7.66611
c	-7.6666
▁year	-7.66823
▁crazy	-7.67139
▁afraid	-7.67278
▁wife	-7.67528
▁wow	-7.67718
▁pay	-7.67961
▁chuckles	-7.68856
▁later	-7.68875
▁hurry	-7.68882
▁close	-7.68945
▁read	-7.69518
▁anyone	-7.69619
▁wheres	-7.69714
▁party	-7.69797
▁word	-7.69965
▁somebody	-7.69999
▁cool	-7.70761
▁supposed	-7.71642
▁probably	-7.72321
▁damn	-7.72351
▁break	-7.72529
l	-7.72592
▁soon	-7.73411
▁anyway	-7.73698
▁free	-7.74404
▁inside	-7.74474
▁hurt	-7.74932
p	-7.75241
▁thinking	-7.75635
▁change	-7.75769
▁sleep	-7.7584
▁welcome	-7.76038
▁brother	-7.76223
▁minutes	-7.76642
▁saying	-7.76687
▁cut	-7.76709
▁trouble	-7.76815
▁red	-7.76987
▁nobody	-7.77376
▁lm	-7.77914
▁ya	-7.7855
▁number	-7.78566
▁story	-7.78922
▁phone	-7.78933
▁ago	-7.79261
▁bye	-7.79576
▁team	-7.80349
▁rest	-7.80417
▁high	-7.80594
▁whatever	-7.80724
▁arent	-7.81223
▁exactly	-7.814
▁girls	-7.81894
al	-7.82055
▁happen	-7.8237
▁hands	-7.82595
▁working	-7.82835
▁deal	-7.83233
▁hmm	-7.83721
▁city	-7.8393
▁sighs	-7.84159
▁walk	-7.8428
▁line	-7.84783
▁pick	-7.84796
▁hot	-7.84825
▁side	-7.85042
▁un	-7.85073
▁six	-7.85278
▁makes	-7.85504
▁hate	-7.8551
▁drink	-7.85584
▁taking	-7.85831
▁along	-7.86334
▁quite	-7.86737
▁light	-7.87562
▁point	-7.87755
▁book	-7.87878
▁win	-7.87931
▁heres	-7.88103
▁lady	-7.88496
ie	-7.88747
▁funny	-7.89185
▁plan	-7.89703
▁food	-7.90268
▁perfect	-7.90312
▁though	-7.90719
▁half	-7.91353
▁killed	-7.91729
▁ooh	-7.91752
▁wants	-7.91979
▁full	-7.92535
▁goodbye	-7.92658
▁gave	-7.9266
▁ahead	-7.9266
▁met	-7.92781
▁lose	-7.92946
▁pull	-7.9297
▁gentlemen	-7.93219
▁cat	-7.9378
▁dream	-7.93879
▁moment	-7.93892
▁war	-7.94176
▁laughs	-7.94392
▁ball	-7.94454
▁waiting	-7.94487
▁stupid	-7.94729
▁different	-7.95189
▁bed	-7.95205
▁save	-7.95332
▁important	-7.9538
b	-7.95381
▁grunts	-7.95636
▁screaming	-7.95759
ers	-7.95984
▁special	-7.96044
▁behind	-7.9607
en	-7.96154
▁least	-7.96656
▁goes	-7.9676
▁anybody	-7.97039
▁almost	-7.9704
▁doctor	-7.97769
▁means	-7.97958
▁week	-7.98151
▁hair	-7.98668
▁joe	-7.98797
▁hang	-7.99975
▁anymore	-8.00205
▁sweet	-8.00376
▁question	-8.0039
▁country	-8.00408
▁making	-8.00416
▁clear	-8.00466
▁send	-8.00743
▁death	-8.01012
▁coach	-8.01417
▁daddy	-8.019
▁lucky	-8.02396
▁theyll	-8.02442
▁child	-8.02631
▁trust	-8.02782
▁speak	-8.0301
▁je	-8.03107
▁power	-8.03141
▁wonderful	-8.03522
▁fast	-8.03855
▁lord	-8.03905
▁front	-8.04301
▁luck	-8.04366
▁dr	-8.046
▁black	-8.04728
▁promise	-8.04767
▁sometimes	-8.04876
▁ladies	-8.05789
▁safe	-8.05794
▁white	-8.06434
▁couple	-8.06855
▁parents	-8.07018
▁la	-8.07307
▁till	-8.07508
▁times	-8.07563
▁follow	-8.07682
▁catch	-8.07789
▁top	-8.07956
▁fly	-8.08492
▁gasps	-8.09044
▁touch	-8.09217
▁song	-8.09343
▁itll	-8.09467
▁asked	-8.09479
▁air	-8.09481
m	-8.10799
▁glad	-8.1091
▁brought	-8.11469
▁dinner	-8.11688
▁body	-8.11711
▁throw	-8.11957
man	-8.12076
▁ow	-8.12746
▁human	-8.12839
▁sound	-8.13137
or	-8.13229
▁married	-8.13285
▁captain	-8.13286
▁control	-8.13494
▁shoot	-8.13589
on	-8.13627
▁police	-8.13714
▁uncle	-8.13749
▁also	-8.13754
▁mary	-8.13793
▁alive	-8.14212
h	-8.14271
▁step	-8.14795
▁hours	-8.14921
▁continues	-8.14996
▁general	-8.15022
▁shot	-8.15257
▁started	-8.1533
▁sort	-8.15386
▁running	-8.15619
le	-8.15731
▁earth	-8.16035
▁drive	-8.16177
▁women	-8.1631
▁person	-8.16492
▁bet	-8.16786
▁write	-8.16848
▁tried	-8.17043
▁land	-8.17807
▁sick	-8.18687
▁ass	-8.19153
▁case	-8.19225
▁quick	-8.19422
▁horse	-8.19616
▁beat	-8.20261
▁truth	-8.20407
▁telling	-8.20543
▁buy	-8.20558
▁reason	-8.20588
▁learn	-8.20681
▁road	-8.20901
▁news	-8.21377
▁sea	-8.21463
▁th	-8.21816
▁outside	-8.22031
▁rock	-8.2213
▁either	-8.22143
▁feet	-8.22407
▁blue	-8.22435
st	-8.22544
▁daughter	-8.22644
▁feeling	-8.22767
▁ben	-8.23097
▁poor	-8.23159
▁gun	-8.23474
▁president	-8.23701
▁mama	-8.24075
▁living	-8.24185
▁hows	-8.24422
▁careful	-8.2487
▁kiss	-8.25028
▁small	-8.25574
▁ten	-8.25622
▁bob	-8.25822
▁hour	-8.25976
▁wake	-8.26256
▁perhaps	-8.26491
▁ride	-8.26547
▁sister	-8.26559
▁cheering	-8.26825
▁moving	-8.27021
▁comes	-8.27611
▁sounds	-8.27785
▁leaving	-8.28341
▁scared	-8.28427
▁shouldnt	-8.28605
ic	-8.28691
re	-8.28759
ar	-8.28819
ion	-8.29299
▁order	-8.29443
▁quiet	-8.29571
▁sun	-8.30123
▁wed	-8.30127
▁sign	-8.30548
▁pass	-8.3078
▁seems	-8.31076
▁secret	-8.31771
▁fact	-8.31999
▁finally	-8.32188
▁fish	-8.32204
k	-8.32549
▁crowd	-8.32716
u	-8.32819
▁million	-8.32909
▁able	-8.32912
▁sent	-8.32989
▁green	-8.32991
▁needs	-8.33053
▁answer	-8.33114
▁serious	-8.3314
▁wonder	-8.33663
▁maam	-8.33815
▁piece	-8.34342
▁c	-8.34638
▁drop	-8.34654
f	-8.34964
▁grunting	-8.34979
▁lovely	-8.35191
▁somewhere	-8.35228
▁lives	-8.35365
v	-8.35629
▁knows	-8.3605
▁goddamn	-8.36092
▁voice	-8.36673
▁cold	-8.36684
ll	-8.36697
▁weird	-8.3708
▁bitch	-8.37229
▁clean	-8.37505
▁blood	-8.37671
▁seem	-8.38288
▁office	-8.38313
▁straight	-8.38672
▁eye	-8.38867
▁ones	-8.38888
▁fall	-8.38993
▁ray	-8.39066
▁died	-8.39203
▁ship	-8.39403
▁henry	-8.39603
▁buddy	-8.39604
▁months	-8.39814
▁star	-8.40135
▁lts	-8.40637
▁speaking	-8.40702
▁magic	-8.41092
▁s	-8.41117
▁kidding	-8.41419
▁frank	-8.41521
▁sense	-8.41653
▁train	-8.41757
▁smell	-8.41935
▁christmas	-8.42016
▁singing	-8.42034
us	-8.42304
▁street	-8.42443
▁richard	-8.42622
▁theyve	-8.42629
▁happens	-8.43074
▁master	-8.43122
▁words	-8.43461
▁jesus	-8.4356
▁darling	-8.43563
▁b	-8.43712
▁dude	-8.4375
▁calm	-8.44557
▁taken	-8.44647
▁boss	-8.44761
▁york	-8.44802
▁radio	-8.44804
▁groans	-8.44878
▁amazing	-8.45117
▁charlie	-8.45117
▁future	-8.45117
▁fault	-8.45432
▁field	-8.45959
▁happening	-8.46083
▁strong	-8.46548
▁past	-8.46598
▁blow	-8.46827
▁seven	-8.47031
▁mmm	-8.47366
▁shell	-8.47512
▁absolutely	-8.4768
▁peter	-8.47789
▁wear	-8.47944
▁suppose	-8.48146
▁finish	-8.48668
▁fear	-8.48671
est	-8.48871
▁fair	-8.49204
▁sing	-8.49314
▁return	-8.49348
▁class	-8.49392
▁law	-8.49441
▁handle	-8.49506
el	-8.49642
ies	-8.49649
▁others	-8.49956
▁short	-8.50527
▁ho	-8.50566
▁count	-8.50853
▁proud	-8.50954
▁bear	-8.51102
▁aah	-8.51211
▁roll	-8.51264
▁company	-8.51287
▁worth	-8.51462
▁p	-8.51486
▁none	-8.51817
▁join	-8.51927
▁slow	-8.52049
▁gets	-8.52412
▁husband	-8.52649
▁jump	-8.52692
▁re	-8.5278
▁bill	-8.52816
▁rather	-8.52979
▁become	-8.53006
▁van	-8.532
▁figure	-8.532
▁stick	-8.53895
is	-8.54367
▁weeks	-8.5447
ity	-8.54829
▁eight	-8.5488
▁hungry	-8.55046
up	-8.55554
▁dangerous	-8.55748
▁machine	-8.55817
able	-8.55848
▁meeting	-8.55908
▁officer	-8.55918
▁ground	-8.55921
▁dark	-8.55984
▁report	-8.56076
▁loved	-8.56082
▁mouth	-8.56226
▁act	-8.56264
▁near	-8.56332
▁evening	-8.56403
▁forever	-8.56444
▁harry	-8.56444
▁expect	-8.56521
▁less	-8.56642
▁terrible	-8.56797
▁alright	-8.56798
▁space	-8.56806
▁attention	-8.57507
ri	-8.57751
ra	-8.57767
▁lead	-8.57842
▁turned	-8.58133
▁coffee	-8.58222
▁tired	-8.58245
it	-8.58399
▁park	-8.59194
▁pleasure	-8.59669
▁boat	-8.59878
▁grand	-8.60076
▁g	-8.60303
▁river	-8.60387
▁meant	-8.60668
▁dress	-8.60836
▁known	-8.60898
▁box	-8.6114
▁present	-8.61325
▁asking	-8.61453
▁hide	-8.61595
z	-8.61694
▁en	-8.61881
▁born	-8.61892
▁calling	-8.61906
▁mad	-8.61994
to	-8.62206
▁lunch	-8.62243
▁yo	-8.62255
▁low	-8.62263
▁ice	-8.62302
▁longer	-8.62434
▁lie	-8.62442
▁miles	-8.62517
▁felt	-8.63004
▁deep	-8.63126
▁wind	-8.63263
▁looked	-8.63497
▁army	-8.63883
▁grow	-8.63918
▁strange	-8.64036
▁push	-8.64176
▁tu	-8.64201
▁explain	-8.64653
▁fat	-8.64668
▁jim	-8.64933
▁hotel	-8.6495
w	-8.65271
▁middle	-8.65289
▁round	-8.65597
▁key	-8.65632
▁attack	-8.65754
▁whoo	-8.65885
▁tough	-8.65899
▁worked	-8.6608
▁anywhere	-8.66451
▁fred	-8.66553
▁surprise	-8.66602
▁enjoy	-8.66605
▁entire	-8.66731
▁simple	-8.66752
▁laugh	-8.66786
▁possible	-8.66842
▁marry	-8.66886
▁mess	-8.66989
▁fix	-8.67004
▁date	-8.67117
▁state	-8.67247
▁papa	-8.67295
▁early	-8.67296
▁relax	-8.67346
▁busy	-8.67362
▁tom	-8.67383
▁works	-8.6747
▁evil	-8.67628
▁honor	-8.67731
▁imagine	-8.6785
▁window	-8.67963
▁stuck	-8.68026
▁st	-8.68136
th	-8.68152
▁bird	-8.68189
▁hed	-8.68191
▁caught	-8.68421
▁changed	-8.68453
▁foot	-8.6846
▁american	-8.6852
▁goin	-8.68603
▁picture	-8.68773
▁f	-8.68779
▁computer	-8.68793
▁outta	-8.68821
▁smart	-8.69058
▁table	-8.69236
▁sell	-8.69322
▁names	-8.69525
▁saved	-8.69577
▁choice	-8.69613
▁forgot	-8.69615
▁grab	-8.69627
▁mmhmm	-8.69629
▁unless	-8.70056
ch	-8.70237
▁shh	-8.70284
▁building	-8.70289
▁favorite	-8.70437
▁camp	-8.70832
▁english	-8.70835
▁pain	-8.70839
▁questions	-8.70876
▁cover	-8.71357
▁north	-8.71652
▁werent	-8.71653
▁race	-8.71657
▁spend	-8.71717
▁screams	-8.71764
▁band	-8.71986
▁worse	-8.72064
▁given	-8.72121
▁bag	-8.72132
▁gold	-8.72254
▁fell	-8.72321
▁faster	-8.72338
ma	-8.72351
il	-8.72466
▁tree	-8.72623
▁brain	-8.72631
▁kick	-8.72695
▁le	-8.72773
▁french	-8.72883
▁afternoon	-8.72892
▁nose	-8.72929
▁certainly	-8.72982
rs	-8.73258
▁wild	-8.73371
an	-8.73519
▁prince	-8.73797
▁pig	-8.73803
ness	-8.73839
▁flying	-8.73975
▁floor	-8.74149
▁dreams	-8.74478
▁wedding	-8.74576
▁ring	-8.74708
▁dave	-8.74858
▁super	-8.74869
▁summer	-8.74987
▁birthday	-8.74995
▁shouting	-8.75063
ment	-8.75085
▁animals	-8.75419
▁giving	-8.75422
▁cute	-8.75666
▁football	-8.75851
▁upon	-8.75853
▁queen	-8.75955
▁bar	-8.76171
▁swear	-8.76276
▁charge	-8.76473
▁fool	-8.76653
▁lucy	-8.76725
▁chicken	-8.76852
▁knock	-8.76933
▁history	-8.77139
▁soul	-8.77287
▁quit	-8.77483
▁across	-8.77574
▁yesterday	-8.77574
▁holy	-8.77718
▁island	-8.77733
▁trip	-8.77965
▁duck	-8.77994
ro	-8.78257
▁teach	-8.78325
▁bang	-8.78563
▁carry	-8.79039
▁quickly	-8.7909
▁finished	-8.79273
▁except	-8.79306
▁forward	-8.79333
ling	-8.79511
▁service	-8.79529
▁definitely	-8.7978
▁nine	-8.79958
▁system	-8.7998
▁d	-8.80234
▁cry	-8.80276
▁carl	-8.80451
▁share	-8.80498
▁broke	-8.80613
▁forgive	-8.81035
▁david	-8.81123
ter	-8.81363
▁engine	-8.81641
▁missed	-8.81651
▁princess	-8.81799
▁tight	-8.81807
ful	-8.81921
▁totally	-8.82082
▁dollars	-8.82151
▁mm	-8.82309
▁tv	-8.82502
▁broken	-8.82558
▁message	-8.82759
▁w	-8.82891
▁moon	-8.82901
▁da	-8.83199
et	-8.83256
▁sad	-8.83357
▁bank	-8.83373
▁ran	-8.83405
▁worried	-8.83405
▁hasnt	-8.83406
▁protect	-8.83631
ne	-8.83711
ation	-8.83814
▁college	-8.83868
▁howard	-8.83872
▁third	-8.83874
▁kitchen	-8.84333
▁art	-8.84529
▁hundred	-8.84638
▁a	-8.84668
▁truck	-8.8473
▁board	-8.84971
▁n	-8.85585
▁clothes	-8.85747
▁paid	-8.85764
▁brave	-8.85781
▁bell	-8.86077
▁shadow	-8.86096
▁age	-8.86098
▁scott	-8.86178
▁mommy	-8.86238
▁wearing	-8.86248
▁sitting	-8.86259
▁bunch	-8.86693
▁security	-8.86696
▁heh	-8.86763
▁rain	-8.86855
▁mistake	-8.86977
▁accident	-8.87058
▁lock	-8.87149
▁kept	-8.8717
▁missing	-8.87283
▁dogs	-8.87424
▁needed	-8.87645
▁dare	-8.87675
▁billy	-8.87884
less	-8.8813
▁eh	-8.88198
▁single	-8.88199
▁seconds	-8.88354
▁leg	-8.88625
▁south	-8.88629
ist	-8.88753
▁watching	-8.88979
▁test	-8.88999
▁yep	-8.89123
▁tea	-8.89155
▁pas	-8.89246
▁rich	-8.89429
▁agent	-8.89542
▁uhhuh	-8.89608
▁hero	-8.8985
▁realize	-8.89956
▁club	-8.89985
▁thousand	-8.90031
▁chief	-8.90091
▁e	-8.90352
▁spot	-8.90533
▁respect	-8.90547
▁doubt	-8.90585
▁hat	-8.90663
▁letter	-8.90806
▁aunt	-8.90909
▁cats	-8.90975
▁brothers	-8.90998
▁lt	-8.91452
▁be	-8.91493
▁witch	-8.91531
▁pop	-8.9165
▁nick	-8.91918
▁offer	-8.91983
▁group	-8.92074
▁colonel	-8.92087
▁jamie	-8.92119
▁bomb	-8.92462
▁beach	-8.9254
▁congratulations	-8.9259
▁instead	-8.92591
▁rules	-8.92595
▁al	-8.92604
▁joel	-8.92789
▁standing	-8.92843
▁bus	-8.92899
▁christ	-8.92905
▁besides	-8.93042
▁pardon	-8.93098
▁arm	-8.93101
▁seat	-8.933
▁animal	-8.93611
▁monster	-8.93616
▁certain	-8.93624
▁appreciate	-8.93712
▁shoes	-8.93797
▁wall	-8.93954
▁promised	-8.94025
▁doin	-8.94031
▁aw	-8.94072
▁joke	-8.94097
▁lay	-8.94259
▁folks	-8.94407
▁takes	-8.94496
▁destroy	-8.94608
▁impossible	-8.94637
▁in	-8.94678
ur	-8.9486
la	-8.94899
▁contact	-8.95172
sh	-8.9526
▁interesting	-8.95326
▁paul	-8.9537
▁egg	-8.95672
▁stopped	-8.95677
▁decided	-8.95777
▁con	-8.95787
▁plane	-8.95939
▁america	-8.96027
▁panting	-8.96231
▁eating	-8.96238
▁sake	-8.96275
▁shake	-8.96277
▁dale	-8.96298
▁hole	-8.96397
out	-8.96563
▁normal	-8.96639
▁wash	-8.96659
▁throat	-8.96725
▁sex	-8.96755
▁area	-8.96806
▁completely	-8.96815
▁woods	-8.9684
▁double	-8.96994
▁sky	-8.97131
▁ought	-8.9716
▁cook	-8.97167
▁major	-8.97234
▁extra	-8.97252
▁build	-8.97437
▁practice	-8.97612
▁smile	-8.97613
▁seeing	-8.97957
▁gosh	-8.98123
▁warm	-8.98151
▁michael	-8.98311
▁yall	-8.98399
▁movie	-8.98431
▁moved	-8.98513
at	-8.98546
me	-8.98558
▁mike	-8.98695
▁gene	-8.98793
▁ernie	-8.98859
▁begin	-8.99057
▁action	-8.99061
▁lived	-8.99299
▁truly	-8.99416
▁talked	-8.99435
co	-8.99518
▁idiot	-8.99532
▁owe	-8.99655
▁reach	-8.99803
▁murder	-8.99862
▁record	-9.00003
▁sight	-9.00067
ce	-9.00069
te	-9.00112
▁mission	-9.00317
▁map	-9.00359
▁upset	-9.00489
▁list	-9.00771
▁church	-9.01033
▁learned	-9.01104
▁dirty	-9.01107
na	-9.01123
▁paper	-9.01203
▁month	-9.01208
▁escape	-9.01427
▁eggs	-9.01594
▁books	-9.02066
▁horn	-9.0264
▁situation	-9.02705
▁growling	-9.02761
▁mountain	-9.02911
▁r	-9.03021
▁beer	-9.03149
▁peace	-9.03151
▁excellent	-9.03267
▁andrew	-9.03271
▁breath	-9.03345
▁ii	-9.03446
▁horses	-9.03461
▁hall	-9.03465
▁grandma	-9.03472
▁fighting	-9.03499
▁chattering	-9.03502
▁spirit	-9.0351
▁greatest	-9.03549
▁states	-9.03775
▁awesome	-9.03832
▁wrote	-9.03832
▁breakfast	-9.03835
▁everywhere	-9.03845
▁mud	-9.03893
▁rose	-9.04013
▁lll	-9.04238
▁guard	-9.04296
▁personal	-9.04366
▁neither	-9.044
▁bottom	-9.04406
▁cheese	-9.04406
ous	-9.04464
▁smurf	-9.04653
▁crying	-9.04847
▁indistinct	-9.04861
▁dancing	-9.0498
nt	-9.05032
▁trick	-9.05039
▁legs	-9.05084
▁tony	-9.05092
ul	-9.05145
▁se	-9.05201
▁station	-9.05259
▁played	-9.05457
▁visit	-9.05459
▁fit	-9.05481
▁suit	-9.05486
▁glass	-9.05492
▁bother	-9.05495
▁cream	-9.05546
▁dorothy	-9.05546
▁especially	-9.05546
▁cash	-9.05559
▁rid	-9.05639
▁airport	-9.05827
▁sam	-9.05853
ia	-9.059
▁dat	-9.05987
▁london	-9.06124
▁private	-9.06124
▁bobby	-9.06163
▁danger	-9.06184
▁louise	-9.06189
▁united	-9.06255
▁cal	-9.06307
▁ybi	-9.06711
▁charles	-9.06782
▁corner	-9.06834
▁feels	-9.06933
de	-9.06943
▁cop	-9.07108
▁mark	-9.07156
▁cross	-9.07193
▁named	-9.07216
▁match	-9.07242
▁dumb	-9.07288
▁nowhere	-9.07292
▁information	-9.07294
▁command	-9.07618
▁locked	-9.07629
▁agree	-9.07691
▁james	-9.07946
▁taste	-9.0798
▁force	-9.08031
▁madam	-9.08369
▁mister	-9.08508
▁pa	-9.08602
▁dig	-9.08612
▁per	-9.08711
▁favor	-9.09056
▁travel	-9.09454
▁killing	-9.09522
▁kingdom	-9.09668
▁forest	-9.09689
▁interested	-9.09822
▁k	-9.09835
▁continue	-9.0985
▁pal	-9.09926
▁spell	-9.10036
▁public	-9.10247
▁professor	-9.10267
▁liked	-9.10298
▁ohh	-9.10799
▁court	-9.10854
▁grace	-9.10876
▁beauty	-9.1088
▁seriously	-9.11114
▁speed	-9.11149
▁drunk	-9.11447
▁card	-9.11463
▁upstairs	-9.11483
▁west	-9.11526
▁battle	-9.11535
▁que	-9.11617
▁yelling	-9.11619
▁butt	-9.11679
▁starting	-9.11822
▁position	-9.11899
▁loud	-9.11974
▁teeth	-9.12101
▁bigger	-9.12161
▁rat	-9.12463
▁form	-9.12617
▁mate	-9.12625
se	-9.12631
▁nothin	-9.1266
▁walking	-9.1273
▁program	-9.12884
▁player	-9.1308
▁judge	-9.13158
▁experience	-9.13161
▁smoke	-9.13165
▁m	-9.13187
▁awful	-9.13241
▁worst	-9.13335
▁flight	-9.13339
▁final	-9.1364
▁cops	-9.13647
▁shouldve	-9.1396
▁arms	-9.13974
▁bridge	-9.13979
▁size	-9.14024
ge	-9.14091
▁bite	-9.14115
▁dan	-9.14138
▁pants	-9.14172
▁tall	-9.14261
ty	-9.14326
▁price	-9.14425
▁sword	-9.14443
▁fellow	-9.14447
▁sweetheart	-9.14589
um	-9.14757
▁garden	-9.1491
▁store	-9.14915
▁mention	-9.14969
ve	-9.15062
▁ik	-9.15063
▁ridiculous	-9.15222
▁dying	-9.15251
▁obviously	-9.15264
▁lights	-9.15483
▁gas	-9.15612
lo	-9.15745
▁shine	-9.15785
▁nope	-9.15863
▁spent	-9.15864
▁cest	-9.15927
▁gift	-9.16093
▁figured	-9.16178
ive	-9.16228
ting	-9.1625
ent	-9.16304
▁prison	-9.1633
▁j	-9.16428
▁majesty	-9.165
▁camera	-9.16518
▁cup	-9.16556
▁center	-9.16578
▁goodness	-9.16643
▁code	-9.16756
ee	-9.16903
▁ducks	-9.16929
▁puss	-9.16992
▁nervous	-9.17032
▁bright	-9.17129
▁silly	-9.17155
▁ba	-9.17211
▁cia	-9.17221
▁honest	-9.17521
▁heaven	-9.17592
▁howd	-9.17628
▁soft	-9.17685
▁skin	-9.17743
▁hospital	-9.17774
▁whose	-9.17782
▁friday	-9.17795
▁lots	-9.17881
▁ahh	-9.17981
▁shed	-9.18023
▁di	-9.18075
▁belong	-9.18077
▁complete	-9.18162
▁teddy	-9.18451
▁kitty	-9.18451
▁chef	-9.18453
▁phil	-9.18462
▁breathe	-9.18627
as	-9.18703
▁h	-9.18782
ry	-9.18931
▁paris	-9.18979
▁hill	-9.18987
▁large	-9.19026
▁loves	-9.19338
▁stone	-9.19638
▁strike	-9.19718
x	-9.19733
▁dawn	-9.19769
▁jail	-9.1986
▁prove	-9.19874
▁picked	-9.20167
▁angry	-9.20434
▁chitty	-9.20434
▁twice	-9.20434
▁theyd	-9.20456
ine	-9.20547
▁risk	-9.20582
ho	-9.20588
▁huge	-9.20699
▁giant	-9.2073
▁raise	-9.20936
im	-9.20968
▁difference	-9.21085
▁wizard	-9.21107
▁brown	-9.21191
▁stars	-9.21215
▁cell	-9.21245
ts	-9.21376
▁heavy	-9.2178
▁built	-9.21781
▁thatll	-9.21784
▁excited	-9.21804
▁nature	-9.21906
▁wondering	-9.21939
▁planet	-9.21982
▁farm	-9.22101
▁rule	-9.2212
▁chip	-9.22263
ted	-9.22272
▁incredible	-9.22487
▁birds	-9.22642
▁lake	-9.22711
▁heads	-9.22734
▁couldve	-9.22754
▁treat	-9.23024
▁fantastic	-9.23147
▁somehow	-9.23147
▁language	-9.23147
▁neck	-9.23156
▁whatd	-9.23168
▁bought	-9.2317
▁girlfriend	-9.23173
▁barking	-9.23245
▁beg	-9.2348
▁problems	-9.23581
▁te	-9.23593
▁stage	-9.23639
▁max	-9.23693
▁fresh	-9.23822
▁kelly	-9.23837
▁taught	-9.23837
▁department	-9.23837
▁driving	-9.23837
▁tommy	-9.23842
▁nuts	-9.23848
▁walter	-9.23854
▁whistle	-9.23867
▁holding	-9.23922
▁allowed	-9.24106
▁fathers	-9.2432
▁press	-9.24328
▁bullshit	-9.24531
▁castle	-9.2455
▁lying	-9.24556
▁level	-9.24557
▁tie	-9.24705
▁banks	-9.24835
▁pat	-9.24845
▁loose	-9.24904
▁orders	-9.24915
▁ch	-9.24919
▁closer	-9.24943
▁games	-9.24981
▁village	-9.25211
▁strength	-9.2523
▁within	-9.2523
▁sheriff	-9.25292
▁hiding	-9.25329
▁putting	-9.25392
do	-9.25418
▁waste	-9.25763
▁feed	-9.25831
▁government	-9.25934
▁often	-9.2594
▁groaning	-9.25963
▁rabbit	-9.26013
▁account	-9.26038
▁cow	-9.2608
▁les	-9.26171
▁crime	-9.26216
▁teacher	-9.26236
▁listening	-9.26283
▁t	-9.26303
▁allow	-9.26367
▁scene	-9.26633
ah	-9.26644
▁an	-9.26947
▁bath	-9.26996
▁notice	-9.27186
▁swim	-9.27356
▁alarm	-9.27358
▁restaurant	-9.27358
▁indeed	-9.27358
▁pack	-9.27437
▁draw	-9.27691
ian	-9.2784
▁plenty	-9.28077
▁lawyer	-9.28199
▁plans	-9.28201
by	-9.2839
▁hut	-9.28404
▁steal	-9.28434
▁support	-9.28436
id	-9.28491
ver	-9.28592
▁wine	-9.28695
▁pray	-9.28744
▁note	-9.28794
▁weather	-9.28802
▁georgie	-9.28809
▁blind	-9.29246
ti	-9.29279
da	-9.29305
▁over	-9.29405
▁immediately	-9.29555
▁ma	-9.29765
▁dis	-9.2982
▁o	-9.29901
▁base	-9.30091
ta	-9.30114
▁writing	-9.30267
▁purpose	-9.30272
▁losing	-9.30404
▁fellas	-9.30455
and	-9.30695
ir	-9.30714
▁film	-9.31023
▁meat	-9.3103
▁z	-9.31042
▁flowers	-9.3136
came	-9.31509
▁east	-9.31567
▁post	-9.31606
▁ringing	-9.31621
▁enemy	-9.31754
▁project	-9.31754
▁choose	-9.31758
▁beginning	-9.31759
▁mighty	-9.31781
▁search	-9.31875
age	-9.32008
▁fired	-9.32023
▁using	-9.32102
▁sassy	-9.32515
ton	-9.32516
▁gotten	-9.32906
▁plays	-9.33057
ng	-9.33091
▁hardly	-9.33232
▁kurt	-9.33263
▁sugar	-9.33263
▁ugly	-9.33275
▁royal	-9.33299
▁accept	-9.33384
ish	-9.3352
▁bike	-9.3359
un	-9.33604
▁everythings	-9.33691
▁fill	-9.33694
▁hanging	-9.33828
men	-9.33934
▁empty	-9.34027
▁marriage	-9.34027
▁sergeant	-9.34027
tic	-9.34118
▁german	-9.34125
▁monkey	-9.34286
▁reading	-9.34291
▁dads	-9.34296
▁cake	-9.34298
▁dry	-9.34378
▁tail	-9.34534
▁martin	-9.34569
▁freak	-9.34665
▁showed	-9.34668
▁calls	-9.34676
▁higher	-9.34726
▁apart	-9.34781
▁josh	-9.34804
▁mouse	-9.34809
▁bo	-9.34821
▁pool	-9.34834
▁sold	-9.34836
▁v	-9.34852
▁vote	-9.34863
▁path	-9.35069
▁surprised	-9.35135
▁si	-9.35155
▁bloody	-9.35232
▁non	-9.35378
land	-9.35461
▁eric	-9.35484
▁admit	-9.35561
▁beyond	-9.35579
▁main	-9.35797
▁bastard	-9.35864
▁comment	-9.35869
▁kinda	-9.35875
▁beast	-9.35877
▁russian	-9.35903
▁wouldve	-9.35917
ac	-9.36102
ad	-9.36179
▁dick	-9.36331
▁hadnt	-9.36353
▁arthur	-9.36353
▁bathroom	-9.36355
▁yellow	-9.36356
▁christian	-9.36367
▁view	-9.36374
▁plus	-9.36381
▁prepare	-9.36409
▁cost	-9.3656
▁keys	-9.36569
▁adam	-9.36667
▁devil	-9.36677
ary	-9.3672
▁helping	-9.36757
go	-9.36914
▁killer	-9.37041
▁tour	-9.37103
▁england	-9.3714
▁fbi	-9.37147
▁repeat	-9.3715
▁passed	-9.37161
▁crap	-9.3718
▁san	-9.37344
▁sh	-9.37355
▁lve	-9.37396
▁pie	-9.37417
▁wet	-9.37522
▁arrest	-9.37661
▁blame	-9.37759
▁shop	-9.37804
▁speech	-9.37874
▁emergency	-9.37933
▁spanish	-9.37933
▁whether	-9.37933
▁alex	-9.3794
▁sunday	-9.37949
▁usually	-9.38
▁closed	-9.3806
▁lift	-9.38089
ator	-9.38124
▁bucks	-9.38212
▁type	-9.38302
▁thunder	-9.38378
▁steady	-9.38733
▁milk	-9.38761
▁gods	-9.39025
▁starts	-9.39027
▁mayor	-9.39071
▁savage	-9.39102
▁following	-9.39219
▁burn	-9.39391
▁freeze	-9.39404
▁ease	-9.39541
▁linda	-9.39542
▁bread	-9.39554
▁apartment	-9.39557
son	-9.39561
▁tower	-9.39574
▁arrived	-9.39622
▁training	-9.39652
▁due	-9.39682
am	-9.39799
▁rings	-9.39933
▁guest	-9.39939
no	-9.40165
▁settle	-9.40165
▁dressed	-9.40167
▁defense	-9.40338
▁thinks	-9.40354
▁il	-9.40596
▁noise	-9.40764
▁staying	-9.40892
▁doug	-9.40935
▁ex	-9.41056
▁remind	-9.41088
▁faith	-9.4116
▁byebye	-9.41173
▁involved	-9.41226
▁jay	-9.41251
▁gary	-9.41267
ai	-9.41366
▁blows	-9.41458
mon	-9.41522
ate	-9.4168
▁shame	-9.41723
po	-9.41729
▁robert	-9.41928
▁brilliant	-9.41999
▁committee	-9.41999
▁guns	-9.42
▁national	-9.4208
▁chatter	-9.42105
▁hunt	-9.42355
▁flower	-9.42513
▁ate	-9.42515
▁lf	-9.42587
▁bro	-9.42593
▁cos	-9.42602
▁difficult	-9.42663
▁asleep	-9.42832
▁courage	-9.42832
▁judy	-9.42834
▁washington	-9.42836
▁handsome	-9.42852
▁heat	-9.42874
▁whered	-9.42877
▁track	-9.4317
▁angel	-9.4317
▁turns	-9.4352
▁sophie	-9.43673
▁spring	-9.43673
▁hubie	-9.43673
▁thomas	-9.43674
▁chuckling	-9.4368
▁grandpa	-9.43688
▁famous	-9.43692
▁et	-9.43803
▁crash	-9.43829
▁gasping	-9.43833
▁fan	-9.43853
▁commander	-9.44034
j	-9.44092
▁gate	-9.44261
▁wolf	-9.44493
▁simply	-9.4452
▁terrific	-9.4452
▁candy	-9.4452
▁pressure	-9.44525
▁laughter	-9.44553
▁babe	-9.44561
▁weight	-9.44611
▁kim	-9.44831
▁scare	-9.44896
▁shooting	-9.44959
ha	-9.44983
▁operation	-9.45031
▁ticket	-9.45039
▁nah	-9.45259
▁cars	-9.453
▁apologize	-9.45375
▁crew	-9.45376
▁local	-9.4538
▁director	-9.45406
▁gee	-9.4544
▁pictures	-9.45472
▁falling	-9.4552
▁sweetie	-9.45532
▁sleeping	-9.45547
▁breaking	-9.45619
▁el	-9.45746
▁conversation	-9.45879
▁survive	-9.46064
▁block	-9.46155
▁seemed	-9.4619
▁acting	-9.46228
▁jerry	-9.46237
▁tongue	-9.46237
▁soup	-9.46263
▁onto	-9.46308
▁aye	-9.46365
▁ear	-9.46367
one	-9.46373
bo	-9.46548
▁climb	-9.46756
▁partner	-9.46828
▁introduce	-9.46934
▁snow	-9.47077
▁alvin	-9.47107
▁jeremy	-9.47107
▁science	-9.47107
▁memory	-9.47108
▁written	-9.47112
▁common	-9.47116
▁leader	-9.47134
off	-9.47158
▁storm	-9.47159
▁opening	-9.47176
▁crown	-9.47206
▁du	-9.47397
▁ce	-9.47468
li	-9.47493
▁serve	-9.47527
▁destroyed	-9.47575
▁older	-9.47649
▁focus	-9.47702
ga	-9.47731
ant	-9.47773
▁decide	-9.47813
▁trade	-9.47897
▁stole	-9.47919
▁heck	-9.47985
der	-9.47995
▁places	-9.48038
▁deliver	-9.48067
▁julie	-9.48466
▁chair	-9.48563
▁decision	-9.48589
▁ian	-9.48606
you	-9.48694
▁mothers	-9.48759
▁genius	-9.48869
▁dropped	-9.48869
▁exciting	-9.48907
▁safety	-9.48913
▁wings	-9.48926
▁no	-9.49122
▁nearly	-9.49148
be	-9.4916
▁enter	-9.49165
▁ears	-9.49183
▁buzz	-9.49208
▁miracle	-9.49498
▁shower	-9.49603
▁trees	-9.49712
▁saturday	-9.49761
▁clock	-9.4977
▁lonely	-9.4979
▁ugh	-9.49827
▁suddenly	-9.49832
ca	-9.49856
▁keeping	-9.49866
▁butter	-9.50052
▁scream	-9.50071
▁growls	-9.50076
▁score	-9.50242
▁ghost	-9.50301
▁ze	-9.50337
▁bottle	-9.50414
▁bud	-9.50458
▁steve	-9.50548
▁tim	-9.50558
▁humans	-9.5056
▁susan	-9.50646
▁advice	-9.50662
▁ocean	-9.50662
▁opinion	-9.50662
▁luther	-9.50664
▁roof	-9.50666
▁het	-9.50814
▁exclaims	-9.50901
▁bless	-9.50984
▁u	-9.51085
▁deserve	-9.51164
▁so	-9.51186
▁breathing	-9.51223
▁mar	-9.51254
ba	-9.51276
▁lines	-9.51341
▁season	-9.51377
▁i	-9.51497
▁evidence	-9.51572
▁possibly	-9.51572
▁stories	-9.51572
▁vacation	-9.51573
▁freedom	-9.51576
▁boyfriend	-9.51585
▁johnny	-9.51609
▁rough	-9.51635
▁rise	-9.51669
▁lies	-9.51674
▁harm	-9.51682
led	-9.51682
▁bat	-9.51709
▁zone	-9.51797
▁quarter	-9.51909
▁load	-9.51946
▁address	-9.52146
he	-9.52257
▁roger	-9.52282
▁delicious	-9.52489
▁biggest	-9.52489
▁quack	-9.5249
▁merry	-9.52492
▁karen	-9.52498
▁sara	-9.52502
▁powerful	-9.52555
▁fella	-9.52615
▁indistinctly	-9.52667
▁nation	-9.52765
▁witness	-9.53079
▁william	-9.53209
▁finger	-9.53239
▁pitch	-9.53359
▁expecting	-9.53401
▁female	-9.53415
▁journey	-9.53415
▁target	-9.53416
▁keeps	-9.5348
▁feelings	-9.53591
▁copy	-9.53676
▁color	-9.53879
▁pro	-9.53927
▁cooking	-9.54028
▁smells	-9.54029
▁papers	-9.54073
▁boots	-9.5417
▁asshole	-9.54174
▁weapon	-9.54177
▁marshal	-9.54193
▁correct	-9.54209
▁split	-9.54349
▁someday	-9.5435
▁wilma	-9.54355
▁potter	-9.5436
▁flat	-9.54381
▁whispering	-9.54395
▁tiny	-9.54434
▁charming	-9.54552
▁doors	-9.54801
▁ro	-9.54944
▁pet	-9.55025
▁spy	-9.55102
▁motherfucker	-9.55127
▁comin	-9.55261
▁weak	-9.55278
▁knife	-9.55293
▁brer	-9.55293
▁lucas	-9.55296
▁jason	-9.55297
▁paint	-9.55315
▁pete	-9.55411
▁amen	-9.55424
▁wheel	-9.55454
▁marshall	-9.55462
▁prepared	-9.55576
▁au	-9.5565
▁turning	-9.55701
▁perfectly	-9.55871
▁lee	-9.55906
▁swing	-9.55989
▁ne	-9.56018
▁health	-9.56086
▁pizza	-9.56245
▁shape	-9.56246
▁square	-9.56256
▁comfortable	-9.56256
▁greg	-9.56259
▁ar	-9.56271
▁style	-9.56292
▁beeping	-9.56332
▁thee	-9.56343
▁willing	-9.56382
▁honestly	-9.56409
head	-9.56437
▁tickets	-9.56624
▁nobodys	-9.56807
▁wood	-9.5685
▁yi	-9.56899
▁rescue	-9.57042
ii	-9.57052
▁hung	-9.57062
▁threw	-9.57207
▁taylor	-9.57207
▁harold	-9.57207
▁valley	-9.57207
▁clears	-9.57226
▁guilty	-9.57263
▁barn	-9.57315
▁oz	-9.57358
▁invited	-9.57372
▁exhales	-9.57383
▁mo	-9.57418
▁gives	-9.57437
▁lab	-9.57483
the	-9.57551
▁qui	-9.57701
▁helped	-9.57759
▁market	-9.57844
▁suck	-9.57999
▁curse	-9.58009
▁total	-9.58082
▁er	-9.58116
▁yard	-9.58134
▁according	-9.58178
▁audience	-9.58178
▁midnight	-9.58178
▁property	-9.58187
▁carol	-9.58247
▁pin	-9.58254
▁joy	-9.58272
▁bout	-9.58328
▁fingers	-9.58378
▁consider	-9.5846
ow	-9.58586
▁sharp	-9.5886
▁lately	-9.58967
ally	-9.59006
▁pink	-9.59042
▁distance	-9.59158
▁regret	-9.59158
▁granny	-9.59159
▁carmen	-9.59267
▁hoping	-9.59411
▁oil	-9.59441
▁model	-9.59548
▁thy	-9.5981
pa	-9.59905
▁opens	-9.59927
back	-9.59958
▁nightmare	-9.60079
▁cousin	-9.60081
▁champion	-9.60095
▁trash	-9.60102
▁mail	-9.60134
▁stomach	-9.60147
▁clever	-9.60148
▁afford	-9.60149
▁saving	-9.60151
▁horrible	-9.60154
ke	-9.60193
▁ted	-9.602
▁een	-9.6026
▁character	-9.60427
▁cares	-9.60759
▁study	-9.60829
▁pre	-9.609
▁invite	-9.60977
▁somethin	-9.61078
▁france	-9.61115
▁condition	-9.61116
▁firm	-9.61148
▁innocent	-9.61148
▁whoever	-9.61148
▁piano	-9.61149
mo	-9.61224
per	-9.61233
▁blast	-9.61256
▁ends	-9.6131
▁bond	-9.61315
▁weapons	-9.61333
▁crack	-9.61729
▁sooner	-9.62052
▁wing	-9.62159
▁insane	-9.62159
▁appointment	-9.6216
▁british	-9.6216
▁lewis	-9.62162
▁ellie	-9.62164
▁bees	-9.62234
▁lookin	-9.62434
▁bow	-9.62963
▁success	-9.63128
▁ideas	-9.63158
▁prefer	-9.63174
▁pregnant	-9.63179
▁justice	-9.63179
▁uhoh	-9.63257
▁softly	-9.63353
▁metal	-9.63401
▁bringing	-9.63451
▁pan	-9.635
▁discuss	-9.63545
time	-9.63561
kin	-9.63589
▁male	-9.63724
▁nurse	-9.63728
▁fucked	-9.63739
lin	-9.63763
os	-9.638
io	-9.6383
▁doll	-9.64099
▁wherever	-9.64213
▁bowl	-9.64217
▁fancy	-9.64217
▁patient	-9.64227
▁weekend	-9.64236
▁thou	-9.64247
▁pen	-9.64292
▁harder	-9.64412
▁noticed	-9.64458
ious	-9.64595
way	-9.64695
▁mon	-9.64754
▁frog	-9.6489
ler	-9.6491
▁bee	-9.64947
▁knocking	-9.65045
▁lad	-9.65105
▁cap	-9.65121
▁natural	-9.6514
▁africa	-9.65152
▁kay	-9.65191
▁wave	-9.65237
▁contract	-9.65251
▁clumsy	-9.65251
▁credit	-9.65251
▁hannah	-9.65251
▁nonsense	-9.65251
▁bride	-9.65258
▁loan	-9.65271
▁student	-9.65297
▁betty	-9.65298
▁soldier	-9.65304
em	-9.65314
▁lesson	-9.65394
▁sand	-9.65419
▁pieces	-9.65442
pe	-9.65712
▁interest	-9.65738
▁sisters	-9.66043
▁toast	-9.66164
▁tape	-9.66218
▁soldiers	-9.66259
▁otherwise	-9.66304
▁samurai	-9.66304
▁foreign	-9.66305
▁nancy	-9.66306
▁flip	-9.66307
▁danny	-9.66313
▁creature	-9.6637
▁simon	-9.66482
▁hearing	-9.66577
▁ghosts	-9.66593
▁yells	-9.66635
▁x	-9.66674
ff	-9.66704
▁of	-9.66821
▁heading	-9.66913
▁walked	-9.66946
▁spread	-9.6702
di	-9.67219
▁vince	-9.6736
▁brenda	-9.67368
▁however	-9.67368
▁necessary	-9.67368
▁lisa	-9.67373
▁iike	-9.67381
▁planning	-9.6739
▁alan	-9.67448
▁jane	-9.67638
ph	-9.67695
▁warning	-9.677
▁suggest	-9.67774
▁remain	-9.67902
ier	-9.68208
▁growing	-9.68347
▁proper	-9.68364
▁universe	-9.68443
▁interview	-9.68443
▁awake	-9.68448
▁unbelievable	-9.68452
▁eagle	-9.68557
▁ed	-9.68591
▁ad	-9.68592
▁sub	-9.68636
▁talkin	-9.68872
▁pulled	-9.68961
▁to	-9.69047
▁victor	-9.6918
▁launch	-9.69247
▁powers	-9.69273
▁movies	-9.69319
▁release	-9.69364
▁hearts	-9.69412
▁spoke	-9.6946
▁creatures	-9.69461
▁applause	-9.6953
▁dennis	-9.6953
▁downstairs	-9.6953
▁fortune	-9.6953
▁silver	-9.69531
▁duty	-9.69543
▁held	-9.69559
▁itd	-9.69596
▁pocket	-9.69656
▁file	-9.69671
▁robot	-9.69673
▁stranger	-9.69916
▁po	-9.70168
▁guards	-9.70177
▁amy	-9.70303
▁dump	-9.70333
▁add	-9.70459
▁wire	-9.70492
▁bi	-9.7059
▁process	-9.70629
▁kiki	-9.70646
▁announcer	-9.70662
▁direction	-9.70676
▁signal	-9.70793
▁rope	-9.70803
▁est	-9.70926
ated	-9.71005
▁chatters	-9.71144
▁career	-9.71283
▁social	-9.71434
▁regular	-9.71624
▁mario	-9.7164
▁chocolate	-9.7174
▁telephone	-9.7174
▁coast	-9.7174
▁emily	-9.71741
▁nemo	-9.71749
▁edge	-9.71754
▁shift	-9.71755
▁secretary	-9.71775
▁scary	-9.71829
▁highness	-9.71849
▁vi	-9.71864
ner	-9.71887
▁alien	-9.7194
▁switch	-9.72221
▁pretend	-9.72226
ol	-9.72336
ster	-9.72404
ize	-9.72421
▁balls	-9.72427
▁fu	-9.72604
▁dramatic	-9.72867
▁familiar	-9.72871
▁gross	-9.72872
▁niet	-9.72878
▁professional	-9.72993
▁subject	-9.73049
▁failed	-9.73106
▁corn	-9.73426
▁recognize	-9.73826
▁ni	-9.73866
op	-9.73897
▁runs	-9.73913
▁moves	-9.73965
▁drinking	-9.73991
▁sp	-9.73999
▁gadget	-9.74
▁bravo	-9.74
▁energy	-9.74
▁kermit	-9.74
▁rumbling	-9.74
▁video	-9.74
▁bryce	-9.74001
▁jones	-9.74006
▁forgotten	-9.74015
▁willie	-9.74024
▁zero	-9.74045
▁anna	-9.74172
▁comrade	-9.74234
▁numbers	-9.74246
▁boom	-9.74306
▁followed	-9.74317
▁pi	-9.74436
▁fairy	-9.74576
▁bone	-9.74602
▁smurfs	-9.74648
ab	-9.74678
▁pounds	-9.74722
▁pour	-9.74823
▁desert	-9.74864
▁pure	-9.74869
▁louis	-9.75035
▁easier	-9.75149
▁research	-9.75149
▁babies	-9.75149
▁eddie	-9.75149
▁fox	-9.75154
▁aware	-9.75155
▁grew	-9.75155
▁apparently	-9.75158
▁aha	-9.7517
▁herd	-9.75185
▁wide	-9.75216
▁fake	-9.7522
▁row	-9.75294
▁manager	-9.75298
▁manage	-9.75321
▁criminal	-9.75414
▁letting	-9.75597
ass	-9.75728
▁stops	-9.75923
▁loser	-9.76038
▁hook	-9.7615
▁hug	-9.762
▁mi	-9.76253
▁rent	-9.7626
▁surely	-9.76261
▁felix	-9.76312
▁rosie	-9.76313
▁toilet	-9.76313
▁twenty	-9.76325
▁disgusting	-9.76371
▁honking	-9.76376
▁lion	-9.7644
ny	-9.76475
▁gim	-9.76536
▁worlds	-9.76567
▁jerk	-9.76588
▁tiger	-9.76593
▁agreed	-9.76653
▁tip	-9.76788
▁realized	-9.76795
▁disappear	-9.76844
▁rush	-9.76883
▁matters	-9.76933
▁leaves	-9.76969
▁reporter	-9.77059
▁fur	-9.77084
▁jealous	-9.77317
▁fuckin	-9.77428
▁vee	-9.77437
oo	-9.77447
▁gettin	-9.77452
▁juni	-9.77452
▁organ	-9.77461
▁slip	-9.77481
▁opportunity	-9.77489
▁precious	-9.77489
▁greek	-9.7749
iy	-9.77606
▁mustnt	-9.77782
▁button	-9.77863
▁plate	-9.77868
▁sa	-9.78105
▁uhh	-9.78165
▁rocky	-9.78268
▁fi	-9.783
▁everybodys	-9.78345
▁doc	-9.78419
▁page	-9.78432
▁iron	-9.78445
▁juli	-9.78453
▁bones	-9.78468
ance	-9.78629
▁grandmother	-9.78679
▁offense	-9.78679
▁traffic	-9.78679
▁claire	-9.7868
▁mercy	-9.7868
▁chicago	-9.78681
▁steam	-9.78681
▁bruce	-9.78682
▁desk	-9.78699
▁gentleman	-9.78701
▁began	-9.78712
▁barely	-9.78722
▁warn	-9.78762
▁duke	-9.78789
▁gay	-9.78849
▁personally	-9.78948
▁grandfather	-9.79011
▁sometime	-9.79034
▁claim	-9.79037
▁clearly	-9.79337
▁fe	-9.79407
▁coat	-9.79521
▁flag	-9.79647
▁challenge	-9.79705
ki	-9.79706
▁positive	-9.79771
▁zoo	-9.79792
▁panic	-9.79829
▁wise	-9.79873
▁kevin	-9.79884
▁scoffs	-9.79884
▁shirt	-9.79884
▁bunny	-9.79885
▁assistant	-9.79887
▁baseball	-9.79892
▁towards	-9.79957
▁aii	-9.79959
▁tear	-9.80165
▁mile	-9.80173
▁ann	-9.80196
▁doctors	-9.80212
▁do	-9.8054
▁jean	-9.80676
▁boo	-9.80753
▁tears	-9.80769
▁screw	-9.80813
▁reed	-9.80871
▁hurts	-9.80893
▁op	-9.8102
▁co	-9.81027
▁bug	-9.81091
▁staff	-9.81103
▁garbage	-9.81103
▁whistling	-9.81103
▁permission	-9.81106
▁japanese	-9.81109
▁stock	-9.8111
▁whoohoo	-9.81147
▁hank	-9.81159
▁mood	-9.81198
▁spike	-9.81199
▁stolen	-9.812
▁baker	-9.81474
▁ding	-9.81562
▁wh	-9.81629
▁lips	-9.81787
▁finding	-9.82067
▁cale	-9.82108
▁ruin	-9.82163
▁sacrifice	-9.82181
ka	-9.82302
▁among	-9.82311
▁legal	-9.82328
▁jai	-9.82328
▁liar	-9.82351
▁basement	-9.82365
▁andy	-9.82383
▁odd	-9.82384
▁toto	-9.82385
▁quest	-9.8239
▁prize	-9.82419
▁jacket	-9.82495
▁created	-9.82497
▁grown	-9.82569
ag	-9.82622
▁sat	-9.82649
▁manny	-9.82681
ism	-9.82755
▁knight	-9.82778
▁paying	-9.82813
line	-9.82858
▁punch	-9.829
▁ga	-9.83041
▁meal	-9.83086
▁seek	-9.83315
▁expected	-9.83317
▁notes	-9.83377
▁grant	-9.83385
ec	-9.83457
ig	-9.83528
▁europe	-9.83545
▁dust	-9.83551
▁fr	-9.83565
▁community	-9.83588
▁effort	-9.83588
▁neighborhood	-9.83589
▁fruit	-9.8359
▁garage	-9.83594
▁philip	-9.83597
▁filthy	-9.83612
▁nasty	-9.83613
▁loving	-9.83623
▁mice	-9.83638
▁spin	-9.83662
▁blowing	-9.83691
▁cheer	-9.83733
▁letters	-9.83737
▁self	-9.83742
▁pound	-9.8375
▁ge	-9.83782
▁spit	-9.84032
▁nerve	-9.84056
va	-9.84063
ger	-9.84071
▁dean	-9.84291
▁defend	-9.84456
ey	-9.84517
▁driver	-9.84523
▁tires	-9.84524
les	-9.84552
▁silence	-9.84854
▁guide	-9.84857
▁smurfette	-9.84862
▁jake	-9.84863
▁harper	-9.84875
▁julia	-9.8491
ten	-9.85064
ita	-9.85205
▁slowly	-9.85273
▁arrested	-9.85299
▁led	-9.8535
▁penguin	-9.85354
▁member	-9.85371
▁troops	-9.85374
▁ton	-9.8538
▁sail	-9.85487
▁tune	-9.85596
▁members	-9.85626
▁riding	-9.8563
▁direct	-9.85922
▁falls	-9.85935
▁fail	-9.8604
▁alexander	-9.86136
▁jacques	-9.86136
▁several	-9.86136
▁texas	-9.86136
▁vegas	-9.86136
▁buried	-9.86136
▁although	-9.86136
▁value	-9.86137
▁library	-9.86137
▁glory	-9.86141
▁section	-9.86142
▁aboard	-9.86143
▁jimmy	-9.86148
▁santa	-9.86152
▁outfit	-9.86166
▁sarah	-9.86177
▁chosen	-9.86186
▁cooper	-9.86192
▁coughing	-9.86262
▁exist	-9.86418
▁ruined	-9.86424
▁all	-9.86664
▁sweat	-9.86711
▁grade	-9.86757
▁lied	-9.86946
che	-9.8697
ill	-9.87152
▁pigs	-9.87276
▁lou	-9.87387
▁agency	-9.87435
▁lincoln	-9.87435
▁period	-9.87435
▁mmmhmm	-9.87436
▁elizabeth	-9.8744
▁smith	-9.87456
▁katie	-9.87459
▁terry	-9.87485
▁boring	-9.87523
day	-9.87528
▁bears	-9.87545
▁discovered	-9.87576
▁sports	-9.87596
▁mustve	-9.87724
▁raised	-9.87769
▁sexy	-9.87844
▁eaten	-9.87863
▁jellicle	-9.88002
▁opened	-9.88029
▁suffer	-9.88118
▁dragon	-9.8816
▁cheers	-9.88271
▁waited	-9.88304
▁fixed	-9.88363
▁demand	-9.88402
▁beans	-9.88425
house	-9.88433
▁borrow	-9.88467
▁dirt	-9.88586
▁cheap	-9.88608
▁pipe	-9.88626
▁usual	-9.8864
ez	-9.88721
▁champagne	-9.8875
▁jungle	-9.8875
▁license	-9.8875
▁mirror	-9.8875
▁ordinary	-9.8875
▁responsible	-9.8875
▁sunshine	-9.8875
▁halloween	-9.88755
▁planned	-9.88774
▁pair	-9.8878
▁va	-9.88835
▁dc	-9.88894
▁concerned	-9.88974
▁winner	-9.89388
▁stayed	-9.89414
▁yay	-9.899
▁schedule	-9.89908
▁create	-9.89912
▁cock	-9.89987
▁students	-9.90028
▁equipment	-9.90084
▁military	-9.90084
▁patrick	-9.90084
▁whenever	-9.90084
▁ronnie	-9.90085
▁junk	-9.90085
ot	-9.90088
▁davis	-9.9009
▁grave	-9.90126
▁tooth	-9.90139
▁darkness	-9.90145
▁nest	-9.90192
▁belongs	-9.90258
▁victory	-9.90287
▁jem	-9.9029
▁sandy	-9.90303
▁disappeared	-9.90401
▁burned	-9.90544
▁burning	-9.90662
▁somebodys	-9.90676
▁relationship	-9.90709
▁priest	-9.90728
▁belt	-9.90916
aw	-9.90938
▁tina	-9.91167
▁access	-9.9122
▁official	-9.91323
▁laid	-9.91338
▁peach	-9.91391
▁birth	-9.9143
▁california	-9.91435
▁daniel	-9.91436
▁clue	-9.91439
▁therell	-9.91441
▁cr	-9.91443
▁rude	-9.91449
▁bedroom	-9.91454
▁touchdown	-9.91465
▁cast	-9.91499
▁answers	-9.91765
▁brains	-9.9191
▁ver	-9.91914
▁giggles	-9.91937
▁par	-9.91938
▁filled	-9.91956
▁tied	-9.91985
▁ln	-9.92015
▁bullet	-9.92019
ized	-9.92027
side	-9.92034
king	-9.92055
▁saint	-9.92101
▁snap	-9.92111
▁talent	-9.92535
▁nights	-9.92752
▁happiness	-9.92805
▁italian	-9.92805
▁lieutenant	-9.92805
▁palace	-9.92805
▁senior	-9.92805
▁unusual	-9.92805
▁chisum	-9.92805
▁example	-9.92805
▁alert	-9.92807
▁supper	-9.92807
▁desire	-9.92811
▁salt	-9.92823
▁naked	-9.92826
▁grateful	-9.92836
▁screen	-9.92838
ip	-9.92892
▁gus	-9.92922
▁frightened	-9.92934
▁fourth	-9.92987
▁annie	-9.9299
▁jam	-9.93031
▁hired	-9.93058
▁landing	-9.93429
▁leo	-9.93485
▁holiday	-9.93509
▁issue	-9.93517
▁snake	-9.93519
▁slave	-9.93549
▁rhythm	-9.93577
▁golden	-9.93648
▁unit	-9.93674
▁parker	-9.93675
den	-9.93713
▁covered	-9.93741
▁wa	-9.93924
▁players	-9.9395
down	-9.94084
mi	-9.94111
▁dre	-9.94156
▁dive	-9.94158
▁monsters	-9.9418
ring	-9.9418
▁ancient	-9.94194
▁delilah	-9.94194
▁fabulous	-9.94194
▁matthew	-9.94194
▁society	-9.94194
▁wicked	-9.94194
▁funeral	-9.94194
▁golf	-9.94196
▁humming	-9.94196
▁fence	-9.94199
▁libby	-9.94199
▁rowley	-9.94199
▁ivan	-9.94208
▁grass	-9.94225
▁plain	-9.94261
▁sally	-9.94282
▁glasses	-9.9433
▁embarrassing	-9.94339
our	-9.94376
▁thousands	-9.94382
▁roy	-9.94486
▁settled	-9.94489
▁cards	-9.94753
▁current	-9.94938
▁servant	-9.94954
▁tank	-9.95038
▁streets	-9.95042
▁aaah	-9.95059
▁mc	-9.95105
▁sin	-9.95151
▁adventure	-9.9518
▁bum	-9.95252
tre	-9.95273
ball	-9.95444
▁sudden	-9.95491
▁mmhm	-9.95576
▁lads	-9.95587
▁lloyd	-9.95602
▁monsieur	-9.95602
▁peanut	-9.95603
▁weii	-9.95606
▁brace	-9.95609
▁sons	-9.95633
▁marty	-9.95652
▁aron	-9.95659
▁china	-9.95695
▁chanting	-9.95706
▁depends	-9.95717
▁mum	-9.95757
ard	-9.95774
▁americans	-9.95779
▁toy	-9.95821
nce	-9.95843
▁medical	-9.95868
▁stairs	-9.95887
▁fate	-9.95993
▁whispers	-9.96007
▁pot	-9.96099
▁nu	-9.96116
▁steps	-9.96222
▁collect	-9.96324
▁drugs	-9.96357
▁gather	-9.96397
▁cheat	-9.96407
ko	-9.96475
▁ol	-9.96482
▁ye	-9.96496
▁germans	-9.96555
▁speaks	-9.96633
▁crush	-9.96757
ina	-9.96839
▁walls	-9.96995
▁express	-9.97002
▁champ	-9.97008
▁napoleon	-9.97031
▁paddington	-9.97031
▁senator	-9.97031
▁toronto	-9.97031
▁mostly	-9.97031
▁changing	-9.97031
▁literally	-9.97032
▁solid	-9.97034
▁assignment	-9.97034
▁bodies	-9.97035
▁fetch	-9.97035
▁watson	-9.97036
▁marina	-9.97045
▁ordered	-9.97066
▁robin	-9.97094
▁carried	-9.97104
▁ended	-9.97154
▁cage	-9.97187
▁union	-9.97248
▁bon	-9.97274
ley	-9.97316
▁songs	-9.9732
▁plant	-9.97388
▁event	-9.97613
ex	-9.97645
▁beating	-9.97647
▁ape	-9.97688
gen	-9.97758
fully	-9.97938
ile	-9.98055
▁ca	-9.98108
▁hop	-9.98263
▁pulling	-9.98272
▁advance	-9.98306
▁fran	-9.98395
▁whip	-9.9844
▁council	-9.9848
▁slide	-9.9848
▁trapped	-9.98481
▁flew	-9.98481
▁earlier	-9.98484
▁curious	-9.98485
▁violet	-9.9849
▁japan	-9.98493
▁signed	-9.985
▁decent	-9.98507
▁winning	-9.98511
▁daughters	-9.98522
▁port	-9.98581
▁heavens	-9.98694
▁pok	-9.98746
▁celebrate	-9.98771
▁hiro	-9.98852
▁rub	-9.98887
ud	-9.98893
▁parts	-9.9917
▁drug	-9.99191
▁clicks	-9.99269
▁pleased	-9.99335
▁shark	-9.99356
▁uniform	-9.9936
▁circle	-9.9938
▁gal	-9.994
▁indian	-9.9941
▁ways	-9.99569
▁cl	-9.99692
▁sink	-9.99743
▁damage	-9.99782
▁refuse	-9.99877
▁russia	-9.99885
▁chill	-9.99906
▁vision	-9.99942
▁ld	-9.99947
▁austin	-9.99951
▁destiny	-9.99951
▁sobbing	-9.99951
▁treasure	-9.99951
▁whimpering	-9.99951
▁albert	-9.99951
▁steel	-9.99952
▁behave	-9.99952
▁circus	-9.99953
▁turkey	-9.99953
▁ouch	-9.99957
▁monday	-9.99958
▁chess	-9.99966
▁picking	-9.99967
▁popper	-9.99972
▁cruel	-9.99986
▁friendship	-10.0002
▁sho	-10.0015
▁wee	-10.0018
▁passing	-10.0038
▁deeply	-10.0039
min	-10.0042
▁ranch	-10.0042
▁prisoners	-10.005
▁buck	-10.0056
▁closes	-10.006
▁chain	-10.0063
▁bust	-10.0082
▁revolution	-10.0085
if	-10.01
▁ab	-10.0113
▁shows	-10.0117
▁noon	-10.012
▁ra	-10.0123
▁particular	-10.0133
▁rare	-10.0137
▁ashamed	-10.0144
▁ralph	-10.0144
▁winnie	-10.0144
▁marvelous	-10.0144
▁blew	-10.0145
▁studio	-10.0145
▁gerry	-10.0145
▁grinch	-10.0145
▁singer	-10.0146
▁motion	-10.0148
▁todd	-10.0149
▁batman	-10.0149
▁patch	-10.0149
▁artist	-10.0152
▁kate	-10.0155
▁lu	-10.0161
▁pity	-10.0169
▁friendly	-10.0171
ut	-10.0176
▁pussy	-10.0183
bu	-10.0183
lie	-10.019
▁pee	-10.0205
▁meaning	-10.0206
▁someones	-10.022
▁mere	-10.022
▁legend	-10.024
▁suspect	-10.0242
▁highly	-10.0246
▁shoe	-10.0266
▁insist	-10.0267
▁selling	-10.0276
▁app	-10.028
▁spare	-10.028
▁morgan	-10.0284
▁bags	-10.0285
▁sur	-10.0288
▁sale	-10.029
▁soccer	-10.0296
▁surrender	-10.0296
▁understood	-10.0296
▁complicated	-10.0296
▁danni	-10.0296
▁insurance	-10.0296
▁gang	-10.0296
▁available	-10.0296
▁rudy	-10.0296
▁route	-10.0296
▁younger	-10.0298
▁hatch	-10.03
▁rocks	-10.0305
▁lack	-10.0308
▁squeaking	-10.031
▁magical	-10.0312
▁witches	-10.0313
▁miller	-10.0314
▁useless	-10.0317
▁math	-10.0329
▁mistakes	-10.0335
▁chase	-10.0339
▁secrets	-10.0344
▁log	-10.0345
▁am	-10.0352
▁buzzing	-10.0356
▁hunting	-10.0359
▁lower	-10.0363
▁everyones	-10.0371
▁guests	-10.0376
▁mall	-10.0384
▁piss	-10.0392
▁mountains	-10.0393
tion	-10.0393
work	-10.0395
ck	-10.0395
▁hon	-10.04
▁siren	-10.0401
ze	-10.0403
▁mu	-10.0409
▁tuck	-10.0411
ating	-10.0417
ble	-10.0421
▁bull	-10.043
▁murderer	-10.0435
▁assume	-10.0436
▁out	-10.0443
▁actual	-10.0444
▁shouts	-10.0447
▁attorney	-10.045
▁division	-10.045
▁investigation	-10.045
▁nicole	-10.045
▁progress	-10.045
▁responsibility	-10.045
▁someplace	-10.045
▁accent	-10.045
▁device	-10.045
▁jazz	-10.045
▁miami	-10.045
▁swimming	-10.045
▁penny	-10.0451
▁motor	-10.0451
▁brick	-10.0451
▁ramona	-10.0451
▁century	-10.0453
▁confused	-10.0453
▁protection	-10.0458
▁melon	-10.046
▁hitting	-10.0462
▁landed	-10.0474
▁cleaning	-10.048
▁cab	-10.0493
▁march	-10.0496
▁yell	-10.0497
▁kings	-10.0498
▁nicky	-10.0501
que	-10.0514
▁rip	-10.0517
▁une	-10.0533
▁sec	-10.0537
▁brings	-10.0539
▁faces	-10.0544
▁coward	-10.0544
tor	-10.0548
ock	-10.0551
▁believed	-10.0552
▁scratch	-10.0564
▁winter	-10.0569
▁bars	-10.0569
▁helen	-10.0582
ship	-10.0583
▁separate	-10.0589
▁prisoner	-10.0591
▁sandwich	-10.06
▁orange	-10.0605
▁concert	-10.0606
▁valuable	-10.0606
▁whimpers	-10.0606
▁wilbur	-10.0606
▁fought	-10.0606
▁material	-10.0606
▁amount	-10.0606
▁stood	-10.0606
▁remus	-10.0607
▁anger	-10.0607
▁species	-10.0607
▁mick	-10.061
mer	-10.0616
▁beef	-10.0632
▁reasons	-10.0635
ub	-10.0642
▁richie	-10.0643
▁blessed	-10.0654
▁mis	-10.0662
▁hundreds	-10.0663
▁birdie	-10.0663
▁hire	-10.0664
▁net	-10.0679
▁reached	-10.0687
▁approach	-10.0695
▁object	-10.0714
▁source	-10.0717
▁attacked	-10.0719
▁apple	-10.072
▁degrees	-10.0724
▁reports	-10.0728
▁pip	-10.0734
▁officers	-10.074
▁divorce	-10.0747
▁woo	-10.0751
▁exact	-10.0753
▁checked	-10.0754
▁deck	-10.0755
▁doo	-10.0761
▁including	-10.0765
▁meimei	-10.0765
▁oclock	-10.0765
▁rooster	-10.0765
▁whirring	-10.0765
▁intelligence	-10.0765
▁donkey	-10.0765
▁mask	-10.0765
▁merlin	-10.0765
▁romantic	-10.0765
▁inspector	-10.0765
▁poetry	-10.0766
▁flies	-10.0768
▁root	-10.0769
▁gentle	-10.0769
▁unfortunately	-10.0769
▁romeo	-10.0769
▁exit	-10.0769
▁rocket	-10.0774
▁received	-10.0777
▁bury	-10.0778
fi	-10.0779
▁painting	-10.0779
▁screeching	-10.078
▁fa	-10.0828
▁learning	-10.0831
▁appear	-10.0853
▁charm	-10.0855
▁print	-10.0867
▁sending	-10.088
▁shoulder	-10.0881
▁records	-10.0883
▁goat	-10.0884
▁dollar	-10.0893
wood	-10.0893
ren	-10.0893
▁twist	-10.0898
▁returned	-10.0901
▁gu	-10.0914
▁ac	-10.0917
▁goal	-10.0917
▁wipe	-10.0921
▁shaw	-10.0922
▁occasion	-10.0925
▁expert	-10.0925
▁ruth	-10.0926
▁baymax	-10.0926
▁elevator	-10.0926
▁imagination	-10.0926
▁katherine	-10.0926
▁theodore	-10.0926
▁simmons	-10.0926
▁gorgeous	-10.0926
▁alliance	-10.0926
▁central	-10.0926
▁border	-10.0926
ise	-10.0926
▁bailey	-10.0926
▁failure	-10.0926
▁mumble	-10.0926
▁resistance	-10.0927
▁pride	-10.0927
▁punk	-10.0927
▁flesh	-10.0927
▁monty	-10.0928
▁yup	-10.0928
▁thirty	-10.0928
▁extremely	-10.0929
▁fearless	-10.0933
▁exclaiming	-10.0933
▁writer	-10.0944
▁under	-10.0952
ial	-10.0953
▁bend	-10.0954
▁moondog	-10.0956
ens	-10.0958
▁freaky	-10.0961
▁latest	-10.0962
▁taxi	-10.0966
▁touched	-10.0968
▁poet	-10.098
▁concern	-10.0982
▁chipmunks	-10.0993
com	-10.0996
of	-10.0998
▁slaves	-10.1004
▁thin	-10.1013
▁creep	-10.1029
▁jan	-10.103
▁squirrel	-10.1046
▁carrying	-10.1057
just	-10.1064
▁alma	-10.1066
▁aim	-10.1066
▁disease	-10.1072
▁olive	-10.1078
▁obvious	-10.1079
▁knees	-10.1084
wa	-10.1086
▁attitude	-10.109
▁chanticleer	-10.109
▁closing	-10.109
▁governor	-10.109
▁mysterious	-10.109
▁cinderella	-10.109
▁sheiiey	-10.109
▁memories	-10.109
▁mitchell	-10.109
▁goldberg	-10.109
▁noble	-10.1091
▁dozen	-10.1091
▁recently	-10.1093
▁circumstances	-10.1095
▁counting	-10.1096
▁seats	-10.1098
ya	-10.1099
dy	-10.1115
▁artie	-10.1127
▁fishing	-10.1133
ea	-10.1138
▁crashing	-10.1158
▁jet	-10.1159
▁carefully	-10.1171
▁concentrate	-10.1186
▁attempt	-10.1192
▁hated	-10.1195
▁details	-10.1213
▁pump	-10.1216
▁pilot	-10.1217
▁airplane	-10.1217
▁client	-10.1218
▁float	-10.1225
▁poison	-10.1228
▁defeat	-10.1228
▁spark	-10.1241
▁toe	-10.1242
▁remove	-10.1245
▁watched	-10.1252
▁ellis	-10.1253
▁orgazmo	-10.1257
▁terribly	-10.1257
▁twelve	-10.1257
▁university	-10.1257
▁location	-10.1257
▁executive	-10.1257
▁angus	-10.1257
▁squad	-10.1259
ay	-10.1261
▁shore	-10.1262
▁maar	-10.1262
▁mental	-10.1264
for	-10.1271
▁tricks	-10.1274
art	-10.1274
▁designed	-10.1281
▁lo	-10.1284
▁windows	-10.1285
▁tale	-10.1303
▁trace	-10.1317
▁fields	-10.132
▁forces	-10.1334
▁throwing	-10.1347
▁ken	-10.1358
▁pe	-10.1362
▁oi	-10.1372
▁rate	-10.1372
we	-10.1385
▁begins	-10.1389
▁elephant	-10.139
▁showing	-10.1393
▁sch	-10.1397
▁inc	-10.1398
ping	-10.1405
▁guarantee	-10.1408
▁headed	-10.1411
ev	-10.1417
▁mei	-10.142
▁percent	-10.1426
▁represent	-10.1426
▁federal	-10.1426
▁mystery	-10.1426
▁negative	-10.1426
▁sauce	-10.1426
▁tuesday	-10.1426
▁kidnapped	-10.1426
▁lenny	-10.1426
▁theater	-10.1426
▁exchange	-10.1426
▁whiskey	-10.1426
▁whyd	-10.1426
▁florida	-10.1426
▁juice	-10.1426
▁wagon	-10.1426
▁admiral	-10.1426
▁lousy	-10.1427
▁francisco	-10.1427
▁whore	-10.1428
▁kung	-10.1428
▁precisely	-10.1429
▁heavily	-10.1429
▁earn	-10.143
▁grover	-10.1433
▁uhuh	-10.1435
▁pole	-10.1438
▁suis	-10.144
▁chat	-10.1441
▁perform	-10.1447
▁abe	-10.1449
▁millions	-10.1468
▁rats	-10.1481
▁moms	-10.15
▁minds	-10.1516
▁traveling	-10.1526
▁changes	-10.1534
▁kicked	-10.1541
▁makeup	-10.1547
▁cloud	-10.1548
▁tap	-10.1563
▁gunshot	-10.1565
ons	-10.1573
▁chuck	-10.1584
▁waves	-10.1593
▁bay	-10.1594
▁comfort	-10.1597
▁dummy	-10.1598
▁ernest	-10.1598
▁international	-10.1598
▁newspaper	-10.1598
▁pathetic	-10.1598
▁slept	-10.1598
▁expensive	-10.1599
▁basically	-10.1599
▁festival	-10.1599
▁nuclear	-10.1599
▁firing	-10.1599
▁haru	-10.16
▁fever	-10.16
▁chapter	-10.16
▁theme	-10.16
▁toby	-10.16
▁unique	-10.16
▁practically	-10.1601
▁trial	-10.1601
▁leak	-10.1601
▁title	-10.1604
▁roaring	-10.1606
▁package	-10.1606
▁bound	-10.1609
▁cabin	-10.1609
▁african	-10.1615
▁homework	-10.1615
▁stopping	-10.1617
▁heroes	-10.1618
▁ram	-10.1619
▁data	-10.1631
ap	-10.1633
▁ls	-10.1664
▁stronger	-10.1674
ham	-10.1674
▁request	-10.1676
▁matt	-10.168
▁ant	-10.1693
▁bastards	-10.1708
▁badly	-10.1709
▁rangers	-10.1713
vous	-10.1716
▁messed	-10.1723
▁fans	-10.1738
▁han	-10.1741
▁counter	-10.1746
▁dancer	-10.1749
▁enjoying	-10.1755
▁para	-10.1762
▁chose	-10.1767
▁parking	-10.1768
▁trail	-10.1768
▁fashion	-10.1774
▁gloria	-10.1774
▁stadium	-10.1774
▁article	-10.1774
▁thief	-10.1774
▁doyle	-10.1774
▁advantage	-10.1774
▁hidden	-10.1774
▁stalin	-10.1774
▁idgie	-10.1774
▁wilson	-10.1774
▁impressive	-10.1774
▁aside	-10.1776
▁wore	-10.1776
▁sexual	-10.1777
▁fuel	-10.1778
▁labor	-10.1779
▁whale	-10.1781
▁thas	-10.1783
▁proof	-10.1784
▁jackson	-10.1786
▁yards	-10.1792
ide	-10.1794
▁tells	-10.1795
tu	-10.1801
▁staring	-10.1801
away	-10.1804
▁ron	-10.1813
▁former	-10.1814
▁appears	-10.1823
▁pit	-10.1847
▁dies	-10.185
ou	-10.1853
▁su	-10.1857
▁murdered	-10.1864
▁stretch	-10.1887
hi	-10.1892
▁guts	-10.1901
▁teaching	-10.1916
mp	-10.1921
rai	-10.1925
▁pigeon	-10.1925
▁delight	-10.1926
ure	-10.193
▁desperate	-10.1941
▁contest	-10.1948
▁easily	-10.1952
▁shrek	-10.1952
▁couid	-10.1953
▁joking	-10.1953
▁navy	-10.1953
▁championship	-10.1953
▁headquarters	-10.1953
▁quoi	-10.1954
▁poem	-10.1955
▁loss	-10.1957
▁cave	-10.1957
▁maid	-10.196
red	-10.196
▁johnson	-10.1965
▁reverse	-10.1965
▁woke	-10.1966
▁passion	-10.1969
▁zip	-10.1969
▁forth	-10.1972
▁bench	-10.1976
▁healthy	-10.1984
▁mid	-10.1984
▁awfully	-10.1986
▁approaching	-10.1992
▁forced	-10.2005
▁gotcha	-10.2005
▁tryin	-10.2021
▁rum	-10.2038
▁coughs	-10.2058
ite	-10.2059
▁bri	-10.2066
▁diet	-10.2084
▁avoid	-10.2098
field	-10.21
ais	-10.2102
▁vehicle	-10.2109
▁costume	-10.211
▁up	-10.2111
▁term	-10.2112
▁sport	-10.2114
▁trained	-10.2117
her	-10.212
▁trap	-10.2123
lu	-10.2125
▁livin	-10.2132
▁text	-10.2134
▁crusoe	-10.2134
▁eventually	-10.2134
▁measure	-10.2134
▁thursday	-10.2134
▁gordon	-10.2134
▁chinese	-10.2134
▁extraordinary	-10.2134
▁clarence	-10.2134
▁lamb	-10.2134
▁popular	-10.2135
▁rayburn	-10.2135
▁zack	-10.2135
▁abby	-10.2135
▁june	-10.2136
▁drag	-10.2136
▁fifty	-10.2138
▁jeez	-10.2139
▁peterson	-10.2139
▁moaning	-10.2142
▁dealing	-10.2143
ible	-10.2144
▁role	-10.2145
▁seal	-10.2148
▁clicking	-10.2151
▁fort	-10.2151
▁pm	-10.2152
ette	-10.2154
nd	-10.2163
▁shy	-10.2174
▁chi	-10.2176
▁considered	-10.2187
▁cent	-10.2216
▁chin	-10.2225
▁las	-10.2231
ans	-10.2267
ities	-10.2267
▁sean	-10.227
▁ja	-10.2276
▁aliens	-10.2289
▁experiment	-10.2295
▁chest	-10.2299
▁thumb	-10.2301
▁assure	-10.2305
▁als	-10.231
▁leading	-10.2314
▁novel	-10.2318
▁caesar	-10.2319
▁gargamel	-10.2319
▁naughty	-10.2319
▁policy	-10.2319
▁smooth	-10.2319
▁thieves	-10.2319
▁illegal	-10.2319
▁boston	-10.232
▁dar	-10.232
▁bounce	-10.232
▁hooray	-10.232
▁nando	-10.232
▁bruno	-10.232
▁miserable	-10.232
▁medicine	-10.232
▁holly	-10.232
▁authority	-10.232
▁arrow	-10.232
▁otis	-10.232
▁hammer	-10.2321
▁raven	-10.2321
▁chances	-10.2325
▁thatd	-10.2326
▁mass	-10.233
▁stable	-10.2331
▁spoken	-10.2331
▁rear	-10.2333
▁kissed	-10.2334
▁inch	-10.2334
▁tin	-10.2338
▁hm	-10.2371
▁tone	-10.2372
▁nothings	-10.2383
▁design	-10.2395
▁stealing	-10.241
▁roses	-10.2432
▁ending	-10.2438
ja	-10.2438
▁knocked	-10.244
▁attend	-10.2441
▁charges	-10.2454
▁raining	-10.2457
▁shove	-10.2458
▁depend	-10.2458
▁stands	-10.2465
▁ships	-10.2469
▁gasp	-10.2471
▁badge	-10.2478
▁balance	-10.2482
▁sentence	-10.249
▁trumpet	-10.249
▁diamond	-10.2491
▁flintstone	-10.2491
▁cowhand	-10.2491
▁photo	-10.2492
▁original	-10.2498
▁jo	-10.2507
▁amanda	-10.2508
▁brandnew	-10.2508
▁competition	-10.2508
▁dwayne	-10.2508
▁giggling	-10.2508
▁sylvia	-10.2508
▁turtle	-10.2508
▁violence	-10.2508
▁derek	-10.2508
▁muffled	-10.2508
▁lyle	-10.2509
▁foster	-10.2509
▁quarterback	-10.251
▁connection	-10.251
▁oui	-10.2516
ick	-10.2519
▁yearold	-10.2522
▁bien	-10.2527
▁hurting	-10.255
▁points	-10.255
▁screwed	-10.2552
▁stink	-10.2555
fe	-10.2558
▁fin	-10.2567
▁closet	-10.2577
▁hem	-10.2579
what	-10.2586
▁ash	-10.2593
▁finest	-10.2596
▁searching	-10.2597
ore	-10.2608
tch	-10.2609
▁the	-10.2615
▁marc	-10.2619
cy	-10.2621
▁shots	-10.2624
▁ko	-10.2636
▁sneak	-10.2644
▁flash	-10.2665
▁browne	-10.267
▁confirm	-10.267
ix	-10.2674
▁torture	-10.2683
▁gar	-10.2685
▁australia	-10.2686
▁tunnel	-10.2687
▁toward	-10.2689
▁husbands	-10.2693
▁cotton	-10.27
▁april	-10.27
▁chamber	-10.27
▁conference	-10.27
▁confidence	-10.27
▁exercise	-10.27
▁families	-10.27
▁harbor	-10.27
▁hockey	-10.27
▁melissa	-10.27
▁paradise	-10.27
▁marnie	-10.27
▁false	-10.27
▁modern	-10.2701
▁moses	-10.2701
▁feast	-10.2701
▁wasting	-10.2701
▁urgent	-10.2701
▁alice	-10.2702
▁rice	-10.2702
▁michelle	-10.2702
▁estate	-10.2702
▁spaceship	-10.2703
▁dropping	-10.2704
▁treatment	-10.2705
▁darn	-10.2709
▁setting	-10.2716
▁whooping	-10.2717
▁fleet	-10.2723
▁fallen	-10.2724
▁sniffing	-10.2728
▁tar	-10.2729
▁jobs	-10.2731
▁calvin	-10.2732
▁cole	-10.2733
▁warner	-10.274
▁managed	-10.2741
▁loaded	-10.276
▁hood	-10.2768
▁checking	-10.2784
▁task	-10.2786
▁sucker	-10.2786
▁provide	-10.28
▁toes	-10.28
om	-10.2802
my	-10.2804
▁moments	-10.2813
▁mix	-10.2824
▁brakes	-10.2834
▁dreaming	-10.2865
▁swallow	-10.2868
▁intend	-10.2869
▁messing	-10.2875
▁physical	-10.2887
▁kit	-10.2888
▁cart	-10.2895
▁cure	-10.2896
▁adorable	-10.2897
▁artemis	-10.2897
▁craig	-10.2897
▁museum	-10.2897
▁polite	-10.2897
▁revenge	-10.2897
▁wednesday	-10.2897
▁conrad	-10.2897
▁enzo	-10.2897
▁intelligent	-10.2897
▁alpha	-10.2897
▁invisible	-10.2897
▁attractive	-10.2897
▁blanket	-10.2897
▁chap	-10.2899
▁thick	-10.2899
▁doorbell	-10.29
▁drew	-10.2901
▁wallet	-10.2902
▁jewell	-10.2903
▁factory	-10.2904
▁fletcher	-10.2904
▁capable	-10.2906
▁bra	-10.2909
▁frosty	-10.2911
▁bleeding	-10.2917
au	-10.2918
▁barker	-10.2921
▁instructions	-10.2928
▁rec	-10.2928
▁gifts	-10.2934
▁lance	-10.2941
con	-10.2954
▁argue	-10.2962
ep	-10.2977
▁gum	-10.2981
▁den	-10.2983
▁workers	-10.2983
▁haha	-10.3007
ning	-10.3012
▁pills	-10.3012
▁moi	-10.3044
▁faint	-10.3057
▁wreck	-10.306
▁string	-10.3067
▁holes	-10.3076
▁fighter	-10.3078
▁los	-10.3082
▁threat	-10.309
▁pearl	-10.3091
▁loyal	-10.3095
▁owner	-10.3096
▁activity	-10.3097
▁cindy	-10.3097
▁communist	-10.3097
▁delorean	-10.3097
▁enemies	-10.3097
▁magnificent	-10.3097
▁smiling	-10.3097
▁tattoo	-10.3097
▁spongebob	-10.3097
▁pleasant	-10.3097
▁helmet	-10.3097
▁review	-10.3097
▁maintain	-10.3097
▁koki	-10.3097
▁hahaha	-10.3097
▁rotten	-10.3097
▁coke	-10.3098
▁markos	-10.3099
▁stoker	-10.3101
▁zach	-10.3104
▁cellar	-10.3104
▁wha	-10.3107
▁sonny	-10.3109
▁cutting	-10.311
hand	-10.3111
▁georgia	-10.3123
▁beats	-10.3129
▁classes	-10.3131
zz	-10.3132
▁rogers	-10.3143
lng	-10.3146
▁based	-10.3153
▁entirely	-10.3154
▁ty	-10.3154
▁thrown	-10.3159
▁nut	-10.316
▁auntie	-10.3167
▁pea	-10.317
▁turner	-10.3171
▁davey	-10.3176
ov	-10.3177
▁del	-10.318
▁rd	-10.3181
boy	-10.3185
▁lifting	-10.3185
▁image	-10.319
▁armed	-10.3207
▁rep	-10.3215
▁lovers	-10.3227
stone	-10.3231
▁ms	-10.3231
bi	-10.3234
▁shock	-10.3239
▁crow	-10.3261
▁web	-10.3269
▁spending	-10.327
▁sniffs	-10.327
▁vampires	-10.3271
▁gain	-10.329
▁emotional	-10.329
▁scientist	-10.3299
▁wrap	-10.3299
▁helicopter	-10.3301
▁monitor	-10.3301
▁potential	-10.3301
▁becoming	-10.3301
▁farewell	-10.3301
▁meh	-10.3301
▁forbidden	-10.3301
▁silent	-10.3301
▁league	-10.3301
▁ginger	-10.3301
▁peyton	-10.3301
▁cancer	-10.3302
▁reward	-10.3302
▁logan	-10.3303
▁collection	-10.3304
▁shrieking	-10.3305
▁jumping	-10.3305
▁bored	-10.3307
▁rolling	-10.331
▁pops	-10.3314
▁fully	-10.3316
▁runner	-10.3317
▁baron	-10.3324
▁terms	-10.3326
▁hail	-10.3328
▁aan	-10.3333
▁whod	-10.3333
▁jr	-10.3334
▁stu	-10.3336
▁delivery	-10.3339
▁lemon	-10.334
▁busted	-10.3343
▁wasted	-10.3351
ois	-10.3365
▁here	-10.3373
▁understanding	-10.3381
ach	-10.3384
▁arrive	-10.3386
▁wishes	-10.3391
▁beeps	-10.3408
oh	-10.3414
▁hates	-10.342
▁citizens	-10.3433
▁likely	-10.3434
▁med	-10.3434
▁ju	-10.3448
▁gl	-10.3458
pr	-10.3474
▁connect	-10.3478
▁develop	-10.3479
▁robots	-10.3482
▁shout	-10.3483
▁wound	-10.3484
▁shel	-10.3488
▁insult	-10.3491
▁propose	-10.3491
▁secure	-10.3492
▁lessons	-10.3503
▁plot	-10.3508
▁charlotte	-10.3509
▁elbow	-10.3509
▁hamilton	-10.3509
▁honeymoon	-10.3509
▁invitation	-10.3509
▁observe	-10.3509
▁splendid	-10.3509
▁territory	-10.3509
▁theatre	-10.3509
▁ulysses	-10.3509
▁unhappy	-10.3509
▁apology	-10.3509
▁travis	-10.3509
▁pepper	-10.3509
▁chips	-10.3509
▁traitor	-10.3509
▁hollywood	-10.3509
▁diana	-10.3509
▁fry	-10.351
▁virginia	-10.351
▁homer	-10.3511
▁barney	-10.3511
▁bryant	-10.3512
▁result	-10.3513
▁option	-10.3513
▁sack	-10.3514
▁junior	-10.3514
▁colin	-10.3514
▁link	-10.3514
▁cliff	-10.3516
wi	-10.3516
▁maiden	-10.3517
▁wailing	-10.3517
▁feather	-10.3518
▁exhausted	-10.3518
▁blade	-10.3518
▁brat	-10.3524
▁lover	-10.3527
▁sc	-10.353
▁drum	-10.3531
▁cents	-10.3534
▁mixed	-10.3539
▁wheels	-10.354
▁deny	-10.3541
▁deadly	-10.3545
▁served	-10.355
▁subtitles	-10.3565
▁des	-10.3572
▁packed	-10.3591
ming	-10.3597
▁mentioned	-10.3602
tz	-10.3615
▁tend	-10.3618
▁caused	-10.3622
ned	-10.3634
ign	-10.3649
▁souls	-10.3653
ns	-10.3659
▁rob	-10.3659
▁testing	-10.3661
▁ag	-10.3661
▁knee	-10.3661
▁skip	-10.3667
▁cape	-10.3675
▁ahhh	-10.3678
▁jumped	-10.3682
▁ke	-10.3691
▁spoil	-10.3693
▁voices	-10.3714
▁odds	-10.3714
▁require	-10.3715
▁lick	-10.3716
▁tapes	-10.3717
▁resist	-10.372
▁average	-10.3722
▁escort	-10.3722
▁fahmarr	-10.3722
▁political	-10.3722
▁procedure	-10.3722
▁therefore	-10.3722
▁wouid	-10.3722
▁throne	-10.3722
▁roast	-10.3722
▁scholarship	-10.3722
▁steer	-10.3722
▁praise	-10.3722
▁riley	-10.3722
▁whew	-10.3722
▁patrol	-10.3722
▁couch	-10.3722
▁formula	-10.3723
▁selfish	-10.3723
▁impression	-10.3723
▁beings	-10.3725
▁guardian	-10.3725
▁neil	-10.3725
▁spider	-10.3726
▁nina	-10.3726
▁surrounded	-10.3727
▁ellen	-10.3729
▁qu	-10.373
▁neighbor	-10.373
▁bid	-10.3731
▁broom	-10.3731
sky	-10.3734
▁chasing	-10.3738
▁thinkin	-10.3738
▁chick	-10.3741
▁rooms	-10.3747
▁off	-10.3747
▁backup	-10.375
▁purse	-10.3752
ek	-10.3753
▁juliet	-10.3755
▁herring	-10.3756
▁diner	-10.3757
ue	-10.3758
▁planes	-10.3764
▁madame	-10.3765
▁lawn	-10.378
▁inter	-10.3788
▁arts	-10.3799
▁belly	-10.3806
▁mel	-10.3809
▁jewels	-10.3811
▁bl	-10.3828
▁tub	-10.3831
▁scar	-10.3844
well	-10.3847
▁dot	-10.3866
▁chickens	-10.387
▁whee	-10.3879
▁pushed	-10.388
▁ref	-10.388
▁remembered	-10.389
▁lions	-10.389
▁mac	-10.3896
▁warriors	-10.3907
ell	-10.3909
▁bump	-10.3912
gi	-10.3913
▁herr	-10.3916
▁tor	-10.392
▁prime	-10.3927
▁coin	-10.3931
▁basic	-10.3939
▁disaster	-10.3939
▁edmond	-10.3939
▁presence	-10.3939
▁routine	-10.3939
▁shield	-10.3939
▁individual	-10.3939
▁complex	-10.3939
▁taffy	-10.3939
▁paddle	-10.3939
▁martha	-10.3939
▁allison	-10.3939
▁powder	-10.3939
▁iook	-10.3939
▁erik	-10.394
▁stargirl	-10.3941
▁performance	-10.3941
▁surface	-10.3941
▁scale	-10.3942
▁stress	-10.3942
▁gear	-10.3944
▁neat	-10.3944
▁puff	-10.3947
▁adult	-10.3951
▁burger	-10.3952
▁vice	-10.3952
▁victim	-10.3952
▁dial	-10.3955
▁embarrassed	-10.3957
▁hugo	-10.3957
▁sucks	-10.3962
▁ford	-10.3966
▁knowing	-10.3969
▁ew	-10.397
▁foul	-10.3973
▁floating	-10.3985
▁walker	-10.3988
▁pl	-10.3999
▁range	-10.3999
▁bush	-10.4005
▁sue	-10.401
ven	-10.4011
ug	-10.4014
▁oldest	-10.4027
umb	-10.4035
▁apes	-10.4037
▁presents	-10.4039
▁down	-10.4041
end	-10.4041
ink	-10.4041
▁dreamed	-10.4042
▁county	-10.4048
▁pile	-10.4051
▁drove	-10.4051
▁offered	-10.4061
▁touching	-10.4068
▁dame	-10.4081
▁chew	-10.4098
▁hah	-10.4098
▁flow	-10.41
▁electric	-10.411
town	-10.4118
▁waters	-10.412
▁receive	-10.4127
use	-10.4134
▁sticks	-10.4134
▁files	-10.4136
▁explode	-10.4144
ade	-10.4145
▁frost	-10.4147
▁sum	-10.415
▁sodom	-10.4161
▁beatrice	-10.4161
▁beneath	-10.4161
▁ceremony	-10.4161
▁commercial	-10.4161
▁footsteps	-10.4161
▁suicide	-10.4161
▁syracuse	-10.4161
▁temperature	-10.4161
▁underneath	-10.4161
▁floop	-10.4161
▁minister	-10.4162
▁mummy	-10.4162
▁crows	-10.4162
▁whatll	-10.4162
▁bacon	-10.4163
▁blah	-10.4164
▁vanya	-10.4164
▁stake	-10.4164
▁lamp	-10.4165
▁marine	-10.4166
▁carlos	-10.4166
▁solo	-10.4166
▁snarling	-10.4167
▁convention	-10.4167
▁spain	-10.4169
▁wolfman	-10.4169
▁fuss	-10.417
▁engaged	-10.4173
▁disappointed	-10.4174
▁lazy	-10.4175
▁effect	-10.4177
ving	-10.4179
▁dolphin	-10.418
ran	-10.4183
▁naturally	-10.4185
▁tan	-10.4187
▁winds	-10.4197
tes	-10.4198
▁hen	-10.42
gh	-10.4203
▁elephants	-10.4209
▁reality	-10.4218
▁roars	-10.4221
▁ka	-10.4234
lor	-10.4238
▁tradition	-10.424
▁teams	-10.4244
▁bombs	-10.4249
▁timing	-10.4249
▁fo	-10.4251
▁buying	-10.4255
▁units	-10.4273
▁flor	-10.4275
ong	-10.4283
▁hills	-10.4296
▁anti	-10.4296
▁von	-10.43
▁russians	-10.4303
▁maria	-10.431
▁locker	-10.4312
▁til	-10.4321
▁flood	-10.4325
ations	-10.435
▁fed	-10.4353
eth	-10.4356
▁smash	-10.436
▁var	-10.436
jo	-10.4369
▁stan	-10.437
▁drums	-10.4376
▁wel	-10.4379
▁wondered	-10.4385
▁cigar	-10.4388
▁bernard	-10.4389
▁emperor	-10.4389
▁furniture	-10.4389
▁gardner	-10.4389
▁gorilla	-10.4389
▁pancake	-10.4389
▁underground	-10.4389
▁worries	-10.4389
▁channel	-10.4389
▁superior	-10.4389
▁email	-10.4389
▁trunk	-10.4389
▁authorities	-10.4389
▁lockhart	-10.4389
▁blaring	-10.4389
▁molly	-10.4389
▁detective	-10.4389
▁basketball	-10.4389
▁construction	-10.4389
▁boris	-10.439
▁jj	-10.4391
▁counselor	-10.4391
▁voss	-10.4392
▁we	-10.4393
▁tomatoes	-10.4394
▁sailor	-10.4394
▁thirsty	-10.4395
▁pad	-10.4396
▁notre	-10.4398
▁solve	-10.44
▁alley	-10.4401
▁lars	-10.4403
ery	-10.4404
▁fairies	-10.4404
▁brand	-10.4406
▁invented	-10.4407
▁squealing	-10.4407
▁geez	-10.4408
▁creepy	-10.4412
▁lend	-10.4412
▁beside	-10.4416
▁provided	-10.4417
▁recall	-10.4418
▁whales	-10.4427
right	-10.443
▁dee	-10.4431
▁hiya	-10.4437
▁germany	-10.4438
▁movement	-10.444
▁clients	-10.4442
▁suffering	-10.445
ther	-10.4462
▁escaped	-10.4465
▁triple	-10.4468
▁butts	-10.4468
ui	-10.4477
▁treated	-10.4483
▁ve	-10.4498
▁coo	-10.4498
▁missy	-10.4501
▁product	-10.4503
za	-10.4515
▁russ	-10.452
can	-10.4521
▁bugs	-10.4528
▁horns	-10.4537
▁af	-10.4548
tal	-10.4551
▁interrupt	-10.4554
▁ham	-10.4558
▁joined	-10.458
ding	-10.4584
▁tre	-10.4585
▁admire	-10.4591
▁volunteer	-10.4592
▁cancel	-10.4596
▁tax	-10.4602
▁strangers	-10.4603
▁whistles	-10.4611
▁deb	-10.4616
gging	-10.4617
▁bea	-10.4618
▁francis	-10.462
▁favour	-10.4621
▁transfer	-10.4621
▁anytime	-10.4621
▁behavior	-10.4621
▁beloved	-10.4621
▁campaign	-10.4621
▁capsule	-10.4621
▁dwarf	-10.4621
▁guitar	-10.4621
▁ingrid	-10.4621
▁montgomery	-10.4621
▁murmuring	-10.4621
▁murphy	-10.4621
▁retreat	-10.4621
▁trigger	-10.4621
▁creaking	-10.4621
▁raymond	-10.4621
▁script	-10.4621
▁fiona	-10.4621
▁knowledge	-10.4621
▁cleo	-10.4621
▁underwear	-10.4621
▁upbeat	-10.4621
▁operator	-10.4621
▁deputy	-10.4621
▁audition	-10.4621
▁generous	-10.4622
▁glenn	-10.4623
▁quality	-10.4623
▁minor	-10.4623
▁gaia	-10.4624
▁abra	-10.4624
▁obey	-10.4624
▁stiff	-10.4624
▁mansion	-10.4627
▁jeff	-10.4628
▁standard	-10.4629
▁freshman	-10.4631
▁es	-10.4639
izing	-10.4639
▁properly	-10.4646
▁explosion	-10.4648
▁useful	-10.4655
▁nail	-10.4661
▁oops	-10.4663
ok	-10.4666
hu	-10.467
▁native	-10.4675
▁dock	-10.4678
▁cheating	-10.4679
▁rot	-10.4681
▁greater	-10.4688
▁hose	-10.469
▁ri	-10.4692
▁gen	-10.4695
▁moron	-10.47
▁signs	-10.4707
▁hells	-10.4725
▁ai	-10.4727
looking	-10.4727
▁toys	-10.4728
▁bullets	-10.474
▁suits	-10.4746
▁fund	-10.4757
val	-10.4761
▁drawing	-10.4765
▁dating	-10.4772
▁quarters	-10.4773
▁grip	-10.4779
over	-10.4792
▁at	-10.4795
▁pu	-10.4796
▁heal	-10.4796
eur	-10.4803
▁lawyers	-10.4819
▁crawl	-10.4824
▁fowl	-10.4831
▁losers	-10.4831
▁ignore	-10.4842
▁or	-10.4846
▁prick	-10.4849
▁neighbors	-10.4849
▁emmet	-10.485
▁annabel	-10.4852
▁exam	-10.4857
▁basket	-10.4858
▁commit	-10.4858
▁abigail	-10.4859
▁anthony	-10.4859
▁brooklyn	-10.4859
▁fifteen	-10.4859
▁holmes	-10.4859
▁incident	-10.4859
▁margaret	-10.4859
▁mckenna	-10.4859
▁pattern	-10.4859
▁principal	-10.4859
▁rainbow	-10.4859
▁reckon	-10.4859
▁response	-10.4859
▁sheep	-10.4859
▁snail	-10.4859
▁beverly	-10.4859
▁prevent	-10.4859
▁cattle	-10.4859
▁morris	-10.4859
▁kathy	-10.4859
▁drift	-10.4859
▁underdog	-10.4859
▁avery	-10.4859
▁sniff	-10.486
▁randall	-10.486
▁mickey	-10.486
▁cannon	-10.486
▁mitch	-10.486
▁irish	-10.4861
▁shopping	-10.4861
▁ladder	-10.4861
▁panda	-10.4861
▁marcus	-10.4862
▁pork	-10.4862
▁temple	-10.4863
▁swell	-10.4863
▁sensitive	-10.4865
▁crane	-10.487
cat	-10.4872
▁demon	-10.4875
▁ahem	-10.4876
▁impressed	-10.4881
▁dish	-10.4881
▁dining	-10.4881
▁fond	-10.4884
▁tackle	-10.4884
▁wins	-10.489
▁skull	-10.4893
▁warrior	-10.4895
▁vampire	-10.4895
▁pissed	-10.4903
▁lit	-10.4906
▁louder	-10.4915
▁stall	-10.4919
▁when	-10.4924
▁engineer	-10.4929
▁hay	-10.4932
▁warned	-10.4932
▁iive	-10.4941
cha	-10.4941
ken	-10.4943
▁privilege	-10.4949
▁climbing	-10.4957
▁pr	-10.4965
▁pond	-10.4971
▁pod	-10.4989
▁shi	-10.499
chi	-10.4992
▁jokes	-10.5002
▁leads	-10.5017
▁mob	-10.5023
bar	-10.5028
▁idiots	-10.5043
mu	-10.5044
▁sn	-10.5055
book	-10.5062
board	-10.5063
▁painful	-10.5063
▁dash	-10.5065
q	-10.507
▁bent	-10.5072
ically	-10.5076
ax	-10.5078
▁india	-10.5079
▁hoped	-10.5086
▁musical	-10.5088
▁heb	-10.5097
▁teachers	-10.5097
▁runnin	-10.5098
▁capital	-10.5098
▁nate	-10.5099
hoo	-10.5099
▁education	-10.5099
▁darius	-10.5103
▁dauntless	-10.5103
▁distant	-10.5103
▁mexico	-10.5103
▁patricia	-10.5103
▁poppins	-10.5103
▁reputation	-10.5103
▁ritchie	-10.5103
▁steak	-10.5103
▁technology	-10.5103
▁gym	-10.5103
▁slipped	-10.5103
▁fifth	-10.5103
▁russell	-10.5103
▁online	-10.5104
▁theory	-10.5104
▁display	-10.5104
▁aircraft	-10.5104
▁flush	-10.5104
▁begging	-10.5105
▁actress	-10.5105
▁iove	-10.5105
▁maddy	-10.5106
▁foolish	-10.5107
▁narrat	-10.5107
▁meow	-10.5108
▁sunny	-10.5108
▁lightning	-10.5108
▁drill	-10.5109
▁anne	-10.511
▁layne	-10.511
▁stream	-10.5111
▁ability	-10.5114
▁worthless	-10.5114
▁bail	-10.5115
▁limit	-10.5115
ium	-10.5118
▁angeles	-10.512
▁ella	-10.5121
▁fay	-10.513
▁meowing	-10.5138
▁tent	-10.5139
▁clown	-10.5142
▁released	-10.5142
▁victoria	-10.5144
▁clouds	-10.5151
▁cable	-10.5151
ps	-10.5152
▁lang	-10.5152
▁palm	-10.5156
▁cookie	-10.5162
▁weed	-10.5163
▁chuckle	-10.5165
ude	-10.5168
▁jesse	-10.5169
▁bella	-10.5174
▁hij	-10.518
▁delivered	-10.5181
▁drinks	-10.5188
▁my	-10.5189
▁hu	-10.5191
▁lib	-10.5194
▁indians	-10.5202
▁ti	-10.5203
▁rev	-10.5208
▁disco	-10.5211
▁hum	-10.5212
▁tracks	-10.5213
▁tastes	-10.5217
▁walks	-10.5221
▁crossed	-10.5221
▁dans	-10.5222
▁dang	-10.5224
▁li	-10.5225
▁runt	-10.5234
▁iii	-10.5244
▁costs	-10.5258
je	-10.5262
▁mor	-10.5263
▁knights	-10.5265
▁cu	-10.5266
tro	-10.527
▁will	-10.5295
ak	-10.5296
room	-10.5312
▁aid	-10.5318
▁blond	-10.5323
▁repair	-10.5325
▁comp	-10.5328
▁nails	-10.533
▁pushing	-10.5332
▁conduct	-10.5335
▁mee	-10.5343
▁confess	-10.5343
▁bough	-10.5345
▁tomato	-10.5348
▁brush	-10.5348
▁darlin	-10.5349
▁joan	-10.5353
▁balboa	-10.5353
▁facility	-10.5353
▁meanwhile	-10.5353
▁pacific	-10.5353
▁peopie	-10.5353
▁rehearsal	-10.5353
▁solution	-10.5353
▁plastic	-10.5353
▁purple	-10.5353
▁sweep	-10.5353
▁piggy	-10.5353
▁deaf	-10.5353
▁western	-10.5353
▁instance	-10.5353
▁referee	-10.5354
▁shani	-10.5354
▁frozen	-10.5355
▁swamp	-10.5355
▁chug	-10.5356
▁intention	-10.5358
▁pace	-10.5359
▁jury	-10.536
▁mais	-10.5362
▁rode	-10.5363
▁jill	-10.5365
▁arranged	-10.5365
▁commissioner	-10.5367
▁bald	-10.5378
▁herb	-10.5378
ward	-10.5385
▁highest	-10.5385
qui	-10.5387
▁agents	-10.539
▁lifetime	-10.539
▁parties	-10.5394
▁magazine	-10.5399
▁hits	-10.5401
▁candle	-10.5401
▁colors	-10.5403
▁skill	-10.5404
▁gig	-10.5415
▁facts	-10.542
od	-10.542
▁comb	-10.5421
▁nap	-10.5424
▁brian	-10.5434
▁ei	-10.5444
▁frankly	-10.5447
▁spells	-10.5451
▁sire	-10.5457
▁sm	-10.5459
▁halt	-10.5462
▁freaking	-10.547
▁flora	-10.5497
like	-10.5497
▁pest	-10.5501
▁and	-10.551
▁site	-10.5514
bit	-10.5529
▁kin	-10.5561
▁boot	-10.5563
let	-10.5567
zi	-10.5569
▁sweets	-10.5573
▁inform	-10.5577
▁cows	-10.5582
▁emma	-10.5584
▁slap	-10.5588
▁sting	-10.5592
▁photograph	-10.5595
▁cleaned	-10.5597
▁recommend	-10.5604
▁visual	-10.561
▁benefit	-10.561
▁buffalo	-10.561
▁choir	-10.561
▁disgrace	-10.561
▁disguise	-10.561
▁montana	-10.561
▁prophecy	-10.561
▁slice	-10.561
▁smoking	-10.561
▁symbol	-10.561
▁telegram	-10.561
▁tragedy	-10.561
▁wickens	-10.561
▁deuce	-10.561
▁lambert	-10.561
▁larry	-10.561
▁bureau	-10.561
▁reverend	-10.561
▁sacred	-10.561
▁reaiiy	-10.561
▁eternal	-10.561
▁sunset	-10.561
▁greet	-10.561
▁humble	-10.561
▁hissing	-10.561
▁edward	-10.561
▁honour	-10.561
▁luke	-10.5611
▁stack	-10.5611
▁burst	-10.5611
▁carriage	-10.5611
▁rogo	-10.5612
▁soda	-10.5612
▁gut	-10.5612
▁bucket	-10.5612
▁draft	-10.5613
▁jiji	-10.5613
▁bible	-10.5614
▁potion	-10.5615
▁roman	-10.5615
▁mal	-10.5615
▁dna	-10.5617
▁mash	-10.5619
▁statement	-10.562
▁convinced	-10.5626
▁billion	-10.5629
▁captured	-10.5631
▁stones	-10.5631
▁fried	-10.5632
▁thoughts	-10.5632
▁chop	-10.5638
▁gem	-10.5639
▁host	-10.5641
▁steven	-10.5642
▁stra	-10.5648
▁bark	-10.5659
▁introduced	-10.5661
▁cigarette	-10.5663
▁debt	-10.5671
▁laser	-10.5671
▁kindness	-10.5672
iest	-10.5677
▁carter	-10.5678
▁hebrews	-10.569
▁honks	-10.569
▁ali	-10.5699
car	-10.5701
▁armor	-10.5715
▁rank	-10.5724
▁plants	-10.5739
▁manners	-10.574
▁nd	-10.5748
▁washed	-10.5748
▁savages	-10.5751
mate	-10.5755
▁wayne	-10.5763
▁bothering	-10.5768
▁pru	-10.5769
▁rein	-10.5774
▁tr	-10.5776
▁enjoyed	-10.5797
▁elm	-10.5805
▁hack	-10.5806
▁drown	-10.5809
▁banging	-10.5818
▁comrades	-10.5818
▁lap	-10.5821
▁forty	-10.584
▁speaker	-10.5843
box	-10.5845
▁award	-10.5848
▁surf	-10.5854
▁convince	-10.5855
▁replace	-10.5856
▁hip	-10.5857
▁squeeze	-10.5863
▁rome	-10.5868
▁background	-10.5873
▁district	-10.5873
▁empire	-10.5873
▁explanation	-10.5873
▁glorious	-10.5873
▁jersey	-10.5873
▁jonathan	-10.5873
▁relief	-10.5873
▁valiant	-10.5873
▁wadsworth	-10.5873
▁wisdom	-10.5873
▁keller	-10.5873
▁oath	-10.5873
▁kansas	-10.5873
▁rubber	-10.5873
▁beatrix	-10.5873
▁boddy	-10.5873
▁allnut	-10.5873
▁puppy	-10.5873
▁tsar	-10.5873
▁underwater	-10.5873
▁stroke	-10.5873
▁granger	-10.5873
▁donna	-10.5873
▁nuys	-10.5873
▁item	-10.5873
▁hyah	-10.5874
▁backwards	-10.5874
▁collar	-10.5874
▁pumpkin	-10.5874
▁viva	-10.5874
▁punishment	-10.5874
▁shining	-10.5874
▁possession	-10.5874
▁injured	-10.5875
▁shelter	-10.5875
▁shaking	-10.5875
▁spiderman	-10.5876
▁cells	-10.5879
▁squawking	-10.588
▁wat	-10.5882
▁highway	-10.5883
ral	-10.5883
▁parent	-10.5885
▁nickel	-10.5885
▁daylight	-10.5887
▁battery	-10.5888
▁annoying	-10.589
▁itch	-10.5893
▁ace	-10.5905
▁tickle	-10.5907
▁andre	-10.5909
▁crystal	-10.5918
ture	-10.5925
▁banana	-10.5933
▁pirate	-10.5935
▁sweater	-10.5947
▁corpse	-10.5949
▁cons	-10.5951
▁joint	-10.5951
bb	-10.5954
ew	-10.5956
▁cha	-10.5957
▁tits	-10.5964
▁accepted	-10.5971
ini	-10.5981
▁quietly	-10.5984
▁prayer	-10.5985
▁messages	-10.5987
▁angels	-10.5989
▁houses	-10.599
fa	-10.5995
▁equal	-10.5998
▁om	-10.6019
▁services	-10.6026
▁prom	-10.6039
▁customers	-10.6043
▁monkeys	-10.6052
▁wit	-10.6053
▁offering	-10.6059
▁dings	-10.606
▁daddys	-10.6064
▁farmers	-10.6066
ett	-10.6068
▁ph	-10.607
▁bin	-10.6078
▁damned	-10.6095
▁breaks	-10.6095
▁kicking	-10.61
▁tag	-10.6105
▁delay	-10.6115
▁bills	-10.6115
▁gin	-10.6125
▁rap	-10.6125
▁shave	-10.6127
▁frogs	-10.6136
▁mamma	-10.6139
▁eleanor	-10.6143
▁invasion	-10.6143
▁liberty	-10.6143
▁lydia	-10.6143
▁metaphor	-10.6143
▁moscow	-10.6143
▁nephew	-10.6143
▁northbrook	-10.6143
▁patience	-10.6143
▁satellite	-10.6143
▁scientific	-10.6143
▁clamoring	-10.6143
▁creation	-10.6143
▁niece	-10.6143
▁profit	-10.6143
▁addition	-10.6143
▁kidnapping	-10.6143
▁protest	-10.6143
▁reception	-10.6143
▁stammers	-10.6143
▁behold	-10.6144
▁chaos	-10.6144
▁angle	-10.6144
▁moonlight	-10.6144
▁possibility	-10.6145
▁christs	-10.6145
▁childhood	-10.6145
▁electricity	-10.6145
▁therapy	-10.6146
▁freddy	-10.6146
▁sox	-10.6146
▁humor	-10.6146
▁gently	-10.6147
▁grownup	-10.6147
▁lame	-10.6148
▁expression	-10.6148
▁dj	-10.6148
▁owns	-10.6149
▁relieved	-10.615
▁grandson	-10.615
▁scan	-10.6151
▁spies	-10.6151
▁genetic	-10.6151
▁madness	-10.6155
▁mmmm	-10.6155
port	-10.6157
▁norman	-10.6163
▁computers	-10.6164
▁ballet	-10.6164
▁abandoned	-10.6165
▁kane	-10.6165
▁beam	-10.6166
▁photos	-10.6166
ang	-10.6174
▁tri	-10.6175
▁bitter	-10.6177
▁grunt	-10.6178
▁sid	-10.6179
dr	-10.618
▁za	-10.618
▁confirmed	-10.6183
▁oughta	-10.6192
▁normally	-10.6202
▁toot	-10.6207
▁cowboy	-10.621
▁recipe	-10.6212
▁bert	-10.6214
▁degree	-10.6215
▁weep	-10.6218
▁detail	-10.6219
▁dam	-10.6223
▁pla	-10.6232
▁bean	-10.6234
▁vol	-10.6246
▁deed	-10.6252
▁affect	-10.6252
▁charged	-10.6253
ft	-10.6255
▁tire	-10.6268
ku	-10.6269
▁tanks	-10.6271
▁temper	-10.6274
▁worthy	-10.628
▁ay	-10.628
▁bel	-10.6285
▁beard	-10.6297
▁jellicles	-10.6299
▁hawks	-10.6305
▁penguins	-10.6311
▁spirits	-10.6311
▁fools	-10.6333
▁corps	-10.6341
▁pages	-10.6344
▁barks	-10.6363
▁fianc	-10.6364
▁weigh	-10.6367
▁prayers	-10.637
▁sides	-10.6372
▁toi	-10.6374
▁discover	-10.6377
▁cookies	-10.6385
▁seed	-10.6389
load	-10.6391
▁guilt	-10.6404
▁successful	-10.6413
▁results	-10.6415
▁transport	-10.6418
▁virgin	-10.642
▁joseph	-10.642
▁confident	-10.642
▁academy	-10.6421
▁donald	-10.6421
▁fascinating	-10.6421
▁harvest	-10.6421
▁jemima	-10.6421
▁laundry	-10.6421
▁shrink	-10.6421
▁unknown	-10.6421
▁wrestling	-10.6421
▁houston	-10.6421
▁snoring	-10.6421
▁ceiling	-10.6421
▁hustle	-10.6421
▁varsity	-10.6421
▁carpet	-10.6421
▁television	-10.6421
▁statue	-10.6421
▁cried	-10.6421
▁buttermaker	-10.6422
▁woodward	-10.6422
▁arrival	-10.6422
▁delta	-10.6422
▁digging	-10.6422
ei	-10.6422
▁youth	-10.6422
▁fanny	-10.6423
▁satisfied	-10.6423
▁stalk	-10.6423
▁puck	-10.6423
▁development	-10.6423
▁skinny	-10.6423
▁attic	-10.6423
▁lori	-10.6424
▁ridge	-10.6426
▁arguing	-10.6427
▁franklin	-10.6427
▁sixty	-10.6427
▁monk	-10.643
▁passage	-10.643
▁rex	-10.6432
▁toss	-10.6432
▁freeway	-10.6433
▁bigfoot	-10.6434
▁lump	-10.6434
▁nomi	-10.6437
▁worrying	-10.6437
▁classic	-10.6439
▁champions	-10.6439
▁cube	-10.644
▁hal	-10.6441
▁parade	-10.6443
▁define	-10.6445
▁bess	-10.6446
▁goodnight	-10.6451
▁pickup	-10.6453
ative	-10.6462
▁squawks	-10.6466
▁fame	-10.6468
▁prey	-10.6473
▁ringo	-10.648
▁slipper	-10.648
▁easter	-10.6483
istic	-10.6488
▁ants	-10.6488
▁shoo	-10.649
▁affair	-10.6497
▁shoulders	-10.6498
▁heel	-10.6499
▁ages	-10.651
▁workin	-10.6514
hh	-10.6517
▁partners	-10.6522
▁sore	-10.6527
▁uniforms	-10.6534
ress	-10.6551
▁wil	-10.6559
maker	-10.6559
▁flu	-10.6564
itation	-10.6578
▁unh	-10.6584
▁trains	-10.6585
▁gloves	-10.6586
▁hoo	-10.6597
zy	-10.6604
▁fl	-10.6608
▁hog	-10.6615
▁boil	-10.6617
▁events	-10.6619
ight	-10.6629
▁buttons	-10.6632
▁recipes	-10.6634
foot	-10.6635
rd	-10.6636
gs	-10.6642
▁regard	-10.6655
▁psycho	-10.6661
▁proceed	-10.6671
▁brief	-10.6673
ney	-10.6679
▁mount	-10.6679
▁ultimate	-10.6695
▁eve	-10.6695
▁mornin	-10.6701
▁movin	-10.6701
▁ox	-10.6706
▁afterwards	-10.6706
▁ambulance	-10.6706
▁appropriate	-10.6706
▁aurora	-10.6706
▁avenue	-10.6706
▁enormous	-10.6706
▁excitement	-10.6706
▁galaxy	-10.6706
▁happily	-10.6706
▁jacob	-10.6706
▁kelso	-10.6706
▁kincaid	-10.6706
▁librarian	-10.6706
▁necklace	-10.6706
▁pembroke	-10.6706
▁picnic	-10.6706
▁rachel	-10.6706
▁remote	-10.6706
▁supreme	-10.6706
▁tentacular	-10.6706
▁tokyo	-10.6706
▁violin	-10.6706
▁charity	-10.6706
▁monroe	-10.6706
▁reject	-10.6707
▁chemical	-10.6707
▁havin	-10.6707
▁clark	-10.6707
▁wives	-10.6707
▁abort	-10.6707
▁entrance	-10.6707
▁decade	-10.6707
▁widow	-10.6707
▁believing	-10.6707
▁cherry	-10.6707
▁pillow	-10.6707
▁thrust	-10.6707
▁wiii	-10.6707
▁jomo	-10.6708
▁upper	-10.6708
▁radar	-10.6708
▁existence	-10.6708
▁heather	-10.6708
▁severe	-10.6708
▁patou	-10.6708
▁status	-10.6708
▁subway	-10.6708
▁robinson	-10.6708
▁technically	-10.6712
▁determined	-10.6712
▁minion	-10.6712
▁oak	-10.6713
▁booth	-10.6714
▁brad	-10.6714
▁counts	-10.6715
▁adore	-10.6716
▁tries	-10.6716
▁conditions	-10.6716
▁confession	-10.6718
▁plug	-10.6718
▁taik	-10.672
▁pawn	-10.672
ani	-10.6724
▁threatened	-10.6725
▁indiana	-10.6727
▁howling	-10.6727
▁particularly	-10.6728
▁directly	-10.6732
▁vest	-10.6739
▁nailed	-10.6742
▁cora	-10.6745
▁wished	-10.675
▁boxes	-10.6751
▁earned	-10.6755
▁yea	-10.6756
▁sim	-10.6788
▁document	-10.6792
▁cheek	-10.6793
▁cor	-10.6803
▁worm	-10.6803
▁fade	-10.6807
▁kissing	-10.681
▁wally	-10.6812
▁actor	-10.6815
▁ducky	-10.6817
▁blessing	-10.6819
▁sharks	-10.6823
sta	-10.6823
▁gates	-10.6827
▁dit	-10.6829
▁it	-10.6841
▁mag	-10.6842
eat	-10.6845
▁marks	-10.6848
▁snakes	-10.6848
▁zo	-10.6849
lon	-10.6855
nk	-10.6862
▁visiting	-10.6885
▁machines	-10.6927
▁frighten	-10.694
low	-10.6955
▁flap	-10.6959
▁succeed	-10.6972
▁thrill	-10.6973
▁becomes	-10.6974
▁ban	-10.6979
▁struggle	-10.6983
▁duran	-10.6987
▁batter	-10.699
▁cleaner	-10.6991
▁ski	-10.6992
lli	-10.6992
▁superhero	-10.6995
▁patients	-10.6996
▁makin	-10.6998
▁addict	-10.6998
▁illusion	-10.6998
▁permit	-10.7
▁anxious	-10.7001
▁apologies	-10.7001
▁azrael	-10.7001
▁beezus	-10.7001
▁cackling	-10.7001
▁daphne	-10.7001
▁destruction	-10.7001
▁dungeon	-10.7001
▁emerald	-10.7001
▁enterprise	-10.7001
▁fischoeder	-10.7001
▁knives	-10.7001
▁minnesota	-10.7001
▁politics	-10.7001
▁roosevelt	-10.7001
▁shouid	-10.7001
▁splash	-10.7001
▁supplies	-10.7001
▁vodka	-10.7001
▁stahr	-10.7001
▁utah	-10.7001
▁wrapped	-10.7001
▁daisy	-10.7001
▁stubborn	-10.7001
▁opposite	-10.7001
▁terrified	-10.7001
▁tragic	-10.7001
▁smack	-10.7001
▁phase	-10.7001
▁drank	-10.7001
▁blend	-10.7001
▁jenny	-10.7001
▁diane	-10.7001
▁twitch	-10.7001
▁appearance	-10.7002
▁argh	-10.7002
▁dutch	-10.7002
▁shotgun	-10.7002
▁romance	-10.7002
▁media	-10.7002
▁personnel	-10.7002
▁journalist	-10.7003
▁finch	-10.7004
▁dedicated	-10.7007
▁cries	-10.7007
▁portal	-10.7009
▁kable	-10.7011
▁beak	-10.7013
▁poster	-10.7014
▁ru	-10.7015
▁campus	-10.7018
▁mortal	-10.7019
▁backyard	-10.7019
▁stray	-10.7021
▁coma	-10.7024
▁stinks	-10.7024
▁mechanical	-10.7026
▁bass	-10.7026
▁straining	-10.7029
▁mill	-10.7043
▁surprises	-10.7053
▁yah	-10.7056
wee	-10.7056
▁borg	-10.7058
▁survived	-10.7061
▁talented	-10.7061
▁fellows	-10.7073
▁stare	-10.7074
▁min	-10.7084
▁towel	-10.7094
▁brake	-10.7096
rn	-10.7097
▁positions	-10.7098
▁tales	-10.7099
▁av	-10.71
▁searched	-10.7112
ville	-10.7114
▁iet	-10.7118
omp	-10.7127
mar	-10.7129
old	-10.7139
▁reminds	-10.7148
▁vo	-10.7159
▁systems	-10.7164
ik	-10.7164
▁fucker	-10.7169
▁ind	-10.7175
▁publish	-10.7176
▁twins	-10.7189
▁recording	-10.7194
▁complain	-10.7209
▁drivers	-10.7212
ties	-10.7224
▁disturb	-10.7239
▁reported	-10.7239
▁hairy	-10.7254
▁joey	-10.7255
▁fee	-10.7258
face	-10.7261
▁chris	-10.7272
▁punish	-10.7274
▁remains	-10.7276
▁requires	-10.7288
▁incredibl	-10.7292
▁absolute	-10.7293
▁grove	-10.7293
▁capture	-10.7293
▁describe	-10.7293
▁counsel	-10.7301
pro	-10.7302
▁awkward	-10.7304
▁edmund	-10.7304
▁geoffrey	-10.7304
▁haldeman	-10.7304
▁length	-10.7304
▁liquid	-10.7304
▁macavity	-10.7304
▁nigger	-10.7304
▁resort	-10.7304
▁ritual	-10.7304
▁scarecrow	-10.7304
▁struck	-10.7304
▁tiktok	-10.7304
▁trevor	-10.7304
▁volcano	-10.7304
▁whinnying	-10.7304
▁aziz	-10.7304
▁evelyn	-10.7304
▁typical	-10.7304
▁depth	-10.7304
▁racing	-10.7304
▁trophy	-10.7304
▁studied	-10.7304
▁sydney	-10.7304
▁behalf	-10.7304
▁denied	-10.7304
▁lunatic	-10.7304
▁downtown	-10.7304
▁psst	-10.7304
▁wheat	-10.7304
▁influence	-10.7304
▁greetings	-10.7304
▁saddle	-10.7305
▁combat	-10.7305
▁error	-10.7306
▁voor	-10.7306
▁leap	-10.7307
▁reaction	-10.7307
▁dork	-10.7307
▁cities	-10.7308
▁begun	-10.7308
▁ditch	-10.7309
▁soviet	-10.731
▁benny	-10.7311
▁skies	-10.7311
▁salad	-10.7312
▁chirping	-10.7312
▁inspired	-10.7312
▁feei	-10.7313
▁sandwiches	-10.7315
▁doomed	-10.7317
▁frances	-10.7318
▁barry	-10.7321
▁forgetting	-10.7327
▁officially	-10.7329
▁rage	-10.733
▁electronic	-10.733
▁thrilled	-10.7333
▁poop	-10.7337
gle	-10.7338
▁hans	-10.734
▁delighted	-10.7352
▁acres	-10.7353
▁ki	-10.7354
tend	-10.7355
▁flame	-10.7366
▁hooker	-10.7368
▁peaceful	-10.7369
▁blown	-10.7371
▁glo	-10.7382
▁deserves	-10.7383
▁bare	-10.7392
▁miracles	-10.7395
ification	-10.7396
▁liver	-10.7399
▁spa	-10.7401
▁crocodile	-10.7404
▁thud	-10.741
ord	-10.7414
▁hy	-10.7419
int	-10.7426
▁brainy	-10.7427
▁whi	-10.7428
▁lin	-10.7435
▁engines	-10.7449
▁cul	-10.7463
▁safely	-10.7467
▁smaller	-10.747
▁paws	-10.7478
▁farmer	-10.7481
▁immortals	-10.749
▁catching	-10.7493
▁beasts	-10.7498
▁ohhh	-10.7507
▁dom	-10.7517
▁pies	-10.7522
tte	-10.7525
▁feelin	-10.753
▁laws	-10.7552
▁norm	-10.7556
▁respond	-10.758
place	-10.7582
▁announce	-10.7587
▁gra	-10.7588
free	-10.7589
▁dolphins	-10.759
print	-10.7591
▁increase	-10.7598
▁custom	-10.7599
▁turbo	-10.7601
▁instant	-10.7605
ake	-10.7605
▁leonard	-10.7609
▁answered	-10.7614
▁civil	-10.7615
▁stunt	-10.7615
▁drama	-10.7615
▁adjust	-10.7616
▁atlanta	-10.7616
▁aviation	-10.7616
▁barbara	-10.7616
▁bernstein	-10.7616
▁conclusion	-10.7616
▁custody	-10.7616
▁demonstration	-10.7616
▁excellency	-10.7616
▁fantasy	-10.7616
▁function	-10.7616
▁gibberish	-10.7616
▁happier	-10.7616
▁hubbell	-10.7616
▁kapitein	-10.7616
▁leonidas	-10.7616
▁penalty	-10.7616
▁practicing	-10.7616
▁semester	-10.7616
▁voyage	-10.7616
▁circuit	-10.7616
▁clyde	-10.7616
▁daily	-10.7616
▁breeze	-10.7616
▁shaolin	-10.7616
▁burden	-10.7616
▁argument	-10.7616
▁supply	-10.7616
▁heavyweight	-10.7617
▁chubby	-10.7617
▁fortress	-10.7617
▁abraham	-10.7617
▁spray	-10.7617
▁interrogation	-10.7617
▁rag	-10.7617
▁thisll	-10.7617
▁donnie	-10.7617
▁ripley	-10.7617
▁series	-10.7617
▁slot	-10.7617
▁hesitate	-10.7618
▁acid	-10.7618
▁groom	-10.7619
▁bombay	-10.7619
▁starving	-10.7619
▁hooch	-10.7619
▁hush	-10.762
▁copper	-10.762
▁diary	-10.762
▁robbery	-10.7621
▁commandant	-10.7622
▁suggestion	-10.7624
▁agreement	-10.7625
▁gator	-10.7625
ste	-10.7625
▁bait	-10.7626
▁fries	-10.7628
▁joining	-10.7628
▁marie	-10.763
▁vast	-10.763
▁endure	-10.7639
homme	-10.7639
▁sole	-10.7642
▁kiddo	-10.7642
▁stuffed	-10.7651
▁lana	-10.7657
ppy	-10.7658
▁drowning	-10.7658
▁dope	-10.767
▁chased	-10.7671
▁suffered	-10.7684
▁impress	-10.7684
▁howdy	-10.7698
▁tes	-10.7707
▁objects	-10.7711
▁pretending	-10.7716
▁dime	-10.7717
▁owls	-10.7721
▁writers	-10.7727
▁barrel	-10.7728
▁wanting	-10.773
▁sings	-10.773
▁where	-10.7732
▁citizen	-10.7732
▁martini	-10.7735
▁moral	-10.7741
▁entering	-10.7742
ray	-10.7743
▁wars	-10.7744
ical	-10.7752
▁imagined	-10.7756
▁whoops	-10.7756
▁servants	-10.7763
▁praying	-10.7771
und	-10.7772
▁ranger	-10.7782
▁boats	-10.7785
light	-10.7839
▁honored	-10.7843
gu	-10.7847
▁tess	-10.7851
▁plates	-10.7852
▁tot	-10.7862
▁actions	-10.7864
lle	-10.7868
▁pope	-10.7869
more	-10.7869
▁grounded	-10.7871
pped	-10.7872
pitched	-10.7878
eyed	-10.7881
▁mist	-10.7889
▁reporters	-10.7892
▁needle	-10.7898
▁lean	-10.7916
▁achieve	-10.7919
▁fart	-10.7919
▁frame	-10.7921
▁sw	-10.7921
▁dressing	-10.7923
▁eu	-10.7924
▁nana	-10.7925
▁slight	-10.7928
▁poll	-10.7931
▁branch	-10.7933
▁placed	-10.7934
▁dodge	-10.7937
▁automatic	-10.7938
▁aculos	-10.7939
▁anniversary	-10.7939
▁auction	-10.7939
▁cemetery	-10.7939
▁davenport	-10.7939
▁discipline	-10.7939
▁kirk	-10.7939
▁madiba	-10.7939
▁mississippi	-10.7939
▁neighing	-10.7939
▁pronounce	-10.7939
▁sequence	-10.7939
▁submarine	-10.7939
▁suitcase	-10.7939
▁survival	-10.7939
▁tremendous	-10.7939
▁vacuum	-10.7939
▁whitaker	-10.7939
▁aaron	-10.7939
▁crunch	-10.7939
▁daffy	-10.7939
▁incoming	-10.7939
▁cease	-10.7939
▁herbert	-10.7939
▁method	-10.7939
▁whinnies	-10.7939
▁freezing	-10.7939
▁claude	-10.7939
▁zijn	-10.7939
▁puzzle	-10.7939
▁drain	-10.7939
▁gregory	-10.7939
▁beria	-10.7939
▁involve	-10.794
▁bidding	-10.794
▁sector	-10.794
▁pimp	-10.794
▁wander	-10.794
▁comic	-10.794
▁passionate	-10.794
▁curt	-10.794
▁kidnap	-10.7941
▁celebrating	-10.7941
▁feck	-10.7941
▁bold	-10.7941
▁berlin	-10.7942
▁broad	-10.7942
▁litter	-10.7943
▁centre	-10.7944
▁arr	-10.7944
▁raw	-10.7946
▁beamen	-10.7946
▁goose	-10.7946
▁dice	-10.7947
▁discussion	-10.7947
▁radical	-10.7947
▁ap	-10.795
▁offended	-10.795
▁fern	-10.7954
▁tech	-10.7955
▁explorer	-10.7959
▁echoing	-10.7959
▁trailer	-10.7965
▁humanity	-10.7967
▁faction	-10.7969
▁thus	-10.7969
▁mustard	-10.7972
▁removed	-10.7973
▁bully	-10.7974
▁divorced	-10.7974
itt	-10.7977
▁oni	-10.7978
▁rosen	-10.7979
▁mona	-10.7984
▁arab	-10.7988
▁ji	-10.7988
▁tests	-10.7989
▁cameras	-10.7993
▁cue	-10.7997
▁petey	-10.7998
▁loudly	-10.7999
▁lane	-10.8001
hole	-10.8001
cher	-10.8009
▁plum	-10.8015
lan	-10.8016
ites	-10.8017
▁faire	-10.804
▁dim	-10.8041
▁entered	-10.8042
▁cord	-10.8046
▁rem	-10.8057
ef	-10.8057
▁marian	-10.8059
▁twin	-10.806
▁muscle	-10.8062
▁medal	-10.8067
▁customer	-10.8078
▁auto	-10.8081
play	-10.809
▁git	-10.8092
▁demons	-10.8092
▁joker	-10.8093
reak	-10.81
▁feeding	-10.8104
▁hunter	-10.8116
▁fist	-10.8127
▁lev	-10.814
▁timeout	-10.8172
▁finance	-10.8172
▁heels	-10.8181
moi	-10.8185
▁pirates	-10.8194
▁finds	-10.8198
▁embarrass	-10.8207
▁skills	-10.8209
gan	-10.8225
▁laz	-10.8234
▁bleed	-10.8237
▁on	-10.8248
gged	-10.825
▁commission	-10.8254
▁chicks	-10.8259
▁shown	-10.8261
▁fog	-10.827
▁trans	-10.827
▁interfere	-10.8272
▁liquor	-10.8272
▁arnold	-10.8272
▁blunden	-10.8272
▁centipede	-10.8272
▁cramp	-10.8272
▁earthquake	-10.8272
▁embassy	-10.8272
▁inspiration	-10.8272
▁mammoth	-10.8272
▁oxygen	-10.8272
▁pakistan	-10.8272
▁pursuit	-10.8272
▁slaughter	-10.8272
▁stanwyk	-10.8272
▁tournament	-10.8272
▁vegetarian	-10.8272
▁yvette	-10.8272
▁polish	-10.8272
▁preserve	-10.8272
▁senate	-10.8272
▁serving	-10.8272
▁sloan	-10.8272
▁stammering	-10.8272
▁stereo	-10.8272
▁ankle	-10.8272
▁indicate	-10.8272
▁polar	-10.8272
▁appeal	-10.8272
▁forfeit	-10.8272
▁taeko	-10.8272
▁nokes	-10.8272
▁odette	-10.8272
▁autograph	-10.8272
▁skirt	-10.8272
▁sorrow	-10.8272
▁celebration	-10.8272
▁muttering	-10.8272
▁lonnie	-10.8272
▁suspicious	-10.8272
▁mistress	-10.8272
▁latin	-10.8272
▁phones	-10.8272
▁eleven	-10.8272
▁shane	-10.8273
▁toula	-10.8273
▁fierce	-10.8273
▁wiz	-10.8273
▁slipping	-10.8273
▁bingo	-10.8273
▁bugger	-10.8274
▁grail	-10.8274
▁shade	-10.8274
▁vicious	-10.8274
▁tissue	-10.8274
▁stepford	-10.8275
ora	-10.8275
▁jelly	-10.8275
▁remarkable	-10.8275
▁barley	-10.8276
▁belief	-10.8276
▁patton	-10.8276
▁owned	-10.8277
▁temporary	-10.8277
▁tanner	-10.8277
▁jaw	-10.8278
▁amongst	-10.828
▁allies	-10.828
▁tib	-10.8281
▁cera	-10.8283
wo	-10.8283
▁stine	-10.8283
▁slightly	-10.8284
▁julian	-10.8291
▁wholl	-10.8292
▁remy	-10.8293
▁cousins	-10.8295
▁replaced	-10.8298
▁ned	-10.8302
▁warne	-10.8303
▁lily	-10.8304
▁sixth	-10.8304
▁fastest	-10.8306
▁kinds	-10.8307
▁marion	-10.8314
tail	-10.8315
▁hike	-10.832
▁tender	-10.8324
▁sincere	-10.8334
ric	-10.8334
vis	-10.8335
▁abuse	-10.8337
▁robe	-10.8338
▁williams	-10.8341
▁passes	-10.8344
▁carrie	-10.8348
▁granted	-10.8349
▁asses	-10.8352
▁gel	-10.836
▁dinosaurs	-10.8362
ker	-10.8369
▁fait	-10.837
▁lil	-10.837
▁jen	-10.8373
▁colored	-10.8374
▁und	-10.8377
▁sobs	-10.8387
▁invade	-10.8387
▁sucking	-10.8395
▁pier	-10.8406
▁immortal	-10.8409
▁safer	-10.8414
▁gi	-10.8427
▁orchestra	-10.8443
▁jews	-10.8465
▁exception	-10.8469
res	-10.8476
▁comm	-10.8483
▁formal	-10.8484
▁stays	-10.8485
▁prepar	-10.8489
lam	-10.8498
▁y	-10.8508
▁bombing	-10.8509
▁mini	-10.8509
ung	-10.8513
▁laughed	-10.8516
▁pup	-10.8522
▁affairs	-10.8523
but	-10.8547
▁gag	-10.855
▁pur	-10.8552
pen	-10.8561
▁invent	-10.8562
▁lone	-10.8564
▁wah	-10.8564
▁areas	-10.8565
row	-10.8574
cle	-10.8576
▁profession	-10.8578
▁rabbits	-10.8579
▁produce	-10.8584
bie	-10.8586
girl	-10.8587
▁belle	-10.8587
▁abandon	-10.8589
▁retire	-10.8598
▁fletch	-10.8603
▁permanent	-10.8605
▁immediate	-10.8606
▁fold	-10.8606
▁convent	-10.8608
▁feathers	-10.861
▁hawaii	-10.8614
▁conquer	-10.8614
▁occur	-10.8616
▁alphonse	-10.8617
▁ambassador	-10.8617
▁amelia	-10.8617
▁barbecue	-10.8617
▁battalion	-10.8617
▁casino	-10.8617
▁combination	-10.8617
▁companion	-10.8617
▁dessert	-10.8617
▁essential	-10.8617
▁evacuate	-10.8617
▁gravity	-10.8617
▁huddle	-10.8617
▁initial	-10.8617
▁institution	-10.8617
▁jonah	-10.8617
▁lerigot	-10.8617
▁nelson	-10.8617
▁specimen	-10.8617
▁sullivan	-10.8617
▁surgery	-10.8617
▁threadgoode	-10.8617
▁bargain	-10.8617
▁bernie	-10.8617
▁madison	-10.8617
▁rattling	-10.8617
▁fulton	-10.8617
▁robbed	-10.8617
▁largo	-10.8617
▁sharing	-10.8617
▁facing	-10.8617
▁sauvage	-10.8617
▁dracula	-10.8617
▁hazel	-10.8617
▁reservation	-10.8617
▁elsie	-10.8617
▁phillip	-10.8617
▁orbit	-10.8617
▁compete	-10.8617
▁organization	-10.8618
▁kitten	-10.8618
▁network	-10.8618
▁critical	-10.8618
▁soap	-10.8618
▁committed	-10.8618
▁diving	-10.8619
▁association	-10.8619
▁leadership	-10.8619
▁announcement	-10.8619
▁wack	-10.8619
▁whatre	-10.8619
▁invention	-10.8619
▁glue	-10.8619
▁bonnet	-10.862
▁portia	-10.862
▁delightful	-10.862
▁potts	-10.862
▁potatoes	-10.8621
▁manual	-10.8621
▁keen	-10.8623
▁jeep	-10.8623
▁misery	-10.8623
▁spotted	-10.8624
▁jimbo	-10.8624
▁satan	-10.8624
▁programmed	-10.8625
▁dishes	-10.8625
▁strictly	-10.8627
▁chairman	-10.8629
▁personality	-10.8629
▁halfway	-10.8629
▁mop	-10.863
▁presentation	-10.8631
▁calf	-10.8631
▁steiner	-10.8632
▁rookie	-10.8632
til	-10.8633
▁gray	-10.8637
▁nog	-10.8639
▁nicely	-10.864
▁reelect	-10.8643
cent	-10.8649
▁outer	-10.865
▁endless	-10.8655
▁wounded	-10.8664
▁dip	-10.8667
▁mil	-10.8673
rie	-10.8674
▁twisted	-10.8678
▁rescued	-10.868
▁tout	-10.8685
▁hint	-10.8694
▁kisses	-10.8694
▁hawk	-10.8702
▁core	-10.8706
▁forms	-10.8709
▁moor	-10.8716
▁tris	-10.8719
▁menu	-10.8722
fer	-10.8724
▁for	-10.8724
tit	-10.8725
▁cough	-10.873
ks	-10.8733
▁smarter	-10.874
▁worker	-10.8743
▁gre	-10.8749
▁relatives	-10.8756
▁bishop	-10.8761
▁balloon	-10.8762
▁compliment	-10.8763
▁claw	-10.8766
▁glove	-10.8767
▁dudes	-10.8776
▁pill	-10.8776
▁strip	-10.8781
▁issues	-10.8789
▁quote	-10.879
▁noises	-10.8794
▁bligh	-10.8797
▁zeke	-10.8798
fu	-10.8799
▁payment	-10.8802
▁airports	-10.8803
▁prim	-10.8809
▁giants	-10.8816
▁suite	-10.8816
▁tru	-10.8829
▁mur	-10.8831
▁fooled	-10.8846
▁kan	-10.885
▁grandmas	-10.8851
ice	-10.8851
▁laying	-10.8862
▁untie	-10.8878
pie	-10.8881
burg	-10.8887
▁sal	-10.8888
▁shakes	-10.8921
▁schools	-10.8928
▁mer	-10.8929
berry	-10.8946
point	-10.8947
▁victims	-10.8953
▁arrange	-10.8956
master	-10.896
▁rick	-10.8961
▁denys	-10.8966
▁craft	-10.8967
▁dancin	-10.8969
▁journal	-10.897
▁debora	-10.8971
▁specific	-10.8973
misunderstanding	-10.8974
▁acknowledge	-10.8974
▁altogether	-10.8974
▁audible	-10.8974
▁bennett	-10.8974
▁certificate	-10.8974
▁coordinates	-10.8974
▁cristina	-10.8974
▁deposit	-10.8974
▁destination	-10.8974
▁divine	-10.8974
▁dixon	-10.8974
▁episode	-10.8974
▁excalibur	-10.8974
▁explosiveskull	-10.8974
▁gamble	-10.8974
▁garrett	-10.8974
▁impact	-10.8974
▁judgment	-10.8974
▁lorenzo	-10.8974
▁malfunction	-10.8974
▁negro	-10.8974
▁pocahontas	-10.8974
▁reavis	-10.8974
▁sausage	-10.8974
▁shaft	-10.8974
▁shoeshine	-10.8974
▁worship	-10.8974
▁broadcast	-10.8974
▁coffin	-10.8974
▁floyd	-10.8974
▁lovelace	-10.8974
▁slut	-10.8974
▁coconut	-10.8974
▁satisfaction	-10.8974
▁dialogue	-10.8974
▁llke	-10.8974
▁financial	-10.8974
▁nanny	-10.8974
▁clinic	-10.8974
▁spiritual	-10.8974
▁residence	-10.8974
▁osborn	-10.8974
▁typewriter	-10.8974
▁stepped	-10.8974
▁worn	-10.8974
▁rhyme	-10.8974
▁jolly	-10.8974
▁assistance	-10.8974
▁advise	-10.8974
▁bedders	-10.8974
▁iowa	-10.8975
▁choke	-10.8975
▁ducal	-10.8975
▁sofa	-10.8975
▁iittie	-10.8975
▁doggy	-10.8975
▁tasty	-10.8976
▁informant	-10.8976
▁massive	-10.8976
▁drej	-10.8976
▁muffin	-10.8976
▁commitment	-10.8976
▁peck	-10.8976
press	-10.8977
▁alike	-10.8977
▁cabinet	-10.8977
▁spill	-10.8978
▁buffy	-10.8978
▁headache	-10.8979
▁appetite	-10.8979
▁jessie	-10.898
▁alba	-10.898
▁soil	-10.898
▁choices	-10.8981
▁dyou	-10.8981
▁sup	-10.8981
▁bonus	-10.8981
▁kip	-10.8982
▁sanders	-10.8982
▁cans	-10.8983
▁nora	-10.8983
▁greedy	-10.8983
▁strings	-10.8984
▁colony	-10.8985
▁bedtime	-10.8987
▁warden	-10.8987
▁producer	-10.8989
▁seventh	-10.8993
▁applauding	-10.9
▁tore	-10.9004
▁lever	-10.9004
fish	-10.9008
▁angelo	-10.901
ves	-10.901
▁peru	-10.9011
▁mend	-10.9013
▁damaged	-10.9017
▁advanced	-10.9017
▁sacrificed	-10.9029
▁pigeons	-10.9029
▁wears	-10.9029
▁fuse	-10.9037
▁sais	-10.9048
rate	-10.9052
▁heroic	-10.9055
▁dumped	-10.9067
▁bottles	-10.9075
▁bells	-10.9076
▁nou	-10.9077
ju	-10.9079
▁grows	-10.9082
▁muppets	-10.9087
lock	-10.9095
ata	-10.9095
▁listened	-10.9102
▁trusted	-10.9102
▁mint	-10.9109
▁tense	-10.9109
▁visitors	-10.911
▁deeper	-10.911
▁gran	-10.9118
▁arrangements	-10.9118
▁carli	-10.9119
▁circles	-10.9122
▁hier	-10.9123
▁helpful	-10.9126
▁messy	-10.913
▁paw	-10.9134
▁height	-10.9135
▁folk	-10.9137
▁manor	-10.914
▁filling	-10.9144
▁loosen	-10.9145
▁zoot	-10.9149
▁sticky	-10.9152
action	-10.9159
▁musician	-10.9163
▁jew	-10.9163
ida	-10.9175
eux	-10.9182
▁mat	-10.9185
tan	-10.9195
▁muscles	-10.9204
▁nerves	-10.9206
ob	-10.9211
▁tc	-10.9214
▁lili	-10.9219
some	-10.9228
▁rides	-10.9228
here	-10.924
ied	-10.925
▁ike	-10.9251
▁lip	-10.9256
▁stat	-10.926
▁comme	-10.9261
▁cod	-10.9262
▁mock	-10.9269
▁vers	-10.9271
▁presidents	-10.9273
▁rolled	-10.9281
ably	-10.9289
▁screech	-10.9304
▁bake	-10.931
▁distract	-10.9313
▁glow	-10.9314
james	-10.9319
▁mort	-10.9322
▁strain	-10.9327
▁wealth	-10.9327
uh	-10.9331
▁options	-10.9338
▁faithful	-10.934
▁environment	-10.934
stick	-10.9341
▁alcohol	-10.9342
▁exhibit	-10.9342
▁buildings	-10.9344
elius	-10.9344
▁sponge	-10.9344
▁absurd	-10.9344
▁activities	-10.9344
▁chorus	-10.9344
▁coincidence	-10.9344
▁conscience	-10.9344
▁garlic	-10.9344
▁grub	-10.9344
▁ireland	-10.9344
▁orbison	-10.9344
▁pamela	-10.9344
▁profile	-10.9344
▁scrumptious	-10.9344
▁spoon	-10.9344
▁szalinski	-10.9344
▁thompson	-10.9344
▁thornton	-10.9344
▁unfair	-10.9344
▁wretch	-10.9344
▁anchor	-10.9344
▁assault	-10.9344
▁disrupt	-10.9344
▁sixteen	-10.9344
▁dawg	-10.9344
▁bloom	-10.9344
▁shinn	-10.9344
▁pedro	-10.9344
▁content	-10.9344
▁hisses	-10.9345
▁mankind	-10.9345
▁stifler	-10.9345
▁upgrade	-10.9345
▁janice	-10.9345
▁guppy	-10.9345
▁mutt	-10.9345
▁flea	-10.9345
▁ashore	-10.9345
▁blart	-10.9345
▁internet	-10.9345
▁salmon	-10.9345
▁petrie	-10.9345
▁rugby	-10.9345
▁playoffs	-10.9345
▁deux	-10.9346
▁chopper	-10.9346
▁nerd	-10.9346
▁glide	-10.9346
▁shortcut	-10.9346
▁heartbeat	-10.9346
▁joanna	-10.9347
▁ogre	-10.9347
▁dentist	-10.9347
▁piglet	-10.9347
▁objective	-10.9347
▁wig	-10.9347
▁instrumental	-10.9347
▁pierre	-10.9347
▁rising	-10.9347
▁rico	-10.9348
▁production	-10.9349
▁vincent	-10.9349
▁confirmation	-10.9349
▁unload	-10.935
▁danby	-10.935
▁motherfucking	-10.935
▁zoc	-10.9351
▁sticking	-10.9351
▁he	-10.9352
▁paco	-10.9352
▁brass	-10.9353
▁penis	-10.9354
▁bertier	-10.9354
▁skate	-10.9355
▁caleb	-10.9355
▁perro	-10.9356
▁drops	-10.9356
▁clay	-10.9356
▁stain	-10.9357
▁related	-10.9357
▁blog	-10.9359
▁carnie	-10.9361
▁shallow	-10.9362
▁deadline	-10.9366
rated	-10.9368
▁diego	-10.9368
▁sighing	-10.9371
▁drawn	-10.9381
▁shrieks	-10.9389
▁blonde	-10.939
▁developed	-10.9395
▁ou	-10.9396
▁scum	-10.9397
▁refused	-10.9399
▁cases	-10.9401
▁rod	-10.9401
▁damp	-10.9406
▁appeared	-10.941
ified	-10.941
▁cursed	-10.9412
ms	-10.9413
▁ob	-10.9422
headed	-10.9428
▁airplanes	-10.9434
▁fri	-10.9436
▁sang	-10.9436
▁socialist	-10.9448
▁pounding	-10.945
▁signing	-10.9451
▁contain	-10.9452
▁horny	-10.9457
▁handy	-10.9457
▁squeak	-10.9466
▁painted	-10.9466
▁studying	-10.9478
fo	-10.9483
▁click	-10.9487
roll	-10.9491
▁barb	-10.9491
phone	-10.9505
▁realm	-10.9508
▁mode	-10.9509
▁orphan	-10.9517
▁zeta	-10.9521
jun	-10.9523
▁zing	-10.9526
▁tools	-10.9543
▁cooked	-10.9545
▁shelly	-10.9562
▁oss	-10.9562
uit	-10.9574
▁mae	-10.9577
▁islands	-10.9587
▁waiter	-10.9592
▁sla	-10.9605
▁breakin	-10.961
▁documents	-10.9615
▁dent	-10.963
▁protecting	-10.9635
▁bananas	-10.9641
ire	-10.9645
ennial	-10.9645
▁oo	-10.9646
▁destroyer	-10.9666
▁meows	-10.9666
▁sakes	-10.9678
▁helpless	-10.9681
▁marrying	-10.9689
fall	-10.969
war	-10.9691
▁adopt	-10.9701
hood	-10.971
▁blank	-10.9711
▁cruise	-10.9711
▁graduate	-10.9713
▁speakers	-10.9717
▁strict	-10.9718
▁drawer	-10.9718
▁jij	-10.9724
▁album	-10.9729
▁alfred	-10.9729
▁almighty	-10.9729
▁approval	-10.9729
▁august	-10.9729
▁canada	-10.9729
▁cocaine	-10.9729
▁confusion	-10.9729
▁congress	-10.9729
▁creek	-10.9729
▁cyrus	-10.9729
▁deloris	-10.9729
▁despite	-10.9729
▁essence	-10.9729
▁flavor	-10.9729
▁genuine	-10.9729
▁grief	-10.9729
▁hector	-10.9729
▁hilarious	-10.9729
▁industry	-10.9729
▁jeanluc	-10.9729
▁memphis	-10.9729
▁october	-10.9729
▁pabio	-10.9729
▁perfume	-10.9729
▁quarry	-10.9729
▁rehearse	-10.9729
▁religion	-10.9729
▁reynolds	-10.9729
▁signature	-10.9729
▁sleeve	-10.9729
▁uncomfortable	-10.9729
▁ursula	-10.9729
▁averman	-10.9729
▁domestic	-10.9729
▁eliminate	-10.9729
▁identity	-10.9729
▁investigate	-10.9729
▁session	-10.9729
▁sunrise	-10.9729
▁buddies	-10.9729
▁tennis	-10.9729
▁leaf	-10.9729
▁ryan	-10.9729
▁northern	-10.9729
▁stiles	-10.9729
▁somewhat	-10.9729
▁southern	-10.9729
▁scheme	-10.9729
▁description	-10.973
▁budget	-10.973
▁rattle	-10.973
▁random	-10.973
▁graff	-10.973
▁amigo	-10.973
▁jewish	-10.973
▁shiny	-10.973
▁rumble	-10.973
ries	-10.973
▁karate	-10.973
▁doris	-10.973
▁hunch	-10.973
▁loop	-10.9731
▁campbell	-10.9731
▁inhales	-10.9731
▁titanic	-10.9731
▁grizzly	-10.9731
▁raid	-10.9732
▁parry	-10.9732
▁roam	-10.9733
▁reign	-10.9733
▁squat	-10.9733
▁harrison	-10.9733
▁zak	-10.9734
▁rowan	-10.9735
▁divided	-10.9735
▁mmmmmm	-10.9737
▁vais	-10.9737
▁arriving	-10.9739
▁nearby	-10.974
▁you	-10.974
▁ashes	-10.9741
▁pinch	-10.9741
▁inches	-10.9741
▁consideration	-10.9744
▁sonja	-10.9744
▁ofthe	-10.9744
▁clattering	-10.9745
▁enchanted	-10.9746
▁jap	-10.9749
▁tur	-10.975
▁jes	-10.9751
ttie	-10.9754
▁tide	-10.9754
▁controlling	-10.9756
▁tunnels	-10.9756
▁dreadful	-10.9759
▁apply	-10.976
▁threatening	-10.976
▁wonders	-10.9761
▁hugh	-10.9762
▁riot	-10.9763
▁eighth	-10.9763
ula	-10.9764
who	-10.9766
nic	-10.977
▁salute	-10.9771
▁cargo	-10.9772
▁separated	-10.9772
▁experiments	-10.9773
▁grid	-10.9773
▁limited	-10.9774
▁vas	-10.9777
▁har	-10.9778
▁toaster	-10.9781
▁wiped	-10.9782
▁snarls	-10.9784
▁perfection	-10.9784
▁carrier	-10.9784
▁hunger	-10.9786
▁salesman	-10.9789
▁germ	-10.9796
▁nervously	-10.9797
▁wage	-10.9801
▁dasher	-10.9804
▁pri	-10.9813
▁electrical	-10.9814
▁pilots	-10.9822
▁prices	-10.9824
▁kite	-10.9824
▁ax	-10.9826
ana	-10.9836
▁fore	-10.9837
▁wifes	-10.9838
▁sucked	-10.9842
▁slayers	-10.9844
▁jar	-10.9846
▁taco	-10.9852
▁mikey	-10.9852
▁kneel	-10.9855
cut	-10.9858
▁cracking	-10.9867
▁bowling	-10.9869
▁considering	-10.9871
▁wilt	-10.9875
▁drives	-10.9877
▁cleared	-10.9878
▁sis	-10.9879
▁burns	-10.9883
▁titans	-10.9885
▁hoops	-10.9885
▁fights	-10.9885
▁beep	-10.9887
hhh	-10.9903
▁ideal	-10.9903
▁habit	-10.9909
▁comedy	-10.9914
▁peasant	-10.9916
▁masters	-10.9917
▁snack	-10.9917
▁mushroom	-10.9918
▁sirens	-10.992
▁din	-10.992
▁tool	-10.9921
▁wo	-10.9922
▁atta	-10.9923
ford	-10.9935
▁fits	-10.9937
▁mir	-10.9942
▁heights	-10.9952
avec	-10.9957
ame	-10.9963
▁grades	-10.9966
▁crossing	-10.9967
▁temp	-10.9984
▁poke	-10.9997
▁not	-11.0017
▁dec	-11.0018
▁maniac	-11.002
▁andi	-11.0023
▁nun	-11.0028
▁mamas	-11.0037
▁dealer	-11.0045
▁os	-11.0046
▁betray	-11.0064
▁sets	-11.0067
▁fer	-11.0067
▁alle	-11.0067
uck	-11.0069
▁rocking	-11.0071
▁ropes	-11.0073
bell	-11.0083
▁fixing	-11.0087
▁dancers	-11.0092
your	-11.0094
▁covers	-11.01
▁slim	-11.01
▁burgers	-11.0106
▁improve	-11.011
▁wid	-11.011
▁unfortunate	-11.0118
▁torpedo	-11.0123
▁crank	-11.0125
▁convict	-11.0126
▁disagree	-11.0127
win	-11.0128
▁akima	-11.0129
▁atlantic	-11.0129
▁dallas	-11.0129
▁despair	-11.0129
▁detention	-11.0129
▁disrespect	-11.0129
▁distress	-11.0129
▁dubois	-11.0129
▁eisenheim	-11.0129
▁eternity	-11.0129
▁harvey	-11.0129
▁hoffman	-11.0129
▁infection	-11.0129
▁kumail	-11.0129
▁lancelot	-11.0129
▁lecture	-11.0129
▁luggage	-11.0129
▁masterbuilder	-11.0129
▁mcdeere	-11.0129
▁meredith	-11.0129
▁mumbling	-11.0129
▁obliged	-11.0129
▁opponent	-11.0129
▁popcorn	-11.0129
▁primitive	-11.0129
▁pygar	-11.0129
▁railroad	-11.0129
▁sicily	-11.0129
▁splinter	-11.0129
▁thread	-11.0129
▁unexpected	-11.0129
▁violent	-11.0129
▁zelda	-11.0129
▁gracious	-11.0129
▁intruder	-11.0129
▁sheldon	-11.0129
▁sherry	-11.0129
▁tammy	-11.0129
▁sherman	-11.0129
▁dragged	-11.0129
▁lassard	-11.0129
▁narrow	-11.0129
▁carnival	-11.0129
▁eighteen	-11.0129
▁ransom	-11.0129
▁pedal	-11.0129
▁cheep	-11.0129
▁fireworks	-11.0129
▁croak	-11.0129
▁trading	-11.0129
▁broomstick	-11.0129
▁stacy	-11.0129
▁yuck	-11.0129
▁cricket	-11.013
▁woohoo	-11.013
▁bruise	-11.013
▁slick	-11.013
▁waltz	-11.013
▁limo	-11.013
▁spinning	-11.013
▁tyler	-11.013
▁summon	-11.0131
▁entertainment	-11.0131
▁otto	-11.0131
▁salary	-11.0131
▁motel	-11.0131
▁injury	-11.0131
▁begged	-11.0131
▁oven	-11.0131
▁limb	-11.0131
▁mature	-11.0131
▁region	-11.0131
▁orangemen	-11.0131
▁scientists	-11.0131
▁revolutionary	-11.0131
▁puke	-11.0132
▁vibe	-11.0132
▁culture	-11.0132
▁churchill	-11.0133
▁overtime	-11.0133
▁rash	-11.0133
▁rail	-11.0133
▁yank	-11.0134
▁wax	-11.0134
stein	-11.0135
▁patty	-11.0135
▁slappy	-11.0136
▁alas	-11.0139
▁quitting	-11.0139
▁eastern	-11.014
▁dos	-11.014
▁magician	-11.0142
han	-11.0143
▁torn	-11.0143
▁attached	-11.0143
▁haunted	-11.0143
▁forgiveness	-11.0144
ington	-11.0145
▁moore	-11.0146
bble	-11.0148
▁retired	-11.0149
▁compared	-11.0152
▁ramp	-11.0153
▁ook	-11.0154
▁hooting	-11.0155
▁whas	-11.0156
▁july	-11.0164
▁madeline	-11.0164
▁milly	-11.0165
▁tables	-11.0167
▁matches	-11.0169
▁magnet	-11.017
▁operate	-11.0171
▁tra	-11.0173
▁clubs	-11.0174
▁geek	-11.0175
▁who	-11.0176
▁intended	-11.0187
▁sta	-11.0191
eau	-11.0196
oid	-11.0196
▁oooh	-11.0205
▁buckle	-11.0215
▁unto	-11.0229
▁closest	-11.0236
▁planted	-11.0239
era	-11.0241
▁sailing	-11.0242
▁scores	-11.0244
▁experienced	-11.0244
▁breast	-11.0244
▁ruining	-11.0245
▁lighten	-11.0252
▁rushing	-11.0252
▁organize	-11.0254
▁reminded	-11.027
rating	-11.0273
rous	-11.0275
▁blocks	-11.0281
▁prayed	-11.0288
▁luc	-11.0292
lly	-11.0295
▁cared	-11.0296
▁giris	-11.0309
sol	-11.0314
▁bubbles	-11.0315
eight	-11.0324
▁squeals	-11.0327
air	-11.0332
▁yankee	-11.0334
▁sheet	-11.0335
▁villain	-11.0337
▁treating	-11.0341
seven	-11.0344
▁ana	-11.0346
▁stations	-11.0356
▁tested	-11.0367
▁exists	-11.037
ute	-11.0374
▁bot	-11.0377
▁hopeless	-11.0377
ound	-11.0393
▁cakes	-11.0402
▁banker	-11.0408
▁destroying	-11.0411
▁grin	-11.0415
▁mod	-11.0415
▁acts	-11.0418
▁queens	-11.0426
▁clearing	-11.0431
▁manner	-11.0456
year	-11.0474
▁andrea	-11.049
▁entertain	-11.0509
▁recruit	-11.0509
▁concept	-11.051
▁brag	-11.0514
▁possess	-11.0517
water	-11.0519
▁winding	-11.0523
▁assum	-11.0526
▁interests	-11.0527
▁engage	-11.0531
spect	-11.0535
▁unlike	-11.0541
▁gwen	-11.0544
▁athlete	-11.0546
▁bookshop	-11.0546
▁callaghan	-11.0546
▁centuries	-11.0546
▁cheerleader	-11.0546
▁cloak	-11.0546
▁communicate	-11.0546
▁concussion	-11.0546
▁conflict	-11.0546
▁cyril	-11.0546
▁delicate	-11.0546
▁expense	-11.0546
▁extension	-11.0546
▁germaine	-11.0546
▁henderson	-11.0546
▁hilili	-11.0546
▁inaudible	-11.0546
▁jehovah	-11.0546
▁kennedy	-11.0546
▁lobby	-11.0546
▁nixon	-11.0546
▁oldfashioned	-11.0546
▁perimeter	-11.0546
▁privacy	-11.0546
▁proctor	-11.0546
▁rosalyn	-11.0546
▁shipoopi	-11.0546
▁skeleton	-11.0546
▁souvenir	-11.0546
▁spectacular	-11.0546
▁tunstall	-11.0546
▁acorn	-11.0546
▁assassin	-11.0546
▁butterfly	-11.0546
▁gravy	-11.0546
▁identify	-11.0546
▁presume	-11.0546
▁spear	-11.0546
▁connie	-11.0546
▁essay	-11.0546
▁fourteen	-11.0546
▁volume	-11.0546
▁arena	-11.0546
▁reilly	-11.0546
▁relay	-11.0546
▁envy	-11.0546
▁estimate	-11.0546
▁rifle	-11.0546
▁neighbourhood	-11.0546
▁vocalizing	-11.0546
▁clubber	-11.0546
▁promotion	-11.0546
▁aisle	-11.0546
▁debbie	-11.0546
▁urge	-11.0546
▁flashlight	-11.0546
▁jenning	-11.0546
▁occurred	-11.0546
▁beware	-11.0546
▁imitate	-11.0546
▁bluff	-11.0546
▁granddaughter	-11.0546
▁ripped	-11.0546
▁hefty	-11.0547
▁indoor	-11.0547
▁blake	-11.0547
▁vital	-11.0547
▁muta	-11.0547
▁sentimental	-11.0548
▁parlor	-11.0548
▁loyalty	-11.0548
▁warrant	-11.0549
▁batteries	-11.0549
▁paperwork	-11.0549
▁christina	-11.055
▁nursery	-11.055
▁clap	-11.0551
▁dorm	-11.0551
▁conway	-11.0551
▁salon	-11.0551
▁rally	-11.0552
▁mason	-11.0552
▁preacher	-11.0552
▁hova	-11.0553
▁grady	-11.0553
▁swan	-11.0553
▁kidney	-11.0554
▁bash	-11.0554
▁christine	-11.0555
ito	-11.0555
▁sober	-11.0555
▁naar	-11.0556
▁goalie	-11.0557
▁jade	-11.0557
▁dull	-11.0557
▁spooky	-11.0557
▁owners	-11.0558
▁niki	-11.0559
▁hideous	-11.056
boat	-11.0561
▁terr	-11.0562
▁approved	-11.0563
▁dino	-11.0564
▁label	-11.0565
▁hup	-11.0566
▁polly	-11.0568
▁organized	-11.0572
▁active	-11.0573
▁tourist	-11.0574
▁nightmares	-11.0575
▁paulie	-11.0576
▁hyper	-11.0578
▁strikes	-11.0578
▁reasonable	-11.0579
▁required	-11.058
▁slate	-11.0581
▁diamonds	-11.0584
▁flintstones	-11.0584
▁punished	-11.0585
▁ciao	-11.0592
ists	-11.0594
▁fryer	-11.0595
▁landon	-11.0599
▁gill	-11.0603
▁crawling	-11.0609
▁recognized	-11.0611
▁lace	-11.0612
▁dun	-11.0615
▁ink	-11.0625
▁stinking	-11.0626
▁scored	-11.0628
▁gathered	-11.063
hair	-11.0632
▁rounds	-11.0634
▁sounded	-11.0638
▁marching	-11.0643
▁tab	-11.0646
▁hooked	-11.0649
▁vegetables	-11.0651
▁suggested	-11.0658
▁danced	-11.0659
▁defending	-11.0665
▁jackie	-11.0668
itch	-11.0672
▁decisions	-11.0682
▁freaked	-11.0701
ave	-11.0703
▁instruments	-11.0706
hy	-11.0706
▁ami	-11.071
▁stag	-11.0712
▁ku	-11.072
▁communications	-11.0724
▁belonged	-11.073
▁techniques	-11.0733
▁squeal	-11.0734
▁melt	-11.0741
▁traveled	-11.0746
▁sins	-11.075
▁missiles	-11.0752
▁doe	-11.0755
▁packing	-11.0757
ory	-11.0767
▁trim	-11.0771
▁sounding	-11.0772
▁squeaks	-11.078
▁att	-11.0785
pan	-11.0785
horn	-11.0785
▁sayin	-11.0785
▁maya	-11.0791
▁doi	-11.0792
▁claws	-11.0795
▁handled	-11.0798
▁missile	-11.0802
▁aa	-11.0814
▁pitt	-11.0829
▁mouths	-11.0837
▁eli	-11.0848
▁beers	-11.0852
▁boarding	-11.0871
▁criminals	-11.0883
▁cass	-11.0886
▁cigarettes	-11.089
▁defi	-11.0891
▁flee	-11.0894
▁crysta	-11.0907
aaa	-11.0908
▁limits	-11.091
▁hopes	-11.0913
▁feared	-11.0917
▁cro	-11.0928
▁threaten	-11.0931
net	-11.0932
▁terror	-11.0933
▁medic	-11.0934
▁recover	-11.0936
class	-11.0941
born	-11.0949
oi	-11.0954
▁parle	-11.0955
▁ren	-11.0956
storm	-11.0959
▁flames	-11.096
▁encourage	-11.0961
▁rolls	-11.0966
▁breed	-11.0966
▁tum	-11.0967
shot	-11.0967
▁owes	-11.0967
▁bunk	-11.0968
▁kl	-11.0969
▁examine	-11.0972
▁cortez	-11.0974
▁kiddin	-11.0976
▁merci	-11.0977
▁troubles	-11.0978
▁allergic	-11.098
▁ambush	-11.098
▁annual	-11.098
▁anyhow	-11.098
▁astronaut	-11.098
▁breach	-11.098
▁bremen	-11.098
▁cottage	-11.098
▁credentials	-11.098
▁crisis	-11.098
▁dukhovich	-11.098
▁durberville	-11.098
▁embrace	-11.098
▁ferguson	-11.098
▁florence	-11.098
▁investigating	-11.098
▁lobster	-11.098
▁maleficent	-11.098
▁mexican	-11.098
▁motorcycle	-11.098
▁mullins	-11.098
▁obsessed	-11.098
▁offensive	-11.098
▁phoenix	-11.098
▁pistol	-11.098
▁principle	-11.098
▁proposal	-11.098
▁reference	-11.098
▁retrieve	-11.098
▁rubbish	-11.098
▁scolex	-11.098
▁sharon	-11.098
▁squish	-11.098
▁temporarily	-11.098
▁throttle	-11.098
▁vessel	-11.098
▁airborne	-11.098
▁bloke	-11.098
▁canoe	-11.098
▁neiman	-11.098
▁swarm	-11.098
▁clerk	-11.098
▁depressed	-11.098
▁piease	-11.098
▁seattle	-11.098
▁tavern	-11.0981
▁cloe	-11.0981
▁rudolph	-11.0981
▁gadgetmobile	-11.0981
▁yacht	-11.0981
▁bolt	-11.0981
▁buffet	-11.0981
▁stool	-11.0981
hearted	-11.0981
▁grasp	-11.0981
▁railway	-11.0981
▁blink	-11.0981
▁upside	-11.0981
▁specifically	-11.0981
▁slop	-11.0981
▁gillian	-11.0981
▁prank	-11.0981
▁token	-11.0982
▁flint	-11.0982
▁napkin	-11.0982
▁stove	-11.0982
▁ravi	-11.0982
▁harsh	-11.0982
▁mold	-11.0982
▁diversion	-11.0982
▁rack	-11.0982
▁stew	-11.0983
▁marble	-11.0983
▁sofi	-11.0983
▁wlli	-11.0983
▁lupo	-11.0983
▁ericka	-11.0984
▁melody	-11.0985
▁chapel	-11.0985
▁betcha	-11.0986
top	-11.0986
▁management	-11.0987
▁realise	-11.0987
▁heip	-11.0987
▁raph	-11.0987
nen	-11.0989
▁chod	-11.099
▁rug	-11.0992
▁strap	-11.0993
▁breakdown	-11.0995
▁defendant	-11.0996
▁executed	-11.1
▁grey	-11.1001
▁fork	-11.1002
▁eden	-11.1002
▁hitler	-11.1002
oooo	-11.1002
▁tempo	-11.1008
▁witnesses	-11.1008
▁allen	-11.1008
▁buzzes	-11.1009
▁superman	-11.1012
▁adela	-11.1017
▁fro	-11.1017
▁solved	-11.1021
▁gutsy	-11.1023
▁fig	-11.1024
▁littlefoot	-11.1024
bone	-11.1024
▁mia	-11.1025
▁haul	-11.1026
▁wandering	-11.1029
▁twa	-11.103
▁complaining	-11.1032
▁poker	-11.1034
▁handling	-11.1035
▁chet	-11.1039
▁passengers	-11.1042
▁setup	-11.1044
▁rape	-11.1047
▁bobi	-11.1051
▁requested	-11.1052
▁hats	-11.1054
▁pets	-11.1059
▁sneaking	-11.1062
▁bitches	-11.1068
▁cheated	-11.1069
▁bits	-11.1069
▁buster	-11.108
▁critters	-11.1081
fire	-11.1088
▁boobs	-11.1088
▁gathering	-11.1091
▁horner	-11.1092
▁curl	-11.1096
▁shovel	-11.1103
▁bets	-11.1107
▁multipl	-11.1108
▁trainer	-11.1111
▁myth	-11.1111
▁mates	-11.1123
▁blocked	-11.1125
▁crashed	-11.1129
▁ego	-11.1134
▁dem	-11.1136
talk	-11.114
▁prop	-11.1141
▁peek	-11.1142
▁attract	-11.1147
▁hump	-11.1153
▁tracking	-11.1169
▁lands	-11.1175
are	-11.1179
▁abs	-11.1183
▁dada	-11.1185
erial	-11.1192
▁holds	-11.1202
▁sheets	-11.1205
▁nuns	-11.1214
▁generation	-11.1224
▁scout	-11.1224
key	-11.1238
▁quicker	-11.1238
▁pipes	-11.1248
▁heir	-11.1258
▁ci	-11.1261
cc	-11.1264
▁mars	-11.1288
▁cheeks	-11.1298
▁camel	-11.1298
▁tow	-11.1301
ants	-11.1301
▁breasts	-11.1306
▁explained	-11.1311
▁slippers	-11.1312
▁murders	-11.1314
▁remark	-11.1314
ome	-11.133
cro	-11.1332
inch	-11.1333
zzle	-11.1333
▁arch	-11.1336
▁reno	-11.1337
tain	-11.1343
▁nasa	-11.1357
▁figures	-11.1369
ella	-11.138
▁axe	-11.1382
loo	-11.1385
▁eagles	-11.1386
▁associate	-11.1392
▁nik	-11.1395
▁mechanic	-11.1395
▁bla	-11.1401
power	-11.1407
worth	-11.1407
school	-11.1408
▁approve	-11.1418
▁fli	-11.1419
▁coop	-11.1422
▁constant	-11.1423
▁era	-11.1426
▁err	-11.1427
▁harris	-11.143
▁origin	-11.143
▁react	-11.1433
▁utter	-11.1434
▁brew	-11.1434
▁forbid	-11.1434
▁amateur	-11.1435
▁ambition	-11.1435
▁bicycle	-11.1435
▁caxton	-11.1435
▁cinnamon	-11.1435
▁clarissa	-11.1435
▁dwarves	-11.1435
▁emoji	-11.1435
▁fievel	-11.1435
▁fridge	-11.1435
▁glinda	-11.1435
▁goldilocks	-11.1435
▁hallelujah	-11.1435
▁harvard	-11.1435
▁heggs	-11.1435
▁horror	-11.1435
▁ignorant	-11.1435
▁intense	-11.1435
▁khrushchev	-11.1435
▁macdonald	-11.1435
▁november	-11.1435
▁peculiar	-11.1435
▁phantom	-11.1435
▁philadelphia	-11.1435
▁philosophy	-11.1435
▁protocol	-11.1435
▁pulse	-11.1435
▁rommel	-11.1435
▁rupert	-11.1435
▁sceptre	-11.1435
▁scoop	-11.1435
▁sheryl	-11.1435
▁similar	-11.1435
▁snyder	-11.1435
▁throughout	-11.1435
▁unconscious	-11.1435
▁werewolf	-11.1435
▁wimp	-11.1435
▁xerxes	-11.1435
▁choking	-11.1435
▁legacy	-11.1435
▁blackmail	-11.1435
▁larue	-11.1435
▁ethel	-11.1435
▁chimes	-11.1435
▁italy	-11.1435
▁outstanding	-11.1435
▁acquaintance	-11.1435
▁graveyard	-11.1435
▁graham	-11.1436
▁collier	-11.1436
▁rival	-11.1436
▁ahoy	-11.1436
▁favourite	-11.1436
▁cherish	-11.1436
▁nows	-11.1436
▁overnight	-11.1436
▁population	-11.1436
▁broadway	-11.1436
▁repay	-11.1436
▁prior	-11.1436
▁motto	-11.1436
▁extend	-11.1436
▁ollie	-11.1437
▁weakness	-11.1437
▁garland	-11.1437
▁effective	-11.1437
▁riff	-11.1438
▁guessed	-11.1438
▁voil	-11.1438
▁nova	-11.1438
▁toad	-11.1439
▁haircut	-11.1439
▁kong	-11.144
▁stallion	-11.144
▁hoover	-11.1441
▁scent	-11.1441
▁drip	-11.1441
▁billina	-11.1442
▁fluffy	-11.1442
▁housekeeper	-11.1442
▁strategy	-11.1442
▁objection	-11.1442
▁woof	-11.1444
▁princeton	-11.1445
▁justin	-11.1445
▁boone	-11.1445
▁groups	-11.1447
▁mustache	-11.1447
▁roommate	-11.1448
cho	-11.1449
▁peak	-11.1449
▁airline	-11.145
▁suspended	-11.145
tait	-11.1454
▁offers	-11.1454
▁mentor	-11.1455
▁assigned	-11.1455
▁accomplished	-11.1462
▁possessed	-11.1466
▁betrayed	-11.1467
▁brandy	-11.1469
▁ticking	-11.1469
▁runway	-11.1474
▁spots	-11.1475
▁pale	-11.1475
▁dominic	-11.1479
▁caul	-11.1487
▁biscuits	-11.149
▁niko	-11.149
▁straighten	-11.1492
▁ole	-11.1492
▁gap	-11.1494
▁costumes	-11.1497
▁shocked	-11.1499
▁teen	-11.15
▁mistaken	-11.1503
zer	-11.1505
▁poisoned	-11.1513
▁deserved	-11.1524
▁crushed	-11.1527
▁dates	-11.1538
▁coup	-11.1539
▁democratic	-11.1541
▁sinking	-11.1549
▁socks	-11.1551
▁crab	-11.1553
▁answering	-11.1553
▁added	-11.1555
▁yee	-11.1561
▁moo	-11.1562
▁coaches	-11.1566
▁writes	-11.1567
oli	-11.1568
▁booing	-11.157
▁riddl	-11.1571
▁zoe	-11.1574
▁tasted	-11.1575
▁ot	-11.1575
▁apples	-11.1578
▁focused	-11.1585
▁winters	-11.1586
▁instincts	-11.159
▁mes	-11.1593
▁bore	-11.1598
▁missus	-11.1599
▁curtains	-11.16
▁rumors	-11.161
▁awaits	-11.1611
▁spying	-11.1611
▁conversations	-11.1614
▁shared	-11.1617
▁chains	-11.1617
▁kom	-11.1623
▁dragons	-11.165
▁generations	-11.1651
▁marked	-11.166
▁bothered	-11.1664
▁rig	-11.1664
▁fright	-11.1668
▁jess	-11.1669
that	-11.1679
▁belts	-11.1686
▁winners	-11.1695
▁obstacle	-11.1698
och	-11.1699
▁technique	-11.1701
▁types	-11.1702
▁giri	-11.1706
▁sk	-11.1709
rez	-11.1717
▁devils	-11.1721
▁hee	-11.1725
ugh	-11.173
▁sends	-11.1734
five	-11.1737
▁sans	-11.1737
▁whoop	-11.1745
▁sexing	-11.1751
▁mus	-11.1756
▁iets	-11.1761
▁claims	-11.1767
▁jeans	-11.1768
▁lookout	-11.1801
▁parked	-11.1801
berg	-11.1802
▁che	-11.1803
▁lawful	-11.1806
iff	-11.1809
▁cove	-11.181
▁tick	-11.1814
▁acted	-11.1814
▁photographs	-11.1815
▁resident	-11.1816
▁hid	-11.1822
▁ohio	-11.1826
▁keeper	-11.1829
▁blues	-11.1838
▁disappoint	-11.1845
▁chant	-11.185
▁layer	-11.185
▁natives	-11.1854
▁drawings	-11.1854
▁pockets	-11.1855
night	-11.1861
▁opera	-11.1863
▁spi	-11.1866
▁caus	-11.1873
▁applaud	-11.1876
▁howl	-11.1877
▁transform	-11.188
gon	-11.1881
walk	-11.1881
ique	-11.1881
▁accomplish	-11.1881
how	-11.1881
▁reveal	-11.1883
▁register	-11.1883
proof	-11.1883
yearold	-11.1884
where	-11.1887
bury	-11.1888
fight	-11.1889
wash	-11.1892
▁rook	-11.1893
wise	-11.1893
▁initiate	-11.1893
▁michel	-11.1895
▁waitin	-11.1896
▁execution	-11.1898
▁ruff	-11.1901
▁electro	-11.1901
oggy	-11.1906
▁author	-11.1908
▁descend	-11.1909
▁reporting	-11.191
▁trauma	-11.1911
▁editor	-11.1911
▁aggressive	-11.1911
▁automated	-11.1911
▁barbarella	-11.1911
▁bartender	-11.1911
▁brittany	-11.1911
▁catholic	-11.1911
▁chandler	-11.1911
▁conspiracy	-11.1911
▁dammit	-11.1911
▁daxiat	-11.1911
▁defensive	-11.1911
▁distorted	-11.1911
▁elliot	-11.1911
▁fenix	-11.1911
▁furnace	-11.1911
▁granada	-11.1911
▁gregorio	-11.1911
▁grenade	-11.1911
▁hendricks	-11.1911
▁hynkel	-11.1911
▁independent	-11.1911
▁infinite	-11.1911
▁insect	-11.1911
▁johana	-11.1911
▁kakamucho	-11.1911
▁kangaroo	-11.1911
▁knob	-11.1911
▁leopard	-11.1911
▁lorraine	-11.1911
▁lounge	-11.1911
▁marmalade	-11.1911
▁minimum	-11.1911
▁overcome	-11.1911
▁phrase	-11.1911
▁razor	-11.1911
▁sefton	-11.1911
▁snatch	-11.1911
▁sponsor	-11.1911
▁supervisor	-11.1911
▁surveillance	-11.1911
▁unicorn	-11.1911
▁vengeance	-11.1911
▁ninja	-11.1911
▁olaf	-11.1911
▁parrot	-11.1911
▁predator	-11.1911
▁uneasy	-11.1911
▁virus	-11.1911
▁homosexual	-11.1911
▁krei	-11.1911
▁tadashi	-11.1911
▁amusing	-11.1911
▁yield	-11.1911
▁jammed	-11.1911
▁serum	-11.1911
▁courtesy	-11.1911
▁irwin	-11.1911
▁violation	-11.1911
▁freddie	-11.1911
▁griev	-11.1911
▁butler	-11.1912
▁jingle	-11.1912
▁venture	-11.1912
▁update	-11.1912
▁heap	-11.1912
▁grim	-11.1912
▁institute	-11.1912
▁bradley	-11.1912
▁prudy	-11.1912
▁gummy	-11.1912
▁clapping	-11.1912
▁wedded	-11.1912
▁barsinister	-11.1912
▁felon	-11.1912
▁jewelry	-11.1912
▁merde	-11.1913
▁disappointment	-11.1913
▁kenny	-11.1913
▁vermin	-11.1913
▁pinned	-11.1913
▁rubble	-11.1913
▁engagement	-11.1913
▁tinkles	-11.1913
▁franck	-11.1913
▁clam	-11.1913
▁reflection	-11.1914
▁anderson	-11.1914
▁watergate	-11.1914
▁swat	-11.1914
▁classified	-11.1914
▁hardware	-11.1914
▁pudding	-11.1915
▁version	-11.1915
▁allez	-11.1915
▁lightyear	-11.1916
▁passport	-11.1916
▁lockdown	-11.1916
▁pierce	-11.1916
▁dried	-11.1916
▁orion	-11.1917
▁padre	-11.1917
▁megan	-11.1917
▁chump	-11.1917
▁drax	-11.1918
▁porch	-11.1918
▁screeches	-11.1919
▁crackling	-11.1919
▁hef	-11.1919
▁entry	-11.1919
▁wilkinson	-11.192
▁brandon	-11.192
▁stepping	-11.192
▁julius	-11.1921
▁yoga	-11.1921
▁massage	-11.1922
▁taxes	-11.1923
▁accountant	-11.1924
▁weli	-11.1925
▁skipped	-11.1926
▁dora	-11.1928
▁mmmmm	-11.1928
▁european	-11.1928
▁declare	-11.1928
▁dough	-11.1929
▁recovery	-11.193
▁drac	-11.1931
▁identified	-11.1932
▁ie	-11.1932
▁tolly	-11.1933
▁moose	-11.1935
▁selected	-11.1937
▁sleepy	-11.1938
▁daar	-11.1939
▁darkest	-11.1941
▁valve	-11.1941
▁fink	-11.1943
▁sickness	-11.1944
▁christie	-11.1947
▁bands	-11.1948
▁norma	-11.1956
▁succeeded	-11.1958
▁thoughtful	-11.1958
▁pike	-11.1958
▁complaint	-11.1959
▁drowned	-11.1963
▁takin	-11.1965
▁lois	-11.1968
▁spoiled	-11.1976
▁policeman	-11.1976
▁connected	-11.1977
▁ward	-11.1978
▁refer	-11.198
▁debate	-11.1981
▁swallowed	-11.1981
not	-11.1982
ump	-11.1988
▁performed	-11.1992
▁zit	-11.1992
▁heavenly	-11.1996
▁peep	-11.2003
▁sewer	-11.2009
▁robbers	-11.2011
▁tada	-11.2012
▁porter	-11.2013
iate	-11.2019
▁meantime	-11.2019
▁sew	-11.2023
▁sales	-11.2023
state	-11.2032
long	-11.2033
▁hitch	-11.2034
▁magi	-11.2039
▁dood	-11.2041
▁vern	-11.2042
▁jd	-11.2044
▁wal	-11.2048
▁spine	-11.2053
▁unti	-11.2058
▁tearing	-11.2059
▁charts	-11.2074
▁cubs	-11.2075
▁fairly	-11.208
▁discussing	-11.208
▁finale	-11.2086
▁gram	-11.21
▁dey	-11.21
▁sigh	-11.2111
▁just	-11.2117
▁tut	-11.2128
uw	-11.213
aunt	-11.2142
▁currents	-11.2143
▁arc	-11.2152
▁fla	-11.2152
▁duh	-11.2155
▁mushrooms	-11.2169
▁sor	-11.2173
▁hangin	-11.2174
▁vow	-11.2177
▁bubble	-11.2183
▁weirdo	-11.2193
▁chas	-11.2193
▁jewel	-11.2196
▁sample	-11.2198
▁communication	-11.22
▁troop	-11.2201
▁chipmunk	-11.2203
▁onion	-11.2208
▁hare	-11.2208
▁walkin	-11.222
▁dove	-11.2222
▁tombo	-11.2238
▁tails	-11.2244
cal	-11.2251
four	-11.2259
▁actors	-11.2266
▁queer	-11.2267
▁clip	-11.227
▁underestimate	-11.2283
▁peer	-11.2286
▁cracker	-11.2299
▁wool	-11.2313
▁magazines	-11.2319
▁seize	-11.2327
▁rib	-11.2337
▁poe	-11.234
▁skulls	-11.234
▁declar	-11.2346
fuck	-11.2352
eye	-11.2358
▁raf	-11.236
chang	-11.2361
▁ming	-11.2366
▁peel	-11.2367
▁wrestle	-11.2369
▁cloth	-11.237
▁ida	-11.2371
▁sol	-11.2373
▁sel	-11.2373
▁vomit	-11.2375
body	-11.2375
▁clink	-11.2376
▁adults	-11.2383
world	-11.2384
worm	-11.2384
mouth	-11.2385
minute	-11.2385
▁dreamer	-11.2385
▁pointing	-11.2394
▁picky	-11.2395
▁extreme	-11.2402
▁restore	-11.2405
▁potato	-11.2406
▁wounds	-11.2406
▁reflect	-11.2409
▁twink	-11.241
▁mouthing	-11.241
▁egypt	-11.241
▁tranquil	-11.2411
▁advisor	-11.2411
▁apollo	-11.2411
▁arizona	-11.2411
▁beautifui	-11.2411
▁biodome	-11.2411
▁brundish	-11.2411
▁cassandra	-11.2411
▁continent	-11.2411
▁contrary	-11.2411
▁cuckoo	-11.2411
▁dagger	-11.2411
▁december	-11.2411
▁defence	-11.2411
▁democracy	-11.2411
▁economy	-11.2411
▁exotic	-11.2411
▁exterminator	-11.2411
▁faulkner	-11.2411
▁frankenstein	-11.2411
▁gratitude	-11.2411
▁gypsy	-11.2411
▁hurricane	-11.2411
▁hysterical	-11.2411
▁interzone	-11.2411
▁jailbreak	-11.2411
▁maximum	-11.2411
▁neruda	-11.2411
▁nicholas	-11.2411
▁nickname	-11.2411
▁nowadays	-11.2411
▁olivia	-11.2411
▁puberty	-11.2411
▁rapunzel	-11.2411
▁rockefeller	-11.2411
▁sabotage	-11.2411
▁shakespeare	-11.2411
▁shrimp	-11.2411
▁speck	-11.2411
▁wasabi	-11.2411
▁wikus	-11.2411
▁wolfgang	-11.2411
▁zipadeedoda	-11.2411
▁desmond	-11.2411
▁klaus	-11.2411
▁langdon	-11.2411
▁leather	-11.2411
▁mvp	-11.2411
▁odile	-11.2411
▁protein	-11.2411
▁storage	-11.2411
▁wharf	-11.2411
▁wryn	-11.2411
▁zurg	-11.2411
▁lagoon	-11.2411
▁beetle	-11.2411
▁diaper	-11.2411
▁noisy	-11.2411
▁pursue	-11.2411
▁rabies	-11.2411
▁regent	-11.2411
▁loaf	-11.2411
▁bamboo	-11.2411
▁cartoon	-11.2411
▁frown	-11.2411
▁convert	-11.2411
▁drool	-11.2411
▁kibble	-11.2411
▁translate	-11.2411
▁blares	-11.2412
▁luigi	-11.2412
▁midget	-11.2412
▁woodcock	-11.2412
▁engelberg	-11.2412
▁outrageous	-11.2412
▁blob	-11.2412
▁evans	-11.2412
▁phew	-11.2412
▁swore	-11.2412
▁squash	-11.2412
▁martian	-11.2412
▁obligation	-11.2412
▁hostile	-11.2412
▁ashley	-11.2412
▁sniffles	-11.2412
▁veux	-11.2412
▁duties	-11.2412
▁kitka	-11.2413
▁rewind	-11.2413
▁booze	-11.2413
▁racket	-11.2413
▁timmy	-11.2413
▁compos	-11.2413
▁compassion	-11.2413
▁glance	-11.2414
▁shelby	-11.2414
▁ohara	-11.2414
▁pony	-11.2414
▁herman	-11.2414
▁countries	-11.2414
▁tsk	-11.2414
▁gunfire	-11.2414
▁portland	-11.2414
▁after	-11.2415
▁raising	-11.2415
▁bij	-11.2415
▁crowded	-11.2415
▁pause	-11.2415
▁static	-11.2416
▁ifl	-11.2416
▁curve	-11.2416
▁minus	-11.2416
▁hull	-11.2416
▁juan	-11.2417
▁oof	-11.2417
▁cheerful	-11.2417
▁peut	-11.2418
▁chum	-11.2418
▁fraud	-11.2418
▁torpedoes	-11.2418
▁aqua	-11.2419
▁accidentally	-11.2419
▁harmony	-11.2419
▁mobile	-11.242
▁classical	-11.2422
tive	-11.2423
▁that	-11.2424
▁planets	-11.2427
▁rusty	-11.2427
▁aww	-11.2428
▁inner	-11.2429
▁benson	-11.243
▁copies	-11.243
▁playbook	-11.2431
dale	-11.2434
▁ak	-11.2434
▁seeds	-11.2436
▁bru	-11.2436
▁lui	-11.2437
▁scraping	-11.2438
▁jb	-11.2439
▁loch	-11.2439
▁epic	-11.244
▁stud	-11.244
▁attracted	-11.2443
▁desperately	-11.2443
▁strongest	-11.2445
▁dug	-11.2448
▁mayday	-11.245
▁finishing	-11.2452
▁consult	-11.2459
▁unable	-11.2469
▁bu	-11.247
▁heed	-11.2472
▁regarding	-11.2475
▁cocky	-11.2476
▁wie	-11.2476
▁mightve	-11.2481
▁sip	-11.2481
▁intercept	-11.2483
▁unc	-11.2486
ittle	-11.249
▁rams	-11.2491
▁youngest	-11.2492
▁bomber	-11.2492
▁col	-11.2494
▁ancestors	-11.2494
▁cur	-11.2495
▁lively	-11.2497
▁dearest	-11.2498
▁motherfuckers	-11.2501
▁assumed	-11.2504
▁pajamas	-11.2505
▁sealed	-11.2506
▁hawke	-11.2509
▁defeated	-11.2511
▁assholes	-11.2512
▁collected	-11.2513
▁noodles	-11.2516
▁bein	-11.2525
▁laps	-11.2528
▁warp	-11.2533
▁ruler	-11.2539
▁congratulate	-11.254
▁barr	-11.2549
▁concerns	-11.2549
▁nee	-11.2552
▁pub	-11.2555
▁logical	-11.2557
iness	-11.2558
▁visa	-11.256
▁driven	-11.2565
▁sources	-11.2568
▁if	-11.2569
▁cd	-11.2578
ura	-11.258
▁remaining	-11.2581
▁shortly	-11.2587
▁grind	-11.2587
▁suspects	-11.2593
▁legends	-11.2601
▁marker	-11.2604
▁bub	-11.2605
▁pals	-11.2608
tar	-11.2611
gun	-11.2621
▁blocking	-11.2623
ook	-11.2623
▁foundation	-11.2624
▁lid	-11.2625
bound	-11.2648
▁holidays	-11.2666
▁jul	-11.2667
▁wink	-11.2672
▁villains	-11.2672
▁recorded	-11.2678
bag	-11.2679
ened	-11.2684
▁mij	-11.2685
lier	-11.27
▁payments	-11.2717
ami	-11.2719
▁element	-11.2723
▁seated	-11.2725
▁puppet	-11.2725
▁titan	-11.2726
▁knot	-11.2727
▁relative	-11.2728
▁arrangement	-11.273
▁protected	-11.2731
▁rust	-11.2735
▁nicer	-11.2739
made	-11.2741
▁lightly	-11.2741
▁hoop	-11.2745
keep	-11.2748
▁bandit	-11.2749
▁traditional	-11.2751
▁washing	-11.276
▁bikes	-11.2761
▁vet	-11.2765
▁grounds	-11.2773
ack	-11.2802
▁toots	-11.2807
▁closely	-11.281
▁tigers	-11.281
kov	-11.2812
▁ting	-11.2812
▁lighter	-11.2821
▁candles	-11.2837
pol	-11.2837
▁cla	-11.2841
tine	-11.2843
▁snip	-11.2849
▁sou	-11.2852
▁beth	-11.2862
get	-11.2862
▁sheriffs	-11.289
▁pine	-11.2894
▁gale	-11.29
▁annoy	-11.2902
▁detect	-11.2906
bird	-11.2906
▁select	-11.2907
▁bobb	-11.2909
▁crook	-11.291
american	-11.291
grade	-11.291
▁boxing	-11.2912
now	-11.2916
▁alter	-11.2925
this	-11.293
▁mare	-11.2932
▁weekends	-11.2932
▁extinct	-11.2935
▁blanc	-11.2937
▁munch	-11.2937
▁accurate	-11.2938
▁affirmative	-11.2938
▁antoine	-11.2938
▁apprentice	-11.2938
▁calculate	-11.2938
▁calendar	-11.2938
▁caractacus	-11.2938
▁cautious	-11.2938
▁chimney	-11.2938
▁connors	-11.2938
▁convenient	-11.2938
▁corridor	-11.2938
▁creative	-11.2938
▁cripple	-11.2938
▁doberman	-11.2938
▁eclipse	-11.2938
▁exclusive	-11.2938
▁famiiy	-11.2938
▁femme	-11.2938
▁gambling	-11.2938
▁havisham	-11.2938
▁identification	-11.2938
▁imaginary	-11.2938
▁intellectual	-11.2938
▁kgys	-11.2938
▁laboratory	-11.2938
▁lizzie	-11.2938
▁marshmallow	-11.2938
▁orleans	-11.2938
▁osterlich	-11.2938
▁parrish	-11.2938
▁plague	-11.2938
▁portobello	-11.2938
▁poseidon	-11.2938
▁prescott	-11.2938
▁proposition	-11.2938
▁receipt	-11.2938
▁reckless	-11.2938
▁ribbon	-11.2938
▁scotland	-11.2938
▁september	-11.2938
▁snorts	-11.2938
▁structure	-11.2938
▁sworn	-11.2938
▁testimony	-11.2938
▁triangle	-11.2938
▁unpleasant	-11.2938
▁virtue	-11.2938
▁wallpaper	-11.2938
▁whereabouts	-11.2938
▁wolves	-11.2938
▁zipadeeay	-11.2938
▁bedrock	-11.2938
▁bleep	-11.2938
▁bronco	-11.2938
▁celia	-11.2938
▁importance	-11.2938
▁nerak	-11.2938
▁phony	-11.2938
▁vanessa	-11.2938
▁unstable	-11.2938
▁vault	-11.2938
▁yabbadabbadoo	-11.2938
▁mandela	-11.2938
▁sensor	-11.2938
▁canal	-11.2938
▁delusion	-11.2938
▁dragging	-11.2938
▁eerie	-11.2938
▁grill	-11.2938
▁dolittle	-11.2938
▁meteor	-11.2938
▁microphone	-11.2938
▁squidward	-11.2938
▁defy	-11.2938
▁kragle	-11.2938
▁civilization	-11.2938
▁heeft	-11.2938
▁lonesome	-11.2938
▁yummy	-11.2938
▁baroness	-11.2938
▁whatwhat	-11.2938
▁pluck	-11.2938
▁mutation	-11.2938
▁philsie	-11.2938
▁commence	-11.2938
▁grandchildren	-11.2938
▁lemonade	-11.2938
avoir	-11.2938
▁disney	-11.2938
▁colson	-11.2939
▁curry	-11.2939
▁grape	-11.2939
▁fiend	-11.2939
▁mavis	-11.2939
▁dilly	-11.2939
▁motive	-11.2939
▁rustling	-11.2939
▁whys	-11.2939
▁hmph	-11.2939
▁pansy	-11.2939
▁willow	-11.2939
▁priority	-11.294
▁dietrich	-11.294
▁troll	-11.294
▁killers	-11.2941
▁attraction	-11.2941
▁straw	-11.2941
▁meatball	-11.2941
▁brute	-11.2941
▁teii	-11.2943
▁voiceover	-11.2943
▁pep	-11.2943
▁anais	-11.2943
▁cooperation	-11.2944
▁hallway	-11.2944
▁batty	-11.2944
▁chow	-11.2946
▁lsnt	-11.2946
▁eva	-11.2946
▁testify	-11.2946
▁chittering	-11.2946
▁veal	-11.2947
▁presidential	-11.2947
▁huff	-11.2947
▁turk	-11.2947
▁yahoo	-11.2948
▁fuzzy	-11.2949
▁moet	-11.2949
▁crop	-11.295
▁constantly	-11.2951
▁clearance	-11.2953
▁included	-11.2954
▁verse	-11.2955
▁lava	-11.2955
▁flown	-11.2955
▁tuna	-11.2956
▁differences	-11.2956
▁surrounding	-11.2956
▁grain	-11.2956
▁agony	-11.2957
▁thered	-11.2957
▁sumo	-11.2957
▁erm	-11.296
▁stranded	-11.2961
▁qualified	-11.2961
▁growth	-11.2962
▁waking	-11.2963
▁vain	-11.2963
▁established	-11.2963
▁ricky	-11.2963
▁durant	-11.2963
jack	-11.2966
▁swis	-11.2966
▁discovery	-11.297
▁backpack	-11.2971
▁images	-11.2971
▁they	-11.2975
▁inventor	-11.2975
▁tomb	-11.2976
▁helene	-11.2978
▁factor	-11.2979
▁receiver	-11.298
▁jab	-11.298
▁morgana	-11.2981
▁assist	-11.2986
▁tucker	-11.2987
▁declared	-11.2987
▁disturbed	-11.2988
▁cowhands	-11.2988
▁spite	-11.2991
▁orc	-11.2994
▁q	-11.2994
▁fielding	-11.2995
▁kar	-11.2996
▁lew	-11.3002
▁frightening	-11.3002
▁flooded	-11.3005
▁sto	-11.3007
▁gown	-11.3009
▁beaten	-11.3019
▁trucks	-11.302
▁pinky	-11.303
▁attacks	-11.3032
▁stirr	-11.3032
▁gulps	-11.3037
▁shines	-11.3044
▁tubes	-11.3052
▁kingman	-11.3055
▁accidents	-11.3057
▁rebel	-11.3057
ache	-11.3062
▁brooks	-11.3068
▁rushed	-11.3068
▁rented	-11.3071
▁switched	-11.3074
▁earl	-11.3075
▁seasons	-11.3078
▁shadows	-11.3079
▁designer	-11.3081
▁demanding	-11.3083
▁reminder	-11.3086
▁failing	-11.3087
▁shatters	-11.3093
▁tricky	-11.3096
gus	-11.3096
▁pouring	-11.3106
▁hostages	-11.3107
▁princes	-11.3112
▁rae	-11.3114
▁serves	-11.3116
etta	-11.3123
▁magnetic	-11.3129
ization	-11.3131
▁tips	-11.3135
bug	-11.3137
▁paulas	-11.3142
▁lem	-11.3144
▁knots	-11.3154
▁moos	-11.3154
▁lan	-11.3159
aki	-11.3159
▁watchers	-11.3168
▁zu	-11.3171
▁thundering	-11.318
▁dreamt	-11.3187
▁nurs	-11.3195
iro	-11.32
▁tricked	-11.3205
▁supporting	-11.3206
▁playin	-11.321
▁abu	-11.3211
▁bots	-11.3218
▁gib	-11.3224
▁priests	-11.3227
▁orphans	-11.3237
▁booked	-11.3248
▁await	-11.3248
ane	-11.3261
▁include	-11.3262
▁differently	-11.3262
▁fails	-11.3263
▁magn	-11.3264
iiy	-11.3266
▁what	-11.3266
▁crimes	-11.3268
bel	-11.3277
▁instrument	-11.3278
▁athletic	-11.3279
▁sneeze	-11.3279
▁survivor	-11.328
▁carrot	-11.3281
▁tons	-11.3281
▁mutant	-11.3283
▁medals	-11.3284
▁giggle	-11.3285
▁there	-11.3287
iii	-11.3289
▁rumor	-11.3292
▁reaching	-11.3295
▁visitor	-11.3312
▁trac	-11.3315
▁ripe	-11.3315
elt	-11.3323
doo	-11.3327
▁fades	-11.3327
onder	-11.3329
ologist	-11.3348
▁hips	-11.3352
ano	-11.3364
▁ber	-11.3366
▁blaze	-11.3382
▁bor	-11.3391
▁historic	-11.3418
▁bats	-11.3423
▁gune	-11.3433
▁by	-11.3437
▁attacking	-11.3442
▁effects	-11.3451
▁echo	-11.3454
auld	-11.3461
guard	-11.3464
three	-11.3468
minded	-11.3468
piece	-11.3468
style	-11.3468
▁heavi	-11.3468
▁reserve	-11.3475
▁flatter	-11.3477
▁colon	-11.3477
▁girlfriends	-11.3478
▁numb	-11.348
▁wilkins	-11.3483
▁mega	-11.3485
▁sensation	-11.3489
▁reel	-11.349
▁distinct	-11.349
▁thirteen	-11.3491
▁memo	-11.3492
▁solemn	-11.3493
▁abnegation	-11.3493
▁absence	-11.3493
▁atahuallpa	-11.3493
▁baudelaire	-11.3493
▁cavalry	-11.3493
▁clemson	-11.3493
▁corporate	-11.3493
▁dispatch	-11.3493
▁dynamite	-11.3493
▁economic	-11.3493
▁encounter	-11.3493
▁entitled	-11.3493
▁fountain	-11.3493
▁grendel	-11.3493
▁hallucination	-11.3493
▁horizon	-11.3493
▁iggy	-11.3493
▁inappropriate	-11.3493
▁inviting	-11.3493
▁juvenile	-11.3493
▁lazarus	-11.3493
▁malenkov	-11.3493
▁maligore	-11.3493
▁messenger	-11.3493
▁mortgage	-11.3493
▁notify	-11.3493
▁ominous	-11.3493
▁pegasus	-11.3493
▁pharaoh	-11.3493
▁politician	-11.3493
▁polynesia	-11.3493
▁premier	-11.3493
▁rhino	-11.3493
▁schultz	-11.3493
▁sherlock	-11.3493
▁sketch	-11.3493
▁sonofabitch	-11.3493
▁sophisticated	-11.3493
▁stargazer	-11.3493
▁sukarno	-11.3493
▁transmooker	-11.3493
▁umbrella	-11.3493
▁wardrobe	-11.3493
▁wheelchair	-11.3493
▁winifred	-11.3493
▁zombie	-11.3493
▁boggis	-11.3493
▁bulb	-11.3493
▁hamburger	-11.3493
▁laurie	-11.3493
▁lettuce	-11.3493
▁lynch	-11.3493
▁quarrel	-11.3493
▁ufc	-11.3493
▁glitter	-11.3493
▁howre	-11.3493
▁lunna	-11.3493
▁marvin	-11.3493
▁quentin	-11.3493
▁cantonese	-11.3493
▁commotion	-11.3493
▁lodge	-11.3493
▁piedge	-11.3493
▁amber	-11.3493
▁borras	-11.3493
▁mccartney	-11.3493
▁zorin	-11.3493
▁burrito	-11.3493
▁lease	-11.3493
▁thorin	-11.3493
▁yawns	-11.3493
▁holler	-11.3493
▁hyperspeed	-11.3493
▁departure	-11.3493
▁valek	-11.3493
▁donnagon	-11.3493
▁yasmin	-11.3493
▁bradford	-11.3493
▁tyrant	-11.3493
▁brutal	-11.3493
▁conceiv	-11.3493
▁syd	-11.3494
▁allamerican	-11.3494
▁sequel	-11.3494
▁refund	-11.3494
▁blindfold	-11.3494
▁slack	-11.3494
▁bamba	-11.3494
▁isle	-11.3494
▁alaska	-11.3494
▁bonney	-11.3494
▁bracelet	-11.3494
▁prospect	-11.3494
▁transferred	-11.3494
▁transmitter	-11.3494
▁hayden	-11.3494
▁globe	-11.3495
▁password	-11.3495
▁banner	-11.3495
▁fluid	-11.3495
▁permitted	-11.3495
▁ojo	-11.3495
▁fadela	-11.3496
▁cupboard	-11.3496
▁springfield	-11.3496
▁cunt	-11.3496
▁vicar	-11.3496
▁bodyguard	-11.3496
▁cheerio	-11.3496
▁gower	-11.3496
▁legendary	-11.3496
▁stomp	-11.3497
▁distraction	-11.3497
▁industrial	-11.3497
▁flipper	-11.3497
▁dyke	-11.3497
▁furry	-11.3498
▁chute	-11.3498
▁occupation	-11.3498
▁mutters	-11.3499
▁chili	-11.3499
▁notion	-11.35
▁shelf	-11.35
▁bribe	-11.35
▁terrifying	-11.35
▁gail	-11.35
▁flare	-11.35
▁lightfoot	-11.3501
▁donation	-11.3501
▁stoke	-11.3502
tel	-11.3502
▁household	-11.3502
▁tidy	-11.3502
▁satisfy	-11.3502
▁gundy	-11.3503
▁tango	-11.3503
▁casa	-11.3503
▁wiggle	-11.3504
▁modest	-11.3504
▁amazed	-11.3508
▁pearls	-11.3509
▁milo	-11.3509
▁lighthouse	-11.351
▁cmon	-11.351
▁dictate	-11.3512
▁scattered	-11.3513
▁furious	-11.3514
▁butcher	-11.3516
▁sap	-11.3518
▁dire	-11.3518
▁vanished	-11.3518
▁lust	-11.3518
▁sage	-11.352
▁formation	-11.3522
▁binder	-11.3524
▁shipment	-11.3524
▁invest	-11.3524
▁physically	-11.3526
▁barber	-11.3528
▁tora	-11.353
▁recovered	-11.353
▁bearing	-11.353
▁millie	-11.353
▁aunts	-11.3532
▁folder	-11.3532
▁waitress	-11.3535
▁calculations	-11.3536
▁bugsy	-11.3536
▁scottie	-11.3539
▁melting	-11.3543
▁seduc	-11.3543
▁stinky	-11.3543
liest	-11.3543
▁stabb	-11.355
▁reaches	-11.3553
cop	-11.3559
▁disturbing	-11.356
▁vibrations	-11.3561
▁ila	-11.3569
▁larger	-11.3571
▁vehicles	-11.3572
▁consequences	-11.3573
▁cher	-11.3576
▁smelling	-11.358
▁interrupting	-11.358
▁dresses	-11.3582
▁flooding	-11.3582
▁sour	-11.3584
▁knuckles	-11.3584
roy	-11.3586
▁don	-11.359
▁brit	-11.3596
▁hilo	-11.3604
▁relations	-11.361
cap	-11.3615
▁handed	-11.3615
▁stores	-11.362
▁reduce	-11.3623
▁ir	-11.3624
▁swords	-11.3629
▁foe	-11.363
▁pumps	-11.3632
▁sadly	-11.3634
▁burglars	-11.3635
▁collecting	-11.3636
▁moans	-11.3638
rant	-11.3643
▁completed	-11.3647
▁stoned	-11.3657
▁nod	-11.3659
▁emotions	-11.366
test	-11.3663
▁ohho	-11.3667
▁ordering	-11.3668
▁fighters	-11.3668
▁paintings	-11.367
▁maw	-11.367
▁smiled	-11.3682
▁crud	-11.3683
▁rely	-11.3683
▁buns	-11.3686
▁veer	-11.3693
▁qua	-11.3693
▁arse	-11.3693
did	-11.37
▁carrots	-11.371
▁mutants	-11.371
▁hick	-11.3712
▁operations	-11.3726
▁onions	-11.3736
boo	-11.3737
dding	-11.3737
▁burt	-11.3741
▁divers	-11.3753
▁dana	-11.3762
▁kat	-11.3764
flex	-11.3775
▁exceptional	-11.3775
hm	-11.3776
▁faced	-11.3777
▁gardener	-11.378
wan	-11.3784
▁oid	-11.3786
▁capt	-11.3798
▁risking	-11.38
▁hugg	-11.3832
▁tod	-11.3834
▁fatal	-11.384
▁adams	-11.3846
will	-11.3848
▁nome	-11.3852
▁spits	-11.3863
▁neighbour	-11.3868
▁employee	-11.3869
▁stamp	-11.3869
▁colour	-11.3869
▁tribe	-11.387
▁curtain	-11.387
▁kindly	-11.3875
▁ruins	-11.3883
▁thuds	-11.3885
iti	-11.3891
▁cycle	-11.3895
▁casey	-11.3895
two	-11.3895
▁ness	-11.3897
▁towels	-11.3898
▁wu	-11.3902
▁growl	-11.3908
▁missions	-11.3913
▁worms	-11.3914
▁mea	-11.3921
▁hoot	-11.3929
▁tit	-11.3933
▁ache	-11.3937
hour	-11.3943
▁bal	-11.3948
▁vie	-11.396
var	-11.396
▁subjects	-11.3977
▁revs	-11.3981
▁paula	-11.3982
▁counted	-11.3985
▁stir	-11.399
▁deer	-11.4
▁bou	-11.4004
▁cam	-11.401
aged	-11.4014
▁adi	-11.4024
▁logic	-11.4031
▁condo	-11.4042
ello	-11.4044
▁bun	-11.4046
▁establish	-11.4051
▁neuter	-11.4052
ait	-11.4058
▁hel	-11.406
▁spiders	-11.4063
▁expose	-11.4064
mark	-11.4064
▁thirst	-11.4065
▁spook	-11.4065
▁inspire	-11.4068
aries	-11.4068
▁swift	-11.407
▁teenage	-11.4072
▁leavin	-11.4076
▁recent	-11.4077
▁mystic	-11.4077
▁excess	-11.408
▁compass	-11.408
▁triumph	-11.408
▁architect	-11.4081
▁inherit	-11.4081
▁alternative	-11.4081
▁altitude	-11.4081
▁aylwood	-11.4081
▁balcony	-11.4081
▁briefcase	-11.4081
▁cadence	-11.4081
▁cahill	-11.4081
▁clarinet	-11.4081
▁cleveland	-11.4081
▁concrete	-11.4081
▁crikey	-11.4081
▁cristal	-11.4081
▁cupcake	-11.4081
▁cushion	-11.4081
▁dazzling	-11.4081
▁depression	-11.4081
▁deuteronomy	-11.4081
▁devoted	-11.4081
▁duchess	-11.4081
▁eglantine	-11.4081
▁fiction	-11.4081
▁frawley	-11.4081
▁gracias	-11.4081
▁guidance	-11.4081
▁intact	-11.4081
▁introduction	-11.4081
▁kornpett	-11.4081
▁labyrinth	-11.4081
▁lawrence	-11.4081
▁liszt	-11.4081
▁luxury	-11.4081
▁meadow	-11.4081
▁memorial	-11.4081
▁molotov	-11.4081
▁monterey	-11.4081
▁napaloni	-11.4081
▁opportunities	-11.4081
▁perspective	-11.4081
▁pitiful	-11.4081
▁qyack	-11.4081
▁resource	-11.4081
▁revoir	-11.4081
▁rhode	-11.4081
▁rodrick	-11.4081
▁schooi	-11.4081
▁sensible	-11.4081
▁southjet	-11.4081
▁southwest	-11.4081
▁stanislav	-11.4081
▁stepmother	-11.4081
▁svetlana	-11.4081
▁tomainia	-11.4081
▁unnecessary	-11.4081
▁whatsoever	-11.4081
▁winthrop	-11.4081
▁yoohoo	-11.4081
▁frederick	-11.4081
▁juicy	-11.4081
▁maestro	-11.4081
▁nashville	-11.4081
▁ncaa	-11.4081
▁wrench	-11.4081
▁boogie	-11.4081
▁hobby	-11.4081
▁possum	-11.4081
▁domino	-11.4081
▁eager	-11.4081
▁faggot	-11.4081
▁ninth	-11.4081
▁bookstore	-11.4081
▁demonstrate	-11.4081
▁yoast	-11.4081
▁chores	-11.4081
▁bypass	-11.4081
▁caddie	-11.4081
▁pervert	-11.4081
▁beindorf	-11.4081
▁sasha	-11.4081
▁coronation	-11.4081
▁cuba	-11.4081
▁tolerate	-11.4081
▁obtain	-11.4082
▁scram	-11.4082
▁susie	-11.4082
▁election	-11.4082
▁lethal	-11.4082
▁mourn	-11.4082
▁babbling	-11.4082
▁outlaw	-11.4082
▁tummy	-11.4082
▁medlock	-11.4082
▁mellow	-11.4082
▁swap	-11.4082
▁whipped	-11.4082
▁revving	-11.4082
▁tinker	-11.4082
▁medium	-11.4082
▁vibra	-11.4082
▁solar	-11.4082
▁martial	-11.4082
▁kaart	-11.4082
▁gerti	-11.4082
▁popped	-11.4083
▁liking	-11.4083
▁operating	-11.4083
▁clayton	-11.4083
▁loski	-11.4083
▁trend	-11.4083
▁hippo	-11.4083
▁otter	-11.4083
▁membership	-11.4083
▁maude	-11.4083
▁solomon	-11.4084
▁transformation	-11.4084
▁extract	-11.4085
▁cru	-11.4085
▁techno	-11.4085
▁laura	-11.4085
▁equipped	-11.4086
▁lola	-11.4086
▁sunlight	-11.4086
▁addiction	-11.4087
▁micro	-11.4087
▁avis	-11.4088
▁brotherhood	-11.4088
▁rita	-11.409
▁shipping	-11.409
▁elsewhere	-11.409
▁posh	-11.4091
▁befo	-11.4091
▁delete	-11.4092
▁portion	-11.4092
▁regi	-11.4093
▁hanson	-11.4093
wind	-11.4093
▁squirly	-11.4093
▁sneakers	-11.4094
▁groove	-11.4094
▁clone	-11.4095
▁boof	-11.4096
▁crate	-11.4097
▁cheque	-11.4098
door	-11.4098
▁caw	-11.4098
▁cope	-11.4099
▁exposed	-11.4099
▁kra	-11.4101
▁brownies	-11.4101
▁sincerely	-11.4102
▁appointed	-11.4102
▁fulltime	-11.4103
▁approaches	-11.4103
aaaaah	-11.4104
▁archy	-11.4104
▁slimy	-11.4106
▁equally	-11.4107
tell	-11.4108
▁raft	-11.4108
▁graduated	-11.4109
▁mild	-11.411
▁controlled	-11.4111
▁fuckers	-11.4112
▁deepest	-11.4116
▁registered	-11.4117
▁curly	-11.4118
▁dega	-11.412
▁dong	-11.412
▁vu	-11.4121
▁described	-11.4124
▁mooing	-11.4127
▁proves	-11.4128
▁exploded	-11.4129
▁oliver	-11.4132
▁internal	-11.4134
handed	-11.4135
▁badass	-11.4138
▁published	-11.4138
▁assured	-11.4139
▁sentences	-11.414
▁trumpets	-11.414
▁guaranteed	-11.4144
▁goldie	-11.4146
▁maze	-11.4148
lma	-11.4149
▁thumbs	-11.4149
▁beaches	-11.415
▁poo	-11.4151
▁lair	-11.4152
▁healed	-11.4153
▁correctly	-11.4155
▁boiling	-11.4157
▁faut	-11.4158
▁hasse	-11.416
▁historical	-11.4162
ood	-11.4165
▁traps	-11.4166
▁bowler	-11.4168
put	-11.417
▁engineering	-11.4171
ional	-11.4173
▁forgiven	-11.4177
▁wired	-11.4178
law	-11.4182
▁wrecking	-11.4189
▁liz	-11.4191
▁hmmm	-11.4194
▁attending	-11.4196
train	-11.4197
▁gunshots	-11.4204
▁borrowed	-11.4212
▁maxie	-11.4215
▁yum	-11.4218
▁mammals	-11.4219
▁scratching	-11.422
▁goob	-11.4223
kn	-11.4223
▁treaty	-11.4231
▁cutters	-11.4233
▁teenagers	-11.4234
▁risky	-11.4236
▁superb	-11.4237
▁disc	-11.424
▁erase	-11.4242
▁squirrels	-11.4243
▁psychic	-11.4243
▁bam	-11.4245
▁discussed	-11.4249
▁ger	-11.426
▁forge	-11.4271
▁chairs	-11.4278
▁iv	-11.4279
lio	-11.4279
▁cowards	-11.4282
▁sank	-11.4292
▁spat	-11.4295
vid	-11.4304
▁pickles	-11.4308
▁julies	-11.431
▁swinging	-11.431
▁luci	-11.431
hut	-11.432
▁riders	-11.4326
▁delivering	-11.4328
▁gil	-11.4328
▁pressed	-11.4331
▁imperi	-11.4332
▁rustle	-11.4333
▁ribs	-11.4334
▁vl	-11.4335
rig	-11.4335
▁vows	-11.4339
▁scares	-11.4345
▁pushy	-11.4353
▁neednt	-11.4354
▁leaders	-11.4356
▁associates	-11.4361
▁her	-11.4365
▁tee	-11.4366
▁tis	-11.4368
aah	-11.4386
▁classy	-11.4397
▁saints	-11.4398
anna	-11.4399
▁quot	-11.4401
▁habits	-11.4405
▁snacks	-11.4405
▁colt	-11.4411
▁relationships	-11.4412
▁wav	-11.4412
▁zetas	-11.4418
▁jou	-11.4423
▁sob	-11.4439
▁speeding	-11.4441
▁boner	-11.4453
▁cub	-11.4454
▁comments	-11.4468
nap	-11.4474
▁carries	-11.4476
▁chart	-11.4485
▁meals	-11.4487
▁feature	-11.4492
▁valentine	-11.4493
char	-11.4494
▁instinct	-11.4495
most	-11.4497
with	-11.4505
▁bakers	-11.4507
▁relaxed	-11.4525
▁coats	-11.4529
▁coaching	-11.4531
▁ofyou	-11.454
▁jerks	-11.4556
▁equals	-11.4558
▁democrat	-11.4561
▁shutter	-11.4563
leg	-11.4571
▁debts	-11.4582
▁amor	-11.4588
▁fooling	-11.459
▁accounts	-11.4595
▁patti	-11.4598
▁careless	-11.4599
▁mou	-11.46
mination	-11.4606
▁clowns	-11.4606
called	-11.4616
▁employ	-11.4619
range	-11.4622
▁pickle	-11.4623
▁owl	-11.4626
▁explosions	-11.4633
▁funds	-11.4647
▁hun	-11.4654
▁smelled	-11.4654
▁explaining	-11.4656
▁outs	-11.466
▁dread	-11.4662
▁enchant	-11.4676
▁coins	-11.4677
brain	-11.4678
▁download	-11.4678
▁exhaust	-11.4678
mission	-11.4679
▁strand	-11.4679
burn	-11.4679
john	-11.468
▁whack	-11.468
▁assign	-11.4685
▁chic	-11.4685
▁explore	-11.4685
▁purchase	-11.4688
▁loft	-11.469
▁technical	-11.4695
▁precise	-11.4695
▁vanish	-11.4696
▁fortunate	-11.4696
▁doom	-11.4697
▁bertie	-11.47
▁contribut	-11.4704
mal	-11.4705
▁oohooh	-11.4706
▁authentic	-11.4706
▁bokke	-11.4706
▁bonjour	-11.4706
▁canyon	-11.4706
▁capitol	-11.4706
▁celebrity	-11.4706
▁chimpanzee	-11.4706
▁column	-11.4706
▁connais	-11.4706
▁contempt	-11.4706
▁curiosity	-11.4706
▁dahlberg	-11.4706
▁delinquent	-11.4706
▁despise	-11.4706
▁detroit	-11.4706
▁devereaux	-11.4706
▁disobey	-11.4706
▁durbeyfield	-11.4706
▁easiest	-11.4706
▁edition	-11.4706
▁einstein	-11.4706
▁eisenhower	-11.4706
▁elegant	-11.4706
▁envelope	-11.4706
▁exquisite	-11.4706
▁facial	-11.4706
▁facilities	-11.4706
▁fanfare	-11.4706
▁fourfendered	-11.4706
▁hobart	-11.4706
▁hollow	-11.4706
▁humiliate	-11.4706
▁hungarian	-11.4706
▁intimate	-11.4706
▁investigator	-11.4706
▁jazamapajama	-11.4706
▁judging	-11.4706
▁ketchup	-11.4706
▁lonnegan	-11.4706
▁magrathea	-11.4706
▁manhattan	-11.4706
▁nataiie	-11.4706
▁nuisance	-11.4706
▁ornament	-11.4706
▁overseas	-11.4706
▁pentagon	-11.4706
▁porridge	-11.4706
▁quark	-11.4706
▁rejoice	-11.4706
▁rhonda	-11.4706
▁schnitzel	-11.4706
▁scotch	-11.4706
▁selfdefense	-11.4706
▁seminar	-11.4706
▁shepherd	-11.4706
▁spaghetti	-11.4706
▁squirt	-11.4706
▁supernatural	-11.4706
▁suspension	-11.4706
▁syndicate	-11.4706
▁tiffany	-11.4706
▁trousers	-11.4706
▁venom	-11.4706
▁bleach	-11.4706
▁clutch	-11.4706
▁deceive	-11.4706
▁dizzy	-11.4706
▁figuring	-11.4706
▁krauts	-11.4706
▁lcarus	-11.4706
▁rameses	-11.4706
▁saloon	-11.4706
▁sarge	-11.4706
▁sengh	-11.4706
▁seventeen	-11.4706
▁snoop	-11.4706
▁zealand	-11.4706
responsibilities	-11.4706
▁scandal	-11.4706
▁warehouse	-11.4706
▁worid	-11.4706
▁jenkins	-11.4706
▁sushi	-11.4706
▁kaiser	-11.4706
▁exceed	-11.4706
▁panicked	-11.4706
▁patron	-11.4706
▁chipettes	-11.4706
▁occupied	-11.4706
▁northwest	-11.4706
▁stubbins	-11.4706
▁imitating	-11.4706
▁gossip	-11.4706
▁elders	-11.4706
▁grasshopper	-11.4707
▁overlapping	-11.4707
▁flirt	-11.4707
▁beckett	-11.4707
▁peacock	-11.4707
▁dictator	-11.4707
▁vogon	-11.4707
▁whatcha	-11.4707
▁chemistry	-11.4707
▁choosing	-11.4707
▁snuck	-11.4707
▁kramer	-11.4707
▁jockey	-11.4707
▁strapped	-11.4707
▁giddyup	-11.4707
▁mambo	-11.4707
▁income	-11.4707
▁cosmic	-11.4707
▁welker	-11.4707
▁sodomites	-11.4707
▁authorized	-11.4707
▁twentyfour	-11.4707
▁headlines	-11.4707
▁selva	-11.4707
▁tripped	-11.4707
▁winslow	-11.4707
▁brewster	-11.4707
▁whining	-11.4707
▁cocktail	-11.4707
▁plead	-11.4707
▁concentration	-11.4707
▁detainee	-11.4707
▁barrier	-11.4707
▁panzer	-11.4707
▁dashwood	-11.4707
▁coughlin	-11.4707
▁chiming	-11.4708
▁trish	-11.4708
▁babysitter	-11.4708
▁stanley	-11.4708
▁tanya	-11.4708
▁ginny	-11.4708
▁comedian	-11.4708
▁morph	-11.4708
▁clack	-11.4708
▁basis	-11.4708
▁bumble	-11.4708
▁uther	-11.4709
▁foam	-11.4709
▁beaver	-11.4709
▁seville	-11.4709
▁spotlight	-11.4709
▁embarrassment	-11.4709
▁winston	-11.471
▁flick	-11.471
▁cooperate	-11.471
▁thump	-11.471
▁replacement	-11.471
▁narnia	-11.471
▁curtis	-11.471
▁slightest	-11.4711
▁mystical	-11.4711
▁louisette	-11.4711
▁dwell	-11.4711
▁slavery	-11.4711
▁lime	-11.4712
▁arrives	-11.4712
▁crust	-11.4712
▁wuss	-11.4712
▁craven	-11.4712
▁tro	-11.4712
▁starboard	-11.4712
▁expectations	-11.4712
▁intimidated	-11.4713
▁sogo	-11.4713
▁regional	-11.4713
▁shant	-11.4713
▁geneva	-11.4713
▁popping	-11.4713
▁spur	-11.4714
▁leagues	-11.4715
▁overdo	-11.4715
▁reap	-11.4716
▁rien	-11.4716
▁harmless	-11.4717
▁alleg	-11.4717
▁branches	-11.4718
shit	-11.4719
▁compare	-11.472
▁gro	-11.472
▁organic	-11.4721
▁ninety	-11.4722
▁utterly	-11.4722
▁bambi	-11.4722
▁salem	-11.4723
▁ahold	-11.4724
▁disable	-11.4724
▁bleat	-11.4726
▁departed	-11.4728
▁dickon	-11.4731
▁unlocked	-11.4731
▁realistic	-11.4733
▁cou	-11.4733
▁condor	-11.4733
▁quil	-11.4738
▁slater	-11.4738
▁muckle	-11.4741
▁greed	-11.4741
▁revealed	-11.4744
▁drunken	-11.4744
▁brady	-11.4745
▁ironic	-11.4746
▁leerie	-11.4747
dog	-11.4748
▁sling	-11.4749
▁whove	-11.4751
▁adopted	-11.4753
▁shithead	-11.4755
▁distracted	-11.4755
▁strut	-11.4757
bob	-11.4758
▁parler	-11.4758
▁tack	-11.476
▁dk	-11.4762
▁troubled	-11.4764
▁yuk	-11.4765
cum	-11.4766
▁goblins	-11.4769
▁tramp	-11.477
▁riches	-11.4773
yard	-11.4775
▁tempt	-11.4783
▁rapids	-11.4783
▁canceled	-11.4785
▁briefing	-11.4786
▁hiphop	-11.4786
▁bigtime	-11.479
▁scheduled	-11.4791
▁julien	-11.4792
ieval	-11.4794
▁explosives	-11.4797
▁mainly	-11.4801
▁webb	-11.4819
▁claus	-11.4821
▁prob	-11.483
▁difficulty	-11.4838
▁bolsheviks	-11.4839
▁spartans	-11.484
▁dow	-11.4844
▁existed	-11.4848
▁homeless	-11.4851
hen	-11.4851
▁goodlooking	-11.4851
▁lungs	-11.4853
cept	-11.4854
even	-11.4859
▁toll	-11.4859
▁inn	-11.4864
▁waar	-11.4864
▁shooter	-11.487
▁busting	-11.4876
▁ping	-11.4876
▁remained	-11.4877
▁demo	-11.4878
▁creeps	-11.488
bli	-11.4888
▁cracked	-11.4889
▁continued	-11.4896
▁adventures	-11.4901
▁leon	-11.4902
▁frankie	-11.4904
▁rigg	-11.4905
▁witnessed	-11.4906
▁nazis	-11.491
▁clipp	-11.4912
rip	-11.4915
▁via	-11.4938
▁neighbours	-11.4938
▁colours	-11.4938
ashcan	-11.4939
▁rever	-11.4946
▁dune	-11.4951
▁survivors	-11.4952
▁provo	-11.4953
▁fulfill	-11.4958
▁bandits	-11.4966
▁irs	-11.4974
▁gals	-11.4974
wait	-11.4981
▁charger	-11.4984
udge	-11.4988
▁ooo	-11.5001
track	-11.5004
pack	-11.5004
▁doubled	-11.5038
▁snaps	-11.5042
rif	-11.5043
ability	-11.5047
hhhh	-11.506
▁aged	-11.5065
▁keg	-11.5066
▁musicians	-11.508
▁ons	-11.5088
▁dor	-11.5088
▁compliments	-11.5092
▁balloons	-11.5094
late	-11.5095
▁importantly	-11.5095
▁com	-11.5098
▁scrap	-11.5101
ich	-11.5107
▁painter	-11.5112
anne	-11.5132
cci	-11.5146
▁pose	-11.5148
▁crocodiles	-11.5152
▁olympic	-11.5159
▁prawn	-11.516
▁terrorist	-11.5161
▁muppet	-11.5163
▁hebrew	-11.5164
▁hostage	-11.5164
▁intr	-11.5177
▁psych	-11.5179
ullen	-11.5182
▁grandfathers	-11.5185
▁honk	-11.5185
▁tart	-11.5207
▁cowboys	-11.5209
▁bur	-11.5215
▁tol	-11.5228
▁ach	-11.5257
▁janet	-11.5266
▁rad	-11.5275
uous	-11.529
▁nazi	-11.5298
ancy	-11.5305
▁cynic	-11.5318
▁stans	-11.5321
▁caps	-11.5326
▁engineers	-11.5338
▁disgust	-11.5338
▁resign	-11.5342
▁retard	-11.5344
▁install	-11.5346
▁soak	-11.5347
ulation	-11.5349
▁pow	-11.5351
▁cooi	-11.5354
▁sac	-11.5355
▁collapse	-11.5355
▁amaze	-11.5355
▁relieve	-11.5356
▁griff	-11.5358
▁eise	-11.5359
lessness	-11.5361
▁practical	-11.5362
▁bryan	-11.5365
yeah	-11.5367
▁raisin	-11.5368
▁sittin	-11.5368
▁grocer	-11.5371
▁righteous	-11.5372
▁diploma	-11.5373
▁suspense	-11.5373
▁abdullah	-11.5373
▁actuaiiy	-11.5373
▁aloft	-11.5373
▁anticipate	-11.5373
▁arnhem	-11.5373
▁arrietty	-11.5373
▁artillery	-11.5373
▁awhile	-11.5373
▁barricade	-11.5373
▁bathtub	-11.5373
▁beverage	-11.5373
▁bounty	-11.5373
▁brennan	-11.5373
▁concierge	-11.5373
▁corporation	-11.5373
▁coyote	-11.5373
▁daccord	-11.5373
▁darrell	-11.5373
▁disconnect	-11.5373
▁elgyn	-11.5373
▁enforcement	-11.5373
▁enlighten	-11.5373
▁eyewitness	-11.5373
▁gasoline	-11.5373
▁georgy	-11.5373
▁geronimo	-11.5373
▁glynnis	-11.5373
▁gnarnia	-11.5373
▁gulag	-11.5373
▁hashimoto	-11.5373
▁icarus	-11.5373
▁imbecile	-11.5373
▁invincible	-11.5373
▁irregular	-11.5373
▁johanson	-11.5373
▁kibner	-11.5373
▁kimberly	-11.5373
▁kocoum	-11.5373
▁manufacture	-11.5373
▁matthias	-11.5373
▁mistoffelees	-11.5373
▁necessarily	-11.5373
▁persuade	-11.5373
▁platform	-11.5373
▁premises	-11.5373
▁prettier	-11.5373
▁pyramid	-11.5373
▁recognise	-11.5373
▁refuge	-11.5373
▁reggie	-11.5373
▁religious	-11.5373
▁roussel	-11.5373
▁samantha	-11.5373
▁significant	-11.5373
▁teresa	-11.5373
▁thunderclap	-11.5373
▁unnatural	-11.5373
▁welfare	-11.5373
▁wondrous	-11.5373
▁wrath	-11.5373
▁xavier	-11.5373
▁yelps	-11.5373
▁zaphod	-11.5373
▁adrian	-11.5373
▁astonish	-11.5373
▁bikini	-11.5373
▁discount	-11.5373
▁generator	-11.5373
▁graphic	-11.5373
▁iris	-11.5373
▁manchester	-11.5373
▁manticore	-11.5373
▁previous	-11.5373
▁samuel	-11.5373
▁surgeon	-11.5373
▁vulgar	-11.5373
▁bennell	-11.5373
▁bulk	-11.5373
▁delegate	-11.5373
▁dignity	-11.5373
▁fumble	-11.5373
▁mutual	-11.5373
▁nevertheless	-11.5373
▁piace	-11.5373
▁dairy	-11.5373
▁valerie	-11.5373
▁adapt	-11.5373
▁dardis	-11.5373
▁mathmos	-11.5373
▁rubbing	-11.5373
▁eject	-11.5373
▁mewtwo	-11.5373
▁beaumont	-11.5373
▁pact	-11.5373
▁quadrant	-11.5373
▁fabric	-11.5373
▁grit	-11.5373
▁douglas	-11.5373
▁lipstick	-11.5373
▁recess	-11.5373
▁slumberland	-11.5373
▁hawkins	-11.5373
▁creating	-11.5373
▁scatting	-11.5373
▁valens	-11.5373
▁charlene	-11.5374
▁infantry	-11.5374
▁banjo	-11.5374
▁milord	-11.5374
▁ounce	-11.5374
▁twentyfive	-11.5374
▁astra	-11.5374
▁representative	-11.5374
▁adios	-11.5374
▁cornelius	-11.5374
▁drumming	-11.5374
▁shack	-11.5374
▁filter	-11.5374
▁cannonball	-11.5374
▁render	-11.5374
▁constantine	-11.5375
▁plaster	-11.5375
▁outdoor	-11.5375
▁finley	-11.5375
▁admission	-11.5375
▁hartman	-11.5375
▁tang	-11.5375
▁hailey	-11.5375
▁voir	-11.5375
▁schip	-11.5375
▁syne	-11.5375
▁analyze	-11.5375
▁templeton	-11.5376
▁improvement	-11.5376
▁sidekick	-11.5376
▁ammo	-11.5376
▁retirement	-11.5376
▁jock	-11.5376
▁malia	-11.5376
▁pupil	-11.5376
▁landmark	-11.5376
▁consume	-11.5376
▁carolina	-11.5376
▁unpack	-11.5377
▁lunchbox	-11.5378
▁guld	-11.5378
▁classroom	-11.5379
▁spitting	-11.5379
▁hatred	-11.5379
▁trent	-11.5379
▁saul	-11.5379
▁waist	-11.538
faced	-11.538
▁noah	-11.538
▁petty	-11.5381
▁vip	-11.5381
▁exploring	-11.5382
▁nipple	-11.5382
▁frustrated	-11.5382
▁thug	-11.5382
▁cork	-11.5382
▁caper	-11.5382
▁bred	-11.5383
▁thoroughly	-11.5383
▁rj	-11.5383
▁cane	-11.5384
▁slay	-11.5384
▁twit	-11.5385
▁fortunately	-11.5385
▁sandra	-11.5385
▁compromised	-11.5386
▁consist	-11.5386
▁mineral	-11.5386
▁cafe	-11.5386
▁panel	-11.5387
▁bravery	-11.5388
▁stealth	-11.5389
▁suh	-11.539
▁duel	-11.5391
▁lila	-11.5391
▁elf	-11.5392
▁tracy	-11.5393
▁machinery	-11.5394
▁masses	-11.5394
▁hover	-11.5396
▁frontier	-11.5397
▁activated	-11.5397
▁accused	-11.5397
keeper	-11.54
▁respectable	-11.5401
▁installed	-11.5402
▁clanging	-11.5402
▁peaches	-11.5402
▁tray	-11.5403
▁prickly	-11.5406
▁honorable	-11.5408
▁regarde	-11.5408
▁turd	-11.5409
▁ack	-11.541
▁announced	-11.5411
▁peeled	-11.5415
▁inning	-11.5416
▁iim	-11.542
▁cola	-11.5422
▁laden	-11.5422
▁cowardly	-11.5423
▁whiz	-11.5424
▁australian	-11.5424
▁undo	-11.5425
▁rarely	-11.5425
▁wrestler	-11.543
▁cad	-11.5432
▁sneaky	-11.5434
▁positively	-11.5438
▁springboks	-11.544
▁mounted	-11.5441
▁mush	-11.5444
▁informed	-11.5449
▁foryou	-11.5452
▁pant	-11.5454
▁spared	-11.5454
▁chica	-11.5456
▁interrupted	-11.5457
▁proceeding	-11.5459
vol	-11.5463
tric	-11.5463
▁teaches	-11.5464
▁dusty	-11.5467
▁oysters	-11.547
▁wad	-11.5474
▁cured	-11.5474
▁chu	-11.5479
▁sniper	-11.5481
▁buzzer	-11.5483
▁lens	-11.5486
nde	-11.5493
▁shocking	-11.5494
▁printed	-11.5495
▁yyou	-11.5502
▁hardest	-11.5502
▁photographer	-11.5502
▁requests	-11.5504
east	-11.5512
▁boiler	-11.5519
▁mic	-11.5519
▁overlook	-11.5524
▁taller	-11.553
▁punched	-11.5531
▁falcons	-11.5546
▁voted	-11.5554
▁ruled	-11.5554
▁touches	-11.5555
▁readers	-11.5558
▁pitcher	-11.5558
▁maniacal	-11.556
▁preed	-11.557
▁prophets	-11.5576
▁thankyou	-11.5577
▁sala	-11.5578
▁proved	-11.5585
▁backside	-11.5586
▁scraps	-11.5588
▁tighter	-11.559
▁pra	-11.559
▁prawns	-11.5591
▁rollin	-11.5597
▁bandage	-11.5605
▁val	-11.5608
▁learnt	-11.5619
▁ahha	-11.562
▁stamps	-11.5621
▁tribes	-11.5621
▁unite	-11.5638
▁posted	-11.564
▁longest	-11.5644
▁loading	-11.5645
▁trot	-11.5655
▁slower	-11.5665
▁gia	-11.5667
▁shorter	-11.5669
▁shal	-11.5688
▁outsider	-11.569
▁fasten	-11.569
▁pens	-11.5693
▁accepting	-11.5701
wn	-11.5701
▁scr	-11.5712
▁visited	-11.5719
▁yankees	-11.5728
▁mec	-11.5734
▁dared	-11.574
▁peasants	-11.5743
hold	-11.5744
▁inca	-11.5752
▁farming	-11.5758
isse	-11.5759
▁smelly	-11.576
▁contains	-11.5761
▁bishops	-11.5789
▁goons	-11.579
▁watches	-11.5808
▁biz	-11.581
nut	-11.5813
▁mart	-11.582
▁barrels	-11.5835
▁probe	-11.5842
▁whisper	-11.5844
▁shatter	-11.5849
▁multi	-11.5849
▁hunters	-11.5852
▁coll	-11.5852
ivor	-11.5867
▁emotion	-11.5871
▁zon	-11.5871
▁pint	-11.5871
▁guinea	-11.5873
▁prophet	-11.5874
▁pris	-11.588
▁devi	-11.5887
▁slayer	-11.5892
▁farts	-11.5892
▁dup	-11.5908
▁uni	-11.5909
zen	-11.5913
rabby	-11.5913
sey	-11.5927
breaker	-11.5935
mont	-11.5936
▁bootleg	-11.5938
▁liv	-11.5948
▁gent	-11.5954
▁misses	-11.5987
▁camping	-11.5993
path	-11.5997
bla	-11.6008
▁prov	-11.6011
▁hei	-11.6015
▁gaze	-11.6022
▁beautifully	-11.6028
▁aaa	-11.6033
▁slug	-11.6042
▁zap	-11.6052
▁corrupt	-11.6055
dollar	-11.606
space	-11.6061
weight	-11.6064
eigh	-11.6066
▁unlock	-11.6067
speed	-11.6068
elle	-11.6068
▁activate	-11.607
▁confuse	-11.607
▁combine	-11.6073
pool	-11.6075
kill	-11.6076
▁iot	-11.6082
▁motherfuckin	-11.6082
▁recon	-11.6084
▁posse	-11.6085
▁beck	-11.6087
▁sync	-11.6087
▁innocence	-11.6087
▁reconsider	-11.6087
▁vietnam	-11.6087
▁administration	-11.6087
▁alabama	-11.6087
▁albrecht	-11.6087
▁alphabet	-11.6087
▁anoint	-11.6087
▁attila	-11.6087
▁baltimore	-11.6087
▁bammbamm	-11.6087
▁berkeley	-11.6087
▁besoin	-11.6087
▁blossom	-11.6087
▁blush	-11.6087
▁bratitude	-11.6087
▁bulldozer	-11.6087
▁byzanium	-11.6087
▁capulet	-11.6087
▁caviar	-11.6087
▁charging	-11.6087
▁conceal	-11.6087
▁crucial	-11.6087
▁dawson	-11.6087
▁dimension	-11.6087
▁disposal	-11.6087
▁dokter	-11.6087
▁edison	-11.6087
▁elected	-11.6087
▁eminence	-11.6087
▁engraving	-11.6087
▁expedition	-11.6087
▁experiencing	-11.6087
▁exploding	-11.6087
▁fitzhume	-11.6087
▁fragile	-11.6087
▁glimpse	-11.6087
▁happiest	-11.6087
▁hebben	-11.6087
▁humiliating	-11.6087
▁jeanloup	-11.6087
▁jongen	-11.6087
▁jordan	-11.6087
▁lesbian	-11.6087
▁literature	-11.6087
▁mackerel	-11.6087
▁maintenance	-11.6087
▁mercury	-11.6087
▁montague	-11.6087
▁mosquito	-11.6087
▁muslim	-11.6087
▁mwah	-11.6087
▁octopus	-11.6087
▁oiiver	-11.6087
▁omelet	-11.6087
▁paranoid	-11.6087
▁pineapple	-11.6087
▁platoon	-11.6087
▁propeller	-11.6087
▁prototype	-11.6087
▁raccoon	-11.6087
▁raspberry	-11.6087
▁regulations	-11.6087
▁rehearsing	-11.6087
▁reynardo	-11.6087
▁salvation	-11.6087
▁separation	-11.6087
▁spretzle	-11.6087
▁staircase	-11.6087
▁stefan	-11.6087
▁struggling	-11.6087
▁stunning	-11.6087
▁submit	-11.6087
▁tambourine	-11.6087
▁teschen	-11.6087
▁thanksgiving	-11.6087
▁truffle	-11.6087
▁undercover	-11.6087
▁undoubted	-11.6087
▁unleash	-11.6087
▁vaughan	-11.6087
▁vaughn	-11.6087
▁waponi	-11.6087
▁whisrles	-11.6087
▁aloha	-11.6087
▁bueno	-11.6087
▁jeffrey	-11.6087
▁kaycee	-11.6087
▁korso	-11.6087
▁machete	-11.6087
▁mcsween	-11.6087
▁pencil	-11.6087
▁reboot	-11.6087
▁tricia	-11.6087
▁yowling	-11.6087
▁lndian	-11.6087
▁promising	-11.6087
▁rascal	-11.6087
▁terrain	-11.6087
lijk	-11.6087
▁cayman	-11.6087
▁eyebrows	-11.6087
▁trench	-11.6087
▁chopped	-11.6087
▁distinguished	-11.6087
▁fingerprints	-11.6087
▁jackpot	-11.6087
▁postpone	-11.6087
▁inmates	-11.6087
▁scalp	-11.6087
▁creaks	-11.6087
▁holland	-11.6087
▁yikes	-11.6087
▁iast	-11.6087
▁doughnut	-11.6087
▁crisp	-11.6087
▁grabbed	-11.6087
▁shuttle	-11.6087
▁titties	-11.6088
▁spawn	-11.6088
▁global	-11.6088
▁fusion	-11.6088
▁whoville	-11.6088
▁interpol	-11.6088
▁parasite	-11.6088
shoot	-11.6088
▁jesuit	-11.6088
▁francs	-11.6088
▁temporal	-11.6088
▁flaming	-11.6088
▁blaming	-11.6088
▁miniatur	-11.6088
▁lizard	-11.6088
▁nadya	-11.6088
▁jizz	-11.6088
▁lisp	-11.6088
▁thigh	-11.6088
▁serene	-11.6088
▁cluck	-11.6088
▁heaveho	-11.6088
▁nikki	-11.6088
▁flack	-11.6088
▁beacon	-11.6088
▁ifyou	-11.6088
▁alibi	-11.6088
▁munk	-11.6088
▁reopen	-11.6088
▁meneer	-11.6088
▁milner	-11.6088
▁pecan	-11.6089
▁merchandise	-11.6089
▁blacksmith	-11.6089
▁wither	-11.6089
▁langley	-11.6089
▁transmit	-11.6089
▁drummer	-11.6089
▁amusement	-11.6089
▁gagging	-11.6089
▁lemur	-11.6089
▁cellphone	-11.6089
▁regiment	-11.6089
▁antique	-11.6089
▁cowgirl	-11.6089
▁investment	-11.6089
▁hamster	-11.6089
▁nonnie	-11.609
▁groceries	-11.609
▁ronny	-11.609
▁damian	-11.609
▁stiii	-11.609
▁maax	-11.609
▁superpower	-11.609
▁overboard	-11.609
▁whereas	-11.609
▁eduardo	-11.609
▁hq	-11.6091
▁stroll	-11.6091
▁birdsong	-11.6091
▁robbing	-11.6091
▁silk	-11.6091
▁denver	-11.6091
▁cookbook	-11.6091
▁workshop	-11.6091
▁quand	-11.6091
▁rewrite	-11.6091
▁oink	-11.6092
▁welsh	-11.6092
▁chatting	-11.6092
▁humma	-11.6092
▁iong	-11.6092
▁amuse	-11.6092
▁alcoholic	-11.6092
▁intel	-11.6093
▁sensational	-11.6093
▁stab	-11.6093
▁baking	-11.6093
▁potty	-11.6093
▁hotshot	-11.6094
▁laisse	-11.6094
▁hound	-11.6094
▁acquired	-11.6094
▁feedback	-11.6095
▁homing	-11.6095
▁assemble	-11.6096
▁vois	-11.6096
ngbang	-11.6096
▁batting	-11.6096
▁nip	-11.6098
▁rover	-11.6099
▁isolated	-11.61
▁vind	-11.61
▁gallon	-11.6101
▁superheroes	-11.6102
▁funky	-11.6104
▁opposed	-11.6105
▁pepe	-11.6106
▁travelling	-11.6107
▁bushes	-11.6107
▁vent	-11.6108
▁mow	-11.611
▁backstage	-11.611
▁concludes	-11.6112
▁coal	-11.6112
▁instantly	-11.6114
▁trespassing	-11.6115
▁luna	-11.6117
▁caf	-11.6118
▁retarded	-11.6118
▁burp	-11.6118
▁habitat	-11.612
▁wealthy	-11.6121
▁losin	-11.6124
▁detected	-11.6127
▁riddler	-11.6128
▁personne	-11.613
▁transformed	-11.6131
▁originally	-11.6133
▁shaved	-11.6135
▁elle	-11.6136
▁wager	-11.6138
▁clothing	-11.6139
▁hath	-11.6143
▁lai	-11.6144
▁fleeing	-11.6148
▁helena	-11.615
illes	-11.6152
▁showtime	-11.6157
▁uit	-11.6157
▁hind	-11.6157
ology	-11.6159
▁cantrow	-11.6162
acht	-11.6163
were	-11.6165
▁delayed	-11.6165
wall	-11.6168
▁chilly	-11.6173
dolph	-11.6176
▁ruby	-11.6176
▁carver	-11.6177
▁covert	-11.618
▁weighing	-11.6182
▁bumped	-11.6184
aut	-11.6185
tial	-11.6189
▁luis	-11.6189
▁gained	-11.619
▁whines	-11.6191
▁klopeks	-11.6192
▁tillman	-11.6193
▁fainted	-11.6193
▁horri	-11.6194
▁miley	-11.6195
▁tau	-11.6198
▁swam	-11.6198
▁nighttime	-11.62
course	-11.6202
▁pebbles	-11.6208
▁scaring	-11.6209
▁attempted	-11.6214
▁funk	-11.6217
▁ug	-11.622
▁yaya	-11.6224
▁dol	-11.6226
▁depending	-11.6227
qualified	-11.6231
tox	-11.6235
▁stretching	-11.6236
▁traded	-11.6237
▁dart	-11.6238
▁requesting	-11.6239
▁publisher	-11.6244
▁gulls	-11.6253
▁hein	-11.6254
▁putty	-11.6257
▁republicans	-11.6257
▁golly	-11.6258
neck	-11.6259
▁fireman	-11.6268
▁colleagues	-11.6273
▁anton	-11.6278
▁seth	-11.6282
▁jur	-11.6288
▁smokey	-11.6291
▁traveler	-11.6294
▁stored	-11.6296
▁lure	-11.6298
▁dew	-11.6301
▁sonic	-11.6302
▁pauly	-11.6332
▁shutters	-11.6339
▁employees	-11.6355
▁tease	-11.6363
▁marketing	-11.6364
▁hue	-11.6369
▁sneezes	-11.6371
▁includes	-11.6371
▁cooler	-11.6377
▁blinded	-11.638
▁weg	-11.638
▁rebels	-11.638
▁puppets	-11.6385
mine	-11.6386
▁elements	-11.6388
▁ohoh	-11.6404
▁tame	-11.6404
▁rhythmic	-11.642
▁obstacles	-11.642
▁scouts	-11.6437
wick	-11.6438
▁drivein	-11.6438
▁formed	-11.6443
star	-11.6448
▁warmer	-11.645
▁inga	-11.646
▁frightful	-11.6467
▁dealt	-11.6475
▁mot	-11.6481
▁zou	-11.6482
▁negotiate	-11.6485
ular	-11.6485
▁cobb	-11.6502
▁kam	-11.6511
▁zed	-11.6523
▁heroics	-11.6524
▁alli	-11.6525
▁monte	-11.6532
mmer	-11.6535
▁fishy	-11.6549
▁guarding	-11.6561
uchi	-11.6569
▁appel	-11.6605
▁warming	-11.6606
▁exclaim	-11.6613
▁roar	-11.6635
▁merchant	-11.6642
▁waffle	-11.6642
▁dinosaur	-11.6646
▁subtitle	-11.6648
eating	-11.6653
▁fuller	-11.6663
▁rang	-11.6667
▁beau	-11.6687
▁dy	-11.6688
ronic	-11.669
▁bod	-11.6697
logical	-11.6712
ripping	-11.6712
cks	-11.6714
▁goldi	-11.6725
▁hehe	-11.6745
▁gall	-11.6745
through	-11.6752
manship	-11.6756
▁sunk	-11.6759
liable	-11.676
elope	-11.6766
▁zoom	-11.6767
acle	-11.6768
nox	-11.6789
▁haunt	-11.6794
▁proven	-11.6795
govern	-11.6798
▁chan	-11.6806
opping	-11.6811
▁hors	-11.6818
▁muck	-11.682
▁youyou	-11.6825
▁overreact	-11.6828
fresh	-11.6828
▁scatter	-11.6829
contact	-11.683
▁offend	-11.683
life	-11.683
▁attach	-11.6834
around	-11.6834
based	-11.6835
▁flop	-11.6836
▁dedicate	-11.6839
▁locate	-11.6839
▁fuzz	-11.6842
job	-11.6842
▁thorough	-11.6845
▁triumphant	-11.6846
▁asia	-11.6847
▁retro	-11.6848
▁whoosh	-11.6848
pick	-11.6849
▁sparta	-11.6849
▁givin	-11.6851
▁puttin	-11.6853
▁porn	-11.6853
▁inspect	-11.6853
actual	-11.6854
▁succ	-11.6854
▁bachelor	-11.6856
oeuvre	-11.6856
▁abilities	-11.6856
▁abroad	-11.6856
▁alligator	-11.6856
▁ambitious	-11.6856
▁anonymous	-11.6856
▁aquarium	-11.6856
▁aquitaine	-11.6856
▁arrogant	-11.6856
▁artificial	-11.6856
▁aspirin	-11.6856
▁atmosphere	-11.6856
▁autumn	-11.6856
▁bourbon	-11.6856
▁cafeteria	-11.6856
▁canadian	-11.6856
▁challenging	-11.6856
▁comanche	-11.6856
▁companies	-11.6856
▁competitive	-11.6856
▁convincing	-11.6856
▁decency	-11.6856
▁destined	-11.6856
▁determination	-11.6856
▁diondra	-11.6856
▁eccentric	-11.6856
▁erudite	-11.6856
▁exaggerate	-11.6856
▁fidgit	-11.6856
▁frenzy	-11.6856
▁gamart	-11.6856
▁generosity	-11.6856
▁ghetto	-11.6856
▁graduation	-11.6856
▁greece	-11.6856
▁gremlin	-11.6856
▁handkerchief	-11.6856
▁healthcare	-11.6856
▁hurdle	-11.6856
▁kirby	-11.6856
▁krissi	-11.6856
▁loneliness	-11.6856
▁maximilian	-11.6856
▁mcafee	-11.6856
▁mcelrathbey	-11.6856
▁mechanism	-11.6856
▁mermaid	-11.6856
▁metropolitan	-11.6856
▁miguel	-11.6856
▁mongrel	-11.6856
▁morpheus	-11.6856
▁mysteries	-11.6856
▁oldknow	-11.6856
▁phyllis	-11.6856
▁prettiest	-11.6856
▁profound	-11.6856
▁qaeda	-11.6856
▁rebuild	-11.6856
▁repulsive	-11.6856
▁ruettiger	-11.6856
▁seymour	-11.6856
▁shaving	-11.6856
▁snickering	-11.6856
▁snickers	-11.6856
▁syrup	-11.6856
▁telegraph	-11.6856
▁treacherous	-11.6856
▁twerp	-11.6856
▁vienna	-11.6856
▁vogel	-11.6856
▁vulnerable	-11.6856
▁windshield	-11.6856
▁zubaydah	-11.6856
▁gulf	-11.6856
▁imperfection	-11.6856
▁loretta	-11.6856
▁motherinlaw	-11.6856
▁ntsb	-11.6856
▁precaution	-11.6856
▁rooney	-11.6856
▁sloppy	-11.6856
▁tentacles	-11.6856
▁wiggin	-11.6856
▁agenda	-11.6856
▁baboon	-11.6856
▁bicker	-11.6856
▁busbee	-11.6856
▁censor	-11.6856
▁creator	-11.6856
▁edgar	-11.6856
▁forsake	-11.6856
▁krim	-11.6856
▁notorious	-11.6856
▁reinforcements	-11.6856
▁salinas	-11.6856
▁substituti	-11.6856
▁subtle	-11.6856
▁tahiti	-11.6856
▁vasily	-11.6856
▁coyle	-11.6857
▁fischer	-11.6857
▁massacre	-11.6857
▁moreno	-11.6857
▁gesture	-11.6857
▁aiways	-11.6857
▁manifest	-11.6857
▁wyldstyle	-11.6857
▁wrist	-11.6857
▁maggie	-11.6857
▁gokart	-11.6857
▁candie	-11.6857
▁fisherman	-11.6857
▁accomplice	-11.6857
▁perkis	-11.6857
▁ensure	-11.6857
▁swirl	-11.6857
▁operative	-11.6857
▁teammates	-11.6857
▁persian	-11.6857
▁ivory	-11.6857
▁moth	-11.6857
▁grease	-11.6857
▁luckily	-11.6857
▁fortytwo	-11.6857
▁flank	-11.6857
▁refresh	-11.6857
▁dominate	-11.6857
▁creed	-11.6857
▁snitch	-11.6857
▁renew	-11.6857
▁irresponsible	-11.6857
▁sharptooth	-11.6857
▁bugging	-11.6857
▁biology	-11.6857
▁liddy	-11.6857
▁nomad	-11.6857
▁circling	-11.6857
▁corral	-11.6857
▁antonio	-11.6857
▁shogun	-11.6857
▁twentytwo	-11.6857
▁snob	-11.6857
▁plaza	-11.6857
▁rabble	-11.6857
▁hitchhikers	-11.6857
▁chronic	-11.6858
▁monique	-11.6858
▁clich	-11.6858
▁duane	-11.6858
▁consistent	-11.6858
▁enslave	-11.6858
▁rapping	-11.6858
▁normandy	-11.6858
▁parole	-11.6858
▁freight	-11.6858
▁yeehaw	-11.6858
▁homesick	-11.6858
▁sleigh	-11.6858
▁contradiction	-11.6858
▁confidential	-11.6858
▁yoshi	-11.6858
▁humour	-11.6858
▁cozy	-11.6858
▁flapping	-11.6858
▁tension	-11.6858
▁scanner	-11.6858
▁orphanage	-11.6858
▁aaaah	-11.6858
▁employment	-11.6859
▁vendor	-11.6859
▁neuro	-11.6859
▁whiskers	-11.6859
▁elvis	-11.6859
▁zipper	-11.686
▁preferred	-11.686
▁mangy	-11.686
▁spectre	-11.686
▁feline	-11.686
▁goldfish	-11.686
▁caii	-11.686
sinister	-11.6861
▁charlestown	-11.6861
▁olga	-11.6861
▁romero	-11.6861
▁juniper	-11.6861
▁sammy	-11.6861
▁conviction	-11.6862
▁hirota	-11.6862
▁arise	-11.6862
▁foolishness	-11.6862
▁reef	-11.6862
▁exhibition	-11.6862
▁flock	-11.6862
▁portrait	-11.6862
▁spade	-11.6862
▁torment	-11.6863
▁foil	-11.6863
▁deborah	-11.6863
▁spice	-11.6863
▁clare	-11.6863
▁civilized	-11.6863
▁garth	-11.6863
▁hawaiian	-11.6864
▁kiddie	-11.6864
▁stung	-11.6864
▁cocoa	-11.6865
▁menace	-11.6865
▁drake	-11.6865
▁environmental	-11.6865
▁detain	-11.6865
▁soir	-11.6866
onic	-11.6867
▁semi	-11.6867
▁admitted	-11.6867
▁starve	-11.6868
▁loony	-11.6868
▁majestic	-11.6868
▁troublemaker	-11.6869
▁perish	-11.6869
▁griffin	-11.6869
utti	-11.687
stead	-11.687
▁promoted	-11.687
▁pont	-11.687
▁tutor	-11.687
▁inland	-11.6871
▁debut	-11.6871
▁cement	-11.6871
ulent	-11.6872
▁capitalist	-11.6872
▁quiz	-11.6872
▁farther	-11.6875
▁warren	-11.6875
▁combined	-11.6876
▁neglected	-11.6878
▁villagers	-11.6878
▁driveway	-11.6879
▁slime	-11.688
▁roth	-11.6881
▁hospitality	-11.6881
▁clanking	-11.6881
▁reform	-11.6882
▁fitting	-11.6882
▁dismissed	-11.6883
▁soaring	-11.6884
▁restored	-11.6885
▁rental	-11.6886
▁morale	-11.6886
▁hardship	-11.6887
▁digest	-11.6888
▁tailor	-11.6889
▁frye	-11.6889
▁childish	-11.6893
▁eee	-11.6893
▁fearful	-11.6894
nick	-11.6896
▁flattered	-11.6897
▁mustang	-11.6898
▁mombi	-11.6898
▁crooked	-11.6899
▁framed	-11.69
▁faintly	-11.6902
▁tolling	-11.6904
▁spect	-11.6905
▁awaiting	-11.6908
▁bumper	-11.6912
▁clinking	-11.6913
▁ignored	-11.6916
▁contained	-11.6916
▁chad	-11.6918
▁amp	-11.6922
▁woe	-11.6923
▁madman	-11.6923
▁conform	-11.6923
▁proposed	-11.6924
▁employer	-11.6925
▁crosses	-11.6936
▁matty	-11.6937
▁babysit	-11.6942
▁hacked	-11.6943
▁kaye	-11.6944
▁leaning	-11.6945
▁repaired	-11.6948
▁responding	-11.6948
appelle	-11.6951
▁lyrics	-11.6953
▁donuts	-11.6953
▁lifeline	-11.6956
▁oy	-11.6957
▁quad	-11.6958
▁por	-11.6959
▁sonia	-11.696
ooo	-11.6967
▁excit	-11.6968
▁idol	-11.6969
▁irony	-11.6971
▁chester	-11.6975
▁flowing	-11.6986
▁ingredients	-11.6988
▁tshirts	-11.6988
▁vitamins	-11.6988
▁allah	-11.6988
▁licking	-11.6992
▁marsha	-11.6992
▁ail	-11.6992
▁daytime	-11.6993
▁palmer	-11.6993
▁alais	-11.6994
take	-11.6995
▁stre	-11.7002
▁yelled	-11.7003
▁stripes	-11.7005
▁tucked	-11.7005
▁insisted	-11.7008
▁sensei	-11.7009
▁avoiding	-11.7015
▁filed	-11.7017
▁sharpen	-11.7022
▁resumes	-11.7023
▁dougy	-11.7024
▁penetrate	-11.7027
▁attempting	-11.703
▁hash	-11.7032
▁erica	-11.7038
▁momma	-11.704
▁applications	-11.704
▁simpler	-11.7043
▁slams	-11.7044
▁pissing	-11.7045
▁charmer	-11.7056
▁deserted	-11.7057
self	-11.7057
▁boost	-11.7065
▁og	-11.707
▁catches	-11.7072
▁merchants	-11.7076
▁waffles	-11.7076
▁gents	-11.7088
▁laughin	-11.7089
▁trashed	-11.7089
▁punching	-11.7089
▁guineas	-11.7093
▁aide	-11.7094
▁disappearing	-11.7104
▁madly	-11.7105
▁addressed	-11.7109
▁olympics	-11.7111
▁terrorists	-11.7111
▁tangle	-11.7115
▁rider	-11.7117
▁practiced	-11.7125
▁haste	-11.7128
▁features	-11.7128
▁valentines	-11.7129
▁aqu	-11.7132
▁lifted	-11.7147
▁mach	-11.7155
▁provid	-11.7158
▁athletics	-11.7164
▁fier	-11.717
▁vic	-11.7178
▁phi	-11.7181
▁heroin	-11.7181
▁berg	-11.7182
tech	-11.7199
▁cran	-11.7199
▁samples	-11.72
▁molest	-11.7214
▁gifted	-11.7218
▁wade	-11.7222
▁milli	-11.7222
▁shhh	-11.7225
▁agh	-11.725
▁generally	-11.7255
▁deploy	-11.7262
aux	-11.727
active	-11.7271
▁shorty	-11.7272
▁gladly	-11.7273
▁marche	-11.7282
▁diver	-11.7289
▁toxic	-11.7293
trap	-11.7301
stop	-11.7307
▁foo	-11.7378
▁sera	-11.7379
▁sss	-11.7398
▁brook	-11.7408
quet	-11.7409
core	-11.7421
▁clang	-11.7446
xie	-11.7448
▁groan	-11.745
productive	-11.745
▁moan	-11.7457
▁burglar	-11.746
▁entre	-11.7467
▁yu	-11.7469
▁colleague	-11.7476
▁falcon	-11.7476
▁civilian	-11.7477
▁vegetable	-11.7479
▁teenager	-11.749
▁sock	-11.7499
▁pos	-11.7502
ridden	-11.7521
▁cutter	-11.7562
▁moles	-11.7576
▁bathe	-11.7592
mmm	-11.7599
▁craz	-11.7608
▁dez	-11.7619
▁pli	-11.7624
▁assembl	-11.7631
▁boob	-11.7631
coat	-11.7633
friend	-11.7638
▁peu	-11.7644
▁skit	-11.7652
▁scoot	-11.7653
▁plac	-11.7653
▁clatter	-11.7655
▁predict	-11.7656
▁depart	-11.7659
bridge	-11.7661
▁dismiss	-11.7661
word	-11.7661
▁suspend	-11.7662
▁dated	-11.7662
cliff	-11.7663
▁restrain	-11.7663
stream	-11.7663
level	-11.7663
▁wail	-11.7665
beard	-11.7668
safe	-11.7669
▁bind	-11.767
▁squirl	-11.7673
▁prep	-11.7674
▁intent	-11.7674
▁filth	-11.7675
wire	-11.7678
▁execute	-11.7681
▁heave	-11.7682
lady	-11.7684
▁sentiment	-11.7686
▁tropic	-11.7688
▁conscious	-11.7688
▁orient	-11.7688
▁serpent	-11.7689
destruct	-11.7689
▁shao	-11.7689
▁bankrupt	-11.7689
▁implement	-11.769
▁pilgrim	-11.769
▁accompany	-11.769
▁accordion	-11.769
▁adventurous	-11.769
▁asthma	-11.769
▁bacteria	-11.769
▁bermuda	-11.769
▁bernice	-11.769
▁braxton	-11.769
▁brochure	-11.769
▁brodski	-11.769
▁cackles	-11.769
▁cactus	-11.769
▁capacity	-11.769
▁cheetah	-11.769
▁climate	-11.769
▁cochrane	-11.769
▁cockadoo	-11.769
▁coggins	-11.769
▁commodore	-11.769
▁compartment	-11.769
▁confusing	-11.769
▁corcoran	-11.769
▁diablo	-11.769
▁dirigible	-11.769
▁disorder	-11.769
▁disperse	-11.769
▁elevar	-11.769
▁extensive	-11.769
▁fernandes	-11.769
▁fooglie	-11.769
▁fronkonsteen	-11.769
▁grimsdyke	-11.769
▁hartounian	-11.769
▁homicide	-11.769
▁ignorance	-11.769
▁indonesia	-11.769
▁integrity	-11.769
▁introducing	-11.769
▁jakarta	-11.769
▁jamison	-11.769
▁jeopardize	-11.769
▁jurisdiction	-11.769
▁kindergarten	-11.769
▁knack	-11.769
▁krishna	-11.769
▁krug	-11.769
▁legitimate	-11.769
▁lollipop	-11.769
▁lyssa	-11.769
▁malibu	-11.769
▁maureen	-11.769
▁melvin	-11.769
▁microbots	-11.769
▁microchip	-11.769
▁microwave	-11.769
▁minneapolis	-11.769
▁miriam	-11.769
▁mischief	-11.769
▁monstrous	-11.769
▁montrose	-11.769
▁monument	-11.769
▁mowbray	-11.769
▁parachute	-11.769
▁pastuzo	-11.769
▁picasso	-11.769
▁pingpong	-11.769
▁pittsburgh	-11.769
▁raphael	-11.769
▁rendezvous	-11.769
▁rescuing	-11.769
▁safari	-11.769
▁santoro	-11.769
▁scissors	-11.769
▁sebastian	-11.769
▁secrecy	-11.769
▁shaikh	-11.769
▁shrunk	-11.769
▁shuffle	-11.769
▁siberia	-11.769
▁splutter	-11.769
▁stabilize	-11.769
▁suzanne	-11.769
▁tintagel	-11.769
▁twirl	-11.769
▁urdu	-11.769
▁variety	-11.769
▁wainwright	-11.769
▁whichever	-11.769
▁yippee	-11.769
▁yowls	-11.769
▁blunt	-11.769
▁cereal	-11.769
▁gondorff	-11.769
▁herald	-11.769
▁ltalian	-11.769
▁perrito	-11.769
▁reunion	-11.769
▁teenchy	-11.769
andahalf	-11.769
▁behaviour	-11.769
▁blitz	-11.769
▁bozo	-11.769
▁bundle	-11.769
▁buoy	-11.769
▁constable	-11.769
▁fraser	-11.769
▁kinky	-11.769
▁mnu	-11.769
▁pronto	-11.769
▁pulp	-11.769
▁steep	-11.769
▁stork	-11.769
▁vanilla	-11.769
▁mtv	-11.769
▁regain	-11.769
▁sedative	-11.769
▁enlist	-11.769
▁rumsfield	-11.769
▁vardon	-11.769
▁pioneer	-11.769
▁scope	-11.769
▁strawberries	-11.769
▁vouch	-11.769
▁beggar	-11.769
▁cardinal	-11.769
▁maroon	-11.769
▁speculat	-11.769
▁urine	-11.769
▁footprints	-11.769
▁saigon	-11.769
▁earrings	-11.769
▁cambridge	-11.769
▁trombone	-11.769
▁sikes	-11.769
▁sipsey	-11.769
▁nicos	-11.769
▁authorization	-11.769
▁gazelle	-11.769
▁seasick	-11.769
▁transmission	-11.769
▁eyeballs	-11.769
▁ahmad	-11.769
▁gallery	-11.769
▁psychological	-11.769
▁radiant	-11.769
▁zorgons	-11.769
▁channing	-11.769
▁injuries	-11.769
▁nigel	-11.769
▁cameron	-11.769
▁undertake	-11.769
▁integra	-11.769
▁resemblance	-11.769
▁morrow	-11.769
▁cornwall	-11.7691
▁voula	-11.7691
▁onward	-11.7691
▁flunk	-11.7691
▁spank	-11.7691
▁veins	-11.7691
▁hostilit	-11.7691
▁managing	-11.7691
▁psychiatrist	-11.7691
▁sissy	-11.7691
▁pippi	-11.7691
▁trolley	-11.7691
▁housing	-11.7691
▁alexandr	-11.7691
▁thudding	-11.7691
▁radius	-11.7691
▁estella	-11.7691
▁theft	-11.7691
▁mattress	-11.7691
▁apologise	-11.7691
▁polk	-11.7691
▁raptor	-11.7691
▁elementary	-11.7691
▁transition	-11.7691
▁motorcar	-11.7691
paid	-11.7692
▁bushwood	-11.7692
▁marries	-11.7692
▁wildlife	-11.7692
▁rudi	-11.7692
▁fading	-11.7692
▁petition	-11.7692
▁darren	-11.7692
▁ducksworth	-11.7692
▁hypo	-11.7692
▁ferry	-11.7692
▁fudge	-11.7692
▁injection	-11.7692
▁outof	-11.7692
▁vlad	-11.7692
▁concluded	-11.7692
▁doggie	-11.7692
▁briny	-11.7692
▁malone	-11.7693
▁merciful	-11.7693
▁stevenson	-11.7693
▁sept	-11.7693
▁andand	-11.7693
▁fatso	-11.7693
▁notebook	-11.7693
stutter	-11.7693
ometer	-11.7693
▁capcom	-11.7693
▁contribution	-11.7694
▁raving	-11.7694
▁stella	-11.7694
▁fanci	-11.7694
▁distinction	-11.7694
▁maxwell	-11.7694
▁sanct	-11.7694
▁involvement	-11.7694
▁brody	-11.7694
▁navigate	-11.7694
▁streak	-11.7695
▁scarce	-11.7695
▁temptation	-11.7695
▁loot	-11.7695
▁iife	-11.7696
▁outnumbered	-11.7696
▁buon	-11.7696
▁poisonous	-11.7696
▁rodent	-11.7697
▁troopers	-11.7697
▁considerate	-11.7697
▁peepers	-11.7697
▁gibb	-11.7697
▁karp	-11.7697
▁scarf	-11.7697
▁hurl	-11.7698
▁surprisingly	-11.7698
▁enhanced	-11.7698
▁kayem	-11.7699
▁anim	-11.7699
▁betrayal	-11.7699
▁firebird	-11.7699
▁snipes	-11.7699
▁evolved	-11.77
string	-11.77
▁conductor	-11.7701
▁shook	-11.7701
▁messina	-11.7701
▁grouchy	-11.7701
heim	-11.7701
▁disapprove	-11.7703
▁gday	-11.7703
▁tweedy	-11.7704
▁longneck	-11.7704
▁reset	-11.7705
▁lionel	-11.7706
▁williamson	-11.7706
▁luisa	-11.7707
▁dort	-11.7707
▁stow	-11.7708
▁therm	-11.7709
▁collector	-11.7709
▁shithole	-11.7709
▁charter	-11.771
▁ruffin	-11.771
▁waterboard	-11.771
▁janie	-11.771
▁tonic	-11.771
▁educated	-11.7711
▁reai	-11.7711
▁crude	-11.7711
▁warble	-11.7712
guy	-11.7712
▁posit	-11.7712
▁collapsed	-11.7712
▁benway	-11.7713
▁yoho	-11.7714
▁plumbing	-11.7714
▁peril	-11.7714
▁fitness	-11.7715
▁annabelle	-11.7716
▁hoid	-11.7718
▁warmth	-11.7718
▁losses	-11.7719
▁publicity	-11.7719
▁firewood	-11.772
▁maleb	-11.772
▁lifeboat	-11.7721
▁sadness	-11.7721
▁emmett	-11.7722
▁playmate	-11.7722
▁majority	-11.7723
▁lester	-11.7724
▁encouraged	-11.7725
▁tous	-11.7725
▁nightfall	-11.7725
▁realised	-11.7725
▁eastman	-11.7726
▁whoaoh	-11.7726
▁gump	-11.7726
▁improved	-11.7728
▁blanky	-11.7728
▁armies	-11.7728
▁whacked	-11.7729
▁hedge	-11.773
▁punches	-11.773
▁digital	-11.773
▁coverup	-11.7732
▁turnip	-11.7733
▁invested	-11.7734
▁runaway	-11.7734
▁altered	-11.7736
▁smartest	-11.7737
▁symptoms	-11.7738
nnies	-11.7738
▁toughest	-11.7738
▁maple	-11.7739
▁reply	-11.7739
▁assembled	-11.774
▁deke	-11.774
▁richest	-11.774
▁lowest	-11.774
▁cawing	-11.7742
▁puer	-11.7742
icky	-11.7745
dom	-11.7746
▁taint	-11.7746
▁condom	-11.7748
▁capp	-11.7749
▁tact	-11.775
▁pledge	-11.7751
▁sewing	-11.7754
▁disappointing	-11.7755
▁tenth	-11.7759
▁cynical	-11.7759
▁mayol	-11.7762
▁peeking	-11.7763
▁secured	-11.7764
▁entertaining	-11.7764
▁everyday	-11.7765
▁roberto	-11.7766
▁mule	-11.7767
▁tortured	-11.777
▁mooch	-11.777
▁glowing	-11.7774
▁yii	-11.7775
▁campers	-11.7775
▁bunker	-11.7776
▁legally	-11.7783
▁willy	-11.7784
▁cheaper	-11.7784
▁bror	-11.7784
▁specialist	-11.7785
▁whwh	-11.7785
▁pastor	-11.7786
▁burnt	-11.7786
▁shitty	-11.7789
▁mocker	-11.7793
▁fowler	-11.7793
▁volunteered	-11.7797
▁ghostly	-11.7801
▁surfing	-11.7808
▁linked	-11.7809
▁molecul	-11.7812
▁jealousy	-11.7816
▁attended	-11.7823
abbing	-11.7823
▁sil	-11.7828
ashi	-11.7831
▁chewing	-11.7831
▁teenie	-11.784
▁fling	-11.7841
▁funding	-11.7846
▁scrape	-11.7846
aaaaa	-11.7848
▁bosses	-11.7852
▁flashing	-11.7853
▁decker	-11.7857
▁gala	-11.7861
▁retract	-11.7864
pound	-11.7865
▁daring	-11.7868
▁aff	-11.7873
▁ise	-11.7873
▁performing	-11.7874
▁blamed	-11.7886
▁sailed	-11.7886
▁buts	-11.7886
▁hacker	-11.7887
cular	-11.789
▁violate	-11.7891
hard	-11.7892
bility	-11.7895
ttering	-11.7898
▁cryin	-11.7903
▁fou	-11.7907
▁civilians	-11.791
▁clangs	-11.7911
▁pretended	-11.7914
cla	-11.792
▁honesty	-11.7921
▁wak	-11.7931
▁matey	-11.7933
▁sweating	-11.7934
▁darko	-11.7941
shire	-11.7952
huh	-11.7961
▁switching	-11.7972
▁fab	-11.7978
▁noted	-11.7978
▁suggesting	-11.7986
▁spreading	-11.7988
▁oft	-11.799
▁ici	-11.7994
▁dryer	-11.8001
fold	-11.8006
▁undress	-11.8013
▁tougher	-11.8014
rutti	-11.8032
▁starters	-11.8047
▁sham	-11.8047
▁badger	-11.8052
▁fre	-11.8073
▁rockin	-11.8075
card	-11.8079
▁sow	-11.809
▁karl	-11.8096
dorf	-11.8101
▁performer	-11.8132
▁chel	-11.8135
▁esp	-11.8143
▁flo	-11.8169
▁zal	-11.8175
▁slam	-11.8193
asis	-11.8214
▁mam	-11.8216
▁gumb	-11.8228
▁stumble	-11.8236
▁barge	-11.8239
▁bora	-11.8256
urdy	-11.8331
▁wooo	-11.8352
rford	-11.8352
▁enthusiastic	-11.8354
graph	-11.8369
▁application	-11.8385
▁gust	-11.8385
▁republican	-11.8386
▁critter	-11.8388
iance	-11.8393
▁mammal	-11.8402
▁mole	-11.8409
▁tracker	-11.8411
▁dome	-11.8421
▁scramble	-11.8437
beat	-11.844
▁pointless	-11.8457
▁lung	-11.846
▁beh	-11.8463
▁booger	-11.8464
youre	-11.8473
▁ont	-11.8483
▁salut	-11.85
goo	-11.85
▁gull	-11.8515
▁theo	-11.8518
▁neutral	-11.8525
mpa	-11.8528
lasting	-11.8529
▁compar	-11.8536
▁fau	-11.8544
▁trespass	-11.8559
▁rio	-11.8562
▁depu	-11.8564
▁kun	-11.8565
craft	-11.8566
live	-11.8572
breath	-11.8572
urse	-11.8576
▁resolve	-11.8581
▁compromise	-11.8581
▁determine	-11.8582
kick	-11.8584
making	-11.8586
capable	-11.8587
▁carpathia	-11.8588
fast	-11.8589
▁lovin	-11.8594
▁withdraw	-11.8595
▁inject	-11.8596
▁merge	-11.8597
▁resent	-11.8598
ndistinct	-11.8598
▁scholar	-11.8598
▁squid	-11.8599
game	-11.8599
▁coco	-11.8599
▁deliberate	-11.8599
▁bizarre	-11.8599
▁contemplat	-11.8599
▁enclos	-11.8599
▁himmel	-11.8599
▁spontaneous	-11.8599
▁analysis	-11.8599
▁appalling	-11.8599
▁applesauce	-11.8599
▁ashtray	-11.8599
▁bartolini	-11.8599
▁bayonets	-11.8599
▁behaving	-11.8599
▁belgium	-11.8599
▁berserk	-11.8599
▁blotz	-11.8599
▁boomerang	-11.8599
▁bourguignon	-11.8599
▁boycott	-11.8599
▁brethren	-11.8599
▁butterflies	-11.8599
▁cabbage	-11.8599
▁cannibal	-11.8599
▁caprice	-11.8599
▁caution	-11.8599
▁chitchat	-11.8599
▁colwyn	-11.8599
▁competitor	-11.8599
▁connolly	-11.8599
▁curfew	-11.8599
▁currency	-11.8599
▁devotion	-11.8599
▁dorothea	-11.8599
▁dublin	-11.8599
▁dumdum	-11.8599
▁dummies	-11.8599
▁eugene	-11.8599
▁exclamation	-11.8599
▁farquaad	-11.8599
▁fozzie	-11.8599
▁fregley	-11.8599
▁fruitcake	-11.8599
▁fundamental	-11.8599
▁garcia	-11.8599
▁gigantic	-11.8599
▁giraffe	-11.8599
▁glamour	-11.8599
▁grandparents	-11.8599
▁griselda	-11.8599
▁guvnor	-11.8599
▁handwriting	-11.8599
▁hawthorne	-11.8599
▁heehaw	-11.8599
▁hehheh	-11.8599
▁humility	-11.8599
▁iedereen	-11.8599
▁incantation	-11.8599
▁industries	-11.8599
▁inevitable	-11.8599
▁infinity	-11.8599
▁inspiring	-11.8599
▁isolation	-11.8599
▁janitor	-11.8599
▁january	-11.8599
▁jefferson	-11.8599
▁jeopardy	-11.8599
▁justify	-11.8599
▁kerensky	-11.8599
▁kermie	-11.8599
▁kikakee	-11.8599
▁lasalles	-11.8599
▁licence	-11.8599
▁linger	-11.8599
▁mademoiselle	-11.8599
▁maurice	-11.8599
▁mcashton	-11.8599
▁meerkat	-11.8599
▁milkywhite	-11.8599
▁moustache	-11.8599
▁offence	-11.8599
▁okeydoke	-11.8599
▁orchid	-11.8599
▁overflow	-11.8599
▁overthrow	-11.8599
▁phoebe	-11.8599
▁pipsqueak	-11.8599
▁pneumonia	-11.8599
▁portugal	-11.8599
▁possibilities	-11.8599
▁rebuilt	-11.8599
▁recognition	-11.8599
▁relentless	-11.8599
▁rizzo	-11.8599
▁sanctuary	-11.8599
▁sarsaparilla	-11.8599
▁scuttlebutt	-11.8599
▁sicilian	-11.8599
▁slaghoople	-11.8599
▁slomo	-11.8599
▁snorting	-11.8599
▁somber	-11.8599
▁sparrow	-11.8599
▁stardust	-11.8599
▁striking	-11.8599
▁stryker	-11.8599
▁sympathy	-11.8599
▁tatianna	-11.8599
▁toothbrush	-11.8599
▁trajectory	-11.8599
▁transylvania	-11.8599
▁troubling	-11.8599
▁unauthorized	-11.8599
▁vague	-11.8599
▁vicinity	-11.8599
▁vinci	-11.8599
▁vintage	-11.8599
▁vitruvius	-11.8599
▁walkietalkie	-11.8599
▁weasel	-11.8599
▁wimbo	-11.8599
▁wrightwood	-11.8599
▁zumurrud	-11.8599
▁ashira	-11.8599
▁bilbo	-11.8599
▁ibm	-11.8599
▁izzy	-11.8599
▁kovac	-11.8599
▁louisiana	-11.8599
▁mulch	-11.8599
▁nineteen	-11.8599
▁overlord	-11.8599
▁shermin	-11.8599
▁smythe	-11.8599
▁swedish	-11.8599
▁applied	-11.8599
▁discourage	-11.8599
▁examination	-11.8599
▁federation	-11.8599
▁gavin	-11.8599
▁gnomes	-11.8599
▁guild	-11.8599
▁kelp	-11.8599
▁liberal	-11.8599
▁palermo	-11.8599
▁pianist	-11.8599
▁scaredycat	-11.8599
▁stenz	-11.8599
▁zuzu	-11.8599
▁beardsley	-11.8599
▁detach	-11.8599
▁irene	-11.8599
▁ponies	-11.8599
▁unseen	-11.8599
▁czar	-11.8599
▁expire	-11.8599
▁manwhore	-11.8599
▁snores	-11.8599
▁sperm	-11.8599
▁squadron	-11.8599
▁wallace	-11.8599
▁handcuff	-11.8599
▁snappy	-11.8599
▁tweet	-11.8599
▁burbank	-11.8599
▁chancellor	-11.8599
▁depot	-11.8599
▁thrive	-11.8599
▁aslan	-11.8599
▁nassau	-11.8599
▁lorna	-11.8599
▁orchard	-11.8599
▁forgave	-11.8599
▁goddess	-11.8599
▁casualties	-11.8599
▁decoy	-11.8599
▁grr	-11.8599
▁marysville	-11.8599
▁savor	-11.8599
▁dylan	-11.8599
▁vocal	-11.8599
▁aryan	-11.8599
▁banquet	-11.8599
▁dissent	-11.8599
▁strawberry	-11.8599
▁oats	-11.8599
▁prompt	-11.8599
▁apache	-11.8599
▁refrigerator	-11.8599
▁robotics	-11.8599
▁aslo	-11.8599
▁contractors	-11.8599
▁oxford	-11.8599
▁picard	-11.86
▁ultra	-11.86
▁appreciation	-11.86
▁compound	-11.86
▁marcano	-11.86
▁skateboard	-11.86
▁grizzlies	-11.86
▁britain	-11.86
▁decorate	-11.86
▁plunge	-11.86
▁rogue	-11.86
israel	-11.86
▁darwin	-11.86
▁petals	-11.86
▁puckett	-11.86
▁beagle	-11.86
▁paratroopers	-11.86
▁inflat	-11.86
▁carved	-11.86
▁nogood	-11.86
▁robbie	-11.86
▁referring	-11.86
▁decay	-11.86
▁harley	-11.86
▁brink	-11.86
▁verbal	-11.86
▁ritz	-11.86
▁biggie	-11.86
▁textbook	-11.86
▁troupe	-11.86
▁befriend	-11.86
▁raincoat	-11.8601
▁forehead	-11.8601
▁sancho	-11.8601
▁consciousness	-11.8601
▁shipped	-11.8601
▁thems	-11.8601
▁southeast	-11.8601
▁denial	-11.8601
▁otho	-11.8601
▁kidnapper	-11.8601
▁scour	-11.8601
▁input	-11.8601
▁predictable	-11.8601
▁superstar	-11.8601
▁tapping	-11.8601
▁elves	-11.8601
▁simca	-11.8601
▁reliable	-11.8602
▁pooter	-11.8602
▁kili	-11.8602
▁stuey	-11.8602
▁slade	-11.8602
▁dripping	-11.8602
▁whorehouse	-11.8602
▁slant	-11.8602
▁inspection	-11.8602
▁cancelled	-11.8602
▁towanda	-11.8602
▁recite	-11.8602
▁urn	-11.8602
▁corruption	-11.8602
▁countess	-11.8602
▁info	-11.8602
▁dislike	-11.8603
▁korean	-11.8603
▁wegman	-11.8603
▁shred	-11.8603
▁consultant	-11.8603
▁juns	-11.8603
▁woah	-11.8603
▁pension	-11.8603
▁occasionally	-11.8603
▁gangster	-11.8603
▁consent	-11.8603
▁trois	-11.8603
▁parce	-11.8603
▁selection	-11.8604
▁slash	-11.8604
▁tropical	-11.8604
▁partnership	-11.8604
▁repent	-11.8604
▁panties	-11.8604
▁java	-11.8604
▁snowball	-11.8604
▁underage	-11.8604
▁scam	-11.8605
▁trom	-11.8605
▁evidently	-11.8605
▁hence	-11.8605
▁trina	-11.8605
▁veil	-11.8605
▁curb	-11.8606
▁rations	-11.8606
▁cruelty	-11.8606
▁acceptance	-11.8606
▁stern	-11.8606
▁baptized	-11.8607
▁allowance	-11.8607
▁sidewalk	-11.8607
▁muddy	-11.8607
▁affection	-11.8607
▁courthouse	-11.8607
▁ruthless	-11.8608
▁gurgling	-11.8608
▁unborn	-11.8608
▁dickhead	-11.8608
▁moira	-11.8608
▁huit	-11.8609
▁transportation	-11.8609
▁gaat	-11.8609
▁caroline	-11.861
▁dday	-11.8611
▁komen	-11.8611
▁marge	-11.8611
▁freshmen	-11.8612
▁coil	-11.8612
▁joyce	-11.8612
▁eff	-11.8612
▁bullies	-11.8613
▁omar	-11.8613
▁lurk	-11.8613
▁barbie	-11.8613
▁attendant	-11.8614
▁wales	-11.8614
▁topsy	-11.8614
▁colorful	-11.8615
▁missionary	-11.8615
▁educational	-11.8615
▁stickles	-11.8616
▁fireplace	-11.8616
▁lunchtime	-11.8616
▁wept	-11.8616
▁scrambled	-11.8617
▁vexin	-11.8618
▁portman	-11.8619
▁coverage	-11.8621
▁located	-11.8621
cock	-11.8621
▁becky	-11.8621
▁footage	-11.8621
▁protective	-11.8621
▁escaping	-11.8622
▁endeavor	-11.8622
urban	-11.8622
udder	-11.8623
plex	-11.8623
▁heavier	-11.8623
▁tactical	-11.8624
▁contestant	-11.8625
▁exc	-11.8626
▁barts	-11.8626
▁necktie	-11.8627
▁vine	-11.8627
▁successor	-11.8628
▁knockout	-11.8628
▁reserved	-11.8629
▁restraint	-11.8629
▁farren	-11.8629
▁permanently	-11.863
▁torch	-11.863
▁sideline	-11.8631
▁shushing	-11.8632
▁firstclass	-11.8633
▁vile	-11.8634
doodle	-11.8635
▁tapped	-11.8636
▁voting	-11.8637
▁examined	-11.8637
▁haif	-11.8637
▁drone	-11.8638
▁fizz	-11.8639
▁bitten	-11.864
▁squeaky	-11.8642
▁downloaded	-11.8642
▁buckley	-11.8642
▁doodle	-11.8642
▁employed	-11.8642
▁moss	-11.8643
▁parttime	-11.8646
▁produced	-11.8648
▁enable	-11.8651
▁intercepted	-11.8652
▁increased	-11.8653
▁chapin	-11.8653
▁shill	-11.8653
▁emotionally	-11.8653
▁boredom	-11.8655
▁slippery	-11.8657
▁barnes	-11.8657
▁circulat	-11.8658
▁jp	-11.8665
▁hometown	-11.8666
▁hunk	-11.8666
▁hopin	-11.8667
▁hark	-11.8668
▁cory	-11.8669
iously	-11.8669
▁omen	-11.867
▁flake	-11.867
▁booty	-11.8671
ware	-11.8672
▁usses	-11.8673
▁shutting	-11.8675
▁fil	-11.8676
▁bulletin	-11.8677
▁breeding	-11.8677
▁isa	-11.8679
▁restless	-11.8684
▁goodwill	-11.8687
▁followup	-11.8688
▁hiring	-11.8689
▁dah	-11.869
▁mocking	-11.8691
▁pry	-11.87
▁sweetest	-11.8702
▁conducted	-11.8709
odie	-11.871
▁bailed	-11.8711
▁sharply	-11.8711
▁publishing	-11.8713
spy	-11.8715
▁entr	-11.8716
▁topic	-11.8716
▁salty	-11.8721
▁chewed	-11.8723
▁farty	-11.8725
▁wewe	-11.873
▁insulted	-11.873
▁pam	-11.8732
▁ket	-11.8735
▁hou	-11.8737
▁sparkle	-11.8739
▁healing	-11.8744
▁bled	-11.8744
▁cose	-11.8746
rov	-11.8747
▁stretcher	-11.8756
▁your	-11.8768
▁approached	-11.8773
▁flyers	-11.8775
▁followers	-11.8776
▁rosa	-11.8778
▁chained	-11.8784
▁tug	-11.8787
▁suing	-11.8792
trich	-11.8793
▁meters	-11.8805
▁but	-11.8806
▁concerning	-11.8811
▁oral	-11.8818
▁mixer	-11.8818
▁skipp	-11.8837
ante	-11.884
▁poking	-11.8841
▁equ	-11.8844
▁vivi	-11.8854
▁printer	-11.8864
aught	-11.8868
▁sonar	-11.8869
▁judged	-11.8874
▁cates	-11.8899
trip	-11.89
love	-11.8917
▁punt	-11.8918
▁erect	-11.8939
▁batch	-11.8951
bach	-11.8958
▁noooo	-11.8958
▁bugle	-11.8985
▁hardon	-11.8994
▁lenin	-11.9012
▁conserv	-11.9027
▁elk	-11.9036
echt	-11.9053
lip	-11.9054
▁bunt	-11.9055
▁jag	-11.9058
atomic	-11.9078
slav	-11.9154
high	-11.9164
▁accuse	-11.9169
▁cann	-11.918
igma	-11.9183
▁clan	-11.9213
arri	-11.9246
▁shu	-11.928
rust	-11.9284
▁dye	-11.9292
date	-11.9292
▁friggin	-11.9328
ological	-11.9337
▁forg	-11.9338
▁robber	-11.9368
▁stub	-11.9372
▁resume	-11.9384
▁bolshevik	-11.9386
▁noodle	-11.9387
▁spartan	-11.9395
▁stair	-11.9397
▁relation	-11.9398
▁vot	-11.9405
▁this	-11.9423
▁mute	-11.9442
pend	-11.9451
chez	-11.9454
good	-11.9455
▁critic	-11.9486
▁pranc	-11.9497
▁refus	-11.9513
omme	-11.9525
▁wip	-11.953
▁surround	-11.9535
▁captur	-11.9554
ulu	-11.9559
▁instruct	-11.9564
▁shush	-11.9564
stitute	-11.9565
▁appoint	-11.957
daughter	-11.957
▁neglect	-11.957
horse	-11.9571
tooth	-11.9571
identified	-11.9572
defeated	-11.9572
screen	-11.9572
wheel	-11.9572
conduct	-11.9572
normal	-11.9572
plus	-11.9573
second	-11.9573
▁strangle	-11.9581
▁promote	-11.9581
▁isolate	-11.9581
▁divide	-11.9581
▁tweed	-11.9582
▁strateg	-11.9582
▁satisf	-11.9584
dont	-11.9592
▁soar	-11.9593
wipe	-11.9594
▁peyt	-11.9595
▁construct	-11.9595
▁annihilat	-11.9596
▁infant	-11.9598
▁mimic	-11.9598
meister	-11.9598
▁granddad	-11.9599
▁incorrect	-11.9599
▁academic	-11.9599
▁adequate	-11.9599
▁alternate	-11.9599
▁ammunition	-11.9599
▁angrily	-11.9599
▁aristocrat	-11.9599
▁arrogance	-11.9599
▁artichokie	-11.9599
▁baloney	-11.9599
▁barbarian	-11.9599
▁beiieve	-11.9599
▁benedict	-11.9599
▁blimp	-11.9599
▁boudreaux	-11.9599
▁boulder	-11.9599
▁breadfruit	-11.9599
▁buddhist	-11.9599
▁canvas	-11.9599
▁catalogue	-11.9599
▁catwoman	-11.9599
▁chandelier	-11.9599
▁chauffeur	-11.9599
▁cholena	-11.9599
▁contagious	-11.9599
▁convenience	-11.9599
▁dedication	-11.9599
▁definition	-11.9599
▁delamere	-11.9599
▁depravity	-11.9599
▁discharge	-11.9599
▁disregard	-11.9599
▁doublecross	-11.9599
▁eberhardt	-11.9599
▁efficient	-11.9599
▁ethics	-11.9599
▁evergiot	-11.9599
▁excellence	-11.9599
▁exposure	-11.9599
▁exterminate	-11.9599
▁falafel	-11.9599
▁firecracker	-11.9599
▁fommy	-11.9599
▁gandalf	-11.9599
▁godforsaken	-11.9599
▁godmother	-11.9599
▁hampton	-11.9599
▁hauptmannkoenig	-11.9599
▁ildith	-11.9599
▁incompetent	-11.9599
▁infiltrat	-11.9599
▁ingenious	-11.9599
▁intrigue	-11.9599
▁intrusion	-11.9599
▁isiand	-11.9599
▁jimothy	-11.9599
▁kelsey	-11.9599
▁kenneth	-11.9599
▁kettle	-11.9599
▁latitude	-11.9599
▁lindsey	-11.9599
▁macgregor	-11.9599
▁magruder	-11.9599
▁malcolm	-11.9599
▁marvellous	-11.9599
▁mcdonough	-11.9599
▁mercenaries	-11.9599
▁michigan	-11.9599
▁misunderstood	-11.9599
▁montreal	-11.9599
▁nemesis	-11.9599
▁nitwit	-11.9599
▁nugget	-11.9599
▁obscen	-11.9599
▁obsolete	-11.9599
▁override	-11.9599
▁participate	-11.9599
▁pikachu	-11.9599
▁pitcairn	-11.9599
▁playground	-11.9599
▁pouce	-11.9599
▁pretzel	-11.9599
▁proclaim	-11.9599
▁quelquun	-11.9599
▁roadblock	-11.9599
▁rockadoodle	-11.9599
▁rothbart	-11.9599
▁saliva	-11.9599
▁schuyler	-11.9599
▁schwartzwalder	-11.9599
▁seizure	-11.9599
▁selfrespect	-11.9599
▁severine	-11.9599
▁shabby	-11.9599
▁shaffer	-11.9599
▁skunk	-11.9599
▁sledge	-11.9599
▁sneezing	-11.9599
▁snuff	-11.9599
▁solitary	-11.9599
▁sorority	-11.9599
▁sufficient	-11.9599
▁sycamore	-11.9599
▁syndrome	-11.9599
▁telescope	-11.9599
▁therapist	-11.9599
▁trullinger	-11.9599
▁tumnus	-11.9599
▁umezaki	-11.9599
▁unacceptable	-11.9599
▁unemployment	-11.9599
▁unprecedented	-11.9599
▁vancouver	-11.9599
▁ventilating	-11.9599
▁virgil	-11.9599
▁vortex	-11.9599
▁wellknown	-11.9599
▁whobilation	-11.9599
▁yogurt	-11.9599
▁bluenote	-11.9599
▁confound	-11.9599
▁correspond	-11.9599
▁erotic	-11.9599
▁greasy	-11.9599
▁hennessy	-11.9599
▁hijackers	-11.9599
▁mafia	-11.9599
▁mozart	-11.9599
▁penthouse	-11.9599
▁replied	-11.9599
▁sprout	-11.9599
▁squire	-11.9599
▁stacey	-11.9599
▁swiped	-11.9599
▁vagina	-11.9599
▁armando	-11.9599
▁bippityboppity	-11.9599
▁bonnie	-11.9599
▁chloe	-11.9599
▁cinema	-11.9599
▁colorado	-11.9599
▁damato	-11.9599
▁falter	-11.9599
▁landlord	-11.9599
▁midwest	-11.9599
▁munion	-11.9599
▁nodeen	-11.9599
▁osono	-11.9599
▁worldwide	-11.9599
▁yawning	-11.9599
▁canine	-11.9599
▁fresno	-11.9599
▁nfl	-11.9599
▁polina	-11.9599
▁wheezing	-11.9599
▁ballerina	-11.9599
▁gasket	-11.9599
▁retching	-11.9599
▁siege	-11.9599
▁spindle	-11.9599
▁doorstep	-11.9599
▁hyena	-11.9599
▁kimono	-11.9599
▁parched	-11.9599
▁stith	-11.9599
▁syncopat	-11.9599
▁gabriel	-11.9599
▁leash	-11.9599
▁thorns	-11.9599
▁landscape	-11.9599
▁metallic	-11.9599
▁tactics	-11.9599
▁timber	-11.9599
▁vargas	-11.9599
▁aksel	-11.9599
▁complication	-11.9599
▁divatox	-11.9599
▁kijk	-11.9599
▁decapitat	-11.9599
▁janessa	-11.9599
▁settling	-11.9599
▁wedgie	-11.9599
▁millionaire	-11.9599
▁trask	-11.9599
▁chivalr	-11.9599
▁comprend	-11.9599
▁krabs	-11.9599
▁ahahah	-11.9599
▁lupus	-11.9599
▁boast	-11.9599
▁observation	-11.9599
▁onstage	-11.9599
owski	-11.9599
▁carbon	-11.9599
▁merrick	-11.9599
▁piston	-11.9599
▁pourquoi	-11.9599
▁bliss	-11.9599
▁hydrogen	-11.9599
▁strive	-11.9599
▁cecilia	-11.9599
▁grabbing	-11.9599
▁grogan	-11.9599
▁bosco	-11.9599
▁homecoming	-11.9599
▁simulation	-11.9599
▁howie	-11.9599
▁underpants	-11.9599
▁slamming	-11.9599
▁drought	-11.9599
▁batmobile	-11.9599
▁candidate	-11.9599
▁helium	-11.9599
▁lottery	-11.9599
▁suppress	-11.9599
▁fortyfive	-11.9599
▁ieft	-11.9599
▁knucklehead	-11.9599
▁bugged	-11.9599
▁uncover	-11.96
▁tugger	-11.96
▁longhorns	-11.96
▁struther	-11.96
▁murray	-11.96
▁burial	-11.96
strung	-11.96
▁bulldog	-11.96
▁prostitute	-11.96
▁brazilian	-11.96
▁oscar	-11.96
▁mildred	-11.96
▁barefoot	-11.96
▁benji	-11.96
▁spicy	-11.96
▁priorities	-11.96
▁rivet	-11.96
▁nominate	-11.96
▁skating	-11.96
▁ignition	-11.96
▁isaac	-11.96
▁yeeha	-11.96
▁stewart	-11.96
▁handicap	-11.96
▁helsing	-11.96
▁stoop	-11.96
▁munchkin	-11.96
▁crick	-11.96
▁eligible	-11.96
▁assets	-11.96
▁heathen	-11.96
▁sallie	-11.96
▁babysitting	-11.96
▁bubba	-11.96
▁ragged	-11.96
▁witchcraft	-11.96
▁muddle	-11.9601
▁smite	-11.9601
▁decline	-11.9601
▁doggone	-11.9601
▁downfield	-11.9601
▁preferably	-11.9601
▁lomu	-11.9601
▁morgen	-11.9601
▁jello	-11.9601
▁commend	-11.9601
▁zorg	-11.9601
▁valid	-11.9601
▁attachment	-11.9601
▁ufo	-11.9601
▁typing	-11.9601
▁bouge	-11.9601
▁vista	-11.9601
▁rational	-11.9601
▁refill	-11.9601
▁cuff	-11.9601
▁stif	-11.9602
▁milton	-11.9602
▁waik	-11.9602
▁moonwind	-11.9602
▁absent	-11.9602
hrer	-11.9602
▁establishment	-11.9602
▁accusation	-11.9602
▁altar	-11.9602
▁virtually	-11.9602
▁plop	-11.9602
▁castaway	-11.9602
ootchi	-11.9602
▁bummer	-11.9602
▁accomplishment	-11.9603
▁dunne	-11.9603
▁piay	-11.9603
▁ethan	-11.9603
▁ayah	-11.9603
▁alison	-11.9603
▁injun	-11.9603
▁masterpiece	-11.9603
▁bunion	-11.9603
▁anniversaire	-11.9603
▁frequency	-11.9603
oeuf	-11.9604
▁revive	-11.9604
jinx	-11.9604
▁whwhat	-11.9604
▁retain	-11.9604
▁enroll	-11.9604
▁achievement	-11.9604
▁patsy	-11.9604
▁adjustment	-11.9604
▁plotting	-11.9605
▁programming	-11.9605
▁void	-11.9605
▁joanne	-11.9606
▁rapidly	-11.9606
▁veni	-11.9606
▁trop	-11.9606
▁martinez	-11.9606
▁cuz	-11.9607
▁heelis	-11.9607
▁collective	-11.9607
▁category	-11.9607
nner	-11.9607
▁foreman	-11.9607
▁elite	-11.9607
▁kamp	-11.9607
▁henri	-11.9608
▁dickens	-11.9608
▁trouv	-11.9609
▁moran	-11.9609
▁randy	-11.9609
▁terminated	-11.9609
▁overwhelmed	-11.961
▁tuning	-11.961
▁detest	-11.961
uth	-11.961
▁carpathian	-11.9611
▁helm	-11.9611
▁organism	-11.9611
▁vigilant	-11.9612
▁edna	-11.9614
▁spru	-11.9614
▁ballroom	-11.9614
▁weaver	-11.9615
▁scenery	-11.9615
▁coleman	-11.9616
▁vite	-11.9616
▁gallop	-11.9617
▁midst	-11.9617
▁inte	-11.9617
▁caveman	-11.9617
▁morton	-11.9617
▁trisha	-11.9618
▁spam	-11.9618
▁pasture	-11.9618
▁clamp	-11.9619
▁packet	-11.9622
▁endangered	-11.9622
▁sustained	-11.9622
▁frenchmen	-11.9622
▁michelin	-11.9623
▁brushes	-11.9623
▁gaby	-11.9623
▁unhand	-11.9624
▁fais	-11.9624
▁layla	-11.9626
▁stein	-11.9627
▁cuban	-11.9627
▁instructed	-11.9628
▁booby	-11.9628
▁gno	-11.9629
▁predicted	-11.9634
▁poof	-11.9634
▁brightest	-11.9634
lick	-11.9636
▁quill	-11.9636
▁hebt	-11.9637
▁payday	-11.9638
fucking	-11.9639
▁hatches	-11.964
▁meer	-11.964
idable	-11.9641
▁insur	-11.9643
lance	-11.9643
▁overman	-11.9644
▁binding	-11.9645
▁fulfilled	-11.9645
▁doen	-11.9646
▁whooshing	-11.9647
▁haunting	-11.9647
▁successfully	-11.9647
▁dougie	-11.9649
▁tempted	-11.9649
▁dante	-11.9649
▁cody	-11.9651
▁wildest	-11.9654
▁viper	-11.9654
▁nathan	-11.9654
▁achieved	-11.9657
▁mug	-11.9658
▁dissolv	-11.9662
▁slugg	-11.9663
▁protector	-11.967
▁bach	-11.9671
▁earthling	-11.9671
▁crashes	-11.9672
▁standby	-11.9674
▁vomiting	-11.9674
▁mio	-11.9677
▁wiser	-11.9679
▁toid	-11.9679
▁bumpy	-11.9682
▁vend	-11.9687
▁heer	-11.9691
▁betraying	-11.9694
etoi	-11.9699
▁complained	-11.97
▁poly	-11.9702
▁cloudy	-11.9704
▁archie	-11.9704
ahu	-11.9708
▁regularly	-11.9709
pass	-11.971
▁diseased	-11.9714
▁awarded	-11.9714
thesis	-11.9716
▁showoff	-11.9719
▁fod	-11.9724
▁handful	-11.9727
▁mating	-11.9727
▁fled	-11.973
▁smashed	-11.9732
fiance	-11.9739
▁parenting	-11.9743
ingham	-11.9743
▁freakin	-11.9748
▁bakery	-11.975
▁standup	-11.9752
▁aller	-11.9754
▁challenged	-11.9756
gate	-11.9769
▁shag	-11.978
▁tj	-11.9782
▁miser	-11.979
▁tighten	-11.9792
▁designat	-11.9798
▁donate	-11.9799
pagan	-11.9802
▁harlin	-11.9808
▁cutest	-11.9821
coute	-11.983
▁wooh	-11.9837
than	-11.9842
▁some	-11.9858
▁mooi	-11.9871
▁pun	-11.9875
enthusiastically	-11.9877
▁kob	-11.9878
▁grad	-11.9884
▁galen	-11.9885
▁kunt	-11.9892
▁launcher	-11.9894
▁stubb	-11.9896
▁slapp	-11.9898
▁liter	-11.991
▁slamme	-11.9928
▁hart	-11.9957
aturi	-11.996
▁criticize	-11.997
▁christen	-11.999
alta	-11.9996
▁parl	-12.0005
▁kara	-12.0037
▁deze	-12.0049
▁mijn	-12.0053
▁finn	-12.0079
▁fois	-12.009
▁rami	-12.0109
▁negotiat	-12.0109
▁iu	-12.0148
tempered	-12.0165
duced	-12.022
iddle	-12.0243
▁petit	-12.0255
▁fili	-12.0267
▁walt	-12.0279
▁evolution	-12.028
uve	-12.0282
alalala	-12.0297
▁gab	-12.0302
call	-12.0332
rank	-12.0369
▁ere	-12.0373
▁limp	-12.0385
tobe	-12.0386
ween	-12.0392
got	-12.04
▁harmon	-12.0402
▁viola	-12.0445
▁tube	-12.0463
uf	-12.0495
▁gulp	-12.0498
▁pajama	-12.0498
why	-12.0502
▁exhale	-12.0513
▁cot	-12.0525
▁powerless	-12.0534
▁nom	-12.0536
zero	-12.0579
▁illustr	-12.0584
▁scrub	-12.0609
▁sparkl	-12.0646
▁deceit	-12.0661
▁squa	-12.0666
▁execut	-12.0666
▁oop	-12.0671
▁educat	-12.0679
rush	-12.068
view	-12.068
grave	-12.068
feather	-12.0683
sensitive	-12.0683
grateful	-12.0683
famous	-12.0683
▁watt	-12.0684
▁clank	-12.0684
true	-12.0684
maybe	-12.0685
letter	-12.0689
▁weave	-12.0693
week	-12.0695
▁fluff	-12.0696
▁surprising	-12.0699
▁goddam	-12.0699
pants	-12.07
▁crave	-12.0701
▁froze	-12.0704
▁robbin	-12.0705
▁slum	-12.0705
▁constitution	-12.0706
▁inhal	-12.0706
▁risin	-12.0706
▁interrogat	-12.0707
▁suburb	-12.0708
▁fortuna	-12.0709
▁puddle	-12.0709
▁stitch	-12.0709
ecutive	-12.0709
▁lettin	-12.0709
▁cunning	-12.071
▁casual	-12.071
▁inhabit	-12.071
▁invisi	-12.071
▁cinder	-12.071
▁reinforce	-12.071
▁accommodat	-12.071
▁collaborat	-12.071
▁fraidy	-12.071
▁incorporat	-12.071
▁lubricat	-12.071
▁nanananana	-12.071
counterterrorism	-12.071
▁abruptly	-12.071
▁accelerating	-12.071
▁acceleration	-12.071
▁administrator	-12.071
▁adrenaline	-12.071
▁albuquerque	-12.071
▁antenna	-12.071
▁antidote	-12.071
▁appliance	-12.071
▁archbishop	-12.071
▁arkenstone	-12.071
▁autopilot	-12.071
▁beaucoup	-12.071
▁blixen	-12.071
▁bouchard	-12.071
▁bouncy	-12.071
▁brearh	-12.071
▁brigade	-12.071
▁burgomaster	-12.071
▁cavanaugh	-12.071
▁closure	-12.071
▁cologne	-12.071
▁communicating	-12.071
▁completion	-12.071
▁concession	-12.071
▁condemn	-12.071
▁congrats	-12.071
▁conservatory	-12.071
▁continuing	-12.071
▁counterattack	-12.071
▁crummy	-12.071
▁cucumber	-12.071
▁cuddle	-12.071
▁cymbal	-12.071
▁dehydrated	-12.071
▁delirious	-12.071
▁discreet	-12.071
▁dynamic	-12.071
▁eloquent	-12.071
▁ensemble	-12.071
▁eustace	-12.071
▁exwife	-12.071
▁february	-12.071
▁fernando	-12.071
▁fingernails	-12.071
▁flounder	-12.071
▁fugitive	-12.071
▁garbitsch	-12.071
▁gardiner	-12.071
▁gipping	-12.071
▁grazie	-12.071
▁grumble	-12.071
▁grumbling	-12.071
▁gurney	-12.071
▁hardborough	-12.071
▁hetrick	-12.071
▁hightower	-12.071
▁housemother	-12.071
▁humiliation	-12.071
▁ignoring	-12.071
▁imprisoned	-12.071
▁increasing	-12.071
▁indication	-12.071
▁inferior	-12.071
▁inferna	-12.071
▁inquiries	-12.071
▁jacquot	-12.071
▁jaguar	-12.071
▁jamaica	-12.071
▁jennyanydots	-12.071
▁juarez	-12.071
▁karaoke	-12.071
▁kazuhiko	-12.071
▁kelmot	-12.071
▁kikuyu	-12.071
▁kilbourne	-12.071
▁krista	-12.071
▁krupp	-12.071
▁lafleur	-12.071
▁landolfa	-12.071
▁lengyel	-12.071
▁makebelieve	-12.071
▁marquez	-12.071
▁massachusetts	-12.071
▁matriarch	-12.071
▁mekoides	-12.071
▁melancholy	-12.071
▁memorandum	-12.071
▁mercedes	-12.071
▁mercenary	-12.071
▁miraculous	-12.071
▁misplaced	-12.071
▁neanderthal	-12.071
▁nichols	-12.071
▁nintendo	-12.071
▁ogilvie	-12.071
▁orlando	-12.071
▁overslept	-12.071
▁papillon	-12.071
▁paralyzed	-12.071
▁paycheck	-12.071
▁pellets	-12.071
▁periscope	-12.071
▁petunia	-12.071
▁physics	-12.071
▁piracy	-12.071
▁piscine	-12.071
▁pivot	-12.071
▁popsicle	-12.071
▁portuguese	-12.071
▁poverty	-12.071
▁proportion	-12.071
▁prosecution	-12.071
▁purchasing	-12.071
▁qualities	-12.071
▁quimby	-12.071
▁recycle	-12.071
▁reflexes	-12.071
▁regroup	-12.071
▁reluctant	-12.071
▁restricted	-12.071
▁revelation	-12.071
▁revolting	-12.071
▁ricardo	-12.071
[...]
