<unk>	0
<s>	0
</s>	0
s	-4.26597
▁im	-4.34764
▁dont	-4.40166
▁know	-4.47333
▁get	-4.62576
▁right	-4.7332
▁like	-4.76284
▁yeah	-4.79978
▁go	-4.80921
▁got	-4.81667
▁youre	-4.91433
▁come	-5.00105
▁na	-5.05243
▁oh	-5.05993
▁thats	-5.07981
▁want	-5.11728
▁one	-5.14339
▁okay	-5.15007
▁well	-5.16588
▁think	-5.23585
▁gon	-5.25443
▁good	-5.28218
▁see	-5.38212
▁man	-5.41899
▁look	-5.48287
▁hey	-5.54127
▁time	-5.54439
▁back	-5.56024
▁ill	-5.59427
▁yes	-5.60256
▁take	-5.61149
▁hes	-5.61808
▁going	-5.62856
▁us	-5.67349
ing	-5.68479
▁fuck	-5.7029
▁fucking	-5.71966
▁cant	-5.73778
▁need	-5.74308
▁tell	-5.76725
▁shit	-5.79117
▁would	-5.80014
▁say	-5.81329
▁really	-5.85062
▁didnt	-5.87321
ed	-5.88098
▁could	-5.88201
▁something	-5.92336
▁make	-5.92613
▁lets	-5.94386
▁mean	-5.95915
▁way	-5.96007
▁people	-5.97247
▁sorry	-5.99001
▁god	-5.99807
▁please	-5.99866
▁little	-6.01167
▁love	-6.03349
▁whats	-6.04369
▁two	-6.04952
▁let	-6.06056
▁thank	-6.06103
▁theres	-6.10065
▁ive	-6.10865
▁never	-6.12016
▁give	-6.15797
▁said	-6.17355
▁	-6.23422
▁help	-6.24521
▁uh	-6.25132
▁much	-6.25635
▁call	-6.27471
▁thing	-6.27692
▁guys	-6.29782
▁l	-6.32441
▁sure	-6.32688
▁shes	-6.37901
▁even	-6.38357
▁theyre	-6.39292
▁anything	-6.39991
▁maybe	-6.40978
▁stop	-6.41262
▁first	-6.41976
▁wait	-6.45069
▁put	-6.45187
d	-6.45964
▁day	-6.47611
▁talk	-6.47697
▁great	-6.48603
▁mr	-6.48706
▁life	-6.48819
▁money	-6.49095
▁work	-6.49829
▁sir	-6.51411
▁nothing	-6.52697
▁ever	-6.52884
▁night	-6.53004
▁find	-6.5423
▁new	-6.57098
▁home	-6.59366
▁around	-6.60138
▁everything	-6.60309
▁years	-6.61242
▁away	-6.61523
▁long	-6.61787
y	-6.61914
▁still	-6.62718
▁keep	-6.63607
▁guy	-6.64271
▁hell	-6.64621
▁name	-6.68397
▁three	-6.68583
▁nice	-6.68825
▁last	-6.69585
▁things	-6.69616
▁told	-6.70625
▁thought	-6.7068
▁fine	-6.71385
▁place	-6.71475
▁leave	-6.72038
▁listen	-6.72517
▁better	-6.73136
▁stay	-6.73626
▁id	-6.74206
▁always	-6.74711
▁feel	-6.75023
▁car	-6.75125
▁kill	-6.7532
▁doesnt	-6.75709
▁house	-6.76652
▁hello	-6.79231
▁lot	-6.79268
▁coming	-6.79399
▁wan	-6.79543
▁youve	-6.79595
ly	-6.80078
▁ta	-6.80992
▁talking	-6.81742
▁made	-6.83218
▁kind	-6.83468
▁old	-6.83563
▁girl	-6.83607
▁wont	-6.84292
▁done	-6.84513
▁hi	-6.8558
▁hear	-6.85644
▁move	-6.85703
▁father	-6.86082
▁bad	-6.87738
▁mom	-6.89526
▁baby	-6.91047
▁remember	-6.91373
▁big	-6.91513
▁happened	-6.92854
▁left	-6.93681
▁boy	-6.93812
▁dad	-6.93836
▁understand	-6.94062
▁every	-6.94108
▁must	-6.94606
▁believe	-6.94969
▁wrong	-6.96357
▁youll	-6.96357
▁ok	-6.96602
▁aint	-6.96604
▁dead	-6.96699
▁son	-6.9754
▁wanted	-6.98099
▁next	-6.9835
▁thanks	-6.99164
▁door	-7.00092
▁huh	-7.00128
▁real	-7.03126
▁morning	-7.03248
▁today	-7.03512
▁room	-7.03543
▁hold	-7.03957
▁world	-7.0408
▁might	-7.05097
▁john	-7.05822
▁enough	-7.0647
▁woman	-7.06847
▁isnt	-7.07292
▁try	-7.08689
▁getting	-7.08767
▁else	-7.08793
▁mother	-7.09033
▁came	-7.09324
▁ask	-7.1016
▁looking	-7.11195
er	-7.11473
▁wasnt	-7.1266
▁friend	-7.13258
▁start	-7.13349
▁another	-7.13828
▁together	-7.13828
▁open	-7.1396
▁care	-7.14051
▁someone	-7.15191
▁um	-7.15734
▁trying	-7.17473
▁course	-7.17722
▁play	-7.18274
▁whole	-7.1902
▁live	-7.1964
▁best	-7.19883
▁show	-7.19947
▁jesus	-7.21454
▁took	-7.22411
e	-7.22685
▁mind	-7.23811
▁killed	-7.2414
▁head	-7.2422
▁wife	-7.24689
▁ass	-7.25302
▁weve	-7.25662
▁run	-7.26656
▁job	-7.26674
▁saw	-7.27333
▁phone	-7.27371
▁went	-7.27666
▁used	-7.27822
▁may	-7.27998
▁guess	-7.28051
▁family	-7.28095
▁tonight	-7.28341
▁die	-7.29039
▁jack	-7.29295
▁ready	-7.29463
▁damn	-7.2976
▁kids	-7.3038
▁saying	-7.30828
▁wouldnt	-7.31125
▁cause	-7.31383
▁hard	-7.32052
▁use	-7.32176
▁actually	-7.32514
▁found	-7.33202
▁game	-7.33359
▁pretty	-7.33927
▁many	-7.341
▁friends	-7.34483
▁men	-7.34645
▁days	-7.34916
▁goddamn	-7.35731
▁without	-7.35739
▁four	-7.36108
▁seen	-7.36415
▁bitch	-7.36428
▁knew	-7.37212
▁nobody	-7.37212
▁whos	-7.37672
▁called	-7.38034
▁gun	-7.38149
▁check	-7.38695
▁excuse	-7.39464
▁idea	-7.39641
▁bit	-7.39679
▁face	-7.39686
▁heard	-7.39735
▁watch	-7.39948
▁meet	-7.40136
▁somebody	-7.40226
▁school	-7.41616
▁problem	-7.42395
▁five	-7.425
▁couldnt	-7.42578
▁sit	-7.42702
▁shut	-7.44063
▁youd	-7.44129
▁ago	-7.44526
▁second	-7.44669
▁everybody	-7.44801
▁miss	-7.4573
▁turn	-7.45808
▁hit	-7.46211
▁em	-7.47727
▁inside	-7.48599
▁easy	-7.49018
▁beautiful	-7.49719
▁pay	-7.4981
▁tomorrow	-7.50698
▁minute	-7.51077
▁alone	-7.51124
▁bring	-7.5124
▁boys	-7.51343
▁thinking	-7.51349
▁drink	-7.52001
▁probably	-7.52412
▁un	-7.52963
▁already	-7.53279
▁whoa	-7.53287
▁gone	-7.541
▁anyone	-7.54595
▁ah	-7.55296
▁police	-7.55435
a	-7.55627
▁hands	-7.55955
▁crazy	-7.57283
▁lost	-7.57284
▁kid	-7.57311
▁matter	-7.5825
▁hand	-7.58264
▁heart	-7.5834
▁says	-7.58562
▁read	-7.5859
▁eyes	-7.59251
▁worry	-7.59695
▁hurt	-7.59728
▁whatever	-7.60039
▁couple	-7.60134
▁girls	-7.60554
▁dog	-7.60612
▁end	-7.60897
▁fire	-7.60905
▁stuff	-7.61151
▁case	-7.61406
▁honey	-7.61447
▁eat	-7.61568
▁since	-7.61908
▁havent	-7.61921
▁set	-7.62371
▁later	-7.62439
▁water	-7.62496
▁playing	-7.62915
▁late	-7.63196
▁close	-7.63507
▁cool	-7.63735
▁point	-7.63806
▁week	-7.65316
▁part	-7.65662
▁deal	-7.65935
▁music	-7.66284
▁everyone	-7.6646
▁black	-7.66482
▁happen	-7.67101
▁number	-7.67681
▁six	-7.67749
▁bye	-7.67791
▁taking	-7.67795
▁minutes	-7.67849
▁shot	-7.67979
▁speaking	-7.68041
▁soon	-7.68218
▁change	-7.68277
▁hope	-7.68805
▁gave	-7.69801
▁working	-7.69895
▁fun	-7.69931
▁wheres	-7.70068
▁happy	-7.70344
▁sighs	-7.70345
o	-7.70543
▁far	-7.70806
▁walk	-7.71171
▁cut	-7.71279
▁though	-7.71336
▁mine	-7.72819
▁yet	-7.7296
▁wants	-7.73563
▁sleep	-7.74087
▁brother	-7.74307
▁true	-7.74565
▁supposed	-7.74621
▁looks	-7.74655
▁young	-7.75023
▁also	-7.75584
▁stand	-7.76914
▁year	-7.77077
▁anyway	-7.77628
▁blood	-7.77711
▁exactly	-7.77861
al	-7.78568
▁free	-7.78642
▁women	-7.78972
▁forget	-7.79059
▁different	-7.79419
▁half	-7.80106
es	-7.80136
▁hours	-7.80393
▁front	-7.81247
▁rest	-7.8183
▁lose	-7.81879
▁richard	-7.82234
▁trust	-7.82348
▁full	-7.82851
▁business	-7.82968
n	-7.83476
▁town	-7.83577
▁welcome	-7.83584
▁anymore	-7.83584
▁funny	-7.83587
▁word	-7.84032
▁chance	-7.84628
▁christ	-7.84764
▁side	-7.8525
▁motherfucker	-7.85851
▁party	-7.86358
▁telling	-7.8684
▁goes	-7.8751
in	-7.87528
▁doctor	-7.87694
▁making	-7.87805
▁body	-7.87808
▁fight	-7.8782
▁truth	-7.87908
▁book	-7.87934
▁story	-7.88421
▁pick	-7.88434
r	-7.88922
▁death	-7.88941
▁alright	-7.8904
▁shoot	-7.89109
▁makes	-7.89659
▁least	-7.89665
▁behind	-7.89665
▁million	-7.90215
▁outside	-7.90249
▁afraid	-7.90926
▁chuckles	-7.91025
▁war	-7.91214
t	-7.92032
▁daughter	-7.92154
▁asked	-7.92181
▁hate	-7.92656
▁started	-7.93457
▁high	-7.93915
▁wish	-7.94774
▁arent	-7.94811
▁speak	-7.95707
▁met	-7.95773
▁safe	-7.96005
▁person	-7.96101
▁bullshit	-7.96128
▁jim	-7.9681
▁either	-7.96811
▁almost	-7.96811
▁pull	-7.96843
▁break	-7.97161
▁molly	-7.97489
▁months	-7.97581
▁times	-7.98
▁stupid	-7.98166
▁york	-7.98167
▁heres	-7.98228
▁line	-7.98262
▁means	-7.98499
▁top	-7.98556
▁news	-7.99497
▁dance	-8.00026
▁mrs	-8.00667
▁anybody	-8.00979
▁serious	-8.01528
▁clear	-8.01672
▁died	-8.02022
▁sound	-8.0215
▁hot	-8.02218
▁trouble	-8.02962
▁office	-8.03017
▁brought	-8.03063
▁hang	-8.03106
▁sam	-8.0313
▁itll	-8.03782
▁drive	-8.03852
▁sometimes	-8.04698
▁married	-8.0524
▁send	-8.05635
▁buy	-8.05691
▁question	-8.07259
▁theyll	-8.07459
▁hurry	-8.07459
▁touch	-8.0747
▁michael	-8.07615
▁daddy	-8.07625
▁red	-8.07865
▁perfect	-8.08234
▁waiting	-8.08397
▁follow	-8.08497
▁feeling	-8.08881
▁fucked	-8.08887
▁tried	-8.08984
▁team	-8.09137
▁light	-8.09723
▁country	-8.09735
▁moment	-8.09942
▁ii	-8.10003
▁g	-8.10105
▁th	-8.10481
▁city	-8.10699
▁special	-8.1113
▁leaving	-8.11276
▁alive	-8.11281
▁re	-8.11635
▁calling	-8.11799
▁write	-8.11994
▁joel	-8.1206
▁save	-8.12071
▁ten	-8.12285
▁clean	-8.12501
▁bed	-8.12503
▁sick	-8.12745
▁plan	-8.1297
▁law	-8.13017
▁reason	-8.13072
▁street	-8.13092
▁control	-8.13619
▁lady	-8.13652
▁till	-8.14409
▁ahead	-8.14441
ve	-8.14637
▁king	-8.15246
▁white	-8.15252
▁quite	-8.15289
▁sweet	-8.15852
▁david	-8.16052
▁kidding	-8.16066
▁able	-8.16183
▁sister	-8.1636
▁comes	-8.16446
▁win	-8.16722
▁report	-8.16803
▁cover	-8.16898
▁hows	-8.16944
▁catch	-8.17302
▁dream	-8.17313
▁sex	-8.17587
▁straight	-8.17636
▁dale	-8.1772
▁cops	-8.18015
▁dude	-8.18022
▁ones	-8.18179
▁children	-8.18539
▁parents	-8.18666
less	-8.18972
▁ya	-8.19035
▁careful	-8.19299
▁running	-8.1939
▁ben	-8.19563
▁radio	-8.19676
▁drop	-8.19677
▁wow	-8.20226
▁important	-8.2023
▁bill	-8.20412
▁laughing	-8.20434
▁knows	-8.20723
▁billy	-8.21212
▁food	-8.21424
▁bet	-8.21584
▁happening	-8.2165
▁promise	-8.21789
▁boss	-8.22769
▁asking	-8.22961
▁piece	-8.23228
▁throw	-8.23311
▁somewhere	-8.23689
▁hair	-8.23919
▁beat	-8.24135
▁hour	-8.2414
▁seven	-8.24575
▁fact	-8.24849
▁j	-8.2506
▁officer	-8.25067
▁continues	-8.25258
▁answer	-8.25291
▁maam	-8.25467
▁order	-8.25648
▁weeks	-8.261
▁needs	-8.2618
▁weird	-8.26216
▁air	-8.26363
▁information	-8.26371
▁rock	-8.26462
▁truck	-8.26525
▁looked	-8.27132
▁fast	-8.27187
i	-8.2719
▁tired	-8.27289
▁gets	-8.27768
▁table	-8.27811
▁sort	-8.27811
▁lives	-8.28
▁dr	-8.28067
▁none	-8.2818
▁company	-8.28194
▁glad	-8.28194
▁living	-8.28195
▁screaming	-8.2828
▁de	-8.28451
▁wake	-8.28684
▁shouldnt	-8.29122
▁b	-8.29161
▁happens	-8.29274
man	-8.29442
▁dick	-8.29619
▁luck	-8.29951
▁shall	-8.30053
▁coffee	-8.30056
▁sent	-8.30061
▁holy	-8.30102
▁mouth	-8.30217
▁song	-8.30383
▁finish	-8.30723
▁cia	-8.30952
▁ride	-8.31351
▁hmm	-8.31397
▁dollars	-8.31492
▁asshole	-8.31571
▁quick	-8.3175
▁moving	-8.31952
▁buddy	-8.31952
▁power	-8.32663
▁act	-8.3277
▁sergeant	-8.32912
on	-8.33001
▁cop	-8.33196
▁less	-8.33343
▁road	-8.33479
▁taken	-8.3353
▁lie	-8.33649
▁r	-8.33736
▁prison	-8.33778
▁picture	-8.35322
▁agent	-8.35496
▁fair	-8.35597
▁sounds	-8.35726
▁george	-8.35853
▁possible	-8.35853
▁along	-8.35854
▁scared	-8.35938
▁child	-8.36436
▁sign	-8.36559
ies	-8.36653
▁american	-8.37042
▁record	-8.37063
▁park	-8.37313
▁husband	-8.37526
▁chatter	-8.37527
▁indistinct	-8.37751
▁step	-8.37766
▁alexander	-8.37863
▁gentlemen	-8.37863
▁hed	-8.38028
▁plane	-8.38046
st	-8.38277
▁sense	-8.38512
▁past	-8.38562
▁fuckin	-8.38712
▁eye	-8.3884
▁lm	-8.39022
▁state	-8.39526
▁wed	-8.39696
▁theyve	-8.39915
▁ronnie	-8.39916
▁ladies	-8.39916
▁groans	-8.39936
▁nine	-8.39941
▁panting	-8.39941
▁names	-8.39985
▁kiss	-8.4012
▁pass	-8.40189
▁meeting	-8.40481
▁voice	-8.40659
l	-8.40675
▁pain	-8.40829
▁dinner	-8.40948
▁werent	-8.40956
▁drunk	-8.40956
▁needed	-8.41733
▁absolutely	-8.42012
▁early	-8.42037
▁s	-8.42298
▁bag	-8.42682
▁yo	-8.42775
▁quiet	-8.42868
▁human	-8.42908
▁roll	-8.43066
▁floor	-8.4307
▁bobby	-8.43077
▁lawyer	-8.43887
▁questions	-8.43911
▁laughs	-8.44132
▁honor	-8.44136
▁zodiac	-8.4495
▁band	-8.44979
▁bob	-8.45227
▁dave	-8.45283
en	-8.45692
▁figure	-8.45887
▁dress	-8.46012
▁worked	-8.4607
▁captain	-8.46334
▁fbi	-8.46335
▁seems	-8.46429
▁ha	-8.46607
ion	-8.4673
ers	-8.46835
▁lord	-8.4715
▁paul	-8.47248
▁amazing	-8.47445
▁middle	-8.47446
▁board	-8.47979
est	-8.48068
g	-8.48318
▁eight	-8.48583
▁phil	-8.48605
▁grunts	-8.48653
▁blow	-8.49023
▁m	-8.49054
▁america	-8.49117
▁low	-8.49328
▁sell	-8.49974
▁spend	-8.5051
▁become	-8.50658
▁computer	-8.50665
▁calm	-8.50752
▁attention	-8.50854
▁tv	-8.50858
▁yall	-8.50873
▁lucky	-8.51016
▁words	-8.51138
▁k	-8.5142
▁blue	-8.51849
▁month	-8.51866
▁wedding	-8.52022
▁mmhmm	-8.52022
▁paid	-8.52029
▁screams	-8.52456
▁seeing	-8.52604
▁code	-8.5281
▁machine	-8.53045
▁leg	-8.53109
▁dear	-8.532
▁nick	-8.53256
▁goodbye	-8.54384
▁cold	-8.54389
▁stick	-8.54389
▁shouting	-8.54423
▁army	-8.54475
▁slow	-8.55076
▁turned	-8.55197
▁born	-8.55509
▁cash	-8.5559
▁felt	-8.5559
▁security	-8.55595
▁unit	-8.56019
▁seat	-8.56441
▁savage	-8.56574
▁hide	-8.56653
▁boat	-8.56666
▁worth	-8.56677
▁broke	-8.5686
▁fall	-8.57625
▁owe	-8.57736
▁talked	-8.57797
▁accident	-8.57845
▁small	-8.57936
▁soldier	-8.57937
▁fault	-8.58043
▁lying	-8.58051
▁sitting	-8.58069
▁murder	-8.58798
▁loved	-8.58825
▁near	-8.59176
▁church	-8.59242
▁poor	-8.59297
▁seem	-8.59382
▁crying	-8.59578
▁moved	-8.60195
▁respect	-8.60235
▁double	-8.60292
▁hospital	-8.60358
▁shell	-8.60413
▁strong	-8.60453
us	-8.60544
▁chef	-8.6056
▁dangerous	-8.6056
▁gunfire	-8.60563
▁mm	-8.60659
▁longer	-8.61145
▁explain	-8.6119
▁killing	-8.61227
▁p	-8.61249
▁c	-8.61445
▁cell	-8.61708
▁smart	-8.6175
▁uncle	-8.61792
▁known	-8.61838
▁tommy	-8.61842
▁hotel	-8.61852
▁seriously	-8.62045
▁meant	-8.6239
▁tough	-8.63013
▁court	-8.63027
▁adam	-8.63066
▁master	-8.63074
▁worried	-8.63139
▁french	-8.63141
▁finally	-8.63189
▁peter	-8.6319
m	-8.63196
▁program	-8.63214
▁ran	-8.63402
▁share	-8.6341
▁miles	-8.63421
▁bank	-8.63473
▁bar	-8.63515
▁finished	-8.63532
▁beer	-8.64322
▁fear	-8.64346
▁choice	-8.64421
▁anywhere	-8.64455
▁giving	-8.64461
▁appreciate	-8.64611
▁ann	-8.64755
▁mess	-8.65084
ic	-8.6518
▁suck	-8.65277
▁frank	-8.65396
▁wear	-8.65423
▁watching	-8.65618
▁mommy	-8.65676
▁dark	-8.6571
▁system	-8.6572
▁ground	-8.65725
▁college	-8.65789
▁ooh	-8.65789
▁others	-8.65799
▁works	-8.66389
▁bomb	-8.66429
▁expect	-8.66511
▁laugh	-8.66537
▁dan	-8.66868
▁terrible	-8.6714
▁clothes	-8.67143
▁service	-8.67167
▁learn	-8.67783
▁brothers	-8.67785
▁protect	-8.67843
▁missed	-8.68069
▁swear	-8.68133
▁fat	-8.68179
▁list	-8.68294
▁apple	-8.68425
▁steve	-8.68469
▁mad	-8.68505
▁yesterday	-8.6851
▁forever	-8.6851
▁future	-8.68511
▁evil	-8.68514
▁skin	-8.68518
▁ball	-8.68605
▁cross	-8.69681
▁quit	-8.6979
▁president	-8.69837
able	-8.69887
▁bought	-8.69902
▁max	-8.69903
▁given	-8.70418
▁knock	-8.70582
up	-8.7059
▁using	-8.71136
▁doug	-8.71153
▁turkish	-8.71307
▁danni	-8.7131
▁outta	-8.7131
▁hungry	-8.71313
▁smoke	-8.71523
▁walking	-8.72219
▁fix	-8.72239
▁gas	-8.72332
▁worse	-8.72736
▁wonderful	-8.72746
▁writing	-8.72747
▁rose	-8.72753
▁grunting	-8.72762
▁contact	-8.73513
▁sarah	-8.74237
▁mmm	-8.74273
▁cry	-8.75281
▁handle	-8.75289
▁suppose	-8.75497
▁personal	-8.75624
▁history	-8.75656
▁proud	-8.75656
▁relax	-8.75656
▁instead	-8.75657
▁robert	-8.75657
▁grace	-8.75659
▁jake	-8.75659
▁tucker	-8.75683
▁joke	-8.75685
▁tony	-8.7569
▁decided	-8.75747
▁secret	-8.7578
▁hundred	-8.75796
▁charge	-8.75945
▁key	-8.76259
▁balls	-8.77099
▁except	-8.77122
▁military	-8.77148
▁charlie	-8.77148
▁mama	-8.77152
▁totally	-8.77223
▁girlfriend	-8.77246
▁shh	-8.77324
▁building	-8.77498
▁train	-8.77606
▁changed	-8.77628
▁count	-8.77959
▁in	-8.78113
▁across	-8.78663
▁christmas	-8.78663
▁earth	-8.78664
▁birthday	-8.78665
▁general	-8.78665
▁kept	-8.78665
▁definitely	-8.78668
▁feet	-8.78674
▁wrote	-8.78675
▁pete	-8.78722
▁spot	-8.78751
▁lovely	-8.78883
▁copy	-8.79039
▁jump	-8.79854
▁fly	-8.79901
▁entire	-8.80088
▁difference	-8.80316
▁group	-8.80346
▁movie	-8.80408
▁letter	-8.80485
▁short	-8.80505
▁horse	-8.80538
▁crime	-8.80731
p	-8.80842
c	-8.80958
h	-8.81309
▁liked	-8.81467
▁honest	-8.81522
▁ring	-8.81744
▁heavy	-8.81764
▁darius	-8.81764
▁gay	-8.81779
▁eh	-8.81779
▁pleasure	-8.8179
▁tom	-8.8181
▁busy	-8.81879
▁department	-8.81903
▁bastard	-8.81979
▁window	-8.81992
▁date	-8.82081
▁wearing	-8.82157
▁evening	-8.82407
▁grab	-8.82629
▁test	-8.82958
▁english	-8.83352
▁cowhand	-8.83352
▁jail	-8.83352
▁forward	-8.83354
▁obviously	-8.83379
▁stopped	-8.83389
▁age	-8.83496
▁sake	-8.8358
▁partner	-8.83607
▁saved	-8.83678
or	-8.83735
▁calls	-8.84114
▁wonder	-8.84305
▁e	-8.84634
▁public	-8.84764
▁upset	-8.84966
▁lunch	-8.84968
▁carter	-8.85002
▁f	-8.85149
▁mary	-8.85233
▁message	-8.85254
▁seconds	-8.85481
▁star	-8.85531
▁simple	-8.85721
▁bro	-8.85824
▁join	-8.85931
▁club	-8.86121
▁games	-8.86127
ant	-8.86296
▁sun	-8.86371
▁named	-8.86432
▁fell	-8.86476
▁forgive	-8.86548
▁peace	-8.86592
▁forgot	-8.86603
▁watson	-8.86604
▁super	-8.86618
▁jem	-8.86618
▁smell	-8.86644
▁mace	-8.86661
▁interesting	-8.86753
▁flight	-8.86858
▁weekend	-8.86915
▁store	-8.86935
▁push	-8.87563
▁reach	-8.87583
▁la	-8.87622
▁gods	-8.87633
▁card	-8.87762
▁mark	-8.87893
▁dies	-8.88094
ll	-8.882
▁rich	-8.88207
▁distance	-8.8827
▁senator	-8.8827
▁moondog	-8.88271
▁chief	-8.88271
▁lisa	-8.88273
▁bunch	-8.88276
▁uhhuh	-8.88276
▁broken	-8.88328
▁carry	-8.88397
▁wall	-8.88425
▁breathing	-8.88473
▁idiot	-8.88585
▁paper	-8.88621
▁anna	-8.88646
▁box	-8.89005
▁lived	-8.89131
▁rules	-8.89361
▁imagine	-8.89777
▁lead	-8.89861
▁charley	-8.89966
▁yep	-8.89966
▁north	-8.89966
▁single	-8.90199
▁station	-8.90243
▁government	-8.90262
▁bucks	-8.90279
▁wine	-8.90313
▁russian	-8.90328
▁breathe	-8.90354
▁green	-8.90776
▁feels	-8.90967
▁enjoy	-8.91043
▁arm	-8.9115
▁listening	-8.91192
▁kick	-8.91273
▁normal	-8.91383
▁dogs	-8.91399
▁keys	-8.9151
▁adela	-8.91689
▁evidence	-8.91689
▁sweetheart	-8.9169
▁congratulations	-8.91703
▁surprise	-8.91901
▁area	-8.92029
ry	-8.9204
▁continue	-8.92051
▁states	-8.92067
▁track	-8.92092
▁guard	-8.92092
▁hole	-8.92161
▁drugs	-8.92794
▁victor	-8.93305
▁spanish	-8.93444
▁dying	-8.93444
▁spent	-8.93446
▁stalin	-8.93446
▁dancing	-8.93452
▁softly	-8.93524
▁n	-8.93669
▁marriage	-8.93798
▁mistake	-8.93828
▁brain	-8.93882
▁certain	-8.94045
▁player	-8.94346
▁class	-8.94834
▁judge	-8.94943
▁blame	-8.95025
▁ice	-8.95076
▁kitchen	-8.9523
▁karen	-8.95231
▁foot	-8.95237
▁completely	-8.95287
▁sea	-8.95412
▁mate	-8.9544
▁experience	-8.95558
▁whose	-8.956
▁round	-8.95655
▁bus	-8.95812
▁dreams	-8.96338
▁smile	-8.96737
▁warm	-8.96774
▁d	-8.96799
▁deep	-8.96853
▁offer	-8.96876
▁attack	-8.96884
▁private	-8.96921
▁paris	-8.97033
▁lincoln	-8.97048
▁rather	-8.97048
▁darling	-8.9705
▁space	-8.97057
▁al	-8.97229
▁cat	-8.97817
▁trip	-8.98042
▁missing	-8.98576
▁realize	-8.98767
▁a	-8.98792
▁knife	-8.989
▁libby	-8.989
▁driving	-8.989
▁bodies	-8.98905
▁sad	-8.98932
▁guilty	-8.98943
▁beach	-8.98949
▁san	-8.99072
▁pants	-8.99094
te	-8.99488
ie	-8.99975
▁killer	-9.00161
▁hero	-9.00319
▁t	-9.00403
▁jobs	-9.00712
▁witness	-9.00742
▁worst	-9.00786
▁neil	-9.00787
▁built	-9.00789
▁andy	-9.00791
▁favorite	-9.00791
▁usually	-9.00824
▁account	-9.01004
▁olive	-9.01171
▁engine	-9.01241
▁throat	-9.01253
▁thousand	-9.01359
▁weapon	-9.01361
▁fighting	-9.01838
▁gives	-9.02096
▁paying	-9.02305
▁strange	-9.02663
▁glass	-9.02668
▁doc	-9.0271
▁chicago	-9.0271
▁price	-9.02711
▁speed	-9.02741
▁lock	-9.02837
▁shed	-9.02873
▁land	-9.02879
▁return	-9.02928
▁locked	-9.02998
▁conversation	-9.03272
▁apartment	-9.03272
▁comrade	-9.03283
▁van	-9.03712
▁note	-9.03719
▁pray	-9.03919
▁press	-9.04423
▁played	-9.04457
▁agree	-9.04496
▁lay	-9.04575
▁delorean	-9.0467
▁third	-9.0467
▁upstairs	-9.0467
▁pussy	-9.04678
▁gasping	-9.04696
▁doin	-9.04696
▁male	-9.04714
▁shoes	-9.04964
▁favor	-9.05276
▁shower	-9.05363
▁ro	-9.05743
▁chair	-9.0601
▁crap	-9.06154
▁support	-9.06309
f	-9.06407
▁medical	-9.06568
▁ought	-9.06619
▁apart	-9.06661
▁perhaps	-9.0667
▁matthew	-9.06671
▁books	-9.06685
▁involved	-9.06703
▁interested	-9.0682
▁blind	-9.0691
▁promised	-9.07074
▁force	-9.07178
▁holding	-9.07189
▁firm	-9.07254
▁suspect	-9.07332
▁soul	-9.07343
▁fired	-9.07356
▁finger	-9.07359
▁cos	-9.07649
▁taste	-9.07983
▁crowd	-9.08018
▁fish	-9.08116
▁rule	-9.08234
▁consider	-9.08369
▁freak	-9.08569
▁large	-9.08672
▁hasnt	-9.08711
▁bathroom	-9.08712
▁groaning	-9.08722
▁burn	-9.08737
▁amy	-9.08738
▁gotten	-9.08757
▁gasps	-9.08812
▁folks	-9.08893
▁jay	-9.0897
▁babe	-9.0904
▁training	-9.09167
▁present	-9.09198
▁fit	-9.09278
▁level	-9.094
▁animal	-9.09444
▁queen	-9.0956
▁opens	-9.0971
▁shooting	-9.09821
ful	-9.10303
▁players	-9.10424
▁mike	-9.10671
▁grow	-9.10694
▁address	-9.10738
▁tea	-9.10757
▁afternoon	-9.10794
▁breakfast	-9.10794
▁especially	-9.10794
▁pashto	-9.10794
▁dylan	-9.10795
▁juan	-9.10795
▁teeth	-9.10796
▁within	-9.10796
▁everywhere	-9.108
▁cleo	-9.10803
▁honestly	-9.10945
▁indistinctly	-9.11027
▁so	-9.11172
▁director	-9.11256
▁goin	-9.11369
▁situation	-9.11502
▁drug	-9.11584
ity	-9.12037
▁form	-9.12112
▁marry	-9.12566
▁accept	-9.12617
▁extra	-9.12837
▁speaks	-9.1292
▁neither	-9.12922
▁pregnant	-9.12922
▁dumb	-9.12925
▁shine	-9.12931
▁wild	-9.12932
▁kathy	-9.12947
▁losing	-9.13025
▁certainly	-9.13057
▁mikey	-9.13057
▁v	-9.1315
▁singing	-9.13192
▁starting	-9.1323
▁figured	-9.13254
▁kinda	-9.13442
▁closed	-9.13633
▁begin	-9.13733
▁pig	-9.13742
▁sleeping	-9.1427
▁weapons	-9.1444
▁teach	-9.14598
▁coach	-9.14642
▁keeping	-9.14809
▁ho	-9.14891
▁legal	-9.15052
▁gold	-9.1508
▁sold	-9.15094
▁laura	-9.15096
▁nope	-9.15096
▁priest	-9.15097
▁angry	-9.15098
▁lonnie	-9.15099
▁willie	-9.15099
▁michelle	-9.15113
▁joey	-9.15138
▁block	-9.15568
▁field	-9.15984
▁action	-9.16001
▁grand	-9.16434
ness	-9.16437
▁standing	-9.16439
▁mac	-9.16445
▁camp	-9.16631
▁type	-9.16713
▁correct	-9.17012
▁cab	-9.17028
▁amen	-9.17142
▁sue	-9.17192
▁total	-9.17207
▁loud	-9.1721
▁jennifer	-9.17318
▁zeke	-9.17318
▁investigation	-9.17318
▁albert	-9.17319
▁credit	-9.1732
▁clay	-9.17321
▁devil	-9.17322
▁henry	-9.17323
▁jewell	-9.17323
▁markos	-9.17327
▁texas	-9.17391
▁center	-9.17401
▁putting	-9.17452
▁bother	-9.17526
▁allowed	-9.17527
k	-9.18318
▁staying	-9.18885
▁search	-9.18927
▁pal	-9.19063
▁arms	-9.1907
▁fill	-9.19073
▁drinking	-9.19075
▁wash	-9.19222
▁fathers	-9.19339
▁pressure	-9.19418
▁cream	-9.19423
▁twenty	-9.1959
▁innocent	-9.1959
▁nervous	-9.19591
▁keith	-9.19591
▁funeral	-9.19591
▁jones	-9.19593
▁bottom	-9.19594
▁meat	-9.19594
▁ronit	-9.19596
▁theyd	-9.196
▁west	-9.19607
▁ex	-9.19627
▁banks	-9.19638
▁cute	-9.19675
▁loves	-9.19776
▁faster	-9.19794
▁surprised	-9.19801
▁quickly	-9.19861
▁burned	-9.19898
▁nuts	-9.19921
▁awful	-9.20087
▁pop	-9.20125
go	-9.20173
▁summer	-9.20421
▁film	-9.20496
▁h	-9.20516
▁corner	-9.20531
▁decision	-9.20533
▁east	-9.2058
▁reporter	-9.20682
▁gi	-9.20756
▁starts	-9.20764
▁pre	-9.21125
▁ed	-9.21334
▁steal	-9.21566
▁pretend	-9.21575
▁mention	-9.21647
▁st	-9.21692
▁rent	-9.21694
▁raise	-9.21779
▁should	-9.21806
▁percent	-9.21912
▁advice	-9.21916
▁morgan	-9.21916
▁often	-9.21917
▁exhales	-9.21917
▁kirk	-9.21918
▁desk	-9.2192
▁football	-9.21922
▁jerry	-9.21922
▁neck	-9.21925
▁plus	-9.21932
▁james	-9.21933
▁cup	-9.2195
▁lied	-9.22032
▁doctors	-9.22311
▁learned	-9.22398
▁simon	-9.22409
▁fool	-9.22528
▁wouldve	-9.22811
▁pulled	-9.22882
▁scene	-9.22911
▁sheriff	-9.22916
▁position	-9.22941
▁client	-9.22954
▁crash	-9.23598
▁eating	-9.23602
▁waste	-9.24176
▁tight	-9.2421
▁ruth	-9.24252
▁nothin	-9.24273
▁major	-9.24286
▁became	-9.24297
▁whether	-9.243
▁basement	-9.24307
▁stuck	-9.24307
▁emily	-9.24307
▁avery	-9.24309
▁liar	-9.24309
▁kevin	-9.24311
▁sweetie	-9.24333
▁union	-9.24469
▁br	-9.24501
▁arrest	-9.24662
▁rid	-9.24794
▁passed	-9.2494
▁video	-9.25336
▁condition	-9.25353
▁cost	-9.25372
▁guns	-9.2556
▁cap	-9.25762
▁mothers	-9.26008
▁cook	-9.26066
▁sharp	-9.26255
ive	-9.26399
▁build	-9.26401
▁soft	-9.26647
▁rabbi	-9.26691
▁whatd	-9.26718
▁purge	-9.2673
▁shirt	-9.26736
▁tongue	-9.26737
▁caught	-9.26737
▁famous	-9.26737
▁mister	-9.26738
▁beauty	-9.26743
▁written	-9.26744
▁paco	-9.26745
▁hall	-9.27029
ment	-9.27183
▁motherfuckers	-9.2725
▁color	-9.27516
▁couldve	-9.27602
no	-9.27618
▁deserve	-9.27685
▁restaurant	-9.27734
▁file	-9.27744
▁ghost	-9.27762
▁ticket	-9.27877
▁camera	-9.27884
▁animals	-9.28344
ation	-9.28391
▁reading	-9.28546
▁access	-9.28644
▁pack	-9.28646
▁showed	-9.28932
▁notice	-9.29058
▁faith	-9.29224
▁gallegos	-9.29236
▁justice	-9.29237
▁twice	-9.29237
▁nowhere	-9.29237
▁taught	-9.29237
▁jared	-9.29238
▁willing	-9.29259
▁dirty	-9.29288
▁nation	-9.29355
▁hiding	-9.29362
▁besides	-9.29461
▁legs	-9.29577
▁thinks	-9.29788
▁ow	-9.29828
le	-9.29895
▁takes	-9.3011
▁heaven	-9.30298
▁pro	-9.30303
▁river	-9.30309
▁dollar	-9.30514
▁hearing	-9.30528
▁files	-9.30597
▁fucker	-9.308
▁numbers	-9.30876
▁boom	-9.31322
▁co	-9.31427
▁letters	-9.31484
▁apologize	-9.31592
▁difficult	-9.31775
▁south	-9.31776
▁butter	-9.318
▁downstairs	-9.31801
▁mitch	-9.31801
▁cancer	-9.31801
▁maggie	-9.31801
▁juice	-9.31809
▁heavily	-9.31811
▁held	-9.31814
▁glasses	-9.3186
▁jane	-9.31997
▁blues	-9.3218
▁dry	-9.32195
▁sexy	-9.32219
▁bird	-9.32227
▁fresh	-9.3233
▁escape	-9.32802
▁art	-9.32811
▁decide	-9.32875
▁nose	-9.32974
▁julie	-9.33034
▁vampire	-9.33075
▁ray	-9.33081
▁breaking	-9.33094
▁walked	-9.33181
▁piss	-9.33609
▁pa	-9.3423
▁natural	-9.34317
▁sugar	-9.34405
▁lieutenant	-9.34432
▁lockhart	-9.34432
▁impossible	-9.34432
▁federal	-9.34432
▁larry	-9.34433
▁several	-9.34438
▁jimmy	-9.34439
▁layne	-9.3444
▁danny	-9.34448
▁size	-9.3446
▁naked	-9.34496
▁nicky	-9.34732
▁arrested	-9.34736
▁suit	-9.34941
▁wondering	-9.34987
▁ringing	-9.35003
ous	-9.3542
▁older	-9.35428
▁problems	-9.35472
▁nah	-9.35516
▁gift	-9.35671
▁local	-9.35697
▁ship	-9.35819
▁sing	-9.36035
▁magic	-9.36412
▁lift	-9.36463
ta	-9.36558
▁focus	-9.36848
▁weak	-9.3688
▁esti	-9.3712
▁vietnam	-9.37134
▁grew	-9.37136
▁washington	-9.37138
▁choose	-9.37138
▁bread	-9.3714
▁alma	-9.37141
▁aw	-9.37153
▁stage	-9.37159
▁manager	-9.37222
▁yelling	-9.37233
▁ness	-9.37404
▁doors	-9.37486
▁laz	-9.37725
▁breath	-9.38002
▁target	-9.382
▁bear	-9.38219
▁sin	-9.38446
▁crew	-9.38448
▁prove	-9.38477
▁repeat	-9.38492
▁pulling	-9.38504
▁spirit	-9.38512
▁explosion	-9.38516
▁chicken	-9.38521
x	-9.38558
▁mission	-9.38577
▁bottle	-9.38621
▁risk	-9.39067
▁cards	-9.39387
▁lt	-9.39413
▁shame	-9.39878
▁awesome	-9.39913
▁threw	-9.39913
▁vallejo	-9.39913
▁freedom	-9.39913
▁due	-9.39913
▁whoever	-9.39913
▁beria	-9.39913
▁committee	-9.39913
▁emergency	-9.39918
▁plenty	-9.39918
▁bedroom	-9.39921
▁cheering	-9.40023
▁letting	-9.4015
▁forced	-9.40162
▁over	-9.40288
▁fixed	-9.40457
▁travel	-9.40551
▁prisoners	-9.40574
▁huge	-9.40839
land	-9.40875
▁where	-9.40972
▁base	-9.41153
▁picked	-9.41173
▁ammo	-9.41192
▁operation	-9.41352
ist	-9.41382
▁battle	-9.41384
ish	-9.41495
▁se	-9.41562
z	-9.41806
ance	-9.41848
▁bell	-9.41978
▁papers	-9.42182
▁boo	-9.42425
▁appear	-9.42472
▁strength	-9.42745
▁dwayne	-9.4277
▁violence	-9.4277
▁asleep	-9.4277
▁alarm	-9.4277
▁easier	-9.42773
▁castle	-9.42781
▁benny	-9.42783
▁immediately	-9.42794
▁incredible	-9.42805
▁lake	-9.42809
▁kable	-9.42813
▁motherfucking	-9.42826
▁main	-9.42918
▁whispers	-9.42989
▁dig	-9.43003
▁lawyers	-9.43474
▁suggest	-9.43478
▁dressed	-9.43504
ary	-9.43697
▁records	-9.43729
▁doubt	-9.43919
▁text	-9.44013
▁following	-9.44059
▁grandpa	-9.44129
▁attorney	-9.44205
▁boyfriend	-9.44212
▁cock	-9.44216
▁alien	-9.44232
▁tree	-9.44312
▁pocket	-9.44327
▁whore	-9.44379
▁z	-9.44757
▁guards	-9.45024
▁draw	-9.45025
▁project	-9.45138
▁writer	-9.45313
▁allow	-9.45455
▁settle	-9.45513
▁dare	-9.45529
▁final	-9.45537
▁sexual	-9.4562
▁stole	-9.45671
▁spoke	-9.45673
▁prefer	-9.45709
▁insane	-9.45711
▁eben	-9.45712
▁mmmhmm	-9.45712
▁beginning	-9.45716
▁pool	-9.45718
▁tax	-9.45718
▁airport	-9.45719
▁do	-9.46053
▁er	-9.46127
▁flying	-9.46363
▁bloody	-9.46424
▁lots	-9.46526
▁turns	-9.46527
▁keeps	-9.46547
ting	-9.46555
▁bone	-9.4657
▁visit	-9.46665
▁w	-9.47015
▁horn	-9.47195
▁who	-9.47218
▁heads	-9.47301
▁ave	-9.47435
▁everyones	-9.4774
▁chest	-9.48271
▁self	-9.48541
▁lack	-9.48659
▁bath	-9.48688
▁services	-9.48699
lng	-9.48726
▁drank	-9.48741
▁excellent	-9.48741
▁otherwise	-9.48741
▁responsible	-9.48741
▁afford	-9.48741
▁whitaker	-9.48741
▁agency	-9.48742
▁ripley	-9.48743
▁process	-9.48745
▁marion	-9.48755
▁freeway	-9.48764
▁common	-9.48765
▁row	-9.48774
▁tits	-9.48848
▁prepared	-9.48862
▁whoo	-9.4887
▁bleeding	-9.48872
▁blessed	-9.48986
▁higher	-9.49122
▁clearly	-9.49231
▁harder	-9.49449
▁expecting	-9.49508
▁everybodys	-9.4969
▁covered	-9.49779
to	-9.49852
▁practice	-9.50218
▁shake	-9.50243
▁trade	-9.50342
▁con	-9.50405
▁relationship	-9.50423
is	-9.50428
▁gunshot	-9.50446
▁angel	-9.50448
▁strike	-9.50453
▁monster	-9.50468
▁pilot	-9.50479
▁page	-9.50585
▁whip	-9.50587
out	-9.51152
▁bite	-9.51283
▁rush	-9.51518
▁switch	-9.51554
▁actual	-9.51758
▁joan	-9.5185
▁split	-9.51853
▁california	-9.51866
▁majesty	-9.51866
▁nokes	-9.51866
▁pembroke	-9.51866
▁thomas	-9.51866
▁cocaine	-9.51867
▁thatll	-9.51867
▁detective	-9.51868
▁monday	-9.51868
▁onto	-9.51869
▁excited	-9.51869
▁handwriting	-9.51871
▁sophie	-9.51872
▁donnie	-9.51873
▁aware	-9.51874
▁laughter	-9.51874
▁slept	-9.51877
▁wet	-9.51882
▁trial	-9.51887
▁lana	-9.51904
▁bigger	-9.51913
▁jacket	-9.51938
▁created	-9.51966
▁match	-9.51988
▁served	-9.52036
▁bigge	-9.52136
▁si	-9.52252
▁hells	-9.52541
▁chain	-9.52601
▁hunt	-9.52662
▁members	-9.52672
▁sat	-9.52812
▁dis	-9.52837
it	-9.5333
▁wire	-9.53332
▁cameron	-9.53528
▁lts	-9.5356
▁prick	-9.53585
▁neighborhood	-9.53585
▁sunday	-9.53593
▁score	-9.53654
▁lee	-9.53683
▁loser	-9.53916
▁rio	-9.54052
▁brains	-9.54295
▁helping	-9.54321
▁bringing	-9.54387
ass	-9.54798
house	-9.54841
▁howd	-9.54867
▁survive	-9.54928
▁add	-9.5493
▁introduce	-9.54939
an	-9.54957
▁hung	-9.54997
▁michel	-9.55068
▁garbage	-9.55092
▁hadnt	-9.55092
▁moustache	-9.55092
▁opportunity	-9.55092
▁sheep	-9.55092
▁oclock	-9.55092
▁piano	-9.55092
▁social	-9.55093
▁stories	-9.55093
▁beamen	-9.55097
▁capone	-9.55097
▁memory	-9.55097
▁chocolate	-9.55097
▁mask	-9.55098
▁admit	-9.55101
▁pge	-9.55103
▁itd	-9.55105
▁allen	-9.55105
▁flat	-9.55107
▁navy	-9.55108
▁oneil	-9.55121
▁beeping	-9.55141
▁brad	-9.55143
▁laid	-9.55147
▁arrived	-9.55186
▁invited	-9.55247
▁county	-9.55378
led	-9.55641
re	-9.55702
▁falling	-9.55985
▁remind	-9.56022
et	-9.56069
▁pictures	-9.56285
▁crack	-9.56541
▁spread	-9.56594
▁torture	-9.56624
▁release	-9.56749
▁officers	-9.56776
▁per	-9.56829
▁article	-9.56843
▁female	-9.56844
▁sky	-9.56867
▁scare	-9.56886
▁cent	-9.56891
▁pot	-9.56975
▁roger	-9.56982
▁subject	-9.56986
▁teacher	-9.57162
time	-9.57184
▁shots	-9.57189
▁da	-9.57245
▁fingers	-9.57285
▁checked	-9.57521
▁screw	-9.57781
▁ends	-9.57826
▁brave	-9.57941
▁matters	-9.58104
▁rick	-9.58211
▁coke	-9.58245
▁invite	-9.58265
▁sacrifice	-9.58275
▁doll	-9.58288
▁kincaid	-9.58425
▁leigh	-9.58425
▁senate	-9.58425
▁stomach	-9.58425
▁suicide	-9.58425
▁unbelievable	-9.58426
▁abby	-9.58426
▁earlier	-9.58427
▁blew	-9.58427
▁claire	-9.58427
▁property	-9.5843
▁changing	-9.58434
▁rowan	-9.58437
▁confused	-9.5845
▁farm	-9.58457
▁boring	-9.58466
▁whimpers	-9.58543
▁concerned	-9.58631
▁agreed	-9.58701
▁personally	-9.58711
▁flowers	-9.58836
▁sauce	-9.59146
▁murdered	-9.59177
▁knocking	-9.59237
▁seemed	-9.59287
rs	-9.59367
▁knees	-9.59383
▁chattering	-9.59559
▁acting	-9.59614
▁songs	-9.59899
▁bang	-9.60143
▁cars	-9.60169
▁toilet	-9.60291
▁lies	-9.60349
▁weight	-9.60391
▁mood	-9.60405
▁regular	-9.6043
▁ended	-9.60435
▁nicola	-9.60483
▁patient	-9.60511
▁sisters	-9.60597
▁mass	-9.60634
▁streets	-9.60783
▁siren	-9.60926
▁points	-9.60964
▁closes	-9.60964
▁feelings	-9.61119
▁thoughts	-9.61163
▁bless	-9.6136
▁las	-9.61468
u	-9.61495
▁borrow	-9.61583
▁complete	-9.61615
▁opened	-9.61653
▁porn	-9.61656
▁freeze	-9.61724
▁stops	-9.61798
el	-9.61828
▁product	-9.61834
▁william	-9.61867
▁available	-9.61874
▁dovid	-9.61874
▁opinion	-9.61874
▁sunshine	-9.61874
▁square	-9.61874
▁basically	-9.61875
▁empty	-9.61875
▁chuckling	-9.61875
▁apparently	-9.61876
▁awake	-9.61876
▁donna	-9.61883
▁truly	-9.61885
▁aah	-9.6189
▁harper	-9.61891
▁smoking	-9.61898
▁dust	-9.61908
▁nights	-9.61965
▁rav	-9.62171
▁frances	-9.62285
▁opening	-9.62356
id	-9.62398
▁range	-9.62517
▁ken	-9.62594
▁expected	-9.62595
▁talkin	-9.62714
age	-9.62835
▁di	-9.6297
▁treat	-9.63199
▁friendly	-9.63234
▁scream	-9.63402
▁pieces	-9.63739
▁ghosts	-9.63787
▁value	-9.63791
▁heat	-9.63831
▁style	-9.63854
▁clients	-9.63883
▁en	-9.63898
▁guitar	-9.63975
▁bullet	-9.64087
▁jean	-9.6411
▁feed	-9.64361
▁lights	-9.64511
ch	-9.64672
▁cases	-9.6475
▁smells	-9.64768
▁loose	-9.64786
▁destroy	-9.64809
▁career	-9.64848
▁hurts	-9.64914
▁plant	-9.64916
▁rings	-9.64928
▁clears	-9.65034
▁tour	-9.65082
▁matt	-9.65274
▁divorce	-9.65282
▁penis	-9.65398
▁alcohol	-9.65423
▁beyond	-9.65445
▁mcdeere	-9.65445
▁patricia	-9.65445
▁period	-9.65445
▁twelve	-9.65445
▁however	-9.65445
▁london	-9.65445
▁somehow	-9.65445
▁whenever	-9.65445
▁eddie	-9.65446
▁silly	-9.65446
▁clive	-9.65447
▁deuce	-9.6545
▁organization	-9.65452
▁whirring	-9.65452
▁translating	-9.65452
▁franklin	-9.65453
▁comfortable	-9.65453
▁linda	-9.65459
▁kurt	-9.65459
▁bike	-9.6546
▁stifler	-9.65461
▁footsteps	-9.65473
▁moon	-9.65475
▁bridge	-9.65489
▁yearold	-9.6549
▁ron	-9.65535
▁national	-9.6554
▁mo	-9.65541
▁received	-9.65562
▁barking	-9.65591
▁deeply	-9.6567
▁lily	-9.65732
▁nearly	-9.65772
▁perfectly	-9.6599
▁kicked	-9.66028
▁o	-9.66029
▁details	-9.66072
▁tie	-9.66187
▁helped	-9.66473
▁victims	-9.66672
b	-9.66679
nt	-9.66826
▁stayed	-9.66911
▁stone	-9.67083
▁interest	-9.67134
▁hanging	-9.67173
▁rain	-9.67327
▁belong	-9.67367
▁lil	-9.67542
▁amount	-9.67707
▁holiday	-9.6772
▁purpose	-9.67724
▁criminal	-9.67755
▁sentence	-9.67766
▁swing	-9.67844
▁leader	-9.67874
▁driver	-9.67935
▁cares	-9.68002
▁tear	-9.6802
ent	-9.68291
▁ba	-9.68529
▁tim	-9.6853
▁sight	-9.68769
▁market	-9.68797
▁launch	-9.68802
▁phones	-9.68837
▁talent	-9.68852
▁original	-9.69031
▁toast	-9.69045
▁proper	-9.69047
▁wind	-9.69054
▁chose	-9.69107
▁success	-9.69122
▁sara	-9.6914
▁regret	-9.69143
▁thirty	-9.69148
▁grandmother	-9.69149
▁including	-9.69149
▁language	-9.69149
▁literally	-9.69149
▁pakistan	-9.69149
▁ridiculous	-9.69149
▁saturday	-9.69149
▁someplace	-9.69149
▁darlene	-9.69149
▁kovic	-9.69149
▁sobbing	-9.6915
▁friday	-9.69151
▁pardon	-9.69151
▁appointment	-9.69152
▁central	-9.69152
▁swim	-9.69152
▁gaga	-9.69154
▁mummy	-9.69155
▁papa	-9.69158
▁familiar	-9.69161
▁sucks	-9.69161
▁announcer	-9.69171
▁july	-9.69172
▁harlan	-9.69185
▁erin	-9.692
▁hoping	-9.69238
▁failed	-9.69261
▁argue	-9.69292
▁ruined	-9.69293
▁wayne	-9.69382
▁destroyed	-9.69439
▁race	-9.69486
▁wasted	-9.69511
▁sec	-9.69548
▁attacked	-9.69721
▁clicks	-9.69852
▁selling	-9.70265
▁grandma	-9.70347
▁assholes	-9.70695
▁aliens	-9.70905
▁remain	-9.7096
um	-9.70975
▁loan	-9.70992
▁orders	-9.71018
▁view	-9.71416
▁command	-9.71419
▁cake	-9.71446
▁egg	-9.71464
▁pair	-9.71495
▁route	-9.71535
▁shop	-9.7157
▁debt	-9.71591
▁magazine	-9.7161
▁ears	-9.71708
▁wood	-9.71759
▁places	-9.71885
▁hurting	-9.71912
▁dump	-9.72312
▁tape	-9.72505
▁progress	-9.72599
▁dive	-9.72797
▁serve	-9.72814
▁foreign	-9.72882
▁li	-9.72882
▁speech	-9.72948
▁somethin	-9.72971
ennial	-9.72995
▁fletcher	-9.72995
▁genius	-9.72995
▁hephaistion	-9.72995
▁possibly	-9.72995
▁research	-9.72995
▁faggot	-9.72995
▁garden	-9.72995
▁janice	-9.72995
▁fought	-9.72996
▁surgery	-9.72997
▁cheese	-9.73
▁mexico	-9.73
▁began	-9.73001
▁cassie	-9.73003
▁poker	-9.73004
▁ugly	-9.73007
▁milk	-9.73009
▁cries	-9.73009
▁complicated	-9.73009
▁dropped	-9.7301
▁extreme	-9.73015
▁pure	-9.7302
▁sally	-9.73038
▁rex	-9.73042
▁louise	-9.73071
▁buzzing	-9.73081
▁nasty	-9.73089
▁tall	-9.73172
▁ate	-9.732
▁he	-9.73612
os	-9.73865
w	-9.73881
▁backup	-9.74097
▁voices	-9.74122
▁sharks	-9.74267
▁eggs	-9.74377
▁x	-9.74392
▁nicolas	-9.74538
▁dads	-9.74639
▁bum	-9.74827
ian	-9.74911
▁claim	-9.75264
▁pat	-9.75271
▁cure	-9.75432
▁carli	-9.75464
▁reports	-9.75485
▁section	-9.75485
▁chick	-9.75576
▁stars	-9.75609
▁victim	-9.75635
th	-9.75664
▁bi	-9.75777
▁dancer	-9.75802
▁beth	-9.76122
▁jerk	-9.76301
tic	-9.76451
▁movies	-9.76454
▁medic	-9.76519
▁study	-9.76664
em	-9.76737
▁mental	-9.76882
▁bright	-9.76948
▁hm	-9.76983
▁andrew	-9.76995
▁cyrus	-9.76995
▁enemy	-9.76995
▁jealous	-9.76995
▁society	-9.76995
▁staff	-9.76995
▁understood	-9.76995
▁yunger	-9.76995
▁glory	-9.76995
▁cristina	-9.76995
▁behalf	-9.76995
▁elevator	-9.76996
▁june	-9.76996
▁hoffman	-9.76997
▁mail	-9.76997
▁allyson	-9.76997
▁lydia	-9.76999
▁philip	-9.77
▁upon	-9.77012
▁chad	-9.77026
▁map	-9.77036
▁barry	-9.77038
▁clark	-9.77045
▁out	-9.7705
▁nature	-9.77069
▁tt	-9.77085
▁cates	-9.77094
▁heading	-9.77108
▁former	-9.77148
▁hired	-9.77166
▁reality	-9.7717
▁raised	-9.77324
▁coma	-9.77348
▁lou	-9.77378
▁gal	-9.77491
▁cheers	-9.77649
▁hat	-9.77917
▁abe	-9.78023
ah	-9.78112
▁stock	-9.78226
ich	-9.78505
▁bullets	-9.78547
▁throwing	-9.78576
▁ohh	-9.78626
▁faces	-9.78931
na	-9.79166
▁tickets	-9.79228
▁button	-9.79347
ier	-9.79401
▁quarter	-9.79409
▁interview	-9.79465
co	-9.79501
▁bloom	-9.79577
▁gang	-9.79687
▁border	-9.79692
▁vacation	-9.79692
▁nigger	-9.79714
▁meaning	-9.7973
▁szell	-9.79731
▁season	-9.79743
▁procedure	-9.79744
▁vehicle	-9.79767
▁snake	-9.79772
▁shark	-9.79805
head	-9.79854
▁to	-9.79985
▁tip	-9.80248
▁chill	-9.80264
▁discuss	-9.80486
ty	-9.80506
▁suffer	-9.80515
▁fuckers	-9.80536
▁desert	-9.80802
▁ar	-9.80861
▁runs	-9.80899
▁celebrate	-9.80983
▁recognize	-9.8099
▁health	-9.81029
▁mmhm	-9.81149
▁birth	-9.81157
▁arthur	-9.81162
▁dukhovich	-9.81162
▁fantastic	-9.81162
▁flesh	-9.81162
▁traffic	-9.81162
▁vodka	-9.81162
▁attitude	-9.81162
▁mostly	-9.81162
▁science	-9.81162
▁trigger	-9.81162
▁lindsey	-9.81162
▁harold	-9.81162
▁intelligence	-9.81162
▁example	-9.81162
▁yellow	-9.81162
▁feck	-9.81163
▁permission	-9.81164
▁finch	-9.81164
▁beef	-9.81166
▁gear	-9.81168
▁lucas	-9.81174
▁zone	-9.81175
▁thatd	-9.81175
▁planning	-9.8118
▁positive	-9.81181
▁path	-9.81189
▁protection	-9.81226
▁exchange	-9.81251
▁sofi	-9.81282
▁weed	-9.81287
▁units	-9.81408
▁based	-9.81429
ine	-9.81452
▁closer	-9.81502
▁hill	-9.81549
▁realized	-9.81586
▁pounds	-9.81602
▁bitches	-9.81699
▁burning	-9.81862
▁computers	-9.8187
▁highly	-9.81901
▁shows	-9.82022
▁bags	-9.82253
▁signed	-9.82361
▁fellas	-9.82366
▁ma	-9.82663
▁tapes	-9.82686
ship	-9.82723
▁patients	-9.82839
and	-9.83122
at	-9.83298
▁u	-9.83345
▁sand	-9.83411
▁pr	-9.83498
▁picking	-9.835
▁trick	-9.83679
▁request	-9.83812
▁mi	-9.83826
▁album	-9.83923
▁mirror	-9.84036
▁island	-9.84037
▁disease	-9.84061
▁sh	-9.84073
▁tower	-9.84109
▁email	-9.8412
▁official	-9.84138
▁gate	-9.84149
▁photo	-9.84149
▁plans	-9.84192
▁ms	-9.84265
▁indian	-9.84282
▁cats	-9.84329
▁post	-9.84403
▁mistakes	-9.84448
▁walls	-9.84634
▁und	-9.84675
▁messages	-9.84745
▁partners	-9.84805
▁character	-9.85037
▁sub	-9.85151
▁provide	-9.85243
▁prepare	-9.85349
▁according	-9.85364
▁particular	-9.8539
▁rough	-9.85391
▁cheap	-9.85396
v	-9.85402
▁among	-9.85483
▁silver	-9.85488
▁ganz	-9.85509
▁license	-9.85509
▁mccormack	-9.85509
▁kumail	-9.85509
▁atlanta	-9.8551
▁clinch	-9.8551
▁steady	-9.8551
▁families	-9.8551
▁studio	-9.8551
▁refuse	-9.85511
▁bravo	-9.85511
▁horrible	-9.85511
▁kitty	-9.85513
▁buried	-9.85515
▁therapy	-9.85515
▁duty	-9.85517
▁planned	-9.85518
▁booze	-9.85518
▁handsome	-9.85519
▁buttle	-9.8552
▁package	-9.85521
▁jill	-9.85528
▁ryan	-9.8553
▁jury	-9.8553
▁princess	-9.85535
▁barely	-9.85537
▁highway	-9.85538
▁lonely	-9.85542
▁fan	-9.85544
▁carol	-9.85548
▁whimpering	-9.85548
▁recently	-9.85557
▁safety	-9.85561
▁beating	-9.85616
▁designed	-9.85618
▁bobi	-9.85618
▁sean	-9.85624
▁jackie	-9.85668
▁signal	-9.85695
▁triple	-9.85703
as	-9.85709
▁knowledge	-9.85747
▁sobs	-9.85788
▁coughs	-9.85909
▁golf	-9.85935
▁pissed	-9.85979
▁tires	-9.86032
▁mustve	-9.86052
▁hon	-9.86067
▁greatest	-9.86129
▁yells	-9.86156
▁lately	-9.86561
▁closet	-9.86563
▁photos	-9.86893
ar	-9.86937
▁parking	-9.87009
▁hook	-9.8702
▁woods	-9.87077
▁tears	-9.87151
▁demo	-9.87532
▁lo	-9.87646
▁vampires	-9.87827
▁concern	-9.87971
▁rise	-9.88146
▁ways	-9.88312
▁fortune	-9.88467
▁beast	-9.88597
▁interrogation	-9.88646
▁fellow	-9.88655
ur	-9.88829
▁murderer	-9.88904
▁strip	-9.89041
▁el	-9.89124
ally	-9.89181
▁bay	-9.89248
▁collect	-9.89287
▁moves	-9.89303
▁secrets	-9.89634
▁charges	-9.89636
▁bombing	-9.8976
loans	-9.89797
▁remove	-9.89899
▁martin	-9.9003
▁bench	-9.90038
▁homosexual	-9.90043
▁although	-9.90055
▁clamoring	-9.90055
▁cleitus	-9.90055
▁halloween	-9.90055
▁library	-9.90055
▁neiman	-9.90055
▁abraham	-9.90055
▁georgy	-9.90055
▁powder	-9.90055
▁francisco	-9.90056
▁kidnapped	-9.90056
▁deputy	-9.90057
▁wack	-9.90058
▁wikus	-9.90061
▁claude	-9.90061
▁parry	-9.90063
▁slight	-9.90065
▁peyton	-9.90067
▁simply	-9.90073
▁treatment	-9.90075
▁maintain	-9.90079
▁clock	-9.90086
▁terry	-9.90089
▁vegas	-9.90091
▁chanting	-9.90096
▁lowry	-9.90112
▁tiny	-9.90129
▁boz	-9.90152
▁ana	-9.90163
▁trailer	-9.90167
▁louder	-9.90227
▁spin	-9.90287
▁fisher	-9.90292
ng	-9.90331
▁lab	-9.9053
▁planet	-9.9054
▁hunter	-9.90814
▁rude	-9.90929
▁towards	-9.91117
ia	-9.9116
▁stan	-9.91216
▁plays	-9.91276
son	-9.91297
▁documents	-9.9137
ts	-9.91395
▁americans	-9.91634
▁pie	-9.91687
▁houses	-9.9173
▁rosa	-9.91778
▁bones	-9.922
▁sending	-9.92222
▁sins	-9.92391
red	-9.9241
▁badly	-9.92411
▁bills	-9.92749
ne	-9.92825
line	-9.92881
▁confirm	-9.93008
▁leaves	-9.93069
ability	-9.93074
▁print	-9.93081
▁brown	-9.93116
▁lookin	-9.93153
▁knee	-9.93201
▁television	-9.93231
▁document	-9.93273
▁model	-9.93338
▁noise	-9.9335
▁motor	-9.93351
▁connection	-9.93359
▁cousin	-9.93368
▁location	-9.93369
▁statement	-9.93387
▁engines	-9.93396
▁contract	-9.93412
▁cigarette	-9.93432
▁under	-9.93498
▁nail	-9.93573
▁manage	-9.93654
▁flag	-9.9369
▁drag	-9.93792
▁fella	-9.93878
▁smash	-9.94141
▁patch	-9.94329
▁anger	-9.94459
off	-9.94459
▁trash	-9.94474
▁lines	-9.94609
▁guarantee	-9.94642
nk	-9.9467
▁bo	-9.9469
▁vote	-9.94704
▁allison	-9.94817
▁chelsea	-9.94817
▁district	-9.94817
▁dungeon	-9.94817
▁khrushchev	-9.94817
▁necessary	-9.94817
▁ransom	-9.94817
▁susie	-9.94817
▁graham	-9.94817
▁insurance	-9.94818
▁nicole	-9.94818
▁zeus	-9.94818
▁babies	-9.94819
▁infection	-9.94819
▁cunt	-9.9482
▁pathetic	-9.94823
▁smith	-9.94823
▁dean	-9.94824
▁rare	-9.94826
▁fake	-9.94838
▁role	-9.94839
▁secretary	-9.94849
▁whyd	-9.94853
▁suddenly	-9.94881
▁stolen	-9.94885
▁grown	-9.94902
▁bout	-9.94906
the	-9.94919
▁pickup	-9.9495
▁diego	-9.94964
▁noticed	-9.95137
▁showing	-9.95192
▁screwed	-9.95222
▁shouts	-9.95463
▁carefully	-9.95476
▁slaves	-9.95578
▁reached	-9.95636
▁lower	-9.95819
▁staring	-9.95835
▁bust	-9.9584
se	-9.95879
▁bat	-9.96052
ology	-9.96229
▁pe	-9.96268
▁kings	-9.96302
▁of	-9.96821
▁load	-9.97058
▁buying	-9.97092
▁shift	-9.97842
▁moms	-9.9792
▁reasons	-9.98248
▁expert	-9.98301
▁ocean	-9.98302
▁steak	-9.98367
▁vision	-9.98393
▁runner	-9.984
▁defendant	-9.98428
▁sometime	-9.98475
▁weekends	-9.98875
you	-9.99071
▁headed	-9.99082
▁windows	-9.99083
▁disappear	-9.99158
▁hundreds	-9.99359
▁counsel	-9.9944
by	-9.99441
▁corn	-9.99591
▁blanc	-9.99758
▁beg	-9.99789
▁pride	-9.99805
▁ashamed	-9.99817
▁smooth	-9.99817
▁stood	-9.99817
▁mullins	-9.99817
▁authorities	-9.99817
▁paradise	-9.99817
▁miami	-9.99817
▁brilliant	-9.99817
▁barbara	-9.99817
▁slim	-9.99817
▁community	-9.99817
▁executive	-9.99818
▁firing	-9.99818
▁kidnapping	-9.99818
▁luke	-9.99818
▁steel	-9.99818
▁alice	-9.9982
▁cherry	-9.9982
▁padre	-9.9982
▁stella	-9.9982
▁roof	-9.99822
▁lexi	-9.99822
▁material	-9.99823
▁false	-9.99823
▁edge	-9.99825
▁zero	-9.99834
▁inch	-9.99836
▁rae	-9.99842
▁defense	-9.99847
▁jenny	-9.99849
▁roaring	-9.99864
▁christie	-9.99923
▁subtitles	-9.99925
▁chase	-9.99971
▁belt	-9.99974
▁healthy	-9.99979
▁moaning	-9.99982
▁approaching	-9.99984
▁circumstances	-9.99995
▁scoffs	-9.99995
▁forty	-10.0005
▁chin	-10.0008
▁bin	-10.0009
▁loaded	-10.0012
▁media	-10.0015
▁daughters	-10.0022
▁treated	-10.0022
▁comedy	-10.0026
▁riding	-10.0054
▁machines	-10.0054
▁leading	-10.0084
▁schedule	-10.0127
▁touched	-10.0175
▁someones	-10.0183
ling	-10.0235
day	-10.0238
lie	-10.0284
▁pump	-10.0297
▁i	-10.0302
▁pigs	-10.0307
▁create	-10.034
▁parts	-10.0345
▁village	-10.0349
▁stake	-10.0354
▁helicopter	-10.0356
▁chapter	-10.036
▁tank	-10.0361
▁nurse	-10.0364
▁artist	-10.0365
▁greek	-10.0367
▁guest	-10.0369
▁student	-10.037
▁member	-10.0372
▁shoulder	-10.0388
▁ad	-10.041
io	-10.042
▁defend	-10.0438
▁sweat	-10.0448
▁hearts	-10.0462
▁deliver	-10.0466
▁swallow	-10.0478
▁twist	-10.0479
▁curse	-10.0491
▁physical	-10.0497
▁muff	-10.05
▁bowl	-10.0502
▁tuck	-10.0506
▁slut	-10.0507
▁audience	-10.0508
▁declan	-10.0508
▁enemies	-10.0508
▁ferguson	-10.0508
▁graeme	-10.0508
▁knives	-10.0508
▁thursday	-10.0508
▁whistling	-10.0508
▁borras	-10.0508
▁hooyah	-10.0508
▁weather	-10.0508
▁luther	-10.0508
▁courage	-10.0508
while	-10.0508
▁sherwood	-10.0508
▁squad	-10.0508
▁flashlight	-10.0508
▁midnight	-10.0508
▁jordan	-10.0508
▁telephone	-10.0508
▁diana	-10.0508
▁moonlight	-10.0508
▁failure	-10.0508
▁trapped	-10.0508
▁drove	-10.0508
▁fancy	-10.0509
▁alpha	-10.0509
▁secure	-10.0509
▁coward	-10.0509
▁italian	-10.0509
▁baseball	-10.0509
▁boston	-10.0509
▁energy	-10.0509
▁comin	-10.0509
▁tuttle	-10.0509
▁warden	-10.051
ma	-10.0511
▁penny	-10.0511
▁winning	-10.0511
▁pink	-10.0511
▁loving	-10.0511
▁lucy	-10.0512
▁mar	-10.0513
▁punch	-10.0519
▁shape	-10.0519
▁va	-10.052
▁coughing	-10.052
▁witnesses	-10.0521
▁harm	-10.0523
▁properly	-10.0524
▁johnson	-10.0525
▁pity	-10.0528
▁clicking	-10.0533
▁discovered	-10.0535
▁latest	-10.0536
▁entirely	-10.0548
▁lips	-10.0549
▁murders	-10.055
▁sniffs	-10.0552
▁soldiers	-10.0556
▁slowly	-10.0559
▁quietly	-10.0566
▁slayers	-10.0572
▁all	-10.0575
▁gim	-10.0581
▁younger	-10.059
▁offered	-10.0591
▁growing	-10.0595
▁sons	-10.0621
▁odds	-10.0632
▁wipe	-10.0633
▁ear	-10.0651
▁su	-10.0656
▁ordered	-10.0677
▁hardly	-10.0684
▁answers	-10.0782
▁costs	-10.0816
▁cheat	-10.0845
▁exist	-10.0847
▁hug	-10.0848
alam	-10.086
▁march	-10.0861
▁photograph	-10.0879
▁lll	-10.088
▁thousands	-10.0898
▁accent	-10.0905
▁impression	-10.0906
▁bud	-10.0907
▁rate	-10.0909
▁watched	-10.0911
▁ambulance	-10.0912
▁mexican	-10.0912
▁wednesday	-10.0912
▁standard	-10.0914
▁pipe	-10.0916
▁tells	-10.0922
▁plate	-10.0923
▁christian	-10.0924
▁mountain	-10.0925
▁terrorist	-10.0927
▁term	-10.0929
▁wh	-10.0945
ate	-10.0952
▁birds	-10.0975
▁drives	-10.0981
▁spit	-10.0983
▁perform	-10.0987
▁pen	-10.0988
▁worlds	-10.0991
▁link	-10.0993
▁gut	-10.1002
▁rooms	-10.1005
▁dealer	-10.1016
▁climb	-10.1028
▁flow	-10.1035
▁crush	-10.1035
▁discover	-10.1037
▁guilt	-10.105
▁illegal	-10.1051
▁rapid	-10.1052
ble	-10.1055
▁usual	-10.106
▁favour	-10.1063
▁amelia	-10.1064
▁caleb	-10.1064
▁cortez	-10.1064
▁cyril	-10.1064
▁dozen	-10.1064
▁explosiveskull	-10.1064
▁graysmith	-10.1064
▁harvard	-10.1064
▁lazarus	-10.1064
▁margaret	-10.1064
▁reynolds	-10.1064
▁suspicious	-10.1064
▁therapist	-10.1064
▁valek	-10.1064
▁ludlow	-10.1064
▁scusa	-10.1064
▁frawley	-10.1064
▁woodcock	-10.1064
▁southjet	-10.1064
▁internet	-10.1064
▁blaring	-10.1064
▁memories	-10.1064
▁joking	-10.1064
▁activity	-10.1064
▁wherever	-10.1064
▁zoil	-10.1064
▁flew	-10.1064
▁bride	-10.1064
▁elwood	-10.1064
▁punk	-10.1064
▁assistant	-10.1064
▁wives	-10.1064
▁lutz	-10.1064
▁becoming	-10.1064
▁interzone	-10.1064
▁label	-10.1065
▁satan	-10.1065
▁creaking	-10.1065
▁inspector	-10.1065
▁response	-10.1065
▁rome	-10.1065
▁trap	-10.1065
▁stream	-10.1065
▁wray	-10.1066
▁peterson	-10.1066
▁mum	-10.1066
▁cried	-10.1066
▁touchdown	-10.1066
▁chat	-10.1067
▁kansas	-10.1067
▁couch	-10.1067
▁background	-10.1067
▁betty	-10.1067
▁mercy	-10.1069
▁duel	-10.1069
▁slide	-10.1069
▁arse	-10.1069
▁oil	-10.107
▁salt	-10.107
▁powerful	-10.1071
▁nest	-10.1073
▁badge	-10.1074
▁creepy	-10.1075
▁warning	-10.1085
▁disappeared	-10.1095
▁billion	-10.11
▁advise	-10.1103
▁issue	-10.1104
▁depends	-10.1107
▁timing	-10.1116
▁lev	-10.1116
▁pills	-10.1124
▁drawing	-10.1129
▁sports	-10.1131
▁starks	-10.1132
▁filled	-10.1134
▁strings	-10.1139
▁becomes	-10.1161
▁hardt	-10.1167
▁loss	-10.1168
▁pit	-10.1171
▁events	-10.1172
▁enjoying	-10.1177
▁ton	-10.1187
▁options	-10.1187
▁terrorists	-10.1203
▁bush	-10.1206
▁led	-10.1209
way	-10.1216
▁non	-10.1229
▁answered	-10.1244
▁mix	-10.1252
▁recording	-10.1258
▁shakes	-10.1316
▁touching	-10.1326
la	-10.1333
▁up	-10.1334
ors	-10.1344
▁bottles	-10.1347
▁eva	-10.1365
ize	-10.1402
▁enter	-10.1406
▁tap	-10.1434
▁believed	-10.1452
▁slip	-10.1458
▁bend	-10.1479
ee	-10.1479
▁virgin	-10.1484
▁taliban	-10.15
▁nerve	-10.15
▁nightmare	-10.1504
▁doughnut	-10.1509
▁degree	-10.1511
▁winner	-10.1512
ware	-10.1513
▁toward	-10.1516
▁odd	-10.1517
▁holes	-10.1518
▁finding	-10.1525
▁moron	-10.1526
▁coat	-10.1529
▁mile	-10.1531
▁chop	-10.1533
▁asses	-10.1575
▁waited	-10.1575
▁shock	-10.1584
▁checking	-10.1589
ism	-10.159
▁bow	-10.1611
▁connect	-10.1611
ball	-10.1614
▁sink	-10.1618
woman	-10.1625
▁advance	-10.1631
▁clue	-10.1631
▁balance	-10.1633
▁irish	-10.1643
▁despi	-10.165
▁prior	-10.1651
▁charles	-10.1652
▁jeff	-10.1652
▁angie	-10.1652
▁antoine	-10.1652
▁ceiling	-10.1652
▁custody	-10.1652
▁dallas	-10.1652
▁gorgeous	-10.1652
▁grendel	-10.1652
▁hinkley	-10.1652
▁malenkov	-10.1652
▁oskar	-10.1652
▁reggie	-10.1652
▁saint	-10.1652
▁taylor	-10.1652
▁presence	-10.1652
▁swimming	-10.1652
▁trauma	-10.1652
▁warrant	-10.1652
▁isabella	-10.1652
▁hawkins	-10.1652
▁adult	-10.1652
▁larson	-10.1652
▁popular	-10.1652
▁wilson	-10.1652
▁guldo	-10.1652
▁forgotten	-10.1652
▁babysitter	-10.1652
▁marcus	-10.1652
▁retrieval	-10.1652
▁wreck	-10.1653
▁chinese	-10.1653
▁jamie	-10.1653
▁haul	-10.1653
▁practically	-10.1654
▁japanese	-10.1654
▁series	-10.1654
▁hush	-10.1654
▁drill	-10.1654
▁ugh	-10.1655
▁lras	-10.1655
▁benway	-10.1655
▁off	-10.1655
▁pin	-10.1655
▁fruit	-10.1655
▁polite	-10.1655
▁math	-10.1656
▁proof	-10.1656
▁airline	-10.1656
▁mobile	-10.1656
▁darkness	-10.1657
▁wallet	-10.1658
▁johnny	-10.1659
▁pm	-10.1661
▁scary	-10.1662
▁net	-10.1665
▁physically	-10.1665
▁wounded	-10.167
▁carrie	-10.1678
▁mis	-10.1678
▁gettin	-10.1679
▁eaten	-10.1679
▁provided	-10.1684
▁movement	-10.1689
▁singer	-10.1692
▁dumped	-10.1696
▁techniques	-10.1715
▁gloves	-10.1723
boy	-10.1727
▁express	-10.1735
▁beers	-10.1736
▁cooking	-10.1736
▁armed	-10.175
▁knocked	-10.1773
▁les	-10.1793
▁hated	-10.1851
▁husbands	-10.1856
▁waiter	-10.1861
▁reported	-10.1861
▁grave	-10.1861
▁remains	-10.1869
▁kills	-10.1887
▁pages	-10.1919
▁angels	-10.1919
ce	-10.1923
▁facts	-10.1966
▁jam	-10.1997
▁commit	-10.2016
▁changes	-10.2039
▁ca	-10.204
▁forces	-10.2067
▁fucks	-10.2072
▁jt	-10.2082
▁accounts	-10.2093
▁anne	-10.2105
▁tune	-10.2114
▁damage	-10.2115
▁valley	-10.2118
▁trunk	-10.2118
▁saving	-10.2119
▁burger	-10.2121
▁bon	-10.2126
▁sack	-10.2127
▁setting	-10.2129
▁cow	-10.2133
▁miracle	-10.2133
▁wave	-10.2134
▁olympic	-10.2135
▁marine	-10.2138
▁option	-10.2148
▁rabbit	-10.2149
▁yard	-10.2153
▁farmer	-10.2154
▁cave	-10.2155
▁lesson	-10.2156
▁tone	-10.2165
▁turning	-10.2172
▁prisoner	-10.2195
▁knowing	-10.2199
▁embarrass	-10.2214
▁paint	-10.222
▁junk	-10.223
work	-10.223
▁abuse	-10.2236
▁fold	-10.2239
▁attempt	-10.2247
▁gain	-10.2248
▁bull	-10.2254
▁require	-10.226
▁severe	-10.2262
ge	-10.2263
▁creep	-10.2263
▁dirt	-10.2264
▁obvious	-10.2266
▁exact	-10.2266
▁sneak	-10.2269
▁trail	-10.2269
▁incredibl	-10.2269
▁measure	-10.2271
▁announce	-10.2273
▁gross	-10.2274
▁dancin	-10.2275
▁superior	-10.2276
▁bamb	-10.2276
▁confident	-10.2276
▁capital	-10.2277
▁corporate	-10.2277
▁desmond	-10.2277
▁eventually	-10.2277
▁florida	-10.2277
▁mnu	-10.2277
▁nonsense	-10.2277
▁ntsb	-10.2277
▁represent	-10.2277
▁senior	-10.2277
▁svetlana	-10.2277
▁toschi	-10.2277
▁violet	-10.2277
▁chromium	-10.2277
▁laurie	-10.2277
▁moscow	-10.2277
▁craig	-10.2277
▁revenge	-10.2277
▁cadence	-10.2277
▁andand	-10.2277
▁potential	-10.2277
▁precious	-10.2277
▁negative	-10.2277
▁silence	-10.2277
▁bryant	-10.2277
▁frozen	-10.2277
▁garage	-10.2277
▁enforcement	-10.2277
▁favourite	-10.2277
▁durant	-10.2277
▁combat	-10.2277
▁exciting	-10.2277
▁nova	-10.2277
▁harry	-10.2277
▁species	-10.2277
▁marshall	-10.2277
▁university	-10.2277
▁ellen	-10.2277
▁scratch	-10.2278
▁clayton	-10.2278
▁fifty	-10.2278
▁aboard	-10.2278
▁greg	-10.2278
▁motion	-10.2278
▁yup	-10.2278
▁passport	-10.2278
▁circle	-10.2279
▁data	-10.2279
▁current	-10.2279
▁policy	-10.228
▁reaction	-10.228
▁filthy	-10.228
▁babylon	-10.228
▁thirsty	-10.2281
▁agreement	-10.2281
▁commissioner	-10.2282
▁unfortunately	-10.2282
▁meal	-10.2283
▁stopping	-10.2283
▁danger	-10.2284
▁intend	-10.2287
▁cutting	-10.2287
▁spoken	-10.2287
▁wailing	-10.2287
▁disgusting	-10.2289
▁china	-10.2291
▁delivery	-10.2293
▁removed	-10.2302
▁divorced	-10.2306
▁direct	-10.2309
▁settled	-10.2312
ya	-10.2313
▁confirmed	-10.2315
▁drinks	-10.2321
▁victory	-10.2326
▁gosh	-10.2336
▁operate	-10.2337
▁banging	-10.2341
▁hunting	-10.2348
▁mentioned	-10.2354
▁shutter	-10.2375
▁fishing	-10.2385
▁lover	-10.2402
▁sales	-10.2405
▁sides	-10.2423
▁prints	-10.2462
▁officials	-10.248
ai	-10.2484
ern	-10.2505
▁cleaning	-10.2559
▁fate	-10.2559
▁ideas	-10.2579
▁be	-10.2583
▁rocks	-10.2596
ding	-10.2603
lle	-10.2604
▁seek	-10.2605
▁suits	-10.2611
▁snap	-10.2685
▁actions	-10.2686
▁begins	-10.2691
me	-10.2704
▁mans	-10.2709
ial	-10.2726
▁demand	-10.273
▁lands	-10.2739
▁screen	-10.275
▁demon	-10.2753
▁traitor	-10.2784
▁device	-10.2785
▁incident	-10.2785
▁butt	-10.2785
▁professional	-10.2787
▁jodie	-10.2792
▁cowboy	-10.2796
▁tuesday	-10.2798
▁creature	-10.28
▁russians	-10.2802
▁instrument	-10.2802
▁blade	-10.2804
one	-10.2813
▁toe	-10.2814
▁payment	-10.2819
▁rep	-10.2824
ted	-10.285
▁horses	-10.2858
▁pee	-10.2859
ized	-10.2865
▁stab	-10.2903
▁squeal	-10.2909
▁lend	-10.291
board	-10.2911
▁storm	-10.2912
▁receive	-10.2917
▁review	-10.292
▁anti	-10.2923
▁separate	-10.2926
▁acknowledge	-10.2927
▁breaks	-10.2928
▁cancel	-10.293
▁sale	-10.2931
▁violent	-10.2931
▁rope	-10.2931
▁chris	-10.2935
▁rip	-10.2936
▁no	-10.2937
▁fee	-10.2937
▁sandwich	-10.2938
▁confession	-10.2941
▁mornin	-10.2941
▁advantage	-10.2943
▁applause	-10.2943
▁behavior	-10.2943
▁charlotte	-10.2943
▁cynthia	-10.2943
▁fabulous	-10.2943
▁fraud	-10.2943
▁hertzfeld	-10.2943
▁october	-10.2943
▁outfit	-10.2943
▁random	-10.2943
▁romesha	-10.2943
▁sarge	-10.2943
▁surrender	-10.2943
▁tragedy	-10.2943
▁cease	-10.2943
▁distress	-10.2943
▁thick	-10.2943
▁candidate	-10.2943
▁genie	-10.2943
▁gretta	-10.2943
▁underground	-10.2943
▁opposite	-10.2944
▁elgyn	-10.2944
▁molotov	-10.2944
▁sensitive	-10.2944
▁woz	-10.2944
▁kiki	-10.2944
▁decent	-10.2944
▁anytime	-10.2944
▁whatre	-10.2944
▁timmy	-10.2944
▁therell	-10.2944
▁oath	-10.2944
▁glenn	-10.2944
▁toby	-10.2944
▁possession	-10.2944
▁raw	-10.2944
▁solution	-10.2944
▁torn	-10.2944
▁century	-10.2944
▁hayes	-10.2945
▁identity	-10.2945
▁paperwork	-10.2945
▁barrel	-10.2945
▁factory	-10.2946
▁dating	-10.2946
▁tempo	-10.2946
▁bible	-10.2946
▁medicine	-10.2947
▁responsibility	-10.2947
▁exercise	-10.2947
▁selfish	-10.2948
▁candy	-10.2948
▁lena	-10.2948
▁madness	-10.2949
▁err	-10.2949
▁madame	-10.295
▁guide	-10.295
▁steam	-10.295
▁snow	-10.2953
▁bass	-10.2953
▁threatening	-10.2953
▁helpmann	-10.2954
▁fourth	-10.2954
▁fallen	-10.2955
▁joy	-10.2956
▁toss	-10.2957
▁when	-10.2957
▁ahh	-10.2959
▁hitting	-10.2959
▁earned	-10.2961
▁realise	-10.2961
▁fried	-10.2963
▁cue	-10.2963
▁steven	-10.2965
▁joe	-10.297
▁naturally	-10.2973
▁squealing	-10.2978
▁wide	-10.2978
▁embarrassing	-10.298
▁busted	-10.2985
▁cheating	-10.2986
▁jews	-10.2987
▁stronger	-10.2988
▁tied	-10.2996
▁stain	-10.2997
▁suffering	-10.3
▁visiting	-10.3022
▁whistles	-10.3025
ir	-10.303
▁ld	-10.3032
▁wings	-10.3036
down	-10.3054
▁dolphins	-10.3054
▁sheets	-10.3055
▁freaking	-10.3059
▁eli	-10.3066
▁feelin	-10.3072
▁remembered	-10.3075
▁pushing	-10.3086
▁shove	-10.31
▁goal	-10.3101
▁fully	-10.3104
▁goodness	-10.3109
▁chances	-10.311
we	-10.312
▁messing	-10.3122
▁students	-10.3122
▁oi	-10.3124
lo	-10.314
▁cocks	-10.3141
ler	-10.3142
▁mal	-10.3157
▁steps	-10.3172
▁sp	-10.3215
▁slice	-10.3215
▁allie	-10.3258
ped	-10.3263
▁menu	-10.3266
▁com	-10.3277
▁trusted	-10.3282
▁auto	-10.3326
im	-10.3328
▁cameras	-10.3329
▁walks	-10.333
field	-10.3342
▁mim	-10.3352
▁carly	-10.3353
▁shorts	-10.3369
▁dudes	-10.3379
▁blocks	-10.3379
▁rat	-10.3384
ious	-10.3387
▁burns	-10.341
▁minds	-10.3414
▁tastes	-10.3414
▁souls	-10.3417
ny	-10.3421
▁dealing	-10.3434
▁leak	-10.3479
▁ruin	-10.348
▁click	-10.3487
▁follows	-10.3492
▁pizza	-10.3499
▁prosecutor	-10.3499
▁quarterback	-10.3499
om	-10.35
▁error	-10.35
▁slap	-10.3501
▁counselor	-10.3501
▁daddys	-10.3504
▁thumb	-10.3506
▁effort	-10.3509
▁version	-10.3511
▁fence	-10.3511
▁league	-10.3511
▁prawn	-10.3514
▁spring	-10.3515
▁joint	-10.3516
▁result	-10.3518
▁commander	-10.3522
▁buck	-10.3523
▁stranger	-10.3531
▁prayer	-10.3547
▁worship	-10.3547
▁uneas	-10.355
▁beard	-10.3553
▁hu	-10.3559
▁counts	-10.3581
▁trains	-10.3584
▁aim	-10.3591
▁aa	-10.3593
▁mel	-10.3609
ure	-10.3615
▁intel	-10.3616
▁comfort	-10.3618
▁rig	-10.3627
▁conduct	-10.3627
▁los	-10.3632
▁plug	-10.3634
▁brand	-10.364
▁multipl	-10.3642
▁effective	-10.3645
▁gig	-10.3651
looking	-10.3651
▁helen	-10.3652
▁patrol	-10.3655
▁julia	-10.3656
▁fashion	-10.3657
▁fore	-10.3657
▁psycho	-10.3657
▁celebrity	-10.3658
▁champagne	-10.3658
▁coincidence	-10.3658
▁confidence	-10.3658
▁elijah	-10.3658
▁flea	-10.3658
▁injured	-10.3658
▁invitation	-10.3658
▁lewis	-10.3658
▁melvin	-10.3658
▁mercedes	-10.3658
▁orange	-10.3658
▁parmenion	-10.3658
▁perimeter	-10.3658
▁political	-10.3658
▁professor	-10.3658
▁rehearsal	-10.3658
▁sculley	-10.3658
▁slevin	-10.3658
▁underneath	-10.3658
▁vasily	-10.3658
▁fridge	-10.3658
▁motorcycle	-10.3658
▁choking	-10.3658
▁heinrich	-10.3658
▁closing	-10.3658
▁indictment	-10.3658
▁modern	-10.3658
▁grail	-10.3658
▁darrell	-10.3658
▁silent	-10.3658
▁jeannie	-10.3658
▁plastic	-10.3658
▁chinatown	-10.3658
▁nancy	-10.3658
▁delicious	-10.3658
▁alison	-10.3658
▁contest	-10.3658
▁darts	-10.3658
▁poetry	-10.3658
▁brush	-10.3658
▁plain	-10.3658
▁roussel	-10.3658
▁heather	-10.3658
▁edward	-10.3658
▁minor	-10.3658
▁sunset	-10.3658
▁punishment	-10.3658
▁lola	-10.3658
▁wolf	-10.3659
▁southern	-10.3659
▁soap	-10.3659
▁solid	-10.3659
▁aside	-10.3659
▁fadela	-10.3659
▁pimp	-10.3659
▁facility	-10.3659
▁dawn	-10.366
▁fifteen	-10.366
▁possibility	-10.366
▁core	-10.3661
▁tammy	-10.3661
▁wise	-10.3661
▁blanket	-10.3662
▁robbery	-10.3662
▁samson	-10.3663
▁waitress	-10.3663
▁dial	-10.3663
▁instructions	-10.3664
▁alley	-10.3664
▁electric	-10.3665
▁indeed	-10.3665
▁germany	-10.3668
▁taxes	-10.3669
▁katie	-10.367
▁bert	-10.3671
▁whispering	-10.3672
▁float	-10.3672
▁fry	-10.3673
▁active	-10.3673
▁taxi	-10.3676
▁choices	-10.3677
▁highest	-10.3683
▁tillman	-10.3688
▁dresses	-10.3688
▁howdy	-10.3689
▁thrown	-10.3694
▁survived	-10.3695
▁introduced	-10.37
▁belly	-10.3702
▁closest	-10.3703
▁beeps	-10.3703
▁managed	-10.3708
▁kate	-10.3711
▁filed	-10.3712
▁shitty	-10.3713
▁shithead	-10.3714
ro	-10.3727
▁helpful	-10.3729
▁falls	-10.3729
▁breasts	-10.3736
▁drawer	-10.3736
▁seats	-10.3742
▁pays	-10.3759
▁mid	-10.376
▁returned	-10.3766
▁searching	-10.3769
▁teaching	-10.3775
▁chips	-10.3777
▁spells	-10.3778
▁tested	-10.3789
▁offering	-10.3797
▁classic	-10.3798
▁ham	-10.381
▁ted	-10.3816
▁susan	-10.382
▁bl	-10.382
▁lessons	-10.382
hole	-10.3823
▁hal	-10.3835
▁terms	-10.3839
▁pi	-10.3849
▁acted	-10.3876
▁interviews	-10.3904
▁passing	-10.3905
▁agents	-10.3931
▁jan	-10.3934
▁belongs	-10.3936
▁dreaming	-10.3968
lin	-10.3976
ated	-10.3978
▁par	-10.3998
ter	-10.4007
▁gaze	-10.4009
▁resist	-10.4013
▁ward	-10.402
ning	-10.4051
ley	-10.4065
▁pet	-10.4079
▁camel	-10.4172
per	-10.4204
▁terror	-10.4229
▁aunt	-10.4238
▁detail	-10.4261
▁michaels	-10.4262
▁initial	-10.4268
▁minister	-10.4268
▁stink	-10.427
ill	-10.427
▁cage	-10.4273
▁benefit	-10.4275
▁uniform	-10.4276
▁bug	-10.428
▁engineer	-10.428
▁effect	-10.4281
▁monkey	-10.4283
▁experiment	-10.4287
▁neighbor	-10.4288
▁bond	-10.4295
▁aid	-10.4306
▁diner	-10.4307
▁pile	-10.4309
▁pran	-10.4311
▁painting	-10.4316
▁bastards	-10.4319
▁blessing	-10.4346
▁insult	-10.4358
▁transport	-10.4368
▁jackal	-10.4374
▁proceed	-10.4383
▁faint	-10.4385
ber	-10.4387
▁bleed	-10.4389
▁mon	-10.4389
▁inform	-10.439
▁lick	-10.4391
▁contain	-10.4398
il	-10.44
▁describe	-10.441
▁convince	-10.441
▁replace	-10.441
▁financial	-10.4412
▁assume	-10.4414
▁emotional	-10.4415
▁curious	-10.4417
▁peck	-10.4418
▁woke	-10.4422
▁respond	-10.4424
▁affect	-10.4425
▁sail	-10.4425
▁europe	-10.4426
▁cigar	-10.4427
▁ankle	-10.4427
▁beresford	-10.4427
▁brennan	-10.4427
▁bryce	-10.4427
▁dammit	-10.4427
▁diondra	-10.4427
▁equipment	-10.4427
▁hebrew	-10.4427
▁hetrick	-10.4427
▁interpol	-10.4427
▁jazz	-10.4427
▁liquor	-10.4427
▁miserable	-10.4427
▁prevent	-10.4427
▁recipe	-10.4427
▁reputation	-10.4427
▁routine	-10.4427
▁selva	-10.4427
▁similar	-10.4427
▁strict	-10.4427
▁surveillance	-10.4427
▁testimony	-10.4427
▁thomson	-10.4427
▁transplant	-10.4427
▁abandon	-10.4427
▁burden	-10.4427
▁byebye	-10.4427
▁instance	-10.4427
▁somewhat	-10.4427
▁bureau	-10.4427
▁hammond	-10.4427
▁salute	-10.4427
▁neena	-10.4427
▁shboom	-10.4427
▁distant	-10.4427
▁gambling	-10.4427
▁smiling	-10.4427
▁whiskey	-10.4427
▁boomboom	-10.4427
▁xray	-10.4427
▁irene	-10.4427
▁itsit	-10.4427
▁romantic	-10.4427
▁downtown	-10.4427
▁salad	-10.4427
▁scorpion	-10.4427
▁begging	-10.4427
▁ditch	-10.4427
▁expensive	-10.4427
▁skull	-10.4427
▁uptown	-10.4427
▁basis	-10.4427
▁fuel	-10.4427
▁purse	-10.4427
▁shining	-10.4427
▁toxic	-10.4427
▁ease	-10.4427
▁lemon	-10.4427
▁josh	-10.4428
▁masry	-10.4428
▁sanders	-10.4428
▁saul	-10.4428
▁rizzo	-10.4428
▁damon	-10.4428
▁forth	-10.4428
▁grass	-10.4428
▁leadership	-10.4428
▁performance	-10.4428
▁villagers	-10.4428
▁dice	-10.4428
▁aircraft	-10.4428
▁addiction	-10.4428
▁obey	-10.4429
▁doorbell	-10.4429
▁unique	-10.4429
▁flies	-10.4429
▁lean	-10.4429
▁cube	-10.4429
▁reilly	-10.443
▁desire	-10.443
▁strawberry	-10.443
▁drain	-10.443
▁kit	-10.443
▁limp	-10.443
▁dna	-10.443
▁bucket	-10.443
▁winter	-10.443
▁disappointed	-10.4431
▁ranch	-10.4431
▁josie	-10.4431
▁shore	-10.4432
▁julian	-10.4432
▁arranged	-10.4432
▁persian	-10.4432
▁bombs	-10.4433
▁personality	-10.4433
▁stairs	-10.4433
▁inhales	-10.4433
▁asian	-10.4434
▁stable	-10.4434
▁engaged	-10.4434
▁murphy	-10.4436
▁battery	-10.4437
▁brutal	-10.4438
▁broad	-10.4438
▁matches	-10.4438
▁highness	-10.444
▁directly	-10.4441
▁committed	-10.4442
▁skirt	-10.4442
▁site	-10.4443
▁sonia	-10.4443
▁sniffing	-10.4443
▁tail	-10.4444
▁homework	-10.4445
▁soak	-10.4446
▁betrayed	-10.4446
▁jet	-10.4447
▁growling	-10.4452
▁down	-10.4452
▁blown	-10.4457
▁brit	-10.4457
▁unable	-10.4459
▁embarrassed	-10.4462
▁mayor	-10.4463
▁stoned	-10.4463
▁this	-10.4463
▁lifetime	-10.4465
▁thankyou	-10.4466
▁likely	-10.4469
▁joker	-10.4471
▁escaped	-10.4477
▁normally	-10.448
▁moral	-10.4484
▁bea	-10.449
▁mortars	-10.4511
▁lads	-10.4512
▁owes	-10.4519
ton	-10.4532
hmer	-10.4536
▁freaked	-10.4537
▁drums	-10.4545
▁daniels	-10.4545
▁dope	-10.4554
▁yay	-10.456
▁considering	-10.4562
▁rd	-10.4563
▁marked	-10.4566
▁neighbors	-10.4568
▁jumped	-10.4574
▁trained	-10.4583
▁squeeze	-10.4583
▁speakers	-10.4584
der	-10.4586
▁tin	-10.4595
▁yards	-10.4601
side	-10.4608
▁mountains	-10.4624
▁photographs	-10.4625
▁protecting	-10.4629
▁learning	-10.463
▁cal	-10.4642
▁kissed	-10.4647
▁recorded	-10.4654
▁admire	-10.4656
▁cigarettes	-10.4658
▁spending	-10.4669
▁blowing	-10.4672
▁po	-10.4674
▁pies	-10.4683
▁doo	-10.4684
▁kat	-10.4686
▁rolling	-10.469
▁dai	-10.4698
▁signs	-10.471
▁magazines	-10.4716
▁cleaned	-10.4718
▁pastor	-10.4722
▁schools	-10.4741
▁stays	-10.4756
▁generation	-10.4805
▁pockets	-10.4807
▁marks	-10.4812
▁gul	-10.4814
▁deposit	-10.4817
▁ph	-10.4837
ho	-10.4867
▁deserves	-10.4877
▁sheriffs	-10.4899
▁op	-10.4903
▁fund	-10.4925
▁diet	-10.4928
▁tripp	-10.494
▁mud	-10.496
ka	-10.4975
▁suspects	-10.4981
▁wa	-10.5
j	-10.5003
▁notes	-10.5004
▁scar	-10.5027
▁worrying	-10.5034
▁attacks	-10.5042
▁moments	-10.5049
▁ram	-10.5056
▁stepp	-10.5069
▁tryin	-10.5071
▁tracks	-10.5073
▁limit	-10.5078
▁permit	-10.5081
▁spell	-10.5083
▁cheer	-10.5095
▁rag	-10.5097
▁ksm	-10.5101
▁arrive	-10.5104
▁yankee	-10.5109
▁intention	-10.5109
▁pole	-10.5112
▁wilkinson	-10.5112
▁rifle	-10.5117
▁complaint	-10.512
▁tribe	-10.5121
▁wheel	-10.5122
▁dolphin	-10.5122
▁sheet	-10.5123
▁chip	-10.5123
▁cookie	-10.5123
▁chuckle	-10.5127
jo	-10.5128
▁toy	-10.5147
▁groups	-10.5156
cha	-10.5163
▁recommend	-10.5185
▁gather	-10.5195
▁ey	-10.5196
▁jo	-10.5214
▁interrupt	-10.5214
▁fighter	-10.5217
▁stall	-10.5218
▁cast	-10.5223
like	-10.5232
▁charm	-10.5234
just	-10.5237
▁slaughter	-10.5239
▁reverse	-10.524
▁speaker	-10.5241
▁bark	-10.5246
▁desperate	-10.5248
▁sudden	-10.5249
▁successful	-10.5251
▁macedonia	-10.5251
▁assure	-10.5253
▁withdraw	-10.5255
▁asia	-10.5255
▁kev	-10.5258
▁domestic	-10.526
▁achilles	-10.526
▁anonymous	-10.526
▁challenge	-10.526
▁dennis	-10.526
▁frost	-10.526
▁hathaway	-10.526
▁herakles	-10.526
▁hidden	-10.526
▁identify	-10.526
▁lobby	-10.526
▁mafia	-10.526
▁ordinary	-10.526
▁ralph	-10.526
▁religious	-10.526
▁rhythm	-10.526
▁rifki	-10.526
▁shotgun	-10.526
▁teresa	-10.526
▁terrific	-10.526
▁trevor	-10.526
▁unusual	-10.526
▁watts	-10.526
▁wealth	-10.526
▁wheelchair	-10.526
▁zubaydah	-10.526
▁beneath	-10.526
▁sheppard	-10.526
▁survival	-10.526
▁turkey	-10.526
▁marcano	-10.526
▁titties	-10.526
▁division	-10.526
▁harris	-10.526
▁universe	-10.526
▁congress	-10.526
▁bagels	-10.526
▁shimmer	-10.526
▁chuck	-10.526
▁temple	-10.526
▁berlin	-10.526
▁minimum	-10.526
▁someday	-10.526
▁hahaha	-10.526
▁rouge	-10.526
▁bunny	-10.526
▁novel	-10.526
▁brick	-10.526
▁playoffs	-10.526
▁crisis	-10.526
▁japan	-10.5261
▁fever	-10.5261
▁comedian	-10.5261
▁existence	-10.5261
▁miller	-10.5261
▁ginger	-10.5261
▁insist	-10.5261
▁urgent	-10.5261
▁apology	-10.5261
▁specifically	-10.5261
▁keating	-10.5261
▁shopping	-10.5261
▁wore	-10.5261
▁online	-10.5261
▁polish	-10.5261
▁reveal	-10.5261
▁industry	-10.5261
▁myers	-10.5261
▁violation	-10.5261
▁classified	-10.5261
▁mitchell	-10.5261
▁subway	-10.5261
▁blah	-10.5261
▁fox	-10.5261
▁hanson	-10.5261
▁riverside	-10.5261
▁douglas	-10.5261
▁cipher	-10.5261
▁fiction	-10.5261
▁stack	-10.5262
▁surrounded	-10.5262
▁laden	-10.5262
▁sondra	-10.5262
▁dropping	-10.5262
▁zip	-10.5262
▁deck	-10.5262
▁housekeeper	-10.5262
▁colin	-10.5262
▁becker	-10.5262
▁dora	-10.5263
▁exit	-10.5263
▁dime	-10.5263
▁pepper	-10.5263
▁flash	-10.5264
▁bonus	-10.5264
▁frightened	-10.5264
▁alcoholic	-10.5265
▁sober	-10.5265
▁adventure	-10.5265
▁kiddo	-10.5265
▁forgiveness	-10.5266
▁foy	-10.5267
▁status	-10.5267
▁technically	-10.5268
▁counter	-10.5268
▁inches	-10.5269
▁bury	-10.5269
▁sword	-10.527
▁threatened	-10.527
▁title	-10.527
▁eve	-10.5272
▁organized	-10.5272
▁mechanic	-10.5272
▁bored	-10.5273
▁queer	-10.5273
▁captured	-10.5274
▁spine	-10.5276
▁authorized	-10.5276
▁wicked	-10.5276
▁jackson	-10.5277
▁loner	-10.5281
her	-10.5281
▁finale	-10.5283
▁dei	-10.5285
▁cable	-10.5285
▁shy	-10.5288
▁host	-10.5289
▁drowning	-10.5289
▁socks	-10.5291
▁inmates	-10.5291
▁thin	-10.53
oy	-10.5303
▁outer	-10.5307
▁hire	-10.5308
▁musicians	-10.5316
▁metal	-10.5317
▁discussed	-10.5319
▁meters	-10.5321
▁on	-10.5337
▁concentrate	-10.534
bi	-10.534
▁memo	-10.5343
▁ski	-10.5352
razie	-10.5352
▁diamonds	-10.5352
▁charged	-10.5366
▁vi	-10.5366
▁blocked	-10.5373
▁accepted	-10.5376
▁mall	-10.5381
▁fi	-10.5382
▁mob	-10.5398
▁ke	-10.5406
▁homeless	-10.5409
▁joined	-10.5412
▁slave	-10.5423
▁parker	-10.544
▁image	-10.5449
▁guts	-10.5452
four	-10.5462
▁tanks	-10.5489
▁shoulders	-10.5497
▁sticking	-10.5513
▁lovers	-10.5525
▁indians	-10.5538
▁emails	-10.5538
▁dot	-10.5541
havin	-10.5547
▁snakes	-10.5551
▁dreamed	-10.5562
▁poll	-10.5568
▁ni	-10.5578
▁sentences	-10.5588
▁followed	-10.559
▁stones	-10.5591
un	-10.5598
▁answering	-10.5599
▁understanding	-10.5625
▁fran	-10.5627
▁reminds	-10.5629
gina	-10.5629
▁scares	-10.5631
▁teachers	-10.5634
▁guid	-10.5648
▁pilots	-10.565
▁mit	-10.5657
cy	-10.5657
▁parent	-10.5678
▁tables	-10.5683
ions	-10.5755
▁tend	-10.5759
▁bets	-10.5777
▁decisions	-10.5789
▁bel	-10.5835
▁fits	-10.5854
ba	-10.5878
▁laws	-10.5894
mo	-10.5918
▁fail	-10.5944
▁pleased	-10.5944
▁yell	-10.5957
▁surprises	-10.597
que	-10.5974
ri	-10.5993
▁idiots	-10.5993
▁wound	-10.5993
▁damned	-10.6
▁retreat	-10.601
▁bunk	-10.6011
▁stroke	-10.6013
▁port	-10.6017
▁barb	-10.6017
▁killers	-10.6019
▁tattoo	-10.6024
▁threat	-10.6025
▁comment	-10.6026
▁towel	-10.6028
▁tool	-10.6028
▁daniel	-10.6031
▁drum	-10.6038
▁nut	-10.6044
port	-10.6049
back	-10.6054
▁citizens	-10.606
▁bee	-10.6061
▁skip	-10.6063
▁chi	-10.6065
▁ri	-10.607
▁ja	-10.608
▁buildings	-10.6083
▁complain	-10.6093
▁pu	-10.6101
be	-10.6105
▁panic	-10.612
▁stress	-10.6127
▁recall	-10.6127
dy	-10.6133
▁screech	-10.6135
ville	-10.6135
ad	-10.6138
▁delay	-10.6141
▁draft	-10.6142
wood	-10.6147
▁grant	-10.6148
▁struggle	-10.6151
▁ignore	-10.6152
▁wast	-10.6152
▁investigate	-10.6152
▁rap	-10.6155
▁german	-10.6156
▁honk	-10.6156
▁custom	-10.6159
▁kidnap	-10.6159
▁numb	-10.6159
▁norma	-10.6162
▁mattress	-10.6165
▁blank	-10.6167
▁abort	-10.6167
▁excess	-10.6168
▁automatic	-10.6169
▁eleven	-10.6169
▁appeal	-10.6169
▁satellite	-10.6169
▁average	-10.6169
▁awkward	-10.6169
▁bronco	-10.6169
▁chirping	-10.6169
▁chrisann	-10.6169
▁detention	-10.6169
▁disagree	-10.6169
▁elephant	-10.6169
▁gracias	-10.6169
▁haddonfield	-10.6169
▁hannah	-10.6169
▁jeep	-10.6169
▁judas	-10.6169
▁lease	-10.6169
▁mcdonough	-10.6169
▁memphis	-10.6169
▁paranoid	-10.6169
▁profile	-10.6169
▁prosecute	-10.6169
▁reece	-10.6169
▁restricted	-10.6169
▁shirley	-10.6169
▁stereo	-10.6169
▁temporary	-10.6169
▁treasury	-10.6169
▁turbot	-10.6169
▁unknown	-10.6169
▁apologies	-10.6169
▁dragging	-10.6169
▁kingdom	-10.6169
▁widow	-10.6169
▁avenue	-10.6169
▁babak	-10.6169
▁commercial	-10.6169
▁virgil	-10.6169
▁generous	-10.6169
▁headaches	-10.6169
▁creating	-10.6169
▁virus	-10.6169
▁aksel	-10.617
▁platoon	-10.617
▁budget	-10.617
▁hollywood	-10.617
▁significant	-10.617
▁horror	-10.617
▁kayem	-10.617
▁thug	-10.617
▁cheney	-10.617
▁chaos	-10.617
▁chasing	-10.617
▁charlestown	-10.617
▁krista	-10.617
▁todd	-10.617
▁youyou	-10.617
▁lounge	-10.617
▁assault	-10.617
▁krissi	-10.617
▁raid	-10.617
▁dunno	-10.617
▁clever	-10.617
▁acid	-10.617
▁neat	-10.617
▁messiah	-10.6171
▁seventeen	-10.6171
▁ashes	-10.6171
▁journey	-10.6171
▁tissue	-10.6171
▁cheek	-10.6171
▁vagina	-10.6171
▁hash	-10.6171
▁patty	-10.6171
▁dismissed	-10.6171
▁quote	-10.6171
▁theme	-10.6171
▁pact	-10.6171
▁happier	-10.6171
▁cooperate	-10.6171
▁burst	-10.6171
▁population	-10.6172
▁napa	-10.6172
▁skinny	-10.6172
▁brent	-10.6172
▁charity	-10.6172
▁reward	-10.6172
▁champion	-10.6172
▁brian	-10.6172
▁direction	-10.6172
▁yoga	-10.6172
▁chet	-10.6173
▁soda	-10.6173
▁radical	-10.6173
▁finance	-10.6174
▁cities	-10.6174
▁latin	-10.6174
▁clattering	-10.6175
▁medication	-10.6175
▁martini	-10.6175
▁governor	-10.6175
▁accidentally	-10.6175
▁gee	-10.6176
▁backstage	-10.6176
▁disk	-10.6176
▁capable	-10.6176
▁bound	-10.6177
▁grateful	-10.6177
▁royal	-10.6177
▁crop	-10.6177
▁discussion	-10.6178
▁lingerie	-10.6179
▁lighthouse	-10.6179
▁bait	-10.6179
▁pepe	-10.6179
▁attached	-10.6179
▁helene	-10.618
▁specialist	-10.618
▁murmuring	-10.6181
▁cubs	-10.6181
▁fart	-10.6182
▁angeles	-10.6183
▁daily	-10.6183
▁blast	-10.6185
▁wha	-10.6186
▁determined	-10.6188
▁regarding	-10.6188
▁impressed	-10.619
▁troops	-10.619
▁ville	-10.6192
▁copies	-10.6193
▁heroes	-10.6194
▁damaged	-10.6194
▁stiff	-10.6195
▁convicted	-10.6195
▁warned	-10.6197
▁tricky	-10.6199
▁heroin	-10.6204
▁screeching	-10.6204
▁shar	-10.6205
▁barn	-10.6206
▁shithole	-10.621
▁tanker	-10.6211
▁horny	-10.6212
counterterrorism	-10.6213
▁connected	-10.6214
▁brakes	-10.6217
▁euros	-10.6217
▁released	-10.6217
▁entered	-10.6219
▁ti	-10.6219
▁y	-10.6223
▁nash	-10.6225
▁cells	-10.6226
▁safer	-10.6228
▁kim	-10.623
▁republicans	-10.623
▁requested	-10.6232
▁pace	-10.6234
▁walkin	-10.6245
▁meantime	-10.6247
▁melt	-10.6247
▁straighten	-10.6249
▁chained	-10.6254
▁parole	-10.6262
▁cans	-10.6278
▁packed	-10.6278
ca	-10.6284
▁ferm	-10.6299
▁landed	-10.631
▁stealing	-10.6311
▁pretending	-10.6311
▁event	-10.6312
▁sting	-10.6323
▁sooner	-10.6327
▁mat	-10.6329
▁pushed	-10.6333
▁laying	-10.6337
▁experiments	-10.6338
▁thy	-10.6339
▁results	-10.6352
▁transfer	-10.6355
▁formal	-10.6356
▁demons	-10.6357
▁kicking	-10.6361
▁crossed	-10.6365
▁prom	-10.6367
▁sucked	-10.6374
bar	-10.638
ible	-10.638
▁marines	-10.638
▁rabbits	-10.6382
do	-10.6384
▁counting	-10.6389
ra	-10.6391
▁closely	-10.64
▁fixing	-10.6402
▁issues	-10.6403
▁crossing	-10.6407
▁bomber	-10.6431
▁mini	-10.6453
▁sole	-10.6454
▁gates	-10.6476
▁tricks	-10.6476
▁vehicles	-10.6489
▁senses	-10.6489
▁structure	-10.6494
▁claims	-10.6503
hand	-10.6513
▁whine	-10.6521
▁hood	-10.6523
▁criminals	-10.653
▁boot	-10.6533
▁worker	-10.6542
▁acts	-10.6567
ita	-10.6572
▁sew	-10.6588
▁le	-10.6594
▁du	-10.6617
▁caused	-10.6628
▁grade	-10.6632
▁writers	-10.6633
▁an	-10.665
ose	-10.6676
▁ending	-10.6734
▁myth	-10.6738
▁positions	-10.6738
▁scenes	-10.6739
▁types	-10.6778
▁owner	-10.6837
▁comrades	-10.6864
▁echo	-10.6874
▁bars	-10.6915
ization	-10.6964
da	-10.6967
▁shout	-10.6968
▁tan	-10.6969
▁trans	-10.6969
▁breathes	-10.6979
▁volunteer	-10.6993
▁arrow	-10.701
▁olga	-10.701
▁homicide	-10.7011
▁weigh	-10.7017
▁individual	-10.7017
▁duck	-10.7021
▁affair	-10.7022
▁scout	-10.7022
▁network	-10.7022
▁muscle	-10.7024
▁channel	-10.7024
▁plot	-10.7025
▁ages	-10.7025
▁sample	-10.7029
▁fri	-10.7032
▁placed	-10.7035
▁customer	-10.7036
▁string	-10.7043
▁ac	-10.7084
▁vow	-10.7085
load	-10.7091
▁hack	-10.7091
▁jokes	-10.7092
▁tag	-10.7095
▁approach	-10.7101
▁drown	-10.7106
▁the	-10.7117
li	-10.712
▁wifes	-10.7124
▁supply	-10.713
▁pitch	-10.7131
▁flip	-10.7133
▁alert	-10.7134
▁recruit	-10.7134
▁convict	-10.7135
▁thrill	-10.7137
▁boost	-10.7139
▁stamp	-10.714
beat	-10.714
▁unlock	-10.7146
dollar	-10.7148
▁moan	-10.7148
▁louis	-10.7151
away	-10.7152
▁approve	-10.7153
▁determine	-10.7153
▁batter	-10.7154
▁recent	-10.7159
▁commission	-10.7161
▁rape	-10.7162
▁prince	-10.7163
▁madam	-10.7163
▁noon	-10.7166
▁improve	-10.7167
▁tooth	-10.7167
▁journal	-10.7168
▁zoo	-10.7168
▁dramatic	-10.7169
viet	-10.7169
▁ambassador	-10.7169
▁anniversary	-10.7169
▁beloved	-10.7169
▁cavalry	-10.7169
▁clarissa	-10.7169
▁cliff	-10.7169
▁complex	-10.7169
▁connolly	-10.7169
▁council	-10.7169
▁education	-10.7169
▁egypt	-10.7169
▁elizabeth	-10.7169
▁embrace	-10.7169
▁entitled	-10.7169
▁exposure	-10.7169
▁fantasy	-10.7169
▁fernando	-10.7169
▁gasoline	-10.7169
▁goddammit	-10.7169
▁kendall	-10.7169
▁laundry	-10.7169
▁lorenson	-10.7169
▁motel	-10.7169
▁mulanax	-10.7169
▁mulqueen	-10.7169
▁mystery	-10.7169
▁offense	-10.7169
▁proposal	-10.7169
▁protocol	-10.7169
▁shaffer	-10.7169
▁solaris	-10.7169
▁sonofabitch	-10.7169
▁tequila	-10.7169
▁therefore	-10.7169
▁tiamat	-10.7169
▁typewriter	-10.7169
▁worries	-10.7169
▁crateros	-10.7169
▁drew	-10.7169
▁hockey	-10.7169
▁jamaica	-10.7169
▁kennedy	-10.7169
▁reverend	-10.7169
▁technology	-10.7169
▁annoying	-10.7169
▁confusing	-10.7169
▁headquarters	-10.7169
▁helmet	-10.7169
▁residence	-10.7169
▁mickey	-10.7169
▁canada	-10.7169
▁cunningham	-10.7169
▁freddy	-10.7169
▁happily	-10.7169
▁onstage	-10.7169
▁sheryl	-10.7169
▁freezing	-10.7169
▁mamma	-10.7169
▁minnie	-10.7169
▁jangers	-10.7169
▁junior	-10.7169
▁radlo	-10.7169
▁colonel	-10.7169
▁pearl	-10.7169
▁raylee	-10.7169
▁divine	-10.717
▁argument	-10.717
▁conference	-10.717
▁praise	-10.717
▁authority	-10.717
▁merwe	-10.717
▁eliot	-10.717
▁remote	-10.717
▁predator	-10.717
▁surgeon	-10.717
▁honour	-10.717
▁after	-10.717
fifth	-10.717
▁chronicle	-10.717
▁barbecue	-10.717
▁uncomfortable	-10.717
▁income	-10.717
▁hostile	-10.717
▁coast	-10.717
▁operating	-10.717
▁embassy	-10.717
▁testify	-10.717
▁swiss	-10.717
imum	-10.717
▁theater	-10.717
▁countries	-10.717
▁fanny	-10.717
▁theory	-10.717
▁portland	-10.717
▁spiritual	-10.717
▁terrified	-10.717
▁niece	-10.717
▁flush	-10.7171
▁privilege	-10.7171
▁womb	-10.7171
▁thunder	-10.7171
▁grandfather	-10.7171
▁electricity	-10.7171
▁obsessed	-10.7171
▁assignment	-10.7171
▁supper	-10.7171
▁joanna	-10.7171
▁deke	-10.7172
▁fax	-10.7172
▁gentleman	-10.7172
▁incoming	-10.7172
▁extract	-10.7172
▁task	-10.7172
▁critical	-10.7172
▁dyou	-10.7172
▁buzzes	-10.7173
▁fitch	-10.7173
▁uhuh	-10.7173
▁nearby	-10.7173
▁footage	-10.7173
▁temper	-10.7174
▁manwhore	-10.7174
▁collection	-10.7174
▁scan	-10.7174
▁spanky	-10.7175
▁barts	-10.7175
▁communicate	-10.7175
▁rv	-10.7175
▁chen	-10.7176
▁grey	-10.7176
▁intense	-10.7176
▁conviction	-10.7176
▁tito	-10.7176
▁offended	-10.7177
▁dino	-10.7177
▁dragon	-10.7177
▁chaser	-10.7178
▁civil	-10.7178
▁axe	-10.7178
▁internal	-10.7178
▁recovery	-10.7179
▁armor	-10.7179
▁plead	-10.718
▁golden	-10.718
▁handling	-10.718
▁estate	-10.718
▁raf	-10.7181
▁emma	-10.7181
▁macedonian	-10.7181
▁painful	-10.7181
▁labor	-10.7181
▁ole	-10.7181
▁applauding	-10.7182
▁whooping	-10.7183
▁ford	-10.7183
▁sonny	-10.7184
▁sickness	-10.7184
▁wing	-10.7184
▁beau	-10.7186
▁larger	-10.719
▁nicos	-10.719
▁convinced	-10.7191
▁relations	-10.7192
▁wears	-10.7195
▁required	-10.7197
▁carried	-10.7198
▁baron	-10.7201
▁unconscious	-10.7201
▁gathered	-10.7204
▁irs	-10.7205
▁warn	-10.7206
▁limited	-10.7206
▁roars	-10.7207
▁et	-10.7209
▁sexually	-10.7211
▁jr	-10.7216
▁manner	-10.7216
▁raped	-10.7218
▁ghostly	-10.7219
▁manita	-10.7219
▁sharply	-10.722
▁grad	-10.722
▁hugh	-10.7224
▁loudly	-10.7224
▁sacrificed	-10.7226
▁digital	-10.7229
▁nailed	-10.7232
oo	-10.7233
▁whys	-10.7236
▁hooked	-10.7236
▁greatness	-10.7246
▁bal	-10.7246
▁med	-10.7246
▁lawn	-10.725
▁hatch	-10.7259
▁added	-10.7262
▁smiled	-10.7265
▁relatives	-10.7267
▁dougy	-10.7272
▁crystal	-10.7272
▁evans	-10.7277
▁discipline	-10.7283
▁mightve	-10.7289
▁equals	-10.7294
▁sources	-10.7297
▁symbols	-10.7297
▁bothered	-10.7304
▁millions	-10.7304
▁est	-10.7305
▁liver	-10.7305
▁samples	-10.7312
ities	-10.7313
▁shown	-10.7314
▁organ	-10.7327
▁din	-10.7336
▁wheels	-10.7342
▁images	-10.7343
▁tub	-10.7352
▁stinks	-10.7357
▁log	-10.7357
bra	-10.7359
of	-10.7376
ological	-10.7386
▁blades	-10.7387
▁pub	-10.7388
▁payments	-10.739
▁joining	-10.7395
▁messed	-10.7398
▁testing	-10.7401
▁farmers	-10.741
spare	-10.7427
con	-10.7437
▁bands	-10.7437
▁sniffl	-10.7456
ay	-10.7458
men	-10.7458
▁defin	-10.7459
▁solve	-10.7461
▁defendants	-10.7464
ner	-10.7466
▁contracts	-10.7478
▁nails	-10.7481
▁homes	-10.7482
▁workers	-10.7483
▁sa	-10.7516
▁chicks	-10.754
oral	-10.7544
▁trucks	-10.7558
ell	-10.7582
well	-10.7583
▁cleared	-10.7603
ette	-10.762
ul	-10.7624
▁monsters	-10.7647
▁dicks	-10.7669
bo	-10.7671
ard	-10.7675
▁trees	-10.7679
▁dodge	-10.7684
▁dom	-10.7702
▁tu	-10.7704
▁explosions	-10.7709
▁mines	-10.7726
ev	-10.7726
▁rays	-10.774
▁decides	-10.7741
ame	-10.7749
▁cuts	-10.7769
ha	-10.7796
▁elses	-10.7798
ington	-10.782
▁drops	-10.7824
▁handed	-10.7845
ckl	-10.7865
▁wins	-10.7877
▁womans	-10.7881
▁queens	-10.7895
▁am	-10.7896
ake	-10.7903
▁favors	-10.7927
ns	-10.7935
▁hid	-10.7942
all	-10.7944
▁seal	-10.7958
▁tips	-10.7992
rich	-10.8031
▁waters	-10.804
▁kicks	-10.8043
▁scrape	-10.8046
▁os	-10.8052
▁leads	-10.8057
▁ka	-10.8071
▁annas	-10.8075
▁guessed	-10.8094
▁qu	-10.8095
▁addict	-10.8104
▁shoe	-10.8108
▁cass	-10.8116
▁sakes	-10.8117
▁application	-10.8121
▁empire	-10.8121
▁ritual	-10.8121
▁cocktail	-10.8122
▁heartbeat	-10.8127
▁tire	-10.8129
▁skill	-10.8132
▁tshirt	-10.8135
▁chamber	-10.8135
▁arrangement	-10.8137
▁sip	-10.8139
▁symbol	-10.814
▁source	-10.814
▁skate	-10.8141
▁whistle	-10.8142
▁glove	-10.8143
▁slayer	-10.8146
▁rob	-10.8146
▁sport	-10.8147
▁france	-10.8147
▁stark	-10.8151
▁sixty	-10.8152
▁pond	-10.8155
▁opera	-10.816
ogue	-10.8163
▁nazi	-10.8165
▁design	-10.8175
de	-10.8194
▁flower	-10.8199
▁betray	-10.8211
▁crawl	-10.8213
▁peep	-10.8215
▁shatter	-10.8237
▁corrupt	-10.824
town	-10.8242
▁snarl	-10.8245
▁dispatch	-10.8248
▁deny	-10.8248
date	-10.8248
▁tab	-10.8248
▁develop	-10.8249
▁defeat	-10.8249
▁haunt	-10.8251
▁retard	-10.8254
▁wander	-10.8255
▁cooper	-10.8256
▁equal	-10.8256
hen	-10.8257
▁flu	-10.8258
use	-10.8258
check	-10.8259
▁rescue	-10.8262
▁culture	-10.8262
▁propose	-10.8264
▁increase	-10.8265
ets	-10.8268
▁cam	-10.8268
▁villa	-10.8269
▁stamm	-10.8269
▁kath	-10.8271
▁spy	-10.8271
▁involve	-10.8272
▁africa	-10.8272
▁ally	-10.8272
ey	-10.8273
▁soup	-10.8274
▁confess	-10.8276
▁russia	-10.8276
uary	-10.8277
▁peyt	-10.8278
▁movin	-10.8278
▁runnin	-10.8278
▁gentle	-10.8279
▁authentic	-10.8279
▁arti	-10.8279
▁revolution	-10.828
▁disney	-10.828
▁architect	-10.828
▁scott	-10.828
▁lamb	-10.828
▁amateur	-10.8281
▁ambitious	-10.8281
▁annabelle	-10.8281
▁anthony	-10.8281
▁anxious	-10.8281
▁berryessa	-10.8281
▁brodski	-10.8281
▁cindy	-10.8281
▁donkey	-10.8281
▁escort	-10.8281
▁evolution	-10.8281
▁funkyzeit	-10.8281
▁gardner	-10.8281
▁giggling	-10.8281
▁graduation	-10.8281
▁greece	-10.8281
▁hilarious	-10.8281
▁hillbilly	-10.8281
▁international	-10.8281
▁kuperman	-10.8281
▁kurosawa	-10.8281
▁lifeanddeath	-10.8281
▁manhattan	-10.8281
▁millaney	-10.8281
▁ministry	-10.8281
▁mississippi	-10.8281
▁mohammed	-10.8281
▁naughty	-10.8281
▁offensive	-10.8281
▁oldfashioned	-10.8281
▁parasite	-10.8281
▁perspective	-10.8281
▁politics	-10.8281
▁privacy	-10.8281
▁psychologist	-10.8281
▁rachel	-10.8281
▁reckon	-10.8281
▁resume	-10.8281
▁revving	-10.8281
▁rooney	-10.8281
▁russell	-10.8281
▁sacred	-10.8281
▁salinas	-10.8281
▁samantha	-10.8281
▁stabilize	-10.8281
▁terribly	-10.8281
▁vanessa	-10.8281
▁warrior	-10.8281
▁buddies	-10.8281
▁guinea	-10.8281
▁humming	-10.8281
▁importance	-10.8281
▁vriess	-10.8281
▁august	-10.8281
▁benji	-10.8281
▁cloquet	-10.8281
▁creek	-10.8281
▁lambert	-10.8281
▁hopefully	-10.8281
▁janessa	-10.8281
▁montreal	-10.8281
▁nows	-10.8281
▁numero	-10.8281
▁vendor	-10.8281
▁nazareth	-10.8281
▁collins	-10.8281
▁jeez	-10.8281
▁marquez	-10.8281
▁shaft	-10.8281
▁vincent	-10.8281
▁kumi	-10.8281
▁legitimate	-10.8281
▁bahia	-10.8281
▁granny	-10.8281
▁resent	-10.8281
▁foryou	-10.8281
▁circus	-10.8281
▁ambition	-10.8281
▁underwear	-10.8281
▁cotton	-10.8281
▁polina	-10.8281
▁strapped	-10.8281
▁oscar	-10.8281
▁tanner	-10.8281
▁liquid	-10.8281
▁celia	-10.8281
▁diving	-10.8281
▁vibe	-10.8281
▁argh	-10.8281
▁exclusive	-10.8281
▁loyalty	-10.8281
▁saber	-10.8281
▁addition	-10.8281
▁facing	-10.8281
▁misery	-10.8281
▁slick	-10.8281
▁trent	-10.8281
▁backwards	-10.8281
▁heck	-10.8281
▁napkin	-10.8281
▁magnet	-10.8281
▁malone	-10.8281
▁lamp	-10.8281
▁radiator	-10.8281
▁reference	-10.8281
▁owned	-10.8281
▁bacon	-10.8281
▁boogeyman	-10.8281
▁rosie	-10.8281
▁airplane	-10.8281
▁suitcase	-10.8281
▁palace	-10.8281
▁impressive	-10.8281
▁cemetery	-10.8281
▁conspiracy	-10.8281
▁philosophy	-10.8281
▁bail	-10.8281
▁marble	-10.8281
▁griffin	-10.8281
▁dragged	-10.8282
▁herb	-10.8282
▁elias	-10.8282
▁pause	-10.8282
▁prank	-10.8282
▁cocksucker	-10.8282
▁wax	-10.8282
▁maria	-10.8282
▁harass	-10.8282
▁qaeda	-10.8282
▁relief	-10.8282
▁appropriate	-10.8282
▁broward	-10.8282
▁clamp	-10.8282
▁owns	-10.8282
▁costume	-10.8282
▁plugger	-10.8282
▁caroline	-10.8282
▁crackling	-10.8282
▁ofyou	-10.8282
▁robot	-10.8282
▁jaw	-10.8282
▁paralyzed	-10.8282
▁software	-10.8282
▁winston	-10.8282
▁riley	-10.8282
▁carrot	-10.8283
▁bardo	-10.8283
▁mein	-10.8283
▁operator	-10.8283
▁abortion	-10.8283
▁bingo	-10.8283
▁elite	-10.8283
▁ol	-10.8283
▁waking	-10.8283
▁axel	-10.8283
▁rusty	-10.8284
▁soil	-10.8284
▁witches	-10.8284
▁bald	-10.8284
▁deaf	-10.8285
▁gent	-10.8285
▁corruption	-10.8285
▁forest	-10.8285
▁successor	-10.8285
▁wrapped	-10.8286
▁austria	-10.8286
▁tries	-10.8287
▁dedicated	-10.8287
▁dickhead	-10.8288
▁shuffle	-10.8289
▁registered	-10.8289
▁stray	-10.8289
▁apply	-10.8289
▁lyrics	-10.829
▁tow	-10.829
▁sturges	-10.829
▁scissors	-10.829
▁noone	-10.829
▁branch	-10.8291
▁respectful	-10.8291
▁identified	-10.8292
▁backpack	-10.8292
▁controlled	-10.8292
▁frontier	-10.8292
▁possessed	-10.8292
▁consult	-10.8293
▁fed	-10.8293
▁dough	-10.8294
▁mankind	-10.8294
▁executed	-10.8295
▁production	-10.8295
▁punished	-10.8296
▁daylight	-10.8296
▁stu	-10.8296
▁rug	-10.8297
▁tara	-10.8299
▁snapped	-10.8299
▁thee	-10.8302
▁assured	-10.8303
▁guessing	-10.8303
▁fist	-10.8304
▁burnt	-10.8304
▁geez	-10.8304
▁deadline	-10.8305
▁ribs	-10.8306
▁afterwards	-10.8306
▁stretch	-10.8307
▁coordinates	-10.8307
▁charts	-10.8308
▁pacific	-10.8308
▁hose	-10.831
▁beaten	-10.831
▁iim	-10.831
▁accused	-10.8311
▁dar	-10.8311
▁fort	-10.8313
▁comb	-10.8315
▁sealed	-10.8316
▁ellie	-10.8316
▁spying	-10.8316
▁boxes	-10.8317
▁voted	-10.8321
▁darko	-10.8322
▁employees	-10.8323
▁candles	-10.8323
▁eits	-10.8323
▁flames	-10.8324
▁honking	-10.8324
▁vl	-10.8325
▁assumed	-10.8327
▁wanting	-10.8338
▁mixed	-10.8338
▁performed	-10.8341
▁bosses	-10.8343
▁bent	-10.8343
▁foreigners	-10.8346
▁hopeless	-10.8348
▁helpless	-10.8349
▁inject	-10.8351
▁bowling	-10.8358
▁whoops	-10.8359
▁adore	-10.836
▁smaller	-10.8361
▁uni	-10.8371
▁classy	-10.8371
▁ruler	-10.8375
▁photographer	-10.8376
▁brings	-10.8377
▁discussing	-10.8378
▁useless	-10.8379
▁studying	-10.8382
▁cracked	-10.8382
▁marketing	-10.8391
▁puts	-10.8396
▁suggested	-10.8397
▁appeared	-10.8398
▁messy	-10.8403
▁can	-10.8406
▁shadows	-10.8407
▁objects	-10.8407
▁heights	-10.8407
▁ay	-10.8414
▁misses	-10.8416
▁milli	-10.8416
▁worthy	-10.8418
▁sticky	-10.8434
▁timeout	-10.8436
▁shooter	-10.844
sta	-10.8442
ane	-10.8445
▁packing	-10.8445
▁fairy	-10.8445
ga	-10.8446
▁pope	-10.846
▁shoots	-10.8461
▁ec	-10.8461
▁filling	-10.8462
▁picks	-10.8473
▁tribes	-10.8476
▁kara	-10.848
▁cookies	-10.8486
▁supporting	-10.8487
▁growl	-10.8487
▁safely	-10.8489
▁diners	-10.8494
▁hooker	-10.8498
ham	-10.85
gs	-10.85
ec	-10.8508
erry	-10.8511
▁ventilat	-10.8513
▁imim	-10.8513
▁strangers	-10.8513
▁prayers	-10.8523
▁instruments	-10.8526
▁laughed	-10.8533
bit	-10.8544
▁jumping	-10.8549
▁donut	-10.8552
▁degrees	-10.856
▁winners	-10.856
▁cd	-10.8567
▁fr	-10.8571
▁owed	-10.8576
▁plates	-10.8578
▁imma	-10.8578
▁hits	-10.8581
▁ironic	-10.8585
ward	-10.8585
▁guests	-10.8594
▁greeks	-10.8594
employment	-10.8601
ically	-10.8614
▁dealers	-10.8633
▁misunderstand	-10.864
ery	-10.8643
▁interrogations	-10.8646
▁whi	-10.8651
light	-10.8656
▁requests	-10.8664
▁meetings	-10.867
sa	-10.8671
▁quarters	-10.8682
my	-10.8707
▁debts	-10.8715
sh	-10.8723
mann	-10.8727
▁interests	-10.8734
▁jeans	-10.8749
oma	-10.8768
tle	-10.877
▁alex	-10.8774
▁rod	-10.878
▁cents	-10.8782
▁rub	-10.8789
za	-10.8809
▁ne	-10.8817
▁sy	-10.8835
▁wakes	-10.885
card	-10.886
▁bells	-10.8866
▁sayin	-10.8868
▁clearing	-10.8877
▁targets	-10.8888
▁chickens	-10.8889
mer	-10.8893
▁gu	-10.8904
▁bookie	-10.8923
▁julies	-10.8925
au	-10.8932
op	-10.8963
▁ak	-10.8975
▁conditions	-10.8976
▁videos	-10.8976
▁fools	-10.8996
▁mens	-10.9002
▁ru	-10.9025
wa	-10.9041
▁fields	-10.9047
▁mil	-10.9058
ol	-10.9064
ite	-10.9071
▁grows	-10.9088
▁crimes	-10.9089
▁quo	-10.9098
▁freaks	-10.9106
▁causes	-10.9145
▁iron	-10.9146
▁vari	-10.9149
▁conversations	-10.9153
▁tri	-10.9155
saw	-10.9157
▁pointing	-10.916
▁carls	-10.9165
▁locks	-10.9167
▁cart	-10.9182
▁belli	-10.9194
▁citys	-10.9204
▁employ	-10.9217
hu	-10.9224
va	-10.9226
les	-10.9228
ins	-10.923
▁pol	-10.9232
mi	-10.9251
▁nic	-10.9282
▁thinkin	-10.9342
▁produce	-10.9346
▁award	-10.9352
py	-10.9352
▁pound	-10.9355
▁tests	-10.9357
lf	-10.9362
▁il	-10.9371
▁fugitive	-10.9371
▁sausage	-10.9371
▁millimeter	-10.9371
▁ras	-10.9371
▁grenade	-10.9371
tion	-10.9374
▁trey	-10.9376
▁receipt	-10.9378
▁session	-10.9378
▁await	-10.9379
▁basic	-10.9382
▁method	-10.9385
▁habit	-10.9385
▁object	-10.9386
not	-10.9386
▁thud	-10.9386
▁survivor	-10.9387
▁height	-10.9387
▁nerd	-10.9387
▁worm	-10.9387
▁detainee	-10.9388
▁shadow	-10.9389
▁corpse	-10.939
▁diamond	-10.9391
▁visitor	-10.9392
▁mortar	-10.9392
▁technique	-10.9393
▁breast	-10.9394
▁just	-10.9402
▁haz	-10.9409
▁pill	-10.9412
▁what	-10.9418
▁boil	-10.9425
▁lai	-10.9441
▁fa	-10.9446
ethe	-10.9447
▁poison	-10.9457
▁drift	-10.9459
▁snatch	-10.9459
▁pant	-10.9462
▁roses	-10.9481
▁lu	-10.9481
▁sum	-10.9484
▁wrap	-10.949
▁breed	-10.9493
▁crown	-10.9495
ke	-10.9497
▁waterboard	-10.9501
▁hammer	-10.9501
case	-10.9501
wide	-10.951
shit	-10.951
▁massacre	-10.9513
▁trim	-10.9514
robe	-10.9516
▁prime	-10.9516
how	-10.9517
▁murph	-10.9517
▁cambodia	-10.9519
▁technical	-10.9519
▁impress	-10.952
▁por	-10.952
▁intens	-10.9522
▁purchase	-10.9522
▁concert	-10.9526
▁teenage	-10.9526
▁jesse	-10.9529
▁dish	-10.9529
▁immediate	-10.953
▁joseph	-10.953
▁craft	-10.953
▁specific	-10.953
▁casual	-10.953
▁scholar	-10.953
▁wrist	-10.953
▁abanks	-10.9531
▁addison	-10.9531
▁barracks	-10.9531
▁behaviour	-10.9531
▁brooklyn	-10.9531
▁caravan	-10.9531
▁centuries	-10.9531
▁conscience	-10.9531
▁damato	-10.9531
▁dessert	-10.9531
▁dionysus	-10.9531
▁disaster	-10.9531
▁disgrace	-10.9531
▁environment	-10.9531
▁envy	-10.9531
▁explanation	-10.9531
▁extend	-10.9531
▁furniture	-10.9531
▁geoffrey	-10.9531
▁grief	-10.9531
▁grohl	-10.9531
▁gym	-10.9531
▁illinois	-10.9531
▁inviting	-10.9531
▁ireland	-10.9531
▁jerusalem	-10.9531
▁judging	-10.9531
▁kalina	-10.9531
▁kassar	-10.9531
▁kramer	-10.9531
▁lorenzo	-10.9531
▁macintosh	-10.9531
▁markkula	-10.9531
▁mumbling	-10.9531
▁nffa	-10.9531
▁nickname	-10.9531
▁nigga	-10.9531
▁november	-10.9531
▁plaintiffs	-10.9531
▁portuguese	-10.9531
▁prosecution	-10.9531
▁sangria	-10.9531
▁scenario	-10.9531
▁semester	-10.9531
▁stadium	-10.9531
▁syndrome	-10.9531
▁terek	-10.9531
▁territory	-10.9531
▁tokyo	-10.9531
▁veronica	-10.9531
▁vessel	-10.9531
▁watkins	-10.9531
▁wickwire	-10.9531
▁witherspoon	-10.9531
▁wozniak	-10.9531
▁yllescas	-10.9531
▁ambush	-10.9531
▁dutch	-10.9531
▁fascinating	-10.9531
▁holler	-10.9531
▁intellectual	-10.9531
▁iraq	-10.9531
▁personnel	-10.9531
▁phrase	-10.9531
▁trousers	-10.9531
▁cnn	-10.9531
▁crutch	-10.9531
▁innkeeper	-10.9531
▁mccool	-10.9531
▁tarrance	-10.9531
▁analysis	-10.9531
▁competition	-10.9531
▁england	-10.9531
▁investigating	-10.9531
▁sydney	-10.9531
▁zeca	-10.9531
▁authorization	-10.9531
▁memorandum	-10.9531
▁terrain	-10.9531
▁concussion	-10.9531
▁hopkins	-10.9531
▁welfare	-10.9531
▁banana	-10.9531
▁imagination	-10.9531
▁retirement	-10.9531
▁skinheads	-10.9531
▁exwife	-10.9531
▁mageau	-10.9531
▁feinstein	-10.9531
▁hartog	-10.9531
▁picnic	-10.9531
▁tiger	-10.9531
▁tuition	-10.9531
▁invisible	-10.9531
▁basketball	-10.9531
▁cowgirl	-10.9531
▁almighty	-10.9531
▁bankrupt	-10.9531
▁eternal	-10.9531
▁administration	-10.9531
▁jules	-10.9531
▁bartend	-10.9531
▁jonah	-10.9531
▁veal	-10.9531
▁arabic	-10.9531
▁banjo	-10.9531
▁medium	-10.9531
▁theories	-10.9531
▁lilith	-10.9531
▁scam	-10.9531
▁korea	-10.9531
▁pulls	-10.9531
▁hazard	-10.9531
bc	-10.9531
▁activities	-10.9531
▁stabbed	-10.9531
▁terminal	-10.9531
▁moore	-10.9531
▁groov	-10.9531
▁maid	-10.9531
▁thirteenth	-10.9531
▁hissing	-10.9531
▁romance	-10.9531
▁wiggle	-10.9531
▁password	-10.9531
▁racist	-10.9531
▁electronic	-10.9531
▁declaration	-10.9531
▁breach	-10.9531
▁harsh	-10.9531
▁sabotage	-10.9531
▁preston	-10.9531
▁twentyfive	-10.9531
▁begun	-10.9531
▁bruce	-10.9531
▁hoover	-10.9531
▁transferred	-10.9531
▁arsehole	-10.9531
▁frame	-10.9531
▁psychiatrist	-10.9531
▁gloria	-10.9531
▁entertainment	-10.9531
▁stanley	-10.9531
▁humor	-10.9531
▁stacy	-10.9531
▁warren	-10.9531
▁cmon	-10.9532
▁cardinal	-10.9532
▁malia	-10.9532
▁jude	-10.9532
▁temptation	-10.9532
▁wallace	-10.9532
▁obliged	-10.9532
▁aaron	-10.9532
▁ferrin	-10.9532
▁waist	-10.9532
▁replacement	-10.9532
▁elvis	-10.9532
▁stripper	-10.9532
▁cabinet	-10.9532
▁fruma	-10.9532
▁imitate	-10.9533
▁milf	-10.9533
▁fork	-10.9533
▁solo	-10.9533
▁exhausted	-10.9533
▁description	-10.9533
▁hallway	-10.9533
▁bitten	-10.9533
▁noble	-10.9533
▁shack	-10.9533
▁celebrating	-10.9533
▁entry	-10.9533
▁kane	-10.9533
▁sofa	-10.9534
▁diary	-10.9534
▁christina	-10.9535
▁untie	-10.9535
▁haley	-10.9535
▁consistent	-10.9535
▁roth	-10.9535
▁scotch	-10.9535
▁hail	-10.9535
▁departure	-10.9535
▁grownup	-10.9535
▁mice	-10.9536
▁grossman	-10.9536
▁precisely	-10.9536
▁tore	-10.9537
▁reflection	-10.9537
▁newberry	-10.9537
▁playbook	-10.9538
▁seri	-10.9538
▁lists	-10.9538
▁informant	-10.9538
▁mega	-10.9538
▁translate	-10.9539
▁divided	-10.954
▁denied	-10.954
▁controlling	-10.954
▁african	-10.954
▁brat	-10.9541
▁drapes	-10.9541
▁supplies	-10.9541
▁claws	-10.9541
▁clouds	-10.9541
▁creaks	-10.9541
▁turks	-10.9541
▁ark	-10.9542
▁hospitality	-10.9543
▁exploded	-10.9543
▁dc	-10.9543
▁betting	-10.9543
▁villain	-10.9544
▁assign	-10.9544
▁programmed	-10.9544
▁adopted	-10.9544
▁vanished	-10.9544
▁gently	-10.9545
▁chosen	-10.9546
▁guido	-10.9546
▁vet	-10.9548
▁published	-10.9548
▁restore	-10.9549
▁brazil	-10.955
▁faintly	-10.955
▁straining	-10.9551
▁sweater	-10.9552
▁rage	-10.9553
▁rake	-10.9553
▁toughest	-10.9553
▁slipped	-10.9553
▁gary	-10.9553
▁crashes	-10.9556
▁approved	-10.9556
▁earn	-10.9559
▁reasonable	-10.956
▁contractors	-10.9561
▁stammers	-10.9562
▁mistaken	-10.9563
▁classes	-10.9565
▁sincere	-10.957
▁inventor	-10.957
▁lifeline	-10.9575
▁recruiting	-10.9575
ence	-10.9576
▁contained	-10.958
▁slams	-10.9582
▁conducted	-10.9583
fucking	-10.9588
▁passes	-10.959
▁deeper	-10.9593
▁tactic	-10.9594
▁giggles	-10.9598
▁crushed	-10.9599
▁demanding	-10.96
▁completed	-10.9601
▁flo	-10.9602
▁cargo	-10.9602
▁grocer	-10.9602
▁twisted	-10.9603
▁delivered	-10.9603
ack	-10.9604
▁yesil	-10.9605
▁adams	-10.9605
▁mop	-10.9606
▁masters	-10.9606
▁goons	-10.9616
▁residents	-10.9617
▁caymans	-10.9617
▁defending	-10.9618
class	-10.962
▁deserved	-10.9621
▁ap	-10.9624
▁not	-10.9624
▁capps	-10.9631
▁collecting	-10.9633
▁comics	-10.9637
▁whoohoo	-10.9638
▁goat	-10.964
▁dealt	-10.9641
▁borrowed	-10.9642
▁cr	-10.9643
▁posters	-10.9643
▁accus	-10.9645
▁bitter	-10.9645
tive	-10.9648
▁logical	-10.9648
▁reminded	-10.965
▁sha	-10.9655
▁instincts	-10.9656
▁ki	-10.9657
▁mash	-10.9671
▁focused	-10.9673
▁shitting	-10.9674
▁detainees	-10.9675
▁needles	-10.9676
▁accidents	-10.968
iance	-10.9681
▁fairly	-10.969
▁palm	-10.9691
low	-10.9693
▁crashed	-10.9693
▁feds	-10.9694
▁seals	-10.9698
▁boats	-10.9698
▁finest	-10.9705
ighted	-10.9706
▁handled	-10.9708
▁peel	-10.9708
ily	-10.9709
▁pissing	-10.971
▁vows	-10.9713
▁rami	-10.9716
▁customers	-10.9719
ening	-10.9725
▁prayed	-10.9729
▁rebuil	-10.973
▁rack	-10.9732
▁tools	-10.9733
▁towels	-10.9733
▁threats	-10.9733
oi	-10.9734
end	-10.9738
▁bees	-10.974
▁bothering	-10.9742
▁lad	-10.9748
▁toys	-10.9752
▁arrives	-10.9755
▁mount	-10.9757
▁metro	-10.9765
▁cooler	-10.9766
ou	-10.9767
▁aids	-10.9771
▁engineers	-10.9789
▁attacking	-10.9789
▁mae	-10.9801
▁differently	-10.9812
▁protected	-10.9818
uck	-10.982
nia	-10.9822
▁toes	-10.9825
▁olympics	-10.983
▁explained	-10.9836
▁respected	-10.9841
▁oren	-10.9843
▁seated	-10.9855
▁danced	-10.9859
▁spits	-10.9869
▁faci	-10.987
▁te	-10.988
ral	-10.9882
▁zodiacs	-10.9884
▁google	-10.9887
yes	-10.9895
ches	-10.991
▁rolls	-10.9914
ina	-10.9914
iest	-10.9916
des	-10.9924
▁rotte	-10.9929
lessness	-10.998
▁procedures	-10.9988
▁carl	-10.9988
▁signing	-11.0007
▁dancers	-11.0023
ps	-11.0029
construction	-11.0034
▁finds	-11.0037
▁you	-11.0038
▁evan	-11.0046
▁devi	-11.0047
ations	-11.0059
▁drivers	-11.0062
▁sounded	-11.0086
▁sirens	-11.0087
▁bangs	-11.0088
▁catching	-11.0114
▁strikes	-11.0147
▁mer	-11.0153
▁fl	-11.0163
▁visits	-11.0171
▁booked	-11.0174
▁texts	-11.0188
▁stare	-11.0191
▁vic	-11.0202
▁spirits	-11.0226
▁breaths	-11.0231
▁wee	-11.0271
bed	-11.0276
med	-11.0328
▁caps	-11.033
▁correspond	-11.036
ach	-11.0366
izing	-11.0368
▁pops	-11.0371
▁johns	-11.0375
▁pals	-11.0381
ote	-11.0425
▁sw	-11.0438
▁covers	-11.044
▁ge	-11.0457
▁mor	-11.0459
▁levels	-11.047
▁chains	-11.0493
can	-11.0508
og	-11.0511
▁que	-11.0513
▁sn	-11.0515
eth	-11.0517
las	-11.052
▁lifes	-11.053
▁apartments	-11.0532
▁hop	-11.0547
▁ahhh	-11.0553
▁dip	-11.0555
und	-11.0565
eyed	-11.0583
▁rounds	-11.061
▁inter	-11.064
▁fires	-11.0667
gi	-11.067
nge	-11.0682
▁eric	-11.0686
kin	-11.0704
ency	-11.0709
▁usa	-11.0713
▁assassin	-11.0728
▁prep	-11.0739
cs	-11.074
▁recover	-11.0746
tor	-11.0772
nic	-11.0782
▁reads	-11.0788
▁cough	-11.0788
ants	-11.0795
▁european	-11.0801
▁objection	-11.0802
hood	-11.0804
▁western	-11.0806
▁abu	-11.0808
▁knight	-11.0809
▁belief	-11.0811
▁bodyguard	-11.0812
▁tube	-11.0812
▁poem	-11.0812
▁instinct	-11.0817
▁bishop	-11.0817
▁relative	-11.0819
ified	-11.0822
▁beside	-11.0824
▁here	-11.0835
▁heal	-11.0837
▁folk	-11.084
▁era	-11.0869
ado	-11.0871
▁hen	-11.0872
night	-11.0882
▁bein	-11.0885
▁pour	-11.0889
▁flood	-11.089
exia	-11.0898
▁india	-11.0909
▁buzz	-11.0911
pe	-11.0913
yard	-11.0913
book	-11.0917
▁disrespect	-11.092
▁monitor	-11.092
▁encounter	-11.0923
▁repair	-11.0923
▁avoid	-11.0929
aaa	-11.0932
slav	-11.0933
box	-11.0933
year	-11.0934
audible	-11.0936
cat	-11.0937
authorized	-11.0937
mouth	-11.0938
▁wick	-11.0939
▁tackle	-11.094
gar	-11.094
speaker	-11.094
▁locate	-11.0941
▁behave	-11.0941
▁collapse	-11.0941
▁chic	-11.0944
▁competitive	-11.0945
▁puss	-11.0947
▁app	-11.0947
eye	-11.0947
▁visual	-11.0948
▁jess	-11.095
kov	-11.0953
▁assum	-11.0953
▁invest	-11.0954
▁potato	-11.0954
▁profession	-11.0954
▁witch	-11.0955
▁reflect	-11.0955
▁marty	-11.0956
▁ivan	-11.0956
▁scienti	-11.0956
▁distort	-11.0957
▁unlike	-11.0957
▁livin	-11.0957
▁arrogan	-11.0959
▁smurf	-11.0959
▁compassion	-11.0959
oslova	-11.0959
▁alejandro	-11.0959
▁alternative	-11.0959
▁amsterdam	-11.0959
▁approval	-11.0959
▁armstrong	-11.0959
▁bailiff	-11.0959
▁bargain	-11.0959
▁breeze	-11.0959
▁bypass	-11.0959
▁content	-11.0959
▁creative	-11.0959
▁crucified	-11.0959
▁dildo	-11.0959
▁disconnect	-11.0959
▁distephano	-11.0959
▁eivind	-11.0959
▁explore	-11.0959
▁fabric	-11.0959
▁fergie	-11.0959
▁gendarmerie	-11.0959
▁gunfight	-11.0959
▁haggard	-11.0959
▁hague	-11.0959
▁harvey	-11.0959
▁impact	-11.0959
▁kottke	-11.0959
▁krug	-11.0959
▁krushka	-11.0959
▁lamar	-11.0959
▁lonesome	-11.0959
▁mackenzie	-11.0959
▁magdalene	-11.0959
▁manifest	-11.0959
▁marvelous	-11.0959
▁marvin	-11.0959
▁mcdonalds	-11.0959
▁medevac	-11.0959
▁memorial	-11.0959
▁montoya	-11.0959
▁mutual	-11.0959
▁neglect	-11.0959
▁negotiate	-11.0959
▁nixon	-11.0959
▁obama	-11.0959
▁orgasm	-11.0959
▁parlor	-11.0959
▁peanut	-11.0959
▁pencil	-11.0959
▁philotas	-11.0959
▁politician	-11.0959
▁rawhide	-11.0959
▁reliable	-11.0959
▁rumbling	-11.0959
▁samuel	-11.0959
▁script	-11.0959
▁sentencing	-11.0959
▁september	-11.0959
▁shabbos	-11.0959
▁shelter	-11.0959
▁shmoo	-11.0959
▁snyder	-11.0959
▁southwest	-11.0959
▁stevie	-11.0959
▁sullivan	-11.0959
▁sunrise	-11.0959
▁surviving	-11.0959
▁switzerland	-11.0959
▁sykes	-11.0959
▁thief	-11.0959
▁tragic	-11.0959
▁twilight	-11.0959
▁vaughn	-11.0959
▁vengeance	-11.0959
▁volume	-11.0959
▁wisdom	-11.0959
▁yitzchok	-11.0959
▁ceremony	-11.0959
▁comanche	-11.0959
▁fingerprints	-11.0959
▁jocke	-11.0959
▁lsrael	-11.0959
▁omar	-11.0959
▁sparrow	-11.0959
▁sunglasses	-11.0959
▁unstable	-11.0959
▁aristotle	-11.0959
▁interrogator	-11.0959
▁muttering	-11.0959
▁presume	-11.0959
▁shadowchild	-11.0959
▁warehouse	-11.0959
▁eighteen	-11.0959
▁scale	-11.0959
▁burbank	-11.0959
▁clinic	-11.0959
▁radek	-11.0959
▁oops	-11.0959
▁grape	-11.0959
▁refinery	-11.0959
▁struck	-11.0959
▁merger	-11.0959
▁ninetythousand	-11.0959
▁chalk	-11.0959
▁barrier	-11.0959
▁revenue	-11.0959
▁shaving	-11.0959
▁blunt	-11.0959
▁feast	-11.0959
▁feather	-11.0959
▁microphone	-11.0959
▁cassander	-11.0959
▁alexandria	-11.0959
▁promotion	-11.0959
▁referring	-11.0959
▁inappropriate	-11.0959
▁collar	-11.0959
▁valium	-11.0959
▁vicki	-11.0959
▁briefcase	-11.0959
▁whatwhat	-11.0959
▁forbid	-11.0959
▁pursuit	-11.0959
▁aaaah	-11.0959
▁believing	-11.0959
▁bloke	-11.0959
▁broadcast	-11.0959
▁disorder	-11.0959
▁robbed	-11.0959
▁robinson	-11.0959
▁disappointment	-11.0959
▁orphanage	-11.0959
▁leap	-11.0959
▁comms	-11.0959
▁grill	-11.0959
▁moses	-11.0959
▁friendlies	-11.0959
▁phase	-11.0959
▁spoil	-11.0959
▁coughlin	-11.0959
▁dentist	-11.0959
▁ketchup	-11.0959
▁begged	-11.096
▁predict	-11.096
▁architecture	-11.096
▁blink	-11.096
▁clich	-11.096
▁macray	-11.096
▁princeton	-11.096
▁ventress	-11.096
▁unhappy	-11.096
▁compete	-11.096
▁thudding	-11.096
▁occurred	-11.096
▁holly	-11.096
▁loomis	-11.096
▁donald	-11.096
▁preferably	-11.096
▁vicar	-11.096
▁chaz	-11.096
▁communist	-11.096
▁teddy	-11.096
▁doris	-11.096
▁occur	-11.096
▁springfield	-11.096
▁statue	-11.096
▁foster	-11.096
▁motive	-11.096
▁erect	-11.096
▁upside	-11.096
▁broadway	-11.096
▁eviction	-11.096
▁starving	-11.096
▁engagement	-11.096
▁shaking	-11.096
▁attractive	-11.096
▁overnight	-11.096
▁shush	-11.096
▁hijackers	-11.096
▁rising	-11.096
▁shaw	-11.096
▁dental	-11.096
▁bookkeeper	-11.096
▁colorado	-11.096
▁thieves	-11.096
▁wooh	-11.096
▁brace	-11.096
▁cord	-11.096
▁strategy	-11.096
▁beings	-11.096
▁reactor	-11.096
▁ripped	-11.0961
▁clapping	-11.0961
▁retired	-11.0961
▁funky	-11.0961
▁dummy	-11.0961
▁advisor	-11.0961
▁cogs	-11.0961
▁polson	-11.0961
▁cattle	-11.0961
▁flatter	-11.0961
▁haircut	-11.0961
▁harling	-11.0961
▁reception	-11.0961
▁membership	-11.0961
▁tomatoes	-11.0961
▁kong	-11.0961
▁billionaire	-11.0961
▁cooperation	-11.0961
▁orchestra	-11.0961
▁ethics	-11.0961
▁minnieboo	-11.0961
▁riff	-11.0961
▁spiral	-11.0961
▁conny	-11.0961
▁catholic	-11.0961
▁wagon	-11.0961
▁bobcat	-11.0961
▁stir	-11.0961
▁gallon	-11.0961
▁condor	-11.0962
▁popped	-11.0962
▁ditt	-11.0962
▁childhood	-11.0962
▁depressed	-11.0962
▁slavery	-11.0962
▁waltz	-11.0962
▁lockdown	-11.0962
▁hola	-11.0962
▁priority	-11.0962
▁investment	-11.0962
▁shill	-11.0962
▁flirting	-11.0962
▁surrounding	-11.0962
▁confirmation	-11.0962
▁extraction	-11.0962
▁wheezing	-11.0962
▁liberty	-11.0962
▁dug	-11.0962
▁sixteen	-11.0962
▁motherfuckin	-11.0963
▁thou	-11.0963
▁traditional	-11.0963
▁tourist	-11.0963
▁parade	-11.0963
▁leo	-11.0963
▁inspired	-11.0963
▁whorehouse	-11.0963
▁shakespeare	-11.0963
▁affection	-11.0963
▁stine	-11.0963
▁foolish	-11.0963
▁sharon	-11.0963
▁haha	-11.0964
▁lone	-11.0964
▁vera	-11.0964
▁aggressive	-11.0964
▁attic	-11.0965
▁elli	-11.0965
▁poach	-11.0965
▁yyou	-11.0965
▁losin	-11.0965
▁hysterical	-11.0966
▁jammed	-11.0967
▁jag	-11.0967
▁sour	-11.0967
▁grieving	-11.0967
▁moss	-11.0968
▁function	-11.0968
▁ceo	-11.0968
▁infected	-11.0968
fic	-11.0969
▁dorm	-11.0969
stone	-11.0969
▁seventh	-11.0969
▁lime	-11.0969
▁shipment	-11.097
▁halfway	-11.0971
▁promoted	-11.0971
▁included	-11.0971
▁passengers	-11.0972
▁regulations	-11.0972
▁cycl	-11.0972
▁tense	-11.0972
▁expression	-11.0972
▁gap	-11.0972
kids	-11.0972
▁uhoh	-11.0973
▁pork	-11.0973
▁hitler	-11.0973
▁compromised	-11.0973
▁equally	-11.0975
▁root	-11.0975
▁rejected	-11.0975
▁invented	-11.0975
▁speeches	-11.0977
▁tender	-11.0978
▁olivia	-11.0978
▁mmmm	-11.0978
▁folder	-11.098
▁righteous	-11.0981
▁spite	-11.0981
▁crucial	-11.0982
▁proposed	-11.0982
▁update	-11.0983
▁drawn	-11.0984
▁alleged	-11.0984
▁attracted	-11.0984
▁ofa	-11.0984
▁darkest	-11.0985
▁investigated	-11.0987
▁rum	-11.0987
▁smallest	-11.0987
▁gage	-11.0988
▁headline	-11.0988
▁newton	-11.0989
▁everyday	-11.099
▁rapidly	-11.0991
▁hog	-11.0992
▁taller	-11.0993
▁pancakes	-11.0993
▁neighbours	-11.0993
▁poisoned	-11.0993
▁allegations	-11.0993
▁soy	-11.0993
▁heels	-11.0995
▁separated	-11.0997
▁buses	-11.0999
▁hunger	-11.0999
▁developed	-11.1
▁lungs	-11.1
▁particularly	-11.1
▁roughly	-11.1
▁boiling	-11.1001
▁drowned	-11.1002
▁hacked	-11.1002
▁ai	-11.1003
▁mustnt	-11.1004
▁rank	-11.1005
▁madman	-11.1005
▁snarling	-11.1006
▁cursed	-11.1008
▁followers	-11.1008
▁chilly	-11.101
▁goodnight	-11.1014
▁cycle	-11.1015
▁twins	-11.1015
▁bruises	-11.1016
▁abused	-11.1016
▁complaining	-11.1017
▁stoney	-11.1021
▁leaked	-11.1021
▁scaring	-11.1023
test	-11.1026
▁spear	-11.1028
▁businessman	-11.1029
▁coolest	-11.103
▁shocked	-11.1034
▁parties	-11.1035
▁risky	-11.1037
▁slots	-11.1038
▁coins	-11.1039
▁romans	-11.1039
▁continu	-11.1039
▁sere	-11.1041
▁climbing	-11.1056
don	-11.1056
▁elements	-11.106
▁newspapers	-11.106
ow	-11.1061
▁smarter	-11.1062
iah	-11.1062
▁fishy	-11.1065
▁lit	-11.1065
▁counseling	-11.1067
▁grams	-11.1067
▁wishes	-11.1069
▁grandmas	-11.1071
▁nor	-11.1072
▁swor	-11.1075
▁civilians	-11.1082
▁elbows	-11.1082
▁ch	-11.109
▁veil	-11.1092
▁remaining	-11.1102
▁bishops	-11.1105
▁deer	-11.1106
▁reminder	-11.1107
▁visited	-11.1111
▁destroying	-11.1111
▁ofthe	-11.1112
▁treating	-11.1114
▁iced	-11.1116
▁traveled	-11.112
▁nerds	-11.1127
▁survivors	-11.1127
▁thuds	-11.1127
▁mas	-11.1128
tz	-11.1128
▁lighter	-11.1131
▁cds	-11.1134
▁citizen	-11.1139
ella	-11.1143
▁nazis	-11.115
▁addicts	-11.115
▁arrangements	-11.1152
▁cooked	-11.1153
▁searched	-11.1158
▁owners	-11.1163
▁meds	-11.1172
▁es	-11.1181
▁accusation	-11.1182
▁skipp	-11.1183
▁strut	-11.1185
▁boots	-11.1188
▁pressed	-11.119
com	-11.12
lles	-11.1205
▁hairy	-11.1206
▁deaths	-11.1206
▁sticks	-11.1207
▁blonde	-11.1211
▁rifles	-11.1218
▁limits	-11.1219
▁complaints	-11.1219
▁we	-11.1222
▁enjoyed	-11.1223
let	-11.1229
▁suite	-11.1236
▁arc	-11.1238
▁praying	-11.1241
▁landing	-11.1243
▁cle	-11.1245
▁wherea	-11.1247
▁stared	-11.1257
▁bounce	-11.1258
▁prawns	-11.1263
▁gr	-11.1263
▁contacted	-11.1273
▁sucker	-11.1275
▁creatures	-11.1286
▁professionals	-11.1286
▁listed	-11.1291
▁ver	-11.1304
place	-11.1305
▁miracles	-11.1309
am	-11.1313
▁boards	-11.1318
▁tra	-11.1322
▁troubled	-11.1329
▁clues	-11.1329
▁doughnuts	-11.1332
▁pl	-11.1337
ut	-11.1349
▁emt	-11.1352
▁exists	-11.1357
▁sleepy	-11.1368
▁examine	-11.1375
▁pumps	-11.138
pping	-11.1381
▁rolled	-11.1387
▁som	-11.1394
▁visions	-11.1401
▁loads	-11.1408
▁micro	-11.1414
ac	-11.1415
▁humans	-11.1418
▁casey	-11.1425
▁gus	-11.1426
bone	-11.143
▁contribut	-11.1432
gging	-11.1434
ical	-11.1444
▁prim	-11.1449
▁concerns	-11.145
ace	-11.1459
▁towers	-11.1473
▁evacuate	-11.1492
▁szells	-11.1493
▁kissing	-11.1498
▁che	-11.1502
lu	-11.1512
▁sits	-11.1516
old	-11.1516
ung	-11.1538
▁shops	-11.1539
▁purposes	-11.1563
▁holidays	-11.1563
▁hats	-11.1563
▁committ	-11.1569
▁ding	-11.158
▁mag	-11.1583
▁tad	-11.1594
▁anyways	-11.1597
▁inc	-11.1599
▁roads	-11.1618
▁cruise	-11.1623
▁subjects	-11.1633
▁sticker	-11.1643
▁wished	-11.1663
▁gunshots	-11.168
▁losers	-11.1683
▁mouths	-11.1691
ue	-11.1699
▁horns	-11.1704
▁any	-11.1706
tta	-11.1709
▁rebel	-11.171
iro	-11.1718
▁whores	-11.1727
▁battles	-11.1727
▁suburb	-11.1745
zin	-11.1755
▁para	-11.1763
▁proves	-11.1773
▁repeats	-11.1774
▁bears	-11.1778
nsa	-11.1785
ot	-11.1795
▁ships	-11.1796
▁ambi	-11.1808
room	-11.1825
▁rode	-11.1826
▁arts	-11.1828
ron	-11.1869
▁colors	-11.1872
position	-11.1878
▁arrests	-11.1898
▁how	-11.1899
ters	-11.1914
▁sniff	-11.1918
▁films	-11.194
▁corners	-11.1948
▁relev	-11.1958
tile	-11.196
▁bothers	-11.1968
▁beam	-11.1991
▁rattl	-11.2005
gh	-11.2005
▁forms	-11.2008
licate	-11.2013
▁react	-11.2018
ade	-11.2023
▁situations	-11.2036
▁occasion	-11.2044
▁strain	-11.2048
▁her	-11.2058
▁presents	-11.2061
▁deals	-11.2063
▁mu	-11.2072
anus	-11.2096
iss	-11.2099
fo	-11.2121
▁compound	-11.2143
ti	-11.2145
ora	-11.2169
▁writes	-11.2169
▁define	-11.2171
▁she	-11.2196
ise	-11.22
▁beds	-11.2204
oosh	-11.2215
▁trips	-11.2216
▁offers	-11.222
ied	-11.2222
king	-11.2232
aron	-11.2246
▁teams	-11.225
▁trace	-11.2276
▁areas	-11.2279
▁mc	-11.2281
▁ag	-11.2289
▁cobr	-11.2298
▁useful	-11.2303
▁pine	-11.2303
che	-11.2312
anced	-11.2336
▁blond	-11.2336
▁flights	-11.2353
▁stores	-11.2353
▁clubs	-11.2365
▁spa	-11.237
▁tar	-11.2377
▁comp	-11.2378
mba	-11.2378
ummy	-11.2411
ile	-11.2424
ks	-11.2425
stick	-11.2432
▁plea	-11.2437
▁ups	-11.2438
▁mortal	-11.2442
▁ab	-11.2447
ceived	-11.2447
▁dracula	-11.245
▁massapequa	-11.245
▁beverage	-11.245
▁principle	-11.245
▁compliment	-11.245
▁drummer	-11.245
▁depend	-11.2451
▁margie	-11.2451
▁profit	-11.2451
▁genetic	-11.2452
▁surface	-11.2453
▁reservation	-11.2453
▁whisper	-11.2456
eggy	-11.2456
▁grunt	-11.246
▁fade	-11.2461
▁delusion	-11.2462
▁exam	-11.2463
▁flop	-11.2466
▁colleague	-11.2467
▁conflict	-11.2467
▁celebration	-11.2467
▁assessment	-11.2467
▁institution	-11.2473
▁yacht	-11.2474
▁barbarian	-11.2474
▁squeak	-11.2474
▁luc	-11.2478
▁item	-11.2478
▁pattern	-11.2479
▁kidney	-11.2481
▁elbow	-11.2482
▁civilian	-11.2483
▁medal	-11.2485
▁teenager	-11.2486
ping	-11.2487
▁comic	-11.2489
▁lip	-11.2496
inal	-11.2499
▁weep	-11.25
▁slipp	-11.2502
▁server	-11.2504
▁lap	-11.2507
▁actor	-11.2507
▁provid	-11.2508
rated	-11.2509
▁ador	-11.251
▁talks	-11.2511
▁nu	-11.2517
▁poster	-11.252
ify	-11.2526
▁digit	-11.2528
backs	-11.2533
face	-11.2543
▁buyin	-11.2545
▁von	-11.2549
▁brief	-11.2556
▁regard	-11.2558
▁justif	-11.2572
ip	-11.2574
▁attend	-11.2584
▁mock	-11.2585
▁sever	-11.2585
hour	-11.2588
▁clink	-11.2589
▁promis	-11.259
▁hump	-11.2591
▁disgust	-11.2592
▁attract	-11.2593
▁pad	-11.2593
▁alleg	-11.2595
world	-11.2597
▁delight	-11.2597
think	-11.2598
fire	-11.2598
▁unh	-11.2598
fall	-11.2601
what	-11.2601
pitched	-11.2602
cloth	-11.2603
▁rud	-11.2603
olivia	-11.2603
bridge	-11.2604
▁manufacture	-11.2605
water	-11.2605
around	-11.2606
▁merc	-11.2607
▁cloth	-11.2608
ford	-11.2609
▁engage	-11.2609
▁fog	-11.261
▁felon	-11.2612
▁prospect	-11.2612
▁chai	-11.2613
▁linger	-11.2614
▁unfortunate	-11.2614
▁shave	-11.2614
▁persia	-11.2615
▁hy	-11.2617
▁dee	-11.2618
▁refuge	-11.262
▁judgment	-11.262
▁influence	-11.2621
▁as	-11.2621
▁hustle	-11.2621
▁tradition	-11.2621
vinci	-11.2621
▁jewel	-11.2623
scription	-11.2623
▁intent	-11.2623
▁region	-11.2624
▁chug	-11.2624
▁iv	-11.2624
▁peaceful	-11.2624
meister	-11.2625
▁heh	-11.2625
▁leather	-11.2625
ficial	-11.2626
▁afghan	-11.2626
▁cynic	-11.2626
▁rehab	-11.2626
ijuana	-11.2626
▁absurd	-11.2626
▁albuquerque	-11.2626
▁aldren	-11.2626
▁alligator	-11.2626
▁arizona	-11.2626
▁asparagus	-11.2626
▁aspirin	-11.2626
▁attalus	-11.2626
▁avalanche	-11.2626
▁ballerina	-11.2626
▁bangkok	-11.2626
▁bleach	-11.2626
▁burnaley	-11.2626
▁caesar	-11.2626
▁campaign	-11.2626
▁canadian	-11.2626
▁catacombs	-11.2626
▁certificate	-11.2626
▁companies	-11.2626
▁corporation	-11.2626
▁cricket	-11.2626
▁crucifix	-11.2626
▁davrow	-11.2626
▁destruction	-11.2626
▁devotion	-11.2626
▁disguise	-11.2626
▁disobey	-11.2626
▁eamons	-11.2626
▁easily	-11.2626
▁eduardo	-11.2626
▁emoji	-11.2626
▁encouraging	-11.2626
▁enthusiasm	-11.2626
▁exotic	-11.2626
▁extinct	-11.2626
▁figaro	-11.2626
▁flaherty	-11.2626
▁fokkin	-11.2626
▁forbidden	-11.2626
▁forfeit	-11.2626
▁freud	-11.2626
▁fulfill	-11.2626
▁galaxy	-11.2626
▁harvest	-11.2626
▁honeymoon	-11.2626
▁hulka	-11.2626
▁identification	-11.2626
▁jeffrey	-11.2626
▁jersey	-11.2626
▁johannesburg	-11.2626
▁jurisdiction	-11.2626
▁kaganovich	-11.2626
▁kelevra	-11.2626
▁lloyd	-11.2626
▁louisiana	-11.2626
▁medieval	-11.2626
▁militia	-11.2626
▁monastery	-11.2626
▁mongrel	-11.2626
▁necessarily	-11.2626
▁negro	-11.2626
▁obrien	-11.2626
▁offlimits	-11.2626
▁oogie	-11.2626
▁outcome	-11.2626
▁outstanding	-11.2626
▁penguin	-11.2626
▁pingpong	-11.2626
▁plague	-11.2626
▁plaza	-11.2626
▁prettier	-11.2626
▁razor	-11.2626
▁releasing	-11.2626
▁ruched	-11.2626
▁samurai	-11.2626
▁sanatorium	-11.2626
▁scylla	-11.2626
▁shareholders	-11.2626
▁slovnik	-11.2626
▁soccer	-11.2626
▁sophisticated	-11.2626
▁souvenir	-11.2626
▁sync	-11.2626
▁tanaka	-11.2626
▁teardrop	-11.2626
▁tehronne	-11.2626
▁throne	-11.2626
▁throughout	-11.2626
▁tolar	-11.2626
▁tunnel	-11.2626
▁vacuum	-11.2626
▁valentine	-11.2626
▁vermin	-11.2626
▁violin	-11.2626
▁voorhees	-11.2626
▁whereabouts	-11.2626
▁wrestling	-11.2626
▁babsie	-11.2626
▁nearchus	-11.2626
▁noshow	-11.2626
▁spicy	-11.2626
▁succeed	-11.2626
▁tennis	-11.2626
▁thorough	-11.2626
▁bigalow	-11.2626
▁economy	-11.2626
▁nevertheless	-11.2626
▁unfair	-11.2626
▁maniac	-11.2626
▁afghanistan	-11.2626
▁clutch	-11.2626
▁doyle	-11.2626
▁jungle	-11.2626
▁psychological	-11.2626
▁stabbing	-11.2626
▁impotent	-11.2626
▁revelation	-11.2626
▁vicente	-11.2626
▁gooks	-11.2626
▁happiness	-11.2626
▁lomax	-11.2626
▁mortgage	-11.2626
▁disrupt	-11.2626
▁graphic	-11.2626
▁laptop	-11.2626
▁evasion	-11.2626
▁jelly	-11.2626
▁salvation	-11.2626
▁yves	-11.2626
▁column	-11.2626
▁excitement	-11.2626
▁morris	-11.2626
▁muslim	-11.2626
▁studied	-11.2626
▁volmer	-11.2626
▁africanamerican	-11.2626
▁marilia	-11.2626
▁ashley	-11.2626
▁divert	-11.2626
▁donor	-11.2626
▁joshua	-11.2626
▁grip	-11.2626
▁intimate	-11.2626
▁chiago	-11.2626
▁notify	-11.2626
▁dizzy	-11.2626
▁fireworks	-11.2626
▁anyhow	-11.2626
▁bluff	-11.2626
▁corpsmen	-11.2626
▁kelly	-11.2626
▁undercover	-11.2626
▁pajamas	-11.2626
▁invasion	-11.2626
▁dublin	-11.2626
▁wren	-11.2626
iterate	-11.2626
▁koz	-11.2626
▁previous	-11.2626
▁relocate	-11.2626
▁hexa	-11.2626
▁thatthat	-11.2626
▁exorcism	-11.2626
▁festival	-11.2626
▁tolerate	-11.2626
▁context	-11.2626
▁lyle	-11.2626
▁auction	-11.2626
▁pussay	-11.2626
▁unsolv	-11.2626
▁bookstore	-11.2626
oven	-11.2626
▁passionate	-11.2626
▁designated	-11.2626
▁display	-11.2626
▁remarkable	-11.2626
▁beacon	-11.2626
▁colour	-11.2626
▁nosy	-11.2626
▁assistance	-11.2626
▁cartoonist	-11.2626
chever	-11.2626
▁dialogue	-11.2626
▁kidnapper	-11.2626
▁inquiries	-11.2626
▁salary	-11.2626
▁itit	-11.2626
▁diversion	-11.2626
▁elaine	-11.2627
▁georgie	-11.2627
bbet	-11.2627
▁allergic	-11.2627
▁spaz	-11.2627
▁prepped	-11.2627
▁lousy	-11.2627
▁digging	-11.2627
▁wong	-11.2627
▁sinned	-11.2627
▁pirate	-11.2627
▁edition	-11.2627
▁audition	-11.2627
▁dripping	-11.2627
▁woof	-11.2627
▁crackles	-11.2627
▁inhaler	-11.2627
▁ledger	-11.2627
▁objective	-11.2627
▁saddle	-11.2627
▁journalist	-11.2627
▁scum	-11.2627
▁chew	-11.2627
▁involvement	-11.2627
▁fide	-11.2627
▁spinning	-11.2627
▁margin	-11.2627
▁spoon	-11.2628
▁lupe	-11.2628
▁piggy	-11.2628
▁pasa	-11.2628
▁minus	-11.2628
▁hotshot	-11.2628
▁resistance	-11.2628
▁courtroom	-11.2628
▁altar	-11.2628
▁horseshit	-11.2628
▁console	-11.2628
▁sunlight	-11.2628
▁douche	-11.2628
▁patience	-11.2628
▁discretion	-11.2628
▁admitted	-11.2628
▁concept	-11.2628
▁beginner	-11.2628
▁illusion	-11.2628
▁enola	-11.2628
▁montana	-11.2628
▁molina	-11.2628
▁render	-11.2629
▁martial	-11.2629
▁ferry	-11.2629
▁pussies	-11.2629
▁frustrated	-11.2629
▁eu	-11.2629
▁jewish	-11.2629
▁layton	-11.2629
▁alike	-11.2629
▁nina	-11.2629
▁chow	-11.2629
▁stephanie	-11.2629
▁peek	-11.2629
▁development	-11.2629
▁baptist	-11.2629
▁conductor	-11.263
▁arguing	-11.263
▁urge	-11.263
▁destiny	-11.263
▁elsewhere	-11.263
▁peach	-11.263
rel	-11.263
▁whoaoh	-11.263
▁concluded	-11.2631
▁vomit	-11.2631
▁hinda	-11.2631
▁fourteen	-11.2631
▁producer	-11.2631
▁loyal	-11.2632
uce	-11.2632
▁sweep	-11.2632
▁valuable	-11.2632
▁guardian	-11.2632
▁demonstrate	-11.2632
▁kessi	-11.2632
▁butcher	-11.2633
▁recommendation	-11.2633
▁countryside	-11.2633
▁joanie	-11.2633
▁vicious	-11.2633
▁baptized	-11.2634
▁hedge	-11.2634
▁ox	-11.2634
▁ohhh	-11.2634
▁facebook	-11.2634
▁cellar	-11.2634
▁bambi	-11.2634
▁crooked	-11.2634
▁faithful	-11.2634
▁lenny	-11.2635
▁foul	-11.2635
▁howling	-11.2635
▁policemen	-11.2635
▁tolling	-11.2636
▁distracting	-11.2636
▁frightening	-11.2636
▁sanderson	-11.2636
▁quitting	-11.2637
▁tech	-11.2637
▁jv	-11.2637
▁exposed	-11.2637
▁enh	-11.2638
▁inner	-11.2638
▁centre	-11.2639
▁lifestyle	-11.2639
▁hank	-11.2639
▁conquered	-11.264
▁fries	-11.264
▁inverted	-11.264
▁benton	-11.264
▁felony	-11.264
▁capture	-11.264
▁flown	-11.264
▁mold	-11.264
▁blend	-11.2641
▁gambler	-11.2641
▁tur	-11.2641
▁losses	-11.2641
▁via	-11.2641
▁gray	-11.2642
▁apo	-11.2642
▁winger	-11.2642
▁tighten	-11.2643
▁but	-11.2643
▁drool	-11.2643
▁preacher	-11.2644
▁spooked	-11.2645
▁whacked	-11.2645
▁disturbed	-11.2645
▁tranquili	-11.2645
▁refer	-11.2646
▁mcca	-11.2651
▁reform	-11.2653
▁grove	-11.2653
▁backache	-11.2653
▁manchester	-11.2654
▁ticking	-11.2654
▁dash	-11.2655
▁proven	-11.2655
▁publishing	-11.2655
▁cabin	-11.2656
▁corps	-11.2656
▁katy	-11.2658
▁protest	-11.266
▁matte	-11.2661
▁poured	-11.2661
▁cheaper	-11.2661
jangle	-11.2661
▁momma	-11.2662
▁oro	-11.2663
▁friendship	-11.2663
▁humping	-11.2664
▁described	-11.2665
▁choke	-11.2666
▁townie	-11.2666
▁avie	-11.2666
▁replaced	-11.2666
▁eyeballs	-11.2666
▁nuns	-11.2667
▁skitters	-11.2667
▁hut	-11.2667
▁scoot	-11.2669
▁homeboy	-11.267
more	-11.2671
▁fastest	-11.2671
▁haunted	-11.2672
▁bund	-11.2675
▁volk	-11.2675
▁foundation	-11.2677
hhh	-11.2678
alyo	-11.2679
▁stamped	-11.268
▁delayed	-11.2683
▁granted	-11.2683
su	-11.2685
▁standup	-11.2685
▁recommended	-11.2688
▁intercept	-11.2691
▁biscuits	-11.2693
▁hostages	-11.2693
▁jingles	-11.2693
▁ob	-11.2694
▁boobs	-11.2694
▁pale	-11.2697
▁recognized	-11.2699
▁skiing	-11.27
▁charming	-11.2701
▁ricky	-11.2704
▁severed	-11.2704
▁dod	-11.2705
▁weakly	-11.2706
▁ce	-11.2709
▁kisses	-11.2709
▁locker	-11.271
▁dios	-11.2712
▁atm	-11.2715
▁recon	-11.2715
▁dialing	-11.2715
▁convo	-11.2715
▁warmer	-11.2717
▁painted	-11.2718
▁wei	-11.2719
▁ciao	-11.272
▁puzzles	-11.272
▁decades	-11.272
▁elders	-11.272
▁der	-11.2721
▁kneel	-11.2722
rum	-11.2723
▁ore	-11.2723
▁preserve	-11.2726
▁swallowed	-11.2726
▁pumped	-11.2728
▁needle	-11.2729
▁crackers	-11.2732
▁bare	-11.2733
▁legally	-11.2735
▁smashed	-11.2738
▁endless	-11.2743
▁rumors	-11.2747
▁tricked	-11.275
▁freaky	-11.2751
letter	-11.276
▁painter	-11.2769
▁talented	-11.277
ned	-11.2771
sel	-11.2773
▁lucs	-11.2774
▁teenagers	-11.2774
▁hisse	-11.2776
▁rear	-11.2776
▁tasted	-11.278
▁cu	-11.2783
▁passion	-11.2786
▁rated	-11.2787
▁ants	-11.2787
▁frankly	-11.2791
▁honesty	-11.2791
▁seeking	-11.2792
▁trac	-11.2797
▁blamed	-11.2801
▁raining	-11.2803
▁touring	-11.2808
eenie	-11.2813
ory	-11.2815
▁associate	-11.2819
▁spreading	-11.2823
▁worms	-11.2826
▁methods	-11.2827
▁awards	-11.2828
▁visitors	-11.283
▁rushing	-11.2834
▁sor	-11.2847
ium	-11.2847
tors	-11.2849
val	-11.285
▁chambers	-11.2854
▁tshirts	-11.2854
▁colored	-11.286
▁traveling	-11.286
▁snapp	-11.2862
▁wars	-11.2869
▁organs	-11.287
▁channels	-11.2881
▁muscles	-11.2881
▁plots	-11.2881
▁volunteers	-11.2882
▁weirdo	-11.2882
▁louie	-11.2894
▁scheme	-11.2899
▁hides	-11.29
▁crashing	-11.2902
▁tattoos	-11.2909
▁comments	-11.2909
▁kin	-11.291
▁ami	-11.2919
▁capp	-11.2928
▁lang	-11.2931
▁fare	-11.2936
▁marrying	-11.2938
▁fu	-11.295
▁lodge	-11.2954
▁smelled	-11.2956
▁monkeys	-11.2963
▁effects	-11.2963
▁ju	-11.2969
▁fights	-11.297
ze	-11.2972
▁generat	-11.2972
▁springs	-11.299
▁efforts	-11.2991
▁rats	-11.2997
▁frankie	-11.2998
▁makeup	-11.3007
▁dictate	-11.3018
▁tuesdays	-11.3018
▁demands	-11.302
di	-11.3032
▁permitt	-11.3035
▁blows	-11.3042
lez	-11.3042
▁waves	-11.3045
▁stra	-11.3045
▁damages	-11.3046
▁tunes	-11.305
closure	-11.3051
ap	-11.3052
zer	-11.306
▁coats	-11.3072
ending	-11.3075
▁fet	-11.3081
▁rattle	-11.3102
▁waitin	-11.3119
▁figures	-11.3119
▁nurses	-11.3129
trina	-11.313
▁magical	-11.3143
▁dang	-11.3148
▁explaining	-11.3148
▁static	-11.3149
▁runners	-11.3156
ladi	-11.3156
▁steaks	-11.3158
▁degrad	-11.316
▁cousins	-11.3184
▁doj	-11.3184
▁sto	-11.3184
▁locations	-11.3186
▁gra	-11.3186
rl	-11.319
▁hesitate	-11.3193
▁earl	-11.3195
▁beta	-11.3207
▁bombings	-11.3212
▁there	-11.3214
▁ven	-11.3218
▁characters	-11.3226
▁diseases	-11.3239
shi	-11.3245
▁murderers	-11.325
▁hills	-11.3258
mans	-11.3263
▁niggers	-11.3267
▁seasons	-11.3268
ionist	-11.327
doggy	-11.329
▁ra	-11.3292
▁bums	-11.3303
most	-11.3314
▁nate	-11.3317
▁bol	-11.3323
oke	-11.3331
▁mouthing	-11.3342
▁races	-11.3346
▁childs	-11.3346
▁amounts	-11.3351
▁rec	-11.3355
▁shitless	-11.3365
▁feeds	-11.3373
▁leaders	-11.338
▁wel	-11.3391
yl	-11.3394
sis	-11.3394
rous	-11.3399
ons	-11.3399
our	-11.3403
oulder	-11.3407
▁regulars	-11.3408
▁checks	-11.3424
▁rogers	-11.3437
owl	-11.3458
gon	-11.3458
▁meth	-11.3461
▁scores	-11.3464
▁han	-11.3466
▁asks	-11.3466
▁pan	-11.3472
▁grabb	-11.3484
▁deceive	-11.3491
▁relationships	-11.3493
▁whipp	-11.3502
▁limo	-11.3506
▁ban	-11.3514
▁listened	-11.3528
was	-11.3545
▁deadly	-11.3551
▁bases	-11.3581
ong	-11.3597
res	-11.3624
▁locals	-11.3635
▁ant	-11.3642
▁travell	-11.3663
▁wishing	-11.3664
ston	-11.3665
mhm	-11.3674
▁kindly	-11.3688
▁allies	-11.3696
sell	-11.3707
cho	-11.3713
ight	-11.3733
▁bites	-11.3734
▁fin	-11.3737
▁numbered	-11.375
▁blacked	-11.3764
▁willy	-11.3783
hi	-11.38
▁bount	-11.3826
▁andr	-11.383
▁stuffed	-11.383
amin	-11.3835
ress	-11.3847
he	-11.3856
▁typ	-11.3856
▁prop	-11.3869
▁bra	-11.3872
▁pd	-11.3893
ello	-11.3928
ms	-11.3941
orium	-11.3962
▁chairs	-11.3963
so	-11.3977
ara	-11.3982
misunderstanding	-11.3982
ast	-11.3983
▁yan	-11.4013
▁at	-11.4014
▁curl	-11.4026
▁frat	-11.4029
ck	-11.4035
▁yi	-11.4037
▁disco	-11.4043
lon	-11.4062
serving	-11.4071
zy	-11.4072
▁compare	-11.4074
aming	-11.4076
illa	-11.4084
▁rac	-11.4088
▁iii	-11.4091
▁yar	-11.4097
▁sings	-11.41
nag	-11.4104
▁ale	-11.4142
▁hem	-11.4145
▁handing	-11.4152
rk	-11.416
▁marriages	-11.4193
aring	-11.4194
tra	-11.4197
tin	-11.4199
ig	-11.4203
▁stif	-11.4204
▁governments	-11.4253
ason	-11.4261
▁serv	-11.4284
▁defer	-11.4299
ang	-11.43
▁colo	-11.4309
▁har	-11.4314
ez	-11.4329
ring	-11.4334
▁gram	-11.4341
▁marys	-11.4342
▁transmit	-11.4344
call	-11.4345
over	-11.4346
▁swat	-11.4359
▁prob	-11.4373
▁bun	-11.4373
parable	-11.4389
jays	-11.4391
valent	-11.4391
ator	-11.4402
nce	-11.4408
▁troubles	-11.4415
five	-11.4416
▁cl	-11.4423
▁champ	-11.4443
▁bid	-11.4447
izz	-11.4449
▁lobster	-11.445
▁obligation	-11.445
▁curtain	-11.445
▁valentina	-11.445
▁scumbag	-11.445
▁kraus	-11.445
▁instructor	-11.445
▁rpg	-11.4451
▁heap	-11.4451
▁fluid	-11.4452
▁attendant	-11.4452
▁crow	-11.4457
▁bribe	-11.4459
▁dune	-11.446
▁include	-11.4461
▁fitting	-11.4462
zman	-11.4462
▁eagle	-11.4463
▁cole	-11.4465
▁casino	-11.4467
▁precinct	-11.4467
▁temperature	-11.4467
▁bracelet	-11.4467
▁butthole	-11.4468
ledge	-11.4469
▁angle	-11.447
▁appearance	-11.4473
▁investigator	-11.4474
▁essay	-11.4474
bs	-11.4474
▁vital	-11.4474
▁dumpling	-11.4477
▁pigeon	-11.4478
▁yank	-11.448
▁pros	-11.4482
▁element	-11.4483
tro	-11.4483
▁rumor	-11.4483
▁cayman	-11.4484
▁newspaper	-11.4484
▁spike	-11.4485
▁tee	-11.4486
▁republican	-11.4486
any	-11.4486
▁coco	-11.4487
▁sob	-11.4487
▁anybodys	-11.4488
ography	-11.4489
▁jew	-11.4489
▁shield	-11.4491
▁girlfriends	-11.4496
▁limb	-11.4496
▁resident	-11.4513
▁musician	-11.4514
▁flee	-11.4522
ffy	-11.4525
rin	-11.453
▁asset	-11.4532
▁sal	-11.4532
▁min	-11.4538
▁why	-11.4542
▁publish	-11.4549
▁sarahs	-11.4556
▁immortal	-11.4559
▁manag	-11.456
▁conti	-11.4564
ification	-11.4569
br	-11.4574
▁sche	-11.4576
▁mourn	-11.4586
▁stalk	-11.4588
▁establish	-11.4591
▁wail	-11.4593
▁punish	-11.4593
▁detect	-11.4594
▁lame	-11.4598
phone	-11.4598
tub	-11.4601
qualified	-11.4601
related	-11.4601
life	-11.4602
mission	-11.4604
slaughter	-11.4604
two	-11.4604
▁spill	-11.4604
broad	-11.4604
hair	-11.4604
▁squ	-11.4604
finished	-11.4605
school	-11.4605
seven	-11.4605
▁wage	-11.4606
job	-11.4607
corn	-11.4607
string	-11.4607
▁achieve	-11.4607
▁promote	-11.461
cast	-11.461
▁compromise	-11.461
▁confuse	-11.461
▁conscious	-11.461
▁robber	-11.461
▁graduate	-11.4611
▁jaffe	-11.4611
▁jerem	-11.4611
inlaw	-11.4611
▁observe	-11.4611
▁execute	-11.4612
▁thirst	-11.4612
▁constant	-11.4613
▁govern	-11.4615
▁paranoia	-11.4616
▁georgia	-11.4617
▁claus	-11.4618
▁initiate	-11.4618
▁explode	-11.4619
▁inspect	-11.4619
▁peg	-11.4621
▁confront	-11.4621
iness	-11.4622
▁brandi	-11.4622
▁modest	-11.4623
▁agh	-11.4623
igan	-11.4624
yearold	-11.4624
▁thirteen	-11.4625
▁drama	-11.4625
▁sher	-11.4625
▁chronic	-11.4625
▁babysit	-11.4626
▁shaki	-11.4626
▁abducted	-11.4626
▁academy	-11.4626
▁accommodate	-11.4626
▁affirmative	-11.4626
▁alyosha	-11.4626
▁ancient	-11.4626
▁anxiety	-11.4626
▁applied	-11.4626
▁arbitration	-11.4626
▁asprey	-11.4626
▁barnicke	-11.4626
▁battalion	-11.4626
▁bellasarious	-11.4626
▁bhai	-11.4626
▁bikini	-11.4626
▁blanston	-11.4626
▁brokaw	-11.4626
▁bulganin	-11.4626
▁cathedral	-11.4626
▁celebrities	-11.4626
▁choosing	-11.4626
▁combination	-11.4626
▁compartment	-11.4626
▁conclusion	-11.4626
▁congratulate	-11.4626
▁contradict	-11.4626
▁coventry	-11.4626
▁curfew	-11.4626
▁curtis	-11.4626
▁damascus	-11.4626
▁december	-11.4626
▁dehaven	-11.4626
▁depot	-11.4626
▁despair	-11.4626
▁dignity	-11.4626
▁donate	-11.4626
▁elegant	-11.4626
▁endtoend	-11.4626
▁equation	-11.4626
▁essential	-11.4626
▁eurydice	-11.4626
▁excellence	-11.4626
▁exhusband	-11.4626
▁exterminator	-11.4626
▁extraordinary	-11.4626
▁february	-11.4626
▁florist	-11.4626
▁forrest	-11.4626
▁galilee	-11.4626
▁gretchen	-11.4626
▁hallelujah	-11.4626
▁handcuff	-11.4626
▁hashtag	-11.4626
▁hollow	-11.4626
▁humungus	-11.4626
▁hydraulic	-11.4626
▁increasing	-11.4626
▁innocence	-11.4626
▁inspiring	-11.4626
▁institute	-11.4626
▁integrity	-11.4626
▁interrogate	-11.4626
▁isolation	-11.4626
▁istanbul	-11.4626
▁jeopardy	-11.4626
▁katerina	-11.4626
▁kehoe	-11.4626
▁kettle	-11.4626
▁knicks	-11.4626
▁kriticos	-11.4626
▁lavrenti	-11.4626
▁loneliness	-11.4626
▁martha	-11.4626
▁martinelli	-11.4626
▁mchales	-11.4626
▁mckenna	-11.4626
▁miriam	-11.4626
▁misunderstood	-11.4626
▁morgue	-11.4626
▁murdock	-11.4626
▁museum	-11.4626
▁negotiating	-11.4626
▁neighing	-11.4626
▁nikki	-11.4626
▁oklahoma	-11.4626
▁orlando	-11.4626
▁outpost	-11.4626
▁patroclus	-11.4626
▁pausanias	-11.4626
▁pavitt	-11.4626
▁pharmacy	-11.4626
▁pistachio	-11.4626
▁platter	-11.4626
▁poverty	-11.4626
▁prague	-11.4626
▁precaution	-11.4626
▁preparation	-11.4626
▁prometheus	-11.4626
▁prototype	-11.4626
▁psychic	-11.4626
▁ptolemy	-11.4626
▁purple	-11.4626
▁rahman	-11.4626
▁reckless	-11.4626
▁recognition	-11.4626
▁rehabilitat	-11.4626
▁revue	-11.4626
▁rutherford	-11.4626
▁schanberg	-11.4626
▁seifert	-11.4626
▁seminar	-11.4626
▁sensible	-11.4626
▁sfpd	-11.4626
▁shapiro	-11.4626
▁sheila	-11.4626
▁shimotomo	-11.4626
▁shrapnel	-11.4626
▁shrieking	-11.4626
▁shrieks	-11.4626
▁shura	-11.4626
▁siege	-11.4626
▁sinclair	-11.4626
▁squash	-11.4626
▁struggling	-11.4626
▁substance	-11.4626
▁suspended	-11.4626
▁thailand	-11.4626
▁thurman	-11.4626
▁tomasino	-11.4626
▁unexpected	-11.4626
▁utilidor	-11.4626
▁vienna	-11.4626
▁vitamins	-11.4626
▁voltaire	-11.4626
▁walkietalkie	-11.4626
▁whatsoever	-11.4626
▁wolves	-11.4626
▁yelps	-11.4626
▁zancona	-11.4626
▁zealot	-11.4626
▁audio	-11.4626
▁bagoas	-11.4626
▁blackmail	-11.4626
▁butterfly	-11.4626
▁canyon	-11.4626
▁communism	-11.4626
▁drumming	-11.4626
▁earrings	-11.4626
▁fumble	-11.4626
▁harmony	-11.4626
▁machete	-11.4626
▁napoleon	-11.4626
▁permanent	-11.4626
▁repuls	-11.4626
▁sanitarium	-11.4626
▁schlomo	-11.4626
▁spectacular	-11.4626
▁spider	-11.4626
▁stubborn	-11.4626
▁alexei	-11.4626
▁glide	-11.4626
▁gossip	-11.4626
▁mandatory	-11.4626
▁nosebleed	-11.4626
▁snitch	-11.4626
▁annoyed	-11.4626
▁eustice	-11.4626
▁rubbish	-11.4626
▁sketch	-11.4626
▁acquire	-11.4626
▁islam	-11.4626
▁brandnew	-11.4626
▁defy	-11.4626
▁levenstein	-11.4626
▁limpdick	-11.4626
▁narlow	-11.4626
▁refusing	-11.4626
▁regain	-11.4626
▁wrights	-11.4626
▁bueno	-11.4626
▁swept	-11.4626
▁aero	-11.4626
▁cinema	-11.4626
▁genuine	-11.4626
▁kinky	-11.4626
▁nanex	-11.4626
▁swamp	-11.4626
▁troubling	-11.4626
▁brockovich	-11.4626
▁exaggerating	-11.4626
▁urgh	-11.4626
▁lyons	-11.4626
▁sheik	-11.4626
▁utter	-11.4626
▁bleating	-11.4626
▁chapel	-11.4626
▁glorious	-11.4626
▁oldtimer	-11.4626
▁phalanx	-11.4626
▁gallery	-11.4626
▁insight	-11.4626
▁mutt	-11.4626
▁necklace	-11.4626
▁smack	-11.4626
▁gibson	-11.4626
▁transgene	-11.4626
▁theft	-11.4626
▁variety	-11.4626
▁accurate	-11.4626
▁altogether	-11.4626
▁snoop	-11.4626
▁sorrow	-11.4626
▁bendini	-11.4626
▁stockholm	-11.4626
▁courier	-11.4626
▁darwin	-11.4626
▁depart	-11.4626
▁erotic	-11.4626
▁psychology	-11.4626
▁tsk	-11.4626
▁intact	-11.4626
▁stump	-11.4626
▁fracture	-11.4626
▁northwestern	-11.4626
▁strangle	-11.4626
▁katrina	-11.4626
▁antonio	-11.4626
▁dalton	-11.4626
▁dipshit	-11.4626
▁entrance	-11.4626
termination	-11.4626
▁depression	-11.4626
inski	-11.4626
▁comiccon	-11.4626
▁marianne	-11.4626
▁overlook	-11.4626
▁bugged	-11.4626
▁nibs	-11.4626
▁leatherwood	-11.4626
▁pushups	-11.4626
▁radar	-11.4626
▁ifyou	-11.4626
▁smurfette	-11.4626
▁causing	-11.4626
▁verde	-11.4626
▁selected	-11.4626
▁vende	-11.4626
▁clang	-11.4626
▁whew	-11.4626
▁wits	-11.4626
▁buffet	-11.4626
▁concentration	-11.4626
▁sidelines	-11.4626
▁cruel	-11.4626
▁gregory	-11.4626
▁nadya	-11.4626
▁biologist	-11.4626
▁doomed	-11.4626
▁joliet	-11.4626
▁complication	-11.4626
▁altitude	-11.4626
▁creation	-11.4626
▁injury	-11.4626
▁grasp	-11.4626
▁pike	-11.4626
▁hernia	-11.4626
▁hodges	-11.4626
▁hobbies	-11.4626
▁psst	-11.4626
▁kinsa	-11.4626
gb	-11.4626
▁trading	-11.4626
▁argentina	-11.4626
▁klaus	-11.4626
▁shook	-11.4626
▁superstar	-11.4626
▁entries	-11.4626
▁singular	-11.4627
▁void	-11.4627
▁oak	-11.4627
▁proust	-11.4627
▁communication	-11.4627
▁davis	-11.4627
▁handicap	-11.4627
▁knickers	-11.4627
▁evacuation	-11.4627
▁jingling	-11.4627
▁youth	-11.4627
▁achievement	-11.4627
▁doodle	-11.4627
▁drugged	-11.4627
▁interpreter	-11.4627
▁isis	-11.4627
▁lightweight	-11.4627
▁reduction	-11.4627
▁accessory	-11.4627
▁lens	-11.4627
▁mariana	-11.4627
▁casa	-11.4627
▁lamont	-11.4627
▁criticize	-11.4627
▁joyce	-11.4627
▁chipper	-11.4627
▁elsa	-11.4627
▁walden	-11.4627
▁hunk	-11.4627
▁klan	-11.4627
▁shyne	-11.4627
▁approximately	-11.4627
▁barrett	-11.4627
▁innit	-11.4627
▁sept	-11.4627
▁porch	-11.4627
▁gastro	-11.4627
▁reproduc	-11.4628
▁controversy	-11.4628
▁deploy	-11.4628
▁flay	-11.4628
▁shek	-11.4628
▁heckle	-11.4628
▁stunt	-11.4628
▁beret	-11.4628
▁oj	-11.4628
▁popping	-11.4628
▁boundary	-11.4628
▁puff	-11.4628
▁binding	-11.4628
▁pipeline	-11.4628
▁buon	-11.4628
▁prize	-11.4628
▁chili	-11.4628
▁carniv	-11.4628
▁epic	-11.4628
▁potter	-11.4628
▁tyrant	-11.4628
▁excessive	-11.4628
▁distraction	-11.4628
▁establishment	-11.4628
▁tipped	-11.4628
▁ballroom	-11.4628
▁harbor	-11.4628
▁cancelled	-11.4628
▁bushel	-11.4628
fif	-11.4629
▁globe	-11.4629
▁strode	-11.4629
▁salon	-11.4629
▁election	-11.4629
▁april	-11.4629
▁gravity	-11.4629
▁ridden	-11.4629
▁scatter	-11.4629
▁spotlight	-11.4629
▁shipped	-11.4629
▁reset	-11.4629
▁sidewalk	-11.4629
▁association	-11.4629
▁beamers	-11.4629
▁mez	-11.4629
▁cept	-11.4629
▁wig	-11.4629
▁brendan	-11.4629
▁burnley	-11.4629
▁legend	-11.4629
▁overwhelmed	-11.463
▁terr	-11.463
▁maiden	-11.463
▁leverage	-11.463
▁duh	-11.463
▁panties	-11.463
▁overwhelming	-11.463
▁penance	-11.463
▁spru	-11.463
▁fingernail	-11.4631
▁lenses	-11.4631
▁tango	-11.4631
▁gabe	-11.4631
▁ridge	-11.4631
▁sittin	-11.4631
▁sundown	-11.4631
▁collective	-11.4631
▁harmful	-11.4631
▁wither	-11.4631
▁magician	-11.4631
▁naveed	-11.4631
▁probability	-11.4631
▁randy	-11.4631
▁homosexuality	-11.4631
▁fordon	-11.4632
▁quest	-11.4632
▁discharged	-11.4632
▁combined	-11.4632
▁spotted	-11.4632
▁percentage	-11.4633
▁allah	-11.4633
▁brotherhood	-11.4633
▁stem	-11.4633
▁kris	-11.4633
▁pending	-11.4633
▁allan	-11.4634
▁educate	-11.4634
▁melody	-11.4634
▁knob	-11.4634
ett	-11.4634
▁partnership	-11.4634
▁royce	-11.4634
▁sacramento	-11.4634
▁betrayal	-11.4634
▁dishes	-11.4635
▁crusader	-11.4635
▁erica	-11.4635
▁mason	-11.4635
▁tapped	-11.4635
▁chopped	-11.4635
▁studies	-11.4636
▁debate	-11.4636
▁analyze	-11.4636
▁tasty	-11.4636
▁gangster	-11.4636
▁mustang	-11.4636
▁devastated	-11.4636
▁decommissioned	-11.4636
▁stance	-11.4636
▁narrow	-11.4636
▁predictable	-11.4636
▁litter	-11.4636
▁hehe	-11.4636
heon	-11.4637
▁supportive	-11.4637
real	-11.4637
▁poet	-11.4638
▁breakdown	-11.4638
▁constantly	-11.4638
▁wiser	-11.4638
▁snorting	-11.4638
▁ninety	-11.4639
▁deeds	-11.4639
▁mere	-11.4639
▁leon	-11.4639
▁choreograph	-11.464
▁glow	-11.464
▁perry	-11.464
▁aye	-11.464
▁jaffey	-11.464
▁jeremy	-11.464
▁herr	-11.464
▁pervert	-11.4641
▁mich	-11.4642
ably	-11.4642
▁runaway	-11.4642
▁rice	-11.4643
▁jessen	-11.4643
▁vain	-11.4643
▁achieved	-11.4643
▁fod	-11.4643
▁avenge	-11.4644
▁verbal	-11.4644
▁consequences	-11.4644
▁sinners	-11.4644
▁videotapes	-11.4644
▁jacobs	-11.4644
▁merchants	-11.4644
stead	-11.4645
▁wu	-11.4645
▁pli	-11.4645
▁barf	-11.4646
minded	-11.4646
▁selfconscious	-11.4646
▁anal	-11.4646
▁oxy	-11.4647
▁initiated	-11.4647
▁shaved	-11.4647
▁roller	-11.4647
▁narrat	-11.4647
▁deadbeat	-11.4648
▁hippo	-11.4648
▁bona	-11.4648
▁mustard	-11.4648
▁bold	-11.4648
▁morale	-11.4649
▁resurrected	-11.4649
▁vest	-11.4649
▁overdo	-11.4649
▁annie	-11.465
▁upper	-11.465
▁crt	-11.4651
▁grandson	-11.4651
▁styler	-11.4652
▁coordinated	-11.4652
▁hamburger	-11.4653
▁slit	-11.4654
▁marco	-11.4654
▁disturbing	-11.4655
▁humanity	-11.4656
▁singin	-11.4657
▁desperately	-11.4657
▁successfully	-11.4657
▁toot	-11.4658
▁mayday	-11.4658
▁kay	-11.4659
▁increased	-11.4659
▁audible	-11.466
▁janet	-11.4663
▁briefed	-11.4663
▁regarded	-11.4663
▁strongest	-11.4666
▁printer	-11.4666
▁ignored	-11.4667
ries	-11.4668
aged	-11.4668
▁coal	-11.4668
▁avoided	-11.467
▁healed	-11.467
▁quitter	-11.467
▁clinking	-11.4671
▁clothing	-11.4671
▁stroll	-11.4671
▁squeaking	-11.4671
▁lane	-11.4671
▁depending	-11.4672
ana	-11.4673
style	-11.4673
▁expenses	-11.4676
▁moroltos	-11.4676
▁oysters	-11.4676
▁rapists	-11.4676
▁condoms	-11.4676
▁kia	-11.4677
▁investors	-11.4677
▁starve	-11.4677
▁offenders	-11.4678
▁healing	-11.4679
berg	-11.4681
▁jumpin	-11.4681
▁levy	-11.4682
▁retarded	-11.4683
▁hum	-11.4684
▁sweaty	-11.4686
▁forgiven	-11.4686
▁oughta	-11.4689
▁shifty	-11.4689
hubby	-11.469
▁approached	-11.469
▁reaches	-11.469
▁volunteered	-11.4691
▁acknowledged	-11.4692
▁mentally	-11.4693
upper	-11.4693
▁crawling	-11.4696
run	-11.4696
▁persons	-11.4697
▁advised	-11.4698
▁originally	-11.4699
▁hint	-11.47
▁locke	-11.4701
▁sniffling	-11.4702
▁receiver	-11.4702
▁slaughtered	-11.4703
▁ros	-11.4705
▁badass	-11.4705
▁guaranteed	-11.4706
▁echoing	-11.4708
vd	-11.4708
▁firecrackers	-11.4709
▁parrots	-11.4709
▁constitutional	-11.471
▁fainted	-11.471
▁dye	-11.4712
▁setup	-11.4712
▁wills	-11.4712
▁resisted	-11.4712
▁wiped	-11.4715
▁pitched	-11.4719
▁gathering	-11.4723
▁rash	-11.4727
ondo	-11.4728
▁licking	-11.4728
▁attempted	-11.473
▁gained	-11.473
▁fleet	-11.4731
▁cocky	-11.4735
▁aiming	-11.4737
▁herman	-11.4737
▁scrap	-11.4738
▁bur	-11.4738
▁grounds	-11.474
▁systems	-11.4741
ggage	-11.4741
▁snacks	-11.4743
▁episodes	-11.4743
▁lawsuits	-11.4743
▁truffles	-11.4743
▁veterans	-11.4743
▁endure	-11.4743
▁bumps	-11.4745
▁publishers	-11.4745
▁exceptions	-11.4749
▁hangin	-11.4749
▁wired	-11.475
▁hart	-11.475
▁pervers	-11.4755
teen	-11.4758
▁ranger	-11.4759
▁mandy	-11.4763
▁medically	-11.4765
▁printed	-11.4766
▁beans	-11.4767
▁touches	-11.4769
▁freezer	-11.477
ute	-11.4771
▁mode	-11.4771
▁shields	-11.4776
▁pigeons	-11.4776
▁includes	-11.4776
▁bribes	-11.4776
▁erase	-11.4776
▁suing	-11.4777
▁designer	-11.4777
▁sweating	-11.4778
▁tun	-11.478
▁pumping	-11.478
▁suffered	-11.4785
▁unload	-11.4785
▁disappearing	-11.4786
▁mute	-11.4789
lapping	-11.4789
▁assets	-11.479
▁pyr	-11.4799
▁remained	-11.4801
▁shortly	-11.4802
▁smiley	-11.4802
▁electro	-11.4803
▁keen	-11.4803
hes	-11.4804
▁concerning	-11.4805
▁items	-11.4809
▁kidneys	-11.4809
▁medals	-11.4809
▁patterns	-11.4809
▁institutions	-11.481
▁fades	-11.4813
iggy	-11.4813
ox	-11.4815
▁servers	-11.4816
winkle	-11.4816
▁actors	-11.482
▁beep	-11.482
▁claiming	-11.483
▁quicker	-11.4832
▁uncles	-11.4832
▁ranks	-11.4837
▁bumper	-11.484
▁goose	-11.4843
▁poems	-11.4843
▁beliefs	-11.4843
▁bodyguards	-11.4843
set	-11.4849
▁appoint	-11.485
▁lion	-11.4854
▁declar	-11.4855
▁texted	-11.4856
bility	-11.4864
▁ambivalen	-11.4867
▁screwing	-11.487
▁vers	-11.4873
▁lifted	-11.4874
▁habits	-11.4877
▁basics	-11.4877
▁shelly	-11.4881
▁corpses	-11.4883
▁halt	-11.4883
▁babys	-11.4884
▁yea	-11.4886
ak	-11.4889
▁demonstrat	-11.4897
▁reader	-11.4899
▁suited	-11.4903
▁shea	-11.4905
▁chan	-11.4905
▁suggesting	-11.4907
▁ponds	-11.4908
▁watches	-11.4913
▁friggin	-11.492
▁gar	-11.4922
than	-11.4922
▁corrected	-11.4929
▁cand	-11.4932
▁uhh	-11.4935
▁sheshe	-11.4939
▁askin	-11.4943
▁affairs	-11.4944
▁networks	-11.4944
▁scouts	-11.4944
▁weighs	-11.4945
▁bean	-11.495
▁makers	-11.4951
▁myths	-11.4954
ki	-11.4955
▁teller	-11.4959
▁blinded	-11.4961
▁arresting	-11.4966
▁tags	-11.4968
▁grades	-11.4969
▁vern	-11.4973
▁renting	-11.4978
▁wounds	-11.4979
game	-11.4979
▁fur	-11.498
▁tick	-11.4983
iel	-11.5004
▁wilkinsons	-11.5012
▁scars	-11.5015
▁rais	-11.5015
▁cel	-11.5018
▁stated	-11.5018
▁prot	-11.5042
uff	-11.5043
▁gam	-11.5048
▁carr	-11.5058
verge	-11.5075
▁fences	-11.5081
▁leagues	-11.5081
▁versions	-11.5081
fi	-11.5089
▁cowboys	-11.5115
▁butts	-11.5117
▁reaching	-11.5126
▁happie	-11.5134
ex	-11.5139
gen	-11.5146
▁cows	-11.5149
sap	-11.5154
sky	-11.5155
▁marker	-11.516
▁jugg	-11.5161
itation	-11.5177
▁nightmares	-11.5184
▁slips	-11.5187
▁pitt	-11.5202
▁workin	-11.5211
▁mes	-11.5218
▁christians	-11.5219
▁pipes	-11.5219
▁hips	-11.522
this	-11.5236
▁artists	-11.5253
▁chapters	-11.5254
▁jenn	-11.5271
active	-11.5291
▁gre	-11.5293
ique	-11.5294
ged	-11.53
▁ida	-11.5301
oil	-11.5305
▁scr	-11.5313
▁motors	-11.5321
▁manor	-11.5321
▁richards	-11.5323
▁connections	-11.5324
▁noises	-11.5325
▁statements	-11.5326
▁fellows	-11.5326
▁sites	-11.5327
▁revolve	-11.5333
ties	-11.5342
▁cher	-11.5346
▁fe	-11.5357
▁beasts	-11.5358
rate	-11.536
▁ali	-11.5364
▁hooks	-11.537
▁boarding	-11.5373
win	-11.5375
estate	-11.5376
▁me	-11.5392
▁islands	-11.5393
▁mirrors	-11.5393
ata	-11.5394
hold	-11.541
▁woo	-11.5416
cal	-11.5419
▁disse	-11.5426
▁borders	-11.5429
▁vacations	-11.5429
▁buttons	-11.5432
month	-11.5445
roll	-11.5452
done	-11.5455
▁tac	-11.5463
▁hoped	-11.5471
ement	-11.548
▁bodi	-11.5491
tte	-11.5492
mp	-11.5494
▁commands	-11.5497
▁routes	-11.5499
▁irre	-11.5502
mon	-11.5512
▁tw	-11.552
▁ration	-11.5528
▁rains	-11.5537
▁cha	-11.5564
wing	-11.5565
▁guitars	-11.557
▁values	-11.5572
erto	-11.5583
nfield	-11.5587
cu	-11.5596
▁moods	-11.5605
wi	-11.5617
oh	-11.5619
lk	-11.5628
▁spreads	-11.5642
▁dub	-11.5646
▁pots	-11.5646
▁powers	-11.566
lay	-11.5661
▁speculate	-11.5669
▁fo	-11.5689
graph	-11.5697
aste	-11.5699
ran	-11.5705
▁practices	-11.5716
▁bp	-11.5723
▁vice	-11.5733
▁av	-11.5735
▁ber	-11.5737
▁daw	-11.5763
▁questioning	-11.5769
resistant	-11.578
▁doubts	-11.5789
▁suggests	-11.5794
▁operations	-11.5821
cut	-11.5831
▁swi	-11.584
rity	-11.5841
nom	-11.5847
▁mort	-11.5852
▁crews	-11.5858
▁looky	-11.5867
human	-11.5867
tal	-11.5871
▁sou	-11.5882
▁gifts	-11.5895
▁lasted	-11.5895
▁easter	-11.5909
arious	-11.593
▁noses	-11.5932
▁escapes	-11.5934
▁tale	-11.5935
lt	-11.5939
▁hos	-11.5949
ene	-11.5979
▁pos	-11.5985
claim	-11.6001
ther	-11.6008
▁consume	-11.6012
▁ren	-11.6045
▁kero	-11.6045
anta	-11.605
▁dri	-11.6053
▁walker	-11.6057
▁foods	-11.6067
ual	-11.6069
▁clar	-11.6076
▁slic	-11.6082
eno	-11.6086
rig	-11.6091
▁ththe	-11.6096
▁pointed	-11.6097
▁trusting	-11.6117
▁construct	-11.6124
mont	-11.6125
eau	-11.6158
amber	-11.6179
wah	-11.6181
▁cod	-11.6182
ock	-11.6185
▁reporters	-11.6189
▁nicely	-11.6191
ggle	-11.6197
▁conf	-11.6232
mita	-11.6234
onic	-11.6245
ating	-11.6246
settling	-11.6247
▁deto	-11.6262
commend	-11.6276
ust	-11.628
▁mol	-11.6319
ain	-11.632
▁liberat	-11.6321
▁poo	-11.6333
▁caller	-11.6333
▁firms	-11.634
▁spe	-11.6352
▁projection	-11.6357
ros	-11.636
▁je	-11.6368
▁familys	-11.6382
▁ga	-11.6389
opher	-11.639
ility	-11.6399
nder	-11.6409
▁nob	-11.6412
sey	-11.6414
▁returns	-11.6421
▁bash	-11.6436
ric	-11.6452
▁throats	-11.6455
chi	-11.6478
▁pur	-11.6479
icky	-11.648
▁blaze	-11.6481
▁pic	-11.6485
▁amp	-11.6505
▁charg	-11.6513
tained	-11.6536
▁sau	-11.6538
ster	-11.6543
under	-11.6543
▁jumps	-11.6551
▁lowe	-11.6552
ventilating	-11.6586
izzl	-11.6592
yo	-11.6594
▁wil	-11.6599
▁ple	-11.6601
▁mates	-11.6605
▁patri	-11.6615
▁radi	-11.6631
mul	-11.6634
▁eth	-11.664
▁hip	-11.6643
▁sauc	-11.6649
ppy	-11.6658
▁exp	-11.6663
logue	-11.6678
▁stations	-11.6689
main	-11.6691
ena	-11.671
lid	-11.672
▁deca	-11.6726
tar	-11.673
ranged	-11.6747
▁buyer	-11.6756
▁inde	-11.6774
ition	-11.6793
fraction	-11.6801
▁unite	-11.6805
stitution	-11.6805
▁recreation	-11.6814
pano	-11.6816
▁invent	-11.6833
▁brig	-11.6846
▁nap	-11.6846
▁roman	-11.6847
nating	-11.6852
▁critic	-11.6857
zed	-11.6861
▁dates	-11.6873
▁departments	-11.688
▁exception	-11.6882
dext	-11.6884
▁bump	-11.689
bound	-11.6893
aking	-11.6894
hol	-11.6899
▁spo	-11.69
zo	-11.6914
▁differences	-11.6919
▁dam	-11.6919
▁flap	-11.6921
ddle	-11.6922
swa	-11.6925
nut	-11.693
walkin	-11.693
powered	-11.6931
▁lind	-11.6937
▁riv	-11.6945
▁encourage	-11.6949
▁editor	-11.695
▁athlete	-11.6951
▁centipede	-11.6951
▁cherubini	-11.6951
▁extension	-11.6951
▁historian	-11.6951
▁phillip	-11.6951
▁aisle	-11.6951
▁convention	-11.6952
▁tide	-11.6952
▁scent	-11.6953
▁circuit	-11.6954
▁sailor	-11.6956
▁dock	-11.6958
gage	-11.6959
▁scientist	-11.6959
ments	-11.6962
▁portal	-11.6964
▁undo	-11.6965
▁harlin	-11.6965
▁spark	-11.6966
▁bachelor	-11.6967
▁specimen	-11.6967
▁bio	-11.6968
oc	-11.6969
▁emotion	-11.6969
▁clown	-11.697
▁spots	-11.6971
▁forensic	-11.6974
▁defeo	-11.6974
▁elder	-11.6974
▁balloon	-11.6975
▁episode	-11.6978
▁truffle	-11.6978
▁veteran	-11.6978
▁lawsuit	-11.6978
▁snack	-11.6978
▁decade	-11.698
▁fag	-11.6981
▁puzzle	-11.6981
▁economic	-11.6982
tes	-11.6985
▁petes	-11.6985
▁giggle	-11.6985
▁euro	-11.6986
▁slot	-11.6987
marita	-11.6987
▁brake	-11.6989
▁gasp	-11.6989
▁accountant	-11.6989
▁publisher	-11.6989
american	-11.6994
▁logic	-11.7003
▁enforc	-11.7005
heim	-11.7005
▁ins	-11.7009
anian	-11.7015
▁tr	-11.7016
▁doorway	-11.7017
▁constitution	-11.7019
ore	-11.702
fuck	-11.7023
▁char	-11.7027
▁hab	-11.7032
tit	-11.7033
▁coin	-11.7033
ndo	-11.7044
▁arriv	-11.7046
ucking	-11.7049
▁foreigner	-11.705
probable	-11.7051
▁kee	-11.7056
▁graz	-11.7058
▁disturb	-11.7059
▁cracker	-11.706
play	-11.7062
▁threaten	-11.7064
▁coop	-11.7066
power	-11.7075
born	-11.7075
boat	-11.7077
▁rook	-11.7079
dad	-11.7082
▁renew	-11.7082
▁updat	-11.7082
▁descend	-11.7086
▁forc	-11.7087
▁motherfuck	-11.7088
▁applaud	-11.7091
▁murmur	-11.7091
luc	-11.7093
▁contacts	-11.7093
▁figur	-11.7093
retches	-11.7094
▁bod	-11.7095
▁consul	-11.7095
▁resurrect	-11.7096
▁sim	-11.7096
▁spook	-11.7096
▁adopt	-11.7097
▁reject	-11.7097
▁whack	-11.7098
safe	-11.7098
▁possess	-11.7099
coming	-11.7099
but	-11.71
▁steamin	-11.71
▁gamble	-11.7103
mobile	-11.7103
ache	-11.7103
▁companion	-11.7104
grateful	-11.7104
fare	-11.7104
print	-11.7104
sexual	-11.7104
screw	-11.7104
thousand	-11.7104
▁vanish	-11.7105
condition	-11.7105
▁hoo	-11.7105
common	-11.7105
space	-11.7105
minute	-11.7105
shoot	-11.7105
blood	-11.7105
ofthe	-11.7105
foot	-11.7105
fucker	-11.7105
▁poke	-11.7105
lasting	-11.7105
value	-11.7105
wise	-11.7106
▁puke	-11.7106
wrote	-11.7106
colored	-11.7106
bait	-11.7106
▁mech	-11.7106
lord	-11.7106
▁sparkle	-11.7107
▁arrange	-11.7108
coat	-11.7108
borne	-11.7109
▁expose	-11.7109
cake	-11.7109
▁dedicate	-11.7109
for	-11.7109
▁bootleg	-11.7109
▁lace	-11.7112
took	-11.7112
▁responsibilit	-11.7112
▁filth	-11.7113
▁continuous	-11.7113
▁fundamental	-11.7113
▁instant	-11.7113
▁precise	-11.7114
▁heavi	-11.7115
gum	-11.7115
hard	-11.7116
▁consist	-11.7117
▁clack	-11.7117
▁snip	-11.7117
▁whee	-11.7117
▁loot	-11.7117
fortunately	-11.712
▁origin	-11.7121
▁brenda	-11.7121
▁spank	-11.7122
▁aggravat	-11.7123
▁suppress	-11.7123
▁mercenar	-11.7123
hnikov	-11.7124
elching	-11.7124
▁darlin	-11.7124
▁fright	-11.7124
xico	-11.7125
meal	-11.7125
▁makin	-11.7125
▁cartoon	-11.7125
▁telepathic	-11.7125
ologist	-11.7125
airie	-11.7125
▁leaf	-11.7126
▁condo	-11.7126
▁multi	-11.7126
affle	-11.7126
▁conspir	-11.7126
▁independen	-11.7126
synchronize	-11.7126
▁aargh	-11.7126
▁abilities	-11.7126
▁accomplice	-11.7126
▁accordance	-11.7126
▁adderall	-11.7126
▁aggression	-11.7126
▁apologise	-11.7126
▁arigato	-11.7126
▁arrgh	-11.7126
▁ashtray	-11.7126
▁aspire	-11.7126
▁asthma	-11.7126
▁auriga	-11.7126
▁australia	-11.7126
▁baltimore	-11.7126
▁basileus	-11.7126
▁benedict	-11.7126
▁berziers	-11.7126
▁bizarre	-11.7126
▁bolitonov	-11.7126
▁boogie	-11.7126
▁buick	-11.7126
▁burglar	-11.7126
▁calculator	-11.7126
▁capacity	-11.7126
▁casoria	-11.7126
▁catherine	-11.7126
▁centimeters	-11.7126
▁challenging	-11.7126
▁chunk	-11.7126
▁cinnamon	-11.7126
▁cloister	-11.7126
▁confinement	-11.7126
▁consecutive	-11.7126
▁convenience	-11.7126
▁cottage	-11.7126
▁cradle	-11.7126
▁cymbal	-11.7126
▁dalavan	-11.7126
▁depth	-11.7126
▁disciple	-11.7126
▁distinguish	-11.7126
▁dukakis	-11.7126
▁dunleavy	-11.7126
▁dweeb	-11.7126
▁elaziz	-11.7126
▁engaging	-11.7126
▁engel	-11.7126
▁entrepreneur	-11.7126
▁eskimo	-11.7126
▁exmilitary	-11.7126
▁expired	-11.7126
▁exquisite	-11.7126
▁felipe	-11.7126
▁fierce	-11.7126
▁fishbowl	-11.7126
▁fitzpatrick	-11.7126
▁gaugamela	-11.7126
▁gilbert	-11.7126
▁glynnis	-11.7126
▁gradually	-11.7126
▁gravy	-11.7126
▁hayslip	-11.7126
▁hillbillies	-11.7126
▁hiphop	-11.7126
▁horizon	-11.7126
▁huckleberry	-11.7126
▁hypocrite	-11.7126
▁incarcerated	-11.7126
▁incorporated	-11.7126
▁ineffective	-11.7126
▁infant	-11.7126
▁insemination	-11.7126
▁inspiration	-11.7126
▁instagram	-11.7126
▁jackpot	-11.7126
▁jeopardize	-11.7126
▁jonathan	-11.7126
▁jorge	-11.7126
▁josef	-11.7126
▁juicy	-11.7126
▁juvenile	-11.7126
▁kennilworth	-11.7126
▁ledgard	-11.7126
▁legacy	-11.7126
▁literary	-11.7126
▁lizards	-11.7126
▁lnvestigation	-11.7126
▁lombardi	-11.7126
▁lunatic	-11.7126
▁madison	-11.7126
▁malaysia	-11.7126
▁marshmallow	-11.7126
▁marvellous	-11.7126
▁midwest	-11.7126
▁minimal	-11.7126
▁monsieur	-11.7126
▁monterey	-11.7126
▁moonfog	-11.7126
▁mugwump	-11.7126
▁mulholland	-11.7126
▁negotiation	-11.7126
▁nephew	-11.7126
▁nietzsche	-11.7126
▁nikita	-11.7126
▁noodle	-11.7126
▁ogre	-11.7126
▁omelet	-11.7126
▁outrageous	-11.7126
▁pagniacci	-11.7126
▁painkillers	-11.7126
▁pamela	-11.7126
▁phenomenon	-11.7126
▁phoenix	-11.7126
▁pilgrim	-11.7126
▁platform	-11.7126
▁pneumonia	-11.7126
▁politovsky	-11.7126
▁possibilities	-11.7126
▁producing	-11.7126
▁puttnam	-11.7126
▁qualifications	-11.7126
▁reassure	-11.7126
▁rehearsing	-11.7126
▁remanded	-11.7126
▁rendezvous	-11.7126
▁reschedule	-11.7126
▁resort	-11.7126
▁rockefeller	-11.7126
▁sanction	-11.7126
▁sarcasm	-11.7126
▁satchmo	-11.7126
▁saxophone	-11.7126
▁scallop	-11.7126
▁schmuck	-11.7126
▁scottsdale	-11.7126
▁seatbelt	-11.7126
▁secrecy	-11.7126
▁selfrighteous	-11.7126
▁semantics	-11.7126
▁sensitivity	-11.7126
▁sermon	-11.7126
▁shelby	-11.7126
▁shuddering	-11.7126
▁shudders	-11.7126
▁signature	-11.7126
▁solano	-11.7126
▁sophistication	-11.7126
▁sorceress	-11.7126
▁southeast	-11.7126
▁splutters	-11.7126
▁subpoena	-11.7126
▁subsequent	-11.7126
▁supernatura	-11.7126
▁sympathy	-11.7126
▁temporarily	-11.7126
▁thompson	-11.7126
▁toothbrush	-11.7126
▁toulette	-11.7126
▁transcript	-11.7126
▁tremendous	-11.7126
▁trombone	-11.7126
▁turbulence	-11.7126
▁umbrella	-11.7126
▁unreachable	-11.7126
▁vague	-11.7126
▁vericom	-11.7126
▁vertical	-11.7126
▁vintage	-11.7126
▁volcano	-11.7126
▁wannabe	-11.7126
▁watermelon	-11.7126
▁website	-11.7126
▁wertzner	-11.7126
▁whiplash	-11.7126
▁wilkes	-11.7126
▁wisconsin	-11.7126
▁yeehaw	-11.7126
▁zhenya	-11.7126
▁apollo	-11.7126
▁applies	-11.7126
▁cheesy	-11.7126
▁chloe	-11.7126
▁conceal	-11.7126
▁exhibit	-11.7126
▁feud	-11.7126
▁fingertips	-11.7126
▁forgave	-11.7126
▁katherine	-11.7126
▁liberal	-11.7126
▁licence	-11.7126
▁loaf	-11.7126
▁lubricat	-11.7126
▁narcissis	-11.7126
▁nuclear	-11.7126
▁oui	-11.7126
▁reunion	-11.7126
▁sperm	-11.7126
▁subversi	-11.7126
▁tweet	-11.7126
▁bandaid	-11.7126
▁disabled	-11.7126
▁dyke	-11.7126
▁embry	-11.7126
▁fiona	-11.7126
▁griffith	-11.7126
▁hancock	-11.7126
▁oversight	-11.7126
▁scandal	-11.7126
▁squirrel	-11.7126
▁democrat	-11.7126
▁relish	-11.7126
▁carpet	-11.7126
▁glorifie	-11.7126
▁hastings	-11.7126
▁jigsaw	-11.7126
▁luxur	-11.7126
▁penitentiar	-11.7126
▁realistic	-11.7126
▁scrawny	-11.7126
▁greedy	-11.7126
▁scrawl	-11.7126
▁stairwell	-11.7126
▁acquaint	-11.7126
▁calculate	-11.7126
▁cici	-11.7126
▁gollings	-11.7126
▁heterosexual	-11.7126
▁minivan	-11.7126
▁neighbourhood	-11.7126
▁treason	-11.7126
▁vulgar	-11.7126
▁arabia	-11.7126
▁breaststroke	-11.7126
▁creator	-11.7126
▁krass	-11.7126
▁sven	-11.7126
▁cannon	-11.7126
▁democracy	-11.7126
▁mammals	-11.7126
▁mercury	-11.7126
▁shaky	-11.7126
▁corporal	-11.7126
▁hardworking	-11.7126
▁hebitch	-11.7126
▁valor	-11.7126
▁persist	-11.7126
▁dispens	-11.7126
▁oxygen	-11.7126
▁purification	-11.7126
▁ails	-11.7126
▁derek	-11.7126
▁inhibitions	-11.7126
▁moderate	-11.7126
▁naomi	-11.7126
▁charade	-11.7126
▁introduction	-11.7126
▁stoked	-11.7126
▁horrid	-11.7126
▁bronze	-11.7126
▁snuffles	-11.7126
▁flank	-11.7126
▁stunn	-11.7126
▁morgen	-11.7126
▁torso	-11.7126
▁cabbie	-11.7126
▁absence	-11.7126
▁issa	-11.7126
▁quench	-11.7126
▁zapped	-11.7126
▁burke	-11.7126
▁casualties	-11.7126
▁gangbang	-11.7126
▁midterm	-11.7126
▁luong	-11.7126
▁anesthetic	-11.7126
▁install	-11.7126
▁majestic	-11.7126
▁confidential	-11.7126
▁evie	-11.7126
▁invoice	-11.7126
▁bugger	-11.7126
alcol	-11.7126
▁stool	-11.7126
▁notification	-11.7126
▁caddy	-11.7126
▁storage	-11.7126
▁synthetic	-11.7126
▁duties	-11.7126
▁pippa	-11.7126
▁malaria	-11.7126
▁slov	-11.7126
▁fortyeight	-11.7126
▁krystal	-11.7126
▁notified	-11.7126
▁obsession	-11.7126
▁imaging	-11.7126
▁frog	-11.7126
▁hootch	-11.7126
▁muham	-11.7126
▁hector	-11.7126
▁independence	-11.7126
▁infiltrat	-11.7126
▁pedal	-11.7126
▁vamos	-11.7126
▁voting	-11.7126
▁blaming	-11.7126
▁gail	-11.7126
▁brikowski	-11.7126
▁detachment	-11.7126
▁pillow	-11.7126
▁pinkberry	-11.7126
▁rafkin	-11.7126
▁woah	-11.7126
▁booboo	-11.7126
▁pulse	-11.7126
▁rotate	-11.7126
▁beneficial	-11.7126
logger	-11.7126
▁chapman	-11.7126
▁arena	-11.7126
▁lemonade	-11.7126
▁respirator	-11.7126
▁trois	-11.7126
▁rewrite	-11.7126
▁insert	-11.7126
▁ploy	-11.7126
▁scarlet	-11.7126
▁fordham	-11.7126
▁kilometer	-11.7126
▁breakthrough	-11.7126
▁twat	-11.7126
▁dawson	-11.7126
▁quadrant	-11.7126
▁expertise	-11.7126
▁ladder	-11.7126
▁strack	-11.7126
▁telex	-11.7126
▁civilization	-11.7126
▁nadia	-11.7126
▁martinez	-11.7126
▁identical	-11.7126
▁decadent	-11.7127
▁humble	-11.7127
▁racine	-11.7127
▁sensational	-11.7127
▁arrogance	-11.7127
▁dumpster	-11.7127
▁narcotic	-11.7127
▁graveyard	-11.7127
▁columbo	-11.7127
▁nipple	-11.7127
▁csi	-11.7127
▁waffle	-11.7127
▁supervis	-11.7127
▁congregation	-11.7127
▁referred	-11.7127
▁antigonus	-11.7127
▁pumpkin	-11.7127
▁plateau	-11.7127
▁doozy	-11.7127
▁southbound	-11.7127
▁tyler	-11.7127
▁electra	-11.7127
▁icu	-11.7127
zech	-11.7127
▁whwhat	-11.7127
▁cherita	-11.7127
▁mailbox	-11.7127
▁relic	-11.7127
▁shady	-11.7127
▁transition	-11.7127
▁unemployed	-11.7127
▁fragment	-11.7127
▁prius	-11.7127
▁sector	-11.7127
▁torah	-11.7127
▁buggs	-11.7127
▁repay	-11.7127
▁ultimate	-11.7127
▁pony	-11.7127
▁marshal	-11.7127
▁saturn	-11.7127
▁recess	-11.7127
▁consciousness	-11.7127
▁garlic	-11.7127
▁aqui	-11.7127
▁spoor	-11.7127
ternity	-11.7127
▁refrigerator	-11.7127
▁substitute	-11.7127
▁racket	-11.7127
▁lsat	-11.7128
▁cheerleader	-11.7128
▁proposition	-11.7128
▁horrific	-11.7128
▁boise	-11.7128
▁canary	-11.7128
▁dvd	-11.7128
▁inhuman	-11.7128
▁leah	-11.7128
▁slammed	-11.7128
▁courtney	-11.7128
▁preference	-11.7128
▁roaches	-11.7128
▁rico	-11.7128
▁annual	-11.7128
▁insta	-11.7128
▁penalty	-11.7128
▁spreadsheet	-11.7128
▁diane	-11.7128
▁cloudy	-11.7128
▁opel	-11.7128
▁wend	-11.7128
▁null	-11.7128
ntagon	-11.7128
▁titan	-11.7128
▁classroom	-11.7128
▁honklng	-11.7128
▁mercenaries	-11.7128
▁artery	-11.7128
▁stepdad	-11.7128
▁portis	-11.7128
▁curve	-11.7128
▁strap	-11.7129
▁intimidated	-11.7129
▁devote	-11.7129
▁semi	-11.7129
▁esp	-11.7129
▁elam	-11.7129
▁hamas	-11.7129
▁info	-11.7129
▁lowlife	-11.7129
▁leland	-11.7129
▁mvd	-11.7129
▁brung	-11.7129
▁corr	-11.7129
▁denny	-11.7129
bre	-11.7129
▁oat	-11.7129
▁standpoint	-11.7129
▁hawk	-11.7129
▁attraction	-11.7129
▁frantic	-11.7129
▁masturbate	-11.7129
▁waive	-11.7129
▁huit	-11.713
▁andahalf	-11.713
▁descent	-11.713
▁hummus	-11.713
▁kraut	-11.713
▁practicing	-11.713
▁ribbon	-11.713
▁hollis	-11.713
▁janette	-11.713
▁pepsi	-11.713
▁cement	-11.713
▁barrow	-11.713
▁jaded	-11.713
▁capitalist	-11.713
lres	-11.713
▁caliber	-11.713
▁suspension	-11.713
▁firewall	-11.713
▁titty	-11.713
▁whisk	-11.713
▁chatting	-11.713
▁daisy	-11.713
rdon	-11.713
▁spice	-11.713
▁biography	-11.713
▁thanksgiving	-11.713
▁puck	-11.7131
▁dull	-11.7131
▁merman	-11.7131
▁instructed	-11.7131
▁regardless	-11.7131
▁danke	-11.7131
▁quality	-11.7131
▁estimate	-11.7131
▁nooo	-11.7131
▁alba	-11.7131
▁cad	-11.7131
▁robbing	-11.7131
▁zoom	-11.7131
▁mugged	-11.7131
inch	-11.7131
▁mouse	-11.7131
▁tyre	-11.7132
▁spunk	-11.7132
▁smuggling	-11.7132
▁trembling	-11.7132
▁chiming	-11.7132
▁splash	-11.7132
▁polar	-11.7132
▁thread	-11.7132
▁tumbling	-11.7132
▁accompany	-11.7132
▁firefighter	-11.7132
ngul	-11.7132
▁undergo	-11.7133
berry	-11.7133
▁spain	-11.7133
▁viable	-11.7133
▁dandy	-11.7133
▁flier	-11.7133
▁marie	-11.7133
▁fashionable	-11.7133
▁regional	-11.7133
▁kip	-11.7133
▁halfhour	-11.7133
▁delusional	-11.7133
▁payroll	-11.7133
▁reconstruction	-11.7133
▁gps	-11.7134
ummies	-11.7134
▁splitting	-11.7134
▁cami	-11.7134
▁vol	-11.7134
▁accountability	-11.7134
▁bouncing	-11.7134
▁songwriter	-11.7134
▁penh	-11.7134
▁growth	-11.7134
▁dix	-11.7134
▁fame	-11.7134
▁cardio	-11.7135
▁sniper	-11.7135
▁potatoes	-11.7135
▁spaceship	-11.7135
nine	-11.7135
▁colle	-11.7135
▁collaborat	-11.7135
▁kiddie	-11.7136
▁truthfully	-11.7136
▁confrontation	-11.7136
▁groom	-11.7136
▁tec	-11.7136
▁monies	-11.7136
▁mtv	-11.7136
▁purgers	-11.7136
▁canal	-11.7136
▁concerto	-11.7137
▁dumbass	-11.7137
▁monte	-11.7137
▁carver	-11.7137
▁caen	-11.7137
▁seized	-11.7137
▁businessmen	-11.7137
▁sworn	-11.7138
▁weakness	-11.7138
▁georgian	-11.7138
▁fundamentally	-11.7138
▁pinned	-11.7138
▁brass	-11.7138
▁elderly	-11.7139
▁comon	-11.7139
▁optic	-11.7139
▁accomplished	-11.7139
▁overheated	-11.7139
▁milo	-11.7139
▁shortage	-11.7139
▁controller	-11.714
▁drone	-11.714
▁presentation	-11.714
▁majority	-11.714
▁drip	-11.714
▁alan	-11.714
▁caff	-11.7141
▁shuttle	-11.7141
▁reeds	-11.7141
▁bakery	-11.7141
▁web	-11.7141
▁compell	-11.7142
▁envelope	-11.7142
▁lecture	-11.7142
▁reai	-11.7142
▁taser	-11.7142
▁disma	-11.7142
▁pursuing	-11.7142
orno	-11.7142
▁disappointing	-11.7142
▁brightest	-11.7142
▁buzzer	-11.7143
▁induce	-11.7143
▁ballet	-11.7143
rrifying	-11.7143
▁vanity	-11.7143
▁silverman	-11.7144
▁attach	-11.7144
▁encouraged	-11.7144
▁poked	-11.7144
▁faa	-11.7144
▁erm	-11.7145
▁brighton	-11.7145
illo	-11.7146
▁sandwiches	-11.7146
▁passage	-11.7146
mones	-11.7146
▁panicked	-11.7147
▁bam	-11.7147
▁publicity	-11.7147
▁nickel	-11.7147
▁inse	-11.7147
▁takin	-11.7148
▁protective	-11.7148
▁hijacked	-11.7148
▁sustained	-11.7148
▁stomp	-11.7148
own	-11.7149
▁tracy	-11.7149
▁graduated	-11.7149
vering	-11.7149
▁reich	-11.7149
▁unlikely	-11.7149
▁participate	-11.7149
▁tenth	-11.715
▁tuna	-11.715
▁knuckles	-11.715
▁koppes	-11.715
▁pseudonyms	-11.715
▁resources	-11.715
▁suspicions	-11.715
▁symptoms	-11.715
▁visas	-11.715
▁ducts	-11.715
▁pitcher	-11.7151
▁classmates	-11.7151
▁chimes	-11.7151
▁pam	-11.7151
▁digest	-11.7151
▁lethal	-11.7151
▁stud	-11.7151
citing	-11.7152
▁fuzz	-11.7152
rithm	-11.7152
▁partial	-11.7152
▁hike	-11.7153
▁chie	-11.7153
▁bunker	-11.7153
▁smokes	-11.7153
▁sore	-11.7153
▁tray	-11.7153
▁reel	-11.7154
▁testicle	-11.7154
▁difficulties	-11.7154
inister	-11.7154
▁nav	-11.7155
▁geek	-11.7155
▁bates	-11.7155
▁parish	-11.7155
▁sugarman	-11.7156
▁login	-11.7157
▁observ	-11.7157
ady	-11.7158
▁pecker	-11.7158
▁sass	-11.7159
▁assist	-11.7159
▁gill	-11.7159
▁chica	-11.7159
▁qualified	-11.7159
▁gland	-11.7161
▁artie	-11.7161
▁sixth	-11.7162
ign	-11.7162
▁clearance	-11.7162
▁baldy	-11.7163
▁ruthless	-11.7163
▁compelling	-11.7163
▁upload	-11.7164
▁deana	-11.7164
▁fulltime	-11.7164
▁massacred	-11.7164
▁detected	-11.7166
▁trimm	-11.7166
▁mild	-11.7166
▁sup	-11.7167
▁payne	-11.7167
▁harp	-11.7169
▁faded	-11.7169
lli	-11.7169
▁performer	-11.7171
▁gigo	-11.7171
▁tempt	-11.7172
▁walter	-11.7173
▁ip	-11.7173
▁stats	-11.7173
▁muffin	-11.7173
▁grind	-11.7174
▁ridin	-11.7174
▁connector	-11.7174
▁bor	-11.7175
ogenic	-11.7175
▁rookie	-11.7175
▁stalking	-11.7175
▁gobble	-11.7175
▁honorable	-11.7176
▁macke	-11.7176
▁typing	-11.7177
▁reacted	-11.7177
zi	-11.7177
▁cryo	-11.7177
▁violently	-11.7178
▁pisses	-11.7179
▁struggled	-11.718
▁kent	-11.718
▁organize	-11.718
▁alist	-11.7182
▁caf	-11.7182
▁suckered	-11.7182
▁flooded	-11.7184
▁glance	-11.7184
▁mining	-11.7185
▁hallo	-11.7185
▁turnout	-11.7185
▁bolt	-11.7186
▁statistical	-11.7186
▁onion	-11.7187
▁troph	-11.7187
▁cling	-11.7187
▁lube	-11.7188
▁idol	-11.7188
▁illegally	-11.7189
▁solved	-11.7189
fer	-11.719
▁elde	-11.7191
▁cheques	-11.7192
▁explosives	-11.7192
▁gladiators	-11.7192
▁obstacles	-11.7192
▁seizures	-11.7192
▁authors	-11.7193
▁scrubs	-11.7193
▁peasants	-11.7193
▁clatters	-11.7193
▁impulses	-11.7193
▁cabo	-11.7195
▁flooding	-11.7196
▁expectations	-11.7197
▁overcom	-11.7198
wait	-11.7201
aux	-11.7201
▁crawled	-11.7202
▁examiner	-11.7203
▁defeated	-11.7205
▁caved	-11.7206
▁tong	-11.7206
▁addicted	-11.7206
▁hammering	-11.7207
▁backyard	-11.7208
▁ironing	-11.7209
▁breeding	-11.721
▁pushes	-11.721
▁pid	-11.7211
▁painless	-11.7212
▁entertain	-11.7213
▁aha	-11.7215
▁childless	-11.7216
▁evolve	-11.7216
▁abus	-11.7217
▁killian	-11.7218
▁betraying	-11.7218
▁nathan	-11.7218
▁drafted	-11.7219
▁tort	-11.7219
▁bigtime	-11.7222
▁spec	-11.7223
▁sl	-11.7223
▁baker	-11.7224
▁ifthe	-11.7227
▁vine	-11.7228
▁deviate	-11.7232
▁sewing	-11.7234
▁chemicals	-11.7236
▁operatives	-11.7236
▁apaches	-11.7236
▁flares	-11.7236
▁jensens	-11.7236
▁prostitutes	-11.7236
▁carson	-11.7237
▁detailed	-11.7238
▁collectors	-11.7239
▁blackouts	-11.7239
▁cali	-11.724
▁failing	-11.7241
▁informed	-11.7242
▁hackers	-11.7243
▁integrat	-11.7244
▁stewar	-11.725
▁whoop	-11.7251
▁celebrated	-11.7252
▁masses	-11.7252
▁dolly	-11.7253
▁canceled	-11.7254
▁paulo	-11.7257
▁sms	-11.7258
six	-11.7259
▁fuss	-11.7259
bib	-11.7261
▁verse	-11.7261
▁insulting	-11.7262
▁reanimat	-11.7262
▁bono	-11.7263
▁exceptional	-11.7265
▁resign	-11.7267
erie	-11.7268
▁gavel	-11.7269
▁cuba	-11.7272
▁comforting	-11.7272
walk	-11.7272
▁rocket	-11.7274
▁dreamt	-11.7276
▁defeos	-11.728
▁forensics	-11.728
▁balloons	-11.728
▁emotions	-11.728
▁fags	-11.7281
▁native	-11.7282
▁linked	-11.7282
horus	-11.7283
▁existed	-11.7284
▁amps	-11.7284
▁cheated	-11.7285
neak	-11.7287
▁pissy	-11.7287
▁intelligen	-11.7289
ney	-11.729
▁lien	-11.7291
▁fightin	-11.7294
▁roy	-11.7295
mmy	-11.7297
▁breakin	-11.7299
▁cleaner	-11.73
▁ifwe	-11.7301
▁sinking	-11.7307
ield	-11.7308
lab	-11.7309
clusive	-11.731
vertible	-11.7311
mad	-11.7314
▁performing	-11.7316
▁ththat	-11.7317
▁transporter	-11.7317
ect	-11.7319
▁hardest	-11.7319
▁privately	-11.7323
▁essays	-11.7324
▁investigators	-11.7324
▁vitals	-11.7324
▁dumplings	-11.7324
▁crows	-11.7325
▁payback	-11.7327
▁posted	-11.7328
▁provider	-11.7335
▁junkie	-11.7336
▁dine	-11.7336
▁interviewed	-11.7338
▁slower	-11.7341
▁jerked	-11.7345
▁unf	-11.7346
▁smashing	-11.7349
asco	-11.7349
▁costa	-11.7349
▁publicly	-11.7349
▁flipp	-11.735
▁browning	-11.7352
ving	-11.7352
▁aqua	-11.7358
▁amend	-11.7361
▁associates	-11.7362
▁fears	-11.7366
▁barbarians	-11.7368
▁yachts	-11.7368
▁quieter	-11.7369
▁cleaners	-11.737
state	-11.7371
▁courts	-11.7374
▁bumm	-11.7375
▁cheri	-11.7377
ecto	-11.738
▁mags	-11.7381
▁cope	-11.7384
▁traces	-11.7385
▁rlng	-11.7399
mat	-11.7405
rican	-11.7407
▁detain	-11.7407
▁switched	-11.7408
▁knights	-11.7413
▁westerns	-11.7413
▁sighting	-11.7415
vel	-11.7416
rene	-11.7421
▁swinging	-11.7424
▁feeding	-11.7428
mind	-11.7429
▁risked	-11.7446
pensive	-11.7447
▁targeted	-11.7448
▁contra	-11.7451
block	-11.7456
▁awaits	-11.7457
▁sessions	-11.7458
▁receipts	-11.7458
▁gin	-11.7461
▁bidd	-11.7465
▁hates	-11.7475
ko	-11.7475
▁policeman	-11.7478
▁readers	-11.7479
fund	-11.7479
▁span	-11.7481
▁boneing	-11.7488
ja	-11.7497
▁skills	-11.7501
▁vacat	-11.7505
ab	-11.7505
ggy	-11.7509
▁playin	-11.7512
urg	-11.7514
▁scrapes	-11.7516
▁pauly	-11.752
din	-11.7525
▁cabr	-11.7526
▁ty	-11.7528
owski	-11.7531
▁killings	-11.7533
▁aged	-11.7536
▁boner	-11.7536
▁lifting	-11.7538
easy	-11.754
▁individuals	-11.7548
▁crowded	-11.7565
▁my	-11.7566
sham	-11.7577
▁lik	-11.7579
half	-11.7581
▁fooling	-11.7587
▁stillman	-11.759
▁bunks	-11.7593
▁accounted	-11.7601
▁washing	-11.7602
icat	-11.7603
ander	-11.7604
▁farts	-11.7626
ponent	-11.7633
▁yankees	-11.7638
▁intentions	-11.7639
▁dia	-11.7651
▁sweety	-11.7657
▁generations	-11.7661
▁jos	-11.7662
▁pictured	-11.767
▁bugs	-11.7684
▁uniforms	-11.7684
▁benefits	-11.7684
▁bonds	-11.7684
▁jackals	-11.7685
▁wondered	-11.7686
▁aunts	-11.7686
lance	-11.7692
sure	-11.7704
▁convert	-11.771
ude	-11.772
ked	-11.7721
▁counted	-11.7722
oe	-11.7724
▁beards	-11.7729
▁warming	-11.773
▁leaks	-11.773
▁thumbs	-11.773
▁ruins	-11.7732
▁marc	-11.7735
▁commanders	-11.7749
▁by	-11.7751
▁tack	-11.7752
▁domin	-11.7754
ush	-11.7758
▁inn	-11.7775
▁jodies	-11.7776
sale	-11.7776
▁screens	-11.7778
▁toc	-11.778
▁rea	-11.7785
▁jamil	-11.779
moth	-11.7795
▁sc	-11.7803
▁neuro	-11.7817
luck	-11.7819
▁sacks	-11.782
hal	-11.7826
▁qui	-11.7855
rence	-11.7859
▁morons	-11.7866
▁nerves	-11.7868
▁talibans	-11.7868
▁resolv	-11.787
▁echoe	-11.7871
▁wool	-11.7881
▁slowed	-11.7884
terrorism	-11.7886
▁swinger	-11.789
ano	-11.7897
sty	-11.7906
posed	-11.7908
▁ambulances	-11.7915
▁mexicans	-11.7915
▁standards	-11.7915
▁wednesdays	-11.7915
▁catalog	-11.7925
anza	-11.7935
▁crapp	-11.7936
▁rates	-11.7936
▁swearing	-11.7936
▁lords	-11.7942
count	-11.7954
▁signor	-11.7955
▁stakes	-11.7961
▁helicopters	-11.7961
▁creates	-11.7963
▁findings	-11.7973
▁banking	-11.7975
▁banal	-11.7984
▁lib	-11.7989
▁hors	-11.7991
▁naive	-11.7997
▁sch	-11.8003
▁tik	-11.8004
▁ringer	-11.8006
▁oceans	-11.8008
▁experts	-11.8008
nta	-11.801
▁shifts	-11.8012
uber	-11.8013
onos	-11.802
▁eliminat	-11.8025
▁flags	-11.8035
coup	-11.8036
▁rot	-11.8046
aria	-11.8046
▁disapprove	-11.8051
▁hans	-11.8053
▁models	-11.8054
▁confirms	-11.8058
▁dogg	-11.8061
▁secondly	-11.8064
arily	-11.8065
▁manages	-11.8067
▁fad	-11.8069
▁vibrat	-11.807
▁nod	-11.8071
ushi	-11.8076
▁illustrate	-11.8083
▁slop	-11.8088
▁riot	-11.8089
▁handy	-11.8091
▁sm	-11.8099
▁penn	-11.8105
▁rises	-11.811
▁sno	-11.8111
ari	-11.8111
▁mack	-11.813
▁nano	-11.814
▁jen	-11.8141
▁reserve	-11.8157
llis	-11.8164
cara	-11.8173
phill	-11.8174
fulness	-11.8179
▁vent	-11.8182
▁ste	-11.8194
▁ava	-11.8195
▁cru	-11.8201
▁lawful	-11.8207
▁dio	-11.8218
▁meets	-11.822
▁rider	-11.8221
▁syd	-11.8233
▁sections	-11.8245
ragged	-11.8247
▁missy	-11.8252
▁swa	-11.8267
shot	-11.8289
▁pairs	-11.8294
they	-11.8309
met	-11.8309
ture	-11.8318
▁winds	-11.8329
▁od	-11.8337
quid	-11.8381
dget	-11.8385
top	-11.8388
▁gui	-11.8391
chu	-11.84
▁hardy	-11.8404
rink	-11.8409
▁py	-11.8414
▁anticipat	-11.8419
▁hanged	-11.8431
▁weights	-11.8439
▁occupa	-11.8446
▁walt	-11.8456
anne	-11.8458
▁yu	-11.8462
ft	-11.848
▁releases	-11.8489
▁cracks	-11.8489
▁ala	-11.8492
▁fianc	-11.8513
▁pricks	-11.8535
▁neighborhoods	-11.8535
▁sundays	-11.8535
▁trucker	-11.8536
bbing	-11.8573
ris	-11.8578
▁trades	-11.8579
▁is	-11.8587
ots	-11.8591
▁maker	-11.8591
faced	-11.8613
▁homo	-11.8624
sch	-11.8625
eller	-11.863
▁carte	-11.8631
▁cleanse	-11.8636
ago	-11.8641
▁its	-11.8642
▁projects	-11.8647
▁ku	-11.8648
ire	-11.8654
ras	-11.8669
lly	-11.8672
▁rides	-11.8675
urban	-11.8681
▁attorneys	-11.8683
▁boyfriends	-11.8683
ome	-11.8693
▁spir	-11.8721
breaker	-11.876
ada	-11.8762
▁simpl	-11.8763
▁manipulate	-11.8765
▁remembering	-11.877
▁incon	-11.8779
cr	-11.878
▁tor	-11.8783
ek	-11.8787
▁tellin	-11.8792
▁missions	-11.8806
▁cutie	-11.8808
ont	-11.8814
ofa	-11.8815
▁compar	-11.8861
uk	-11.8867
agger	-11.8878
▁lag	-11.8912
pd	-11.8924
▁rivers	-11.8929
▁cruis	-11.893
▁heavens	-11.8933
▁hairs	-11.8967
overs	-11.8971
▁restaurants	-11.8984
hot	-11.8999
▁hopes	-11.9004
itt	-11.9011
▁overru	-11.9025
master	-11.9028
hill	-11.9043
▁aaah	-11.9045
▁kir	-11.9056
tics	-11.906
liberation	-11.9067
▁vin	-11.9068
nol	-11.9088
▁partying	-11.9088
▁theresa	-11.9088
ret	-11.91
ular	-11.9105
thing	-11.9121
▁hillar	-11.9131
▁summers	-11.9138
▁hor	-11.9163
▁radios	-11.9163
▁sod	-11.9176
tock	-11.9181
ament	-11.9189
rice	-11.9194
▁gravel	-11.9194
▁tru	-11.9199
▁hoot	-11.9205
▁structur	-11.9214
▁camps	-11.9216
▁ye	-11.9216
▁prima	-11.9217
nit	-11.9221
▁cuc	-11.9228
fin	-11.9237
art	-11.9242
mics	-11.9243
writing	-11.9253
▁audit	-11.9273
erich	-11.9291
▁cou	-11.9305
▁anticipate	-11.9311
hea	-11.9317
▁mic	-11.9343
▁directors	-11.935
▁crossbo	-11.9367
▁examin	-11.937
▁slav	-11.9371
ades	-11.9373
urt	-11.9385
uv	-11.94
▁outof	-11.9404
eful	-11.9431
▁if	-11.9433
▁admir	-11.9433
▁slam	-11.945
▁blinds	-11.9455
▁slum	-11.9462
nna	-11.9466
gers	-11.9482
ik	-11.9485
orum	-11.9492
tank	-11.9498
▁wip	-11.9521
eology	-11.9522
▁vans	-11.9536
ater	-11.9537
▁pickle	-11.9538
▁whin	-11.9539
quet	-11.9551
pped	-11.9552
kia	-11.9554
lia	-11.9555
▁hitch	-11.9562
eve	-11.9581
horn	-11.9584
▁wal	-11.9585
▁gl	-11.9606
▁olives	-11.961
▁it	-11.9622
▁deb	-11.9622
body	-11.9631
▁moos	-11.9636
▁pom	-11.9639
▁saves	-11.9642
trained	-11.9663
get	-11.967
▁illustr	-11.9672
ethel	-11.9676
▁couples	-11.9686
▁wra	-11.9708
aboo	-11.9709
▁cora	-11.971
formed	-11.9714
wall	-11.9735
vas	-11.9738
mic	-11.974
mos	-11.9741
▁raisin	-11.9744
▁wo	-11.9762
▁experiences	-11.9765
ib	-11.9766
xa	-11.9767
▁fatal	-11.9775
▁shov	-11.9781
▁truthful	-11.9782
▁eno	-11.9789
▁padd	-11.9793
▁pow	-11.9812
oon	-11.9816
itter	-11.9819
▁happ	-11.9856
perfection	-11.9864
headed	-11.9865
▁recorder	-11.9865
cin	-11.9875
nikov	-11.9887
aut	-11.989
del	-11.9899
bu	-11.9902
▁stru	-11.9917
▁til	-11.9931
▁singles	-11.9931
▁zu	-11.9935
aw	-11.9936
▁gangs	-11.9951
▁suns	-11.9951
▁allerg	-11.9952
▁dec	-11.9957
ray	-11.9969
▁ref	-11.9972
▁dou	-11.9973
wan	-11.9979
▁appreciat	-12.0004
▁dur	-12.0026
▁accuse	-12.0039
▁powerless	-12.0054
▁kar	-12.0056
▁del	-12.0061
▁declare	-12.0061
▁squi	-12.0064
▁bubb	-12.0065
▁tre	-12.007
▁whit	-12.0082
▁evident	-12.0094
ath	-12.01
wn	-12.0105
luded	-12.0108
▁rad	-12.0128
nda	-12.013
▁lv	-12.0132
▁pap	-12.0149
▁equi	-12.0157
▁reg	-12.0158
▁lust	-12.0167
▁patron	-12.017
emin	-12.0186
▁dez	-12.0186
▁brag	-12.0188
▁aut	-12.0189
▁ax	-12.0202
▁urinat	-12.0211
▁gene	-12.0216
thats	-12.023
ans	-12.0243
▁reco	-12.0249
gged	-12.0253
▁conquer	-12.0254
wart	-12.0263
bird	-12.0263
alities	-12.0264
▁clip	-12.0267
▁ug	-12.0284
▁mug	-12.0284
▁alternate	-12.0284
▁smear	-12.0285
▁defect	-12.0285
why	-12.0287
▁restraint	-12.0289
▁whimper	-12.029
yu	-12.0295
▁roar	-12.0297
▁bruise	-12.0297
▁roommate	-12.03
▁kilo	-12.03
▁giraffe	-12.03
placed	-12.03
▁snail	-12.03
▁representative	-12.03
▁prophet	-12.0301
▁adjustment	-12.0301
▁tension	-12.0302
▁crab	-12.0303
▁feature	-12.0303
logy	-12.0307
▁prostitute	-12.0308
▁jensen	-12.0308
▁apache	-12.0308
▁servant	-12.0308
witt	-12.0309
▁flare	-12.0309
▁stasi	-12.0309
▁upsta	-12.0311
▁parrot	-12.0312
▁persona	-12.0313
▁firecracker	-12.0313
▁dav	-12.0313
▁biscuit	-12.0314
▁jingle	-12.0314
ception	-12.0315
ifies	-12.0316
tting	-12.0316
▁operative	-12.0318
greatgrandmother	-12.0318
▁hostage	-12.0319
▁employee	-12.032
▁candle	-12.032
▁inmate	-12.032
▁boob	-12.0322
▁collector	-12.0322
▁chemical	-12.0323
▁circumstance	-12.0323
▁twin	-12.0323
▁scoff	-12.0324
▁polic	-12.0324
▁flame	-12.0326
▁sock	-12.0329
▁saf	-12.0331
rine	-12.0338
▁eit	-12.0342
ncer	-12.0342
▁hacker	-12.0343
▁mod	-12.0343
▁preach	-12.0347
lag	-12.0353
cks	-12.0357
ver	-12.0357
▁receiv	-12.0358
▁sof	-12.0359
▁cro	-12.0359
▁coordinat	-12.0361
crow	-12.0363
▁captur	-12.0365
acle	-12.0365
changed	-12.0368
▁tomb	-12.0372
take	-12.0377
▁blackout	-12.0377
▁ic	-12.0379
dan	-12.038
▁tit	-12.0386
▁pul	-12.0386
▁quar	-12.0396
mark	-12.0398
hunt	-12.0399
▁thora	-12.0403
speed	-12.0403
lagged	-12.0405
▁fil	-12.0413
▁poop	-12.0413
worth	-12.0414
▁thump	-12.0416
▁clank	-12.0416
▁plac	-12.0417
▁tranquil	-12.0417
friend	-12.0418
mitten	-12.0418
where	-12.0419
▁offend	-12.0419
▁satisfy	-12.042
burger	-12.042
▁introduc	-12.0423
wind	-12.0423
▁inherit	-12.0424
▁pawn	-12.0424
aching	-12.0425
train	-12.0425
▁swell	-12.0426
▁elevate	-12.0426
▁condemn	-12.0427
▁railroad	-12.0427
▁unleash	-12.0427
▁endanger	-12.0427
▁glu	-12.0427
▁scoop	-12.0428
▁sustain	-12.0428
cola	-12.0429
▁invert	-12.043
▁register	-12.043
folk	-12.043
▁fib	-12.0431
▁reside	-12.0432
proof	-12.0432
gent	-12.0433
▁hijack	-12.0433
gled	-12.0433
point	-12.0434
thora	-12.0434
high	-12.0434
▁pep	-12.0435
kind	-12.0435
induce	-12.0435
level	-12.0435
plane	-12.0436
▁slug	-12.0436
flat	-12.0436
hmm	-12.0436
▁panama	-12.0436
shield	-12.0437
cooked	-12.0437
wick	-12.0437
▁bou	-12.0437
identified	-12.0437
market	-12.0437
text	-12.0437
function	-12.0437
eagle	-12.0437
pole	-12.0437
fruit	-12.0438
polite	-12.0438
defense	-12.0438
lime	-12.0438
spirit	-12.0438
shore	-12.0438
girl	-12.0438
hundred	-12.0438
building	-12.0438
service	-12.0438
lead	-12.0438
plus	-12.0438
kansas	-12.0438
free	-12.0438
important	-12.0438
white	-12.0438
dream	-12.0438
crazy	-12.0438
wear	-12.0438
client	-12.0438
soft	-12.0438
beard	-12.0438
seek	-12.0438
▁hydro	-12.0439
storm	-12.0439
fart	-12.0439
tail	-12.0439
▁extrem	-12.0439
based	-12.044
whoa	-12.044
bug	-12.044
rais	-12.044
existing	-12.044
right	-12.044
▁wrinkle	-12.044
▁relieve	-12.044
fli	-12.0441
▁trib	-12.0441
▁with	-12.0442
▁baptize	-12.0442
▁circum	-12.0442
part	-12.0442
feel	-12.0442
person	-12.0442
▁identifie	-12.0443
psy	-12.0443
▁authorize	-12.0443
▁crusade	-12.0443
athens	-12.0444
▁humiliate	-12.0444
dol	-12.0444
▁sacrament	-12.0444
▁magnificent	-12.0445
▁foo	-12.0445
▁melod	-12.0445
▁strawberr	-12.0446
laborate	-12.0446
▁pronounce	-12.0446
▁wea	-12.0446
▁mysterious	-12.0447
▁vampir	-12.0447
▁practical	-12.0448
▁absolute	-12.0448
hut	-12.0448
term	-12.0448
long	-12.0449
▁vouch	-12.0449
mega	-12.0449
▁obscen	-12.0449
▁bladd	-12.045
pine	-12.045
▁firefight	-12.045
bet	-12.0451
▁itch	-12.0451
speak	-12.0452
▁tease	-12.0452
▁fond	-12.0452
eight	-12.0453
▁enterprise	-12.0453
▁mistress	-12.0453
▁reflex	-12.0453
▁slay	-12.0454
▁treasure	-12.0454
ambala	-12.0454
▁bennet	-12.0454
▁unsee	-12.0454
▁tomato	-12.0454
stand	-12.0454
▁epi	-12.0455
▁populat	-12.0455
▁tyran	-12.0455
▁categor	-12.0456
▁bough	-12.0456
▁lovin	-12.0456
▁boogey	-12.0456
▁abdom	-12.0457
▁oppress	-12.0457
▁easie	-12.0457
arrett	-12.0457
▁gersh	-12.0457
▁contaminat	-12.0457
▁convent	-12.0457
▁evict	-12.0457
▁givin	-12.0457
▁leavin	-12.0457
▁scarf	-12.0457
▁chemist	-12.0457
▁glen	-12.0458
scape	-12.0458
▁mik	-12.0458
▁posse	-12.0458
▁goddam	-12.0458
▁orphan	-12.0458
fficient	-12.0459
▁northwest	-12.0459
israeli	-12.0459
tortion	-12.0459
▁cunning	-12.0459
▁brew	-12.0459
▁revo	-12.0459
▁francis	-12.0459
cetera	-12.0459
▁roxan	-12.0459
▁mayonnaise	-12.0459
▁npdvi	-12.0459
dolph	-12.0459
ehydration	-12.0459
quisition	-12.0459
strasse	-12.0459
▁abduction	-12.0459
▁adrenaline	-12.0459
▁aesthetic	-12.0459
▁affiliate	-12.0459
▁affiliation	-12.0459
▁agencies	-12.0459
▁albino	-12.0459
▁alfred	-12.0459
▁alkuwaiti	-12.0459
▁amazon	-12.0459
▁ammunition	-12.0459
▁ankara	-12.0459
▁anthrax	-12.0459
▁aphrodisiac	-12.0459
▁apprentice	-12.0459
▁aquarium	-12.0459
▁attribute	-12.0459
▁autopilot	-12.0459
▁avril	-12.0459
▁azrael	-12.0459
▁bactria	-12.0459
▁baguette	-12.0459
▁balerdi	-12.0459
▁bannion	-12.0459
▁beautifui	-12.0459
▁belarus	-12.0459
▁bereavement	-12.0459
▁blasphemy	-12.0459
▁blisters	-12.0459
▁blofeld	-12.0459
▁blossom	-12.0459
▁botched	-12.0459
▁brackett	-12.0459
▁bridesmaid	-12.0459
▁broccoli	-12.0459
▁brochure	-12.0459
▁bucephalus	-12.0459
▁buonasera	-12.0459
▁butterflies	-12.0459
▁cabbage	-12.0459
▁cadillac	-12.0459
▁calvin	-12.0459
▁carpenter	-12.0459
▁carriage	-12.0459
▁casilda	-12.0459
▁casket	-12.0459
▁choochoo	-12.0459
▁chump	-12.0459
▁cinq	-12.0459
▁climax	-12.0459
▁collateral	-12.0459
▁commodit	-12.0459
▁commute	-12.0459
▁composite	-12.0459
▁concrete	-12.0459
▁condolence	-12.0459
▁contagious	-12.0459
▁convenient	-12.0459
▁copiague	-12.0459
▁cordova	-12.0459
▁cosmetic	-12.0459
▁critters	-12.0459
▁crocodile	-12.0459
▁crozier	-12.0459
▁crumple	-12.0459
▁cultivat	-12.0459
▁dafar	-12.0459
▁database	-12.0459
▁derecha	-12.0459
▁derelict	-12.0459
▁describing	-12.0459
▁detroit	-12.0459
▁dilemma	-12.0459
▁dingdong	-12.0459
▁discourage	-12.0459
▁disinfect	-12.0459
▁dispute	-12.0459
▁divorcing	-12.0459
▁druzhinsky	-12.0459
▁ecuador	-12.0459
▁epiphany	-12.0459
▁eugene	-12.0459
▁exboyfriend	-12.0459
▁expansion	-12.0459
▁expedition	-12.0459
▁exploring	-12.0459
▁fabio	-12.0459
▁factionalism	-12.0459
▁fantastisch	-12.0459
▁fascinated	-12.0459
▁faulkner	-12.0459
▁feisty	-12.0459
▁finnelli	-12.0459
▁fluctuat	-12.0459
▁fluoride	-12.0459
▁fountain	-12.0459
▁foxtrot	-12.0459
▁frequency	-12.0459
▁furlough	-12.0459
▁futuristic	-12.0459
▁garnish	-12.0459
▁gediman	-12.0459
▁genogram	-12.0459
▁goldfarb	-12.0459
▁greeting	-12.0459
▁greyhound	-12.0459
▁gryphon	-12.0459
▁halfnaked	-12.0459
▁halibut	-12.0459
▁handkerchief	-12.0459
▁heusen	-12.0459
▁holster	-12.0459
▁ibm	-12.0459
▁imprisoned	-12.0459
▁incorrect	-12.0459
▁incriminating	-12.0459
▁indonesia	-12.0459
▁insanity	-12.0459
▁insecure	-12.0459
▁inshallah	-12.0459
▁intervention	-12.0459
▁intricate	-12.0459
▁irregularities	-12.0459
▁irreplaceable	-12.0459
▁irresponsible	-12.0459
▁ishii	-12.0459
▁jakarta	-12.0459
▁janitor	-12.0459
▁kananga	-12.0459
▁kelvin	-12.0459
▁khadija	-12.0459
▁kohl	-12.0459
▁koobus	-12.0459
▁landlady	-12.0459
▁laundromat	-12.0459
▁leash	-12.0459
▁leclerc	-12.0459
▁livelihood	-12.0459
▁lsharp	-12.0459
▁mademoiselle	-12.0459
▁magloan	-12.0459
▁mainframe	-12.0459
▁malekai	-12.0459
▁malnick	-12.0459
▁manufacturing	-12.0459
▁marathon	-12.0459
▁margarita	-12.0459
▁mccarthy	-12.0459
▁mcknight	-12.0459
▁megahertz	-12.0459
▁melendez	-12.0459
▁membrane	-12.0459
▁memorable	-12.0459
▁merchandise	-12.0459
▁michelangelo	-12.0459
▁midwicket	-12.0459
▁migraine	-12.0459
▁miguel	-12.0459
▁minnesota	-12.0459
▁monstrous	-12.0459
▁morbid	-12.0459
▁morrill	-12.0459
▁mvp	-12.0459
▁necessity	-12.0459
▁neuf	-12.0459
▁nigerian	-12.0459
▁nitti	-12.0459
▁notepad	-12.0459
▁nutrition	-12.0459
▁ocularis	-12.0459
▁oggi	-12.0459
▁onegative	-12.0459
▁orleans	-12.0459
▁ounce	-12.0459
▁overflow	-12.0459
▁pacifist	-12.0459
▁pamphlet	-12.0459
▁pancreatic	-12.0459
▁panetta	-12.0459
▁paparazzi	-12.0459
▁paragraphs	-12.0459
▁parody	-12.0459
▁payperview	-12.0459
▁peacocks	-12.0459
▁perceive	-12.0459
▁perdiccas	-12.0459
▁perfume	-12.0459
▁pertect	-12.0459
▁pharaoh	-12.0459
▁philadelphia	-12.0459
▁podium	-12.0459
▁pontoon	-12.0459
▁porridge	-12.0459
▁premeditated	-12.0459
▁premier	-12.0459
▁prodig	-12.0459
▁quarantine	-12.0459
▁quebec	-12.0459
▁rabies	-12.0459
▁recognise	-12.0459
▁recompil	-12.0459
▁religion	-12.0459
▁resuscitat	-12.0459
▁resync	-12.0459
▁retrograde	-12.0459
▁salud	-12.0459
▁sarcastic	-12.0459
▁scalp	-12.0459
▁scavenge	-12.0459
▁schwarz	-12.0459
▁scrimmage	-12.0459
▁senhor	-12.0459
▁sensual	-12.0459
▁seymour	-12.0459
▁shackleford	-12.0459
▁shitbrick	-12.0459
▁shoelaces	-12.0459
▁shriveled	-12.0459
▁sikander	-12.0459
▁sleaz	-12.0459
▁sliver	-12.0459
▁snigger	-12.0459
▁sociology	-12.0459
▁solemn	-12.0459
▁soufan	-12.0459
▁spaghetti	-12.0459
▁spectrum	-12.0459
▁splendid	-12.0459
▁sslimonov	-12.0459
▁stibel	-12.0459
▁stimulation	-12.0459
▁streak	-12.0459
▁stylish	-12.0459
▁sweeney	-12.0459
▁swollen	-12.0459
▁syracuse	-12.0459
▁tennyson	-12.0459
▁tensevenniner	-12.0459
▁triangle	-12.0459
▁tropical	-12.0459
▁tulips	-12.0459
▁udall	-12.0459
▁unacceptable	-12.0459
▁unarmed	-12.0459
▁unethical	-12.0459
▁unfaithful	-12.0459
▁unnecessary	-12.0459
▁unofficial	-12.0459
▁unpleasant	-12.0459
▁unprecedented	-12.0459
▁uruguay	-12.0459
▁utensil	-12.0459
▁verdict	-12.0459
▁virtual	-12.0459
▁virtue	-12.0459
▁voluntarily	-12.0459
▁voyles	-12.0459
▁vulnerable	-12.0459
▁wainwright	-12.0459
▁westlake	-12.0459
▁wharf	-12.0459
▁wunderbar	-12.0459
▁xerox	-12.0459
▁yakitito	-12.0459
▁zykov	-12.0459
▁adapt	-12.0459
▁endeavor	-12.0459
▁gabriel	-12.0459
▁inviola	-12.0459
▁metaphor	-12.0459
▁nolan	-12.0459
▁notorious	-12.0459
▁obstruct	-12.0459
▁sponsor	-12.0459
▁sundress	-12.0459
▁triumph	-12.0459
▁ukrain	-12.0459
▁uterus	-12.0459
▁vector	-12.0459
ldstein	-12.0459
▁alumin	-12.0459
▁ballistic	-12.0459
▁bronx	-12.0459
▁conservatory	-12.0459
▁coroner	-12.0459
▁dalby	-12.0459
▁decisive	-12.0459
▁deux	-12.0459
▁eloquent	-12.0459
▁essence	-12.0459
▁generosity	-12.0459
▁hafid	-12.0459
▁hobbyists	-12.0459
▁hypothetical	-12.0459
▁indifferent	-12.0459
▁knackered	-12.0459
▁lavay	-12.0459
▁malala	-12.0459
▁ninth	-12.0459
▁ringtone	-12.0459
▁stardom	-12.0459
▁stumble	-12.0459
▁thebes	-12.0459
▁thoracentesis	-12.0459
▁unravel	-12.0459
▁worn	-12.0459
▁wretch	-12.0459
again	-12.0459
▁cortex	-12.0459
▁exceed	-12.0459
▁exploit	-12.0459
▁flavor	-12.0459
▁halfbreed	-12.0459
▁kahn	-12.0459
▁mulligan	-12.0459
▁raccoons	-12.0459
▁anoint	-12.0459
▁cofound	-12.0459
▁glamorous	-12.0459
▁linwood	-12.0459
▁nassau	-12.0459
▁quinn	-12.0459
▁sensor	-12.0459
▁shiff	-12.0459
▁sprout	-12.0459
▁surgical	-12.0459
▁witty	-12.0459
clamation	-12.0459
▁basque	-12.0459
▁charlene	-12.0459
▁deadliest	-12.0459
▁diehl	-12.0459
▁granada	-12.0459
▁horoscope	-12.0459
▁lumberjack	-12.0459
▁nurture	-12.0459
▁urdu	-12.0459
▁curtie	-12.0459
▁dinosaur	-12.0459
▁middlesex	-12.0459
▁shoppers	-12.0459
▁splint	-12.0459
▁assemble	-12.0459
▁millionaire	-12.0459
▁overreact	-12.0459
▁snuff	-12.0459
siberia	-12.0459
▁dusk	-12.0459
▁gatito	-12.0459
▁granddaddy	-12.0459
▁grasshopper	-12.0459
▁hampton	-12.0459
▁musk	-12.0459
▁tsunaron	-12.0459
▁characteristic	-12.0459
▁communities	-12.0459
▁djong	-12.0459
rtation	-12.0459
▁compact	-12.0459
▁presidium	-12.0459
▁saloon	-12.0459
▁sunyi	-12.0459
▁vicechairman	-12.0459
▁blackberrys	-12.0459
▁brewster	-12.0459
▁grudge	-12.0459
▁hiccups	-12.0459
▁negligence	-12.0459
▁thrust	-12.0459
▁chamomile	-12.0459
▁donation	-12.0459
▁generic	-12.0459
▁swift	-12.0459
▁trump	-12.0459
▁sanitize	-12.0459
▁columbia	-12.0459
▁ramirez	-12.0459
▁emperor	-12.0459
▁atlantic	-12.0459
▁cavity	-12.0459
▁hendri	-12.0459
▁italy	-12.0459
▁lottery	-12.0459
▁outspoken	-12.0459
emption	-12.0459
▁constitute	-12.0459
▁duncan	-12.0459
▁jukebox	-12.0459
▁verbier	-12.0459
▁contemplate	-12.0459
▁carnivore	-12.0459
▁glaze	-12.0459
▁intercourse	-12.0459
▁coffins	-12.0459
▁dutchess	-12.0459
▁headphones	-12.0459
▁imaginary	-12.0459
▁zombie	-12.0459
▁butbut	-12.0459
▁finked	-12.0459
▁overpriced	-12.0459
▁deduction	-12.0459
▁ebay	-12.0459
▁mooing	-12.0459
▁padilla	-12.0459
▁gaulle	-12.0459
▁grapelli	-12.0459
▁infamous	-12.0459
▁sculpture	-12.0459
▁stash	-12.0459
iscate	-12.0459
▁vineyard	-12.0459
▁fender	-12.0459
▁geko	-12.0459
▁slack	-12.0459
▁titanium	-12.0459
▁inconvenience	-12.0459
▁stuart	-12.0459
▁baroness	-12.0459
▁atze	-12.0459
▁dreadful	-12.0459
▁merciful	-12.0459
▁shiny	-12.0459
▁transformed	-12.0459
▁utah	-12.0459
▁waylander	-12.0459
▁definition	-12.0459
▁filter	-12.0459
▁juke	-12.0459
▁preparing	-12.0459
▁travis	-12.0459
▁yuppie	-12.0459
▁injuries	-12.0459
▁justification	-12.0459
▁purified	-12.0459
▁statute	-12.0459
▁downhill	-12.0459
▁intoxicating	-12.0459
▁arcade	-12.0459
▁input	-12.0459
▁interior	-12.0459
▁physician	-12.0459
▁sideways	-12.0459
▁spray	-12.0459
▁hattori	-12.046
▁narked	-12.046
▁incurable	-12.046
▁untouchable	-12.046
▁autism	-12.046
▁refill	-12.046
▁sequel	-12.046
▁masterpiece	-12.046
▁turtle	-12.046
▁leonard	-12.046
▁gibb	-12.046
▁swapped	-12.046
▁gag	-12.046
▁repeatedly	-12.046
▁spectacle	-12.046
▁acceleration	-12.046
▁constipation	-12.046
▁ltaly	-12.046
▁huddle	-12.046
▁outwith	-12.046
▁denise	-12.046
▁debby	-12.046
▁editorial	-12.046
▁cursing	-12.046
▁enlist	-12.046
▁furious	-12.046
▁hunch	-12.046
▁acres	-12.046
▁neyer	-12.046
▁alphabet	-12.046
▁cult	-12.046
▁intrusion	-12.046
▁revs	-12.046
▁cockpit	-12.046
▁destination	-12.046
▁arraignment	-12.046
▁bilb	-12.046
▁magda	-12.046
▁vietnamese	-12.046
▁payoffs	-12.046
▁requirements	-12.046
▁selection	-12.046
▁vault	-12.046
▁burial	-12.046
▁precision	-12.046
istol	-12.046
▁judy	-12.046
▁maury	-12.046
▁allegro	-12.046
▁bulletproof	-12.046
▁tendency	-12.046
▁regroup	-12.046
▁resemble	-12.046
▁plavin	-12.046
▁remix	-12.046
▁chemo	-12.046
▁hawaii	-12.046
▁melanie	-12.046
▁salma	-12.046
▁diamondback	-12.046
▁hamster	-12.046
▁israelis	-12.046
▁bailey	-12.046
▁cristo	-12.046
▁savor	-12.046
▁delta	-12.046
▁shshe	-12.046
▁ugli	-12.046
▁rail	-12.046
▁jeffries	-12.046
▁sunburn	-12.046
▁hitchhiker	-12.046
uc	-12.046
ancy	-12.046
ovich	-12.046
▁prolong	-12.046
▁valeron	-12.046
▁disposal	-12.046
▁lisp	-12.046
▁amazement	-12.046
utti	-12.046
▁thems	-12.046
▁corona	-12.046
▁interim	-12.046
▁glitches	-12.046
▁whatcha	-12.046
▁erratic	-12.046
▁feat	-12.046
▁cluster	-12.046
▁oslo	-12.046
▁munch	-12.046
▁pitiful	-12.046
▁laminate	-12.046
▁downey	-12.046
▁properties	-12.046
▁scour	-12.046
▁silk	-12.046
▁handpick	-12.046
▁salva	-12.046
▁straw	-12.046
▁paws	-12.046
▁cummin	-12.046
▁gump	-12.046
▁finchmeister	-12.0461
▁squat	-12.0461
▁masturbation	-12.0461
▁rematch	-12.0461
▁humiliation	-12.0461
▁emmanuel	-12.0461
▁housing	-12.0461
▁clap	-12.0461
▁bluesmobile	-12.0461
tonic	-12.0461
▁separation	-12.0461
▁vcr	-12.0461
▁pausing	-12.0461
▁chemistry	-12.0461
▁batshit	-12.0461
▁clarity	-12.0461
▁firearm	-12.0461
▁leper	-12.0461
▁supermarket	-12.0461
▁agenda	-12.0461
▁clint	-12.0461
▁devas	-12.0461
▁heckling	-12.0461
▁flick	-12.0461
bag	-12.0461
▁boredom	-12.0461
▁perez	-12.0461
▁trang	-12.0461
▁carolina	-12.0461
▁testament	-12.0461
▁downfield	-12.0461
▁guidons	-12.0461
▁inflat	-12.0461
▁jiffy	-12.0461
▁dagger	-12.0461
▁subtle	-12.0461
▁edwin	-12.0461
▁clow	-12.0461
▁frum	-12.0461
▁switchbacks	-12.0461
▁programme	-12.0461
▁walsh	-12.0461
▁circe	-12.0461
▁howre	-12.0461
▁attendance	-12.0461
▁probation	-12.0461
▁insur	-12.0461
▁swap	-12.0461
▁babysitting	-12.0461
▁cork	-12.0461
▁cuddle	-12.0461
▁redneck	-12.0461
▁pistol	-12.0461
▁amaze	-12.0461
▁dramatically	-12.0461
▁contamination	-12.0461
▁purity	-12.0461
▁acne	-12.0461
▁abdomen	-12.0462
▁likable	-12.0462
▁dork	-12.0462
▁inbound	-12.0462
▁earthbound	-12.0462
▁newsweek	-12.0462
▁vandali	-12.0462
▁bookshelves	-12.0462
▁facile	-12.0462
▁milan	-12.0462
▁boobies	-12.0462
▁macworld	-12.0462
▁automatically	-12.0462
▁crypt	-12.0462
▁summon	-12.0462
▁lumber	-12.0462
▁judi	-12.0462
▁pastures	-12.0462
▁edgar	-12.0462
▁fatten	-12.0462
▁continental	-12.0462
▁historic	-12.0462
▁sentimental	-12.0462
▁launder	-12.0462
▁logged	-12.0462
▁velv	-12.0462
▁adri	-12.0462
▁phat	-12.0462
▁stanton	-12.0462
▁airspeed	-12.0462
▁karl	-12.0462
▁psychiatri	-12.0462
▁revolutionary	-12.0462
▁foolishness	-12.0462
▁chatted	-12.0462
▁paso	-12.0462
▁disneyland	-12.0462
▁intensive	-12.0462
▁ko	-12.0462
▁carlos	-12.0462
▁susanne	-12.0462
▁brigade	-12.0462
▁hyper	-12.0462
▁backstabbin	-12.0463
▁invention	-12.0463
▁sku	-12.0463
▁scrutiny	-12.0463
▁semen	-12.0463
▁raspberry	-12.0463
▁beck	-12.0463
▁fck	-12.0463
▁shipping	-12.0463
▁fundi	-12.0463
▁malefic	-12.0463
▁notebook	-12.0463
igle	-12.0463
▁beech	-12.0463
▁participant	-12.0463
▁mature	-12.0463
▁roadblock	-12.0463
▁nightclub	-12.0463
▁commentary	-12.0463
▁tele	-12.0463
▁plas	-12.0463
ooze	-12.0463
▁wez	-12.0463
▁phan	-12.0463
essie	-12.0463
▁wuss	-12.0463
▁decapitated	-12.0463
▁barney	-12.0463
▁hydra	-12.0463
▁inclined	-12.0463
▁authenticity	-12.0463
▁grid	-12.0463
▁buff	-12.0463
▁zbi	-12.0464
▁unti	-12.0464
▁lawrence	-12.0464
▁blackstar	-12.0464
▁inspection	-12.0464
▁wop	-12.0464
▁robberies	-12.0464
▁whatll	-12.0464
▁indigen	-12.0464
▁alcoholism	-12.0464
eering	-12.0464
▁dependable	-12.0464
bted	-12.0464
▁stow	-12.0464
▁vibrates	-12.0464
▁jello	-12.0464
▁anguish	-12.0465
▁occupied	-12.0465
▁satisfied	-12.0465
▁intuiti	-12.0465
▁contingen	-12.0465
▁vocal	-12.0465
▁iiii	-12.0465
▁appetite	-12.0465
▁hence	-12.0465
▁sledge	-12.0465
▁bonne	-12.0465
▁retro	-12.0465
▁hatred	-12.0465
▁orthodo	-12.0465
▁corrections	-12.0465
▁unpack	-12.0465
▁execution	-12.0465
▁slamming	-12.0465
▁dwell	-12.0465
▁ash	-12.0465
▁ifl	-12.0465
▁tonto	-12.0465
moto	-12.0465
▁charter	-12.0465
▁pogo	-12.0465
▁unkind	-12.0466
▁shrink	-12.0466
▁jessie	-12.0466
▁ira	-12.0466
▁pigsty	-12.0466
▁chess	-12.0466
▁cite	-12.0466
▁anton	-12.0466
▁hassl	-12.0466
▁despised	-12.0466
▁distribution	-12.0466
▁distortion	-12.0466
▁molested	-12.0466
▁auntie	-12.0466
▁vanishes	-12.0466
▁bloated	-12.0466
▁sleepwalk	-12.0466
▁comf	-12.0466
▁flawed	-12.0466
▁perpetrate	-12.0466
▁yapping	-12.0466
▁disappearance	-12.0467
▁hilton	-12.0467
▁isolate	-12.0467
▁clara	-12.0467
zek	-12.0467
mium	-12.0467
▁volt	-12.0467
▁vile	-12.0467
▁detest	-12.0467
▁bore	-12.0467
▁superiority	-12.0467
▁reese	-12.0467
▁immigra	-12.0467
▁gershen	-12.0467
▁unanimously	-12.0467
▁pinch	-12.0467
▁heartache	-12.0467
itzer	-12.0468
▁crib	-12.0468
▁triplets	-12.0468
▁observation	-12.0468
▁settin	-12.0468
▁tailor	-12.0468
▁trickortreating	-12.0468
▁depressing	-12.0468
▁recap	-12.0468
▁pension	-12.0468
▁sighing	-12.0468
▁stuttering	-12.0468
▁gab	-12.0468
▁overhead	-12.0468
▁psychotic	-12.0468
▁cran	-12.0468
▁brotherinlaw	-12.0468
▁hallucination	-12.0468
▁surf	-12.0468
▁management	-12.0468
▁massage	-12.0468
▁provinc	-12.0469
▁levit	-12.0469
▁bladder	-12.0469
▁finn	-12.0469
▁ripping	-12.0469
▁pansy	-12.0469
▁hustler	-12.0469
▁puppy	-12.0469
▁coca	-12.0469
▁bonesis	-12.0469
▁batteries	-12.0469
▁coordination	-12.0469
▁exert	-12.0469
▁prideful	-12.0469
▁aww	-12.0469
▁innovation	-12.047
▁astr	-12.047
▁keyboard	-12.047
▁simulation	-12.047
▁youse	-12.047
withstand	-12.047
▁slapped	-12.047
▁stealth	-12.047
▁exaggerated	-12.047
▁overtime	-12.0471
▁crippled	-12.0471
▁modified	-12.0471
▁evac	-12.0471
▁taunt	-12.0471
▁payphone	-12.0471
sphere	-12.0471
allel	-12.0471
▁showboat	-12.0472
▁mentality	-12.0472
gne	-12.0472
▁rodeo	-12.0472
▁lakis	-12.0472
▁tox	-12.0472
▁ramp	-12.0472
course	-12.0472
▁fivefive	-12.0472
▁yearbook	-12.0472
▁benita	-12.0472
▁clacker	-12.0472
▁mysteriously	-12.0472
▁subjective	-12.0472
▁hoop	-12.0472
▁mixup	-12.0472
rame	-12.0473
▁troy	-12.0473
▁improvement	-12.0473
agan	-12.0473
▁murderee	-12.0473
▁marina	-12.0474
▁meaningful	-12.0474
▁quart	-12.0474
▁secondrate	-12.0474
▁robin	-12.0474
▁itchy	-12.0475
▁davy	-12.0475
▁vig	-12.0475
▁weaver	-12.0475
▁dynamic	-12.0475
▁clause	-12.0475
▁cramp	-12.0475
▁pong	-12.0476
▁dago	-12.0476
▁shte	-12.0476
▁bile	-12.0477
▁effortless	-12.0477
▁salesman	-12.0477
▁selfie	-12.0477
▁instantly	-12.0477
▁bootleggin	-12.0478
▁brandon	-12.0478
▁relieved	-12.0478
▁wrinkled	-12.0478
▁fatty	-12.0478
elley	-12.0478
▁approaches	-12.0479
▁advertised	-12.0479
enne	-12.0479
▁jism	-12.0479
▁bj	-12.0479
omin	-12.0479
▁prego	-12.0479
▁duo	-12.048
▁heathen	-12.048
▁hound	-12.048
▁mattresses	-12.0481
▁mur	-12.0481
▁barnes	-12.0481
msy	-12.0481
▁marcy	-12.0482
idor	-12.0482
▁commitment	-12.0482
▁newborn	-12.0482
▁salam	-12.0483
▁specialize	-12.0483
▁adjusting	-12.0483
▁bloodsuck	-12.0483
▁spade	-12.0483
▁amongst	-12.0484
▁amo	-12.0484
ooned	-12.0484
▁payload	-12.0484
▁altered	-12.0484
▁oriented	-12.0484
▁enjoyment	-12.0485
▁petal	-12.0485
▁forceful	-12.0485
▁assessor	-12.0485
▁showcase	-12.0486
▁hick	-12.0486
▁smartass	-12.0486
▁deli	-12.0486
give	-12.0486
▁baton	-12.0486
▁davidoff	-12.0487
▁highball	-12.0487
▁legit	-12.0487
▁bandage	-12.0487
▁sig	-12.0488
▁goodsen	-12.0488
▁merri	-12.0488
▁hiring	-12.0489
▁prospector	-12.0489
▁flaming	-12.0489
▁companions	-12.049
▁notion	-12.049
▁escalate	-12.049
▁dinnertime	-12.0491
▁kittie	-12.0491
strom	-12.0491
▁dun	-12.0491
▁transportation	-12.0491
▁deduc	-12.0491
▁condemned	-12.0492
▁endangered	-12.0492
▁railroaded	-12.0492
▁unleashed	-12.0492
▁threehour	-12.0492
▁assessed	-12.0492
▁scooped	-12.0492
▁assassination	-12.0492
▁pooped	-12.0492
▁murderous	-12.0492
▁cache	-12.0493
scope	-12.0493
▁bribed	-12.0493
▁hideous	-12.0493
▁visually	-12.0493
playing	-12.0493
▁humanz	-12.0493
▁cambodian	-12.0493
▁mede	-12.0494
▁nicolai	-12.0494
▁atta	-12.0494
▁implies	-12.0495
▁memoirs	-12.0495
▁coworkers	-12.0495
▁demurrers	-12.0495
▁moguls	-12.0495
▁nostrils	-12.0495
▁pediatrics	-12.0495
▁shepherds	-12.0495
▁sprinkles	-12.0495
▁sensations	-12.0495
▁reagans	-12.0495
▁tumours	-12.0495
▁walkway	-12.0496
▁acceptable	-12.0496
▁diesel	-12.0496
▁agony	-12.0497
locks	-12.0497
▁presentable	-12.0497
▁chopper	-12.0497
▁fireball	-12.0498
▁indicate	-12.0498
▁standby	-12.0498
▁satisfying	-12.0499
▁pai	-12.0499
▁sur	-12.0499
▁swelling	-12.0499
▁yeller	-12.05
called	-12.05
▁campus	-12.05
▁bloodline	-12.05
▁passive	-12.0502
▁eta	-12.0503
▁cum	-12.0503
▁jackai	-12.0504
itude	-12.0504
▁cove	-12.0505
enance	-12.0505
▁interruption	-12.0505
yote	-12.0505
▁searchers	-12.0505
▁hein	-12.0506
▁transmitter	-12.0506
▁schoolboy	-12.0506
▁irony	-12.0507
▁settlement	-12.0508
ger	-12.0508
eces	-12.0509
▁swingin	-12.0509
▁inflict	-12.0509
▁bumped	-12.0509
▁bib	-12.051
antic	-12.051
▁jive	-12.0511
▁tonic	-12.0512
▁chant	-12.0514
▁bullshitting	-12.0514
▁mint	-12.0514
▁renewing	-12.0514
▁arriving	-12.0514
▁behaved	-12.0515
▁collapsed	-12.0515
▁wager	-12.0515
▁mont	-12.0515
▁penises	-12.0516
▁established	-12.0517
▁spilled	-12.0517
lson	-12.0518
▁docking	-12.0518
▁highland	-12.0519
▁ur	-12.0519
▁bullhead	-12.052
▁descending	-12.052
▁sweetness	-12.052
▁armies	-12.0521
▁deceitful	-12.0522
▁rescued	-12.0523
▁tilt	-12.0523
▁related	-12.0523
hew	-12.0523
▁paddle	-12.0523
▁relate	-12.0524
▁marketa	-12.0524
aki	-12.0525
▁emotionally	-12.0526
▁scraping	-12.0528
asey	-12.0529
▁hah	-12.053
▁mourning	-12.053
▁effectively	-12.053
▁sung	-12.053
▁delighted	-12.0532
▁blameless	-12.0532
▁kha	-12.0532
sburg	-12.0532
▁purchased	-12.0535
fuckin	-12.0535
▁lsd	-12.0535
▁maint	-12.0535
parents	-12.0535
tzg	-12.0536
▁bitching	-12.0536
cover	-12.0537
▁organiz	-12.0539
▁burnin	-12.0541
▁rental	-12.0542
▁multiply	-12.0543
▁brandy	-12.0543
▁predicted	-12.0543
▁buster	-12.0544
▁swed	-12.0544
▁attending	-12.0546
▁fuckface	-12.0547
▁aging	-12.0547
▁invade	-12.055
▁briefing	-12.0552
▁oliver	-12.0552
▁manual	-12.0553
▁they	-12.0554
▁bully	-12.0555
▁fath	-12.0555
▁snorts	-12.0556
▁yog	-12.0556
▁cuffs	-12.0556
▁handshakes	-12.0556
▁ingredients	-12.0556
▁insects	-12.0556
▁kristens	-12.0556
▁misdemeanors	-12.0556
▁rites	-12.0556
▁rooftops	-12.0556
▁sleeves	-12.0556
▁concludes	-12.0557
▁crooks	-12.0557
▁mules	-12.0557
▁enterprisers	-12.0557
▁generators	-12.0558
upin	-12.0559
yber	-12.056
lets	-12.0561
▁cris	-12.0561
▁disrespecting	-12.0561
▁monitoring	-12.0561
zers	-12.0562
▁comput	-12.0563
▁ohoh	-12.0564
▁touchup	-12.0564
▁heater	-12.0565
reacher	-12.0567
▁sparkler	-12.0567
▁weirdest	-12.0568
▁tightass	-12.0568
▁dispatched	-12.0569
▁countin	-12.0571
ynch	-12.0571
size	-12.0571
tech	-12.0571
▁eastman	-12.0572
kins	-12.0572
▁cryin	-12.0574
▁employing	-12.0577
▁lesion	-12.0577
▁waterboarding	-12.0577
▁topic	-12.0577
▁pounding	-12.0578
▁hostilit	-12.0578
gyn	-12.0581
▁antid	-12.0582
▁thrilled	-12.0582
▁bathe	-12.0583
▁shouted	-12.0584
▁lacer	-12.0585
▁dann	-12.0586
▁senseless	-12.0587
▁doe	-12.0588
▁pun	-12.059
were	-12.059
ringe	-12.0592
▁stretching	-12.0592
▁denying	-12.0593
▁suggestion	-12.0595
▁yelled	-12.0597
▁weaker	-12.0597
ovna	-12.0598
▁extr	-12.0598
▁bearer	-12.0601
▁sparkl	-12.0604
▁unki	-12.0605
made	-12.0608
▁publication	-12.0609
ury	-12.0609
▁blowin	-12.061
▁pint	-12.0611
▁reformer	-12.0616
▁revis	-12.0617
▁texa	-12.0618
▁piti	-12.0618
▁rollin	-12.0618
▁crabs	-12.0619
▁stasis	-12.062
▁prophets	-12.062
▁representatives	-12.062
▁adjustments	-12.062
▁servants	-12.062
▁tensions	-12.062
▁giraffes	-12.0621
▁snails	-12.0621
▁features	-12.0621
▁coup	-12.0622
▁insulted	-12.0622
deemed	-12.0622
kiss	-12.0623
▁churches	-12.0624
▁taco	-12.0625
dow	-12.0626
▁enforce	-12.0629
▁lacke	-12.0629
▁basket	-12.0629
▁pickers	-12.0631
▁knocks	-12.0632
▁tata	-12.0633
root	-12.0638
▁particle	-12.0638
▁aimed	-12.064
llable	-12.064
▁spelling	-12.0643
▁displace	-12.0644
▁hooch	-12.0645
▁reviewed	-12.0647
▁healer	-12.0648
▁demanded	-12.0651
▁presidents	-12.0654
▁engineering	-12.0659
▁folded	-12.0661
▁nighttime	-12.0667
▁specs	-12.0673
▁snatcher	-12.0675
▁drifter	-12.0675
▁boiler	-12.0676
▁nibbl	-12.0677
▁backside	-12.0679
▁daytime	-12.0679
vonne	-12.068
▁cho	-12.0681
yna	-12.0681
▁kicker	-12.0683
▁economics	-12.0684
▁emerge	-12.0684
▁doorways	-12.0685
▁bachelors	-12.0685
▁specimens	-12.0685
▁harlins	-12.0685
▁clowns	-12.0685
▁encourages	-12.0685
▁docks	-12.0686
▁geograph	-12.0686
▁missus	-12.0686
doyou	-12.0687
▁accountants	-12.0688
▁indi	-12.069
▁runup	-12.0696
▁cutest	-12.0698
▁hesped	-12.07
▁practiced	-12.07
▁defended	-12.0701
pack	-12.0702
shape	-12.0705
▁tent	-12.0706
▁hel	-12.0707
▁beto	-12.0713
▁doubled	-12.0714
▁catches	-12.0715
▁diagnos	-12.0716
ani	-12.0716
▁shifted	-12.0717
▁apples	-12.0718
▁shocking	-12.0722
▁juli	-12.0723
▁entering	-12.0726
▁porno	-12.0727
▁patched	-12.0727
▁donn	-12.0728
▁documented	-12.0728
▁clu	-12.073
cuba	-12.0733
▁macy	-12.0745
▁ideal	-12.0746
▁outsider	-12.0746
▁booster	-12.0749
▁appearances	-12.075
▁buttholes	-12.075
▁casinos	-12.075
▁precincts	-12.075
▁temperatures	-12.075
▁bracelets	-12.075
▁yanks	-12.075
▁panick	-12.0754
nie	-12.0754
venture	-12.0758
▁angles	-12.0758
▁patroniz	-12.0759
sten	-12.076
▁manning	-12.0762
webs	-12.0763
ice	-12.0763
cop	-12.0768
▁chilled	-12.0768
▁burr	-12.0772
▁standin	-12.0773
▁lar	-12.0773
▁gramm	-12.0776
▁freshen	-12.0782
▁shaker	-12.0788
▁pressured	-12.0789
uddy	-12.0792
▁ross	-12.0792
▁hesitates	-12.0796
▁borne	-12.0797
▁hardon	-12.0799
▁busting	-12.0804
▁gua	-12.081
onald	-12.0813
▁colleagues	-12.0815
▁conflicts	-12.0815
▁celebrations	-12.0815
▁assessments	-12.0815
▁delusions	-12.0815
▁exams	-12.0815
lais	-12.0818
▁gorg	-12.082
▁heed	-12.0823
▁allud	-12.0826
▁mommys	-12.0828
▁hurtin	-12.0831
▁laps	-12.0832
▁occasions	-12.0841
▁stocking	-12.0843
▁rollers	-12.0847
▁jerking	-12.085
unit	-12.0859
▁imac	-12.0862
▁shorty	-12.0862
oid	-12.0864
▁resi	-12.0866
▁progressing	-12.0867
▁dumping	-12.0868
cant	-12.0869
▁payin	-12.0871
cable	-12.0878
▁ohho	-12.0878
▁deaden	-12.0879
▁fre	-12.088
▁europeans	-12.0881
▁objections	-12.0882
▁recovers	-12.0882
▁belonging	-12.0889
▁meter	-12.0891
▁gring	-12.0897
scar	-12.0897
hus	-12.0898
▁doubted	-12.0906
using	-12.0908
cul	-12.0909
▁careless	-12.0912
▁imagined	-12.0914
bell	-12.0917
ures	-12.0927
elle	-12.0935
▁alsop	-12.0938
▁reminding	-12.0941
▁treys	-12.0947
▁fugitives	-12.0947
▁grenades	-12.0947
▁goats	-12.0947
▁millimeters	-12.0947
▁sausages	-12.0948
▁produces	-12.0948
▁oneway	-12.0951
erve	-12.0955
▁discord	-12.0966
▁rods	-12.0974
▁unwa	-12.0977
▁whwh	-12.0982
▁loo	-12.0985
lates	-12.0995
▁thankful	-12.0995
▁robe	-12.0997
▁lat	-12.1003
mortality	-12.1006
fed	-12.1006
chez	-12.1007
▁ratte	-12.101
▁restrain	-12.1012
▁rituals	-12.1013
▁applications	-12.1013
▁cocktails	-12.1013
▁empires	-12.1013
▁heartbeats	-12.1013
onie	-12.1016
▁fiveo	-12.1016
▁showin	-12.1017
lew	-12.102
ord	-12.1033
▁risking	-12.1034
ympho	-12.104
▁activ	-12.1042
▁sued	-12.1049
▁doubles	-12.1051
▁cre	-12.1055
▁startin	-12.1059
▁hospitals	-12.1064
chester	-12.1065
▁kissy	-12.1071
▁ducks	-12.1077
▁arrows	-12.108
▁olgas	-12.108
▁homicides	-12.1082
ook	-12.1085
gu	-12.1095
vania	-12.1096
▁some	-12.1106
▁brai	-12.1108
sanna	-12.1109
▁judgement	-12.111
laine	-12.1111
ark	-12.1116
read	-12.1117
▁owing	-12.112
▁hive	-12.113
▁sharpen	-12.1133
▁paces	-12.1135
▁braver	-12.114
▁tro	-12.1141
▁retreats	-12.1148
▁strokes	-12.1148
▁endings	-12.1151
▁fails	-12.1152
▁specially	-12.1158
▁maze	-12.116
▁lightly	-12.1165
▁refract	-12.1173
▁camping	-12.1183
▁handler	-12.1185
▁curr	-12.119
▁marg	-12.1203
▁coaching	-12.1203
stro	-12.121
▁stifl	-12.1213
▁rags	-12.1215
▁ksms	-12.1216
▁porto	-12.1219
▁rece	-12.1221
swag	-12.1221
▁sixer	-12.1232
▁poles	-12.1233
ownership	-12.1243
▁savages	-12.1245
▁funds	-12.1247
▁boxed	-12.1249
▁crowding	-12.1253
audi	-12.1262
bad	-12.1262
oids	-12.1264
▁enthusiastic	-12.1266
hre	-12.1275
▁piles	-12.1282
▁cages	-12.1283
▁initials	-12.1284
▁paintings	-12.1284
▁blessings	-12.1285
▁illness	-12.1288
▁ministers	-12.1291
▁diss	-12.1292
ua	-12.1315
urdy	-12.1321
▁classics	-12.1325
▁cur	-12.133
luxe	-12.1341
ngle	-12.1343
ese	-12.1346
▁pizzas	-12.1353
▁prosecutors	-12.1353
sons	-12.1353
▁quarterbacks	-12.1354
▁errors	-12.1355
▁counselors	-12.1357
▁divers	-12.1368
▁joints	-12.1372
▁cared	-12.1372
▁toxin	-12.1388
▁neur	-12.139
▁fighters	-12.1394
mber	-12.1399
▁ropes	-12.1407
▁whinn	-12.1413
▁cra	-12.1414
▁incidents	-12.1421
▁devices	-12.1422
▁traitors	-12.1422
urne	-12.1422
▁seduc	-12.1428
▁snaps	-12.1434
▁occasional	-12.1435
▁freely	-12.1439
▁ofth	-12.144
▁oz	-12.1442
seat	-12.1451
▁mach	-12.1466
▁caves	-12.1483
▁savings	-12.1491
▁burgers	-12.1491
▁settings	-12.1491
▁trunks	-12.1491
▁valleys	-12.1491
▁assess	-12.1494
▁goals	-12.1494
▁zi	-12.1495
▁bene	-12.1504
chat	-12.151
▁boomer	-12.151
shire	-12.1523
unt	-12.1526
▁tang	-12.154
▁carding	-12.1551
arch	-12.1559
▁enters	-12.1575
▁weekly	-12.1585
▁dro	-12.1592
▁deci	-12.1594
▁contacting	-12.1595
▁mythic	-12.1602
nium	-12.1608
▁brownie	-12.161
irm	-12.1617
▁fudd	-12.1625
▁cheats	-12.163
▁godson	-12.1631
▁virgini	-12.1631
▁accents	-12.1631
▁impressions	-12.1633
repe	-12.1634
▁rut	-12.164
▁buds	-12.1646
▁outofbo	-12.1646
luf	-12.1671
ult	-12.1673
arza	-12.1685
▁infect	-12.1702
▁villages	-12.1703
omet	-12.1741
▁fuckup	-12.1747
▁summ	-12.1747
▁fli	-12.1758
▁gir	-12.1762
are	-12.1762
mov	-12.1773
▁fal	-12.1789
▁beautifully	-12.1793
▁idle	-12.181
▁misha	-12.1834
▁putt	-12.1838
▁televisions	-12.1845
nnies	-12.1848
tox	-12.1879
▁veni	-12.1891
▁marksman	-12.1905
▁strips	-12.1912
▁fortunes	-12.1925
▁freed	-12.1938
▁confi	-12.1944
▁will	-12.1959
atic	-12.1965
destructive	-12.1971
▁lowing	-12.1975
▁posts	-12.198
▁maca	-12.1981
▁rocked	-12.1986
▁albums	-12.199
▁beatings	-12.1993
▁boxer	-12.1997
paid	-12.2008
ith	-12.2011
into	-12.2012
terra	-12.2023
maker	-12.2029
▁cooperat	-12.2045
du	-12.2058
▁blooms	-12.2062
uit	-12.2072
▁stocks	-12.2084
▁relevan	-12.2092
rus	-12.2096
▁au	-12.2107
nny	-12.2112
▁bran	-12.2117
tional	-12.2143
▁cures	-12.2144
▁carlis	-12.215
▁trainer	-12.2158
▁jon	-12.2175
▁bu	-12.2179
ryan	-12.2203
▁views	-12.2204
▁cakes	-12.2213
▁pomp	-12.2232
ustling	-12.2239
▁clo	-12.224
▁masse	-12.2256
▁scramble	-12.2277
▁lotion	-12.2286
lunge	-12.2301
▁gro	-12.2303
▁lively	-12.2305
▁caci	-12.2308
▁sorting	-12.2329
▁styles	-12.2361
bach	-12.2362
▁heats	-12.2369
▁banker	-12.2376
▁treats	-12.2376
▁puta	-12.2386
▁loc	-12.2395
▁premat	-12.2402
▁rehearse	-12.2425
▁toilets	-12.2435
▁mam	-12.2437
star	-12.2451
mmm	-12.2472
outs	-12.2477
▁upgrade	-12.2484
▁manipulat	-12.2492
▁females	-12.2511
▁articles	-12.2512
▁skys	-12.2529
▁sinu	-12.2538
cdr	-12.2539
▁shitter	-12.2545
▁loans	-12.256
▁camerons	-12.2587
apa	-12.2588
▁hunts	-12.2595
▁wires	-12.2596
▁seller	-12.2602
▁phon	-12.2607
cial	-12.2624
▁adi	-12.2626
▁brun	-12.2645
phobi	-12.2673
▁rem	-12.2716
ini	-12.2726
▁pose	-12.273
▁hom	-12.2732
▁gash	-12.2733
uez	-12.2748
▁ante	-12.2766
▁cata	-12.2769
late	-12.2775
disclosed	-12.278
▁careers	-12.2785
upp	-12.2786
▁lett	-12.2804
▁greene	-12.2804
▁ir	-12.2807
sherman	-12.2817
▁grandpas	-12.2824
mmmmm	-12.2828
▁pens	-12.2831
fa	-12.2871
dra	-12.289
lock	-12.29
ino	-12.2903
▁jug	-12.2905
ulf	-12.2907
ugh	-12.2912
▁speculat	-12.2914
▁propri	-12.2918
ius	-12.2923
ittle	-12.2933
▁anya	-12.2939
ukh	-12.2942
het	-12.2953
cum	-12.2979
▁strippe	-12.2999
list	-12.3026
▁mia	-12.3044
ten	-12.3046
▁das	-12.305
ulder	-12.3092
▁rust	-12.3094
pido	-12.31
▁hesitat	-12.3101
▁aur	-12.3101
rsten	-12.316
▁dem	-12.3165
▁deputi	-12.3184
▁kenn	-12.3184
uity	-12.32
yria	-12.3212
▁gaz	-12.3217
orah	-12.3221
▁flam	-12.3238
▁ske	-12.3262
lton	-12.3264
▁humil	-12.3289
▁dor	-12.3299
▁cruci	-12.33
bel	-12.3314
▁hav	-12.3327
ruled	-12.3338
stop	-12.3347
▁deceiv	-12.3372
▁manwhorin	-12.3393
▁dab	-12.3411
ethru	-12.3419
xia	-12.3435
▁tact	-12.3453
uh	-12.3457
anda	-12.3477
▁evacuat	-12.348
▁wi	-12.3484
manship	-12.3488
bian	-12.3514
▁craz	-12.3518
sting	-12.352
▁trou	-12.352
az	-12.3528
▁cob	-12.3545
enny	-12.3547
tch	-12.3555
vis	-12.3558
▁vibra	-12.3587
▁deliberat	-12.3596
ncile	-12.3643
▁slo	-12.3644
lston	-12.3646
zai	-12.3652
▁ji	-12.3664
taker	-12.3665
▁contribute	-12.3681
tie	-12.3688
▁att	-12.3704
▁solv	-12.3714
owing	-12.3716
oul	-12.3718
uz	-12.3738
▁fam	-12.375
keyp	-12.3756
▁hypo	-12.3762
ren	-12.3802
ky	-12.3813
dor	-12.3814
perish	-12.3816
eat	-12.3826
▁hyster	-12.3827
johner	-12.3834
agna	-12.3865
▁summa	-12.389
▁coll	-12.3895
▁for	-12.3901
▁rb	-12.3945
▁lung	-12.3955
▁pac	-12.396
erson	-12.3991
▁symb	-12.4021
trovert	-12.4026
aver	-12.4038
▁wwe	-12.4039
▁seduce	-12.4051
ff	-12.4077
▁googl	-12.4087
law	-12.4088
▁fest	-12.4096
making	-12.4101
▁ela	-12.4107
lot	-12.4117
▁rye	-12.4121
▁that	-12.4141
ien	-12.4141
oozing	-12.4143
▁emp	-12.4173
▁roc	-12.4177
ride	-12.4197
▁trave	-12.4197
▁simone	-12.4202
belli	-12.421
▁compass	-12.4255
▁interfer	-12.4263
▁squeez	-12.4291
pie	-12.4314
▁threecar	-12.4315
jc	-12.4317
▁aven	-12.4325
huh	-12.4339
sharing	-12.4343
lux	-12.4346
▁hern	-12.4358
▁bla	-12.4397
pit	-12.4404
▁genera	-12.4405
lam	-12.4406
arian	-12.4414
uma	-12.4429
nickers	-12.443
lde	-12.4446
▁smok	-12.4448
▁sop	-12.4451
▁stag	-12.4482
ave	-12.4489
▁bab	-12.4493
nea	-12.4496
racking	-12.4504
bin	-12.4507
atta	-12.4521
hire	-12.4529
▁forgettin	-12.4546
▁uncertain	-12.4551
▁humanit	-12.4555
feeder	-12.4577
alo	-12.4577
▁penne	-12.459
▁facilit	-12.4592
tom	-12.4592
order	-12.4614
▁ei	-12.4619
rite	-12.4627
▁gat	-12.4629
▁den	-12.4633
▁kh	-12.4668
▁coo	-12.4679
lso	-12.4683
▁shag	-12.4693
▁soph	-12.4693
bler	-12.4699
served	-12.4704
finitely	-12.4711
eri	-12.4724
▁bah	-12.4731
▁sco	-12.4735
rius	-12.4769
bl	-12.4779
rse	-12.4789
appointed	-12.4827
bert	-12.4841
assed	-12.4847
nati	-12.4853
athy	-12.4867
itz	-12.4869
▁hym	-12.4899
uge	-12.4902
sses	-12.4943
▁aqu	-12.4947
▁impos	-12.496
▁dim	-12.4969
yyou	-12.4972
ku	-12.498
appa	-12.4987
q	-12.4991
kers	-12.5004
▁loop	-12.501
avi	-12.5012
tori	-12.5021
otto	-12.5028
▁gall	-12.5032
▁programm	-12.5039
▁deni	-12.5048
▁eri	-12.5062
▁arsch	-12.5069
ital	-12.5069
▁rang	-12.5071
cuse	-12.5072
ix	-12.5084
▁cuida	-12.5085
ener	-12.5087
signed	-12.5106
▁visi	-12.512
icles	-12.5122
rica	-12.5139
ira	-12.5142
loaded	-12.5143
atch	-12.515
▁shi	-12.5153
animated	-12.5156
ckin	-12.5157
eur	-12.5164
▁muti	-12.5164
idic	-12.5177
▁impose	-12.5187
action	-12.5194
▁fol	-12.5201
▁magn	-12.5204
▁troop	-12.5206
merged	-12.5208
season	-12.5211
dit	-12.5219
▁remo	-12.5224
har	-12.5225
▁frighten	-12.5228
arine	-12.5231
kill	-12.5238
▁slain	-12.524
stage	-12.5242
▁captiv	-12.5242
▁chore	-12.5247
▁fled	-12.5253
▁bake	-12.5254
▁frag	-12.5266
▁cripple	-12.5267
▁crook	-12.5273
▁clatter	-12.5274
aries	-12.5277
▁eb	-12.5277
▁temp	-12.5278
falla	-12.528
lity	-12.5281
parent	-12.5282
▁conclude	-12.5285
▁thirtie	-12.5286
▁bellhop	-12.5286
▁guerrilla	-12.5286
▁mutation	-12.5286
▁rainbow	-12.5286
▁vegetable	-12.5286
▁analyst	-12.5286
▁lump	-12.5287
▁disposable	-12.5287
▁alibi	-12.5287
▁vein	-12.5287
▁grievance	-12.5287
▁admission	-12.5288
▁panel	-12.5289
▁thigh	-12.5289
▁remark	-12.5291
minate	-12.5291
▁antique	-12.5293
▁repel	-12.5294
▁groan	-12.5295
▁imperfect	-12.5296
[...]
