<unk>	0
<s>	0
</s>	0
s	-3.59305
▁dont	-4.8186
▁know	-4.83778
▁im	-4.84049
▁well	-4.90066
▁oh	-4.90128
ing	-4.95395
▁go	-4.97793
▁get	-5.01764
▁like	-5.04301
▁come	-5.0633
▁one	-5.06637
▁right	-5.12935
▁l	-5.19463
▁see	-5.24442
▁youre	-5.24943
▁got	-5.33436
ed	-5.34199
▁good	-5.35788
▁thats	-5.42278
▁yes	-5.47799
▁think	-5.50665
▁back	-5.58243
▁us	-5.59794
▁time	-5.6249
d	-5.65292
▁take	-5.65931
▁yeah	-5.69272
▁want	-5.721
▁look	-5.72318
▁okay	-5.72884
▁na	-5.73255
▁would	-5.73367
▁man	-5.74791
▁ill	-5.76794
▁going	-5.7726
▁cant	-5.81489
▁hes	-5.8334
▁	-5.83918
▁little	-5.85194
▁way	-5.88109
▁hey	-5.93403
▁never	-5.93755
▁make	-5.97711
▁gon	-5.99193
y	-5.99265
▁could	-5.99901
▁let	-6.00612
▁tell	-6.01364
▁say	-6.04999
▁really	-6.05773
e	-6.06218
▁help	-6.1099
▁sure	-6.13993
▁need	-6.14231
▁find	-6.14837
▁theres	-6.16343
▁music	-6.18292
ly	-6.18633
▁give	-6.19425
▁must	-6.19427
▁love	-6.19444
▁two	-6.21353
▁something	-6.22557
▁lets	-6.23476
▁day	-6.24604
▁home	-6.25002
▁mr	-6.26125
▁sir	-6.26735
▁thank	-6.27389
▁whats	-6.28926
▁please	-6.2999
▁great	-6.30533
▁mean	-6.3108
▁people	-6.32466
▁ive	-6.34651
▁much	-6.35168
▁didnt	-6.4023
▁wait	-6.43158
▁new	-6.43206
▁thing	-6.4355
er	-6.43686
▁even	-6.46572
▁first	-6.47719
▁life	-6.49277
▁away	-6.50242
▁sorry	-6.50879
▁big	-6.51528
▁night	-6.55251
a	-6.55386
▁theyre	-6.55484
▁work	-6.55704
▁keep	-6.56164
▁said	-6.56492
▁youll	-6.56492
▁long	-6.59813
▁anything	-6.60298
n	-6.61859
▁uh	-6.62027
t	-6.62107
▁world	-6.62765
▁put	-6.63153
▁stop	-6.63156
▁nothing	-6.63165
▁better	-6.64626
in	-6.65004
▁boy	-6.65112
i	-6.66787
▁thought	-6.66903
▁miss	-6.67339
▁wont	-6.67614
▁maybe	-6.67628
▁father	-6.69205
▁place	-6.70455
▁every	-6.70545
▁around	-6.70696
▁old	-6.70879
▁still	-6.71486
▁shes	-6.71491
▁ever	-6.72052
▁made	-6.73565
▁show	-6.73795
▁last	-6.7435
▁always	-6.75098
▁things	-6.7631
▁everything	-6.76747
▁coming	-6.77612
▁leave	-6.77897
▁mother	-6.78762
▁hear	-6.79177
▁nice	-6.79796
▁course	-6.8013
▁three	-6.8143
▁stay	-6.81842
▁enough	-6.82744
▁may	-6.83128
▁girl	-6.85948
▁care	-6.8623
▁another	-6.8634
o	-6.86351
▁heart	-6.87135
r	-6.88342
▁real	-6.88377
▁water	-6.88855
▁la	-6.88932
▁dad	-6.89713
▁god	-6.90712
▁years	-6.91098
▁call	-6.923
▁hold	-6.9321
▁lm	-6.93467
▁kind	-6.93825
▁name	-6.93938
▁believe	-6.94078
▁told	-6.94442
▁youve	-6.95945
▁men	-6.9717
▁family	-6.97463
▁mom	-7.00043
es	-7.00488
▁fine	-7.00601
▁done	-7.02183
▁thanks	-7.02435
▁came	-7.03179
▁best	-7.03285
▁id	-7.03815
▁bring	-7.04324
▁son	-7.04354
▁bear	-7.04619
▁hand	-7.05242
▁lot	-7.05331
▁found	-7.05422
▁ta	-7.0587
▁isnt	-7.06003
▁young	-7.06393
▁woman	-7.0656
▁hi	-7.06642
al	-7.07107
▁might	-7.07434
▁friend	-7.07599
▁many	-7.09785
▁ha	-7.09907
▁seen	-7.1085
▁try	-7.10926
▁room	-7.11163
▁king	-7.11596
▁left	-7.11734
▁hello	-7.11807
▁remember	-7.1243
ve	-7.12948
▁bad	-7.13344
▁girls	-7.13433
▁ready	-7.13641
▁guys	-7.14535
▁mind	-7.14748
▁lost	-7.15348
▁talk	-7.15848
▁everyone	-7.15962
▁feel	-7.16297
▁ask	-7.17742
▁without	-7.17814
l	-7.19333
▁yogi	-7.20355
▁saw	-7.20363
▁doesnt	-7.20999
▁watch	-7.21096
▁weve	-7.21655
▁listen	-7.2174
▁shall	-7.21743
▁hard	-7.22793
▁hope	-7.22836
▁understand	-7.22886
▁princess	-7.23577
m	-7.25454
▁next	-7.25636
▁live	-7.25914
▁beautiful	-7.26316
▁house	-7.26351
▁start	-7.2687
▁dear	-7.2692
▁whole	-7.27695
▁whoa	-7.27784
▁run	-7.27874
▁head	-7.28712
▁playing	-7.29627
▁true	-7.29789
▁went	-7.29793
▁morning	-7.29797
▁gone	-7.30405
▁wrong	-7.30498
▁brother	-7.30681
▁getting	-7.30686
▁move	-7.31106
▁huh	-7.31934
▁alone	-7.32658
▁days	-7.3321
g	-7.33246
▁eat	-7.33369
▁open	-7.33652
or	-7.34757
▁food	-7.34862
▁land	-7.35061
▁hurry	-7.3636
▁aint	-7.36362
▁looking	-7.36955
▁wan	-7.36968
▁together	-7.37118
▁guess	-7.37118
▁wanted	-7.37315
▁ah	-7.37445
▁heard	-7.3775
▁money	-7.37883
▁else	-7.38653
▁prince	-7.39353
u	-7.39423
▁speaking	-7.39858
▁pretty	-7.40207
▁knew	-7.40208
▁dog	-7.40271
▁friends	-7.40773
▁hell	-7.40908
▁today	-7.40994
▁un	-7.41116
▁horse	-7.41499
▁boat	-7.42316
▁soon	-7.43241
▁someone	-7.43394
▁sea	-7.43759
▁idea	-7.43887
▁dead	-7.43974
▁happy	-7.4421
▁trying	-7.45196
▁excuse	-7.45854
▁happened	-7.46114
▁whos	-7.46369
▁job	-7.46691
▁fly	-7.46937
c	-7.4755
▁year	-7.48119
▁far	-7.48232
▁wish	-7.48281
▁harry	-7.48382
▁max	-7.48495
▁already	-7.49229
▁worry	-7.49229
▁rest	-7.49283
▁lady	-7.49327
▁luna	-7.50092
▁wasnt	-7.50092
▁lts	-7.51059
▁dream	-7.51465
▁sweet	-7.51803
▁easy	-7.51845
▁trouble	-7.52052
▁lll	-7.52219
▁use	-7.52723
▁s	-7.53522
▁welcome	-7.5365
▁high	-7.53987
▁part	-7.54243
▁tonight	-7.54517
▁cave	-7.54557
▁talking	-7.54649
▁kill	-7.54675
▁play	-7.55124
▁since	-7.55397
▁tomorrow	-7.55426
▁kid	-7.55494
▁yet	-7.55528
▁wouldnt	-7.55573
▁mrs	-7.55968
▁fun	-7.56217
▁angel	-7.56307
▁christmas	-7.56343
▁matter	-7.56389
▁face	-7.56499
▁eyes	-7.5673
▁everybody	-7.57271
est	-7.57352
▁close	-7.57521
▁mine	-7.57579
▁sam	-7.58208
▁city	-7.5823
▁crowd	-7.58322
b	-7.58647
▁ho	-7.58948
▁akita	-7.59147
▁lord	-7.5915
▁earth	-7.60102
▁cool	-7.60108
▁fire	-7.60884
▁st	-7.61173
▁ya	-7.61223
▁star	-7.61782
▁youd	-7.62075
▁meet	-7.62308
▁stand	-7.6256
▁five	-7.63035
▁gold	-7.63922
▁along	-7.63999
ion	-7.64029
▁set	-7.64081
▁town	-7.64306
▁guy	-7.6438
st	-7.6442
▁perfect	-7.64794
▁moment	-7.65023
▁door	-7.65369
▁ago	-7.6602
▁couldnt	-7.66138
▁bird	-7.66382
▁bit	-7.66412
▁also	-7.67034
▁havent	-7.67035
▁kids	-7.67992
▁four	-7.68064
▁sound	-7.68318
▁pay	-7.68556
▁looks	-7.68968
▁business	-7.69106
▁black	-7.69107
▁actually	-7.69118
▁follow	-7.70063
▁took	-7.70159
▁sleep	-7.70238
▁change	-7.7028
▁afraid	-7.71222
▁sun	-7.71425
▁though	-7.72166
▁half	-7.72295
▁stuff	-7.72297
▁hmm	-7.72301
▁catch	-7.72319
▁turn	-7.72752
▁light	-7.72773
▁minute	-7.72877
▁late	-7.7333
▁anyone	-7.73384
▁ball	-7.73408
▁car	-7.73764
▁boo	-7.73982
en	-7.74134
▁ok	-7.74843
on	-7.74913
▁wonderful	-7.75393
▁sal	-7.75444
▁called	-7.75579
h	-7.76466
▁direction	-7.77422
▁full	-7.77589
▁die	-7.77623
▁hands	-7.77653
▁forget	-7.7783
▁chance	-7.77856
▁quite	-7.77891
▁later	-7.7802
▁end	-7.78261
▁count	-7.78555
p	-7.79364
▁re	-7.79528
▁dance	-7.79591
▁break	-7.80627
▁promise	-7.80989
▁hit	-7.81084
▁strong	-7.81119
▁check	-7.81298
▁inaudible	-7.81344
▁forever	-7.81345
▁child	-7.81353
▁taking	-7.8136
▁bed	-7.81794
▁a	-7.82046
▁arent	-7.82536
ers	-7.82601
▁drink	-7.83002
▁ye	-7.83113
▁m	-7.83345
▁word	-7.83476
▁save	-7.83484
▁neecro	-7.83738
▁baby	-7.83741
▁used	-7.83828
▁free	-7.83866
▁em	-7.83907
▁laughing	-7.83997
▁singing	-7.84152
▁waiting	-7.84188
▁wheres	-7.84596
▁different	-7.84741
▁brought	-7.84958
▁maam	-7.84958
▁special	-7.84958
ies	-7.85255
▁um	-7.8569
▁krasta	-7.86192
▁cause	-7.86194
▁ladies	-7.86217
able	-7.8649
▁gasps	-7.86558
▁goes	-7.8671
▁camp	-7.87232
▁elvis	-7.87445
▁speak	-7.8782
▁c	-7.87856
▁second	-7.88525
▁started	-7.89612
▁de	-7.89788
▁point	-7.89794
▁ride	-7.89847
ll	-7.89912
▁gave	-7.8999
▁children	-7.9
▁least	-7.90017
▁lt	-7.90547
▁says	-7.9122
▁language	-7.91289
▁dinner	-7.9129
▁bye	-7.9129
▁making	-7.91293
▁wow	-7.91304
le	-7.91579
▁comes	-7.92021
ful	-7.9215
▁royal	-7.92588
▁almost	-7.92605
▁pick	-7.92666
▁return	-7.92723
▁trust	-7.93429
▁reason	-7.93862
▁nobody	-7.93938
▁ahead	-7.93947
▁air	-7.94076
▁clear	-7.95081
▁heaven	-7.95107
▁small	-7.9512
▁school	-7.95281
▁perhaps	-7.95289
▁behind	-7.95292
▁sanna	-7.95296
▁send	-7.95387
ie	-7.95728
▁cat	-7.95729
▁whispers	-7.95841
▁julio	-7.96666
▁problem	-7.96687
it	-7.96695
▁tara	-7.96714
▁seem	-7.97246
▁jack	-7.97466
▁sit	-7.97536
▁seems	-7.97993
▁poor	-7.98072
▁tree	-7.98355
▁lf	-7.98557
▁da	-7.9891
▁captain	-7.99457
▁goodbye	-7.99457
▁tommy	-7.99467
▁feet	-7.99468
▁highness	-7.9949
▁animals	-7.99587
▁pa	-7.99751
▁plan	-7.99771
▁fish	-7.99902
▁probably	-8.00885
▁sometimes	-8.01225
▁safe	-8.01227
▁they	-8.0229
▁tom	-8.02326
▁death	-8.02339
▁voice	-8.02343
▁case	-8.02346
▁river	-8.02502
▁boys	-8.03384
▁across	-8.03805
▁important	-8.03808
▁fear	-8.03809
▁exactly	-8.03831
▁mama	-8.0388
k	-8.04028
▁sister	-8.04055
▁mountain	-8.04075
▁book	-8.04232
▁times	-8.04582
an	-8.04821
▁needs	-8.04983
▁order	-8.05103
▁groove	-8.05298
▁uncle	-8.05298
▁sort	-8.05301
▁theyll	-8.05336
▁daughter	-8.05602
f	-8.0575
ic	-8.05878
▁happen	-8.05965
▁top	-8.06222
▁anyway	-8.06813
▁summer	-8.06813
▁mark	-8.06814
▁chef	-8.06817
▁jason	-8.06818
▁fo	-8.0685
▁secret	-8.07185
▁rock	-8.08003
▁p	-8.08124
▁step	-8.08177
▁yo	-8.08292
▁blood	-8.08351
▁argh	-8.08353
▁master	-8.08385
▁cheering	-8.08493
▁phone	-8.08538
▁touch	-8.08686
▁learn	-8.08693
▁read	-8.08869
▁bell	-8.09095
▁laughs	-8.09629
▁lovely	-8.09729
▁dark	-8.09895
▁outside	-8.09916
▁inside	-8.0992
▁forest	-8.0993
▁side	-8.09985
v	-8.10165
▁horses	-8.10495
▁saying	-8.10625
▁makes	-8.11246
▁bears	-8.11267
▁quiet	-8.11287
▁throw	-8.1136
▁lead	-8.11377
▁alive	-8.11506
▁honey	-8.11509
▁amazing	-8.11518
▁sign	-8.11847
▁group	-8.11987
▁walk	-8.12241
▁line	-8.12497
▁wake	-8.13127
▁sent	-8.13147
▁working	-8.13243
▁hate	-8.14005
▁sounds	-8.14058
▁cry	-8.14152
▁red	-8.14317
▁ten	-8.14494
▁train	-8.1461
▁charlie	-8.14753
▁moses	-8.14754
▁charge	-8.14758
▁rain	-8.14791
▁met	-8.16034
▁fair	-8.16154
▁crazy	-8.1642
▁grunting	-8.1642
▁women	-8.1642
▁island	-8.16422
▁story	-8.16428
▁mary	-8.16488
▁pup	-8.16993
▁human	-8.17072
to	-8.17283
▁rat	-8.17406
▁deal	-8.1747
▁glad	-8.17898
▁fast	-8.17911
▁lve	-8.18005
▁cook	-8.18031
▁truth	-8.18115
▁wife	-8.18115
▁supposed	-8.18431
▁evening	-8.18611
▁band	-8.18784
▁number	-8.18831
re	-8.19013
▁grow	-8.19293
▁thinking	-8.19742
▁means	-8.19816
▁gentlemen	-8.1984
▁hide	-8.1987
▁oksana	-8.19926
▁wed	-8.20297
▁months	-8.20541
▁tinker	-8.20611
▁whale	-8.20641
▁i	-8.21241
▁grunts	-8.21593
▁john	-8.21593
▁flipper	-8.21616
▁aye	-8.21629
▁hair	-8.21634
▁dreams	-8.21668
▁able	-8.22033
▁power	-8.22355
▁minutes	-8.22423
▁marry	-8.22497
▁shoot	-8.22525
▁gun	-8.22555
▁given	-8.22612
▁meeting	-8.22881
▁d	-8.23142
▁till	-8.23268
▁possible	-8.23379
▁somebody	-8.23379
▁vandergelder	-8.23379
▁chuckles	-8.2338
▁tiny	-8.23409
▁ice	-8.23424
▁ray	-8.23463
▁be	-8.24016
▁week	-8.24312
▁stone	-8.24327
▁kings	-8.24346
▁song	-8.24501
▁feeling	-8.24502
▁knows	-8.24622
▁lives	-8.25115
▁akhoba	-8.25197
▁others	-8.25197
▁buddy	-8.25199
▁york	-8.252
▁white	-8.25212
▁frankie	-8.25214
▁shot	-8.25229
▁team	-8.25247
▁b	-8.25264
▁cold	-8.25276
▁in	-8.26363
▁lose	-8.26772
▁strange	-8.26924
▁spirit	-8.27049
▁anybody	-8.27049
▁leaving	-8.2708
▁past	-8.27227
la	-8.27444
▁heres	-8.27516
▁party	-8.27571
▁smell	-8.28098
▁eye	-8.28323
▁attention	-8.28936
▁morgan	-8.28936
▁sheep	-8.2894
▁six	-8.28946
▁santa	-8.28947
▁table	-8.2899
▁drop	-8.2925
▁hang	-8.29652
▁e	-8.30153
▁ship	-8.30154
▁buy	-8.30167
ow	-8.30208
less	-8.30489
▁mad	-8.30654
▁luck	-8.30755
id	-8.30804
▁present	-8.30836
▁starbird	-8.30861
▁whatever	-8.30862
▁dolly	-8.30925
▁billy	-8.31002
ch	-8.31384
▁fool	-8.31508
▁guard	-8.31555
ity	-8.32206
▁honor	-8.32345
▁asked	-8.32351
▁park	-8.32674
▁fact	-8.32767
▁shut	-8.32787
▁humphrey	-8.3282
▁narrator	-8.3282
▁kingdom	-8.3282
▁squeaks	-8.32821
▁running	-8.32825
▁married	-8.32835
▁clothes	-8.32845
▁tried	-8.32875
▁spring	-8.32898
nt	-8.33019
▁blue	-8.33048
▁fall	-8.3318
▁hours	-8.33446
▁dogs	-8.33634
▁taken	-8.33929
▁stars	-8.34292
▁person	-8.34691
▁ow	-8.34737
▁box	-8.34754
▁beat	-8.34807
▁dancing	-8.34822
▁rich	-8.34824
▁living	-8.34825
▁wedding	-8.34833
▁american	-8.3487
▁screaming	-8.3493
▁west	-8.34956
▁less	-8.3513
▁hot	-8.35521
▁road	-8.35932
▁become	-8.36125
▁street	-8.3621
▁hour	-8.36282
▁reach	-8.36348
▁quick	-8.36471
▁skate	-8.36534
▁sick	-8.36857
▁chief	-8.36861
▁majesty	-8.36864
▁snow	-8.36864
▁south	-8.36865
▁blow	-8.36865
▁anymore	-8.3687
▁paul	-8.36885
▁daddy	-8.36905
▁moon	-8.36915
▁trip	-8.3734
▁hed	-8.37392
▁wonder	-8.3767
te	-8.3791
▁arms	-8.38027
▁restaurant	-8.38249
▁happens	-8.3847
▁suppose	-8.38608
reign	-8.38647
▁somewhere	-8.38944
▁thousand	-8.38944
▁hurt	-8.38945
▁front	-8.38946
▁village	-8.38951
▁country	-8.38974
▁tired	-8.39023
ur	-8.39542
▁sing	-8.39945
▁join	-8.40426
▁monster	-8.40474
▁question	-8.40505
▁miles	-8.40584
▁barnaby	-8.41072
▁colonel	-8.41072
▁impossible	-8.41072
▁spanish	-8.41073
▁claus	-8.41075
▁born	-8.41129
▁board	-8.4118
▁quickly	-8.4129
▁magic	-8.4147
▁words	-8.41549
ous	-8.42369
▁cut	-8.42388
▁explain	-8.42734
▁short	-8.42756
▁news	-8.42915
▁near	-8.43024
▁choice	-8.43246
▁kolo	-8.43246
▁sense	-8.43246
▁hungry	-8.43248
▁kita	-8.43253
▁funny	-8.4326
▁upon	-8.43266
▁ooh	-8.43268
▁taste	-8.43294
▁swifty	-8.43298
▁law	-8.43377
▁fairy	-8.43576
▁jump	-8.44048
▁gods	-8.44797
▁dr	-8.45158
▁george	-8.45468
▁kitchen	-8.45468
▁stupid	-8.45468
▁proud	-8.45468
▁kiss	-8.45468
▁moving	-8.45478
▁giving	-8.4548
▁finally	-8.45569
▁hole	-8.45573
▁heh	-8.45585
▁watching	-8.45671
▁wants	-8.46215
▁loved	-8.46592
▁clean	-8.46598
▁w	-8.46715
▁fight	-8.46834
▁talent	-8.47252
▁se	-8.47674
▁careful	-8.4771
▁couple	-8.4774
▁president	-8.4774
▁simple	-8.4774
▁africa	-8.47742
▁professor	-8.47743
▁coast	-8.47743
▁doctor	-8.47744
▁rose	-8.47767
▁emma	-8.47768
▁heroes	-8.47798
ness	-8.47848
ation	-8.48204
ry	-8.48205
▁killed	-8.48963
▁answer	-8.49063
▁command	-8.49198
▁slow	-8.49856
▁act	-8.49876
▁million	-8.50039
▁forgive	-8.50066
▁grab	-8.50066
▁raccoon	-8.50066
▁indeed	-8.50066
▁afternoon	-8.50067
▁nto	-8.50089
um	-8.50692
▁littlest	-8.50819
▁growls	-8.50879
man	-8.51308
▁ground	-8.51586
us	-8.51664
▁engine	-8.52057
▁picture	-8.52057
▁straight	-8.52398
ar	-8.52434
▁either	-8.52447
▁instead	-8.52447
▁randy	-8.52456
▁pole	-8.5247
▁busy	-8.52514
▁unless	-8.52534
▁wind	-8.52543
▁certainly	-8.52616
▁growing	-8.53435
▁pull	-8.53671
▁damn	-8.54384
▁share	-8.54512
▁belong	-8.54616
▁animal	-8.5466
▁deep	-8.54673
▁except	-8.54785
▁abbie	-8.54886
▁husband	-8.54886
▁wild	-8.54886
▁foot	-8.54888
▁dangerous	-8.54906
▁green	-8.54908
▁spend	-8.5491
▁age	-8.55095
▁early	-8.55137
▁sighs	-8.55306
▁known	-8.5547
▁died	-8.56058
▁enjoy	-8.56643
ia	-8.56648
▁worth	-8.5712
▁tea	-8.57184
▁north	-8.57385
▁everywhere	-8.57386
▁tour	-8.57388
▁shell	-8.5739
▁none	-8.57401
▁soup	-8.57409
▁mister	-8.57422
▁madame	-8.57533
▁ohh	-8.57536
▁decided	-8.57545
▁scared	-8.5758
▁lucky	-8.57716
ig	-8.57766
▁wings	-8.57775
▁br	-8.58235
rs	-8.58263
▁win	-8.58484
▁search	-8.58706
▁birds	-8.59025
▁warm	-8.5923
at	-8.59907
▁seven	-8.5994
▁future	-8.5995
▁police	-8.5995
▁levi	-8.59951
▁alright	-8.59952
▁stick	-8.59969
▁joe	-8.5997
▁toy	-8.59971
▁low	-8.60509
▁wear	-8.616
▁teach	-8.62196
ate	-8.62211
▁agree	-8.62214
▁soft	-8.62376
▁idiot	-8.62408
▁often	-8.62582
▁queen	-8.62582
▁service	-8.62582
▁smile	-8.62582
▁respect	-8.62582
▁mike	-8.62588
▁push	-8.62589
▁area	-8.62621
▁fit	-8.6273
▁mayor	-8.62978
▁dare	-8.63004
el	-8.63099
▁cute	-8.63133
▁promised	-8.63386
▁continues	-8.6375
▁calling	-8.63808
▁longer	-8.63809
▁sad	-8.63853
▁lived	-8.63973
ta	-8.64012
ge	-8.64088
▁telling	-8.64193
▁lad	-8.64257
▁h	-8.64687
▁date	-8.64887
▁th	-8.65014
▁office	-8.65149
▁double	-8.65284
▁beyond	-8.65284
▁marriage	-8.65284
▁itll	-8.65296
▁write	-8.65297
▁terrible	-8.65327
▁ranger	-8.65327
▁brave	-8.65327
▁carry	-8.65336
▁nature	-8.65344
▁sky	-8.65352
▁pumpkin	-8.65383
▁broken	-8.65415
▁wine	-8.65653
▁k	-8.6577
ra	-8.66181
▁worked	-8.66429
ish	-8.66655
▁protect	-8.66725
▁t	-8.66727
ting	-8.67124
▁bet	-8.6727
▁crow	-8.67581
▁fathers	-8.67628
▁an	-8.67693
as	-8.67795
▁fell	-8.67903
▁visit	-8.67985
▁danger	-8.6806
▁darling	-8.68062
▁lunch	-8.68062
▁zorro	-8.68062
▁entire	-8.68062
▁tough	-8.68065
▁truck	-8.68065
▁among	-8.68066
▁parents	-8.68067
▁pleasure	-8.68067
▁shouldnt	-8.68075
▁soul	-8.68088
▁coop	-8.68098
▁horn	-8.68147
▁shh	-8.68382
▁asking	-8.68433
▁teacher	-8.685
ii	-8.68539
ine	-8.68776
▁art	-8.68942
▁lions	-8.69612
▁pass	-8.6965
and	-8.69719
▁vo	-8.69766
▁feed	-8.70297
▁imagine	-8.70531
▁peace	-8.7071
▁over	-8.70823
▁egypt	-8.70903
▁cougar	-8.70919
▁speed	-8.7092
▁william	-8.7092
▁felt	-8.70931
▁aggie	-8.70932
▁cindy	-8.70967
▁iii	-8.71042
▁faster	-8.71195
be	-8.71236
▁wall	-8.71336
erry	-8.71452
▁lie	-8.71542
▁missed	-8.71699
▁changed	-8.71889
▁weeks	-8.7233
▁meant	-8.724
ce	-8.72403
▁ad	-8.7245
th	-8.72765
▁lay	-8.72792
▁fans	-8.72807
▁sell	-8.73014
▁flying	-8.73404
▁cover	-8.73459
▁certain	-8.73652
▁surprise	-8.73697
▁caught	-8.73861
▁swear	-8.73861
▁rusty	-8.73861
▁swim	-8.73863
▁noble	-8.73866
▁castle	-8.73871
▁inspector	-8.73876
▁risk	-8.73879
▁pack	-8.7389
▁mouth	-8.73892
▁tv	-8.73895
▁rise	-8.73898
▁boss	-8.73906
▁tum	-8.73914
▁louis	-8.7392
▁suddenly	-8.73926
▁arrived	-8.7404
▁lamp	-8.74058
▁game	-8.74073
▁dry	-8.74234
▁san	-8.74416
▁fl	-8.74501
▁war	-8.74539
▁looked	-8.74589
▁di	-8.74663
▁rules	-8.75074
▁n	-8.75162
et	-8.75428
out	-8.76152
▁coffee	-8.76891
▁empty	-8.76891
▁fault	-8.76891
▁hebrew	-8.76891
▁yesterday	-8.76891
▁favorite	-8.76891
▁buffins	-8.76891
▁desert	-8.76891
▁beginning	-8.76892
▁sauce	-8.76893
▁position	-8.76897
▁excited	-8.76908
▁aah	-8.76931
▁squawk	-8.76935
▁si	-8.77039
▁garden	-8.77233
se	-8.7727
▁besides	-8.77451
▁plane	-8.77565
ka	-8.77691
▁prove	-8.77979
ian	-8.78068
ment	-8.78073
▁turned	-8.78258
▁hows	-8.78344
▁fix	-8.78758
▁offer	-8.7882
▁groans	-8.79013
ah	-8.79155
▁broke	-8.79366
▁serve	-8.79654
▁paris	-8.79699
ist	-8.79715
▁serious	-8.79807
▁smart	-8.79849
▁appear	-8.80009
▁adventure	-8.80016
▁armelle	-8.80016
▁brigadoon	-8.80016
▁consider	-8.80016
▁neecha	-8.80016
▁neither	-8.80016
▁round	-8.80016
▁tight	-8.80021
▁pool	-8.80027
▁sight	-8.80058
▁figure	-8.8006
▁shop	-8.80135
▁interested	-8.80318
▁treasure	-8.80401
▁interesting	-8.80462
▁chicken	-8.80463
▁elephant	-8.80485
▁screams	-8.80688
▁saved	-8.80992
▁ln	-8.8103
up	-8.81104
is	-8.81462
▁so	-8.81698
▁form	-8.82161
ri	-8.82881
▁laugh	-8.83129
▁pop	-8.83188
▁breakfast	-8.83242
▁company	-8.83242
▁evil	-8.83242
▁female	-8.83242
▁relax	-8.83242
▁within	-8.83242
▁storm	-8.83243
▁fresh	-8.83243
▁body	-8.83247
▁fedor	-8.83256
▁rather	-8.83264
▁mention	-8.83324
▁aii	-8.83336
▁growling	-8.83561
▁ran	-8.83611
▁detective	-8.83716
▁ches	-8.83856
▁greatest	-8.83901
▁questions	-8.84111
▁eh	-8.84838
▁f	-8.85044
▁hat	-8.85597
▁dress	-8.8599
▁allow	-8.8614
▁dis	-8.8617
▁realize	-8.86252
ho	-8.86487
▁aw	-8.86503
▁spot	-8.86563
▁perform	-8.86564
▁cornelius	-8.86575
▁difficult	-8.86575
▁third	-8.86575
▁forward	-8.86576
▁chair	-8.8658
▁radio	-8.86593
▁bang	-8.86595
▁statue	-8.86645
▁planet	-8.86806
▁bill	-8.86923
▁works	-8.86972
▁state	-8.8724
ne	-8.87811
▁mate	-8.88027
▁crying	-8.88056
▁con	-8.8826
lo	-8.8834
ty	-8.88371
na	-8.88707
▁ja	-8.88866
▁sleeping	-8.88877
▁r	-8.89403
▁mistake	-8.89879
▁personal	-8.89943
▁doc	-8.90015
▁absalom	-8.90023
▁anywhere	-8.90023
▁chinese	-8.90023
▁cinderella	-8.90023
▁pharaoh	-8.90023
▁udala	-8.90023
▁class	-8.90025
▁alex	-8.90025
▁woof	-8.90027
▁doubt	-8.90029
▁coley	-8.9003
▁department	-8.90032
ally	-8.90033
▁shame	-8.90036
▁borel	-8.90037
▁nour	-8.90041
▁mess	-8.9008
▁excellency	-8.90081
▁al	-8.90307
▁list	-8.90621
▁nose	-8.90729
▁ring	-8.90881
▁piece	-8.90882
▁mile	-8.90992
▁bag	-8.91098
▁control	-8.91319
▁co	-8.91433
ol	-8.91528
▁ac	-8.91784
▁pray	-8.92134
▁expect	-8.92367
ng	-8.92516
▁per	-8.92658
▁cross	-8.92815
▁deliver	-8.92924
▁finish	-8.93109
▁prison	-8.93382
▁fashion	-8.93551
▁forgot	-8.9359
▁jeff	-8.93595
▁basket	-8.93595
▁beloved	-8.93595
▁bottle	-8.93595
▁bottom	-8.93595
▁definitely	-8.93595
▁horace	-8.93595
▁jordan	-8.93595
▁practice	-8.93595
▁sheriff	-8.93595
▁smith	-8.93595
▁worried	-8.93595
▁applaud	-8.93595
▁floor	-8.93595
▁duty	-8.93599
▁kept	-8.93602
▁kidding	-8.93608
▁tess	-8.93626
▁halo	-8.93682
▁sand	-8.93793
▁bark	-8.9381
▁needed	-8.9412
▁hunting	-8.94267
▁takes	-8.94331
▁goodness	-8.94356
▁letter	-8.94696
▁east	-8.95039
the	-8.95323
▁travel	-8.95565
▁card	-8.9571
▁handle	-8.95966
▁g	-8.96048
age	-8.96147
▁ro	-8.96289
▁rocks	-8.96345
▁row	-8.9657
ted	-8.96728
▁store	-8.96904
▁drive	-8.97198
▁champ	-8.97241
▁court	-8.97294
▁silver	-8.97295
▁kayera	-8.97298
▁nervous	-8.97298
▁audience	-8.97298
▁pardon	-8.97298
▁biggest	-8.97299
▁twice	-8.97299
▁shark	-8.97299
▁yelling	-8.97299
▁choose	-8.973
▁mummy	-8.973
▁cell	-8.97301
▁stroke	-8.97301
▁bride	-8.97302
▁bike	-8.97303
▁advice	-8.97303
▁grandfather	-8.97305
▁absolutely	-8.97311
▁handsome	-8.97339
▁christy	-8.97371
▁totally	-8.97374
▁native	-8.97384
▁bomb	-8.97426
▁indistinctly	-8.97429
▁completely	-8.9747
▁single	-8.97532
▁cubs	-8.97664
▁closer	-8.97716
▁color	-8.98331
▁gift	-8.98351
▁begin	-8.98454
▁where	-8.98463
▁nah	-8.98496
▁that	-8.98605
▁hoo	-8.98972
ling	-8.99261
▁po	-8.99392
▁wei	-8.99572
▁hunt	-8.99692
▁bow	-9.00034
▁murder	-9.00415
z	-9.0046
▁dalton	-9.01145
▁davis	-9.01145
▁english	-9.01145
▁jean	-9.01145
▁journey	-9.01145
▁protocol	-9.01145
▁samantha	-9.01145
▁system	-9.01145
▁throne	-9.01145
▁knock	-9.01146
▁wandi	-9.01147
▁lisa	-9.01148
▁neck	-9.01148
▁shake	-9.01151
▁eight	-9.01153
▁famous	-9.01155
▁mandie	-9.01158
▁winter	-9.01163
▁stuck	-9.01172
▁hup	-9.01182
▁bank	-9.01184
▁enter	-9.01187
▁bar	-9.01248
▁race	-9.01266
▁grand	-9.01269
ir	-9.01283
▁lesson	-9.01315
▁social	-9.01335
▁correct	-9.01353
▁bay	-9.01365
▁folks	-9.01422
▁hero	-9.01524
▁trick	-9.01689
▁path	-9.01737
▁perfectly	-9.0197
▁no	-9.02362
▁groan	-9.02409
▁wes	-9.0252
▁cooking	-9.0279
▁ii	-9.02892
il	-9.03003
▁tracks	-9.0353
▁slaves	-9.03642
▁rings	-9.04214
▁goin	-9.04483
▁to	-9.04575
▁stag	-9.04614
▁missing	-9.04643
▁destroy	-9.04655
▁report	-9.04753
▁mon	-9.04858
▁earl	-9.04946
▁honest	-9.0495
▁weak	-9.05096
▁super	-9.05111
▁pen	-9.05135
▁alban	-9.05145
▁arnaud	-9.05145
▁climb	-9.05145
▁rameses	-9.05145
▁sinbad	-9.05145
▁strength	-9.05145
▁werent	-9.05145
▁dawn	-9.05145
▁general	-9.05145
▁sunday	-9.05145
▁babylon	-9.05145
▁private	-9.05145
▁ugh	-9.05149
▁billboard	-9.05154
▁message	-9.0516
▁onto	-9.05168
▁silly	-9.05176
▁size	-9.05178
▁mmm	-9.05187
▁baron	-9.05191
▁uhoh	-9.052
▁map	-9.05213
▁test	-9.0527
▁wise	-9.05286
▁corner	-9.05286
▁x	-9.05355
w	-9.05492
▁finished	-9.05692
▁allowed	-9.05732
▁fi	-9.05989
▁flowers	-9.06487
▁key	-9.06501
▁window	-9.06506
▁hill	-9.06876
▁fan	-9.06928
ern	-9.07309
he	-9.07404
▁pre	-9.08349
li	-9.08431
▁am	-9.08489
▁steal	-9.0857
▁chatter	-9.08598
▁rescue	-9.08935
▁me	-9.08973
▁trees	-9.09021
▁male	-9.09066
came	-9.09074
▁eating	-9.09202
▁large	-9.09283
▁chuck	-9.09302
▁borotyn	-9.09311
▁brinstead	-9.09311
▁cajella	-9.09311
▁clawdeen	-9.09311
▁competition	-9.09311
▁especially	-9.09311
▁kosh	-9.09311
▁molloy	-9.09311
▁pizza	-9.09311
▁servant	-9.09311
▁mkan	-9.09311
▁walt	-9.09312
▁space	-9.09314
▁snoring	-9.09315
▁ought	-9.09315
▁distance	-9.0932
▁shaw	-9.09324
▁jail	-9.0933
▁battle	-9.09332
▁square	-9.09334
▁club	-9.09359
▁dig	-9.09376
▁yep	-9.09457
▁sail	-9.09503
▁mud	-9.09532
▁pain	-9.09564
▁post	-9.09674
▁roars	-9.09735
▁gosh	-9.09869
ke	-9.10255
▁tall	-9.10362
▁fat	-9.10416
▁imp	-9.10488
▁ocean	-9.10765
▁giant	-9.10772
▁seemed	-9.10833
▁slave	-9.10902
▁fella	-9.11125
ter	-9.11271
▁lights	-9.11372
▁joy	-9.11899
▁bite	-9.11962
▁staying	-9.12018
▁following	-9.12221
▁rid	-9.12373
▁draw	-9.12505
▁vi	-9.12692
▁lots	-9.1275
▁hop	-9.12893
▁roll	-9.12896
▁elephants	-9.13006
son	-9.13013
▁picnic	-9.13064
▁attack	-9.13156
ver	-9.13164
▁walls	-9.13368
▁stole	-9.13521
▁glass	-9.13558
▁valley	-9.13657
▁applause	-9.13659
▁awesome	-9.13659
▁bunch	-9.13659
▁floud	-9.13659
▁rutland	-9.13659
▁cabin	-9.13659
▁cheese	-9.13659
▁prize	-9.13659
▁difference	-9.13659
▁weird	-9.1366
▁parade	-9.13663
▁middle	-9.13664
▁invention	-9.13672
▁stella	-9.13686
▁dust	-9.1369
▁diego	-9.13693
▁march	-9.137
▁immediately	-9.13701
▁witches	-9.13706
▁memory	-9.1371
▁mata	-9.13731
▁station	-9.13756
▁fairies	-9.13768
my	-9.13851
▁cal	-9.13871
▁officer	-9.13879
▁press	-9.14032
▁cart	-9.14236
▁dressed	-9.143
ving	-9.14316
▁commander	-9.14341
▁hackl	-9.14362
▁stage	-9.14362
▁riding	-9.14388
▁chattering	-9.14415
▁farm	-9.14493
▁remind	-9.14853
▁force	-9.14983
ive	-9.1499
▁wa	-9.15244
▁names	-9.15247
▁machine	-9.15335
▁closed	-9.15371
▁ca	-9.15382
▁guards	-9.15388
▁cousin	-9.15407
▁gusteau	-9.1543
▁track	-9.15484
▁challenge	-9.15576
by	-9.15648
ship	-9.15744
▁happening	-9.1577
▁salad	-9.15928
ance	-9.16106
▁legs	-9.1626
▁bath	-9.16401
ro	-9.16493
▁fellas	-9.16531
you	-9.16672
▁seeing	-9.16766
▁o	-9.16817
▁breath	-9.16981
▁sh	-9.17301
▁bro	-9.1747
▁complete	-9.17631
▁final	-9.1774
▁fill	-9.17768
▁create	-9.17839
▁prepare	-9.17841
ant	-9.17847
▁opening	-9.18061
▁bright	-9.18171
▁asleep	-9.18204
▁example	-9.18204
▁museum	-9.18204
▁nigel	-9.18204
▁patience	-9.18204
▁plenty	-9.18204
▁rebecca	-9.18204
▁ridiculous	-9.18204
▁taught	-9.18204
▁taylor	-9.18204
▁upstairs	-9.18204
▁worse	-9.18204
▁weather	-9.18205
▁stopped	-9.18207
▁garland	-9.18209
▁bigger	-9.1821
▁ghostier	-9.18211
▁heat	-9.18235
▁aboard	-9.18236
▁camera	-9.18359
▁sweetie	-9.18392
▁crown	-9.1844
▁shouting	-9.18524
▁whoo	-9.1867
res	-9.18695
▁trumpeting	-9.18704
▁mothers	-9.19123
▁leaves	-9.19367
▁leg	-9.19646
▁cheers	-9.19888
ame	-9.19902
▁falling	-9.19916
▁remain	-9.2004
▁buck	-9.20086
▁sat	-9.20106
▁hundred	-9.20115
ul	-9.20236
▁walking	-9.203
▁mighty	-9.20321
▁stones	-9.20513
▁bo	-9.20843
▁cr	-9.21114
▁ham	-9.21235
▁arm	-9.21288
▁brothers	-9.21725
▁v	-9.21726
▁build	-9.21877
me	-9.22166
▁up	-9.22269
▁mi	-9.2246
▁bless	-9.22523
▁survive	-9.22585
▁raise	-9.22604
ba	-9.22746
▁favor	-9.22966
▁bought	-9.22966
▁congratulations	-9.22966
▁elaine	-9.22966
▁karell	-9.22966
▁kumalo	-9.22966
▁strike	-9.22966
▁upbeat	-9.22966
▁whimpers	-9.22966
▁yonkers	-9.22966
▁iron	-9.22967
▁alarm	-9.2297
▁sword	-9.22971
▁hasnt	-9.22972
▁teeth	-9.22973
▁mainland	-9.22974
▁scaris	-9.22974
▁loco	-9.22977
▁governor	-9.22981
▁flight	-9.22982
▁dude	-9.22983
▁hiding	-9.22989
▁laughter	-9.22992
▁beach	-9.22995
▁bok	-9.22998
▁laura	-9.23
▁sanders	-9.23028
▁putting	-9.23225
▁army	-9.23232
▁willing	-9.23407
▁locked	-9.23455
▁shed	-9.23483
▁wishes	-9.23544
▁ba	-9.23751
▁pro	-9.23923
▁yay	-9.24263
▁wearing	-9.24299
▁cur	-9.24407
▁feels	-9.24458
▁fired	-9.24857
▁chestnut	-9.25069
▁fellow	-9.25121
tic	-9.25132
▁using	-9.25154
do	-9.25293
▁rats	-9.26025
▁sally	-9.26079
▁what	-9.2609
▁places	-9.26446
▁secrets	-9.26777
▁interest	-9.268
▁paint	-9.2685
▁mountains	-9.2704
▁haul	-9.27425
red	-9.27494
▁on	-9.27589
time	-9.27822
▁suggest	-9.27851
▁hire	-9.279
▁nothin	-9.27902
▁apart	-9.2791
▁doug	-9.27919
▁built	-9.27966
▁devil	-9.27966
▁guitar	-9.27966
▁hoffman	-9.27966
▁irena	-9.27966
▁kahuna	-9.27966
▁mfundisi	-9.27966
▁nebuchadnezzar	-9.27966
▁suspense	-9.27966
▁sweetheart	-9.27966
▁throat	-9.27966
▁video	-9.27966
▁whether	-9.27966
▁wolf	-9.27966
▁swimming	-9.27967
▁french	-9.27967
▁johannesburg	-9.27968
▁mexico	-9.27968
▁glory	-9.27971
▁suffer	-9.27976
▁emily	-9.27991
▁fox	-9.27998
▁bread	-9.28005
▁remy	-9.28015
aw	-9.28017
▁safety	-9.28018
▁darkness	-9.28036
▁cup	-9.28056
dy	-9.28088
▁mole	-9.28096
▁loud	-9.28133
▁grrr	-9.2816
▁action	-9.28161
▁charming	-9.28171
▁golden	-9.28195
▁toys	-9.28214
▁gram	-9.28244
os	-9.28261
▁hook	-9.28335
▁slowly	-9.28429
▁figured	-9.28544
we	-9.28696
▁introduce	-9.28698
▁tears	-9.28953
▁record	-9.2898
▁barking	-9.28987
▁awful	-9.29452
▁bringing	-9.29551
▁lo	-9.29559
▁creatures	-9.29641
way	-9.30005
▁ear	-9.30049
for	-9.30302
▁ticket	-9.30399
▁season	-9.30485
▁there	-9.30549
▁moved	-9.30552
▁whales	-9.30821
▁ex	-9.31119
▁building	-9.31179
▁wet	-9.31371
▁mo	-9.31586
▁hearts	-9.31622
▁ra	-9.31651
▁standing	-9.3177
▁pieces	-9.32004
▁dive	-9.32047
▁orders	-9.32172
ier	-9.32177
▁arrest	-9.32735
▁should	-9.32758
▁ahh	-9.32801
▁settle	-9.32856
work	-9.3293
▁health	-9.32964
▁natural	-9.33014
▁usual	-9.33016
▁america	-9.33095
▁bone	-9.33132
▁pumpkins	-9.33196
▁garbage	-9.3323
▁grumio	-9.3323
▁heavy	-9.3323
▁linguini	-9.3323
▁memnet	-9.3323
▁miracle	-9.3323
▁splendid	-9.3323
▁support	-9.3323
▁thief	-9.3323
▁tongue	-9.3323
▁yappasha	-9.3323
▁brown	-9.3323
▁freedom	-9.3323
▁worst	-9.3323
▁jessica	-9.3323
▁contact	-9.3323
▁lonely	-9.3323
▁ahoy	-9.33232
▁planned	-9.33232
▁wiii	-9.33234
▁roof	-9.33236
▁noise	-9.33237
▁normal	-9.33238
▁task	-9.33238
▁cream	-9.33239
▁iike	-9.33245
▁happiness	-9.3325
▁junior	-9.33254
▁betty	-9.33258
▁plain	-9.33283
noot	-9.33298
▁wheel	-9.33301
▁milk	-9.33309
▁huge	-9.33312
▁cow	-9.33348
▁deliverer	-9.33473
▁hall	-9.33507
▁signal	-9.33598
▁equal	-9.33624
▁sandy	-9.33631
▁grass	-9.33767
▁keeping	-9.33788
▁gee	-9.33841
ee	-9.33867
land	-9.33883
over	-9.34052
▁counselors	-9.34227
ever	-9.34476
▁design	-9.34655
▁er	-9.34785
▁ideas	-9.34818
▁ma	-9.34855
▁des	-9.34908
▁learned	-9.35014
▁doo	-9.35033
led	-9.35139
ps	-9.35252
▁ass	-9.3558
▁shows	-9.35803
▁block	-9.35858
▁woods	-9.35914
▁meal	-9.35964
▁judge	-9.35985
▁agent	-9.36001
▁guest	-9.36054
▁feelings	-9.361
▁played	-9.36152
▁wood	-9.36249
▁bands	-9.36379
▁humans	-9.36523
▁gusteaus	-9.36553
▁turning	-9.36849
im	-9.37128
▁add	-9.37457
co	-9.37624
▁pretend	-9.38099
▁harm	-9.38204
▁sire	-9.38343
made	-9.38563
▁rome	-9.38689
▁mornin	-9.38721
▁view	-9.3874
▁heavens	-9.38745
▁maria	-9.3877
▁occasion	-9.3877
▁loose	-9.38782
▁film	-9.38785
▁accident	-9.38785
▁admit	-9.38785
▁college	-9.38785
▁condition	-9.38785
▁england	-9.38785
▁families	-9.38785
▁friday	-9.38785
▁genius	-9.38785
▁godmother	-9.38785
▁irene	-9.38785
▁opportunity	-9.38785
▁schooner	-9.38785
▁spear	-9.38785
▁stepmother	-9.38785
▁suzanne	-9.38785
▁tunnel	-9.38785
▁held	-9.38785
▁robert	-9.38787
▁california	-9.38787
▁partner	-9.3879
▁zak	-9.3879
▁marty	-9.38793
▁gentleman	-9.38795
▁fancy	-9.38796
▁price	-9.38796
▁cash	-9.38798
▁punch	-9.38809
▁whip	-9.38811
▁mule	-9.38817
▁calf	-9.38826
▁otto	-9.38837
▁fascinating	-9.38848
▁puppy	-9.38851
▁france	-9.38855
▁spare	-9.38871
▁calm	-9.38873
▁wide	-9.38874
▁grant	-9.38924
▁original	-9.38953
▁coat	-9.38982
▁gotten	-9.39036
ma	-9.39138
▁lips	-9.39186
▁degrees	-9.39192
▁out	-9.3926
▁lion	-9.39291
▁shine	-9.393
▁ed	-9.3938
▁mission	-9.3958
go	-9.39608
▁smoke	-9.39851
▁rotte	-9.39933
x	-9.40017
▁how	-9.40067
▁gr	-9.40595
▁shoes	-9.40687
▁wondering	-9.40781
▁leader	-9.40874
sh	-9.40904
▁picked	-9.40908
▁hanging	-9.4095
▁training	-9.41288
▁followed	-9.41449
▁arrive	-9.41479
▁le	-9.41506
▁guests	-9.41645
▁whistle	-9.41767
▁style	-9.41813
▁gu	-9.42189
▁daughters	-9.43451
▁bother	-9.43893
▁lookin	-9.43992
▁va	-9.44151
▁gather	-9.44158
ent	-9.44183
board	-9.4422
▁wash	-9.44221
ap	-9.44258
▁note	-9.44284
▁under	-9.44303
house	-9.44308
▁capture	-9.44308
▁escape	-9.44313
head	-9.44341
▁madam	-9.44348
▁indistinct	-9.44468
▁event	-9.44495
▁beg	-9.44548
orically	-9.4457
▁matt	-9.44592
▁somethin	-9.44603
▁tusk	-9.44641
▁accept	-9.44654
▁blind	-9.44666
▁changing	-9.44667
▁decision	-9.44667
▁exciting	-9.44667
▁lenore	-9.44667
▁magnificent	-9.44667
▁mystery	-9.44667
▁palace	-9.44667
▁purpose	-9.44667
▁somehow	-9.44667
▁stomach	-9.44667
▁totoche	-9.44667
▁vacation	-9.44667
▁whimpering	-9.44667
▁zelen	-9.44667
▁lndian	-9.44668
▁request	-9.44668
▁situation	-9.44668
▁type	-9.44668
▁ugly	-9.44668
▁stacy	-9.44668
ochka	-9.44668
▁giggling	-9.44668
▁underneath	-9.44668
▁according	-9.44668
▁moines	-9.44668
▁hadnt	-9.44668
▁excitement	-9.44669
▁holly	-9.44669
▁bobby	-9.4467
▁rope	-9.4467
▁edward	-9.44673
▁kitty	-9.44674
▁spent	-9.44675
▁easier	-9.44677
▁simon	-9.44678
▁coach	-9.44679
▁aunt	-9.44679
▁sneak	-9.44684
▁outta	-9.44686
▁ego	-9.44696
▁familiar	-9.44702
▁rare	-9.44703
▁forgotten	-9.44703
▁incredible	-9.44705
▁dirty	-9.44707
▁guilty	-9.44725
▁he	-9.44728
▁forth	-9.44729
▁crew	-9.44744
▁involved	-9.44744
▁brain	-9.44747
▁spit	-9.44773
▁momma	-9.44776
▁thirsty	-9.44784
▁pair	-9.44795
▁mommy	-9.44796
▁sold	-9.44801
▁tower	-9.44813
▁nest	-9.44815
▁tail	-9.4482
▁ames	-9.44823
▁deserve	-9.44845
▁seriously	-9.45074
▁skateboarding	-9.45088
▁rent	-9.45116
▁gasping	-9.45147
▁thy	-9.45233
▁circumstances	-9.45272
▁main	-9.45311
▁realized	-9.45378
▁destroyed	-9.45399
wa	-9.45489
▁winds	-9.45494
▁ringing	-9.45911
▁boots	-9.46117
▁due	-9.4619
▁artists	-9.46311
▁announcements	-9.46313
de	-9.46346
▁sa	-9.46604
▁sn	-9.46637
▁tis	-9.46896
▁ni	-9.46909
▁pleased	-9.46949
▁depend	-9.46996
▁paintings	-9.47183
ton	-9.47245
▁lock	-9.47275
ade	-9.47552
▁bones	-9.47886
▁owe	-9.47909
▁returning	-9.48003
▁movie	-9.48018
▁photo	-9.48042
▁cloud	-9.48108
▁gate	-9.48109
▁paper	-9.48159
▁continue	-9.48241
▁waters	-9.48387
▁stranger	-9.48413
ons	-9.48894
what	-9.48937
▁headed	-9.48968
▁liked	-9.49175
▁who	-9.49216
▁faith	-9.49367
▁image	-9.49385
▁treat	-9.49638
cy	-9.49919
po	-9.50114
▁success	-9.50246
▁jan	-9.50411
tter	-9.50455
▁separate	-9.50529
▁tink	-9.5074
▁cats	-9.50747
▁squaw	-9.50827
▁grave	-9.50831
▁corn	-9.50888
▁insist	-9.5091
cient	-9.50917
▁agnes	-9.50917
▁angry	-9.50917
▁bonnie	-9.50917
▁daniel	-9.50917
▁disaster	-9.50917
▁excellent	-9.50917
▁gashade	-9.50917
▁ginnie	-9.50917
▁innocent	-9.50917
▁jeiiystone	-9.50917
▁jenny	-9.50917
▁khaku	-9.50917
▁napoleon	-9.50917
▁nonsense	-9.50917
▁recipe	-9.50917
▁rosamaria	-9.50917
▁schedule	-9.50917
▁scrappy	-9.50917
▁thunder	-9.50917
▁transport	-9.50917
▁concert	-9.50918
▁field	-9.50918
▁heip	-9.50918
▁hooray	-9.50918
▁fiona	-9.50918
▁cleo	-9.50918
▁sharp	-9.50918
▁security	-9.50918
▁grandpa	-9.50918
▁delicious	-9.50919
▁knight	-9.50919
▁beneath	-9.5092
▁struck	-9.5092
▁chamber	-9.5092
▁slum	-9.50922
▁yellow	-9.50922
▁henri	-9.50922
▁item	-9.50926
▁pressure	-9.50927
▁whoever	-9.50927
▁childhood	-9.50928
▁eagle	-9.5093
▁trap	-9.50931
▁charity	-9.50932
▁potion	-9.50937
▁sex	-9.50941
▁shopping	-9.50943
▁classical	-9.50945
▁celebrate	-9.50947
▁sub	-9.50953
▁trail	-9.50954
▁therell	-9.50964
▁steele	-9.50972
ay	-9.50973
▁hotel	-9.50985
▁weight	-9.50996
▁claim	-9.51011
▁tender	-9.51033
▁sitting	-9.51042
▁glow	-9.51047
ni	-9.5106
▁heading	-9.51078
▁dun	-9.51178
▁mm	-9.51219
▁bein	-9.51231
▁noticed	-9.51257
▁tie	-9.5126
▁peter	-9.513
▁circle	-9.51303
▁captured	-9.51303
mo	-9.51356
▁bandit	-9.51359
▁ruined	-9.51391
▁driver	-9.51482
▁honking	-9.51511
▁tent	-9.51576
▁filled	-9.51602
▁brit	-9.5164
▁seeds	-9.51646
▁van	-9.51946
▁sp	-9.51977
yi	-9.52112
▁finding	-9.52213
▁salt	-9.52222
▁tu	-9.52463
▁el	-9.52549
▁younger	-9.52819
fish	-9.52858
▁spokes	-9.53228
▁friendly	-9.53362
▁paws	-9.53414
▁ch	-9.53673
▁base	-9.53714
▁lies	-9.53721
▁papers	-9.53788
▁do	-9.53812
▁smells	-9.53814
▁whisper	-9.54037
▁trumpet	-9.5404
▁turns	-9.54074
fore	-9.54218
▁ruin	-9.54245
▁u	-9.54251
line	-9.54438
ied	-9.5454
▁wouldve	-9.54589
▁album	-9.54645
▁crime	-9.54648
▁cake	-9.54662
▁finger	-9.5471
▁suit	-9.5473
▁indian	-9.54827
▁month	-9.54929
▁rule	-9.55025
ence	-9.55098
▁caring	-9.55217
▁doors	-9.55373
▁manage	-9.55425
▁tricks	-9.55501
▁painting	-9.55792
▁moan	-9.55851
▁barks	-9.55896
ities	-9.55898
ble	-9.55955
▁showing	-9.55993
ill	-9.56086
▁mu	-9.56142
▁books	-9.56327
mber	-9.5666
▁aim	-9.56794
hh	-9.56986
▁earn	-9.57224
▁notice	-9.57224
▁discuss	-9.5748
▁frank	-9.5753
ping	-9.57546
▁public	-9.57557
▁ghost	-9.57574
▁avoid	-9.57584
▁coigne	-9.57584
▁cornwall	-9.57584
▁godzilla	-9.57584
▁holiday	-9.57584
▁humming	-9.57584
▁jesus	-9.57584
▁klaus	-9.57584
▁minnie	-9.57584
▁monday	-9.57584
▁oonaya	-9.57584
▁responsible	-9.57584
▁trundle	-9.57584
▁whistling	-9.57584
▁genie	-9.57584
▁level	-9.57584
▁mechagodzilla	-9.57584
▁modern	-9.57584
▁positive	-9.57584
▁stephen	-9.57584
▁issue	-9.57584
▁score	-9.57584
▁shep	-9.57584
▁sport	-9.57584
▁feather	-9.57585
▁tyler	-9.57585
▁nightmare	-9.57585
▁romantic	-9.57585
▁owner	-9.57586
▁basic	-9.57586
▁hayley	-9.57587
▁nope	-9.57588
▁celebration	-9.57588
▁guide	-9.5759
▁bathroom	-9.57591
▁history	-9.57594
▁blame	-9.57595
▁joke	-9.57595
▁kane	-9.57596
▁leland	-9.57597
▁comin	-9.57598
▁drama	-9.576
▁heiio	-9.57603
▁ahem	-9.57604
▁grandma	-9.57605
▁panic	-9.57605
▁fork	-9.5761
▁necessary	-9.57611
▁steady	-9.57611
▁justice	-9.57617
▁shape	-9.5764
▁shirt	-9.57643
per	-9.57656
▁seth	-9.57669
▁friendship	-9.57719
▁skin	-9.5774
▁glasses	-9.57742
▁pity	-9.57774
▁dumb	-9.57785
▁kate	-9.57796
▁string	-9.57862
▁wasted	-9.57898
▁comforting	-9.5792
▁dearie	-9.57946
che	-9.57947
▁peaceful	-9.58089
▁softly	-9.58138
king	-9.58141
▁plu	-9.58213
▁breathe	-9.58282
▁belongs	-9.58355
▁fate	-9.58394
▁surprised	-9.5842
▁takers	-9.58743
▁stealing	-9.58771
▁showed	-9.58974
▁sooner	-9.58991
side	-9.59507
▁searching	-9.59547
▁tr	-9.59562
▁rider	-9.59656
▁plants	-9.59952
▁boats	-9.59979
▁moans	-9.6043
▁en	-9.60611
bed	-9.60627
ick	-9.60753
nder	-9.60819
▁fishing	-9.61147
end	-9.61342
ary	-9.61432
ach	-9.61452
▁bull	-9.61465
▁pi	-9.6148
▁z	-9.6148
▁bucks	-9.61565
▁drum	-9.61997
▁waited	-9.62037
▁herd	-9.62037
▁paw	-9.62042
ko	-9.62085
its	-9.62175
▁nights	-9.62357
▁cos	-9.62469
gh	-9.62728
▁ar	-9.62766
▁career	-9.62776
ac	-9.62794
uck	-9.6285
▁states	-9.63302
▁ri	-9.63377
▁dreaming	-9.63382
ut	-9.63736
om	-9.63906
▁plans	-9.64029
▁angels	-9.64127
▁disappear	-9.64211
▁compare	-9.64347
one	-9.64417
▁doll	-9.64497
no	-9.64526
▁quit	-9.6453
▁heave	-9.64592
▁match	-9.64646
▁gettin	-9.6468
▁journal	-9.6471
▁gas	-9.64715
▁johannes	-9.64725
▁agency	-9.64727
▁ahchoo	-9.64727
▁bridge	-9.64727
▁butler	-9.64727
▁caesar	-9.64727
▁courage	-9.64727
▁creaking	-9.64727
▁darius	-9.64727
▁emergency	-9.64727
▁evidence	-9.64727
▁fantastic	-9.64727
▁grandmother	-9.64727
▁hidden	-9.64727
▁hospital	-9.64727
▁hudson	-9.64727
▁joshua	-9.64727
▁knife	-9.64727
▁laurence	-9.64727
▁murmur	-9.64727
▁penguins	-9.64727
▁result	-9.64727
▁review	-9.64727
▁rifle	-9.64727
▁simply	-9.64727
▁tractor	-9.64727
▁wealth	-9.64727
▁wrote	-9.64727
▁several	-9.64727
▁staff	-9.64727
▁voyage	-9.64727
▁sasha	-9.64727
▁flag	-9.64727
▁sharing	-9.64728
▁surface	-9.64728
▁upset	-9.64728
▁bravo	-9.64729
▁dropped	-9.6473
▁planning	-9.64732
▁mercy	-9.64733
▁extra	-9.64734
▁imagination	-9.64735
▁iook	-9.6474
▁program	-9.6474
▁interaction	-9.6474
▁clock	-9.6474
▁barton	-9.64743
▁richard	-9.64749
▁chuckling	-9.6475
▁toyland	-9.64753
▁mix	-9.64753
▁scooter	-9.64758
▁faint	-9.64763
▁deck	-9.64764
▁maid	-9.64771
▁chosen	-9.64773
▁mail	-9.6478
▁magician	-9.64782
▁nine	-9.64789
▁yard	-9.64792
▁attend	-9.64795
▁unfortunately	-9.64799
▁sank	-9.64814
▁obviously	-9.64846
▁penny	-9.64857
▁wave	-9.64873
▁pure	-9.64876
▁heather	-9.64881
▁hail	-9.64908
▁shore	-9.64908
▁howd	-9.64925
▁stolen	-9.64958
▁impressed	-9.64979
▁failed	-9.65004
▁clue	-9.65112
▁warning	-9.65136
▁customer	-9.65173
▁burning	-9.65249
▁stretch	-9.65386
▁beer	-9.65409
ez	-9.65531
▁stayed	-9.65578
▁served	-9.65578
▁backup	-9.65632
sposit	-9.65715
▁speaks	-9.65812
▁covered	-9.66
▁hoping	-9.66007
▁pulled	-9.6623
▁deer	-9.66266
▁talented	-9.66331
▁highly	-9.66501
▁eggs	-9.66536
▁pirates	-9.66751
▁fa	-9.66815
▁monsters	-9.66824
▁helping	-9.67021
▁ordered	-9.6717
▁streets	-9.67245
▁returned	-9.675
▁pipe	-9.67638
▁fools	-9.67719
▁mor	-9.67724
ery	-9.6773
▁all	-9.67823
▁older	-9.67876
▁checked	-9.68022
▁bat	-9.6806
ure	-9.68213
▁reading	-9.68231
▁cheer	-9.68408
▁ti	-9.68498
▁champion	-9.69017
▁cousins	-9.69349
▁reminds	-9.69373
▁demand	-9.69487
▁rabbit	-9.6954
▁gunshot	-9.69568
▁sake	-9.69575
▁spoke	-9.69627
▁ab	-9.69736
▁hills	-9.69744
rous	-9.70171
▁gifts	-9.70227
▁named	-9.70291
that	-9.70303
▁maker	-9.70636
▁moo	-9.70694
▁we	-9.70697
▁chi	-9.7077
▁growl	-9.70794
if	-9.70834
ile	-9.70842
of	-9.70941
▁cloth	-9.71009
▁sisters	-9.71093
ew	-9.71185
min	-9.71369
lin	-9.71405
▁spread	-9.71618
▁discover	-9.71646
▁honk	-9.71769
▁j	-9.71785
light	-9.71801
▁will	-9.71849
▁ju	-9.71954
▁port	-9.72013
▁lift	-9.7202
▁experience	-9.72054
▁waste	-9.72059
▁roast	-9.72241
▁dum	-9.72245
▁liz	-9.72278
▁heath	-9.72339
▁chick	-9.72384
▁ver	-9.72389
▁popular	-9.72392
▁villa	-9.72394
▁factor	-9.72417
▁inter	-9.72419
▁airport	-9.72419
▁although	-9.72419
▁appreciate	-9.72419
▁babies	-9.72419
▁baiul	-9.72419
▁ciccio	-9.72419
▁cotton	-9.72419
▁elegance	-9.72419
▁enemy	-9.72419
▁ensign	-9.72419
▁ermengarde	-9.72419
▁europe	-9.72419
▁eventually	-9.72419
▁generous	-9.72419
▁gideon	-9.72419
▁horrible	-9.72419
▁huerta	-9.72419
▁hurricane	-9.72419
▁jungle	-9.72419
▁kiko	-9.72419
▁lapporte	-9.72419
▁london	-9.72419
▁luanu	-9.72419
▁nikki	-9.72419
▁orchestra	-9.72419
▁physics	-9.72419
▁praise	-9.72419
▁produce	-9.72419
▁regret	-9.72419
▁scene	-9.72419
▁screech	-9.72419
▁shepherd	-9.72419
▁spoil	-9.72419
▁sylvester	-9.72419
▁temple	-9.72419
▁territory	-9.72419
▁uhhuh	-9.72419
▁vessel	-9.72419
▁walsh	-9.72419
▁divine	-9.72419
▁steak	-9.72419
▁switch	-9.72419
▁trapped	-9.72419
▁jolly	-9.7242
▁chauvet	-9.7242
▁cuando	-9.7242
▁summon	-9.72421
▁provide	-9.72422
▁creek	-9.72422
▁relationship	-9.72423
▁extraordinary	-9.72424
▁pride	-9.72424
▁buried	-9.72424
▁joking	-9.72426
▁medal	-9.72426
▁goose	-9.7243
▁honour	-9.72432
▁ditch	-9.72433
▁practical	-9.72433
▁exist	-9.72435
▁hyah	-9.72436
▁boyfriend	-9.72436
▁hush	-9.72436
▁pieta	-9.72437
▁saddle	-9.72438
▁thick	-9.7244
▁determined	-9.72442
▁wherever	-9.72443
▁stink	-9.72445
▁meat	-9.72452
▁reward	-9.72452
▁nearby	-9.7246
▁blend	-9.72462
▁began	-9.72463
▁bound	-9.7247
▁dragon	-9.72489
▁shift	-9.72505
▁data	-9.72521
▁scare	-9.7253
▁brandy	-9.72537
▁pian	-9.72559
▁center	-9.72575
▁marie	-9.72579
▁powerful	-9.72588
▁pin	-9.72623
▁reasons	-9.72625
▁lying	-9.72661
▁barn	-9.72707
▁invited	-9.7274
▁jam	-9.72749
▁amen	-9.72799
▁reality	-9.72854
▁hopes	-9.72864
▁blar	-9.72908
▁eaten	-9.72909
▁students	-9.72996
▁chase	-9.73021
▁treated	-9.7304
▁grown	-9.73061
▁prepared	-9.73062
▁deeply	-9.73117
▁nearly	-9.73204
▁reporter	-9.73207
▁scientists	-9.73225
▁ideal	-9.7326
▁clearly	-9.73689
ard	-9.73797
▁ways	-9.73864
▁higher	-9.73893
▁lately	-9.74007
▁expecting	-9.74051
▁mood	-9.7425
▁jane	-9.74342
ca	-9.7444
▁honored	-9.74442
▁youth	-9.74481
▁towards	-9.74612
tions	-9.74723
▁killer	-9.74841
▁plant	-9.74913
▁bowl	-9.74915
▁you	-9.74972
▁touched	-9.74983
ways	-9.75665
▁shooting	-9.75764
▁trumpets	-9.75803
▁su	-9.75995
▁clouds	-9.7603
▁learning	-9.76225
tra	-9.76309
rt	-9.76772
▁ru	-9.7689
▁waiter	-9.76928
▁pie	-9.77028
op	-9.77078
▁can	-9.77094
▁nation	-9.77195
ail	-9.77317
▁pups	-9.77479
▁tradition	-9.77721
▁cent	-9.77802
▁trunk	-9.77846
▁target	-9.77847
▁member	-9.77887
▁vampire	-9.7791
▁lotte	-9.77947
▁creature	-9.77977
▁shoe	-9.78073
▁rub	-9.78123
mi	-9.78127
▁groups	-9.78162
▁flower	-9.78176
▁begins	-9.7837
▁trib	-9.78498
lar	-9.78522
all	-9.7854
▁stands	-9.78716
ou	-9.7897
▁talked	-9.79016
tor	-9.79197
▁del	-9.79216
▁remembered	-9.79259
▁hats	-9.79306
▁chickens	-9.7959
▁y	-9.79849
ha	-9.80164
▁drown	-9.80236
▁load	-9.80326
▁divide	-9.80364
▁direct	-9.80415
▁arrange	-9.8049
▁decide	-9.80493
▁desperate	-9.80549
▁horns	-9.80559
ey	-9.8057
▁awake	-9.80589
eva	-9.80595
well	-9.80661
▁prefer	-9.80743
▁victim	-9.80746
▁mysterious	-9.80753
▁ambrose	-9.80753
▁attempt	-9.80753
▁champagne	-9.80753
▁circus	-9.80753
▁cyclops	-9.80753
▁drunk	-9.80753
▁effort	-9.80753
▁fought	-9.80753
▁giggles	-9.80753
▁jerusalem	-9.80753
▁kalahari	-9.80753
▁logan	-9.80753
▁lundie	-9.80753
▁midnight	-9.80753
▁model	-9.80753
▁necklace	-9.80753
▁neglect	-9.80753
▁precious	-9.80753
▁recognize	-9.80753
▁refuse	-9.80753
▁robbie	-9.80753
▁smiling	-9.80753
▁someday	-9.80753
▁traffic	-9.80753
▁unbelievable	-9.80753
▁whirring	-9.80753
▁willett	-9.80753
▁alexander	-9.80753
▁amanda	-9.80753
▁eminence	-9.80753
▁hawaii	-9.80753
▁madison	-9.80753
▁split	-9.80753
▁stood	-9.80753
▁crab	-9.80753
▁credit	-9.80753
▁oui	-9.80753
▁media	-9.80753
▁squeaking	-9.80753
▁temperature	-9.80753
▁charles	-9.80754
▁neighborhood	-9.80754
▁nowhere	-9.80754
▁underground	-9.80754
▁minister	-9.80754
▁wasting	-9.80754
▁skating	-9.80755
▁silence	-9.80755
▁winner	-9.80756
▁entrance	-9.80756
▁hammer	-9.80759
▁pants	-9.80762
▁express	-9.80762
▁rough	-9.80762
▁trade	-9.80763
▁increase	-9.80765
▁legend	-9.80766
▁exile	-9.80766
▁crowley	-9.80768
▁clank	-9.8077
▁terrific	-9.8077
▁candy	-9.8077
▁fogle	-9.80771
▁earlier	-9.80774
▁roland	-9.80774
▁cody	-9.80778
▁appearance	-9.80783
ittie	-9.80783
▁comfortable	-9.80785
▁weekend	-9.80786
▁energy	-9.80787
▁emile	-9.80797
▁pitch	-9.80799
▁distan	-9.80803
▁fur	-9.8081
▁unlike	-9.8081
▁pink	-9.80813
▁saint	-9.80816
▁justin	-9.80828
▁goshen	-9.80845
▁churring	-9.8085
▁mansion	-9.80854
▁barely	-9.80875
▁ville	-9.809
▁flame	-9.80904
▁german	-9.8091
▁brooke	-9.80917
▁jewel	-9.80917
▁blast	-9.80932
▁comb	-9.80952
▁lake	-9.80977
▁jacket	-9.81012
▁lifetime	-9.81021
fully	-9.81069
▁naturally	-9.811
▁slipper	-9.81101
▁buzzing	-9.81169
▁lads	-9.81171
▁bel	-9.8121
▁honestly	-9.81213
▁howl	-9.81233
▁fore	-9.81297
▁lower	-9.8131
▁solve	-9.81318
▁movement	-9.81345
▁melt	-9.81381
▁created	-9.81439
▁swing	-9.81447
nk	-9.81566
▁farmer	-9.81575
▁cost	-9.81598
▁bid	-9.8161
ong	-9.8164
▁mustnt	-9.81673
▁carefully	-9.81681
ise	-9.81733
ily	-9.81745
▁itd	-9.81821
ocal	-9.81841
▁quietly	-9.8193
▁stronger	-9.81977
▁grounds	-9.82074
ious	-9.82084
▁meerkats	-9.82134
▁belly	-9.82419
▁traveling	-9.82477
▁hunters	-9.82499
▁ven	-9.82834
▁pounds	-9.82892
▁diver	-9.8302
▁fri	-9.8314
▁dollars	-9.83146
▁skills	-9.83158
▁walked	-9.8344
▁fighting	-9.83575
▁ses	-9.83676
▁rev	-9.83725
▁seat	-9.83781
▁ends	-9.83941
▁buying	-9.84091
▁drums	-9.8414
▁aha	-9.84435
ny	-9.84456
▁depends	-9.84666
▁cars	-9.84728
▁sw	-9.84844
▁touching	-9.8491
▁events	-9.84949
▁ears	-9.85412
▁changes	-9.85672
als	-9.85708
lot	-9.85723
ept	-9.85851
▁gives	-9.85872
▁numbers	-9.86039
▁organ	-9.86097
▁bon	-9.8616
▁breaking	-9.86296
ak	-9.8631
ft	-9.86363
▁gasp	-9.8643
▁sails	-9.86566
yah	-9.86672
▁li	-9.86699
how	-9.86824
amp	-9.8683
▁duck	-9.86922
ru	-9.86943
▁cont	-9.86976
▁sounding	-9.87009
jo	-9.87158
▁moves	-9.87249
▁murderer	-9.87295
▁ai	-9.8731
▁it	-9.87546
ize	-9.87608
ments	-9.87685
▁bus	-9.87921
iest	-9.8801
▁heads	-9.88479
▁seek	-9.88526
▁starts	-9.88708
▁likely	-9.88806
▁study	-9.8891
▁ne	-9.88936
▁faces	-9.89069
▁wander	-9.89069
▁jo	-9.89241
▁conquer	-9.89301
▁shin	-9.89304
▁suspect	-9.89326
▁dec	-9.89354
like	-9.89466
▁invite	-9.8948
raz	-9.89483
▁mil	-9.89536
back	-9.89573
▁particular	-9.89622
lestine	-9.89634
▁sudden	-9.89634
▁address	-9.89727
▁speech	-9.89732
▁witch	-9.89745
▁grace	-9.89803
▁poison	-9.89817
▁attract	-9.89832
▁official	-9.89843
▁recommend	-9.89843
▁ashamed	-9.89844
▁bopeep	-9.89844
▁brilliant	-9.89844
▁bruno	-9.89844
▁carriage	-9.89844
▁ceremony	-9.89844
▁clerk	-9.89844
▁confess	-9.89844
▁continent	-9.89844
▁cruel	-9.89844
▁draculaura	-9.89844
▁duchess	-9.89844
▁easily	-9.89844
▁elizabeth	-9.89844
▁enemies	-9.89844
▁garcia	-9.89844
▁grifter	-9.89844
▁individual	-9.89844
▁irina	-9.89844
▁italian	-9.89844
▁leprosy	-9.89844
▁lieutenant	-9.89844
▁matthew	-9.89844
▁mirror	-9.89844
▁mugger	-9.89844
▁ndotsheni	-9.89844
▁oclock	-9.89844
▁period	-9.89844
▁prevent	-9.89844
▁prophecy	-9.89844
▁reputation	-9.89844
▁saturday	-9.89844
▁studied	-9.89844
▁thieves	-9.89844
▁twenty	-9.89844
▁unusual	-9.89844
▁urgent	-9.89844
▁backpack	-9.89844
▁beeping	-9.89844
▁coughing	-9.89844
▁creation	-9.89844
▁jerk	-9.89844
▁wagon	-9.89844
▁appeal	-9.89844
▁false	-9.89844
▁scent	-9.89844
▁grain	-9.89844
▁complex	-9.89844
▁tiger	-9.89844
▁elevator	-9.89845
▁habit	-9.89845
▁thudding	-9.89845
▁deai	-9.89846
▁outfit	-9.89847
▁whenever	-9.89847
▁sunset	-9.89848
▁whew	-9.89849
▁snack	-9.89849
▁alice	-9.89851
▁bagdad	-9.89851
▁thrill	-9.89853
▁motor	-9.89854
▁information	-9.89855
▁bondage	-9.89856
▁content	-9.89858
▁girlfriend	-9.89859
▁michael	-9.8986
▁steven	-9.89861
▁stories	-9.89863
▁flew	-9.89863
▁yup	-9.89863
▁canine	-9.89864
▁panting	-9.89864
▁jerry	-9.89865
▁coward	-9.89867
▁performance	-9.89874
▁apparently	-9.89875
▁poop	-9.89876
▁tomley	-9.89876
▁pendragon	-9.89877
▁route	-9.89884
▁fade	-9.89887
▁basement	-9.89893
▁aside	-9.89901
▁proof	-9.89901
▁desk	-9.89908
▁foolish	-9.89909
▁thee	-9.89914
▁expression	-9.89917
▁ranch	-9.89917
▁nile	-9.89923
▁whisk	-9.8993
▁judy	-9.89948
▁robbery	-9.89955
▁regular	-9.89986
▁mer	-9.89992
▁protection	-9.90014
▁liza	-9.90024
▁naked	-9.9003
▁convinced	-9.90036
▁harmony	-9.90055
▁fallen	-9.90059
▁bubble	-9.90059
▁required	-9.90072
▁idol	-9.90075
▁manager	-9.90088
▁united	-9.90161
▁flow	-9.90182
▁kneel	-9.90182
▁paid	-9.9019
mon	-9.90197
▁salta	-9.90215
▁developed	-9.90217
▁usually	-9.90226
dino	-9.90233
▁kindness	-9.90265
▁wicked	-9.90296
▁boob	-9.90297
▁lack	-9.90348
▁sethi	-9.90379
▁laid	-9.90382
▁discovered	-9.90442
▁personally	-9.90499
▁pale	-9.90533
▁shoulder	-9.90636
▁aring	-9.90746
▁worlds	-9.90753
▁tire	-9.9077
▁national	-9.90842
▁expected	-9.91168
▁tribe	-9.91197
▁is	-9.91331
▁passed	-9.91511
▁ram	-9.91706
▁alec	-9.91737
▁curse	-9.91762
▁praying	-9.91807
▁tend	-9.91846
ute	-9.91854
▁pan	-9.91977
▁faithful	-9.92175
▁meows	-9.92199
▁nap	-9.92309
▁helped	-9.92328
▁ms	-9.92458
▁ida	-9.92471
▁gre	-9.92471
cc	-9.92472
que	-9.92583
▁pulling	-9.92742
nda	-9.92974
▁lat	-9.93071
ff	-9.93112
▁pet	-9.93214
mp	-9.93223
▁nations	-9.93484
▁directions	-9.93581
▁ended	-9.94028
▁dro	-9.94121
lic	-9.94154
▁meter	-9.94175
▁arrives	-9.94468
▁vote	-9.94476
pa	-9.9459
ster	-9.94624
▁songs	-9.94837
▁guns	-9.95023
▁seasons	-9.95025
air	-9.95355
ellow	-9.95501
▁hu	-9.95894
▁mar	-9.95959
▁counting	-9.96032
▁burn	-9.96411
▁opened	-9.96447
▁keys	-9.96457
▁ming	-9.96466
▁skill	-9.96527
▁lines	-9.96792
ley	-9.96811
▁towns	-9.96843
▁leads	-9.969
▁weapon	-9.96935
▁account	-9.96944
▁meaning	-9.96953
▁pirate	-9.97038
▁toward	-9.97045
▁dollar	-9.9705
▁announcement	-9.97069
▁hank	-9.9707
▁artist	-9.97075
▁fake	-9.97078
▁believed	-9.9715
▁cards	-9.97284
▁min	-9.97383
▁watched	-9.97386
▁te	-9.97493
ized	-9.97578
oh	-9.9787
▁figures	-9.98523
▁gardens	-9.98683
▁mines	-9.98853
▁skateboard	-9.98972
▁gain	-9.99066
trick	-9.99086
▁til	-9.99149
▁shout	-9.99166
▁sale	-9.99216
pect	-9.99259
▁focus	-9.99302
▁concern	-9.99346
▁reveal	-9.99353
▁have	-9.99361
ama	-9.99386
▁her	-9.99452
▁pal	-9.99455
▁bl	-9.99471
▁ignore	-9.99481
room	-9.99482
▁flat	-9.99498
ward	-9.99513
finding	-9.99546
book	-9.99578
▁pump	-9.99578
▁swift	-9.99592
▁wick	-9.99602
▁problems	-9.99633
▁total	-9.99634
oo	-9.99688
▁flash	-9.99727
▁clam	-9.99727
▁rhythm	-9.99756
▁critic	-9.99757
▁range	-9.99774
▁zoo	-9.99779
▁slip	-9.99792
▁off	-9.99797
▁chart	-9.998
▁snap	-9.99842
▁accent	-9.99844
▁afford	-9.99844
▁azumi	-9.99844
▁birthday	-9.99844
▁campaign	-9.99844
▁chocolate	-9.99844
▁complain	-9.99844
▁concentrate	-9.99844
▁cyrus	-9.99844
▁ephraim	-9.99844
▁explanation	-9.99844
▁filthy	-9.99844
▁fragile	-9.99844
▁mammoth	-9.99844
▁mitchell	-9.99844
▁octopus	-9.99844
▁paleolithic	-9.99844
▁papoose	-9.99844
▁phantom	-9.99844
▁pregnant	-9.99844
▁preparing	-9.99844
▁purgatory	-9.99844
▁roosevelt	-9.99844
▁rowboat	-9.99844
▁snickering	-9.99844
▁stubborn	-9.99844
▁succeed	-9.99844
▁survival	-9.99844
▁wouid	-9.99844
▁branches	-9.99844
▁japanese	-9.99844
▁pathetic	-9.99844
▁research	-9.99844
▁sobbing	-9.99844
▁unique	-9.99844
▁witness	-9.99844
▁adult	-9.99844
▁chanting	-9.99844
▁glen	-9.99844
▁rainbow	-9.99844
▁trash	-9.99844
▁tropic	-9.99844
▁flesh	-9.99844
▁crystal	-9.99844
▁mostly	-9.99844
▁fisheries	-9.99844
▁estate	-9.99844
▁dominan	-9.99845
▁fetch	-9.99846
▁laddie	-9.99846
▁trace	-9.99847
▁seattle	-9.99847
▁bind	-9.99847
▁aware	-9.99848
▁permission	-9.99848
▁osor	-9.99848
▁inspiration	-9.99849
▁ayak	-9.99849
▁jim	-9.99849
▁roam	-9.9985
▁feast	-9.99851
▁goldfoot	-9.99852
▁junk	-9.99852
▁shock	-9.99852
▁yells	-9.99853
▁electricity	-9.99853
▁heck	-9.99855
▁lemon	-9.99855
▁dathan	-9.99857
▁crush	-9.9986
▁influence	-9.99862
▁pleasant	-9.99862
▁written	-9.99862
▁solid	-9.99862
▁stake	-9.99866
▁rush	-9.99866
▁connection	-9.99867
▁decree	-9.99867
▁government	-9.9987
▁vanish	-9.99873
▁exhausted	-9.99873
▁holler	-9.99876
▁scott	-9.9988
▁patch	-9.9988
▁papa	-9.99882
▁ants	-9.99883
▁bend	-9.99887
▁jamie	-9.99892
▁release	-9.99893
▁keno	-9.99895
▁uk	-9.99897
▁spain	-9.99899
▁egyptian	-9.99902
▁ob	-9.99902
▁defend	-9.99912
▁apple	-9.99912
▁palm	-9.99914
▁preto	-9.99918
▁birth	-9.99921
▁professional	-9.99923
▁eel	-9.99947
▁apartment	-9.9996
▁beings	-9.99963
▁disappointed	-9.99976
▁tries	-9.99982
▁skull	-9.9999
▁carried	-9.99998
▁cage	-10
▁brat	-10.0002
▁fence	-10.0002
▁creepy	-10.0002
▁role	-10.0003
▁eve	-10.0003
▁sniffing	-10.0005
▁setting	-10.0005
▁saving	-10.0007
▁page	-10.0008
▁cried	-10.001
▁directly	-10.0011
▁july	-10.0012
▁hon	-10.0012
ria	-10.0013
▁iet	-10.0013
▁cast	-10.0015
▁bond	-10.0025
dore	-10.0026
▁driven	-10.0028
▁smarter	-10.004
▁arranged	-10.0042
▁inn	-10.0049
▁fallin	-10.0049
▁prey	-10.005
▁visitors	-10.0061
▁hip	-10.0063
▁raised	-10.0064
men	-10.0068
▁forced	-10.007
▁howling	-10.0077
▁thrown	-10.0077
▁painted	-10.0093
▁thinkin	-10.0103
▁listening	-10.0111
▁hauler	-10.0116
▁snakes	-10.0122
▁nuts	-10.0123
▁accomplish	-10.0129
▁agreed	-10.0131
▁seconds	-10.0137
▁bi	-10.0141
ude	-10.0143
hoo	-10.0151
▁goats	-10.0154
▁skater	-10.0155
▁heavenly	-10.0155
▁sailing	-10.0167
▁dodos	-10.0184
▁units	-10.0195
▁siren	-10.0203
▁manners	-10.0216
tch	-10.0222
j	-10.0222
ions	-10.0238
▁mac	-10.0241
▁knees	-10.0247
▁bea	-10.0254
cou	-10.0263
▁nu	-10.0308
▁hits	-10.0318
▁vampires	-10.034
▁cents	-10.034
▁cor	-10.0342
▁cap	-10.0364
▁calls	-10.0369
▁om	-10.0377
with	-10.0385
ther	-10.0406
ump	-10.0423
▁mat	-10.0427
▁marrying	-10.043
▁suits	-10.0435
zing	-10.0461
▁gates	-10.0466
▁char	-10.05
▁hee	-10.0514
▁agents	-10.0529
▁judges	-10.0532
▁den	-10.0548
▁buildings	-10.0561
▁tickets	-10.0561
▁cruise	-10.0565
▁powers	-10.0574
▁lou	-10.0588
some	-10.0603
oring	-10.0613
have	-10.0626
▁drinking	-10.0649
▁ge	-10.0654
tan	-10.0666
▁wh	-10.0677
ench	-10.0682
ast	-10.07
▁tick	-10.0724
rot	-10.0739
▁missy	-10.0739
▁knee	-10.077
▁colors	-10.0786
ical	-10.0797
▁button	-10.0799
▁frog	-10.0804
▁detail	-10.0805
▁ghoul	-10.0805
▁canoe	-10.0807
▁here	-10.0812
▁pound	-10.0813
▁bells	-10.0813
▁egg	-10.0815
▁seal	-10.0816
ight	-10.0816
▁letters	-10.0819
▁meow	-10.0819
▁sometime	-10.0822
▁steps	-10.0831
ney	-10.0839
▁prisoner	-10.0849
▁prayer	-10.0849
ating	-10.0852
▁gro	-10.0861
▁magical	-10.0874
▁tale	-10.0886
ath	-10.0889
not	-10.0912
ux	-10.0913
gging	-10.0939
▁tires	-10.0947
pl	-10.0949
ris	-10.0979
vy	-10.098
▁pour	-10.0986
▁driv	-10.0995
▁games	-10.1015
ten	-10.1017
▁placed	-10.1018
▁surprises	-10.1018
▁cheat	-10.1027
▁sink	-10.1027
▁tip	-10.1058
▁planes	-10.1061
wood	-10.1065
▁lum	-10.1066
good	-10.1066
▁exact	-10.1075
▁sha	-10.1075
▁regula	-10.1078
▁harmon	-10.1079
ball	-10.108
▁commo	-10.1082
▁weigh	-10.1084
ator	-10.1085
your	-10.1089
▁proper	-10.109
▁gentle	-10.1093
▁represent	-10.1093
▁sittin	-10.1094
▁mount	-10.1095
▁sandwich	-10.1095
▁abigail	-10.1095
▁access	-10.1095
▁anxious	-10.1095
▁assassin	-10.1095
▁bahamas	-10.1095
▁beauty	-10.1095
▁bieber	-10.1095
▁breeze	-10.1095
▁buffalo	-10.1095
▁cathedral	-10.1095
▁closing	-10.1095
▁cyclone	-10.1095
▁disguise	-10.1095
▁downstairs	-10.1095
▁dozen	-10.1095
▁effie	-10.1095
▁elliot	-10.1095
▁filiberto	-10.1095
▁fortune	-10.1095
▁frederick	-10.1095
▁griffen	-10.1095
▁gwen	-10.1095
▁gypsies	-10.1095
▁jelly	-10.1095
▁major	-10.1095
▁michelangelo	-10.1095
▁nefretiri	-10.1095
▁opinion	-10.1095
▁otherwise	-10.1095
▁palatine	-10.1095
▁periscope	-10.1095
▁phase	-10.1095
▁priest	-10.1095
▁quarter	-10.1095
▁relative	-10.1095
▁repeat	-10.1095
▁rochelle	-10.1095
▁rudolph	-10.1095
▁sacrifice	-10.1095
▁scoffs	-10.1095
▁sergeant	-10.1095
▁shelter	-10.1095
▁sigurd	-10.1095
▁simmons	-10.1095
▁studio	-10.1095
▁technical	-10.1095
▁technique	-10.1095
▁telegram	-10.1095
▁threw	-10.1095
▁typical	-10.1095
▁unexpected	-10.1095
▁vulture	-10.1095
▁writing	-10.1095
▁yochabel	-10.1095
▁chamberlain	-10.1095
▁coffin	-10.1095
▁grip	-10.1095
▁preserve	-10.1095
▁byebye	-10.1095
▁dainty	-10.1095
▁farewell	-10.1095
▁helen	-10.1095
▁truly	-10.1095
▁unison	-10.1095
▁prophet	-10.1096
▁vault	-10.1096
▁presence	-10.1096
▁root	-10.1096
▁struggle	-10.1096
▁tools	-10.1096
▁yacht	-10.1096
▁darn	-10.1096
orita	-10.1096
▁stairs	-10.1096
through	-10.1096
▁funeral	-10.1096
▁ceiling	-10.1096
▁quack	-10.1096
▁magnet	-10.1096
▁kano	-10.1096
▁suspicious	-10.1096
▁robbed	-10.1096
▁title	-10.1096
▁monkey	-10.1096
▁assume	-10.1096
▁monarch	-10.1096
▁mouse	-10.1096
▁halt	-10.1096
▁disease	-10.1096
▁lightning	-10.1097
▁twist	-10.1097
▁toast	-10.1097
▁happily	-10.1097
▁curious	-10.1097
▁property	-10.1097
▁silk	-10.1097
▁silverback	-10.1097
▁fruit	-10.1098
▁century	-10.1098
▁flute	-10.1098
▁panel	-10.1098
▁firm	-10.1098
▁clapping	-10.1098
▁blade	-10.1098
▁soap	-10.1098
▁oil	-10.1099
▁baka	-10.1099
▁gracious	-10.11
▁liar	-10.11
▁greet	-10.11
▁appetite	-10.11
▁universe	-10.11
▁diving	-10.11
▁bedroom	-10.11
▁tik	-10.11
▁tucker	-10.1101
▁contest	-10.1101
itary	-10.1101
▁drill	-10.1101
▁recently	-10.1102
▁mattie	-10.1103
▁tune	-10.1104
▁china	-10.1104
▁whatll	-10.1105
▁vast	-10.1107
▁vision	-10.1109
▁dock	-10.1109
▁butter	-10.1109
▁largest	-10.1111
▁latin	-10.1113
▁received	-10.1116
▁medica	-10.1117
▁prop	-10.1118
▁lode	-10.1118
▁sec	-10.1122
▁flood	-10.1124
▁toes	-10.1124
▁net	-10.1125
▁down	-10.1126
▁frightened	-10.1128
▁whooping	-10.1129
▁dresses	-10.1132
▁dump	-10.1137
▁howdy	-10.1139
▁passes	-10.114
gen	-10.114
▁unto	-10.114
nah	-10.1143
▁wire	-10.1143
▁concerned	-10.1152
▁former	-10.1157
▁slap	-10.116
▁chest	-10.1161
▁latest	-10.1163
▁loaded	-10.1164
▁boot	-10.1168
▁disappeared	-10.1176
▁settled	-10.1177
▁completed	-10.119
iy	-10.1199
▁arrested	-10.1206
ism	-10.1207
▁behave	-10.1212
▁shortly	-10.1213
▁orcas	-10.1216
▁lab	-10.1222
▁understanding	-10.1229
▁attacked	-10.123
▁designer	-10.1243
▁tied	-10.1244
▁host	-10.1249
▁youngsters	-10.1251
▁offered	-10.1285
fi	-10.1336
qui	-10.1338
▁announce	-10.135
zz	-10.1362
▁mob	-10.1384
▁tales	-10.1391
▁ay	-10.1394
▁assure	-10.1404
▁aut	-10.1404
▁passing	-10.1405
▁bu	-10.1445
▁enjoying	-10.1448
▁danced	-10.1476
▁acting	-10.1478
tha	-10.1487
▁caller	-10.1507
▁loves	-10.152
▁gunshots	-10.1531
▁sakes	-10.1531
▁badly	-10.1533
eye	-10.1566
▁balance	-10.1578
▁demo	-10.1593
▁ships	-10.1616
▁gar	-10.1628
▁kindly	-10.163
▁strangers	-10.1652
oksana	-10.1672
▁limit	-10.1673
▁styles	-10.1674
▁sca	-10.1693
▁holding	-10.1694
bb	-10.1698
▁che	-10.1759
tz	-10.1761
▁dreamed	-10.1784
▁hundreds	-10.1818
▁grows	-10.1821
ction	-10.1822
▁forces	-10.1857
cal	-10.1857
▁checking	-10.1858
our	-10.1861
▁mono	-10.1862
▁mis	-10.1869
▁sou	-10.1874
ets	-10.1892
▁au	-10.1905
▁windows	-10.1927
ren	-10.1932
▁walks	-10.1964
▁paying	-10.1968
nne	-10.1973
▁signs	-10.1975
▁scream	-10.1998
ock	-10.2018
ze	-10.2023
▁compliment	-10.2045
▁cla	-10.2048
▁scale	-10.2049
▁nephew	-10.2051
▁print	-10.2051
▁shadow	-10.2057
▁soldier	-10.2059
▁manner	-10.2063
ial	-10.2074
wo	-10.2095
▁mass	-10.2156
▁troubles	-10.2159
rising	-10.2181
▁treasures	-10.2185
▁not	-10.2215
▁fail	-10.222
▁fred	-10.2239
▁realm	-10.224
▁float	-10.2268
▁gran	-10.2277
▁du	-10.2281
▁chill	-10.2282
▁pla	-10.2283
▁market	-10.2283
▁warn	-10.2284
▁surround	-10.2294
ack	-10.2294
▁develop	-10.2296
▁kick	-10.2296
▁bur	-10.2297
▁delight	-10.2302
tical	-10.2306
▁trans	-10.2308
just	-10.2312
▁doin	-10.2313
checked	-10.2315
people	-10.2316
▁humbl	-10.2316
▁thirst	-10.232
fall	-10.2321
▁christ	-10.2322
▁india	-10.2322
▁obvious	-10.2324
▁stas	-10.2334
▁echo	-10.2334
kate	-10.2336
▁hack	-10.2336
▁weddin	-10.2339
▁mutt	-10.234
▁opera	-10.2343
▁orphan	-10.2344
▁resist	-10.2345
▁expert	-10.2345
▁explosive	-10.2345
▁favour	-10.2345
▁odessa	-10.2345
▁absurd	-10.2345
▁acknowledge	-10.2345
▁acquaintance	-10.2345
▁almighty	-10.2345
▁amount	-10.2345
▁antidote	-10.2345
▁antonio	-10.2345
▁average	-10.2345
▁bastard	-10.2345
▁belknap	-10.2345
▁bithiah	-10.2345
▁caliph	-10.2345
▁casual	-10.2345
▁chicago	-10.2345
▁church	-10.2345
▁cycle	-10.2345
▁diamond	-10.2345
▁ethiopia	-10.2345
▁frozen	-10.2345
▁heeheehee	-10.2345
▁herbie	-10.2345
▁ieave	-10.2345
▁ingredient	-10.2345
▁israel	-10.2345
▁landscape	-10.2345
▁literally	-10.2345
▁lonesome	-10.2345
▁monsieur	-10.2345
▁mumbling	-10.2345
▁observe	-10.2345
▁plead	-10.2345
▁possibly	-10.2345
▁practicing	-10.2345
▁register	-10.2345
▁senior	-10.2345
▁sensible	-10.2345
▁society	-10.2345
▁squids	-10.2345
▁subtitle	-10.2345
▁torpedo	-10.2345
▁twelve	-10.2345
▁uniform	-10.2345
▁ventura	-10.2345
▁wolves	-10.2345
▁yippee	-10.2345
▁chalk	-10.2345
▁colony	-10.2345
▁devour	-10.2345
▁draft	-10.2345
▁interrupt	-10.2345
▁kathy	-10.2345
▁slept	-10.2345
▁steam	-10.2345
▁sweep	-10.2345
▁tweet	-10.2345
▁worship	-10.2345
▁begun	-10.2345
▁burden	-10.2345
▁couid	-10.2345
▁peasant	-10.2345
▁proceed	-10.2345
▁marvel	-10.2345
▁wallace	-10.2345
▁harsh	-10.2346
▁alien	-10.2346
▁insane	-10.2346
▁worn	-10.2346
▁lucy	-10.2346
▁untie	-10.2346
▁ndye	-10.2346
▁anger	-10.2346
▁broadcast	-10.2346
▁downtown	-10.2346
▁drain	-10.2346
▁isabel	-10.2346
▁celebrating	-10.2346
▁lrene	-10.2346
▁lawyer	-10.2346
▁thirt	-10.2346
▁weave	-10.2346
▁inheritance	-10.2346
▁submarine	-10.2346
▁underwater	-10.2346
▁supper	-10.2346
▁oops	-10.2346
▁thorn	-10.2346
▁scheme	-10.2346
▁bible	-10.2346
▁colette	-10.2346
▁introduction	-10.2347
▁massive	-10.2347
▁stream	-10.2347
▁caroline	-10.2347
▁desire	-10.2347
▁spill	-10.2347
▁leak	-10.2347
▁chasing	-10.2347
ku	-10.2347
▁bison	-10.2347
▁wore	-10.2347
▁gray	-10.2347
▁series	-10.2348
▁behavior	-10.2348
▁poof	-10.2348
▁delicate	-10.2348
▁ghoulia	-10.2348
▁understood	-10.2348
▁barrel	-10.2348
▁flock	-10.2348
▁groom	-10.2348
▁gap	-10.2349
▁blanket	-10.2349
▁grew	-10.2349
▁lira	-10.2349
▁shade	-10.2349
▁global	-10.2349
▁kingsley	-10.235
▁boil	-10.235
▁duh	-10.235
ixie	-10.235
▁blah	-10.2351
▁region	-10.2351
▁torn	-10.2351
▁daily	-10.2351
▁chew	-10.2352
▁sync	-10.2353
▁labor	-10.2353
▁despi	-10.2354
▁obey	-10.2354
▁dishes	-10.2355
▁alas	-10.2355
▁amazed	-10.2356
▁director	-10.2356
▁skies	-10.2357
▁culture	-10.2357
▁destiny	-10.2358
▁caw	-10.2359
▁computer	-10.2361
▁starving	-10.2361
▁endure	-10.2363
▁jr	-10.2364
▁matches	-10.2364
▁slightly	-10.2365
▁shat	-10.2365
▁eternal	-10.2365
▁anna	-10.2366
▁ruler	-10.2367
▁cries	-10.2367
▁dating	-10.2368
▁fourth	-10.2368
▁wrecked	-10.2369
▁legal	-10.2371
▁embarrassing	-10.2371
▁bury	-10.2374
▁mist	-10.2378
▁edge	-10.2378
ust	-10.2379
▁bitch	-10.238
▁roaring	-10.2382
▁bud	-10.2384
▁pickle	-10.2387
▁drawn	-10.2389
▁ace	-10.239
▁delighted	-10.2396
▁warned	-10.2397
▁sonar	-10.2397
▁spy	-10.24
▁timing	-10.2401
▁manure	-10.2404
▁losing	-10.2404
▁ew	-10.2404
▁hounds	-10.2405
▁revealed	-10.241
▁approaching	-10.2411
▁healthy	-10.2414
▁boxes	-10.2415
ung	-10.2419
▁metal	-10.2421
▁jin	-10.2444
▁olympics	-10.2444
▁builder	-10.2446
▁tre	-10.2449
about	-10.2459
▁washed	-10.2459
▁clawd	-10.246
▁mid	-10.2471
▁socks	-10.2484
dela	-10.2486
▁whoops	-10.2487
▁tag	-10.2511
▁smaller	-10.2512
▁points	-10.2517
▁delivered	-10.2534
▁prayed	-10.2535
▁ate	-10.2548
▁safely	-10.255
▁terms	-10.2562
▁fixed	-10.2562
▁pictures	-10.2563
▁engines	-10.2564
▁rolling	-10.2574
▁pots	-10.2584
oda	-10.2587
▁deeds	-10.2605
vo	-10.2608
▁gi	-10.2612
▁damned	-10.2623
▁gall	-10.2628
▁shadows	-10.2642
▁soldiers	-10.2642
▁campers	-10.265
▁seize	-10.2651
▁sur	-10.2652
▁jumped	-10.2652
▁tryin	-10.2653
▁county	-10.2655
▁canoes	-10.2682
▁ghouls	-10.2682
▁tee	-10.2685
ties	-10.2689
▁selling	-10.269
▁harder	-10.2692
▁guarded	-10.2694
▁feeding	-10.2696
▁apologize	-10.2704
more	-10.2707
▁fully	-10.2711
▁burns	-10.2718
▁callin	-10.2719
▁whi	-10.2721
▁hanks	-10.2723
▁rap	-10.2752
▁ol	-10.2767
▁lively	-10.2784
▁restaurants	-10.2797
▁members	-10.2803
▁cookie	-10.281
▁cans	-10.2814
seif	-10.2821
▁sy	-10.2822
tes	-10.2827
lets	-10.2834
▁becomes	-10.2836
▁crack	-10.284
▁rabbits	-10.2844
tella	-10.2848
▁ahhh	-10.2855
▁beating	-10.2856
ya	-10.2867
roo	-10.2884
put	-10.2887
▁falls	-10.2891
▁shower	-10.2913
▁indians	-10.2925
▁fingers	-10.2926
▁dos	-10.2932
▁pe	-10.2935
▁photos	-10.2967
▁hay	-10.2978
oksan	-10.3001
▁rocking	-10.3006
▁sounded	-10.301
vice	-10.3029
▁dove	-10.3035
uch	-10.3042
▁col	-10.305
▁kn	-10.3089
▁com	-10.3117
▁picking	-10.3123
▁remove	-10.3133
▁tinkers	-10.3163
▁ap	-10.3164
owns	-10.3199
umn	-10.3215
▁machines	-10.3216
▁dem	-10.3227
▁mel	-10.3261
▁trains	-10.3262
▁par	-10.3265
▁menu	-10.3266
▁beard	-10.3293
tive	-10.3299
off	-10.3332
ries	-10.3423
cra	-10.343
▁dolphin	-10.3474
▁wound	-10.3479
▁iove	-10.3479
▁neighbor	-10.3483
▁subject	-10.3483
▁comfort	-10.349
▁dodo	-10.3492
▁fires	-10.3494
▁comp	-10.3494
▁counselor	-10.3496
▁sailor	-10.3498
▁beside	-10.3505
▁bum	-10.3511
▁unit	-10.3511
▁runs	-10.3526
▁cai	-10.3535
▁await	-10.3546
▁detectives	-10.3556
▁hunter	-10.3558
▁tear	-10.3564
▁chap	-10.3573
▁cock	-10.359
bber	-10.3592
ue	-10.3593
▁rivers	-10.3601
▁rec	-10.3602
▁scar	-10.3624
bon	-10.3626
▁sole	-10.3632
▁claw	-10.3645
▁disturb	-10.3645
gue	-10.3648
pho	-10.3662
bar	-10.3662
▁suck	-10.3675
▁camper	-10.3691
▁splash	-10.3694
▁approach	-10.3699
▁buzz	-10.3701
▁collect	-10.3707
▁spin	-10.3707
▁require	-10.3723
this	-10.3729
ura	-10.3736
▁advance	-10.3736
gar	-10.3741
street	-10.3744
guy	-10.3745
▁creep	-10.3748
▁excellenc	-10.3749
coat	-10.3749
▁cind	-10.3749
▁instant	-10.3751
▁drag	-10.3753
▁terribl	-10.3753
ified	-10.3757
▁butt	-10.3757
▁gil	-10.3757
▁whee	-10.3758
▁hung	-10.3758
▁convent	-10.3759
▁mam	-10.3762
▁brick	-10.3763
▁parts	-10.3764
▁slight	-10.3765
▁interpret	-10.3772
▁appoint	-10.3772
▁punish	-10.3773
▁gym	-10.3774
▁advantage	-10.3774
▁advise	-10.3774
▁annoying	-10.3774
▁apprentice	-10.3774
▁arrival	-10.3774
▁authority	-10.3774
▁babette	-10.3774
▁baboon	-10.3774
▁babysitter	-10.3774
▁cheesenewt	-10.3774
▁circums	-10.3774
▁client	-10.3774
▁colossa	-10.3774
▁competitor	-10.3774
▁contrary	-10.3774
▁dessert	-10.3774
▁destruction	-10.3774
▁disgusting	-10.3774
▁equipment	-10.3774
▁essential	-10.3774
▁fifteen	-10.3774
▁floretta	-10.3774
▁forsythe	-10.3774
▁francisco	-10.3774
▁gambling	-10.3774
▁garrett	-10.3774
▁headquarters	-10.3774
▁hortensia	-10.3774
▁hyena	-10.3774
▁latigo	-10.3774
▁loneliness	-10.3774
▁magazine	-10.3774
▁matilda	-10.3774
▁meadow	-10.3774
▁melvin	-10.3774
▁messenger	-10.3774
▁oscar	-10.3774
▁pafuri	-10.3774
▁paradise	-10.3774
▁parkwold	-10.3774
▁passenger	-10.3774
▁peanut	-10.3774
▁perspective	-10.3774
▁platform	-10.3774
▁porett	-10.3774
▁potential	-10.3774
▁privilege	-10.3774
▁procedure	-10.3774
▁relief	-10.3774
▁religio	-10.3774
▁rudder	-10.3774
▁scientific	-10.3774
▁sorrow	-10.3774
▁suitcase	-10.3774
▁sunshine	-10.3774
▁technology	-10.3774
▁terror	-10.3774
▁thorburn	-10.3774
▁tragedy	-10.3774
▁treason	-10.3774
▁villemont	-10.3774
▁anzio	-10.3774
▁arthur	-10.3774
▁caboose	-10.3774
▁capital	-10.3774
▁chittering	-10.3774
▁contract	-10.3774
▁humor	-10.3774
▁mdana	-10.3774
▁miserable	-10.3774
▁overwhelm	-10.3774
▁pillow	-10.3774
▁bargain	-10.3774
▁benson	-10.3774
▁grainger	-10.3774
▁oreg	-10.3774
▁hollow	-10.3774
▁altar	-10.3774
▁climate	-10.3774
▁plastic	-10.3774
▁spell	-10.3774
▁vidia	-10.3774
▁mistress	-10.3774
▁bodies	-10.3774
▁roger	-10.3774
▁amusing	-10.3774
▁conversation	-10.3774
▁cigarette	-10.3774
▁scout	-10.3774
▁peaks	-10.3774
▁reuni	-10.3774
▁forbidden	-10.3774
▁sarin	-10.3774
▁molly	-10.3774
▁crawl	-10.3774
▁possess	-10.3774
▁polly	-10.3774
▁contain	-10.3774
▁sculpture	-10.3774
▁monteria	-10.3774
▁sniveiy	-10.3774
▁stove	-10.3774
▁smash	-10.3774
vinci	-10.3774
▁propose	-10.3774
▁scotland	-10.3774
▁border	-10.3774
▁scramble	-10.3774
▁wrap	-10.3774
▁eloise	-10.3775
▁alert	-10.3775
▁collar	-10.3775
▁argue	-10.3775
▁twitter	-10.3775
▁romance	-10.3775
▁operator	-10.3775
▁shaft	-10.3775
▁steer	-10.3775
▁stress	-10.3775
▁gotcha	-10.3775
▁breed	-10.3775
▁gaz	-10.3775
▁principle	-10.3775
▁narrow	-10.3775
▁valleyville	-10.3775
▁cheap	-10.3775
▁height	-10.3775
▁marble	-10.3775
▁fuse	-10.3775
▁towel	-10.3775
▁dining	-10.3775
▁receptionist	-10.3775
▁overcome	-10.3776
▁punishment	-10.3776
▁denver	-10.3776
▁waitress	-10.3776
▁christian	-10.3776
▁brush	-10.3776
▁becoming	-10.3776
▁lousy	-10.3776
▁exchange	-10.3776
▁prim	-10.3776
▁duckling	-10.3776
▁dying	-10.3776
▁awoo	-10.3776
▁captive	-10.3777
▁leap	-10.3777
▁aquarium	-10.3777
▁elegant	-10.3777
▁expensive	-10.3777
▁teii	-10.3777
▁hallo	-10.3777
▁rude	-10.3778
▁occasionally	-10.3778
▁slice	-10.3778
▁rode	-10.3778
▁complicated	-10.3778
▁unlock	-10.3779
▁gigi	-10.3779
▁option	-10.3779
▁kim	-10.378
▁nasty	-10.378
▁banner	-10.378
▁plot	-10.378
▁potatoes	-10.378
▁code	-10.378
▁feminine	-10.378
▁stealth	-10.378
▁loving	-10.378
▁flap	-10.3781
▁cmon	-10.3781
▁bien	-10.3781
▁them	-10.3781
▁salmon	-10.3782
▁burst	-10.3782
▁sack	-10.3782
▁concept	-10.3782
▁remarkable	-10.3782
▁plate	-10.3782
▁zachar	-10.3784
ify	-10.3784
▁zoom	-10.3785
▁lean	-10.3785
▁dash	-10.3785
▁personality	-10.3786
▁swell	-10.3786
▁sheet	-10.3786
▁guardian	-10.3787
▁jug	-10.3787
▁monk	-10.3788
▁ren	-10.3788
▁bullet	-10.3789
▁bush	-10.3792
▁merely	-10.3793
▁dismissed	-10.3794
▁fulfill	-10.3796
▁doom	-10.3798
▁ballet	-10.3798
▁supplies	-10.38
▁inner	-10.38
▁forgetting	-10.3801
▁gum	-10.3801
▁hash	-10.3802
▁fif	-10.3802
▁backstage	-10.3803
▁scary	-10.3804
▁blinking	-10.3805
▁stopping	-10.3805
▁dish	-10.3809
▁particularly	-10.381
▁weeping	-10.3816
▁intended	-10.3818
▁noone	-10.3818
▁just	-10.3818
▁useless	-10.3821
▁navy	-10.3821
▁farid	-10.3823
▁dial	-10.3824
▁flipp	-10.3826
▁digging	-10.3826
▁dates	-10.3826
▁rear	-10.3828
▁pointers	-10.3831
bone	-10.3834
▁sep	-10.3834
▁mmhmm	-10.3836
▁useful	-10.3843
ndy	-10.3843
▁sol	-10.3847
▁disturbing	-10.3851
▁skilled	-10.3851
▁cracking	-10.3856
rant	-10.3858
▁bare	-10.3861
▁shy	-10.3864
▁for	-10.3867
iah	-10.3867
▁dave	-10.3869
▁lawn	-10.3875
▁boom	-10.3876
▁lane	-10.3879
▁batter	-10.3879
▁escaped	-10.3882
hand	-10.3884
▁sucker	-10.3888
▁tourists	-10.3889
▁instructions	-10.3889
▁walkin	-10.3899
▁dearest	-10.3899
▁gathered	-10.3905
▁greatness	-10.3906
▁rescued	-10.3911
▁file	-10.3911
▁cop	-10.3917
▁designed	-10.3917
▁joes	-10.3918
ome	-10.3929
▁weary	-10.3932
▁odds	-10.3935
▁blessed	-10.3937
▁reno	-10.3938
edge	-10.3946
▁tw	-10.3948
pping	-10.3949
▁spr	-10.3964
▁worthy	-10.3965
ush	-10.3975
▁lass	-10.3978
▁pretending	-10.398
ette	-10.3998
▁recording	-10.3999
▁scrap	-10.3999
ram	-10.4002
▁dine	-10.4002
▁reign	-10.4008
right	-10.4011
▁pigs	-10.4026
▁clicks	-10.4027
▁beasts	-10.4028
▁breathing	-10.4029
▁fed	-10.4033
▁sigh	-10.4036
▁cleaner	-10.4036
▁loss	-10.4038
▁pot	-10.4056
▁differently	-10.4057
▁dancer	-10.4058
▁awaits	-10.4072
▁subjects	-10.4074
▁neighbors	-10.4074
▁deed	-10.4086
▁bra	-10.4087
▁wonderfully	-10.4089
▁bug	-10.4089
▁answers	-10.4092
▁fra	-10.4092
▁loser	-10.4099
▁ned	-10.4106
▁commanded	-10.4114
ogue	-10.4124
▁conver	-10.4128
▁explained	-10.4139
▁rih	-10.4146
▁fixing	-10.415
▁details	-10.4167
▁nicer	-10.417
▁cared	-10.4177
▁tin	-10.4196
hle	-10.4198
▁weapons	-10.4214
▁exp	-10.422
ture	-10.4231
▁cooked	-10.424
▁cleaning	-10.4296
▁targets	-10.4309
▁trunks	-10.4309
▁counts	-10.4329
▁bor	-10.434
▁unh	-10.4344
▁inc	-10.4346
▁playful	-10.4349
nny	-10.4375
▁trusted	-10.4377
▁penn	-10.4383
▁ski	-10.4399
▁glori	-10.4405
▁bulls	-10.4407
elf	-10.4412
▁pur	-10.4448
late	-10.4472
gged	-10.4478
▁dealing	-10.448
vation	-10.4486
▁bathe	-10.4489
▁movies	-10.4501
▁images	-10.4502
▁site	-10.4528
▁whistles	-10.4549
▁locke	-10.4568
▁wha	-10.4574
▁deb	-10.4588
▁elde	-10.4598
▁designs	-10.4608
cul	-10.4613
rice	-10.4623
▁defi	-10.4623
arm	-10.4644
▁chestnuts	-10.4696
▁fellows	-10.4696
▁sadi	-10.4699
▁cha	-10.4701
dad	-10.4717
▁def	-10.472
▁include	-10.4758
▁approve	-10.4769
tro	-10.4775
pit	-10.4777
▁por	-10.4794
▁gal	-10.4808
▁pu	-10.4812
▁giants	-10.4844
▁oceans	-10.4844
hales	-10.4847
pped	-10.4865
▁scr	-10.4878
ched	-10.4911
ax	-10.4912
▁et	-10.4931
▁saf	-10.4951
hora	-10.501
▁tar	-10.5022
lder	-10.5026
▁tomato	-10.5028
▁custom	-10.5038
ated	-10.5045
▁listened	-10.5048
hem	-10.5059
wit	-10.5075
eck	-10.5089
▁bags	-10.5091
rge	-10.5092
▁noses	-10.5096
▁tri	-10.5123
ink	-10.5129
▁bills	-10.5136
▁reservation	-10.5141
▁beast	-10.5141
mine	-10.5145
▁thud	-10.5146
▁current	-10.5146
▁mushroom	-10.5146
▁muscle	-10.5146
▁contestant	-10.5148
▁click	-10.515
▁term	-10.5156
▁meerkat	-10.5158
za	-10.517
mexic	-10.519
▁pig	-10.5192
ives	-10.5226
▁bla	-10.5241
ller	-10.5265
can	-10.5271
tre	-10.5274
ook	-10.5285
▁remo	-10.5296
take	-10.5305
▁equ	-10.5313
▁tim	-10.5322
ham	-10.5349
▁rob	-10.535
here	-10.5361
▁scratch	-10.5376
▁charm	-10.5382
▁hug	-10.5383
▁delay	-10.5389
▁fee	-10.5389
▁intend	-10.539
down	-10.539
▁frighten	-10.539
▁convince	-10.5404
known	-10.5405
place	-10.5406
malenkaya	-10.5408
ville	-10.5409
worthy	-10.5409
free	-10.5411
kind	-10.5412
▁shee	-10.5413
lift	-10.5413
phone	-10.5413
wick	-10.5413
box	-10.5415
atic	-10.5417
▁actual	-10.542
▁toss	-10.542
rill	-10.5427
come	-10.5429
shore	-10.543
▁familia	-10.543
handed	-10.5434
▁inspect	-10.5434
▁ox	-10.5436
▁spoon	-10.5436
▁inform	-10.5439
elita	-10.5439
▁reception	-10.5441
▁jill	-10.5441
▁caaccff	-10.5441
▁administ	-10.5441
▁extreme	-10.5441
▁fortunate	-10.5441
league	-10.5441
▁abraham	-10.5441
▁accusations	-10.5441
▁albright	-10.5441
▁algeria	-10.5441
▁antler	-10.5441
▁assistant	-10.5441
▁atlantis	-10.5441
▁available	-10.5441
▁babushka	-10.5441
▁barbecue	-10.5441
▁behold	-10.5441
▁bertrand	-10.5441
▁bonanza	-10.5441
▁brianna	-10.5441
▁calcite	-10.5441
▁character	-10.5441
▁chiyoko	-10.5441
▁cliff	-10.5441
▁confused	-10.5441
▁cormoran	-10.5441
▁coronation	-10.5441
▁council	-10.5441
▁criminal	-10.5441
▁dalrymple	-10.5441
▁dialect	-10.5441
▁donkey	-10.5441
▁dynami	-10.5441
▁elsewhere	-10.5441
▁escort	-10.5441
▁exercise	-10.5441
▁exhibit	-10.5441
▁experiment	-10.5441
▁explosion	-10.5441
▁footsteps	-10.5441
▁frascati	-10.5441
▁gamble	-10.5441
▁granddaughter	-10.5441
▁gunfight	-10.5441
▁harufa	-10.5441
▁heavily	-10.5441
▁helpseeker	-10.5441
▁hmph	-10.5441
▁hurray	-10.5441
▁intention	-10.5441
▁invitation	-10.5441
▁jerome	-10.5441
▁korda	-10.5441
▁laundry	-10.5441
▁length	-10.5441
▁masahiko	-10.5441
▁neumann	-10.5441
▁nicole	-10.5441
▁opposite	-10.5441
▁pencil	-10.5441
▁poetry	-10.5441
▁pollen	-10.5441
▁powder	-10.5441
▁pulido	-10.5441
▁raindrop	-10.5441
▁rebuild	-10.5441
▁resembl	-10.5441
▁rosanna	-10.5441
▁sacred	-10.5441
▁satisfied	-10.5441
▁skimmer	-10.5441
▁sokurah	-10.5441
▁species	-10.5441
▁struggling	-10.5441
▁tokyo	-10.5441
▁toothbrush	-10.5441
▁turkey	-10.5441
▁unhappy	-10.5441
▁wisdom	-10.5441
▁abbey	-10.5441
▁creating	-10.5441
▁crossbow	-10.5441
▁depth	-10.5441
▁deuce	-10.5441
▁dignity	-10.5441
▁elements	-10.5441
▁expense	-10.5441
▁favourite	-10.5441
▁grieve	-10.5441
▁grumbl	-10.5441
▁medicin	-10.5441
▁rainforest	-10.5441
▁retreat	-10.5441
▁thataway	-10.5441
▁widow	-10.5441
▁fortress	-10.5441
▁frustrat	-10.5441
▁gesture	-10.5441
▁particle	-10.5441
▁piace	-10.5441
▁predator	-10.5441
▁retire	-10.5441
▁martin	-10.5441
▁poacher	-10.5441
▁reduce	-10.5441
▁rival	-10.5441
▁hughes	-10.5441
▁slim	-10.5441
▁arag	-10.5441
▁teddy	-10.5441
▁teedle	-10.5441
▁pursue	-10.5441
▁tutt	-10.5441
▁cancel	-10.5441
▁grape	-10.5441
▁benefit	-10.5441
▁strain	-10.5441
▁saloon	-10.5441
▁damage	-10.5441
▁nerve	-10.5441
▁strip	-10.5441
▁television	-10.5441
▁ryan	-10.5441
▁spinning	-10.5441
▁knowledge	-10.5441
▁warden	-10.5441
▁combined	-10.5441
▁forefather	-10.5441
▁perros	-10.5441
▁quinoa	-10.5441
▁chirp	-10.5441
▁muttering	-10.5441
▁banana	-10.5441
▁freight	-10.5441
▁whining	-10.5441
▁internet	-10.5441
▁presum	-10.5441
▁melod	-10.5441
▁hinu	-10.5441
▁fuss	-10.5441
▁ribs	-10.5441
▁channel	-10.5441
▁gorilla	-10.5441
▁education	-10.5441
▁motel	-10.5441
▁silent	-10.5441
▁grouch	-10.5441
▁declare	-10.5441
▁leather	-10.5441
▁tsk	-10.5441
▁university	-10.5441
▁recall	-10.5442
▁wipe	-10.5442
▁softens	-10.5442
▁arena	-10.5442
▁keen	-10.5442
▁swallow	-10.5442
▁secure	-10.5442
▁blew	-10.5442
▁grief	-10.5442
▁trench	-10.5442
▁hunk	-10.5442
▁mmmhmm	-10.5442
▁crook	-10.5442
▁breast	-10.5442
▁bicycle	-10.5442
▁whoohoo	-10.5442
▁impressive	-10.5442
▁luo	-10.5442
▁canop	-10.5442
▁homesick	-10.5442
▁cunning	-10.5442
▁beans	-10.5442
▁bongo	-10.5443
▁coins	-10.5443
▁zone	-10.5443
▁etta	-10.5443
▁glu	-10.5443
ancho	-10.5443
▁grade	-10.5443
▁responsibility	-10.5443
▁tide	-10.5444
▁pomp	-10.5444
▁savannah	-10.5444
▁beck	-10.5444
▁debut	-10.5444
▁cowell	-10.5444
▁polk	-10.5444
▁spice	-10.5444
▁knot	-10.5444
▁skateoff	-10.5444
▁pocket	-10.5444
▁patient	-10.5444
▁promotion	-10.5444
▁upper	-10.5444
▁heir	-10.5444
▁foolishness	-10.5445
▁conductor	-10.5445
▁marina	-10.5445
▁sundown	-10.5446
▁stripped	-10.5446
▁salvation	-10.5446
▁operation	-10.5446
▁doggie	-10.5447
▁collection	-10.5447
▁mock	-10.5447
▁waist	-10.5447
▁unknown	-10.5447
▁comment	-10.5447
▁swan	-10.5448
▁capable	-10.5448
▁pinging	-10.5448
▁freezing	-10.5448
▁footprint	-10.5448
▁lazy	-10.5448
▁stock	-10.5448
▁buen	-10.5448
▁broom	-10.5449
▁tuskless	-10.5449
▁ridge	-10.5449
▁andr	-10.5449
▁raw	-10.545
▁teenage	-10.545
▁dug	-10.545
▁relieved	-10.5451
▁award	-10.5452
▁schoolhouse	-10.5452
▁spies	-10.5453
▁warmth	-10.5453
▁brand	-10.5454
▁exit	-10.5454
▁stall	-10.5454
▁alongside	-10.5454
ellen	-10.5455
▁trial	-10.5455
▁dreadful	-10.5455
▁bedtime	-10.5456
▁critical	-10.5457
zo	-10.5458
▁cern	-10.5459
▁chat	-10.5459
▁precisely	-10.5459
rvis	-10.5459
▁wee	-10.5459
▁philip	-10.546
▁cutting	-10.546
▁highland	-10.546
▁rank	-10.5461
▁sonny	-10.5463
▁common	-10.5464
▁engaged	-10.5464
▁bitter	-10.5465
▁tense	-10.5467
▁connected	-10.5468
▁loom	-10.547
▁ati	-10.5471
▁preparations	-10.5471
▁muffler	-10.5471
▁coo	-10.5475
▁wailing	-10.5476
▁flies	-10.5477
▁mill	-10.5478
uxi	-10.5478
▁pile	-10.5478
▁rm	-10.548
▁orange	-10.5481
▁suggestion	-10.5482
▁brad	-10.5485
▁sang	-10.5488
▁wat	-10.549
▁mere	-10.5492
▁smoothie	-10.5495
▁reasonable	-10.5497
corn	-10.5497
▁sincere	-10.5499
▁link	-10.5503
▁locker	-10.5504
▁mow	-10.5507
▁surrounded	-10.5512
▁mistaken	-10.5516
▁sew	-10.5517
▁sunk	-10.552
▁fog	-10.5521
▁bored	-10.5529
▁vol	-10.553
▁compared	-10.5535
▁sho	-10.5535
adem	-10.5538
▁suspected	-10.554
▁announc	-10.5546
▁marketing	-10.5546
▁jumpin	-10.5548
▁drowned	-10.5549
▁compos	-10.5551
▁colli	-10.5555
▁chilling	-10.5555
▁idiots	-10.556
▁sinking	-10.5561
let	-10.5562
▁hint	-10.5563
▁dragg	-10.5568
▁starters	-10.557
▁shootin	-10.5576
▁colleagues	-10.5578
▁fend	-10.5579
▁survived	-10.5584
▁sk	-10.5592
▁weed	-10.5598
▁tiller	-10.5617
▁limb	-10.5618
▁inspire	-10.5622
▁ale	-10.5625
▁repairs	-10.5633
▁lovers	-10.5635
▁pits	-10.5644
▁lookout	-10.5654
▁shorty	-10.5668
▁helpless	-10.567
▁uhh	-10.5673
▁goat	-10.568
▁murdered	-10.5684
▁coconuts	-10.5689
▁coyotes	-10.5689
▁maidens	-10.5689
eth	-10.5697
▁rou	-10.57
▁oldest	-10.5705
▁lure	-10.5708
are	-10.5711
▁examin	-10.5713
▁shared	-10.5727
▁lighter	-10.5732
▁rate	-10.5735
▁princesses	-10.5737
▁contestants	-10.5744
▁currents	-10.5744
▁muscles	-10.5744
▁mushrooms	-10.5744
▁thuds	-10.5744
▁customs	-10.5748
▁rely	-10.5796
▁tricking	-10.5797
▁protected	-10.5798
▁ioves	-10.58
▁wounds	-10.58
▁vamo	-10.5811
▁searched	-10.5813
▁wins	-10.5821
ener	-10.5825
brace	-10.5832
▁fold	-10.5834
▁wing	-10.5836
▁grounded	-10.5839
▁talkin	-10.5852
▁nephews	-10.5856
tuary	-10.5866
▁prints	-10.5866
berry	-10.587
▁offering	-10.5892
▁frogs	-10.5913
▁sleepy	-10.5916
▁traveler	-10.5923
oooo	-10.5927
▁begg	-10.5933
▁protecting	-10.5951
▁deadly	-10.5955
▁accounts	-10.5959
use	-10.5964
ire	-10.5979
▁str	-10.5989
gling	-10.6006
will	-10.6008
ois	-10.601
▁formal	-10.6016
▁ducks	-10.6027
▁carol	-10.6039
▁murderers	-10.6049
▁pete	-10.607
▁traditions	-10.6085
▁fac	-10.6089
dict	-10.6107
▁shown	-10.6112
ked	-10.6112
▁pee	-10.6124
▁sales	-10.614
▁demands	-10.6142
▁broad	-10.6153
▁thin	-10.6155
▁bats	-10.6155
▁swam	-10.6159
ably	-10.6164
gi	-10.6165
▁includ	-10.6173
▁jackass	-10.6179
ease	-10.6193
▁herds	-10.62
▁bust	-10.6227
▁los	-10.6243
▁op	-10.6254
▁albums	-10.6258
▁crimes	-10.6258
▁cakes	-10.6258
▁ruins	-10.6262
ana	-10.6271
oop	-10.628
ido	-10.6286
▁waitin	-10.6314
▁fli	-10.6315
ice	-10.6323
▁spark	-10.6337
▁swis	-10.6351
▁at	-10.6366
ado	-10.6367
try	-10.6412
con	-10.6415
▁lash	-10.6432
▁blocks	-10.6434
▁eag	-10.6437
▁meals	-10.6437
▁nicely	-10.6446
pen	-10.6454
youre	-10.6504
▁records	-10.6506
▁sallys	-10.6553
ques	-10.6574
▁bri	-10.6578
ane	-10.6612
▁remains	-10.6613
lus	-10.6614
▁easter	-10.663
▁ammo	-10.6635
▁ka	-10.664
▁dent	-10.67
rious	-10.6723
▁pai	-10.6723
▁pac	-10.673
▁player	-10.6762
tial	-10.6762
rk	-10.6779
tle	-10.6815
ripped	-10.6835
▁chop	-10.6868
▁sparkl	-10.6878
roll	-10.6888
▁loyal	-10.6915
ours	-10.6936
▁dippe	-10.6956
pot	-10.6958
tyl	-10.6971
tery	-10.7011
vie	-10.7015
arch	-10.7028
▁clan	-10.7051
▁triple	-10.7069
▁wo	-10.7109
▁fe	-10.7127
keeper	-10.7134
wi	-10.714
▁affair	-10.7141
▁crocodile	-10.7141
▁generation	-10.7141
ckles	-10.7144
▁coconut	-10.7146
▁coyote	-10.7146
▁snake	-10.7156
▁maiden	-10.716
▁youngster	-10.7177
▁crash	-10.719
▁nut	-10.719
▁phon	-10.7215
▁straw	-10.7219
▁tub	-10.7244
▁emotion	-10.7259
▁rip	-10.7291
rator	-10.7302
▁pea	-10.7312
fare	-10.7333
bag	-10.7351
▁cherr	-10.7354
rrr	-10.7362
▁mmhm	-10.7362
▁slipp	-10.7364
▁bio	-10.7366
ending	-10.737
▁invent	-10.7374
▁decid	-10.7375
▁finer	-10.7378
▁invest	-10.7385
▁defeat	-10.7388
▁nail	-10.7391
▁miner	-10.7393
ooding	-10.7396
ittle	-10.7398
▁tug	-10.74
▁tow	-10.7402
▁receive	-10.7404
▁muffle	-10.7406
▁continu	-10.7408
claim	-10.7409
national	-10.741
skull	-10.741
flame	-10.741
break	-10.741
lock	-10.741
child	-10.7411
▁memor	-10.7411
piece	-10.7411
water	-10.7415
▁app	-10.7415
▁robber	-10.7417
▁constant	-10.7418
▁wond	-10.7419
fair	-10.7419
loom	-10.7419
▁unfortunate	-10.7419
▁immediate	-10.742
bell	-10.742
year	-10.742
▁numb	-10.7421
▁chose	-10.7427
▁precise	-10.7427
▁select	-10.7428
▁govern	-10.7429
▁instruct	-10.7435
▁oksan	-10.7435
▁product	-10.7435
bility	-10.7436
▁tempt	-10.7438
▁react	-10.7439
▁axel	-10.7439
ough	-10.744
squeak	-10.744
▁refresh	-10.744
▁distract	-10.744
▁detect	-10.744
▁temper	-10.7441
▁rearrange	-10.7441
▁threat	-10.7441
▁increasing	-10.7441
shazzar	-10.7441
▁adventurous	-10.7441
▁ancestors	-10.7441
▁assembl	-10.7441
▁audition	-10.7441
▁australia	-10.7441
▁bernadette	-10.7441
▁bloodbath	-10.7441
▁bounty	-10.7441
▁bronze	-10.7441
▁champlaine	-10.7441
▁chariot	-10.7441
▁chiquita	-10.7441
▁circuit	-10.7441
▁clumsy	-10.7441
▁collapse	-10.7441
▁commissioner	-10.7441
▁compartment	-10.7441
▁condemned	-10.7441
▁confirm	-10.7441
▁consequence	-10.7441
▁constance	-10.7441
▁convict	-10.7441
▁cradle	-10.7441
▁curiosity	-10.7441
▁demonstration	-10.7441
▁dexter	-10.7441
▁documents	-10.7441
▁elidorus	-10.7441
▁ernestina	-10.7441
▁eskimo	-10.7441
▁esmerelda	-10.7441
▁exclusive	-10.7441
▁exhusband	-10.7441
▁fernando	-10.7441
▁fundamental	-10.7441
▁garlotti	-10.7441
▁gnarly	-10.7441
▁horizon	-10.7441
▁infern	-10.7441
▁invisible	-10.7441
▁jealous	-10.7441
▁jeez	-10.7441
▁jothergill	-10.7441
▁keegan	-10.7441
▁kettle	-10.7441
▁leschenhaut	-10.7441
▁license	-10.7441
▁lobby	-10.7441
▁marcus	-10.7441
▁merchant	-10.7441
▁negative	-10.7441
▁newspaper	-10.7441
▁nickname	-10.7441
▁nonstop	-10.7441
▁oceanview	-10.7441
▁october	-10.7441
▁offspring	-10.7441
▁oldfashioned	-10.7441
▁ounce	-10.7441
▁pajamas	-10.7441
▁passport	-10.7441
▁perfume	-10.7441
▁pheasant	-10.7441
▁pistol	-10.7441
▁polite	-10.7441
▁prairie	-10.7441
▁pronounce	-10.7441
▁province	-10.7441
▁reckon	-10.7441
▁reconstruct	-10.7441
▁rehearsal	-10.7441
▁rescuing	-10.7441
▁resource	-10.7441
▁respond	-10.7441
▁rodrigo	-10.7441
▁russell	-10.7441
▁sailboat	-10.7441
▁scissor	-10.7441
▁scoop	-10.7441
▁scoundrel	-10.7441
▁sensitive	-10.7441
▁shriek	-10.7441
▁snorts	-10.7441
▁spaghetti	-10.7441
▁squirrel	-10.7441
▁stonecutter	-10.7441
▁supernatural	-10.7441
▁supply	-10.7441
▁survivor	-10.7441
▁thread	-10.7441
▁thursday	-10.7441
▁tixo	-10.7441
▁transformation	-10.7441
▁transformed	-10.7441
▁treacherous	-10.7441
▁trespass	-10.7441
▁ultimately	-10.7441
▁unsaya	-10.7441
▁valuable	-10.7441
▁vincenty	-10.7441
▁webcam	-10.7441
▁winslow	-10.7441
▁yippyyippyyay	-10.7441
flavor	-10.7441
▁ankle	-10.7441
▁caradec	-10.7441
▁choir	-10.7441
▁clarion	-10.7441
▁committee	-10.7441
▁companion	-10.7441
▁croak	-10.7441
▁david	-10.7441
▁insult	-10.7441
▁interview	-10.7441
▁ivory	-10.7441
▁leash	-10.7441
▁location	-10.7441
▁prague	-10.7441
▁rapidly	-10.7441
▁rethink	-10.7441
▁source	-10.7441
▁strict	-10.7441
▁text	-10.7441
▁thistles	-10.7441
▁tragic	-10.7441
▁yoohoo	-10.7441
▁adorable	-10.7441
▁anytime	-10.7441
▁central	-10.7441
▁combination	-10.7441
▁compete	-10.7441
▁curtain	-10.7441
▁dawg	-10.7441
▁gorgeous	-10.7441
▁hawk	-10.7441
▁heartbeat	-10.7441
▁mourn	-10.7441
▁mumbles	-10.7441
▁niece	-10.7441
▁ooph	-10.7441
▁salami	-10.7441
▁shipmate	-10.7441
▁washington	-10.7441
▁beeps	-10.7441
▁bessie	-10.7441
▁figurin	-10.7441
▁formula	-10.7441
▁inmate	-10.7441
▁poaching	-10.7441
▁sinai	-10.7441
▁admire	-10.7441
▁motion	-10.7441
▁transfer	-10.7441
▁apologies	-10.7441
▁conceal	-10.7441
▁fbi	-10.7441
▁finch	-10.7441
▁poker	-10.7441
▁yawn	-10.7441
▁commercial	-10.7441
▁betray	-10.7441
▁dumplings	-10.7441
▁presley	-10.7441
▁athlet	-10.7441
▁bailed	-10.7441
▁kyle	-10.7441
▁modest	-10.7441
▁vital	-10.7441
uvre	-10.7441
▁automation	-10.7441
▁compass	-10.7441
▁titi	-10.7441
▁lepers	-10.7441
▁myth	-10.7441
▁prosper	-10.7441
▁anchor	-10.7441
▁coughs	-10.7441
▁lyric	-10.7441
▁mademoiselle	-10.7441
▁mural	-10.7441
▁pacific	-10.7441
▁goodnight	-10.7441
▁consent	-10.7441
▁reef	-10.7441
▁verdes	-10.7441
▁nancy	-10.7441
▁organization	-10.7441
▁feature	-10.7441
▁telephone	-10.7441
▁torture	-10.7441
▁kitten	-10.7441
▁sketch	-10.7441
▁sofia	-10.7441
▁titanium	-10.7441
▁greedy	-10.7441
▁autograph	-10.7441
▁surprising	-10.7441
▁douglas	-10.7441
▁hahaha	-10.7441
▁heiress	-10.7441
▁illustrious	-10.7441
▁material	-10.7441
▁getaway	-10.7441
▁forge	-10.7441
libert	-10.7441
▁reject	-10.7441
▁wimp	-10.7441
▁wages	-10.7441
▁cheek	-10.7441
gner	-10.7441
▁gau	-10.7441
▁cowboy	-10.7441
▁vida	-10.7442
▁fond	-10.7442
▁venture	-10.7442
▁logs	-10.7442
▁profit	-10.7442
▁doggy	-10.7442
▁dork	-10.7442
▁judgment	-10.7442
▁hesitate	-10.7442
▁permit	-10.7442
▁yankee	-10.7442
▁specific	-10.7442
▁dumpster	-10.7442
▁failure	-10.7442
▁judea	-10.7442
▁spray	-10.7442
▁bacon	-10.7442
▁waaah	-10.7442
▁shipped	-10.7442
▁envy	-10.7442
▁arrangements	-10.7442
▁dominion	-10.7442
▁pennant	-10.7442
▁whiskey	-10.7442
▁ouch	-10.7443
▁assess	-10.7443
▁mirage	-10.7443
▁crank	-10.7443
▁stiff	-10.7443
▁sunrise	-10.7443
▁depiction	-10.7443
▁lizard	-10.7443
▁oniy	-10.7443
▁tada	-10.7443
▁marsh	-10.7443
▁raft	-10.7443
▁copper	-10.7443
▁politic	-10.7443
▁dope	-10.7443
▁sprout	-10.7443
▁flush	-10.7443
▁jimmy	-10.7443
▁garna	-10.7443
▁attractive	-10.7443
▁rudy	-10.7444
▁edict	-10.7444
▁penalt	-10.7444
illa	-10.7444
▁interpretation	-10.7444
▁astronomy	-10.7444
▁unde	-10.7444
▁waking	-10.7445
▁michelle	-10.7445
▁crap	-10.7445
▁overlapping	-10.7445
▁section	-10.7445
▁fraud	-10.7445
▁wrapped	-10.7445
▁campbell	-10.7445
▁representation	-10.7445
▁gear	-10.7445
▁memories	-10.7445
▁mask	-10.7445
▁herman	-10.7445
▁torch	-10.7446
▁lime	-10.7446
▁curls	-10.7446
▁whoosh	-10.7446
▁petting	-10.7446
▁additional	-10.7446
▁gay	-10.7446
▁grub	-10.7446
▁alley	-10.7446
▁willis	-10.7446
coming	-10.7446
▁nude	-10.7446
▁erase	-10.7447
▁thou	-10.7447
▁settlement	-10.7448
▁michel	-10.7448
▁comic	-10.7448
▁mira	-10.7448
▁vocal	-10.7448
wind	-10.7448
▁fever	-10.7448
▁self	-10.7448
▁identif	-10.7449
▁revol	-10.7449
vol	-10.7449
▁foster	-10.7449
▁grandson	-10.7449
▁spur	-10.7449
▁publicity	-10.7449
▁rail	-10.7449
▁wool	-10.7449
▁canada	-10.7449
▁soil	-10.745
▁graceful	-10.745
▁artistic	-10.745
▁spotted	-10.745
▁mast	-10.745
▁juli	-10.7451
▁baff	-10.7451
long	-10.7451
▁passage	-10.7451
▁cove	-10.7451
▁raid	-10.7452
▁isle	-10.7452
▁belief	-10.7452
▁shoo	-10.7452
fron	-10.7452
▁conc	-10.7453
▁chand	-10.7453
▁condo	-10.7453
▁itch	-10.7454
▁accused	-10.7454
▁seventy	-10.7454
▁scratches	-10.7454
▁mice	-10.7454
▁newborn	-10.7455
▁beak	-10.7455
▁impression	-10.7455
▁suitable	-10.7455
▁uhuh	-10.7455
▁atmosphere	-10.7455
▁slide	-10.7455
▁yank	-10.7455
▁standard	-10.7455
▁gross	-10.7456
▁loan	-10.7457
after	-10.7457
▁partial	-10.7457
▁fitting	-10.7458
▁freeze	-10.7458
▁gown	-10.7458
isten	-10.7458
▁stranded	-10.7459
▁shit	-10.7459
▁sadness	-10.746
▁twin	-10.746
▁dna	-10.7461
▁veno	-10.7461
▁sore	-10.7461
▁halfway	-10.7462
▁deadline	-10.7462
▁glance	-10.7463
▁restored	-10.7463
▁bricka	-10.7463
▁constantly	-10.7464
▁winning	-10.7464
▁traditional	-10.7465
▁math	-10.7465
▁cling	-10.7466
▁buckle	-10.7467
▁presentation	-10.7467
▁escaping	-10.7467
▁arrow	-10.7468
▁ken	-10.7468
▁now	-10.7469
▁beastly	-10.7469
▁stir	-10.7471
▁undo	-10.7471
▁galina	-10.7471
hey	-10.7472
▁dew	-10.7472
istic	-10.7473
▁husk	-10.7473
eyed	-10.7473
▁ban	-10.7473
▁armor	-10.7474
▁humanity	-10.7476
itation	-10.7477
▁hoho	-10.7478
▁statement	-10.7479
▁ease	-10.7479
▁tax	-10.748
▁pone	-10.748
▁malenkaya	-10.7481
▁passion	-10.7482
▁borrowed	-10.7482
▁ensu	-10.7485
▁ash	-10.7485
▁hatch	-10.7487
▁paddle	-10.7487
ando	-10.7487
▁properly	-10.7488
▁clay	-10.7488
▁replaced	-10.7489
▁celesti	-10.749
▁tali	-10.7491
▁invented	-10.7493
▁defeated	-10.7494
▁endless	-10.7494
▁hm	-10.7494
▁daylight	-10.75
▁seaman	-10.7502
▁squealing	-10.7502
▁mum	-10.7505
tem	-10.7507
mic	-10.7508
▁deny	-10.7508
▁actor	-10.7513
rief	-10.7516
▁factory	-10.7518
▁discovery	-10.7518
▁yak	-10.7521
▁crashing	-10.7521
oose	-10.7521
▁disturbed	-10.7522
▁kl	-10.7523
▁ignored	-10.7524
▁fay	-10.7525
diction	-10.7526
▁tomb	-10.7526
▁flatter	-10.7528
▁kicked	-10.7529
▁hopeless	-10.7533
▁foundation	-10.7534
▁yall	-10.7537
▁bully	-10.754
▁divided	-10.754
stage	-10.7542
▁hike	-10.7543
▁vegetables	-10.7544
▁pupp	-10.7548
▁parisa	-10.7551
icken	-10.7552
▁predict	-10.7553
▁experienced	-10.756
▁finale	-10.7564
▁floating	-10.7572
▁robe	-10.7574
▁separated	-10.7575
▁sau	-10.7585
▁tilt	-10.7586
▁snag	-10.7586
▁hait	-10.7587
▁sic	-10.7587
▁maley	-10.7588
▁cheating	-10.7589
▁clothed	-10.7589
▁spine	-10.7592
▁joint	-10.7593
ipped	-10.76
imate	-10.7604
▁amy	-10.7607
▁pearls	-10.7612
▁citizens	-10.7612
▁stepsisters	-10.7612
▁shutters	-10.7612
▁fighter	-10.7613
▁cheerful	-10.7614
▁sniffs	-10.7616
▁owl	-10.7617
▁studying	-10.7629
▁fro	-10.7639
▁parker	-10.7639
▁nd	-10.7644
▁successful	-10.7647
racket	-10.7653
▁clothing	-10.7661
▁insects	-10.7663
▁recorded	-10.7667
ously	-10.7673
▁chains	-10.7681
▁matri	-10.7682
▁starve	-10.7684
▁bake	-10.7686
tent	-10.7688
▁bella	-10.7693
▁cri	-10.7696
▁lever	-10.7699
▁heed	-10.7703
ware	-10.7709
▁pil	-10.7715
▁digg	-10.7717
going	-10.7722
▁fang	-10.7728
▁bothering	-10.7731
▁gladly	-10.7742
▁imagined	-10.7742
▁hunted	-10.7746
▁nails	-10.7749
▁affairs	-10.775
▁crocodiles	-10.775
▁generations	-10.775
▁gru	-10.7767
▁dated	-10.7787
lrus	-10.7788
pt	-10.7788
▁counter	-10.7795
▁clip	-10.7797
▁span	-10.78
▁wi	-10.7803
emn	-10.7807
▁reservations	-10.782
▁yearn	-10.7856
▁fishy	-10.788
▁dolphins	-10.789
▁sailors	-10.789
top	-10.789
▁sin	-10.79
▁rowing	-10.7911
▁cracks	-10.7916
▁puk	-10.7916
▁pond	-10.7919
▁crossing	-10.7929
▁askin	-10.7945
▁corr	-10.7947
▁answered	-10.7951
▁compliments	-10.796
▁scales	-10.796
▁realms	-10.7964
elie	-10.7984
▁mash	-10.799
▁closely	-10.7998
▁joined	-10.8001
ashed	-10.8013
▁oooo	-10.8016
▁wondered	-10.8017
▁reached	-10.8025
▁glo	-10.8031
▁buttons	-10.8032
▁neat	-10.804
▁fooled	-10.8052
▁prisoners	-10.806
▁prayers	-10.8061
tab	-10.8062
▁hanged	-10.8067
venge	-10.8095
ix	-10.8102
▁warming	-10.8132
▁stayin	-10.8174
ference	-10.82
▁diplomat	-10.8207
aged	-10.822
gie	-10.8235
▁ann	-10.824
▁jumping	-10.8251
mental	-10.83
bois	-10.831
▁fianc	-10.8418
▁bing	-10.843
▁fr	-10.8483
▁youyou	-10.8506
▁kin	-10.8534
▁tickl	-10.8536
▁sum	-10.8541
▁carrie	-10.8548
▁psych	-10.8568
▁spa	-10.8577
▁stru	-10.8619
▁when	-10.8648
▁rubb	-10.8669
limited	-10.867
▁cu	-10.8679
▁execute	-10.873
▁fam	-10.8734
ature	-10.8761
▁rum	-10.8769
▁vib	-10.8777
marine	-10.8792
new	-10.8796
fo	-10.8891
▁prom	-10.8901
▁workshop	-10.8916
▁para	-10.8927
▁mini	-10.893
▁hotte	-10.8933
ories	-10.8936
▁ent	-10.9027
▁pip	-10.9037
veni	-10.9042
injured	-10.9069
▁pim	-10.9124
▁oppo	-10.9131
eem	-10.9165
▁val	-10.9214
hill	-10.9326
▁kinder	-10.9351
▁bev	-10.9359
▁jud	-10.9378
ox	-10.9399
▁qualif	-10.9415
hood	-10.9431
ication	-10.9453
▁cape	-10.948
▁exception	-10.953
▁roar	-10.9605
far	-10.9611
▁whoop	-10.9641
▁repair	-10.9646
▁odd	-10.9651
▁orca	-10.9655
▁fau	-10.9655
▁scientist	-10.966
▁circumstance	-10.9662
▁insect	-10.9663
▁chain	-10.9665
▁sock	-10.9668
▁gras	-10.9675
▁nami	-10.9682
▁sil	-10.9711
itive	-10.973
run	-10.9753
▁pit	-10.9773
logy	-10.978
olution	-10.9784
eek	-10.9795
▁soci	-10.9805
▁remark	-10.9807
ium	-10.9825
▁tang	-10.9833
hou	-10.9847
sky	-10.9855
▁smooth	-10.9856
▁origin	-10.9858
▁rac	-10.9858
▁ku	-10.9859
▁squeal	-10.9863
▁clap	-10.9864
▁pod	-10.9866
▁suppos	-10.987
▁outrage	-10.9871
▁weep	-10.9873
burg	-10.9875
▁haunt	-10.9887
▁cub	-10.9887
▁glowin	-10.9888
▁borrow	-10.9888
▁wreck	-10.989
▁brook	-10.9891
▁bump	-10.9892
born	-10.9894
▁padd	-10.9899
▁noon	-10.9899
▁rig	-10.9901
even	-10.9901
▁involve	-10.9905
lookin	-10.9905
master	-10.9907
fold	-10.9907
historic	-10.9907
vision	-10.9907
▁fre	-10.9908
shift	-10.991
point	-10.9911
mouth	-10.9911
▁butterfl	-10.9911
boy	-10.9911
▁regard	-10.9911
▁phil	-10.9911
power	-10.9911
▁destin	-10.9912
please	-10.9912
▁flip	-10.9913
▁cultur	-10.9916
wise	-10.9919
▁steel	-10.9924
▁whack	-10.9926
▁improve	-10.9926
▁guilt	-10.993
▁potato	-10.993
▁terri	-10.9931
cast	-10.9933
▁conduct	-10.9934
▁leavin	-10.9934
▁movin	-10.9934
▁igno	-10.9935
▁process	-10.9935
ermit	-10.9936
▁savanna	-10.9936
▁promot	-10.9937
▁defense	-10.9937
▁electric	-10.9938
▁establish	-10.9939
ammer	-10.9939
▁angu	-10.9939
ifornia	-10.994
▁relation	-10.994
▁willo	-10.994
▁scram	-10.994
ordinary	-10.994
ggle	-10.9941
▁offens	-10.9941
▁sophi	-10.9941
▁miguel	-10.9941
▁sponsor	-10.9941
islav	-10.9941
▁accursed	-10.9941
▁activities	-10.9941
▁afterward	-10.9941
▁albert	-10.9941
▁antarctica	-10.9941
▁aokay	-10.9941
▁apology	-10.9941
▁arguing	-10.9941
▁balcony	-10.9941
▁ballerina	-10.9941
▁bathtub	-10.9941
▁beautifui	-10.9941
▁belteshazzar	-10.9941
▁bewitched	-10.9941
▁bonjour	-10.9941
▁bucephalus	-10.9941
▁bundle	-10.9941
▁bungee	-10.9941
▁carnivor	-10.9941
▁carolsfeld	-10.9941
▁centuries	-10.9941
▁cetera	-10.9941
▁cherokee	-10.9941
▁chigga	-10.9941
▁ciose	-10.9941
▁cloak	-10.9941
▁communication	-10.9941
▁comparison	-10.9941
▁compromis	-10.9941
▁confident	-10.9941
▁conspir	-10.9941
▁creaks	-10.9941
▁cuckold	-10.9941
▁cuisine	-10.9941
▁curfew	-10.9941
▁cyril	-10.9941
▁daphne	-10.9941
▁decorate	-10.9941
▁dedicate	-10.9941
▁demonstrate	-10.9941
▁descend	-10.9941
▁devries	-10.9941
▁dimple	-10.9941
▁dinosaur	-10.9941
▁disagree	-10.9941
▁discharge	-10.9941
▁disgrace	-10.9941
▁disobey	-10.9941
▁disposition	-10.9941
▁distress	-10.9941
▁doskil	-10.9941
▁doublecross	-10.9941
▁downstream	-10.9941
▁dungeon	-10.9941
▁dwarf	-10.9941
▁encouraging	-10.9941
▁enthusiast	-10.9941
▁euphrania	-10.9941
▁ferocious	-10.9941
▁fiddledeedee	-10.9941
▁forsaken	-10.9941
▁furnace	-10.9941
▁gabriel	-10.9941
▁glaci	-10.9941
▁glimpse	-10.9941
▁gratitude	-10.9941
▁guarantee	-10.9941
▁gypsy	-10.9941
▁himalaya	-10.9941
▁household	-10.9941
▁hurrah	-10.9941
▁imbecile	-10.9941
▁immortal	-10.9941
▁importance	-10.9941
▁impostor	-10.9941
▁incident	-10.9941
▁inevitabl	-10.9941
▁insanity	-10.9941
▁intelligence	-10.9941
▁japan	-10.9941
▁jersey	-10.9941
▁jethro	-10.9941
▁jubilee	-10.9941
▁lloyd	-10.9941
▁malabar	-10.9941
▁marduk	-10.9941
▁masomori	-10.9941
▁misfortune	-10.9941
▁miyajima	-10.9941
▁monaghan	-10.9941
▁monsoon	-10.9941
▁munchkin	-10.9941
▁naught	-10.9941
▁nowadays	-10.9941
▁observation	-10.9941
▁panzanera	-10.9941
▁patti	-10.9941
▁permanent	-10.9941
▁photograph	-10.9941
▁porridge	-10.9941
▁premature	-10.9941
▁proposal	-10.9941
▁pylon	-10.9941
▁pyramid	-10.9941
▁raji	-10.9941
▁ratatouille	-10.9941
▁recognise	-10.9941
▁reindeer	-10.9941
▁reserves	-10.9941
▁residence	-10.9941
▁rhino	-10.9941
▁scholar	-10.9941
▁sensual	-10.9941
▁shannon	-10.9941
▁similar	-10.9941
▁skeleton	-10.9941
▁skunk	-10.9941
▁smuggl	-10.9941
▁spectacular	-10.9941
▁spreadsheet	-10.9941
▁squirt	-10.9941
▁studies	-10.9941
▁supermarket	-10.9941
▁supreme	-10.9941
▁surroyal	-10.9941
▁switzerland	-10.9941
▁symmetry	-10.9941
▁tattoo	-10.9941
▁toadstool	-10.9941
▁toymaker	-10.9941
▁trophy	-10.9941
▁umbrella	-10.9941
▁unfurl	-10.9941
▁volauvent	-10.9941
▁volunteer	-10.9941
▁wardrobe	-10.9941
▁wednesday	-10.9941
▁whirlpool	-10.9941
▁wilkinson	-10.9941
▁yield	-10.9941
▁yunque	-10.9941
▁alliance	-10.9941
▁blume	-10.9941
▁choochoo	-10.9941
▁december	-10.9941
▁depriv	-10.9941
▁finster	-10.9941
▁initial	-10.9941
▁instance	-10.9941
▁lifestyle	-10.9941
▁maintain	-10.9941
▁monument	-10.9941
▁munch	-10.9941
▁oyster	-10.9941
▁pulse	-10.9941
▁purple	-10.9941
▁reverend	-10.9941
▁sidewinder	-10.9941
▁smack	-10.9941
▁sought	-10.9941
▁spike	-10.9941
▁ulido	-10.9941
▁wheat	-10.9941
▁yuan	-10.9941
tolerable	-10.9941
▁chariie	-10.9941
▁fragment	-10.9941
▁fridge	-10.9941
▁frown	-10.9941
▁jib	-10.9941
▁micro	-10.9941
▁ollie	-10.9941
▁pigeon	-10.9941
▁regain	-10.9941
▁routine	-10.9941
▁shovel	-10.9941
▁shrine	-10.9941
▁snatch	-10.9941
▁sovereign	-10.9941
▁tamara	-10.9941
▁thigh	-10.9941
▁thrive	-10.9941
▁unpack	-10.9941
▁clove	-10.9941
▁pendant	-10.9941
▁sooth	-10.9941
▁ciean	-10.9941
▁clever	-10.9941
▁critters	-10.9941
▁renata	-10.9941
▁richmond	-10.9941
▁taskmasters	-10.9941
▁terence	-10.9941
▁threatened	-10.9941
▁troops	-10.9941
leigh	-10.9941
▁barani	-10.9941
▁empti	-10.9941
▁gang	-10.9941
▁radar	-10.9941
▁slick	-10.9941
▁unveil	-10.9941
▁wilderness	-10.9941
▁donations	-10.9941
▁elmer	-10.9941
▁illegal	-10.9941
▁plow	-10.9941
▁unarmed	-10.9941
▁clown	-10.9941
▁illinois	-10.9941
▁snares	-10.9941
▁superior	-10.9941
▁absence	-10.9941
▁adapt	-10.9941
▁halyard	-10.9941
▁knockoffs	-10.9941
▁miserly	-10.9941
▁object	-10.9941
▁spiritual	-10.9941
▁gymnastics	-10.9941
▁sissi	-10.9941
▁stunt	-10.9941
▁zero	-10.9941
▁commut	-10.9941
▁tardes	-10.9941
▁spider	-10.9941
▁fivepoints	-10.9941
▁jammed	-10.9941
▁slumber	-10.9941
▁yearold	-10.9941
▁gymnast	-10.9941
▁ricks	-10.9941
▁sleeves	-10.9941
▁cartwheel	-10.9941
▁odor	-10.9941
▁mayday	-10.9941
▁sweat	-10.9941
▁attitude	-10.9941
▁poiice	-10.9941
▁everyday	-10.9941
▁gulp	-10.9941
▁measur	-10.9941
▁italy	-10.9941
▁flicker	-10.9941
▁archer	-10.9941
▁blond	-10.9941
▁browse	-10.9941
▁theor	-10.9941
▁value	-10.9941
linking	-10.9941
▁possibility	-10.9941
▁yelled	-10.9941
▁departure	-10.9941
▁instinct	-10.9941
▁intelligent	-10.9941
▁freak	-10.9941
▁orion	-10.9941
▁cuff	-10.9941
▁boundaries	-10.9941
▁equator	-10.9941
▁hostess	-10.9941
▁stain	-10.9941
▁stewards	-10.9941
▁planner	-10.9942
▁bullseye	-10.9942
▁anticipation	-10.9942
▁expose	-10.9942
▁blush	-10.9942
▁skiff	-10.9942
▁milliner	-10.9942
▁ginger	-10.9942
▁rags	-10.9942
▁railroad	-10.9942
▁juice	-10.9942
▁civilization	-10.9942
▁oooh	-10.9942
▁exalt	-10.9942
▁screw	-10.9942
▁sabelotodo	-10.9942
▁carved	-10.9942
▁sugar	-10.9942
▁executive	-10.9942
▁mallet	-10.9942
▁insignificant	-10.9942
▁panicked	-10.9942
iards	-10.9942
▁mystic	-10.9942
▁dibs	-10.9942
while	-10.9942
▁donna	-10.9942
▁reai	-10.9942
▁strateg	-10.9942
▁stray	-10.9942
▁meatball	-10.9942
▁bobble	-10.9942
renown	-10.9943
▁hooves	-10.9943
▁misery	-10.9943
lsey	-10.9943
▁reek	-10.9943
▁shaking	-10.9943
▁bartle	-10.9943
▁hermit	-10.9943
▁guts	-10.9943
▁woke	-10.9943
▁epic	-10.9943
▁shush	-10.9943
fficient	-10.9943
▁riff	-10.9943
▁plunge	-10.9943
▁kidnapping	-10.9943
▁vein	-10.9943
▁furious	-10.9943
▁chump	-10.9943
▁earthquake	-10.9943
▁solving	-10.9943
▁gamekeeper	-10.9943
▁ambition	-10.9943
▁superstition	-10.9943
▁brake	-10.9943
▁festiv	-10.9943
▁selfish	-10.9943
▁ltaly	-10.9943
▁decent	-10.9943
ebra	-10.9943
▁oath	-10.9944
▁happier	-10.9944
▁tasty	-10.9944
▁timber	-10.9944
▁bribe	-10.9944
▁crump	-10.9944
▁eww	-10.9944
▁tutor	-10.9944
reliable	-10.9944
▁orphanage	-10.9944
▁chico	-10.9944
▁appointment	-10.9944
▁krill	-10.9944
▁litter	-10.9944
▁couch	-10.9944
▁skinny	-10.9944
▁courtney	-10.9944
▁gourd	-10.9944
▁utter	-10.9944
▁grease	-10.9945
vocat	-10.9945
▁heap	-10.9945
▁squeeze	-10.9945
▁masa	-10.9945
▁purse	-10.9945
▁elope	-10.9945
▁harr	-10.9945
▁oof	-10.9945
▁grizzly	-10.9945
▁porch	-10.9945
▁online	-10.9945
zzle	-10.9945
▁drool	-10.9945
▁annie	-10.9946
▁stakeout	-10.9946
▁hock	-10.9946
▁marta	-10.9946
▁drifting	-10.9946
▁axelle	-10.9946
▁june	-10.9946
▁taik	-10.9946
▁swine	-10.9947
▁ramir	-10.9947
▁conclude	-10.9947
▁nerd	-10.9947
▁journalist	-10.9947
▁scarf	-10.9947
▁overall	-10.9947
▁headache	-10.9948
▁production	-10.9948
▁reaction	-10.9948
screen	-10.9948
▁surf	-10.9948
▁sandals	-10.9948
▁coco	-10.9948
conna	-10.9948
▁rita	-10.9948
▁headmaster	-10.9948
▁executioner	-10.9949
▁pork	-10.9949
▁allergies	-10.9949
doodle	-10.9949
▁annu	-10.9949
▁liking	-10.9949
▁peek	-10.9949
▁craze	-10.995
▁mitt	-10.995
▁qi	-10.995
arrow	-10.995
▁flaw	-10.995
▁grim	-10.995
▁millimeter	-10.995
▁inventor	-10.9951
▁popularity	-10.9951
▁wax	-10.9951
▁countryside	-10.9951
▁colour	-10.9951
▁okinawan	-10.9952
▁russian	-10.9952
▁affection	-10.9952
▁glove	-10.9952
▁travelling	-10.9952
▁monty	-10.9952
▁tele	-10.9952
▁alter	-10.9952
▁twit	-10.9953
▁dub	-10.9953
▁grumpy	-10.9953
▁victory	-10.9953
▁coil	-10.9953
▁astonishing	-10.9954
dog	-10.9954
▁collector	-10.9954
▁package	-10.9955
▁alike	-10.9955
▁drawings	-10.9955
▁yonder	-10.9955
▁venus	-10.9955
▁frame	-10.9955
▁email	-10.9955
▁sieg	-10.9956
▁moose	-10.9956
▁springtime	-10.9956
▁brass	-10.9956
▁hometown	-10.9956
▁lashes	-10.9957
▁katya	-10.9957
▁shant	-10.9957
▁moist	-10.9957
gical	-10.9957
▁bore	-10.9957
▁acquired	-10.9958
▁surp	-10.9958
▁airline	-10.9958
addle	-10.9959
lulu	-10.996
▁crav	-10.996
lette	-10.9961
▁classic	-10.9962
▁sheer	-10.9962
▁replace	-10.9963
▁bumme	-10.9964
▁lighthouse	-10.9964
▁polished	-10.9964
▁donate	-10.9965
▁bravery	-10.9965
▁worm	-10.9965
▁spank	-10.9965
▁vine	-10.9965
▁farther	-10.9965
hehey	-10.9966
▁thus	-10.9967
▁hopewell	-10.9968
▁varie	-10.9968
▁edit	-10.9968
▁mobo	-10.9968
shot	-10.9969
▁neu	-10.9969
▁convention	-10.9969
▁painters	-10.9969
▁brighten	-10.9971
east	-10.9971
▁dough	-10.9971
▁management	-10.9971
opher	-10.9971
▁background	-10.9972
▁backyard	-10.9972
▁tease	-10.9972
▁bob	-10.9972
▁described	-10.9972
▁crucial	-10.9972
▁bout	-10.9973
▁speeches	-10.9974
▁hunger	-10.9974
▁fashionable	-10.9975
▁sitter	-10.9977
▁rhyme	-10.9977
▁mede	-10.9977
▁chor	-10.9977
▁bop	-10.9978
▁gravel	-10.9979
▁solo	-10.9979
▁adopted	-10.998
▁nun	-10.998
▁sip	-10.9983
▁discussion	-10.9984
▁instantly	-10.9984
▁prov	-10.9985
▁beam	-10.9986
▁yeii	-10.9987
▁kay	-10.9988
▁hoof	-10.9988
▁taco	-10.999
▁copy	-10.9993
▁charter	-10.9993
▁qui	-10.9993
▁deceived	-10.9995
▁regarded	-10.9995
▁haunted	-10.9995
▁bumped	-10.9995
▁monta	-10.9996
eemed	-10.9996
▁fist	-10.9996
▁entertaining	-10.9998
itty	-10.9999
▁straighten	-10.9999
▁romeo	-10.9999
▁anne	-10.9999
▁smoking	-11.0002
aries	-11.0005
▁launch	-11.0009
▁invested	-11.0011
rance	-11.0011
▁sch	-11.0012
zy	-11.0013
▁pon	-11.0017
▁rath	-11.0018
▁desperately	-11.0018
▁takeoff	-11.0018
▁translat	-11.0019
▁historic	-11.002
▁ole	-11.002
▁mustard	-11.0022
▁busted	-11.0024
▁advanced	-11.0024
erits	-11.0024
▁this	-11.0024
▁pm	-11.0025
▁delayed	-11.0026
▁scratched	-11.0026
▁tossed	-11.0026
burger	-11.0029
▁stan	-11.0029
▁radi	-11.0031
than	-11.0032
▁lease	-11.0034
▁mare	-11.0034
▁core	-11.0034
▁fastest	-11.0039
izer	-11.0039
▁collected	-11.0042
▁chin	-11.0042
▁sap	-11.0045
icious	-11.0047
▁goldie	-11.0054
▁elevate	-11.0062
▁sewing	-11.0065
▁peep	-11.0065
▁noto	-11.0068
▁lotus	-11.0071
▁poured	-11.0074
▁sellin	-11.0075
erial	-11.0077
▁whinn	-11.0082
▁strongest	-11.0083
▁parties	-11.0086
▁focused	-11.0088
▁ez	-11.009
▁splashing	-11.009
▁teen	-11.0092
▁cue	-11.0093
▁perch	-11.0093
▁bagg	-11.0099
▁reg	-11.0104
▁conquered	-11.0104
most	-11.0107
rist	-11.0112
▁failing	-11.0114
mar	-11.0116
▁sunb	-11.0122
elves	-11.0127
▁singin	-11.0135
▁lifted	-11.0136
▁gonde	-11.0136
▁pouring	-11.0138
fit	-11.0145
cet	-11.0146
rish	-11.0154
▁gaining	-11.016
they	-11.0163
▁pun	-11.0165
▁marryin	-11.0168
▁seated	-11.0172
▁emotional	-11.0179
▁recover	-11.0179
▁wandering	-11.0182
▁earned	-11.0192
▁quicker	-11.0194
▁lick	-11.0196
▁exten	-11.0198
asses	-11.0203
▁preten	-11.0211
▁harmed	-11.0215
▁spreading	-11.023
▁tube	-11.0231
ppy	-11.0235
▁stored	-11.0246
posit	-11.0249
▁guil	-11.025
▁fort	-11.0252
ucking	-11.0255
▁your	-11.0259
oid	-11.0261
▁crashe	-11.0277
▁aiming	-11.0278
▁whispering	-11.0286
▁reminded	-11.0286
▁angeles	-11.0289
▁bal	-11.0291
▁rolled	-11.0295
▁treating	-11.03
▁sailed	-11.0306
till	-11.0313
▁skipp	-11.0317
▁vik	-11.0319
▁diet	-11.0339
pper	-11.0341
▁highway	-11.0359
▁workers	-11.0376
tically	-11.0413
▁broker	-11.042
▁auto	-11.0425
hoots	-11.0431
fro	-11.0443
veal	-11.0445
meter	-11.0461
umpkin	-11.0476
rapping	-11.0478
▁barg	-11.0492
▁pic	-11.0507
▁ami	-11.0509
com	-11.0523
morons	-11.054
▁kar	-11.054
elp	-11.0541
▁ty	-11.0544
▁caii	-11.0575
rott	-11.0595
ament	-11.0608
▁drawer	-11.0609
eddie	-11.0613
▁institut	-11.0626
igna	-11.0633
▁defin	-11.0634
▁iv	-11.0635
ograph	-11.0642
▁uph	-11.0679
wwhat	-11.0713
utting	-11.0744
▁rei	-11.0777
gible	-11.0843
▁sow	-11.0883
▁antiquit	-11.0936
▁glob	-11.0948
▁stepp	-11.0961
▁injur	-11.0998
▁batt	-11.1013
lina	-11.1044
▁iso	-11.1063
▁crackl	-11.1067
act	-11.1139
star	-11.1141
▁fel	-11.1157
▁eli	-11.1176
▁buff	-11.1209
why	-11.123
lack	-11.1261
▁don	-11.1294
▁pietr	-11.1333
▁entr	-11.1362
ooh	-11.1415
cat	-11.1489
rmo	-11.1496
omb	-11.1519
mission	-11.1529
berries	-11.16
▁tor	-11.1624
cker	-11.163
▁hen	-11.1649
otto	-11.1707
ather	-11.1743
uffer	-11.1778
pee	-11.1804
ode	-11.1831
ager	-11.1863
▁clu	-11.1873
urity	-11.1896
▁gia	-11.1969
▁mace	-11.1994
ella	-11.1998
▁refer	-11.2038
mu	-11.2049
▁arr	-11.2082
▁slo	-11.2095
miss	-11.2167
tel	-11.2209
▁prot	-11.2211
met	-11.2215
tun	-11.2251
but	-11.2316
▁aur	-11.2321
ache	-11.2333
hach	-11.2339
graphy	-11.2372
essa	-11.2376
▁ec	-11.2442
▁sparkle	-11.2479
ope	-11.2484
▁smok	-11.2487
udge	-11.2501
bugs	-11.2503
lou	-11.2521
nsel	-11.2522
ania	-11.2545
iam	-11.2549
verse	-11.2569
ugged	-11.2604
hc	-11.2656
▁bul	-11.2701
▁scrape	-11.2719
city	-11.2734
▁sniff	-11.274
▁maxim	-11.2744
quisition	-11.2752
▁qua	-11.2771
bble	-11.2783
▁are	-11.2831
▁blueberr	-11.2832
aga	-11.2835
igger	-11.2884
tenant	-11.2893
pressed	-11.2896
bod	-11.2899
▁sav	-11.2903
▁rack	-11.2967
▁citizen	-11.2975
▁stepsister	-11.2975
▁colleague	-11.2981
▁pearl	-11.2983
▁olympic	-11.2987
▁student	-11.2994
▁instruction	-11.2994
▁degree	-11.2997
▁folk	-11.2999
▁cran	-11.3
▁shutter	-11.3002
wed	-11.3008
hell	-11.301
▁tourist	-11.3011
cree	-11.3066
▁visitor	-11.3097
▁horr	-11.3106
▁embarrass	-11.3143
earned	-11.3154
ppe	-11.3158
▁welcom	-11.3162
▁bubbl	-11.3186
▁orang	-11.3188
▁mora	-11.3189
▁statu	-11.3193
▁entertain	-11.3194
ground	-11.3201
▁germa	-11.3204
ggy	-11.3205
▁web	-11.3209
▁depart	-11.3214
▁connect	-11.3214
▁confront	-11.3218
▁abandon	-11.3218
▁associat	-11.3218
wling	-11.3218
▁impress	-11.3219
▁adopt	-11.322
▁wail	-11.3222
▁disappoint	-11.3222
▁blink	-11.3223
guard	-11.3224
▁secre	-11.3225
▁dismiss	-11.3225
▁engag	-11.3226
▁referr	-11.3232
unning	-11.3233
▁ascen	-11.3233
▁describe	-11.3234
▁woo	-11.3235
tioning	-11.3235
▁restore	-11.3236
married	-11.3237
granddad	-11.3239
park	-11.3239
▁atten	-11.324
▁franc	-11.3241
regard	-11.3241
worm	-11.3241
nner	-11.3241
winning	-11.3242
protected	-11.3242
birth	-11.3243
bound	-11.3244
bread	-11.3244
track	-11.3244
close	-11.3244
▁snuff	-11.3244
wide	-11.3246
▁investigat	-11.3247
mark	-11.3247
load	-11.3249
▁atmospher	-11.3249
▁slid	-11.3249
bank	-11.325
▁incredibl	-11.325
▁judg	-11.325
nik	-11.3251
▁deceive	-11.3251
wash	-11.3251
half	-11.3252
month	-11.3252
▁squa	-11.3253
▁celebr	-11.3253
face	-11.3253
▁fiddle	-11.3254
raff	-11.3254
▁recent	-11.3255
looking	-11.3256
▁commit	-11.3257
whoo	-11.3258
▁dirt	-11.3258
forth	-11.3258
▁affect	-11.3259
▁canad	-11.3259
▁okinawa	-11.3259
▁russia	-11.3259
▁butch	-11.326
▁graci	-11.326
▁pendrago	-11.326
▁repl	-11.326
▁prettie	-11.3262
▁allergi	-11.3263
eaving	-11.3263
▁sneakin	-11.3263
fire	-11.3264
cock	-11.3264
▁sensation	-11.3264
▁snob	-11.3264
town	-11.3264
▁interfere	-11.3265
maid	-11.3266
▁blank	-11.3266
▁profession	-11.3266
▁driftin	-11.3267
▁likin	-11.3267
iddle	-11.3267
▁lovin	-11.3267
▁winnin	-11.3267
▁makin	-11.3268
▁scot	-11.3269
called	-11.3269
▁tuck	-11.3269
scribed	-11.327
▁kilo	-11.327
uffle	-11.327
▁gaunt	-11.3271
▁multi	-11.3271
▁prior	-11.3271
icycle	-11.3271
audible	-11.3271
uddle	-11.3272
▁enchant	-11.3272
▁tape	-11.3273
▁violen	-11.3273
▁inherit	-11.3273
inlaw	-11.3273
enstein	-11.3273
▁kidnap	-11.3273
annel	-11.3273
uchin	-11.3273
▁ceme	-11.3274
▁pussy	-11.3274
plex	-11.3274
titude	-11.3274
▁alpha	-11.3274
▁forbid	-11.3274
▁gradual	-11.3274
▁hypothetical	-11.3274
▁ravenous	-11.3274
▁reluctan	-11.3274
ductive	-11.3274
fivepointeight	-11.3274
frequently	-11.3274
ipulat	-11.3274
misunderstanding	-11.3274
njun	-11.3274
yippyyay	-11.3274
▁abednego	-11.3274
▁aborigine	-11.3274
▁abroad	-11.3274
▁abundan	-11.3274
▁accommodation	-11.3274
▁affirmative	-11.3274
▁agatha	-11.3274
▁aggressive	-11.3274
▁airplane	-11.3274
▁ammunition	-11.3274
▁angemals	-11.3274
▁angrily	-11.3274
▁anniversary	-11.3274
▁anthropomorphi	-11.3274
▁april	-11.3274
▁argument	-11.3274
▁aristocrat	-11.3274
▁artifact	-11.3274
▁assignment	-11.3274
▁atlantic	-11.3274
▁audibly	-11.3274
▁authorities	-11.3274
▁awkward	-11.3274
▁balboa	-11.3274
▁biscuit	-11.3274
▁blisters	-11.3274
▁boulder	-11.3274
▁bouquet	-11.3274
▁bygones	-11.3274
▁calarosa	-11.3274
▁chelsea	-11.3274
▁chihuahua	-11.3274
▁choosing	-11.3274
▁chronicle	-11.3274
▁chunk	-11.3274
▁coincidence	-11.3274
▁columbia	-11.3274
▁commend	-11.3274
▁communicate	-11.3274
▁comrades	-11.3274
▁condolences	-11.3274
▁confidence	-11.3274
▁conifers	-11.3274
▁conquest	-11.3274
▁cottage	-11.3274
▁counterpart	-11.3274
▁creativ	-11.3274
▁creepedeep	-11.3274
▁crunch	-11.3274
▁cyborg	-11.3274
▁decorations	-11.3274
▁deliberate	-11.3274
▁demographic	-11.3274
▁dewdrop	-11.3274
▁dividing	-11.3274
▁divorce	-11.3274
▁eliminate	-11.3274
▁elodie	-11.3274
▁encourage	-11.3274
▁enforce	-11.3274
▁engagement	-11.3274
▁engrave	-11.3274
▁enthusiasm	-11.3274
▁entitled	-11.3274
▁environment	-11.3274
▁euros	-11.3274
▁excavation	-11.3274
▁explode	-11.3274
▁exploding	-11.3274
▁exquisite	-11.3274
▁fabric	-11.3274
▁facility	-11.3274
▁fatigued	-11.3274
▁flamingos	-11.3274
▁flourish	-11.3274
▁fuji	-11.3274
▁furniture	-11.3274
▁fuzz	-11.3274
▁genuine	-11.3274
▁geronim	-11.3274
▁gigantic	-11.3274
▁giuseppe	-11.3274
▁grappling	-11.3274
▁grateful	-11.3274
▁harbor	-11.3274
▁hargrove	-11.3274
▁harvest	-11.3274
▁helicopter	-11.3274
▁helmsman	-11.3274
▁herbert	-11.3274
▁hierarchy	-11.3274
▁highwire	-11.3274
▁hilarious	-11.3274
▁ibex	-11.3274
▁imprisoned	-11.3274
▁incompeten	-11.3274
▁inferior	-11.3274
▁insecure	-11.3274
▁instagram	-11.3274
▁instrument	-11.3274
▁invasion	-11.3274
▁irritating	-11.3274
▁jeremiah	-11.3274
▁kabob	-11.3274
▁kansas	-11.3274
▁kazu	-11.3274
▁keisuke	-11.3274
▁kemper	-11.3274
▁kremlin	-11.3274
▁lagoona	-11.3274
▁leclaire	-11.3274
▁leopard	-11.3274
▁lizzie	-11.3274
▁maclntosh	-11.3274
▁makebelieve	-11.3274
▁mathilde	-11.3274
▁microwave	-11.3274
▁migration	-11.3274
▁millemiglia	-11.3274
▁mineowners	-11.3274
▁mississippi	-11.3274
▁mnumzane	-11.3274
▁mortgage	-11.3274
▁moscow	-11.3274
▁mutiny	-11.3274
▁negotiat	-11.3274
▁neigh	-11.3274
▁neighbour	-11.3274
▁nincompoop	-11.3274
▁nuttiness	-11.3274
▁okeydokey	-11.3274
▁parliament	-11.3274
▁pavarotti	-11.3274
▁percent	-11.3274
▁perkins	-11.3274
▁phenomen	-11.3274
▁physical	-11.3274
▁piranha	-11.3274
▁projection	-11.3274
▁pudding	-11.3274
▁reflect	-11.3274
▁richieboy	-11.3274
▁ritual	-11.3274
▁roanoke	-11.3274
▁rumbling	-11.3274
▁sayonara	-11.3274
▁scareport	-11.3274
▁scenario	-11.3274
▁scepter	-11.3274
▁sceptre	-11.3274
▁scherzinger	-11.3274
▁schultz	-11.3274
▁science	-11.3274
▁scorch	-11.3274
▁scrolls	-11.3274
▁senores	-11.3274
▁shadrach	-11.3274
▁shalimar	-11.3274
▁sheiks	-11.3274
▁shimizu	-11.3274
▁shrink	-11.3274
▁sicilian	-11.3274
▁slurp	-11.3274
▁sologne	-11.3274
▁someplace	-11.3274
▁splendor	-11.3274
▁squirm	-11.3274
▁staircase	-11.3274
▁stanford	-11.3274
▁straggler	-11.3274
▁stutters	-11.3274
▁subtract	-11.3274
▁sultan	-11.3274
▁sunraider	-11.3274
▁superconducti	-11.3274
▁surgery	-11.3274
▁sustain	-11.3274
▁symbol	-11.3274
▁tabloid	-11.3274
▁telegraphe	-11.3274
▁temporar	-11.3274
▁terrace	-11.3274
▁throttle	-11.3274
▁tolerate	-11.3274
▁toralei	-11.3274
▁tremble	-11.3274
▁trembling	-11.3274
▁tremendous	-11.3274
▁triumph	-11.3274
▁troubie	-11.3274
▁twombley	-11.3274
▁ukrainian	-11.3274
▁ungratefu	-11.3274
▁unnatural	-11.3274
▁untidy	-11.3274
▁vegas	-11.3274
▁vehicle	-11.3274
▁visual	-11.3274
▁vulnerable	-11.3274
▁withdraw	-11.3274
▁worries	-11.3274
▁wretch	-11.3274
▁yikes	-11.3274
▁youtube	-11.3274
▁zuwa	-11.3274
▁achieve	-11.3274
▁corpse	-11.3274
▁daydream	-11.3274
▁display	-11.3274
▁exasperat	-11.3274
▁fluid	-11.3274
▁hysteri	-11.3274
▁patron	-11.3274
▁philosoph	-11.3274
▁precaution	-11.3274
▁replica	-11.3274
▁shroud	-11.3274
▁singular	-11.3274
▁stumble	-11.3274
▁tulip	-11.3274
conscious	-11.3274
normous	-11.3274
▁barnett	-11.3274
▁bleeding	-11.3274
▁blunt	-11.3274
▁bolognese	-11.3274
▁brutal	-11.3274
▁budget	-11.3274
▁cobra	-11.3274
▁craft	-11.3274
▁delicatessen	-11.3274
▁empha	-11.3274
▁gordon	-11.3274
▁halves	-11.3274
▁honeymoon	-11.3274
▁infant	-11.3274
▁install	-11.3274
▁jacob	-11.3274
▁kirk	-11.3274
▁lipstick	-11.3274
▁luau	-11.3274
▁manufactur	-11.3274
▁milady	-11.3274
▁nellie	-11.3274
▁november	-11.3274
▁obtain	-11.3274
▁patrol	-11.3274
▁phew	-11.3274
▁policy	-11.3274
▁providence	-11.3274
▁reassign	-11.3274
▁resort	-11.3274
▁shortcut	-11.3274
▁silvermist	-11.3274
▁spooked	-11.3274
▁swipe	-11.3274
▁termites	-11.3274
▁undress	-11.3274
▁warrior	-11.3274
cogni	-11.3274
▁anyhow	-11.3274
▁axis	-11.3274
▁banished	-11.3274
▁beiieve	-11.3274
▁blanc	-11.3274
▁buddha	-11.3274
▁candles	-11.3274
▁carpet	-11.3274
▁caval	-11.3274
▁discour	-11.3274
▁earrings	-11.3274
▁golddigger	-11.3274
▁gregory	-11.3274
▁knob	-11.3274
▁maisey	-11.3274
▁miguelito	-11.3274
▁pablo	-11.3274
▁pattern	-11.3274
▁refill	-11.3274
▁southwest	-11.3274
▁thumb	-11.3274
▁token	-11.3274
▁tooth	-11.3274
subordinat	-11.3274
▁bartlett	-11.3274
▁blip	-11.3274
▁blooming	-11.3274
▁bracelet	-11.3274
▁fertil	-11.3274
▁fuel	-11.3274
▁keyholes	-11.3274
▁paskat	-11.3274
▁pepe	-11.3274
▁rumbles	-11.3274
▁sexual	-11.3274
▁swoon	-11.3274
▁therap	-11.3274
▁tresses	-11.3274
▁virtu	-11.3274
▁warehouse	-11.3274
▁windshie	-11.3274
▁yelping	-11.3274
▁yuri	-11.3274
▁abide	-11.3274
▁analysis	-11.3274
▁buddies	-11.3274
▁cutlass	-11.3274
▁gently	-11.3274
▁oaf	-11.3274
▁rattling	-11.3274
▁ravage	-11.3274
▁restrict	-11.3274
▁stomp	-11.3274
▁tidings	-11.3274
▁obedien	-11.3274
▁overseer	-11.3274
▁sermon	-11.3274
▁sieep	-11.3274
▁sprinkl	-11.3274
▁yelps	-11.3274
▁shiver	-11.3274
▁pamper	-11.3274
▁preceden	-11.3274
▁samuel	-11.3274
▁scur	-11.3274
▁streetcar	-11.3274
▁blacklist	-11.3274
▁buyaka	-11.3274
▁frazer	-11.3274
▁their	-11.3274
▁lantern	-11.3274
▁chancellor	-11.3274
▁jeffrey	-11.3274
hickey	-11.3274
▁mortar	-11.3274
▁stamped	-11.3274
▁angle	-11.3274
▁dizzi	-11.3274
▁snarls	-11.3274
▁lilia	-11.3274
▁jingle	-11.3274
▁knowitall	-11.3274
▁monkees	-11.3274
▁stardom	-11.3274
▁pussycat	-11.3274
▁refine	-11.3274
▁possibilities	-11.3274
▁balloon	-11.3274
▁dairy	-11.3274
▁costume	-11.3274
▁adele	-11.3274
▁filmmak	-11.3274
▁ooooooh	-11.3274
ukraine	-11.3274
▁iake	-11.3274
▁industri	-11.3274
▁steep	-11.3274
decorating	-11.3274
oodoo	-11.3274
▁countdowns	-11.3274
▁esp	-11.3274
▁reggie	-11.3274
▁ninas	-11.3274
▁concentrating	-11.3274
▁snip	-11.3274
▁symmetrical	-11.3274
▁sample	-11.3274
▁gomez	-11.3274
▁saad	-11.3274
▁ciown	-11.3274
▁meteor	-11.3274
▁nood	-11.3274
▁pucker	-11.3274
▁slay	-11.3274
▁bandini	-11.3274
▁calculat	-11.3274
▁loot	-11.3274
▁lurk	-11.3274
▁basis	-11.3275
▁clarif	-11.3275
▁download	-11.3275
▁skinner	-11.3275
climat	-11.3275
▁flexi	-11.3275
▁underworld	-11.3275
▁fabulous	-11.3275
▁ashcan	-11.3275
▁tennis	-11.3275
▁cherish	-11.3275
▁gad	-11.3275
▁naples	-11.3275
▁wingding	-11.3275
▁ogre	-11.3275
▁whims	-11.3275
▁arctic	-11.3275
versity	-11.3275
▁session	-11.3275
▁runaway	-11.3275
▁twinkl	-11.3275
▁recess	-11.3275
▁clunk	-11.3275
toxic	-11.3275
▁humiliating	-11.3275
▁ladder	-11.3275
▁bolt	-11.3275
▁congress	-11.3275
▁banjo	-11.3275
▁archaeologist	-11.3275
▁grouse	-11.3275
tumbling	-11.3275
▁bunk	-11.3275
▁astrologers	-11.3275
▁sorcerers	-11.3275
spea	-11.3275
▁distractions	-11.3275
▁passageways	-11.3275
▁virginia	-11.3275
▁ceo	-11.3275
▁squabbl	-11.3275
▁marries	-11.3275
satisf	-11.3276
▁fading	-11.3276
▁exploration	-11.3276
▁andrew	-11.3276
▁savage	-11.3276
▁manual	-11.3276
▁quote	-11.3276
▁skirt	-11.3276
▁galax	-11.3276
▁outbreak	-11.3276
▁subtle	-11.3276
▁enchantment	-11.3276
▁impact	-11.3276
▁mold	-11.3276
▁snoop	-11.3276
▁rooftop	-11.3276
▁riddle	-11.3276
▁blubber	-11.3276
▁plaster	-11.3276
betroth	-11.3276
▁violence	-11.3276
▁swab	-11.3276
▁dammit	-11.3276
▁nickel	-11.3276
edible	-11.3276
▁lattes	-11.3276
▁stalk	-11.3276
▁overreac	-11.3276
▁mimic	-11.3276
▁attic	-11.3276
▁dots	-11.3277
▁ruff	-11.3277
▁youknowwho	-11.3277
▁proclaim	-11.3277
▁henry	-11.3277
▁priority	-11.3277
▁jinx	-11.3277
▁blake	-11.3277
▁loire	-11.3277
▁offend	-11.3277
▁cement	-11.3277
▁offence	-11.3277
▁rubbish	-11.3277
▁juliet	-11.3277
▁chaos	-11.3278
▁rebellion	-11.3278
▁cordi	-11.3278
▁popped	-11.3278
▁popcorn	-11.3278
▁armour	-11.3278
▁kilomet	-11.3278
▁duke	-11.3278
▁investment	-11.3278
▁jillian	-11.3278
▁swap	-11.3278
▁reunited	-11.3278
▁yuck	-11.3278
▁casa	-11.3278
▁disarm	-11.3278
bella	-11.3278
▁existence	-11.3278
▁hissing	-11.3278
▁temptation	-11.3278
▁cmere	-11.3279
▁pierc	-11.3279
▁valid	-11.3279
▁stewar	-11.3279
▁garage	-11.3279
▁paddlers	-11.3279
▁chatting	-11.3279
▁parson	-11.3279
▁valet	-11.3279
▁financ	-11.3279
▁zap	-11.3279
cular	-11.3279
▁bushel	-11.3279
▁toque	-11.328
▁beware	-11.328
▁oak	-11.328
▁dazzle	-11.328
▁twig	-11.328
▁slee	-11.328
▁adjust	-11.328
razier	-11.328
tubb	-11.328
▁unsuitable	-11.328
▁compel	-11.328
▁strat	-11.3281
▁upside	-11.3281
▁preca	-11.3281
burgh	-11.3281
▁zan	-11.3281
lusive	-11.3281
▁fresnes	-11.3281
▁tasting	-11.3281
▁unmarried	-11.3281
▁viper	-11.3281
▁onboard	-11.3282
shape	-11.3282
▁snive	-11.3282
▁heii	-11.3282
▁rink	-11.3282
merci	-11.3282
nterpol	-11.3282
▁abilities	-11.3282
▁attached	-11.3282
▁fivepointnine	-11.3282
▁profile	-11.3282
▁serpent	-11.3282
▁income	-11.3282
▁procession	-11.3282
▁aide	-11.3282
▁daisy	-11.3282
▁ooooh	-11.3282
▁soak	-11.3283
shma	-11.3283
▁ability	-11.3283
▁nick	-11.3283
hall	-11.3283
▁published	-11.3283
▁cease	-11.3283
stone	-11.3283
▁awareness	-11.3283
▁shook	-11.3283
▁snowball	-11.3283
▁jet	-11.3283
▁spoonful	-11.3283
settlin	-11.3284
▁dense	-11.3284
▁seren	-11.3284
▁renew	-11.3284
hara	-11.3284
▁iock	-11.3284
quila	-11.3284
▁sensational	-11.3284
▁snobb	-11.3284
vious	-11.3284
▁vivi	-11.3285
▁countess	-11.3285
▁omelet	-11.3285
▁outline	-11.3285
▁jose	-11.3285
▁jewelry	-11.3285
▁poisonous	-11.3285
▁scarred	-11.3285
▁tech	-11.3285
▁iight	-11.3285
▁travelled	-11.3285
▁knit	-11.3285
▁prettier	-11.3286
▁copies	-11.3286
▁inches	-11.3286
nourished	-11.3287
▁bluff	-11.3287
▁ached	-11.3287
▁heli	-11.3287
▁rumor	-11.3287
▁static	-11.3288
▁moonlight	-11.3288
▁trom	-11.3288
▁geez	-11.3288
▁scatter	-11.3288
▁trickster	-11.3288
▁pinch	-11.3289
▁incen	-11.3289
▁flee	-11.329
▁toho	-11.329
voir	-11.329
▁mutters	-11.329
▁grimes	-11.329
▁armand	-11.329
▁principal	-11.329
▁glide	-11.3291
▁rhe	-11.3291
▁dang	-11.3291
vapor	-11.3291
aaah	-11.3291
▁squat	-11.3291
hole	-11.3292
▁category	-11.3292
▁lifeguard	-11.3292
▁venom	-11.3292
▁midst	-11.3293
▁butcher	-11.3293
▁ballroom	-11.3294
▁motherhood	-11.3294
▁inhabited	-11.3294
▁anton	-11.3295
▁secretary	-11.3295
▁mariach	-11.3295
▁ashes	-11.3295
▁blossom	-11.3295
▁salute	-11.3295
▁carbon	-11.3296
▁roman	-11.3296
▁selection	-11.3297
▁pitt	-11.3297
parable	-11.3297
trollin	-11.3297
▁corone	-11.3297
▁trim	-11.3298
ernation	-11.3298
▁bugle	-11.3299
▁obliged	-11.3299
▁rehearsed	-11.3299
▁polo	-11.33
▁bullies	-11.33
gam	-11.3301
▁investigate	-11.3301
▁organized	-11.3302
▁guine	-11.3302
▁injury	-11.3302
▁salary	-11.3302
▁community	-11.3303
▁snuffy	-11.3304
▁mustache	-11.3304
▁reply	-11.3304
acle	-11.3305
▁showdown	-11.3305
sione	-11.3305
horn	-11.3306
ceman	-11.3306
▁fran	-11.3306
▁ramp	-11.3306
▁mega	-11.3306
▁voil	-11.3307
▁rhythmic	-11.3307
▁feei	-11.3307
▁robin	-11.3308
door	-11.3308
▁legit	-11.3308
▁echoes	-11.3309
uga	-11.3309
▁gim	-11.3309
▁severe	-11.3311
▁cargo	-11.3311
▁bene	-11.3311
▁advertise	-11.3311
▁pancake	-11.3311
▁fir	-11.3311
▁viewers	-11.3311
▁outrun	-11.3311
▁starboard	-11.3312
▁chow	-11.3312
▁gala	-11.3312
▁granddad	-11.3312
▁vase	-11.3315
▁butterfly	-11.3315
▁ascend	-11.3316
▁alan	-11.3317
▁filet	-11.3317
mation	-11.3317
▁tapa	-11.3317
▁flashes	-11.3318
▁apply	-11.3318
▁vow	-11.3318
iffe	-11.3318
▁indu	-11.3319
▁wel	-11.3319
▁shutting	-11.332
▁overflow	-11.332
▁haha	-11.3321
▁twer	-11.3321
▁dire	-11.3322
▁sickness	-11.3322
▁successor	-11.3322
▁prob	-11.3322
▁addresses	-11.3323
▁posters	-11.3324
▁ripe	-11.3324
▁weaken	-11.3324
▁royalty	-11.3324
ctic	-11.3326
▁nappy	-11.3327
yeyed	-11.3328
mals	-11.3328
▁mall	-11.3328
▁sme	-11.333
▁associated	-11.333
▁personne	-11.3331
▁abandoned	-11.3331
▁confronted	-11.3331
▁departed	-11.3331
▁studyin	-11.3331
▁embarrassed	-11.3331
▁correction	-11.3331
▁superb	-11.3332
▁referred	-11.3332
▁bran	-11.3333
▁latch	-11.3333
trait	-11.3333
▁salva	-11.3334
▁notch	-11.3334
▁sway	-11.3335
▁hono	-11.3336
▁inch	-11.3337
▁oxy	-11.3339
▁powerless	-11.334
▁blaz	-11.334
stand	-11.334
▁burnt	-11.3343
enade	-11.3344
yard	-11.3344
▁brae	-11.3345
▁bass	-11.3345
uration	-11.3345
▁skateboarder	-11.3346
▁belt	-11.3346
▁lip	-11.3346
▁hitting	-11.3348
mary	-11.3349
▁awaken	-11.3349
▁cutie	-11.3349
▁boyard	-11.335
opsy	-11.3351
▁reel	-11.3351
▁sling	-11.3354
main	-11.3354
astic	-11.3354
▁bent	-11.3356
▁addition	-11.3356
▁portion	-11.3357
▁sche	-11.3358
▁explorer	-11.3359
▁but	-11.336
oever	-11.3363
▁humbly	-11.3363
▁poss	-11.3363
mere	-11.3364
▁skip	-11.3367
▁sup	-11.3368
▁roaster	-11.3368
moi	-11.3368
▁porter	-11.3372
▁fireman	-11.3373
▁bert	-11.3376
cian	-11.3378
▁identi	-11.3378
▁hobb	-11.3383
▁hose	-11.3383
▁loosen	-11.3385
▁terrifi	-11.3392
infor	-11.3393
oked	-11.3399
▁vel	-11.3404
▁bucket	-11.3407
▁unch	-11.3419
▁fisherm	-11.3422
▁farthe	-11.3425
▁dil	-11.3426
▁cable	-11.3427
▁lassie	-11.3434
inted	-11.3435
▁sniffl	-11.3438
▁blabb	-11.3447
▁jab	-11.3449
lade	-11.3452
easy	-11.3454
▁friendlie	-11.3462
hour	-11.3466
▁kit	-11.347
ammo	-11.3471
▁monte	-11.3483
▁nor	-11.3489
revolution	-11.3498
▁parish	-11.3504
▁trai	-11.3521
arc	-11.3556
▁tangle	-11.3564
vaga	-11.3575
▁overhear	-11.3576
▁undertak	-11.3582
▁crane	-11.3587
▁bragg	-11.3587
▁uncover	-11.3603
▁gag	-11.3647
▁minu	-11.3661
rup	-11.3662
▁wink	-11.3664
▁strawberr	-11.3684
oft	-11.3697
amba	-11.373
▁q	-11.3781
role	-11.3791
▁gig	-11.38
bis	-11.3824
▁mexi	-11.3841
▁chape	-11.3849
▁employ	-11.3956
▁communit	-11.3993
▁verse	-11.4004
membert	-11.4028
▁exceptional	-11.4049
pilot	-11.4087
cade	-11.4104
bogo	-11.4127
unky	-11.4134
▁tomatoe	-11.4235
isse	-11.4296
uction	-11.4302
▁dip	-11.4342
haveyou	-11.4357
▁tral	-11.4359
▁faker	-11.4393
▁tote	-11.4435
aboli	-11.4515
ific	-11.4555
arian	-11.4623
tipped	-11.4627
▁massag	-11.4627
usion	-11.468
luster	-11.4699
uz	-11.4779
were	-11.4788
▁strangle	-11.4802
uni	-11.483
warm	-11.4858
▁ske	-11.4889
▁crus	-11.5113
joyous	-11.5129
▁inhal	-11.5146
tell	-11.5153
championship	-11.5223
uda	-11.5257
ntry	-11.5277
▁independen	-11.5278
▁cruis	-11.5291
tatatta	-11.5343
▁commis	-11.5348
aise	-11.5416
kong	-11.551
▁approv	-11.5555
▁psychi	-11.556
▁remov	-11.5572
▁eleva	-11.5579
hopping	-11.5681
▁noooo	-11.5698
elders	-11.5794
which	-11.6058
petiti	-11.6127
ride	-11.6153
▁controll	-11.6156
econ	-11.6167
nco	-11.6256
sighing	-11.6265
▁antiqu	-11.632
▁diploma	-11.6322
gator	-11.6457
▁trou	-11.6479
okie	-11.653
dependent	-11.6598
announced	-11.6647
stitution	-11.6868
▁casin	-11.705
▁communi	-11.7157
pkin	-11.7183
covered	-11.7234
▁inspir	-11.7347
eams	-11.739
imony	-11.7612
▁troubl	-11.7642
eared	-11.77
▁ratio	-11.7756
heard	-11.7885
▁nooo	-11.7923
llery	-11.7947
▁vegetable	-11.7979
waiting	-11.7986
▁hound	-11.7989
owls	-11.8027
hearing	-11.8055
▁terrif	-11.8082
roaches	-11.81
▁replac	-11.8102
▁escap	-11.8123
▁explor	-11.8135
▁jew	-11.8142
▁arrang	-11.8142
▁civil	-11.8145
▁amaz	-11.8154
▁fenc	-11.8179
▁fulfil	-11.8183
▁etern	-11.8186
▁deceiv	-11.8194
rise	-11.8196
▁churr	-11.8202
▁fascinat	-11.8203
▁comput	-11.8204
roads	-11.8207
▁zip	-11.8212
prints	-11.8217
friend	-11.8218
▁polish	-11.8221
▁dread	-11.8223
▁neces	-11.8227
▁strand	-11.823
▁spun	-11.823
▁oblige	-11.8233
▁rehearse	-11.8233
q	-11.8235
▁acquire	-11.8235
▁accuse	-11.8236
▁relieve	-11.8236
word	-11.8237
foot	-11.8237
▁excite	-11.8237
▁organize	-11.8238
links	-11.8238
mmhmm	-11.8239
▁zach	-11.8239
bucket	-11.8239
blossom	-11.824
bird	-11.824
grim	-11.8241
when	-11.8241
belief	-11.8242
michel	-11.8242
loyal	-11.8242
brand	-11.8243
concept	-11.8243
sync	-11.8243
▁princip	-11.8243
arranged	-11.8244
professional	-11.8244
apple	-11.8244
▁katy	-11.8244
proof	-11.8244
flower	-11.8244
forgotten	-11.8244
driver	-11.8244
junior	-11.8244
brain	-11.8244
square	-11.8245
write	-11.8245
broken	-11.8245
whale	-11.8245
▁categor	-11.8245
class	-11.8245
anymore	-11.8245
green	-11.8245
pull	-11.8245
different	-11.8245
clear	-11.8245
world	-11.8245
unless	-11.8245
horse	-11.8245
something	-11.8245
three	-11.8245
release	-11.8245
ladies	-11.8246
emma	-11.8246
justice	-11.8246
▁victor	-11.8246
children	-11.8246
voice	-11.8247
yeah	-11.8247
hearted	-11.8247
▁scoot	-11.8247
▁glid	-11.8247
story	-11.8247
fell	-11.8247
▁univers	-11.8247
told	-11.8247
jack	-11.8248
▁stead	-11.8249
▁necessar	-11.8249
▁precis	-11.8249
▁feminin	-11.825
aggie	-11.825
giving	-11.825
▁snug	-11.825
father	-11.8251
▁apparent	-11.8253
▁absolute	-11.8253
▁grump	-11.8254
chilling	-11.8255
paul	-11.8255
▁desperat	-11.8256
▁rememb	-11.8256
▁scatt	-11.8258
thank	-11.8258
▁gai	-11.826
▁execution	-11.8261
▁energ	-11.8261
▁positio	-11.8261
▁profess	-11.8262
▁circula	-11.8263
▁interact	-11.8264
▁behavio	-11.8265
▁chris	-11.8265
ceived	-11.8266
ologists	-11.8266
▁fresn	-11.8267
▁dancin	-11.8268
▁livin	-11.8268
▁construct	-11.8268
▁corrupt	-11.8268
scription	-11.8268
▁takin	-11.8268
▁devot	-11.8269
▁elect	-11.827
▁axe	-11.827
▁runnin	-11.827
▁domini	-11.827
convenient	-11.8271
ammit	-11.8271
terior	-11.8271
mpressive	-11.8271
significant	-11.8271
▁quo	-11.8271
▁responsibi	-11.8272
▁kiddin	-11.8272
▁suspicio	-11.8272
▁genes	-11.8272
▁virgin	-11.8272
▁extraordina	-11.8272
▁eloi	-11.8272
tiqu	-11.8272
▁humiliati	-11.8272
▁wort	-11.8273
▁differ	-11.8273
▁petti	-11.8273
▁procla	-11.8273
▁accompli	-11.8273
▁vegeta	-11.8273
▁indicat	-11.8273
▁sculpt	-11.8273
▁symmetri	-11.8273
ization	-11.8273
knockin	-11.8274
▁easie	-11.8274
▁hydro	-11.8274
▁cigar	-11.8274
determine	-11.8274
adequate	-11.8274
sshhhhh	-11.8274
▁accompan	-11.8274
▁adolescen	-11.8274
▁apprehen	-11.8274
▁embellish	-11.8274
▁evident	-11.8274
▁excessive	-11.8274
▁fumble	-11.8274
▁inaugura	-11.8274
▁moderate	-11.8274
▁pleasing	-11.8274
▁senegal	-11.8274
▁sluggish	-11.8274
▁toddle	-11.8274
▁voltageous	-11.8274
▁vulgar	-11.8274
appropriate	-11.8274
cabra	-11.8274
dblooded	-11.8274
lecross	-11.8274
milliondollar	-11.8274
occupied	-11.8274
phrase	-11.8274
synthesis	-11.8274
▁absorb	-11.8274
▁acacia	-11.8274
▁accustomed	-11.8274
▁achua	-11.8274
▁activity	-11.8274
▁aesthetic	-11.8274
▁affliction	-11.8274
▁aiieyoop	-11.8274
▁allegiance	-11.8274
▁almanac	-11.8274
▁altogether	-11.8274
▁animai	-11.8274
▁anonymous	-11.8274
▁appreciative	-11.8274
▁archangel	-11.8274
▁architectur	-11.8274
▁archives	-11.8274
▁arithmetic	-11.8274
▁arrogance	-11.8274
▁arrogant	-11.8274
▁asphalt	-11.8274
▁aspir	-11.8274
▁astronauts	-11.8274
▁atchoo	-11.8274
▁attaboy	-11.8274
▁automatically	-11.8274
▁babbling	-11.8274
▁backfiring	-11.8274
▁badtempered	-11.8274
▁baloney	-11.8274
▁banquet	-11.8274
▁beauties	-11.8274
▁bedwetting	-11.8274
▁bizarre	-11.8274
▁bosun	-11.8274
▁bounc	-11.8274
▁boxcars	-11.8274
▁brigantine	-11.8274
▁brunette	-11.8274
▁buffoons	-11.8274
▁bureau	-11.8274
▁burgundy	-11.8274
▁calcutta	-11.8274
▁caribbean	-11.8274
▁catacombs	-11.8274
▁catastroph	-11.8274
▁cecilia	-11.8274
▁centimetre	-11.8274
▁ceremoni	-11.8274
▁certificate	-11.8274
▁changyu	-11.8274
▁chateau	-11.8274
▁chinwag	-11.8274
▁chisholm	-11.8274
▁cobwebs	-11.8274
▁cocktail	-11.8274
▁colonial	-11.8274
▁commence	-11.8274
▁communicating	-11.8274
▁conflict	-11.8274
▁congratulate	-11.8274
▁consorting	-11.8274
▁constitute	-11.8274
▁constrict	-11.8274
▁consummate	-11.8274
▁contemplati	-11.8274
▁contraption	-11.8274
▁crewneck	-11.8274
▁cricket	-11.8274
▁croesus	-11.8274
▁crooner	-11.8274
▁cynic	-11.8274
▁delicacies	-11.8274
▁delicacy	-11.8274
▁denounc	-11.8274
▁derringer	-11.8274
▁diagnosis	-11.8274
▁dillydally	-11.8274
▁dioxide	-11.8274
▁discipline	-11.8274
▁dishcloth	-11.8274
▁dispatch	-11.8274
▁disrespectful	-11.8274
▁distinguish	-11.8274
▁distributed	-11.8274
▁dnipropetrovst	-11.8274
▁documentar	-11.8274
▁duplicate	-11.8274
▁eiephant	-11.8274
▁einstein	-11.8274
▁eleanor	-11.8274
▁electronic	-11.8274
▁embedded	-11.8274
▁encore	-11.8274
▁encounter	-11.8274
▁enthrall	-11.8274
▁envelope	-11.8274
▁eunuch	-11.8274
▁euphrates	-11.8274
▁eureka	-11.8274
▁evacuate	-11.8274
▁evoke	-11.8274
▁evolution	-11.8274
▁exaggerate	-11.8274
▁excelsis	-11.8274
▁february	-11.8274
▁fintastic	-11.8274
▁flimsy	-11.8274
▁florida	-11.8274
▁foiks	-11.8274
▁furrific	-11.8274
▁gelada	-11.8274
▁geography	-11.8274
▁glameranians	-11.8274
▁glamorous	-11.8274
▁gleam	-11.8274
▁glisten	-11.8274
▁gonzorgo	-11.8274
▁graphic	-11.8274
▁grassroots	-11.8274
▁guercio	-11.8274
▁hammock	-11.8274
▁happygolucky	-11.8274
▁heavier	-11.8274
▁heiicopter	-11.8274
▁heritage	-11.8274
▁hideandseek	-11.8274
▁hieroglyph	-11.8274
▁hippopotamus	-11.8274
▁historians	-11.8274
▁hospitable	-11.8274
▁hubcaps	-11.8274
▁huckleberry	-11.8274
▁humidity	-11.8274
▁humiliate	-11.8274
▁humility	-11.8274
▁hurried	-11.8274
▁iadder	-11.8274
▁ignoramus	-11.8274
▁illustrated	-11.8274
▁imagining	-11.8274
▁improving	-11.8274
▁improvis	-11.8274
▁inconsisten	-11.8274
▁indecent	-11.8274
▁inflict	-11.8274
▁inhumane	-11.8274
▁initiat	-11.8274
▁interrogate	-11.8274
▁inviting	-11.8274
▁jeopardize	-11.8274
▁joaquin	-11.8274
▁jockey	-11.8274
▁joseph	-11.8274
▁kauai	-11.8274
▁kbmu	-11.8274
▁kelvin	-11.8274
▁kevin	-11.8274
▁labyrinth	-11.8274
▁lacassagne	-11.8274
▁lalalala	-11.8274
▁leapfrog	-11.8274
▁lennon	-11.8274
▁leprechaun	-11.8274
▁library	-11.8274
▁lucien	-11.8274
▁lucifer	-11.8274
▁mandarin	-11.8274
▁maneuver	-11.8274
▁maquinna	-11.8274
▁marooned	-11.8274
▁mayonnaise	-11.8274
▁medford	-11.8274
▁meditate	-11.8274
▁memphis	-11.8274
▁midmorni	-11.8274
▁minimum	-11.8274
▁mongrel	-11.8274
▁motorbike	-11.8274
▁mysteries	-11.8274
▁mythology	-11.8274
▁nanbara	-11.8274
▁nauseating	-11.8274
▁negligence	-11.8274
▁nuggets	-11.8274
▁nursery	-11.8274
▁nutrient	-11.8274
▁obelisk	-11.8274
▁obiivious	-11.8274
▁obsession	-11.8274
▁obstacle	-11.8274
▁occupan	-11.8274
▁occurrence	-11.8274
▁omasoosee	-11.8274
▁oriville	-11.8274
▁outshine	-11.8274
▁outsmarted	-11.8274
▁overheated	-11.8274
▁overshadow	-11.8274
▁palmetto	-11.8274
▁participate	-11.8274
▁patootie	-11.8274
▁patriot	-11.8274
▁peculiar	-11.8274
▁peekaboo	-11.8274
▁pelican	-11.8274
▁penetrate	-11.8274
▁perimeter	-11.8274
▁persimmon	-11.8274
▁physicist	-11.8274
▁plumbing	-11.8274
▁poppins	-11.8274
▁practisin	-11.8274
▁prank	-11.8274
▁precipice	-11.8274
▁preposterous	-11.8274
▁prerogative	-11.8274
▁prestige	-11.8274
▁pristine	-11.8274
▁prosecute	-11.8274
▁prototype	-11.8274
▁providential	-11.8274
▁pubiic	-11.8274
▁purchas	-11.8274
▁quartet	-11.8274
▁raspy	-11.8274
▁rebuilt	-11.8274
▁reconsider	-11.8274
▁reformed	-11.8274
▁refuge	-11.8274
▁registration	-11.8274
▁reisenweber	-11.8274
▁releasing	-11.8274
▁relevant	-11.8274
▁remington	-11.8274
▁reminiscent	-11.8274
▁repossessed	-11.8274
▁reproduction	-11.8274
▁repulsive	-11.8274
▁resign	-11.8274
▁rhinoceros	-11.8274
▁rinaldirogers	-11.8274
▁rosalind	-11.8274
▁rotelli	-11.8274
▁sabotage	-11.8274
▁scampering	-11.8274
▁schneider	-11.8274
▁seagulls	-11.8274
▁seminary	-11.8274
▁senora	-11.8274
▁sequence	-11.8274
▁shrub	-11.8274
▁shrunk	-11.8274
▁singapore	-11.8274
▁skydiving	-11.8274
▁slug	-11.8274
▁snead	-11.8274
▁snorkel	-11.8274
▁snowflake	-11.8274
▁solitude	-11.8274
▁specimen	-11.8274
▁spectacle	-11.8274
▁spinnaker	-11.8274
▁sputter	-11.8274
▁squished	-11.8274
▁stingray	-11.8274
▁supple	-11.8274
▁surveillance	-11.8274
▁suspended	-11.8274
▁swirling	-11.8274
▁sympathy	-11.8274
▁tackle	-11.8274
▁tantaliz	-11.8274
▁tapageaut	-11.8274
▁terrain	-11.8274
▁theater	-11.8274
▁theatre	-11.8274
▁theatricalit	-11.8274
▁theatrics	-11.8274
▁thisaway	-11.8274
▁thorough	-11.8274
▁thoroughbred	-11.8274
▁thrash	-11.8274
▁transplant	-11.8274
▁treachery	-11.8274
▁treaders	-11.8274
▁trivial	-11.8274
▁turbulence	-11.8274
▁turtle	-11.8274
▁uboat	-11.8274
▁unanswered	-11.8274
▁unfamiliar	-11.8274
▁unleash	-11.8274
▁unprecedented	-11.8274
▁upgrade	-11.8274
▁upstream	-11.8274
▁utensil	-11.8274
▁virility	-11.8274
▁visible	-11.8274
▁walkietalkie	-11.8274
▁warthog	-11.8274
▁wimbley	-11.8274
▁wonderfui	-11.8274
▁wreak	-11.8274
▁wrestle	-11.8274
▁yolks	-11.8274
▁yyyy	-11.8274
▁bowwow	-11.8274
▁capsule	-11.8274
▁dishwasher	-11.8274
▁exploit	-11.8274
▁federation	-11.8274
▁invade	-11.8274
▁snippet	-11.8274
▁trinket	-11.8274
▁website	-11.8274
tivated	-11.8274
whowho	-11.8274
▁abdication	-11.8274
▁accumu	-11.8274
▁alumni	-11.8274
▁brumel	-11.8274
▁burglar	-11.8274
▁burrow	-11.8274
▁calamit	-11.8274
▁catalina	-11.8274
▁coefficient	-11.8274
▁cohab	-11.8274
▁concretion	-11.8274
▁consult	-11.8274
