<unk>	0
<s>	0
</s>	0
s	-3.11837
ing	-4.40737
▁im	-4.57642
ed	-4.59028
d	-4.62433
▁dont	-4.70954
▁know	-4.71377
y	-4.76648
e	-4.77557
t	-4.89923
▁get	-4.89944
er	-4.94339
▁yeah	-4.95745
▁go	-5.01968
▁right	-5.03376
a	-5.04561
▁like	-5.07011
r	-5.09375
▁got	-5.11491
▁oh	-5.15477
▁come	-5.16568
▁youre	-5.17957
▁na	-5.22321
c	-5.22552
n	-5.24708
▁okay	-5.30056
g	-5.30294
in	-5.32355
o	-5.40336
▁thats	-5.40833
▁want	-5.43222
b	-5.46579
▁well	-5.47131
p	-5.54273
▁one	-5.56558
▁think	-5.56609
i	-5.56977
▁l	-5.59237
▁hey	-5.59393
▁gon	-5.59721
ly	-5.62452
▁man	-5.63062
u	-5.63872
▁good	-5.6489
▁look	-5.65078
m	-5.65199
le	-5.65438
▁see	-5.66076
▁	-5.75117
▁fuck	-5.78134
▁back	-5.81029
▁going	-5.81527
l	-5.82285
▁take	-5.86829
or	-5.8699
al	-5.90471
▁shit	-5.91745
▁time	-5.94131
v	-5.96848
▁ill	-5.97871
▁p	-5.98758
▁hes	-5.99593
▁us	-6.01622
▁fucking	-6.02437
▁re	-6.02674
w	-6.05111
▁say	-6.0536
▁tell	-6.07026
▁cant	-6.07526
f	-6.07606
▁yes	-6.07648
▁mean	-6.07663
k	-6.08259
▁really	-6.08706
▁need	-6.08957
▁s	-6.09265
es	-6.09848
▁f	-6.12512
▁whats	-6.14163
▁love	-6.14788
an	-6.15693
ar	-6.16337
en	-6.1801
▁make	-6.18222
▁something	-6.19682
▁sorry	-6.19999
▁would	-6.20114
▁god	-6.20726
▁ma	-6.21756
▁didnt	-6.22163
▁m	-6.22446
▁g	-6.24649
h	-6.25591
▁way	-6.25846
▁please	-6.25935
▁a	-6.26129
▁lets	-6.26829
▁let	-6.27071
▁ta	-6.27168
il	-6.27217
ra	-6.29673
on	-6.29783
▁give	-6.30369
ic	-6.30744
re	-6.31699
▁thank	-6.32413
it	-6.33421
ri	-6.33557
▁could	-6.33981
ve	-6.36499
th	-6.36841
▁little	-6.39182
▁people	-6.42323
▁hi	-6.4262
▁call	-6.43038
at	-6.43041
ter	-6.44667
▁car	-6.46452
▁theres	-6.4653
▁two	-6.48152
st	-6.4908
▁never	-6.49262
▁de	-6.50241
▁k	-6.51685
▁uh	-6.52732
ch	-6.52981
z	-6.53054
▁c	-6.53884
▁said	-6.54147
▁thing	-6.54898
ie	-6.56038
▁in	-6.56658
▁e	-6.56759
▁work	-6.57646
▁sure	-6.57846
ent	-6.58321
▁talk	-6.58602
▁ive	-6.5878
▁st	-6.59004
ate	-6.59215
▁shes	-6.59349
▁wait	-6.59998
▁help	-6.6032
ion	-6.62015
▁guys	-6.6377
et	-6.63783
▁even	-6.64346
▁sh	-6.64777
▁put	-6.64919
ll	-6.65628
▁much	-6.66286
ro	-6.68298
▁name	-6.69346
▁la	-6.70491
▁stop	-6.7144
▁maybe	-6.71799
▁great	-6.72492
▁guy	-6.73121
ur	-6.73601
▁night	-6.73774
▁theyre	-6.74175
▁home	-6.74657
ce	-6.75865
▁new	-6.75961
x	-6.76045
el	-6.76963
▁be	-6.77308
se	-6.77564
▁day	-6.7773
▁w	-6.77859
is	-6.78003
▁keep	-6.79406
ol	-6.79471
▁boy	-6.80242
▁t	-6.80475
▁anything	-6.80605
▁kill	-6.80861
▁hell	-6.80861
▁still	-6.81423
▁bu	-6.81721
ist	-6.82763
▁hello	-6.84128
ers	-6.84194
▁nice	-6.84638
▁find	-6.85725
▁sir	-6.86225
▁first	-6.86352
sh	-6.87024
▁big	-6.87489
▁life	-6.87643
id	-6.88275
▁thought	-6.88519
▁ho	-6.88546
▁feel	-6.88873
la	-6.90245
▁nothing	-6.91632
ke	-6.91775
▁listen	-6.92112
▁o	-6.92386
ation	-6.92412
▁around	-6.92973
▁wan	-6.93088
▁move	-6.93324
ne	-6.94167
▁ha	-6.95184
▁mr	-6.95451
am	-6.95651
ut	-6.95776
▁ever	-6.96024
▁co	-6.9637
▁hear	-6.96425
▁long	-6.96443
▁stay	-6.968
▁kind	-6.97336
▁lot	-6.97755
un	-6.98319
um	-6.98508
▁better	-6.99001
us	-6.99308
tion	-6.99632
▁ca	-6.99786
▁money	-7.00774
▁baby	-7.01332
▁away	-7.01568
▁told	-7.02453
▁hold	-7.02641
ul	-7.03125
li	-7.03624
▁play	-7.04244
▁un	-7.04448
▁last	-7.05382
ry	-7.06186
▁show	-7.06189
▁do	-7.06282
▁con	-7.06364
▁ass	-7.06439
▁believe	-7.06865
▁everything	-7.0726
▁girl	-7.09041
▁phone	-7.09052
▁mo	-7.09094
▁di	-7.09352
▁ro	-7.09755
▁b	-7.09821
▁coming	-7.09876
▁bad	-7.10409
▁real	-7.10473
▁id	-7.11074
▁place	-7.11337
▁door	-7.11365
ment	-7.11524
▁house	-7.11926
▁three	-7.12312
▁po	-7.12413
▁talking	-7.12531
▁leave	-7.12725
▁things	-7.12943
na	-7.12965
▁lo	-7.13117
▁sp	-7.13312
ting	-7.15252
▁ex	-7.15456
▁always	-7.16112
age	-7.16419
▁huh	-7.16605
▁ra	-7.16819
▁woman	-7.17849
▁ch	-7.1794
▁doesnt	-7.18729
▁youve	-7.18729
▁fine	-7.18954
▁ru	-7.19315
▁years	-7.19501
▁ba	-7.19659
▁j	-7.20747
▁br	-7.2091
▁open	-7.20965
▁remember	-7.21872
▁bo	-7.22387
▁thanks	-7.23096
ta	-7.2334
per	-7.23342
qu	-7.23467
▁old	-7.23722
▁pro	-7.23722
▁care	-7.24372
▁live	-7.24411
▁happened	-7.24418
ge	-7.24587
▁turn	-7.24647
▁understand	-7.24881
▁pa	-7.25333
lo	-7.25622
▁wont	-7.25828
▁every	-7.25996
▁bitch	-7.26903
▁ok	-7.27038
▁mother	-7.27502
ty	-7.28711
▁made	-7.29097
ow	-7.29179
▁must	-7.29267
▁getting	-7.29416
ies	-7.29869
im	-7.29914
ant	-7.29933
▁head	-7.30811
▁h	-7.31043
▁to	-7.32639
co	-7.33012
▁try	-7.33179
▁th	-7.33476
▁friend	-7.34541
▁room	-7.34564
mp	-7.35235
ine	-7.35266
▁start	-7.35296
ia	-7.35383
▁cr	-7.3606
▁aint	-7.3607
▁dead	-7.37012
ap	-7.37125
▁no	-7.37816
▁son	-7.37931
▁watch	-7.3833
▁wanted	-7.38462
▁mom	-7.38499
est	-7.38901
▁he	-7.39202
▁d	-7.3947
▁youll	-7.39536
ad	-7.4025
▁um	-7.40572
▁someone	-7.40905
▁an	-7.40918
up	-7.41139
▁world	-7.41181
man	-7.41335
▁miss	-7.41371
▁wrong	-7.41458
▁close	-7.41466
▁se	-7.41623
▁dad	-7.41635
me	-7.41962
▁end	-7.42288
▁guess	-7.42294
▁tonight	-7.42295
▁else	-7.42355
▁done	-7.4246
▁shut	-7.4251
▁check	-7.42576
▁mind	-7.42596
▁trying	-7.42804
ig	-7.42922
▁die	-7.43209
te	-7.43637
▁second	-7.43703
▁left	-7.43705
▁ask	-7.43758
ian	-7.43836
▁black	-7.44587
▁dude	-7.44869
▁da	-7.44941
▁meet	-7.45165
▁might	-7.45297
▁cause	-7.45428
▁hard	-7.46257
▁lm	-7.46508
ho	-7.47036
ip	-7.47069
ha	-7.47331
ance	-7.47466
▁men	-7.47691
▁run	-7.48527
▁pretty	-7.48944
▁actually	-7.49243
▁enough	-7.49243
▁v	-7.4932
▁another	-7.49544
ma	-7.49576
mo	-7.49629
▁music	-7.50149
▁damn	-7.50264
▁em	-7.50349
▁excuse	-7.5045
ver	-7.50572
ive	-7.51059
▁next	-7.51365
▁gr	-7.51501
▁n	-7.51533
▁dr	-7.51625
▁isnt	-7.51673
▁mi	-7.51753
▁jesus	-7.52598
▁brother	-7.53221
ni	-7.53437
▁saying	-7.53577
▁wasnt	-7.53847
▁may	-7.54123
▁job	-7.54512
▁best	-7.55062
▁vi	-7.55201
ick	-7.55366
▁today	-7.55747
▁course	-7.55747
j	-7.55758
▁kid	-7.56812
▁looking	-7.56845
▁dis	-7.57077
▁bar	-7.5744
op	-7.57455
om	-7.57861
▁drink	-7.58016
ak	-7.58156
▁whos	-7.59031
▁we	-7.59353
▁sa	-7.59623
▁fire	-7.59793
▁high	-7.60036
tch	-7.604
▁sc	-7.60431
ity	-7.60631
▁bit	-7.60841
▁eat	-7.60871
▁everybody	-7.61003
▁crazy	-7.6168
▁honey	-7.62024
▁hit	-7.62555
▁so	-7.62575
▁problem	-7.62703
▁fa	-7.62947
▁saw	-7.62957
ot	-7.63152
ill	-7.63573
▁face	-7.63601
tic	-7.63635
▁together	-7.63738
▁ready	-7.6379
▁wouldnt	-7.63948
ight	-7.64163
▁ri	-7.64203
▁hand	-7.64209
▁ah	-7.64306
▁heard	-7.64322
▁whole	-7.64436
son	-7.6449
oo	-7.64602
ping	-7.64621
▁came	-7.64733
▁hurt	-7.65845
▁gun	-7.65874
able	-7.66263
▁sit	-7.66436
▁speak	-7.66551
▁wife	-7.6691
▁father	-7.66921
nt	-7.6697
▁stand	-7.67018
▁ti	-7.67132
ard	-7.67285
▁matter	-7.67632
▁kids	-7.67845
▁seen	-7.67873
▁cha	-7.67892
▁school	-7.67986
▁cl	-7.67988
ack	-7.68054
▁bring	-7.6813
▁police	-7.68713
▁met	-7.68726
no	-7.68823
▁cop	-7.68859
▁went	-7.69107
▁pi	-7.69166
▁pay	-7.69337
▁somebody	-7.69444
pe	-7.69579
▁fuckin	-7.69658
▁frank	-7.69847
▁pre	-7.70059
▁jo	-7.70787
▁sl	-7.71079
ence	-7.71165
▁cool	-7.71169
▁sex	-7.71454
▁found	-7.71464
▁walk	-7.72054
ton	-7.72182
▁friends	-7.72356
▁war	-7.72448
▁li	-7.7274
▁word	-7.72809
▁me	-7.72977
▁fun	-7.73114
▁called	-7.73118
▁week	-7.73147
▁four	-7.73334
▁deal	-7.73374
▁five	-7.73458
ling	-7.73497
ny	-7.73575
▁cut	-7.73704
▁pick	-7.73873
▁minute	-7.74142
▁ju	-7.7428
▁weve	-7.74537
▁happy	-7.74718
▁ad	-7.74753
▁sal	-7.75011
▁hope	-7.75244
▁point	-7.75507
tor	-7.75572
▁number	-7.76277
▁morning	-7.76278
▁al	-7.76524
▁tr	-7.7658
▁havent	-7.76672
▁part	-7.76741
▁te	-7.77279
▁hot	-7.77364
▁read	-7.77396
▁idea	-7.77522
▁line	-7.77682
▁sleep	-7.77863
▁stuff	-7.77942
▁jake	-7.77964
to	-7.78235
▁family	-7.78262
▁young	-7.78262
▁safe	-7.79081
▁jack	-7.79154
▁many	-7.79388
▁ja	-7.79426
▁anyway	-7.79472
▁forget	-7.79472
▁alone	-7.79902
▁days	-7.80391
▁goddamn	-7.80696
▁shoot	-7.807
▁dick	-7.80788
▁movie	-7.8111
▁white	-7.81161
▁far	-7.8119
if	-7.81268
▁r	-7.8135
ful	-7.81541
▁du	-7.81709
▁use	-7.81931
▁probably	-7.81935
▁act	-7.83029
ted	-7.83085
▁drive	-7.83284
▁cla	-7.83325
▁ago	-7.83332
ish	-7.83465
▁whatever	-7.83613
▁easy	-7.83613
▁knew	-7.84037
king	-7.84157
ee	-7.84413
▁question	-7.84462
▁everyone	-7.84505
▁seem	-7.84764
▁took	-7.8496
▁wh	-7.85076
▁paul	-7.85091
▁minutes	-7.85101
▁nobody	-7.85318
▁stu	-7.85348
ell	-7.85383
▁hang	-7.85391
▁le	-7.85596
▁supposed	-7.85943
▁fight	-7.86016
bb	-7.86322
▁fl	-7.86328
▁che	-7.86747
▁bl	-7.87003
▁playing	-7.87226
▁beautiful	-7.87492
▁en	-7.87609
▁person	-7.87705
ca	-7.87893
▁power	-7.87942
▁used	-7.88055
▁late	-7.88452
ade	-7.88569
▁later	-7.88669
▁bye	-7.8888
ise	-7.8917
ugh	-7.89263
▁christ	-7.89409
▁killed	-7.896
▁john	-7.89716
ff	-7.90126
▁water	-7.90307
▁tomorrow	-7.91072
▁yo	-7.9142
▁already	-7.91529
▁business	-7.91529
▁break	-7.9153
▁six	-7.91531
and	-7.91691
▁wheres	-7.91741
▁set	-7.91826
▁without	-7.91988
▁asshole	-7.91988
▁shot	-7.92646
he	-7.93823
▁blood	-7.93844
▁hands	-7.94195
▁youd	-7.94317
▁i	-7.94504
▁plan	-7.94538
end	-7.94787
▁yet	-7.94869
▁ne	-7.95119
▁light	-7.95402
▁am	-7.95779
▁ball	-7.96203
▁for	-7.96612
▁inside	-7.96738
▁wow	-7.9692
ness	-7.97074
ound	-7.97308
▁couldnt	-7.97433
▁children	-7.97665
ti	-7.97753
po	-7.97864
ang	-7.97882
ue	-7.98181
▁true	-7.98197
ical	-7.98697
ug	-7.99215
▁su	-7.99347
▁taking	-7.99373
uck	-7.99859
▁sam	-8.00355
▁change	-8.00646
▁sonny	-8.00716
▁sw	-8.00748
ary	-8.00771
▁dog	-8.00852
▁hate	-8.01061
▁motherfucker	-8.01129
▁happen	-8.01414
▁arm	-8.01606
▁anybody	-8.01634
▁anyone	-8.02142
▁story	-8.02156
▁ar	-8.02272
▁lost	-8.02596
▁whoa	-8.03169
▁rest	-8.03307
▁tra	-8.03552
▁daddy	-8.03695
ated	-8.03871
ous	-8.03912
▁outside	-8.04203
▁heart	-8.04378
▁year	-8.04468
▁though	-8.04506
▁ten	-8.04704
▁per	-8.04907
▁half	-8.05247
▁gone	-8.05458
▁dream	-8.05811
▁street	-8.06299
▁sign	-8.06304
▁game	-8.0631
▁book	-8.06634
ock	-8.0705
ank	-8.07075
▁soon	-8.07674
ial	-8.08296
▁order	-8.08451
▁screaming	-8.08748
▁worry	-8.08987
▁comp	-8.09306
▁bill	-8.09344
▁funny	-8.09601
bo	-8.09626
▁making	-8.09809
ley	-8.09988
▁couple	-8.10083
▁since	-8.10086
▁bet	-8.10346
em	-8.10628
▁working	-8.10687
ire	-8.10737
▁side	-8.10762
mi	-8.11065
▁star	-8.11068
▁mine	-8.11095
▁exactly	-8.1119
ph	-8.11597
▁touch	-8.1175
▁win	-8.11771
▁party	-8.11839
▁eyes	-8.12203
out	-8.12307
▁ya	-8.12377
press	-8.13291
▁says	-8.13439
▁charlie	-8.13445
▁pull	-8.13454
▁special	-8.1459
▁murder	-8.1459
▁free	-8.15166
▁girls	-8.15185
▁wish	-8.1544
▁air	-8.15465
▁reason	-8.15752
our	-8.1578
ture	-8.15859
▁arent	-8.15921
▁ow	-8.1616
ah	-8.16163
▁anymore	-8.16334
da	-8.16446
▁com	-8.16573
▁key	-8.16969
▁har	-8.16992
ga	-8.17003
uc	-8.17343
ba	-8.17366
▁women	-8.17514
▁knock	-8.17515
▁clear	-8.17521
▁wa	-8.17568
ten	-8.17607
▁ste	-8.178
ass	-8.17926
ward	-8.17972
▁trust	-8.18141
hi	-8.18142
▁sick	-8.18553
less	-8.18596
▁it	-8.18712
▁child	-8.18713
▁yell	-8.18743
act	-8.19349
▁wi	-8.1942
▁laughing	-8.19743
▁save	-8.19799
▁death	-8.19924
▁pass	-8.20111
▁city	-8.2024
▁answer	-8.20526
▁body	-8.20547
▁app	-8.20564
▁ac	-8.209
▁cor	-8.20966
▁welcome	-8.2114
ize	-8.21235
▁suck	-8.21432
pa	-8.21589
▁sometimes	-8.21956
▁mike	-8.2196
her	-8.21999
ure	-8.22227
▁telling	-8.22275
▁lock	-8.2231
▁town	-8.22383
▁feeling	-8.22654
▁hours	-8.22777
▁york	-8.23005
▁hows	-8.2305
▁bro	-8.23261
▁ab	-8.23265
▁leg	-8.23569
▁promise	-8.23633
▁alive	-8.23796
go	-8.23977
▁bed	-8.24232
▁follow	-8.24265
▁wall	-8.24467
▁started	-8.24917
▁dave	-8.253
▁sweet	-8.25397
▁different	-8.25543
▁husband	-8.25543
▁straight	-8.25543
▁lts	-8.26012
▁front	-8.26189
▁drop	-8.26227
▁bi	-8.26231
▁mitch	-8.26295
▁va	-8.26437
▁officer	-8.26588
▁food	-8.26841
▁send	-8.27228
▁sound	-8.27289
▁case	-8.27482
▁sister	-8.27504
▁dance	-8.27651
▁serious	-8.27784
▁months	-8.27989
▁voice	-8.28149
▁kidding	-8.28173
▁also	-8.28183
▁sighs	-8.28306
▁hu	-8.28393
▁married	-8.28811
▁clean	-8.28819
▁goes	-8.29163
▁boo	-8.29319
▁thinking	-8.29321
▁aah	-8.29711
way	-8.29792
▁gave	-8.30158
▁scared	-8.31437
▁weird	-8.31505
▁record	-8.31505
▁bobby	-8.31506
▁step	-8.31962
▁pain	-8.3229
▁buy	-8.3244
▁picture	-8.3288
▁blow	-8.32989
▁wake	-8.33007
▁lie	-8.33456
▁important	-8.33574
▁finish	-8.34275
▁mmm	-8.34572
▁class	-8.34664
▁asked	-8.34704
▁trouble	-8.34977
▁figure	-8.34978
▁dinner	-8.34978
▁super	-8.35099
ook	-8.35116
▁grow	-8.35148
▁chance	-8.35151
▁terr	-8.35435
▁col	-8.35519
▁behind	-8.35687
▁deep	-8.35763
mar	-8.35816
▁laugh	-8.35935
▁red	-8.36192
▁burn	-8.36427
▁hair	-8.36479
▁ahead	-8.36507
▁breath	-8.3655
min	-8.36781
ner	-8.37029
▁wonder	-8.3708
▁beat	-8.37375
ite	-8.37605
▁tried	-8.37733
▁report	-8.38078
▁tv	-8.38365
▁piece	-8.38579
▁ran	-8.38753
▁state	-8.38973
▁gra	-8.39257
▁perfect	-8.3931
▁stupid	-8.39311
▁full	-8.39373
▁sim	-8.39411
▁team	-8.39498
air	-8.40189
▁bag	-8.40201
ious	-8.40297
▁ni	-8.40393
▁sounds	-8.40643
▁or	-8.40746
for	-8.40818
▁country	-8.40887
port	-8.41278
▁count	-8.41478
▁almost	-8.41549
▁throw	-8.41551
▁cur	-8.41944
▁hurry	-8.42308
▁cold	-8.42616
▁song	-8.42969
▁afraid	-8.4307
▁bullshit	-8.4307
▁hmm	-8.43074
▁fell	-8.43554
▁lose	-8.43554
unk	-8.43612
▁ring	-8.43656
▁fucked	-8.43716
▁daniel	-8.43839
▁grunting	-8.43839
▁laughs	-8.44006
▁heres	-8.44649
▁interest	-8.4468
▁broke	-8.44783
con	-8.44795
▁butt	-8.45133
▁radio	-8.45396
▁truth	-8.45397
▁moving	-8.45408
▁quiet	-8.45449
▁pat	-8.45487
▁chi	-8.45826
▁learn	-8.46186
▁ooh	-8.46189
▁lady	-8.46241
▁hour	-8.46352
fuck	-8.46375
of	-8.46458
▁moment	-8.4693
▁honest	-8.47028
▁kick	-8.47359
▁top	-8.47703
▁daughter	-8.47777
▁annie	-8.47781
▁sub	-8.47816
▁rock	-8.47857
▁meeting	-8.4798
▁wind	-8.48352
▁shouldnt	-8.48583
▁grunts	-8.48583
▁brought	-8.48584
▁quick	-8.48584
▁squ	-8.48595
▁kiss	-8.48626
▁trans	-8.48641
▁sent	-8.48696
▁up	-8.48707
▁fall	-8.48934
▁el	-8.49432
▁bon	-8.49487
▁lucky	-8.50035
▁nigga	-8.50216
▁either	-8.50216
▁doctor	-8.50217
▁prison	-8.50217
▁least	-8.50218
▁happens	-8.51035
▁bra	-8.51039
▁running	-8.5106
▁grand	-8.51153
▁fast	-8.51172
▁rap	-8.51325
▁happening	-8.5139
pped	-8.51677
one	-8.51766
▁direct	-8.51876
▁peter	-8.5191
▁fact	-8.52222
line	-8.52437
ball	-8.52667
▁dark	-8.52722
▁calm	-8.52728
▁road	-8.53004
▁ed	-8.53096
▁rob	-8.53368
▁date	-8.53917
▁mess	-8.54039
▁roll	-8.54119
▁chuckles	-8.54418
▁parents	-8.54418
▁lord	-8.54496
▁cover	-8.54704
▁camp	-8.54748
▁mouth	-8.55284
▁ride	-8.55441
ust	-8.55919
▁continues	-8.5598
▁ladies	-8.56155
▁seven	-8.56157
▁ii	-8.56234
▁ship	-8.56352
▁joe	-8.56531
▁american	-8.56915
▁buddy	-8.57027
▁along	-8.57029
▁fla	-8.57826
▁y	-8.579
▁uncle	-8.57921
▁park	-8.57968
▁pen	-8.58679
▁dec	-8.58779
▁coffee	-8.58805
▁sense	-8.58814
▁sol	-8.58814
▁sort	-8.58865
▁glad	-8.58883
▁seat	-8.58902
▁careful	-8.58965
▁ben	-8.58996
▁char	-8.59093
▁inter	-8.5912
▁cell	-8.59143
▁card	-8.59205
▁au	-8.59484
▁waiting	-8.59644
▁kat	-8.59653
▁mmhmm	-8.59706
▁whoo	-8.5984
ii	-8.60612
▁gay	-8.60675
▁test	-8.60809
▁pop	-8.61059
▁hum	-8.61275
▁surprise	-8.61532
▁mark	-8.61578
▁eye	-8.61785
▁watching	-8.62038
▁ray	-8.6235
▁lan	-8.62371
▁art	-8.62437
▁relax	-8.6246
▁totally	-8.62576
▁fat	-8.63217
▁sur	-8.63414
▁join	-8.63685
▁shh	-8.63869
▁control	-8.64336
▁alright	-8.64337
▁can	-8.64384
▁chick	-8.64552
▁ringing	-8.64937
▁taken	-8.65163
▁strong	-8.65289
▁theyll	-8.65289
▁america	-8.6541
▁slow	-8.65477
▁gl	-8.65838
▁enjoy	-8.6625
▁million	-8.66251
▁floor	-8.66256
▁catch	-8.66527
▁human	-8.66566
▁over	-8.66604
▁machine	-8.67222
▁screams	-8.67263
▁eli	-8.67519
▁table	-8.67549
nder	-8.67624
▁fix	-8.68207
▁living	-8.68209
▁mommy	-8.68212
▁ph	-8.68391
▁yall	-8.68425
lng	-8.68573
▁office	-8.68582
▁ice	-8.68638
▁base	-8.69114
▁george	-8.69191
▁secret	-8.69191
▁somewhere	-8.69191
▁strange	-8.69193
▁z	-8.69473
▁rich	-8.6956
▁pla	-8.70199
▁pal	-8.70286
▁realize	-8.70327
▁lead	-8.70379
▁hotel	-8.70504
▁mm	-8.70549
▁worth	-8.71205
▁train	-8.72229
▁teach	-8.72255
▁message	-8.72317
▁band	-8.72464
▁box	-8.72727
▁ron	-8.73108
▁company	-8.73257
▁favorite	-8.73271
▁asking	-8.73592
▁trip	-8.73742
▁bird	-8.74304
▁crying	-8.74347
▁short	-8.74375
▁past	-8.74519
▁force	-8.74727
▁stick	-8.74765
▁seriously	-8.74878
▁the	-8.75312
▁explain	-8.75347
ative	-8.75421
▁sun	-8.75609
▁less	-8.75651
▁offer	-8.75861
▁personal	-8.76019
▁law	-8.76139
▁ghost	-8.76412
▁drug	-8.76538
▁pin	-8.76546
land	-8.76731
▁paper	-8.76799
▁color	-8.7686
▁sm	-8.76902
▁pack	-8.77176
▁smart	-8.775
▁out	-8.77595
▁gold	-8.77624
▁spend	-8.77684
▁den	-8.77932
▁ci	-8.78218
▁rat	-8.78536
▁attack	-8.78573
▁henry	-8.78576
ition	-8.78584
▁richard	-8.78627
▁hunt	-8.78769
▁luck	-8.7964
ration	-8.79664
▁leaving	-8.79672
▁middle	-8.79672
▁smell	-8.7972
▁eight	-8.80107
▁near	-8.80193
▁hon	-8.80582
▁detective	-8.80783
▁groans	-8.80783
▁bastard	-8.80784
ject	-8.80784
▁victor	-8.80784
▁foot	-8.80799
▁bang	-8.81014
▁tom	-8.81054
▁paid	-8.81308
▁certain	-8.81907
▁girlfriend	-8.81907
▁security	-8.81907
▁small	-8.8191
▁lawyer	-8.81919
▁angel	-8.81924
▁sell	-8.81962
▁outta	-8.81992
▁witch	-8.82013
▁beep	-8.82026
▁mum	-8.82085
▁sitting	-8.82187
▁grab	-8.82209
▁piss	-8.82636
▁agree	-8.83047
▁beach	-8.83142
▁ground	-8.83177
▁suit	-8.8322
▁land	-8.83452
▁captain	-8.84193
▁film	-8.84203
▁blue	-8.84299
time	-8.84322
▁scar	-8.84344
▁age	-8.84349
▁finally	-8.84445
▁cock	-8.8452
▁able	-8.84739
▁cash	-8.84942
▁boat	-8.85025
▁account	-8.85355
▁expect	-8.85355
▁gasps	-8.85368
▁charge	-8.85538
▁breathe	-8.86287
▁lll	-8.86358
▁amazing	-8.86532
▁push	-8.86543
▁felt	-8.86545
▁reach	-8.86706
▁dress	-8.86768
▁fair	-8.86915
▁sad	-8.87124
ude	-8.87207
▁stone	-8.87346
▁become	-8.87723
▁smoke	-8.87724
▁horse	-8.87735
▁ver	-8.88372
▁wear	-8.88479
▁dear	-8.88745
▁system	-8.88927
▁protect	-8.88927
▁jerry	-8.88931
▁jew	-8.88938
▁window	-8.89034
▁block	-8.89079
▁maam	-8.89102
▁cap	-8.89117
▁jump	-8.8913
▁unit	-8.892
▁ear	-8.89356
▁none	-8.89484
▁cute	-8.89566
▁quit	-8.89758
▁christmas	-8.90154
▁treat	-8.90169
▁smile	-8.90186
▁glass	-8.90191
▁under	-8.90198
▁nine	-8.90206
▁agent	-8.90211
▁write	-8.90235
▁finger	-8.90428
▁chattering	-8.90628
▁mistake	-8.91381
▁theyve	-8.91383
▁court	-8.91393
▁alice	-8.91499
uff	-8.91525
▁whi	-8.92019
▁quite	-8.92273
▁awesome	-8.92631
▁weapon	-8.92632
▁major	-8.92633
▁born	-8.92667
▁share	-8.93021
▁tape	-8.93611
▁accident	-8.93897
▁english	-8.93897
▁others	-8.93899
bit	-8.93994
▁nick	-8.9413
part	-8.94233
▁tight	-8.94305
▁val	-8.94438
▁fish	-8.94587
▁where	-8.94618
▁dre	-8.94713
▁hundred	-8.95179
▁sweetheart	-8.95179
▁driving	-8.95179
▁kept	-8.95179
▁across	-8.9518
▁forgot	-8.9518
▁situation	-8.9518
▁guard	-8.95182
▁computer	-8.95183
▁crash	-8.95185
▁san	-8.95209
▁loud	-8.95219
▁bank	-8.95414
▁sake	-8.95614
head	-8.96196
▁boss	-8.96259
ities	-8.96432
▁absolutely	-8.96478
▁clothes	-8.96478
▁proud	-8.965
field	-8.96505
▁christian	-8.96656
▁singing	-8.96752
▁zo	-8.97086
▁birthday	-8.97794
▁possible	-8.97794
▁building	-8.97794
▁shall	-8.97812
▁wearing	-8.97829
▁partner	-8.97898
▁buck	-8.98048
light	-8.98144
▁tri	-8.98185
▁india	-8.98251
▁till	-8.98685
▁giving	-8.99127
▁arrest	-8.99129
▁swear	-8.99132
▁space	-8.99134
▁dumb	-8.99136
▁roger	-8.99157
▁single	-8.99209
▁truck	-8.9924
▁leon	-9.00079
▁entire	-9.0048
▁allow	-9.00481
▁south	-9.00486
▁ryan	-9.0049
▁scene	-9.00496
▁babe	-9.00505
▁notice	-9.00589
▁completely	-9.00636
▁camera	-9.01195
▁low	-9.01433
▁hall	-9.01492
▁choice	-9.01848
▁video	-9.01848
▁crowd	-9.01852
▁horn	-9.01939
▁handle	-9.01952
▁station	-9.03008
▁ski	-9.0319
▁donnie	-9.03237
▁gentlemen	-9.03237
▁bunch	-9.03245
▁travel	-9.0325
▁werent	-9.0325
▁howd	-9.0326
▁joke	-9.03647
▁dam	-9.03673
▁creat	-9.04062
▁attention	-9.04645
▁david	-9.04647
▁wedding	-9.04647
▁neck	-9.04649
▁club	-9.04651
cious	-9.04803
▁pee	-9.05274
▁action	-9.05326
▁gene	-9.05622
▁appreciate	-9.06074
▁definitely	-9.06074
▁hospital	-9.06074
▁uhhuh	-9.06074
▁animal	-9.06075
▁plane	-9.06076
▁self	-9.06083
▁cook	-9.06411
▁lying	-9.06532
face	-9.07231
▁van	-9.07348
▁favor	-9.07501
▁respect	-9.07523
▁college	-9.07524
▁goodbye	-9.07524
▁freak	-9.07525
▁fault	-9.07526
▁guest	-9.07528
▁fear	-9.07558
▁wash	-9.07845
▁jail	-9.08236
▁jon	-9.08425
▁sean	-9.08893
▁obvious	-9.08994
▁conversation	-9.08994
▁normal	-9.08994
▁pizza	-9.08994
▁apartment	-9.08994
▁yep	-9.09
▁soft	-9.09021
▁visit	-9.09035
▁hungry	-9.09049
▁weekend	-9.0914
▁crack	-9.09265
▁sergeant	-9.10486
▁groaning	-9.10487
▁thousand	-9.10487
▁jones	-9.10799
▁bell	-9.10904
▁steal	-9.11243
▁shop	-9.11792
▁department	-9.12002
▁support	-9.12002
▁deserve	-9.12003
▁bought	-9.12003
▁island	-9.12004
▁north	-9.1201
▁cross	-9.1201
▁bomb	-9.12015
▁text	-9.12018
▁extra	-9.12029
▁feet	-9.1203
▁click	-9.12234
▁waste	-9.12276
▁stuck	-9.12433
▁early	-9.12475
ship	-9.127
▁skin	-9.12833
▁brain	-9.12953
▁language	-9.1354
▁history	-9.1354
▁consider	-9.13542
▁jeff	-9.13542
▁general	-9.13543
▁command	-9.13543
▁crime	-9.1356
▁dying	-9.13606
▁decide	-9.13646
▁busy	-9.13921
side	-9.14217
▁carry	-9.14866
▁relationship	-9.15102
▁pussy	-9.15103
▁fresh	-9.15107
▁worse	-9.15107
▁tired	-9.1514
▁continue	-9.15408
ible	-9.15885
▁shell	-9.1594
▁ali	-9.16195
▁boyfriend	-9.1669
▁interview	-9.1669
▁upstairs	-9.1669
▁perhaps	-9.1669
▁return	-9.1669
▁soldier	-9.1669
▁nigger	-9.1669
▁alarm	-9.16693
▁punch	-9.16693
▁student	-9.16695
▁upset	-9.16704
▁panting	-9.16721
▁gasping	-9.16744
▁wonderful	-9.16781
▁hide	-9.16874
▁tough	-9.1693
▁month	-9.17094
▁spot	-9.1712
ache	-9.17151
▁gas	-9.1732
▁fill	-9.17748
▁lucas	-9.18303
▁colonel	-9.18303
▁client	-9.18307
▁brenda	-9.18312
▁dangerous	-9.18319
▁present	-9.18331
▁stopped	-9.18357
burg	-9.18428
▁june	-9.18722
▁accept	-9.19942
▁bathroom	-9.19942
▁difference	-9.19942
▁embarrass	-9.19942
▁yesterday	-9.19942
▁bottle	-9.19942
▁phillip	-9.19942
▁remind	-9.1995
▁jean	-9.19955
▁green	-9.19961
▁shoes	-9.19961
▁pray	-9.19981
▁drunk	-9.20062
▁round	-9.20111
▁earth	-9.20182
▁raise	-9.20619
gging	-9.20827
ette	-9.21029
▁final	-9.21277
▁jimmy	-9.21609
▁private	-9.21609
▁worried	-9.21609
▁idiot	-9.2161
▁screw	-9.21611
▁position	-9.21615
▁whatd	-9.21615
▁fool	-9.21626
▁corner	-9.21696
▁broad	-9.21796
▁hook	-9.21801
▁soul	-9.22069
▁hero	-9.2242
board	-9.23202
▁congratulations	-9.23304
▁information	-9.23304
▁summer	-9.23304
▁except	-9.23304
▁bridge	-9.23305
▁group	-9.23307
▁lunch	-9.23309
▁riley	-9.23467
▁honor	-9.23779
▁board	-9.2398
lock	-9.24274
▁post	-9.2456
▁disappear	-9.25028
▁pleasure	-9.25028
▁mookie	-9.25029
▁blind	-9.25046
▁tree	-9.25317
▁west	-9.26285
▁anywhere	-9.26782
▁contract	-9.26782
▁connect	-9.26783
▁engine	-9.26784
▁simple	-9.26786
▁pants	-9.2688
▁dope	-9.2725
▁taste	-9.27278
▁evidence	-9.28568
▁dollars	-9.28568
▁london	-9.28568
▁forever	-9.2857
▁caught	-9.28571
▁brown	-9.28575
▁gift	-9.28576
▁miles	-9.28672
▁forward	-9.28676
▁code	-9.2884
▁sweetie	-9.28983
▁load	-9.29241
▁bottom	-9.30386
▁california	-9.30386
▁florida	-9.30386
▁instead	-9.30386
▁belong	-9.30386
▁member	-9.30386
▁cube	-9.30386
▁sandie	-9.30391
▁sarge	-9.30393
▁candy	-9.30407
▁wild	-9.30419
▁madam	-9.30438
▁rather	-9.3045
▁eric	-9.30471
▁off	-9.3174
▁loretta	-9.32238
▁service	-9.32238
▁heavy	-9.32238
▁wrote	-9.32239
▁darling	-9.3224
▁talent	-9.32256
▁note	-9.324
▁jess	-9.32434
▁doug	-9.32781
▁eva	-9.33065
▁experience	-9.34125
▁government	-9.34125
▁nowhere	-9.34125
▁suspect	-9.34125
▁third	-9.34125
▁folks	-9.34125
▁ticket	-9.34126
▁dirty	-9.34129
▁lynn	-9.34129
▁unless	-9.34414
down	-9.35581
▁photo	-9.36045
▁neighborhood	-9.36048
▁arrive	-9.36051
▁spoke	-9.36054
▁eddie	-9.36055
▁lonely	-9.36055
▁cream	-9.36057
▁hasnt	-9.36073
▁fbi	-9.36159
▁track	-9.36294
▁trick	-9.36309
▁sydney	-9.38009
▁beyond	-9.38009
▁survive	-9.38009
▁russell	-9.38009
▁credit	-9.38023
▁theyd	-9.38025
▁terrible	-9.38038
▁wood	-9.38272
▁river	-9.38341
▁howard	-9.38351
▁chop	-9.38541
▁desalvo	-9.40009
▁difficult	-9.40009
▁kitchen	-9.40009
▁creaking	-9.40009
▁inhales	-9.40009
▁peace	-9.40009
▁discuss	-9.40009
▁imagine	-9.40009
▁eloise	-9.40009
▁throat	-9.4001
▁level	-9.40013
▁sweat	-9.40016
▁bother	-9.40023
▁local	-9.40024
ified	-9.4004
▁qui	-9.40333
▁bless	-9.40381
▁address	-9.42049
▁counselor	-9.42049
▁destroy	-9.42049
▁nervous	-9.42049
▁excited	-9.4205
▁prince	-9.4205
▁samantha	-9.4205
▁shirt	-9.4205
▁issue	-9.4205
▁monster	-9.4205
▁buzz	-9.42052
▁adrian	-9.42054
▁bodies	-9.42056
▁type	-9.42059
▁yaya	-9.42069
▁gaz	-9.42073
▁blame	-9.42115
▁kane	-9.42116
▁tires	-9.42122
▁psycho	-9.42201
▁flow	-9.42395
▁sigh	-9.43565
▁cigarette	-9.44133
▁citizen	-9.44133
▁divorce	-9.44133
▁incredibl	-9.44133
▁pregnant	-9.44133
▁president	-9.44133
▁malorie	-9.44133
▁sudden	-9.44133
▁battle	-9.44133
▁concern	-9.44133
▁thatll	-9.44134
▁detail	-9.44136
▁future	-9.44136
▁invite	-9.4414
▁store	-9.44757
place	-9.45957
▁abigail	-9.4626
▁lieutenant	-9.4626
▁trevor	-9.4626
▁church	-9.46262
▁rachel	-9.46262
▁sobbing	-9.46264
▁judge	-9.46266
▁sexual	-9.46266
▁scream	-9.47111
▁suppose	-9.47455
▁afternoon	-9.48434
▁apologize	-9.48434
▁indistinct	-9.48434
▁professor	-9.48434
▁public	-9.48434
▁double	-9.48434
▁suggest	-9.48434
▁virgin	-9.48434
▁nicole	-9.48437
▁worst	-9.48442
▁sharp	-9.48449
▁whore	-9.48464
▁march	-9.48468
▁area	-9.48487
▁bleed	-9.48521
▁beginning	-9.50657
▁confirm	-9.50657
▁everywhere	-9.50657
▁restaurant	-9.50657
▁screech	-9.50657
▁pressure	-9.50657
▁collect	-9.50658
▁danny	-9.50659
▁choose	-9.5066
▁within	-9.5066
▁jamie	-9.50663
▁repeat	-9.50665
▁evil	-9.50666
▁ellie	-9.50666
▁lainey	-9.50666
▁teeth	-9.50667
▁invest	-9.50669
▁model	-9.5067
▁james	-9.50681
▁crew	-9.50682
▁east	-9.50704
▁bigger	-9.50712
▁operation	-9.5073
▁emergency	-9.52929
▁genius	-9.52929
▁heavily	-9.52929
▁program	-9.52929
▁sandwich	-9.52929
▁suzanne	-9.52929
▁themistokles	-9.52929
▁victim	-9.52929
▁usually	-9.52929
▁escape	-9.52929
▁neither	-9.52929
▁whether	-9.52929
▁hobbes	-9.52931
▁nurse	-9.52931
▁switch	-9.52931
▁famous	-9.52931
▁commit	-9.52933
▁milk	-9.52947
▁cheese	-9.52983
▁magic	-9.53139
▁freeze	-9.5316
▁serve	-9.53409
▁chris	-9.54274
house	-9.54987
▁asleep	-9.55255
▁involved	-9.55255
▁marriage	-9.55255
▁beauty	-9.55255
▁spirit	-9.55255
▁deliver	-9.55256
▁witness	-9.55257
▁contact	-9.55258
▁angry	-9.5526
▁suffer	-9.5526
▁threat	-9.55262
▁chief	-9.55265
▁remain	-9.55265
▁split	-9.55268
▁ought	-9.55269
▁sandy	-9.55281
▁loose	-9.5531
▁product	-9.55312
▁airport	-9.55346
▁speed	-9.55373
▁aunt	-9.55414
▁stole	-9.55643
▁criminal	-9.57636
▁downtown	-9.57636
▁doubt	-9.57636
▁zooey	-9.57636
▁plenty	-9.57636
▁weather	-9.57636
▁aiex	-9.5764
▁admit	-9.57641
▁draw	-9.57652
▁settle	-9.57653
▁kelly	-9.57653
▁larry	-9.57656
▁built	-9.57658
▁cheering	-9.57687
▁risk	-9.57898
wood	-9.59772
ology	-9.59896
▁hung	-9.60016
▁nikki	-9.60075
▁french	-9.60075
▁knife	-9.60075
▁decision	-9.60075
▁freedom	-9.60077
▁patient	-9.60077
▁milton	-9.60078
▁klara	-9.60079
▁stories	-9.6008
▁plus	-9.60087
▁view	-9.60093
▁moaning	-9.60108
▁sky	-9.60143
q	-9.61106
▁fran	-9.61685
▁hollywood	-9.62575
▁marcus	-9.62575
▁elliot	-9.62575
▁character	-9.62576
▁search	-9.62578
▁besides	-9.62583
▁snow	-9.62592
▁marry	-9.62598
▁chose	-9.6264
▁greg	-9.62664
▁strip	-9.6372
▁extreme	-9.65139
▁jonathan	-9.65139
▁ridiculous	-9.65139
▁shoulder	-9.65139
▁memory	-9.65139
▁release	-9.6514
▁forgive	-9.6514
▁spread	-9.6514
▁request	-9.65141
▁screen	-9.65142
▁prepare	-9.65143
▁theater	-9.65147
▁janet	-9.65152
▁beck	-9.65161
▁royal	-9.6517
▁slave	-9.65181
▁file	-9.65982
▁rumbling	-9.6777
▁basically	-9.67771
▁sniff	-9.67771
▁sunday	-9.67771
▁thunder	-9.67771
▁cindy	-9.67772
▁receive	-9.67773
▁creep	-9.67774
▁distance	-9.67776
▁wendy	-9.67777
▁price	-9.6778
▁large	-9.67811
▁warning	-9.67816
▁rusty	-9.67828
▁gym	-9.67862
▁introduce	-9.70473
▁neighbor	-9.70473
▁television	-9.70473
▁approach	-9.70473
▁investigation	-9.70473
▁thomas	-9.70473
▁marvin	-9.70474
▁target	-9.70474
▁dancing	-9.70474
▁whistling	-9.70474
▁design	-9.70474
▁whatre	-9.70475
▁secure	-9.70476
▁depend	-9.70477
▁pretend	-9.70477
▁wailing	-9.70485
▁mende	-9.70828
▁mountain	-9.73251
▁professional	-9.73251
▁sheriff	-9.73251
▁shouldve	-9.73251
▁tongue	-9.73251
▁aware	-9.73251
▁vegas	-9.73251
▁whispers	-9.73251
▁knox	-9.73252
▁bailey	-9.73253
▁pocket	-9.73253
▁cameron	-9.73266
▁jerk	-9.73298
▁opera	-9.73298
▁lift	-9.73342
▁total	-9.7578
▁fantastic	-9.76108
▁footsteps	-9.76108
▁mckenna	-9.76108
▁mexico	-9.76108
▁heaven	-9.76108
▁twice	-9.76108
▁sausage	-9.76109
▁civil	-9.76109
▁spanish	-9.76109
▁willie	-9.76112
▁photograph	-9.76116
▁walsh	-9.76116
▁taught	-9.76117
▁mostly	-9.76118
▁toast	-9.76125
▁manager	-9.7614
▁shake	-9.7616
work	-9.78782
▁cocksucker	-9.79049
▁disgusting	-9.79049
▁downstairs	-9.79049
▁represent	-9.79049
▁sinclair	-9.79049
▁natural	-9.7905
▁italian	-9.7905
▁often	-9.79051
▁traffic	-9.79051
▁ralph	-9.79051
▁common	-9.79054
▁harold	-9.79055
▁poison	-9.79056
▁hadnt	-9.79058
▁coach	-9.79075
▁nothin	-9.81596
▁elevator	-9.8208
▁especially	-9.8208
▁literally	-9.8208
▁michael	-9.8208
▁otherwise	-9.8208
▁whispering	-9.8208
▁happi	-9.8208
▁kevin	-9.8208
▁became	-9.8208
▁greek	-9.82081
▁aaron	-9.82094
duct	-9.82442
▁score	-9.82496
▁chatter	-9.83986
▁complete	-9.84859
▁apparently	-9.85205
▁comfortable	-9.85205
▁friday	-9.85205
▁gorgeous	-9.85205
▁recognize	-9.85205
▁swimming	-9.85205
▁whoever	-9.85205
▁custom	-9.85205
▁eazy	-9.85205
▁confess	-9.85205
▁perform	-9.85205
▁dimitr	-9.85207
▁process	-9.85209
▁drown	-9.85209
▁esther	-9.85209
▁strike	-9.85212
▁wheel	-9.85214
▁onto	-9.85218
▁devil	-9.85219
▁robert	-9.85263
▁danger	-9.88402
▁community	-9.8843
▁easier	-9.8843
▁matthew	-9.8843
▁regular	-9.8843
▁success	-9.8843
▁exhales	-9.88431
▁mourning	-9.88431
▁gunshot	-9.88431
▁gerald	-9.88431
▁condition	-9.88433
▁actress	-9.88434
▁whistle	-9.88435
▁couch	-9.88441
▁willing	-9.88455
▁cancel	-9.88525
▁sometime	-9.90683
▁somethin	-9.91271
graph	-9.91625
▁impossible	-9.91764
▁midnight	-9.91764
▁mistress	-9.91764
▁physical	-9.91764
▁punjabi	-9.91764
▁unbelievable	-9.91764
▁convince	-9.91764
▁focus	-9.91764
▁foreign	-9.91764
▁monday	-9.91764
▁twenty	-9.91764
▁monkey	-9.91764
▁zahra	-9.91764
▁patterson	-9.91764
▁correct	-9.91764
▁degree	-9.91765
▁object	-9.91765
▁earlier	-9.91766
▁insane	-9.91767
▁writing	-9.91768
▁threw	-9.9177
▁health	-9.9177
▁crush	-9.91772
▁coughing	-9.91773
▁appear	-9.91774
▁sugar	-9.91776
▁pilot	-9.91777
▁torment	-9.91778
▁cousin	-9.91779
▁federa	-9.92075
▁abdullah	-9.95212
▁according	-9.95212
▁military	-9.95212
▁muffled	-9.95212
▁responsible	-9.95212
▁develop	-9.95212
▁official	-9.95212
▁canadian	-9.95212
▁recently	-9.95212
▁douche	-9.95212
▁network	-9.95212
▁empty	-9.95217
▁ocean	-9.95217
▁faith	-9.95222
▁advice	-9.98783
▁effect	-9.98783
▁horrible	-9.98783
▁mmmhmm	-9.98783
▁responsibility	-9.98783
▁stallworth	-9.98783
▁vehicle	-9.98783
▁whenever	-9.98783
▁afford	-9.98783
▁chicago	-9.98783
▁interrupt	-9.98783
▁museum	-9.98783
▁schedule	-9.98783
▁cloud	-9.98784
▁bedroom	-9.98784
▁assistant	-9.98785
▁climb	-9.98787
▁amanda	-9.98787
▁hostage	-9.98787
▁kenny	-9.98787
▁garden	-9.98788
▁kitty	-9.98788
▁smith	-9.9879
▁purge	-9.98796
▁narrat	-9.9881
▁breakfast	-10.0249
▁champagne	-10.0249
▁felicia	-10.0249
▁hannibal	-10.0249
▁society	-10.0249
▁stomach	-10.0249
▁tunnel	-10.0249
▁recommend	-10.0249
▁clamoring	-10.0249
▁wyatt	-10.0249
▁abandon	-10.0249
▁audition	-10.0249
▁fruit	-10.0249
▁gunfire	-10.0249
▁sixpack	-10.0249
▁enemy	-10.0249
▁stretch	-10.0249
▁ipad	-10.0249
▁tube	-10.025
▁audience	-10.0633
▁explosive	-10.0633
▁familiar	-10.0633
▁original	-10.0633
▁particular	-10.0633
▁strangle	-10.0633
▁mirror	-10.0633
▁scoffs	-10.0633
▁discover	-10.0633
▁cocaine	-10.0633
▁greece	-10.0633
▁collins	-10.0633
▁dallas	-10.0633
▁oclock	-10.0633
▁martin	-10.0634
▁nelson	-10.0634
▁several	-10.0634
▁howling	-10.0634
▁attorney	-10.1033
▁diamond	-10.1033
▁excellent	-10.1033
▁gentleman	-10.1033
▁necessary	-10.1033
▁schultz	-10.1033
▁william	-10.1033
