<unk>	0
<s>	0
</s>	0
s	-4.29607
▁oh	-4.55503
▁dont	-4.62511
▁im	-4.67786
▁well	-4.84672
▁go	-4.89848
▁get	-4.91046
▁know	-4.92419
▁come	-4.9322
▁	-5.04755
▁like	-5.08018
▁right	-5.13814
▁one	-5.15875
▁got	-5.21001
▁youre	-5.21022
▁good	-5.21186
▁thats	-5.30425
▁see	-5.32859
▁yes	-5.41162
ing	-5.45213
▁look	-5.49608
▁time	-5.54123
▁yeah	-5.54738
▁think	-5.54906
▁ill	-5.55442
▁hey	-5.60162
▁back	-5.61723
▁cant	-5.65141
▁us	-5.66692
ed	-5.70937
▁hes	-5.72356
▁want	-5.74307
▁little	-5.74623
▁take	-5.75455
▁okay	-5.78876
▁going	-5.7926
▁say	-5.8194
▁man	-5.81991
▁na	-5.85512
▁tell	-5.88332
▁would	-5.88809
▁way	-5.9126
▁let	-5.91569
▁never	-5.92128
▁could	-5.94998
▁make	-5.98412
▁whats	-6.04193
▁uh	-6.05363
▁ive	-6.05976
▁theres	-6.07665
▁something	-6.09434
d	-6.09639
▁please	-6.10283
▁gon	-6.10878
▁help	-6.12129
▁love	-6.12526
▁really	-6.14057
▁lets	-6.14862
▁wait	-6.17254
▁mean	-6.18058
▁didnt	-6.18997
▁must	-6.19653
▁give	-6.19753
▁thank	-6.2174
y	-6.26401
▁sure	-6.29425
▁find	-6.32131
▁mr	-6.33597
▁day	-6.33865
▁old	-6.35101
▁sir	-6.3641
▁miss	-6.37707
▁two	-6.37852
▁l	-6.39059
▁need	-6.3964
▁nothing	-6.41038
▁home	-6.41388
▁much	-6.418
▁thing	-6.43696
▁great	-6.43773
▁sorry	-6.44456
▁shes	-6.44591
▁better	-6.45366
▁life	-6.45969
▁first	-6.46273
▁wont	-6.46575
e	-6.49021
▁keep	-6.49979
▁said	-6.5
▁away	-6.50049
▁boy	-6.5023
▁night	-6.5033
ly	-6.50578
▁youll	-6.50946
▁ever	-6.52119
▁youve	-6.53209
▁stop	-6.53965
▁theyre	-6.5485
▁still	-6.55517
▁even	-6.57269
▁ah	-6.59378
▁around	-6.59612
▁anything	-6.61707
▁long	-6.6359
▁may	-6.63857
▁always	-6.6386
▁work	-6.63957
▁girl	-6.64668
▁big	-6.65826
▁people	-6.66454
▁world	-6.67948
▁thought	-6.68987
▁course	-6.69851
▁things	-6.71133
▁new	-6.72696
▁call	-6.72983
▁id	-6.73104
▁every	-6.74766
▁leave	-6.76876
er	-6.76905
▁put	-6.7748
▁dear	-6.78538
▁stay	-6.7962
▁believe	-6.80133
▁morning	-6.82397
▁father	-6.82696
▁isnt	-6.8301
▁aint	-6.83489
▁whoa	-6.83879
▁last	-6.83981
▁nice	-6.84695
▁mother	-6.86031
▁talk	-6.86376
▁told	-6.86607
▁show	-6.87105
t	-6.88674
▁enough	-6.89355
▁made	-6.89947
▁huh	-6.9086
▁done	-6.90879
▁another	-6.91245
▁children	-6.91248
▁kind	-6.91643
▁place	-6.91884
▁coming	-6.9284
▁might	-6.93176
▁three	-6.9351
▁hear	-6.94083
▁ta	-6.94584
▁bad	-6.94674
▁wouldnt	-6.94732
▁maybe	-6.96141
▁run	-6.96257
▁doesnt	-6.9816
▁feel	-6.99845
▁everything	-7.00284
▁hold	-7.01379
▁care	-7.02082
▁name	-7.02182
▁left	-7.02359
▁today	-7.03413
▁house	-7.03603
▁understand	-7.04146
a	-7.04954
▁fine	-7.05309
▁best	-7.05613
▁mind	-7.06321
▁wrong	-7.06698
▁king	-7.06849
▁remember	-7.07005
▁de	-7.07373
▁baby	-7.075
▁turn	-7.07696
▁captain	-7.08113
▁seen	-7.08239
▁ooh	-7.08357
▁hello	-7.08466
▁ready	-7.10181
▁try	-7.10339
▁thanks	-7.1201
▁bit	-7.12387
▁listen	-7.12739
▁bring	-7.1353
▁men	-7.13827
▁looking	-7.1478
▁years	-7.15439
▁shall	-7.16049
▁start	-7.16378
▁live	-7.17008
▁heart	-7.17211
▁goodbye	-7.17275
n	-7.18261
▁watch	-7.1832
▁ik	-7.18991
▁beautiful	-7.19023
▁money	-7.1914
▁true	-7.19148
▁je	-7.19492
▁next	-7.19771
▁without	-7.19773
▁hope	-7.20477
▁dad	-7.21818
▁scarlett	-7.22346
▁door	-7.22541
▁em	-7.23219
▁head	-7.23393
▁town	-7.24709
es	-7.24725
▁use	-7.25352
▁tomorrow	-7.25658
▁friend	-7.25872
▁happy	-7.26351
▁god	-7.26387
▁eat	-7.26442
▁many	-7.26492
▁die	-7.26598
▁matter	-7.267
▁real	-7.27505
▁alone	-7.28408
▁fly	-7.28744
ll	-7.291
▁ya	-7.30645
▁minute	-7.30921
▁road	-7.30957
▁came	-7.31704
▁saw	-7.33245
▁youd	-7.33412
▁move	-7.33539
weve	-7.33567
▁hmm	-7.34038
▁gone	-7.3408
▁lot	-7.34332
▁found	-7.34825
▁word	-7.34963
▁mrs	-7.35279
▁pretty	-7.35573
▁heard	-7.35975
▁young	-7.36166
▁princess	-7.36179
▁worry	-7.36632
▁far	-7.36905
▁face	-7.36928
▁family	-7.37056
▁everyone	-7.37137
▁yet	-7.37139
▁friends	-7.37478
▁guys	-7.37823
▁tonight	-7.38579
▁together	-7.38596
en	-7.38949
▁second	-7.39088
▁getting	-7.39563
▁ha	-7.39969
▁havent	-7.40122
▁whole	-7.40139
▁wanted	-7.40684
▁ask	-7.40802
▁hand	-7.41354
▁else	-7.41705
▁child	-7.41709
▁woman	-7.41752
▁lost	-7.41765
▁hurry	-7.42502
▁business	-7.43662
▁idea	-7.437
▁win	-7.44183
▁dead	-7.44681
▁christmas	-7.44904
▁whos	-7.45459
▁job	-7.45622
▁car	-7.46423
▁along	-7.46556
▁mom	-7.47254
▁excuse	-7.47382
▁room	-7.47784
▁hi	-7.48494
o	-7.48522
▁hard	-7.4868
▁knew	-7.4907
▁wan	-7.49204
▁son	-7.49273
▁quite	-7.50056
▁days	-7.5058
▁poor	-7.50673
▁lady	-7.50888
▁looks	-7.51306
▁happened	-7.51816
▁open	-7.51843
▁cause	-7.52305
▁someone	-7.52389
▁um	-7.52431
▁four	-7.52526
▁everybody	-7.52543
r	-7.52588
▁ow	-7.52613
▁water	-7.52954
▁buzz	-7.53013
▁bird	-7.54219
▁hell	-7.54373
▁wish	-7.54676
▁music	-7.55148
▁chuckles	-7.56139
▁la	-7.5654
▁goes	-7.56754
al	-7.56846
▁soon	-7.56943
▁ball	-7.58166
▁sleep	-7.58177
▁stand	-7.58453
▁kid	-7.58456
▁afraid	-7.589
▁guess	-7.59198
▁en	-7.6001
▁land	-7.60062
▁bear	-7.60166
▁eyes	-7.60343
▁talking	-7.60564
▁trying	-7.61347
▁fire	-7.61466
▁het	-7.62162
▁sighs	-7.62805
▁human	-7.6305
▁rome	-7.63622
▁gentlemen	-7.63709
▁story	-7.63752
▁year	-7.63862
▁cat	-7.65125
in	-7.65232
▁set	-7.65609
▁wasnt	-7.65696
▁bed	-7.65907
▁mine	-7.66596
▁late	-7.66622
▁trouble	-7.66678
▁guy	-7.66705
▁feet	-7.6673
▁wow	-7.6682
▁couldnt	-7.66878
▁ease	-7.66943
▁change	-7.67474
▁moment	-7.67744
▁five	-7.68005
▁s	-7.68244
▁rest	-7.69277
▁till	-7.69675
▁race	-7.69715
▁brother	-7.69816
▁met	-7.69967
▁says	-7.70079
▁kill	-7.7008
▁ahead	-7.70867
▁gasps	-7.70931
ve	-7.70978
▁chance	-7.71959
▁dog	-7.72188
▁pay	-7.72728
▁arent	-7.73006
▁caesar	-7.74117
▁already	-7.75177
▁shh	-7.75342
▁hands	-7.75435
▁light	-7.75949
▁somebody	-7.76288
▁anyone	-7.76288
▁marry	-7.76318
▁forget	-7.76353
▁easy	-7.76391
▁een	-7.76915
▁ponyo	-7.77428
est	-7.77549
▁meet	-7.78311
▁went	-7.78621
▁dr	-7.78622
▁makes	-7.7891
▁minutes	-7.79063
▁nobody	-7.79821
▁stuff	-7.79889
▁fun	-7.7994
▁point	-7.80718
▁follow	-7.8076
▁dat	-7.80837
▁important	-7.80862
▁inside	-7.80862
▁fast	-7.81471
▁un	-7.81741
▁earth	-7.82205
▁miles	-7.82246
▁boys	-7.82377
▁save	-7.83047
▁suppose	-7.83055
▁ashley	-7.83226
▁almost	-7.83252
▁perhaps	-7.83252
▁white	-7.83307
▁knows	-7.83405
▁used	-7.83409
▁air	-7.83884
▁mike	-7.84232
▁hurt	-7.8432
▁they	-7.84391
▁price	-7.84597
▁laughing	-7.8461
▁daughter	-7.84687
▁play	-7.85024
▁walk	-7.85159
▁t	-7.85521
▁crazy	-7.85654
▁wonderful	-7.85658
▁welcome	-7.85857
▁close	-7.85928
▁end	-7.8643
▁safe	-7.86632
▁part	-7.86684
▁free	-7.86708
▁quiet	-7.86773
▁wants	-7.86825
▁niet	-7.869
▁hate	-7.86905
▁since	-7.86905
▁song	-7.87076
▁fish	-7.874
▁red	-7.87783
▁hit	-7.88095
▁joel	-7.88186
▁high	-7.88603
▁promise	-7.89201
▁hachi	-7.89405
▁food	-7.89413
▁alive	-7.89416
▁ago	-7.89506
▁power	-7.89666
▁times	-7.89688
▁school	-7.89739
▁control	-7.89857
▁a	-7.90036
▁news	-7.90078
▁sit	-7.90405
▁kiki	-7.90683
▁later	-7.90866
▁heres	-7.91137
▁c	-7.91149
▁clear	-7.91985
▁cut	-7.9213
▁side	-7.92866
▁hot	-7.92885
mon	-7.93222
▁luck	-7.93277
▁half	-7.93287
▁darling	-7.93304
▁itll	-7.93305
▁maria	-7.93306
▁wheres	-7.93621
▁six	-7.93973
▁glad	-7.94522
▁behind	-7.94628
▁throw	-7.94787
▁number	-7.94942
▁singing	-7.94962
▁full	-7.95052
▁sing	-7.95576
▁small	-7.95825
▁city	-7.96049
▁taking	-7.96083
▁drive	-7.96102
▁lose	-7.96179
▁birds	-7.96265
▁sister	-7.96312
▁blue	-7.96392
▁called	-7.96827
▁happen	-7.9698
▁actually	-7.97354
▁black	-7.97361
▁g	-7.9752
▁special	-7.97857
▁comes	-7.98069
▁dream	-7.98161
▁seems	-7.98289
▁b	-7.98454
▁check	-7.98481
▁perfect	-7.98695
▁rhett	-7.98737
▁exactly	-7.98752
▁running	-7.98756
▁took	-7.98775
▁pick	-7.99069
▁moon	-7.99263
▁re	-7.99339
▁break	-7.99534
▁girls	-7.99836
▁w	-8.00016
▁feeling	-8.00104
▁kids	-8.00278
▁war	-8.00473
▁party	-8.00741
▁laughs	-8.00791
▁lovely	-8.0086
st	-8.01342
▁send	-8.01376
l	-8.02887
▁speak	-8.0301
▁apollo	-8.03024
▁taylor	-8.03024
▁front	-8.03046
▁peter	-8.03071
▁maar	-8.03106
▁hour	-8.03583
▁waiting	-8.03709
▁fight	-8.03744
▁pok	-8.03849
▁eh	-8.04147
▁fool	-8.04224
▁p	-8.04224
▁ramona	-8.04496
▁playing	-8.04904
us	-8.05084
▁rain	-8.05149
▁return	-8.05386
▁catch	-8.05718
▁seem	-8.0586
▁houston	-8.05987
▁voice	-8.06445
▁problem	-8.06456
▁careful	-8.07452
▁making	-8.07631
▁wild	-8.07999
▁plan	-8.08674
▁daphne	-8.0904
▁probably	-8.09043
▁roger	-8.09046
▁funny	-8.09053
▁wind	-8.09114
▁death	-8.09592
▁means	-8.0964
▁sun	-8.09811
▁touch	-8.09864
▁bell	-8.09921
▁spirit	-8.10231
▁drink	-8.1054
▁lead	-8.10553
▁anybody	-8.10603
▁honey	-8.10606
▁toto	-8.1061
▁jim	-8.10616
▁cool	-8.10632
▁grunts	-8.1067
▁ok	-8.11028
▁hours	-8.11697
▁thinking	-8.1171
▁book	-8.11871
▁quick	-8.11952
▁sea	-8.11984
▁dinner	-8.12177
▁sweet	-8.12197
▁flight	-8.12217
▁screaming	-8.12306
▁buy	-8.12446
▁shut	-8.12453
▁game	-8.12799
▁needs	-8.13027
▁sound	-8.13146
▁different	-8.13676
▁sosuke	-8.13802
▁star	-8.13803
▁heighho	-8.13803
▁least	-8.1382
▁uhhuh	-8.1384
▁dan	-8.13845
▁shoot	-8.13927
▁scared	-8.14125
▁master	-8.14432
▁grow	-8.14789
▁dreams	-8.15027
▁blood	-8.15259
▁working	-8.15378
▁sign	-8.15383
h	-8.15384
▁flik	-8.15447
▁trust	-8.15458
▁gave	-8.15487
▁terrible	-8.15559
▁taken	-8.15665
▁bet	-8.16033
▁truth	-8.16051
▁ride	-8.1621
▁flying	-8.16251
▁ones	-8.16752
▁deal	-8.17006
▁stupid	-8.17109
▁papa	-8.17126
▁goin	-8.17139
▁shell	-8.17161
▁cold	-8.17169
▁ho	-8.17349
▁horses	-8.17741
▁ten	-8.18587
▁saying	-8.18897
▁though	-8.18913
▁aye	-8.18917
▁dance	-8.18942
▁supposed	-8.19185
▁line	-8.19191
▁killed	-8.19214
▁secret	-8.19477
▁present	-8.19689
▁wake	-8.19807
▁fix	-8.19897
▁magic	-8.20145
▁read	-8.20162
▁answer	-8.20256
▁honor	-8.20345
▁strange	-8.2044
▁eliza	-8.20526
▁brought	-8.20565
ies	-8.20702
▁lord	-8.21014
▁ze	-8.21354
▁straight	-8.22119
▁learn	-8.22152
▁rather	-8.2229
▁maam	-8.22293
▁ladies	-8.22297
▁buddy	-8.22298
▁dc	-8.22429
▁whoo	-8.22625
▁words	-8.22957
▁mcqueen	-8.23001
▁street	-8.23022
▁become	-8.23047
▁shot	-8.23251
on	-8.23336
▁lives	-8.23667
▁horse	-8.2375
able	-8.23968
▁velma	-8.24065
▁woody	-8.24103
▁wife	-8.2411
▁bye	-8.24203
▁gold	-8.24258
▁sort	-8.24465
▁als	-8.25496
▁butler	-8.25885
▁scrooge	-8.25885
▁leaving	-8.2591
▁certainly	-8.2598
▁browne	-8.26059
▁folks	-8.26076
▁seconds	-8.26501
▁cub	-8.26754
▁beast	-8.26799
▁u	-8.26873
▁top	-8.26973
▁order	-8.26975
▁warm	-8.27303
▁professor	-8.27737
▁shouldnt	-8.27738
▁aunt	-8.27758
▁able	-8.27801
▁billy	-8.27805
▁hang	-8.28132
▁lm	-8.28466
▁round	-8.28582
▁expect	-8.29029
▁fact	-8.2954
▁fair	-8.29621
▁future	-8.29622
▁whatever	-8.29625
▁boo	-8.29944
▁van	-8.30197
▁eye	-8.30578
or	-8.30696
▁belle	-8.30845
▁tree	-8.30846
g	-8.30977
▁ship	-8.31094
▁f	-8.3136
ion	-8.31438
▁kenai	-8.31544
▁upon	-8.31553
▁alright	-8.31556
▁absolutely	-8.31561
▁living	-8.31659
▁evening	-8.31723
▁eli	-8.31851
▁anyway	-8.32428
▁spell	-8.32489
▁brave	-8.3249
▁pan	-8.32574
▁wed	-8.32945
▁somewhere	-8.33507
▁m	-8.33524
▁finally	-8.33546
▁also	-8.33605
▁hair	-8.34063
▁fall	-8.3408
▁doctor	-8.34433
▁message	-8.34461
▁less	-8.34911
▁h	-8.34955
▁blu	-8.35103
▁main	-8.35109
▁mei	-8.3527
▁wonder	-8.35474
▁outside	-8.35508
▁sulley	-8.35509
▁possible	-8.35531
▁boss	-8.35583
▁asked	-8.36144
▁surprise	-8.36153
▁fault	-8.36444
m	-8.36461
▁week	-8.36516
▁bloom	-8.36532
i	-8.3739
▁dark	-8.37524
▁jonah	-8.37546
▁charlie	-8.37547
▁daddy	-8.3757
▁tired	-8.37628
▁queen	-8.37636
▁op	-8.38054
▁rock	-8.38188
▁pull	-8.38223
▁pass	-8.38304
▁carry	-8.39259
▁simple	-8.39512
▁jimmy	-8.3963
▁forever	-8.39633
▁sent	-8.39892
▁coach	-8.40011
▁fear	-8.40103
▁step	-8.40514
▁tara	-8.40618
▁drop	-8.40724
▁pa	-8.41177
▁wear	-8.41441
▁missed	-8.41513
▁certain	-8.41647
▁jacob	-8.41755
▁higgins	-8.41757
▁suitcase	-8.41757
▁history	-8.4176
▁snow	-8.41788
▁doc	-8.41887
▁lots	-8.42652
▁pride	-8.42828
▁picture	-8.42885
▁er	-8.43
▁phone	-8.43444
▁forgive	-8.43737
▁pardon	-8.4393
▁judah	-8.43937
▁speed	-8.43953
▁mana	-8.4396
▁ganda	-8.43972
▁ù	-8.43983
▁married	-8.44022
▁cheering	-8.44075
▁besides	-8.44131
▁share	-8.4417
le	-8.44338
▁gets	-8.44373
▁past	-8.44626
▁th	-8.45394
▁kiss	-8.45843
▁church	-8.46152
▁outta	-8.46155
▁wendy	-8.46156
▁moving	-8.46186
▁danger	-8.46203
▁reason	-8.46316
▁meant	-8.46343
▁foot	-8.46365
▁lucky	-8.46498
▁aah	-8.46964
▁short	-8.47132
▁machine	-8.47353
▁team	-8.47364
▁command	-8.47802
▁cry	-8.48205
▁telling	-8.48236
▁except	-8.48252
▁yep	-8.48454
▁crowd	-8.48489
▁sometimes	-8.48491
▁tried	-8.48506
▁mmhmm	-8.48536
▁sick	-8.48541
▁mad	-8.48841
▁question	-8.49331
▁turned	-8.4945
▁pictures	-8.49531
▁space	-8.49672
▁sounds	-8.49835
▁be	-8.49858
▁stone	-8.4996
▁wash	-8.50026
▁fat	-8.5004
▁r	-8.50043
▁meeting	-8.50339
▁worth	-8.50532
▁dress	-8.50628
▁mornin	-8.50687
▁voor	-8.50752
▁launch	-8.50752
▁hungry	-8.50753
▁merry	-8.50754
▁smee	-8.50782
▁mmm	-8.50801
▁clothes	-8.50823
▁none	-8.5087
▁greatest	-8.51002
▁body	-8.51035
▁write	-8.51066
▁laugh	-8.51269
▁explain	-8.51733
▁dare	-8.5188
▁e	-8.51883
▁melly	-8.52098
▁witch	-8.53045
▁london	-8.5313
▁indeed	-8.53132
▁ghost	-8.53133
▁werent	-8.53134
▁either	-8.53153
▁fellow	-8.53189
▁others	-8.53217
▁theyve	-8.53269
▁hed	-8.53382
▁heavens	-8.53678
▁spot	-8.53751
te	-8.53915
▁river	-8.54472
▁smile	-8.54482
▁west	-8.54489
▁country	-8.54635
▁pal	-8.54674
man	-8.54891
▁hannah	-8.55569
▁cj	-8.55571
▁bonnie	-8.55571
▁season	-8.55587
▁groans	-8.55592
▁peace	-8.55624
▁lina	-8.55647
▁busy	-8.55657
▁near	-8.55715
▁finished	-8.55816
▁goodness	-8.55863
▁born	-8.55969
▁continues	-8.56316
▁months	-8.56381
▁stick	-8.56482
▁crew	-8.56903
▁travel	-8.5697
▁smell	-8.57064
▁john	-8.57085
▁loves	-8.5713
▁rose	-8.57166
ow	-8.57587
▁finish	-8.57838
▁serious	-8.57965
▁mowgli	-8.58068
▁jungle	-8.58069
▁sheriff	-8.58069
▁anymore	-8.58069
▁attention	-8.5807
▁mammy	-8.58073
▁hij	-8.58078
▁majesty	-8.58085
▁person	-8.58102
▁forest	-8.58145
ic	-8.58428
el	-8.58447
c	-8.58767
▁lf	-8.58866
▁longer	-8.58867
▁report	-8.59306
▁tea	-8.59507
▁window	-8.59595
▁chicken	-8.59596
▁st	-8.59632
▁clean	-8.59918
▁lion	-8.5994
▁force	-8.59975
▁sense	-8.59976
▁quit	-8.59985
▁al	-8.60304
▁slow	-8.60505
▁wilkes	-8.60511
▁seven	-8.60551
▁forgot	-8.60629
▁worried	-8.60633
▁forward	-8.60633
▁village	-8.60634
▁lightning	-8.60646
▁women	-8.60659
▁storm	-8.60763
▁co	-8.61032
▁fill	-8.61092
▁train	-8.61207
▁fra	-8.61463
▁started	-8.61707
▁charge	-8.61792
▁cubs	-8.62074
▁gun	-8.62258
▁age	-8.62265
▁cup	-8.62424
▁brothers	-8.63222
▁floor	-8.63301
▁totoro	-8.63333
▁hows	-8.63343
▁mouth	-8.63378
▁strong	-8.63625
▁changed	-8.63962
▁aan	-8.63984
▁rat	-8.6433
▁ground	-8.64562
▁engine	-8.64567
▁belong	-8.64662
▁we	-8.64768
▁sword	-8.64892
▁million	-8.64919
▁level	-8.64969
▁state	-8.65281
▁toy	-8.65307
▁needed	-8.65582
▁lad	-8.65666
▁hide	-8.65737
▁madam	-8.65762
▁names	-8.65779
▁nothin	-8.65902
▁kuzco	-8.65965
▁emperor	-8.65966
▁zijn	-8.65971
▁castle	-8.65974
▁cheese	-8.65984
▁jiji	-8.66012
▁hunter	-8.66064
▁yankees	-8.66332
▁riding	-8.66356
▁ought	-8.6647
▁ge	-8.66566
▁gas	-8.66745
▁burn	-8.66888
▁lay	-8.67414
▁throat	-8.67572
▁system	-8.67674
▁i	-8.67725
▁battle	-8.67905
▁fell	-8.68185
ful	-8.6851
▁mi	-8.68669
▁lights	-8.68743
▁malcolm	-8.68744
▁gaston	-8.68747
▁stuck	-8.68748
▁chaney	-8.68748
▁dangerous	-8.68758
▁decided	-8.68861
▁beg	-8.68907
▁commander	-8.68929
ar	-8.69092
▁loud	-8.69211
▁oil	-8.69247
less	-8.69298
▁riders	-8.69303
▁lts	-8.69544
▁planet	-8.69741
▁mark	-8.70138
▁track	-8.70232
▁act	-8.70309
▁area	-8.70315
▁blow	-8.70435
▁birthday	-8.70451
▁simba	-8.7048
▁lll	-8.7061
▁penny	-8.70611
▁z	-8.70612
ment	-8.7065
▁join	-8.7081
▁known	-8.71023
▁mountain	-8.7119
▁radio	-8.715
▁prince	-8.71579
▁courage	-8.71595
▁merlin	-8.716
▁barnier	-8.71601
▁stories	-8.71605
▁middle	-8.71607
▁worse	-8.71609
▁beauty	-8.71619
▁company	-8.71627
▁in	-8.71637
lein	-8.71793
▁sky	-8.71816
▁wel	-8.719
▁crying	-8.72018
▁d	-8.72074
▁arm	-8.72156
▁tires	-8.72205
▁happening	-8.72328
▁hem	-8.72538
▁rich	-8.72655
▁sam	-8.72974
▁monster	-8.73494
▁george	-8.73637
▁field	-8.73726
▁brain	-8.73783
▁count	-8.73792
▁fit	-8.74486
▁uncle	-8.74533
▁baloo	-8.74533
▁spend	-8.74534
▁kitchen	-8.74541
▁beezus	-8.74543
▁palace	-8.74547
▁handle	-8.74746
▁doin	-8.74772
▁law	-8.75141
ting	-8.75467
▁per	-8.75891
▁mistake	-8.76276
▁gods	-8.76383
▁ca	-8.76395
▁heads	-8.76473
▁summer	-8.76477
▁offer	-8.7648
▁devil	-8.76554
▁happens	-8.76883
th	-8.77059
▁rescue	-8.7721
▁agree	-8.77277
▁figure	-8.77409
▁royal	-8.77552
▁beyond	-8.77561
▁hasnt	-8.77568
▁caught	-8.77569
▁paul	-8.77572
▁felt	-8.77574
▁often	-8.77576
▁unless	-8.77593
▁stopped	-8.77597
▁racing	-8.77599
▁mama	-8.77613
▁bread	-8.77655
▁bare	-8.78086
▁wat	-8.78098
▁rule	-8.78192
▁promised	-8.78217
▁speaking	-8.78339
w	-8.78804
▁rid	-8.78871
▁cross	-8.79041
p	-8.79085
▁weeks	-8.79136
▁low	-8.79188
▁stars	-8.79297
▁zo	-8.79692
▁idiot	-8.79722
▁fathers	-8.79794
▁teach	-8.80142
hana	-8.80455
▁damn	-8.80495
▁proud	-8.80546
▁entire	-8.80571
▁afternoon	-8.80686
▁benji	-8.80687
▁colonel	-8.80687
▁couple	-8.80689
▁charles	-8.80691
▁gentleman	-8.80698
▁matty	-8.80712
▁impossible	-8.80721
▁lift	-8.80816
▁broken	-8.80863
▁scare	-8.81219
et	-8.8126
▁picked	-8.81279
▁saved	-8.8139
ers	-8.81437
▁beat	-8.81481
▁loved	-8.81613
▁yo	-8.817
▁waste	-8.82284
▁watching	-8.82405
▁begin	-8.82512
▁favorite	-8.82754
▁husband	-8.82807
▁ring	-8.82913
▁month	-8.82951
▁spring	-8.82953
▁mess	-8.83015
▁paper	-8.83163
▁box	-8.83222
▁works	-8.8332
▁sad	-8.8336
▁calling	-8.83364
▁dig	-8.8347
▁english	-8.83615
▁prove	-8.83663
▁heb	-8.83756
▁office	-8.83784
▁kronk	-8.83912
▁nineveh	-8.83912
▁ridiculous	-8.83913
▁craig	-8.83914
▁baroness	-8.83917
▁grimm	-8.83923
▁weird	-8.83927
▁mouse	-8.83934
▁liesl	-8.8394
▁third	-8.83949
▁panting	-8.8396
▁early	-8.83997
ch	-8.84097
▁north	-8.84152
▁paid	-8.8416
▁deep	-8.84161
▁looked	-8.84231
▁bea	-8.8433
▁grace	-8.84355
▁joe	-8.84638
▁blows	-8.85061
▁kay	-8.85064
▁dot	-8.85066
▁k	-8.85209
▁v	-8.85217
▁takes	-8.85623
▁dust	-8.85642
▁jump	-8.85714
▁ben	-8.85818
▁bless	-8.85865
▁trip	-8.85953
▁governor	-8.86065
▁imagine	-8.86148
▁motorcycle	-8.86177
▁gift	-8.86225
▁egg	-8.86225
▁position	-8.86228
▁anywhere	-8.87246
▁dorothy	-8.87246
▁michael	-8.87246
▁randall	-8.87246
▁doolittle	-8.87246
▁island	-8.87247
▁sitka	-8.87249
▁amazing	-8.87253
▁pickering	-8.87257
▁henry	-8.8726
▁meade	-8.87261
▁lunch	-8.87279
▁within	-8.8732
▁eight	-8.87424
▁mara	-8.8752
▁port	-8.87562
▁von	-8.87607
▁guard	-8.87885
▁gosh	-8.87898
▁theyd	-8.88013
▁hospital	-8.88023
▁march	-8.88445
▁fi	-8.88503
▁awful	-8.89353
▁truck	-8.89529
▁weather	-8.89544
▁hundred	-8.89604
▁continue	-8.89671
▁bob	-8.89926
▁dogs	-8.90387
at	-8.90449
▁feels	-8.90572
▁note	-8.90588
▁police	-8.90669
▁bright	-8.90672
▁egypt	-8.90694
▁melanie	-8.90694
▁coffee	-8.90694
▁messala	-8.90694
▁brandnew	-8.90695
▁neither	-8.90695
▁south	-8.90695
▁koda	-8.90699
▁chief	-8.90707
▁simply	-8.9071
▁highness	-8.90721
▁kidding	-8.90722
▁lisa	-8.90734
▁broom	-8.90736
▁grunting	-8.90743
▁wack	-8.90847
▁hook	-8.90885
▁quickly	-8.9094
▁signal	-8.91016
▁hill	-8.91021
▁mission	-8.91174
▁lie	-8.91263
▁hall	-8.91285
▁wings	-8.9138
an	-8.91457
▁tink	-8.91549
▁over	-8.91865
▁shed	-8.91891
ry	-8.91965
nt	-8.91981
▁ran	-8.91995
▁moved	-8.91997
▁scar	-8.92118
▁books	-8.92222
▁te	-8.92349
▁enjoy	-8.92368
k	-8.92716
▁hotel	-8.93103
▁president	-8.93118
▁thousand	-8.9318
▁li	-8.9322
re	-8.93248
▁soul	-8.93375
▁sell	-8.93383
▁case	-8.93489
▁suit	-8.93512
▁player	-8.93538
▁attack	-8.93702
▁visit	-8.93783
▁kapitein	-8.94265
▁relax	-8.94265
▁informant	-8.94272
▁meowing	-8.94289
▁silly	-8.94312
▁tiny	-8.94314
▁eagle	-8.94344
▁screen	-8.94345
▁green	-8.94405
ous	-8.94407
▁owls	-8.94676
▁grown	-8.948
▁screams	-8.95092
▁tom	-8.95324
▁eggs	-8.95393
▁station	-8.95523
▁gee	-8.95937
▁died	-8.96123
▁mater	-8.96221
ness	-8.96228
ish	-8.96374
▁strike	-8.96457
▁da	-8.96476
ce	-8.9652
▁problems	-8.96795
▁service	-8.96806
▁guest	-8.96907
▁flower	-8.97012
▁plain	-8.97034
▁corner	-8.97066
▁sake	-8.97142
▁powers	-8.97246
▁jam	-8.97258
▁honest	-8.97641
ity	-8.97689
▁raise	-8.97718
▁view	-8.97824
▁jij	-8.97905
▁cute	-8.97941
▁emelius	-8.97969
▁kelso	-8.97969
▁morbius	-8.97969
▁nervous	-8.97969
▁instead	-8.97969
▁marvelous	-8.9797
▁across	-8.97971
▁especially	-8.97973
▁grab	-8.97991
▁neil	-8.97994
▁blame	-8.97997
▁loose	-8.98103
▁cal	-8.98141
▁hah	-8.98323
▁hail	-8.98368
▁hole	-8.98383
▁push	-8.98386
▁learned	-8.986
▁missing	-8.98678
▁mothers	-8.98886
▁max	-8.99029
▁walking	-8.99112
▁fired	-8.99265
▁lived	-8.9963
▁pain	-8.99648
▁trapp	-9.00354
▁action	-9.00365
▁purpose	-9.00652
▁key	-9.00657
▁mo	-9.0075
▁feed	-9.00922
▁ø	-9.00955
▁piece	-9.00993
▁ray	-9.01261
▁deliver	-9.01349
▁thunder	-9.01388
▁brown	-9.01471
▁proper	-9.01709
▁frank	-9.01718
▁female	-9.01815
▁strength	-9.01815
▁yesterday	-9.01815
▁rooster	-9.01816
▁silver	-9.01817
▁teddy	-9.01818
▁hadnt	-9.01819
▁general	-9.0182
▁wiz	-9.01822
▁rudy	-9.01845
▁kali	-9.01853
▁common	-9.01871
▁evil	-9.0188
▁excited	-9.01898
▁tv	-9.01938
▁giving	-9.01975
▁carrie	-9.01991
▁noble	-9.02069
▁tight	-9.02141
▁sight	-9.02204
▁leg	-9.02235
▁hardly	-9.02327
▁hier	-9.02374
▁fellas	-9.02625
▁n	-9.02874
▁grand	-9.02965
▁monsters	-9.03212
▁realize	-9.03367
over	-9.03373
▁ned	-9.03561
▁ook	-9.0358
▁court	-9.03836
▁named	-9.03917
ation	-9.04128
▁record	-9.04183
▁bells	-9.04312
▁hearts	-9.04561
▁choice	-9.04566
▁pleasure	-9.04566
▁duck	-9.04613
▁whistle	-9.04811
▁wet	-9.04838
▁lesson	-9.04839
▁pack	-9.05334
▁double	-9.05388
▁spread	-9.05425
▁pocket	-9.05441
▁desert	-9.05557
▁difficult	-9.05564
▁match	-9.05576
▁escape	-9.05615
▁allow	-9.05629
▁schultz	-9.05815
▁kathy	-9.05815
▁fresh	-9.05816
▁oscar	-9.05817
▁blind	-9.05819
▁load	-9.0582
▁fancy	-9.05825
▁beginning	-9.05826
▁texas	-9.05832
▁circus	-9.05833
▁steady	-9.05834
▁laughter	-9.05838
▁dancing	-9.05845
▁announcer	-9.05858
▁accident	-9.05885
▁plenty	-9.05898
▁ridge	-9.05939
▁climb	-9.05959
▁glass	-9.05983
▁center	-9.06018
▁army	-9.06155
▁shop	-9.06237
▁lab	-9.0637
▁shame	-9.06442
up	-9.07177
▁orders	-9.08091
▁starting	-9.08108
▁bringing	-9.08163
▁roll	-9.08293
▁worlds	-9.08386
▁agent	-9.08864
▁given	-9.0888
▁roman	-9.09003
▁faith	-9.0905
▁color	-9.09075
▁hat	-9.0937
▁appreciate	-9.09694
▁build	-9.09722
▁settle	-9.09747
▁notice	-9.09889
▁pizza	-9.09982
▁upstairs	-9.09982
▁morris	-9.09982
▁empty	-9.09982
▁freedom	-9.09984
▁graff	-9.09984
▁everywhere	-9.09984
▁delicious	-9.09987
▁twice	-9.09987
▁somethin	-9.09998
▁layla	-9.10003
▁test	-9.10029
▁growling	-9.10047
▁built	-9.10075
▁nose	-9.10081
▁mack	-9.10093
▁parents	-9.10099
▁dirty	-9.10161
▁putting	-9.10165
▁dumb	-9.10166
▁bugsy	-9.10183
▁nine	-9.10193
▁bag	-9.10209
▁mert	-9.10217
▁calm	-9.10223
▁ahh	-9.10246
▁places	-9.10414
▁driver	-9.1055
▁hopper	-9.10554
▁naar	-9.10631
▁weak	-9.10955
▁reading	-9.10963
▁ja	-9.11287
▁arms	-9.11554
▁millions	-9.1164
▁standing	-9.11846
▁protect	-9.12016
▁cars	-9.12157
▁he	-9.12202
▁out	-9.12329
▁ice	-9.12709
▁spirits	-9.12817
▁german	-9.12922
▁jewel	-9.13083
▁ohh	-9.13154
▁camera	-9.13206
▁tiger	-9.13237
▁sita	-9.13266
▁building	-9.13534
▁dis	-9.1357
▁treat	-9.13603
ts	-9.13849
▁bug	-9.14064
▁do	-9.14165
▁wine	-9.14285
ant	-9.14317
▁california	-9.1433
▁nonsense	-9.1433
▁enemy	-9.1433
▁llama	-9.1433
▁kennedy	-9.1433
▁speech	-9.1433
▁situation	-9.14331
▁kept	-9.14332
▁breakfast	-9.14332
▁kurt	-9.14336
▁gregory	-9.14336
▁wildfire	-9.14336
▁immediately	-9.14337
▁huge	-9.14354
▁indistinct	-9.1436
▁powerful	-9.14371
▁ohara	-9.14385
▁bigger	-9.14402
▁whispering	-9.14411
▁granny	-9.14427
▁nog	-9.14427
▁golden	-9.14509
▁daar	-9.14532
▁ti	-9.14568
▁pink	-9.14583
▁shoes	-9.14813
▁bugs	-9.15086
▁table	-9.15186
by	-9.15221
▁cheers	-9.15266
▁legs	-9.15477
▁following	-9.15589
▁brains	-9.15701
▁rats	-9.16202
▁asking	-9.16267
▁base	-9.16429
▁harm	-9.16439
▁sail	-9.16562
▁kan	-9.16684
▁aw	-9.16837
▁consider	-9.17137
▁di	-9.17315
▁there	-9.17529
▁trick	-9.17638
▁paint	-9.17676
▁difference	-9.17678
▁chair	-9.17714
▁heaven	-9.17727
▁ant	-9.17761
▁clears	-9.17887
▁officer	-9.17959
▁stage	-9.18009
▁joy	-9.18179
▁bother	-9.1819
f	-9.18194
▁knock	-9.18259
▁pitch	-9.18289
▁complete	-9.18516
▁smart	-9.18751
▁suggest	-9.1884
▁applause	-9.18875
▁wilhelm	-9.18875
▁genius	-9.18875
▁somehow	-9.18875
▁bottom	-9.18876
▁someday	-9.18876
▁kitty	-9.18876
▁senate	-9.18879
▁wedding	-9.18885
▁stallion	-9.18888
▁lightyear	-9.18889
▁taught	-9.18895
▁lonely	-9.18903
▁sunday	-9.18908
▁suddenly	-9.18918
▁supper	-9.18919
▁duke	-9.18919
▁thatll	-9.1894
▁single	-9.19001
▁bo	-9.1904
▁interesting	-9.19067
▁duty	-9.19078
▁ouch	-9.19155
▁scary	-9.19196
▁blessed	-9.1923
▁lower	-9.19249
▁plate	-9.19268
▁faster	-9.19352
▁plus	-9.19384
▁mustnt	-9.19506
▁tough	-9.19555
▁cover	-9.19558
▁animals	-9.19596
▁wearing	-9.19615
▁fetch	-9.19648
▁o	-9.19701
ted	-9.19978
▁store	-9.20012
▁dreaming	-9.20056
ive	-9.20119
▁lions	-9.20926
▁landing	-9.20994
▁doubt	-9.21063
▁event	-9.21063
▁trees	-9.21313
▁listening	-9.21535
▁hop	-9.21579
▁draw	-9.21627
▁computer	-9.22001
▁scream	-9.22122
▁map	-9.22178
▁maid	-9.22502
▁odd	-9.22616
ford	-9.22635
▁andy	-9.22863
▁destroy	-9.2298
▁points	-9.23015
▁form	-9.23048
▁dirt	-9.23443
▁chances	-9.23465
▁selfdestruct	-9.23637
▁sugar	-9.23637
▁necessities	-9.23638
▁enter	-9.23639
▁major	-9.2364
▁kingdom	-9.2364
▁jail	-9.23649
▁bunch	-9.23651
▁victory	-9.23662
▁truly	-9.23663
▁copy	-9.23665
▁roof	-9.23668
▁soup	-9.23672
▁bought	-9.23675
▁direct	-9.23714
▁swear	-9.23724
▁journey	-9.23733
▁comfortable	-9.23733
▁crown	-9.23801
▁mention	-9.23823
▁prepared	-9.23824
▁interested	-9.23877
▁humans	-9.23884
ng	-9.2393
▁mary	-9.24022
▁panic	-9.24081
▁locked	-9.24109
▁male	-9.24214
▁surprised	-9.24286
▁wondering	-9.24473
ine	-9.24518
▁chan	-9.24583
▁seeing	-9.24807
▁georg	-9.24887
▁atta	-9.24891
▁prefer	-9.25182
▁rings	-9.25203
out	-9.25351
▁thinks	-9.25429
▁belongs	-9.25537
▁no	-9.25802
▁where	-9.25965
▁bank	-9.26396
▁meaning	-9.26541
▁luna	-9.26624
▁ùù	-9.27007
▁extra	-9.27065
▁taste	-9.27345
▁extreme	-9.27365
▁staying	-9.27537
▁shadow	-9.27554
▁marshal	-9.2759
▁neck	-9.2761
▁tower	-9.27921
▁search	-9.28047
▁øùù	-9.2844
▁howd	-9.2845
▁tie	-9.2847
▁broke	-9.28481
▁serve	-9.28491
▁normal	-9.28593
▁runs	-9.28595
▁j	-9.286
▁cheer	-9.28623
▁brigitta	-9.28637
▁cleopatra	-9.28637
▁library	-9.28637
▁smith	-9.28637
▁precious	-9.28637
▁spacecraft	-9.28637
▁however	-9.28638
▁mercy	-9.28638
▁whether	-9.28638
▁permission	-9.28641
▁bloodshy	-9.28643
▁shouldve	-9.28649
▁exciting	-9.2865
▁garden	-9.2865
▁forgotten	-9.28656
▁soft	-9.28657
▁fella	-9.28671
▁skipper	-9.28674
▁baron	-9.28692
▁public	-9.28716
▁clicks	-9.28733
▁iii	-9.28765
▁yelling	-9.28797
▁fa	-9.288
▁shouting	-9.28821
▁ùø	-9.28882
▁tail	-9.28899
▁park	-9.28943
▁clock	-9.28981
▁uhoh	-9.29051
▁insist	-9.29279
▁talkin	-9.29335
▁soldiers	-9.29436
▁someones	-9.29484
▁falling	-9.29504
▁passed	-9.29548
▁expecting	-9.29558
▁card	-9.29661
▁wart	-9.30217
▁moves	-9.30764
▁surely	-9.30863
▁messages	-9.31351
▁lo	-9.31522
ter	-9.31529
▁ma	-9.31583
▁owe	-9.31627
▁remain	-9.32519
um	-9.32558
▁plane	-9.32593
▁language	-9.32774
▁cousin	-9.3279
▁movie	-9.32822
▁path	-9.32833
▁super	-9.32903
▁cook	-9.33488
▁squeak	-9.33542
▁seat	-9.33559
▁address	-9.33569
▁ii	-9.33805
▁large	-9.33838
▁races	-9.33886
▁archimedes	-9.339
▁cogburn	-9.339
▁dallas	-9.339
▁piston	-9.339
▁rhythm	-9.339
▁satsuki	-9.339
▁practice	-9.33901
▁famous	-9.33901
▁lockwood	-9.33901
▁thrust	-9.33902
▁pearce	-9.33902
▁baseball	-9.33905
▁mansfield	-9.33908
▁krell	-9.33914
▁spencer	-9.33918
▁giggles	-9.33937
▁slippers	-9.33978
▁champion	-9.33991
▁horn	-9.34016
▁mice	-9.3404
▁rise	-9.34057
▁aaah	-9.34069
▁gettin	-9.34121
▁nearly	-9.34125
▁linda	-9.34154
▁astronauts	-9.34166
▁breathing	-9.34192
▁block	-9.34224
▁alle	-9.3428
▁se	-9.34381
▁figured	-9.34449
▁closer	-9.34469
▁nana	-9.34481
▁clouds	-9.34515
▁swing	-9.3465
▁wing	-9.34696
▁pounds	-9.34774
▁upset	-9.34881
▁lake	-9.34991
▁moet	-9.35169
▁ideas	-9.35315
▁pray	-9.35364
time	-9.36713
▁holding	-9.37339
▁liked	-9.37342
▁bomb	-9.37452
b	-9.37592
▁ph	-9.37757
▁to	-9.37936
▁awake	-9.38079
end	-9.38087
ty	-9.38237
▁diamond	-9.38328
way	-9.38426
▁joke	-9.38447
▁nature	-9.38461
▁sh	-9.38468
ily	-9.38471
▁pie	-9.38492
▁rough	-9.38499
▁smoke	-9.38622
▁admit	-9.38622
ary	-9.3899
▁rider	-9.39043
▁pretend	-9.39095
▁tale	-9.3911
▁chase	-9.39194
▁lock	-9.39225
▁layeeodl	-9.39324
▁morg	-9.39371
▁eglantine	-9.39456
▁lieutenant	-9.39456
▁oxygen	-9.39456
▁science	-9.39456
▁sunshine	-9.39456
▁tobias	-9.39456
▁phillip	-9.39456
▁david	-9.39456
▁hakuna	-9.39456
▁nowhere	-9.39456
▁whirring	-9.39457
▁pepper	-9.39458
▁surface	-9.39458
▁alert	-9.39459
▁brutus	-9.3946
▁marley	-9.3946
▁emergency	-9.39463
▁marta	-9.39467
▁teenie	-9.39477
▁alarm	-9.39482
▁atlanta	-9.39487
▁loverly	-9.39509
▁handsome	-9.39519
▁worst	-9.3952
▁milk	-9.39523
▁ends	-9.39525
▁dying	-9.39532
▁comin	-9.39571
▁moses	-9.39627
▁jerk	-9.3963
▁arrived	-9.3963
▁responsible	-9.39633
▁deserve	-9.39645
▁alta	-9.39691
▁charming	-9.39751
▁delivery	-9.39761
aid	-9.39835
▁county	-9.39939
▁trash	-9.39957
▁counting	-9.40101
▁dressed	-9.40226
▁boat	-9.40231
▁cats	-9.40318
om	-9.40372
▁yard	-9.40438
▁fung	-9.40522
▁hanging	-9.40552
▁rio	-9.40843
▁doll	-9.41175
▁virg	-9.41219
▁hills	-9.4129
▁rules	-9.4139
▁using	-9.41393
il	-9.41412
▁guns	-9.41448
▁sa	-9.41485
id	-9.41799
▁leaves	-9.41837
it	-9.41902
▁judge	-9.42078
men	-9.42246
▁bite	-9.42312
▁tall	-9.42321
▁rum	-9.42369
▁date	-9.42418
▁rocks	-9.42419
▁ships	-9.42511
▁showed	-9.42601
▁wall	-9.42621
▁ol	-9.42682
▁ac	-9.42815
▁games	-9.43185
ten	-9.43353
▁pot	-9.43791
▁mans	-9.43829
▁pure	-9.439
red	-9.43994
▁andromeda	-9.4405
▁vehicle	-9.44052
▁turns	-9.4409
▁experiment	-9.44141
▁partner	-9.44278
▁finger	-9.44374
▁teacher	-9.44517
▁final	-9.44575
▁mile	-9.44888
▁ga	-9.44994
▁health	-9.45128
▁ty	-9.45133
▁stole	-9.45199
▁create	-9.45243
▁favor	-9.45335
▁despereaux	-9.45338
▁dinoco	-9.45338
▁giggling	-9.45338
▁matata	-9.45338
▁sergeant	-9.45338
▁french	-9.45338
▁tomainia	-9.45338
▁england	-9.45338
▁armstrong	-9.45338
▁contact	-9.45339
▁waternoose	-9.45339
▁program	-9.45339
▁tribune	-9.45339
▁silence	-9.4534
▁department	-9.45341
▁fantastic	-9.45343
▁sixteen	-9.45343
▁heavy	-9.45345
▁con	-9.45346
▁temper	-9.45351
▁spain	-9.45355
▁destiny	-9.45356
▁teeth	-9.45359
▁shoulder	-9.45368
▁spent	-9.45373
▁horrible	-9.45376
▁robby	-9.45378
ie	-9.45406
▁began	-9.45411
▁chirping	-9.45411
▁creep	-9.45421
▁driving	-9.45426
▁kaart	-9.45431
▁wazowski	-9.4545
▁rope	-9.45451
▁knowledge	-9.45461
▁natural	-9.45466
▁range	-9.45473
▁plays	-9.45484
▁tongue	-9.45517
de	-9.45546
▁charm	-9.4555
▁sharp	-9.45588
▁shoo	-9.45595
▁nurse	-9.45759
▁grasshoppers	-9.45768
▁ringing	-9.45952
▁bravo	-9.45978
▁feelin	-9.46051
▁bones	-9.46155
▁fixed	-9.46229
▁collect	-9.46276
▁creatures	-9.4635
▁picky	-9.46377
▁training	-9.46402
▁nou	-9.46667
▁jewels	-9.46791
▁fighting	-9.46799
ne	-9.46966
▁deer	-9.47051
▁flowers	-9.47062
▁boot	-9.47276
▁papers	-9.47323
▁ba	-9.47333
as	-9.4744
▁stays	-9.475
▁mee	-9.47586
▁band	-9.47646
▁du	-9.47829
▁lands	-9.48069
▁older	-9.48072
▁art	-9.48188
▁fan	-9.4841
na	-9.48426
▁bath	-9.48496
▁ding	-9.48736
▁patti	-9.49062
▁rides	-9.4955
▁starts	-9.49577
▁worked	-9.49606
▁remind	-9.50045
▁row	-9.50095
▁likes	-9.50142
▁lawyer	-9.50299
▁scene	-9.50306
▁club	-9.50397
▁wizard	-9.50443
▁fence	-9.50467
▁choose	-9.50482
▁creature	-9.50526
▁fortune	-9.5054
▁flag	-9.50571
▁borrow	-9.50739
▁official	-9.50744
▁cage	-9.50823
▁indian	-9.50857
▁everythings	-9.51102
▁crack	-9.51114
▁east	-9.51171
▁chatter	-9.51255
▁survive	-9.51316
▁steal	-9.51332
▁account	-9.51346
▁camp	-9.51451
▁coward	-9.51532
▁gentle	-9.51565
▁circumstances	-9.51588
▁cratchit	-9.51588
▁excellent	-9.51588
▁monsieur	-9.51588
▁guidance	-9.51588
▁canoe	-9.51589
▁whenever	-9.51589
▁festival	-9.5159
▁telegram	-9.51591
▁decision	-9.51592
▁esther	-9.51592
▁dictator	-9.51592
▁byebye	-9.51593
▁saturn	-9.51593
▁ugly	-9.51593
▁valley	-9.51594
▁sweetheart	-9.51594
▁louisa	-9.51595
▁heeft	-9.51596
▁flew	-9.51599
▁personal	-9.51605
▁psst	-9.51607
▁excellency	-9.51607
▁precisely	-9.51613
▁grass	-9.51614
▁clever	-9.51614
▁harvest	-9.51615
▁ranch	-9.51617
▁planned	-9.51619
▁monkey	-9.51649
▁totally	-9.5166
▁pige	-9.51707
▁due	-9.5173
▁completely	-9.51744
ndistinct	-9.51747
▁bout	-9.51808
▁singin	-9.51829
▁united	-9.51857
▁self	-9.51865
▁loving	-9.5188
▁faint	-9.51926
▁style	-9.51941
▁losing	-9.51983
do	-9.52039
▁winter	-9.52051
▁knocking	-9.52061
▁ln	-9.52061
▁guide	-9.52083
▁gang	-9.52336
▁lily	-9.52375
▁sooner	-9.52399
▁sand	-9.52494
▁national	-9.52615
▁danced	-9.52621
▁breath	-9.52651
▁it	-9.52709
▁partners	-9.52725
▁wha	-9.52774
age	-9.52775
▁nu	-9.5289
▁walked	-9.52929
▁closed	-9.53077
▁jo	-9.53095
▁not	-9.53115
▁dee	-9.5321
rs	-9.53223
▁heat	-9.5335
▁sid	-9.53354
▁spit	-9.53759
▁pleased	-9.53857
ling	-9.53928
▁project	-9.53935
▁af	-9.53999
▁states	-9.54044
▁likely	-9.542
▁adventure	-9.54371
▁dry	-9.54418
▁lads	-9.54469
▁aha	-9.54636
▁skin	-9.54664
▁matters	-9.54791
ke	-9.54845
▁talked	-9.55209
▁whoohoo	-9.55333
▁bus	-9.55478
▁uhuh	-9.55549
▁wa	-9.56029
▁plans	-9.56215
eve	-9.56438
▁tee	-9.56484
▁hans	-9.56687
▁skill	-9.56861
▁bu	-9.56883
▁me	-9.56912
▁chick	-9.56941
▁pound	-9.56954
▁goed	-9.56976
▁circle	-9.57064
▁condition	-9.57152
▁soldier	-9.57193
▁toward	-9.572
▁animal	-9.57205
▁meal	-9.57274
▁bill	-9.57374
▁slave	-9.57506
▁leader	-9.57622
▁proceed	-9.57748
▁caesars	-9.57872
▁pad	-9.57929
▁accept	-9.57982
▁ear	-9.58127
▁smooth	-9.5813
▁discuss	-9.58232
▁advantage	-9.58255
▁arrietty	-9.58255
▁bianca	-9.58255
▁blousey	-9.58255
▁jacqueline	-9.58255
▁jullie	-9.58255
▁magnificent	-9.58255
▁mufasa	-9.58255
▁napaloni	-9.58255
▁osterlich	-9.58255
▁piedmont	-9.58255
▁rizzo	-9.58255
▁farewell	-9.58255
▁congratulations	-9.58255
▁thief	-9.58255
▁verify	-9.58255
▁mewtwo	-9.58256
▁starvation	-9.58256
▁bagheera	-9.58258
▁collar	-9.58258
▁dropped	-9.58264
▁ginger	-9.58265
▁energy	-9.58265
▁society	-9.58265
▁bloomin	-9.58266
▁chuckling	-9.58269
▁yellow	-9.58275
▁skies	-9.58285
▁local	-9.58287
▁tombo	-9.58288
▁jerry	-9.58289
▁route	-9.58292
▁jenny	-9.58294
▁nasty	-9.58297
▁whale	-9.58306
▁receive	-9.58315
▁whatll	-9.58319
▁incredible	-9.58326
▁racecar	-9.5833
▁mister	-9.58335
▁desperate	-9.5834
▁schip	-9.58342
▁darn	-9.58348
▁usually	-9.58363
se	-9.58365
▁pressure	-9.58368
▁confidence	-9.58372
▁organism	-9.58377
▁kom	-9.58382
▁flint	-9.58427
▁properly	-9.58449
▁deeply	-9.58481
▁miller	-9.58492
▁parker	-9.58527
▁cost	-9.58546
▁rice	-9.58553
▁pity	-9.58614
▁glori	-9.58621
▁ruth	-9.58674
▁held	-9.5869
▁spy	-9.58709
▁nuts	-9.58718
land	-9.58722
▁metal	-9.58743
▁escaped	-9.58745
▁swell	-9.5878
▁noticed	-9.58823
▁grateful	-9.58825
▁hoping	-9.58841
▁bi	-9.58857
▁board	-9.59041
▁helped	-9.59132
▁class	-9.5917
▁doe	-9.59215
▁dragons	-9.59261
▁towards	-9.59338
▁gotten	-9.59437
▁cake	-9.59489
▁vision	-9.59507
▁hero	-9.59696
▁experience	-9.60004
▁pet	-9.60049
▁size	-9.60279
▁ants	-9.6042
▁rare	-9.60468
▁ex	-9.60565
▁buzzing	-9.60963
▁cups	-9.60984
▁engines	-9.61
▁fate	-9.61128
▁roses	-9.6113
▁ages	-9.6118
▁questions	-9.61436
▁slap	-9.61767
▁helping	-9.61831
▁uhh	-9.61925
u	-9.62805
▁pop	-9.62827
▁so	-9.62946
old	-9.63201
ship	-9.63233
ial	-9.63399
▁ee	-9.63471
▁slim	-9.6351
▁wil	-9.63544
▁kings	-9.63833
▁regret	-9.63986
▁professional	-9.64216
▁miracle	-9.6424
▁dragon	-9.64389
▁wh	-9.64468
▁ranger	-9.64509
▁crash	-9.64639
▁tear	-9.64752
ian	-9.64815
▁stranger	-9.6483
▁murder	-9.65015
▁terribl	-9.65031
▁fort	-9.65186
▁object	-9.65237
▁decide	-9.65288
▁drunk	-9.65292
▁pony	-9.65296
to	-9.65379
▁denahi	-9.65398
▁module	-9.65398
▁stomach	-9.65398
▁tallulah	-9.65398
▁thumb	-9.65398
▁security	-9.65398
▁century	-9.65398
▁ingrid	-9.65399
▁philippe	-9.65399
▁hobart	-9.65399
▁carnival	-9.654
▁celia	-9.654
▁group	-9.65401
▁radar	-9.65401
▁martin	-9.65403
▁pleasant	-9.65406
▁dawn	-9.65407
▁solid	-9.65409
▁scoop	-9.6541
▁divine	-9.65412
▁bij	-9.65415
▁whistling	-9.65417
▁buried	-9.65421
▁iron	-9.65424
▁lionesses	-9.65429
▁whooshes	-9.65432
▁package	-9.65432
▁switch	-9.65442
▁obviously	-9.65444
▁tow	-9.65445
▁closing	-9.65447
▁stickers	-9.65457
▁involved	-9.65458
▁status	-9.65483
▁chosen	-9.65488
▁happiness	-9.65492
▁edge	-9.65496
▁trap	-9.65503
▁snoops	-9.65519
▁hiding	-9.65525
▁dokter	-9.65527
▁lamont	-9.65528
▁meows	-9.65556
▁necessary	-9.65559
▁frightened	-9.6558
▁honking	-9.65582
▁hyenas	-9.65604
▁aim	-9.65606
▁definitely	-9.65641
▁nights	-9.65658
▁knees	-9.65723
▁stealing	-9.65774
▁chattering	-9.65793
▁wipe	-9.65796
▁hunting	-9.65826
▁sports	-9.65836
ge	-9.65842
▁musical	-9.65874
▁helpless	-9.65884
▁searching	-9.65888
▁mustangs	-9.65901
▁gives	-9.65963
▁warn	-9.66084
▁appear	-9.66092
▁woods	-9.66093
▁rocket	-9.66114
▁tryin	-9.66179
▁waar	-9.66229
▁who	-9.66345
▁om	-9.66405
▁tune	-9.66411
▁bent	-9.66555
▁pulling	-9.66575
▁cares	-9.66623
▁returned	-9.6667
▁locker	-9.6692
▁hatch	-9.67307
▁rays	-9.67387
▁spin	-9.67492
▁pieces	-9.67579
▁inter	-9.67793
▁va	-9.68062
▁toys	-9.68157
▁reach	-9.68256
▁reports	-9.684
▁bone	-9.6901
▁steps	-9.69084
▁toe	-9.69391
▁hynkel	-9.69588
▁stayed	-9.69788
▁drag	-9.69869
▁respect	-9.69902
▁turning	-9.70032
▁ch	-9.70212
ze	-9.70326
▁lt	-9.70595
▁brings	-9.70599
▁pig	-9.70748
▁numbers	-9.71275
▁bolt	-9.71655
came	-9.71701
▁shine	-9.71758
ah	-9.7178
▁roar	-9.71827
▁border	-9.71881
▁pirate	-9.71937
▁photo	-9.71942
▁credit	-9.71972
▁senator	-9.71975
▁fur	-9.72026
ate	-9.72029
▁yankee	-9.72034
▁grade	-9.72083
▁ash	-9.72235
▁fang	-9.72311
▁heel	-9.72553
▁here	-9.72573
▁trail	-9.72632
▁india	-9.72636
we	-9.72695
▁hunt	-9.72742
ley	-9.72742
▁float	-9.72789
▁wave	-9.72796
▁arrest	-9.72801
▁spare	-9.72817
▁repeat	-9.7282
▁prepare	-9.72876
▁introduce	-9.72891
one	-9.72927
▁potato	-9.72964
▁correct	-9.7299
▁apart	-9.73056
▁aldrin	-9.7309
▁ancient	-9.7309
▁aurora	-9.7309
▁beneath	-9.7309
▁college	-9.7309
▁council	-9.7309
▁holiday	-9.7309
▁marriage	-9.7309
▁otherwise	-9.7309
▁pumbaa	-9.7309
▁strawberries	-9.7309
▁invasion	-9.7309
▁christian	-9.7309
▁dersu	-9.7309
▁arrius	-9.7309
▁knife	-9.7309
▁columbia	-9.73091
▁ignition	-9.73091
▁ordinary	-9.73091
▁support	-9.73091
▁jealous	-9.73091
▁gretl	-9.73092
▁innovative	-9.73094
▁usual	-9.73094
▁possibly	-9.73095
▁chorus	-9.73095
▁grandpa	-9.73097
▁servant	-9.73098
▁antony	-9.73102
▁angry	-9.73108
▁pacha	-9.73108
▁medal	-9.73108
▁threw	-9.73109
▁luiz	-9.73109
▁dozen	-9.73115
▁haru	-9.73117
▁smash	-9.73117
▁memory	-9.73118
▁innocent	-9.73121
▁nope	-9.73122
▁abbey	-9.73127
▁slide	-9.73133
▁parade	-9.73133
▁spoil	-9.73139
▁grandma	-9.73142
▁square	-9.73158
▁friendship	-9.73173
▁aside	-9.73176
▁dismissed	-9.73183
▁familiar	-9.73221
▁hebben	-9.73227
▁add	-9.73229
▁oz	-9.73229
▁alvin	-9.73231
▁invited	-9.7325
▁sew	-9.73261
▁tour	-9.73264
▁tramp	-9.7327
▁claim	-9.73278
▁gotcha	-9.73281
▁amen	-9.73284
is	-9.73295
▁dollars	-9.73315
▁ra	-9.73376
▁gray	-9.73417
▁safety	-9.73472
▁bow	-9.73481
fully	-9.73506
▁sally	-9.73565
▁wide	-9.73576
▁proof	-9.73589
▁cooking	-9.73609
▁raised	-9.737
▁whereve	-9.73757
▁sold	-9.73764
▁bears	-9.73765
▁carefully	-9.73794
▁flyin	-9.73805
▁khan	-9.73938
mighty	-9.73995
▁blowing	-9.74028
▁cream	-9.74043
▁si	-9.74065
▁burning	-9.74099
▁expected	-9.74183
▁buck	-9.74205
▁sweep	-9.74252
▁tears	-9.74256
▁rangers	-9.74269
▁shows	-9.7442
▁leak	-9.74559
▁mac	-9.74673
▁played	-9.74795
▁you	-9.74845
▁ver	-9.74893
▁com	-9.74929
▁sending	-9.7499
▁wire	-9.75019
▁yea	-9.75045
▁romans	-9.75141
▁manage	-9.75188
▁keeps	-9.75238
▁picking	-9.75498
▁wie	-9.75501
▁electric	-9.75568
▁springs	-9.75702
▁fred	-9.75738
▁sons	-9.7583
▁somethings	-9.75852
lly	-9.75928
▁rent	-9.76059
▁chap	-9.76076
▁mum	-9.76171
dy	-9.76516
▁ken	-9.76812
▁ne	-9.76829
▁post	-9.77003
▁on	-9.77252
▁score	-9.7735
▁sis	-9.77503
▁lookin	-9.7756
▁twist	-9.77574
▁bush	-9.77755
tion	-9.77799
▁streets	-9.77885
▁fl	-9.77941
▁character	-9.78196
▁bang	-9.78207
▁le	-9.78533
led	-9.78661
▁fools	-9.78855
▁showing	-9.79106
▁carol	-9.79273
▁interest	-9.79385
▁breathe	-9.79608
ally	-9.79712
▁poison	-9.79985
▁shape	-9.8015
▁noise	-9.80175
▁chain	-9.80181
▁shake	-9.80184
▁prize	-9.80229
▁prophet	-9.80231
▁squirrel	-9.8026
▁angel	-9.80265
▁bound	-9.80284
▁legend	-9.80286
▁rabbit	-9.80299
▁bl	-9.80416
▁stops	-9.80643
▁herd	-9.80727
▁mud	-9.80827
▁letter	-9.81068
▁austria	-9.81079
▁discover	-9.8116
▁intend	-9.81161
▁herr	-9.81176
▁arrive	-9.81183
▁prison	-9.81298
▁motor	-9.81398
▁francis	-9.81419
▁bertrand	-9.81423
▁divorce	-9.81423
▁ebenezer	-9.81423
▁kachicka	-9.81423
▁military	-9.81423
▁negative	-9.81423
▁ocean	-9.81423
▁pompey	-9.81423
▁ragsdale	-9.81423
▁substitut	-9.81423
▁victim	-9.81423
▁license	-9.81423
▁zazu	-9.81423
▁sullivan	-9.81423
▁treasure	-9.81423
▁bernard	-9.81424
▁suellen	-9.81424
▁ponies	-9.81425
▁hubert	-9.81425
▁mattie	-9.81426
▁gorgeous	-9.81427
▁written	-9.81427
▁jackson	-9.81429
▁information	-9.81431
▁puppy	-9.81431
▁cheap	-9.81433
▁twelve	-9.81435
▁freddy	-9.81437
▁throne	-9.8144
▁colette	-9.81441
▁recognize	-9.81443
▁simulation	-9.81443
▁whoever	-9.81444
▁fbi	-9.81448
▁beef	-9.81453
▁howie	-9.81453
▁meneer	-9.81454
▁stood	-9.81462
▁farm	-9.81463
▁winner	-9.81468
▁sweetie	-9.81479
▁process	-9.8148
▁insult	-9.81487
▁glory	-9.81487
▁beach	-9.81491
▁study	-9.81492
▁minor	-9.81502
▁flies	-9.81537
▁gather	-9.8154
▁cash	-9.8156
▁aboard	-9.81571
▁distance	-9.81575
▁bully	-9.81579
▁concerned	-9.81594
▁softly	-9.81607
▁toast	-9.81607
▁kindness	-9.81612
▁bigge	-9.81631
▁spoken	-9.81658
▁troops	-9.81674
▁james	-9.81707
▁growls	-9.81716
▁y	-9.81749
▁seriously	-9.81818
▁taxi	-9.81826
▁fallen	-9.81849
▁legions	-9.81861
▁stink	-9.81881
ring	-9.81894
im	-9.81895
▁minus	-9.81967
▁goose	-9.8197
▁prayers	-9.81971
▁settled	-9.81983
▁log	-9.82088
▁flat	-9.82168
▁string	-9.82212
▁higher	-9.82227
▁customers	-9.82234
▁yells	-9.8224
▁grant	-9.8227
▁fairy	-9.82335
▁lying	-9.82365
▁cell	-9.82389
▁scaring	-9.82423
oo	-9.82482
here	-9.825
▁acting	-9.82513
▁washed	-9.82545
▁mim	-9.82562
▁roars	-9.8258
▁mountains	-9.82665
ther	-9.82686
▁rode	-9.82758
▁yah	-9.82788
▁bills	-9.82834
▁fingers	-9.82985
▁ye	-9.83013
▁boots	-9.83025
▁punch	-9.83041
ance	-9.83106
▁permit	-9.83194
▁mis	-9.83266
▁shooting	-9.83288
▁andys	-9.83342
▁ham	-9.83394
▁tricks	-9.83439
▁throwing	-9.8357
▁breaking	-9.83589
▁hardy	-9.83742
▁cab	-9.83804
▁sp	-9.83853
iary	-9.83961
▁fond	-9.83994
▁hoe	-9.84
▁weg	-9.84038
sitting	-9.84179
▁positions	-9.84206
▁wise	-9.84212
▁killing	-9.84309
▁kick	-9.84324
▁ears	-9.84785
▁woo	-9.84813
den	-9.84839
▁hip	-9.84854
▁slight	-9.84904
▁ro	-9.84979
ill	-9.84998
▁jack	-9.85255
tical	-9.85415
work	-9.85487
▁the	-9.85557
▁mm	-9.85568
▁hoped	-9.85787
▁lick	-9.85787
▁bar	-9.85787
▁knowing	-9.86023
▁spells	-9.86083
ver	-9.86115
▁eating	-9.8617
day	-9.86294
▁øøø	-9.86308
▁pe	-9.8645
▁tub	-9.86695
▁lines	-9.86757
▁pit	-9.87118
▁seed	-9.8719
▁apple	-9.87239
▁believed	-9.87298
hill	-9.87603
▁tack	-9.87711
▁cap	-9.87902
▁depend	-9.88061
▁pin	-9.88068
▁feelings	-9.88244
▁sisters	-9.88291
ical	-9.88327
▁tire	-9.88501
▁øù	-9.88611
▁tim	-9.88644
▁dor	-9.88678
▁mere	-9.88745
▁shout	-9.88823
eedle	-9.88871
ig	-9.88895
▁neigh	-9.88963
▁bride	-9.89006
itus	-9.89074
▁refuse	-9.89076
▁daughters	-9.89125
▁firm	-9.89134
▁slip	-9.89152
▁tr	-9.89156
▁highly	-9.89164
▁cloud	-9.89201
▁jongen	-9.89219
▁nation	-9.89251
▁that	-9.89264
▁occasion	-9.89302
▁mirror	-9.89303
▁consul	-9.89374
▁hornet	-9.8941
▁feather	-9.8943
co	-9.89567
ur	-9.89598
▁bike	-9.89631
▁hum	-9.89683
ap	-9.89891
▁mooi	-9.90037
gen	-9.90084
▁cow	-9.90115
ad	-9.90162
▁singer	-9.90239
▁conquer	-9.90294
▁nee	-9.90341
▁mij	-9.90344
▁blast	-9.90384
▁los	-9.90436
▁robot	-9.90497
▁centuries	-9.90514
▁equipment	-9.90514
▁fabulous	-9.90514
▁guilty	-9.90514
▁mikayla	-9.90514
▁motocross	-9.90514
▁tarshish	-9.90514
▁yzma	-9.90514
▁lassie	-9.90514
▁someplace	-9.90514
▁berlin	-9.90515
▁friedrich	-9.90515
▁throttle	-9.90515
▁invitation	-9.90515
▁reputation	-9.90515
▁among	-9.90515
▁orphanage	-9.90515
▁compassion	-9.90515
▁heinrich	-9.90516
▁revolution	-9.90516
▁uniform	-9.90516
▁modern	-9.90518
▁regard	-9.90518
▁pierre	-9.90521
▁nuhuh	-9.90523
▁judea	-9.90528
▁selden	-9.90528
▁telephone	-9.90529
▁doorbell	-9.9053
▁fiddle	-9.9053
▁splash	-9.9053
▁isis	-9.9053
▁greek	-9.90532
▁descent	-9.90536
▁tweedy	-9.90537
▁challenge	-9.90538
▁net	-9.90539
▁material	-9.9054
▁totem	-9.9054
▁device	-9.9054
▁gently	-9.90541
▁treatment	-9.90542
▁whew	-9.90542
▁groaning	-9.90544
▁freak	-9.90547
▁coast	-9.90557
▁factory	-9.90557
▁piper	-9.90561
▁tolling	-9.90568
▁pool	-9.90575
▁altair	-9.90577
▁drove	-9.90582
▁foolish	-9.90585
▁dramatic	-9.90586
▁whimpers	-9.90587
▁youth	-9.90606
▁banished	-9.90611
▁tender	-9.90615
▁iggy	-9.90628
▁bedroom	-9.90636
▁tunnel	-9.90639
▁disappeared	-9.90649
▁reasonable	-9.90662
▁corn	-9.90666
▁ashamed	-9.90668
▁murderer	-9.9067
▁scoffs	-9.90672
▁naturally	-9.90695
▁code	-9.90736
▁niks	-9.90746
▁approaching	-9.90747
▁komen	-9.90769
▁foul	-9.90799
▁poisoned	-9.90801
▁guts	-9.90802
▁inch	-9.90803
▁received	-9.9091
▁content	-9.90946
▁halt	-9.90956
▁zeg	-9.90958
▁oops	-9.90975
▁growth	-9.91001
▁completed	-9.91092
▁dave	-9.91104
▁earned	-9.91109
▁hebt	-9.91181
▁allowed	-9.91201
▁manners	-9.9122
▁pitching	-9.91233
▁jews	-9.91283
▁perfectly	-9.91297
▁burned	-9.91417
ium	-9.91518
▁sample	-9.91598
▁paw	-9.91679
▁holy	-9.91735
▁raf	-9.91833
▁pirates	-9.91838
▁deadly	-9.91847
▁rf	-9.9194
go	-9.91994
▁younger	-9.92064
▁passing	-9.92095
▁carrying	-9.9211
▁opens	-9.92121
▁dreamed	-9.92303
je	-9.92352
▁cleared	-9.92381
▁ki	-9.92404
▁nest	-9.92451
▁zoe	-9.92461
ons	-9.92544
▁dit	-9.92573
▁leading	-9.92603
▁cone	-9.92608
▁growing	-9.92665
▁sleepy	-9.92674
▁meat	-9.9294
▁souls	-9.93022
▁hu	-9.93031
▁han	-9.93165
▁butt	-9.93425
▁til	-9.93762
▁begins	-9.93776
▁paying	-9.93819
▁po	-9.9389
▁tracks	-9.94008
▁levels	-9.94256
▁opening	-9.94272
▁loyal	-9.94302
▁contract	-9.94382
▁smells	-9.9445
▁chickens	-9.94519
▁greater	-9.9468
ors	-9.94928
▁sever	-9.94963
line	-9.95175
▁lies	-9.9557
▁ugh	-9.95883
▁pre	-9.96052
ist	-9.96541
house	-9.96791
▁ad	-9.96875
▁che	-9.96917
▁bel	-9.96926
▁gra	-9.97718
▁whee	-9.97775
▁zou	-9.97835
ma	-9.97922
▁up	-9.97984
▁winds	-9.98001
▁greet	-9.98199
▁ways	-9.98392
▁sams	-9.98717
▁southern	-9.99081
▁dungeon	-9.99195
▁crime	-9.99203
▁chuck	-9.99283
▁fo	-9.99295
▁peasant	-9.99317
▁griffin	-9.9932
▁bottle	-9.99375
▁patient	-9.99405
▁el	-9.99446
▁flea	-9.99446
▁laser	-9.99449
▁chip	-9.99533
▁prisoner	-9.99568
am	-9.99661
▁tank	-9.99674
▁model	-9.99757
ball	-9.99857
▁vi	-9.99874
▁frighten	-9.99899
▁bur	-9.99954
▁roam	-10.0006
▁progress	-10.0008
▁rever	-10.001
▁germ	-10.0019
▁assume	-10.0022
▁release	-10.0022
▁require	-10.0022
▁curse	-10.0027
▁spoke	-10.0035
▁physical	-10.0038
▁monkeys	-10.0042
ta	-10.0045
▁comfort	-10.005
▁available	-10.0051
▁brilliant	-10.0051
▁capsule	-10.0051
▁cavalier	-10.0051
▁elephant	-10.0051
▁elevator	-10.0051
▁evinrude	-10.0051
▁fowler	-10.0051
▁hollywood	-10.0051
▁iedereen	-10.0051
▁jeremy	-10.0051
▁jerusalem	-10.0051
▁medusa	-10.0051
▁merciful	-10.0051
▁peculiar	-10.0051
▁roosevelt	-10.0051
▁splendid	-10.0051
▁stefan	-10.0051
▁twippo	-10.0051
▁unbelievable	-10.0051
▁advice	-10.0051
▁deputy	-10.0051
▁evidence	-10.0051
▁osono	-10.0051
▁leavitt	-10.0051
▁sneezing	-10.0051
▁audience	-10.0051
▁hurray	-10.0051
▁luigi	-10.0051
▁valuable	-10.0051
▁nephew	-10.0051
▁turkey	-10.0051
▁collins	-10.0051
▁prissy	-10.0051
▁kyle	-10.0052
▁reliable	-10.0052
▁midnight	-10.0052
▁orbit	-10.0052
▁alaska	-10.0052
▁choir	-10.0052
▁gracious	-10.0052
▁foreign	-10.0052
▁goldfish	-10.0052
▁locomotion	-10.0052
▁graham	-10.0052
▁dutton	-10.0052
▁capcom	-10.0052
▁batteries	-10.0052
▁zeggen	-10.0052
▁title	-10.0052
▁impressive	-10.0052
▁balance	-10.0052
▁hooray	-10.0052
▁romantic	-10.0052
▁guido	-10.0052
▁afford	-10.0053
▁opportunity	-10.0053
▁beware	-10.0053
▁sneak	-10.0053
▁babies	-10.0053
▁descend	-10.0053
▁item	-10.0053
▁asleep	-10.0053
▁selfish	-10.0053
▁reveal	-10.0054
▁murmuring	-10.0054
▁whimpering	-10.0054
▁giant	-10.0054
▁territory	-10.0055
▁nursery	-10.0055
▁moments	-10.0055
▁section	-10.0056
side	-10.0056
▁darkness	-10.0057
▁bloke	-10.0057
▁squire	-10.0057
▁according	-10.0057
▁sector	-10.0058
▁zelda	-10.0058
▁exhales	-10.0059
▁carrots	-10.0059
▁sonny	-10.0059
▁gaat	-10.0059
▁cabin	-10.0059
▁amount	-10.0059
▁fuss	-10.006
▁flora	-10.0062
▁winning	-10.0062
▁applauding	-10.0063
▁standard	-10.0064
▁navy	-10.0064
▁oaks	-10.0067
▁aware	-10.0067
▁arranged	-10.0068
▁expensive	-10.0068
▁barking	-10.0069
▁basket	-10.0069
▁leaf	-10.0069
▁colony	-10.007
▁weight	-10.0072
▁knight	-10.0072
▁saddle	-10.0072
▁cheat	-10.0074
▁bond	-10.0074
▁kachow	-10.0076
▁ahem	-10.0078
▁rub	-10.008
▁frog	-10.0081
▁dum	-10.0082
▁whack	-10.0082
▁sweat	-10.0087
▁degrees	-10.0092
▁howdy	-10.0095
▁roaring	-10.0097
▁biological	-10.0097
▁image	-10.0098
▁page	-10.0098
▁stronger	-10.0098
▁led	-10.0099
▁goodnight	-10.0101
▁crickets	-10.0104
▁destroyed	-10.0108
▁barn	-10.0109
▁curls	-10.0113
▁squeaking	-10.0123
▁ross	-10.013
▁pro	-10.013
▁testing	-10.0138
▁safely	-10.0149
▁american	-10.0152
▁type	-10.0157
▁rocky	-10.0161
▁prisoners	-10.0164
▁stock	-10.0166
▁bid	-10.0167
▁lately	-10.0169
through	-10.0173
▁herds	-10.0173
▁depends	-10.0173
▁bold	-10.0181
▁pulled	-10.0182
▁babe	-10.0182
▁wheel	-10.0185
▁doen	-10.0187
▁salt	-10.0198
▁actor	-10.0202
▁harder	-10.0204
▁pour	-10.0222
▁frame	-10.0232
▁beau	-10.0234
▁heh	-10.0242
▁jaw	-10.0247
son	-10.0248
▁dus	-10.0257
▁coat	-10.0262
x	-10.0266
▁odds	-10.0283
▁badly	-10.0292
▁returning	-10.0298
▁moms	-10.0302
▁ku	-10.0302
▁ignore	-10.0312
▁gear	-10.0316
▁checking	-10.0316
▁lessons	-10.0337
▁dash	-10.0354
▁pies	-10.0355
op	-10.0359
ton	-10.0359
king	-10.0371
▁rush	-10.0393
▁lied	-10.0405
head	-10.0406
▁mass	-10.0417
▁devils	-10.0419
iss	-10.0424
▁twenty	-10.0438
▁sleeping	-10.0445
▁snap	-10.0457
▁systems	-10.0461
ny	-10.0473
▁jou	-10.048
lijk	-10.0485
ro	-10.0503
▁ghosts	-10.052
how	-10.0543
▁pen	-10.0553
▁pole	-10.0553
though	-10.0554
bed	-10.0591
▁lap	-10.0604
▁heading	-10.0614
v	-10.0622
▁sho	-10.0622
▁bay	-10.0638
▁bud	-10.0664
▁rev	-10.0677
▁total	-10.0681
zal	-10.0717
▁ab	-10.074
▁waters	-10.0754
▁scan	-10.0754
▁odlay	-10.0759
▁pest	-10.0778
▁shoe	-10.0803
▁grave	-10.0837
▁speaks	-10.0845
▁mann	-10.0864
▁radiat	-10.0868
▁beep	-10.0882
bello	-10.0904
▁success	-10.0991
▁ate	-10.0993
▁sal	-10.1003
▁nobodys	-10.1037
▁list	-10.1044
▁brute	-10.1048
▁triumph	-10.1048
▁widow	-10.1049
▁ruin	-10.105
▁yell	-10.1055
▁circuit	-10.1058
▁customer	-10.1058
▁beside	-10.1062
▁tide	-10.1071
▁gate	-10.1101
▁mill	-10.1112
▁tells	-10.1125
▁sacrifice	-10.1131
▁embarrass	-10.1133
▁guarantee	-10.1134
▁disgrace	-10.1137
ss	-10.1138
▁crook	-10.1146
▁schedule	-10.1148
▁announce	-10.115
▁governess	-10.1151
▁exact	-10.1152
▁sudden	-10.1152
▁hou	-10.1158
▁harv	-10.1159
▁livin	-10.116
▁givin	-10.1161
▁transfer	-10.1162
▁alexandria	-10.1163
▁amsterdam	-10.1163
▁assistant	-10.1163
▁awesome	-10.1163
▁benhur	-10.1163
▁bernadette	-10.1163
▁codfish	-10.1163
▁effort	-10.1163
▁escort	-10.1163
▁example	-10.1163
▁explanation	-10.1163
▁extraordinary	-10.1163
▁government	-10.1163
▁grumpy	-10.1163
▁hamilton	-10.1163
▁helicopter	-10.1163
▁hudson	-10.1163
▁koichi	-10.1163
▁meacham	-10.1163
▁mekoides	-10.1163
▁rendezvous	-10.1163
▁roscuro	-10.1163
▁thunderclap	-10.1163
▁tirzah	-10.1163
▁tremendous	-10.1163
▁cbts	-10.1163
▁cotton	-10.1163
▁montana	-10.1163
▁dietrich	-10.1163
▁research	-10.1163
▁rolfe	-10.1163
▁apologize	-10.1163
▁appointment	-10.1163
▁earlier	-10.1163
▁miserable	-10.1163
▁rookie	-10.1163
▁enormous	-10.1163
▁cobbler	-10.1163
▁wrap	-10.1163
▁neighborhood	-10.1163
▁vicious	-10.1163
▁zeller	-10.1163
▁melody	-10.1163
▁quincy	-10.1163
▁marvin	-10.1163
▁dreadful	-10.1163
▁duties	-10.1163
▁generous	-10.1163
▁dickens	-10.1163
▁species	-10.1163
▁garage	-10.1163
▁wrote	-10.1163
▁performance	-10.1163
▁bosun	-10.1163
▁copies	-10.1163
▁empire	-10.1163
▁anytime	-10.1163
▁percent	-10.1163
▁countdown	-10.1164
▁liberty	-10.1164
▁laundry	-10.1164
▁pledge	-10.1164
▁positive	-10.1164
▁york	-10.1164
▁automat	-10.1164
▁reward	-10.1165
▁quinn	-10.1165
▁briny	-10.1166
▁imagination	-10.1166
▁crawl	-10.1166
▁film	-10.1166
▁marcus	-10.1166
▁feast	-10.1167
▁studio	-10.1167
▁whatre	-10.1167
▁protection	-10.1168
▁expert	-10.1168
▁limb	-10.1168
▁edel	-10.1168
▁toeses	-10.1169
▁steak	-10.1169
▁flirting	-10.1169
▁freeze	-10.1169
▁brick	-10.1169
▁receiving	-10.117
▁intelligent	-10.117
z	-10.1171
▁armies	-10.1171
▁marcel	-10.1172
▁onto	-10.1173
▁humble	-10.1174
▁vast	-10.1174
sh	-10.1176
▁halfway	-10.1177
▁deze	-10.1178
▁blaster	-10.1178
▁enchanted	-10.1178
▁mistress	-10.1179
ee	-10.1181
▁whiskers	-10.1181
▁surrounded	-10.1183
▁citizens	-10.1183
▁delighted	-10.1183
▁galleys	-10.1183
▁wagon	-10.1185
▁confirmed	-10.1186
▁button	-10.1186
▁ruined	-10.1187
▁personally	-10.1188
▁brooks	-10.1189
▁tech	-10.119
▁knob	-10.1191
▁mustard	-10.1194
▁gasping	-10.1194
▁heir	-10.1195
▁boom	-10.1196
▁writing	-10.1197
▁cheating	-10.1198
▁timon	-10.1198
▁dick	-10.1199
▁lips	-10.12
▁movin	-10.12
▁alley	-10.1203
▁healthy	-10.1204
▁changes	-10.1204
▁murdered	-10.1205
▁liar	-10.1207
▁ohhh	-10.1211
▁survived	-10.1212
▁slowly	-10.1214
▁cast	-10.1219
▁trials	-10.1221
▁witches	-10.1226
▁worn	-10.1228
▁observe	-10.1229
▁clue	-10.123
▁dude	-10.1232
▁students	-10.1234
▁conversations	-10.1235
▁dull	-10.1237
ard	-10.1242
▁delivered	-10.1243
▁forty	-10.1251
mans	-10.1259
▁loaded	-10.1262
▁honk	-10.1265
▁marked	-10.1271
▁mew	-10.1273
▁restore	-10.1283
▁balls	-10.1284
▁øùøù	-10.1287
▁beating	-10.1292
▁finest	-10.1297
▁melt	-10.1297
▁shouts	-10.1302
▁celebrate	-10.1304
▁beak	-10.1314
▁bat	-10.1326
▁scot	-10.133
▁data	-10.1332
▁toad	-10.1334
▁haal	-10.1341
▁walls	-10.1343
als	-10.1344
▁solve	-10.1347
▁peg	-10.135
ullen	-10.1366
▁tied	-10.137
▁hood	-10.1376
▁touched	-10.1378
▁willing	-10.1381
me	-10.1384
▁effect	-10.1389
▁jokes	-10.1389
▁fade	-10.139
▁cower	-10.1393
▁learning	-10.1398
▁shadows	-10.1416
▁tractor	-10.1417
▁ended	-10.1419
▁tales	-10.1424
▁career	-10.1437
▁paris	-10.1445
▁finding	-10.1451
▁rate	-10.1455
▁nau	-10.1468
▁thin	-10.1492
▁dish	-10.1498
▁magical	-10.1511
ier	-10.1514
▁opened	-10.1515
nnen	-10.1522
▁landed	-10.1531
▁players	-10.1536
▁bust	-10.1543
▁file	-10.1546
▁uit	-10.1546
▁noon	-10.1548
▁wood	-10.1623
▁rude	-10.1634
ome	-10.1676
▁connect	-10.1683
headed	-10.1691
▁beer	-10.1693
▁calls	-10.1706
ho	-10.1708
ga	-10.1718
▁closet	-10.1729
com	-10.1745
▁sink	-10.1765
▁meis	-10.1773
▁nucle	-10.1798
▁par	-10.1801
▁falls	-10.1805
▁sin	-10.1809
▁headed	-10.184
ut	-10.1848
▁lee	-10.1876
▁cancel	-10.1882
vision	-10.1884
▁loss	-10.1888
▁bobb	-10.1894
▁tot	-10.1896
ot	-10.1908
room	-10.1916
▁weed	-10.193
▁wicke	-10.1975
▁will	-10.1996
▁hon	-10.2017
▁yesm	-10.2021
▁sub	-10.2022
▁bits	-10.2046
ize	-10.2047
emand	-10.2052
ir	-10.2085
▁troubles	-10.209
huh	-10.2093
▁wee	-10.2094
▁sle	-10.2105
▁minds	-10.2116
▁ùùù	-10.2121
▁inc	-10.2123
▁bla	-10.2128
▁swim	-10.2139
ey	-10.2147
▁design	-10.2163
▁whip	-10.2173
illa	-10.22
federa	-10.2205
▁hurts	-10.222
▁wars	-10.2224
tic	-10.2227
▁robert	-10.2233
▁defend	-10.2234
▁hates	-10.2234
▁can	-10.2234
▁crow	-10.2245
▁disturb	-10.225
▁concern	-10.2261
ster	-10.2269
▁exist	-10.2272
▁houses	-10.2276
▁an	-10.2281
▁tu	-10.2291
▁rainbow	-10.2291
▁banana	-10.2291
▁clown	-10.2292
▁demand	-10.2297
▁longing	-10.2298
▁parts	-10.2298
▁ticket	-10.2302
▁folk	-10.2302
▁chime	-10.2303
▁shutter	-10.2303
▁quarter	-10.2309
▁ditch	-10.2309
board	-10.2324
▁operation	-10.2325
▁hung	-10.2328
ki	-10.2379
▁flatter	-10.2381
▁approach	-10.2381
▁monitor	-10.2383
▁focus	-10.2383
▁remove	-10.2384
▁mijn	-10.2386
▁activate	-10.2392
▁invite	-10.2392
use	-10.2392
▁chose	-10.2399
▁behave	-10.2401
air	-10.2401
▁confirm	-10.2405
▁satis	-10.2406
▁mmhm	-10.2406
▁threat	-10.2407
mm	-10.241
▁scientific	-10.2413
▁affirmative	-10.2413
▁alexander	-10.2413
▁apparently	-10.2413
▁blossom	-10.2413
▁champagne	-10.2413
▁clumsy	-10.2413
▁confident	-10.2413
▁dessert	-10.2413
▁duchess	-10.2413
▁exercise	-10.2413
▁garbitsch	-10.2413
▁irresistible	-10.2413
▁mademoiselle	-10.2413
▁maleficent	-10.2413
▁maneuver	-10.2413
▁mexico	-10.2413
▁phyllis	-10.2413
▁ptolemy	-10.2413
▁relief	-10.2413
▁rufio	-10.2413
▁spectacular	-10.2413
▁tradition	-10.2413
▁tuesday	-10.2413
▁unusual	-10.2413
▁wiedersehen	-10.2413
▁bonjour	-10.2413
▁filigree	-10.2413
▁sheenan	-10.2413
▁swift	-10.2413
▁trecorum	-10.2413
▁conclusion	-10.2413
▁affair	-10.2413
▁despair	-10.2413
▁literally	-10.2413
▁anxious	-10.2413
▁doublecross	-10.2413
▁witchcraft	-10.2413
▁conference	-10.2413
▁preacher	-10.2413
▁wealth	-10.2413
▁measure	-10.2413
▁lggins	-10.2413
▁shirt	-10.2413
▁staff	-10.2413
▁altra	-10.2413
▁seventeen	-10.2413
▁rutt	-10.2413
▁surgeon	-10.2413
▁milady	-10.2413
▁bathroom	-10.2413
▁easily	-10.2413
▁porch	-10.2413
▁alfie	-10.2413
▁digging	-10.2414
▁social	-10.2414
▁robertson	-10.2414
▁sheep	-10.2414
▁worship	-10.2414
▁whining	-10.2414
▁cruel	-10.2414
▁motto	-10.2414
▁broadway	-10.2414
▁stossel	-10.2414
▁assure	-10.2414
▁opposite	-10.2415
▁gutter	-10.2415
▁headmaster	-10.2415
▁lumber	-10.2416
▁easier	-10.2416
▁jock	-10.2416
▁cattle	-10.2416
▁butch	-10.2416
▁bunk	-10.2416
▁soap	-10.2416
▁childhood	-10.2416
▁dropping	-10.2417
▁anthill	-10.2417
▁woodsman	-10.2417
▁including	-10.2417
▁broad	-10.2418
▁planning	-10.2418
▁exhausted	-10.2418
▁hush	-10.2418
▁clanking	-10.2418
▁valve	-10.2418
▁narrow	-10.2418
▁haunted	-10.2418
▁determined	-10.2418
▁confess	-10.2418
▁original	-10.2419
▁steel	-10.2419
▁gruber	-10.2419
▁particularly	-10.242
▁wolves	-10.242
▁responsibility	-10.242
▁iets	-10.242
▁grew	-10.242
▁hammer	-10.242
▁begun	-10.2421
▁breed	-10.2421
▁torn	-10.2421
▁patch	-10.2421
▁generations	-10.2421
▁disappointed	-10.2422
▁squeals	-10.2422
▁jess	-10.2422
▁dandy	-10.2422
▁fifty	-10.2422
▁praise	-10.2422
▁risk	-10.2422
▁plum	-10.2423
▁creation	-10.2423
▁doomed	-10.2423
▁takin	-10.2423
▁taxes	-10.2423
▁greed	-10.2426
▁passion	-10.2426
▁bravery	-10.2427
▁mankind	-10.2427
▁mixed	-10.2428
▁bleeding	-10.2428
▁inches	-10.243
▁legal	-10.2432
▁carriage	-10.2433
▁cliff	-10.2434
▁fruit	-10.2434
▁motion	-10.2435
▁shining	-10.2435
▁howling	-10.2436
▁stripes	-10.2436
▁cda	-10.2437
▁unload	-10.2437
▁statue	-10.2438
▁parties	-10.2439
▁stairs	-10.244
▁saving	-10.244
▁dishes	-10.2441
▁backyard	-10.2441
▁june	-10.2442
▁passage	-10.2443
▁useless	-10.2443
▁honorable	-10.2445
▁booth	-10.2446
▁flo	-10.2446
▁alike	-10.2449
▁luke	-10.2449
▁blasted	-10.245
▁squeeze	-10.2453
▁dwell	-10.2454
▁setting	-10.2454
▁matches	-10.2455
▁daring	-10.2456
▁troopers	-10.2457
▁pigeon	-10.2459
▁mail	-10.246
▁whatd	-10.2462
▁herring	-10.2463
▁warned	-10.2463
▁chained	-10.2465
▁warriors	-10.2465
▁cutest	-10.2465
▁ranks	-10.2468
▁killer	-10.2473
▁loan	-10.2476
tten	-10.2477
▁under	-10.2479
▁boarding	-10.2479
▁scout	-10.2482
▁girlfriend	-10.2485
▁tele	-10.2488
▁keeping	-10.2488
▁aiming	-10.2493
ned	-10.2499
▁claw	-10.2503
▁lip	-10.2503
▁dood	-10.2505
▁carried	-10.2507
▁farmer	-10.251
▁chiu	-10.2515
▁operations	-10.2519
▁lane	-10.2523
blijf	-10.2523
▁racket	-10.2524
▁politic	-10.2525
▁quarters	-10.2525
▁racers	-10.2526
chi	-10.2526
▁counted	-10.2528
▁trapped	-10.2529
▁babs	-10.2535
▁stands	-10.2538
▁quietly	-10.2538
▁split	-10.254
▁cable	-10.2542
▁mc	-10.2543
▁mag	-10.2544
▁anger	-10.2544
▁prime	-10.2548
▁lend	-10.255
▁packing	-10.2562
▁hm	-10.2564
ious	-10.2566
▁feathers	-10.2567
▁nap	-10.2569
▁neighs	-10.2571
▁lordy	-10.2572
ite	-10.2574
▁ruler	-10.258
▁fangs	-10.2581
▁crate	-10.2583
▁steve	-10.2583
▁straighten	-10.2589
▁pigs	-10.2592
▁pi	-10.2592
▁tighten	-10.2604
▁wishes	-10.2604
▁painting	-10.2604
▁tense	-10.2611
▁br	-10.2621
▁earn	-10.2627
la	-10.2635
▁cu	-10.264
▁ùùø	-10.2645
dler	-10.2645
▁friendly	-10.2645
ul	-10.2656
▁angle	-10.2658
▁pic	-10.2661
▁gim	-10.2662
▁cl	-10.2682
▁delay	-10.2684
▁lean	-10.2695
▁howl	-10.2697
port	-10.2699
▁spark	-10.2702
▁ju	-10.2709
▁mayor	-10.2713
ra	-10.2731
▁kindly	-10.2759
▁pr	-10.277
▁ducks	-10.277
▁records	-10.2776
▁bags	-10.2781
bury	-10.2782
▁tend	-10.2791
lf	-10.2811
▁cock	-10.2813
▁thousands	-10.282
▁events	-10.2841
▁heer	-10.2843
▁alf	-10.2855
▁sol	-10.2872
▁idiots	-10.2874
▁caused	-10.2874
▁nail	-10.2881
▁hog	-10.2882
▁mate	-10.2911
▁ther	-10.2915
em	-10.2928
▁finds	-10.2932
▁flam	-10.2933
herefore	-10.2952
obell	-10.296
▁watched	-10.2978
▁creat	-10.2989
▁members	-10.2993
▁windows	-10.2994
▁print	-10.3007
like	-10.3011
ole	-10.3014
icked	-10.3031
▁wi	-10.3037
▁useful	-10.3038
▁pace	-10.3038
▁doors	-10.3052
▁machines	-10.3057
▁remembered	-10.306
away	-10.3066
▁bon	-10.3076
▁towns	-10.3084
our	-10.3091
▁instrumental	-10.3097
▁vote	-10.3105
▁rust	-10.3111
▁thick	-10.312
▁baa	-10.3137
ator	-10.3144
back	-10.3168
ew	-10.3174
cal	-10.3185
▁lover	-10.3217
▁becomes	-10.3237
▁deck	-10.3242
▁siren	-10.3242
▁maintain	-10.3274
▁lack	-10.3297
len	-10.3326
▁drinks	-10.3333
league	-10.3344
▁flop	-10.3347
▁øùø	-10.3362
▁sat	-10.3382
▁seni	-10.3385
▁comment	-10.3394
▁lu	-10.3398
ac	-10.3415
▁nah	-10.3449
▁breaks	-10.3477
▁rip	-10.3477
▁hearing	-10.3478
ia	-10.3489
ogee	-10.349
▁she	-10.3494
▁trans	-10.3503
▁sla	-10.3516
▁zee	-10.352
da	-10.3521
▁america	-10.3535
▁fed	-10.3538
down	-10.3538
face	-10.3567
let	-10.3569
▁riches	-10.357
▁spir	-10.3594
▁para	-10.3609
▁sigh	-10.3611
▁meer	-10.3615
born	-10.3622
▁birdie	-10.3624
ess	-10.3634
of	-10.3665
▁sex	-10.3669
▁closes	-10.3679
▁lit	-10.368
▁eens	-10.3681
year	-10.3684
ade	-10.3692
yard	-10.3703
▁gasp	-10.3707
vy	-10.3717
▁subject	-10.3721
▁chocolate	-10.3724
▁helmet	-10.3726
▁criminal	-10.3727
▁flip	-10.3728
▁grasshopper	-10.3733
▁tony	-10.3737
▁bull	-10.3744
▁rug	-10.3748
▁direction	-10.3755
▁bowl	-10.376
▁whi	-10.3766
▁saint	-10.3766
▁bridge	-10.3766
▁fail	-10.3772
▁manner	-10.3773
▁kijk	-10.3781
▁au	-10.379
▁brew	-10.379
▁jew	-10.3796
▁shock	-10.3801
▁resist	-10.3803
▁strain	-10.3805
▁kun	-10.3807
▁europe	-10.3808
▁request	-10.3813
▁surround	-10.3815
▁fro	-10.3818
▁pat	-10.3819
▁delight	-10.3821
ark	-10.3822
▁instant	-10.383
▁improve	-10.3832
▁absolute	-10.3833
▁scratch	-10.3834
▁peaceful	-10.3835
▁slink	-10.3839
▁advance	-10.3841
▁arthur	-10.3841
▁assault	-10.3841
▁astoroth	-10.3841
▁atmosphere	-10.3841
▁barbecue	-10.3841
▁competition	-10.3841
▁conflict	-10.3841
▁corridor	-10.3841
▁enemies	-10.3841
▁flavius	-10.3841
▁footsteps	-10.3841
▁fozziwig	-10.3841
▁galaxy	-10.3841
▁ghetto	-10.3841
▁gypsy	-10.3841
▁headquarters	-10.3841
▁incorporated	-10.3841
▁instinct	-10.3841
▁manuscript	-10.3841
▁nazareth	-10.3841
▁nevertheless	-10.3841
▁patience	-10.3841
▁schraeder	-10.3841
▁scrawny	-10.3841
▁shipshape	-10.3841
▁subconscious	-10.3841
▁timothy	-10.3841
▁voyage	-10.3841
▁excitement	-10.3841
▁families	-10.3841
▁sandwich	-10.3841
▁shrimp	-10.3841
▁tijd	-10.3841
▁behavior	-10.3841
▁lorri	-10.3841
▁quimby	-10.3841
▁wisdom	-10.3841
▁ostrich	-10.3841
▁bargain	-10.3841
▁instance	-10.3841
▁occupied	-10.3841
▁remote	-10.3841
▁tulio	-10.3841
▁grief	-10.3841
▁chinese	-10.3841
▁coughing	-10.3841
▁medicine	-10.3841
▁retire	-10.3841
▁facility	-10.3841
▁shelter	-10.3841
▁interstate	-10.3841
▁novak	-10.3841
▁mystery	-10.3841
▁barbershop	-10.3841
▁groove	-10.3841
▁masseur	-10.3841
▁christine	-10.3841
▁disaster	-10.3841
▁crunch	-10.3841
▁beatrice	-10.3841
▁israel	-10.3841
▁presence	-10.3841
▁socalled	-10.3841
▁sarah	-10.3841
▁target	-10.3841
▁element	-10.3841
▁cloak	-10.3841
▁merryweather	-10.3841
▁berries	-10.3841
▁tiara	-10.3841
▁achillas	-10.3842
▁display	-10.3842
▁hmph	-10.3842
▁googley	-10.3842
▁plastic	-10.3842
▁eww	-10.3842
▁grandfather	-10.3842
▁memories	-10.3842
▁mexican	-10.3842
▁simpson	-10.3842
▁beloved	-10.3842
▁attend	-10.3842
▁occurred	-10.3842
▁barber	-10.3842
▁lsland	-10.3842
▁vooruit	-10.3842
▁humming	-10.3842
▁liftoff	-10.3842
▁wailing	-10.3842
▁kelly	-10.3843
▁urgent	-10.3843
▁altitude	-10.3843
▁bakery	-10.3843
▁susan	-10.3843
▁samba	-10.3843
▁cosmo	-10.3843
▁compete	-10.3843
▁greta	-10.3843
▁hynky	-10.3843
▁strict	-10.3843
▁contaminated	-10.3844
▁quest	-10.3844
▁foam	-10.3844
▁terminated	-10.3844
▁jewish	-10.3844
▁recently	-10.3844
▁daresay	-10.3844
▁cutoff	-10.3844
▁glance	-10.3844
▁junk	-10.3844
▁impression	-10.3845
▁straw	-10.3845
▁mommy	-10.3845
▁awhile	-10.3845
▁bacon	-10.3845
▁behold	-10.3845
▁dummy	-10.3846
▁chef	-10.3846
▁malone	-10.3846
▁flock	-10.3846
▁jeep	-10.3847
▁happily	-10.3848
▁leather	-10.3848
▁lazy	-10.3848
▁denk	-10.3848
▁practically	-10.3849
▁accused	-10.3849
▁apartment	-10.385
▁reference	-10.3851
belerephon	-10.3851
minded	-10.3853
▁delta	-10.3853
▁universe	-10.3854
▁squash	-10.3854
▁curl	-10.3855
▁dinnertime	-10.3855
▁mooing	-10.3857
▁cease	-10.3858
▁sequence	-10.3859
▁bonus	-10.3859
▁boring	-10.386
▁household	-10.3861
ving	-10.3861
▁sensitive	-10.3861
▁thump	-10.3861
▁fuel	-10.3862
▁stopping	-10.3862
▁betray	-10.3863
▁attractive	-10.3865
▁cutting	-10.3865
▁market	-10.3865
▁electronic	-10.3865
▁potatoes	-10.3865
▁forgetting	-10.3866
▁thieves	-10.3866
▁wounded	-10.3866
▁witness	-10.3867
▁cuff	-10.3867
▁results	-10.3868
▁culture	-10.3868
▁pouring	-10.3872
ent	-10.3874
berry	-10.3876
▁hur	-10.3876
▁hitting	-10.3876
▁heartless	-10.3877
▁fireman	-10.3877
▁owl	-10.388
▁fourth	-10.388
▁drone	-10.3882
▁oars	-10.3883
▁zorg	-10.3883
▁booster	-10.3884
▁brakes	-10.3884
▁weapons	-10.3885
▁drown	-10.3886
▁honestly	-10.3889
▁hup	-10.3889
▁romero	-10.389
▁zien	-10.3891
▁reached	-10.3891
▁designed	-10.3898
▁superb	-10.39
▁louder	-10.3901
▁neighbors	-10.3903
national	-10.3904
▁brand	-10.3905
ld	-10.3905
traffic	-10.3906
▁profit	-10.3906
▁salute	-10.3907
▁beans	-10.3907
▁unkind	-10.3908
▁shore	-10.3911
▁manager	-10.3911
▁lifetime	-10.3913
▁oof	-10.3914
stone	-10.3916
▁crashing	-10.3916
▁hart	-10.3921
▁camping	-10.3923
▁thankful	-10.3924
li	-10.3924
▁sensation	-10.3928
▁racer	-10.393
▁considered	-10.393
▁fleet	-10.3931
▁dresses	-10.3933
▁nala	-10.3936
▁talents	-10.3936
▁communications	-10.3936
▁haze	-10.3937
▁pudding	-10.3939
▁thus	-10.394
▁blink	-10.394
▁recorded	-10.3942
▁passes	-10.3944
▁twisty	-10.3945
▁peas	-10.3949
▁mount	-10.3951
▁ka	-10.3953
▁thread	-10.3953
▁schat	-10.3954
▁attacked	-10.3955
▁vind	-10.3956
▁all	-10.3956
▁laid	-10.3957
▁exception	-10.3957
▁kaa	-10.396
▁quicker	-10.3962
▁rumor	-10.3966
▁touches	-10.3967
▁goede	-10.3971
▁exists	-10.3971
▁coin	-10.3973
▁bonds	-10.3978
▁pushing	-10.3979
ner	-10.3982
▁needle	-10.3984
▁marc	-10.3986
▁bein	-10.399
▁visiting	-10.3992
▁belonged	-10.3992
▁ability	-10.3993
▁voil	-10.3996
▁goat	-10.4
▁armed	-10.4004
▁jumping	-10.4005
▁ag	-10.4021
▁permits	-10.4022
▁bump	-10.4031
▁heels	-10.4032
▁angels	-10.4037
▁posts	-10.4037
▁pine	-10.4039
regular	-10.4041
▁stretch	-10.4042
uddy	-10.4053
▁ordered	-10.4057
pen	-10.4066
▁dared	-10.4067
nd	-10.407
▁kissing	-10.4074
▁pops	-10.4075
▁pur	-10.4078
▁slaves	-10.4078
▁successful	-10.4086
▁conditions	-10.4092
▁jamie	-10.4094
▁relations	-10.4102
▁blocks	-10.4103
▁dong	-10.4105
▁starve	-10.4106
lousy	-10.4117
nny	-10.412
▁fore	-10.412
▁pas	-10.4129
▁wit	-10.4136
dee	-10.4138
▁shy	-10.4139
▁talks	-10.4143
▁anti	-10.4158
▁movies	-10.4158
▁amuse	-10.4196
▁flow	-10.4207
▁tests	-10.4213
▁fake	-10.4216
▁officers	-10.4217
▁towel	-10.422
ats	-10.4221
acres	-10.4235
▁nicely	-10.4242
ung	-10.4258
▁lone	-10.4258
▁compare	-10.4267
▁ending	-10.4271
▁unit	-10.4281
▁hurting	-10.4291
▁mor	-10.4306
▁bro	-10.433
▁hundreds	-10.4333
▁motorcycles	-10.4353
▁su	-10.4355
▁deed	-10.4362
▁yay	-10.4376
beat	-10.4393
▁tape	-10.4397
▁faces	-10.4413
sa	-10.4423
enry	-10.443
▁zon	-10.4445
▁marks	-10.4449
▁ohoh	-10.4453
▁wishing	-10.4461
▁roads	-10.4461
▁cr	-10.4464
▁gown	-10.4474
▁swords	-10.4478
▁fe	-10.4493
▁tube	-10.4502
▁pu	-10.4506
▁cloth	-10.4532
▁sw	-10.4534
ake	-10.4577
▁worrying	-10.4582
▁reasons	-10.4598
coming	-10.4609
▁thy	-10.4613
▁fu	-10.4634
▁pt	-10.464
off	-10.4646
▁historic	-10.4647
eel	-10.4657
os	-10.467
he	-10.4672
▁plot	-10.4697
▁sire	-10.4698
▁thinkin	-10.4701
▁twin	-10.4708
▁don	-10.472
▁core	-10.4723
po	-10.4733
▁scur	-10.4752
res	-10.4762
▁adventures	-10.4764
ay	-10.4784
▁suns	-10.4788
▁mcqueens	-10.4798
new	-10.4799
▁dim	-10.4802
▁web	-10.4806
ba	-10.4807
▁member	-10.481
▁presents	-10.4814
▁shots	-10.4815
more	-10.4816
▁gal	-10.4845
▁rob	-10.4858
iler	-10.4859
▁ni	-10.4868
▁signs	-10.489
stly	-10.4901
▁eve	-10.4905
▁heck	-10.4906
▁chat	-10.4907
bit	-10.4944
▁sings	-10.4953
ern	-10.4961
▁wretch	-10.4963
les	-10.4976
ile	-10.498
▁ru	-10.4993
▁flap	-10.5029
ished	-10.504
▁admira	-10.5052
ure	-10.5065
ated	-10.5067
cy	-10.5074
life	-10.5074
ery	-10.5076
▁wo	-10.5082
ha	-10.5094
chemistry	-10.5121
▁cam	-10.5129
▁era	-10.5144
▁mustang	-10.5149
come	-10.5172
▁mala	-10.5178
ùùùø	-10.5182
▁ùøø	-10.5183
▁cad	-10.5183
ably	-10.5186
▁unh	-10.5194
▁gene	-10.5194
elijk	-10.5204
▁den	-10.5209
ions	-10.5211
▁blues	-10.5214
▁mak	-10.5229
ise	-10.5248
ence	-10.5259
free	-10.5268
hood	-10.5283
▁perform	-10.5284
class	-10.5286
▁disappear	-10.532
▁pea	-10.5328
▁chum	-10.5329
▁complain	-10.5355
▁detail	-10.5367
▁nightmare	-10.5374
▁rascal	-10.5374
you	-10.5376
▁talent	-10.5379
▁hob	-10.5379
▁wound	-10.5379
▁incident	-10.5382
een	-10.5384
▁director	-10.5384
ped	-10.5386
▁dedicate	-10.5387
eyed	-10.5387
▁monday	-10.5387
▁sc	-10.5387
▁volunteer	-10.539
▁watling	-10.5392
▁goal	-10.5392
▁cheetah	-10.5393
▁nerve	-10.5394
▁scientist	-10.5395
▁snake	-10.5396
▁communication	-10.5397
▁conversation	-10.5398
▁student	-10.54
▁sport	-10.5401
▁classic	-10.5407
▁indicate	-10.5419
der	-10.5423
cat	-10.5426
ping	-10.5427
▁prayer	-10.5435
▁inform	-10.5458
▁mode	-10.5465
▁brat	-10.5465
▁brief	-10.5466
▁arrange	-10.5468
▁gleam	-10.5471
▁kinds	-10.5471
▁whisper	-10.5475
▁succeed	-10.5476
shes	-10.5476
▁convince	-10.5477
▁screw	-10.5479
▁vo	-10.5479
▁capture	-10.5479
▁breng	-10.548
▁scrap	-10.5482
▁develop	-10.5482
▁provide	-10.5483
▁recommend	-10.5488
▁draft	-10.5491
▁frau	-10.5495
▁hel	-10.5496
▁obvious	-10.5496
▁declare	-10.5497
▁replace	-10.55
▁profession	-10.5501
▁dancin	-10.5503
▁squaw	-10.5503
▁belt	-10.5504
▁baghee	-10.5507
▁basic	-10.5507
▁condemn	-10.5508
▁adieu	-10.5508
▁analysis	-10.5508
▁antenna	-10.5508
▁apollodorus	-10.5508
▁approval	-10.5508
▁betrothed	-10.5508
▁cafeteria	-10.5508
▁cetera	-10.5508
▁charizard	-10.5508
▁chimney	-10.5508
▁conduct	-10.5508
▁cuckoo	-10.5508
▁discipline	-10.5508
▁district	-10.5508
▁ghastly	-10.5508
▁gyarados	-10.5508
▁hungarian	-10.5508
▁influence	-10.5508
▁initial	-10.5508
▁interview	-10.5508
▁khalil	-10.5508
▁kindergarten	-10.5508
▁kurosuke	-10.5508
▁librarian	-10.5508
▁lngrid	-10.5508
▁maatje	-10.5508
▁mechanism	-10.5508
▁merchant	-10.5508
▁muzzle	-10.5508
▁naboombu	-10.5508
▁npdv	-10.5508
▁residence	-10.5508
▁rhyme	-10.5508
▁rusteze	-10.5508
▁satellite	-10.5508
▁shrieking	-10.5508
▁spanish	-10.5508
▁spectators	-10.5508
▁tragedy	-10.5508
▁umbrella	-10.5508
▁underneath	-10.5508
▁velocity	-10.5508
▁vengeance	-10.5508
▁warfare	-10.5508
▁charlotte	-10.5508
▁downstairs	-10.5508
▁mysteries	-10.5508
▁mysterious	-10.5508
▁ascot	-10.5508
▁francois	-10.5508
▁instructions	-10.5508
▁tampa	-10.5508
▁happier	-10.5508
▁savvy	-10.5508
▁crisis	-10.5508
▁leroy	-10.5508
▁opinion	-10.5508
▁inheritance	-10.5508
▁insane	-10.5508
▁jessica	-10.5508
▁yikes	-10.5508
▁structure	-10.5508
▁toilet	-10.5508
▁current	-10.5508
▁outfit	-10.5508
▁garlic	-10.5508
▁thorough	-10.5508
▁inspiration	-10.5508
▁lumiere	-10.5508
▁vendor	-10.5508
▁cottage	-10.5508
▁terug	-10.5508
▁eager	-10.5508
▁transmission	-10.5508
▁attitude	-10.5508
▁contrary	-10.5508
▁saloon	-10.5508
▁strife	-10.5508
▁sentiment	-10.5508
▁whisky	-10.5508
▁coughs	-10.5508
▁cradle	-10.5508
▁mittens	-10.5508
▁praten	-10.5508
▁hawkins	-10.5508
▁adorable	-10.5508
▁intense	-10.5508
▁moonbeam	-10.5508
▁manchek	-10.5508
▁goatherd	-10.5508
▁honeymoon	-10.5508
▁entrance	-10.5508
▁tanana	-10.5508
▁grammar	-10.5508
▁squish	-10.5508
▁stroke	-10.5508
▁bodies	-10.5508
▁fifteen	-10.5508
▁louie	-10.5508
▁scramble	-10.5508
▁kidnap	-10.5508
▁nigel	-10.5508
▁looney	-10.5508
▁private	-10.5508
▁freezing	-10.5508
▁copper	-10.5508
kuro	-10.5509
▁worries	-10.5509
▁meself	-10.5509
▁landmark	-10.5509
▁despise	-10.5509
▁disgusting	-10.5509
▁capital	-10.5509
▁layeeo	-10.5509
▁misery	-10.5509
▁behalf	-10.5509
▁laydeeodlay	-10.5509
▁upside	-10.5509
▁juliet	-10.5509
▁coils	-10.5509
▁delightful	-10.5509
▁cowboy	-10.5509
▁estate	-10.5509
▁dignity	-10.5509
▁blimey	-10.551
▁flesh	-10.551
▁unhappy	-10.551
▁ferry	-10.551
▁disease	-10.551
▁georgia	-10.551
▁colour	-10.551
▁unknown	-10.551
▁buggy	-10.5511
▁rosie	-10.5511
▁screech	-10.5511
▁speakeasy	-10.5511
▁horseshoe	-10.5511
▁relative	-10.5511
▁hidden	-10.5511
▁scrub	-10.5511
▁roz	-10.5511
▁football	-10.5512
▁purse	-10.5512
▁hitler	-10.5512
▁publicity	-10.5512
▁unfortunately	-10.5512
▁spaceship	-10.5512
▁hilltop	-10.5512
▁rubber	-10.5513
▁series	-10.5513
▁soso	-10.5513
▁molest	-10.5514
▁blend	-10.5514
▁carpet	-10.5514
▁spiller	-10.5514
▁entry	-10.5514
▁frown	-10.5515
▁admitted	-10.5515
▁starving	-10.5515
manship	-10.5515
▁desk	-10.5515
▁oven	-10.5516
▁kanta	-10.5516
▁engaged	-10.5516
▁rising	-10.5516
▁value	-10.5516
▁timid	-10.5517
▁nero	-10.5517
▁geese	-10.5517
▁gravity	-10.5517
▁analyze	-10.5518
▁squad	-10.5518
▁auntie	-10.5519
▁rapid	-10.5519
▁expenses	-10.5519
▁sneads	-10.552
▁presentation	-10.552
▁gravy	-10.552
▁staging	-10.552
▁recovery	-10.552
▁colts	-10.552
▁wilson	-10.5521
▁clicking	-10.5521
▁tegen	-10.5522
▁glue	-10.5522
▁alleluia	-10.5522
▁creative	-10.5522
▁weave	-10.5522
▁heave	-10.5523
▁arrow	-10.5523
▁agreement	-10.5524
▁cries	-10.5525
▁sealed	-10.5525
▁ladder	-10.5526
▁intention	-10.5527
▁thrilled	-10.5528
▁kiddo	-10.5528
▁scope	-10.5529
▁clanging	-10.553
▁roberta	-10.553
▁zoo	-10.5531
▁tooth	-10.5531
▁beaver	-10.5531
▁sta	-10.5533
▁believing	-10.5533
▁rumbling	-10.5534
justice	-10.5535
▁mask	-10.5535
▁birth	-10.5536
▁jelly	-10.5536
▁dancer	-10.5537
▁performed	-10.5537
▁powder	-10.5537
▁soaked	-10.5538
▁rally	-10.5538
▁rattles	-10.5539
▁provided	-10.5539
▁caper	-10.554
▁onions	-10.554
▁candle	-10.5541
▁hags	-10.5541
▁shant	-10.5542
▁visitors	-10.5542
▁jeff	-10.5543
▁failed	-10.5543
▁connected	-10.5543
▁makin	-10.5544
▁modest	-10.5544
▁critic	-10.5545
▁busted	-10.5547
▁sixty	-10.5548
▁gaan	-10.5549
▁guaranteed	-10.5552
▁smack	-10.5555
▁forth	-10.5555
▁wearin	-10.5556
▁juda	-10.5556
▁zwar	-10.5556
▁barge	-10.5558
▁hired	-10.556
▁awaits	-10.556
▁butter	-10.556
▁knuckles	-10.556
▁neat	-10.5561
▁stable	-10.5562
▁frankly	-10.5562
▁jessie	-10.5563
▁refused	-10.5563
▁added	-10.5565
▁glasses	-10.5566
▁steam	-10.5566
▁anne	-10.5567
▁youngster	-10.5567
▁tools	-10.557
▁farman	-10.5571
upper	-10.5573
▁bald	-10.5574
▁mares	-10.5576
▁entirely	-10.5576
▁plank	-10.5577
▁austrian	-10.558
ppy	-10.558
weet	-10.5585
▁changing	-10.5588
▁frightful	-10.5589
▁deny	-10.559
▁dna	-10.5591
▁cents	-10.5593
▁treaty	-10.5593
▁shortly	-10.5597
▁hawke	-10.5598
▁warning	-10.5601
▁privileges	-10.5601
▁leven	-10.5601
▁searched	-10.5602
▁cracking	-10.5605
▁walkin	-10.5607
▁accounting	-10.561
▁borrowing	-10.561
▁brats	-10.5611
▁shin	-10.5612
▁treated	-10.5613
▁honesty	-10.5614
▁bubble	-10.5615
▁kisses	-10.5616
▁fuse	-10.562
▁ashes	-10.562
▁served	-10.562
▁scientists	-10.5622
▁details	-10.5622
▁ohio	-10.5633
▁stake	-10.5636
boiled	-10.5638
ings	-10.5641
▁proceeding	-10.5642
▁bacteria	-10.5643
▁directions	-10.5643
▁enjoyed	-10.5645
▁off	-10.5646
▁waited	-10.5648
▁chin	-10.5655
▁wij	-10.5656
▁encourage	-10.5659
▁damned	-10.5661
▁tickets	-10.5662
▁press	-10.5665
▁rolling	-10.5667
rain	-10.5668
▁clearly	-10.5672
▁caus	-10.5678
▁longest	-10.5678
▁agreed	-10.5679
▁tis	-10.568
▁invade	-10.5686
▁shave	-10.5687
▁jehos	-10.5695
▁paws	-10.5695
▁timing	-10.5699
▁patients	-10.5702
▁worthy	-10.5702
▁wax	-10.5703
▁romeo	-10.5709
▁mist	-10.5715
▁detect	-10.5724
▁bri	-10.5726
▁non	-10.5727
lic	-10.5731
▁apples	-10.5732
▁fold	-10.5733
sp	-10.5734
▁gap	-10.5748
▁singers	-10.5748
▁cc	-10.5748
▁wondered	-10.5755
ically	-10.5757
▁reporting	-10.5757
▁letters	-10.5759
▁tax	-10.5764
zz	-10.5765
▁senators	-10.5766
ities	-10.5774
▁dame	-10.5778
▁qualit	-10.5782
▁pretties	-10.5787
▁questioning	-10.5792
▁strangers	-10.5801
gum	-10.5805
▁signed	-10.5809
ù	-10.5809
▁jer	-10.5822
ko	-10.5824
▁indians	-10.5824
▁zul	-10.5826
▁chooses	-10.5826
▁reporter	-10.5828
▁reminds	-10.5829
cent	-10.5834
▁joint	-10.5838
▁missus	-10.5842
ello	-10.5846
▁desire	-10.5846
▁deserves	-10.5848
▁shade	-10.5852
▁beautifully	-10.5853
▁clones	-10.5855
▁ùøù	-10.5869
▁dip	-10.5874
▁natures	-10.5877
eval	-10.5879
▁hen	-10.5881
▁chi	-10.5887
▁checked	-10.589
▁kn	-10.5893
▁jobs	-10.5897
▁shower	-10.5898
ler	-10.59
▁tastes	-10.5906
▁cards	-10.5908
▁banks	-10.5911
lapping	-10.5923
▁boost	-10.5928
ational	-10.5938
▁faithful	-10.5943
▁stack	-10.5947
▁trade	-10.5954
▁gr	-10.5956
▁ap	-10.5959
▁ùùùù	-10.5963
▁colors	-10.5965
▁onder	-10.5977
▁chest	-10.598
▁hiss	-10.5982
▁rolls	-10.5986
▁cave	-10.5989
▁corners	-10.5998
▁whistles	-10.6006
just	-10.6028
▁pile	-10.6028
if	-10.6039
▁guests	-10.6045
▁nut	-10.6053
▁stations	-10.6061
▁suits	-10.6061
▁thee	-10.6064
▁handy	-10.6066
▁worker	-10.6073
▁guards	-10.6076
▁holes	-10.6077
ating	-10.6089
get	-10.6104
uh	-10.6108
▁tilling	-10.6109
racket	-10.6118
▁photograph	-10.612
obeyed	-10.6122
▁pod	-10.6159
ham	-10.6163
dual	-10.6174
▁hoor	-10.6176
its	-10.6203
▁grim	-10.6206
ell	-10.6208
▁wordt	-10.6219
ken	-10.6223
ations	-10.6224
▁liver	-10.623
▁crust	-10.6242
▁radi	-10.6262
▁ko	-10.6264
▁sour	-10.6268
ps	-10.6276
▁franc	-10.6277
▁whoop	-10.6279
▁sayin	-10.6283
ior	-10.6313
▁brit	-10.6317
▁produce	-10.6333
tin	-10.6337
▁mellys	-10.6357
▁smiles	-10.6371
boord	-10.6378
▁distan	-10.6386
▁fashion	-10.6386
▁absen	-10.64
▁wimp	-10.6402
▁meetings	-10.6403
ijf	-10.6415
▁lun	-10.6426
▁micro	-10.6429
▁boos	-10.6431
▁crystal	-10.6437
▁rear	-10.6446
ii	-10.6465
mate	-10.6496
▁boil	-10.65
▁what	-10.6506
▁doctors	-10.653
ual	-10.6545
▁rely	-10.6547
▁anyways	-10.6554
gal	-10.6563
val	-10.6564
▁creak	-10.6567
ri	-10.6591
▁bake	-10.6601
▁operate	-10.6613
ans	-10.6614
▁organ	-10.6619
▁bee	-10.6666
▁drops	-10.6688
bs	-10.6703
▁babys	-10.6712
ssy	-10.672
former	-10.6724
▁cate	-10.6724
dig	-10.6728
uch	-10.6732
onder	-10.6733
▁fir	-10.675
▁masters	-10.6756
▁understanding	-10.6757
▁tent	-10.6777
▁mon	-10.6777
▁slop	-10.6791
▁mop	-10.6798
▁deaths	-10.6802
▁utter	-10.6811
▁hay	-10.6846
▁voices	-10.6857
▁fla	-10.6868
▁rains	-10.6878
tled	-10.6899
▁fights	-10.6901
iness	-10.6916
ummy	-10.6936
ook	-10.6948
▁gl	-10.6952
▁bend	-10.6958
▁cos	-10.6962
▁seldo	-10.6982
ied	-10.6982
▁cart	-10.6995
zy	-10.7001
▁commission	-10.7035
▁this	-10.7042
covered	-10.7043
▁rox	-10.706
▁gu	-10.7081
▁zit	-10.7087
phone	-10.7093
▁holds	-10.7099
nder	-10.7107
▁stew	-10.7112
ron	-10.7114
▁slam	-10.7118
eth	-10.712
aphat	-10.7123
▁bucks	-10.7148
▁ble	-10.7159
oh	-10.7207
▁prices	-10.7215
rious	-10.7221
▁knee	-10.7243
aving	-10.725
book	-10.7266
▁muff	-10.7273
▁zei	-10.7274
nc	-10.7287
▁ri	-10.7291
ward	-10.7292
▁auto	-10.7294
▁ellen	-10.7315
▁yodel	-10.7315
drops	-10.7318
▁tra	-10.7324
▁sn	-10.7324
ability	-10.7336
ney	-10.734
▁trace	-10.7346
▁skip	-10.7353
ame	-10.7372
▁substation	-10.7373
▁ke	-10.7381
▁bucket	-10.7385
▁benefit	-10.7385
▁curtain	-10.7385
▁ribbon	-10.7386
▁invention	-10.7387
▁emba	-10.7387
▁crocodile	-10.739
▁summon	-10.7391
▁spider	-10.7391
▁muscle	-10.7394
▁privilege	-10.7395
▁ambition	-10.7396
▁astronaut	-10.74
▁pattern	-10.7401
▁cricket	-10.7402
▁legion	-10.7411
law	-10.7414
▁enchant	-10.7419
▁trial	-10.7419
tel	-10.7424
▁glove	-10.7426
▁deca	-10.7432
ever	-10.7437
▁geld	-10.744
ology	-10.7446
▁thrill	-10.7449
▁tw	-10.7451
▁bum	-10.7461
tting	-10.7463
▁entertain	-10.7467
ots	-10.7467
▁register	-10.7478
▁crush	-10.748
▁punish	-10.7481
▁dismiss	-10.7483
▁rod	-10.7491
▁waltz	-10.7494
▁practical	-10.7496
▁particular	-10.7496
▁jun	-10.7498
▁yahoo	-10.7498
▁trainer	-10.7499
▁grub	-10.7499
▁spittin	-10.7501
▁fittin	-10.7501
▁joyful	-10.7502
▁mechanic	-10.7502
▁secure	-10.7504
▁kiddin	-10.7504
▁racin	-10.7505
unty	-10.7505
▁runnin	-10.7505
▁cannon	-10.7507
▁corona	-10.7507
▁shinin	-10.7507
▁philip	-10.7507
▁favour	-10.7508
▁abominable	-10.7508
▁academy	-10.7508
▁asparagus	-10.7508
▁autopsy	-10.7508
▁autumn	-10.7508
▁ballpark	-10.7508
▁balthasar	-10.7508
▁bathtub	-10.7508
▁bemanning	-10.7508
▁blackguard	-10.7508
▁blueberries	-10.7508
▁buffalo	-10.7508
▁decontamination	-10.7508
▁dynamite	-10.7508
▁epstein	-10.7508
▁expedition	-10.7508
▁eynsfordhill	-10.7508
▁fernando	-10.7508
▁furlough	-10.7508
▁genoeg	-10.7508
▁geweest	-10.7508
▁hofstedder	-10.7508
▁impatient	-10.7508
▁jaeckel	-10.7508
▁jettison	-10.7508
▁kusakabe	-10.7508
▁ludwig	-10.7508
▁magazine	-10.7508
▁maurice	-10.7508
▁minnesota	-10.7508
▁nitwit	-10.7508
▁nuisance	-10.7508
▁orchestra	-10.7508
▁poppycock	-10.7508
▁pothinus	-10.7508
▁razor	-10.7508
▁recollect	-10.7508
▁restaurant	-10.7508
▁rheinburg	-10.7508
▁strategy	-10.7508
▁subtitle	-10.7508
▁suicide	-10.7508
▁symbol	-10.7508
▁technique	-10.7508
▁teenager	-10.7508
▁tweettweet	-10.7508
▁vienna	-10.7508
▁aldana	-10.7508
▁alphabet	-10.7508
▁antioch	-10.7508
▁doobee	-10.7508
▁schmoopsiepoo	-10.7508
▁sponsor	-10.7508
▁stadium	-10.7508
▁unexpected	-10.7508
▁headache	-10.7508
▁mammoth	-10.7508
▁practicing	-10.7508
▁rattling	-10.7508
▁sausage	-10.7508
▁average	-10.7508
▁klaar	-10.7508
▁shawl	-10.7508
▁skumps	-10.7508
▁canyon	-10.7508
▁cigarette	-10.7508
▁dummies	-10.7508
▁forecast	-10.7508
▁hydrogen	-10.7508
▁routine	-10.7508
▁breeze	-10.7508
▁paradise	-10.7508
▁pawprint	-10.7508
▁formula	-10.7508
▁gossip	-10.7508
▁precies	-10.7508
▁bessie	-10.7508
▁offense	-10.7508
▁antares	-10.7508
▁departure	-10.7508
▁typical	-10.7508
▁intercept	-10.7508
▁lemonade	-10.7508
▁independent	-10.7508
▁chivalry	-10.7508
▁method	-10.7508
▁console	-10.7508
▁virginia	-10.7508
▁resume	-10.7508
▁argue	-10.7508
▁pedro	-10.7508
▁rufus	-10.7508
▁violence	-10.7508
▁frozen	-10.7508
▁jiminy	-10.7508
▁humbug	-10.7508
▁pavement	-10.7508
▁rifle	-10.7508
▁terrain	-10.7508
▁blimp	-10.7508
▁temperature	-10.7508
▁harmony	-10.7508
▁drift	-10.7508
▁katie	-10.7508
▁puddle	-10.7508
▁strawberry	-10.7508
▁darrell	-10.7508
▁delicate	-10.7508
▁advisor	-10.7508
▁matchmouth	-10.7508
▁japan	-10.7508
▁friday	-10.7508
▁chariot	-10.7508
▁gym	-10.7508
▁dowry	-10.7508
▁lizard	-10.7508
▁plaque	-10.7508
▁terror	-10.7508
▁pumpkin	-10.7508
▁fauna	-10.7508
▁lepers	-10.7508
▁banner	-10.7508
▁chiming	-10.7508
▁kidnapped	-10.7509
▁kidnapping	-10.7509
▁false	-10.7509
▁irish	-10.7509
▁length	-10.7509
▁repair	-10.7509
▁authority	-10.7509
▁hampshire	-10.7509
▁stream	-10.7509
▁failure	-10.7509
▁hurricane	-10.7509
▁judgment	-10.7509
▁chestnut	-10.7509
▁soaring	-10.7509
▁bruce	-10.7509
▁violent	-10.7509
▁education	-10.7509
▁sterno	-10.7509
▁production	-10.7509
▁bungl	-10.7509
▁howre	-10.7509
▁appearance	-10.7509
▁gloom	-10.7509
▁oldfashioned	-10.751
▁shelf	-10.751
▁wander	-10.751
▁extend	-10.751
▁spinning	-10.751
▁harness	-10.751
▁assignment	-10.751
▁lyyal	-10.751
▁bonnet	-10.751
▁ellie	-10.751
▁unwind	-10.751
▁aberg	-10.7511
▁arena	-10.7511
▁cupboard	-10.7511
▁hypnoti	-10.7511
▁install	-10.7511
▁sworn	-10.7511
and	-10.7511
▁smiling	-10.7511
▁loony	-10.7511
▁theory	-10.7511
skull	-10.7511
▁guv	-10.7511
▁complicated	-10.7511
▁principal	-10.7512
▁inspired	-10.7512
▁alms	-10.7512
▁hyah	-10.7512
▁kettle	-10.7512
▁confound	-10.7512
▁recall	-10.7512
▁allema	-10.7512
▁captn	-10.7512
▁fascinating	-10.7512
▁internal	-10.7513
▁barrel	-10.7513
▁jeez	-10.7513
▁violin	-10.7514
▁tasty	-10.7514
▁partnership	-10.7514
▁stall	-10.7514
▁mechanical	-10.7514
▁respectable	-10.7514
▁schieten	-10.7514
▁property	-10.7514
▁puny	-10.7514
▁harmless	-10.7514
▁krijgen	-10.7514
▁cellar	-10.7514
▁sunset	-10.7515
▁humor	-10.7515
junction	-10.7515
▁lndia	-10.7515
▁wachten	-10.7515
▁laboratory	-10.7515
▁stip	-10.7516
▁zeker	-10.7517
▁celebrating	-10.7517
▁abc	-10.7517
▁equally	-10.7517
▁snort	-10.7517
▁explore	-10.7517
▁pikachu	-10.7517
▁slicker	-10.7517
▁investigate	-10.7517
▁ponti	-10.7517
▁redden	-10.7517
▁glitter	-10.7518
▁adopted	-10.7518
▁smoking	-10.7518
▁vinden	-10.7518
▁sickness	-10.7518
cation	-10.7518
▁hathi	-10.7519
▁forgiveness	-10.7519
▁achter	-10.752
▁satisfy	-10.752
▁polite	-10.7521
▁yup	-10.7521
▁bumper	-10.7522
▁ultimate	-10.7522
▁roei	-10.7522
▁rhodes	-10.7523
▁pajamas	-10.7523
▁harry	-10.7523
▁joyfully	-10.7524
▁couch	-10.7524
▁admired	-10.7524
▁invent	-10.7525
▁instantly	-10.7525
▁suffered	-10.7525
▁media	-10.7526
▁defense	-10.7526
▁possessed	-10.7526
▁surter	-10.7526
▁fungus	-10.7526
▁terms	-10.7526
▁monstro	-10.7527
▁solo	-10.7527
▁sentenced	-10.7528
▁sushi	-10.7528
▁daylight	-10.7528
▁enti	-10.7528
▁krijgt	-10.7529
▁centre	-10.7529
▁interrupted	-10.7529
▁stowed	-10.7529
▁approved	-10.753
▁soil	-10.753
▁sobbing	-10.7531
▁squeakin	-10.7531
▁tread	-10.7533
▁anchor	-10.7534
▁impressed	-10.7534
▁shield	-10.7538
innies	-10.7538
▁confused	-10.7539
gage	-10.754
▁matey	-10.754
▁reaction	-10.754
▁wandering	-10.754
▁hunk	-10.7541
▁stale	-10.7542
▁trailer	-10.7542
▁pluck	-10.7542
▁aircraft	-10.7543
▁represent	-10.7543
▁captured	-10.7543
▁division	-10.7544
▁lena	-10.7545
▁neem	-10.7545
▁backwards	-10.7545
▁wreck	-10.7546
▁loyalty	-10.7546
▁tada	-10.7547
▁replaced	-10.7547
▁commercials	-10.7547
▁mcalesters	-10.7547
▁controllers	-10.7548
▁reality	-10.7548
▁bark	-10.7548
▁cowardly	-10.7549
▁inhales	-10.755
▁alas	-10.7552
▁gleaming	-10.7553
▁disturbed	-10.7554
▁complaining	-10.7554
▁upa	-10.7556
▁vice	-10.7556
▁germa	-10.7556
▁tailor	-10.7556
▁piraten	-10.7558
▁declared	-10.7559
▁hopeless	-10.7559
▁larger	-10.7562
▁evict	-10.7562
▁setup	-10.7563
▁fried	-10.7563
▁activated	-10.7566
▁trumpets	-10.7566
▁chew	-10.7566
▁dashing	-10.7569
▁required	-10.7569
▁conquered	-10.757
▁laughin	-10.757
▁significant	-10.7571
▁bitter	-10.7571
carbon	-10.7572
▁stolen	-10.7572
▁litter	-10.7576
▁mood	-10.7577
▁discovered	-10.7577
▁dacht	-10.7578
custome	-10.7578
▁et	-10.7579
▁leagues	-10.758
▁pill	-10.758
▁strip	-10.7582
▁vial	-10.7582
▁disagree	-10.7584
▁repeated	-10.7585
▁frightening	-10.7587
▁ls	-10.7587
▁ector	-10.7588
▁maple	-10.759
▁crashed	-10.7592
▁sheets	-10.7592
▁donation	-10.7593
cha	-10.7594
▁menu	-10.7595
ives	-10.7596
▁accepted	-10.7596
▁losers	-10.7598
▁boxes	-10.76
▁decree	-10.7601
▁bin	-10.7604
ixie	-10.7605
▁reaching	-10.7605
▁zero	-10.7605
▁nasa	-10.7614
▁gloves	-10.7614
▁floating	-10.7616
▁scarers	-10.7617
▁sniffs	-10.762
▁remained	-10.762
▁patterns	-10.762
▁cory	-10.7622
▁photographs	-10.7623
▁muscles	-10.7623
▁ambitions	-10.7623
▁indicat	-10.7626
▁pounding	-10.7626
▁fiend	-10.7628
ak	-10.7629
▁difficulty	-10.7631
▁takeoff	-10.7632
▁naam	-10.7634
▁wilt	-10.7635
▁haha	-10.7635
▁sailing	-10.7639
▁trainers	-10.7639
▁mistaken	-10.764
▁beeps	-10.764
▁helpful	-10.7642
▁painted	-10.7647
▁snakes	-10.7648
▁cheetahs	-10.7649
▁yank	-10.765
▁flaps	-10.7654
▁meantime	-10.7654
▁hooked	-10.7659
▁manny	-10.7659
▁warmer	-10.7662
▁packed	-10.7663
neously	-10.7667
▁units	-10.7673
▁tuck	-10.7673
▁criminals	-10.7675
▁lamp	-10.7677
▁drawing	-10.7678
▁steer	-10.7678
rich	-10.768
▁claws	-10.7681
▁brush	-10.7681
▁hunger	-10.7683
▁heirs	-10.7685
▁buzzin	-10.7685
▁imitat	-10.7688
▁pump	-10.7695
▁mills	-10.7696
▁atom	-10.7699
▁bids	-10.7699
▁gladly	-10.7707
▁recording	-10.771
▁gates	-10.771
▁chart	-10.7711
uf	-10.7717
▁ruins	-10.7717
▁indivi	-10.7724
▁triumphs	-10.7726
▁flash	-10.7728
▁peek	-10.7729
que	-10.7729
▁closely	-10.7729
▁boyfriend	-10.7735
▁enjoying	-10.7736
▁heet	-10.7738
▁stinks	-10.7742
field	-10.7745
▁gloat	-10.7747
▁tanks	-10.7747
titude	-10.775
ments	-10.7756
▁crows	-10.7756
▁vow	-10.7759
▁stunt	-10.776
▁ket	-10.7761
▁victoria	-10.7761
▁source	-10.7763
▁pilot	-10.7764
▁filth	-10.7766
▁bean	-10.7773
▁quot	-10.7779
▁refuses	-10.7781
▁down	-10.7784
▁chains	-10.7788
▁waves	-10.7789
▁greeting	-10.7791
▁merit	-10.7792
▁slaps	-10.7794
▁poster	-10.7795
▁trusty	-10.7813
▁qu	-10.7816
▁trained	-10.7819
▁inf	-10.782
▁mar	-10.7824
▁pits	-10.7825
▁credits	-10.7828
▁bolts	-10.7828
▁rates	-10.7837
▁carl	-10.7846
▁kok	-10.7847
▁increase	-10.7854
easy	-10.7856
▁answered	-10.7858
▁workers	-10.7862
▁toes	-10.7864
▁plant	-10.7866
▁pl	-10.7869
hauling	-10.7894
▁princesses	-10.7906
▁teaching	-10.7909
▁leaders	-10.7909
▁mound	-10.7913
▁mikey	-10.7914
▁fooled	-10.7914
actic	-10.7922
▁flos	-10.7923
▁belly	-10.7925
▁rank	-10.793
▁fianc	-10.7933
▁golly	-10.7951
▁of	-10.7953
▁diamonds	-10.7957
▁wist	-10.7958
▁cousins	-10.7976
▁dealing	-10.7977
▁remains	-10.798
▁languages	-10.7983
ooey	-10.8002
▁marshals	-10.8002
ipped	-10.8021
▁dictate	-10.8022
▁pale	-10.8025
gram	-10.8036
▁cheerful	-10.8037
▁jean	-10.8037
▁sch	-10.8057
▁struggle	-10.8063
▁catching	-10.8064
▁wool	-10.8064
▁slippe	-10.8067
▁awaken	-10.8069
▁adore	-10.8069
▁tremble	-10.807
▁sting	-10.8086
nows	-10.8111
▁consult	-10.8124
▁din	-10.8126
▁feeds	-10.8128
▁owner	-10.8134
▁shack	-10.8136
▁cul	-10.8155
▁cases	-10.8175
▁sakes	-10.8182
ying	-10.8183
umbling	-10.8187
ized	-10.8197
▁cure	-10.8213
▁suck	-10.822
▁asks	-10.8234
pped	-10.8244
▁leap	-10.8246
▁slick	-10.8251
ort	-10.8258
rail	-10.826
ets	-10.8265
▁jumps	-10.8265
▁wast	-10.8269
▁pedi	-10.827
no	-10.8282
▁husbands	-10.8291
▁ve	-10.8297
tha	-10.8305
▁rot	-10.832
lets	-10.8324
▁wes	-10.8333
▁carolin	-10.8346
▁mistakes	-10.8353
▁fits	-10.8375
▁guessing	-10.8375
▁thoughts	-10.838
▁bru	-10.8383
▁wore	-10.8392
oude	-10.8397
fth	-10.8411
▁probe	-10.8418
ea	-10.843
fred	-10.8431
▁stirr	-10.8441
▁burns	-10.8453
▁bert	-10.8462
▁stray	-10.8473
▁senses	-10.8475
ti	-10.848
ddling	-10.8481
▁medi	-10.8494
▁quart	-10.8515
▁øøùù	-10.8518
▁zie	-10.8518
▁vanda	-10.8521
ere	-10.8535
ag	-10.8539
▁hynkels	-10.8546
some	-10.8554
▁instrument	-10.8555
▁suffer	-10.8626
misunderstanding	-10.8638
yee	-10.864
rip	-10.8641
▁stones	-10.8645
scent	-10.8666
▁skinn	-10.8678
▁anders	-10.8678
▁historical	-10.868
▁phones	-10.869
izzy	-10.8697
▁sticks	-10.8701
▁spill	-10.8715
nal	-10.8732
▁fame	-10.8745
rted	-10.8749
▁app	-10.8752
thin	-10.8758
ùø	-10.8763
▁ramm	-10.8779
▁surprises	-10.8811
▁stare	-10.8832
▁sm	-10.8842
ren	-10.8843
▁hangs	-10.8845
▁il	-10.8846
▁for	-10.888
▁camel	-10.8882
▁swin	-10.8892
▁patrol	-10.8897
▁sl	-10.8899
azz	-10.89
delen	-10.8904
▁qui	-10.8905
ble	-10.8911
tro	-10.8925
thats	-10.8928
af	-10.8938
▁site	-10.8953
▁contain	-10.8979
▁mix	-10.898
▁secrets	-10.8988
ticking	-10.901
▁sniff	-10.9025
▁beta	-10.9028
▁mmmmmm	-10.9067
▁wwhat	-10.9081
▁placed	-10.9087
▁cons	-10.9091
eek	-10.9102
▁infect	-10.9103
met	-10.9107
stick	-10.9108
▁defeat	-10.9112
▁aspirin	-10.9132
▁str	-10.9134
ockety	-10.9162
▁ahha	-10.9166
▁tip	-10.9178
▁ave	-10.9199
▁kap	-10.9206
ik	-10.9232
▁ere	-10.924
con	-10.925
▁ram	-10.9265
▁sides	-10.9266
elp	-10.9296
take	-10.9307
hoo	-10.9328
▁sales	-10.933
▁obey	-10.9352
▁ama	-10.9359
▁imperi	-10.9363
▁checks	-10.9365
▁øøù	-10.9372
▁rebel	-10.9374
netic	-10.9376
▁mental	-10.9405
long	-10.9413
▁domin	-10.9416
rk	-10.9424
▁sur	-10.9459
nel	-10.9488
▁fac	-10.9496
▁dia	-10.9501
▁chop	-10.9503
ns	-10.9506
be	-10.9512
▁ref	-10.9513
solving	-10.9515
▁gunn	-10.9517
▁cru	-10.9521
ture	-10.9524
▁sher	-10.9535
▁strap	-10.9557
pt	-10.9571
▁ùøùù	-10.9573
xed	-10.9575
▁rog	-10.9575
▁imagin	-10.9577
ghost	-10.9593
▁att	-10.9593
▁zap	-10.96
mi	-10.9609
▁author	-10.9614
fire	-10.9644
made	-10.9644
▁øøùø	-10.9653
foot	-10.9657
ashi	-10.9663
boy	-10.9671
▁pete	-10.9688
job	-10.9694
joy	-10.9695
▁walks	-10.9698
▁provinc	-10.9727
▁jok	-10.9742
paper	-10.9749
▁yyou	-10.9754
pants	-10.9759
most	-10.9763
wise	-10.9763
trash	-10.9775
grateful	-10.9777
school	-10.9785
salm	-10.9795
aki	-10.9806
▁skippe	-10.9808
▁potent	-10.9809
snip	-10.9811
▁clone	-10.9816
lights	-10.9818
nut	-10.9831
gged	-10.9831
urt	-10.9837
▁grunt	-10.9848
▁sto	-10.9862
▁beds	-10.9869
▁flee	-10.9871
▁wharton	-10.9873
▁ceiling	-10.9873
▁propeller	-10.9873
▁guitar	-10.9873
▁savage	-10.9874
▁employee	-10.9875
▁vegetable	-10.9885
▁sneeze	-10.9887
▁chamber	-10.9887
▁mortal	-10.9887
▁turtle	-10.9891
▁neighbor	-10.9894
▁warrior	-10.9897
▁acid	-10.9897
alakaz	-10.9897
▁limit	-10.9898
▁degree	-10.9905
▁flowr	-10.9908
▁dinosaur	-10.9909
▁sheet	-10.9922
elcom	-10.9925
▁mule	-10.9927
▁tool	-10.9927
▁ink	-10.9934
▁function	-10.9938
▁candles	-10.9941
sey	-10.9945
▁champ	-10.9961
▁duel	-10.9962
▁affect	-10.9965
▁impress	-10.9971
▁surf	-10.9972
▁krijg	-10.9973
▁chirp	-10.9974
▁attempt	-10.9975
▁applaud	-10.9976
▁separate	-10.9977
▁torture	-10.9977
▁clang	-10.9977
▁suspect	-10.9979
▁approve	-10.9979
▁interrupt	-10.998
▁budge	-10.9988
▁possess	-10.9992
▁atlant	-10.9993
▁equal	-10.9996
▁precise	-10.9997
▁swimming	-10.9999
▁achieve	-10.9999
▁prick	-10.9999
▁schiet	-11
while	-11
▁cruise	-11.0001
▁darlin	-11.0002
▁erro	-11.0002
choo	-11.0002
▁lioness	-11.0003
▁contest	-11.0003
nhales	-11.0003
▁worm	-11.0005
▁concentrat	-11.0006
▁occur	-11.0006
▁stubborn	-11.0006
▁marvel	-11.0007
▁visual	-11.0007
▁explosive	-11.0008
▁africa	-11.0008
▁ancestors	-11.0008
▁appetite	-11.0008
▁apprentice	-11.0008
▁appropriate	-11.0008
▁approximately	-11.0008
▁aristotle	-11.0008
▁artillery	-11.0008
▁assistance	-11.0008
▁avoid	-11.0008
▁awkward	-11.0008
▁brigade	-11.0008
▁buccaneer	-11.0008
▁campaign	-11.0008
▁capacity	-11.0008
▁cavalry	-11.0008
▁ceremony	-11.0008
▁certificate	-11.0008
▁cogsworth	-11.0008
▁coincidence	-11.0008
▁compliment	-11.0008
▁damascus	-11.0008
▁disguise	-11.0008
▁elsinore	-11.0008
▁eyelashes	-11.0008
▁fanfare	-11.0008
▁fiddledeedee	-11.0008
▁fulfill	-11.0008
▁gehoord	-11.0008
▁gemaakt	-11.0008
▁griffiths	-11.0008
▁hazard	-11.0008
▁hologram	-11.0008
▁infinity	-11.0008
▁karpathy	-11.0008
▁kumiko	-11.0008
▁kuzcotopia	-11.0008
▁lincoln	-11.0008
▁melanchol	-11.0008
▁mithradates	-11.0008
▁nominal	-11.0008
▁olentiev	-11.0008
▁olivia	-11.0008
▁paranoid	-11.0008
▁perfume	-11.0008
▁petticoat	-11.0008
▁pingpong	-11.0008
▁plicht	-11.0008
▁rawlins	-11.0008
▁saturday	-11.0008
▁schmidt	-11.0008
▁schnitzel	-11.0008
▁scoundrel	-11.0008
▁shakespeare	-11.0008
▁shellshocker	-11.0008
▁shepherd	-11.0008
▁smollett	-11.0008
▁snowflake	-11.0008
▁stammers	-11.0008
▁sulfur	-11.0008
▁surrender	-11.0008
▁surveillance	-11.0008
▁telemetry	-11.0008
▁tranquility	-11.0008
▁unprepared	-11.0008
▁wilkerson	-11.0008
▁withdraw	-11.0008
▁yeehaw	-11.0008
▁zombified	-11.0008
▁butbut	-11.0008
▁cicero	-11.0008
▁competitive	-11.0008
▁curiosity	-11.0008
▁fountain	-11.0008
▁gedaan	-11.0008
▁immune	-11.0008
▁poetry	-11.0008
▁scarecrow	-11.0008
▁shudder	-11.0008
▁athens	-11.0008
▁garbage	-11.0008
▁happiest	-11.0008
▁refresh	-11.0008
▁scholar	-11.0008
▁warthog	-11.0008
▁wilderness	-11.0008
▁wondrous	-11.0008
▁civilization	-11.0008
▁tumble	-11.0008
▁obscur	-11.0008
▁underground	-11.0008
▁frequency	-11.0008
▁skunk	-11.0008
▁swallowed	-11.0008
▁variety	-11.0008
▁downrange	-11.0008
▁drapes	-11.0008
▁fierce	-11.0008
▁gerald	-11.0008
▁intrude	-11.0008
▁phonetics	-11.0008
▁specimen	-11.0008
▁viscount	-11.0008
▁elected	-11.0008
▁tournament	-11.0008
▁wristwatch	-11.0008
▁akita	-11.0008
▁commence	-11.0008
▁dentist	-11.0008
▁embrace	-11.0008
▁period	-11.0008
▁nickname	-11.0008
▁policy	-11.0008
▁sponge	-11.0008
▁weasel	-11.0008
▁inferior	-11.0008
▁persecut	-11.0008
▁minimum	-11.0008
▁rubbish	-11.0008
▁scheeps	-11.0008
▁giddyap	-11.0008
▁eerlijk	-11.0008
▁prospect	-11.0008
▁quacking	-11.0008
▁lefou	-11.0008
▁superstar	-11.0008
▁cooperation	-11.0008
▁carlyle	-11.0008
▁casual	-11.0008
▁italy	-11.0008
▁parlor	-11.0008
▁initiate	-11.0008
▁yipe	-11.0008
▁decency	-11.0008
▁spurs	-11.0008
▁forbidden	-11.0008
▁concert	-11.0008
▁eventually	-11.0008
▁community	-11.0008
▁haynes	-11.0008
▁millionaire	-11.0008
▁utah	-11.0008
▁civilian	-11.0008
▁anyplace	-11.0008
▁riddance	-11.0008
▁climate	-11.0008
▁reich	-11.0008
▁velia	-11.0008
▁chopped	-11.0008
▁humiliating	-11.0008
▁shortcut	-11.0008
▁haircut	-11.0008
▁pupil	-11.0008
▁catullus	-11.0008
▁destination	-11.0008
▁demerits	-11.0008
▁population	-11.0008
▁donnie	-11.0008
▁vul	-11.0008
▁customary	-11.0008
▁niece	-11.0008
▁audition	-11.0008
▁ignorant	-11.0008
▁branch	-11.0008
▁stanley	-11.0008
▁celebration	-11.0008
▁pathetic	-11.0008
▁wrapped	-11.0009
▁elsewhere	-11.0009
▁acorn	-11.0009
▁odlayeeee	-11.0009
▁wallpaper	-11.0009
▁margaretta	-11.0009
▁construction	-11.0009
▁creek	-11.0009
▁autograph	-11.0009
▁grandchildren	-11.0009
▁shrink	-11.0009
▁pilate	-11.0009
▁oclock	-11.0009
▁austin	-11.0009
▁horsepower	-11.0009
▁explode	-11.0009
▁handkerchief	-11.0009
▁tulip	-11.0009
▁unafraid	-11.0009
▁laydeeodlee	-11.0009
▁minister	-11.0009
enoid	-11.0009
▁pimple	-11.0009
▁injury	-11.0009
▁operator	-11.0009
▁origin	-11.0009
▁salary	-11.0009
▁meowth	-11.0009
▁binnen	-11.0009
▁arriving	-11.0009
▁treason	-11.0009
▁concentration	-11.001
▁vlag	-11.001
▁dutch	-11.001
▁eleven	-11.001
▁entertainment	-11.001
▁deliberately	-11.001
▁diaper	-11.001
▁yoshi	-11.001
▁casca	-11.001
▁internet	-11.001
▁revolver	-11.001
▁stiff	-11.001
▁reeled	-11.001
▁beauties	-11.001
▁firewood	-11.001
▁lungs	-11.001
▁infant	-11.0011
▁vechten	-11.0011
▁reinforcement	-11.0011
▁prettier	-11.0011
▁transferring	-11.0011
▁prevent	-11.0011
▁ankle	-11.0011
▁engagement	-11.0011
▁ladybug	-11.0011
▁rouge	-11.0011
▁asia	-11.0011
▁trunk	-11.0011
▁habitat	-11.0011
▁basis	-11.0011
▁cooperate	-11.0011
▁theater	-11.0011
▁butterfly	-11.0011
▁naughty	-11.0011
▁fafa	-11.0011
▁automatic	-11.0011
▁fluffy	-11.0011
▁philosophy	-11.0011
▁transmitter	-11.0012
▁delegat	-11.0012
▁charleston	-11.0012
▁liquor	-11.0012
▁balloon	-11.0012
▁conceal	-11.0012
▁bluff	-11.0012
▁molecul	-11.0012
▁depressed	-11.0012
▁villain	-11.0013
▁hippo	-11.0013
▁cordon	-11.0013
▁moonlight	-11.0013
▁demonstration	-11.0013
▁obligation	-11.0013
umental	-11.0013
▁oppose	-11.0013
▁solomon	-11.0013
▁sideways	-11.0013
▁hyper	-11.0013
▁technically	-11.0013
▁immensely	-11.0013
▁priest	-11.0013
▁traction	-11.0014
▁rigel	-11.0014
▁tourist	-11.0014
▁jones	-11.0014
▁departing	-11.0014
▁zelf	-11.0014
▁bleed	-11.0014
▁radiation	-11.0014
▁virtue	-11.0014
▁squealing	-11.0014
▁weakness	-11.0015
▁gangway	-11.0015
▁blunder	-11.0015
▁merchandise	-11.0015
▁aaaah	-11.0015
greatgrandfather	-11.0015
▁curve	-11.0015
▁overseer	-11.0015
▁shift	-11.0016
▁bullet	-11.0016
▁dopey	-11.0016
▁snarl	-11.0016
▁mmmhmm	-11.0016
▁poem	-11.0016
▁hatred	-11.0016
▁hiya	-11.0016
▁specialized	-11.0017
▁dizzy	-11.0017
▁bayou	-11.0017
▁affection	-11.0017
▁meaningless	-11.0017
▁pork	-11.0017
▁activity	-11.0018
▁almighty	-11.0018
▁griev	-11.0019
▁cinder	-11.0019
▁abandoned	-11.002
▁error	-11.0021
▁drank	-11.0021
▁wheat	-11.0021
▁mcg	-11.0022
▁thou	-11.0022
▁rita	-11.0023
▁elsa	-11.0023
▁adams	-11.0024
▁annoying	-11.0024
▁rehearsing	-11.0024
▁ramone	-11.0024
▁larry	-11.0025
▁habit	-11.0025
arnished	-11.0025
▁sabotaged	-11.0025
▁molly	-11.0026
▁brawn	-11.0026
▁blackout	-11.0026
▁deaf	-11.0026
▁worthless	-11.0026
▁afge	-11.0026
▁devon	-11.0026
▁arrangement	-11.0027
▁bygones	-11.0027
▁doorknobs	-11.0027
▁technicians	-11.0027
▁regulations	-11.0027
▁brag	-11.0028
▁pickup	-11.0029
▁china	-11.003
▁bible	-11.003
▁texan	-11.003
▁scarce	-11.0031
▁kijken	-11.0031
▁cmp	-11.0031
▁blackie	-11.0032
▁socks	-11.0032
▁blond	-11.0032
▁mimi	-11.0033
▁shiny	-11.0034
▁brace	-11.0034
▁grinding	-11.0034
▁harbor	-11.0035
▁plumber	-11.0035
▁mitt	-11.0035
▁zeeman	-11.0036
▁squawking	-11.0036
▁borrowers	-11.0036
▁banish	-11.0036
▁cramp	-11.0037
▁twig	-11.0037
▁shovel	-11.0037
▁rex	-11.0037
▁losin	-11.0038
▁juice	-11.0038
▁drill	-11.004
▁slept	-11.004
▁sunny	-11.004
▁wiring	-11.004
▁awaiting	-11.0041
▁shotgun	-11.0042
▁beings	-11.0043
▁convenien	-11.0043
▁humanity	-11.0043
▁jaar	-11.0043
▁purple	-11.0044
▁punished	-11.0044
▁financ	-11.0044
▁drilling	-11.0044
▁brandy	-11.0044
▁robbie	-11.0046
▁liever	-11.0046
▁bedtime	-11.0047
▁horror	-11.0047
▁correction	-11.0048
▁stil	-11.0048
▁developed	-11.0049
▁polish	-11.0049
▁dried	-11.0049
▁doom	-11.0051
▁rollin	-11.0051
▁choke	-11.0051
▁angeles	-11.0051
▁equipped	-11.0052
▁slit	-11.0054
▁fraud	-11.0054
▁logical	-11.0054
▁dexter	-11.0054
▁located	-11.0054
▁informed	-11.0055
▁accompan	-11.0056
houden	-11.0056
▁anker	-11.0057
▁tolls	-11.0057
▁quant	-11.0057
▁aliens	-11.0058
▁insects	-11.0058
▁injuns	-11.0059
▁kittens	-11.0059
▁undock	-11.0059
▁requested	-11.006
▁rational	-11.006
▁caesarion	-11.0061
▁appel	-11.0061
▁grit	-11.0061
▁kust	-11.0062
▁buzzards	-11.0062
▁crashes	-11.0062
▁threaten	-11.0062
▁clap	-11.0062
▁gorge	-11.0063
▁serene	-11.0063
▁shocked	-11.0064
▁fastball	-11.0064
▁sizzle	-11.0065
▁loop	-11.0065
▁whirl	-11.0066
ctus	-11.0068
▁crooked	-11.0068
▁decen	-11.0069
▁agh	-11.0069
▁dar	-11.007
▁removed	-11.0072
▁jove	-11.0075
resolved	-11.0075
▁granted	-11.0078
▁werk	-11.0079
▁shocking	-11.0079
▁q	-11.008
▁nailed	-11.0081
▁cocka	-11.0081
▁lurk	-11.0082
▁grain	-11.0082
▁nemen	-11.0082
▁bored	-11.0082
▁billion	-11.0083
nic	-11.0083
▁cursed	-11.0084
▁mayday	-11.0084
▁grey	-11.0086
▁smarter	-11.0086
▁gig	-11.0086
▁released	-11.0088
▁pitcher	-11.0088
antic	-11.0088
▁assumed	-11.0089
▁bucky	-11.009
▁dug	-11.009
▁charit	-11.0091
▁mermaids	-11.0093
▁passengers	-11.0093
▁macaws	-11.0095
▁careless	-11.0097
▁businessman	-11.0098
▁intended	-11.0099
▁cops	-11.0099
▁twel	-11.01
biology	-11.0102
▁customs	-11.0102
▁movements	-11.0102
▁docking	-11.0103
▁oar	-11.0104
▁appeared	-11.0104
▁confuse	-11.0108
▁thoughtful	-11.0109
▁fever	-11.0111
▁crumbs	-11.0116
▁mules	-11.0116
▁nick	-11.0117
▁sewing	-11.0119
▁potion	-11.012
▁introduced	-11.012
mee	-11.012
▁scheduled	-11.0124
▁petal	-11.0125
▁buster	-11.0125
▁turtles	-11.0126
▁grove	-11.0127
▁functions	-11.0127
▁vlu	-11.0129
▁woord	-11.013
▁dover	-11.013
▁skilled	-11.0132
▁borrowed	-11.0133
▁hire	-11.0139
▁repay	-11.0141
▁snel	-11.0143
▁survey	-11.0143
▁marker	-11.0144
▁counter	-11.0145
▁pipes	-11.0146
▁zone	-11.0146
▁cooked	-11.0147
▁rig	-11.0151
▁bass	-11.0152
▁tearing	-11.0155
▁scarer	-11.0158
▁entered	-11.0158
band	-11.0159
elling	-11.016
▁but	-11.016
▁raw	-11.0161
▁crocodiles	-11.0161
▁spiders	-11.0161
▁chased	-11.0161
makker	-11.0162
ius	-11.0162
▁slams	-11.0165
▁notion	-11.0168
wa	-11.0169
io	-11.0172
▁fift	-11.0172
▁ducky	-11.0173
▁payment	-11.0176
▁belts	-11.0177
▁ingen	-11.0181
▁wands	-11.0181
▁knocked	-11.0183
▁tab	-11.0183
▁tricked	-11.0184
sure	-11.0185
▁stamp	-11.0187
▁nerves	-11.0188
▁pretending	-11.019
▁payin	-11.0194
▁complaint	-11.0194
▁volunteers	-11.0194
err	-11.0196
▁demon	-11.0197
▁sack	-11.02
▁tsun	-11.02
▁tasted	-11.0201
reign	-11.0201
▁hac	-11.0204
▁eternal	-11.0205
▁saints	-11.0205
uffle	-11.0205
▁mob	-11.0215
▁dancers	-11.0216
▁weeds	-11.0216
rrespon	-11.0217
▁appreciated	-11.0217
toch	-11.0223
ov	-11.0225
ailed	-11.0225
▁helmets	-11.0226
▁lovelies	-11.0228
▁chocolates	-11.0228
▁devot	-11.0229
▁import	-11.0233
▁lighten	-11.0236
▁ego	-11.0239
▁batter	-11.0244
▁kre	-11.025
▁crossed	-11.0258
zo	-11.0258
▁tut	-11.0258
▁erg	-11.0262
▁bars	-11.0263
▁sleeps	-11.0264
▁meter	-11.0266
▁ste	-11.0268
▁messed	-11.0272
▁sticky	-11.0274
ika	-11.0278
▁joined	-11.028
▁preserve	-11.0284
▁sly	-11.0286
▁any	-11.0286
dence	-11.0292
▁laps	-11.0297
▁crumb	-11.03
▁yuk	-11.0302
▁mose	-11.0307
▁selling	-11.0308
▁knot	-11.0309
▁chips	-11.031
gel	-11.0312
▁cleaned	-11.0312
▁americans	-11.0317
▁models	-11.0318
▁interfere	-11.032
▁bikes	-11.0324
antom	-11.0325
▁fleas	-11.0326
▁lasers	-11.0326
▁offering	-11.0327
▁har	-11.0334
▁moron	-11.0336
▁reform	-11.0338
▁hose	-11.0339
▁samples	-11.0343
▁snor	-11.0345
▁idle	-11.0349
▁startin	-11.0349
▁computerize	-11.0352
egun	-11.0357
▁eart	-11.0357
▁sec	-11.036
▁feared	-11.036
▁hornets	-11.0365
ching	-11.0365
▁raid	-11.0366
varen	-11.0372
▁buds	-11.0373
▁gen	-11.0378
▁flyer	-11.0379
▁x	-11.038
▁safer	-11.0381
▁tracking	-11.0382
ware	-11.0384
▁youyou	-11.0387
▁turnin	-11.0389
▁worden	-11.039
▁mow	-11.0391
▁rabbits	-11.0397
▁squirrels	-11.0397
▁legends	-11.0399
▁endless	-11.04
▁pants	-11.0405
▁poisons	-11.0405
▁lever	-11.0407
▁uno	-11.0409
▁compar	-11.041
▁poorly	-11.0413
▁sway	-11.0416
▁rumble	-11.042
▁cleaning	-11.0423
▁bulldo	-11.0424
platter	-11.0429
aar	-11.0439
▁sill	-11.0441
talk	-11.0442
▁mustanger	-11.0444
ins	-11.0445
ramp	-11.0451
sticks	-11.0459
▁miracles	-11.0465
shot	-11.0467
▁shines	-11.0475
mmie	-11.0479
▁armor	-11.0481
jack	-11.0482
bat	-11.0484
▁article	-11.0488
▁commanding	-11.0489
▁skills	-11.0492
▁cages	-11.0494
▁hips	-11.0495
▁dew	-11.0496
▁tre	-11.0511
opping	-11.0512
▁quint	-11.0512
▁dreamy	-11.0514
▁officials	-11.0514
lot	-11.0517
▁glow	-11.0523
▁if	-11.0526
▁fences	-11.0528
▁charms	-11.053
▁wizards	-11.0533
▁fortunes	-11.0536
▁chicks	-11.0542
▁vocali	-11.0549
▁fated	-11.0555
oon	-11.0559
▁ami	-11.0559
▁workin	-11.056
▁lang	-11.0567
▁seeking	-11.057
▁cruci	-11.0576
▁alan	-11.0577
▁boxer	-11.0579
▁fares	-11.0582
▁blush	-11.0583
▁goof	-11.0584
▁strut	-11.0587
▁easter	-11.0598
▁recover	-11.0612
▁unite	-11.0614
▁respectful	-11.0625
▁centr	-11.0637
▁biz	-11.0642
▁deli	-11.0644
▁stu	-11.0648
▁trusting	-11.0649
aaa	-11.0651
▁necks	-11.0658
▁invisib	-11.0665
▁maps	-11.067
▁watches	-11.0673
leg	-11.0681
▁mourn	-11.0699
▁fr	-11.0706
▁computers	-11.0709
▁forms	-11.0714
ip	-11.0721
▁donut	-11.075
▁laten	-11.075
chasing	-11.075
▁min	-11.0751
▁fooling	-11.0752
▁paints	-11.0763
tch	-11.0766
ami	-11.0767
▁buildings	-11.0777
▁mysti	-11.0789
rd	-11.0794
ca	-11.0799
igh	-11.0804
▁raining	-11.0805
▁kans	-11.081
▁laying	-11.0813
ather	-11.0817
▁admir	-11.0823
▁blo	-11.084
▁transform	-11.0851
llen	-11.0854
▁staring	-11.0861
▁mig	-11.0862
wij	-11.0877
▁maids	-11.0887
▁keys	-11.09
▁formal	-11.0911
lthough	-11.0914
▁accelerat	-11.0917
uke	-11.0921
▁humbl	-11.0924
rusty	-11.0926
▁chill	-11.0939
▁pets	-11.0952
▁val	-11.0957
▁gay	-11.0958
▁bra	-11.096
gree	-11.0966
abili	-11.0966
▁silen	-11.0972
▁spr	-11.0975
▁gifts	-11.1015
▁offers	-11.1021
▁lighting	-11.1022
▁fli	-11.1029
ries	-11.1031
▁poop	-11.1032
▁finer	-11.1038
ds	-11.1042
▁planes	-11.106
▁beard	-11.1068
chie	-11.1071
▁despi	-11.1077
▁beth	-11.1085
▁mus	-11.1086
▁blessing	-11.1099
▁drinker	-11.1107
duce	-11.1117
▁decorat	-11.1138
otten	-11.1145
▁tap	-11.1148
▁tote	-11.1164
▁seek	-11.1166
▁educat	-11.1174
▁pennys	-11.1174
▁fields	-11.1175
▁simbas	-11.1175
▁gain	-11.1176
rely	-11.1182
ves	-11.1184
▁tellin	-11.1186
▁propose	-11.1194
▁bites	-11.1228
▁grounds	-11.124
dar	-11.1245
put	-11.125
▁seal	-11.129
▁include	-11.13
eet	-11.1307
aria	-11.1308
ber	-11.1308
▁teen	-11.1315
▁uncha	-11.132
yder	-11.1322
▁tid	-11.1324
▁wand	-11.1331
▁becom	-11.1353
▁listened	-11.1358
▁tin	-11.1384
▁insert	-11.139
sy	-11.1391
teken	-11.1398
contained	-11.1402
▁subtl	-11.1406
ya	-11.141
▁explains	-11.1418
▁patri	-11.1433
lar	-11.1438
ff	-11.1439
▁recruit	-11.144
alpur	-11.144
▁bounce	-11.1441
▁noo	-11.1459
▁acts	-11.1463
ilis	-11.1468
▁bestow	-11.1473
trophy	-11.1501
ify	-11.151
▁plott	-11.1512
▁teams	-11.1517
▁partial	-11.1532
▁ado	-11.1536
pid	-11.1539
▁commands	-11.1554
▁prides	-11.1563
▁heal	-11.1566
ol	-11.158
▁medicat	-11.1585
▁resent	-11.1585
▁cor	-11.1599
▁fears	-11.1614
ged	-11.1629
▁bounc	-11.1633
oc	-11.1635
▁prima	-11.1648
▁funk	-11.1649
ked	-11.1675
▁gre	-11.1688
▁seiz	-11.1695
oki	-11.1697
▁apr	-11.1701
inch	-11.1726
▁hopes	-11.1732
aking	-11.1745
itching	-11.1752
▁comb	-11.1772
pit	-11.1772
▁lau	-11.1786
emer	-11.1804
sing	-11.1807
▁clot	-11.1809
▁gravel	-11.1811
▁decim	-11.1823
▁crosscount	-11.1825
▁oblige	-11.1834
▁ax	-11.1844
even	-11.1846
scale	-11.1851
ack	-11.1854
fection	-11.1856
▁grin	-11.1857
▁shod	-11.1867
good	-11.1874
▁doo	-11.1883
hot	-11.1893
▁tone	-11.1902
stern	-11.1903
▁honors	-11.1912
▁øùøùø	-11.1913
▁mas	-11.1914
urdy	-11.1918
▁stre	-11.1921
▁mash	-11.1926
lous	-11.194
uine	-11.1942
▁gut	-11.1945
mal	-11.1948
▁jin	-11.1949
▁hut	-11.1957
nderson	-11.1963
will	-11.1973
utters	-11.1976
▁san	-11.1987
▁coo	-11.1992
iest	-11.1999
▁stati	-11.2023
▁ed	-11.2039
rass	-11.2055
▁zu	-11.2063
▁moons	-11.2064
engt	-11.2068
ide	-11.2079
▁babbl	-11.2079
▁studie	-11.2084
▁stepp	-11.2087
med	-11.2088
rian	-11.2092
▁eva	-11.2118
ory	-11.2124
▁reserve	-11.2125
▁goud	-11.2134
wait	-11.2136
▁vari	-11.2144
▁whit	-11.2152
▁backed	-11.2154
arted	-11.2154
got	-11.2156
rasp	-11.216
▁prey	-11.2162
▁twi	-11.2162
ùøùø	-11.2175
ssia	-11.218
unny	-11.218
chan	-11.2184
▁divide	-11.2199
eau	-11.2203
nce	-11.2225
all	-11.223
▁crocke	-11.2233
isle	-11.2239
mes	-11.224
▁leads	-11.225
ez	-11.2269
stc	-11.2275
▁mu	-11.2277
light	-11.2286
ning	-11.2295
row	-11.2301
rate	-11.2306
looking	-11.2313
list	-11.2315
lt	-11.2317
▁ùøøø	-11.2331
▁fin	-11.2335
▁specials	-11.2344
mer	-11.2364
obbing	-11.2384
pa	-11.239
ville	-11.2407
▁øøøø	-11.2415
closure	-11.2457
stage	-11.247
▁havin	-11.2477
agic	-11.2479
maker	-11.2489
▁lure	-11.2489
▁wherea	-11.2511
visible	-11.2512
ven	-11.2519
dog	-11.2526
▁commit	-11.2543
vel	-11.2551
▁ber	-11.2565
▁za	-11.2578
lock	-11.2592
▁psych	-11.2599
ending	-11.26
▁soak	-11.2604
tries	-11.2605
lies	-11.2608
▁judg	-11.2617
sen	-11.2619
nsible	-11.263
▁sittin	-11.2633
▁slo	-11.2646
▁bot	-11.2674
ok	-11.2686
ath	-11.2703
▁bos	-11.2711
▁checker	-11.2714
▁pond	-11.2725
▁relation	-11.2732
▁as	-11.2802
ckle	-11.2809
mber	-11.2809
hhh	-11.281
▁earths	-11.2811
was	-11.2817
▁jar	-11.2846
girl	-11.2858
appears	-11.2867
ind	-11.2881
▁bumbl	-11.2882
ria	-11.2888
▁maak	-11.2891
▁cent	-11.2895
cing	-11.2907
▁haul	-11.2916
▁dom	-11.2933
mic	-11.2943
▁stra	-11.2945
minute	-11.2948
▁readin	-11.2963
ding	-11.2973
etje	-11.2973
▁sep	-11.2974
piece	-11.2975
▁gall	-11.2982
water	-11.2983
▁cts	-11.2986
luck	-11.2996
crumpet	-11.2998
ites	-11.3003
twe	-11.3011
▁ooo	-11.3022
daughter	-11.3024
wanted	-11.3031
aviar	-11.3042
▁ci	-11.3045
▁kar	-11.3054
anny	-11.3055
ja	-11.3059
▁cra	-11.3067
▁gi	-11.3072
▁vac	-11.3074
place	-11.3075
feeling	-11.3078
▁etern	-11.308
after	-11.3083
glass	-11.3091
type	-11.3092
hem	-11.3095
grown	-11.3096
pudding	-11.3097
qu	-11.31
proof	-11.3101
▁johnn	-11.311
▁mid	-11.3122
with	-11.3129
bby	-11.3134
birds	-11.3134
pi	-11.3139
▁imp	-11.314
▁am	-11.3143
term	-11.3144
ign	-11.3145
sion	-11.3147
▁hawk	-11.3148
▁why	-11.3152
tor	-11.3153
▁plat	-11.3162
bre	-11.3162
▁sca	-11.3164
øùùù	-11.3171
tte	-11.3171
▁await	-11.3179
▁burst	-11.3192
not	-11.3196
▁lasts	-11.3201
▁suff	-11.3204
▁remark	-11.3205
▁reservation	-11.3206
▁napkin	-11.3208
▁snack	-11.321
▁decade	-11.3211
▁troop	-11.3213
▁cheek	-11.3214
▁illusion	-11.3219
▁aryan	-11.322
▁cannibal	-11.322
art	-11.3221
▁region	-11.3221
▁spoon	-11.3222
▁shilling	-11.3222
teen	-11.3222
▁macaw	-11.3223
▁mermaid	-11.3223
plate	-11.3225
▁passenger	-11.3226
▁pipe	-11.3228
▁knuckle	-11.3228
▁sleeve	-11.3228
▁weapon	-11.3229
▁sometime	-11.323
▁hyena	-11.3232
▁squawk	-11.3233
▁hallway	-11.3235
linda	-11.324
▁parent	-11.3248
wed	-11.3252
▁dollar	-11.3255
▁disappoint	-11.326
▁electro	-11.3268
lling	-11.3269
▁declar	-11.3274
▁ins	-11.3276
stop	-11.3282
▁custom	-11.3285
▁clutch	-11.3298
▁mmmmm	-11.33
zen	-11.33
▁incredibl	-11.3301
▁express	-11.3304
▁movement	-11.3305
▁nik	-11.3305
▁brake	-11.3306
▁counsel	-11.331
sky	-11.331
dling	-11.331
▁combine	-11.3316
▁majest	-11.3316
burn	-11.3316
▁intelligen	-11.3316
▁responsibilit	-11.332
ssels	-11.3321
▁necessar	-11.3322
▁sentence	-11.3327
▁numb	-11.3329
▁spook	-11.333
▁bou	-11.3331
frlend	-11.3331
▁vriend	-11.3332
▁recogni	-11.3332
▁grind	-11.3332
▁thirst	-11.3334
▁addition	-11.3335
▁inquir	-11.3339
▁communicat	-11.3339
▁astro	-11.334
▁margaret	-11.334
▁congratulat	-11.3341
▁columb	-11.3341
ointment	-11.3341
▁disintegrat	-11.3341
▁establish	-11.3341
▁accurate	-11.3341
▁aggressive	-11.3341
▁aldebaran	-11.3341
▁altijd	-11.3341
▁ambassador	-11.3341
▁annihilat	-11.3341
▁antelope	-11.3341
▁arguing	-11.3341
▁avenue	-11.3341
▁bachelor	-11.3341
▁befuddling	-11.3341
▁bermuda	-11.3341
▁boeien	-11.3341
▁bremerhaven	-11.3341
▁brunettes	-11.3341
▁brunhilde	-11.3341
▁bruteroot	-11.3341
▁bulbasaur	-11.3341
▁caitlin	-11.3341
▁catastroph	-11.3341
▁caterpillar	-11.3341
▁characteristic	-11.3341
▁chiquita	-11.3341
▁cleveland	-11.3341
▁columns	-11.3341
▁contraption	-11.3341
▁conviction	-11.3341
▁convincing	-11.3341
▁dempsey	-11.3341
▁describe	-11.3341
▁disconnect	-11.3341
▁droopy	-11.3341
▁dwarfs	-11.3341
▁emphasis	-11.3341
▁enslave	-11.3341
▁environment	-11.3341
▁escorial	-11.3341
▁executive	-11.3341
▁executor	-11.3341
▁ferrari	-11.3341
▁florida	-11.3341
▁gallegher	-11.3341
▁gesundheit	-11.3341
▁gibberish	-11.3341
▁gijzel	-11.3341
▁giorno	-11.3341
▁glacier	-11.3341
▁hallelujah	-11.3341
▁heimlich	-11.3341
▁hispaniola	-11.3341
▁humiliated	-11.3341
▁incompetent	-11.3341
▁inconspicuous	-11.3341
▁indispensable	-11.3341
▁influenza	-11.3341
▁invincible	-11.3341
▁italian	-11.3341
▁jeopard	-11.3341
▁jiffy	-11.3341
▁lmagine	-11.3341
▁macdougall	-11.3341
▁maggie	-11.3341
▁mathematics	-11.3341
▁monarch	-11.3341
▁motivation	-11.3341
▁muiterij	-11.3341
▁neutron	-11.3341
▁norwegian	-11.3341
▁nowadays	-11.3341
▁octavian	-11.3341
▁ontsnap	-11.3341
▁orleans	-11.3341
▁perimeter	-11.3341
▁permanent	-11.3341
▁phenomenon	-11.3341
▁popcorn	-11.3341
▁porcupine	-11.3341
▁postpone	-11.3341
▁postulants	-11.3341
▁potpie	-11.3341
▁prancing	-11.3341
▁precision	-11.3341
▁prescribe	-11.3341
▁pretzel	-11.3341
▁reginald	-11.3341
▁religion	-11.3341
▁rescuing	-11.3341
▁riffraff	-11.3341
▁rpms	-11.3341
▁sacramento	-11.3341
▁safeguard	-11.3341
▁salzburg	-11.3341
▁scheepsjongen	-11.3341
▁scissors	-11.3341
▁september	-11.3341
▁serpentine	-11.3341
▁shrieks	-11.3341
▁solitary	-11.3341
▁souvenir	-11.3341
▁spaghetti	-11.3341
▁stammering	-11.3341
▁swinburne	-11.3341
▁symphon	-11.3341
▁synthetic	-11.3341
▁thursday	-11.3341
▁tikotako	-11.3341
▁toxic	-11.3341
▁tuppence	-11.3341
▁unconscious	-11.3341
▁unpleasant	-11.3341
▁unreasonable	-11.3341
▁vanavond	-11.3341
▁veiligheid	-11.3341
▁volume	-11.3341
▁vuur	-11.3341
▁wrenching	-11.3341
▁artificial	-11.3341
▁discomboomerati	-11.3341
▁pencil	-11.3341
▁pneum	-11.3341
gebruik	-11.3341
▁adios	-11.3341
▁bastard	-11.3341
▁bridesmaid	-11.3341
▁companies	-11.3341
▁dumplings	-11.3341
▁energetic	-11.3341
▁enthusias	-11.3341
▁explosion	-11.3341
▁intimidat	-11.3341
▁oregon	-11.3341
▁overeind	-11.3341
▁participate	-11.3341
▁possibility	-11.3341
▁sarabi	-11.3341
▁selected	-11.3341
▁symptom	-11.3341
▁tattoo	-11.3341
▁ammunition	-11.3341
▁encounter	-11.3341
▁miguel	-11.3341
▁clattering	-11.3341
▁emerald	-11.3341
▁evillene	-11.3341
▁goldenrod	-11.3341
▁philologist	-11.3341
▁recipe	-11.3341
▁refuel	-11.3341
▁video	-11.3341
▁hyperdrive	-11.3341
▁literature	-11.3341
▁somewhat	-11.3341
▁swollen	-11.3341
▁hoodlum	-11.3341
▁hotdogs	-11.3341
▁mischief	-11.3341
▁transylvania	-11.3341
▁frustrat	-11.3341
▁piano	-11.3341
▁tokyo	-11.3341
▁acidosis	-11.3341
▁butbutbut	-11.3341
▁domesticated	-11.3341
▁steeple	-11.3341
▁december	-11.3341
▁drusus	-11.3341
▁pregnant	-11.3341
▁representative	-11.3341
▁underwear	-11.3341
▁orville	-11.3341
▁exclusive	-11.3341
▁fortunetelling	-11.3341
▁muller	-11.3341
▁obtain	-11.3341
▁heavily	-11.3341
▁shucks	-11.3341
▁stagecoach	-11.3341
quisition	-11.3341
▁intellectual	-11.3341
▁microsecond	-11.3341
▁robinson	-11.3341
▁stacett	-11.3341
▁adult	-11.3341
▁confederacy	-11.3341
▁poultry	-11.3341
▁øùøøùøø	-11.3341
▁solitude	-11.3341
▁bashful	-11.3341
▁boilils	-11.3341
▁hisself	-11.3341
▁moneylender	-11.3341
▁proposition	-11.3341
▁marelli	-11.3341
▁popula	-11.3341
▁contrast	-11.3341
▁charlesworth	-11.3341
▁companion	-11.3341
▁eigenaar	-11.3341
gelaten	-11.3341
▁grazie	-11.3341
▁hostess	-11.3341
▁sloep	-11.3341
▁slumber	-11.3341
▁conscious	-11.3341
▁philanderin	-11.3341
▁beneden	-11.3341
▁mutations	-11.3341
▁prompt	-11.3341
▁contemp	-11.3341
▁proclaim	-11.3341
▁carreen	-11.3341
▁goddess	-11.3341
▁headlines	-11.3341
stron	-11.3341
▁seasick	-11.3341
ception	-11.3341
▁conscience	-11.3341
▁swept	-11.3341
▁klop	-11.3341
▁extinct	-11.3341
▁harris	-11.3341
▁arrival	-11.3341
▁tooting	-11.3342
▁temptation	-11.3342
▁legacy	-11.3342
▁aroma	-11.3342
▁øùøùøø	-11.3342
▁shaft	-11.3342
▁donald	-11.3342
▁playground	-11.3342
▁microphone	-11.3342
▁apology	-11.3342
▁salami	-11.3342
▁sparrow	-11.3342
▁paleface	-11.3342
▁bijbel	-11.3342
▁milton	-11.3342
▁rabble	-11.3342
▁feature	-11.3342
▁dangling	-11.3342
▁eigen	-11.3342
▁unfair	-11.3342
▁moeder	-11.3342
▁graveyard	-11.3342
▁bridle	-11.3342
▁buddha	-11.3342
▁hebrew	-11.3342
▁flyswatter	-11.3342
▁sextus	-11.3342
▁redruth	-11.3342
nevada	-11.3342
▁whwhat	-11.3342
▁southwest	-11.3342
▁venture	-11.3342
▁britches	-11.3342
▁nitro	-11.3342
▁chalk	-11.3342
▁insulin	-11.3342
▁importance	-11.3342
▁daniel	-11.3342
▁hilda	-11.3342
▁niya	-11.3342
▁ohohohoh	-11.3342
▁raising	-11.3342
▁flourish	-11.3342
▁chaperon	-11.3342
▁patron	-11.3342
▁politician	-11.3342
▁cherie	-11.3342
▁greece	-11.3342
▁cherish	-11.3342
▁hoofer	-11.3342
▁edgar	-11.3342
▁fodder	-11.3343
▁bewitch	-11.3343
▁refund	-11.3343
▁trifl	-11.3343
▁dirigible	-11.3343
▁stuurman	-11.3343
▁resistance	-11.3343
▁crisp	-11.3343
▁breach	-11.3343
▁outward	-11.3343
mission	-11.3343
▁audio	-11.3343
▁gadget	-11.3343
▁interior	-11.3343
▁ninny	-11.3343
▁ticklin	-11.3343
▁trixie	-11.3343
▁inspector	-11.3343
▁savannah	-11.3343
▁zebra	-11.3343
▁taffy	-11.3343
▁snowstorm	-11.3343
▁stardust	-11.3343
▁silk	-11.3343
▁adjust	-11.3343
▁whitewall	-11.3343
▁affectionate	-11.3343
▁fluke	-11.3343
tobe	-11.3343
▁notebook	-11.3343
▁speck	-11.3343
▁programmed	-11.3344
▁remarkable	-11.3344
▁cumberland	-11.3344
▁meichan	-11.3344
▁automatically	-11.3344
▁divinity	-11.3344
▁merri	-11.3344
▁iq	-11.3344
▁holler	-11.3344
▁pussy	-11.3344
▁olives	-11.3344
▁enchantment	-11.3344
▁rugged	-11.3344
▁stepmother	-11.3344
▁wiggle	-11.3344
▁humph	-11.3344
▁pedal	-11.3344
▁plantation	-11.3344
▁laddie	-11.3344
▁dodger	-11.3344
▁liza	-11.3344
▁sinuses	-11.3344
▁insight	-11.3344
▁artist	-11.3344
▁denver	-11.3344
▁countries	-11.3345
▁tutor	-11.3345
▁infield	-11.3345
▁microscan	-11.3345
heroesatyahoocom	-11.3345
▁scurry	-11.3345
▁civil	-11.3345
▁juic	-11.3345
▁evolved	-11.3345
▁bellissima	-11.3345
▁terrifical	-11.3345
▁funeral	-11.3345
▁sedan	-11.3345
▁slither	-11.3345
▁doggone	-11.3346
▁wench	-11.3346
▁seattle	-11.3346
▁background	-11.3346
▁seawater	-11.3346
▁superstitio	-11.3346
▁signature	-11.3346
▁settling	-11.3346
▁clara	-11.3346
▁navigation	-11.3346
▁trouser	-11.3346
▁prowler	-11.3346
▁housekeeper	-11.3346
▁yacht	-11.3346
▁canary	-11.3346
▁sissy	-11.3346
▁cuttin	-11.3347
▁bookshop	-11.3347
▁electricity	-11.3347
▁issu	-11.3347
▁theatre	-11.3347
▁salad	-11.3347
▁tiber	-11.3347
▁publisher	-11.3347
▁squirtle	-11.3347
▁sheik	-11.3347
bbin	-11.3347
▁verstopt	-11.3347
▁wrist	-11.3347
▁goldstone	-11.3348
▁additional	-11.3348
▁inherited	-11.3348
▁pacifier	-11.3348
▁civilized	-11.3348
▁munch	-11.3348
▁lounging	-11.3348
▁ounce	-11.3348
▁gurgling	-11.3348
▁geeup	-11.3349
▁barren	-11.3349
▁shopping	-11.3349
▁eliminated	-11.3349
▁wwwhat	-11.3349
▁mishap	-11.3349
▁flour	-11.3349
▁gizzard	-11.3349
▁polar	-11.3349
▁problemfree	-11.335
▁personality	-11.335
▁overall	-11.335
▁muske	-11.335
▁disappointment	-11.335
▁ambush	-11.3351
▁boohoo	-11.3351
▁assembly	-11.3351
▁leash	-11.3351
▁stork	-11.3351
▁flooded	-11.3351
▁investigation	-11.3351
▁edition	-11.3351
▁allowance	-11.3351
▁lubricate	-11.3351
▁wages	-11.3352
▁shimmer	-11.3352
▁slice	-11.3352
▁edwina	-11.3352
▁joyous	-11.3352
▁contestant	-11.3352
brained	-11.3352
▁amusing	-11.3352
▁cockroach	-11.3352
▁sadness	-11.3353
▁rewing	-11.3353
▁moist	-11.3353
▁filter	-11.3353
▁achievement	-11.3354
izzard	-11.3354
▁ptc	-11.3354
▁bombom	-11.3354
▁girlfrlend	-11.3354
▁airport	-11.3354
▁ooooh	-11.3354
▁layeeodloo	-11.3355
▁expression	-11.3355
yaya	-11.3355
▁teasing	-11.3355
▁abbe	-11.3355
angled	-11.3355
▁twirl	-11.3355
▁oohooh	-11.3356
▁scenery	-11.3356
▁verb	-11.3356
▁peep	-11.3356
▁afoot	-11.3356
▁nearby	-11.3357
▁royalty	-11.3357
▁discourag	-11.3357
▁stomp	-11.3357
▁kong	-11.3357
▁hicks	-11.3357
▁oooh	-11.3357
▁product	-11.3357
▁collector	-11.3358
▁begging	-11.3358
▁moose	-11.3358
▁blake	-11.3358
▁dispose	-11.3358
▁preparation	-11.3358
▁scattered	-11.3359
▁tarts	-11.3359
▁triggered	-11.3359
▁accomplished	-11.3359
▁juli	-11.3359
atricia	-11.3359
▁secretary	-11.336
▁romance	-11.336
▁clearance	-11.336
ye	-11.336
▁directive	-11.3361
▁candy	-11.3361
▁sorcerer	-11.3361
▁flapping	-11.3361
▁frost	-11.3361
▁zich	-11.3361
▁links	-11.3362
▁wockety	-11.3362
▁heights	-11.3362
▁jewelry	-11.3363
▁denken	-11.3363
▁mature	-11.3363
chop	-11.3363
▁astounds	-11.3364
▁spooky	-11.3364
▁musician	-11.3364
▁cruiser	-11.3364
▁tipo	-11.3364
▁organized	-11.3365
▁dragged	-11.3365
▁protective	-11.3365
▁spud	-11.3365
▁download	-11.3365
▁damaged	-11.3366
▁restart	-11.3366
▁waltzes	-11.3366
▁difficulties	-11.3366
▁woolen	-11.3366
ggering	-11.3366
▁endure	-11.3366
▁knack	-11.3366
▁hometown	-11.3367
▁ronnie	-11.3367
▁echoing	-11.3367
▁translation	-11.3367
▁expressed	-11.3368
▁spitting	-11.3368
▁ligt	-11.3368
▁rejoice	-11.3368
▁beams	-11.3368
▁tyke	-11.3369
▁extract	-11.3369
gency	-11.3369
▁vowels	-11.3369
▁massage	-11.3369
▁morgan	-11.3369
▁williams	-11.3369
▁dialects	-11.3369
▁pancakes	-11.3369
▁arabians	-11.3369
▁carpetbaggers	-11.3369
▁funding	-11.3369
▁actual	-11.3369
▁gallons	-11.3369
▁blazes	-11.3369
yahoocom	-11.3369
▁blankets	-11.337
▁archives	-11.337
▁zeke	-11.337
▁fought	-11.337
▁dustman	-11.337
▁microns	-11.337
▁barefoot	-11.3371
▁considerable	-11.3371
acles	-11.3371
▁policeman	-11.3371
▁menace	-11.3371
▁glowing	-11.3371
▁puttin	-11.3371
▁hardship	-11.3372
▁hopping	-11.3372
▁contin	-11.3372
▁serving	-11.3372
▁floatin	-11.3373
bbling	-11.3375
▁shatters	-11.3376
▁solution	-11.3376
▁vai	-11.3376
▁warnin	-11.3376
▁makebelieve	-11.3377
▁nono	-11.3378
addle	-11.3379
▁lui	-11.3379
▁disc	-11.3381
standing	-11.3382
▁suspected	-11.3382
▁apes	-11.3383
▁waco	-11.3383
▁lolly	-11.3383
▁reactor	-11.3384
▁peddler	-11.3384
rif	-11.3384
rical	-11.3384
▁stonehill	-11.3384
▁separated	-11.3384
▁andre	-11.3385
▁klein	-11.3385
▁july	-11.3385
irst	-11.3385
onia	-11.3386
▁budget	-11.3386
▁disarm	-11.3386
▁jake	-11.3387
▁brow	-11.3387
▁willow	-11.3387
▁emily	-11.3388
▁lamplight	-11.3388
▁bleach	-11.3388
▁flashed	-11.3388
▁governesses	-11.3388
▁madman	-11.3389
hearted	-11.3389
▁owie	-11.3389
▁lorry	-11.339
▁darkies	-11.339
▁secured	-11.339
▁pear	-11.339
▁runaway	-11.3391
▁blah	-11.3391
▁parttime	-11.3392
▁peach	-11.3392
▁acquire	-11.3393
▁steering	-11.3393
▁torch	-11.3393
▁inspiring	-11.3393
▁outrageous	-11.3394
▁crushed	-11.3394
▁nuns	-11.3394
▁keel	-11.3394
▁uur	-11.3394
▁aww	-11.3395
▁ripped	-11.3396
otic	-11.3398
▁risky	-11.3399
▁handling	-11.3399
▁flicker	-11.3399
▁offend	-11.34
▁attached	-11.3401
▁flashing	-11.3401
▁whim	-11.3402
▁rewind	-11.3402
▁satisfied	-11.3402
▁shutting	-11.3403
▁blighter	-11.3403
▁morality	-11.3404
▁pistol	-11.3404
▁drafted	-11.3404
▁related	-11.3405
▁liqu	-11.3406
▁growl	-11.3407
▁zim	-11.3408
▁convinced	-11.3409
▁runners	-11.341
▁detailed	-11.341
▁misty	-11.3412
▁entertaining	-11.3412
▁pearl	-11.3412
▁laydeeodl	-11.3414
▁rags	-11.3415
▁smoothly	-11.3415
▁leaning	-11.3415
▁drunker	-11.3416
▁marbles	-11.3416
▁scraping	-11.3416
▁ivy	-11.3416
▁amigos	-11.3416
▁comrades	-11.3416
▁competitors	-11.3416
▁procedures	-11.3417
▁resources	-11.3417
▁cigars	-11.3419
▁johnson	-11.3419
your	-11.342
▁orphans	-11.3421
▁illustr	-11.3422
▁thirsty	-11.3425
shop	-11.3427
▁disappearing	-11.3428
▁robbers	-11.3428
▁sherman	-11.3428
▁geluk	-11.3428
▁focused	-11.3429
▁sporting	-11.3429
▁monitored	-11.3429
▁steril	-11.3429
▁cities	-11.3429
▁wapens	-11.343
▁cookies	-11.343
▁existed	-11.3431
▁mel	-11.3431
▁physics	-11.3431
master	-11.3432
▁flames	-11.3433
rance	-11.3434
▁pike	-11.344
▁embarrassed	-11.3441
▁homeland	-11.3441
▁melting	-11.3441
▁struck	-11.3443
▁normally	-11.3443
▁gib	-11.3443
▁squeaker	-11.3444
pher	-11.3445
▁cloudy	-11.3445
▁ahhh	-11.3446
▁consideration	-11.3446
▁everyday	-11.3446
▁trumpet	-11.3447
▁staat	-11.3448
▁sacrificed	-11.3448
▁gross	-11.3448
▁travelers	-11.3449
▁spotlight	-11.3449
▁bookkeeper	-11.3449
▁novel	-11.345
ssenger	-11.3451
▁jailer	-11.3452
▁flattering	-11.3454
▁chic	-11.3455
▁sucker	-11.3457
▁cargo	-11.3459
▁dearie	-11.3459
▁sunk	-11.3459
▁cryin	-11.346
▁sucks	-11.3462
▁ohhhh	-11.3463
▁improved	-11.3463
silico	-11.3463
▁morgen	-11.3464
▁shillings	-11.3465
▁regions	-11.3465
▁cannibals	-11.3466
▁illusions	-11.3466
▁statement	-11.3466
▁toro	-11.3466
wards	-11.3467
▁hallways	-11.3468
▁pitches	-11.347
▁cord	-11.3471
▁crank	-11.3473
▁invest	-11.3473
▁brightly	-11.3475
▁risen	-11.3475
ligible	-11.3476
mma	-11.3476
▁classy	-11.3478
▁urge	-11.3479
▁punk	-11.348
▁sighing	-11.3482
▁rash	-11.3484
▁arrested	-11.3487
indo	-11.3488
▁stan	-11.349
▁reminder	-11.3491
▁kwam	-11.3492
▁sank	-11.3493
▁hack	-11.3495
▁trend	-11.3495
▁garn	-11.3496
▁alaka	-11.3497
▁wacht	-11.3498
▁hound	-11.3499
▁thorn	-11.3502
▁collected	-11.3502
▁limits	-11.3503
▁objection	-11.3504
▁patches	-11.3504
▁ranking	-11.3511
▁deeper	-11.3511
▁waard	-11.3511
▁sneezes	-11.3512
▁fig	-11.3512
▁whoaoh	-11.3512
▁chambers	-11.3512
ured	-11.3512
▁flowrs	-11.3513
▁acids	-11.3513
▁mortals	-11.3513
▁snif	-11.3513
▁cracked	-11.3514
▁vegetables	-11.3515
▁pocketa	-11.3517
▁laden	-11.3518
▁spared	-11.3518
▁lens	-11.3518
▁casting	-11.352
▁dagge	-11.3524
▁psycholog	-11.3526
▁aryans	-11.3527
▁yau	-11.3527
▁mooie	-11.3531
▁braz	-11.3532
ynch	-11.3532
▁protector	-11.3533
▁restrain	-11.3534
▁active	-11.3534
▁dunn	-11.3535
▁reminded	-11.3537
▁sale	-11.3537
▁geven	-11.3539
lve	-11.3542
▁marie	-11.3544
▁memor	-11.3544
▁swede	-11.3544
▁snorts	-11.3545
▁jackal	-11.3546
digested	-11.3552
▁nearer	-11.3552
▁edit	-11.3553
▁summons	-11.3555
▁noodle	-11.3555
▁instruments	-11.3556
▁wilkeses	-11.3557
zzie	-11.3561
▁backside	-11.3562
▁curtains	-11.3563
▁ribbons	-11.3564
▁benefits	-11.3564
ograph	-11.3564
▁inventions	-11.3564
printer	-11.3565
▁bums	-11.3566
rmint	-11.3566
▁corp	-11.3569
my	-11.3569
▁twins	-11.357
▁lug	-11.3572
▁slower	-11.3574
▁bothered	-11.3577
▁sighted	-11.3579
▁epi	-11.3581
▁drum	-11.3581
▁shorter	-11.3582
▁bail	-11.3584
uffr	-11.3584
▁knowin	-11.3595
▁dedicat	-11.3596
▁coup	-11.3597
roll	-11.3601
lev	-11.3603
▁predic	-11.3604
rnament	-11.3606
aint	-11.3608
▁watlings	-11.3611
▁constant	-11.3612
▁mondays	-11.3612
nia	-11.3613
▁digit	-11.3613
▁juggl	-11.3614
zed	-11.3614
▁protected	-11.3617
▁disappears	-11.3618
▁deserted	-11.3618
▁wounds	-11.362
▁rolled	-11.3624
▁hig	-11.3628
▁crater	-11.3628
▁wwe	-11.3631
octo	-11.3631
▁grill	-11.3631
bbering	-11.3631
▁phoe	-11.3632
▁washes	-11.3638
▁suspende	-11.3644
eeeee	-11.3646
▁designer	-11.3646
▁defens	-11.3647
▁plants	-11.3648
▁deeds	-11.365
▁zoom	-11.3653
▁stove	-11.3654
▁subjects	-11.3656
▁differently	-11.3658
▁barr	-11.3659
▁karat	-11.3659
ou	-11.366
di	-11.3661
▁abe	-11.3661
yah	-11.3661
▁welsh	-11.3662
▁evermean	-11.3662
▁bothering	-11.3663
airn	-11.3663
▁spaceman	-11.3663
▁bil	-11.3667
▁destroying	-11.3668
▁engineer	-11.3669
▁colder	-11.367
▁ton	-11.3675
achers	-11.3676
▁rein	-11.3677
rath	-11.3679
▁sparks	-11.368
car	-11.3682
▁backup	-11.3685
▁chimes	-11.3686
▁forgiven	-11.3686
logged	-11.3687
nto	-11.369
anni	-11.3694
▁pier	-11.3695
▁dearest	-11.3696
▁roams	-11.3701
▁kneel	-11.3704
▁clowns	-11.371
▁bananas	-11.3711
▁rainbows	-11.3712
houses	-11.3713
▁env	-11.3714
▁protecting	-11.3715
▁sha	-11.3719
▁locking	-11.3719
▁shutters	-11.3721
▁enig	-11.3723
▁concerns	-11.3723
▁askin	-11.3728
▁spreading	-11.3728
▁lag	-11.3732
▁tapes	-11.3739
eral	-11.3741
▁slipp	-11.3742
pound	-11.3743
▁seeding	-11.3744
▁cove	-11.375
aan	-11.3753
▁snaps	-11.3753
▁worryin	-11.3757
▁circuits	-11.376
▁strand	-11.3765
▁loser	-11.3767
▁brutes	-11.3771
▁hens	-11.3779
▁attacking	-11.3781
▁treating	-11.3784
▁killers	-11.3788
▁crop	-11.379
wing	-11.3792
▁sue	-11.3793
anton	-11.3795
▁bottles	-11.3798
▁hoist	-11.3802
gu	-11.3804
▁griffins	-11.3807
▁peasants	-11.381
▁greets	-11.3815
pence	-11.3815
▁weary	-11.3816
▁hea	-11.3817
▁burnt	-11.3821
ified	-11.3829
▁muffle	-11.3833
▁num	-11.3838
hh	-11.3841
▁stutter	-11.385
eat	-11.3855
▁chore	-11.3856
bois	-11.3857
▁trio	-11.386
▁mirrors	-11.386
▁occasions	-11.386
▁costs	-11.3867
▁images	-11.3869
medical	-11.3871
▁tips	-11.3873
▁prowl	-11.3879
▁hideous	-11.3881
▁dread	-11.3883
▁explained	-11.3887
▁frill	-11.3887
ice	-11.3888
▁perish	-11.3892
▁charl	-11.3893
▁damp	-11.3902
▁prizes	-11.3907
ope	-11.3907
▁prophets	-11.3909
▁defender	-11.392
ace	-11.3921
▁lighter	-11.3921
agging	-11.3923
about	-11.3926
mpson	-11.3926
gne	-11.3928
▁photos	-11.3929
▁dra	-11.3934
cur	-11.3936
▁cows	-11.3937
notes	-11.3942
plus	-11.395
any	-11.3956
▁grades	-11.3956
▁borders	-11.3963
cant	-11.3966
▁pois	-11.3967
▁wanne	-11.3968
▁and	-11.3969
▁liking	-11.3974
▁mango	-11.3978
gon	-11.3978
▁arch	-11.398
▁interests	-11.398
▁fee	-11.3985
ante	-11.3986
▁sitter	-11.3989
▁ostr	-11.3992
▁overp	-11.3994
▁beaut	-11.3997
▁clam	-11.3998
rous	-11.4001
pus	-11.4004
orious	-11.4005
▁rotat	-11.4006
eaten	-11.4008
▁professionals	-11.4011
bell	-11.4012
plication	-11.4015
cked	-11.4016
▁imitation	-11.4019
▁ssss	-11.4025
▁peak	-11.4028
▁realm	-11.4031
▁lodge	-11.4041
▁skipp	-11.4041
refined	-11.4045
▁dragg	-11.4048
▁nin	-11.4049
▁getup	-11.4053
▁lists	-11.4056
▁circles	-11.4059
▁businesses	-11.4065
▁helper	-11.4065
▁deader	-11.4071
uff	-11.4085
▁hanged	-11.4089
▁flags	-11.4095
heap	-11.41
sort	-11.4104
grave	-11.4104
▁clubs	-11.4104
iggity	-11.4105
hi	-11.4105
▁sauc	-11.4106
▁dolls	-11.4117
▁vir	-11.412
▁prop	-11.4123
▁fujim	-11.4128
▁archi	-11.4141
▁priorit	-11.4155
▁lovers	-11.4156
▁corr	-11.4157
▁experiments	-11.4158
▁irr	-11.4174
rell	-11.4178
▁writ	-11.418
▁cared	-11.4183
storm	-11.4192
▁bombs	-11.4195
aza	-11.4196
▁smokes	-11.4198
erst	-11.4213
▁victor	-11.4219
▁robber	-11.4228
▁scor	-11.4235
▁commentar	-11.4248
▁fixing	-11.4251
assigned	-11.4254
ave	-11.4257
▁gent	-11.4261
▁reck	-11.4279
▁ven	-11.4287
ini	-11.4288
eer	-11.43
▁towers	-11.4308
sper	-11.4312
▁buying	-11.4326
▁doubts	-11.4327
ded	-11.4333
▁neds	-11.4334
ck	-11.434
aught	-11.434
▁foreclos	-11.4355
chen	-11.4356
▁exp	-11.4357
▁keepin	-11.4359
▁touching	-11.4363
▁coordinate	-11.4368
▁geze	-11.4368
▁hid	-11.4372
quit	-11.4383
▁fasten	-11.4388
▁gad	-11.4399
eren	-11.4399
pair	-11.4403
▁version	-11.4409
ab	-11.4414
▁resident	-11.4419
▁mens	-11.442
▁fires	-11.4421
▁stages	-11.4426
jes	-11.444
▁apo	-11.4446
lent	-11.4449
▁cameras	-11.4456
▁tigers	-11.4458
uria	-11.4462
▁chairs	-11.4465
▁germans	-11.4468
fold	-11.447
atin	-11.4479
uce	-11.4487
▁seats	-11.4487
▁evacuate	-11.4488
▁agents	-11.4495
▁hagg	-11.45
volgen	-11.4509
▁turner	-11.4513
▁ter	-11.452
▁dime	-11.4521
▁swamps	-11.4523
▁robe	-11.4525
ained	-11.4527
▁pockets	-11.4535
▁batt	-11.4535
▁gar	-11.4536
øø	-11.4537
▁primar	-11.4541
dden	-11.4546
lier	-11.4546
▁schem	-11.4563
ency	-11.457
ely	-11.4579
▁sins	-11.4583
wn	-11.4584
▁dearly	-11.4586
▁sells	-11.459
eerder	-11.4608
nen	-11.4616
bage	-11.4626
▁zout	-11.4638
▁newly	-11.4643
▁mars	-11.4647
timate	-11.4648
kings	-11.4649
staan	-11.4649
▁overflow	-11.4664
▁sniffl	-11.4665
kker	-11.467
ettes	-11.4693
▁role	-11.4694
▁convent	-11.4709
▁assemble	-11.4709
▁identifi	-11.4727
▁getta	-11.474
▁hoke	-11.4743
▁ideal	-11.4751
▁lmp	-11.4751
▁unch	-11.4751
▁auction	-11.4752
gee	-11.4755
▁hears	-11.4776
sible	-11.4787
ttier	-11.4795
▁expose	-11.4796
▁tri	-11.4798
youre	-11.4803
▁committe	-11.4817
wan	-11.4831
her	-11.4837
▁helps	-11.485
ùù	-11.4854
ens	-11.4854
▁favorites	-11.4856
poo	-11.4921
dont	-11.4926
▁pac	-11.4926
ody	-11.4927
late	-11.4932
roni	-11.4942
▁summers	-11.4957
eater	-11.4963
▁neer	-11.4969
▁rubbe	-11.4979
▁budd	-11.4979
dest	-11.4982
clear	-11.4997
urg	-11.4998
ui	-11.4999
▁hated	-11.5002
▁jol	-11.5011
hold	-11.502
▁schr	-11.5028
sia	-11.5031
▁allerg	-11.5031
▁rem	-11.504
un	-11.5042
▁birthdays	-11.5056
▁inge	-11.5057
tain	-11.5058
vers	-11.5085
▁scu	-11.509
sional	-11.5098
▁mang	-11.5099
ella	-11.51
▁resting	-11.5107
▁coot	-11.5108
▁roast	-11.5117
▁patrollin	-11.5127
tractors	-11.5128
ight	-11.5133
roque	-11.5135
cial	-11.5136
kies	-11.5139
▁oblig	-11.5142
ord	-11.5145
▁dope	-11.5145
▁cancell	-11.5161
▁snug	-11.5161
▁easie	-11.5164
▁fog	-11.5165
acious	-11.5165
orrow	-11.5167
divided	-11.5189
etch	-11.519
ancy	-11.5213
▁painful	-11.5219
▁calv	-11.5224
ead	-11.5225
raag	-11.525
hara	-11.5258
▁quitt	-11.5273
dd	-11.529
kken	-11.5311
bag	-11.5327
mmen	-11.5328
right	-11.5333
▁lid	-11.5336
▁rivers	-11.5347
▁trou	-11.5347
▁diagnose	-11.5359
▁employ	-11.5365
ael	-11.5387
▁scen	-11.539
regu	-11.5393
sk	-11.5404
ote	-11.5405
su	-11.5421
▁ar	-11.5437
sford	-11.5447
lipped	-11.5453
▁hobb	-11.5458
ain	-11.5459
▁bore	-11.5467
ase	-11.5487
mp	-11.5496
nders	-11.5499
▁keeper	-11.5511
▁comp	-11.5531
fying	-11.5537
▁intima	-11.5538
▁graduat	-11.5542
▁wei	-11.5545
▁curb	-11.5549
▁dies	-11.555
▁bile	-11.5551
▁unn	-11.5583
doo	-11.5586
lph	-11.5588
▁crystalli	-11.5588
▁hoo	-11.559
ails	-11.5598
ough	-11.5604
▁misunderstand	-11.5623
ug	-11.5634
▁toss	-11.5634
▁fighter	-11.5643
▁verse	-11.565
▁zi	-11.5659
halt	-11.5674
mat	-11.568
ggle	-11.5681
▁bib	-11.569
▁diagnos	-11.5719
▁phil	-11.5721
▁dist	-11.5731
rit	-11.5741
▁mini	-11.5742
lus	-11.5744
▁res	-11.5747
▁provo	-11.5752
▁bio	-11.5772
▁øøùøø	-11.5776
▁dec	-11.5816
øùùø	-11.5821
▁rag	-11.5837
▁thi	-11.584
▁øùùøùø	-11.5841
ris	-11.5844
▁wins	-11.5856
▁him	-11.5877
▁mal	-11.5889
uiten	-11.5899
▁geheim	-11.5912
▁disrespect	-11.592
session	-11.5929
▁beasts	-11.5933
▁sco	-11.5936
▁yyour	-11.595
ero	-11.5952
rank	-11.5967
ought	-11.5968
nished	-11.5975
ocks	-11.598
ssuri	-11.5988
▁øaø	-11.5999
▁cop	-11.6005
▁pres	-11.6037
▁weep	-11.6043
erely	-11.6044
▁trim	-11.6047
idge	-11.6048
▁iti	-11.6058
ety	-11.6059
eten	-11.6063
eg	-11.6067
tes	-11.6068
▁allergi	-11.6072
▁por	-11.6074
▁hhh	-11.608
▁hil	-11.6089
▁vis	-11.6116
native	-11.6117
rke	-11.6127
cking	-11.6129
▁pru	-11.6159
▁clothe	-11.6172
udent	-11.6174
▁ùøùø	-11.6177
ction	-11.6184
▁propos	-11.6197
▁hee	-11.6198
hras	-11.6199
▁consume	-11.6205
thing	-11.6205
▁tomb	-11.6217
thrown	-11.6232
▁associat	-11.6244
ecom	-11.6259
▁lin	-11.6263
ute	-11.6264
▁geef	-11.6268
▁factor	-11.627
ison	-11.6271
gity	-11.6276
▁trusts	-11.6297
▁broo	-11.6298
▁drug	-11.633
sted	-11.6337
▁nothings	-11.6339
ram	-11.6347
▁mich	-11.6352
▁peer	-11.6359
bel	-11.6372
▁wakes	-11.6386
▁belles	-11.6398
▁slid	-11.6401
▁berg	-11.6402
itting	-11.6404
▁twentyf	-11.6408
eff	-11.641
▁plug	-11.6411
▁univers	-11.6414
ators	-11.6424
▁wonders	-11.6431
▁der	-11.6442
j	-11.6444
▁flipp	-11.6453
▁host	-11.6454
▁sham	-11.6455
▁dep	-11.6457
▁rim	-11.6462
▁victori	-11.6467
▁parting	-11.648
erie	-11.6485
▁tipp	-11.651
makers	-11.6518
yo	-11.6534
don	-11.6566
ands	-11.6579
saur	-11.6582
▁dances	-11.6593
look	-11.6628
othe	-11.664
think	-11.6649
sting	-11.665
▁swamp	-11.6663
▁stead	-11.67
yeah	-11.6722
ists	-11.6738
▁latch	-11.6738
▁glo	-11.6744
veral	-11.6745
wer	-11.6746
▁mes	-11.6757
▁destructi	-11.6766
tt	-11.6768
zer	-11.6795
▁mos	-11.6797
▁shakin	-11.6799
ario	-11.6802
od	-11.6804
verse	-11.6805
rge	-11.6807
arious	-11.6816
▁thud	-11.6822
spect	-11.6831
▁twee	-11.6835
▁partys	-11.6844
▁øøøøù	-11.6847
▁myst	-11.685
lessly	-11.6858
▁ple	-11.6858
▁coordinat	-11.686
▁tro	-11.6861
▁pend	-11.6874
▁gust	-11.6879
rots	-11.6884
ector	-11.6895
▁legi	-11.6897
▁leapin	-11.6899
rnia	-11.6908
▁aqua	-11.6911
▁rec	-11.6914
▁sni	-11.6926
nes	-11.6929
ls	-11.6938
gy	-11.6949
aah	-11.6963
oof	-11.6969
▁flippin	-11.6994
▁assign	-11.7
eech	-11.7001
ink	-11.7001
lac	-11.7019
kin	-11.7023
ddy	-11.7023
▁grav	-11.7028
▁shi	-11.7047
▁horri	-11.7055
the	-11.7057
paid	-11.7059
▁det	-11.7059
ank	-11.7061
eil	-11.7069
sta	-11.7073
▁col	-11.7081
▁brack	-11.7095
▁crafts	-11.7121
▁infer	-11.7143
▁prior	-11.715
ool	-11.7162
dings	-11.7164
formation	-11.7205
▁schools	-11.7206
els	-11.7208
▁aca	-11.7209
ways	-11.7214
zam	-11.7234
torme	-11.7236
aron	-11.7238
▁hahaha	-11.7261
bble	-11.7265
▁deservin	-11.7265
store	-11.7275
▁echoe	-11.7285
llage	-11.7287
▁geva	-11.7307
▁avia	-11.7319
▁mug	-11.732
▁sau	-11.7332
tions	-11.7333
▁sof	-11.7338
▁erva	-11.7341
dom	-11.7346
llow	-11.7382
thank	-11.7387
▁spina	-11.739
▁kare	-11.7393
ys	-11.7406
hole	-11.741
mps	-11.7414
▁tempt	-11.7423
▁tho	-11.743
▁pla	-11.7431
▁ew	-11.7433
uiz	-11.7439
ores	-11.745
ingham	-11.7463
eating	-11.7473
▁gestu	-11.7477
ames	-11.7478
▁advise	-11.7481
burg	-11.7491
▁sens	-11.7499
tically	-11.7509
woman	-11.7516
▁freight	-11.7517
ax	-11.7525
tive	-11.7525
▁pitt	-11.7529
▁comic	-11.7566
ssion	-11.7567
reak	-11.7578
ensive	-11.758
▁thiev	-11.7583
▁ùùøø	-11.7588
berg	-11.7613
lp	-11.7614
owering	-11.7617
now	-11.762
▁loses	-11.763
assy	-11.7631
sed	-11.7632
around	-11.7637
▁dub	-11.7651
▁sweeps	-11.7656
passed	-11.7656
race	-11.7657
▁follows	-11.7657
fraid	-11.7658
▁reuni	-11.7661
▁øùùù	-11.7665
▁bab	-11.7674
▁suckin	-11.7683
great	-11.7685
▁lettin	-11.7685
▁gangs	-11.7689
▁acomin	-11.7689
form	-11.7693
▁zip	-11.7699
▁is	-11.7701
hoppers	-11.7703
fe	-11.7707
▁robbe	-11.7719
tle	-11.7726
chtig	-11.7729
last	-11.7732
lo	-11.7734
two	-11.7735
▁rep	-11.7743
▁dialog	-11.7744
ni	-11.7746
▁blij	-11.7754
uki	-11.7754
ka	-11.7761
bird	-11.7762
ride	-11.7765
▁nag	-11.7768
oline	-11.7771
tier	-11.7774
▁involv	-11.7779
hall	-11.7781
baby	-11.7792
stay	-11.7794
rama	-11.7801
road	-11.7802
pping	-11.7809
nix	-11.7817
youyou	-11.7819
mb	-11.7824
eling	-11.7824
ire	-11.7845
town	-11.7849
▁kies	-11.7851
pin	-11.7855
tri	-11.7855
boat	-11.7857
▁sup	-11.7858
wind	-11.7863
▁hyp	-11.7865
▁tien	-11.7866
active	-11.7872
▁mutt	-11.7874
wether	-11.7882
rn	-11.7888
▁dek	-11.7889
▁forgets	-11.789
oose	-11.7891
itude	-11.7906
neer	-11.7911
human	-11.7936
▁travell	-11.7937
▁loot	-11.7942
▁devo	-11.7945
▁splu	-11.7951
▁expo	-11.7962
nters	-11.7964
▁lump	-11.7964
apping	-11.797
bert	-11.7974
▁robb	-11.7977
▁swingin	-11.7979
ature	-11.7982
promise	-11.7985
▁unv	-11.799
▁nor	-11.7995
rine	-11.7998
oodles	-11.7998
zoek	-11.8005
high	-11.8007
fulness	-11.8008
▁spi	-11.8008
eal	-11.8011
▁shovin	-11.8014
rium	-11.8024
pickin	-11.8029
load	-11.8031
▁blinkin	-11.8032
▁confus	-11.8038
married	-11.8038
bric	-11.804
mouth	-11.8048
fool	-11.8049
agged	-11.805
earned	-11.8051
track	-11.8051
lace	-11.8054
iddle	-11.8054
fa	-11.8055
hour	-11.8056
gown	-11.8059
▁or	-11.8062
penny	-11.8063
brush	-11.8063
cover	-11.8064
▁backsta	-11.8066
living	-11.8068
▁figur	-11.8075
bug	-11.8076
▁etch	-11.8077
sel	-11.8079
official	-11.8079
tips	-11.8081
duty	-11.8081
squeak	-11.8082
nter	-11.8082
▁gener	-11.8082
sharp	-11.8082
teacher	-11.8083
wacht	-11.8084
cup	-11.8089
woord	-11.809
natural	-11.809
changing	-11.8092
style	-11.8093
safety	-11.8093
bank	-11.8094
schat	-11.8096
wash	-11.8096
cdr	-11.8102
acks	-11.8102
driver	-11.8104
grant	-11.8105
zij	-11.8105
minus	-11.8105
center	-11.8108
growth	-11.8111
clones	-11.8116
zero	-11.8116
space	-11.8116
▁ie	-11.8119
gift	-11.8121
▁peopl	-11.8124
ira	-11.8124
movin	-11.8125
sis	-11.8125
wide	-11.8128
wheel	-11.813
stock	-11.8132
vi	-11.814
wood	-11.814
distinct	-11.8142
fly	-11.8147
guns	-11.8153
aaah	-11.8155
▁fright	-11.8159
▁mot	-11.8161
int	-11.8162
definitely	-11.8168
significant	-11.817
ef	-11.817
fired	-11.8172
workers	-11.8172
▁rud	-11.8174
ep	-11.8178
buster	-11.8179
▁bookkeep	-11.8179
plant	-11.8185
▁croc	-11.8186
sweet	-11.8188
▁quin	-11.8188
▁click	-11.819
rose	-11.8191
doodle	-11.8193
▁idio	-11.8198
mobile	-11.8198
▁your	-11.8199
▁specia	-11.8201
▁haulin	-11.8201
▁slattery	-11.8207
self	-11.8208
▁beggar	-11.8211
▁orphan	-11.8211
play	-11.8214
▁cigar	-11.8216
▁procedure	-11.8219
▁stud	-11.8219
▁resource	-11.8219
▁competitor	-11.8219
▁comrade	-11.822
▁amigo	-11.8222
▁brook	-11.8223
ification	-11.8224
rid	-11.8224
▁magician	-11.8226
▁injun	-11.8226
▁mcalester	-11.8227
▁commercial	-11.8227
▁marble	-11.8227
▁result	-11.823
▁citizen	-11.823
▁insect	-11.823
▁blade	-11.8231
▁inhale	-11.8231
▁kitten	-11.8232
▁alien	-11.8232
wall	-11.8234
▁galley	-11.8235
▁emotion	-11.8236
▁pitty	-11.8238
▁cookie	-11.8239
▁scoff	-11.8239
▁moral	-11.824
▁rattle	-11.8241
▁prepar	-11.8244
▁spl	-11.8245
▁whisker	-11.8245
rive	-11.825
▁sull	-11.8252
▁controller	-11.8252
utin	-11.8254
tongue	-11.8254
▁trooper	-11.8256
working	-11.8256
responsible	-11.8256
ral	-11.8256
▁outrage	-11.8257
nkers	-11.8258
lance	-11.8262
bags	-11.8265
bore	-11.8269
ility	-11.8273
▁onion	-11.8273
cedo	-11.8274
▁strak	-11.8275
visor	-11.8277
▁heigh	-11.8277
min	-11.8279
▁buzzard	-11.8279
▁runner	-11.8282
▁dodo	-11.8283
alled	-11.8284
▁distract	-11.8284
▁visitor	-11.8286
▁snoop	-11.8286
▁satisfact	-11.8287
▁oak	-11.8288
tig	-11.8288
known	-11.8288
▁nigh	-11.8291
▁meow	-11.8292
ltan	-11.8292
ina	-11.8293
▁shak	-11.8293
pleased	-11.8294
▁ultimat	-11.83
▁should	-11.8303
▁activat	-11.8304
▁stair	-11.8304
▁rehears	-11.8304
▁annoy	-11.8305
▁obli	-11.8305
▁inspect	-11.8305
▁matt	-11.8306
▁accord	-11.8307
▁flirt	-11.8308
▁refurbish	-11.8309
▁gidd	-11.831
▁overload	-11.8311
▁bulb	-11.8312
▁accomplish	-11.8312
▁trigger	-11.8312
▁rabbi	-11.8313
iti	-11.8313
▁determine	-11.8313
▁abandon	-11.8313
▁horribl	-11.8314
▁adopt	-11.8314
pix	-11.8315
▁exhaust	-11.8315
▁massag	-11.8315
▁innocen	-11.8316
▁scatter	-11.8316
▁motorcycl	-11.8317
▁gravit	-11.8318
▁engage	-11.832
▁territor	-11.832
▁isolate	-11.8321
▁laborator	-11.8322
pers	-11.8322
▁nois	-11.8322
▁excellenc	-11.8323
▁examine	-11.8324
alize	-11.8324
▁posse	-11.8325
▁recei	-11.8325
▁rejoic	-11.8326
▁edwin	-11.8326
▁troupe	-11.8327
▁damage	-11.8327
▁cordial	-11.8328
▁technical	-11.8329
▁immense	-11.8329
▁unfortunate	-11.8329
▁sabotage	-11.833
▁immediate	-11.833
▁anythin	-11.8332
dramati	-11.8332
oarse	-11.8332
▁destin	-11.8332
▁psy	-11.8332
looms	-11.8333
▁beginnin	-11.8335
hances	-11.8335
indoheroes	-11.8335
▁griff	-11.8335
licious	-11.8335
rijp	-11.8336
▁terrific	-11.8336
▁fantasti	-11.8336
lean	-11.8337
▁lightnin	-11.8337
▁barbari	-11.8337
▁joseph	-11.8337
▁whistlin	-11.8337
▁plannin	-11.8338
polis	-11.834
rius	-11.834
nemen	-11.834
▁forbid	-11.8341
▁intellect	-11.8341
kokuyama	-11.8341
▁dun	-11.8341
▁priva	-11.8341
▁succu	-11.8341
▁alkali	-11.8341
maatregel	-11.8341
▁bububu	-11.8341
▁monopol	-11.8341
▁oorlog	-11.8341
▁accommodate	-11.8341
▁acquaintance	-11.8341
▁administer	-11.8341
▁alcohol	-11.8341
▁angstrom	-11.8341
▁anschluss	-11.8341
▁anthonio	-11.8341
▁anvil	-11.8341
▁araara	-11.8341
▁argument	-11.8341
▁arizona	-11.8341
▁arlington	-11.8341
▁arrogance	-11.8341
▁artifacts	-11.8341
▁assuming	-11.8341
▁asylum	-11.8341
▁balcony	-11.8341
▁barricade	-11.8341
▁bedchamber	-11.8341
▁benzino	-11.8341
▁bicycle	-11.8341
▁blastoise	-11.8341
▁boekanier	-11.8341
▁bourbon	-11.8341
▁broccoli	-11.8341
▁brrrrr	-11.8341
▁buttermilk	-11.8341
▁calculating	-11.8341
▁calculation	-11.8341
▁citadel	-11.8341
▁classifies	-11.8341
▁colossal	-11.8341
▁conspicuous	-11.8341
▁convicts	-11.8341
▁corporal	-11.8341
▁daffodil	-11.8341
▁dastardly	-11.8341
▁deliberation	-11.8341
▁dignified	-11.8341
▁diplomat	-11.8341
▁doobahdeedoo	-11.8341
▁dorothea	-11.8341
▁downtoearth	-11.8341
▁eccentric	-11.8341
▁elevation	-11.8341
▁embedded	-11.8341
▁epileptic	-11.8341
▁ferocious	-11.8341
▁fireflies	-11.8341
▁fundamental	-11.8341
▁gaspargo	-11.8341
▁gehoorza	-11.8341
▁gepraat	-11.8341
▁geregeld	-11.8341
▁gettysburg	-11.8341
▁ghibli	-11.8341
▁handmaiden	-11.8341
▁hankypanky	-11.8341
▁hashtag	-11.8341
▁himalayas	-11.8341
▁hodlayee	-11.8341
▁hoofprint	-11.8341
▁horizon	-11.8341
▁hornbills	-11.8341
▁imbecile	-11.8341
▁immunization	-11.8341
▁inaudible	-11.8341
▁incinerate	-11.8341
▁indulg	-11.8341
▁iobk	-11.8341
▁isotope	-11.8341
▁jiggling	-11.8341
▁joppa	-11.8341
▁joshua	-11.8341
▁jugular	-11.8341
▁jukebox	-11.8341
▁juvenile	-11.8341
▁ketchup	-11.8341
▁koppori	-11.8341
▁mccandless	-11.8341
▁mesmeriz	-11.8341
▁mongrel	-11.8341
▁napoleon	-11.8341
▁neglect	-11.8341
▁neutral	-11.8341
▁nostalgi	-11.8341
▁nutrient	-11.8341
▁pamphlet	-11.8341
▁peeeuu	-11.8341
▁pellinore	-11.8341
▁penalty	-11.8341
▁penguins	-11.8341
▁peninsula	-11.8341
▁pharsalia	-11.8341
▁pistachio	-11.8341
▁pistool	-11.8341
▁polycron	-11.8341
▁pompous	-11.8341
▁poysanally	-11.8341
▁precinct	-11.8341
▁prejudice	-11.8341
▁presumptuous	-11.8341
▁primitive	-11.8341
▁propulsion	-11.8341
▁quarantine	-11.8341
▁relentless	-11.8341
▁renegade	-11.8341
▁retiring	-11.8341
▁review	-11.8341
▁revolting	-11.8341
▁rheumatism	-11.8341
▁rhyhorn	-11.8341
▁righteousness	-11.8341
▁seagulls	-11.8341
▁secondincommand	-11.8341
▁separation	-11.8341
▁shshsh	-11.8341
▁simonides	-11.8341
▁simulator	-11.8341
▁singlehanded	-11.8341
▁slaughter	-11.8341
▁sneezy	-11.8341
▁soccer	-11.8341
▁spasms	-11.8341
▁speculat	-11.8341
▁stamina	-11.8341
▁substance	-11.8341
▁susuatari	-11.8341
▁synchroniz	-11.8341
▁tarantula	-11.8341
▁tarnation	-11.8341
▁taxpayers	-11.8341
▁teaspoon	-11.8341
▁ticktock	-11.8341
▁tissue	-11.8341
▁togepi	-11.8341
▁torturing	-11.8341
▁trelawney	-11.8341
▁tuhmater	-11.8341
▁ulcer	-11.8341
▁undersigned	-11.8341
▁understood	-11.8341
▁undisputed	-11.8341
▁unprotected	-11.8341
▁uptempo	-11.8341
▁vaporized	-11.8341
▁vingerboom	-11.8341
▁vitamins	-11.8341
▁vloeken	-11.8341
▁vocabulary	-11.8341
▁vodka	-11.8341
▁vroeg	-11.8341
▁wachtlopen	-11.8341
▁wednesday	-11.8341
▁whippersnapper	-11.8341
▁whoaohhohh	-11.8341
▁whoawhoawhoa	-11.8341
▁wildebeest	-11.8341
▁wuzzle	-11.8341
▁yvonne	-11.8341
hibition	-11.8341
nanimous	-11.8341
▁agatha	-11.8341
▁alibi	-11.8341
▁buffet	-11.8341
▁carburet	-11.8341
▁coconut	-11.8341
▁concoct	-11.8341
▁confucius	-11.8341
▁contamination	-11.8341
▁engeland	-11.8341
▁eruitzien	-11.8341
▁exquisite	-11.8341
▁flimflamm	-11.8341
▁frequencies	-11.8341
▁fresno	-11.8341
▁futile	-11.8341
▁gevraagd	-11.8341
▁giftwrap	-11.8341
▁hyperventilat	-11.8341
▁inevitabl	-11.8341
▁interpret	-11.8341
▁jongetje	-11.8341
▁neighbour	-11.8341
▁propellant	-11.8341
▁rattlesnake	-11.8341
▁realistic	-11.8341
▁rectangular	-11.8341
▁revoir	-11.8341
▁saecul	-11.8341
▁sanctuary	-11.8341
▁teagler	-11.8341
▁vantino	-11.8341
▁welfare	-11.8341
▁alternative	-11.8341
▁antagoni	-11.8341
▁atalkin	-11.8341
▁coagent	-11.8341
▁confetti	-11.8341
▁congeal	-11.8341
▁curtsy	-11.8341
▁furnace	-11.8341
▁gaskets	-11.8341
▁gerbil	-11.8341
▁germanicus	-11.8341
▁minstrel	-11.8341
▁outdoors	-11.8341
▁pantomim	-11.8341
▁roxanne	-11.8341
▁shoteka	-11.8341
▁ultra	-11.8341
▁collapse	-11.8341
▁daffy	-11.8341
▁maestro	-11.8341
▁pittypat	-11.8341
▁railroad	-11.8341
▁semester	-11.8341
schijn	-11.8341
▁appointed	-11.8341
▁errand	-11.8341
▁refuge	-11.8341
▁schmoozing	-11.8341
▁seclusion	-11.8341
▁vertrouwen	-11.8341
▁zombie	-11.8341
▁averaging	-11.8341
▁eileen	-11.8341
▁persuasion	-11.8341
▁smooch	-11.8341
▁traitor	-11.8341
eeeeehoooo	-11.8341
▁erewoord	-11.8341
▁magnification	-11.8341
▁muttonhead	-11.8341
▁schateiland	-11.8341
▁stereo	-11.8341
▁underestimate	-11.8341
▁unlikely	-11.8341
hubba	-11.8341
▁halibut	-11.8341
▁maddening	-11.8341
▁restrict	-11.8341
▁theodotus	-11.8341
▁democracy	-11.8341
▁expelled	-11.8341
▁sprinkl	-11.8341
▁strudel	-11.8341
▁unalter	-11.8341
▁mwah	-11.8341
▁parcel	-11.8341
▁sabbat	-11.8341
▁smitten	-11.8341
boek	-11.8341
▁duivel	-11.8341
▁guvnor	-11.8341
▁tyrant	-11.8341
▁biomedical	-11.8341
▁sheesh	-11.8341
▁succumb	-11.8341
▁detaining	-11.8341
▁afterwards	-11.8341
▁geometr	-11.8341
▁goblin	-11.8341
▁shikokuyama	-11.8341
▁shortcomings	-11.8341
▁irregular	-11.8341
▁persisten	-11.8341
▁stampede	-11.8341
rheu	-11.8341
▁therapist	-11.8341
▁mustache	-11.8341
▁observation	-11.8341
▁knowitall	-11.8341
▁coonhunt	-11.8341
▁fragile	-11.8341
▁intact	-11.8341
▁nourish	-11.8341
▁tiberius	-11.8341
oobydoo	-11.8341
▁barbos	-11.8341
▁greatgreatgreat	-11.8341
semble	-11.8341
▁downsized	-11.8341
▁fatigue	-11.8341
▁wetherby	-11.8341
▁theodo	-11.8341
achten	-11.8341
▁industr	-11.8341
▁spanning	-11.8341
▁celery	-11.8341
▁disrupt	-11.8341
▁greetin	-11.8341
▁pinched	-11.8341
▁vegas	-11.8341
▁athlet	-11.8341
▁exterminators	-11.8341
▁hombre	-11.8341
▁survival	-11.8341
▁foxx	-11.8342
▁hillbilly	-11.8342
▁illegal	-11.8342
▁testament	-11.8342
▁specifically	-11.8342
▁turbo	-11.8342
▁dispute	-11.8342
▁outcast	-11.8342
▁suspicions	-11.8342
▁yellowbellied	-11.8342
▁øùøùùùù	-11.8342
rigible	-11.8342
▁pressurization	-11.8342
▁siesta	-11.8342
▁grocer	-11.8342
▁outnumber	-11.8342
▁skirt	-11.8342
▁aquatic	-11.8342
▁arnie	-11.8342
▁assassinate	-11.8342
▁coroner	-11.8342
▁indigestion	-11.8342
▁allison	-11.8342
▁grindstone	-11.8342
▁blitz	-11.8342
▁downtown	-11.8342
▁motorbus	-11.8342
▁disorder	-11.8342
▁impact	-11.8342
▁flux	-11.8342
▁øùøøùø	-11.8342
▁abolish	-11.8342
▁barrier	-11.8342
▁rebellion	-11.8342
▁matron	-11.8342
▁snij	-11.8342
▁gradually	-11.8342
▁swoop	-11.8342
▁wrangl	-11.8342
▁cunning	-11.8342
▁obedien	-11.8342
▁sophi	-11.8342
▁tolerate	-11.8342
▁edison	-11.8342
▁protege	-11.8342
▁swabs	-11.8342
▁shipmates	-11.8342
▁smugglers	-11.8342
▁aerodynamic	-11.8342
▁cretin	-11.8342
▁moderate	-11.8342
▁torrent	-11.8342
▁authorities	-11.8342
▁landscap	-11.8342
tracted	-11.8342
▁lalala	-11.8342
▁swipe	-11.8342
▁uncertain	-11.8342
▁bilious	-11.8342
▁sputterin	-11.8342
▁vital	-11.8342
▁midair	-11.8342
▁prosper	-11.8342
▁hippie	-11.8342
▁bernice	-11.8342
▁footprint	-11.8342
▁calibrat	-11.8342
▁itchy	-11.8342
▁peniten	-11.8342
▁daarvan	-11.8342
▁gehad	-11.8342
▁visualize	-11.8342
▁frostbit	-11.8342
▁caution	-11.8342
▁nutritious	-11.8342
▁vault	-11.8342
▁plunder	-11.8342
▁indications	-11.8342
▁deceive	-11.8342
▁distressed	-11.8342
▁measurements	-11.8342
▁application	-11.8342
▁lmpossible	-11.8342
▁motivate	-11.8342
▁sympath	-11.8342
▁khanka	-11.8342
▁doublezero	-11.8343
▁imposter	-11.8343
▁globe	-11.8343
vlucht	-11.8343
▁polecat	-11.8343
▁existence	-11.8343
▁detonat	-11.8343
▁identity	-11.8343
▁muddle	-11.8343
▁dugout	-11.8343
▁deplo	-11.8343
▁reflection	-11.8343
▁øùøøù	-11.8343
▁blueprint	-11.8343
▁blank	-11.8343
▁sketch	-11.8343
▁lekker	-11.8343
▁ugliest	-11.8343
▁august	-11.8343
▁citizenship	-11.8343
▁swampmobile	-11.8343
▁extort	-11.8343
▁meteorite	-11.8343
▁venice	-11.8343
▁rustlers	-11.8343
▁berthe	-11.8343
▁injection	-11.8343
▁gauge	-11.8343
▁fluid	-11.8343
▁mackerel	-11.8343
▁yawns	-11.8343
▁rumpel	-11.8343
▁spoof	-11.8343
▁superior	-11.8343
▁resentment	-11.8343
▁dependence	-11.8343
▁detonation	-11.8343
▁inspection	-11.8343
▁homily	-11.8343
▁particles	-11.8344
nieuw	-11.8344
▁commitment	-11.8344
▁lizzie	-11.8344
▁washington	-11.8344
▁quaint	-11.8344
▁wilmer	-11.8344
▁attraction	-11.8344
▁unimportant	-11.8344
▁stuur	-11.8344
▁notified	-11.8344
▁laura	-11.8344
▁coronation	-11.8344
▁huntsman	-11.8344
▁sousa	-11.8344
weensy	-11.8344
▁franz	-11.8344
▁wrestl	-11.8344
▁salutation	-11.8344
▁stubbornness	-11.8344
▁flatlin	-11.8344
▁unloved	-11.8344
ashima	-11.8344
miere	-11.8344
▁repent	-11.8344
▁checkpoint	-11.8344
▁appeal	-11.8344
▁celebrity	-11.8344
▁boardinghouse	-11.8344
▁landheer	-11.8344
▁inquiries	-11.8345
invoke	-11.8345
▁blackwall	-11.8345
mination	-11.8345
▁catfish	-11.8345
▁midway	-11.8345
▁spullen	-11.8345
▁provision	-11.8345
rechten	-11.8345
▁alkaline	-11.8345
▁snoo	-11.8345
▁doeuvre	-11.8345
chaam	-11.8345
▁charities	-11.8345
▁temple	-11.8345
▁moralist	-11.8345
▁apprehen	-11.8345
▁josephine	-11.8345
▁hmmmmm	-11.8345
▁gewo	-11.8345
▁presum	-11.8346
▁outof	-11.8346
▁barbarian	-11.8346
▁strangle	-11.8346
▁basically	-11.8346
▁hutchy	-11.8346
▁attagirl	-11.8346
▁possession	-11.8346
▁arab	-11.8346
▁apron	-11.8346
▁gesch	-11.8346
▁exalt	-11.8346
▁apologies	-11.8346
▁stuntmen	-11.8346
▁defective	-11.8346
▁rumpus	-11.8346
▁lucas	-11.8346
▁confedera	-11.8346
▁bamboo	-11.8346
▁defenseless	-11.8346
▁plaster	-11.8346
▁lowdown	-11.8346
▁altogether	-11.8347
▁sixpence	-11.8347
▁tomatoes	-11.8347
▁nip	-11.8347
▁vrij	-11.8347
▁medium	-11.8347
▁indoor	-11.8347
campi	-11.8347
▁achill	-11.8347
▁hocus	-11.8347
▁marries	-11.8347
▁ayeaye	-11.8347
oozing	-11.8347
▁injured	-11.8347
▁inviting	-11.8347
▁replacement	-11.8347
▁daph	-11.8347
▁libya	-11.8347
▁behal	-11.8347
▁heartbroken	-11.8347
▁detective	-11.8347
▁mural	-11.8348
▁primaries	-11.8348
▁barley	-11.8348
▁overboard	-11.8348
▁luckiest	-11.8348
▁francisco	-11.8348
▁crowbar	-11.8348
▁drunkard	-11.8348
▁demonstrat	-11.8348
▁halfhour	-11.8348
▁civi	-11.8348
▁yurt	-11.8348
▁ohohoh	-11.8348
▁cedar	-11.8348
▁injustice	-11.8348
▁epilepsy	-11.8348
▁engels	-11.8348
▁odlayee	-11.8349
▁slayton	-11.8349
▁haunt	-11.8349
▁commandments	-11.8349
▁beez	-11.8349
▁overnight	-11.8349
▁punctur	-11.8349
▁mineral	-11.8349
uwen	-11.8349
▁plunger	-11.8349
▁yuck	-11.8349
▁timber	-11.8349
▁harsh	-11.8349
▁presti	-11.8349
▁serval	-11.8349
▁attic	-11.8349
▁sanct	-11.8349
▁sentries	-11.8349
▁scarier	-11.8349
▁recent	-11.8349
▁multitud	-11.8349
▁recite	-11.8349
▁aloud	-11.835
▁scalp	-11.835
▁yowling	-11.835
▁debut	-11.835
▁suave	-11.835
▁spindle	-11.835
▁jesus	-11.835
▁disposal	-11.8351
▁tripping	-11.8351
▁courthouse	-11.8351
▁drama	-11.8351
▁multipl	-11.8351
siderab	-11.8351
▁relish	-11.8351
▁blaming	-11.8351
▁harold	-11.8351
▁manuel	-11.8351
incense	-11.8351
▁quadra	-11.8351
▁brewers	-11.8351
▁snail	-11.8351
▁consarn	-11.8351
▁quiver	-11.8351
▁natuurlijk	-11.8351
▁doggy	-11.8352
▁maximu	-11.8352
▁wireless	-11.8352
▁sunlight	-11.8352
▁encouraging	-11.8352
▁downhill	-11.8352
▁capri	-11.8352
▁critter	-11.8352
shire	-11.8352
▁whines	-11.8352
ayeeee	-11.8352
▁aero	-11.8352
▁foreman	-11.8353
▁spence	-11.8353
ilian	-11.8353
▁wahoo	-11.8353
▁imprisoned	-11.8353
▁leavin	-11.8353
▁forgiving	-11.8353
▁sidetracked	-11.8353
▁sixfoot	-11.8353
▁supply	-11.8353
▁spaceport	-11.8354
▁cobb	-11.8354
ered	-11.8354
▁stag	-11.8354
▁shutdown	-11.8354
▁sinned	-11.8354
▁newspaper	-11.8354
▁wrinkled	-11.8354
▁criticized	-11.8354
typho	-11.8354
sneden	-11.8355
▁touchdown	-11.8355
▁trembling	-11.8355
▁oversee	-11.8355
▁cordially	-11.8355
▁suppresse	-11.8356
▁spek	-11.8356
▁increasing	-11.8356
▁mixture	-11.8356
▁sterf	-11.8356
▁incoming	-11.8356
▁craz	-11.8356
▁hunch	-11.8356
▁breakdown	-11.8356
▁blueberry	-11.8357
▁vrienden	-11.8357
▁gaul	-11.8357
▁emanat	-11.8357
▁misleading	-11.8357
▁bapti	-11.8357
▁eighteen	-11.8357
▁trouper	-11.8357
▁advertising	-11.8357
▁tonic	-11.8357
▁hideaway	-11.8357
▁amp	-11.8357
▁puzzle	-11.8357
▁robotic	-11.8358
▁warren	-11.8358
▁flame	-11.8358
▁heroic	-11.8358
▁stride	-11.8358
▁marshes	-11.8358
▁squeakity	-11.8358
▁employer	-11.8358
▁frying	-11.8358
▁uitge	-11.8358
▁courageously	-11.8358
▁toege	-11.8358
shaped	-11.8358
▁courageous	-11.8358
▁popped	-11.8359
▁surprising	-11.8359
arctic	-11.8359
▁gambling	-11.8359
▁roasting	-11.836
▁hairball	-11.836
▁calluses	-11.836
▁brink	-11.836
▁accidentally	-11.836
emption	-11.836
▁rapidfire	-11.836
▁investment	-11.836
▁reply	-11.8361
niversa	-11.8361
▁sacred	-11.8361
▁ext	-11.8361
▁plumbing	-11.8361
▁wakin	-11.8361
▁pulse	-11.8361
▁whooshing	-11.8361
▁battling	-11.8361
change	-11.8362
▁garment	-11.8362
▁mattel	-11.8362
▁doubling	-11.8362
▁lamb	-11.8362
▁permissie	-11.8363
▁discussion	-11.8363
▁colorful	-11.8363
▁lefthand	-11.8364
▁madder	-11.8364
▁hideout	-11.8364
▁beamed	-11.8364
equiv	-11.8365
secu	-11.8365
▁distraction	-11.8365
livered	-11.8366
▁vulture	-11.8366
▁louise	-11.8366
▁teensy	-11.8366
▁uphill	-11.8366
bra	-11.8366
ste	-11.8367
▁puffed	-11.8367
yde	-11.8367
▁karp	-11.8368
▁dusk	-11.8368
▁diversion	-11.8368
▁scuttl	-11.8368
▁sincerely	-11.8369
▁grenade	-11.8369
▁admires	-11.837
▁viv	-11.837
▁exit	-11.837
▁slats	-11.8371
▁dazzling	-11.8371
▁incor	-11.8371
▁asto	-11.8371
▁ninev	-11.8372
▁prickly	-11.8372
▁scorch	-11.8373
▁scum	-11.8373
landed	-11.8373
pions	-11.8373
▁inspected	-11.8373
▁refurbished	-11.8373
▁slum	-11.8373
▁wallop	-11.8374
▁swimmingly	-11.8374
▁overloaded	-11.8374
▁slurp	-11.8375
▁uneven	-11.8375
▁distracted	-11.8375
▁lijn	-11.8375
▁springtime	-11.8375
▁morn	-11.8376
▁aphi	-11.8376
▁realise	-11.8376
▁grape	-11.8376
▁judy	-11.8376
▁overestimat	-11.8376
gues	-11.8376
▁rammed	-11.8377
▁scratchin	-11.8377
▁undo	-11.8377
▁clank	-11.8378
▁bubbling	-11.8378
▁christen	-11.8378
▁ruling	-11.8378
▁glide	-11.8378
▁totus	-11.8379
▁pub	-11.8379
▁candlelight	-11.838
▁cheatin	-11.838
▁phony	-11.838
▁vessel	-11.838
cule	-11.8381
▁climbers	-11.8381
▁bypass	-11.8382
▁tumbling	-11.8382
▁frenz	-11.8382
▁crap	-11.8382
▁booze	-11.8382
▁zag	-11.8383
▁isolated	-11.8384
avor	-11.8384
iffel	-11.8384
dressed	-11.8384
▁shiver	-11.8386
ctful	-11.8386
▁copilot	-11.8386
▁examined	-11.8386
▁oost	-11.8386
▁wallet	-11.8387
▁tokens	-11.8387
▁detest	-11.8387
▁nazi	-11.8388
▁dobell	-11.8389
olent	-11.8389
▁truthfully	-11.8389
▁abilit	-11.8389
▁lecture	-11.8389
▁argh	-11.839
agenda	-11.839
idity	-11.8391
▁beetles	-11.8391
▁medcoms	-11.8391
▁survivors	-11.8391
▁toby	-11.8391
▁midgets	-11.8391
▁jaguars	-11.8391
▁parasites	-11.8391
▁sapphires	-11.8391
▁continuing	-11.8391
▁cannonballs	-11.8392
▁zeerovers	-11.8392
▁bandages	-11.8392
▁constitution	-11.8392
▁tickles	-11.8392
▁counselor	-11.8393
▁folly	-11.8393
▁cylinders	-11.8393
▁pngs	-11.8393
▁coolness	-11.8393
▁wrinkles	-11.8394
▁compound	-11.8394
▁gunfighter	-11.8395
øøøøù	-11.8396
vraag	-11.8396
zelle	-11.8397
mpire	-11.8397
jah	-11.8397
▁satisfactor	-11.8397
▁summar	-11.8397
▁vip	-11.8397
▁suggestions	-11.8397
▁jade	-11.8397
▁kazu	-11.8398
ented	-11.8399
▁potts	-11.8399
▁murmurs	-11.8399
▁qualify	-11.8399
▁layers	-11.8401
▁hipp	-11.8402
▁waitress	-11.8402
▁wooden	-11.8403
▁lunk	-11.8404
facade	-11.8404
▁chilly	-11.8406
▁informer	-11.8406
▁technological	-11.8406
▁combined	-11.8407
stified	-11.8407
▁waist	-11.8407
osis	-11.8407
▁schm	-11.8408
▁krui	-11.8408
▁chewed	-11.8409
▁recommendation	-11.841
▁gobble	-11.8411
▁brent	-11.8411
▁talon	-11.8411
▁clutching	-11.8412
arleton	-11.8412
▁tortured	-11.8413
▁bunker	-11.8413
▁bursting	-11.8413
gibbe	-11.8414
▁affected	-11.8415
▁attempted	-11.8415
▁disappointing	-11.8415
▁translat	-11.8416
▁bacterian	-11.8416
▁asomething	-11.8417
fty	-11.8418
scheur	-11.8418
ùùø	-11.8418
▁elsing	-11.8419
deservin	-11.8419
▁photography	-11.8419
▁bouncing	-11.842
▁slapping	-11.8421
▁updat	-11.8421
▁debts	-11.8421
ritz	-11.8422
▁pline	-11.8422
▁hateful	-11.8422
▁burke	-11.8422
▁lionel	-11.8422
▁monte	-11.8423
▁oui	-11.8424
▁snowman	-11.8424
▁hamm	-11.8425
▁peacefully	-11.8425
slagen	-11.8426
▁parson	-11.8426
▁jewelers	-11.8426
▁abso	-11.8429
▁scul	-11.8429
▁inhabit	-11.8429
▁gro	-11.8429
▁drunken	-11.8429
▁cookin	-11.843
▁physically	-11.843
▁vile	-11.843
▁fairies	-11.8432
asso	-11.8432
▁øùøa	-11.8433
▁restful	-11.8434
▁driveway	-11.8434
acco	-11.8434
▁tinge	-11.8434
▁priceless	-11.8435
▁oppress	-11.8435
ooking	-11.8435
▁gnight	-11.8436
lifted	-11.8436
▁lamour	-11.8436
▁continuous	-11.8439
▁masterpiece	-11.8439
enne	-11.8439
▁hesitate	-11.8439
rry	-11.844
▁surfing	-11.844
bitt	-11.8441
▁cluck	-11.8441
▁leaned	-11.8443
▁converg	-11.8443
▁unemploy	-11.8443
▁plek	-11.8443
▁thunk	-11.8444
▁saiy	-11.8444
▁slash	-11.8445
▁yoke	-11.8446
▁brengt	-11.8446
▁freckle	-11.8447
▁reflect	-11.8447
▁hacked	-11.8448
▁innings	-11.8448
meal	-11.8449
sota	-11.8449
precedent	-11.845
journe	-11.8451
rhaps	-11.8451
▁screwed	-11.8451
isters	-11.8451
▁slinky	-11.8452
▁spreken	-11.8452
▁nnno	-11.8453
▁portal	-11.8454
▁pints	-11.8454
▁shred	-11.8454
▁tenor	-11.8454
▁tryout	-11.8455
citation	-11.8455
▁lemon	-11.8455
▁thrilling	-11.8455
▁succeeded	-11.8456
▁mixing	-11.8456
▁grownup	-11.8458
▁anima	-11.8458
▁tweak	-11.8459
▁configur	-11.846
▁talented	-11.8461
▁fitting	-11.8461
▁greedy	-11.8461
daisy	-11.8462
▁dire	-11.8462
▁daydreams	-11.8462
▁suburb	-11.8463
aches	-11.8464
▁jane	-11.8464
▁registering	-11.8465
odlee	-11.8465
▁profi	-11.8465
▁dung	-11.8465
▁elite	-11.8466
▁fuzz	-11.8466
▁woke	-11.8466
▁glor	-11.8467
▁rosy	-11.8467
▁sellin	-11.8467
▁xs	-11.8467
reme	-11.8468
▁handful	-11.8468
▁herb	-11.8469
▁layeeodlo	-11.8469
ev	-11.8471
▁pushin	-11.8472
▁blades	-11.8473
▁soften	-11.8473
▁explor	-11.8473
▁emotions	-11.8473
▁jounc	-11.8476
▁pittys	-11.8476
▁beggars	-11.8476
▁slatterys	-11.8477
▁magicians	-11.8477
▁dune	-11.8478
▁morals	-11.8479
▁bulbs	-11.8479
▁lala	-11.8481
▁stalling	-11.8482
hugging	-11.8482
▁european	-11.8483
▁rump	-11.8483
▁doodle	-11.8483
patches	-11.8484
▁inning	-11.8485
▁electron	-11.8485
▁scoring	-11.8488
▁dough	-11.8488
▁cracker	-11.8489
▁magn	-11.8489
▁revert	-11.8489
▁strikeout	-11.849
▁betty	-11.849
fal	-11.849
▁doodles	-11.849
ilize	-11.8491
▁prom	-11.8491
▁styl	-11.8491
▁tyrann	-11.8491
alfi	-11.8492
bay	-11.8492
▁briefing	-11.8493
▁janie	-11.8493
▁vain	-11.8494
geven	-11.8497
▁carpe	-11.8499
▁protein	-11.8501
▁vine	-11.8501
▁irritat	-11.8503
▁teachin	-11.8504
▁fiigure	-11.8504
▁awaited	-11.8505
akken	-11.8505
▁breakers	-11.8506
iff	-11.8506
▁escap	-11.8506
▁pressed	-11.8507
▁whoaho	-11.8509
▁loco	-11.851
▁shaken	-11.8511
caps	-11.8512
▁chapman	-11.8514
▁peel	-11.8514
ymore	-11.8514
▁countin	-11.8514
▁nook	-11.8515
▁skat	-11.8516
▁resisting	-11.8519
shion	-11.8519
▁blowin	-11.852
▁lovelife	-11.852
▁planted	-11.8521
▁sooth	-11.8521
▁brewing	-11.8521
trained	-11.8523
▁lumm	-11.8524
▁dock	-11.8524
▁aos	-11.8525
▁granit	-11.8526
monu	-11.8527
▁radical	-11.8528
▁ghosthunt	-11.8532
catcher	-11.8532
zuid	-11.8534
▁angr	-11.8537
rived	-11.8544
▁opge	-11.8545
▁bbb	-11.8546
▁heavenly	-11.8546
▁naked	-11.8546
▁disgraced	-11.8546
▁worms	-11.8548
▁kijke	-11.8548
▁cleanin	-11.8549
date	-11.8549
eld	-11.855
adig	-11.855
▁spoons	-11.8552
▁ascen	-11.8552
▁combo	-11.8554
▁sleeves	-11.8556
▁cheeks	-11.8556
spelen	-11.8559
▁alaba	-11.856
▁labor	-11.8561
▁bursts	-11.8561
▁snacks	-11.8563
▁odor	-11.8564
▁napkins	-11.8564
▁decades	-11.8565
▁reservations	-11.8565
uck	-11.8567
▁remarks	-11.8568
▁zij	-11.8568
▁shouted	-11.8568
▁hors	-11.8571
▁epit	-11.8576
▁dine	-11.8576
oooohoo	-11.8577
▁molt	-11.8581
▁alter	-11.8581
ress	-11.8583
▁toll	-11.8583
▁bait	-11.8585
▁traveler	-11.8585
▁suffic	-11.8586
▁tec	-11.8588
▁tel	-11.8588
▁urg	-11.859
lea	-11.8591
foggi	-11.8591
holes	-11.8591
podg	-11.8593
isty	-11.8593
▁hysteric	-11.8594
▁goodlooking	-11.8594
eliers	-11.8595
erberg	-11.8595
fortunately	-11.8595
▁awoke	-11.8595
recos	-11.8596
▁carryin	-11.8596
latin	-11.8597
▁roller	-11.8598
▁troublemaker	-11.8598
pose	-11.8599
▁maroon	-11.86
▁fallin	-11.86
▁engineers	-11.86
▁unlock	-11.8601
▁radioactiv	-11.8602
▁viewer	-11.8602
▁passin	-11.8603
▁bolted	-11.8605
▁respected	-11.8606
▁teens	-11.8606
▁bravest	-11.8606
▁wonderin	-11.8606
▁mijne	-11.8606
treating	-11.861
▁progressing	-11.8611
▁impulse	-11.8611
▁wiles	-11.8613
▁gelding	-11.8614
ington	-11.8614
▁pint	-11.8616
▁inco	-11.8616
▁sche	-11.8617
▁investigat	-11.8623
slow	-11.8623
odder	-11.8628
▁chews	-11.8629
▁waking	-11.863
wauke	-11.863
cars	-11.863
athe	-11.8631
▁moat	-11.8632
ittle	-11.8635
▁contains	-11.8636
ger	-11.8636
▁greatness	-11.8636
ization	-11.8637
▁allo	-11.8637
▁proudly	-11.8637
▁award	-11.864
▁jall	-11.8641
▁stings	-11.8642
hor	-11.8644
▁ander	-11.8646
uillot	-11.8649
▁drawn	-11.865
▁verge	-11.8651
▁employees	-11.8651
▁neighing	-11.8652
▁flu	-11.8652
▁savages	-11.8653
▁guitars	-11.8653
▁asp	-11.8653
▁propellers	-11.8653
▁ceilings	-11.8653
▁whartons	-11.8653
▁brut	-11.8655
▁surpass	-11.8656
▁rippl	-11.8661
øaùøù	-11.8662
ative	-11.8662
urd	-11.8663
heehee	-11.8671
vacu	-11.8672
▁moest	-11.8672
▁shootin	-11.8673
▁flood	-11.8674
▁growin	-11.8674
too	-11.8679
▁trailing	-11.8688
▁shootout	-11.869
vival	-11.8691
▁strains	-11.8694
▁speakin	-11.8695
▁hugger	-11.8695
▁reis	-11.8696
▁rambl	-11.8698
▁tob	-11.8702
▁convers	-11.8705
toear	-11.8709
ore	-11.8714
▁shined	-11.8715
jaag	-11.8717
▁readout	-11.8717
▁aut	-11.8721
▁nun	-11.8724
ures	-11.8724
▁burp	-11.8725
▁happenin	-11.8726
▁pow	-11.8727
ont	-11.8729
▁char	-11.873
▁dreamin	-11.8731
ado	-11.8732
ffel	-11.8732
▁daydream	-11.8736
▁fles	-11.8737
grams	-11.874
▁playin	-11.874
inous	-11.8741
net	-11.8742
▁substations	-11.8743
▁poly	-11.8743
▁germany	-11.8744
▁buckets	-11.8747
▁itit	-11.8751
▁coins	-11.8751
▁øùøø	-11.8751
▁keer	-11.8752
øùù	-11.8753
▁dul	-11.8755
arden	-11.8756
▁dears	-11.8756
▁desires	-11.8763
▁listed	-11.8766
▁makeup	-11.8767
ast	-11.8767
▁goldi	-11.8768
strip	-11.877
▁dappl	-11.8772
▁marine	-11.8773
osity	-11.8773
▁puff	-11.8775
▁audit	-11.8777
▁overthrow	-11.8782
nowed	-11.8782
▁rang	-11.8784
ijven	-11.8786
▁smearin	-11.8787
▁scat	-11.8794
▁amuses	-11.8796
▁gale	-11.8796
▁virgin	-11.8798
▁seated	-11.8799
heen	-11.8799
▁incidents	-11.88
▁downs	-11.88
▁drivein	-11.8801
bridge	-11.8808
bilize	-11.8812
▁after	-11.8812
▁puls	-11.8813
▁obsess	-11.8815
▁temporar	-11.8815
▁sarge	-11.8815
▁jabber	-11.8817
▁inscripti	-11.8817
arcas	-11.8817
▁overhea	-11.8828
▁mort	-11.8829
▁classics	-11.883
▁rascals	-11.8831
▁nightmares	-11.8832
ential	-11.8834
▁dang	-11.8836
▁directors	-11.8837
▁vermo	-11.8838
vroom	-11.8843
▁tested	-11.8847
▁vein	-11.8857
sphere	-11.8858
▁killin	-11.8865
▁keyed	-11.8865
venge	-11.8866
▁rugs	-11.8867
uz	-11.8868
▁roy	-11.8869
▁manufacture	-11.887
▁addressing	-11.887
eight	-11.8871
▁pause	-11.8873
▁lawn	-11.8875
▁lice	-11.8876
▁pushed	-11.8878
▁neon	-11.8881
▁involve	-11.8882
▁tonys	-11.8883
▁standin	-11.8884
ane	-11.8885
▁bugger	-11.8892
▁del	-11.8894
▁fails	-11.8894
▁soot	-11.8894
▁meters	-11.8895
ishi	-11.8897
iated	-11.8901
▁jan	-11.8903
umpty	-11.8908
▁signa	-11.8912
▁comments	-11.8912
▁vra	-11.8919
▁bridges	-11.8921
mag	-11.8924
ette	-11.8927
hes	-11.8928
▁crumpet	-11.8928
▁heyday	-11.8931
▁infinite	-11.894
▁simpler	-11.8942
▁englishman	-11.8944
balls	-11.8944
▁minst	-11.8946
▁dusted	-11.8953
pan	-11.8954
▁restin	-11.8956
icu	-11.8958
▁endings	-11.8959
▁pak	-11.8963
▁blubber	-11.8966
▁oohb	-11.8967
ming	-11.8969
▁carte	-11.8969
ewer	-11.8969
▁demands	-11.8971
▁wishin	-11.8971
alogue	-11.8975
▁crazie	-11.8975
being	-11.8976
▁salon	-11.8976
▁were	-11.8978
▁behaves	-11.8978
aries	-11.8985
ernal	-11.899
▁mur	-11.8991
vallen	-11.8992
onizing	-11.8994
▁winging	-11.8999
main	-11.9
øùùùùù	-11.9006
▁cau	-11.9008
▁hath	-11.9011
sanity	-11.9013
▁ups	-11.9015
▁activit	-11.9018
▁nara	-11.9018
▁waren	-11.9019
▁rib	-11.9024
▁disturbs	-11.9024
▁sweeter	-11.9027
leagues	-11.9028
▁gelo	-11.903
shoving	-11.9031
rained	-11.9039
▁geloo	-11.9048
▁designs	-11.9059
▁vla	-11.9062
▁wits	-11.9067
flat	-11.9068
▁performer	-11.9073
▁thundering	-11.9074
noord	-11.9076
▁reverse	-11.9084
▁palm	-11.9094
▁widows	-11.9095
alities	-11.9101
works	-11.9103
▁tides	-11.9104
oka	-11.9104
▁looksee	-11.9107
▁rescued	-11.9107
▁smaller	-11.9109
▁begint	-11.9113
atherin	-11.9113
▁ellende	-11.9114
▁lance	-11.9115
▁sixes	-11.9118
▁partly	-11.9119
iv	-11.912
▁grounded	-11.9122
▁finale	-11.9124
▁decay	-11.9131
xide	-11.9134
fore	-11.9136
▁cole	-11.9142
left	-11.9142
▁haa	-11.9144
▁soothe	-11.9151
▁gru	-11.9151
ials	-11.9158
tual	-11.9161
▁weigh	-11.9165
ama	-11.9166
▁crave	-11.9166
▁quitter	-11.9174
▁maakt	-11.9183
▁toleran	-11.9185
▁sen	-11.9187
▁crimes	-11.9187
▁pip	-11.9187
▁dungeons	-11.9189
▁rive	-11.9191
eken	-11.9191
▁reput	-11.9193
▁narr	-11.9197
▁buts	-11.9198
recht	-11.9201
samir	-11.9202
▁liven	-11.9204
▁sabe	-11.9205
▁vick	-11.9219
aiming	-11.9228
▁hairy	-11.923
ups	-11.9234
▁listenin	-11.9238
▁cali	-11.9242
ako	-11.925
▁thea	-11.9253
tight	-11.9255
▁shorted	-11.9259
▁dissen	-11.926
yton	-11.9265
gle	-11.9266
▁theore	-11.927
▁southerner	-11.927
▁matchmak	-11.9272
▁jongens	-11.9272
▁fled	-11.9278
nonny	-11.9282
▁showroom	-11.9286
▁shove	-11.9287
lands	-11.9289
▁authoriz	-11.9293
shed	-11.9294
witz	-11.9294
▁peddl	-11.9298
▁showers	-11.9301
▁grat	-11.9303
▁shakes	-11.9306
aha	-11.9308
▁bounds	-11.9328
ticipat	-11.9328
riding	-11.9342
dust	-11.9349
▁laughed	-11.9351
▁shapes	-11.9354
shio	-11.9355
▁øø	-11.9356
elf	-11.9356
▁jay	-11.9357
uc	-11.9371
upid	-11.9373
lm	-11.9375
gue	-11.9378
shore	-11.9379
▁noises	-11.9383
▁overlook	-11.939
▁naps	-11.9391
ymp	-11.9391
hop	-11.9392
▁needing	-11.9393
▁fork	-11.9395
▁slamm	-11.9397
▁snivel	-11.9399
▁troll	-11.9402
▁excl	-11.9421
jection	-11.9431
lson	-11.9432
▁exc	-11.9438
ana	-11.9444
ved	-11.9445
iction	-11.9445
▁zeil	-11.9445
▁parad	-11.9446
▁kl	-11.945
ttles	-11.9452
▁manto	-11.9463
▁birdieb	-11.9464
▁comedy	-11.9464
oto	-11.9471
rel	-11.9476
▁echo	-11.9476
▁hunts	-11.9479
month	-11.9479
▁chrom	-11.9483
▁respects	-11.9485
▁volt	-11.9493
▁rage	-11.9499
▁geez	-11.95
alibu	-11.9501
▁sorted	-11.9503
▁fearless	-11.9509
▁corns	-11.951
▁boast	-11.9511
chives	-11.9515
▁debt	-11.9521
▁flush	-11.9525
▁bombing	-11.9526
▁psychi	-11.9529
▁knick	-11.9534
udic	-11.9535
▁carlo	-11.9549
▁asse	-11.9549
shus	-11.9555
▁tomo	-11.9557
▁sticking	-11.9561
lfde	-11.9563
▁cre	-11.9564
▁washing	-11.9565
aren	-11.9573
▁canal	-11.9575
ined	-11.9576
▁fiinal	-11.9576
▁experiences	-11.9581
uw	-11.9584
▁rustl	-11.9592
▁pads	-11.9598
▁sable	-11.9601
▁conceiv	-11.961
▁dud	-11.9615
▁nations	-11.9622
ista	-11.9622
▁dazzl	-11.9623
▁dubl	-11.963
mo	-11.9632
▁albu	-11.9636
inner	-11.9643
owling	-11.9644
die	-11.9647
stressed	-11.9649
ythi	-11.9653
▁generat	-11.9654
▁shatter	-11.966
so	-11.9662
irl	-11.967
▁willie	-11.9675
for	-11.9676
advised	-11.969
iro	-11.9694
bobble	-11.9697
▁fisher	-11.9698
▁coi	-11.9709
ties	-11.971
▁precede	-11.972
▁justi	-11.9728
▁lou	-11.9728
▁lawyers	-11.9729
▁astr	-11.973
fineries	-11.9731
ringe	-11.9746
▁nipp	-11.9751
ips	-11.9758
va	-11.9763
gar	-11.9767
hel	-11.9772
tivate	-11.9773
▁custo	-11.9777
▁pacifi	-11.9777
▁gil	-11.978
▁scenes	-11.9782
▁tipto	-11.9798
stakes	-11.9798
lu	-11.9811
▁rap	-11.9817
▁vehicles	-11.982
▁andromedas	-11.9823
renade	-11.9823
anger	-11.9831
▁chand	-11.9837
za	-11.9856
xon	-11.9861
meters	-11.9862
onkeys	-11.9864
▁pave	-11.9866
▁kin	-11.9882
▁teachers	-11.9883
▁chuckle	-11.9886
awful	-11.9888
inky	-11.9896
▁paths	-11.9897
▁kaz	-11.9899
▁diddl	-11.9902
▁verli	-11.991
▁beter	-11.991
▁comple	-11.9914
▁tons	-11.9915
ration	-11.9916
▁identi	-11.9918
ky	-11.9918
▁hallowe	-11.9923
▁hav	-11.9923
table	-11.9926
▁zwaa	-11.993
▁ordering	-11.9934
▁plead	-11.9937
▁nic	-11.9951
flag	-11.9952
inking	-11.9964
▁dumps	-11.9969
rity	-11.9975
onden	-11.9984
tified	-11.9998
▁las	-12.0004
▁sno	-12.0007
fy	-12.0015
ggs	-12.0018
▁warming	-12.0021
coat	-12.0024
▁flick	-12.0029
urge	-12.0031
shi	-12.0046
▁befall	-12.0048
oming	-12.005
very	-12.0054
oggy	-12.0055
▁loung	-12.007
pstick	-12.0076
▁conc	-12.0084
che	-12.0091
▁extremes	-12.0091
▁slosh	-12.0099
▁fil	-12.0102
rist	-12.0104
▁sme	-12.0106
illed	-12.0112
▁cur	-12.0119
ock	-12.0134
ould	-12.0148
well	-12.0171
øøù	-12.0182
nk	-12.0183
▁publish	-12.0191
nishing	-12.0194
ada	-12.0197
▁destruct	-12.0202
rie	-12.0205
bin	-12.0209
ùøaù	-12.0216
▁coop	-12.022
▁legit	-12.0224
tail	-12.0234
▁maca	-12.0236
▁intern	-12.0241
rig	-12.0244
▁oo	-12.0245
▁sy	-12.0247
▁stewar	-12.0257
▁dow	-12.0261
ust	-12.0261
ormalities	-12.0266
▁dishonor	-12.0276
▁biss	-12.0283
intus	-12.0287
▁tir	-12.0287
▁differences	-12.0289
▁tweet	-12.0293
▁obs	-12.0294
▁alli	-12.0302
des	-12.0303
▁bases	-12.0303
▁prov	-12.0304
▁pouch	-12.0306
▁forc	-12.0312
pillar	-12.0315
▁eer	-12.0319
▁pointed	-12.0321
▁spott	-12.033
oohoo	-12.0334
▁steadi	-12.0335
▁doorway	-12.0336
horus	-12.0337
lay	-12.0338
▁viole	-12.035
▁slipper	-12.0351
greatgrandmother	-12.0365
eft	-12.0367
zech	-12.0378
▁concei	-12.0386
ibbon	-12.04
ckling	-12.0406
▁joys	-12.0414
▁salesm	-12.0416
▁uni	-12.0417
▁waitin	-12.0426
ncy	-12.0429
▁relat	-12.0438
ashed	-12.0441
umps	-12.0448
vin	-12.045
▁drawer	-12.0491
▁convert	-12.0494
▁findin	-12.0503
doubted	-12.0504
nomen	-12.0518
melon	-12.0518
▁doubled	-12.0519
ub	-12.0522
erin	-12.0523
lin	-12.0525
lukt	-12.0527
▁protects	-12.0535
▁hustle	-12.0538
custom	-12.0543
▁choices	-12.0549
▁pleasures	-12.0551
ddle	-12.059
▁bron	-12.0592
▁banker	-12.0595
▁yow	-12.0596
▁plains	-12.0596
▁guessed	-12.0598
eezing	-12.06
sma	-12.0603
▁deci	-12.0604
per	-12.0604
cks	-12.0609
ix	-12.0611
▁vel	-12.0617
emakers	-12.0628
iste	-12.0632
velen	-12.0633
ept	-12.0635
ids	-12.0638
hip	-12.0639
▁purposes	-12.064
▁her	-12.0645
▁universit	-12.065
ittering	-12.0659
▁aspirine	-12.0663
ob	-12.0668
▁trapps	-12.0669
cture	-12.0672
oxy	-12.0674
top	-12.0678
▁timeshar	-12.0679
▁spike	-12.0688
▁kant	-12.0694
shoot	-12.0695
gunner	-12.0704
▁supervis	-12.0712
tiful	-12.0722
unk	-12.0723
defeated	-12.0728
▁services	-12.0735
▁od	-12.074
▁balm	-12.0742
▁fox	-12.0759
eville	-12.0781
▁compose	-12.0781
clips	-12.0787
▁cosm	-12.0787
cept	-12.0802
▁deem	-12.0804
bele	-12.0809
▁hotels	-12.0814
▁worldly	-12.0818
othes	-12.0819
▁presidents	-12.0826
itches	-12.083
ctory	-12.0842
struck	-12.0846
▁gedra	-12.0848
▁pri	-12.085
▁revv	-12.0867
oi	-12.0868
lap	-12.0871
▁drugs	-12.0873
▁outing	-12.0877
▁hospitals	-12.0878
ttery	-12.0879
ajanitor	-12.088
▁burg	-12.0887
ique	-12.0891
▁enjoys	-12.0906
▁trucks	-12.091
▁ann	-12.0929
ach	-12.0947
▁weathers	-12.0949
▁cla	-12.095
▁swi	-12.0955
bet	-12.0955
wei	-12.0957
▁confine	-12.0963
minated	-12.0967
▁elk	-12.0971
▁masse	-12.0974
▁decor	-12.0977
▁bir	-12.098
▁plung	-12.0985
tter	-12.1
▁organize	-12.1034
▁consum	-12.1045
ei	-12.1057
▁neg	-12.1066
▁kal	-12.1067
chte	-12.1067
▁text	-12.1068
sons	-12.1092
▁arse	-12.1092
nvaders	-12.11
ago	-12.1101
▁root	-12.1109
▁cha	-12.1109
▁characteriz	-12.1117
titi	-12.1124
▁rejoi	-12.1128
▁prude	-12.1133
maintained	-12.1143
▁shshe	-12.1149
▁hare	-12.115
abberi	-12.1159
▁ports	-12.1179
ried	-12.1191
▁winnie	-12.1196
test	-12.1202
▁gri	-12.1218
pe	-12.1222
▁toulo	-12.1228
▁dwa	-12.1245
▁hiro	-12.1269
spi	-12.1273
▁emb	-12.1275
sterous	-12.1285
▁phon	-12.1285
▁studi	-12.129
▁countrys	-12.1323
▁ban	-12.1326
auce	-12.1345
ashes	-12.1362
▁maim	-12.138
gest	-12.1381
eur	-12.1381
▁striker	-12.1382
▁transmitt	-12.1391
▁stai	-12.1394
oud	-12.1395
bony	-12.1408
thi	-12.1445
▁caw	-12.145
▁mornings	-12.1459
fi	-12.1464
▁wwh	-12.1472
▁spaces	-12.1473
▁slappe	-12.1479
▁redhead	-12.148
tie	-12.1481
▁øaøø	-12.1488
▁brib	-12.1491
vies	-12.1509
ospitality	-12.1516
▁chil	-12.1518
▁geheime	-12.1525
ws	-12.1527
stationed	-12.1532
raak	-12.1536
ters	-12.1537
øøøa	-12.1541
quel	-12.1542
mmhmm	-12.1544
▁tur	-12.1545
▁bemu	-12.1546
tell	-12.1549
nelly	-12.1553
ùøøù	-12.1563
▁homes	-12.157
lee	-12.1586
eckon	-12.1591
ex	-12.1592
▁horrif	-12.1626
tish	-12.1645
▁bearing	-12.1654
▁anto	-12.1661
hene	-12.1661
▁reasonabl	-12.1668
▁shorts	-12.1689
▁whoowh	-12.1698
ratify	-12.1714
arre	-12.172
▁areas	-12.1724
▁stitch	-12.1725
but	-12.1732
▁throats	-12.1746
▁dispos	-12.1757
wis	-12.1768
▁spots	-12.1777
▁dynamic	-12.1786
▁stru	-12.1808
▁pol	-12.1808
rix	-12.181
ben	-12.181
▁mumbl	-12.1813
rt	-12.1825
▁expan	-12.1832
▁kenn	-12.1839
erving	-12.184
illage	-12.1854
aling	-12.1857
▁colon	-12.1862
mida	-12.187
▁phila	-12.1878
hahaha	-12.1882
ruled	-12.1886
oen	-12.1891
▁sets	-12.19
▁mic	-12.1902
usband	-12.1912
▁crews	-12.1913
liding	-12.1916
tful	-12.1924
imulation	-12.1936
izen	-12.1938
tures	-12.1941
▁ùøùøù	-12.1942
▁hypocrit	-12.1959
ike	-12.1961
▁exterminate	-12.2
shing	-12.2006
bang	-12.201
▁interfer	-12.201
ranny	-12.2013
pots	-12.2029
ury	-12.2034
▁violati	-12.2035
▁cran	-12.2037
ffab	-12.205
▁stowa	-12.205
ories	-12.2052
▁cont	-12.2059
▁rebuil	-12.206
escription	-12.2073
vern	-12.2087
▁rival	-12.211
▁bats	-12.2113
hitter	-12.2148
atic	-12.2159
trip	-12.2162
▁def	-12.2167
rmament	-12.2185
▁ski	-12.2191
▁microsc	-12.2204
▁captains	-12.2216
▁schee	-12.2217
leerd	-12.2218
pulsive	-12.2219
▁squ	-12.2236
rvis	-12.2239
dge	-12.2256
rec	-12.2263
▁jamme	-12.2266
oons	-12.228
▁construct	-12.2294
▁atroph	-12.2309
▁flapp	-12.2312
▁poo	-12.2324
▁trains	-12.2333
▁squat	-12.2366
aboli	-12.2376
▁repuls	-12.2377
genes	-12.2397
▁lous	-12.2403
raction	-12.2405
▁reg	-12.2411
▁distin	-12.2412
▁exterminat	-12.2413
eard	-12.2419
nque	-12.2421
bster	-12.2426
▁rom	-12.2428
aire	-12.243
▁holda	-12.2447
▁hypocri	-12.2455
▁conce	-12.2478
nough	-12.2487
▁colo	-12.2491
▁gam	-12.2499
▁courte	-12.2506
whoo	-12.2506
▁refer	-12.2514
achy	-12.2516
▁respirat	-12.2526
limey	-12.2537
atsu	-12.2547
raging	-12.255
sive	-12.2554
▁parla	-12.2554
▁sufferin	-12.2568
ull	-12.2571
ugh	-12.2573
▁bern	-12.2579
▁nola	-12.2592
rys	-12.2603
jo	-12.2607
▁lat	-12.2613
▁medit	-12.2626
grade	-12.2655
▁invad	-12.2661
▁bloods	-12.2662
▁blar	-12.2674
uced	-12.2674
oni	-12.2676
▁unsur	-12.2677
tto	-12.2699
▁taras	-12.2702
▁despera	-12.2704
▁spun	-12.2708
ously	-12.2714
▁kenne	-12.2734
▁faults	-12.2755
▁kwa	-12.2758
ct	-12.2769
▁woodc	-12.2782
zi	-12.2785
ks	-12.2799
▁expos	-12.2818
▁conqu	-12.2821
▁gla	-12.2827
ays	-12.2833
hmm	-12.2846
scope	-12.2847
▁experienc	-12.2852
▁steppin	-12.2853
open	-12.2867
hoohoohoo	-12.2867
▁stimulat	-12.2875
▁nooo	-12.2883
▁boog	-12.2888
ening	-12.2893
ouse	-12.29
▁int	-12.2908
nine	-12.291
▁pee	-12.292
▁tou	-12.2924
▁diab	-12.2929
▁nov	-12.2934
far	-12.2946
▁produc	-12.2949
sses	-12.2953
skin	-12.2954
inkle	-12.2965
▁blooms	-12.298
cating	-12.2982
wreck	-12.2985
▁certifie	-12.2985
ater	-12.299
aakt	-12.2995
carnation	-12.3024
snt	-12.3028
rable	-12.3031
zing	-12.3037
gs	-12.304
eros	-12.3061
gre	-12.3069
licking	-12.3073
urely	-12.3092
▁nob	-12.3097
▁operat	-12.3098
pad	-12.314
eous	-12.3141
▁clt	-12.3147
▁ec	-12.3159
nning	-12.3161
▁flab	-12.3162
gi	-12.3169
▁vaca	-12.3175
▁stun	-12.3176
imate	-12.318
rep	-12.3182
▁hag	-12.3183
▁abs	-12.321
ooh	-12.3217
unt	-12.3221
ternal	-12.3229
ngers	-12.3242
ferring	-12.3244
▁cus	-12.3245
▁eats	-12.3257
▁vers	-12.3272
▁tops	-12.3274
tters	-12.3274
▁hiph	-12.3274
udy	-12.3282
ents	-12.3288
▁cath	-12.329
sch	-12.3295
acher	-12.3303
▁clott	-12.3326
kachow	-12.3355
▁nobili	-12.3356
eria	-12.3369
ense	-12.3381
▁lords	-12.3397
ient	-12.3399
ining	-12.3403
øù	-12.3404
idi	-12.3406
▁flak	-12.3407
▁tok	-12.3411
▁bun	-12.3437
▁imper	-12.3437
▁jamm	-12.344
▁hairs	-12.3442
▁truthful	-12.3451
▁virgi	-12.3453
rot	-12.3457
mas	-12.3459
▁gin	-12.346
mus	-12.3467
▁clip	-12.3469
▁facts	-12.3472
mino	-12.3473
stering	-12.3485
▁reple	-12.3488
▁stro	-12.3498
five	-12.3501
▁wah	-12.351
ially	-12.3518
ùøùù	-12.3524
ccess	-12.3528
▁zak	-12.353
▁ide	-12.3537
ms	-12.3541
ott	-12.3555
▁budgin	-12.3556
ud	-12.3568
mitted	-12.3572
▁phar	-12.3577
▁tex	-12.3583
▁ghostl	-12.3584
aut	-12.3597
cap	-12.3616
▁slee	-12.3628
rooms	-12.364
hyd	-12.3651
cyclo	-12.3651
eum	-12.366
▁grime	-12.3681
anna	-12.3699
▁glen	-12.3702
øùø	-12.3714
igger	-12.3719
janitor	-12.3719
▁ret	-12.3742
oth	-12.3755
▁humane	-12.3766
aming	-12.3776
rab	-12.3776
etailed	-12.3782
posed	-12.3823
▁bugg	-12.3823
trapped	-12.3831
staat	-12.3833
nograph	-12.3845
mons	-12.3863
rf	-12.3875
▁cas	-12.3879
øaù	-12.3888
▁auctione	-12.3889
▁hor	-12.389
▁acc	-12.3898
▁sorts	-12.39
nned	-12.3914
ering	-12.3925
▁buyer	-12.3927
may	-12.3929
issing	-12.3939
aken	-12.394
▁learns	-12.395
rails	-12.3953
▁assembl	-12.3964
▁ei	-12.397
rad	-12.3973
▁swa	-12.3991
hello	-12.3992
▁poll	-12.3998
ecture	-12.3998
aw	-12.4004
▁aba	-12.4056
pu	-12.406
erable	-12.407
key	-12.4072
poles	-12.4081
icy	-12.4103
▁overflowin	-12.4104
▁goo	-12.4107
ainly	-12.4114
unks	-12.414
▁manual	-12.4151
sita	-12.4155
alia	-12.4171
▁identif	-12.4204
trance	-12.422
did	-12.4232
▁cling	-12.4238
▁chari	-12.424
etic	-12.4245
▁alb	-12.4247
▁squa	-12.4256
pat	-12.4268
▁snick	-12.4271
▁yak	-12.4275
▁allie	-12.4277
angles	-12.4278
▁rela	-12.4287
▁stee	-12.4287
▁eug	-12.4288
▁beam	-12.4292
▁shuts	-12.4307
▁shoots	-12.4312
▁kope	-12.433
cess	-12.4347
alvin	-12.435
▁bees	-12.435
iful	-12.4357
▁sparkl	-12.4371
bber	-12.4387
tore	-12.4411
▁dism	-12.4415
▁accus	-12.4417
action	-12.442
itation	-12.4434
charged	-12.4441
▁furni	-12.4442
▁just	-12.4444
iled	-12.4447
▁ugli	-12.4453
nted	-12.4454
▁dele	-12.4463
▁haya	-12.4501
cies	-12.4504
▁jag	-12.4505
etting	-12.4507
▁clar	-12.452
▁volg	-12.4523
▁poc	-12.4534
uk	-12.4549
▁carrol	-12.455
▁evacuat	-12.4553
ouchy	-12.4566
aph	-12.4567
▁impos	-12.457
▁demo	-12.457
ggen	-12.4574
ppity	-12.4581
▁chal	-12.4594
icate	-12.4595
enthra	-12.4597
▁begg	-12.4604
asco	-12.4617
▁hustl	-12.4618
helm	-12.4626
bi	-12.4637
▁rand	-12.4655
ang	-12.4656
▁fuj	-12.4656
hand	-12.4693
▁when	-12.4704
tional	-12.4706
owns	-12.471
uit	-12.4712
cold	-12.4718
▁term	-12.4738
aged	-12.4738
ttle	-12.4756
judged	-12.4773
mming	-12.4777
trouw	-12.4782
idate	-12.4797
xes	-12.4806
rty	-12.4809
mit	-12.4818
▁spru	-12.484
▁ger	-12.4851
ession	-12.4854
▁educate	-12.4861
seen	-12.4867
ati	-12.488
▁cod	-12.4887
night	-12.4889
▁dri	-12.4889
▁stripe	-12.4893
▁intr	-12.4896
yes	-12.49
▁ignor	-12.4906
▁deb	-12.4911
▁gem	-12.4912
▁struggl	-12.4918
oge	-12.492
▁rea	-12.4942
ease	-12.4987
dic	-12.4994
▁kop	-12.4999
operating	-12.5002
icing	-12.5012
▁blurr	-12.5027
vis	-12.5035
lls	-12.5054
▁realiz	-12.5066
ocked	-12.5104
▁pans	-12.5106
▁fille	-12.5122
▁sos	-12.5138
lts	-12.514
▁its	-12.5142
sylvania	-12.5152
▁seren	-12.5153
▁dump	-12.5158
▁emm	-12.5176
elen	-12.518
bo	-12.5193
▁lav	-12.5212
▁fling	-12.5227
cker	-12.5228
▁preced	-12.5247
mmy	-12.5247
▁sampl	-12.5247
▁tenaci	-12.5273
og	-12.5275
amber	-12.5296
laws	-12.5306
▁desir	-12.5307
zzled	-12.5322
▁pari	-12.5348
▁wilde	-12.5354
ars	-12.5361
oww	-12.5363
friends	-12.5372
pro	-12.5373
tale	-12.5376
animat	-12.5377
harmed	-12.5385
▁amb	-12.5387
▁choc	-12.5388
ple	-12.5391
rang	-12.5398
ssen	-12.5403
▁thr	-12.5426
going	-12.5447
▁tout	-12.5448
▁wis	-12.5448
▁sling	-12.545
urning	-12.5451
pee	-12.5476
yed	-12.5479
eeping	-12.5519
ckerel	-12.5519
cabba	-12.5519
▁hint	-12.552
▁collecti	-12.5527
ones	-12.5531
arts	-12.5538
something	-12.5539
▁mari	-12.5544
tur	-12.5551
▁zwe	-12.5553
oro	-12.5577
▁slime	-12.5582
effects	-12.5582
osed	-12.5589
▁capit	-12.5592
orum	-12.5598
ully	-12.5603
arily	-12.5607
rage	-12.5621
▁pacif	-12.5627
▁buri	-12.5636
▁bart	-12.5648
▁vocal	-12.5649
▁hale	-12.5663
▁das	-12.5671
ament	-12.5672
lever	-12.571
▁organiz	-12.5726
ocking	-12.5734
qui	-12.5739
knit	-12.5752
▁farth	-12.5752
tted	-12.5759
claim	-12.5786
ec	-12.5796
heroes	-12.5805
ants	-12.5817
▁ùùøù	-12.5828
lobber	-12.5836
▁loo	-12.5839
▁strapp	-12.5867
hines	-12.5872
▁upsettin	-12.5884
▁terri	-12.5885
▁nam	-12.5901
crates	-12.5903
arade	-12.5906
▁replica	-12.591
▁waits	-12.5913
getrouw	-12.5914
sars	-12.5916
sie	-12.5921
▁welcomes	-12.5933
▁reed	-12.594
non	-12.594
rating	-12.5944
inker	-12.5946
▁reject	-12.5957
▁dam	-12.5961
ician	-12.5963
▁vic	-12.5964
▁rai	-12.5986
▁nat	-12.5996
ox	-12.6002
▁fri	-12.6025
▁lan	-12.603
▁boob	-12.6034
▁tun	-12.6042
▁snivelin	-12.6048
enny	-12.605
▁gev	-12.6052
lves	-12.6056
lium	-12.6058
▁yappin	-12.6058
bad	-12.6067
unned	-12.6072
▁øùøùù	-12.6082
patter	-12.6092
▁prim	-12.6104
▁lodg	-12.6112
ert	-12.6123
hu	-12.6131
tra	-12.6132
ijk	-12.6138
otto	-12.614
nnies	-12.6141
▁postm	-12.6146
position	-12.6151
didnt	-12.6158
▁pollin	-12.6159
▁lust	-12.6162
▁oud	-12.6173
lor	-12.6176
▁stuffs	-12.6187
ega	-12.6187
▁stress	-12.6189
oudly	-12.619
takes	-12.6198
winder	-12.6199
rus	-12.622
▁fem	-12.6231
lder	-12.6251
▁crumbl	-12.6264
sty	-12.6265
▁slay	-12.627
▁tosh	-12.627
ssed	-12.6276
outs	-12.6284
▁opportun	-12.6287
▁zw	-12.6298
ick	-12.6327
bstone	-12.6329
aat	-12.6364
▁fal	-12.6383
ible	-12.6396
low	-12.641
alm	-12.6433
▁conve	-12.6445
omical	-12.6446
atch	-12.6448
ears	-12.6452
pier	-12.6469
▁celebrat	-12.6477
say	-12.6483
solution	-12.6485
vent	-12.649
bles	-12.6491
▁divid	-12.6504
▁disse	-12.6504
hey	-12.6512
cht	-12.6515
ffe	-12.652
walk	-12.6525
better	-12.654
ippin	-12.6553
novation	-12.6577
lain	-12.6585
▁charg	-12.6586
▁tal	-12.6587
first	-12.6595
▁rega	-12.661
▁fer	-12.6615
▁orderli	-12.6618
ucker	-12.6619
▁cro	-12.6622
▁reu	-12.6624
sub	-12.6626
▁cathe	-12.6628
▁chemi	-12.6628
drea	-12.6633
gun	-12.6636
▁unti	-12.6653
card	-12.6665
▁rou	-12.6675
▁fives	-12.6677
▁øùùùø	-12.6688
▁whiz	-12.669
hum	-12.6698
▁playful	-12.6704
▁cambri	-12.6706
▁ration	-12.6706
▁ob	-12.6709
kins	-12.6714
stand	-12.672
mint	-12.6724
achin	-12.674
hen	-12.675
pester	-12.6757
▁fund	-12.6758
unge	-12.6758
▁own	-12.6764
▁flun	-12.678
ean	-12.6787
ocus	-12.6798
iko	-12.681
uggers	-12.6812
ica	-12.6816
trod	-12.6817
▁øùùøù	-12.6821
win	-12.6827
people	-12.6828
▁quinte	-12.6828
anders	-12.6837
care	-12.6843
▁transmit	-12.6844
atus	-12.6866
course	-12.6869
▁chemistr	-12.6869
▁harmoni	-12.6877
▁ass	-12.6883
arm	-12.6883
umped	-12.6884
bearer	-12.6889
▁refin	-12.689
kind	-12.6892
trek	-12.6903
istol	-12.6912
phoned	-12.6953
cular	-12.6954
ùøø	-12.6959
thought	-12.6965
▁disobe	-12.6966
tly	-12.6968
▁tidb	-12.6968
▁abo	-12.6971
▁heath	-12.6977
mind	-12.6989
▁thingy	-12.7003
▁bacteri	-12.7014
uses	-12.7033
opter	-12.7033
▁iit	-12.7053
▁øùùø	-12.7053
andal	-12.7058
▁behav	-12.7058
▁slot	-12.7074
friend	-12.7074
▁suppos	-12.7082
heart	-12.7091
whoa	-12.7091
ita	-12.7097
▁jeho	-12.7098
▁manufactur	-12.7099
ippe	-12.71
bino	-12.7102
dly	-12.7125
isnt	-12.7134
tta	-12.7134
rated	-12.7136
make	-12.7156
ussy	-12.7159
▁quo	-12.7167
▁trave	-12.7178
haha	-12.7186
three	-12.7201
▁cana	-12.7207
ush	-12.7225
▁relia	-12.7227
▁whippe	-12.7228
oops	-12.7236
ightening	-12.724
captain	-12.724
▁tempora	-12.7241
obby	-12.7242
▁bootj	-12.7244
tty	-12.7252
east	-12.7255
ocation	-12.7256
ouch	-12.7261
▁ripe	-12.7261
ffle	-12.7271
lation	-12.7274
aneous	-12.728
gglers	-12.7283
rill	-12.7302
cumen	-12.7307
predict	-12.731
▁deno	-12.7315
▁bubbl	-12.7341
▁liv	-12.7344
▁committ	-12.7352
nate	-12.7359
han	-12.7367
▁sarc	-12.7375
blooming	-12.7377
paying	-12.7378
▁fam	-12.7379
happy	-12.738
grating	-12.738
tuous	-12.7382
▁smok	-12.7386
▁webs	-12.7393
bye	-12.7394
scop	-12.7397
▁dol	-12.7397
quist	-12.7403
▁nurs	-12.7406
together	-12.7426
ridge	-12.7429
▁hal	-12.7433
appiness	-12.7433
infe	-12.7433
▁advis	-12.7438
urn	-12.7439
door	-12.7457
hat	-12.7457
cream	-12.7459
story	-12.7459
name	-12.7464
ois	-12.7477
lady	-12.7486
▁receiv	-12.7487
pretty	-12.7498
▁confi	-12.75
rby	-12.7505
▁memo	-12.7505
gleg	-12.7514
▁insur	-12.7514
▁bangin	-12.7522
child	-12.7523
▁pers	-12.7524
rb	-12.7531
▁decorati	-12.7532
raddle	-12.7535
hurry	-12.7538
▁opera	-12.7543
city	-12.7545
mple	-12.7556
sleep	-12.7556
▁roach	-12.7561
told	-12.7567
▁surveyin	-12.7589
▁escapin	-12.759
ø	-12.7592
cause	-12.7597
▁ravi	-12.7598
▁bewa	-12.7602
▁gran	-12.7606
▁suspen	-12.7607
buzz	-12.7609
▁spa	-12.7613
▁hocke	-12.7613
bu	-12.7614
ooby	-12.7615
run	-12.7616
drop	-12.7619
throat	-12.7621
lost	-12.763
base	-12.7632
tegra	-12.7635
▁prot	-12.7636
▁entr	-12.7637
tention	-12.7645
▁pss	-12.7646
she	-12.7646
edication	-12.7649
▁termina	-12.765
▁aro	-12.7656
stimulate	-12.7658
kindly	-12.7666
▁messi	-12.7668
▁refine	-12.7673
ross	-12.7673
loaded	-12.7673
fast	-12.7675
ssing	-12.7679
▁fainte	-12.7679
rbed	-12.7683
▁biologic	-12.7685
▁stinkin	-12.7697
flushe	-12.7701
perhaps	-12.771
▁fortunate	-12.7712
break	-12.7718
stan	-12.7721
▁ohhoho	-12.7722
▁hysteri	-12.7723
mand	-12.7727
lasses	-12.7728
▁notic	-12.7728
rary	-12.7728
horse	-12.7729
check	-12.773
almost	-12.7732
▁simpl	-12.7738
lsey	-12.774
▁bis	-12.7745
▁jj	-12.7747
cr	-12.7749
safe	-12.7762
▁chasin	-12.7764
mounts	-12.7765
▁pleas	-12.7765
oy	-12.7766
perfect	-12.7767
waken	-12.7768
minste	-12.777
▁sti	-12.7782
black	-12.7782
oxes	-12.7784
hills	-12.7785
sir	-12.7805
▁dishono	-12.7813
q	-12.7813
ener	-12.7823
strek	-12.7824
▁desperat	-12.7824
careful	-12.7828
war	-12.7829
dress	-12.7837
death	-12.7837
▁poi	-12.7839
brought	-12.784
▁odl	-12.7843
▁brushin	-12.7847
terrible	-12.7849
▁continu	-12.7853
ppet	-12.7856
print	-12.7856
▁stir	-12.7857
count	-12.7858
mpre	-12.7858
▁strang	-12.786
secret	-12.786
case	-12.7862
boo	-12.7866
under	-12.7868
enen	-12.7869
folks	-12.7869
▁alab	-12.7871
beam	-12.7878
normal	-12.788
spirit	-12.7886
charge	-12.7887
▁certif	-12.789
rise	-12.789
ru	-12.789
county	-12.7892
▁serv	-12.79
▁stackin	-12.7902
ications	-12.7903
fault	-12.7904
fter	-12.7905
fron	-12.7909
rooning	-12.7917
ext	-12.7924
▁pott	-12.793
ude	-12.7933
ganda	-12.7939
▁stev	-12.794
▁patt	-12.7942
▁drums	-12.7944
▁liber	-12.7945
erson	-12.7946
person	-12.795
weather	-12.7952
broken	-12.7955
rick	-12.7956
totoro	-12.7956
specially	-12.7956
zie	-12.7965
mposing	-12.7967
▁porti	-12.7968
▁slug	-12.7969
▁gau	-12.797
forest	-12.797
▁traffi	-12.7972
eboard	-12.7978
dressing	-12.798
president	-12.7982
▁resolve	-12.7982
cylinder	-12.7983
atur	-12.7985
waiting	-12.7988
▁theor	-12.7989
protein	-12.7989
bread	-12.7991
horses	-12.7992
eagle	-12.7993
▁cans	-12.7994
opportun	-12.7996
purpose	-12.7997
damn	-12.7997
service	-12.7998
partial	-12.7999
attack	-12.8
pocket	-12.8003
screen	-12.8003
bob	-12.8004
box	-12.8007
▁scr	-12.8007
record	-12.8009
climb	-12.8009
court	-12.8009
ouncing	-12.8012
level	-12.8012
somethin	-12.8015
accident	-12.8016
webs	-12.8019
danger	-12.8019
drivin	-12.802
computer	-12.8022
▁iv	-12.8022
maar	-12.8024
circl	-12.8025
since	-12.8025
erland	-12.8028
plenty	-12.8028
knob	-12.8029
blaze	-12.8029
granny	-12.803
excited	-12.803
clock	-12.8032
bloomin	-12.8033
brewin	-12.8034
plow	-12.8036
digit	-12.8036
interested	-12.8036
spring	-12.8038
hone	-12.804
wazowski	-12.8041
urban	-12.8041
bik	-12.8041
barb	-12.8044
learned	-12.8045
loose	-12.8047
address	-12.8049
flint	-12.8049
incarnat	-12.8049
▁swo	-12.8049
consider	-12.8051
fortune	-12.8051
account	-12.8052
organism	-12.8053
comfortable	-12.8053
commander	-12.8053
decorat	-12.8054
tiger	-12.8054
hunting	-12.8055
public	-12.8055
flower	-12.8056
nip	-12.8057
knowledge	-12.8058
dokter	-12.8058
journey	-12.806
brand	-12.8061
snortin	-12.8062
lamont	-12.8062
spreken	-12.8064
noticed	-12.8064
raw	-12.8064
fort	-12.8064
necessary	-12.8064
confidence	-12.8064
grove	-12.8064
frame	-12.8065
hounds	-12.8066
hebben	-12.8067
awaited	-12.8067
boats	-12.8068
distance	-12.8068
wife	-12.8069
pox	-12.8071
summer	-12.8072
bulb	-12.8073
basket	-12.8075
familiar	-12.8075
match	-12.8076
infect	-12.8076
breaker	-12.8077
▁promis	-12.8077
difference	-12.8078
schedule	-12.8078
what	-12.8078
painting	-12.8079
honk	-12.8079
witness	-12.808
cloth	-12.808
fruit	-12.808
powder	-12.8081
wapens	-12.8081
physics	-12.8081
bars	-12.8081
thirsty	-12.8081
writing	-12.8081
expensive	-12.8082
cliff	-12.8082
wagon	-12.8082
reminder	-12.8083
bur	-12.8083
kickin	-12.8083
gaggin	-12.8083
fall	-12.8085
fastball	-12.8087
dexter	-12.8087
morality	-12.8088
equipped	-12.8088
loyalty	-12.8088
aircraft	-12.8088
troopers	-12.8089
pirate	-12.8089
electronic	-12.8089
urdlin	-12.8089
laydeeodl	-12.809
satisfied	-12.809
float	-12.8091
pistol	-12.8091
widow	-12.8091
pipes	-12.8091
respond	-12.8091
ashamed	-12.8092
function	-12.8092
thieves	-12.8092
carriage	-12.8092
jeff	-12.8093
drunk	-12.8094
morgen	-12.8094
seem	-12.8095
colony	-12.8095
giving	-12.8096
▁mira	-12.8096
attractive	-12.8097
slink	-12.8097
propos	-12.8098
attached	-12.8099
walking	-12.81
blast	-12.8102
squeeze	-12.8103
iii	-12.8104
zorg	-12.8104
located	-12.8104
lamour	-12.8104
komen	-12.8105
oodled	-12.8105
chairs	-12.8105
quant	-12.8106
brake	-12.8107
▁refle	-12.8107
▁jabbe	-12.8108
faithful	-12.8108
plank	-12.8108
taken	-12.8109
division	-12.811
aryans	-12.811
bus	-12.811
fail	-12.811
state	-12.8111
fu	-12.8112
mistress	-12.8112
circuit	-12.8112
vij	-12.8112
core	-12.8113
related	-12.8114
produce	-12.8114
horror	-12.8115
▁squeez	-12.8115
classic	-12.8115
fried	-12.8115
soaked	-12.8116
worthy	-12.8117
green	-12.8117
showers	-12.8118
ruler	-12.8118
confirm	-12.8119
inhabit	-12.8119
six	-12.812
▁introduc	-12.812
direction	-12.812
color	-12.812
shield	-12.812
graph	-12.8121
chic	-12.8122
ear	-12.8122
designed	-12.8122
cult	-12.8123
touched	-12.8124
sc	-12.8125
inspiring	-12.8126
speaking	-12.8126
sensitive	-12.8127
▁improv	-12.8128
range	-12.8129
shock	-12.8129
loving	-12.813
drum	-12.8132
probabl	-12.8134
zien	-12.8134
eugen	-12.8135
explained	-12.8135
tunnel	-12.8135
chew	-12.8135
roman	-12.8137
scheduled	-12.8137
killer	-12.8142
worm	-12.8142
squawk	-12.8144
schip	-12.8145
ictorian	-12.8147
hardy	-12.8147
convenien	-12.8148
▁deni	-12.8148
bomb	-12.8151
taste	-12.8151
▁psycho	-12.8152
tried	-12.8152
modest	-12.8153
▁ancho	-12.8153
sequence	-12.8155
plek	-12.8155
▁murmur	-12.8158
▁groan	-12.8159
tooth	-12.8159
cities	-12.816
model	-12.816
▁rol	-12.8161
otta	-12.8162
torch	-12.8162
spoken	-12.8163
uel	-12.8163
bul	-12.8163
neck	-12.8164
slept	-12.8165
▁snortin	-12.8165
finger	-12.8166
design	-12.8168
brains	-12.8169
▁plumb	-12.817
▁deserv	-12.8172
▁succes	-12.8173
▁wrinkle	-12.8175
lov	-12.8175
cast	-12.8175
scoring	-12.8177
▁whimper	-12.8177
duck	-12.8179
leaf	-12.8179
▁technolog	-12.818
icky	-12.818
washed	-12.8182
sync	-12.8188
▁buti	-12.8188
birdie	-12.8188
keeper	-12.8189
checked	-12.8189
▁disgrac	-12.8189
planes	-12.8194
▁contr	-12.8194
▁squeal	-12.8195
pal	-12.8195
▁ut	-12.8198
kust	-12.8198
forth	-12.8198
▁mounte	-12.8198
pr	-12.8199
▁fea	-12.82
warming	-12.82
py	-12.8201
patch	-12.8205
shoe	-12.8206
acquire	-12.8207
▁gunfight	-12.8208
posts	-12.8209
werk	-12.8211
bond	-12.8212
▁zeerover	-12.8213
▁sapphire	-12.8214
▁parasite	-12.8214
▁jaguar	-12.8214
▁constitu	-12.8215
▁qualif	-12.8216
▁survivor	-12.8216
mail	-12.8217
▁medcom	-12.8218
▁beetle	-12.8219
ndle	-12.822
▁cannonball	-12.822
third	-12.8221
▁harbo	-12.8221
wha	-12.8223
aware	-12.8225
▁carpetbagger	-12.8225
▁dialect	-12.8225
▁midget	-12.8225
▁william	-12.8226
▁traff	-12.8227
loved	-12.8227
wiring	-12.8227
▁pancake	-12.8227
▁technician	-12.8229
digita	-12.823
▁bygone	-12.823
cho	-12.8231
▁pajama	-12.8231
▁rhode	-12.8232
▁physic	-12.8232
▁regulation	-12.8232
within	-12.8234
comb	-12.8235
▁expense	-12.8237
▁lij	-12.8237
remembered	-12.8237
dacht	-12.8238
▁bandage	-12.8239
cage	-12.8239
▁proces	-12.824
▁giggle	-12.824
▁chri	-12.824
▁blanket	-12.824
▁doorknob	-12.824
suffer	-12.8241
▁snead	-12.8242
maid	-12.8242
dramatic	-12.8243
▁generation	-12.8243
▁melo	-12.8243
acy	-12.8245
▁outla	-12.8246
øaøù	-12.8247
conven	-12.8249
▁andr	-12.825
▁plac	-12.8251
▁vowel	-12.8252
▁arabian	-12.8253
worden	-12.8253
orgen	-12.8254
▁appreciat	-12.8254
▁tickle	-12.8257
▁verg	-12.8257
fighting	-12.8257
plum	-12.8258
▁gallon	-12.8258
▁trumpe	-12.8259
▁sorcer	-12.826
training	-12.8261
educat	-12.8262
▁yoooo	-12.8262
biza	-12.8264
▁carrot	-12.8266
▁snip	-12.8266
glue	-12.8267
▁louis	-12.8268
▁sabotag	-12.8269
▁regist	-12.827
▁examin	-12.827
alyzed	-12.8272
happily	-12.8273
▁sacr	-12.8275
▁replac	-12.8276
nis	-12.8276
▁sentenc	-12.8276
nail	-12.8276
logy	-12.8276
▁adam	-12.8277
▁supp	-12.8277
▁wolve	-12.8278
growing	-12.8278
eading	-12.8279
▁exhale	-12.8279
▁excit	-12.8279
rosy	-12.8279
quin	-12.828
rude	-12.8281
▁archive	-12.8282
▁slur	-12.8283
▁christ	-12.8284
▁permissi	-12.8284
commissione	-12.8289
▁kinder	-12.829
▁exhal	-12.8291
tzer	-12.8294
enades	-12.8294
▁rapidfir	-12.8295
øaøùù	-12.8296
knack	-12.8297
▁circu	-12.8298
▁isolat	-12.8299
▁lubricat	-12.8299
▁wapen	-12.8299
▁challeng	-12.83
▁puzzl	-12.83
▁merchandis	-12.83
▁damag	-12.83
▁advertis	-12.8301
▁hun	-12.8302
▁mislead	-12.8302
▁cruis	-12.8303
keren	-12.8303
descript	-12.8304
▁fascinat	-12.8308
jour	-12.8309
uths	-12.831
▁dre	-12.8312
▁imprison	-12.8312
deep	-12.8312
▁token	-12.8313
▁inherit	-12.8313
▁princip	-12.8313
▁complicate	-12.8314
▁biochemi	-12.8314
▁multi	-12.8314
▁spo	-12.8314
▁eliminat	-12.8314
▁criticize	-12.8315
▁contaminate	-12.8315
etched	-12.8315
tuurlijk	-12.8315
▁inspire	-12.8315
iterate	-12.8315
▁civilize	-12.8316
▁arabia	-12.8316
▁prophe	-12.8316
▁gurgl	-12.8316
▁credi	-12.8316
▁significan	-12.8316
▁hynk	-12.8317
▁societ	-12.8317
▁rememb	-12.8317
▁gregor	-12.8318
▁depress	-12.8319
▁philosoph	-12.832
▁cylind	-12.8321
hypno	-12.8321
▁navigat	-12.8321
▁ratio	-12.8321
▁astound	-12.8321
▁injur	-12.8322
▁emergenc	-12.8322
▁laundr	-12.8322
▁locate	-12.8322
▁epileps	-12.8323
titious	-12.8323
matter	-12.8323
▁ambu	-12.8323
▁verstop	-12.8324
▁suggestion	-12.8324
▁garde	-12.8324
▁ambitio	-12.8324
▁bellissim	-12.8324
▁reinforce	-12.8325
▁gav	-12.8325
▁butterfl	-12.8325
▁bibl	-12.8326
▁tomato	-12.8327
qualifi	-12.8327
cycling	-12.8327
duction	-12.8328
▁attracti	-12.8328
▁apologi	-12.8328
▁defect	-12.8329
▁lyya	-12.8329
pavin	-12.8329
▁sidetrack	-12.8329
▁dignit	-12.8329
▁revolve	-12.8329
▁combin	-12.833
▁deliberate	-12.833
▁jonge	-12.833
▁fluff	-12.833
prehensi	-12.8331
rushin	-12.8331
ogic	-12.8331
hrooms	-12.8331
oeuvre	-12.8331
▁physi	-12.8332
umberland	-12.8332
▁alkal	-12.8333
ajor	-12.8333
minator	-12.8333
▁vechte	-12.8333
▁savanna	-12.8333
urricane	-12.8333
andkerchief	-12.8334
▁huggin	-12.8334
hicka	-12.8334
laborat	-12.8334
▁greatgrandm	-12.8335
▁shillin	-12.8335
▁goodlookin	-12.8335
annibal	-12.8335
zier	-12.8335
lyyallyyallyya	-12.8335
▁disgustin	-12.8335
▁carniv	-12.8336
▁hospita	-12.8336
▁marsh	-12.8336
oogley	-12.8336
▁locomoti	-12.8336
ordinate	-12.8336
exican	-12.8337
▁squirt	-12.8337
ncredible	-12.8337
▁whinin	-12.8337
nvite	-12.8338
volution	-12.8338
▁tempo	-12.8338
▁villa	-12.8338
culture	-12.8338
nstitution	-12.8338
▁meteor	-12.8338
▁assoc	-12.8338
njured	-12.8339
ranz	-12.8339
motion	-12.8339
funct	-12.8339
▁practi	-12.8339
▁øùùùù	-12.8339
▁humiliati	-12.8339
▁whiske	-12.8339
▁disgus	-12.8339
ampshire	-12.8339
rrection	-12.8339
▁necessit	-12.8339
▁smuggle	-12.834
▁conscien	-12.834
▁assassin	-12.834
easant	-12.834
▁suspicio	-12.834
▁specific	-12.834
oohoohoohooh	-12.834
matics	-12.834
▁enorm	-12.8341
▁vegeta	-12.8341
julie	-12.8341
▁hydro	-12.8341
mistak	-12.8341
▁domestic	-12.8341
▁instruct	-12.8341
▁inscri	-12.8341
▁conclu	-12.8341
▁frequen	-12.8341
▁occup	-12.8341
hap	-12.8341
lackja	-12.8341
▁democra	-12.8341
ologist	-12.8341
▁disappe	-12.8341
▁schmoopsie	-12.8341
▁alpha	-12.8341
dadadadadada	-12.8341
puhpuhpuh	-12.8341
eeeeeeeeeeeeeee	-12.8341
lalalalala	-12.8341
somethinsomethin	-12.8341
▁affirm	-12.8341
▁spectac	-12.8341
propelle	-12.8341
smilin	-12.8341
rritat	-12.8341
øøøaùø	-12.8341
ndition	-12.8341
shhshh	-12.8341
owowow	-12.8341
excelle	-12.8342
forfor	-12.8342
sifies	-12.8342
nounce	-12.8342
▁yeeeeeh	-12.8342
▁seclu	-12.8342
▁delica	-12.8342
iculous	-12.8342
nforcement	-12.8342
uterize	-12.8342
▁pheno	-12.8342
velope	-12.8342
sticated	-12.8342
bellied	-12.8342
▁scroo	-12.8342
▁fasci	-12.8342
posite	-12.8343
avelli	-12.8343
tricity	-12.8343
▁basil	-12.8343
ficial	-12.8343
ormant	-12.8343
plore	-12.8343
origin	-12.8343
utton	-12.8343
munition	-12.8343
▁commerc	-12.8344
▁gamblin	-12.8344
ulley	-12.8344
▁situat	-12.8344
rupt	-12.8344
craft	-12.8344
prising	-12.8344
▁react	-12.8344
nonono	-12.8344
tuation	-12.8345
rrupted	-12.8345
ienden	-12.8345
▁smug	-12.8345
▁persua	-12.8345
spani	-12.8347
dience	-12.8347
▁conspi	-12.8347
lyyallyyallyyal	-12.8347
divo	-12.8347
cussion	-12.8348
ounger	-12.8348
ggin	-12.8348
regulati	-12.8348
owski	-12.8348
▁nutritio	-12.8348
▁braw	-12.8349
▁thor	-12.8349
▁yellowbell	-12.8349
ciate	-12.8349
▁bambo	-12.8349
lutely	-12.8349
▁droppin	-12.8349
tc	-12.835
▁anxi	-12.835
▁dodge	-12.835
▁isra	-12.835
pedia	-12.835
▁ignit	-12.8351
▁crick	-12.8351
▁seq	-12.8351
ntaneous	-12.8352
wave	-12.8352
▁eruit	-12.8352
▁scram	-12.8352
ignment	-12.8352
itiate	-12.8352
▁compass	-12.8353
▁scuf	-12.8354
▁beggin	-12.8354
appointing	-12.8354
dopted	-12.8354
dors	-12.8354
cuits	-12.8354
olence	-12.8355
solate	-12.8355
▁smokin	-12.8356
▁affi	-12.8356
etti	-12.8356
▁laydeeo	-12.8357
▁langu	-12.8357
clusive	-12.8357
▁dyin	-12.8358
loc	-12.8358
▁intro	-12.8358
▁cotta	-12.8362
▁forgo	-12.8362
▁austr	-12.8363
securit	-12.8364
▁dext	-12.8364
ebee	-12.8364
vail	-12.8365
deedoo	-12.8365
▁antic	-12.8367
schrif	-12.8367
anq	-12.8367
chivalr	-12.8368
▁dadada	-12.8368
▁haku	-12.8369
▁constr	-12.8369
▁sacre	-12.837
▁therap	-12.837
pieces	-12.837
▁norm	-12.8371
▁schul	-12.8372
hang	-12.8372
arbor	-12.8372
looklook	-12.8372
urize	-12.8372
▁hanky	-12.8373
shaw	-12.8373
oil	-12.8374
▁bran	-12.8374
zling	-12.8375
cumber	-12.8375
thetic	-12.8375
spel	-12.8375
rrito	-12.8376
▁gambl	-12.8376
casting	-12.8376
tronic	-12.8379
▁clima	-12.838
lew	-12.8381
▁effe	-12.8381
▁ordina	-12.8381
bebe	-12.8381
itory	-12.8382
tural	-12.8382
atgr	-12.8383
elieved	-12.8383
versati	-12.8383
worker	-12.8384
ointed	-12.8385
▁awaitin	-12.8385
▁intent	-12.8385
▁borin	-12.8388
▁specialize	-12.8389
▁evolv	-12.8389
▁sq	-12.8389
▁incons	-12.839
▁gez	-12.839
▁petti	-12.839
tal	-12.839
▁compet	-12.8391
achter	-12.8392
cake	-12.8392
sushi	-12.8393
eedoo	-12.8394
anche	-12.8395
tan	-12.8395
▁mil	-12.8395
trap	-12.8395
terian	-12.8395
▁transf	-12.8396
▁confer	-12.8398
▁shko	-12.8398
membered	-12.8398
▁presid	-12.84
bration	-12.84
ruly	-12.8401
▁habi	-12.8401
▁emerge	-12.8402
udge	-12.8402
▁intel	-12.8402
▁twent	-12.8402
▁provid	-12.8402
bypa	-12.8403
meaning	-12.8404
▁brac	-12.8405
▁appar	-12.8406
▁writin	-12.8407
enient	-12.8407
raft	-12.8407
camp	-12.8408
vation	-12.8408
▁augu	-12.8409
drown	-12.8411
ijker	-12.8413
hicke	-12.8413
▁doze	-12.8414
ecie	-12.8416
▁symp	-12.8416
petal	-12.8416
ags	-12.8416
▁congrat	-12.8417
rouser	-12.8417
ji	-12.8418
oop	-12.8419
ictor	-12.8419
▁logic	-12.842
▁sus	-12.842
▁energ	-12.8422
kom	-12.8422
tible	-12.8423
▁arro	-12.8424
▁booz	-12.8425
alleluia	-12.8425
▁stupe	-12.8427
treatin	-12.8427
placed	-12.8429
▁giddy	-12.843
▁pensi	-12.843
obar	-12.843
▁etc	-12.8431
racy	-12.8431
▁gebr	-12.8432
lates	-12.8433
muff	-12.8434
▁tract	-12.8434
▁jenn	-12.8434
▁perfe	-12.8435
▁whoosh	-12.8436
partment	-12.8436
tegen	-12.8437
schu	-12.8437
▁darl	-12.8437
tech	-12.8437
▁insp	-12.8439
nature	-12.8439
▁zeld	-12.844
▁theatr	-12.8441
▁hahah	-12.8441
▁stoppin	-12.8441
▁machi	-12.8442
aku	-12.8443
ngels	-12.8444
rrow	-12.8444
bunk	-12.8445
▁micron	-12.8445
gaan	-12.8445
horn	-12.8446
▁worl	-12.8448
ritan	-12.8449
▁atro	-12.845
▁linin	-12.8451
atest	-12.8451
▁resu	-12.8451
▁sock	-12.8451
▁bree	-12.8451
▁bask	-12.8453
▁anot	-12.8454
mental	-12.8455
energ	-12.8456
klin	-12.8457
▁sinus	-12.8458
bbo	-12.8458
eiland	-12.8462
▁muf	-12.8464
▁robin	-12.8464
▁greatgreat	-12.8464
▁graf	-12.8467
▁tweed	-12.8468
▁pressuriz	-12.8469
easonable	-12.8469
▁accuse	-12.8471
estimate	-12.8472
rett	-12.8472
oili	-12.8474
acht	-12.8474
▁chris	-12.8474
▁info	-12.8475
ecting	-12.8475
west	-12.8476
dot	-12.8477
▁dais	-12.8477
▁unde	-12.8477
digestion	-12.8478
▁housekeep	-12.8478
▁stup	-12.8479
endous	-12.8479
▁ramo	-12.8482
itzie	-12.8482
tales	-12.8486
▁minist	-12.8486
ixup	-12.8487
▁mutati	-12.8487
▁yellin	-12.8488
reath	-12.8488
iveness	-12.8488
▁bettin	-12.8491
beth	-12.8492
▁pupp	-12.8492
bian	-12.8493
layton	-12.8494
▁milli	-12.8497
uble	-12.8502
▁navi	-12.8502
▁matur	-12.8502
ultry	-12.8503
suits	-12.8504
dians	-12.8505
swatter	-12.8509
▁layee	-12.8511
mist	-12.8514
edible	-12.8515
▁alv	-12.8515
▁hom	-12.8516
wee	-12.8516
throats	-12.8516
▁lyin	-12.8519
evils	-12.8519
strate	-12.852
▁saf	-12.8522
intention	-12.8525
▁weir	-12.8526
vage	-12.8527
▁fantas	-12.8528
enhu	-12.8529
▁astron	-12.853
▁litera	-12.853
bsen	-12.8532
azies	-12.8532
▁spar	-12.8533
▁prope	-12.8535
icles	-12.8541
bia	-12.8542
[...]
