<unk>	0
<s>	0
</s>	0
s	-3.6621
▁im	-4.47806
▁dont	-4.54342
▁know	-4.70963
▁get	-4.73683
▁oh	-4.75596
▁go	-4.76438
▁come	-4.81813
▁right	-4.83531
▁well	-4.92858
▁like	-4.94822
▁got	-4.97278
▁youre	-5.02987
▁yeah	-5.11087
▁thats	-5.12475
▁one	-5.15548
▁good	-5.2073
ing	-5.20948
▁na	-5.32364
▁see	-5.32413
▁hey	-5.36961
▁okay	-5.38438
▁yes	-5.40525
▁think	-5.41602
▁look	-5.46912
▁back	-5.48212
▁want	-5.50402
▁going	-5.55984
▁gon	-5.56662
▁us	-5.59327
ed	-5.59945
▁hes	-5.61402
▁ill	-5.63465
▁time	-5.63705
▁man	-5.67508
▁take	-5.68122
▁cant	-5.70177
▁lets	-5.81851
▁really	-5.82351
▁could	-5.84452
▁way	-5.8568
▁say	-5.8823
▁never	-5.90665
▁little	-5.92023
▁tell	-5.92766
▁something	-5.9442
d	-5.95588
▁mr	-5.98242
▁would	-5.98443
▁need	-6.01271
▁thank	-6.01852
y	-6.02864
▁make	-6.04607
▁	-6.05134
▁mean	-6.07321
▁whats	-6.0911
▁ive	-6.09197
▁sorry	-6.09827
▁let	-6.10319
▁love	-6.11229
▁please	-6.11439
▁wait	-6.13487
▁didnt	-6.14621
▁give	-6.16022
▁sir	-6.17947
▁theres	-6.22332
▁thing	-6.25929
▁l	-6.25988
▁two	-6.30027
▁sure	-6.3028
▁great	-6.32946
▁help	-6.33757
▁day	-6.33925
▁much	-6.36922
▁said	-6.38797
▁theyre	-6.39525
▁stop	-6.4106
▁home	-6.44022
▁guys	-6.44792
▁first	-6.46347
▁night	-6.46505
▁work	-6.466
▁must	-6.47449
▁dad	-6.48518
e	-6.48801
er	-6.49028
▁nothing	-6.49375
▁even	-6.51624
ly	-6.51711
▁life	-6.52987
▁uh	-6.53464
▁big	-6.53822
▁people	-6.54514
▁find	-6.55347
▁new	-6.5607
▁away	-6.56409
▁maybe	-6.56409
▁better	-6.56754
▁thought	-6.57126
▁ever	-6.58804
▁hi	-6.59949
▁still	-6.60295
▁keep	-6.60343
▁anything	-6.60837
▁shes	-6.63461
▁put	-6.63589
▁around	-6.64531
▁listen	-6.64744
▁god	-6.64776
▁nice	-6.66815
▁call	-6.67047
▁boy	-6.67893
▁believe	-6.68501
▁id	-6.70569
▁name	-6.7096
▁always	-6.71343
▁ta	-6.72094
▁last	-6.72159
▁old	-6.72172
▁baby	-6.73769
▁place	-6.74245
▁feel	-6.75615
▁play	-6.76015
▁three	-6.76087
▁youve	-6.77576
▁hello	-6.77647
▁talk	-6.79409
▁long	-6.79598
▁world	-6.79636
▁wont	-6.79961
▁father	-6.80236
▁youll	-6.80623
▁everything	-6.81395
▁kind	-6.81426
▁things	-6.82664
▁whoa	-6.83086
▁years	-6.83523
▁isnt	-6.83537
▁hold	-6.84835
▁miss	-6.85149
▁fine	-6.85193
▁stay	-6.85868
▁coming	-6.86338
▁mom	-6.87036
▁bad	-6.87045
▁doesnt	-6.87482
▁told	-6.88434
▁ready	-6.89732
▁every	-6.90193
▁thanks	-6.90668
▁huh	-6.91343
▁may	-6.91994
▁made	-6.9362
t	-6.93687
▁best	-6.94109
n	-6.94846
▁house	-6.95373
▁wrong	-6.96907
▁course	-6.96909
▁hell	-6.97084
▁remember	-6.97843
▁morning	-6.97952
▁enough	-6.98744
▁try	-6.98934
▁leave	-6.99881
▁real	-7.00393
▁show	-7.00805
▁guy	-7.01701
▁done	-7.0172
▁lot	-7.01806
▁mind	-7.02807
a	-7.0303
▁wan	-7.03235
▁hear	-7.03303
▁understand	-7.0335
▁girl	-7.04556
▁kids	-7.0519
▁might	-7.05313
▁talking	-7.06019
r	-7.06382
▁job	-7.06453
in	-7.06955
▁run	-7.0728
▁left	-7.07313
o	-7.07557
▁today	-7.08182
▁move	-7.09086
▁car	-7.11045
▁school	-7.12341
▁mother	-7.12395
▁watch	-7.14197
▁excuse	-7.14801
▁next	-7.15425
▁honey	-7.1574
▁game	-7.16182
▁jack	-7.18573
▁weve	-7.18931
▁guess	-7.19906
▁care	-7.20547
▁another	-7.21224
▁turn	-7.21242
▁minute	-7.21433
▁happened	-7.22097
▁tonight	-7.22224
▁second	-7.22973
▁getting	-7.23062
▁ok	-7.23555
▁coach	-7.23626
▁family	-7.23913
▁son	-7.23931
▁whole	-7.24943
▁everybody	-7.25285
▁looking	-7.25732
▁room	-7.25734
▁seen	-7.25961
▁pretty	-7.25979
▁george	-7.27028
▁wouldnt	-7.27122
▁money	-7.27381
l	-7.27704
▁use	-7.27965
▁ask	-7.28607
▁tomorrow	-7.28801
▁dear	-7.29892
▁together	-7.30242
▁found	-7.30588
▁came	-7.30613
▁woman	-7.30971
▁team	-7.3098
▁hope	-7.3108
▁wanted	-7.31359
▁heard	-7.32046
▁live	-7.33942
▁ah	-7.33968
▁saw	-7.34701
▁trying	-7.34713
▁matter	-7.35767
▁head	-7.35993
▁aint	-7.36226
▁water	-7.37007
▁idea	-7.37342
al	-7.37382
▁late	-7.37585
▁dead	-7.37779
▁hard	-7.38279
▁meet	-7.38813
▁whos	-7.39772
▁door	-7.40187
▁start	-7.40372
▁without	-7.40557
i	-7.40878
p	-7.41131
▁five	-7.41385
▁knew	-7.41771
▁worry	-7.41774
▁lost	-7.41778
g	-7.4179
▁boys	-7.42409
▁bring	-7.42574
▁else	-7.42592
es	-7.43678
▁wasnt	-7.43829
▁easy	-7.44248
▁friends	-7.44503
▁yet	-7.44779
▁since	-7.45501
▁face	-7.46611
▁eat	-7.46639
▁children	-7.47212
▁havent	-7.47643
▁everyone	-7.47894
▁kill	-7.48151
▁fight	-7.48934
▁friend	-7.4896
▁many	-7.49105
▁beautiful	-7.49826
▁crazy	-7.49833
▁kid	-7.50027
▁four	-7.50256
▁set	-7.50269
▁playing	-7.50957
▁men	-7.51008
▁gone	-7.51373
▁ha	-7.51511
▁true	-7.5161
▁alone	-7.51612
▁actually	-7.51614
▁break	-7.5196
c	-7.52102
▁open	-7.52372
▁em	-7.52672
▁end	-7.52876
▁happy	-7.52967
▁shall	-7.53413
▁cause	-7.53619
▁sit	-7.53626
▁fun	-7.53645
▁went	-7.53886
▁used	-7.54915
▁welcome	-7.5527
▁hand	-7.5749
▁stuff	-7.57731
▁looks	-7.58025
▁already	-7.58107
▁someone	-7.58114
▁king	-7.59239
▁win	-7.5926
▁afraid	-7.59556
▁chance	-7.59559
▁dream	-7.59937
▁lucky	-7.60185
▁wow	-7.6054
▁change	-7.60837
▁wish	-7.60974
▁forget	-7.61013
▁check	-7.61087
▁hit	-7.619
▁year	-7.62061
▁laughing	-7.6221
▁heart	-7.62214
▁music	-7.6251
▁took	-7.62522
▁brother	-7.62583
▁far	-7.62598
▁close	-7.62663
▁couldnt	-7.63178
▁fire	-7.63291
▁charlie	-7.64035
▁cool	-7.64559
▁power	-7.64675
▁problem	-7.65198
▁says	-7.6523
▁number	-7.65749
▁eyes	-7.65865
▁business	-7.66058
▁stand	-7.6661
▁youd	-7.66626
▁anyone	-7.67136
▁somebody	-7.67136
▁dance	-7.67256
▁called	-7.68127
▁pick	-7.68319
▁high	-7.68417
ie	-7.68542
▁six	-7.68725
▁side	-7.69281
▁bit	-7.69567
ve	-7.70306
▁hands	-7.70509
m	-7.70783
▁quite	-7.70955
▁word	-7.71185
▁days	-7.71693
▁lm	-7.7203
b	-7.72896
▁part	-7.73216
on	-7.73449
▁anyway	-7.73642
▁mary	-7.73676
▁supposed	-7.73784
▁later	-7.73832
▁hurry	-7.74208
▁red	-7.75132
est	-7.754
▁perfect	-7.75727
▁hurt	-7.75816
▁exactly	-7.75924
▁taking	-7.75927
f	-7.76679
▁minutes	-7.76698
▁young	-7.76911
▁special	-7.77063
▁hmm	-7.77067
▁ybi	-7.77427
▁free	-7.77479
▁line	-7.77645
▁mine	-7.77689
▁pay	-7.77753
▁happen	-7.77793
▁walk	-7.78159
▁shut	-7.78804
▁sleep	-7.78858
▁saying	-7.7889
▁nobody	-7.79409
▁inside	-7.79411
▁save	-7.79753
▁trouble	-7.80035
▁working	-7.80259
▁fast	-7.80409
▁read	-7.80415
▁probably	-7.80601
▁rest	-7.80638
ic	-7.80819
▁dog	-7.81122
▁smurf	-7.81531
or	-7.81566
▁clear	-7.81928
▁plan	-7.82217
▁thinking	-7.82274
▁lose	-7.82333
▁blue	-7.82425
▁sighs	-7.83033
▁hang	-7.83117
▁full	-7.83575
▁whatever	-7.8365
▁ball	-7.83761
▁light	-7.84143
▁bye	-7.84272
▁ahead	-7.84274
▁die	-7.85051
▁cut	-7.85466
▁food	-7.85525
▁almost	-7.86159
▁daddy	-7.86161
▁lady	-7.86208
▁goes	-7.86218
▁point	-7.8628
▁john	-7.86782
▁arent	-7.86797
▁wife	-7.86802
▁ago	-7.86816
▁hot	-7.87604
▁fly	-7.87667
▁um	-7.87684
▁wheres	-7.88051
▁goodbye	-7.88082
▁phone	-7.88742
u	-7.88814
▁soon	-7.8924
k	-7.89341
▁funny	-7.89393
▁city	-7.894
▁hate	-7.89426
▁different	-7.91371
▁party	-7.91661
▁b	-7.91833
ll	-7.92207
▁week	-7.92283
▁though	-7.93298
▁half	-7.93371
▁lord	-7.93399
▁married	-7.93404
▁wants	-7.9475
▁anybody	-7.94773
▁gave	-7.94785
▁wonderful	-7.9482
▁gasps	-7.95011
▁earth	-7.95456
▁feet	-7.95474
▁parents	-7.95672
▁moment	-7.95867
▁bed	-7.95967
▁sweet	-7.96122
▁important	-7.96871
▁story	-7.96905
▁deal	-7.96907
en	-7.9692
▁catch	-7.97038
▁least	-7.9758
▁running	-7.97585
ar	-7.97836
▁ya	-7.97957
▁safe	-7.98031
▁joe	-7.98076
▁ladies	-7.983
▁heres	-7.98502
▁un	-7.98647
▁town	-7.99032
▁hair	-7.99501
an	-7.99627
w	-8.00279
▁telling	-8.00382
▁throw	-8.00473
▁speak	-8.00492
▁chuckles	-8.00608
▁damn	-8.00823
st	-8.01172
▁behind	-8.01204
▁front	-8.01204
▁trust	-8.01204
▁body	-8.01205
▁dinner	-8.01944
▁along	-8.01946
ers	-8.02457
▁girls	-8.0246
▁also	-8.02692
▁fred	-8.02779
▁ride	-8.03228
▁th	-8.03541
▁bear	-8.038
▁quick	-8.0389
▁pull	-8.04047
▁times	-8.04371
▁follow	-8.04813
▁making	-8.04967
man	-8.0518
h	-8.05207
▁means	-8.05298
▁song	-8.05875
▁top	-8.05879
▁waiting	-8.06339
▁step	-8.06361
▁horse	-8.06642
▁perhaps	-8.07289
▁theyll	-8.07289
▁beat	-8.07547
▁gentlemen	-8.08077
▁send	-8.08319
▁shoot	-8.08349
able	-8.08642
▁hours	-8.08884
▁laughs	-8.09468
▁question	-8.0963
▁war	-8.0971
▁sound	-8.10451
▁couple	-8.10476
▁shot	-8.10497
re	-8.11174
▁started	-8.11221
▁space	-8.11285
▁child	-8.11289
▁hour	-8.1129
▁mama	-8.1133
▁country	-8.12124
▁makes	-8.12138
▁weird	-8.12732
▁asked	-8.12954
▁met	-8.13008
ion	-8.1327
▁sometimes	-8.13347
▁promise	-8.13511
▁luck	-8.13529
▁ducks	-8.13728
▁stupid	-8.13769
▁human	-8.13826
▁captain	-8.14609
▁harry	-8.14611
▁ice	-8.14624
▁dr	-8.14812
▁drink	-8.14908
▁grand	-8.15496
▁daughter	-8.15565
▁cheering	-8.15602
▁ship	-8.15853
▁field	-8.159
▁rock	-8.1591
▁serious	-8.16162
▁brought	-8.16311
▁radio	-8.16315
▁sister	-8.16436
▁book	-8.16486
▁s	-8.16827
▁air	-8.16846
▁drive	-8.16852
▁touch	-8.17031
▁pass	-8.17035
▁glad	-8.17186
▁bet	-8.17575
le	-8.17823
▁order	-8.1784
▁control	-8.18028
▁moving	-8.18047
▁till	-8.1807
▁straight	-8.18884
▁careful	-8.19693
▁ernie	-8.19805
▁general	-8.19811
▁kidding	-8.19811
▁screaming	-8.19887
▁grunts	-8.19953
▁re	-8.20232
▁ooh	-8.204
▁wed	-8.2057
▁women	-8.20698
▁white	-8.2071
▁continues	-8.20726
▁person	-8.21529
▁christmas	-8.21599
▁football	-8.21601
▁death	-8.21602
▁sounds	-8.21633
▁in	-8.21911
▁fish	-8.22006
▁blow	-8.22142
it	-8.22319
▁wonder	-8.22435
▁either	-8.22508
▁lead	-8.22548
▁sea	-8.22631
▁ow	-8.22701
▁strong	-8.23272
▁proud	-8.23427
▁itll	-8.23428
▁crowd	-8.23465
▁t	-8.24105
▁news	-8.24289
▁anymore	-8.24352
ies	-8.24418
▁land	-8.24498
▁magic	-8.24675
▁comes	-8.24871
▁killed	-8.25137
▁kiss	-8.25224
▁small	-8.25286
▁stick	-8.25286
▁wake	-8.26245
▁finally	-8.26282
▁secret	-8.26614
th	-8.2704
▁learn	-8.27115
▁cat	-8.27232
▁banks	-8.27407
▁answer	-8.27616
▁eye	-8.27621
▁buy	-8.28144
▁absolutely	-8.28164
nt	-8.28652
▁case	-8.28868
▁office	-8.29012
▁de	-8.29024
▁camp	-8.29048
▁voice	-8.29114
▁piece	-8.2961
▁star	-8.29925
▁black	-8.3008
▁race	-8.30101
▁alive	-8.30116
▁finish	-8.30724
▁super	-8.31036
▁forever	-8.31085
▁queen	-8.31092
▁sign	-8.31414
▁lovely	-8.3142
▁class	-8.31972
▁outside	-8.32087
▁tried	-8.32111
▁husband	-8.32654
▁fault	-8.33095
▁papa	-8.33095
▁feeling	-8.33188
▁la	-8.33206
us	-8.33252
▁smell	-8.33726
ity	-8.3386
▁amazing	-8.34115
▁somewhere	-8.34115
▁buddy	-8.34115
▁living	-8.34119
▁ring	-8.34501
▁reason	-8.34718
▁ten	-8.34898
▁p	-8.35095
▁scared	-8.35291
▁sing	-8.35815
te	-8.36359
▁f	-8.3691
▁suppose	-8.36987
▁scott	-8.37193
▁darling	-8.37243
▁c	-8.37284
▁cold	-8.37292
▁short	-8.38144
▁sick	-8.38284
▁north	-8.38304
▁road	-8.38304
▁train	-8.38462
▁act	-8.38782
ch	-8.38846
▁w	-8.39033
▁tough	-8.3922
▁leaving	-8.3938
▁theyve	-8.3938
▁island	-8.3938
is	-8.39731
▁seems	-8.3978
▁al	-8.39791
▁needs	-8.39942
▁weeks	-8.40076
▁fix	-8.40098
▁street	-8.40178
▁fact	-8.40195
▁fear	-8.40449
▁president	-8.40467
▁poor	-8.40475
▁princess	-8.40509
▁van	-8.4076
▁wear	-8.40764
ish	-8.41075
▁round	-8.41314
▁quit	-8.41395
▁seem	-8.41488
▁english	-8.41531
▁shouldnt	-8.41565
▁hall	-8.4164
to	-8.41731
▁fall	-8.41881
▁boat	-8.42451
▁york	-8.42679
▁marshall	-8.4268
▁kay	-8.4271
▁groans	-8.42777
▁jump	-8.42874
▁ho	-8.43277
▁uncle	-8.4369
up	-8.43705
▁maam	-8.438
▁become	-8.43801
▁hungry	-8.43804
▁happens	-8.44022
▁park	-8.44264
ment	-8.44592
▁past	-8.44885
▁eight	-8.44924
▁quack	-8.44937
▁quiet	-8.44938
▁spend	-8.44939
▁count	-8.4606
▁seven	-8.46076
▁lunch	-8.46084
▁kelly	-8.46086
▁dangerous	-8.46093
▁sort	-8.46093
▁lts	-8.46099
▁a	-8.46185
▁join	-8.46215
▁mario	-8.46281
▁ones	-8.46695
▁figure	-8.46857
▁write	-8.46917
▁whoo	-8.47012
▁mad	-8.47143
▁present	-8.47229
▁bob	-8.47232
▁truth	-8.47249
▁months	-8.47251
▁loved	-8.47607
▁fair	-8.48155
▁michael	-8.4831
▁clumsy	-8.48425
▁hows	-8.48426
▁drop	-8.48437
▁handle	-8.4853
▁mmm	-8.4856
v	-8.48804
▁low	-8.4893
▁clean	-8.49221
▁cover	-8.49232
▁strange	-8.4952
▁vince	-8.49618
▁dreams	-8.49618
▁wild	-8.49645
▁grunting	-8.49659
▁evening	-8.49947
▁buzz	-8.50106
▁words	-8.50204
▁g	-8.50333
ness	-8.50381
▁grandma	-8.50781
▁simple	-8.50821
▁rather	-8.50823
▁mess	-8.51111
▁able	-8.51207
▁taken	-8.51248
ry	-8.51318
▁lives	-8.51424
ra	-8.51491
▁deep	-8.51707
▁an	-8.51766
▁m	-8.51794
▁happening	-8.51948
▁sense	-8.51974
▁outta	-8.52046
▁sent	-8.52066
▁shit	-8.52081
▁smurfs	-8.52086
▁sun	-8.52351
▁speaking	-8.52951
▁cute	-8.53254
▁dark	-8.5326
▁mouth	-8.53282
▁busy	-8.53494
▁gun	-8.53561
▁juli	-8.53644
▁shell	-8.53825
▁soul	-8.54216
▁surprise	-8.54291
▁entire	-8.54372
▁summer	-8.54526
▁smurfette	-8.54537
et	-8.55186
▁return	-8.55417
▁slow	-8.55487
▁afternoon	-8.5579
▁felt	-8.5579
▁georgie	-8.5579
▁tree	-8.55871
▁officer	-8.55975
▁marry	-8.56513
▁died	-8.56568
▁honor	-8.56686
z	-8.56755
▁blood	-8.56835
▁flying	-8.56872
▁army	-8.57246
ation	-8.57398
▁expect	-8.57445
▁roll	-8.5777
el	-8.57799
▁knows	-8.57984
▁brown	-8.58341
▁tight	-8.58347
▁college	-8.58371
▁others	-8.58371
▁attention	-8.58372
▁nine	-8.58385
▁window	-8.58492
▁less	-8.59231
▁wash	-8.59318
▁grab	-8.5965
▁report	-8.59669
▁third	-8.59687
▁master	-8.59701
▁giving	-8.59702
ro	-8.6018
▁calling	-8.60747
ur	-8.60993
▁possible	-8.6102
▁richard	-8.61027
▁moon	-8.61055
▁be	-8.61208
▁doctor	-8.61232
▁mission	-8.61422
▁known	-8.61579
▁future	-8.62372
▁history	-8.62372
▁paddington	-8.62372
▁popper	-8.62394
▁terrible	-8.62406
ive	-8.62615
▁bus	-8.62667
▁push	-8.62715
▁eating	-8.62765
▁fool	-8.63033
▁gosh	-8.63065
la	-8.63081
ty	-8.6312
▁frank	-8.63588
▁forgive	-8.63612
▁definitely	-8.63741
▁dorothy	-8.63741
▁stuck	-8.63741
▁gerry	-8.63743
▁worse	-8.63746
▁calm	-8.63754
▁state	-8.64089
▁grow	-8.64441
▁spot	-8.65117
▁relax	-8.6513
▁standing	-8.65206
▁early	-8.65218
▁age	-8.65232
▁hed	-8.65553
▁building	-8.65585
▁laugh	-8.65965
ance	-8.6602
▁miles	-8.66164
▁pain	-8.66203
▁bill	-8.66292
▁eric	-8.66417
▁police	-8.66503
▁bird	-8.66526
▁favorite	-8.66545
▁tired	-8.66564
▁none	-8.66584
▁faster	-8.66896
▁dress	-8.66957
▁kick	-8.67062
▁meeting	-8.67072
▁date	-8.6727
▁changed	-8.67279
▁d	-8.67487
▁carry	-8.67508
▁explain	-8.67968
▁machine	-8.68384
▁worked	-8.684
▁enjoy	-8.68462
▁longer	-8.68958
▁forgot	-8.69411
▁grinch	-8.69417
▁million	-8.6942
▁boss	-8.69448
▁incredible	-8.69451
▁jim	-8.69454
▁hide	-8.69475
▁certainly	-8.69514
▁horn	-8.69678
▁bag	-8.69723
▁monster	-8.69865
▁con	-8.69868
▁bomb	-8.69896
▁key	-8.69937
▁singing	-8.70184
▁gets	-8.70686
▁near	-8.70747
se	-8.70757
▁match	-8.70844
▁accident	-8.70879
▁pardon	-8.70887
▁jacques	-8.70888
▁josh	-8.70891
▁nose	-8.709
▁hut	-8.70931
▁trip	-8.70946
▁completely	-8.71
▁teach	-8.71653
▁bar	-8.72016
▁imagine	-8.7211
▁mike	-8.72134
▁given	-8.72144
▁meant	-8.72212
▁french	-8.72347
▁spirit	-8.7238
▁choice	-8.7238
▁middle	-8.7238
▁pleasure	-8.7238
▁upon	-8.72391
▁aah	-8.72397
▁doubt	-8.72455
il	-8.72456
▁board	-8.72476
▁suit	-8.72764
▁bell	-8.72806
▁attack	-8.73521
▁test	-8.73606
▁brothers	-8.73703
▁born	-8.73712
▁ben	-8.7385
▁bryce	-8.73895
▁london	-8.73895
▁walter	-8.73895
▁mommy	-8.7391
▁station	-8.73916
▁tv	-8.73928
▁turned	-8.74042
less	-8.74426
ge	-8.74429
▁missed	-8.74779
▁st	-8.74995
▁seconds	-8.75091
▁worth	-8.75174
▁anywhere	-8.75433
▁caught	-8.75433
▁fantastic	-8.75433
▁davis	-8.75434
▁kept	-8.75436
▁wind	-8.75436
▁yesterday	-8.75439
▁foot	-8.75472
▁corner	-8.75483
▁sword	-8.75498
▁broken	-8.75504
▁table	-8.75535
▁system	-8.76056
▁knock	-8.76061
▁share	-8.76075
age	-8.76318
ce	-8.76528
▁box	-8.76589
na	-8.76741
▁da	-8.76799
▁pa	-8.76831
▁fat	-8.76837
▁steve	-8.76896
▁awesome	-8.76996
▁arthur	-8.76997
▁area	-8.77
▁hiro	-8.77142
▁joke	-8.77415
▁ass	-8.77443
▁belong	-8.77693
▁wearing	-8.77778
▁freak	-8.78024
▁american	-8.7803
▁lie	-8.78093
▁ground	-8.7822
▁prince	-8.78513
▁hero	-8.78514
▁spell	-8.78585
▁unless	-8.7862
▁hotel	-8.78628
▁sitting	-8.7863
▁quickly	-8.78898
▁hat	-8.79284
▁club	-8.793
▁asking	-8.79422
▁baymax	-8.80196
▁company	-8.80197
▁bunch	-8.80199
▁wedding	-8.80264
▁totally	-8.80267
ia	-8.80459
▁charge	-8.80818
▁rules	-8.80934
▁picture	-8.8098
▁champion	-8.80993
at	-8.81196
ne	-8.81329
▁cry	-8.81352
▁e	-8.8138
▁marina	-8.8184
▁tall	-8.82137
▁brain	-8.82482
▁guard	-8.827
▁respect	-8.82817
▁sell	-8.82991
ful	-8.83021
▁except	-8.83046
▁command	-8.83293
▁works	-8.83475
▁werent	-8.83502
▁smile	-8.83504
▁double	-8.83512
▁co	-8.83587
▁holy	-8.83718
▁mistake	-8.84289
▁rule	-8.84563
▁build	-8.8465
▁watching	-8.84782
▁realize	-8.84974
▁legs	-8.85071
▁defense	-8.85197
▁shh	-8.8521
▁speed	-8.85212
co	-8.85227
▁warm	-8.85752
▁k	-8.85949
▁engine	-8.86449
▁h	-8.86747
rs	-8.86783
▁shrek	-8.86921
▁jesus	-8.86928
▁action	-8.86993
▁camera	-8.87018
▁west	-8.87061
▁chattering	-8.87109
▁rich	-8.87415
▁screams	-8.87659
sh	-8.87694
out	-8.87884
▁service	-8.87926
▁law	-8.88199
▁card	-8.88279
id	-8.88499
▁smart	-8.88518
▁sad	-8.88609
▁neither	-8.88675
▁worried	-8.88675
▁forward	-8.88677
▁nando	-8.88677
▁green	-8.88678
▁message	-8.88698
▁congratulations	-8.88701
▁single	-8.88741
▁brave	-8.88768
▁questions	-8.88786
▁commander	-8.88884
ling	-8.89139
▁greatest	-8.89238
▁per	-8.89736
▁dude	-8.89739
▁animal	-8.89769
▁destroy	-8.8977
▁arm	-8.89849
▁hundred	-8.90461
▁instead	-8.90461
▁katherine	-8.90461
▁alliance	-8.90463
▁thunder	-8.90477
ter	-8.90594
▁ray	-8.90651
▁rocky	-8.90968
▁n	-8.91139
▁learned	-8.9116
▁chicken	-8.91594
▁stone	-8.91632
mo	-8.92128
▁steal	-8.92253
▁goddamn	-8.92279
▁practice	-8.92279
▁somehow	-8.92279
▁jamie	-8.92322
▁locked	-8.92616
▁seat	-8.92649
▁saved	-8.93078
ous	-8.9332
▁en	-8.93487
▁played	-8.93603
▁south	-8.93659
▁protect	-8.93767
▁east	-8.93919
▁dis	-8.93943
▁nervous	-8.93972
▁aunt	-8.94113
▁extra	-8.94129
▁sweetheart	-8.94131
▁blind	-8.94131
▁goldberg	-8.94132
▁village	-8.94132
▁rayburn	-8.94132
▁group	-8.94134
▁stoker	-8.94138
▁yep	-8.94165
▁jane	-8.94168
▁launch	-8.94224
▁yall	-8.94228
▁di	-8.94255
▁dare	-8.95032
▁map	-8.95115
▁talked	-8.95391
▁penguin	-8.95436
ah	-8.95575
▁reach	-8.95667
ting	-8.9594
▁universe	-8.96018
▁lucas	-8.96018
▁birthday	-8.96019
▁tiger	-8.9602
▁purpose	-8.96021
▁hasnt	-8.96021
▁risk	-8.96055
▁eggs	-8.96074
ma	-8.96075
▁vote	-8.96076
▁artie	-8.9612
ted	-8.96309
▁interesting	-8.96317
▁fighting	-8.96471
▁bother	-8.97371
▁record	-8.97377
▁agree	-8.97677
▁fell	-8.97848
▁r	-8.97855
um	-8.97879
▁personal	-8.979
▁across	-8.97941
▁coffee	-8.97941
▁napoleon	-8.97941
▁terrific	-8.97941
▁boris	-8.97944
▁evil	-8.97949
▁sophie	-8.97957
▁heh	-8.9796
▁i	-8.98166
▁complete	-8.98364
ist	-8.98779
▁besides	-8.98811
ri	-8.99002
▁pal	-8.9901
ai	-8.99305
ke	-8.99327
▁travel	-8.99345
▁william	-8.99362
▁names	-8.99569
▁horses	-8.99597
▁normal	-8.99775
▁river	-8.99898
▁artemis	-8.99902
▁clothes	-8.9991
▁meat	-8.99919
▁forest	-8.99921
▁annie	-9.00019
▁planet	-9.00084
▁eh	-9.00151
▁out	-9.00192
▁shel	-9.00289
▁holding	-9.00609
op	-9.0081
▁bank	-9.01019
▁owe	-9.01167
▁position	-9.01407
▁lock	-9.01437
▁tea	-9.0167
li	-9.01741
▁england	-9.01902
▁major	-9.01902
▁cream	-9.01902
▁ivan	-9.01902
▁mumble	-9.01904
▁henry	-9.01908
▁barker	-9.01948
▁sandy	-9.02047
▁sam	-9.0214
▁awful	-9.02526
▁promised	-9.02529
▁named	-9.02701
ine	-9.02869
▁carl	-9.03373
▁mo	-9.03402
▁sake	-9.03499
▁loud	-9.03763
▁takes	-9.03889
▁floor	-9.03943
▁ridiculous	-9.03943
▁upstairs	-9.03943
▁howd	-9.03943
▁uhhuh	-9.03943
▁breakfast	-9.03946
▁enzo	-9.03946
▁battle	-9.03947
▁plans	-9.03956
▁worst	-9.03956
▁fellow	-9.03959
▁mmhmm	-9.03959
▁ought	-9.0396
▁prove	-9.04047
▁list	-9.04135
▁fit	-9.04185
▁bowl	-9.04246
▁plays	-9.0433
▁lay	-9.0438
▁art	-9.04685
▁cook	-9.0477
▁rings	-9.04774
▁tie	-9.0519
▁needed	-9.05196
▁seeing	-9.05243
▁nuts	-9.05542
lo	-9.05579
▁greek	-9.05596
▁thousand	-9.0561
▁gift	-9.05639
▁store	-9.05657
▁wall	-9.05756
▁ii	-9.05903
▁favor	-9.06019
▁bottom	-9.06026
▁gargamel	-9.06026
▁spanish	-9.06026
▁chief	-9.06028
▁roger	-9.06029
▁lucy	-9.06029
▁beach	-9.0603
▁cale	-9.0604
▁emergency	-9.06044
▁band	-9.0606
▁trick	-9.06185
▁shouting	-9.06252
ul	-9.06703
▁mark	-9.07354
▁max	-9.07799
▁track	-9.07822
▁stars	-9.07959
▁letter	-9.08065
▁broke	-9.08065
▁gold	-9.08137
▁sight	-9.08144
▁smoke	-9.08154
▁strength	-9.08154
▁weather	-9.08154
▁kitchen	-9.08154
▁teeth	-9.08159
▁kingdom	-9.08159
▁vanya	-9.08161
▁pitch	-9.08181
▁stopped	-9.08229
▁christ	-9.08328
▁davey	-9.08329
ac	-9.08373
▁closer	-9.08528
▁shoes	-9.08835
▁finished	-9.08954
▁training	-9.09254
ca	-9.09262
▁se	-9.09518
ow	-9.09573
▁breath	-9.09581
▁pl	-9.097
▁butt	-9.09841
▁rain	-9.0987
▁post	-9.0995
▁squirrel	-9.09989
▁mention	-9.09992
▁whistle	-9.10025
▁giant	-9.10028
▁over	-9.10173
▁paul	-9.10297
▁choose	-9.10328
▁church	-9.10328
▁majesty	-9.10328
▁swear	-9.10328
▁lift	-9.10329
▁operation	-9.1033
▁moses	-9.1033
▁panting	-9.10338
▁level	-9.10346
▁chair	-9.10356
▁gate	-9.10363
▁danger	-9.10404
▁sky	-9.10457
▁pat	-9.10467
▁decided	-9.10473
▁ian	-9.10681
▁heads	-9.10914
▁draw	-9.11226
▁dads	-9.11579
▁base	-9.11854
way	-9.12032
▁treat	-9.12162
▁cross	-9.1218
▁agent	-9.12307
▁german	-9.12325
▁certain	-9.12392
▁soft	-9.12405
▁quarter	-9.12543
▁wrote	-9.1255
▁impossible	-9.1255
▁vacation	-9.12551
▁lyle	-9.12552
▁tooth	-9.12555
▁wolfman	-9.12576
▁tom	-9.12585
▁dumb	-9.12618
▁spy	-9.12719
▁main	-9.12733
▁beg	-9.12762
▁looked	-9.12846
no	-9.13243
▁starting	-9.13363
and	-9.13722
▁block	-9.14178
ant	-9.14427
▁settle	-9.14542
▁idiot	-9.14598
▁byebye	-9.14823
▁difficult	-9.14823
▁situation	-9.14823
▁repeat	-9.14823
▁allison	-9.14825
▁program	-9.14829
▁zone	-9.14829
▁beyond	-9.14838
▁center	-9.14845
▁neck	-9.14847
▁dogs	-9.14932
▁losing	-9.14947
▁putting	-9.1499
▁mate	-9.1501
▁type	-9.15022
ary	-9.15043
▁ran	-9.15107
▁folks	-9.15147
▁feels	-9.15393
▁bite	-9.15617
▁arms	-9.157
▁math	-9.15797
▁loves	-9.16288
led	-9.16321
▁lived	-9.16402
▁ed	-9.1658
▁escape	-9.16883
ring	-9.16913
ate	-9.1698
▁cake	-9.16984
▁flintstone	-9.16984
▁mountain	-9.16997
▁honest	-9.17015
▁begin	-9.17088
▁difference	-9.17148
▁nowhere	-9.17148
▁bunny	-9.1715
▁shake	-9.17156
▁pants	-9.17157
▁shop	-9.17175
▁amen	-9.17183
▁carmen	-9.17227
▁carol	-9.17234
▁barking	-9.17283
▁swing	-9.1733
▁ohh	-9.17348
▁heat	-9.17388
▁ba	-9.17452
▁fairy	-9.17632
ng	-9.17697
▁killing	-9.17751
▁pop	-9.17919
▁tape	-9.18199
▁goodness	-9.18223
io	-9.18322
▁v	-9.18762
▁picked	-9.18787
▁deliver	-9.18895
▁goin	-9.19131
▁zoo	-9.19165
▁continue	-9.19203
▁raise	-9.19305
▁egg	-9.19458
▁hospital	-9.19503
▁court	-9.19525
▁donkey	-9.19529
▁plenty	-9.19529
▁saturday	-9.19529
▁syracuse	-9.19529
▁heck	-9.19534
▁bright	-9.1954
▁paid	-9.1957
▁boom	-9.19621
▁highness	-9.19621
▁bloody	-9.19984
▁liked	-9.20056
j	-9.20063
▁figured	-9.20121
▁bath	-9.20128
▁freeze	-9.20246
▁shed	-9.20271
▁missing	-9.20369
▁wine	-9.20585
men	-9.21293
▁fathers	-9.21355
▁score	-9.21662
▁listening	-9.21676
▁notice	-9.21706
me	-9.2176
▁walking	-9.21783
▁garden	-9.21806
▁o	-9.21811
▁large	-9.21874
▁season	-9.21925
▁knight	-9.21947
▁peace	-9.21955
▁annabel	-9.21968
▁truly	-9.21968
▁emmet	-9.21968
▁poppins	-9.21969
▁bride	-9.2197
▁danny	-9.21974
▁spent	-9.21974
▁flight	-9.21974
▁month	-9.21977
▁soup	-9.21981
▁carlos	-9.21983
▁weight	-9.22007
▁obviously	-9.22029
▁dig	-9.22041
▁prepare	-9.2205
▁bought	-9.22065
ian	-9.22067
▁sweetie	-9.22133
▁cop	-9.22165
▁victory	-9.22201
▁mi	-9.22696
▁rid	-9.23058
▁games	-9.23484
▁julie	-9.2352
▁offer	-9.23655
▁problems	-9.2378
▁lots	-9.23816
▁visit	-9.2385
▁america	-9.23944
▁accept	-9.2407
▁quest	-9.24084
▁burn	-9.24191
▁experience	-9.24195
▁force	-9.24231
▁bough	-9.24374
▁driving	-9.24468
▁everywhere	-9.24468
▁excellent	-9.24468
▁ocean	-9.24468
▁throat	-9.24468
▁according	-9.24468
▁indeed	-9.24468
▁silly	-9.24468
▁beginning	-9.24469
▁project	-9.24469
▁beauty	-9.24471
▁bathroom	-9.24472
▁trade	-9.24472
▁mm	-9.24478
▁security	-9.24478
▁excited	-9.24478
▁howard	-9.24479
▁baker	-9.24505
▁press	-9.24515
▁cup	-9.24538
▁doin	-9.24538
▁yard	-9.24573
▁yo	-9.24656
▁breathe	-9.24733
▁there	-9.24788
▁dollars	-9.25151
▁wet	-9.25313
▁wouldve	-9.2568
▁victor	-9.25802
▁ape	-9.25852
ho	-9.25878
▁player	-9.26309
▁orders	-9.26562
▁where	-9.26736
▁apart	-9.27013
▁cindy	-9.27032
▁especially	-9.27032
▁gordon	-9.27032
▁texas	-9.27032
▁empty	-9.27032
▁lovelace	-9.27032
▁terry	-9.27032
▁blast	-9.27033
▁winner	-9.27034
▁pressure	-9.2704
▁appreciate	-9.2705
▁james	-9.27064
▁taste	-9.27095
▁bridge	-9.27099
▁powerful	-9.27107
▁computer	-9.27137
▁huge	-9.27141
▁bug	-9.27143
▁grade	-9.27152
▁duck	-9.2716
▁hole	-9.27186
▁ann	-9.27236
one	-9.27308
▁calls	-9.27404
▁seriously	-9.27487
▁gotten	-9.27489
▁dressed	-9.27706
▁leader	-9.27841
▁crying	-9.27901
▁plane	-9.28777
▁ra	-9.28854
da	-9.28918
▁birds	-9.28986
▁lt	-9.29065
▁bitch	-9.2925
▁fan	-9.29289
▁sisters	-9.2929
▁moved	-9.29328
▁helping	-9.29421
▁lights	-9.29436
as	-9.29606
▁poet	-9.29657
▁admit	-9.29664
▁europe	-9.29664
▁gloria	-9.29664
▁matthew	-9.29664
▁shouldve	-9.29664
▁support	-9.29664
▁twice	-9.29664
▁alarm	-9.29664
▁private	-9.29664
▁unbelievable	-9.29664
▁underdog	-9.29665
▁decision	-9.29666
▁ugh	-9.29666
▁dying	-9.29666
▁dancing	-9.29668
▁information	-9.29671
▁self	-9.29672
▁bobby	-9.29683
▁handsome	-9.29688
▁usually	-9.29738
▁beast	-9.29778
▁robot	-9.29793
▁pi	-9.29801
▁ma	-9.29809
▁cousin	-9.29813
▁leg	-9.29965
▁swim	-9.29986
▁using	-9.30034
▁bucks	-9.30457
▁royal	-9.3049
▁whose	-9.307
ent	-9.30853
▁pulled	-9.30964
iy	-9.31163
▁pie	-9.31457
▁blows	-9.31535
▁fellas	-9.31774
tion	-9.31787
▁books	-9.3196
▁reading	-9.32123
land	-9.32137
▁wolf	-9.32172
▁doc	-9.32235
▁final	-9.32255
▁angel	-9.32321
▁bottle	-9.32367
▁duran	-9.32367
▁elizabeth	-9.32367
▁friday	-9.32367
▁marriage	-9.32367
▁public	-9.32367
▁thatll	-9.32367
▁hadnt	-9.32367
▁science	-9.32367
▁onto	-9.32372
▁yellow	-9.32376
▁spaceship	-9.32385
▁missy	-9.32485
▁ahh	-9.32584
▁charming	-9.32587
▁perfectly	-9.33086
do	-9.33129
▁note	-9.33281
ta	-9.33291
▁staying	-9.33292
ir	-9.33382
▁dive	-9.33387
ig	-9.3355
ut	-9.33941
▁gods	-9.34098
uc	-9.34225
▁ab	-9.34265
▁gas	-9.34562
▁allow	-9.34782
ious	-9.34908
▁nothin	-9.35085
▁bro	-9.35093
▁juni	-9.35096
▁starts	-9.35119
▁francis	-9.3513
▁abigail	-9.35144
▁balboa	-9.35144
▁bravo	-9.35144
▁brilliant	-9.35144
▁mckenna	-9.35144
▁professor	-9.35144
▁square	-9.35144
▁ulysses	-9.35144
▁discuss	-9.35144
▁upset	-9.35145
▁government	-9.35145
▁taught	-9.35145
▁trash	-9.35145
▁claire	-9.35146
▁roof	-9.35147
▁girlfriend	-9.35148
▁assignment	-9.3515
▁sunday	-9.35154
▁dragon	-9.35155
▁angry	-9.35155
▁nina	-9.35159
▁cash	-9.35162
▁pool	-9.35166
▁carried	-9.35178
▁tiny	-9.35211
▁j	-9.35287
▁strike	-9.35428
▁miracle	-9.3546
▁heaven	-9.3548
ey	-9.35589
▁lll	-9.36034
un	-9.36118
▁hardly	-9.36222
▁animals	-9.36236
▁siren	-9.36472
▁ears	-9.36721
▁wondering	-9.36845
▁bo	-9.36955
off	-9.37094
▁following	-9.37179
time	-9.37232
you	-9.3729
mi	-9.37462
▁waste	-9.37763
ba	-9.37818
▁fresh	-9.37968
▁offense	-9.38001
▁clyde	-9.38002
▁allnut	-9.38004
▁katie	-9.38004
▁charles	-9.38005
▁babe	-9.38011
cient	-9.38012
▁grace	-9.38012
▁gentleman	-9.38012
▁brit	-9.38026
▁voss	-9.38027
▁stage	-9.38039
▁immediately	-9.38043
▁tony	-9.38123
▁pro	-9.38297
▁interested	-9.38309
▁easter	-9.38328
▁do	-9.38384
▁pet	-9.38396
▁guest	-9.38421
▁cost	-9.38477
▁dan	-9.38681
▁due	-9.38714
▁challenge	-9.38985
▁pan	-9.39056
▁no	-9.39075
ol	-9.39226
per	-9.39481
▁pack	-9.40001
▁pretend	-9.40377
▁survive	-9.40678
▁invite	-9.40682
came	-9.40737
▁collect	-9.40753
▁dave	-9.40796
▁cora	-9.40873
▁weak	-9.40924
▁cheese	-9.40943
▁nonsense	-9.40943
▁flag	-9.40943
▁teddy	-9.40943
▁coast	-9.40944
▁chuckling	-9.40946
▁department	-9.40947
▁root	-9.40948
▁hazel	-9.40951
tic	-9.40955
ni	-9.40968
▁bigger	-9.41038
▁fourth	-9.41118
▁lake	-9.41154
ard	-9.41179
▁tail	-9.41259
▁fill	-9.41282
▁ate	-9.4129
▁bare	-9.41338
▁he	-9.41614
▁sooner	-9.41634
ea	-9.41776
▁penguins	-9.41874
▁showed	-9.41983
▁bat	-9.42347
▁acting	-9.42482
▁ringing	-9.42543
de	-9.42595
▁landing	-9.42714
▁aliens	-9.43061
▁aw	-9.43198
by	-9.43256
▁pin	-9.43451
▁murder	-9.43584
▁form	-9.43605
▁feed	-9.4366
▁event	-9.43848
▁loose	-9.43872
▁je	-9.43901
▁yards	-9.43918
▁aculos	-9.43973
▁austin	-9.43973
▁bread	-9.43973
▁built	-9.43973
▁crime	-9.43973
▁faith	-9.43973
▁heavyweight	-9.43973
▁journey	-9.43973
▁northbrook	-9.43973
▁peyton	-9.43973
▁restaurant	-9.43973
▁telephone	-9.43973
▁zoc	-9.43973
▁shark	-9.43973
▁candy	-9.43973
▁nature	-9.43973
▁midnight	-9.43974
▁virginia	-9.43975
▁lisa	-9.43975
▁loving	-9.43976
▁sarah	-9.43977
▁jason	-9.43978
▁nope	-9.43981
▁championship	-9.43983
▁edge	-9.43996
▁basement	-9.44003
▁weekend	-9.44004
▁shape	-9.44009
▁ref	-9.44011
▁grover	-9.44013
▁el	-9.44016
ha	-9.44018
▁sub	-9.44022
▁curt	-9.44046
▁ga	-9.44059
▁milk	-9.44062
▁whatd	-9.44098
▁belt	-9.44108
▁color	-9.44163
▁metal	-9.44212
▁invited	-9.44242
▁file	-9.44289
▁hoping	-9.44357
▁lines	-9.44536
ton	-9.4468
the	-9.44855
▁stu	-9.45008
▁heading	-9.45245
▁pounds	-9.45289
▁feelings	-9.45504
▁bust	-9.45534
▁paint	-9.45639
▁san	-9.45756
▁ar	-9.45947
▁ruin	-9.46182
ern	-9.46542
ally	-9.46645
▁bond	-9.46654
▁witch	-9.47049
▁mick	-9.47088
▁orange	-9.4709
▁afford	-9.47098
▁enemy	-9.47098
▁italian	-9.47098
▁period	-9.47098
▁simply	-9.47098
▁ugly	-9.47098
▁current	-9.47098
▁theyd	-9.47098
▁honking	-9.47101
▁horrible	-9.47101
▁noise	-9.47104
▁meow	-9.47107
▁gross	-9.4711
▁barley	-9.47111
▁hiding	-9.47123
▁winnie	-9.47126
▁ex	-9.47134
▁suddenly	-9.47139
▁announcer	-9.47151
▁lying	-9.47156
▁safety	-9.47176
▁amy	-9.47235
▁cheer	-9.47254
▁flat	-9.47271
▁hatch	-9.47458
▁allowed	-9.47519
▁cookie	-9.47585
▁billy	-9.47645
ure	-9.47691
▁turns	-9.47718
▁tied	-9.47745
▁destroyed	-9.47755
▁weapon	-9.47801
▁russian	-9.47825
ver	-9.47859
▁clearly	-9.47883
▁flower	-9.47883
▁fella	-9.47952
▁driver	-9.47975
▁ends	-9.48084
▁yay	-9.48182
▁hip	-9.48249
▁fi	-9.48442
▁shower	-9.48713
▁everythings	-9.48781
▁fired	-9.48828
▁turner	-9.49279
▁ca	-9.49295
▁enter	-9.49391
vi	-9.49597
os	-9.49613
▁mothers	-9.49794
▁fr	-9.49822
▁serve	-9.50057
hi	-9.50082
▁trees	-9.50123
▁indistinct	-9.50173
▁cell	-9.50296
▁scare	-9.5032
▁staff	-9.50324
▁genius	-9.50324
▁hockey	-9.50324
▁sauvage	-9.50324
▁stadium	-9.50324
▁scene	-9.50324
▁sonja	-9.50324
▁toast	-9.50324
▁agency	-9.50324
▁contact	-9.50325
▁david	-9.50325
▁rosie	-9.50325
▁nancy	-9.50326
▁wilma	-9.50327
▁winning	-9.50327
▁tommy	-9.50327
▁equipment	-9.50328
▁truck	-9.5033
▁rope	-9.5033
▁chocolate	-9.50333
▁stepford	-9.50334
▁size	-9.50357
▁spring	-9.50358
▁fearless	-9.50373
▁bigfoot	-9.50379
▁jackson	-9.50389
▁betty	-9.5039
▁itd	-9.5039
▁x	-9.50414
▁path	-9.50424
▁dirty	-9.50464
be	-9.50622
▁filled	-9.50732
ill	-9.50742
ster	-9.5087
▁ideas	-9.50876
▁runs	-9.5094
▁member	-9.51124
▁sport	-9.51128
▁harm	-9.51149
▁lesson	-9.51173
▁beer	-9.5126
▁kim	-9.51361
▁teacher	-9.51434
▁tear	-9.5196
▁guns	-9.51982
▁pen	-9.52564
les	-9.52652
▁climb	-9.53074
em	-9.53153
▁hanging	-9.53281
ical	-9.53293
▁apologize	-9.53657
▁device	-9.53657
▁fowl	-9.53657
▁fulton	-9.53657
▁possibly	-9.53657
▁shield	-9.53657
▁tentacular	-9.53657
▁wrestling	-9.53657
▁written	-9.53657
▁defend	-9.53657
▁turtle	-9.53657
▁sharp	-9.53657
▁tower	-9.53657
▁zero	-9.53657
▁bombay	-9.53658
▁llke	-9.53658
▁speech	-9.53658
▁clarence	-9.53659
▁sugar	-9.53659
▁often	-9.5366
▁airport	-9.53663
▁grandpa	-9.53664
▁alright	-9.53666
▁wherever	-9.53667
mp	-9.53668
▁crew	-9.53671
▁sox	-9.53672
▁barney	-9.53674
▁growling	-9.53691
▁shame	-9.53704
▁rise	-9.53706
▁panic	-9.53711
▁lonely	-9.53716
▁groaning	-9.53724
▁uhoh	-9.53726
▁director	-9.53729
▁pre	-9.53736
▁male	-9.53745
▁rocket	-9.53783
▁sand	-9.53791
▁heroes	-9.53793
▁arrived	-9.53874
▁nearly	-9.54002
▁parker	-9.5411
▁blame	-9.54203
▁breathing	-9.54515
▁ghost	-9.54568
▁creature	-9.54581
▁paper	-9.54584
▁wheel	-9.54627
▁mile	-9.54744
▁loser	-9.55118
▁followed	-9.55305
▁ye	-9.55842
▁lad	-9.55983
▁consider	-9.56111
▁creatures	-9.5616
▁older	-9.56205
▁interest	-9.56228
ock	-9.56283
▁pray	-9.56342
▁rush	-9.56525
▁oil	-9.56543
▁fields	-9.56653
▁bow	-9.56676
pe	-9.5669
▁focus	-9.56724
▁curse	-9.56847
▁sleeping	-9.56853
▁total	-9.56984
▁spoke	-9.57009
▁clock	-9.57104
▁asleep	-9.57105
▁babies	-9.57105
▁energy	-9.57105
▁glenn	-9.57105
▁meredith	-9.57105
▁merlin	-9.57105
▁shoeshine	-9.57105
▁spread	-9.57105
▁stomach	-9.57105
▁toula	-9.57105
▁university	-9.57105
▁whiskey	-9.57105
▁lenny	-9.57105
▁ducal	-9.57106
▁relationship	-9.57106
▁snow	-9.57107
▁chicago	-9.57107
▁dawn	-9.57108
▁wiii	-9.57112
▁bruce	-9.57114
▁comfortable	-9.57116
▁flora	-9.57118
▁view	-9.57125
▁style	-9.57127
▁cops	-9.57132
▁shift	-9.57136
▁darkness	-9.57163
▁nicky	-9.57266
▁jan	-9.5727
▁screeching	-9.5729
ot	-9.57435
▁germans	-9.57469
▁te	-9.57741
▁degrees	-9.57785
▁immortals	-9.57785
▁goal	-9.57811
▁falls	-9.57897
▁tank	-9.58096
▁tunnel	-9.58115
▁remain	-9.5814
▁movie	-9.58148
▁alien	-9.58173
▁log	-9.5828
▁thinks	-9.58285
▁rev	-9.58313
▁stranger	-9.58337
▁wood	-9.58448
▁passed	-9.58614
ated	-9.59103
▁wings	-9.59334
▁numbers	-9.59464
ite	-9.59636
ens	-9.59662
▁killer	-9.59746
▁flowers	-9.59904
▁ja	-9.60095
▁sweat	-9.60211
▁tr	-9.60428
house	-9.60433
▁direct	-9.60495
▁contract	-9.60498
bo	-9.60515
▁storm	-9.60566
▁stole	-9.60577
▁glass	-9.60653
▁africa	-9.60677
▁avoid	-9.60677
▁circus	-9.60677
▁colonel	-9.60677
▁downstairs	-9.60677
▁jungle	-9.60677
▁kragle	-9.60677
▁language	-9.60677
▁montgomery	-9.60677
▁recipe	-9.60677
▁taeko	-9.60677
▁tongue	-9.60677
▁wizard	-9.60677
▁writing	-9.60677
▁distance	-9.60677
▁eddie	-9.60677
▁pedro	-9.60677
▁biggest	-9.60677
▁vision	-9.60677
▁mask	-9.60678
▁crap	-9.60679
▁luther	-9.6068
▁desk	-9.6068
▁tsar	-9.60681
▁wave	-9.60681
▁romantic	-9.60681
▁boyfriend	-9.60684
▁keeping	-9.60689
▁dropped	-9.60693
▁property	-9.60693
▁whoohoo	-9.60694
▁admiral	-9.60696
▁shirt	-9.60726
▁delicious	-9.60732
▁crown	-9.60753
▁hooker	-9.6087
▁account	-9.6094
▁united	-9.61022
▁hoops	-9.61101
▁yelling	-9.61161
back	-9.61235
▁opening	-9.61418
▁add	-9.61473
▁deserve	-9.61501
ph	-9.6157
▁dry	-9.61789
▁ver	-9.61892
▁speaks	-9.61912
▁knocking	-9.61966
▁closed	-9.62581
▁sp	-9.62692
▁cheat	-9.62697
▁tc	-9.62714
▁belongs	-9.62731
go	-9.62827
▁prefer	-9.62846
end	-9.6288
▁ro	-9.62938
▁ch	-9.62961
▁walked	-9.62975
▁hug	-9.62982
▁hoo	-9.63275
▁doo	-9.63283
▁crash	-9.63406
▁states	-9.63576
▁crack	-9.63802
▁correct	-9.63818
ts	-9.64006
▁chi	-9.6404
▁par	-9.6407
▁louis	-9.64099
▁rescue	-9.64102
▁load	-9.64135
▁hook	-9.64188
▁led	-9.64233
za	-9.64324
▁partner	-9.64378
▁akima	-9.6438
▁although	-9.6438
▁applause	-9.6438
▁averman	-9.6438
▁calvin	-9.6438
▁criminal	-9.6438
▁division	-9.6438
▁heavy	-9.6438
▁insane	-9.6438
▁regular	-9.6438
▁rough	-9.6438
▁supper	-9.64381
▁jerry	-9.64381
▁demand	-9.64381
▁target	-9.64381
▁appointment	-9.64383
▁sobbing	-9.64384
▁ellie	-9.64385
▁fancy	-9.6439
▁bike	-9.64392
▁orangemen	-9.64393
▁award	-9.64408
▁prize	-9.64423
▁portal	-9.64433
▁direction	-9.6449
▁woo	-9.64541
▁pru	-9.64557
▁landon	-9.64561
▁peter	-9.64789
▁surely	-9.64841
▁lower	-9.64865
▁brainy	-9.64932
▁sat	-9.64978
▁condition	-9.65059
▁cooper	-9.65114
▁inter	-9.65403
▁judge	-9.65431
▁cars	-9.6548
▁nut	-9.65579
▁appear	-9.65696
line	-9.65976
▁soldiers	-9.65993
▁answers	-9.66469
ee	-9.66533
▁career	-9.66635
ble	-9.66709
▁powers	-9.67121
ley	-9.67233
▁z	-9.67263
▁sports	-9.67283
cha	-9.67332
▁suffer	-9.67504
▁y	-9.67568
▁address	-9.67838
▁talent	-9.67867
▁attend	-9.67867
down	-9.67881
▁hearts	-9.67916
board	-9.67935
▁humans	-9.67951
▁decide	-9.67971
▁proper	-9.68133
▁sons	-9.68166
▁azrael	-9.68227
▁central	-9.68227
▁famous	-9.68227
▁guarantee	-9.68227
▁however	-9.68227
▁pocket	-9.68227
▁ralph	-9.68227
▁mercy	-9.68227
▁sheldon	-9.68227
▁example	-9.68228
▁herd	-9.68228
▁raymond	-9.68229
▁monday	-9.68231
▁cheap	-9.68231
▁responsibility	-9.68232
▁bruno	-9.68233
▁jerk	-9.68233
▁phil	-9.68234
▁freedom	-9.68235
▁forgotten	-9.68244
▁varsity	-9.68251
▁artist	-9.68251
▁alice	-9.68259
▁batter	-9.6826
▁knights	-9.68264
▁flies	-9.68269
▁batman	-9.68269
▁goalie	-9.68284
▁involved	-9.68304
▁paulie	-9.68311
▁page	-9.68336
▁wing	-9.68344
▁nest	-9.68357
▁sink	-9.68386
▁gasping	-9.68527
▁approaching	-9.68564
▁eaten	-9.68567
▁flame	-9.6861
▁slowly	-9.68692
▁raised	-9.68751
▁fl	-9.68796
▁me	-9.68828
▁remind	-9.69098
▁loss	-9.69219
▁ant	-9.69237
▁towards	-9.69394
▁boo	-9.69654
▁warrior	-9.69677
▁student	-9.6968
▁button	-9.69722
▁hawks	-9.69816
ny	-9.69885
▁expecting	-9.69907
om	-9.69911
▁touched	-9.69917
ten	-9.7
▁blowing	-9.7061
ized	-9.71336
▁all	-9.71374
▁rat	-9.71559
tor	-9.71963
▁skin	-9.7203
▁spit	-9.72033
▁marc	-9.7206
ize	-9.72094
▁apes	-9.72163
▁price	-9.72209
▁holly	-9.72225
▁bertier	-9.72227
▁effort	-9.72227
▁lorenzo	-9.72227
▁mississippi	-9.72227
▁neighborhood	-9.72227
▁precious	-9.72227
▁scratch	-9.72227
▁stretch	-9.72227
▁boston	-9.72227
▁fiona	-9.72227
▁assistant	-9.72228
▁stairs	-9.72229
▁elsie	-9.72231
▁easier	-9.72232
▁swimming	-9.72232
▁resistance	-9.72234
▁within	-9.72238
▁brian	-9.7224
▁duty	-9.72241
▁schedule	-9.72242
▁stories	-9.72249
▁poetry	-9.72258
cy	-9.7227
▁castle	-9.72271
▁mamma	-9.72278
▁mail	-9.72305
▁meal	-9.7231
▁mister	-9.72328
▁petey	-9.72334
▁gain	-9.72339
▁lou	-9.72357
▁exclaiming	-9.72377
▁wide	-9.72395
▁national	-9.72406
▁mixed	-9.72417
▁signal	-9.72489
▁row	-9.72516
▁barn	-9.72561
▁greater	-9.72611
▁warning	-9.72626
▁sold	-9.72652
just	-9.72685
▁settled	-9.72692
ating	-9.72693
▁prepared	-9.72715
▁fate	-9.72921
▁spin	-9.72969
▁sale	-9.73008
ette	-9.73098
▁matters	-9.73192
▁drawing	-9.7325
▁younger	-9.73303
▁yell	-9.73325
our	-9.73455
▁pleased	-9.73485
▁believed	-9.73524
▁bringing	-9.73582
▁trained	-9.73646
▁mayor	-9.7372
▁toes	-9.73901
▁recognize	-9.73921
▁nate	-9.74235
▁falling	-9.74271
▁ted	-9.74685
▁suck	-9.74944
▁nah	-9.7502
▁keys	-9.75085
▁shooting	-9.75096
▁tears	-9.75353
ga	-9.75427
▁keeps	-9.75437
ile	-9.75444
im	-9.75518
▁rocks	-9.75809
▁moms	-9.75838
▁punch	-9.75952
▁gather	-9.76007
▁robots	-9.76116
▁farm	-9.76152
▁health	-9.76164
▁introduce	-9.76181
▁doors	-9.76291
▁sandwich	-9.76328
▁nurse	-9.76372
▁capsule	-9.76393
▁character	-9.76393
▁choir	-9.76393
▁crocodile	-9.76393
▁dennis	-9.76393
▁grandfather	-9.76393
▁joanna	-9.76393
▁opinion	-9.76393
▁sunshine	-9.76393
▁tuesday	-9.76393
▁understood	-9.76393
▁uniform	-9.76393
▁video	-9.76393
▁wadsworth	-9.76393
▁whistling	-9.76393
▁whoever	-9.76393
▁zurg	-9.76393
▁colony	-9.76393
▁drej	-9.76393
▁herbert	-9.76393
▁praise	-9.76393
▁adam	-9.76394
▁changing	-9.76394
▁giggling	-9.76394
▁instructions	-9.76394
▁pregnant	-9.76394
▁glory	-9.76395
▁priest	-9.76396
▁positive	-9.76396
▁lawyer	-9.76396
▁leonard	-9.76397
▁bull	-9.76397
▁memory	-9.76398
▁poem	-9.764
▁fuel	-9.76401
▁duke	-9.76401
▁shore	-9.76407
▁patton	-9.76409
▁boring	-9.76411
▁drax	-9.76411
▁shine	-9.76412
▁puck	-9.76412
▁francisco	-9.76415
▁titanic	-9.76422
▁loan	-9.76425
▁physical	-9.76426
▁conway	-9.76426
▁necessary	-9.7643
▁laughter	-9.76434
▁grass	-9.76447
▁ski	-9.76448
▁iove	-9.76462
▁began	-9.76471
▁tess	-9.76476
▁professional	-9.76476
▁skate	-9.76486
▁jr	-9.76532
▁dean	-9.76537
▁brad	-9.76554
▁so	-9.76561
▁embarrassing	-9.76571
▁bump	-9.76623
▁pink	-9.7663
▁wise	-9.76784
▁coat	-9.76795
pping	-9.76801
▁cab	-9.76917
▁tires	-9.7698
▁mass	-9.76981
▁matt	-9.77088
▁realized	-9.77145
oo	-9.77288
▁can	-9.77607
▁sever	-9.7771
▁si	-9.77721
▁lately	-9.78049
▁mushroom	-9.78115
▁ticket	-9.78205
▁finger	-9.78271
▁guards	-9.78467
▁jumping	-9.7851
▁champions	-9.7861
▁ace	-9.78725
▁drinking	-9.79198
▁magical	-9.79226
▁sc	-9.79314
▁mon	-9.79373
▁pee	-9.79399
▁woods	-9.79447
▁pulling	-9.79526
▁leaves	-9.79563
ber	-9.79652
▁losers	-9.79681
di	-9.7969
▁cons	-9.79766
▁fail	-9.79789
▁oi	-9.79936
▁po	-9.80132
▁exist	-9.80283
▁switch	-9.80289
▁dump	-9.80361
▁disappear	-9.80367
med	-9.80391
▁hop	-9.80429
ap	-9.80497
▁wire	-9.80552
▁official	-9.80583
▁natural	-9.80605
▁hearing	-9.80611
▁superhero	-9.80676
▁witness	-9.80677
▁wheat	-9.8071
▁champ	-9.80718
▁object	-9.80723
▁common	-9.80741
▁community	-9.80741
▁edmund	-9.80741
▁exciting	-9.80741
▁foreign	-9.80741
▁grandmother	-9.80741
▁jersey	-9.80741
▁lancelot	-9.80741
▁ogre	-9.80741
▁pabio	-9.80741
▁pygar	-9.80741
▁responsible	-9.80741
▁servant	-9.80741
▁silence	-9.80741
▁social	-9.80741
▁subtitle	-9.80741
▁traffic	-9.80741
▁whispers	-9.80741
▁threw	-9.80741
▁route	-9.80741
▁crystal	-9.80741
▁steam	-9.80742
▁memories	-9.80742
▁someday	-9.80743
▁pride	-9.80743
▁spike	-9.80746
▁height	-9.80748
▁quarterback	-9.80755
▁slate	-9.80755
▁clubber	-9.80757
▁title	-9.80776
▁model	-9.80792
▁friendship	-9.80796
▁whir	-9.808
▁milly	-9.80825
▁cage	-9.80831
▁hm	-9.80836
▁pure	-9.80847
▁code	-9.80893
▁willing	-9.8094
▁indistinctly	-9.80946
▁joy	-9.80951
▁seek	-9.81086
▁require	-9.81099
▁copy	-9.81181
▁giants	-9.81355
▁manage	-9.81355
ler	-9.8146
▁waited	-9.81614
ack	-9.81678
▁ju	-9.81744
▁ear	-9.81813
▁santa	-9.81816
mer	-9.82133
▁joined	-9.82175
▁sh	-9.82441
▁kicking	-9.82475
▁spark	-9.82613
▁devil	-9.82659
▁lo	-9.82668
▁nightmare	-9.82697
▁nun	-9.8278
▁bl	-9.83009
▁americans	-9.83273
▁fingers	-9.83316
▁sl	-9.83594
▁papers	-9.84048
▁weapons	-9.84266
▁rate	-9.84452
ship	-9.84538
▁guests	-9.84634
ka	-9.84687
▁suggest	-9.84859
▁port	-9.84999
▁release	-9.85018
que	-9.85116
▁madam	-9.85126
▁moves	-9.8522
▁wins	-9.85226
▁gettin	-9.85241
▁kit	-9.85251
▁gee	-9.85256
▁advice	-9.85287
▁courage	-9.85287
▁dolphin	-9.85287
▁female	-9.85287
▁interrupt	-9.85287
▁jealous	-9.85287
▁literally	-9.85287
▁mysterious	-9.85287
▁percent	-9.85287
▁stargazer	-9.85287
▁whether	-9.85287
▁diana	-9.85287
▁ellen	-9.85287
▁expert	-9.85287
▁option	-9.85287
▁blew	-9.85287
▁krei	-9.85287
▁peanut	-9.85287
▁slide	-9.8529
▁permission	-9.8529
▁humming	-9.85291
▁harper	-9.85291
▁rice	-9.85298
▁moore	-9.85301
▁naked	-9.85302
▁section	-9.85303
▁patient	-9.85304
▁touchdown	-9.85321
▁fashion	-9.85338
▁apple	-9.85354
▁explorer	-9.85376
▁homework	-9.8539
▁liar	-9.85393
▁fairies	-9.85399
▁auntie	-9.85404
▁guilty	-9.85407
▁hitting	-9.85414
▁fallen	-9.85431
▁passion	-9.85439
▁gary	-9.85452
▁pipe	-9.85455
▁carter	-9.85575
▁juliet	-9.85617
▁bi	-9.8566
king	-9.85678
▁scored	-9.8578
fully	-9.85794
▁jewels	-9.85825
▁deeply	-9.85863
▁letting	-9.85867
▁butts	-9.85938
▁gim	-9.86011
▁letters	-9.86057
ms	-9.86249
▁ne	-9.86332
▁split	-9.86348
▁statue	-9.86515
▁highly	-9.86616
▁opens	-9.86638
▁nana	-9.86773
▁thy	-9.86804
▁talkin	-9.87044
▁cast	-9.87084
▁er	-9.87087
▁smells	-9.87099
▁unit	-9.87134
ti	-9.87137
▁titans	-9.87164
▁ding	-9.87216
▁le	-9.87347
ise	-9.87384
▁conversation	-9.87419
▁saving	-9.87451
▁adventure	-9.87453
▁signs	-9.87464
▁claim	-9.87469
▁bullet	-9.87482
▁pig	-9.87507
▁bastards	-9.87529
▁parking	-9.87579
▁net	-9.87593
▁rose	-9.87653
▁units	-9.87785
▁goat	-9.87794
▁va	-9.87799
art	-9.8785
▁secrets	-9.88038
▁diet	-9.88042
▁or	-9.88085
side	-9.8816
son	-9.88165
▁vi	-9.88329
ect	-9.88473
ward	-9.88721
▁ghosts	-9.88752
ub	-9.88803
▁cha	-9.88903
▁sa	-9.89108
ov	-9.89195
▁bless	-9.8923
ham	-9.89531
▁wreck	-9.89654
▁request	-9.89657
▁shock	-9.89665
▁design	-9.89672
▁convent	-9.89715
ger	-9.89745
▁twist	-9.89789
▁hill	-9.89851
▁prison	-9.89852
▁create	-9.89968
▁sneak	-9.90009
▁com	-9.90046
▁attitude	-9.90049
▁champagne	-9.90049
▁cotton	-9.90049
▁debbie	-9.90049
▁fetch	-9.90049
▁florida	-9.90049
▁floyd	-9.90049
▁franck	-9.90049
▁garbage	-9.90049
▁gardner	-9.90049
▁geoffrey	-9.90049
▁germaine	-9.90049
▁knife	-9.90049
▁magnificent	-9.90049
▁mystery	-9.90049
▁negro	-9.90049
▁newspaper	-9.90049
▁otherwise	-9.90049
▁rainbow	-9.90049
▁tadashi	-9.90049
▁transmooker	-9.90049
▁volcano	-9.90049
▁wednesday	-9.90049
▁couid	-9.90049
▁frost	-9.90049
▁hova	-9.90049
▁mouse	-9.90049
▁judy	-9.90049
▁deloris	-9.90049
▁legend	-9.9005
▁damage	-9.9005
▁borrow	-9.9005
▁trapped	-9.90052
▁patrick	-9.90053
▁fabulous	-9.90055
▁lousy	-9.90057
▁baseball	-9.90057
▁wound	-9.90071
▁jail	-9.90075
▁planned	-9.90076
▁orion	-9.90079
▁boone	-9.90083
▁ike	-9.90084
▁apartment	-9.9009
▁nasty	-9.90099
▁yearold	-9.90123
▁cloe	-9.90161
▁mood	-9.90198
▁beeping	-9.90202
▁scary	-9.9026
▁spare	-9.90265
▁patch	-9.90272
▁useless	-9.90279
▁honestly	-9.90363
▁grown	-9.90393
▁failed	-9.90462
if	-9.90506
▁noticed	-9.90569
▁butter	-9.90608
▁ad	-9.9061
▁players	-9.90779
▁nation	-9.90924
▁steps	-9.90928
▁painting	-9.90962
▁burning	-9.91125
▁to	-9.91138
▁riding	-9.91138
▁bears	-9.91138
gh	-9.91154
▁iron	-9.91195
ak	-9.91318
▁engineer	-9.91384
▁higher	-9.91455
▁ned	-9.91485
▁messed	-9.91548
▁toys	-9.91638
▁cos	-9.91684
▁fixed	-9.91727
▁lips	-9.91759
x	-9.91765
ial	-9.91996
▁growing	-9.92002
▁kinda	-9.92035
▁grave	-9.9212
ok	-9.92253
▁counting	-9.92389
▁monkey	-9.92421
▁eagle	-9.92434
▁worlds	-9.92446
▁odds	-9.92451
▁cloud	-9.9248
▁skull	-9.92484
▁shoulder	-9.92511
▁les	-9.92533
▁sometime	-9.92546
▁pieces	-9.92565
▁lu	-9.92626
▁su	-9.92641
▁tickets	-9.92917
▁li	-9.92942
▁au	-9.93164
▁fielding	-9.93234
ped	-9.93437
ud	-9.93584
▁gra	-9.93712
▁russians	-9.93948
▁flip	-9.94073
▁fighter	-9.94163
ake	-9.94323
▁jazz	-9.94465
▁shout	-9.94523
▁sail	-9.94543
▁chatter	-9.94551
▁gran	-9.94552
bb	-9.9464
▁desert	-9.94652
▁ti	-9.94665
▁divorce	-9.94779
ze	-9.94794
au	-9.94909
▁mar	-9.94936
▁india	-9.94957
sta	-9.94958
▁orbit	-9.94977
ina	-9.94977
▁among	-9.95014
▁audition	-9.95049
▁bennell	-9.95049
▁bullshit	-9.95049
▁caesar	-9.95049
▁callaghan	-9.95049
▁emperor	-9.95049
▁hector	-9.95049
▁hefty	-9.95049
▁johana	-9.95049
▁mmmhmm	-9.95049
▁negative	-9.95049
▁neruda	-9.95049
▁progress	-9.95049
▁research	-9.95049
▁unusual	-9.95049
▁whispering	-9.95049
▁wolfgang	-9.95049
▁bishop	-9.95049
▁connie	-9.95049
▁sasha	-9.95049
▁tavern	-9.95049
▁regret	-9.95049
▁value	-9.95049
▁held	-9.95049
▁someplace	-9.95049
▁happiness	-9.95051
▁basketball	-9.95051
▁source	-9.95052
▁peasant	-9.95053
▁growls	-9.95055
▁regent	-9.95056
▁soap	-9.95056
▁shopping	-9.95058
▁noble	-9.95062
▁wlli	-9.95064
▁caul	-9.95067
▁barbarella	-9.95068
▁unfortunately	-9.95074
▁extremely	-9.95076
▁pair	-9.95076
▁practically	-9.95076
▁century	-9.9508
▁gem	-9.95083
▁piano	-9.95083
▁disgusting	-9.95121
▁market	-9.95128
▁protection	-9.95132
▁rare	-9.95157
▁bench	-9.95159
▁stolen	-9.95189
▁picking	-9.95236
▁scottie	-9.95278
ier	-9.95293
▁concerned	-9.95392
▁hired	-9.954
▁whale	-9.95471
▁personally	-9.95494
▁subject	-9.95518
der	-9.95633
▁ruined	-9.95657
aw	-9.95775
▁stor	-9.95792
▁nick	-9.95819
▁giggles	-9.95916
▁uhh	-9.96022
▁watched	-9.96035
▁surprised	-9.96119
oggy	-9.96162
▁breaking	-9.96171
▁aye	-9.96209
▁whod	-9.96236
▁fin	-9.96387
▁lied	-9.96463
▁stra	-9.96465
ound	-9.96498
▁expected	-9.96533
▁noon	-9.96619
▁harder	-9.97054
▁cleaning	-9.97457
▁under	-9.97472
▁valley	-9.97679
▁slave	-9.9772
▁pe	-9.97767
▁bastard	-9.97768
▁bum	-9.98106
▁yells	-9.9822
▁snap	-9.98489
▁movies	-9.98747
▁bur	-9.98828
ily	-9.99061
ima	-9.99126
▁tune	-9.99304
▁wor	-9.99517
gan	-9.99586
▁changes	-9.99601
▁heavens	-9.99672
▁arrest	-9.99935
▁kings	-10.0008
▁aha	-10.0011
▁exact	-10.0016
▁usual	-10.0016
▁slight	-10.0017
▁somethin	-10.0025
▁dang	-10.0025
▁jam	-10.0026
▁contain	-10.0029
▁bubble	-10.0031
▁celebrate	-10.0031
▁chamber	-10.0031
▁clue	-10.0031
▁collier	-10.0031
▁families	-10.0031
▁forbidden	-10.0031
▁gibberish	-10.0031
▁gillian	-10.0031
▁grateful	-10.0031
▁headquarters	-10.0031
▁helmet	-10.0031
▁holiday	-10.0031
▁insurance	-10.0031
▁neighbor	-10.0031
▁ordinary	-10.0031
▁outfit	-10.0031
▁sergeant	-10.0031
▁surrender	-10.0031
▁therapy	-10.0031
▁vacuum	-10.0031
▁whinnying	-10.0031
▁wouid	-10.0031
▁stood	-10.0031
▁costume	-10.0031
▁merry	-10.0031
▁commercial	-10.0031
▁clown	-10.0031
▁imagination	-10.0031
▁authorities	-10.0031
▁scale	-10.0031
▁wilkins	-10.0031
▁local	-10.0031
▁dietrich	-10.0031
▁invisible	-10.0031
▁loski	-10.0031
▁brewster	-10.0031
▁isle	-10.0032
▁gorgeous	-10.0032
▁decent	-10.0032
▁dummy	-10.0032
▁awake	-10.0032
▁solid	-10.0032
▁actress	-10.0032
▁reverse	-10.0033
▁rude	-10.0033
▁stack	-10.0033
▁aboard	-10.0034
▁guardian	-10.0034
▁familiar	-10.0035
▁weii	-10.0035
▁fake	-10.0035
▁labor	-10.0035
ven	-10.0036
▁alba	-10.0036
▁secretary	-10.0037
▁mental	-10.0038
▁wallet	-10.0039
▁mall	-10.0039
▁chosen	-10.004
▁plus	-10.0041
▁russ	-10.0042
▁seal	-10.0049
▁hammer	-10.0052
▁ila	-10.0054
▁mc	-10.0056
▁screwed	-10.0061
▁healthy	-10.0063
▁tapes	-10.0066
▁mountains	-10.0066
▁begins	-10.0066
▁pilot	-10.0071
▁wipe	-10.0072
▁gay	-10.0073
▁ron	-10.0077
▁disappeared	-10.0077
▁fur	-10.0099
▁reached	-10.0138
▁twins	-10.0165
▁kicked	-10.0173
▁salt	-10.0174
▁cooking	-10.0177
▁cares	-10.0197
▁maria	-10.0203
▁selling	-10.0213
▁gune	-10.023
▁signed	-10.0234
▁carrying	-10.0243
▁kissed	-10.0248
▁fo	-10.026
▁buzzing	-10.0283
▁concern	-10.0285
▁stan	-10.0319
▁pump	-10.0326
▁cave	-10.0331
▁mum	-10.0332
▁beside	-10.0337
▁term	-10.0344
▁winter	-10.0344
▁stayed	-10.0348
▁the	-10.0352
▁lit	-10.036
▁gr	-10.0367
▁tests	-10.0378
▁ants	-10.0389
▁hated	-10.0393
▁cass	-10.041
▁bags	-10.0412
▁wheels	-10.0436
▁sha	-10.0454
ade	-10.048
▁crush	-10.0489
▁ships	-10.0511
rk	-10.0529
▁insist	-10.0547
ors	-10.0555
▁paying	-10.0556
q	-10.0559
▁earn	-10.056
▁creep	-10.0562
▁dirt	-10.0562
▁warn	-10.0564
▁flow	-10.0568
▁taxi	-10.0575
▁mmhm	-10.0582
some	-10.0584
▁effect	-10.0585
▁photo	-10.0586
▁access	-10.0587
▁affair	-10.0587
▁anchor	-10.0587
▁barsinister	-10.0587
▁beatrice	-10.0587
▁brooklyn	-10.0587
▁cassandra	-10.0587
▁cigarette	-10.0587
▁clever	-10.0587
▁couch	-10.0587
▁expensive	-10.0587
▁filthy	-10.0587
▁hendricks	-10.0587
▁laurie	-10.0587
▁lieutenant	-10.0587
▁lonnegan	-10.0587
▁lonnie	-10.0587
▁necklace	-10.0587
▁opportunity	-10.0587
▁paradise	-10.0587
▁pizza	-10.0587
▁reverend	-10.0587
▁splendid	-10.0587
▁theater	-10.0587
▁trophy	-10.0587
▁unhappy	-10.0587
▁whenever	-10.0587
▁bedrock	-10.0587
▁chinese	-10.0587
▁flesh	-10.0587
▁grew	-10.0587
▁helen	-10.0587
▁honeymoon	-10.0587
▁jessie	-10.0587
▁ouch	-10.0587
▁protest	-10.0587
▁ufc	-10.0587
▁scoffs	-10.0587
▁hyperspeed	-10.0587
▁desire	-10.0587
▁alpha	-10.0587
▁jones	-10.0587
▁rumbling	-10.0587
▁irwin	-10.0587
▁sicily	-10.0587
▁executive	-10.0587
▁gerti	-10.0587
▁screen	-10.0587
▁location	-10.0587
▁wives	-10.0587
▁conference	-10.0587
▁governor	-10.0587
▁impressive	-10.0587
▁jeez	-10.0587
▁junk	-10.0587
▁saint	-10.0588
▁drunk	-10.0588
▁cape	-10.0588
▁behavior	-10.0588
▁believing	-10.0588
▁rico	-10.0588
▁lightyear	-10.0589
▁neat	-10.0589
▁bedroom	-10.059
▁data	-10.059
▁potion	-10.059
▁nora	-10.0591
▁exit	-10.0591
▁kip	-10.0591
▁swamp	-10.0594
▁laid	-10.0595
▁marie	-10.0596
▁eden	-10.0596
▁surrounded	-10.0599
▁stable	-10.0601
▁gorilla	-10.0604
▁whooping	-10.0607
▁hail	-10.0608
▁spa	-10.0609
▁mere	-10.0611
▁hon	-10.0611
▁frightened	-10.0614
ence	-10.0616
▁kingman	-10.0625
▁warned	-10.0627
▁hung	-10.0633
▁clicks	-10.0639
▁moral	-10.0657
▁hire	-10.0658
▁sucker	-10.0659
▁inn	-10.0661
▁mu	-10.0675
▁who	-10.0692
▁carefully	-10.0694
▁up	-10.0711
▁knocked	-10.0724
▁attacked	-10.0728
▁souls	-10.073
ita	-10.0739
▁shelly	-10.0744
ex	-10.0745
▁for	-10.0749
▁pirates	-10.0783
▁depends	-10.079
▁aii	-10.079
▁seats	-10.0795
▁lovers	-10.0796
▁wh	-10.0802
▁ton	-10.0804
▁victoria	-10.0806
bi	-10.0813
▁prime	-10.083
day	-10.0833
▁stink	-10.0836
▁husbands	-10.0839
▁messing	-10.085
▁pound	-10.0866
▁oni	-10.0867
▁scream	-10.0868
▁sec	-10.087
▁bon	-10.0905
▁circle	-10.0911
▁knee	-10.0912
▁durberville	-10.0913
▁coward	-10.0914
ung	-10.0916
▁soldier	-10.0922
upp	-10.0928
▁bone	-10.0933
▁warriors	-10.0955
▁students	-10.0955
▁bid	-10.0971
ction	-10.0985
▁tale	-10.0999
ue	-10.1001
▁machines	-10.1002
▁am	-10.1006
▁checked	-10.1025
▁members	-10.1029
iest	-10.1058
▁scar	-10.1073
▁leo	-10.1097
head	-10.1101
▁ke	-10.1105
▁miracles	-10.1107
looking	-10.1108
▁bang	-10.1121
▁windows	-10.1123
▁del	-10.1143
▁disease	-10.1147
▁hurting	-10.1152
▁capture	-10.1153
▁particular	-10.1159
▁terribl	-10.116
▁obvious	-10.116
▁robert	-10.1166
▁someones	-10.1167
▁forces	-10.117
▁politic	-10.1174
▁anxious	-10.1175
▁apollo	-10.1175
▁beindorf	-10.1175
▁carriage	-10.1175
▁dwarf	-10.1175
▁easily	-10.1175
▁formula	-10.1175
▁kgys	-10.1175
▁manticore	-10.1175
▁marmalade	-10.1175
▁museum	-10.1175
▁pharaoh	-10.1175
▁qyack	-10.1175
▁rameses	-10.1175
▁rotten	-10.1175
▁sengh	-10.1175
▁silver	-10.1175
▁smooth	-10.1175
▁solution	-10.1175
▁spretzle	-10.1175
▁vehicle	-10.1175
▁eminence	-10.1175
▁grip	-10.1175
▁sherry	-10.1175
▁washington	-10.1175
▁balloon	-10.1175
▁including	-10.1175
▁guppy	-10.1175
▁treasure	-10.1175
▁twitch	-10.1175
▁bald	-10.1175
▁herb	-10.1175
▁planning	-10.1175
▁navy	-10.1176
▁rubbish	-10.1176
▁authority	-10.1176
▁granger	-10.1176
▁miami	-10.1176
▁monsieur	-10.1176
▁chapter	-10.1176
▁cruel	-10.1176
▁attractive	-10.1176
▁hailey	-10.1176
▁runner	-10.1176
▁failure	-10.1176
▁bodies	-10.1176
▁campbell	-10.1177
▁owns	-10.1177
▁marine	-10.1177
▁struggle	-10.1177
▁plot	-10.1177
▁fifty	-10.1177
▁jade	-10.1177
▁kitty	-10.1178
▁france	-10.1178
▁chef	-10.1179
▁paw	-10.118
▁johnny	-10.1181
▁collection	-10.1181
▁ciao	-10.1182
▁lars	-10.1185
▁indiana	-10.1186
▁rick	-10.1186
▁fade	-10.1187
▁impressed	-10.1188
▁received	-10.1189
▁cow	-10.1192
▁sin	-10.1194
▁dish	-10.1197
▁plant	-10.1213
ities	-10.1216
▁created	-10.1225
▁solve	-10.1228
▁string	-10.1229
▁drag	-10.1237
▁wishes	-10.1255
▁golf	-10.1257
▁suffering	-10.1262
▁march	-10.1273
▁finding	-10.1281
kin	-10.1287
▁ap	-10.1287
▁walls	-10.1292
▁counter	-10.1295
▁ending	-10.1302
▁not	-10.1326
hand	-10.1345
▁ni	-10.1346
▁traveling	-10.1347
▁guts	-10.1348
▁returned	-10.1355
▁cur	-10.1359
▁fa	-10.1365
ball	-10.1367
▁parts	-10.1369
ii	-10.1369
▁jumped	-10.1379
▁sol	-10.1404
▁refere	-10.1407
▁reasons	-10.1412
▁tim	-10.1435
▁ordered	-10.1436
▁knees	-10.1438
kov	-10.1445
▁cor	-10.1451
▁of	-10.1479
▁brains	-10.1481
▁shoulders	-10.1486
▁odd	-10.1491
ab	-10.1491
▁pictures	-10.1495
▁rip	-10.1499
▁workin	-10.15
▁cats	-10.1513
▁faces	-10.152
we	-10.1525
▁scholarship	-10.1536
▁masterbuilder	-10.1539
▁citizen	-10.1542
▁plate	-10.1542
▁owner	-10.1543
▁titan	-10.1543
▁indian	-10.1546
▁hawk	-10.1546
▁leading	-10.1549
▁ranger	-10.1549
▁bud	-10.1585
ob	-10.1586
ied	-10.159
▁task	-10.1605
▁hates	-10.1628
▁what	-10.1646
▁ages	-10.1654
more	-10.1664
▁sta	-10.1668
▁wi	-10.1672
▁opened	-10.1682
▁trace	-10.1686
▁search	-10.1706
▁hits	-10.1706
▁pit	-10.1714
▁toe	-10.1719
eth	-10.1721
▁che	-10.1738
▁wrestle	-10.1743
▁approach	-10.1745
▁announce	-10.1759
▁spoil	-10.176
▁faint	-10.176
▁mount	-10.1761
▁success	-10.1769
▁fans	-10.177
▁ac	-10.177
▁retire	-10.1771
▁refuse	-10.1773
▁arrange	-10.1774
what	-10.1776
▁chase	-10.1776
▁incredibl	-10.1785
gged	-10.1788
▁chose	-10.179
▁il	-10.1795
▁dick	-10.1795
▁gal	-10.1798
▁apology	-10.18
▁ashamed	-10.18
▁companion	-10.18
▁confidence	-10.18
▁defensive	-10.18
▁destiny	-10.18
▁donald	-10.18
▁donnagon	-10.18
▁elephant	-10.18
▁enormous	-10.18
▁exhibit	-10.18
▁glorious	-10.18
▁gondorff	-10.18
▁henderson	-10.18
▁hustle	-10.18
▁kornpett	-10.18
▁license	-10.18
▁martha	-10.18
▁mirror	-10.18
▁murmuring	-10.18
▁prescott	-10.18
▁principal	-10.18
▁process	-10.18
▁quarry	-10.18
▁senior	-10.18
▁strict	-10.18
▁supplies	-10.18
▁technology	-10.18
▁wasabi	-10.18
▁whimpering	-10.18
▁yasmin	-10.18
▁balance	-10.18
▁brotherhood	-10.18
▁equal	-10.18
▁prevent	-10.18
▁rewind	-10.18
▁niko	-10.18
▁palace	-10.18
▁gym	-10.18
▁racing	-10.18
▁stammering	-10.18
▁intelligent	-10.18
▁upbea	-10.18
▁sweep	-10.18
▁flash	-10.18
▁display	-10.18
▁fortress	-10.18
▁gundy	-10.18
▁earlier	-10.18
▁trail	-10.18
▁buried	-10.18
▁joking	-10.1801
▁opposite	-10.1801
▁generous	-10.1801
▁ojo	-10.1801
▁cherry	-10.1801
▁flack	-10.1801
▁construction	-10.1801
▁ambulance	-10.1801
▁behold	-10.1801
▁iook	-10.1801
▁depth	-10.1802
▁brick	-10.1802
▁chasing	-10.1802
▁deaf	-10.1802
▁maiden	-10.1802
▁gang	-10.1802
▁daisy	-10.1802
▁cities	-10.1803
▁stock	-10.1803
▁precisely	-10.1803
▁grizzly	-10.1804
▁apparently	-10.1804
▁rubble	-10.1804
▁june	-10.1805
▁dust	-10.1805
▁comin	-10.1805
▁assure	-10.1805
▁doll	-10.1805
▁league	-10.1806
▁scan	-10.1806
▁drill	-10.1806
▁firm	-10.1806
▁uhuh	-10.1807
▁mentor	-10.1809
▁motion	-10.1809
▁sailor	-10.181
▁jb	-10.1811
▁heal	-10.1812
▁witches	-10.1813
▁invented	-10.1813
▁julius	-10.1813
▁junior	-10.1814
▁print	-10.1815
▁darn	-10.1816
▁oss	-10.1818
boy	-10.1819
▁naturally	-10.1822
▁clay	-10.1823
▁thee	-10.1823
▁rent	-10.1823
▁arranged	-10.1826
▁off	-10.1827
▁annoying	-10.1827
▁union	-10.1827
▁lab	-10.1842
▁pity	-10.1845
▁emotional	-10.185
▁louise	-10.1853
▁down	-10.1865
▁swor	-10.1868
▁blessing	-10.1875
▁mid	-10.1875
▁locker	-10.1876
ya	-10.1886
▁agreed	-10.1888
▁offered	-10.1897
tro	-10.1897
▁jo	-10.1902
hoo	-10.1913
▁mol	-10.1914
▁destroyer	-10.1916
▁gifts	-10.192
▁bend	-10.192
▁pitt	-10.1921
ney	-10.1923
lie	-10.1933
▁armed	-10.1936
▁du	-10.1937
▁makeup	-10.1941
▁closet	-10.1946
ther	-10.1949
▁tend	-10.1955
▁cla	-10.1958
▁legal	-10.196
▁heroics	-10.1961
▁bra	-10.1963
▁tag	-10.1987
▁u	-10.2008
▁boots	-10.201
▁badge	-10.2011
ky	-10.2015
▁we	-10.2024
▁winding	-10.2035
▁measure	-10.204
▁teaching	-10.2044
▁slipp	-10.2047
▁chickens	-10.2048
▁kr	-10.2052
▁dec	-10.2065
ell	-10.2101
▁moments	-10.211
▁sacrifice	-10.2122
▁worker	-10.2157
▁flu	-10.2158
fore	-10.2164
▁staring	-10.2169
▁str	-10.2172
▁stops	-10.2178
▁corn	-10.2194
▁app	-10.2197
▁tradition	-10.2201
▁result	-10.2208
▁helped	-10.2208
▁rats	-10.2211
▁snake	-10.2214
car	-10.2215
▁chain	-10.2217
▁slip	-10.2227
▁appears	-10.2231
▁cad	-10.2254
▁waves	-10.2257
▁monsters	-10.2259
▁beating	-10.2268
▁lap	-10.2275
rage	-10.2276
▁reporter	-10.2282
▁rooms	-10.2289
▁gum	-10.229
▁points	-10.2322
▁tricks	-10.2333
▁places	-10.2342
▁doctors	-10.236
▁daughters	-10.2379
ini	-10.2399
▁mac	-10.2401
▁charm	-10.2407
▁whip	-10.2409
▁typ	-10.2412
▁smash	-10.2426
▁disappoint	-10.2427
▁screw	-10.2427
room	-10.2428
book	-10.2429
▁char	-10.2429
▁tip	-10.2429
▁perform	-10.243
▁bru	-10.2431
load	-10.2438
▁absolute	-10.2452
▁morgan	-10.2458
while	-10.2465
▁revolution	-10.2465
▁occasion	-10.2466
▁lemon	-10.2466
▁twenty	-10.2466
▁activity	-10.2467
▁argue	-10.2467
▁available	-10.2467
▁barbara	-10.2467
▁byzanium	-10.2467
▁california	-10.2467
▁ceremony	-10.2467
▁circumstances	-10.2467
▁competition	-10.2467
▁complicated	-10.2467
▁desperate	-10.2467
▁district	-10.2467
▁essence	-10.2467
▁exercise	-10.2467
▁explanation	-10.2467
▁explode	-10.2467
▁fifteen	-10.2467
▁fortune	-10.2467
▁include	-10.2467
▁justice	-10.2467
▁kibner	-10.2467
▁korso	-10.2467
▁luigi	-10.2467
▁memphis	-10.2467
▁oxygen	-10.2467
▁pathetic	-10.2467
▁recently	-10.2467
▁smiling	-10.2467
▁surface	-10.2467
▁terrified	-10.2467
▁underneath	-10.2467
▁unknown	-10.2467
▁cantonese	-10.2467
▁flew	-10.2467
▁japanese	-10.2467
▁pearl	-10.2467
▁sherman	-10.2467
▁splash	-10.2467
▁mvp	-10.2467
▁coyle	-10.2467
▁brand	-10.2467
▁superior	-10.2467
▁larry	-10.2467
▁whyd	-10.2467
▁fruit	-10.2467
▁remark	-10.2467
▁material	-10.2467
▁wretche	-10.2467
▁military	-10.2467
▁guide	-10.2467
▁threat	-10.2467
▁harrison	-10.2467
▁eternal	-10.2467
▁hyah	-10.2468
▁grant	-10.2468
▁coordinates	-10.2468
▁sogo	-10.2468
▁plain	-10.2468
▁ruffin	-10.2468
▁secure	-10.2468
▁blanket	-10.2469
▁traitor	-10.2469
▁curry	-10.2469
▁minor	-10.2469
▁monty	-10.247
▁chew	-10.247
▁raph	-10.247
▁beef	-10.247
▁doorbell	-10.2471
▁mice	-10.2471
▁shaw	-10.2471
▁lean	-10.2472
▁grandson	-10.2472
▁tour	-10.2472
▁blonde	-10.2473
▁beings	-10.2474
▁boof	-10.2475
▁superheroes	-10.2477
▁lamb	-10.2477
▁glasses	-10.2479
▁scores	-10.248
▁ripped	-10.248
▁discovered	-10.2484
▁lump	-10.2485
▁clip	-10.2487
▁itch	-10.2491
▁rear	-10.2493
▁dial	-10.2493
▁kite	-10.2495
▁ms	-10.2498
▁mud	-10.2501
▁steven	-10.251
▁pops	-10.251
▁arrested	-10.2515
▁hike	-10.2516
▁designed	-10.252
▁forth	-10.252
▁fe	-10.2522
▁michaels	-10.2525
▁survived	-10.2528
▁mint	-10.2528
▁entirely	-10.2551
▁lick	-10.2552
▁depend	-10.2557
ada	-10.2565
▁beeps	-10.2567
▁stronger	-10.2583
▁hurts	-10.2605
ave	-10.2622
▁frye	-10.2637
▁souther	-10.2639
▁williams	-10.265
▁streets	-10.265
oh	-10.2673
▁covered	-10.269
bon	-10.2705
▁friendly	-10.2708
▁joey	-10.2709
▁beard	-10.2712
▁backup	-10.2734
▁ri	-10.2744
▁terms	-10.2784
▁mistakes	-10.2798
▁non	-10.2803
▁sw	-10.2803
▁wa	-10.281
sky	-10.2817
▁skulls	-10.2822
▁walker	-10.2842
▁chat	-10.2856
▁pu	-10.2868
▁ping	-10.2871
▁learning	-10.2876
▁paris	-10.2881
ou	-10.2883
ax	-10.2886
▁gasp	-10.289
▁passing	-10.292
▁issue	-10.292
▁chick	-10.2923
▁hen	-10.2923
▁pirate	-10.2933
▁lip	-10.2936
▁ki	-10.3015
▁vo	-10.3021
▁lies	-10.303
▁ended	-10.3045
▁gig	-10.3067
▁reports	-10.3087
work	-10.3122
▁film	-10.3126
red	-10.3129
▁arrive	-10.3134
pin	-10.3135
▁study	-10.3138
▁develop	-10.3139
▁suspect	-10.3141
▁inform	-10.3141
▁cancel	-10.3141
▁thrill	-10.3143
▁intend	-10.3143
▁jean	-10.3148
▁assume	-10.3153
▁remove	-10.3154
field	-10.3154
▁sauce	-10.3154
▁complain	-10.3158
▁computers	-10.3159
▁sex	-10.3162
▁organ	-10.3164
▁weigh	-10.3171
▁frog	-10.3171
▁deck	-10.3171
▁express	-10.3177
▁yup	-10.3179
▁basket	-10.318
▁civil	-10.318
▁basic	-10.318
▁alexander	-10.3181
▁amigo	-10.3181
▁astronaut	-10.3181
▁average	-10.3181
▁awkward	-10.3181
▁charlene	-10.3181
▁cinderella	-10.3181
▁concert	-10.3181
▁dagger	-10.3181
▁disaster	-10.3181
▁durbeyfield	-10.3181
▁elevator	-10.3181
▁furniture	-10.3181
▁ignore	-10.3181
▁increase	-10.3181
▁individual	-10.3181
▁innocent	-10.3181
▁jonathan	-10.3181
▁lagoon	-10.3181
▁lydia	-10.3181
▁oclock	-10.3181
▁peopie	-10.3181
▁phantom	-10.3181
▁plaza	-10.3181
▁prophecy	-10.3181
▁rejoice	-10.3181
▁shouid	-10.3181
▁snarling	-10.3181
▁syndicate	-10.3181
▁unique	-10.3181
▁valuable	-10.3181
▁vodka	-10.3181
▁yabbadabbadoo	-10.3181
▁anytime	-10.3181
▁attic	-10.3181
▁beloved	-10.3181
▁daniel	-10.3181
▁feast	-10.3181
▁beardsley	-10.3181
▁largo	-10.3181
▁milner	-10.3181
▁modern	-10.3181
▁proceed	-10.3181
▁troops	-10.3181
▁morris	-10.3181
▁narnia	-10.3181
▁gear	-10.3181
▁stiles	-10.3181
▁pursuit	-10.3181
▁roast	-10.3181
▁caddie	-10.3181
▁garrett	-10.3181
▁honks	-10.3181
▁kidnapped	-10.3181
▁huddle	-10.3181
▁dropping	-10.3181
▁shrink	-10.3181
▁whoville	-10.3181
▁pleasant	-10.3181
▁cloak	-10.3181
▁jesuit	-10.3181
▁slept	-10.3181
▁operator	-10.3181
▁dining	-10.3181
▁cowboy	-10.3181
▁spray	-10.3181
▁granada	-10.3181
▁despi	-10.3181
▁addition	-10.3182
▁pacific	-10.3182
▁uther	-10.3182
▁lightning	-10.3182
▁fought	-10.3182
▁tsk	-10.3182
▁closing	-10.3182
▁pillow	-10.3182
▁veer	-10.3182
▁jock	-10.3182
▁urgent	-10.3182
▁skinny	-10.3182
▁rabies	-10.3182
▁confession	-10.3182
▁impression	-10.3182
▁delightful	-10.3182
▁jimmy	-10.3182
▁penny	-10.3182
▁stall	-10.3182
▁mummy	-10.3183
▁stopping	-10.3183
▁soda	-10.3183
▁connection	-10.3183
▁luke	-10.3183
▁villain	-10.3183
▁groom	-10.3184
▁hack	-10.3184
▁sentence	-10.3184
▁juice	-10.3184
▁library	-10.3184
▁clare	-10.3184
▁steady	-10.3184
▁punk	-10.3184
▁roman	-10.3185
▁chart	-10.3185
▁amount	-10.3186
▁cia	-10.3187
▁laser	-10.3188
▁shave	-10.3188
▁birth	-10.3189
▁confused	-10.3191
▁spain	-10.3192
▁golden	-10.3193
▁gumm	-10.3193
▁defi	-10.3194
▁capable	-10.3194
▁doomed	-10.3195
▁clicking	-10.3196
▁cliff	-10.3197
▁lila	-10.3198
▁engaged	-10.3198
▁enchanted	-10.3202
▁ballet	-10.3204
▁theme	-10.3205
▁provided	-10.3206
▁grabb	-10.3209
▁confirmed	-10.3213
▁fort	-10.3214
▁dock	-10.3214
▁mia	-10.3216
▁brush	-10.3217
▁bound	-10.3221
▁disappointed	-10.3222
ron	-10.3228
▁hah	-10.3231
▁flintstones	-10.3233
▁taco	-10.3233
itch	-10.3236
▁searching	-10.3246
▁details	-10.3249
▁babys	-10.3255
▁talented	-10.3255
▁fleet	-10.3259
▁preed	-10.3263
▁frankly	-10.3264
▁sal	-10.3264
▁escaped	-10.3265
ple	-10.3275
▁dreaming	-10.3277
▁whistles	-10.3284
▁pot	-10.3293
▁exchange	-10.3296
▁sr	-10.3299
▁pad	-10.3304
▁whoops	-10.3305
▁gen	-10.3316
▁drown	-10.3319
▁mor	-10.3327
▁pr	-10.3334
▁county	-10.334
ming	-10.3341
▁boats	-10.3342
▁brakes	-10.3348
▁prayers	-10.3355
▁heels	-10.3367
▁hills	-10.3371
▁signor	-10.3377
▁cal	-10.3383
▁exception	-10.3384
▁sim	-10.3389
▁cre	-10.3395
▁fist	-10.3414
▁medica	-10.3439
▁tap	-10.3451
nce	-10.3453
▁testing	-10.3455
▁qu	-10.346
▁fights	-10.3463
▁laps	-10.3466
▁landed	-10.3484
▁owners	-10.3484
▁ay	-10.3485
▁colt	-10.3494
▁transfer	-10.3503
▁annu	-10.3507
▁product	-10.3511
for	-10.3511
▁ai	-10.3512
▁bones	-10.3513
old	-10.3519
▁everyones	-10.3525
con	-10.3542
▁cleaner	-10.3582
ame	-10.3593
▁wee	-10.3606
▁unh	-10.3621
▁sch	-10.3628
▁fishing	-10.3646
ull	-10.3673
▁rod	-10.3678
▁shr	-10.3689
▁gut	-10.3706
▁sending	-10.3716
▁tunnels	-10.3724
▁brings	-10.3733
▁toy	-10.3735
ttering	-10.377
▁dee	-10.377
▁dealing	-10.3781
her	-10.382
oid	-10.3847
▁ru	-10.3863
▁piss	-10.3871
fish	-10.3886
▁angels	-10.3887
berry	-10.3888
▁cap	-10.3892
▁iii	-10.3893
▁cub	-10.3894
west	-10.39
▁cousins	-10.3906
▁corps	-10.3914
▁nail	-10.3914
▁mix	-10.3916
▁frighten	-10.3919
▁officers	-10.3919
▁provide	-10.3924
national	-10.3926
ire	-10.3929
▁ka	-10.3937
▁para	-10.3943
▁rack	-10.3947
▁martin	-10.3948
▁text	-10.395
▁abdullah	-10.395
▁accent	-10.395
▁arguing	-10.395
▁audience	-10.395
▁bammbamm	-10.395
▁behalf	-10.395
▁claude	-10.395
▁dawson	-10.395
▁dorothea	-10.395
▁exhales	-10.395
▁extraordinary	-10.395
▁footsteps	-10.395
▁griselda	-10.395
▁invitation	-10.395
▁labyrinth	-10.395
▁lunatic	-10.395
▁monitor	-10.395
▁orchestra	-10.395
▁quality	-10.395
▁rhythm	-10.395
▁routine	-10.395
▁scientist	-10.395
▁squeaking	-10.395
▁stammers	-10.395
▁thursday	-10.395
▁torture	-10.395
▁towel	-10.395
▁tremendous	-10.395
▁twelve	-10.395
▁underwear	-10.395
▁victim	-10.395
▁vitruvius	-10.395
▁vocalizing	-10.395
▁welsh	-10.395
▁wicked	-10.395
▁wyldstyle	-10.395
▁duane	-10.395
▁indicate	-10.395
▁noodles	-10.395
▁philip	-10.395
▁rookie	-10.395
▁yoast	-10.395
▁credit	-10.395
▁doyle	-10.395
▁woke	-10.395
▁blaring	-10.395
▁tackle	-10.395
▁toad	-10.395
▁drove	-10.395
▁knowledge	-10.395
▁coincidence	-10.395
▁spiritual	-10.395
▁thatd	-10.395
▁temperature	-10.395
▁diner	-10.395
▁hollywood	-10.3951
▁theory	-10.3951
▁bryan	-10.3951
▁decade	-10.3951
▁phoebe	-10.3951
▁dramatic	-10.3951
▁stevenson	-10.3951
▁shaking	-10.3951
▁playoffs	-10.3951
▁finley	-10.3951
▁ronny	-10.3951
▁leak	-10.3951
▁stalk	-10.3951
▁delos	-10.3952
▁angle	-10.3952
▁begging	-10.3952
▁lazy	-10.3952
▁electricity	-10.3952
▁motor	-10.3953
▁patrol	-10.3953
▁fascinating	-10.3953
▁scout	-10.3953
▁happily	-10.3953
▁expression	-10.3953
▁stallion	-10.3953
▁aside	-10.3954
▁christian	-10.3954
▁firebird	-10.3954
▁trap	-10.3954
oohoo	-10.3954
▁sunny	-10.3954
▁injured	-10.3955
▁frozen	-10.3955
▁mock	-10.3955
▁topsy	-10.3957
▁bash	-10.3957
▁fries	-10.3959
▁alas	-10.3959
▁freshman	-10.3959
▁izzy	-10.396
▁mil	-10.3961
▁toss	-10.3961
▁cabin	-10.3962
▁approved	-10.3962
▁thas	-10.3963
▁standard	-10.3964
▁foolish	-10.3964
▁peru	-10.3967
▁ew	-10.3967
▁wailing	-10.3971
▁showing	-10.3973
ki	-10.3974
▁setting	-10.3975
jesse	-10.3976
▁andy	-10.3976
▁loosen	-10.3976
matic	-10.3978
▁chanting	-10.398
▁microbots	-10.3982
graph	-10.3983
▁tax	-10.3983
▁wrestler	-10.3985
ump	-10.3985
▁nailed	-10.399
bar	-10.3991
▁pod	-10.3994
▁vice	-10.3997
ism	-10.4001
▁classes	-10.4002
▁softly	-10.4005
roll	-10.4011
▁passes	-10.4012
▁beats	-10.4017
▁actor	-10.4024
▁banging	-10.4025
▁forced	-10.4034
pped	-10.4038
▁blown	-10.4039
▁chill	-10.404
▁colored	-10.4048
▁sweater	-10.4055
▁earl	-10.406
lu	-10.406
▁thirty	-10.4061
▁fame	-10.4061
▁boot	-10.4062
▁this	-10.4067
▁accepted	-10.4071
▁burned	-10.4071
▁hint	-10.4073
▁tracks	-10.4087
▁biscuits	-10.4088
▁belly	-10.4092
▁painful	-10.4096
▁deed	-10.4098
▁feeding	-10.4098
eck	-10.4098
▁ali	-10.41
▁thousands	-10.411
nix	-10.4115
▁peel	-10.4118
▁gl	-10.412
▁mist	-10.4122
▁offering	-10.413
▁fence	-10.4149
▁mare	-10.4156
▁raining	-10.4157
▁fooled	-10.4171
▁cruise	-10.4183
▁ol	-10.4194
▁cutters	-10.4194
▁and	-10.4217
udge	-10.4242
lli	-10.4242
▁shows	-10.4253
▁snakes	-10.4258
▁que	-10.4276
ong	-10.4276
rina	-10.428
▁indians	-10.4281
▁pushing	-10.4285
ez	-10.4293
unk	-10.4304
▁cards	-10.4311
▁winters	-10.4323
zi	-10.4345
▁skip	-10.4367
▁rein	-10.4368
ass	-10.4399
▁nuns	-10.4409
▁bounce	-10.4411
▁jokes	-10.4415
▁trans	-10.4417
▁systems	-10.4441
▁buck	-10.445
▁parent	-10.4475
ide	-10.4476
▁dom	-10.4477
▁nasa	-10.449
ison	-10.4493
▁perkis	-10.451
▁col	-10.4511
▁gus	-10.4521
▁vow	-10.4527
▁toward	-10.453
▁closes	-10.4538
▁cutter	-10.4544
ator	-10.4566
af	-10.4595
▁here	-10.4602
▁dancer	-10.4604
▁cheers	-10.4613
ned	-10.4636
▁ham	-10.4639
▁on	-10.4642
lf	-10.4646
▁auto	-10.4647
▁fry	-10.4653
▁hunt	-10.4655
▁whee	-10.4683
▁speaker	-10.4693
▁craft	-10.4719
com	-10.4726
▁crawl	-10.4726
▁float	-10.473
foot	-10.474
▁confirm	-10.4744
▁defeat	-10.4744
▁insult	-10.4744
▁delight	-10.4746
rate	-10.4754
▁deb	-10.4757
▁replace	-10.4758
▁headed	-10.4763
ama	-10.4764
bra	-10.4767
▁tuck	-10.4767
▁broad	-10.4768
▁tomato	-10.4776
▁mystic	-10.4777
▁gentle	-10.4779
▁council	-10.478
▁entertain	-10.4781
▁disgrace	-10.4782
▁egypt	-10.4782
▁avenue	-10.4783
▁campaign	-10.4783
▁carrots	-10.4783
▁chemical	-10.4783
▁cleveland	-10.4783
▁colwyn	-10.4783
▁concept	-10.4783
▁corcoran	-10.4783
▁dentist	-10.4783
▁discipline	-10.4783
▁elbow	-10.4783
▁embassy	-10.4783
▁enemies	-10.4783
▁entrance	-10.4783
▁explosion	-10.4783
▁farquaad	-10.4783
▁fernandes	-10.4783
▁fifth	-10.4783
▁galaxy	-10.4783
▁hawthorne	-10.4783
▁healthcare	-10.4783
▁illegal	-10.4783
▁interview	-10.4783
▁length	-10.4783
▁loretta	-10.4783
▁lyssa	-10.4783
▁macdonald	-10.4783
▁marvelous	-10.4783
▁miserable	-10.4783
▁nicholas	-10.4783
▁nigger	-10.4783
▁policy	-10.4783
▁potential	-10.4783
▁pronounce	-10.4783
▁puzzle	-10.4783
▁recommend	-10.4783
▁represent	-10.4783
▁rooster	-10.4783
▁seminar	-10.4783
▁sleeve	-10.4783
▁slomo	-10.4783
▁snyder	-10.4783
▁soccer	-10.4783
▁splinter	-10.4783
▁stubborn	-10.4783
▁sunrise	-10.4783
▁supreme	-10.4783
▁survivor	-10.4783
▁symbol	-10.4783
▁tattoo	-10.4783
▁toilet	-10.4783
▁unexpected	-10.4783
▁violin	-10.4783
▁volunteer	-10.4783
▁winslow	-10.4783
▁xavier	-10.4783
▁element	-10.4783
▁pigeon	-10.4783
▁refund	-10.4783
▁karp	-10.4783
▁ease	-10.4784
▁presence	-10.4784
▁myth	-10.4784
▁compete	-10.4784
▁franklin	-10.4784
▁barrel	-10.4784
▁delay	-10.4784
▁mathmos	-10.4784
▁mankind	-10.4784
▁bratitude	-10.4784
▁underground	-10.4784
▁underwater	-10.4784
▁medal	-10.4784
▁capcom	-10.4784
▁sunset	-10.4784
▁downtown	-10.4784
▁fishfinger	-10.4784
▁grizzlies	-10.4784
▁revving	-10.4784
▁fog	-10.4784
▁trunk	-10.4784
▁riley	-10.4784
▁auction	-10.4784
▁adorable	-10.4784
▁turkey	-10.4784
▁fever	-10.4784
▁glow	-10.4785
▁curious	-10.4785
▁confident	-10.4785
▁grandchildren	-10.4785
▁possibility	-10.4785
▁centre	-10.4785
▁drain	-10.4785
▁bradley	-10.4785
▁ladder	-10.4785
▁leap	-10.4785
▁stress	-10.4785
▁foul	-10.4785
▁garage	-10.4786
▁rehearsal	-10.4786
▁blah	-10.4786
▁fox	-10.4786
▁tyre	-10.4786
▁grail	-10.4787
▁belief	-10.4787
▁beak	-10.4787
▁geez	-10.4787
▁scum	-10.4787
▁jimbo	-10.4788
▁luisa	-10.4788
▁bold	-10.4788
▁leerie	-10.4788
▁hirota	-10.4789
▁iike	-10.4789
▁rash	-10.4789
▁original	-10.4789
▁coke	-10.479
▁disco	-10.479
▁chili	-10.479
▁pinch	-10.479
▁shade	-10.4791
▁poke	-10.4791
▁abra	-10.4793
▁lamp	-10.4793
▁booth	-10.4793
▁dishes	-10.4794
▁shots	-10.4794
▁sore	-10.4794
▁janie	-10.4795
▁piease	-10.4796
▁barry	-10.4796
▁range	-10.4796
▁roberto	-10.4796
▁sandwiches	-10.4797
▁china	-10.4797
▁proof	-10.4798
▁til	-10.4798
▁chest	-10.4799
▁sniffing	-10.4801
▁convinced	-10.4801
▁nerd	-10.4803
ep	-10.4804
▁shutter	-10.4804
▁ken	-10.4808
▁slightly	-10.4808
▁established	-10.4808
▁spoken	-10.4809
▁alan	-10.481
▁bush	-10.4811
▁ack	-10.4811
▁thus	-10.4814
▁forty	-10.4815
▁lack	-10.4821
▁corpse	-10.4823
▁distract	-10.4824
▁successful	-10.4826
▁captured	-10.483
▁matty	-10.4836
▁briefing	-10.4836
▁shy	-10.4836
▁searched	-10.4836
▁tot	-10.4839
▁floating	-10.484
▁rapids	-10.4841
▁hiya	-10.4844
▁movement	-10.485
▁louder	-10.485
▁blessed	-10.4852
▁loaded	-10.4871
▁melt	-10.4874
▁bay	-10.4874
right	-10.4879
▁sailing	-10.4881
▁counts	-10.4891
▁robe	-10.4892
▁checking	-10.4895
▁packed	-10.4896
▁hy	-10.49
▁tau	-10.4906
▁lone	-10.4916
▁onions	-10.4934
▁worthy	-10.4935
▁mentioned	-10.4935
ef	-10.4939
▁pretending	-10.495
▁skills	-10.4957
▁coo	-10.4975
▁sakes	-10.4981
ible	-10.4987
▁singer	-10.5004
gging	-10.5011
▁handled	-10.5015
▁facts	-10.5017
▁laughed	-10.5018
▁divers	-10.5019
▁wrap	-10.5028
▁tu	-10.503
▁washed	-10.5035
▁likely	-10.5036
▁whas	-10.5038
▁sob	-10.5045
nut	-10.5057
ore	-10.5058
▁smith	-10.5082
▁hairy	-10.5086
▁chicks	-10.5096
▁freaking	-10.5096
hal	-10.5099
▁tips	-10.5109
▁shown	-10.511
▁wha	-10.5111
▁results	-10.512
▁rangers	-10.5145
val	-10.516
▁stinks	-10.5167
▁rolling	-10.5167
▁vol	-10.5171
▁marrying	-10.5172
▁dim	-10.5178
aver	-10.5193
▁charges	-10.5244
▁comp	-10.5276
▁exists	-10.529
▁caused	-10.5297
▁she	-10.53
▁chap	-10.5328
▁bass	-10.5343
▁winds	-10.5356
▁reminds	-10.5358
▁visual	-10.5361
▁badly	-10.5366
cla	-10.5402
cus	-10.5402
▁prim	-10.5412
▁adult	-10.543
▁shadow	-10.543
▁nerve	-10.543
ory	-10.5431
▁tone	-10.5435
▁dollar	-10.5445
▁pill	-10.5449
act	-10.545
▁bets	-10.5482
▁stuffed	-10.549
▁catching	-10.5496
▁teachers	-10.5497
▁hoped	-10.551
▁colors	-10.5526
▁ev	-10.5535
ition	-10.5543
▁missions	-10.5545
▁electric	-10.5554
▁ram	-10.5571
win	-10.5591
▁athlet	-10.5594
▁flee	-10.5594
izing	-10.5604
▁chop	-10.5631
▁limit	-10.5636
▁brief	-10.5636
rita	-10.5638
ving	-10.5656
ept	-10.5665
▁produce	-10.5665
▁guilt	-10.5668
free	-10.5669
town	-10.5669
face	-10.5676
▁carpathia	-10.5682
▁russia	-10.5685
▁education	-10.5686
▁reception	-10.5691
▁resist	-10.5692
▁psycho	-10.5693
▁tragic	-10.5693
▁afterwards	-10.5693
▁ambassador	-10.5693
▁applaud	-10.5693
▁attempt	-10.5693
▁aziz	-10.5693
▁behave	-10.5693
▁bubbie	-10.5693
▁charmaine	-10.5693
▁chimpanzee	-10.5693
▁concentrate	-10.5693
▁corridor	-10.5693
▁craven	-10.5693
▁dazzling	-10.5693
▁demonstration	-10.5693
▁diamond	-10.5693
▁document	-10.5693
▁excalibur	-10.5693
▁exhausted	-10.5693
▁favour	-10.5693
▁fridge	-10.5693
▁guinevere	-10.5693
▁heavily	-10.5693
▁helicopter	-10.5693
▁hidden	-10.5693
▁horizon	-10.5693
▁intelligence	-10.5693
▁kangaroo	-10.5693
▁kimberly	-10.5693
▁mermaid	-10.5693
▁mitchell	-10.5693
▁moonwind	-10.5693
▁observe	-10.5693
▁patricia	-10.5693
▁pecan	-10.5693
▁picnic	-10.5693
▁rhonda	-10.5693
▁schwartzwalder	-10.5693
▁silent	-10.5693
▁skeleton	-10.5693
▁snips	-10.5693
▁specimen	-10.5693
▁squad	-10.5693
▁territory	-10.5693
▁tokyo	-10.5693
▁whinnies	-10.5693
▁whobilation	-10.5693
▁wrightwood	-10.5693
▁beetle	-10.5693
▁chirp	-10.5693
▁collar	-10.5693
▁federal	-10.5693
▁frown	-10.5693
▁sofa	-10.5693
▁steak	-10.5693
▁thumb	-10.5693
▁vardon	-10.5693
▁widow	-10.5693
▁foam	-10.5693
▁pascal	-10.5693
▁herman	-10.5693
▁justin	-10.5693
▁affect	-10.5693
▁drew	-10.5693
▁farren	-10.5693
▁insect	-10.5693
▁rommel	-10.5693
▁freddie	-10.5693
▁scheme	-10.5693
▁budget	-10.5693
▁puppy	-10.5693
▁purple	-10.5693
▁mumbling	-10.5693
▁promotion	-10.5693
▁albert	-10.5693
▁violence	-10.5693
▁choke	-10.5693
▁bidding	-10.5693
▁sheryl	-10.5693
▁hooray	-10.5693
▁shiny	-10.5693
▁estate	-10.5693
▁blade	-10.5694
▁wimp	-10.5694
▁retrieve	-10.5694
▁slot	-10.5694
▁becoming	-10.5694
▁potatoes	-10.5694
▁peaches	-10.5694
▁raven	-10.5694
▁association	-10.5694
▁romance	-10.5695
▁turk	-10.5695
▁shane	-10.5695
▁manual	-10.5695
▁magnetic	-10.5695
▁starving	-10.5695
▁charity	-10.5696
▁marty	-10.5696
▁sensitive	-10.5696
▁fuzzy	-10.5696
▁trajectory	-10.5696
▁overtime	-10.5696
▁fbi	-10.5697
▁comment	-10.5697
▁thou	-10.5697
▁grownup	-10.5697
▁accidentally	-10.5698
▁tech	-10.5698
▁reward	-10.5698
▁trial	-10.5698
▁whatll	-10.5698
▁email	-10.5698
▁thirsty	-10.5699
▁dickon	-10.5699
▁amongst	-10.57
▁rubber	-10.57
▁update	-10.57
▁geek	-10.57
▁jew	-10.5701
▁knockout	-10.5702
▁determined	-10.5702
▁hideous	-10.5702
▁spotted	-10.5702
▁colin	-10.5702
▁cheerleader	-10.5702
▁erm	-10.5702
▁pace	-10.5703
▁pour	-10.5703
▁aim	-10.5703
▁bait	-10.5703
▁exp	-10.5705
erial	-10.5705
▁spies	-10.5706
▁presentation	-10.5708
▁lang	-10.5709
▁playbook	-10.5709
▁growth	-10.5711
▁herring	-10.5712
▁chet	-10.5712
▁inch	-10.5713
▁seasons	-10.5716
▁buckley	-10.5717
▁forgetting	-10.572
▁embarrassed	-10.572
▁hooting	-10.572
▁reasonable	-10.5722
▁decker	-10.5723
▁superman	-10.5725
▁mayol	-10.5726
▁classic	-10.5726
▁farty	-10.5727
▁goodnight	-10.5729
▁mona	-10.5729
▁longhorns	-10.5731
▁whisrles	-10.5731
▁gutsy	-10.5732
▁retired	-10.5732
▁boxes	-10.5733
▁creepy	-10.5734
▁delighted	-10.5735
▁thrilled	-10.5742
▁setup	-10.5742
▁lifetime	-10.5743
▁squealing	-10.5744
▁released	-10.5748
▁bury	-10.5755
▁hunting	-10.5756
▁zorgons	-10.5756
▁normally	-10.5767
▁served	-10.5771
▁prov	-10.578
▁cod	-10.578
▁timing	-10.578
▁reality	-10.5781
▁hunter	-10.5783
▁stinking	-10.5784
▁duel	-10.5791
ght	-10.5792
▁gin	-10.5792
▁considered	-10.5797
▁claws	-10.5807
▁bored	-10.5808
▁loyal	-10.5811
▁plug	-10.5815
▁comb	-10.5817
che	-10.5824
▁farming	-10.5827
▁hum	-10.5831
▁roy	-10.5832
▁cracking	-10.5837
▁quested	-10.5837
▁prisoners	-10.5839
▁cheating	-10.584
▁delivered	-10.5845
▁mob	-10.5845
▁ava	-10.5847
nic	-10.5847
▁magn	-10.5849
▁analy	-10.5852
▁treated	-10.5855
▁crossed	-10.5855
▁chin	-10.5856
▁sank	-10.5857
ency	-10.5858
▁uncles	-10.5875
▁relatives	-10.5883
▁muscles	-10.5884
▁safely	-10.59
▁oldest	-10.5906
▁rounds	-10.5914
zo	-10.5927
▁har	-10.5929
▁tested	-10.5932
lov	-10.5937
▁weirdo	-10.5943
▁enjoyed	-10.5945
▁lib	-10.5967
▁formal	-10.598
▁protecting	-10.5985
ress	-10.5988
hing	-10.599
▁lame	-10.599
▁cleaned	-10.6
▁cu	-10.6003
▁starter	-10.6019
lor	-10.6028
▁dudes	-10.6084
▁citizens	-10.6086
▁fooling	-10.609
▁wondered	-10.6094
over	-10.6094
▁fed	-10.6094
▁remembered	-10.6095
▁reed	-10.6098
▁nap	-10.6104
▁plants	-10.6115
▁tales	-10.6152
▁iu	-10.6167
▁cont	-10.6194
▁communicate	-10.6194
put	-10.6203
▁tube	-10.621
▁clubs	-10.6234
▁pigs	-10.6239
▁nightmares	-10.6244
▁manor	-10.626
▁hugg	-10.6261
hut	-10.6265
▁nu	-10.6265
wo	-10.6287
▁mend	-10.629
▁thin	-10.6291
▁ph	-10.63
jo	-10.6319
▁buttons	-10.6323
▁touching	-10.6331
▁rider	-10.6343
▁conditions	-10.6349
hop	-10.6349
▁intr	-10.636
▁you	-10.6376
▁site	-10.6378
▁bark	-10.638
not	-10.6384
ook	-10.6402
▁medi	-10.6404
▁marsha	-10.641
thing	-10.6416
▁twin	-10.6422
▁grove	-10.6422
▁experiment	-10.6426
▁glove	-10.6426
▁image	-10.6433
tar	-10.6433
▁heel	-10.6441
ark	-10.6449
bell	-10.6453
▁lan	-10.6457
▁heroic	-10.6463
▁rem	-10.6481
tte	-10.6493
▁fools	-10.6501
▁balls	-10.6531
gar	-10.655
▁fu	-10.6565
pit	-10.6572
▁spi	-10.6577
▁strikes	-10.6587
let	-10.6606
▁screech	-10.6631
ox	-10.6634
▁bleed	-10.6636
▁squeal	-10.6636
▁repair	-10.6653
oft	-10.6658
▁mam	-10.6661
▁mode	-10.6662
bird	-10.6663
▁advance	-10.6665
▁graduate	-10.6665
print	-10.6666
▁tit	-10.6668
fall	-10.6669
▁surprises	-10.667
post	-10.6672
▁tar	-10.6674
▁poll	-10.6676
▁opera	-10.6676
▁execution	-10.6676
▁immediate	-10.6678
▁actual	-10.6678
▁conquer	-10.6686
▁origin	-10.6686
▁risin	-10.6686
▁bri	-10.6686
▁runnin	-10.6687
wh	-10.6688
▁programme	-10.6688
▁comfort	-10.6689
▁translat	-10.6689
▁improve	-10.669
▁transport	-10.6691
▁greet	-10.6691
▁phoe	-10.6692
▁distress	-10.6693
▁endanger	-10.6693
▁affirmative	-10.6693
▁aqua	-10.6693
▁ashira	-10.6693
▁attorney	-10.6693
▁bargain	-10.6693
▁beaumont	-10.6693
▁beneath	-10.6693
▁cactus	-10.6693
▁calculations	-10.6693
▁celebration	-10.6693
▁communist	-10.6693
▁conclusion	-10.6693
▁delicate	-10.6693
▁destination	-10.6693
▁dorsey	-10.6693
▁ducksworth	-10.6693
▁dwayne	-10.6693
▁elevar	-10.6693
▁eleven	-10.6693
▁empire	-10.6693
▁employee	-10.6693
▁engraving	-10.6693
▁escort	-10.6693
▁essential	-10.6693
▁evidence	-10.6693
▁guild	-10.6693
▁guvnor	-10.6693
▁hauptmannkoenig	-10.6693
▁hebrew	-10.6693
▁holmes	-10.6693
▁kennedy	-10.6693
▁lincoln	-10.6693
▁lloyd	-10.6693
▁magazine	-10.6693
▁mercury	-10.6693
▁naughty	-10.6693
▁neighbourhood	-10.6693
▁ouimet	-10.6693
▁pastuzo	-10.6693
▁penalty	-10.6693
▁philadelphia	-10.6693
▁phillip	-10.6693
▁powder	-10.6693
▁rabbit	-10.6693
▁racehorse	-10.6693
▁reentry	-10.6693
▁reggie	-10.6693
▁relief	-10.6693
▁reserve	-10.6693
▁resort	-10.6693
▁response	-10.6693
▁shaikh	-10.6693
▁sheriff	-10.6693
▁sneeze	-10.6693
▁snoring	-10.6693
▁superpower	-10.6693
▁supervisor	-10.6693
▁television	-10.6693
▁tyrant	-10.6693
▁ultimate	-10.6693
▁urdu	-10.6693
▁vegetarian	-10.6693
through	-10.6693
▁blares	-10.6693
▁creek	-10.6693
▁diva	-10.6693
▁flood	-10.6693
▁jeff	-10.6693
▁mulch	-10.6693
▁odile	-10.6693
▁palermo	-10.6693
▁stool	-10.6693
▁stranded	-10.6693
▁swallow	-10.6693
▁violet	-10.6693
▁whew	-10.6693
▁wisdom	-10.6693
▁bachelor	-10.6693
▁burden	-10.6693
▁fierce	-10.6693
▁mtv	-10.6693
▁otho	-10.6693
▁amusing	-10.6693
▁ibm	-10.6693
▁method	-10.6693
▁thief	-10.6693
▁sensor	-10.6693
▁gently	-10.6693
▁mostly	-10.6693
▁roaring	-10.6693
▁candle	-10.6693
▁dort	-10.6693
▁moaning	-10.6693
▁avery	-10.6693
▁turnip	-10.6693
▁gonogo	-10.6693
▁shining	-10.6693
▁tennis	-10.6693
▁candie	-10.6693
▁decorat	-10.6693
▁brody	-10.6693
▁cantrow	-10.6693
▁ooo	-10.6693
▁excitement	-10.6693
▁gibb	-10.6693
▁region	-10.6693
▁andrea	-10.6693
▁struck	-10.6693
▁assistance	-10.6693
▁judgment	-10.6693
▁highpi	-10.6693
▁organization	-10.6693
▁alert	-10.6693
▁mambo	-10.6693
▁alfred	-10.6693
▁reject	-10.6694
▁existence	-10.6694
▁species	-10.6694
▁springfield	-10.6694
▁generation	-10.6694
▁basically	-10.6694
▁riot	-10.6694
▁romero	-10.6694
▁adjust	-10.6694
▁sharkboy	-10.6694
▁gunshot	-10.6694
▁rap	-10.6694
▁privilege	-10.6694
▁satisfied	-10.6694
▁reservation	-10.6694
▁furious	-10.6694
▁lunchbox	-10.6694
▁gunfire	-10.6694
▁poison	-10.6694
▁kong	-10.6694
▁maid	-10.6694
▁meatball	-10.6695
▁passionate	-10.6695
▁backwards	-10.6695
▁chaos	-10.6695
▁squeeze	-10.6695
▁pumpkin	-10.6695
▁fanny	-10.6695
▁performance	-10.6695
▁personnel	-10.6695
▁betray	-10.6695
▁mickey	-10.6696
▁cheerio	-10.6696
▁announcement	-10.6696
▁bucket	-10.6696
▁peak	-10.6696
▁fold	-10.6696
▁religion	-10.6696
▁chuckie	-10.6696
▁swell	-10.6697
▁pippi	-10.6697
▁shelby	-10.6697
▁anger	-10.6697
▁warhead	-10.6698
▁package	-10.6698
▁understanding	-10.6699
▁peaceful	-10.6699
▁formation	-10.6699
▁robin	-10.67
uf	-10.67
▁weakness	-10.67
▁portman	-10.67
▁bien	-10.67
▁racket	-10.67
▁dull	-10.6701
▁technically	-10.6702
bre	-10.6702
▁swat	-10.6702
▁layla	-10.6702
▁hans	-10.6702
▁clattering	-10.6702
▁aware	-10.6703
▁mustache	-10.6703
▁cameron	-10.6703
▁johnson	-10.6703
▁worthless	-10.6704
▁emily	-10.6704
▁strategy	-10.6705
▁reno	-10.6705
▁hindu	-10.6705
▁compared	-10.6706
▁quitting	-10.6706
▁bedtime	-10.6706
▁daylight	-10.6707
▁stealth	-10.6708
▁raw	-10.6708
▁grouchy	-10.671
▁link	-10.6712
▁layers	-10.6713
▁sonny	-10.6713
▁dose	-10.6713
▁liz	-10.6714
▁manager	-10.6714
▁divided	-10.6716
▁coop	-10.6716
▁sang	-10.6716
▁hose	-10.6717
▁billion	-10.6717
▁worm	-10.6719
▁shipment	-10.672
▁cole	-10.6725
▁buckle	-10.6727
▁bout	-10.6727
ford	-10.673
▁walks	-10.6731
▁deepest	-10.6732
▁host	-10.6733
▁properly	-10.6734
▁campers	-10.6735
▁q	-10.6735
▁grandmas	-10.6743
▁drum	-10.6748
▁divorced	-10.6748
▁parties	-10.6748
▁cro	-10.6749
▁perfection	-10.675
▁lend	-10.675
▁granted	-10.6754
▁managed	-10.6757
▁fal	-10.6762
▁rage	-10.6763
▁scraps	-10.6765
▁cakes	-10.6775
▁ringo	-10.6786
▁aid	-10.6789
▁kab	-10.6798
▁buster	-10.6803
▁cheated	-10.6803
▁delivery	-10.6804
▁pete	-10.6804
az	-10.6806
▁focused	-10.6808
zy	-10.6825
▁safer	-10.6827
▁figures	-10.6829
▁agents	-10.6829
▁zap	-10.6829
▁disable	-10.6838
▁rd	-10.6848
▁squirrels	-10.6856
▁core	-10.6865
▁charged	-10.6865
▁exclaims	-10.6877
▁customers	-10.6878
▁entering	-10.6878
▁hump	-10.6898
onic	-10.6904
▁anti	-10.6905
▁greeks	-10.691
▁banker	-10.6916
▁timeout	-10.692
▁bananas	-10.6933
▁visiting	-10.6933
▁drums	-10.6948
▁grounded	-10.6948
▁wears	-10.6962
▁barks	-10.6963
▁positions	-10.6965
▁leon	-10.6987
▁los	-10.6997
▁writer	-10.7003
▁ob	-10.7006
▁bombs	-10.7011
▁dar	-10.7016
gle	-10.703
▁kin	-10.7062
▁bun	-10.7062
but	-10.7065
ix	-10.7075
▁issues	-10.7075
▁vic	-10.7085
▁mat	-10.709
▁temper	-10.7092
▁sings	-10.7093
▁bomber	-10.7094
my	-10.7095
▁stones	-10.7102
▁sting	-10.7103
▁der	-10.7103
▁chu	-10.7112
▁traditional	-10.7112
▁masterbuilders	-10.7133
▁plates	-10.7133
▁sins	-10.7145
▁services	-10.715
ium	-10.7152
▁ty	-10.7154
▁tro	-10.716
iness	-10.7163
he	-10.718
▁dip	-10.7182
▁tw	-10.7195
ray	-10.7217
▁slaves	-10.7219
▁prob	-10.7239
▁clouds	-10.7242
▁damned	-10.7251
▁gu	-10.7254
▁shi	-10.7257
▁roses	-10.7272
▁savings	-10.7277
ically	-10.7278
▁tin	-10.7294
kins	-10.7299
▁propose	-10.7303
▁shares	-10.7351
▁cleared	-10.7369
zer	-10.7389
▁coaching	-10.7398
▁dep	-10.7401
▁suits	-10.741
▁deserves	-10.7454
▁remains	-10.7465
oni	-10.7468
itt	-10.7472
▁wr	-10.7474
▁tanks	-10.7482
ries	-10.7486
▁gi	-10.7494
▁dreamed	-10.7535
▁stare	-10.7537
▁when	-10.7538
▁banana	-10.7542
▁brake	-10.7548
▁vin	-10.7562
gin	-10.7567
are	-10.7571
▁sk	-10.7581
istic	-10.7581
tched	-10.7584
ister	-10.759
▁prayer	-10.7598
▁nan	-10.7606
▁sant	-10.7625
ink	-10.7631
like	-10.7655
tal	-10.766
▁costs	-10.7662
▁rob	-10.7662
clear	-10.7674
eval	-10.7686
hold	-10.7695
yard	-10.7716
ets	-10.7723
▁tick	-10.7726
▁sho	-10.7728
▁photograph	-10.7729
▁lailailailai	-10.776
▁invest	-10.7761
▁crow	-10.7764
▁download	-10.7765
▁clo	-10.7765
nel	-10.7765
▁goose	-10.7769
▁separate	-10.7776
born	-10.7777
place	-10.7777
▁wil	-10.7778
cliff	-10.7779
▁tastes	-10.7779
fire	-10.7782
▁sudden	-10.7789
bound	-10.7793
well	-10.7795
stone	-10.7796
▁exam	-10.7797
tail	-10.7798
▁rag	-10.7798
▁assign	-10.7802
▁stew	-10.7802
▁journal	-10.7802
▁gorge	-10.7803
▁brace	-10.7803
▁multi	-10.7804
▁defence	-10.7804
▁resource	-10.7804
▁absurd	-10.7804
▁allergic	-10.7804
▁amateur	-10.7804
▁anniversary	-10.7804
▁appetite	-10.7804
▁april	-10.7804
▁arriving	-10.7804
▁beautifui	-10.7804
▁belmont	-10.7804
▁berlin	-10.7804
▁bermuda	-10.7804
▁boomerang	-10.7804
▁brandnew	-10.7804
▁breast	-10.7804
▁capacity	-10.7804
▁celebrating	-10.7804
▁clacktiel	-10.7804
▁comrade	-10.7804
▁coronation	-10.7804
▁cramp	-10.7804
▁cupcake	-10.7804
▁dozen	-10.7804
▁dynamite	-10.7804
▁eberhart	-10.7804
▁eliminate	-10.7804
▁explosiveskull	-10.7804
▁geneva	-10.7804
▁gracias	-10.7804
▁gracious	-10.7804
▁granddaughter	-10.7804
▁griffen	-10.7804
▁grimsdyke	-10.7804
▁guenevere	-10.7804
▁hawaii	-10.7804
▁hungarian	-10.7804
▁incandesto	-10.7804
▁institute	-10.7804
▁invade	-10.7804
▁ipod	-10.7804
▁isiand	-10.7804
▁jimothy	-10.7804
▁kansas	-10.7804
▁luggage	-10.7804
▁mackenzie	-10.7804
▁maintain	-10.7804
▁medicine	-10.7804
▁minnesota	-10.7804
▁motorcycle	-10.7804
▁nantucket	-10.7804
▁nephew	-10.7804
▁nickname	-10.7804
▁nikki	-10.7804
▁oliver	-10.7804
▁opponent	-10.7804
▁opportunities	-10.7804
▁pamela	-10.7804
▁pancake	-10.7804
▁pistol	-10.7804
▁portugal	-10.7804
▁portuguese	-10.7804
▁practicing	-10.7804
▁profile	-10.7804
▁reckless	-10.7804
▁reckon	-10.7804
▁reunion	-10.7804
▁rhyme	-10.7804
▁ricardo	-10.7804
▁rodrigo	-10.7804
▁slayers	-10.7804
▁society	-10.7804
▁souvenir	-10.7804
▁stupendous	-10.7804
▁sullivan	-10.7804
▁survival	-10.7804
▁tatianna	-10.7804
▁teammates	-10.7804
▁temple	-10.7804
▁theatre	-10.7804
▁welfare	-10.7804
▁yaeko	-10.7804
▁yield	-10.7804
▁bluenote	-10.7804
▁cheek	-10.7804
▁constant	-10.7804
▁corral	-10.7804
▁dogpile	-10.7804
▁garner	-10.7804
▁heip	-10.7804
▁hush	-10.7804
▁lifeboat	-10.7804
▁lounge	-10.7804
▁mamaji	-10.7804
▁munion	-10.7804
▁polish	-10.7804
▁whimpers	-10.7804
▁irene	-10.7804
▁muff	-10.7804
▁otter	-10.7804
▁regard	-10.7804
▁spear	-10.7804
▁spindle	-10.7804
▁stith	-10.7804
▁threatened	-10.7804
▁diaper	-10.7804
▁evolv	-10.7804
▁hippo	-10.7804
▁puff	-10.7804
▁jolly	-10.7804
▁roam	-10.7804
▁embrace	-10.7804
▁slice	-10.7804
▁fuck	-10.7804
▁illusion	-10.7804
▁felix	-10.7804
▁forfeit	-10.7804
▁susan	-10.7804
▁oops	-10.7804
▁quote	-10.7804
▁continent	-10.7804
▁arrival	-10.7804
▁communication	-10.7804
▁beans	-10.7804
▁robinson	-10.7804
▁spider	-10.7804
▁item	-10.7805
ville	-10.7805
▁leaf	-10.7805
▁colour	-10.7805
▁sheep	-10.7805
▁vicious	-10.7805
▁obey	-10.7805
▁bind	-10.7805
▁jewelry	-10.7805
▁moose	-10.7805
▁inspiration	-10.7805
▁chore	-10.7805
▁stiff	-10.7805
▁greetings	-10.7805
▁gravity	-10.7805
▁pony	-10.7805
▁popular	-10.7805
▁chump	-10.7805
▁digging	-10.7806
▁saddle	-10.7806
▁grey	-10.7806
▁crick	-10.7806
▁logical	-10.7806
▁carolina	-10.7806
▁chute	-10.7806
▁critical	-10.7806
▁incoming	-10.7807
▁surf	-10.7807
▁scatter	-10.7807
▁entertainment	-10.7807
▁youth	-10.7807
▁drama	-10.7807
▁coleman	-10.7807
▁kath	-10.7808
▁unlike	-10.7808
▁oooh	-10.7808
▁freshmen	-10.7808
▁modest	-10.7808
▁skirt	-10.7808
▁executed	-10.7809
▁wax	-10.7809
▁messina	-10.7809
▁temporary	-10.7809
▁harmless	-10.781
▁sacred	-10.781
▁jake	-10.781
▁ramon	-10.781
▁spill	-10.7811
▁petty	-10.7811
▁philosophy	-10.7811
▁suggestion	-10.7812
▁taki	-10.7812
▁gail	-10.7812
▁troll	-10.7813
▁ego	-10.7814
▁selfish	-10.7814
▁relieved	-10.7815
▁possessed	-10.7815
▁palmer	-10.7815
▁mansion	-10.7816
▁domino	-10.7817
▁caf	-10.7817
▁bail	-10.7817
▁shatter	-10.7817
▁recovery	-10.7817
▁kneel	-10.7818
▁michaelson	-10.7818
▁chica	-10.7819
▁related	-10.782
▁robbed	-10.782
▁fluffy	-10.782
▁breakdown	-10.7821
▁tries	-10.7822
▁overman	-10.7822
▁bunk	-10.7825
▁triple	-10.7827
▁pole	-10.7827
▁musician	-10.7828
▁brat	-10.783
away	-10.7832
▁curly	-10.7832
▁polly	-10.7832
▁abandoned	-10.7833
▁shallow	-10.7835
▁iet	-10.7835
▁campus	-10.7836
▁acky	-10.7839
▁dreadful	-10.7839
▁complaint	-10.784
▁haha	-10.784
▁replaced	-10.784
▁ancestors	-10.7852
▁refused	-10.7853
▁pickup	-10.7855
▁matches	-10.7857
coming	-10.7857
▁mio	-10.7857
▁tent	-10.7857
▁pm	-10.7858
lailai	-10.7859
▁bot	-10.786
▁prop	-10.786
▁tor	-10.7863
▁pest	-10.7866
▁bleeding	-10.7868
▁lighten	-10.7871
▁janet	-10.7873
▁lawn	-10.7874
▁lane	-10.7874
▁twink	-10.7875
▁fil	-10.7878
▁crawling	-10.7881
▁calculate	-10.7882
▁explosives	-10.7883
▁donuts	-10.7883
▁stud	-10.7886
▁status	-10.7891
▁prey	-10.7893
▁cursed	-10.7897
▁lee	-10.7899
▁switched	-10.7906
▁smarter	-10.7909
▁vegetables	-10.7915
▁waponis	-10.7915
▁toots	-10.7915
▁manners	-10.7915
▁debts	-10.7916
▁erica	-10.7916
▁reminded	-10.7918
▁blocks	-10.7919
▁rub	-10.7919
▁idiots	-10.792
▁learnt	-10.7926
▁anton	-10.7927
▁athlete	-10.7927
▁admir	-10.793
▁suite	-10.793
▁tore	-10.7934
▁ln	-10.7938
▁entered	-10.7944
▁sheets	-10.7947
▁deeper	-10.7957
that	-10.7963
▁domin	-10.7966
▁awaits	-10.7979
ail	-10.7979
▁tun	-10.7997
▁coin	-10.8
▁mikey	-10.8004
▁finest	-10.8008
▁pope	-10.8012
▁mis	-10.8015
▁marked	-10.8017
▁imagined	-10.8017
▁gotcha	-10.8029
mal	-10.8034
vital	-10.8037
▁metaphors	-10.8042
▁tut	-10.8058
stair	-10.8078
▁hun	-10.8093
▁wit	-10.8097
▁disguise	-10.8099
▁groves	-10.8103
ummy	-10.8109
▁adults	-10.8138
▁nerves	-10.8138
▁shadows	-10.8138
▁pills	-10.8138
▁rebel	-10.8143
▁birdie	-10.8146
amore	-10.8149
▁rocking	-10.8153
▁recording	-10.8155
▁honored	-10.816
▁nails	-10.8207
was	-10.8228
▁ybia	-10.8249
▁snapp	-10.8262
▁chains	-10.8267
▁enjoying	-10.8278
▁reporters	-10.83
▁smurfy	-10.83
▁om	-10.8303
▁lookin	-10.8309
ggle	-10.8325
▁laws	-10.8326
▁durbervilles	-10.8332
▁pumps	-10.8365
▁caves	-10.8365
esy	-10.8376
▁pos	-10.8377
▁joining	-10.84
ffe	-10.84
▁thinkin	-10.8405
▁cru	-10.8407
▁ir	-10.8427
▁eagles	-10.843
▁sig	-10.8444
▁gar	-10.8447
▁ads	-10.8451
▁bullets	-10.8457
▁tur	-10.8463
▁strap	-10.8471
▁signing	-10.8494
lake	-10.8512
▁kissing	-10.8543
▁lover	-10.8549
▁et	-10.8568
ett	-10.8573
▁workers	-10.858
▁ach	-10.8581
▁kn	-10.8654
▁batt	-10.8657
▁abb	-10.8681
▁strangers	-10.8711
▁ravi	-10.8727
made	-10.8743
year	-10.8758
▁lessons	-10.8761
ench	-10.8767
eep	-10.8778
▁mut	-10.878
▁cr	-10.8784
▁compliment	-10.8789
▁possession	-10.879
▁metaphor	-10.8791
▁relative	-10.8794
▁muscle	-10.8796
▁shoo	-10.88
▁degree	-10.88
▁immortal	-10.88
▁skill	-10.8807
▁client	-10.8814
▁forms	-10.8824
ena	-10.8831
▁files	-10.8841
▁lawful	-10.8851
▁farmer	-10.8852
▁chuckle	-10.8859
plica	-10.8864
ties	-10.8883
ket	-10.889
light	-10.8896
▁admire	-10.8906
lain	-10.8914
cation	-10.8919
eye	-10.8931
ft	-10.8938
▁emotion	-10.8952
▁will	-10.8956
▁embarrass	-10.8958
▁notes	-10.8965
▁clearing	-10.8965
▁suff	-10.8976
▁chuck	-10.8994
▁echo	-10.8996
▁beasts	-10.8997
▁annoy	-10.8998
▁shoe	-10.8999
▁pur	-10.9003
rick	-10.9011
▁haunt	-10.9015
▁establish	-10.9016
▁enchant	-10.9016
▁connect	-10.9017
▁wast	-10.9019
ody	-10.902
wood	-10.9024
▁locate	-10.9026
▁involve	-10.9028
bridge	-10.9028
▁explore	-10.9029
bury	-10.9029
human	-10.903
life	-10.903
▁alter	-10.9031
box	-10.9031
jack	-10.9033
hole	-10.9036
▁it	-10.9039
▁holes	-10.904
▁poop	-10.9041
four	-10.9044
▁torpedo	-10.9047
▁harmon	-10.9047
▁cosm	-10.9047
▁soph	-10.9048
▁fright	-10.9048
▁detect	-10.9049
▁unc	-10.905
▁predict	-10.905
▁select	-10.9051
ndians	-10.9052
iar	-10.9052
▁brew	-10.9053
▁occur	-10.9053
▁knuckle	-10.9053
itude	-10.9053
▁intimidat	-10.9054
▁bluff	-10.9054
▁buff	-10.9054
▁disrupt	-10.9054
▁environment	-10.9054
▁instrument	-10.9054
▁japan	-10.9054
▁publish	-10.9054
▁similar	-10.9054
▁submar	-10.9054
▁adrian	-10.9054
▁advantage	-10.9054
▁anyhow	-10.9054
▁archbishop	-10.9054
▁arnold	-10.9054
▁aslan	-10.9054
▁atmosphere	-10.9054
▁audible	-10.9054
▁august	-10.9054
▁baptized	-10.9054
▁bathtub	-10.9054
▁bicycle	-10.9054
▁biology	-10.9054
▁boycott	-10.9054
▁brearh	-10.9054
▁certificate	-10.9054
▁circuit	-10.9054
▁committee	-10.9054
▁complex	-10.9054
▁congratulate	-10.9054
▁counselor	-10.9054
▁cyril	-10.9054
▁dallas	-10.9054
▁dedicated	-10.9054
▁despair	-10.9054
▁diggums	-10.9054
▁diploma	-10.9054
▁eventually	-10.9054
▁evergiot	-10.9054
▁expedition	-10.9054
▁extension	-10.9054
▁facility	-10.9054
▁fleekfest	-10.9054
▁gadget	-10.9054
▁grazie	-10.9054
▁hardware	-10.9054
▁heartbeat	-10.9054
▁igrayne	-10.9054
▁ingredient	-10.9054
▁invasion	-10.9054
▁kablowey	-10.9054
▁laundry	-10.9054
▁lengyel	-10.9054
▁lobby	-10.9054
▁macbride	-10.9054
▁maximum	-10.9054
▁merchant	-10.9054
▁minneapolis	-10.9054
▁override	-10.9054
▁pennant	-10.9054
▁perceval	-10.9054
▁perfume	-10.9054
▁poldark	-10.9054
▁presume	-10.9054
▁primitive	-10.9054
▁privacy	-10.9054
▁procedure	-10.9054
▁prototype	-10.9054
▁refrigerator	-10.9054
▁reign	-10.9054
▁savage	-10.9054
▁sicilian	-10.9054
▁signature	-10.9054
▁sponsor	-10.9054
▁squash	-10.9054
▁succeed	-10.9054
▁suicide	-10.9054
▁suitcase	-10.9054
▁trigger	-10.9054
▁ukata	-10.9054
▁uncomfortable	-10.9054
▁uryens	-10.9054
▁vocalizes	-10.9054
▁waffle	-10.9054
▁wallpaper	-10.9054
▁yeeha	-10.9054
▁armando	-10.9054
▁boogie	-10.9054
▁capella	-10.9054
▁denver	-10.9054
▁evelyn	-10.9054
▁habib	-10.9054
▁howling	-10.9054
▁itaiy	-10.9054
▁kerby	-10.9054
▁niece	-10.9054
▁purchase	-10.9054
▁review	-10.9054
▁snack	-10.9054
▁stroke	-10.9054
▁supply	-10.9054
▁tammy	-10.9054
▁vanilla	-10.9054
▁brooke	-10.9054
▁butterfly	-10.9054
▁describe	-10.9054
▁rattle	-10.9054
▁recall	-10.9054
▁siggy	-10.9054
▁sleepyhead	-10.9054
▁throne	-10.9054
▁buon	-10.9054
▁juicy	-10.9054
▁steel	-10.9054
▁thick	-10.9054
▁trisha	-10.9054
▁arabs	-10.9054
▁sexual	-10.9054
▁stafford	-10.9054
sburg	-10.9054
▁knives	-10.9054
▁cancer	-10.9054
▁eighteen	-10.9054
▁carpet	-10.9054
▁ruoppoio	-10.9054
▁earrings	-10.9054
▁weld	-10.9054
▁dawes	-10.9054
▁straining	-10.9054
▁seduc	-10.9054
▁educate	-10.9054
▁tools	-10.9054
▁mineral	-10.9054
▁ribs	-10.9054
▁ashore	-10.9054
▁fond	-10.9054
▁freezing	-10.9054
▁vibration	-10.9054
▁fraction	-10.9054
▁socks	-10.9054
▁commission	-10.9054
▁dictator	-10.9054
▁salsa	-10.9054
▁pedal	-10.9054
▁circling	-10.9054
▁rumble	-10.9054
▁worries	-10.9054
▁wilson	-10.9054
▁laurence	-10.9054
▁flare	-10.9054
▁wuss	-10.9055
▁creak	-10.9055
▁frail	-10.9055
▁nanny	-10.9055
▁allamerican	-10.9055
▁raft	-10.9055
▁lungs	-10.9055
▁huntington	-10.9055
▁thomas	-10.9055
▁hyper	-10.9055
fianc	-10.9055
▁gamb	-10.9055
▁stacy	-10.9055
▁catholic	-10.9055
▁asshole	-10.9055
▁spacecraft	-10.9056
▁hostage	-10.9056
▁halloween	-10.9056
▁festival	-10.9056
▁sample	-10.9056
▁elise	-10.9056
▁lever	-10.9056
▁hull	-10.9056
▁fiom	-10.9056
▁trend	-10.9056
▁fried	-10.9056
▁oven	-10.9056
▁clinic	-10.9056
▁reaction	-10.9057
▁aggressive	-10.9057
▁improvement	-10.9057
▁acid	-10.9057
▁legendary	-10.9057
▁delia	-10.9057
▁barkis	-10.9057
stein	-10.9057
▁bake	-10.9057
lutz	-10.9057
▁lime	-10.9058
▁accountant	-10.9058
▁consume	-10.9058
▁darren	-10.9059
▁smoking	-10.9059
▁redstone	-10.9059
▁serene	-10.9059
▁thorne	-10.9059
▁humor	-10.9059
▁necktie	-10.906
▁cries	-10.906
▁princeton	-10.9061
▁romeo	-10.9062
▁dino	-10.9062
▁bedell	-10.9062
▁conqueror	-10.9062
▁combine	-10.9062
▁starboard	-10.9063
▁commandant	-10.9063
▁stake	-10.9063
▁inches	-10.9063
▁marcus	-10.9063
▁batteries	-10.9064
▁enid	-10.9064
▁demon	-10.9064
▁handbook	-10.9064
▁sack	-10.9065
▁rifle	-10.9066
▁thom	-10.9066
▁foaly	-10.9066
▁beeper	-10.9067
▁coil	-10.9067
▁treatment	-10.9067
▁permanently	-10.9067
▁weep	-10.9068
▁cure	-10.9069
▁aww	-10.9069
▁sanders	-10.9069
▁qualified	-10.9069
▁dna	-10.907
▁dash	-10.907
▁underestimate	-10.907
rous	-10.907
▁tickle	-10.907
five	-10.907
▁chubb	-10.9071
▁personality	-10.9071
▁morgana	-10.9072
▁rusty	-10.9073
▁recruiting	-10.9073
▁lust	-10.9074
▁canal	-10.9075
▁shovel	-10.9078
▁madness	-10.9078
▁wander	-10.908
▁cathe	-10.9081
▁muttering	-10.9081
▁kiddo	-10.9082
▁peeking	-10.9083
▁caleb	-10.9083
ninth	-10.9084
▁dez	-10.9084
▁apply	-10.9084
▁slug	-10.9085
▁separated	-10.9085
▁narrow	-10.9085
▁dime	-10.9085
▁seventh	-10.9085
▁angeles	-10.9086
▁cargo	-10.9086
▁takin	-10.9087
▁mechanical	-10.9088
▁gaze	-10.9089
▁bern	-10.9091
▁clearance	-10.9094
▁inspired	-10.9095
▁boiling	-10.9097
▁sum	-10.9099
▁sexy	-10.91
▁removed	-10.9103
▁jab	-10.9103
▁madame	-10.9104
▁bumper	-10.9106
▁straighten	-10.9108
▁ditch	-10.9111
▁stinky	-10.9111
▁useful	-10.9113
▁rec	-10.9114
▁creed	-10.9116
▁hopeless	-10.9117
got	-10.9121
▁crank	-10.9123
▁former	-10.9123
teen	-10.9124
▁tender	-10.9129
▁teen	-10.9132
▁tan	-10.9135
▁wired	-10.9137
eight	-10.914
▁thorns	-10.9144
▁kisses	-10.9149
gus	-10.9149
▁hood	-10.9151
▁loudly	-10.9156
▁fastest	-10.9156
▁bou	-10.9166
ati	-10.9168
owned	-10.917
▁sadly	-10.9173
▁gene	-10.9174
▁wrappe	-10.9175
▁cart	-10.9179
▁bella	-10.918
▁cube	-10.918
▁sniffs	-10.9181
▁jacket	-10.9187
▁hooked	-10.9191
▁ci	-10.921
▁missus	-10.921
▁cents	-10.9217
▁mag	-10.9218
▁wasted	-10.9219
▁bel	-10.9222
▁buzzer	-10.923
▁painted	-10.9233
▁jet	-10.9237
▁nows	-10.9244
▁electrical	-10.9247
▁slam	-10.9247
▁bobbin	-10.9248
▁chips	-10.9254
▁crashing	-10.9261
▁praying	-10.9276
▁blocked	-10.9279
▁drugs	-10.9289
▁skie	-10.9296
▁ruining	-10.9299
▁slams	-10.9315
▁clients	-10.9325
▁compliments	-10.9326
▁possessions	-10.9326
▁protected	-10.9333
▁farmers	-10.9338
ode	-10.9343
▁poster	-10.9366
ative	-10.9379
▁vet	-10.9381
onne	-10.9387
▁casey	-10.9407
alta	-10.9408
laze	-10.9408
▁mop	-10.9411
ila	-10.9414
▁wedd	-10.9417
▁encourage	-10.9421
▁pushed	-10.9436
▁var	-10.945
▁bothering	-10.9456
▁cord	-10.9457
▁drawer	-10.9463
▁bee	-10.9467
▁vows	-10.9473
▁dreamer	-10.9489
▁tryin	-10.9497
spect	-10.9498
▁web	-10.9518
▁shove	-10.9536
▁chan	-10.9551
▁pile	-10.9558
▁mutt	-10.9564
▁tri	-10.9595
▁dressing	-10.9605
▁feelin	-10.9613
▁scholarships	-10.9621
ellow	-10.9631
identified	-10.9636
ttie	-10.9657
▁circles	-10.9658
▁cowards	-10.9658
inal	-10.9692
ingham	-10.9695
▁concerns	-10.9698
▁oo	-10.9709
tan	-10.972
▁valleys	-10.9733
▁eise	-10.9746
▁monkeys	-10.9771
▁handy	-10.9777
▁fir	-10.9777
▁keg	-10.9785
▁claims	-10.9795
▁some	-10.9798
▁adventures	-10.98
▁unders	-10.9804
▁hens	-10.9807
▁conversations	-10.9809
hear	-10.9819
▁popp	-10.9825
reen	-10.9834
▁yama	-10.9837
▁devils	-10.9846
▁fee	-10.9847
▁conduct	-10.9848
▁fund	-10.9867
▁inc	-10.9881
▁mushrooms	-10.9884
▁fighters	-10.9887
▁ana	-10.9903
ference	-10.9922
▁demo	-10.9943
lair	-10.995
▁sue	-10.9954
caster	-10.9959
▁propos	-10.9978
uh	-10.9996
▁ag	-11.0015
leg	-11.0025
▁severe	-11.0026
▁compa	-11.0033
▁mel	-11.0036
▁swa	-11.0058
▁mach	-11.0089
rst	-11.0095
▁activate	-11.0112
mill	-11.0128
ification	-11.0132
nesia	-11.0135
▁io	-11.0163
▁exclaim	-11.0164
▁grunt	-11.0176
▁puk	-11.0193
▁pattern	-11.0215
▁habit	-11.0215
▁drug	-11.0217
▁biscuit	-11.0223
▁feather	-11.0225
▁giggle	-11.0228
▁customer	-11.0231
▁blo	-11.0239
▁visitor	-11.024
▁onion	-11.024
▁tire	-11.0263
mag	-11.0266
rett	-11.0271
▁fac	-11.0284
evita	-11.0307
ppy	-11.0312
ethan	-11.033
lum	-11.0333
▁chris	-11.0349
range	-11.0364
▁brag	-11.0376
▁disturb	-11.038
▁gall	-11.0389
nsel	-11.04
night	-11.0406
under	-11.0406
▁instant	-11.0409
here	-11.0415
▁introduc	-11.0417
▁respond	-11.0423
▁figur	-11.043
your	-11.0437
▁rais	-11.0438
▁receive	-11.0441
▁abandon	-11.0444
hey	-11.0448
▁squi	-11.045
▁achieve	-11.0451
▁yah	-11.0455
mind	-11.0456
▁grouch	-11.0457
▁engage	-11.0457
proof	-11.0457
signor	-11.0457
flow	-11.0458
tiqu	-11.0458
breath	-11.0458
kick	-11.0458
▁tripp	-11.046
▁craz	-11.0461
phone	-11.0462
▁hobb	-11.0462
shot	-11.0462
▁permanent	-11.0466
▁rank	-11.0468
▁rome	-11.0476
▁mmmmm	-11.0478
▁fortuna	-11.0479
▁instruct	-11.048
▁depart	-11.048
▁orphan	-11.048
▁lava	-11.0481
▁triumph	-11.0481
▁specific	-11.0481
▁amuse	-11.0481
▁magnet	-11.0482
ologist	-11.0482
▁academy	-11.0482
▁amazed	-11.0482
▁anoint	-11.0482
▁approval	-11.0482
▁argument	-11.0482
▁automated	-11.0482
▁bagumba	-11.0482
▁bartolini	-11.0482
▁beckerstead	-11.0482
▁bellicec	-11.0482
▁benefit	-11.0482
▁bhutan	-11.0482
▁blitz	-11.0482
▁breeze	-11.0482
▁cafeteria	-11.0482
▁cakeeater	-11.0482
▁calendar	-11.0482
▁capital	-11.0482
▁cartridge	-11.0482
▁caviar	-11.0482
▁ceiling	-11.0482
▁centuries	-11.0482
▁certifi	-11.0482
▁cinnamon	-11.0482
▁clerk	-11.0482
▁combination	-11.0482
▁compromise	-11.0482
▁concrete	-11.0482
▁crikey	-11.0482
▁deposit	-11.0482
▁domestic	-11.0482
▁doulton	-11.0482
▁dulock	-11.0482
▁eisenhower	-11.0482
▁evacuate	-11.0482
▁feature	-11.0482
▁flavor	-11.0482
▁fumble	-11.0482
▁geographers	-11.0482
▁geronimo	-11.0482
▁gerwyn	-11.0482
▁greece	-11.0482
▁grifter	-11.0482
▁hallelujah	-11.0482
▁heisman	-11.0482
▁hilarious	-11.0482
▁hydrogen	-11.0482
▁infinity	-11.0482
▁initial	-11.0482
▁investigate	-11.0482
▁irrational	-11.0482
▁ketchup	-11.0482
▁lafleur	-11.0482
▁lewis	-11.0482
▁mcgill	-11.0482
▁medlock	-11.0482
▁minimum	-11.0482
▁mischief	-11.0482
▁narrator	-11.0482
▁negotiate	-11.0482
▁nehamkin	-11.0482
▁nightwatcher	-11.0482
▁ninja	-11.0482
▁omega	-11.0482
▁pencil	-11.0482
▁petachi	-11.0482
▁phrase	-11.0482
▁piscine	-11.0482
▁portokalos	-11.0482
▁possibilities	-11.0482
▁promoted	-11.0482
▁protocol	-11.0482
▁pyramid	-11.0482
▁register	-11.0482
▁reputation	-11.0482
▁retreat	-11.0482
▁revenge	-11.0482
▁roosevelt	-11.0482
▁sasquatch	-11.0482
▁satellite	-11.0482
▁scientific	-11.0482
▁scotland	-11.0482
▁scuba	-11.0482
▁selfdefense	-11.0482
▁semester	-11.0482
▁seymour	-11.0482
▁squeaks	-11.0482
▁sunningdale	-11.0482
▁surveillance	-11.0482
▁suspension	-11.0482
▁thread	-11.0482
▁thunderlips	-11.0482
▁tippytoe	-11.0482
▁tminus	-11.0482
▁tournament	-11.0482
▁tragedy	-11.0482
▁treasury	-11.0482
▁triangle	-11.0482
▁trumpet	-11.0482
▁twirl	-11.0482
▁typewriter	-11.0482
▁undefeated	-11.0482
▁unfair	-11.0482
▁valestra	-11.0482
▁vault	-11.0482
▁vegas	-11.0482
▁voula	-11.0482
▁walkietalkie	-11.0482
▁waltz	-11.0482
▁whereabouts	-11.0482
▁berries	-11.0482
▁bronco	-11.0482
▁cortez	-11.0482
▁cynic	-11.0482
▁farewell	-11.0482
▁gentry	-11.0482
▁multiply	-11.0482
▁popsicle	-11.0482
▁resembl	-11.0482
▁ronnie	-11.0482
▁shotgun	-11.0482
▁solemn	-11.0482
▁tentacle	-11.0482
▁wagon	-11.0482
▁cannon	-11.0482
▁dinky	-11.0482
▁gerald	-11.0482
▁honeypot	-11.0482
▁howre	-11.0482
▁profit	-11.0482
▁razor	-11.0482
▁smack	-11.0482
▁submit	-11.0482
▁unstable	-11.0482
▁yelp	-11.0482
▁moreno	-11.0482
▁plead	-11.0482
▁salino	-11.0482
▁aaah	-11.0482
▁chlle	-11.0482
▁ieave	-11.0482
▁kimono	-11.0482
▁miniatur	-11.0482
▁permit	-11.0482
▁repay	-11.0482
▁oui	-11.0482
▁scandal	-11.0482
▁valentines	-11.0482
▁entry	-11.0482
▁taylor	-11.0482
▁absence	-11.0482
▁salad	-11.0482
▁ankle	-11.0482
▁initiat	-11.0482
▁panicked	-11.0482
▁adios	-11.0482
▁relay	-11.0482
bonjour	-11.0482
▁radical	-11.0482
▁decorations	-11.0482
▁psychiatrist	-11.0482
▁torres	-11.0482
▁historic	-11.0482
▁hottest	-11.0482
▁jelly	-11.0482
▁vanished	-11.0482
▁reply	-11.0482
▁taik	-11.0482
▁adopt	-11.0482
▁upgrade	-11.0482
▁quadrant	-11.0483
▁latin	-11.0483
▁salesman	-11.0483
▁maniac	-11.0483
▁violation	-11.0483
▁breed	-11.0483
▁gillie	-11.0483
▁plastic	-11.0483
▁annihilat	-11.0483
▁commenc	-11.0483
▁electronic	-11.0483
▁veal	-11.0483
▁crab	-11.0483
▁harold	-11.0483
▁automatic	-11.0483
▁chrom	-11.0483
▁hamada	-11.0483
▁castaway	-11.0483
▁minister	-11.0483
▁shaving	-11.0483
▁thomson	-11.0483
▁departure	-11.0483
▁basketboy	-11.0483
▁pepper	-11.0483
▁blink	-11.0483
▁committed	-11.0483
▁cornell	-11.0483
▁crisis	-11.0483
▁shaii	-11.0483
▁depot	-11.0483
▁casa	-11.0483
▁kenny	-11.0483
▁pond	-11.0483
▁spook	-11.0483
▁rustling	-11.0483
▁darby	-11.0484
▁clapping	-11.0484
▁dough	-11.0484
▁lizard	-11.0484
▁online	-11.0484
▁poppop	-11.0484
▁psst	-11.0484
▁slap	-11.0484
▁alva	-11.0484
▁arrow	-11.0484
▁commitment	-11.0484
▁alternative	-11.0484
▁groceries	-11.0484
▁sector	-11.0484
▁burger	-11.0484
▁techno	-11.0484
▁associates	-11.0484
▁series	-11.0484
▁snowball	-11.0484
▁honour	-11.0484
▁slack	-11.0484
▁marble	-11.0484
▁jockey	-11.0484
▁broadway	-11.0484
▁detective	-11.0484
▁reflection	-11.0484
▁amusement	-11.0485
rig	-11.0485
▁diving	-11.0485
▁blend	-11.0485
▁nazis	-11.0485
▁jammed	-11.0485
▁programming	-11.0485
▁combat	-11.0485
▁sentimental	-11.0485
▁harsh	-11.0485
▁invention	-11.0485
▁flock	-11.0485
▁frame	-11.0485
▁oak	-11.0486
▁bugger	-11.0486
▁ammo	-11.0486
▁grid	-11.0486
▁cooperate	-11.0486
▁bracelet	-11.0486
▁factory	-11.0487
▁label	-11.0487
▁aft	-11.0487
▁inhales	-11.0487
▁overboard	-11.0487
▁humble	-11.0487
▁glue	-11.0487
▁void	-11.0488
▁debut	-11.0488
▁allah	-11.0488
▁elway	-11.0488
▁branches	-11.0488
▁firewood	-11.0488
▁yyou	-11.0488
▁assuming	-11.0488
▁blob	-11.0488
▁furry	-11.0488
▁objective	-11.0489
▁claus	-11.0489
▁benny	-11.0489
▁moran	-11.0489
cut	-11.049
▁damp	-11.049
▁indoor	-11.049
uki	-11.049
▁cooperation	-11.049
▁pep	-11.0491
▁utterly	-11.0491
▁surprisingly	-11.0491
scope	-11.0491
▁attracted	-11.0491
▁caveman	-11.0492
▁screeches	-11.0492
▁script	-11.0492
▁stream	-11.0492
▁recon	-11.0493
▁beau	-11.0493
▁cock	-11.0493
▁countdown	-11.0493
▁moron	-11.0494
▁sneakers	-11.0495
▁monk	-11.0495
▁rex	-11.0495
▁comic	-11.0496
▁dame	-11.0497
▁ramp	-11.0497
▁dug	-11.0497
▁cloth	-11.0497
▁williamson	-11.0498
▁cress	-11.0499
▁chess	-11.0499
▁taft	-11.05
▁slimy	-11.05
▁berg	-11.0501
▁ames	-11.0501
▁driveway	-11.0503
▁dating	-11.0503
▁installed	-11.0503
▁iot	-11.0504
▁coverage	-11.0504
▁backpack	-11.0504
▁hoid	-11.0504
▁fulltime	-11.0505
▁min	-11.0506
demn	-11.0507
▁mayday	-11.051
ritz	-11.051
▁rape	-11.051
▁recovered	-11.0511
▁tucker	-11.0511
▁oof	-11.0511
▁mule	-11.0514
▁chant	-11.0515
▁turd	-11.0516
▁xl	-11.0517
▁cutting	-11.0517
▁gel	-11.0521
▁graduated	-11.0523
▁advanced	-11.0523
▁organized	-11.0523
▁receiver	-11.0524
▁unite	-11.0525
▁whoop	-11.0525
▁producer	-11.0527
▁connected	-11.0528
▁eve	-11.0532
▁downloaded	-11.0534
▁officially	-11.0537
port	-11.0539
▁lailailai	-11.0539
▁backyard	-11.0542
▁takeover	-11.0543
▁correctly	-11.0547
▁chased	-11.0551
▁limited	-11.0552
▁defeated	-11.0552
▁insulted	-11.0552
▁sunk	-11.0558
▁pissed	-11.0558
▁cabe	-11.0562
▁informed	-11.0564
▁developed	-11.0564
▁foundation	-11.0567
▁pipp	-11.057
ify	-11.0571
▁gil	-11.0572
▁wolfe	-11.0574
▁mounted	-11.0576
▁mistaken	-11.0577
▁businessman	-11.0584
▁convention	-11.0588
▁earned	-11.0596
▁mea	-11.06
lets	-11.0601
most	-11.0601
rain	-11.0601
▁fli	-11.0604
▁import	-11.0604
▁studying	-11.0604
▁mace	-11.0607
▁requested	-11.0607
▁shocked	-11.0607
▁creat	-11.0613
▁nervously	-11.0614
▁closest	-11.062
▁gathered	-11.0625
▁punched	-11.0625
▁sucked	-11.0625
▁curtains	-11.063
▁marshmallows	-11.063
▁pounding	-11.0635
▁addressed	-11.0637
▁bent	-11.0637
▁jazzing	-11.0659
▁tricky	-11.067
▁heed	-11.067
▁slower	-11.0677
▁murdered	-11.0679
▁untie	-11.0679
▁carries	-11.0684
▁continued	-11.0686
▁declare	-11.0689
▁tougher	-11.0712
▁shorter	-11.0714
▁instincts	-11.0714
▁amor	-11.0716
▁pian	-11.0726
rival	-11.0736
▁pea	-11.074
▁considering	-11.0741
▁trac	-11.0743
▁joker	-11.0745
▁maxie	-11.0746
unc	-11.0748
▁climbing	-11.0751
▁realm	-11.0754
▁ger	-11.0755
▁feathers	-11.0757
▁habits	-11.0757
▁patterns	-11.0757
▁visitors	-11.076
▁bonding	-11.0769
ifyou	-11.0775
▁qualif	-11.0786
▁packing	-11.0789
▁coaches	-11.0791
▁bitching	-11.0823
▁whi	-11.083
▁appli	-11.0841
bber	-11.0849
▁goble	-11.0858
▁fore	-11.0866
▁painter	-11.0877
▁lightly	-11.0879
▁experiments	-11.0885
▁gloves	-11.0885
▁lb	-11.0901
▁ohhh	-11.0923
aisie	-11.0945
urf	-11.1001
▁ut	-11.1047
▁ohio	-11.1084
▁prom	-11.1116
erlock	-11.1132
▁rode	-11.1147
cci	-11.1168
▁kno	-11.1226
oof	-11.1263
ised	-11.1263
pol	-11.1379
eating	-11.138
▁gro	-11.1431
▁bb	-11.1461
▁zi	-11.1469
▁unto	-11.1487
▁chime	-11.149
▁flick	-11.1505
▁volt	-11.1506
ache	-11.1516
▁arch	-11.1519
▁mega	-11.1547
cap	-11.159
hound	-11.1598
▁collapse	-11.1681
▁yeti	-11.1722
▁pom	-11.1802
▁await	-11.1825
▁beep	-11.1837
shes	-11.1849
dog	-11.1849
▁shipp	-11.186
▁chip	-11.1874
▁instinct	-11.1881
▁folk	-11.1913
▁sel	-11.1939
▁unti	-11.1947
▁prisoner	-11.1947
▁if	-11.1949
igma	-11.1956
▁bore	-11.1965
▁grav	-11.1971
▁boil	-11.2027
handed	-11.2074
▁groov	-11.2081
▁discover	-11.2086
▁inspir	-11.2091
▁impress	-11.2107
▁invent	-11.2108
▁punish	-11.2108
▁crook	-11.211
▁surround	-11.211
▁expos	-11.2112
▁approve	-11.2122
▁fluff	-11.2124
mission	-11.2124
shirt	-11.2125
standing	-11.2125
▁archi	-11.2125
▁convince	-11.2127
capable	-11.2129
unchar	-11.213
ified	-11.2131
linda	-11.2131
suit	-11.2131
seven	-11.2133
▁blond	-11.2133
▁technical	-11.2133
▁comput	-11.2133
▁rust	-11.2134
▁restore	-11.2136
▁livin	-11.2143
▁movin	-11.2143
▁branch	-11.2143
▁blank	-11.2144
▁kiddin	-11.2144
struct	-11.2144
rich	-11.2145
ological	-11.2145
▁obsess	-11.2145
▁makin	-11.2146
▁depress	-11.2146
▁confess	-11.2146
▁accelerat	-11.2146
▁urge	-11.2146
▁tempt	-11.2147
▁occup	-11.2148
▁alternat	-11.2148
neck	-11.2148
alalala	-11.2149
▁valenti	-11.2149
▁reassign	-11.2149
▁spoon	-11.2149
▁advertis	-11.2149
▁apprehend	-11.2149
▁chemist	-11.2149
▁distinguish	-11.2149
▁forbid	-11.2149
▁intercept	-11.2149
▁recondition	-11.2149
responsibilities	-11.2149
▁accused	-11.2149
▁adventurous	-11.2149
▁almighty	-11.2149
▁appropriate	-11.2149
▁atlas	-11.2149
▁axehammer	-11.2149
▁babysitter	-11.2149
▁banner	-11.2149
▁bastogne	-11.2149
▁beagle	-11.2149
▁betelgeuse	-11.2149
▁binnacle	-11.2149
▁bouchard	-11.2149
▁brazil	-11.2149
▁bunnies	-11.2149
▁buoy	-11.2149
▁casino	-11.2149
▁caspian	-11.2149
▁catalogue	-11.2149
▁cauldron	-11.2149
▁cease	-11.2149
▁cecilia	-11.2149
▁cemetery	-11.2149
▁cheermeister	-11.2149
▁clique	-11.2149
▁compassion	-11.2149
▁concentration	-11.2149
▁contagious	-11.2149
▁cosimo	-11.2149
▁coughing	-11.2149
▁crunch	-11.2149
▁currency	-11.2149
▁dagmar	-11.2149
▁delilah	-11.2149
▁description	-11.2149
▁dessert	-11.2149
▁destruction	-11.2149
▁disagree	-11.2149
▁dismiss	-11.2149
▁disposal	-11.2149
▁divine	-11.2149
▁elevated	-11.2149
▁employment	-11.2149
▁eustace	-11.2149
▁exotic	-11.2149
▁exploding	-11.2149
▁facilities	-11.2149
▁fresno	-11.2149
▁froyo	-11.2149
▁fruitcake	-11.2149
▁furnace	-11.2149
▁garlic	-11.2149
▁gauntlet	-11.2149
▁graduation	-11.2149
▁gratitude	-11.2149
▁gruber	-11.2149
▁guitar	-11.2149
▁hampton	-11.2149
▁harbor	-11.2149
▁heinlein	-11.2149
▁hiccups	-11.2149
▁higloss	-11.2149
▁hirschorn	-11.2149
▁hoffman	-11.2149
▁homosexual	-11.2149
▁humility	-11.2149
▁hurdle	-11.2149
▁ignorant	-11.2149
▁inappropriate	-11.2149
▁institution	-11.2149
▁investigation	-11.2149
▁kathryn	-11.2149
▁kilometers	-11.2149
▁klonk	-11.2149
▁lasagna	-11.2149
▁latrine	-11.2149
▁lundy	-11.2149
▁memorial	-11.2149
▁mendoza	-11.2149
▁menopause	-11.2149
▁merciful	-11.2149
▁microphone	-11.2149
▁miriam	-11.2149
▁molinari	-11.2149
▁montrose	-11.2149
▁motherinlaw	-11.2149
▁muffinman	-11.2149
▁nicolas	-11.2149
▁nowadays	-11.2149
▁obstacle	-11.2149
▁offensive	-11.2149
▁omelet	-11.2149
▁oppressor	-11.2149
▁osborne	-11.2149
▁pebbles	-11.2149
▁pegasus	-11.2149
▁perimeter	-11.2149
▁perpetual	-11.2149
▁popcorn	-11.2149
▁prettypretty	-11.2149
▁principle	-11.2149
▁quarrel	-11.2149
▁rajeev	-11.2149
▁rebuil	-11.2149
▁regain	-11.2149
▁rescuing	-11.2149
▁rewbell	-11.2149
▁saudi	-11.2149
▁sausage	-11.2149
▁sensation	-11.2149
▁snorts	-11.2149
▁spectacular	-11.2149
▁stella	-11.2149
▁steuby	-11.2149
▁sympath	-11.2149
▁tatiana	-11.2149
▁telescope	-11.2149
▁thorough	-11.2149
▁thudding	-11.2149
▁tiffany	-11.2149
▁toshio	-11.2149
▁touganda	-11.2149
▁trading	-11.2149
▁tuppence	-11.2149
▁tuscan	-11.2149
▁twentytwo	-11.2149
▁umbrella	-11.2149
▁underpants	-11.2149
▁vatsnik	-11.2149
▁vietnam	-11.2149
▁wardrobe	-11.2149
▁wealth	-11.2149
▁werewolf	-11.2149
▁wolffstein	-11.2149
▁yeahbsolutely	-11.2149
▁bookstore	-11.2149
▁boolah	-11.2149
▁chevy	-11.2149
▁consequences	-11.2149
▁doodoo	-11.2149
▁elected	-11.2149
▁extend	-11.2149
▁femaie	-11.2149
▁frederick	-11.2149
▁galleon	-11.2149
▁holiness	-11.2149
▁identify	-11.2149
▁instance	-11.2149
▁julianna	-11.2149
▁latitude	-11.2149
▁morehead	-11.2149
▁ncaa	-11.2149
▁novel	-11.2149
▁squirt	-11.2149
▁summon	-11.2149
▁xander	-11.2149
▁aaron	-11.2149
▁anthea	-11.2149
▁childhood	-11.2149
▁distant	-11.2149
▁error	-11.2149
▁fleming	-11.2149
▁internet	-11.2149
▁legacy	-11.2149
▁memento	-11.2149
▁oath	-11.2149
▁overrated	-11.2149
▁retain	-11.2149
▁scalp	-11.2149
▁drank	-11.2149
▁ethel	-11.2149
▁glitter	-11.2149
▁karen	-11.2149
▁milord	-11.2149
▁polar	-11.2149
▁ponies	-11.2149
▁pronto	-11.2149
▁appeal	-11.2149
▁chancing	-11.2149
▁lodge	-11.2149
▁molecule	-11.2149
▁roommate	-11.2149
▁loony	-11.2149
▁sahib	-11.2149
▁felon	-11.2149
▁godbole	-11.2149
▁hysterical	-11.2149
▁koushik	-11.2149
▁valve	-11.2149
▁attagirl	-11.2149
▁pierce	-11.2149
▁deetz	-11.2149
▁ernest	-11.2149
▁lafa	-11.2149
▁misery	-11.2149
▁relic	-11.2149
▁cpr	-11.2149
▁reilly	-11.2149
▁fisherman	-11.2149
▁gallons	-11.2149
▁robbins	-11.2149
▁civilization	-11.2149
▁italy	-11.2149
▁advis	-11.2149
▁aisle	-11.2149
esteem	-11.2149
▁reveal	-11.2149
▁sincerely	-11.2149
▁beam	-11.2149
▁spinning	-11.2149
▁diane	-11.2149
▁chimney	-11.2149
▁tidy	-11.2149
▁bestowed	-11.2149
▁channel	-11.2149
▁mangia	-11.2149
▁serpentine	-11.2149
▁pudding	-11.2149
▁halt	-11.2149
munition	-11.2149
▁juanita	-11.2149
▁westworld	-11.2149
▁pension	-11.2149
▁resent	-11.2149
▁steer	-11.2149
▁snob	-11.2149
▁notify	-11.2149
▁sorrow	-11.2149
▁randy	-11.2149
▁knucklehead	-11.215
▁falcon	-11.215
▁mistress	-11.215
▁democratic	-11.215
▁brutal	-11.215
▁saks	-11.215
▁shaft	-11.215
▁supernatural	-11.215
▁studied	-11.215
▁bloom	-11.215
▁cartier	-11.215
▁graveyard	-11.215
▁wilmer	-11.215
▁stride	-11.215
▁dizzy	-11.215
▁irrita	-11.215
▁siena	-11.215
▁steed	-11.215
▁specifically	-11.215
▁intention	-11.215
▁transferred	-11.215
▁eject	-11.215
▁random	-11.215
ember	-11.215
▁tux	-11.215
▁upside	-11.215
▁venture	-11.215
▁rations	-11.215
▁hahaha	-11.215
termination	-11.215
▁luis	-11.215
▁senor	-11.215
▁langley	-11.215
▁triumphant	-11.215
▁miller	-11.215
▁regulation	-11.215
▁parole	-11.215
▁simms	-11.2151
▁buts	-11.2151
▁antonio	-11.2151
▁studio	-11.2151
▁conform	-11.2151
▁paperwork	-11.2151
▁temptation	-11.2151
▁exterminator	-11.2151
▁unpack	-11.2151
▁pinned	-11.2151
▁wrist	-11.2151
▁stanley	-11.2151
▁cherish	-11.2151
▁radius	-11.2151
▁stamp	-11.2151
▁beals	-11.2151
▁shamus	-11.2151
▁medium	-11.2151
▁breach	-11.2151
▁buen	-11.2152
▁countess	-11.2152
▁native	-11.2152
▁inspector	-11.2152
▁salary	-11.2152
▁vroom	-11.2152
▁shortcut	-11.2152
▁ergo	-11.2152
▁aspect	-11.2152
▁yacht	-11.2152
▁acceleration	-11.2152
▁jeep	-11.2152
▁variet	-11.2152
▁administrator	-11.2152
▁transportation	-11.2152
▁ayah	-11.2152
▁irish	-11.2153
▁sewers	-11.2153
▁torment	-11.2153
▁heap	-11.2153
▁sharing	-11.2153
▁leadership	-11.2153
▁feedback	-11.2153
▁harness	-11.2153
▁haircut	-11.2153
▁tram	-11.2153
▁parade	-11.2153
▁mason	-11.2154
▁christina	-11.2154
▁spun	-11.2154
▁dope	-11.2154
▁hatred	-11.2154
▁goof	-11.2154
▁heir	-11.2154
▁facemaker	-11.2154
▁riverside	-11.2154
▁meditat	-11.2154
▁development	-11.2155
▁detector	-11.2155
▁gallop	-11.2155
▁quill	-11.2155
▁daily	-11.2155
▁disappointment	-11.2155
▁screwup	-11.2155
iii	-11.2155
▁stripes	-11.2155
▁retirement	-11.2156
▁copper	-11.2156
▁bernie	-11.2156
ternal	-11.2156
▁contest	-11.2156
▁resident	-11.2156
▁councilman	-11.2156
▁injury	-11.2156
▁jj	-11.2156
▁buckman	-11.2156
▁headache	-11.2156
▁oblige	-11.2157
▁overdo	-11.2157
▁bonus	-11.2157
▁southby	-11.2158
▁lightfoot	-11.2158
▁atom	-11.2158
▁torpedoes	-11.2158
▁nursery	-11.2158
▁memo	-11.2158
▁management	-11.2159
guel	-11.2159
▁winwin	-11.2159
▁brass	-11.216
▁overwhelmed	-11.216
▁whore	-11.216
▁kol	-11.2161
▁harv	-11.2161
▁hubba	-11.2161
▁threatening	-11.2161
▁toid	-11.2161
▁ridge	-11.2161
▁curley	-11.2161
▁drift	-11.2161
▁deny	-11.2161
▁econom	-11.2162
▁educational	-11.2162
▁fuss	-11.2162
▁shelter	-11.2162
▁limo	-11.2163
▁mystical	-11.2163
itating	-11.2164
▁notion	-11.2164
cular	-11.2164
▁taxes	-11.2164
▁soar	-11.2165
▁rum	-11.2165
▁cork	-11.2166
▁burst	-11.2166
▁clap	-11.2166
▁media	-11.2166
▁instantly	-11.2168
▁barber	-11.2168
▁tease	-11.2168
▁poker	-11.2169
▁astr	-11.2171
▁hitler	-11.2171
▁quitter	-11.2173
▁andi	-11.2173
▁whoosh	-11.2174
▁relation	-11.2174
▁pimp	-11.2174
▁hup	-11.2175
▁trespassing	-11.2176
▁sip	-11.2177
▁wage	-11.2177
▁switches	-11.2177
▁executioner	-11.2177
▁restored	-11.2177
▁payoff	-11.2178
▁postman	-11.2178
▁forgiveness	-11.2178
▁hydra	-11.2178
▁elf	-11.2179
▁deni	-11.2179
▁armies	-11.2179
▁active	-11.2181
▁retarded	-11.2182
▁tranquiliz	-11.2182
▁zu	-11.2183
▁flown	-11.2183
▁sober	-11.2184
▁clam	-11.2184
slav	-11.2185
▁harmony	-11.2185
▁thia	-11.2186
▁tense	-11.2187
▁located	-11.2187
▁cosmo	-11.2189
▁dart	-11.2191
▁frenchman	-11.2191
▁brownies	-11.2191
▁broadcast	-11.2192
▁gener	-11.2193
▁armor	-11.2194
▁spanking	-11.2198
▁sewing	-11.22
▁cody	-11.2203
▁eighth	-11.2203
▁bucky	-11.2205
▁humanity	-11.2205
▁englishman	-11.2206
▁sally	-11.221
▁iive	-11.2211
▁angelo	-11.2211
headed	-11.2211
▁mild	-11.2212
▁mara	-11.2212
▁repaired	-11.2218
▁larger	-11.2219
▁responding	-11.2219
▁endless	-11.2219
▁passengers	-11.2225
▁mold	-11.2228
▁echoing	-11.223
▁spine	-11.2232
▁collector	-11.2234
▁diseased	-11.2234
▁drawn	-11.2236
▁dresses	-11.2236
▁gown	-11.2236
▁compos	-11.2238
▁ticking	-11.2241
▁qui	-11.2243
▁chopper	-11.2243
martial	-11.2244
▁careless	-11.2246
▁sensei	-11.2248
▁bigtime	-11.2249
form	-11.2253
▁performed	-11.2254
nator	-11.2255
▁charmer	-11.2256
▁virtue	-11.2269
▁gardener	-11.2269
▁ink	-11.2271
orted	-11.2275
▁parenting	-11.2276
▁crushed	-11.2277
▁doe	-11.2278
▁mainly	-11.228
▁rescued	-11.2284
▁pissing	-11.2285
▁deserted	-11.229
▁filming	-11.2296
▁wrecked	-11.2297
▁suggested	-11.2305
▁wink	-11.2306
▁pasta	-11.2308
▁planted	-11.231
▁joint	-11.231
▁dumped	-11.2312
▁omin	-11.2313
ello	-11.2327
▁suffered	-11.2334
▁attended	-11.2334
▁crushing	-11.2339
▁drivein	-11.234
mature	-11.2341
▁crashed	-11.2343
hro	-11.2354
▁experienced	-11.2357
▁ofyou	-11.237
pac	-11.2375
tible	-11.2379
▁bitey	-11.239
aaa	-11.2391
▁failing	-11.2394
▁swam	-11.2394
▁caper	-11.2396
▁sucking	-11.2404
▁pam	-11.2411
▁okie	-11.242
▁conditioning	-11.2431
ettle	-11.2438
▁appa	-11.2438
▁nipp	-11.2446
▁rushing	-11.2458
▁deci	-11.2473
▁fortunate	-11.2475
▁cooked	-11.25
▁sai	-11.2502
▁lik	-11.2508
▁now	-11.2511
dding	-11.2539
▁dub	-11.2541
▁quicker	-11.2542
▁solo	-11.2548
▁dealer	-11.2569
▁boxer	-11.2594
activated	-11.2606
scent	-11.2631
ibi	-11.2634
▁indo	-11.2642
zel	-11.266
iate	-11.2686
▁alli	-11.2686
pel	-11.27
ammed	-11.2708
▁strip	-11.2723
▁chuc	-11.2737
tus	-11.2749
▁interfere	-11.2752
▁swis	-11.28
▁spontan	-11.2803
▁lam	-11.2876
▁scramble	-11.2877
▁vari	-11.2882
▁sanit	-11.2896
▁sew	-11.2899
oodle	-11.2899
cho	-11.2918
ional	-11.2935
▁hamst	-11.2941
▁stab	-11.2978
cra	-11.2999
▁chatt	-11.3041
▁organize	-11.3047
▁tub	-11.3062
▁eu	-11.3086
get	-11.3105
raving	-11.3171
▁marv	-11.3179
▁wav	-11.3183
▁rehearse	-11.319
eau	-11.3196
ash	-11.3227
oyalty	-11.3249
craft	-11.3273
dore	-11.3273
hank	-11.3306
▁measur	-11.3366
tious	-11.3384
wnd	-11.3405
▁cher	-11.3412
iro	-11.3419
▁ripp	-11.3448
viva	-11.3457
elope	-11.3471
based	-11.3484
dated	-11.3504
aturi	-11.3504
than	-11.3565
▁riches	-11.3573
▁gravel	-11.3584
▁hom	-11.3596
gent	-11.3617
ight	-11.3657
▁moo	-11.3658
ability	-11.3667
▁clin	-11.375
▁mole	-11.378
▁sham	-11.3808
ewer	-11.3865
▁brig	-11.3871
▁cent	-11.3878
▁sheet	-11.389
▁jewel	-11.3899
▁claw	-11.39
vous	-11.3921
mond	-11.3923
▁carrie	-11.393
kung	-11.3946
uve	-11.3949
▁hoop	-11.3958
▁bobbi	-11.3958
▁nip	-11.3966
▁invisi	-11.3974
▁pun	-11.3984
▁virtu	-11.4006
liable	-11.4022
berg	-11.4031
maker	-11.4071
dom	-11.4077
▁recover	-11.4085
▁emma	-11.4086
▁wak	-11.4088
▁continu	-11.4089
▁vomit	-11.4089
▁spank	-11.409
▁retard	-11.4109
▁wail	-11.4111
▁attach	-11.4111
erdy	-11.4114
piece	-11.412
decker	-11.4123
burn	-11.4123
qualified	-11.4123
turn	-11.4124
worthy	-11.4124
birth	-11.4124
▁strateg	-11.4124
ground	-11.4124
fashion	-11.4124
wheel	-11.4125
correct	-11.4125
water	-11.4125
eased	-11.4125
normal	-11.4125
giving	-11.4125
wife	-11.4125
yeah	-11.4126
white	-11.4127
▁rubb	-11.4128
▁compare	-11.4128
▁slim	-11.4128
bug	-11.4128
pecul	-11.4129
know	-11.4129
▁custom	-11.4129
wall	-11.4129
chair	-11.413
storm	-11.4131
▁divide	-11.4131
pick	-11.4134
▁apparent	-11.4134
▁thund	-11.4134
wire	-11.4135
▁froze	-11.4139
▁trait	-11.4142
▁obli	-11.4143
▁norma	-11.4143
▁doom	-11.4145
eady	-11.4145
▁commit	-11.4145
▁author	-11.4145
▁reflect	-11.4146
order	-11.4146
▁tempora	-11.4147
▁transform	-11.4147
▁salva	-11.4147
▁virgin	-11.4147
▁gregor	-11.4148
▁construct	-11.4148
▁electro	-11.4148
▁adel	-11.4148
▁atta	-11.4148
▁casual	-11.4149
▁scram	-11.4149
▁microscop	-11.4149
angeli	-11.4149
▁giddy	-11.4149
▁indulge	-11.4149
accurate	-11.4149
proximate	-11.4149
saurus	-11.4149
▁abducted	-11.4149
▁acquired	-11.4149
▁airplane	-11.4149
▁alligator	-11.4149
▁allotment	-11.4149
▁amelia	-11.4149
▁andonandonandon	-11.4149
▁anonymous	-11.4149
▁apologies	-11.4149
▁apprentice	-11.4149
▁architect	-11.4149
▁assassin	-11.4149
▁atami	-11.4149
▁australia	-11.4149
▁avanri	-11.4149
▁bacteria	-11.4149
▁banquet	-11.4149
▁barbecue	-11.4149
▁beefsteak	-11.4149
▁bernhardt	-11.4149
▁briefcase	-11.4149
▁bronski	-11.4149
▁burrito	-11.4149
▁butler	-11.4149
▁canaveral	-11.4149
▁capitol	-11.4149
▁catalyst	-11.4149
▁cautious	-11.4149
▁clunk	-11.4149
▁collision	-11.4149
▁cologne	-11.4149
▁compartment	-11.4149
▁competitive	-11.4149
▁conclude	-11.4149
▁conspiracy	-11.4149
▁contrary	-11.4149
▁contribution	-11.4149
▁cornelius	-11.4149
▁corrupt	-11.4149
▁cottage	-11.4149
▁croissant	-11.4149
▁custody	-11.4149
▁deactivate	-11.4149
▁detroit	-11.4149
▁dialogue	-11.4149
▁dimension	-11.4149
▁dioxide	-11.4149
▁dolores	-11.4149
▁duncan	-11.4149
▁dylan	-11.4149
▁einstein	-11.4149
▁eleanor	-11.4149
▁elmira	-11.4149
▁elusive	-11.4149
▁embezzl	-11.4149
▁emerald	-11.4149
▁enlighten	-11.4149
▁episode	-11.4149
▁equation	-11.4149
▁exborneo	-11.4149
▁exclusive	-11.4149
▁executors	-11.4149
▁exterior	-11.4149
▁figaro	-11.4149
▁fitzroyce	-11.4149
▁formidable	-11.4149
▁fountain	-11.4149
▁friction	-11.4149
▁gaffney	-11.4149
▁gauol	-11.4149
▁geometry	-11.4149
▁georgia	-11.4149
▁giorno	-11.4149
▁globe	-11.4149
▁goblin	-11.4149
▁grandparents	-11.4149
▁grushenko	-11.4149
▁guarani	-11.4149
▁gyps	-11.4149
▁harriet	-11.4149
▁hasbeen	-11.4149
▁hashtag	-11.4149
▁humiliate	-11.4149
▁humiliating	-11.4149
▁hurricane	-11.4149
▁imagining	-11.4149
▁inbedkov	-11.4149
▁inferna	-11.4149
▁infiltrate	-11.4149
▁infinite	-11.4149
▁intrusion	-11.4149
▁inviting	-11.4149
▁jacob	-11.4149
▁jefferson	-11.4149
▁jerome	-11.4149
▁juvenile	-11.4149
▁laboratory	-11.4149
▁landscape	-11.4149
▁larocca	-11.4149
▁liquid	-11.4149
▁liquor	-11.4149
▁lollipop	-11.4149
▁mccann	-11.4149
▁mercenar	-11.4149
▁messenger	-11.4149
▁mexico	-11.4149
▁miradero	-11.4149
▁misselthwaite	-11.4149
▁mittens	-11.4149
▁mordred	-11.4149
▁mortgage	-11.4149
▁moscow	-11.4149
▁moustache	-11.4149
▁myrna	-11.4149
▁mysteries	-11.4149
▁neglect	-11.4149
▁normandy	-11.4149
▁norwegian	-11.4149
▁nuisance	-11.4149
▁olympic	-11.4149
▁orangutan	-11.4149
▁outrageous	-11.4149
▁pabllto	-11.4149
▁parakeet	-11.4149
▁paralyzed	-11.4149
▁paycheck	-11.4149
▁pennsylvania	-11.4149
▁persuade	-11.4149
▁piracy	-11.4149
▁plague	-11.4149
▁plumbers	-11.4149
▁prank	-11.4149
▁preserve	-11.4149
▁prettier	-11.4149
▁prevail	-11.4149
▁preview	-11.4149
▁priority	-11.4149
▁psyched	-11.4149
▁puberty	-11.4149
▁railroad	-11.4149
▁regatta	-11.4149
▁reinstated	-11.4149
▁reminisce	-11.4149
▁remodel	-11.4149
▁reprogram	-11.4149
▁republic	-11.4149
▁requisition	-11.4149
▁restrict	-11.4149
▁revoir	-11.4149
▁ritual	-11.4149
▁saajan	-11.4149
▁salmonella	-11.4149
▁satisfy	-11.4149
▁savor	-11.4149
▁schwedes	-11.4149
▁scooter	-11.4149
▁scotch	-11.4149
▁scrugg	-11.4149
▁seagram	-11.4149
▁shepherd	-11.4149
▁shipshape	-11.4149
▁shuffl	-11.4149
▁shushing	-11.4149
▁slitherpoole	-11.4149
▁sloppy	-11.4149
▁snuck	-11.4149
▁spatters	-11.4149
▁stamina	-11.4149
▁stereo	-11.4149
▁stooge	-11.4149
▁strawberries	-11.4149
▁streak	-11.4149
▁structure	-11.4149
▁stunning	-11.4149
▁suspicious	-11.4149
▁talisman	-11.4149
▁telegram	-11.4149
▁territories	-11.4149
▁therapist	-11.4149
▁thieves	-11.4149
▁thirteen	-11.4149
▁threequarter	-11.4149
▁tissue	-11.4149
▁trulock	-11.4149
▁tumips	-11.4149
▁unauthorized	-11.4149
▁unbeatable	-11.4149
▁unicorn	-11.4149
▁unreasonable	-11.4149
▁unsportsmanlike	-11.4149
▁vaughan	-11.4149
▁velocity	-11.4149
▁vengeance	-11.4149
▁voskovec	-11.4149
▁vulnerable	-11.4149
▁whisrling	-11.4149
▁willoughby	-11.4149
▁yikes	-11.4149
▁accompan	-11.4149
▁applications	-11.4149
▁archaic	-11.4149
▁babysitting	-11.4149
▁colorado	-11.4149
▁companies	-11.4149
▁election	-11.4149
▁employed	-11.4149
▁grief	-11.4149
▁inbetween	-11.4149
▁incisor	-11.4149
▁irregular	-11.4149
▁klaus	-11.4149
▁liberty	-11.4149
▁lindy	-11.4149
▁mimic	-11.4149
▁monument	-11.4149
▁neutral	-11.4149
▁nigel	-11.4149
▁offended	-11.4149
▁outdoor	-11.4149
▁phew	-11.4149
▁postcard	-11.4149
▁raphael	-11.4149
▁rattling	-11.4149
▁reconsider	-11.4149
▁remote	-11.4149
▁slick	-11.4149
▁teenager	-11.4149
▁textronics	-11.4149
▁bullseye	-11.4149
▁coffin	-11.4149
▁congress	-11.4149
▁equi	-11.4149
▁expense	-11.4149
▁firstclass	-11.4149
▁lantern	-11.4149
▁laurel	-11.4149
▁lucian	-11.4149
▁phony	-11.4149
▁polite	-11.4149
▁protein	-11.4149
▁serving	-11.4149
▁session	-11.4149
▁spectre	-11.4149
▁unseen	-11.4149
▁vouch	-11.4149
▁walsh	-11.4149
▁callendar	-11.4149
▁clamoring	-11.4149
▁fraud	-11.4149
▁ieft	-11.4149
▁kidnapping	-11.4149
▁nomad	-11.4149
▁pittsmore	-11.4149
▁robbery	-11.4149
▁rupee	-11.4149
▁uppity	-11.4149
▁kaiser	-11.4149
▁kelp	-11.4149
▁malia	-11.4149
▁motto	-11.4149
▁scorn	-11.4149
▁siege	-11.4149
▁warrant	-11.4149
▁dairy	-11.4149
▁maywho	-11.4149
▁noisy	-11.4149
▁tread	-11.4149
▁canyon	-11.4149
▁envy	-11.4149
▁article	-11.4149
▁blouse	-11.4149
▁merge	-11.4149
abolic	-11.4149
▁aiways	-11.4149
▁canoe	-11.4149
▁civilians	-11.4149
▁gloss	-11.4149
▁piace	-11.4149
▁laddie	-11.4149
▁dragged	-11.4149
▁grapes	-11.4149
▁reassur	-11.4149
▁stove	-11.4149
▁hesitate	-11.4149
▁revolve	-11.4149
▁vokes	-11.4149
▁boosters	-11.4149
▁lavagirl	-11.4149
▁cowabunga	-11.4149
▁cement	-11.4149
▁stylis	-11.4149
▁influence	-11.4149
▁assembl	-11.4149
▁naoko	-11.4149
▁yowl	-11.4149
▁google	-11.4149
▁bugged	-11.4149
▁trauma	-11.4149
▁pepsi	-11.4149
▁iralia	-11.4149
▁greasy	-11.4149
▁whining	-11.4149
▁hick	-11.4149
▁dimitr	-11.4149
game	-11.4149
▁aintree	-11.4149
▁raisins	-11.4149
▁shuttle	-11.4149
luxe	-11.4149
▁dusk	-11.4149
▁convict	-11.4149
▁flirt	-11.4149
▁housing	-11.4149
▁inconvenience	-11.4149
▁mangled	-11.4149
▁greed	-11.4149
▁sculpture	-11.4149
▁bundle	-11.4149
▁rouge	-11.4149
▁iadonai	-11.4149
▁fading	-11.4149
▁funeral	-11.4149
▁jigg	-11.4149
▁asian	-11.4149
▁thirtyfive	-11.4149
▁terminate	-11.415
▁twentyfive	-11.415
▁inhal	-11.415
▁sniffles	-11.415
▁imaginary	-11.415
▁glide	-11.415
▁disrespect	-11.415
▁insure	-11.415
▁karate	-11.415
▁salvation	-11.415
▁cried	-11.415
▁bleep	-11.415
▁stepping	-11.415
▁mammals	-11.415
▁dowag	-11.415
▁textbook	-11.415
▁dispers	-11.415
▁harvey	-11.415
▁gwenna	-11.415
▁hostile	-11.415
▁nanako	-11.415
▁tribe	-11.415
▁lottie	-11.415
▁turton	-11.415
▁spicy	-11.415
▁lemonade	-11.415
▁webber	-11.415
▁arena	-11.4151
▁glaive	-11.4151
uuu	-11.4151
▁seasickness	-11.4151
▁bingo	-11.4151
▁surroundings	-11.4151
▁flex	-11.4151
▁irresponsible	-11.4151
▁sensible	-11.4151
hearted	-11.4151
▁paddle	-11.4151
▁petition	-11.4151
▁slade	-11.4151
▁whack	-11.4151
▁merit	-11.4151
▁whatcha	-11.4151
▁drought	-11.4151
▁giri	-11.4151
▁testify	-11.4151
rinkle	-11.4152
▁wales	-11.4152
▁radi	-11.4152
▁egyptian	-11.4152
▁unleash	-11.4152
▁punishment	-11.4152
▁motivation	-11.4152
▁paffe	-11.4152
▁shona	-11.4152
▁fiction	-11.4152
▁strut	-11.4152
▁edition	-11.4152
▁pinball	-11.4152
▁assess	-11.4152
▁extract	-11.4152
▁ravish	-11.4152
▁spotlight	-11.4152
▁robbers	-11.4152
▁bacon	-11.4152
▁flipped	-11.4152
▁engagement	-11.4152
crib	-11.4152
▁deceive	-11.4152
▁armpit	-11.4152
▁expressway	-11.4153
▁internal	-11.4153
bastia	-11.4153
▁dwell	-11.4153
▁grasp	-11.4153
▁bratz	-11.4153
▁vox	-11.4153
▁embarrassment	-11.4153
▁bummer	-11.4153
▁exactiy	-11.4153
▁henri	-11.4153
▁dork	-11.4153
▁investment	-11.4153
▁tourist	-11.4153
▁hissing	-11.4153
▁squire	-11.4154
▁descent	-11.4154
▁stroll	-11.4154
▁tij	-11.4154
▁mortal	-11.4154
▁stlli	-11.4154
▁stitch	-11.4154
▁melan	-11.4154
▁selection	-11.4154
▁condo	-11.4154
▁maud	-11.4154
▁iq	-11.4155
▁baking	-11.4155
▁conned	-11.4155
▁epic	-11.4155
▁ruth	-11.4155
▁espn	-11.4155
▁scarce	-11.4155
▁patsy	-11.4156
▁thej	-11.4156
▁sara	-11.4156
▁gunther	-11.4156
▁begged	-11.4156
▁vend	-11.4156
▁ferr	-11.4156
▁mmmmmm	-11.4156
▁starfish	-11.4156
▁lockdown	-11.4157
▁finance	-11.4157
▁countries	-11.4157
▁afore	-11.4157
▁nickel	-11.4157
▁column	-11.4157
▁classroom	-11.4158
▁sap	-11.4158
▁happier	-11.4158
▁begun	-11.4158
▁willie	-11.4159
▁priceless	-11.4159
brain	-11.4159
▁adela	-11.4159
▁reep	-11.416
▁tango	-11.416
▁cheerful	-11.416
▁moth	-11.4161
▁consideration	-11.4162
▁resigned	-11.4163
▁dow	-11.4163
▁duh	-11.4163
▁indi	-11.4164
▁sightings	-11.4164
▁wheaties	-11.4164
dabbadoo	-11.4165
▁straw	-11.4165
▁ringside	-11.4165
lico	-11.4165
▁stepped	-11.4165
▁guin	-11.4165
▁omen	-11.4166
▁unhand	-11.4166
▁tutor	-11.4166
▁shant	-11.4166
▁astra	-11.4167
▁bever	-11.4167
▁larson	-11.4167
▁runaway	-11.4167
▁twinkle	-11.4167
▁toll	-11.4167
▁broom	-11.4167
▁patty	-11.4168
▁crest	-11.4169
▁torn	-11.4169
▁justif	-11.417
▁peril	-11.4171
▁fren	-11.4171
▁dice	-11.4172
▁chic	-11.4172
dental	-11.4173
▁hospitality	-11.4173
▁beatles	-11.4173
▁carpathian	-11.4174
▁ahold	-11.4174
▁whim	-11.4174
▁allies	-11.4175
▁accomplished	-11.4175
▁clink	-11.4175
▁jaw	-11.4175
▁majestic	-11.4175
rrow	-11.4176
▁pooper	-11.4176
▁ability	-11.4177
▁digit	-11.4177
▁ahhh	-11.4177
▁pim	-11.4177
▁alma	-11.4177
▁sideline	-11.4179
▁regiment	-11.4179
▁zit	-11.4179
▁halftime	-11.418
▁deke	-11.418
▁partial	-11.418
▁sour	-11.418
▁reduce	-11.4181
▁linda	-11.4181
▁discovery	-11.4182
▁hallowe	-11.4183
▁cadet	-11.4184
▁scraping	-11.4184
▁blackout	-11.4184
▁punches	-11.4185
▁parttime	-11.4186
▁statement	-11.4187
▁hobby	-11.4187
▁controlling	-11.4188
▁attached	-11.4189
▁tono	-11.419
▁achieved	-11.419
▁pawn	-11.419
▁moocher	-11.4192
▁worn	-11.4192
▁freeway	-11.4195
▁sickness	-11.4195
▁realise	-11.4196
▁jc	-11.4197
▁cosa	-11.4197
mail	-11.4197
▁earthling	-11.4197
▁hatches	-11.4198
▁exposed	-11.4198
▁crooked	-11.4198
▁punished	-11.4198
▁allen	-11.4203
▁waitress	-11.4204
▁policeman	-11.4204
▁ox	-11.4205
▁ash	-11.4206
▁hugo	-11.4206
▁moonli	-11.4207
▁disturbed	-11.4208
▁particularly	-11.4209
▁vomiting	-11.4209
▁bitter	-11.421
▁waking	-11.4211
▁pointless	-11.4211
▁tighten	-11.4212
▁martini	-11.4213
▁madman	-11.4216
▁haunted	-11.4216
▁altered	-11.4217
▁ranked	-11.4217
▁endure	-11.4219
▁poly	-11.4222
▁awaiting	-11.4224
▁invested	-11.4225
▁sole	-11.4225
▁angela	-11.4228
▁rig	-11.4228
▁challenger	-11.4229
▁groove	-11.4233
▁assumed	-11.4234
▁leadman	-11.4235
▁tang	-11.4235
▁disturbing	-11.4236
▁coal	-11.4237
▁reminder	-11.4241
▁role	-11.4242
▁boiler	-11.4243
▁announced	-11.4247
▁wrestled	-11.4247
▁spite	-11.4251
▁mma	-11.4254
▁stray	-11.4258
▁epi	-11.4268
fan	-11.4269
▁twisty	-11.427
▁canceled	-11.427
▁intended	-11.4271
▁suspected	-11.4271
▁chopp	-11.4271
▁sparky	-11.4279
▁smashed	-11.4281
▁fainted	-11.4289
▁spoiled	-11.4289
▁uphol	-11.429
▁pushin	-11.4293
▁photographer	-11.4293
▁rollin	-11.43
▁purse	-11.4303
▁vero	-11.4306
▁insisted	-11.4306
▁dana	-11.4308
▁overlook	-11.4308
▁vine	-11.4309
▁stormy	-11.4313
▁jar	-11.4316
▁hoot	-11.4318
▁deserved	-11.432
▁forgiven	-11.4323
▁sic	-11.4323
▁touches	-11.4328
asses	-11.4333
▁sealed	-11.4344
▁introduced	-11.4357
cht	-11.4357
bility	-11.4368
▁rava	-11.437
mantle	-11.4374
ighted	-11.4379
▁cutest	-11.439
wn	-11.4404
▁correction	-11.4414
nog	-11.4439
syc	-11.4459
▁wai	-11.4474
▁zoom	-11.4493
▁yash	-11.451
▁kee	-11.4556
▁foll	-11.458
▁wherea	-11.4582
▁cheater	-11.4595
▁marker	-11.4604
▁levi	-11.4605
itty	-11.4606
ourseives	-11.4609
state	-11.4661
▁muz	-11.4668
eedle	-11.4679
▁voil	-11.4726
▁motivat	-11.473
▁bong	-11.4732
lamour	-11.4743
tasha	-11.4817
▁palm	-11.485
poke	-11.4927
▁tart	-11.4931
uty	-11.4933
motion	-11.498
▁gua	-11.4994
aunt	-11.5032
now	-11.5043
fun	-11.5061
▁mini	-11.5071
▁wig	-11.5129
▁mari	-11.5136
▁ske	-11.5155
conductor	-11.5155
ofthe	-11.5158
ficial	-11.5189
▁rehears	-11.5201
▁integrat	-11.5221
ram	-11.5264
pache	-11.5284
exp	-11.53
heim	-11.5314
plore	-11.5349
xton	-11.5442
▁chim	-11.5471
nickers	-11.5504
▁barb	-11.5556
ickering	-11.556
▁tee	-11.5587
▁inga	-11.559
wrapped	-11.5654
awa	-11.5691
oris	-11.5734
▁smit	-11.5746
oken	-11.5759
▁ato	-11.5763
position	-11.5856
tta	-11.5901
kori	-11.5901
▁elk	-11.5903
▁dicta	-11.5939
▁legit	-11.5945
version	-11.5992
▁bam	-11.5993
▁too	-11.6068
▁spec	-11.6107
ipping	-11.6152
tial	-11.6161
▁prep	-11.6165
illion	-11.6166
perative	-11.619
▁blam	-11.6206
▁prepar	-11.6228
hur	-11.6232
ronic	-11.624
▁ec	-11.6242
cum	-11.626
▁lickin	-11.6312
▁sniff	-11.6326
▁click	-11.6339
fare	-11.6348
▁groan	-11.6349
▁marchin	-11.6365
▁marshmallow	-11.6382
▁curtain	-11.6382
ulation	-11.6385
▁waponi	-11.6386
▁vegetable	-11.6386
▁manner	-11.6393
▁detail	-11.6398
▁toot	-11.6401
▁debt	-11.642
pilots	-11.644
▁pip	-11.6452
▁butterfi	-11.6522
▁zip	-11.6525
keeper	-11.6526
▁illustr	-11.6545
ptical	-11.6557
▁hookin	-11.656
▁dread	-11.6564
▁mechanic	-11.6576
rilla	-11.6578
▁relat	-11.6584
ucks	-11.6587
▁herr	-11.6593
hard	-11.6595
▁terror	-11.6602
▁micromanage	-11.6605
▁confus	-11.6608
▁install	-11.661
▁weir	-11.6613
ought	-11.6614
▁cuba	-11.6616
▁peek	-11.6618
lady	-11.6619
guard	-11.6621
▁relieve	-11.6622
▁robb	-11.6622
▁determine	-11.6622
▁atten	-11.6622
folk	-11.6623
worm	-11.6624
american	-11.6624
league	-11.6624
grade	-11.6624
point	-11.6624
necessary	-11.6625
grave	-11.6625
girl	-11.6625
shift	-11.6625
winnie	-11.6625
▁emergenc	-11.6625
launch	-11.6625
julie	-11.6625
level	-11.6625
yearold	-11.6625
blue	-11.6625
course	-11.6625
paid	-11.6625
wipe	-11.6626
▁bridg	-11.6627
aware	-11.6629
snake	-11.663
glass	-11.663
fight	-11.6631
▁vali	-11.6631
▁gelatin	-11.6632
▁swift	-11.6632
talk	-11.6632
▁surprising	-11.6633
▁extreme	-11.6634
▁practical	-11.6634
escent	-11.6636
rifle	-11.6637
igue	-11.6637
master	-11.6638
▁precise	-11.6638
▁religio	-11.6639
▁villa	-11.6639
▁enforce	-11.6639
nova	-11.6639
tight	-11.6642
▁critic	-11.6642
▁stoke	-11.6643
▁believin	-11.6643
▁thrust	-11.6645
spring	-11.6646
speed	-11.6646
easant	-11.6646
▁grocer	-11.6646
▁colum	-11.6646
wise	-11.6646
▁seasick	-11.6647
▁orient	-11.6647
▁excess	-11.6647
▁bengal	-11.6647
▁lauren	-11.6647
▁gwen	-11.6647
tuous	-11.6647
▁cult	-11.6648
ecutive	-11.6648
▁kidnap	-11.6648
▁inspire	-11.6649
ruck	-11.6649
▁cluck	-11.6649
▁squawk	-11.6649
▁unimaginab	-11.6649
dispose	-11.6649
▁accommodat	-11.6649
▁disobey	-11.6649
▁dissolv	-11.6649
▁neurot	-11.6649
▁patriot	-11.6649
▁suspend	-11.6649
▁wilhelm	-11.6649
increasing	-11.6649
misunderstanding	-11.6649
obedient	-11.6649
▁abduction	-11.6649
▁activities	-11.6649
▁adolescence	-11.6649
▁afterlife	-11.6649
▁altogether	-11.6649
▁ambition	-11.6649
▁andrew	-11.6649
▁antarctic	-11.6649
▁anxiet	-11.6649
▁applesauce	-11.6649
▁aptitude	-11.6649
▁aquamarine	-11.6649
▁arcane	-11.6649
▁armadillo	-11.6649
▁arrivai	-11.6649
▁arthriti	-11.6649
▁atlanta	-11.6649
▁austria	-11.6649
▁bahamas	-11.6649
▁balkan	-11.6649
▁baloney	-11.6649
▁bavaria	-11.6649
▁beechwood	-11.6649
▁bennett	-11.6649
▁bioexorcist	-11.6649
▁bizarre	-11.6649
▁bjorn	-11.6649
▁bleach	-11.6649
▁blimey	-11.6649
▁blindfold	-11.6649
▁boogeyman	-11.6649
▁brimstone	-11.6649
▁brittany	-11.6649
▁bubbling	-11.6649
▁bungalow	-11.6649
▁bygones	-11.6649
▁bypass	-11.6649
▁cabbages	-11.6649
▁cackling	-11.6649
▁cannibal	-11.6649
▁cauliflower	-11.6649
▁chipmunk	-11.6649
▁chronicle	-11.6649
▁circum	-11.6649
▁climate	-11.6649
▁cloudbreather	-11.6649
▁coconut	-11.6649
▁commodity	-11.6649
▁competitor	-11.6649
▁conceive	-11.6649
▁concussion	-11.6649
▁conflict	-11.6649
▁congrats	-11.6649
▁conquest	-11.6649
▁conscience	-11.6649
▁constitution	-11.6649
▁contempt	-11.6649
▁convenient	-11.6649
▁coughs	-11.6649
▁crawford	-11.6649
▁cuckooland	-11.6649
▁cucumber	-11.6649
▁cylinder	-11.6649
▁database	-11.6649
▁deception	-11.6649
▁dedication	-11.6649
▁dedmon	-11.6649
▁descendant	-11.6649
▁destined	-11.6649
▁detention	-11.6649
▁detonator	-11.6649
▁devoted	-11.6649
▁dexter	-11.6649
▁disapprov	-11.6649
▁domovoi	-11.6649
▁dwarves	-11.6649
▁elsewhere	-11.6649
▁exaggerate	-11.6649
▁excelsior	-11.6649
▁exquisite	-11.6649
▁extensive	-11.6649
▁fiasco	-11.6649
▁fiddleyio	-11.6649
▁figler	-11.6649
▁financia	-11.6649
▁fizz	-11.6649
▁forecast	-11.6649
▁fugax	-11.6649
▁fulfill	-11.6649
▁gagarin	-11.6649
▁garcia	-11.6649
▁gluten	-11.6649
▁grammy	-11.6649
▁gridiron	-11.6649
▁grissom	-11.6649
▁guatemala	-11.6649
▁guidance	-11.6649
▁handkerchief	-11.6649
▁heavier	-11.6649
▁hitchhike	-11.6649
▁hobbyhorse	-11.6649
▁hormones	-11.6649
▁horror	-11.6649
▁huff	-11.6649
▁huzzah	-11.6649
▁hyperdrive	-11.6649
▁ignorance	-11.6649
▁imbecile	-11.6649
▁incident	-11.6649
▁incomplete	-11.6649
▁industry	-11.6649
▁inherit	-11.6649
▁injustice	-11.6649
▁intense	-11.6649
▁invincible	-11.6649
▁joylette	-11.6649
▁juarez	-11.6649
▁jumbo	-11.6649
▁kimchee	-11.6649
▁koolaid	-11.6649
▁korean	-11.6649
▁kovacs	-11.6649
▁krapotkin	-11.6649
▁landmark	-11.6649
▁leondegrance	-11.6649
▁leopard	-11.6649
▁lesbian	-11.6649
▁lntelligence	-11.6649
▁lombard	-11.6649
▁luxury	-11.6649
▁magistrate	-11.6649
▁maitland	-11.6649
▁malfunction	-11.6649
▁manhattan	-11.6649
▁marlott	-11.6649
▁massachusetts	-11.6649
▁meatloaf	-11.6649
▁meerkats	-11.6649
▁meherunissa	-11.6649
▁merciless	-11.6649
▁michelle	-11.6649
▁milagro	-11.6649
▁mosquito	-11.6649
▁mozart	-11.6649
▁muslim	-11.6649
▁neighing	-11.6649
▁nimble	-11.6649
▁nominee	-11.6649
▁nuhuh	-11.6649
▁obedience	-11.6649
▁observation	-11.6649
▁obsolete	-11.6649
▁offender	-11.6649
▁okajima	-11.6649
▁okeydoke	-11.6649
▁orthodox	-11.6649
▁overblown	-11.6649
▁overreact	-11.6649
▁pantyhose	-11.6649
▁paramedics	-11.6649
▁participat	-11.6649
▁pasanda	-11.6649
▁passelevve	-11.6649
▁password	-11.6649
▁pentagon	-11.6649
▁persuasion	-11.6649
▁pharmac	-11.6649
▁phyllis	-11.6649
▁picasso	-11.6649
▁poultry	-11.6649
▁poverty	-11.6649
▁practise	-11.6649
▁precaution	-11.6649
▁predicament	-11.6649
▁prominent	-11.6649
▁psychology	-11.6649
▁puncture	-11.6649
▁qualities	-11.6649
▁raccoon	-11.6649
▁raincoat	-11.6649
▁recognis	-11.6649
▁reindeer	-11.6649
▁residence	-11.6649
▁rooftops	-11.6649
▁safflower	-11.6649
▁sarcastic	-11.6649
▁scranton	-11.6649
▁sensual	-11.6649
▁seventyfour	-11.6649
▁shepard	-11.6649
▁shipwreck	-11.6649
▁shroud	-11.6649
▁simmons	-11.6649
▁simpson	-11.6649
▁slaughter	-11.6649
▁snarls	-11.6649
▁sniper	-11.6649
▁snooty	-11.6649
▁snowflake	-11.6649
▁soninlaw	-11.6649
▁sonofabitch	-11.6649
▁soprano	-11.6649
▁spectacle	-11.6649
▁sphincter	-11.6649
▁squander	-11.6649
▁staircase	-11.6649
▁stevie	-11.6649
▁striking	-11.6649
▁surgeon	-11.6649
▁syllable	-11.6649
▁symphony	-11.6649
▁symptoms	-11.6649
▁sync	-11.6649
▁synthesizer	-11.6649
▁temporarily	-11.6649
▁teresa	-11.6649
▁terrifying	-11.6649
▁tolstoy	-11.6649
▁toothbrush	-11.6649
▁trampled	-11.6649
▁trampoline	-11.6649
▁twothirds	-11.6649
▁unbearable	-11.6649
▁undercover	-11.6649
▁unikitty	-11.6649
▁unpleasant	-11.6649
▁unruly	-11.6649
▁unsuccessful	-11.6649
▁vanechka	-11.6649
▁vortex	-11.6649
▁wainwright	-11.6649
▁whatsoever	-11.6649
▁withdraw	-11.6649
▁wolves	-11.6649
▁wonderfui	-11.6649
▁wondrous	-11.6649
▁ybidanger	-11.6649
▁yuck	-11.6649
▁zathura	-11.6649
comprehensi	-11.6649
▁akbar	-11.6649
▁alexi	-11.6649
▁bloomington	-11.6649
▁breck	-11.6649
▁carlysle	-11.6649
▁deux	-11.6649
▁ellison	-11.6649
▁franz	-11.6649
▁gabriel	-11.6649
▁gasoline	-11.6649
▁gesture	-11.6649
▁gossip	-11.6649
▁hymn	-11.6649
▁justjust	-11.6649
▁keith	-11.6649
▁maestro	-11.6649
▁mayhew	-11.6649
▁millard	-11.6649
▁nelson	-11.6649
▁ninny	-11.6649
▁nononono	-11.6649
▁ongoing	-11.6649
▁pervert	-11.6649
▁pineapple	-11.6649
▁playwright	-11.6649
▁poptart	-11.6649
▁pulse	-11.6649
▁reunite	-11.6649
▁rocco	-11.6649
▁sanctu	-11.6649
▁skua	-11.6649
▁stocktak	-11.6649
▁worldwide	-11.6649
▁yeerow	-11.6649
▁zebra	-11.6649
cchio	-11.6649
▁brink	-11.6649
▁bulb	-11.6649
▁constance	-11.6649
▁duplicate	-11.6649
▁flushed	-11.6649
▁guiding	-11.6649
▁guru	-11.6649
▁hobart	-11.6649
▁inarco	-11.6649
▁leather	-11.6649
▁madonna	-11.6649
▁millionaire	-11.6649
▁peggy	-11.6649
▁pioneer	-11.6649
▁snore	-11.6649
▁subtle	-11.6649
▁suburb	-11.6649
▁talons	-11.6649
▁teleport	-11.6649
▁terrain	-11.6649
▁anarch	-11.6649
▁horde	-11.6649
▁probiem	-11.6649
▁stomp	-11.6649
tration	-11.6649
▁anandi	-11.6649
▁beiong	-11.6649
▁buddies	-11.6649
▁console	-11.6649
▁dignity	-11.6649
▁gulp	-11.6649
▁guran	-11.6649
▁handbag	-11.6649
▁harmonica	-11.6649
▁hippie	-11.6649
▁hula	-11.6649
▁prophet	-11.6649
▁repent	-11.6649
▁sumner	-11.6649
▁accomplishments	-11.6649
▁brawl	-11.6649
▁czar	-11.6649
▁donation	-11.6649
▁exceed	-11.6649
▁graphic	-11.6649
▁licence	-11.6649
▁neek	-11.6649
▁nevertheless	-11.6649
▁nibble	-11.6649
▁secretaries	-11.6649
▁wheezing	-11.6649
▁angelica	-11.6649
▁ballerina	-11.6649
▁koen	-11.6649
▁wirh	-11.6649
israel	-11.6649
▁deuce	-11.6649
▁hughes	-11.6649
▁liberated	-11.6649
▁utopia	-11.6649
▁anesti	-11.6649
▁embodi	-11.6649
▁limb	-11.6649
▁cattle	-11.6649
▁ceti	-11.6649
▁pupa	-11.6649
▁stoop	-11.6649
▁thrive	-11.6649
▁wilderness	-11.6649
▁gallery	-11.6649
▁newlywed	-11.6649
▁piggy	-11.6649
▁smll	-11.6649
▁swarm	-11.6649
▁boast	-11.6649
▁carpent	-11.6649
▁ddid	-11.6649
▁emiiy	-11.6649
▁mutual	-11.6649
▁playmate	-11.6649
▁abdicat	-11.6649
▁ernst	-11.6649
▁discre	-11.6649
significan	-11.6649
▁brooks	-11.6649
▁llfe	-11.6649
▁refusing	-11.6649
▁alisha	-11.6649
▁betcher	-11.6649
▁forcing	-11.6649
▁frustrat	-11.6649
▁seattle	-11.6649
▁bosley	-11.6649
▁goodwill	-11.6649
▁havin	-11.6649
▁iater	-11.6649
▁illuminat	-11.6649
▁pursue	-11.6649
▁audac	-11.6649
▁hava	-11.6649
moxys	-11.6649
▁pledge	-11.6649
▁joust	-11.6649
▁dariing	-11.6649
▁meddl	-11.6649
tysix	-11.6649
▁struggling	-11.6649
▁casualties	-11.6649
▁numer	-11.6649
▁muddy	-11.6649
▁opal	-11.6649
ject	-11.6649
▁newcomer	-11.6649
▁imaginable	-11.6649
▁jethro	-11.6649
▁lastik	-11.6649
▁piay	-11.6649
▁nerys	-11.6649
▁cherries	-11.6649
▁jejune	-11.6649
▁pause	-11.6649
▁manhood	-11.6649
▁vertical	-11.6649
▁oreo	-11.6649
▁resume	-11.6649
tiff	-11.6649
▁meteor	-11.6649
▁yoyo	-11.6649
▁cockpit	-11.6649
▁addict	-11.6649
▁riddle	-11.6649
▁elastic	-11.665
ivable	-11.665
▁braying	-11.665
▁keegan	-11.665
▁notified	-11.665
▁functions	-11.665
▁saturn	-11.665
▁eflat	-11.665
▁telep	-11.665
▁substance	-11.665
▁skunk	-11.665
▁authorized	-11.665
▁colorcoded	-11.665
▁yankee	-11.665
▁mingle	-11.665
▁shamble	-11.665
▁terminal	-11.665
▁violated	-11.665
▁upsidedown	-11.665
▁expectations	-11.665
▁sandecker	-11.665
▁deploy	-11.665
effic	-11.665
▁overcome	-11.665
▁transmitter	-11.665
▁inflat	-11.665
liberate	-11.665
▁organism	-11.665
▁parched	-11.665
▁injuries	-11.665
▁raspberries	-11.665
▁grains	-11.665
▁pending	-11.665
▁stewart	-11.665
▁attraction	-11.665
▁darre	-11.665
▁gregorio	-11.665
▁yank	-11.665
▁fluttering	-11.665
▁rhin	-11.665
▁garga	-11.665
▁incline	-11.665
▁pamper	-11.665
▁rodney	-11.665
▁downfield	-11.6651
▁jello	-11.6651
▁skating	-11.6651
▁rehearsai	-11.6651
▁unemployment	-11.6651
▁inertia	-11.6651
▁slash	-11.6651
▁janitor	-11.6651
▁distort	-11.6651
▁ahoy	-11.6651
▁dominated	-11.6651
▁flourish	-11.6651
▁fangs	-11.6651
▁excessive	-11.6651
▁segregation	-11.6651
▁clover	-11.6651
▁convert	-11.6651
▁inspect	-11.6651
▁offence	-11.6651
▁loaf	-11.6651
▁elegan	-11.6651
▁salvage	-11.6651
▁evasive	-11.6651
▁flunk	-11.6651
▁network	-11.6651
▁impact	-11.6651
▁tension	-11.6651
▁nutritio	-11.6651
▁steward	-11.6651
▁muddle	-11.6651
▁rende	-11.6651
cuff	-11.6652
▁civilized	-11.6652
▁posit	-11.6652
▁canada	-11.6652
▁slab	-11.6652
▁transformation	-11.6652
▁acknowledge	-11.6652
▁basin	-11.6652
▁comedian	-11.6652
▁burial	-11.6652
▁oink	-11.6652
▁decline	-11.6652
▁hyde	-11.6652
▁revoke	-11.6652
▁griev	-11.6652
▁vista	-11.6652
▁erase	-11.6652
▁whys	-11.6652
▁whipped	-11.6652
▁lackey	-11.6652
▁preferred	-11.6652
▁journalist	-11.6652
coded	-11.6652
▁teii	-11.6652
▁occasionally	-11.6652
▁foley	-11.6653
▁poking	-11.6653
▁disturbance	-11.6653
▁alumn	-11.6653
▁bodyguard	-11.6653
▁tickling	-11.6653
▁booze	-11.6653
nnno	-11.6653
▁clayton	-11.6653
▁rayray	-11.6653
▁feline	-11.6653
▁rhe	-11.6653
▁operating	-11.6653
▁zak	-11.6653
▁dislike	-11.6653
▁thrusters	-11.6653
▁rhun	-11.6653
▁milli	-11.6653
▁classified	-11.6653
▁viii	-11.6653
▁grim	-11.6653
gnora	-11.6653
▁soak	-11.6653
▁partnership	-11.6653
▁scour	-11.6654
▁efficient	-11.6654
▁isa	-11.6654
▁courtroom	-11.6654
▁moonlight	-11.6654
▁delta	-11.6654
▁upper	-11.6654
▁footprint	-11.6654
▁revolutionary	-11.6654
▁hottie	-11.6654
▁farmhouse	-11.6654
▁battlefield	-11.6654
▁spice	-11.6654
khan	-11.6654
▁politician	-11.6654
▁quant	-11.6654
▁toby	-11.6654
▁garment	-11.6655
▁yawn	-11.6655
▁chole	-11.6655
▁passport	-11.6655
▁troublemaker	-11.6655
▁genetic	-11.6655
▁finis	-11.6655
▁glance	-11.6656
▁fiend	-11.6656
▁react	-11.6656
▁scrubb	-11.6656
▁recital	-11.6656
▁confirmation	-11.6656
shire	-11.6656
▁tolera	-11.6656
▁icebox	-11.6656
▁alexandra	-11.6656
▁prediction	-11.6656
▁tummy	-11.6656
▁sorcerer	-11.6656
▁navigate	-11.6656
▁reborn	-11.6656
▁appall	-11.6656
▁operate	-11.6656
▁coover	-11.6656
▁twinkies	-11.6657
▁caii	-11.6657
▁hotshot	-11.6657
▁hors	-11.6657
ameter	-11.6657
▁instructor	-11.6657
▁lori	-11.6658
▁considerate	-11.6658
▁skyler	-11.6658
▁normai	-11.6658
▁jester	-11.6658
▁voting	-11.6658
▁translation	-11.6658
▁bodi	-11.6658
fred	-11.6658
▁enforcer	-11.6659
▁arise	-11.6659
▁effective	-11.6659
▁awhile	-11.6659
▁vandali	-11.6659
▁flake	-11.6659
▁foil	-11.6659
mmering	-11.6659
▁seif	-11.6659
▁spitting	-11.666
▁victorious	-11.666
▁codman	-11.666
▁brute	-11.666
▁cordon	-11.666
▁fuse	-11.666
ertain	-11.666
▁slur	-11.6661
▁brassie	-11.6661
▁vent	-11.6661
▁intruder	-11.6661
▁foal	-11.6661
▁crackling	-11.6661
▁sequence	-11.6661
▁excellency	-11.6661
▁bribe	-11.6661
▁sept	-11.6661
▁soil	-11.6661
▁prune	-11.6661
▁culture	-11.6662
▁stunned	-11.6662
▁containment	-11.6662
▁condor	-11.6662
▁ashes	-11.6662
▁certainiy	-11.6662
▁spru	-11.6662
▁conga	-11.6662
▁rally	-11.6663
vatory	-11.6663
▁horrib	-11.6663
▁hind	-11.6663
▁hoover	-11.6663
▁madder	-11.6663
▁pabl	-11.6664
▁breakaway	-11.6664
▁adore	-11.6664
▁nobe	-11.6664
▁requirement	-11.6665
▁fearfully	-11.6665
▁dung	-11.6665
▁raid	-11.6665
▁unload	-11.6665
▁revive	-11.6665
▁viri	-11.6665
▁swiftly	-11.6666
▁gelatine	-11.6666
▁cabinet	-11.6666
▁aaaa	-11.6666
▁wager	-11.6667
▁bible	-11.6667
▁napkin	-11.6667
▁gael	-11.6667
▁expel	-11.6668
▁collective	-11.6668
▁bred	-11.6669
▁hothead	-11.6669
▁peg	-11.667
▁knob	-11.667
▁reap	-11.6671
▁jove	-11.6671
▁acceptance	-11.6671
spy	-11.6671
litary	-11.6671
tiful	-11.6672
▁assist	-11.6672
▁tomatoes	-11.6672
▁valet	-11.6672
▁vast	-11.6673
▁cuss	-11.6673
▁rising	-11.6673
▁batch	-11.6673
▁honorary	-11.6675
▁patel	-11.6676
▁household	-11.6676
▁contraction	-11.6676
▁unlock	-11.6677
▁dede	-11.6678
▁teamwork	-11.6678
▁marrie	-11.6678
▁settlement	-11.6679
▁rumor	-11.668
▁kass	-11.668
▁embr	-11.668
▁aero	-11.668
▁halfback	-11.6681
axis	-11.6682
▁cellar	-11.6682
▁erie	-11.6682
▁zor	-11.6682
▁bina	-11.6683
▁magician	-11.6683
▁semi	-11.6684
▁schoolwork	-11.6684
▁diego	-11.6685
vious	-11.6685
chita	-11.6685
▁pepe	-11.6685
▁drone	-11.6688
▁orbital	-11.6689
▁yore	-11.669
uppies	-11.6691
▁arf	-11.6692
▁micromanager	-11.6693
▁classical	-11.6694
▁witnesses	-11.6695
▁dove	-11.6698
▁realistic	-11.6698
▁setback	-11.6698
draft	-11.6698
▁robotic	-11.6699
▁berk	-11.6699
▁germ	-11.6701
▁halfway	-11.6701
action	-11.6701
▁blockers	-11.6701
▁bonehead	-11.6701
▁cleanse	-11.6702
▁squid	-11.6703
tale	-11.6703
▁swan	-11.6703
calorie	-11.6706
▁wool	-11.6706
▁passage	-11.6708
▁bellies	-11.6709
▁utter	-11.671
▁modell	-11.671
▁wat	-11.6711
▁cue	-11.6712
▁kent	-11.6714
▁skit	-11.6715
▁ahem	-11.6715
eech	-11.6716
hrist	-11.6719
ittle	-11.672
▁charter	-11.672
▁menno	-11.6725
come	-11.6733
▁reel	-11.6733
▁minsk	-11.6735
▁which	-11.674
▁skeptic	-11.6742
▁dab	-11.6748
▁shackle	-11.6748
▁saucer	-11.6752
▁contractor	-11.6763
mile	-11.6768
annie	-11.6781
chen	-11.6782
▁funnie	-11.6784
▁identi	-11.6791
▁hurr	-11.6796
▁strummin	-11.6797
▁crust	-11.6799
this	-11.6804
tenner	-11.6805
ndale	-11.6814
▁suz	-11.6817
▁portra	-11.6818
▁dye	-11.6841
▁lei	-11.6854
▁lace	-11.6858
▁gla	-11.6868
▁debate	-11.6887
rakes	-11.689
▁rosa	-11.6908
skinned	-11.6917
industrial	-11.6918
▁flop	-11.6935
▁mutter	-11.6947
reach	-11.6953
leash	-11.6973
tangled	-11.6973
▁punt	-11.6982
▁rama	-11.7008
shelves	-11.703
▁sparkle	-11.7031
nates	-11.7065
brows	-11.7102
▁stutter	-11.7113
▁capp	-11.7187
▁ranch	-11.719
▁recit	-11.7208
▁with	-11.7252
▁mur	-11.7296
vigilante	-11.7311
▁handl	-11.7317
elim	-11.7353
▁kil	-11.7377
▁seize	-11.74
▁elo	-11.7436
timate	-11.7439
▁enthusiast	-11.7497
anita	-11.7497
camo	-11.7574
▁evi	-11.7685
▁absorb	-11.7718
orkin	-11.776
cadill	-11.778
feit	-11.78
repa	-11.7833
▁sparkl	-11.7834
▁respectful	-11.7909
cal	-11.7975
▁bounc	-11.7996
ipped	-11.7997
▁sax	-11.8049
▁resi	-11.8149
roids	-11.8157
asl	-11.8239
▁organiz	-11.8254
melon	-11.8331
butt	-11.8365
pack	-11.8391
▁retrac	-11.8397
umming	-11.8406
▁cola	-11.8503
▁identifi	-11.852
▁scrambl	-11.8559
oggi	-11.8578
▁git	-11.8673
uge	-11.8677
▁sci	-11.8714
▁preferabl	-11.8728
▁statu	-11.8751
▁shov	-11.8777
inces	-11.8816
hunk	-11.8849
▁complet	-11.8886
▁cruis	-11.8914
▁judg	-11.8945
hhhh	-11.8983
▁vigilan	-11.9128
hopping	-11.9136
athe	-11.9166
antana	-11.9173
▁yoursei	-11.921
▁punctual	-11.9212
fortunately	-11.931
associate	-11.9334
▁scrap	-11.9424
▁gala	-11.9439
▁declar	-11.9471
pedi	-11.949
span	-11.9518
▁disabl	-11.9523
eaten	-11.9526
tina	-11.9555
vag	-11.9599
▁subjectiv	-11.9629
▁gust	-11.9667
ience	-11.969
▁thorn	-11.9703
▁explosive	-11.972
prone	-11.9721
▁zorgon	-11.9722
▁donut	-11.9724
▁rapid	-11.9729
▁flam	-11.9769
doubted	-11.9788
hoho	-11.9816
snapper	-11.9822
few	-11.9831
epid	-11.9838
rched	-11.9845
▁shack	-11.9852
▁seren	-11.9852
▁mort	-11.9853
breaker	-11.9904
▁profession	-11.9911
▁mooch	-11.9912
▁captur	-11.9915
▁reset	-11.9916
rmina	-11.9919
▁trespass	-11.9923
▁recruit	-11.9925
▁disgust	-11.9927
▁divid	-11.9927
ggling	-11.9931
▁suppos	-11.9931
estimated	-11.9935
▁majesti	-11.9935
▁possess	-11.9941
liciously	-11.9942
▁accomplish	-11.9942
unten	-11.9946
▁happi	-11.9948
▁appreciat	-11.9955
▁grizzl	-11.9955
izzy	-11.9956
hubba	-11.9956
threatening	-11.9956
feather	-11.9957
stream	-11.9957
script	-11.9957
▁beyon	-11.9957
covered	-11.9957
▁philosoph	-11.9957
▁cran	-11.9957
▁thirst	-11.9957
play	-11.9957
drift	-11.9957
▁izz	-11.9957
amount	-11.9958
broad	-11.9958
familiar	-11.9958
century	-11.9958
varsity	-11.9958
charge	-11.9958
bank	-11.9958
second	-11.9958
mouth	-11.9958
write	-11.9958
first	-11.9958
ounces	-11.9958
school	-11.9958
throw	-11.9958
cause	-11.9959
help	-11.9959
▁horri	-11.9959
three	-11.9959
▁clea	-11.9959
plus	-11.9959
perform	-11.996
terate	-11.996
smell	-11.9961
weii	-11.9961
▁numb	-11.9964
respect	-11.9967
▁unfortunate	-11.9967
double	-11.9969
migrati	-11.997
jami	-11.997
tape	-11.9971
pool	-11.9971
▁alexandr	-11.9972
▁coordinat	-11.9973
▁ruff	-11.9974
▁administrat	-11.9975
▁sentiment	-11.9976
▁potato	-11.9976
ualize	-11.9976
addle	-11.9976
▁dancin	-11.9976
▁darlin	-11.9976
adian	-11.9977
▁esp	-11.9978
▁regulat	-11.9979
▁populat	-11.9979
▁unemploy	-11.998
cision	-11.998
alice	-11.998
▁democra	-11.998
tinent	-11.9981
▁appoint	-11.9981
▁viola	-11.9981
▁violen	-11.9981
▁sculpt	-11.9981
tinct	-11.9981
▁bankrupt	-11.9981
ization	-11.9982
gnant	-11.9982
▁authentic	-11.9982
harmonic	-11.9982
▁contemplat	-11.9982
▁disconcert	-11.9982
quil	-11.9982
▁alakazoo	-11.9982
▁contaminati	-11.9982
▁imprison	-11.9982
▁mexica	-11.9982
▁neglige	-11.9982
▁sustain	-11.9982
▁synthe	-11.9982
coholic	-11.9982
conspicuous	-11.9982
disobedience	-11.9982
lizzard	-11.9982
mobile	-11.9982
pappala	-11.9982
psychocardiogram	-11.9982
publlc	-11.9982
quoi	-11.9982
rgensson	-11.9982
simplify	-11.9982
terranean	-11.9982
▁abilities	-11.9982
▁academi	-11.9982
▁activation	-11.9982
▁adolescent	-11.9982
▁afghanistan	-11.9982
▁aggressor	-11.9982
▁agility	-11.9982
▁akrennian	-11.9982
▁alabama	-11.9982
▁ambu	-11.9982
▁andonandon	-11.9982
▁arabic	-11.9982
▁aristocrat	-11.9982
▁artillery	-11.9982
▁asphyx	-11.9982
▁aspirin	-11.9982
▁assault	-11.9982
▁atlantic	-11.9982
▁backflip	-11.9982
▁balcony	-11.9982
▁barracks	-11.9982
▁bathrobe	-11.9982
▁behaving	-11.9982
▁belgian	-11.9982
▁betrothed	-11.9982
▁beware	-11.9982
▁blanche	-11.9982
▁blintzes	-11.9982
▁blossom	-11.9982
▁boulder	-11.9982
▁bubbly	-11.9982
▁burglar	-11.9982
▁butbut	-11.9982
▁butcher	-11.9982
▁capacitance	-11.9982
▁carnivorous	-11.9982
▁cavalry	-11.9982
▁celebrit	-11.9982
▁centimeters	-11.9982
▁cereal	-11.9982
▁ceremonies	-11.9982
▁chandrapore	-11.9982
▁cheesecake	-11.9982
▁chowquin	-11.9982
▁cockaleekie	-11.9982
▁collide	-11.9982
▁commemorat	-11.9982
▁complication	-11.9982
▁conferred	-11.9982
▁congeniality	-11.9982
▁connecticut	-11.9982
▁contender	-11.9982
▁corporation	-11.9982
▁craznocks	-11.9982
▁crumble	-11.9982
▁curiosity	-11.9982
▁cyborg	-11.9982
▁defrost	-11.9982
▁demeaning	-11.9982
▁demonstrate	-11.9982
▁destabili	-11.9982
▁destructive	-11.9982
▁diagram	-11.9982
▁diarrhea	-11.9982
▁discomfort	-11.9982
▁dislocated	-11.9982
▁displease	-11.9982
▁distribut	-11.9982
▁donnie	-11.9982
▁duffy	-11.9982
▁earthquak	-11.9982
▁eccentric	-11.9982
▁elephantitis	-11.9982
▁elliot	-11.9982
▁energize	-11.9982
▁enterprise	-11.9982
▁envelope	-11.9982
▁essay	-11.9982
▁eternity	-11.9982
▁exlax	-11.9982
▁exploit	-11.9982
▁fabric	-11.9982
▁fantasy	-11.9982
▁farfingles	-11.9982
▁favre	-11.9982
▁fleaflicker	-11.9982
▁frequent	-11.9982
▁gawking	-11.9982
▁generosity	-11.9982
▁genuine	-11.9982
▁gephardt	-11.9982
▁gerbil	-11.9982
▁gesundheit	-11.9982
▁ghana	-11.9982
▁gianni	-11.9982
▁gigantic	-11.9982
▁glisten	-11.9982
▁goldilocks	-11.9982
▁graduating	-11.9982
▁grease	-11.9982
▁grenade	-11.9982
▁griffin	-11.9982
▁grotesque	-11.9982
▁guggenheim	-11.9982
▁haiku	-11.9982
▁hampshire	-11.9982
▁helium	-11.9982
▁hopscotch	-11.9982
▁houdini	-11.9982
▁humiliation	-11.9982
▁ifarren	-11.9982
▁imminent	-11.9982
▁impulse	-11.9982
▁inaudible	-11.9982
▁incompa	-11.9982
▁inflexible	-11.9982
▁innocence	-11.9982
▁insecure	-11.9982
▁integrity	-11.9982
▁interfering	-11.9982
▁interrogation	-11.9982
▁invalid	-11.9982
▁jeopardy	-11.9982
▁kenneth	-11.9982
▁koboi	-11.9982
▁koopas	-11.9982
▁krishna	-11.9982
▁krypton	-11.9982
▁latchkey	-11.9982
▁lazarus	-11.9982
▁leprechaun	-11.9982
▁lipstick	-11.9982
▁literature	-11.9982
▁livorno	-11.9982
▁lynetta	-11.9982
▁mackerel	-11.9982
▁mafdet	-11.9982
▁malcolm	-11.9982
▁mannequin	-11.9982
▁manpower	-11.9982
▁marvellous	-11.9982
▁masculine	-11.9982
▁matllde	-11.9982
▁maurice	-11.9982
▁mechanism	-11.9982
▁metabolism	-11.9982
▁microchip	-11.9982
▁microwave	-11.9982
▁mikhail	-11.9982
▁minotaur	-11.9982
▁miraculous	-11.9982
▁misplaced	-11.9982
▁misunderstood	-11.9982
▁mitzvah	-11.9982
▁murmurs	-11.9982
▁narragansett	-11.9982
▁neanderthal	-11.9982
▁nicholson	-11.9982
▁nicole	-11.9982
▁nimrod	-11.9982
▁nomination	-11.9982
▁nranena	-11.9982
▁oatmeal	-11.9982
▁octagon	-11.9982
▁oppressed	-11.9982
▁oppression	-11.9982
▁oppressive	-11.9982
▁optimis	-11.9982
▁pandemonium	-11.9982
▁pestilence	-11.9982
▁phenomena	-11.9982
▁pipsqueak	-11.9982
▁platitude	-11.9982
▁plumbing	-11.9982
▁pneumonia	-11.9982
▁pondicherry	-11.9982
▁porcupine	-11.9982
▁porridge	-11.9982
▁precinct	-11.9982
▁predecessor	-11.9982
▁prehistoric	-11.9982
▁prescription	-11.9982
▁prevlov	-11.9982
▁priorities	-11.9982
▁prioritize	-11.9982
▁proclaim	-11.9982
▁psychic	-11.9982
▁psychological	-11.9982
▁pterodactyl	-11.9982
▁quarantine	-11.9982
▁railway	-11.9982
▁receipt	-11.9982
▁recycle	-11.9982
▁reflexes	-11.9982
▁refugees	-11.9982
▁reinforcement	-11.9982
▁repellent	-11.9982
▁resolve	-11.9982
▁retiring	-11.9982
▁ribbon	-11.9982
▁rosebud	-11.9982
▁rykoffs	-11.9982
▁sabotage	-11.9982
▁safari	-11.9982
▁safekeeping	-11.9982
▁sanchez	-11.9982
▁satisfaction	-11.9982
▁saxophone	-11.9982
▁scooch	-11.9982
▁screwdriver	-11.9982
▁scrimmag	-11.9982
▁seatbelt	-11.9982
▁selvam	-11.9982
▁separation	-11.9982
▁sesharrim	-11.9982
▁shakespeare	-11.9982
▁shebang	-11.9982
▁shrieking	-11.9982
▁shrieks	-11.9982
▁skyscraper	-11.9982
▁sleigh	-11.9982
▁smurfblossom	-11.9982
▁smurfintine	-11.9982
▁snorting	-11.9982
▁snuff	-11.9982
▁southampton	-11.9982
▁sovereign	-11.9982
▁soysages	-11.9982
▁sportscenter	-11.9982
▁sprites	-11.9982
▁stabilizer	-11.9982
▁starkiller	-11.9982
▁stepmother	-11.9982
▁stohler	-11.9982
▁stokeronavon	-11.9982
▁strangle	-11.9982
▁strelitz	-11.9982
▁strife	-11.9982
▁suborbit	-11.9982
▁suffocate	-11.9982
▁sunscreen	-11.9982
▁suppliers	-11.9982
▁suspicion	-11.9982
▁svardlov	-11.9982
▁syrup	-11.9982
▁takarazuka	-11.9982
▁terrace	-11.9982
▁theoretical	-11.9982
▁tornado	-11.9982
▁trantridge	-11.9982
▁tremble	-11.9982
▁truffle	-11.9982
▁truscott	-11.9982
▁ugli	-11.9982
▁ukulele	-11.9982
▁ulanga	-11.9982
▁unacceptable	-11.9982
▁unbeaten	-11.9982
▁unconscious	-11.9982
▁unimportant	-11.9982
▁universal	-11.9982
▁untouch	-11.9982
▁usefui	-11.9982
▁vector	-11.9982
▁velvet	-11.9982
▁vishnu	-11.9982
▁visiontext	-11.9982
▁vitamins	-11.9982
▁wagner	-11.9982
▁weasel	-11.9982
▁welcoming	-11.9982
▁whisker	-11.9982
▁wiseguy	-11.9982
▁wrangler	-11.9982
▁ybivalue	-11.9982
▁zenkman	-11.9982
▁zombie	-11.9982
gantuan	-11.9982
▁blasphem	-11.9982
▁cavity	-11.9982
▁centaur	-11.9982
▁clench	-11.9982
▁dvd	-11.9982
▁geyser	-11.9982
▁lamplighter	-11.9982
▁puppet	-11.9982
▁repossess	-11.9982
▁selfdestruct	-11.9982
▁thwart	-11.9982
▁tumble	-11.9982
▁vulgar	-11.9982
terrence	-11.9982
▁aiuro	-11.9982
▁baguette	-11.9982
▁banjo	-11.9982
▁barbaric	-11.9982
▁boundaries	-11.9982
▁buffoon	-11.9982
▁celtic	-11.9982
▁chisels	-11.9982
▁chorus	-11.9982
▁cinder	-11.9982
▁cudgeon	-11.9982
▁devant	-11.9982
▁dungeon	-11.9982
▁exampie	-11.9982
▁expiain	-11.9982
▁groundhog	-11.9982
▁grungy	-11.9982
▁hernan	-11.9982
▁homesick	-11.9982
▁hyatt	-11.9982
▁indisposed	-11.9982
▁infant	-11.9982
▁ingrid	-11.9982
▁kraut	-11.9982
▁millfield	-11.9982
▁mwah	-11.9982
▁northcliffe	-11.9982
▁ohhhohh	-11.9982
▁overheard	-11.9982
▁overseas	-11.9982
▁palmyra	-11.9982
▁reeves	-11.9982
▁repuls	-11.9982
▁retrieval	-11.9982
▁revolting	-11.9982
▁righteousness	-11.9982
▁rokai	-11.9982
▁serfs	-11.9982
▁sodium	-11.9982
▁thieving	-11.9982
▁tweet	-11.9982
▁tyrann	-11.9982
▁ukrain	-11.9982
▁yuri	-11.9982
alibu	-11.9982
▁bolander	-11.9982
▁candid	-11.9982
▁chariot	-11.9982
▁chloe	-11.9982
▁cigars	-11.9982
▁citation	-11.9982
▁davies	-11.9982
▁drapes	-11.9982
▁duration	-11.9982
▁dutch	-11.9982
▁lolley	-11.9982
▁outlaw	-11.9982
▁outrun	-11.9982
▁overdue	-11.9982
▁phase	-11.9982
▁pooch	-11.9982
▁reduction	-11.9982
▁renew	-11.9982
▁restraint	-11.9982
▁shivering	-11.9982
▁yoatl	-11.9982
▁abundan	-11.9982
▁acute	-11.9982
▁brooch	-11.9982
▁clutch	-11.9982
▁deacon	-11.9982
▁detain	-11.9982
▁doorstep	-11.9982
▁hypo	-11.9982
▁intake	-11.9982
▁jib	-11.9982
▁kimura	-11.9982
▁landlord	-11.9982
▁parrot	-11.9982
▁pough	-11.9982
▁saloon	-11.9982
▁sciatic	-11.9982
▁sketch	-11.9982
▁smug	-11.9982
▁truce	-11.9982
▁wield	-11.9982
crimina	-11.9982
▁aloha	-11.9982
▁doug	-11.9982
▁fathom	-11.9982
▁kwon	-11.9982
▁leeches	-11.9982
▁markowe	-11.9982
▁motive	-11.9982
▁peewee	-11.9982
▁scoop	-11.9982
▁shingles	-11.9982
▁tahiti	-11.9982
▁thefts	-11.9982
▁veins	-11.9982
▁alamo	-11.9982
▁drinian	-11.9982
▁dyna	-11.9982
▁falfa	-11.9982
▁hypnotize	-11.9982
▁jackpot	-11.9982
▁jolt	-11.9982
▁klein	-11.9982
▁nasik	-11.9982
▁parlay	-11.9982
▁porch	-11.9982
▁unveil	-11.9982
▁confine	-11.9982
▁devon	-11.9982
▁massacre	-11.9982
▁salute	-11.9982
margarine	-11.9982
repre	-11.9982
▁fiftie	-11.9982
▁grumps	-11.9982
▁sleet	-11.9982
▁spleen	-11.9982
▁visible	-11.9982
▁beginners	-11.9982
▁eager	-11.9982
▁leggings	-11.9982
▁motel	-11.9982
▁quinn	-11.9982
eligible	-11.9982
▁comfy	-11.9982
▁dinah	-11.9982
▁improp	-11.9982
▁reenter	-11.9982
▁spoonfuls	-11.9982
▁bundt	-11.9982
▁urine	-11.9982
claren	-11.9982
crucify	-11.9982
▁airborne	-11.9982
▁bff	-11.9982
▁dreary	-11.9982
▁musketeer	-11.9982
▁beads	-11.9982
▁embark	-11.9982
▁blunt	-11.9982
▁cardinals	-11.9982
▁doggies	-11.9982
▁jingling	-11.9982
▁lancers	-11.9982
▁pierre	-11.9982
▁authorization	-11.9982
▁monica	-11.9982
▁settling	-11.9982
▁amphi	-11.9982
▁delusion	-11.9982
▁devoti	-11.9982
▁dictates	-11.9982
▁gangsters	-11.9982
▁halyard	-11.9982
▁hilton	-11.9982
▁iife	-11.9982
▁renee	-11.9982
▁serum	-11.9982
▁wedgie	-11.9982
▁abused	-11.9982
▁gramps	-11.9982
▁subdue	-11.9982
▁madrid	-11.9982
▁radar	-11.9982
▁ridden	-11.9982
owski	-11.9982
▁barren	-11.9982
▁merri	-11.9982
▁chuff	-11.9982
▁disarm	-11.9982
azzle	-11.9982
▁forged	-11.9982
▁identical	-11.9982
▁mistreat	-11.9982
▁sushi	-11.9982
▁transfusion	-11.9982
▁collaborat	-11.9982
▁francesca	-11.9982
▁typists	-11.9982
▁pumas	-11.9982
▁align	-11.9982
▁slurps	-11.9982
▁ortho	-11.9982
▁huy	-11.9983
▁indifferen	-11.9983
▁scoring	-11.9983
▁abyss	-11.9983
▁jetpack	-11.9983
▁nassau	-11.9983
▁smol	-11.9983
▁carnivore	-11.9983
▁decay	-11.9983
▁peach	-11.9983
▁backslid	-11.9983
▁gokart	-11.9983
▁floss	-11.9983
▁testimon	-11.9983
▁fortytwo	-11.9983
▁usuai	-11.9983
▁warren	-11.9983
▁botfight	-11.9983
▁brood	-11.9983
▁jeopardize	-11.9983
▁authenticator	-11.9983
▁greer	-11.9983
▁prosper	-11.9983
▁rudolph	-11.9983
▁simulat	-11.9983
▁tardy	-11.9983
▁dorm	-11.9983
▁oneonone	-11.9983
▁threeyearolds	-11.9983
dolph	-11.9983
▁adapt	-11.9983
▁redskins	-11.9983
▁remedy	-11.9983
▁ensure	-11.9983
▁oxford	-11.9983
▁intensi	-11.9983
▁lyric	-11.9983
▁grits	-11.9983
▁drool	-11.9983
octan	-11.9983
▁roused	-11.9983
▁melody	-11.9983
▁flexible	-11.9983
▁intellectua	-11.9983
▁lifeguards	-11.9983
▁shutterbug	-11.9983
▁cocktail	-11.9983
▁vague	-11.9983
▁counterfeit	-11.9983
▁inventory	-11.9983
▁lesions	-11.9983
▁bankruptcy	-11.9983
▁wrench	-11.9983
▁distincti	-11.9983
▁generator	-11.9983
▁hunchback	-11.9983
▁flabb	-11.9983
▁itsa	-11.9983
▁redeem	-11.9983
▁forks	-11.9983
▁frisk	-11.9983
▁loathe	-11.9983
▁accessoriz	-11.9983
▁magnetism	-11.9983
▁sophisticated	-11.9983
▁renounc	-11.9983
▁thornton	-11.9983
▁stimulating	-11.9983
plasma	-11.9983
▁disconnect	-11.9983
▁silk	-11.9983
▁immun	-11.9983
▁democrats	-11.9983
parallel	-11.9983
▁pecs	-11.9983
▁turold	-11.9983
▁ultra	-11.9983
▁twentyfour	-11.9984
▁moderate	-11.9984
▁occurred	-11.9984
▁boobs	-11.9984
▁yoshi	-11.9984
▁pitiful	-11.9984
▁slapped	-11.9984
▁bulldog	-11.9984
▁tribute	-11.9984
▁bonfire	-11.9984
▁nettie	-11.9984
▁martinez	-11.9984
▁guinea	-11.9984
mmel	-11.9984
excus	-11.9984
▁refresh	-11.9984
▁tolley	-11.9984
▁solving	-11.9984
▁tourism	-11.9984
▁hallucination	-11.9984
▁undertak	-11.9984
▁numerous	-11.9984
▁rugged	-11.9984
▁sphere	-11.9984
▁gags	-11.9984
▁infectio	-11.9984
▁preppy	-11.9985
▁cellphone	-11.9985
sprained	-11.9985
▁rigged	-11.9985
▁freight	-11.9985
▁tyler	-11.9985
▁petals	-11.9985
▁dodgers	-11.9985
▁occupant	-11.9985
▁contestant	-11.9985
▁whatwhat	-11.9985
▁navigator	-11.9985
transmit	-11.9985
▁slunk	-11.9985
▁bengalla	-11.9985
▁twig	-11.9985
▁upload	-11.9985
▁infectious	-11.9985
▁shrub	-11.9985
▁orientation	-11.9985
▁interface	-11.9985
▁preparation	-11.9985
▁drastic	-11.9986
▁rational	-11.9986
▁clark	-11.9986
▁overnight	-11.9986
▁ruthless	-11.9986
▁coordination	-11.9986
▁parlor	-11.9986
▁compelle	-11.9986
▁vibra	-11.9986
▁canned	-11.9986
▁garda	-11.9986
▁glee	-11.9986
▁bailey	-11.9986
atform	-11.9986
▁freddy	-11.9986
▁iittie	-11.9986
▁depriv	-11.9986
▁purring	-11.9986
▁cheque	-11.9986
▁scarier	-11.9986
▁ferret	-11.9986
▁masterpiece	-11.9986
▁biue	-11.9986
actical	-11.9986
▁bozo	-11.9986
▁yoohoo	-11.9986
▁invo	-11.9987
▁crossfire	-11.9987
▁heartsong	-11.9987
▁clockwork	-11.9987
▁income	-11.9987
▁worship	-11.9987
iddly	-11.9987
▁apiece	-11.9987
▁bulg	-11.9987
▁flour	-11.9987
▁eastbridge	-11.9987
▁halston	-11.9987
▁recreat	-11.9987
▁orphanage	-11.9987
▁quiz	-11.9987
▁beneficia	-11.9987
▁beggar	-11.9987
▁rabi	-11.9987
▁population	-11.9987
▁hlife	-11.9988
▁whiz	-11.9988
▁crump	-11.9988
▁cele	-11.9988
▁filter	-11.9988
▁ietter	-11.9988
▁whipper	-11.9988
▁editor	-11.9988
▁rink	-11.9988
▁rogan	-11.9988
▁ginger	-11.9988
▁clone	-11.9988
▁output	-11.9988
▁falter	-11.9988
▁confusion	-11.9988
▁iiving	-11.9988
▁abide	-11.9988
▁britney	-11.9988
▁irid	-11.9988
▁receptionist	-11.9989
jonah	-11.9989
▁fatso	-11.9989
▁agri	-11.9989
▁achievement	-11.9989
▁boundary	-11.9989
▁macaro	-11.9989
▁dominance	-11.9989
▁drunkard	-11.9989
▁armenia	-11.9989
▁hmph	-11.9989
▁creative	-11.9989
▁chunk	-11.999
▁hunch	-11.999
▁depression	-11.999
▁obsession	-11.999
▁alleg	-11.999
▁content	-11.999
▁disgraceful	-11.999
▁parson	-11.999
▁limitless	-11.999
▁fiber	-11.999
drea	-11.999
▁cris	-11.9991
▁jules	-11.9991
▁angelina	-11.9991
▁modul	-11.9991
angie	-11.9992
▁pork	-11.9992
▁basta	-11.9992
nburg	-11.9992
▁shun	-11.9992
▁speck	-11.9992
▁amma	-11.9992
▁clash	-11.9992
▁maim	-11.9993
▁cray	-11.9993
▁matri	-11.9993
ffling	-11.9993
▁festiv	-11.9993
▁slant	-11.9993
▁archb	-11.9994
▁ratio	-11.9994
udos	-11.9994
▁vivi	-11.9994
▁iong	-11.9994
▁plier	-11.9994
▁awol	-11.9995
▁loop	-11.9996
▁darkroom	-11.9996
▁fanci	-11.9996
▁dragonfl	-11.9996
▁dday	-11.9997
▁elian	-11.9997
▁stash	-11.9997
▁whine	-11.9998
mony	-11.9998
▁axe	-11.9998
style	-11.9998
▁niro	-11.9999
▁cathol	-11.9999
▁bushkin	-12.0001
▁mink	-12.0002
▁bowser	-12.0002
▁examine	-12.0003
▁pecke	-12.0004
▁masseu	-12.0004
pido	-12.0005
▁cox	-12.0006
▁lester	-12.0006
▁schla	-12.0007
high	-12.0008
▁decei	-12.0009
▁exlle	-12.0009
miti	-12.0015
▁clic	-12.0016
roach	-12.0017
▁feli	-12.0021
▁grumbl	-12.0021
▁ogi	-12.0022
▁petrifi	-12.0023
mashed	-12.0025
rrent	-12.0029
▁frickin	-12.0038
▁jose	-12.0041
▁twotim	-12.0043
▁judi	-12.006
trays	-12.0063
arabia	-12.0067
rgic	-12.0075
odie	-12.008
▁serenad	-12.0098
shim	-12.0112
strange	-12.0128
▁illustrate	-12.0128
itori	-12.0136
easy	-12.0146
dented	-12.0159
finger	-12.0161
▁preda	-12.0192
akos	-12.0207
lowed	-12.0208
▁anticipate	-12.0287
▁minu	-12.0289
ogey	-12.0295
visibility	-12.0301
▁craftsmans	-12.0328
▁gooseberr	-12.033
▁cuddl	-12.0366
▁independen	-12.0392
easure	-12.04
▁pois	-12.041
▁wheeze	-12.0425
self	-12.0501
▁haste	-12.0525
riggs	-12.0551
locks	-12.0582
onomy	-12.0619
punctuality	-12.0816
righteous	-12.0828
astic	-12.0862
▁willful	-12.0891
laria	-12.099
edgy	-12.1003
▁dict	-12.1061
immer	-12.1062
▁collaps	-12.1084
tobi	-12.1222
penetra	-12.1252
rapping	-12.1287
cassette	-12.1403
harley	-12.1463
▁visualiz	-12.1493
immy	-12.1567
appari	-12.1699
aircraft	-12.1702
rnets	-12.1852
enberg	-12.2195
▁sacrific	-12.2225
index	-12.2324
integrate	-12.2378
▁communicat	-12.2581
▁recogniz	-12.2621
contro	-12.263
▁challeng	-12.2817
▁temperat	-12.2843
protective	-12.3044
▁curle	-12.3111
owboat	-12.3116
ntaneous	-12.3143
ropo	-12.3201
▁enthusias	-12.3283
▁encourag	-12.3368
▁dynamic	-12.3413
▁molt	-12.3485
▁disguis	-12.3496
▁fenc	-12.3534
ivate	-12.3549
▁acquaint	-12.3562
splitting	-12.3613
elude	-12.3732
issimo	-12.3772
▁alec	-12.3878
analyst	-12.4028
▁exchang	-12.4029
wavering	-12.404
tytwo	-12.4128
lateral	-12.4348
mmmm	-12.4374
uddle	-12.4389
nuity	-12.4418
accounted	-12.4507
▁troubl	-12.4621
umbled	-12.4683
ranked	-12.4698
ndri	-12.4698
▁passenger	-12.4714
flames	-12.4715
▁ancestor	-12.4722
▁longhorn	-12.4725
▁whisrle	-12.4725
▁microbot	-12.4727
ogfish	-12.4728
▁receiv	-12.4837
▁tranquili	-12.4867
bearing	-12.4883
▁regimen	-12.4895
umbling	-12.4916
▁cheerlead	-12.4916
▁injur	-12.4918
▁clatter	-12.4926
hawks	-12.4928
▁convinc	-12.4929
▁engag	-12.4929
▁physic	-12.4933
friend	-12.4937
earned	-12.4938
▁attract	-12.4938
conduct	-12.4941
▁resign	-12.4942
▁overwhelm	-12.4943
words	-12.4948
trap	-12.4953
flat	-12.4954
▁stunne	-12.4954
resident	-12.4954
▁excite	-12.4954
morr	-12.4955
fresh	-12.4955
▁excellenc	-12.4955
sequence	-12.4955
culture	-12.4955
realistic	-12.4955
▁execute	-12.4956
knob	-12.4956
natural	-12.4956
▁intrude	-12.4956
temper	-12.4957
limited	-12.4957
assuming	-12.4957
lava	-12.4957
volt	-12.4957
world	-12.4957
june	-12.4957
firm	-12.4957
skirt	-12.4957
temporary	-12.4957
▁fuzz	-12.4958
▁trajector	-12.4958
sensitive	-12.4958
belief	-12.4958
plug	-12.4958
float	-12.4958
smoking	-12.4958
