<unk>	0
<s>	0
</s>	0
s	-4.18724
▁im	-4.4433
▁dont	-4.51999
▁know	-4.60245
▁get	-4.77653
▁go	-4.84375
▁like	-4.85126
▁oh	-4.889
▁right	-4.9212
▁well	-4.95919
▁got	-4.97734
▁youre	-4.97921
▁come	-4.98811
▁thats	-5.15843
▁one	-5.16271
▁na	-5.22747
▁yeah	-5.26108
▁good	-5.30408
▁see	-5.30866
▁think	-5.38848
▁want	-5.45638
▁back	-5.47481
ing	-5.49069
▁yes	-5.49168
▁look	-5.49728
▁hey	-5.50313
▁gon	-5.51984
▁us	-5.56219
▁ill	-5.56575
▁going	-5.59922
▁hes	-5.61062
▁time	-5.62151
▁okay	-5.62234
▁take	-5.67171
▁cant	-5.67407
▁man	-5.68713
▁would	-5.69476
▁mr	-5.72913
▁could	-5.80818
▁say	-5.83473
▁never	-5.87665
▁tell	-5.88114
ed	-5.88792
▁way	-5.89929
▁little	-5.93708
▁really	-5.95396
▁something	-5.96665
▁	-5.96706
▁l	-5.98483
▁make	-5.99779
▁let	-6.01042
▁whats	-6.02428
▁love	-6.02644
▁need	-6.03119
▁ive	-6.03685
▁theres	-6.09681
▁sir	-6.10714
▁lets	-6.12515
▁please	-6.14455
▁mean	-6.15368
▁give	-6.15968
▁thank	-6.17765
▁didnt	-6.20593
▁thing	-6.23659
▁sorry	-6.24167
▁people	-6.25091
▁sure	-6.26271
▁day	-6.27266
▁wait	-6.27919
▁help	-6.2868
▁said	-6.28958
▁find	-6.30193
▁two	-6.33417
▁nothing	-6.34279
▁life	-6.35282
d	-6.36978
▁much	-6.38025
▁uh	-6.39733
▁home	-6.39875
▁stop	-6.4149
▁must	-6.42349
▁theyre	-6.42676
▁great	-6.4413
y	-6.47269
▁first	-6.49798
▁away	-6.49805
▁even	-6.51371
▁father	-6.51789
▁always	-6.52008
▁work	-6.53063
▁ta	-6.53745
▁anything	-6.53914
▁better	-6.54093
▁call	-6.55765
▁shes	-6.57128
▁put	-6.57499
▁ever	-6.57515
▁keep	-6.57771
▁new	-6.58199
▁boy	-6.59311
▁night	-6.59402
ly	-6.60302
▁huh	-6.60608
▁still	-6.60609
▁old	-6.61832
▁god	-6.619
▁maybe	-6.61934
▁youll	-6.62688
▁around	-6.63843
▁thought	-6.64216
▁wan	-6.66359
▁name	-6.67823
▁long	-6.68258
▁big	-6.68372
▁guys	-6.70042
▁wont	-6.72937
▁miss	-6.73075
▁everything	-6.73151
▁leave	-6.73249
▁youve	-6.73362
▁stay	-6.73515
▁talk	-6.73536
▁dad	-6.7362
▁listen	-6.74197
▁believe	-6.74257
▁id	-6.74468
▁things	-6.74662
▁feel	-6.76723
▁told	-6.77706
▁nice	-6.77963
▁girl	-6.78287
e	-6.78901
▁world	-6.79441
▁last	-6.80193
▁place	-6.82281
▁coming	-6.82495
▁fine	-6.82536
▁hear	-6.82844
▁show	-6.8409
▁every	-6.84553
▁hello	-6.84635
▁remember	-6.86237
▁hi	-6.8756
▁music	-6.87679
▁made	-6.88991
▁lot	-6.89878
▁bad	-6.90315
▁son	-6.91556
▁house	-6.91636
▁years	-6.92839
▁may	-6.93774
▁thanks	-6.94261
▁doesnt	-6.94592
▁done	-6.95917
er	-6.9618
▁today	-6.96183
▁left	-6.96969
▁course	-6.97529
▁kind	-6.97984
▁mother	-6.98023
▁wrong	-6.98068
▁another	-6.98888
▁hold	-6.99317
▁hell	-7.00228
▁might	-7.0023
▁move	-7.00646
▁kid	-7.00785
▁enough	-7.00827
▁guy	-7.01082
▁money	-7.01108
▁best	-7.01117
▁ah	-7.01384
▁isnt	-7.0252
▁three	-7.03102
▁care	-7.03448
▁real	-7.03519
▁ok	-7.03945
▁whoa	-7.05712
▁ready	-7.06091
▁mind	-7.06385
▁run	-7.06659
▁friend	-7.08927
▁watch	-7.09467
▁understand	-7.10001
▁looking	-7.10371
▁family	-7.11442
▁morning	-7.11754
▁try	-7.13846
▁job	-7.14159
▁school	-7.14215
▁found	-7.14265
▁talking	-7.14889
▁wouldnt	-7.14961
▁ask	-7.16131
▁mom	-7.16146
▁seen	-7.16762
▁together	-7.17533
▁weve	-7.17534
▁head	-7.1808
▁many	-7.19213
▁playing	-7.19263
▁excuse	-7.20024
▁play	-7.20042
▁happened	-7.21043
▁car	-7.21291
▁whole	-7.21582
▁trying	-7.21673
▁guess	-7.22248
▁aint	-7.22272
▁whos	-7.22485
▁dead	-7.233
▁else	-7.23685
▁everybody	-7.2402
▁fight	-7.24557
▁someone	-7.24732
▁getting	-7.24803
▁next	-7.25083
▁heart	-7.26938
▁turn	-7.27333
▁hard	-7.27717
▁gone	-7.27897
▁hope	-7.28572
▁george	-7.28714
▁matter	-7.28772
▁live	-7.2884
▁bring	-7.29086
▁wanted	-7.29312
▁dog	-7.29982
▁men	-7.30538
▁cause	-7.31157
▁friends	-7.31233
▁minute	-7.31422
▁baby	-7.31513
▁tomorrow	-7.31824
▁came	-7.32065
▁harry	-7.33251
▁eat	-7.33361
▁beautiful	-7.33498
▁pretty	-7.34028
▁kids	-7.3408
▁kill	-7.34425
▁without	-7.34811
▁tonight	-7.356
▁everyone	-7.35607
▁bit	-7.35949
▁start	-7.36136
▁true	-7.36731
▁boys	-7.375
▁gasps	-7.38156
▁woman	-7.38421
▁grunts	-7.38468
▁king	-7.38701
▁open	-7.38763
▁havent	-7.3882
▁idea	-7.38972
▁face	-7.39472
▁wasnt	-7.40054
▁door	-7.40714
▁knew	-7.40885
▁saw	-7.40891
▁mrs	-7.40988
▁jack	-7.41228
▁meet	-7.41739
▁use	-7.41985
▁water	-7.42433
▁room	-7.42855
▁young	-7.42874
▁used	-7.43227
ll	-7.43723
▁sit	-7.44098
▁lord	-7.44282
▁end	-7.45547
▁lost	-7.45599
▁looks	-7.47295
▁worry	-7.48217
▁crazy	-7.48699
▁heard	-7.49036
▁laughing	-7.49289
▁city	-7.49555
▁hand	-7.50396
▁somebody	-7.50471
▁read	-7.51257
▁yet	-7.51452
▁afraid	-7.5191
▁part	-7.52181
▁youd	-7.52385
▁lm	-7.526
▁general	-7.52841
▁lady	-7.53342
▁forget	-7.54262
▁stuff	-7.54934
▁ha	-7.54963
▁town	-7.55136
▁alone	-7.55229
a	-7.55491
▁took	-7.55708
▁already	-7.56196
▁anyone	-7.56197
▁stand	-7.56345
▁fire	-7.56519
▁mine	-7.56673
▁went	-7.5866
▁shall	-7.59156
▁um	-7.59295
▁trust	-7.5938
▁late	-7.5999
al	-7.60539
▁eyes	-7.60957
▁light	-7.61399
▁happy	-7.61698
▁wish	-7.62399
▁break	-7.624
▁saying	-7.63594
▁easy	-7.63776
▁exactly	-7.63789
▁far	-7.6385
▁phone	-7.63956
▁says	-7.63976
▁hmm	-7.64289
▁four	-7.64312
▁wow	-7.64826
▁nobody	-7.64831
▁days	-7.65703
▁couldnt	-7.65955
▁wheres	-7.66184
▁shut	-7.6697
▁check	-7.67004
▁brother	-7.67166
▁second	-7.67168
▁chance	-7.67169
▁thinking	-7.67661
▁die	-7.67865
es	-7.67867
▁welcome	-7.68076
▁soon	-7.69075
▁em	-7.69075
r	-7.70711
▁actually	-7.70855
▁hands	-7.70924
o	-7.71314
t	-7.71423
▁honey	-7.71978
▁change	-7.72025
▁called	-7.72287
▁tom	-7.72516
▁hit	-7.73982
▁fun	-7.74442
▁pay	-7.74475
▁set	-7.74539
▁high	-7.7466
▁minutes	-7.74737
▁important	-7.74874
▁damn	-7.75178
▁probably	-7.75456
▁power	-7.75793
▁wants	-7.75901
▁sighs	-7.76113
▁close	-7.76165
▁since	-7.77227
▁arent	-7.77242
▁making	-7.77248
▁send	-7.77644
▁point	-7.77789
▁hot	-7.77802
▁un	-7.78157
▁clear	-7.788
▁rest	-7.78928
▁cool	-7.78934
▁gave	-7.79061
▁ago	-7.79064
▁five	-7.79072
▁later	-7.79141
▁word	-7.80088
▁trouble	-7.8011
▁de	-7.80178
▁quite	-7.80351
▁almost	-7.80912
▁happen	-7.81257
▁wolf	-7.81278
▁save	-7.81501
▁different	-7.82028
▁jerry	-7.82168
▁year	-7.82646
▁la	-7.82739
▁waiting	-7.82797
▁taking	-7.82819
▁papa	-7.82821
▁chuckles	-7.82887
▁sister	-7.83267
▁anyway	-7.83906
▁story	-7.84075
▁working	-7.84272
▁joe	-7.84577
▁daddy	-7.84584
▁ahead	-7.84725
▁anybody	-7.85216
▁week	-7.85235
▁top	-7.85271
▁business	-7.85359
▁six	-7.85393
▁dance	-7.85789
▁children	-7.85886
▁hurt	-7.86086
▁they	-7.86474
▁hate	-7.8694
▁gentlemen	-7.87345
▁wife	-7.87349
▁deal	-7.87468
▁walk	-7.87822
▁free	-7.87843
▁dear	-7.87859
ve	-7.87948
▁front	-7.88019
▁supposed	-7.88143
▁hurry	-7.88223
▁inside	-7.88692
▁girls	-7.88956
▁sherman	-7.8935
▁perfect	-7.89878
▁follow	-7.90008
▁food	-7.90039
▁sleep	-7.90045
▁doctor	-7.90655
▁side	-7.90665
▁marty	-7.90673
▁parents	-7.90902
▁goes	-7.91094
▁ya	-7.91224
▁cut	-7.91415
▁stupid	-7.92107
▁whatever	-7.92107
▁lt	-7.92314
▁captain	-7.93511
▁laura	-7.93512
▁laughs	-7.93568
▁times	-7.93586
in	-7.93867
▁ooh	-7.94221
▁batman	-7.94225
▁ship	-7.94237
▁promise	-7.94746
▁moment	-7.94863
▁red	-7.9497
▁party	-7.95145
▁line	-7.955
▁continues	-7.9558
▁air	-7.95654
▁half	-7.96311
▁number	-7.96388
▁problem	-7.96718
▁rock	-7.96902
▁means	-7.97049
▁though	-7.97051
▁bye	-7.97116
▁comes	-7.97139
▁knows	-7.97311
▁outside	-7.97783
▁along	-7.97842
▁behind	-7.97843
▁running	-7.97847
▁voice	-7.97866
▁dr	-7.97921
▁rocky	-7.97998
▁yi	-7.98326
▁case	-7.98594
▁miles	-7.99469
▁feeling	-8.00009
▁plan	-8.00078
▁bed	-8.0049
▁master	-8.00847
▁least	-8.00854
▁amanda	-8.01603
▁dinner	-8.01673
▁truth	-8.02357
▁doc	-8.02904
▁ten	-8.03431
▁luck	-8.03899
▁war	-8.0392
▁perhaps	-8.03929
▁future	-8.0393
▁sound	-8.04397
▁sometimes	-8.0493
n	-8.05227
▁hang	-8.05231
▁killed	-8.05269
▁brought	-8.0551
▁person	-8.05616
▁reason	-8.05634
▁shot	-8.05664
▁dragon	-8.05667
▁ow	-8.06119
▁full	-8.06522
▁also	-8.07117
▁wonderful	-8.07149
▁cat	-8.07627
▁speak	-8.07774
▁grunting	-8.07961
▁anymore	-8.08749
▁jesus	-8.0875
▁human	-8.08942
▁strong	-8.09455
▁safe	-8.09469
▁living	-8.09576
▁funny	-8.09581
▁heres	-8.09765
▁needs	-8.09924
▁dark	-8.10372
▁jim	-8.1062
▁pick	-8.11137
▁police	-8.1123
▁hows	-8.1128
▁lose	-8.11409
▁game	-8.11497
▁drink	-8.11498
▁wonder	-8.11573
▁itll	-8.12097
▁goodbye	-8.12103
▁touch	-8.12246
▁ball	-8.12607
▁fall	-8.12753
▁alive	-8.12957
▁quiet	-8.13675
▁asked	-8.1454
▁street	-8.14983
▁daughter	-8.14983
▁blood	-8.15338
▁child	-8.15364
▁either	-8.1556
▁hours	-8.15806
▁singing	-8.15838
▁step	-8.15877
▁answer	-8.16072
▁land	-8.16082
▁sweet	-8.16278
▁ones	-8.16403
▁rather	-8.16447
▁book	-8.16495
▁fly	-8.1667
▁office	-8.16673
▁r	-8.16873
▁panting	-8.17348
▁mary	-8.17356
▁uncle	-8.17682
▁hair	-8.18079
▁ugh	-8.18239
▁glad	-8.1824
▁catch	-8.18683
▁earth	-8.19152
▁tree	-8.19537
▁seems	-8.19597
▁suppose	-8.19897
▁shouldnt	-8.20066
▁married	-8.20073
▁bet	-8.20136
▁win	-8.20267
▁fish	-8.20422
▁country	-8.20435
▁eye	-8.205
▁started	-8.20701
▁met	-8.20792
▁tony	-8.21012
▁sign	-8.21054
▁order	-8.21146
▁buy	-8.21518
▁fast	-8.21785
▁death	-8.21928
▁news	-8.22678
▁sam	-8.22872
▁chief	-8.22873
▁yo	-8.2321
▁sea	-8.23629
▁makes	-8.23669
▁charlie	-8.23826
st	-8.24011
▁learn	-8.24101
▁attack	-8.24529
▁lives	-8.24662
▁careful	-8.24707
▁poor	-8.2479
▁president	-8.25241
▁york	-8.25754
▁able	-8.25927
▁dream	-8.2638
▁seem	-8.2723
▁sounds	-8.27551
▁black	-8.27714
▁special	-8.27716
▁ladies	-8.2773
▁taken	-8.28178
▁spot	-8.28256
▁become	-8.28259
▁picture	-8.28279
▁question	-8.28468
▁couple	-8.28725
▁feet	-8.2873
▁mama	-8.28758
▁blue	-8.28784
▁drive	-8.2902
▁words	-8.29053
▁lead	-8.29165
▁fact	-8.29209
▁join	-8.29271
▁robin	-8.2973
▁sick	-8.2973
▁shit	-8.29734
▁pinocchio	-8.29735
▁less	-8.29993
▁kiss	-8.30003
▁seven	-8.30238
ion	-8.30302
▁shoot	-8.30357
▁maam	-8.30756
▁sort	-8.31009
▁pull	-8.31084
▁others	-8.31786
▁peabody	-8.31786
▁body	-8.31787
▁c	-8.32113
▁screams	-8.32114
▁slow	-8.32135
▁piece	-8.32444
▁small	-8.32728
or	-8.32851
▁gun	-8.33206
est	-8.33373
▁ground	-8.33478
▁control	-8.33488
▁gets	-8.3368
▁class	-8.33815
▁annie	-8.33886
▁buddy	-8.33886
▁tired	-8.33889
▁respect	-8.3461
▁worth	-8.34777
▁write	-8.34865
▁th	-8.34958
▁lucky	-8.35156
▁mark	-8.35258
▁group	-8.35629
▁wed	-8.3574
▁quick	-8.35801
▁shell	-8.35871
▁kane	-8.36021
▁till	-8.36028
▁throw	-8.36248
▁lake	-8.36267
▁b	-8.36379
▁marry	-8.36689
▁wake	-8.36957
▁jungle	-8.37108
▁fault	-8.37108
▁happens	-8.37432
▁law	-8.37511
▁soldier	-8.3786
▁amazing	-8.38056
▁dangerous	-8.38228
▁finally	-8.38276
▁re	-8.38599
▁died	-8.38635
▁magic	-8.3926
▁leaving	-8.39316
▁tried	-8.39325
▁cold	-8.39334
▁boat	-8.40068
▁present	-8.40083
▁doyle	-8.40112
▁hour	-8.40135
▁fair	-8.40264
▁ella	-8.40443
▁kidding	-8.40445
▁forward	-8.40445
▁s	-8.40527
▁sent	-8.40552
▁weeks	-8.40679
▁known	-8.4082
▁evening	-8.40864
▁beat	-8.40912
▁force	-8.41078
▁position	-8.41247
▁a	-8.41582
▁scared	-8.41651
▁jump	-8.42032
▁telling	-8.42082
ers	-8.42217
▁figure	-8.4223
▁team	-8.42422
▁crowd	-8.42445
▁quit	-8.4261
▁somewhere	-8.42726
▁chattering	-8.42829
▁secret	-8.4359
▁bird	-8.4362
▁stick	-8.43873
▁super	-8.43879
▁absolutely	-8.4391
▁greatest	-8.44066
▁rules	-8.44401
ies	-8.44713
▁husband	-8.44742
▁round	-8.44775
▁song	-8.44862
▁elliott	-8.45065
▁busy	-8.45132
▁wear	-8.45579
▁ride	-8.45741
▁bill	-8.45804
▁nose	-8.45895
▁moving	-8.46256
▁felt	-8.46257
▁terrible	-8.46305
▁gold	-8.4637
▁return	-8.46447
▁clean	-8.46773
▁questions	-8.46781
▁bell	-8.4684
▁court	-8.47184
▁sense	-8.47261
▁forever	-8.47457
▁possible	-8.4746
▁women	-8.47461
▁army	-8.47553
▁princess	-8.47689
▁sun	-8.47741
▁pass	-8.48049
▁tough	-8.48545
▁hungry	-8.48682
▁darling	-8.48701
▁expect	-8.48887
▁mad	-8.48929
en	-8.4924
▁j	-8.49407
▁meeting	-8.49608
▁attention	-8.49616
▁mayor	-8.4979
▁white	-8.49914
▁smart	-8.49914
▁fix	-8.50476
▁in	-8.50508
▁proud	-8.51011
▁loud	-8.51054
▁strange	-8.51126
▁broken	-8.51198
▁t	-8.5133
▁act	-8.5139
▁et	-8.5202
▁smell	-8.52084
▁relax	-8.52151
▁finish	-8.52156
▁born	-8.52276
▁broke	-8.52401
▁rupert	-8.5243
▁evil	-8.52431
▁outta	-8.52433
▁fighting	-8.52616
th	-8.52805
▁longer	-8.53032
▁loved	-8.53263
▁pooh	-8.53714
▁hub	-8.5376
▁race	-8.53765
▁choice	-8.53794
▁cheering	-8.53795
▁sing	-8.5384
▁asking	-8.54024
▁lovely	-8.54084
▁g	-8.54108
▁speaking	-8.54355
▁teach	-8.5443
▁e	-8.54636
▁shh	-8.54992
▁company	-8.55011
▁colonel	-8.55011
▁raya	-8.55027
▁certainly	-8.55111
▁interesting	-8.55117
▁screaming	-8.55127
▁robot	-8.55238
▁p	-8.55269
▁m	-8.55972
▁link	-8.56037
▁prince	-8.56069
▁standing	-8.56103
▁spirit	-8.56176
▁machine	-8.56188
▁except	-8.56271
▁handle	-8.56285
▁h	-8.56298
▁vada	-8.56327
▁past	-8.56337
▁daisy	-8.56337
▁none	-8.56351
i	-8.56497
▁laugh	-8.56814
▁happening	-8.57188
h	-8.57224
▁carry	-8.57297
m	-8.573
▁serious	-8.57524
▁impossible	-8.5766
▁theyve	-8.57737
▁press	-8.58102
▁frank	-8.58863
▁lie	-8.58883
▁judge	-8.58901
▁million	-8.58913
l	-8.58937
▁paper	-8.58979
▁coffee	-8.59012
▁robyn	-8.59014
▁meant	-8.59541
▁command	-8.59713
▁ought	-8.60333
▁straight	-8.60357
▁calm	-8.60394
▁eh	-8.60406
▁sad	-8.60499
▁hed	-8.60708
▁watching	-8.60843
c	-8.60878
▁date	-8.61596
▁unless	-8.61805
▁calling	-8.62144
▁push	-8.62255
▁train	-8.62372
▁honor	-8.62877
▁drop	-8.63103
▁alright	-8.6318
▁state	-8.63287
▁short	-8.6418
▁appreciate	-8.64412
▁table	-8.64578
▁wind	-8.64599
▁monsieur	-8.64607
▁christmas	-8.64607
▁giving	-8.64608
▁saved	-8.65013
▁loves	-8.6509
▁fool	-8.65137
▁destroy	-8.65357
▁lll	-8.6546
▁simple	-8.65667
▁months	-8.65806
▁normal	-8.6592
▁entire	-8.6592
▁favorite	-8.65968
▁audience	-8.66057
▁robert	-8.66058
▁tv	-8.66067
▁teacher	-8.66157
▁count	-8.66534
ar	-8.66624
▁dreams	-8.66741
▁worked	-8.66893
▁speed	-8.67068
▁ice	-8.67215
▁near	-8.67265
▁seat	-8.67314
▁english	-8.67527
▁groans	-8.67735
▁given	-8.67951
▁looked	-8.68099
▁deep	-8.68828
▁radio	-8.68889
▁ugly	-8.69018
▁sisu	-8.6902
▁stuck	-8.69023
▁upon	-8.69029
▁jones	-8.69031
▁floor	-8.69038
▁boom	-8.69071
▁madame	-8.69098
us	-8.6911
▁report	-8.69117
▁commander	-8.69132
▁early	-8.69172
▁code	-8.69205
▁promised	-8.69384
▁test	-8.69894
▁needed	-8.69901
▁spend	-8.70119
▁turned	-8.70152
▁grab	-8.70529
▁anywhere	-8.70535
▁history	-8.70535
▁werent	-8.70535
▁mouth	-8.70539
▁fear	-8.70556
▁star	-8.71129
▁dre	-8.7115
▁da	-8.71406
on	-8.71574
▁rain	-8.71634
able	-8.71706
▁charge	-8.71715
over	-8.71961
▁church	-8.72012
▁arthur	-8.72074
▁mike	-8.72082
▁moon	-8.72084
▁works	-8.72186
▁pants	-8.72204
▁hole	-8.72304
▁brain	-8.72846
▁han	-8.73613
▁summer	-8.73716
▁prove	-8.73717
▁holy	-8.73746
▁peter	-8.73814
▁plane	-8.73935
▁kick	-8.74493
▁ring	-8.7452
▁cover	-8.74568
▁cry	-8.74818
▁dogs	-8.74938
▁foot	-8.75127
▁lunch	-8.75154
▁breakfast	-8.75223
▁enemy	-8.75223
▁superman	-8.7524
▁d	-8.75358
▁imagine	-8.75385
▁share	-8.75439
▁continue	-8.75523
▁shoes	-8.75589
g	-8.75777
▁smile	-8.76645
▁uhhuh	-8.76836
▁mmm	-8.76837
▁dancing	-8.76837
▁space	-8.76848
▁eight	-8.76852
▁bag	-8.76977
▁aah	-8.7727
ce	-8.77515
▁mess	-8.7808
▁blow	-8.78226
▁doubt	-8.78355
▁afternoon	-8.78475
▁birthday	-8.78476
▁shouting	-8.78541
▁talked	-8.78943
▁visit	-8.79502
▁box	-8.7969
▁knock	-8.79709
▁grow	-8.79799
▁hat	-8.79872
▁weird	-8.79983
▁stone	-8.80024
▁aw	-8.80035
▁hide	-8.80083
▁alex	-8.80119
▁south	-8.80136
▁miguel	-8.80139
▁surprise	-8.80142
▁pleasure	-8.80142
▁college	-8.80144
▁age	-8.80276
▁crime	-8.80296
▁message	-8.80316
▁fathers	-8.80553
▁ape	-8.80583
▁flying	-8.80915
▁offer	-8.81327
▁breaking	-8.8147
▁gift	-8.81728
▁balboa	-8.81837
▁moxy	-8.81837
▁penny	-8.81838
▁truman	-8.81839
re	-8.82225
▁letter	-8.82273
▁missed	-8.82338
▁monster	-8.82749
▁takes	-8.82904
▁angel	-8.8351
▁glass	-8.83511
▁f	-8.8352
▁major	-8.83558
▁across	-8.83561
▁thomas	-8.83561
▁worse	-8.83561
▁garth	-8.83564
▁definitely	-8.83572
▁brave	-8.83638
▁christ	-8.83667
▁buck	-8.83797
▁station	-8.83798
▁month	-8.83871
le	-8.84029
▁lo	-8.84284
▁explain	-8.8454
▁note	-8.84753
▁cute	-8.85003
▁missing	-8.85165
▁certain	-8.85182
▁forgive	-8.85266
▁middle	-8.85315
▁strength	-8.85315
▁worried	-8.85315
▁kept	-8.85316
▁neil	-8.8532
▁mommy	-8.85325
▁allowed	-8.85524
▁mistake	-8.85599
▁kingdom	-8.8561
▁horse	-8.85655
▁beer	-8.85673
▁changed	-8.85862
▁reach	-8.86384
▁walking	-8.86397
ness	-8.86413
▁protect	-8.86514
ic	-8.86591
ity	-8.86742
▁monsters	-8.8681
▁ass	-8.86977
▁soft	-8.86989
▁waste	-8.87005
▁weather	-8.87098
▁forgot	-8.871
▁north	-8.871
▁majesty	-8.87101
▁adrian	-8.87102
▁forest	-8.87108
▁single	-8.87121
▁se	-8.87216
▁ogre	-8.87444
▁gosh	-8.8745
▁finished	-8.87494
▁crying	-8.87564
▁bat	-8.87806
▁hill	-8.87879
▁dress	-8.88101
▁search	-8.88178
▁bother	-8.88204
▁queen	-8.8848
less	-8.88677
▁neither	-8.88919
▁charles	-8.88922
▁hasnt	-8.88924
▁completely	-8.8904
▁papers	-8.89053
▁swing	-8.89234
▁planet	-8.89287
▁system	-8.89294
▁en	-8.89534
▁cross	-8.90041
▁fill	-8.90109
▁warm	-8.9022
▁seeing	-8.90438
▁bomb	-8.906
▁raise	-8.9061
▁peace	-8.90656
▁dramatic	-8.90759
▁christopher	-8.90771
▁mitsuha	-8.90774
▁bigger	-8.90776
▁green	-8.90776
▁doin	-8.90797
▁bates	-8.90826
▁grand	-8.90844
▁howling	-8.90884
▁smith	-8.90891
▁difference	-8.91046
▁window	-8.91159
▁sight	-8.91175
▁heaven	-8.91191
▁goodness	-8.91296
▁lived	-8.9165
▁sell	-8.92012
▁excited	-8.92506
▁personal	-8.92622
▁pal	-8.92635
▁trick	-8.92647
▁fiona	-8.92658
▁fortune	-8.92658
▁wrote	-8.92658
▁sadiel	-8.92659
▁bought	-8.92659
▁silly	-8.9267
▁distance	-8.92671
▁starting	-8.927
▁notice	-8.9277
▁doll	-8.9294
▁shake	-8.92968
▁bloody	-8.92992
▁service	-8.93105
▁knight	-8.93107
w	-8.93372
ous	-8.93456
▁gods	-8.93673
ment	-8.94103
▁build	-8.94153
▁track	-8.94269
▁ii	-8.94285
▁whoo	-8.94538
▁favor	-8.94579
▁yesterday	-8.94581
▁luca	-8.94581
▁luke	-8.94582
▁swear	-8.94582
▁instead	-8.94583
▁jail	-8.94587
▁yep	-8.94588
▁sky	-8.94617
▁folks	-8.94824
▁quickly	-8.94826
▁computer	-8.95034
▁begin	-8.95073
▁field	-8.95082
▁lou	-8.95191
▁rich	-8.95281
▁feels	-8.95451
▁st	-8.95547
▁problems	-8.95621
▁enjoy	-8.95836
ry	-8.96223
▁boss	-8.96482
▁witch	-8.96493
▁low	-8.96539
▁geppetto	-8.96542
▁shrek	-8.96542
▁wolves	-8.96542
▁creed	-8.96542
▁caught	-8.96542
▁flint	-8.96542
▁woodhouse	-8.96545
▁tuk	-8.96545
▁mason	-8.96546
▁salt	-8.96546
▁walter	-8.96551
▁lois	-8.96694
▁mac	-8.96982
▁battle	-8.97149
▁orders	-8.97633
▁arm	-8.98335
▁tight	-8.98405
▁fresh	-8.98519
▁ghost	-8.98542
▁ridiculous	-8.98542
▁lawrence	-8.98543
▁pupkin	-8.98543
▁beginning	-8.98543
▁emergency	-8.98544
▁ursula	-8.98545
▁david	-8.98547
▁spiderman	-8.98549
▁indeed	-8.98555
▁bridge	-8.98558
▁baron	-8.98571
▁core	-8.98592
▁faster	-8.98745
▁jackie	-8.9886
▁champion	-8.98978
▁dave	-8.99059
▁lon	-8.99069
▁road	-8.99137
▁wearing	-8.99235
▁pop	-8.99404
▁butt	-8.99802
▁arms	-9.00013
▁char	-9.00217
▁fell	-9.00534
▁guitar	-9.00583
▁twice	-9.00583
▁stories	-9.00583
▁fancy	-9.00585
▁throat	-9.00591
▁mario	-9.00609
▁danger	-9.00613
▁wedding	-9.00626
▁lying	-9.00638
▁mia	-9.00655
▁hospital	-9.01034
▁complete	-9.01066
▁action	-9.01221
k	-9.01419
▁lion	-9.01638
▁brown	-9.01837
man	-9.02286
▁realize	-9.0251
▁trip	-9.02653
▁extra	-9.02665
▁apollo	-9.02666
▁mademoiselle	-9.02666
▁professor	-9.02666
▁worst	-9.02666
▁neck	-9.02666
▁clothes	-9.02669
▁everywhere	-9.02671
▁truly	-9.02671
▁paid	-9.0268
▁growls	-9.02775
▁totally	-9.02779
▁paris	-9.02836
▁store	-9.02959
▁ringing	-9.03209
▁castle	-9.03225
▁stan	-9.03273
▁area	-9.03288
▁monkey	-9.03297
▁belong	-9.03323
▁cards	-9.03616
▁toys	-9.03744
na	-9.04033
▁tea	-9.04171
▁double	-9.04203
▁ja	-9.04269
▁movie	-9.04473
▁final	-9.04539
▁ran	-9.0455
▁earl	-9.0464
▁hero	-9.04686
▁apart	-9.04784
▁science	-9.04794
▁mystery	-9.04794
▁crew	-9.04794
▁spent	-9.04795
▁chocolate	-9.04803
▁heavy	-9.04803
▁soren	-9.04806
▁breath	-9.04878
▁interested	-9.04915
▁deserve	-9.05232
▁pure	-9.05303
▁joey	-9.05308
▁bottom	-9.05398
▁soul	-9.05489
▁lock	-9.0554
▁fired	-9.05562
an	-9.05877
▁following	-9.06089
▁cook	-9.0621
▁accept	-9.06669
▁park	-9.06705
up	-9.06712
▁blind	-9.06789
▁sen	-9.06806
▁fentry	-9.06968
▁especially	-9.06969
▁angry	-9.0697
▁pardon	-9.06971
▁famous	-9.06971
▁teeth	-9.06971
▁center	-9.06978
▁emma	-9.06988
▁held	-9.06995
▁sitting	-9.07004
▁immediately	-9.07027
▁copy	-9.07065
▁shed	-9.07378
▁horn	-9.07534
▁lies	-9.07601
▁choose	-9.07613
▁simpl	-9.07639
▁leader	-9.07878
▁aunt	-9.08346
▁manage	-9.08413
▁pain	-9.08697
▁agree	-9.08983
▁taste	-9.09018
▁feelings	-9.09057
▁awful	-9.09072
▁public	-9.09105
▁pack	-9.09151
▁burn	-9.09163
▁deuce	-9.0919
▁foster	-9.0919
▁justin	-9.09191
▁driving	-9.09191
▁rumbling	-9.09192
▁exclaims	-9.09208
▁haku	-9.09211
▁theyd	-9.09785
▁ho	-9.09902
▁fit	-9.09991
▁holding	-9.1026
▁pet	-9.10407
▁mm	-9.1049
um	-9.11014
▁letters	-9.11107
▁ex	-9.11117
▁honest	-9.1116
▁wild	-9.1122
▁bright	-9.11311
▁america	-9.11426
▁plenty	-9.11462
▁toby	-9.11466
▁bigweld	-9.11466
▁price	-9.11467
▁sweetheart	-9.11468
▁john	-9.11494
▁village	-9.11513
▁goin	-9.11636
▁hall	-9.11748
▁dressed	-9.11814
▁learned	-9.12139
▁suit	-9.12176
▁heads	-9.12179
▁contact	-9.12179
▁killing	-9.12223
▁chicken	-9.12257
▁river	-9.12278
▁idiot	-9.12295
▁american	-9.12314
▁wing	-9.12684
▁rings	-9.1295
▁consider	-9.12954
▁brothers	-9.1296
▁lots	-9.12993
▁allow	-9.13044
▁mi	-9.1312
▁bless	-9.13131
ful	-9.13576
▁august	-9.1368
▁bar	-9.1371
▁taki	-9.13747
▁stole	-9.13757
▁asleep	-9.13788
▁mebh	-9.13788
▁palace	-9.13789
▁royal	-9.13792
▁within	-9.13793
▁writing	-9.13805
▁self	-9.13806
▁nine	-9.13807
▁screeching	-9.13822
▁surely	-9.13844
▁pap	-9.14034
▁dare	-9.14116
ch	-9.14283
▁bear	-9.14529
▁picked	-9.14563
▁joke	-9.14567
▁situation	-9.14588
▁liked	-9.14609
▁farm	-9.14642
▁wheel	-9.14662
▁legs	-9.15131
▁building	-9.15186
f	-9.15634
▁gather	-9.15731
▁steal	-9.15742
▁x	-9.15789
▁reading	-9.15877
▁corner	-9.15924
▁difficult	-9.15967
▁howd	-9.16021
▁nothin	-9.16153
▁michael	-9.16169
▁possibly	-9.16169
▁russell	-9.16169
▁whether	-9.16169
▁upset	-9.1617
▁bunch	-9.16175
▁gentleman	-9.16178
▁dirty	-9.16216
▁names	-9.16221
▁fred	-9.16259
▁pa	-9.1638
▁besides	-9.16436
▁breathing	-9.16631
▁engine	-9.16999
▁k	-9.17097
▁gem	-9.17115
▁photo	-9.17132
▁officer	-9.17267
▁cost	-9.17761
▁chris	-9.18381
▁weak	-9.18394
▁escape	-9.18425
▁bob	-9.18521
▁advice	-9.18608
▁excellent	-9.18608
▁langford	-9.18608
▁lyla	-9.18608
▁taught	-9.18608
▁chuckling	-9.18609
▁arlo	-9.1861
▁gang	-9.18612
▁mirror	-9.18613
▁maggie	-9.18613
▁cabin	-9.18616
▁club	-9.18624
▁nancy	-9.18627
▁joker	-9.18751
▁parker	-9.18758
▁lights	-9.1889
▁rip	-9.18907
▁training	-9.19327
▁n	-9.19466
▁tail	-9.196
▁beast	-9.19607
▁key	-9.19691
▁wondering	-9.19802
▁moved	-9.20156
▁roll	-9.20187
▁pray	-9.20216
▁rush	-9.20337
▁dragons	-9.20623
p	-9.20625
▁support	-9.20707
▁serve	-9.20942
▁wood	-9.20946
▁scoob	-9.20949
▁dee	-9.20971
▁total	-9.20972
▁swim	-9.21078
▁congratulations	-9.21108
▁mcfly	-9.21108
▁keating	-9.21109
▁nope	-9.2111
▁storm	-9.21126
▁roger	-9.21134
▁travel	-9.21311
▁meat	-9.21514
▁spell	-9.21561
▁driver	-9.21594
▁color	-9.21826
▁pieces	-9.2209
▁clock	-9.22092
out	-9.22151
▁leg	-9.22173
▁strike	-9.22179
▁giant	-9.22193
▁mountain	-9.22195
▁fellow	-9.22198
▁thousand	-9.22201
▁pig	-9.22278
▁blessing	-9.22581
▁paint	-9.22592
▁books	-9.22696
ie	-9.23171
▁correct	-9.23495
▁nervous	-9.23525
▁beg	-9.23621
▁west	-9.23667
▁built	-9.23672
▁kludd	-9.23672
▁someday	-9.23672
▁justice	-9.23672
▁negative	-9.23672
▁thunder	-9.23672
▁dude	-9.23674
▁clark	-9.23674
▁bread	-9.23676
▁chewie	-9.23678
▁lonely	-9.23699
▁growling	-9.2372
▁stopped	-9.23723
▁decided	-9.23811
▁record	-9.2405
▁van	-9.24063
▁bro	-9.24109
▁perfectly	-9.24193
▁hardly	-9.24644
▁maid	-9.24707
▁guests	-9.24731
▁chair	-9.24743
▁powers	-9.24795
▁button	-9.24809
▁condition	-9.24815
▁rid	-9.25023
ation	-9.25084
▁thinks	-9.25201
▁adventure	-9.25503
▁form	-9.25678
▁v	-9.25844
▁tc	-9.25878
▁main	-9.25884
▁arrest	-9.26025
▁gru	-9.26285
▁third	-9.26304
▁however	-9.26304
▁kitty	-9.26305
▁information	-9.26307
▁paulie	-9.26355
▁powerful	-9.26356
▁james	-9.26376
▁obviously	-9.26378
▁al	-9.26573
▁over	-9.266
▁ra	-9.26698
▁higher	-9.26735
▁large	-9.26834
▁worlds	-9.26978
▁up	-9.27091
▁assume	-9.27171
▁boyfriend	-9.27389
▁universe	-9.27391
▁size	-9.27422
▁shop	-9.27438
▁animals	-9.2751
▁hundred	-9.27523
▁where	-9.27551
ary	-9.27565
▁dads	-9.27959
▁treat	-9.28086
▁movies	-9.28119
▁switch	-9.28295
te	-9.28302
▁staying	-9.28745
▁stars	-9.28856
▁beyond	-9.29006
▁reynolds	-9.29006
▁vader	-9.29006
▁awesome	-9.29007
▁milk	-9.29007
▁zone	-9.2901
▁material	-9.29011
▁thatll	-9.2903
▁steady	-9.29054
▁bus	-9.29066
▁whispering	-9.29081
▁jane	-9.29189
▁noticed	-9.29268
▁owe	-9.29321
▁ba	-9.29541
▁bum	-9.29583
▁ms	-9.29585
▁expected	-9.29621
▁bank	-9.29911
▁cake	-9.30191
▁saturday	-9.302
▁pictures	-9.30231
▁sake	-9.30243
▁lawyer	-9.30308
▁hanging	-9.30422
eful	-9.30437
▁mission	-9.30555
▁played	-9.31249
▁common	-9.31272
▁band	-9.31279
▁deliver	-9.31301
▁fat	-9.31391
▁blows	-9.31449
▁an	-9.31593
▁prepare	-9.31608
▁prison	-9.31664
▁louis	-9.31676
▁suspens	-9.31754
▁handsome	-9.31763
▁address	-9.31784
▁cream	-9.31784
▁empty	-9.31784
▁innocent	-9.31784
▁knox	-9.31784
▁lieutenant	-9.31784
▁responsible	-9.31784
▁opportunity	-9.31784
▁london	-9.31785
▁dibble	-9.31786
▁monday	-9.31786
▁tour	-9.31786
▁dying	-9.31789
▁sweetie	-9.31815
no	-9.31836
▁letting	-9.31964
▁fuck	-9.32229
▁el	-9.32328
▁per	-9.32438
▁lf	-9.32568
▁toy	-9.32773
▁walked	-9.32951
▁rise	-9.33062
▁gives	-9.33151
▁remain	-9.33156
▁gas	-9.33313
ter	-9.33322
▁matters	-9.34244
▁plans	-9.34396
▁practice	-9.34414
▁rescue	-9.3446
▁private	-9.34488
nt	-9.34541
▁dumb	-9.3464
▁cinderella	-9.34641
▁cruz	-9.34641
▁kevin	-9.34641
▁security	-9.34641
▁wizard	-9.34641
▁rodney	-9.34642
▁nowhere	-9.34642
▁often	-9.34642
▁lyle	-9.34643
▁extreme	-9.34643
▁flight	-9.34645
▁mmhmm	-9.34646
▁donkey	-9.34654
▁french	-9.34666
▁hoover	-9.34666
▁france	-9.34679
▁momma	-9.34679
▁lex	-9.34692
▁boring	-9.34697
▁martin	-9.34761
▁parts	-9.34839
▁softly	-9.34862
▁places	-9.34866
▁post	-9.34887
▁heh	-9.34929
▁seriously	-9.34937
ts	-9.3517
▁destroyed	-9.35195
ally	-9.35281
▁co	-9.35338
ctor	-9.35726
▁points	-9.3575
▁spring	-9.35956
▁couldve	-9.35957
▁target	-9.36046
▁relationship	-9.36054
▁camera	-9.36065
▁newspaper	-9.36072
▁island	-9.36083
b	-9.36291
▁trees	-9.36327
▁bite	-9.36331
▁ay	-9.36602
▁named	-9.37203
beat	-9.37313
▁feed	-9.37317
▁experience	-9.37422
▁wall	-9.37452
▁split	-9.3758
▁california	-9.37583
▁garbage	-9.37583
▁hiccup	-9.37583
▁whimpers	-9.37583
▁upstairs	-9.37583
▁sammy	-9.37589
▁energy	-9.37594
▁list	-9.37595
▁local	-9.37631
▁protector	-9.37669
▁barking	-9.37706
▁stacks	-9.37871
el	-9.37925
▁turning	-9.37928
▁nah	-9.37931
▁mam	-9.3799
▁heading	-9.38251
▁account	-9.38258
▁fake	-9.38312
▁dig	-9.38639
▁guard	-9.38872
▁ye	-9.38955
▁swallow	-9.39071
▁older	-9.39084
ty	-9.39084
▁agent	-9.39088
▁girlfriend	-9.3912
▁owl	-9.39221
▁do	-9.3933
▁loser	-9.39347
▁be	-9.39347
▁tall	-9.39467
▁calls	-9.40079
▁lower	-9.40299
▁listening	-9.40302
▁goddamn	-9.40315
▁joy	-9.40409
▁silence	-9.4056
▁view	-9.40583
▁mail	-9.40603
▁afford	-9.40613
▁became	-9.40613
▁susan	-9.40613
▁mammy	-9.40615
▁exclaiming	-9.4062
▁tommy	-9.40623
▁duty	-9.40624
▁deck	-9.40625
▁tower	-9.40629
▁therell	-9.4064
▁pressure	-9.40642
▁safety	-9.40644
▁hail	-9.40668
▁woo	-9.40713
▁doo	-9.40785
▁kinda	-9.4121
▁passed	-9.41315
▁birds	-9.41373
▁astro	-9.41378
▁dollars	-9.41416
▁breathe	-9.41433
▁shower	-9.41447
▁remind	-9.41586
▁weekend	-9.4215
▁page	-9.4225
▁gate	-9.42278
▁tear	-9.42338
▁keys	-9.42422
▁bath	-9.42563
▁draw	-9.42717
▁falls	-9.42745
▁faith	-9.43111
time	-9.43379
▁ruin	-9.4347
▁telephone	-9.43511
▁art	-9.43661
▁match	-9.43695
▁applause	-9.43738
▁kitchen	-9.43738
▁otherwise	-9.43738
▁whimpering	-9.43738
▁luigi	-9.43738
▁granny	-9.43738
▁credit	-9.43739
▁byebye	-9.4374
▁italian	-9.4374
▁simon	-9.43741
▁clever	-9.43742
▁eric	-9.43749
▁laughter	-9.43759
▁uhoh	-9.43794
▁bud	-9.4381
▁groaning	-9.43864
▁surprised	-9.44068
▁locked	-9.44126
▁stealing	-9.44295
▁boun	-9.4442
▁keeping	-9.44466
▁soldiers	-9.44741
▁acting	-9.44789
▁fail	-9.44986
▁followed	-9.4503
▁base	-9.45147
▁ideas	-9.45319
▁scene	-9.45323
▁bathroom	-9.45335
▁climb	-9.45381
▁animal	-9.45502
▁woods	-9.45564
▁starts	-9.4564
▁sleeping	-9.45653
▁butch	-9.45697
ive	-9.46174
▁robots	-9.46403
▁bucks	-9.4642
▁bow	-9.46526
▁suggest	-9.46574
▁turns	-9.4666
▁mention	-9.46704
ta	-9.46756
▁decide	-9.46794
▁madam	-9.46808
▁champ	-9.46938
▁drunk	-9.46942
▁admit	-9.4695
▁among	-9.46964
▁jasmine	-9.46964
▁samantha	-9.46964
▁sugar	-9.46964
▁gwen	-9.46964
▁female	-9.46965
▁brilliant	-9.46966
▁forgotten	-9.46966
▁medical	-9.46966
▁society	-9.46966
▁bike	-9.46967
▁potter	-9.46968
▁mummy	-9.46969
▁ark	-9.46972
▁shouldve	-9.46973
▁haha	-9.46975
▁planned	-9.46976
▁darn	-9.46982
▁mask	-9.46992
▁willing	-9.46998
▁huge	-9.47029
▁usually	-9.47074
▁putting	-9.47081
▁card	-9.47082
▁yelling	-9.47121
▁signal	-9.47144
▁metal	-9.4715
▁eating	-9.47159
▁warning	-9.47233
▁nearly	-9.47268
▁wine	-9.47374
▁figured	-9.47467
▁kicked	-9.47536
▁schedule	-9.47787
▁shape	-9.47857
▁lately	-9.4787
▁murder	-9.48062
ate	-9.48102
▁mate	-9.48374
▁rule	-9.48505
▁falling	-9.48543
▁ahh	-9.48658
▁department	-9.48668
▁cousin	-9.48671
▁opinion	-9.48753
▁type	-9.48777
▁block	-9.48792
▁decision	-9.48797
▁creature	-9.48815
▁weapon	-9.48825
and	-9.48827
▁on	-9.48875
▁wings	-9.49036
▁freak	-9.49506
co	-9.49665
▁san	-9.49796
by	-9.49817
▁board	-9.49866
▁harm	-9.49891
▁focus	-9.49975
▁natural	-9.50192
▁program	-9.50279
▁grace	-9.50287
▁marcel	-9.50294
▁bruce	-9.50297
▁lorraine	-9.50297
▁rosebud	-9.50297
▁apologize	-9.50297
▁merlyn	-9.50297
▁betsie	-9.50297
▁beauty	-9.50298
▁sheriff	-9.50299
▁benny	-9.50302
▁responsibility	-9.50302
▁available	-9.50303
▁ee	-9.50304
▁onto	-9.50305
▁data	-9.50314
▁monte	-9.50325
▁cup	-9.50367
▁hiding	-9.50378
▁bitch	-9.50399
▁concerned	-9.50512
▁tires	-9.50526
age	-9.50567
▁cares	-9.50673
▁cast	-9.50756
▁due	-9.50759
▁fairy	-9.50764
▁yay	-9.51058
▁clearly	-9.5106
▁survive	-9.51848
ist	-9.51888
inas	-9.52061
▁shield	-9.52171
▁noise	-9.52214
▁exist	-9.52244
▁level	-9.52244
▁carlo	-9.52292
ton	-9.5253
▁fi	-9.52989
▁cave	-9.53064
▁coach	-9.53321
▁release	-9.53576
▁heat	-9.53583
▁er	-9.53621
▁refuse	-9.53636
▁mo	-9.53686
ois	-9.53717
▁speech	-9.5373
▁necessary	-9.53745
▁nonsense	-9.53745
▁pizza	-9.53745
▁poirot	-9.53745
▁whistling	-9.53745
▁value	-9.53746
▁insurance	-9.53746
▁druun	-9.53746
▁fantastic	-9.53746
▁corrie	-9.53747
▁indistinct	-9.53747
▁alberto	-9.53748
▁harvey	-9.53749
▁invisible	-9.5375
▁koopa	-9.53751
▁junk	-9.53753
▁indy	-9.53757
▁loose	-9.5377
▁wet	-9.53771
▁incredible	-9.53772
▁wise	-9.53786
▁proof	-9.538
▁highness	-9.53831
▁nature	-9.53848
▁arrived	-9.53873
▁carl	-9.53899
▁union	-9.53911
▁wayne	-9.5392
▁hoping	-9.53924
▁guide	-9.53961
▁agreed	-9.5402
▁failed	-9.54047
▁shame	-9.54074
▁raised	-9.54093
▁gasping	-9.54123
as	-9.54168
▁riding	-9.54296
▁showed	-9.54311
▁flowers	-9.54461
▁growing	-9.54607
to	-9.54659
▁fans	-9.54718
▁seemed	-9.54732
▁ordered	-9.5479
▁guns	-9.5507
▁shooting	-9.5517
▁tickets	-9.55184
▁mon	-9.55387
▁damage	-9.55425
▁guards	-9.55451
lden	-9.55577
▁government	-9.55605
▁jerk	-9.55611
▁sunday	-9.55691
▁alarm	-9.55701
▁language	-9.55727
▁nation	-9.5576
▁bottle	-9.55763
▁bobble	-9.55804
▁clown	-9.5581
▁ticket	-9.55854
▁guest	-9.55861
▁wash	-9.55873
▁no	-9.56387
▁discuss	-9.56561
▁enter	-9.56601
rs	-9.5665
▁horses	-9.56657
▁punch	-9.56786
▁freeze	-9.56917
▁ca	-9.57123
▁lay	-9.57167
▁sand	-9.57278
▁harriet	-9.57317
▁journey	-9.57317
▁marriage	-9.57317
▁ocean	-9.57317
▁strickland	-9.57317
▁grail	-9.57317
▁precious	-9.57317
▁darien	-9.57318
▁todd	-9.57318
▁basic	-9.5732
▁mouse	-9.5732
▁comfortable	-9.57322
▁poppa	-9.57323
▁hammer	-9.57333
▁chet	-9.57333
▁deland	-9.57343
▁helped	-9.57353
▁rita	-9.57368
▁engaged	-9.57396
▁trap	-9.57425
▁model	-9.57502
▁fran	-9.57515
▁using	-9.57545
▁seek	-9.57574
▁entirely	-9.57659
▁cars	-9.57847
▁nuts	-9.57878
▁hurts	-9.58029
▁kate	-9.58095
▁ends	-9.58338
▁closed	-9.5839
▁who	-9.5842
▁spider	-9.58627
▁students	-9.58645
▁doors	-9.58912
ian	-9.58967
▁reporter	-9.59095
▁knightley	-9.59316
▁manc	-9.59421
▁conversation	-9.5943
▁accident	-9.59441
▁apartment	-9.59452
▁unicorn	-9.59476
▁dune	-9.59489
▁appear	-9.59536
▁comet	-9.60085
▁cats	-9.60182
▁sever	-9.60552
▁desert	-9.60607
▁amen	-9.60816
▁particular	-9.6088
▁ben	-9.60954
▁wage	-9.60988
▁alakay	-9.6102
▁chicago	-9.6102
▁cricket	-9.6102
▁itomori	-9.6102
▁quilok	-9.6102
▁somehow	-9.6102
▁tradition	-9.6102
▁terrific	-9.6102
▁gotham	-9.61021
▁itd	-9.61021
▁glory	-9.61021
▁empire	-9.61021
▁fought	-9.61021
▁washington	-9.61022
▁source	-9.61023
▁binky	-9.61024
▁biff	-9.61025
▁television	-9.61026
▁metro	-9.61026
▁nuclear	-9.61026
▁fetch	-9.61029
▁tongue	-9.61029
▁aboard	-9.6103
▁crown	-9.61046
▁cutting	-9.61056
▁jacket	-9.61068
▁whatd	-9.61084
▁stage	-9.61093
▁scary	-9.61104
▁ships	-9.61117
▁created	-9.61123
▁towards	-9.61442
▁tape	-9.61461
▁di	-9.61783
▁meaning	-9.62512
▁ohh	-9.62585
▁snow	-9.62695
▁bug	-9.62797
▁drinking	-9.62864
▁picking	-9.62875
▁cos	-9.62875
▁pleased	-9.62887
▁pro	-9.62888
▁invite	-9.62972
▁gasp	-9.63015
▁sons	-9.6304
▁badly	-9.63094
▁load	-9.63124
▁purpose	-9.63232
▁vespa	-9.63233
▁chip	-9.6327
▁snake	-9.63345
▁whistle	-9.63369
▁direction	-9.63383
▁musician	-9.63423
▁seconds	-9.6349
▁drinks	-9.63738
▁w	-9.63793
▁crack	-9.63999
▁corps	-9.64205
ling	-9.64312
ors	-9.64334
▁headed	-9.64349
▁career	-9.64429
▁study	-9.64445
▁blast	-9.64465
▁smoke	-9.64467
▁screw	-9.64571
▁blame	-9.64687
▁mood	-9.64748
▁shoo	-9.64763
▁gross	-9.64854
▁lieberman	-9.64867
▁namaari	-9.64867
▁purrbles	-9.64867
▁spazzatura	-9.64867
▁taylor	-9.64867
▁bullshit	-9.64867
▁surface	-9.64867
▁hidden	-9.64867
▁milady	-9.64867
▁evelyn	-9.64867
▁luthor	-9.64869
▁desmond	-9.6487
▁march	-9.64871
▁cheese	-9.64872
▁spread	-9.64873
▁horrible	-9.64874
▁map	-9.64875
▁jason	-9.64877
▁liar	-9.64878
▁poppy	-9.64879
▁candy	-9.64882
▁desk	-9.64885
▁destiny	-9.64888
▁cage	-9.64898
▁shining	-9.64898
▁path	-9.64923
▁row	-9.64924
▁unfortunately	-9.64939
▁marion	-9.64943
▁heck	-9.64948
▁china	-9.64955
ant	-9.65076
▁eaten	-9.65089
▁ate	-9.65237
▁whoohoo	-9.65264
▁out	-9.65325
▁carefully	-9.65446
▁harder	-9.6589
▁likes	-9.65936
▁stink	-9.66393
▁mans	-9.66425
▁risk	-9.66531
▁grave	-9.66681
▁tie	-9.66864
▁checked	-9.66883
▁devil	-9.66984
ish	-9.67002
▁cop	-9.67053
▁poem	-9.67373
▁mel	-9.67393
▁student	-9.67397
▁fella	-9.67494
▁games	-9.67698
▁announce	-9.67836
▁approach	-9.68385
▁stu	-9.68423
▁lift	-9.68559
▁range	-9.68684
▁usual	-9.68823
▁popular	-9.68857
▁birth	-9.68865
▁derek	-9.68867
▁disaster	-9.68867
▁easily	-9.68867
▁kelani	-9.68867
▁oconnor	-9.68867
▁progress	-9.68867
▁shaggy	-9.68867
▁video	-9.68867
▁century	-9.68867
▁klaus	-9.68867
▁paradise	-9.68867
▁presence	-9.68867
▁staff	-9.68867
▁truck	-9.68867
▁junior	-9.68867
▁pleasant	-9.68867
▁zero	-9.68868
▁groov	-9.68869
▁memory	-9.6887
▁dante	-9.68871
▁ashamed	-9.68873
▁johnny	-9.68873
▁babies	-9.68874
▁screeches	-9.68874
▁planning	-9.68874
▁wherever	-9.68874
▁barrow	-9.68875
▁steve	-9.68876
▁inspector	-9.68879
▁parade	-9.68883
▁knowledge	-9.68886
▁inquirer	-9.68886
▁began	-9.68887
▁rough	-9.68887
▁missile	-9.68892
▁mister	-9.68894
▁mere	-9.68911
▁hoke	-9.68917
▁protection	-9.68921
▁ox	-9.68922
▁tiny	-9.68925
▁plus	-9.68926
▁states	-9.68983
▁glasses	-9.68991
▁invited	-9.69052
os	-9.69063
▁wha	-9.69083
▁personally	-9.69209
▁treated	-9.69285
▁billy	-9.69401
▁guts	-9.69478
▁loss	-9.69704
▁fixed	-9.69777
it	-9.69907
▁cookies	-9.69974
▁cleaning	-9.7027
▁weapons	-9.70669
▁fishing	-9.70697
▁add	-9.70775
▁prefer	-9.70789
▁si	-9.70867
ting	-9.70935
▁kings	-9.70945
▁thousands	-9.71222
▁subject	-9.71318
▁trade	-9.7133
▁friday	-9.71355
▁vote	-9.71445
▁nurse	-9.7145
▁lesson	-9.71472
▁humans	-9.71996
▁sacrifice	-9.72002
▁pre	-9.72114
▁repeat	-9.72239
▁mistakes	-9.72276
▁ni	-9.72457
▁arrange	-9.72671
▁du	-9.72758
knock	-9.72758
▁zoo	-9.72857
▁rhythm	-9.72999
▁bernstein	-9.73033
▁bruno	-9.73033
▁elizabeth	-9.73033
▁ikioi	-9.73033
▁oclock	-9.73033
▁wildhorn	-9.73033
▁darlene	-9.73034
▁jubal	-9.73034
▁mercy	-9.73035
▁solid	-9.73035
▁starving	-9.73035
▁miserable	-9.73036
▁smooth	-9.73036
▁richard	-9.73037
▁dido	-9.73037
▁dick	-9.73039
▁jedi	-9.73043
▁lightning	-9.73044
▁randy	-9.73049
▁dug	-9.73052
▁cries	-9.73056
▁theme	-9.73058
▁involved	-9.73066
▁worthless	-9.7309
▁mae	-9.73096
▁po	-9.73114
▁minister	-9.73119
▁express	-9.73121
▁meeks	-9.7313
▁chase	-9.73132
▁jet	-9.73137
▁male	-9.73178
▁attend	-9.7319
▁grown	-9.73266
▁losing	-9.73294
▁murderer	-9.73329
▁troops	-9.73446
▁bringing	-9.73475
▁dis	-9.7354
▁slowly	-9.73597
▁smells	-9.73648
▁bee	-9.73653
▁covered	-9.73777
▁gum	-9.73948
▁lee	-9.74005
▁bones	-9.74352
▁ears	-9.74404
▁arab	-9.74537
▁nights	-9.75128
head	-9.7516
▁provide	-9.75336
▁settle	-9.75455
▁german	-9.75466
▁hook	-9.75475
▁request	-9.75517
▁concern	-9.75578
▁rope	-9.75635
▁officers	-9.75659
sh	-9.75682
▁saving	-9.75696
▁estate	-9.75701
▁puppet	-9.75712
▁answers	-9.7577
▁bi	-9.75815
▁bobblehead	-9.75822
▁pocket	-9.75847
▁heffalump	-9.75866
▁balls	-9.76023
▁o	-9.76057
▁mis	-9.76068
▁surrender	-9.76535
off	-9.76804
▁sharp	-9.77086
▁concentrate	-9.7719
▁square	-9.77193
▁spare	-9.77202
▁assure	-9.77216
▁helping	-9.77266
▁camp	-9.77278
▁genius	-9.77322
▁character	-9.77381
▁device	-9.77381
▁dimitri	-9.77381
▁lindsay	-9.77381
▁military	-9.77381
▁shelter	-9.77381
▁someplace	-9.77381
▁violin	-9.77381
▁warehouse	-9.77381
▁plummer	-9.77381
▁morgan	-9.77381
▁reserve	-9.77381
▁zuba	-9.77381
▁spanish	-9.77382
▁insist	-9.77382
▁gertie	-9.77382
▁alexander	-9.77383
▁rotten	-9.77384
▁leland	-9.77385
▁lockwood	-9.77385
▁leia	-9.77386
▁ripper	-9.77388
▁convince	-9.77388
▁soup	-9.77399
▁under	-9.77404
▁murmuring	-9.77409
▁ouch	-9.77414
▁rocket	-9.77423
▁dust	-9.77427
▁section	-9.7744
▁sally	-9.77443
▁shy	-9.77462
▁bury	-9.77465
▁giggles	-9.77482
▁moody	-9.77559
▁gotten	-9.77564
▁recall	-9.77598
▁charming	-9.77719
▁wishes	-9.77813
▁fucking	-9.78029
▁forced	-9.78078
▁sooner	-9.78149
▁returned	-9.78412
▁fingers	-9.78612
▁doyles	-9.7868
▁bert	-9.78762
▁flag	-9.788
▁keeps	-9.7931
ious	-9.79635
▁fo	-9.79684
▁que	-9.7974
▁chatter	-9.80001
▁scream	-9.80062
▁season	-9.80246
▁rabbit	-9.80291
▁pie	-9.80312
▁elephant	-9.80379
▁file	-9.80428
▁shoulder	-9.80464
▁knights	-9.80831
▁ear	-9.80851
▁drawing	-9.80893
▁direct	-9.81049
▁shows	-9.81086
▁witness	-9.81138
ern	-9.8142
▁chew	-9.81523
▁defeat	-9.81636
▁bay	-9.81703
▁terribl	-9.81734
▁spit	-9.81839
▁paul	-9.8184
▁sandwich	-9.81868
▁somethin	-9.81911
▁wide	-9.81914
▁silver	-9.81925
▁federal	-9.81927
▁hagrid	-9.81927
▁linderman	-9.81927
▁linnet	-9.81927
▁mackenzie	-9.81927
▁marvin	-9.81927
▁sarris	-9.81927
▁written	-9.81927
▁brooklyn	-9.81927
▁complex	-9.81927
▁pilot	-9.81927
▁conference	-9.81927
▁piano	-9.81927
▁alodor	-9.81927
▁wallace	-9.81928
▁lewis	-9.81928
▁percent	-9.81928
▁easier	-9.8193
▁cmon	-9.81932
▁pair	-9.81933
▁downton	-9.81933
▁emperor	-9.81934
▁piglet	-9.81934
▁churchill	-9.81935
▁football	-9.81935
▁skin	-9.81935
▁duck	-9.81935
▁roof	-9.81937
▁grandma	-9.81937
▁alley	-9.81938
▁santa	-9.8194
▁giles	-9.81942
▁carried	-9.81943
▁ease	-9.81949
▁literally	-9.8197
▁squeaking	-9.81975
▁stairs	-9.81985
▁lines	-9.8202
▁gotcha	-9.82026
▁dean	-9.82095
▁lily	-9.82105
▁closer	-9.82292
▁writer	-9.82376
▁bound	-9.82469
▁eggs	-9.82481
▁shelly	-9.82601
▁thy	-9.82607
▁knocked	-9.82701
▁vision	-9.82802
▁lab	-9.82845
▁howls	-9.8294
il	-9.83013
▁knocking	-9.83076
▁ne	-9.83078
▁dang	-9.83117
▁counting	-9.83238
son	-9.83263
▁servants	-9.83356
▁fellas	-9.83654
▁throwing	-9.83708
ng	-9.84058
▁losers	-9.84263
▁site	-9.84465
▁thin	-9.84558
▁ar	-9.84729
you	-9.84741
▁arrive	-9.84945
z	-9.84965
▁stomach	-9.84971
▁treasure	-9.84972
▁chop	-9.85
▁museum	-9.85051
▁sword	-9.85071
▁operation	-9.85079
▁winner	-9.85114
▁cell	-9.8515
▁shine	-9.85154
▁belongs	-9.85183
▁detail	-9.85188
▁bastard	-9.85191
▁servant	-9.85211
▁showing	-9.85354
▁latin	-9.85432
▁cow	-9.85644
▁score	-9.85759
▁pretend	-9.85946
▁shock	-9.85951
▁trail	-9.86249
ine	-9.86284
▁attempt	-9.86386
▁prize	-9.86465
▁fighter	-9.86507
▁positive	-9.86545
▁curse	-9.86551
▁obvious	-9.86552
ier	-9.86604
▁russia	-9.86628
▁spoke	-9.86655
▁so	-9.86656
▁chose	-9.86656
▁babo	-9.86675
▁success	-9.86676
▁social	-9.86686
▁campaign	-9.86688
▁chihiro	-9.86688
▁eeyore	-9.86688
▁fabulous	-9.86688
▁greg	-9.86688
▁phantom	-9.86688
▁regular	-9.86688
▁skywalker	-9.86688
▁biggest	-9.86689
▁lulu	-9.86689
▁mandrake	-9.86689
▁hadnt	-9.86689
▁including	-9.86689
▁opposite	-9.86689
▁alfred	-9.86689
▁meade	-9.86689
▁miracle	-9.86689
▁wilson	-9.86689
▁kemo	-9.8669
▁mysterious	-9.8669
▁elaine	-9.86691
▁community	-9.86691
▁airport	-9.86691
▁mick	-9.86692
▁heavily	-9.86692
▁review	-9.86693
▁grew	-9.86697
▁dropped	-9.86699
▁snoring	-9.867
▁asshole	-9.86701
▁lean	-9.86702
▁according	-9.86719
▁solo	-9.86726
▁barely	-9.86731
▁swimming	-9.86733
▁crap	-9.86742
▁su	-9.86749
▁hired	-9.86829
▁wounded	-9.86873
▁weight	-9.86913
▁busted	-9.86921
▁cents	-9.86942
▁circumstances	-9.86944
▁latest	-9.86966
▁foolish	-9.86973
▁hood	-9.86995
▁original	-9.86995
▁judges	-9.87043
▁spine	-9.87096
▁all	-9.87161
men	-9.87239
▁stronger	-9.87252
im	-9.87409
▁mud	-9.87506
▁lips	-9.87514
▁mothers	-9.87516
▁citizens	-9.87529
▁fully	-9.8772
▁guardians	-9.87749
▁relaxed	-9.87764
▁dry	-9.87774
▁sat	-9.87851
▁stayed	-9.88133
▁regret	-9.88264
▁passing	-9.88356
be	-9.88661
▁faces	-9.88972
▁landing	-9.88986
▁tears	-9.8902
▁bone	-9.8906
▁laws	-9.89118
▁slave	-9.89262
▁changes	-9.89279
▁lawyers	-9.89297
▁interest	-9.89483
▁lookin	-9.89485
▁fellows	-9.8952
▁bang	-9.89866
cient	-9.89885
▁vacation	-9.89971
▁challenge	-9.90001
▁winter	-9.9002
ia	-9.90039
▁youth	-9.90061
▁coat	-9.90078
▁spoil	-9.90092
▁bon	-9.90122
▁airplane	-9.90124
▁diamond	-9.90172
▁paying	-9.90193
▁odd	-9.90245
▁honour	-9.90266
ted	-9.90478
▁tale	-9.90616
▁pen	-9.90681
▁collect	-9.90736
▁le	-9.90806
▁brings	-9.90816
▁defend	-9.90919
▁lack	-9.91011
▁warn	-9.91115
▁ld	-9.91167
▁awake	-9.91244
▁heal	-9.91262
ha	-9.9128
▁poison	-9.91392
▁plant	-9.91442
▁introduce	-9.91506
▁recognize	-9.91514
▁jeff	-9.91523
▁contract	-9.91547
▁pink	-9.91553
▁es	-9.91573
▁numbers	-9.9163
▁object	-9.91651
▁pitts	-9.91684
▁believing	-9.91688
▁council	-9.91688
▁davinier	-9.91688
▁escalante	-9.91688
▁policy	-9.91688
▁yubaba	-9.91688
▁concert	-9.91689
▁giggling	-9.91689
▁downstairs	-9.91689
▁mmmhmm	-9.91689
▁permission	-9.9169
▁lucy	-9.9169
▁central	-9.9169
▁theory	-9.91691
▁mount	-9.91691
▁velma	-9.91692
▁slight	-9.91692
▁ohhh	-9.91692
▁brent	-9.91693
▁coast	-9.91694
▁poetry	-9.91695
▁priest	-9.91696
▁property	-9.91696
▁brush	-9.91697
▁secure	-9.91699
▁humming	-9.917
▁fuel	-9.91708
▁partner	-9.91714
▁loving	-9.91715
▁galaxy	-9.91717
▁columbia	-9.91726
▁bowers	-9.91728
▁fruit	-9.91736
▁float	-9.91745
▁jackson	-9.9176
▁hm	-9.91767
▁familiar	-9.91767
▁surrounded	-9.91768
▁fu	-9.91771
▁madeline	-9.91774
▁lina	-9.91784
▁laid	-9.91786
▁instructions	-9.91806
▁united	-9.91833
▁lane	-9.91878
▁closes	-9.91933
▁prepared	-9.92011
▁yall	-9.92131
▁lando	-9.92148
▁doctors	-9.9222
▁fii	-9.92248
▁ed	-9.92293
▁pr	-9.92364
▁reached	-9.92491
▁roses	-9.92574
▁boots	-9.92811
▁secrets	-9.92973
▁staring	-9.93076
▁pulled	-9.93087
▁signed	-9.93233
▁carrying	-9.93287
▁teaching	-9.93333
▁yea	-9.93374
▁cops	-9.93589
▁boo	-9.93794
▁rode	-9.9383
▁rat	-9.94011
▁friendly	-9.94061
▁of	-9.94238
▁leaves	-9.94438
▁banks	-9.94444
▁speaks	-9.94501
▁mountains	-9.9467
▁photos	-9.94826
▁jokes	-9.94911
▁streets	-9.95112
▁ac	-9.95214
▁ace	-9.95219
▁opened	-9.95226
▁assignment	-9.95234
▁valley	-9.95235
▁villain	-9.95254
▁bride	-9.95318
▁owner	-9.95356
▁stock	-9.9539
▁connection	-9.95412
▁tigger	-9.95416
▁finger	-9.95485
▁hunter	-9.95491
▁fan	-9.95498
▁sometime	-9.95499
▁ray	-9.95675
▁education	-9.96009
▁crash	-9.96113
▁avoid	-9.96129
▁panic	-9.96163
▁sex	-9.96323
▁i	-9.96356
▁sneak	-9.96356
▁dump	-9.96482
▁poop	-9.96541
▁borrow	-9.96641
▁disease	-9.96775
▁hearts	-9.968
▁exact	-9.96818
▁rare	-9.96832
▁towns	-9.96868
▁scratch	-9.96887
▁event	-9.96896
▁planes	-9.96908
▁krypto	-9.96916
▁plain	-9.96929
▁gentle	-9.96937
▁although	-9.96952
▁equipment	-9.96952
▁example	-9.96952
▁frederick	-9.96952
▁fredricksen	-9.96952
▁grunion	-9.96952
▁longstreet	-9.96952
▁politics	-9.96952
▁stephanie	-9.96952
▁thatcher	-9.96952
▁title	-9.96952
▁underneath	-9.96952
▁channel	-9.96952
▁footsteps	-9.96952
▁knife	-9.96952
▁beloved	-9.96952
▁memories	-9.96952
▁whenever	-9.96953
▁exhales	-9.96953
▁woke	-9.96953
▁delicious	-9.96953
▁otis	-9.96954
▁bamba	-9.96954
▁yellow	-9.96954
▁stephen	-9.96955
▁dracone	-9.96955
▁twenty	-9.96956
▁dope	-9.96956
▁admiral	-9.96956
▁technology	-9.96956
▁ordinary	-9.96957
▁miami	-9.96958
▁sentimental	-9.96959
▁rising	-9.96959
▁coward	-9.9696
▁changing	-9.9696
▁exercise	-9.96961
▁daily	-9.96961
▁lisa	-9.96962
▁willie	-9.96964
▁freedom	-9.96964
▁melman	-9.96968
▁swamp	-9.96969
▁impression	-9.96972
▁johnson	-9.96974
▁elton	-9.96974
▁postman	-9.96975
▁favour	-9.96975
▁ridge	-9.96975
▁math	-9.96985
▁coughing	-9.96986
▁chosen	-9.96989
▁precisely	-9.96993
▁pool	-9.96994
▁perry	-9.96997
▁election	-9.96999
▁market	-9.97004
▁spoken	-9.97012
▁nightmare	-9.97037
▁stolen	-9.97038
▁recently	-9.97053
▁suddenly	-9.9706
▁manual	-9.97062
▁disappointed	-9.97066
▁embarrassing	-9.97122
▁manager	-9.97136
▁sold	-9.97147
▁toilet	-9.9716
▁naturally	-9.97173
▁louise	-9.97181
▁manny	-9.97227
▁earned	-9.9723
▁loaded	-9.97343
▁ruined	-9.9743
▁deeply	-9.97451
▁maine	-9.97549
▁structure	-9.97578
▁parking	-9.97976
▁nate	-9.98057
se	-9.98191
▁daddys	-9.98219
way	-9.98362
▁touched	-9.98744
▁expecting	-9.9878
at	-9.99277
▁gates	-9.99531
▁walls	-9.99645
▁parent	-9.99682
cer	-9.99711
▁transfer	-9.99715
▁led	-9.99818
▁trusted	-9.99995
is	-10.0031
ley	-10.004
▁roar	-10.0053
▁suspect	-10.0064
▁exit	-10.008
▁siren	-10.0085
▁slip	-10.0086
▁appointment	-10.0087
▁christian	-10.0093
▁uniform	-10.0094
▁professional	-10.0097
▁cookie	-10.0106
▁dollar	-10.0112
▁prisoner	-10.0121
▁heavens	-10.0126
▁paw	-10.0128
▁hills	-10.0143
▁believed	-10.015
▁discover	-10.0178
▁chant	-10.02
ah	-10.0217
▁phil	-10.0227
▁chamber	-10.0235
▁moan	-10.0237
▁proper	-10.0238
ance	-10.0238
▁fur	-10.0241
▁cruel	-10.025
▁dumbledore	-10.0251
▁einstein	-10.0251
▁gabriel	-10.0251
▁grantham	-10.0251
▁kumandra	-10.0251
▁luisa	-10.0251
▁mexico	-10.0251
▁political	-10.0251
▁ralph	-10.0251
▁subtitle	-10.0251
▁therefore	-10.0251
▁attitude	-10.0251
▁otterbourne	-10.0251
▁reputation	-10.0251
▁salesman	-10.0251
▁interview	-10.0251
▁sergeant	-10.0251
▁funeral	-10.0251
▁alert	-10.0251
▁orange	-10.0251
▁stood	-10.0251
▁distant	-10.0251
▁closing	-10.0251
▁aware	-10.0251
▁jayson	-10.0251
▁wrapped	-10.0251
▁performance	-10.0251
▁goodfellowe	-10.0251
▁whoever	-10.0251
▁flesh	-10.0251
▁imagination	-10.0251
▁henry	-10.0251
▁rude	-10.0251
▁false	-10.0251
▁wore	-10.0252
▁cannon	-10.0252
▁chasing	-10.0252
▁deputy	-10.0252
▁nasty	-10.0253
cy	-10.0253
▁expensive	-10.0253
▁blink	-10.0253
▁guilty	-10.0254
▁apparently	-10.0255
▁bratt	-10.0256
▁weston	-10.0258
▁disgusting	-10.0259
▁winning	-10.0259
▁opening	-10.026
▁clattering	-10.0261
▁mistaken	-10.0262
▁carrot	-10.0262
▁promises	-10.0263
▁fry	-10.0264
▁national	-10.0265
▁witches	-10.0265
▁sexy	-10.0267
▁yah	-10.0268
▁chill	-10.027
▁pity	-10.027
▁disappeared	-10.0272
▁ew	-10.0273
▁snape	-10.0278
▁image	-10.0279
▁discovered	-10.028
▁rate	-10.0284
▁deeper	-10.0288
▁mentioned	-10.03
▁kent	-10.0301
▁whispers	-10.0307
erry	-10.0309
▁quest	-10.0319
▁blessed	-10.032
▁locker	-10.0321
▁accepted	-10.0324
▁lick	-10.0329
▁to	-10.0338
▁tells	-10.0345
▁ways	-10.0348
▁fund	-10.0372
▁chin	-10.0374
▁songs	-10.0386
▁highly	-10.0387
▁hug	-10.0397
▁gump	-10.0411
▁slaves	-10.0422
▁juice	-10.043
▁flora	-10.0447
▁nan	-10.0451
▁sp	-10.0456
ne	-10.0471
▁dreaming	-10.0494
▁fle	-10.0504
▁creatures	-10.0506
▁facts	-10.0506
▁reminds	-10.0525
▁z	-10.0573
▁sin	-10.0598
▁ap	-10.0608
▁knowing	-10.0614
▁function	-10.0623
nic	-10.0624
king	-10.063
▁daughters	-10.0634
▁pound	-10.0637
▁talent	-10.0653
▁project	-10.0661
▁defense	-10.0677
▁bedroom	-10.0678
▁advantage	-10.0679
▁twin	-10.0683
▁dimension	-10.0686
▁hearing	-10.069
▁port	-10.0698
▁actor	-10.0703
▁prayer	-10.0709
▁circle	-10.0713
▁systems	-10.0716
u	-10.0771
▁drag	-10.0778
one	-10.0781
▁watched	-10.0785
▁intend	-10.0786
back	-10.0791
▁crush	-10.0798
just	-10.0802
ke	-10.0803
▁cash	-10.0804
▁adopt	-10.0808
▁charges	-10.0808
▁wreck	-10.0811
▁permanent	-10.0823
▁grin	-10.0828
▁someones	-10.0831
▁butter	-10.0833
▁inherit	-10.0838
▁artillery	-10.0839
▁clifford	-10.0839
▁curious	-10.0839
▁district	-10.0839
▁holiday	-10.0839
▁judgment	-10.0839
▁mathesar	-10.0839
▁patience	-10.0839
▁principal	-10.0839
▁salad	-10.0839
▁tokyo	-10.0839
▁unusual	-10.0839
▁wednesday	-10.0839
▁courbet	-10.0839
▁eternal	-10.0839
▁wicked	-10.0839
▁jealous	-10.0839
▁annette	-10.0839
▁willow	-10.0839
▁invitation	-10.0839
▁plaza	-10.0839
▁pride	-10.0839
▁sacred	-10.0839
▁wabac	-10.0839
▁behavior	-10.0839
▁thump	-10.0839
▁rosa	-10.0839
▁bingo	-10.0839
▁bubba	-10.0839
▁stallion	-10.0839
▁jabba	-10.0839
▁supper	-10.0839
▁library	-10.0839
▁padre	-10.084
▁legend	-10.084
▁beatrice	-10.084
▁happiness	-10.084
▁patient	-10.084
▁league	-10.084
▁insane	-10.084
▁radar	-10.084
▁jimmy	-10.084
▁trial	-10.084
▁chirping	-10.084
▁masha	-10.0841
▁comin	-10.0841
▁filthy	-10.0841
▁gray	-10.0842
▁ernesto	-10.0842
▁peak	-10.0842
▁becoming	-10.0842
▁bible	-10.0842
▁bette	-10.0842
▁tenma	-10.0842
▁bounce	-10.0843
▁taxi	-10.0843
▁aaah	-10.0844
▁bubble	-10.0845
▁friendship	-10.0845
▁frightened	-10.0847
▁statement	-10.0847
▁ember	-10.0848
▁east	-10.0849
▁nest	-10.0849
▁darkness	-10.0849
▁invented	-10.085
▁moments	-10.0852
▁embarrassed	-10.0852
▁homework	-10.0852
▁reb	-10.0853
▁christal	-10.0857
▁useless	-10.086
▁received	-10.086
▁perfection	-10.086
et	-10.0863
▁tip	-10.0863
▁bowl	-10.0864
oo	-10.0866
▁reality	-10.0869
▁sniffs	-10.0874
▁honestly	-10.0876
▁seize	-10.0876
▁tied	-10.0878
▁bust	-10.0885
▁collecting	-10.0889
▁matt	-10.089
▁stoney	-10.0896
▁approaching	-10.0901
▁arrested	-10.0903
dy	-10.0905
▁pete	-10.0914
▁depends	-10.0917
▁fuss	-10.0918
▁walks	-10.0937
▁talkin	-10.0939
▁plays	-10.0942
▁shadows	-10.0944
▁yells	-10.0945
let	-10.0948
ma	-10.0949
▁orphans	-10.0953
▁aliens	-10.0953
▁trained	-10.0963
▁oil	-10.0965
▁selling	-10.0973
ery	-10.0982
▁cheers	-10.0982
▁pounds	-10.0991
▁blowing	-10.0992
id	-10.0994
▁inc	-10.1007
▁pushing	-10.102
▁joining	-10.1091
▁min	-10.1095
▁houses	-10.1146
ee	-10.118
▁pigs	-10.12
ure	-10.1205
▁engines	-10.1213
go	-10.1221
ated	-10.1228
iest	-10.1231
▁steps	-10.1238
▁souls	-10.1259
▁limit	-10.1271
▁cheer	-10.1282
▁claim	-10.1283
ess	-10.129
▁joseph	-10.13
▁scare	-10.1304
▁generator	-10.1304
▁explosion	-10.1307
▁comment	-10.1308
▁detective	-10.1309
▁meal	-10.131
▁wave	-10.1312
▁costume	-10.1314
▁shoe	-10.1321
▁here	-10.1329
▁bats	-10.1344
▁singer	-10.1352
▁inter	-10.1359
▁earn	-10.1365
ities	-10.1365
▁flow	-10.1384
▁foreign	-10.1391
▁suffer	-10.1393
line	-10.1405
▁process	-10.1411
▁reckon	-10.1411
▁assist	-10.1421
▁brains	-10.1423
▁thre	-10.1423
▁finding	-10.1426
▁mode	-10.1438
▁separate	-10.1446
▁wast	-10.1446
▁create	-10.1447
▁corn	-10.1448
▁sweep	-10.145
▁health	-10.1451
▁describe	-10.1451
▁aha	-10.1451
down	-10.1458
▁charm	-10.1458
▁africa	-10.1459
▁courage	-10.1463
▁audrey	-10.1464
▁cavalry	-10.1464
▁cotton	-10.1464
▁edgar	-10.1464
▁england	-10.1464
▁evidence	-10.1464
▁manhattan	-10.1464
▁narrat	-10.1464
▁nolan	-10.1464
▁southpaw	-10.1464
▁unbelievable	-10.1464
▁calculus	-10.1464
▁idella	-10.1464
▁salmon	-10.1464
▁susie	-10.1464
▁victory	-10.1464
▁british	-10.1464
▁sophie	-10.1464
▁forbidden	-10.1464
▁bolivia	-10.1464
▁chinese	-10.1464
▁owlets	-10.1464
▁neighborhood	-10.1464
▁fbi	-10.1464
▁leap	-10.1465
▁weasel	-10.1465
▁sniffles	-10.1465
▁whatre	-10.1465
▁thou	-10.1465
▁civil	-10.1466
▁yoda	-10.1466
▁steel	-10.1466
▁launch	-10.1466
▁elf	-10.1466
▁flash	-10.1467
▁sphere	-10.1467
▁dino	-10.1467
▁collection	-10.1467
▁unlike	-10.1467
▁labor	-10.1467
▁panel	-10.1468
▁charity	-10.1469
▁angle	-10.147
▁applauding	-10.1471
▁hotel	-10.1473
▁rage	-10.1473
▁heir	-10.1474
▁sniffing	-10.1475
▁boiler	-10.1475
▁carson	-10.1478
▁fallen	-10.148
▁the	-10.1481
▁iron	-10.1481
▁sink	-10.1482
▁healthy	-10.1482
▁mum	-10.1484
▁sighing	-10.1484
▁sobs	-10.149
▁waited	-10.149
▁electro	-10.1491
▁player	-10.1496
▁mandy	-10.1501
▁millions	-10.1514
▁delivered	-10.1529
▁frankly	-10.153
▁machines	-10.1533
▁somebodys	-10.1535
▁drug	-10.1539
▁oneil	-10.154
▁considered	-10.1542
▁packed	-10.1547
▁kinds	-10.1552
▁filled	-10.1562
▁pearls	-10.1566
▁messed	-10.1575
▁lied	-10.1578
▁hoo	-10.1581
▁rd	-10.1594
▁killer	-10.1623
▁spending	-10.1643
▁kissed	-10.1643
▁ln	-10.1647
▁flip	-10.1649
▁evan	-10.1665
sure	-10.1671
▁fixing	-10.1681
▁fighters	-10.1709
▁den	-10.1718
land	-10.1718
▁learning	-10.1747
▁owls	-10.1783
▁pi	-10.1803
▁remains	-10.1803
ey	-10.1819
▁ended	-10.1884
▁sail	-10.1889
▁pump	-10.1911
▁print	-10.1915
▁flank	-10.1915
▁transport	-10.1921
▁ron	-10.1921
li	-10.1923
▁sport	-10.1937
▁howl	-10.1942
▁equal	-10.195
▁niece	-10.1959
▁issue	-10.1966
▁woozle	-10.1967
▁outfit	-10.1971
▁division	-10.1974
▁oops	-10.1974
▁tricks	-10.1974
▁squeal	-10.1976
▁pipe	-10.1977
▁clue	-10.1977
▁placed	-10.198
▁turk	-10.198
▁garden	-10.1984
▁guardian	-10.1985
▁that	-10.199
▁stranger	-10.2003
locka	-10.2006
la	-10.2007
▁reasons	-10.2007
▁eve	-10.2021
▁boot	-10.2026
▁cab	-10.2029
▁skip	-10.203
▁omi	-10.2053
▁there	-10.2055
▁egg	-10.2065
me	-10.2069
▁fhe	-10.207
▁hunt	-10.2075
▁gain	-10.2087
▁stress	-10.2094
▁retreat	-10.2097
▁smash	-10.21
▁connect	-10.2106
▁behave	-10.2112
▁divorce	-10.2112
▁license	-10.2113
▁te	-10.2114
▁sudden	-10.2117
▁weigh	-10.2118
▁actual	-10.2118
▁chest	-10.2123
▁gettin	-10.2129
▁revolution	-10.213
▁access	-10.213
▁expert	-10.213
▁bargain	-10.2131
▁bessner	-10.2131
▁earthquake	-10.2131
▁elevator	-10.2131
▁episode	-10.2131
▁exciting	-10.2131
▁gryffindor	-10.2131
▁happily	-10.2131
▁hogwarts	-10.2131
▁moonquake	-10.2131
▁munchausen	-10.2131
▁nicholas	-10.2131
▁pankot	-10.2131
▁practicing	-10.2131
▁shirt	-10.2131
▁slannen	-10.2131
▁struck	-10.2131
▁sunrise	-10.2131
▁supply	-10.2131
▁trixie	-10.2131
▁tuesday	-10.2131
▁werthan	-10.2131
▁anderson	-10.2131
▁competition	-10.2131
▁families	-10.2131
▁linda	-10.2131
▁astrid	-10.2131
▁mostly	-10.2131
▁sheep	-10.2131
▁smack	-10.2131
▁ashford	-10.2131
▁imperial	-10.2131
▁scapelli	-10.2131
▁benja	-10.2131
▁grateful	-10.2131
▁kryptonite	-10.2131
▁rematch	-10.2131
▁sobbing	-10.2131
▁milord	-10.2131
▁gorgeous	-10.2131
▁gordon	-10.2131
▁raft	-10.2131
▁rogas	-10.2131
▁pub	-10.2131
▁adorable	-10.2131
▁shep	-10.2131
▁doris	-10.2131
▁shane	-10.2131
▁ultimate	-10.2131
▁eventually	-10.2131
▁fairfax	-10.2131
▁foul	-10.2131
▁yank	-10.2131
▁toothless	-10.2131
▁maintain	-10.2132
▁camelot	-10.2132
▁decent	-10.2132
▁fox	-10.2132
▁bravo	-10.2132
▁dawn	-10.2133
▁digger	-10.2133
▁adoption	-10.2133
▁fungus	-10.2134
▁coco	-10.2134
▁halfway	-10.2135
▁capable	-10.2135
▁metropolis	-10.2136
▁gracias	-10.2136
▁creepy	-10.2137
▁betty	-10.2137
▁cameron	-10.2137
▁fleet	-10.2138
▁sub	-10.2138
▁determined	-10.2139
▁style	-10.2139
▁bucket	-10.2142
▁patch	-10.2143
▁doon	-10.2143
▁ruby	-10.2143
▁abandoned	-10.2145
▁hush	-10.2145
▁stopping	-10.2146
▁flatter	-10.2146
▁yelps	-10.2146
▁coughs	-10.2147
▁teachers	-10.2147
▁herd	-10.2147
▁this	-10.2148
▁physical	-10.2149
▁straining	-10.2149
▁thrown	-10.2152
▁intruders	-10.2157
▁cap	-10.2157
▁carter	-10.2161
▁thoughts	-10.2161
▁magical	-10.2162
▁parties	-10.2164
▁gus	-10.2177
▁impressed	-10.2194
▁makeup	-10.2211
▁manners	-10.2219
▁je	-10.2225
▁barks	-10.223
▁u	-10.2231
▁admire	-10.2235
▁clouds	-10.224
▁feelin	-10.2242
▁traveling	-10.2245
▁intern	-10.2262
▁tracking	-10.228
▁sports	-10.2283
▁searching	-10.229
▁cres	-10.2299
▁ko	-10.2309
▁sisters	-10.2314
▁teams	-10.2318
▁prisoners	-10.232
tense	-10.2321
▁mass	-10.2326
▁odds	-10.2335
▁rooms	-10.2372
▁tune	-10.2374
▁rent	-10.2383
ul	-10.2424
side	-10.2431
bo	-10.2433
▁hated	-10.2448
▁answering	-10.2459
▁damned	-10.2465
headed	-10.2515
ur	-10.2526
▁los	-10.2554
▁uncles	-10.2567
▁scar	-10.2577
ial	-10.2586
ba	-10.2589
ow	-10.2595
▁as	-10.2599
▁hip	-10.2602
▁flap	-10.2611
▁tomorrows	-10.2637
▁demand	-10.2645
▁fields	-10.2671
▁warrior	-10.2673
▁dolls	-10.2675
▁occasion	-10.2685
▁pot	-10.2685
▁desire	-10.2686
▁commissioner	-10.2687
▁helicopter	-10.2688
▁towel	-10.2688
▁belt	-10.2689
▁communist	-10.2689
▁article	-10.2692
▁rebel	-10.2692
▁com	-10.2692
▁criminal	-10.2693
▁balloon	-10.2694
▁moron	-10.2705
▁ogres	-10.2709
▁creak	-10.2711
ny	-10.2723
ent	-10.2725
▁notes	-10.2726
ay	-10.2731
▁flower	-10.2734
▁br	-10.2738
ron	-10.2746
ium	-10.2749
▁interrupt	-10.2752
▁mill	-10.2764
▁doubts	-10.2764
▁disappear	-10.2768
▁down	-10.2778
▁obey	-10.2792
▁stands	-10.2798
▁entertain	-10.2799
house	-10.28
▁proceed	-10.28
▁spin	-10.28
▁holes	-10.2806
lin	-10.2809
▁wound	-10.2817
▁divide	-10.2825
▁desperate	-10.283
▁unfortunate	-10.2831
▁absolute	-10.2831
▁recent	-10.2832
▁emotional	-10.2833
▁cheap	-10.2834
▁moves	-10.2841
▁heave	-10.2841
▁cec	-10.2841
while	-10.2842
▁virginia	-10.2845
▁resist	-10.2845
▁amount	-10.2845
▁anytime	-10.2845
▁australia	-10.2845
▁branson	-10.2845
▁chorus	-10.2845
▁concept	-10.2845
▁critter	-10.2845
▁dalton	-10.2845
▁damascus	-10.2845
▁enemies	-10.2845
▁garcin	-10.2845
▁halloween	-10.2845
▁jersey	-10.2845
▁llorona	-10.2845
▁period	-10.2845
▁platform	-10.2845
▁stubborn	-10.2845
▁sunshine	-10.2845
▁tournament	-10.2845
▁headquarters	-10.2845
▁grumble	-10.2845
▁farewell	-10.2845
▁larry	-10.2845
▁vivian	-10.2845
▁muntz	-10.2845
▁ribs	-10.2845
▁multiple	-10.2845
▁jeez	-10.2845
▁institute	-10.2845
▁snipe	-10.2845
▁display	-10.2845
▁divine	-10.2845
▁technical	-10.2845
▁commie	-10.2845
▁meteorite	-10.2845
▁marvelous	-10.2845
▁toast	-10.2845
▁honeymoon	-10.2845
▁temple	-10.2845
▁berthold	-10.2845
▁midnight	-10.2845
▁chef	-10.2845
▁giulia	-10.2845
▁bacon	-10.2845
▁regiment	-10.2845
▁alternative	-10.2845
▁chapter	-10.2845
▁wingfield	-10.2845
▁collar	-10.2845
▁slipped	-10.2845
zio	-10.2845
▁evacuate	-10.2845
▁investigation	-10.2845
▁senator	-10.2845
▁waltz	-10.2846
▁ignore	-10.2846
▁contain	-10.2846
▁anger	-10.2846
▁authority	-10.2846
▁electricity	-10.2846
▁pitch	-10.2846
▁shao	-10.2847
▁brewery	-10.2847
▁earlier	-10.2847
▁potatoes	-10.2847
▁inch	-10.2847
▁basement	-10.2848
▁studio	-10.2848
▁slept	-10.2848
▁whyd	-10.2848
▁forth	-10.2848
▁reactor	-10.2849
▁agreement	-10.2849
▁habit	-10.2849
▁african	-10.285
▁secretary	-10.2851
▁mumbles	-10.2851
▁hopefully	-10.2852
▁setting	-10.2853
▁hitting	-10.2853
▁yearold	-10.2853
▁russian	-10.2854
▁cargo	-10.2854
▁pm	-10.2856
▁gi	-10.2859
▁navy	-10.286
▁beeping	-10.286
▁nick	-10.2861
▁designed	-10.2865
▁ma	-10.2868
▁oughta	-10.2874
v	-10.2876
▁classes	-10.2881
▁stare	-10.2882
eyed	-10.2884
▁suffering	-10.2893
▁roaring	-10.29
▁murdered	-10.2909
he	-10.2912
▁skills	-10.2918
▁tis	-10.2932
▁customers	-10.2941
▁wasted	-10.2951
▁enjoyed	-10.2952
▁shouts	-10.2952
▁armed	-10.2953
▁units	-10.2958
▁propose	-10.2964
▁quietly	-10.2965
▁rolling	-10.2969
▁plumbers	-10.2974
▁cooking	-10.2988
▁solve	-10.3001
▁announc	-10.3031
kung	-10.3042
▁non	-10.3072
▁scores	-10.3076
▁shoulders	-10.3089
▁beating	-10.3121
▁jobs	-10.3138
▁appears	-10.3142
▁con	-10.3142
▁leads	-10.318
ped	-10.3182
ka	-10.3249
▁stretch	-10.3271
▁shave	-10.3282
▁giants	-10.3283
▁stops	-10.329
▁gu	-10.3292
ized	-10.3293
▁nicely	-10.3318
▁horns	-10.3353
▁pointing	-10.3367
▁actions	-10.3388
▁regard	-10.3397
io	-10.3399
j	-10.3424
▁official	-10.3436
▁shift	-10.3438
▁sentence	-10.3443
▁beak	-10.3443
▁require	-10.3447
▁argument	-10.345
▁blanket	-10.345
▁package	-10.3453
▁brigade	-10.3457
▁task	-10.3457
▁fang	-10.3458
▁option	-10.3459
▁feather	-10.3459
▁edge	-10.346
▁crystal	-10.346
▁quarter	-10.346
▁knee	-10.3462
▁chain	-10.3463
▁neighbor	-10.3463
▁seal	-10.3464
▁orphan	-10.3465
▁yard	-10.3467
▁alien	-10.3468
lo	-10.3473
▁shots	-10.3475
▁tone	-10.3475
▁mile	-10.3476
sk	-10.3491
mo	-10.3503
work	-10.3527
▁cancel	-10.3531
▁bend	-10.3535
▁tim	-10.3552
▁peoples	-10.3559
▁repair	-10.3578
▁disturb	-10.3581
▁recruit	-10.3582
box	-10.3585
▁inform	-10.3586
▁sweat	-10.3586
hood	-10.3588
▁moto	-10.3589
nahnahnah	-10.3591
▁delay	-10.3591
▁bo	-10.3592
▁privilege	-10.3594
▁grant	-10.3596
▁declare	-10.3598
▁dirt	-10.3599
▁para	-10.3601
▁rocks	-10.3603
▁thick	-10.3604
▁silen	-10.3608
▁ol	-10.3609
▁beach	-10.3609
▁withdraw	-10.361
▁sheik	-10.3612
▁suprem	-10.3612
▁encourage	-10.3613
▁disgrace	-10.3613
▁egypt	-10.3613
▁ceremony	-10.3614
▁ciao	-10.3614
▁doomsday	-10.3614
▁fortunate	-10.3614
▁gloria	-10.3614
▁goomgoom	-10.3614
▁intelligent	-10.3614
▁lucinda	-10.3614
▁melvin	-10.3614
▁molesley	-10.3614
▁philadelphia	-10.3614
▁portuguese	-10.3614
▁pterodactyl	-10.3614
▁ratchet	-10.3614
▁scoffs	-10.3614
▁soccer	-10.3614
▁somewhat	-10.3614
▁squirrel	-10.3614
▁strict	-10.3614
▁teschmacher	-10.3614
▁thompson	-10.3614
▁tremendous	-10.3614
▁wickles	-10.3614
▁boolie	-10.3614
▁editor	-10.3614
▁gazzo	-10.3614
▁possibility	-10.3614
▁powder	-10.3614
▁agnes	-10.3614
▁drove	-10.3614
▁lrish	-10.3614
▁reveal	-10.3614
▁europe	-10.3614
▁marshall	-10.3614
▁resident	-10.3614
▁cliff	-10.3614
▁illegal	-10.3614
▁lalalala	-10.3614
▁trunk	-10.3614
▁burden	-10.3614
▁lemonade	-10.3614
▁liberty	-10.3614
▁coronation	-10.3614
▁instance	-10.3614
▁pumpkin	-10.3614
▁scoobydoo	-10.3614
▁shaking	-10.3614
▁aaron	-10.3614
▁joking	-10.3614
▁hyah	-10.3614
▁meow	-10.3614
▁amigo	-10.3614
▁identity	-10.3614
▁unique	-10.3614
▁mumbling	-10.3614
▁fender	-10.3615
▁medicine	-10.3615
▁snowball	-10.3615
▁legal	-10.3615
▁academy	-10.3615
▁blew	-10.3615
▁primary	-10.3615
▁network	-10.3615
▁batteries	-10.3615
▁online	-10.3615
▁failure	-10.3615
▁howard	-10.3615
▁soda	-10.3615
▁altitude	-10.3615
▁prime	-10.3616
▁fame	-10.3616
▁clamoring	-10.3616
▁mental	-10.3616
▁blaring	-10.3616
▁bobby	-10.3617
▁vicious	-10.3617
▁standard	-10.3617
▁gear	-10.3617
▁humor	-10.3617
▁aside	-10.3617
▁projector	-10.3618
▁muffled	-10.3618
▁frell	-10.3618
▁spotted	-10.3618
▁thirsty	-10.3619
▁silent	-10.3619
▁muttering	-10.3619
▁agh	-10.362
▁melanie	-10.362
▁lordship	-10.362
▁solution	-10.362
▁wrap	-10.362
▁jon	-10.362
▁ercole	-10.3621
▁seats	-10.3622
▁ability	-10.3625
▁rustling	-10.3626
▁mobile	-10.3627
▁passion	-10.3627
▁whale	-10.3627
▁sweetness	-10.3627
▁flat	-10.3629
▁honking	-10.363
▁influence	-10.3631
▁advanced	-10.3631
▁blown	-10.3631
▁pole	-10.3632
▁thee	-10.3633
▁snarls	-10.3633
▁caf	-10.3636
▁visitors	-10.3636
▁unable	-10.3636
▁nahnahnah	-10.3638
▁armor	-10.3639
▁directly	-10.3642
▁spy	-10.3648
our	-10.3648
hrew	-10.3648
▁settled	-10.3648
▁goodnight	-10.365
▁finn	-10.3654
▁lifetime	-10.366
ping	-10.366
▁route	-10.3662
▁based	-10.3663
▁howdy	-10.3667
▁discipline	-10.3674
▁louder	-10.3677
em	-10.3681
▁neat	-10.3693
▁jam	-10.3694
▁realized	-10.3694
tz	-10.3723
▁fate	-10.3726
▁worthy	-10.3739
▁bu	-10.3739
▁degrees	-10.3742
▁hop	-10.3743
▁scrap	-10.3755
▁burning	-10.3764
▁knees	-10.3767
▁pushed	-10.3776
▁pine	-10.3779
▁il	-10.378
ever	-10.3782
▁bells	-10.379
▁issues	-10.3792
▁lass	-10.3794
▁mid	-10.3794
▁younger	-10.3798
▁protecting	-10.3802
▁costumes	-10.3803
▁cleaned	-10.3803
▁tips	-10.381
▁disguise	-10.3825
▁hu	-10.3833
▁players	-10.3862
▁moms	-10.3862
▁bastards	-10.3865
her	-10.3865
▁poems	-10.3914
▁stinks	-10.3917
▁whistles	-10.3927
mer	-10.394
▁kissing	-10.3948
▁he	-10.3949
que	-10.3954
▁caused	-10.3999
ahhh	-10.3999
do	-10.4002
▁sets	-10.4006
▁hoped	-10.4037
▁hundreds	-10.4064
▁pin	-10.4083
▁strikes	-10.4089
▁prom	-10.4105
▁costs	-10.4113
▁wanting	-10.4116
▁dealing	-10.4128
▁idiots	-10.4139
▁estimate	-10.4193
▁viva	-10.4194
▁minds	-10.4201
▁chat	-10.4205
ible	-10.4205
▁mu	-10.4224
ward	-10.4224
▁ton	-10.4225
▁begins	-10.424
▁yell	-10.4243
▁por	-10.4269
▁plot	-10.4275
▁ev	-10.4275
▁ofrenda	-10.4275
▁tent	-10.4277
▁mermaid	-10.4283
▁carriage	-10.4285
▁effect	-10.4289
▁explosive	-10.429
▁dinosaur	-10.429
▁grandmother	-10.4291
▁bullet	-10.4291
▁nun	-10.4291
▁troll	-10.4292
▁rose	-10.4294
▁cheat	-10.4295
▁thumb	-10.4297
▁member	-10.4297
▁plumber	-10.4298
▁shadow	-10.4299
▁citizen	-10.4299
ical	-10.4312
▁perform	-10.4318
▁max	-10.4322
▁movement	-10.4328
▁stones	-10.4344
ship	-10.435
▁fade	-10.4351
▁bags	-10.4367
▁ken	-10.4386
ably	-10.4403
▁possess	-10.4405
ball	-10.4412
like	-10.4413
▁recommend	-10.4417
▁reward	-10.4417
coco	-10.4421
▁advance	-10.443
▁argue	-10.443
▁reports	-10.4431
▁mutt	-10.4433
▁lip	-10.4433
▁engage	-10.4433
▁capture	-10.4433
▁loop	-10.4438
▁hung	-10.4439
▁rub	-10.4443
▁maharaja	-10.4447
▁alpha	-10.4447
▁uncomfortable	-10.4447
▁abbey	-10.4447
▁approval	-10.4447
▁assassin	-10.4447
▁brandnew	-10.4447
▁chronicle	-10.4447
▁francisco	-10.4447
▁gauntlet	-10.4447
▁gorignak	-10.4447
▁hermione	-10.4447
▁hollywood	-10.4447
▁introduction	-10.4447
▁jennifer	-10.4447
▁kubitz	-10.4447
▁lancelot	-10.4447
▁laundry	-10.4447
▁majesties	-10.4447
▁messenger	-10.4447
▁nephew	-10.4447
▁orchestra	-10.4447
▁patrol	-10.4447
▁renata	-10.4447
▁santiago	-10.4447
▁sarah	-10.4447
▁scoop	-10.4447
▁slytherin	-10.4447
▁splendid	-10.4447
▁thief	-10.4447
▁wisdom	-10.4447
▁wyler	-10.4447
▁yoohoo	-10.4447
▁hamster	-10.4447
▁mclaws	-10.4447
▁raspberry	-10.4447
▁romantic	-10.4447
▁typical	-10.4447
▁vain	-10.4447
▁acquaintance	-10.4447
▁magnificent	-10.4447
▁basis	-10.4447
▁coolsville	-10.4447
▁senior	-10.4447
▁foofie	-10.4448
▁hawaii	-10.4448
▁importance	-10.4448
▁coincidence	-10.4448
▁bagshaw	-10.4448
▁volpe	-10.4448
▁saloon	-10.4448
▁sunset	-10.4448
▁prototype	-10.4448
▁libby	-10.4448
▁locksley	-10.4448
▁rogue	-10.4448
▁picnic	-10.4448
▁poker	-10.4448
▁flux	-10.4448
▁university	-10.4448
▁noble	-10.4448
▁radiation	-10.4448
▁assistance	-10.4448
▁impressive	-10.4448
▁bump	-10.4448
▁bodyguard	-10.4448
▁tiger	-10.4448
▁dozen	-10.4448
▁assistant	-10.4448
▁halt	-10.4448
▁upside	-10.4448
▁bold	-10.4448
▁centre	-10.4449
▁vanished	-10.4449
▁ripped	-10.4449
▁teenager	-10.4449
▁mistress	-10.4449
imelda	-10.4449
▁doorbell	-10.4449
▁porch	-10.4449
▁romance	-10.4449
▁unknown	-10.4449
▁beings	-10.4449
▁tong	-10.4449
▁godmother	-10.4449
▁kidnapping	-10.4449
▁role	-10.445
▁bodies	-10.445
▁footmen	-10.445
▁gently	-10.4451
▁zoe	-10.4451
▁heth	-10.4451
▁stella	-10.4451
▁emily	-10.4452
▁trash	-10.4452
▁currently	-10.4452
▁dating	-10.4452
▁attached	-10.4453
▁gim	-10.4454
▁practically	-10.4454
▁gee	-10.4454
▁exchange	-10.4456
▁elves	-10.4456
▁lacey	-10.4457
▁tia	-10.4457
▁inner	-10.4458
▁flies	-10.4458
▁maiden	-10.4464
▁sweaty	-10.4465
▁herb	-10.4467
▁tomb	-10.4467
▁greetings	-10.4468
▁confirmed	-10.4469
ane	-10.4469
▁spite	-10.447
▁sore	-10.447
▁required	-10.4471
▁naked	-10.4476
▁historical	-10.4477
▁particularly	-10.448
▁counter	-10.448
▁hint	-10.4481
▁moral	-10.4483
▁seth	-10.4487
▁purr	-10.4488
▁hire	-10.4491
▁released	-10.4494
▁tools	-10.4494
▁poets	-10.4494
▁patroni	-10.4497
▁warned	-10.4499
▁safer	-10.45
▁mustnt	-10.45
▁scooby	-10.4502
▁sh	-10.4504
▁sneaking	-10.4516
▁whoops	-10.452
▁suckers	-10.4523
ot	-10.4524
lousy	-10.4528
▁oww	-10.4528
▁switched	-10.4539
▁likely	-10.4542
▁shorty	-10.4544
▁burie	-10.4545
▁lads	-10.4555
▁hopeless	-10.4562
▁feeding	-10.4571
▁offered	-10.4593
▁useful	-10.4597
▁thumbs	-10.46
▁bald	-10.4604
▁net	-10.4607
▁ned	-10.4608
▁sona	-10.4612
▁pee	-10.4613
his	-10.4614
les	-10.4624
▁wa	-10.4624
▁turks	-10.464
ory	-10.4645
▁acted	-10.4645
x	-10.465
▁dressing	-10.465
▁townie	-10.4656
▁offering	-10.4664
▁sul	-10.4668
▁fe	-10.467
▁jar	-10.4688
▁dreamed	-10.4701
▁ber	-10.4702
▁beats	-10.4706
▁details	-10.4721
ito	-10.4723
▁hay	-10.4742
▁fog	-10.4766
▁groups	-10.4768
board	-10.4781
▁marrying	-10.4789
iggly	-10.4795
am	-10.4843
▁mop	-10.4847
▁becomes	-10.486
▁spots	-10.486
▁girlfriends	-10.4886
mice	-10.4899
▁signor	-10.4911
▁thor	-10.4913
▁cher	-10.4936
▁dar	-10.4943
▁adventures	-10.495
▁somethings	-10.4975
zy	-10.4983
▁bull	-10.4991
▁suits	-10.5022
▁peanut	-10.5035
▁runs	-10.5067
ans	-10.5074
ned	-10.5127
▁checking	-10.514
the	-10.515
▁author	-10.5161
▁include	-10.5166
▁opera	-10.5184
▁stuart	-10.5184
▁error	-10.5185
▁experiment	-10.5186
▁preacher	-10.5188
▁pulse	-10.5191
▁snack	-10.5192
▁yankee	-10.5193
▁tunnel	-10.5197
▁scientist	-10.5199
▁tank	-10.52
▁turtle	-10.5201
▁wolfwalker	-10.5201
▁roommate	-10.5201
▁plate	-10.5203
▁client	-10.5204
▁talon	-10.5204
▁degree	-10.5206
▁cloud	-10.5207
▁pearl	-10.5209
more	-10.5221
▁cable	-10.5222
eater	-10.5223
▁ages	-10.5244
▁suck	-10.5254
▁ration	-10.5266
▁beds	-10.5269
▁wander	-10.5289
▁we	-10.5303
▁appeal	-10.531
▁research	-10.5311
▁fold	-10.5311
▁worship	-10.5321
▁voices	-10.5327
▁aim	-10.5329
▁mix	-10.5329
ring	-10.5332
▁replace	-10.5336
▁brief	-10.534
▁radios	-10.5342
▁painting	-10.5347
▁auto	-10.535
▁liz	-10.5351
▁confess	-10.5353
▁stead	-10.5355
▁terror	-10.5356
▁similar	-10.5356
▁meteor	-10.5356
▁allomere	-10.5357
▁apologies	-10.5357
▁benefit	-10.5357
▁coffin	-10.5357
▁combination	-10.5357
▁companies	-10.5357
▁dynamite	-10.5357
▁eglantine	-10.5357
▁entitled	-10.5357
▁frequency	-10.5357
▁froze	-10.5357
▁gibberish	-10.5357
▁hulie	-10.5357
▁jernigan	-10.5357
▁legacy	-10.5357
▁modern	-10.5357
▁naughty	-10.5357
▁okudera	-10.5357
▁omega	-10.5357
▁peculiar	-10.5357
▁portorosso	-10.5357
▁praise	-10.5357
▁satisfied	-10.5357
▁suitcase	-10.5357
▁suspicious	-10.5357
▁thanksgiving	-10.5357
▁twilight	-10.5357
▁unbreakable	-10.5357
▁unexpected	-10.5357
▁william	-10.5357
▁xanadu	-10.5357
▁jaime	-10.5357
▁ciccio	-10.5357
▁crook	-10.5357
▁dumpster	-10.5357
▁transmission	-10.5357
▁superior	-10.5357
▁smiling	-10.5357
▁glob	-10.5357
▁lunatic	-10.5357
▁patrick	-10.5357
▁chanice	-10.5357
▁excitement	-10.5357
▁lyze	-10.5357
▁swanson	-10.5357
▁circus	-10.5357
▁allenby	-10.5357
▁executive	-10.5357
▁administration	-10.5357
▁ellie	-10.5357
▁whew	-10.5357
▁accent	-10.5357
▁connie	-10.5357
▁lizzy	-10.5357
▁favourite	-10.5357
▁psst	-10.5357
▁jewish	-10.5357
▁myra	-10.5357
▁thread	-10.5357
▁pathetic	-10.5357
▁pregnant	-10.5357
▁oak	-10.5357
▁garage	-10.5357
▁ferguson	-10.5357
▁turkey	-10.5357
▁reaction	-10.5357
▁patty	-10.5357
▁extraordinary	-10.5357
▁uglyville	-10.5357
▁ewell	-10.5358
▁congressman	-10.5358
▁begun	-10.5358
▁thud	-10.5358
▁bieber	-10.5358
▁personnel	-10.5358
▁ambulance	-10.5358
▁shore	-10.5358
▁proto	-10.5358
▁babe	-10.5358
▁engagement	-10.5359
▁ellison	-10.5359
▁broom	-10.5359
▁trilling	-10.5359
▁deaf	-10.5359
▁bounty	-10.5359
▁barron	-10.5359
▁alike	-10.536
▁incoming	-10.536
ise	-10.536
▁playground	-10.536
▁drill	-10.536
▁stroke	-10.5361
looker	-10.5361
▁driveway	-10.5361
▁announcement	-10.5361
▁housekeeper	-10.5361
▁possession	-10.5362
▁weakness	-10.5362
▁hattie	-10.5362
▁reverend	-10.5363
▁rot	-10.5363
▁wailing	-10.5363
▁tax	-10.5363
▁sang	-10.5364
▁confused	-10.5364
▁laser	-10.5366
▁threatened	-10.5366
▁minor	-10.5367
▁katie	-10.5368
▁trigger	-10.5369
▁sack	-10.5369
▁dreadful	-10.5371
▁matches	-10.5372
▁officially	-10.5374
▁fist	-10.5374
▁related	-10.5375
▁anne	-10.5375
▁whooping	-10.5377
▁warner	-10.5378
▁captured	-10.5378
▁creeping	-10.5379
▁properly	-10.538
▁rin	-10.538
▁fort	-10.538
▁removed	-10.5381
▁barn	-10.5382
ga	-10.5385
ren	-10.5386
▁jeffer	-10.5388
▁cheated	-10.5389
▁former	-10.5392
▁aye	-10.5395
▁sue	-10.5399
▁adopted	-10.5402
▁root	-10.5403
▁marie	-10.5403
▁cheating	-10.5404
▁kisses	-10.5405
▁damaged	-10.5406
▁blades	-10.5409
▁hideous	-10.541
▁catches	-10.5411
▁youngest	-10.5413
▁sailing	-10.5416
was	-10.5417
▁hunting	-10.542
▁hardest	-10.5422
▁jews	-10.5422
▁served	-10.5425
▁blasted	-10.5426
▁deserved	-10.5436
▁emotions	-10.5437
▁chewing	-10.5444
▁homeless	-10.5448
▁normally	-10.5449
▁sola	-10.545
▁documents	-10.5466
▁spirits	-10.5467
▁comedy	-10.5469
▁citys	-10.548
▁tap	-10.548
▁sparks	-10.5481
▁climbing	-10.5484
▁imagined	-10.5485
▁foryou	-10.5485
da	-10.5486
▁dam	-10.5505
▁ch	-10.5507
▁lookout	-10.5509
▁protected	-10.551
▁goat	-10.551
▁at	-10.5513
▁hai	-10.5514
▁plug	-10.5516
▁neighbors	-10.5539
▁backup	-10.5546
▁balloons	-10.5554
▁musical	-10.5558
▁enjoying	-10.5563
▁pipes	-10.557
hand	-10.5576
▁eg	-10.5597
▁shove	-10.5606
▁wins	-10.5609
▁reporting	-10.5628
oh	-10.5629
▁destroying	-10.5637
▁attacked	-10.564
▁mc	-10.5644
▁arabia	-10.5647
▁commanding	-10.5653
▁cells	-10.5658
▁tales	-10.5662
put	-10.5665
▁puts	-10.5678
▁wondered	-10.568
▁sec	-10.5683
▁understanding	-10.5699
▁beautifully	-10.5708
ra	-10.5727
▁grounds	-10.5739
▁est	-10.5744
▁ty	-10.5756
▁clowns	-10.5762
▁bottles	-10.5762
▁helps	-10.5777
▁unit	-10.5778
ize	-10.5779
▁attacking	-10.578
▁decisions	-10.5792
▁pat	-10.5793
▁mortal	-10.5799
un	-10.58
▁cleared	-10.5809
▁fond	-10.5831
▁touching	-10.5838
▁breathes	-10.585
▁islands	-10.5852
▁snap	-10.5869
▁conditions	-10.5911
ett	-10.5922
▁pla	-10.5932
▁dan	-10.5957
▁gems	-10.5958
▁buildings	-10.5973
▁bars	-10.598
town	-10.5998
▁electric	-10.6007
▁fits	-10.6007
▁pup	-10.6007
ns	-10.6016
▁commit	-10.6018
rous	-10.6019
▁transform	-10.6045
▁monkeys	-10.6049
ii	-10.606
ca	-10.6062
▁tin	-10.6075
▁tracks	-10.6114
foot	-10.6115
▁breaks	-10.6117
looking	-10.6121
▁cape	-10.6123
▁rico	-10.6129
▁shout	-10.6131
▁host	-10.6146
▁qu	-10.616
▁groan	-10.617
▁tub	-10.6171
▁grunt	-10.6176
▁flame	-10.6182
▁magazine	-10.6184
▁guarantee	-10.6184
▁kingdoms	-10.6187
▁vehicle	-10.6192
▁viking	-10.6192
▁audition	-10.6193
▁restaurant	-10.6197
▁instrument	-10.6197
▁represent	-10.62
▁instinct	-10.6201
▁gut	-10.6208
▁pickett	-10.6208
ski	-10.6212
▁chuckle	-10.6213
▁what	-10.6217
▁bark	-10.6219
▁grade	-10.6219
ars	-10.6221
▁pan	-10.6222
▁rug	-10.6223
▁joint	-10.6238
▁grows	-10.6238
▁bam	-10.6252
▁til	-10.6255
▁cock	-10.6257
▁rep	-10.6262
▁whip	-10.6284
▁del	-10.6294
▁choices	-10.6294
▁echo	-10.6306
▁hon	-10.6308
▁comfort	-10.6308
▁burst	-10.6313
▁trace	-10.632
▁bliss	-10.6322
your	-10.6328
weight	-10.6329
▁design	-10.6332
izing	-10.6332
▁tests	-10.6332
▁rob	-10.6332
▁reverse	-10.6334
▁humble	-10.6334
▁accuse	-10.6336
ze	-10.6338
▁cease	-10.6338
▁graduate	-10.6339
▁individual	-10.6339
▁affection	-10.6339
▁log	-10.634
▁lame	-10.6349
▁brat	-10.6352
▁conduct	-10.6355
▁fashion	-10.6355
▁mornin	-10.6355
▁congress	-10.6355
▁detect	-10.6356
▁deploy	-10.6356
▁forbid	-10.6356
▁basket	-10.6356
▁anxious	-10.6357
▁autopilot	-10.6357
▁beneath	-10.6357
▁carnival	-10.6357
▁chamaco	-10.6357
▁elevate	-10.6357
▁entrance	-10.6357
▁federation	-10.6357
▁fountain	-10.6357
▁glorious	-10.6357
▁guinea	-10.6357
▁gunnison	-10.6357
▁gylfie	-10.6357
▁harewood	-10.6357
▁hartfield	-10.6357
▁impact	-10.6357
▁intelligence	-10.6357
▁intercept	-10.6357
▁jonathan	-10.6357
▁kassar	-10.6357
▁kosterman	-10.6357
▁lincoln	-10.6357
▁macklin	-10.6357
▁mariejosephe	-10.6357
▁maurice	-10.6357
▁mcallister	-10.6357
▁miraculous	-10.6357
▁miyamizu	-10.6357
▁morehouse	-10.6357
▁musubi	-10.6357
▁mutual	-10.6357
▁oldfashioned	-10.6357
▁overstreet	-10.6357
▁parallel	-10.6357
▁rasputin	-10.6357
▁redmond	-10.6357
▁robbery	-10.6357
▁rumpelstiltskin	-10.6357
▁shakespeare	-10.6357
▁succeed	-10.6357
▁supplies	-10.6357
▁sydney	-10.6357
▁terrified	-10.6357
▁terrifying	-10.6357
▁thursday	-10.6357
▁understood	-10.6357
▁vessel	-10.6357
▁inferior	-10.6357
▁murdock	-10.6357
▁respond	-10.6357
▁tattoo	-10.6357
▁candlewick	-10.6357
▁foretold	-10.6357
▁arriving	-10.6357
▁pursuit	-10.6357
▁pistol	-10.6357
▁britons	-10.6357
▁geneva	-10.6357
▁mcq	-10.6357
▁murray	-10.6357
▁rattling	-10.6357
▁shark	-10.6357
▁wives	-10.6357
▁catholic	-10.6357
▁vocalizing	-10.6357
▁prevent	-10.6357
▁puppy	-10.6357
▁underwear	-10.6357
▁whirring	-10.6357
▁confusion	-10.6357
▁retirement	-10.6357
▁fridge	-10.6357
▁florine	-10.6357
▁highbury	-10.6357
▁lesley	-10.6357
▁patmore	-10.6357
▁basketball	-10.6357
▁inaudible	-10.6357
▁infant	-10.6357
▁downtown	-10.6357
▁chump	-10.6357
▁arrow	-10.6357
▁automatically	-10.6357
▁mabel	-10.6357
▁peacekeeper	-10.6357
▁scott	-10.6357
▁celebration	-10.6357
▁punk	-10.6357
▁suicide	-10.6357
▁backwards	-10.6357
▁jacobo	-10.6357
▁delta	-10.6357
▁dimple	-10.6357
▁lend	-10.6357
▁hamilton	-10.6357
▁tempo	-10.6357
▁karen	-10.6357
▁baseball	-10.6358
▁kong	-10.6358
▁observation	-10.6358
▁yonder	-10.6358
▁species	-10.6358
▁festival	-10.6358
▁swimmer	-10.6358
▁vice	-10.6358
▁couch	-10.6358
▁lemon	-10.6358
▁harrison	-10.6358
▁film	-10.6358
▁traffic	-10.6358
▁collider	-10.6358
▁activity	-10.6358
▁routine	-10.6358
▁development	-10.6358
▁flamel	-10.6359
▁fever	-10.6359
▁granddad	-10.6359
▁wax	-10.6359
▁brandon	-10.6359
▁greedy	-10.6359
▁ricky	-10.6359
▁dropping	-10.6359
▁shiny	-10.6359
▁indiana	-10.6359
▁reference	-10.636
▁temper	-10.636
▁chopper	-10.636
▁southern	-10.636
ette	-10.6361
▁romeo	-10.6361
▁gettys	-10.6361
▁confession	-10.6361
▁doggy	-10.6361
▁broad	-10.6361
▁exhausted	-10.6361
▁household	-10.6362
▁whatll	-10.6363
▁jab	-10.6364
▁blonde	-10.6364
▁confidence	-10.6364
▁frankie	-10.6364
▁maniac	-10.6365
▁passage	-10.6365
▁wipe	-10.6366
▁employees	-10.6366
▁bout	-10.6366
▁fraud	-10.6367
▁drawn	-10.6368
▁impress	-10.637
▁cried	-10.637
▁brand	-10.6371
▁builders	-10.6371
▁fascinating	-10.6372
▁fantas	-10.6373
▁tada	-10.6374
▁rear	-10.6374
▁businessman	-10.6377
▁bleeding	-10.6377
▁reasonable	-10.6379
▁grass	-10.6381
▁drowned	-10.6383
▁divorced	-10.6384
▁hous	-10.6385
▁webb	-10.6387
▁scheme	-10.6389
▁deny	-10.6389
▁motor	-10.6393
▁chi	-10.6393
▁mule	-10.6394
▁informed	-10.6394
▁granted	-10.6395
▁dial	-10.6396
▁connected	-10.64
▁pond	-10.6401
▁bid	-10.6408
▁performing	-10.6409
▁rad	-10.641
▁socks	-10.6415
▁whoosh	-10.6415
▁flyn	-10.6417
▁refused	-10.6422
▁awfully	-10.6424
▁peaceful	-10.6424
▁circuits	-10.643
▁director	-10.6439
▁crashing	-10.644
▁closet	-10.6442
▁statues	-10.6446
▁gig	-10.6448
▁mat	-10.6451
▁greatness	-10.6455
▁shortly	-10.6461
▁affairs	-10.6462
▁principles	-10.6462
▁formed	-10.6471
▁studying	-10.6472
▁county	-10.6472
▁laying	-10.6484
▁burned	-10.6491
▁vegetables	-10.6495
▁tut	-10.6499
▁ideal	-10.6501
▁picketts	-10.6511
ge	-10.6518
▁treating	-10.6524
▁recording	-10.6529
▁remembered	-10.6529
▁safely	-10.6538
▁members	-10.6543
▁pea	-10.6546
▁reported	-10.6558
▁requires	-10.6561
min	-10.6561
▁fed	-10.6562
▁tend	-10.6564
▁sardine	-10.6569
▁callin	-10.6571
▁criminals	-10.6576
▁ri	-10.6579
ya	-10.6591
▁differently	-10.6595
▁hates	-10.66
▁sa	-10.6606
▁bills	-10.661
▁queens	-10.6617
▁rounds	-10.6623
day	-10.6625
gh	-10.6654
▁figures	-10.6659
mous	-10.6659
▁flyer	-10.666
▁fooling	-10.6669
▁positions	-10.6672
▁forces	-10.6675
▁diamonds	-10.6675
▁presents	-10.6685
▁noon	-10.67
▁answered	-10.67
▁minu	-10.672
▁heffalumps	-10.6725
▁bur	-10.6738
▁thirty	-10.6739
use	-10.6744
sy	-10.6754
ner	-10.6755
▁sta	-10.6756
eye	-10.6793
▁ana	-10.6797
▁pulling	-10.6799
▁bobbles	-10.6809
▁bl	-10.6811
▁fus	-10.6816
▁exists	-10.6824
▁blocks	-10.6841
▁opens	-10.6849
▁pod	-10.688
▁newspapers	-10.6908
▁puter	-10.6938
tion	-10.6943
▁wished	-10.6953
tch	-10.6958
▁forms	-10.6975
▁cha	-10.6977
▁records	-10.6979
ily	-10.6993
▁ab	-10.6995
▁beasts	-10.7009
▁tr	-10.7038
▁dos	-10.7048
▁hurting	-10.7056
▁chances	-10.7061
▁lands	-10.7072
pe	-10.7088
▁ofthe	-10.7109
▁cora	-10.7121
▁wir	-10.7123
▁butts	-10.7151
▁you	-10.7155
nce	-10.7162
yl	-10.7163
▁pops	-10.717
▁fears	-10.7186
▁nu	-10.7188
▁cath	-10.7191
▁hut	-10.7207
▁services	-10.7213
▁sights	-10.7229
▁windows	-10.723
▁glow	-10.7254
got	-10.7263
▁permit	-10.7268
▁persons	-10.7269
▁fee	-10.7277
▁demon	-10.729
▁organ	-10.7292
▁beers	-10.7294
▁culture	-10.7296
▁spark	-10.7296
▁apple	-10.7296
▁mari	-10.7298
▁measure	-10.7298
▁effort	-10.7303
▁tyto	-10.7304
▁appearance	-10.7307
▁nut	-10.7308
▁nerve	-10.731
▁spike	-10.7311
▁companion	-10.7311
▁compliment	-10.7313
▁adult	-10.7314
▁goblin	-10.7314
▁victim	-10.7314
orium	-10.7314
▁artist	-10.7315
▁vegetable	-10.7316
▁cheek	-10.7316
▁string	-10.7322
▁customer	-10.7323
▁folk	-10.7324
▁restore	-10.7326
▁depend	-10.7327
▁pit	-10.7329
▁toe	-10.735
▁manner	-10.7356
night	-10.7382
▁confirm	-10.7382
▁insult	-10.7385
▁fires	-10.7393
▁drown	-10.7397
▁pour	-10.7398
▁fin	-10.7402
▁smit	-10.7405
xon	-10.7408
▁mock	-10.7418
ill	-10.7421
▁rank	-10.7423
▁herr	-10.7424
▁swell	-10.7424
▁invest	-10.7435
woman	-10.7437
skull	-10.7439
▁minist	-10.7447
▁advise	-10.7449
▁approve	-10.7449
▁celebrate	-10.7449
▁activate	-10.7449
▁ending	-10.745
nix	-10.7451
▁slipper	-10.7452
cam	-10.7454
▁commission	-10.7455
▁successful	-10.7456
▁tuck	-10.7458
▁painful	-10.7459
▁convent	-10.7463
▁disagree	-10.7466
▁rome	-10.7466
▁mmhm	-10.7466
▁nucle	-10.7466
▁immortal	-10.7466
▁squad	-10.7467
▁limb	-10.7468
▁falcon	-10.7468
▁acconetti	-10.7468
▁almighty	-10.7468
▁ambassador	-10.7468
▁average	-10.7468
▁awkward	-10.7468
▁behalf	-10.7468
▁brigid	-10.7468
▁butkus	-10.7468
▁butler	-10.7468
▁cairo	-10.7468
▁calrissian	-10.7468
▁collapse	-10.7468
▁facility	-10.7468
▁financial	-10.7468
▁gallahxar	-10.7468
▁harriman	-10.7468
▁hyperdrive	-10.7468
▁industries	-10.7468
▁irish	-10.7468
▁jacqueline	-10.7468
▁jedediah	-10.7468
▁kamajii	-10.7468
▁madison	-10.7468
▁mayfleet	-10.7468
▁mortgage	-10.7468
▁obiwan	-10.7468
▁paxian	-10.7468
▁politician	-10.7468
▁procedure	-10.7468
▁railroad	-10.7468
▁shrubbery	-10.7468
▁skirt	-10.7468
▁smeerensburg	-10.7468
▁symbol	-10.7468
▁tiamat	-10.7468
▁turgidson	-10.7468
▁vegas	-10.7468
▁volcano	-10.7468
▁voldemort	-10.7468
▁zulu	-10.7468
▁ambush	-10.7468
▁january	-10.7468
▁luggage	-10.7468
▁pipeworks	-10.7468
▁quarrel	-10.7468
▁seattle	-10.7468
▁shrimp	-10.7468
▁stiltskin	-10.7468
▁tragic	-10.7468
▁yorkshire	-10.7468
▁ancest	-10.7468
▁copperbottom	-10.7468
▁unfair	-10.7468
▁android	-10.7468
▁polite	-10.7468
▁screen	-10.7468
▁bostock	-10.7468
▁choir	-10.7468
▁retard	-10.7468
▁beachport	-10.7468
▁potential	-10.7468
▁spray	-10.7468
▁sultan	-10.7468
▁simpkins	-10.7468
▁gettysburg	-10.7468
▁serving	-10.7468
▁worn	-10.7468
▁sorrow	-10.7468
▁estonia	-10.7468
▁yoyo	-10.7468
▁lizard	-10.7468
▁jesper	-10.7468
▁salary	-10.7468
▁tsar	-10.7468
▁willem	-10.7468
▁grey	-10.7468
▁generous	-10.7468
▁braid	-10.7468
▁whiskers	-10.7468
▁bock	-10.7468
▁novel	-10.7468
▁tessie	-10.7468
▁stroll	-10.7468
▁canine	-10.7468
▁unreal	-10.7468
▁commandments	-10.7469
▁haircut	-10.7469
▁mijo	-10.7469
▁tension	-10.7469
▁lauren	-10.7469
▁mold	-10.7469
▁greasy	-10.7469
▁massive	-10.7469
▁heist	-10.7469
▁buff	-10.7469
▁hawkes	-10.7469
▁income	-10.7469
▁transportation	-10.7469
▁lobster	-10.7469
▁appropriate	-10.747
▁valuable	-10.747
▁gunshot	-10.747
▁shrine	-10.747
▁smoking	-10.747
▁series	-10.747
▁alice	-10.747
▁stanley	-10.747
▁dishes	-10.747
▁choosing	-10.7471
▁scum	-10.7471
▁remove	-10.7471
▁amor	-10.7471
▁whine	-10.7471
▁uhuh	-10.7471
▁ali	-10.7471
▁tango	-10.7471
▁hola	-10.7472
▁objective	-10.7472
▁carrier	-10.7472
▁rice	-10.7472
▁caveman	-10.7472
▁archery	-10.7472
▁mailman	-10.7473
▁grid	-10.7473
▁headpiece	-10.7473
▁balance	-10.7473
▁alan	-10.7473
▁produce	-10.7474
▁probe	-10.7474
▁operator	-10.7475
▁publicity	-10.7475
▁snarling	-10.7475
▁pile	-10.7476
▁highway	-10.7477
▁diego	-10.7477
▁pawpaws	-10.7478
▁rendezvous	-10.7478
▁rumbles	-10.7478
▁era	-10.7478
▁classic	-10.7478
▁peril	-10.7479
▁sector	-10.7479
▁vip	-10.748
▁owned	-10.7481
▁mmmm	-10.7481
▁programmed	-10.7482
▁pe	-10.7482
▁sole	-10.7482
▁forgetting	-10.7484
▁realise	-10.7487
▁donate	-10.7487
dies	-10.7489
▁annoying	-10.749
▁pastor	-10.7491
▁pacifi	-10.7491
▁alter	-10.7492
▁boil	-10.7493
▁accomplished	-10.7493
▁proven	-10.7494
▁bitter	-10.7495
▁buster	-10.7496
▁exile	-10.7499
▁fastest	-10.7499
▁hooting	-10.75
▁separated	-10.7501
▁issued	-10.7501
▁dresses	-10.7502
▁fury	-10.7504
▁lint	-10.7507
▁pas	-10.7509
▁introduced	-10.751
▁drowning	-10.7511
▁seeker	-10.7511
▁ahhh	-10.7513
▁jr	-10.7514
▁boost	-10.7515
▁provided	-10.7517
▁passes	-10.7518
▁wilder	-10.7521
▁wrecked	-10.7524
▁boobs	-10.7527
▁survived	-10.753
▁terms	-10.7531
teroid	-10.7532
▁kindness	-10.7532
▁factor	-10.7538
▁ruled	-10.754
▁cal	-10.7542
▁rescued	-10.7542
▁foundation	-10.7544
bit	-10.7545
▁generations	-10.755
▁rumors	-10.755
▁slim	-10.7551
▁starve	-10.7555
▁helpful	-10.7565
▁when	-10.7565
▁triumph	-10.7574
▁thankful	-10.7576
▁rap	-10.7579
▁comic	-10.7581
▁cong	-10.7596
tic	-10.7597
▁tryin	-10.7602
▁prayed	-10.7603
▁boarding	-10.7618
▁freaking	-10.7619
▁parl	-10.7622
▁strings	-10.7623
▁belly	-10.763
▁toes	-10.7632
▁skipp	-10.7634
▁mend	-10.7636
▁shown	-10.7644
com	-10.7646
▁bothered	-10.7655
▁clients	-10.766
▁tro	-10.7664
▁wedge	-10.7666
▁bullets	-10.7678
ther	-10.7697
▁faithful	-10.7703
▁honored	-10.7709
▁articles	-10.7715
▁meetings	-10.7721
▁childrens	-10.7722
▁mayors	-10.7731
ylli	-10.7732
▁fem	-10.7735
▁thingy	-10.7741
▁filling	-10.7741
▁chart	-10.7743
▁bothering	-10.7746
▁wears	-10.7758
▁scares	-10.7761
▁explore	-10.7769
ro	-10.7769
▁actors	-10.7777
▁prayers	-10.7782
so	-10.7786
ism	-10.7788
▁danced	-10.78
face	-10.7807
▁villains	-10.7808
▁greatgreatgrand	-10.7809
▁comb	-10.7816
▁alo	-10.7824
ological	-10.7832
▁dies	-10.7851
▁operat	-10.7869
▁zip	-10.7872
▁waters	-10.7873
▁manor	-10.7878
▁ropes	-10.7883
▁concerns	-10.7883
▁arabs	-10.7886
▁maker	-10.7887
▁handy	-10.789
mate	-10.7893
▁devils	-10.7921
▁snakes	-10.7938
▁wolfe	-10.7943
▁dive	-10.7964
▁jerks	-10.7977
angling	-10.7978
▁tele	-10.7979
va	-10.7993
▁buying	-10.8017
▁cared	-10.8018
dium	-10.8025
▁catching	-10.8034
▁pages	-10.8052
▁op	-10.8061
▁lous	-10.8064
▁accounts	-10.8074
▁formal	-10.8088
▁lover	-10.8089
▁cameras	-10.8091
▁ad	-10.8107
ak	-10.8127
▁bits	-10.8137
▁sarge	-10.815
▁pose	-10.8151
▁buttons	-10.8166
▁woohoo	-10.8172
▁riches	-10.8183
▁carol	-10.8183
▁receiv	-10.8196
▁chu	-10.8208
▁lad	-10.8224
room	-10.8239
▁bears	-10.8244
▁ae	-10.826
▁vari	-10.8294
po	-10.8313
▁resting	-10.832
uous	-10.8322
▁leaders	-10.8331
▁areas	-10.8338
▁dot	-10.8363
▁phones	-10.8371
▁computers	-10.8415
▁not	-10.8432
bel	-10.8434
▁deed	-10.8439
▁pl	-10.8447
mum	-10.8456
▁mer	-10.8458
ell	-10.8477
shed	-10.848
▁gar	-10.8481
▁grandpa	-10.8518
▁carbon	-10.852
▁sigh	-10.852
▁lucki	-10.8524
▁clap	-10.8525
▁occur	-10.853
▁photograph	-10.8535
▁hee	-10.8537
▁punishment	-10.8546
▁shade	-10.8546
▁winslow	-10.8546
▁communicate	-10.8549
▁peache	-10.8551
▁stream	-10.8552
▁cigar	-10.8553
▁threat	-10.8556
▁grownup	-10.8557
▁drum	-10.8558
▁clang	-10.8561
▁height	-10.8562
▁sweater	-10.8562
▁sheet	-10.8563
▁studie	-10.8564
▁objection	-10.8564
▁coconut	-10.8564
▁worm	-10.8565
▁document	-10.8566
▁robe	-10.8568
▁greatly	-10.8571
▁toward	-10.8571
▁beside	-10.8573
▁bri	-10.8594
▁thrust	-10.86
▁ami	-10.8609
▁tech	-10.8612
▁hahaha	-10.8617
▁crawl	-10.8632
▁embarrass	-10.864
▁disappoint	-10.8644
▁fri	-10.8647
inlaw	-10.8649
▁summers	-10.865
▁dru	-10.8651
▁imagin	-10.8654
▁dancer	-10.8661
▁assault	-10.8665
som	-10.867
▁broadcast	-10.8672
▁shriek	-10.8674
wood	-10.8675
▁delight	-10.8682
▁nail	-10.8683
hole	-10.8686
▁twist	-10.8686
▁award	-10.8687
▁abandon	-10.8688
▁pur	-10.8688
girl	-10.8689
▁accomplish	-10.8689
▁betray	-10.8689
tooth	-10.8689
der	-10.869
james	-10.8692
jar	-10.8693
right	-10.8695
▁pledge	-10.8695
▁jan	-10.8696
▁persuade	-10.8699
▁retrieve	-10.8699
▁explode	-10.8699
▁puss	-10.87
boy	-10.87
▁crow	-10.8701
▁craft	-10.8705
▁ga	-10.8709
▁floors	-10.8709
▁instant	-10.871
▁watering	-10.8711
▁affect	-10.8711
▁dale	-10.8712
▁puzzle	-10.8712
stone	-10.8712
▁attract	-10.8714
▁olive	-10.8714
▁employ	-10.8715
▁scu	-10.8716
▁chemist	-10.8716
▁convention	-10.8716
▁judicia	-10.8716
▁specific	-10.8717
▁daph	-10.8717
▁nov	-10.8718
▁horizon	-10.8718
▁daydream	-10.8718
▁illuminat	-10.8718
▁absurd	-10.8718
▁ammunition	-10.8718
▁arrival	-10.8718
▁batcave	-10.8718
▁belloq	-10.8718
▁briefcase	-10.8718
▁burglar	-10.8718
▁calcifer	-10.8718
▁carpia	-10.8718
▁choking	-10.8718
▁choochoo	-10.8718
▁conflict	-10.8718
▁dismiss	-10.8718
▁domestic	-10.8718
▁eddie	-10.8718
▁environment	-10.8718
▁escort	-10.8718
▁explanation	-10.8718
▁frankenstein	-10.8718
▁galahad	-10.8718
▁gronckle	-10.8718
▁harridan	-10.8718
▁hexham	-10.8718
▁incident	-10.8718
▁laredo	-10.8718
▁laszlo	-10.8718
▁musket	-10.8718
▁nottingham	-10.8718
▁nuisance	-10.8718
▁obedient	-10.8718
▁overload	-10.8718
▁password	-10.8718
▁pitiful	-10.8718
▁plumbing	-10.8718
▁podesta	-10.8718
▁preparing	-10.8718
▁pritchard	-10.8718
▁protocol	-10.8718
▁quantonium	-10.8718
▁quidditch	-10.8718
▁religion	-10.8718
▁response	-10.8718
▁shalt	-10.8718
▁stanhope	-10.8718
▁struggling	-10.8718
▁tookietookie	-10.8718
▁trembling	-10.8718
▁twelve	-10.8718
▁unhappy	-10.8718
▁violence	-10.8718
▁weymouth	-10.8718
▁arriba	-10.8718
▁bauer	-10.8718
▁freddie	-10.8718
▁fresno	-10.8718
▁harvard	-10.8718
▁narrow	-10.8718
▁offspring	-10.8718
▁rosalie	-10.8718
▁deposit	-10.8718
▁eager	-10.8718
▁phase	-10.8718
▁essence	-10.8718
▁gibson	-10.8718
▁gym	-10.8718
▁hamegg	-10.8718
▁mccann	-10.8718
▁torture	-10.8718
▁annual	-10.8718
▁bloom	-10.8718
▁harpoon	-10.8718
▁knives	-10.8718
▁maizy	-10.8718
▁toothache	-10.8718
▁champagne	-10.8718
▁referring	-10.8718
▁breeze	-10.8718
▁tyler	-10.8718
▁woodcock	-10.8718
▁yield	-10.8718
▁gramoo	-10.8718
▁resent	-10.8718
▁scripture	-10.8718
▁slick	-10.8718
▁guidance	-10.8718
▁promising	-10.8718
▁allergic	-10.8718
▁earphones	-10.8718
▁worf	-10.8718
▁vital	-10.8718
▁absence	-10.8718
▁choke	-10.8718
▁gustavus	-10.8718
▁numero	-10.8718
▁prefix	-10.8718
▁premature	-10.8718
▁steak	-10.8718
▁cindy	-10.8718
▁consent	-10.8718
▁unpredictable	-10.8718
▁broccoli	-10.8718
▁detonator	-10.8718
▁edith	-10.8718
▁rooster	-10.8718
▁despite	-10.8718
▁proposition	-10.8718
▁agency	-10.8718
▁occurred	-10.8718
▁previous	-10.8718
▁relief	-10.8718
▁kiel	-10.8718
▁ladder	-10.8718
▁selfdestruct	-10.8718
▁cords	-10.8718
▁holland	-10.8718
▁crust	-10.8718
▁calculat	-10.8718
▁oooow	-10.8718
▁forster	-10.8718
▁lamia	-10.8718
▁tanis	-10.8718
▁thorpe	-10.8718
▁amusing	-10.8718
▁leaf	-10.8718
▁hunh	-10.8718
▁margo	-10.8718
▁hamburger	-10.8718
▁oath	-10.8718
▁destination	-10.8718
▁quiz	-10.8718
▁crab	-10.8718
acek	-10.8718
▁existence	-10.8718
▁varga	-10.8718
▁baku	-10.8718
▁kik	-10.8718
▁naptime	-10.8718
▁chapman	-10.8718
▁mansfield	-10.8718
▁crispin	-10.8718
▁avenue	-10.8719
▁saddle	-10.8719
▁chaos	-10.8719
▁commence	-10.8719
▁motion	-10.8719
▁urgent	-10.8719
▁random	-10.8719
▁screwball	-10.8719
▁haste	-10.8719
▁bomposa	-10.8719
▁contest	-10.8719
▁sworn	-10.8719
▁trapped	-10.8719
▁skinny	-10.8719
▁princes	-10.8719
▁orphanage	-10.8719
▁spain	-10.8719
▁misery	-10.8719
▁stew	-10.8719
▁oooh	-10.8719
▁pause	-10.8719
▁survey	-10.8719
▁pauline	-10.8719
▁wu	-10.8719
▁snot	-10.8719
▁scent	-10.872
corporate	-10.872
▁temporary	-10.872
▁yawp	-10.872
▁chimes	-10.872
▁spectrum	-10.872
▁delicate	-10.872
▁pattern	-10.872
▁eyebrow	-10.872
▁outrageous	-10.872
▁ehoh	-10.872
▁parlor	-10.8721
▁elected	-10.8721
▁buzzing	-10.8721
▁mickey	-10.8721
▁barbara	-10.8721
▁bail	-10.8721
▁complicated	-10.8721
▁chuck	-10.8721
▁kidnapped	-10.8721
▁beef	-10.8722
▁selfish	-10.8722
▁unto	-10.8722
▁mustache	-10.8722
▁mentor	-10.8722
▁rowan	-10.8722
▁sunny	-10.8722
▁nno	-10.8723
▁toss	-10.8723
▁looney	-10.8723
▁scenery	-10.8723
▁sequence	-10.8724
▁sufficient	-10.8724
▁column	-10.8724
▁authorized	-10.8724
▁carpe	-10.8725
▁invention	-10.8725
▁spacetime	-10.8725
▁nearby	-10.8725
▁farther	-10.8725
▁stewar	-10.8725
▁silk	-10.8725
▁mature	-10.8725
▁transferred	-10.8725
▁upper	-10.8725
▁marcus	-10.8725
▁krypton	-10.8725
▁righteous	-10.8726
▁lena	-10.8726
▁dining	-10.8726
▁heroic	-10.8727
▁discussion	-10.8727
▁profit	-10.8727
▁pb	-10.8727
▁portion	-10.8727
▁treatment	-10.8728
▁clearance	-10.8728
▁apprentice	-10.8729
▁skipper	-10.8729
▁portal	-10.8729
▁chirps	-10.8729
▁mechanic	-10.8729
inine	-10.873
▁slay	-10.873
▁challenger	-10.873
▁precedent	-10.8731
▁operational	-10.8732
▁complaining	-10.8733
▁commanders	-10.8733
▁delightful	-10.8733
▁tickle	-10.8734
▁honorable	-10.8734
creating	-10.8734
▁tooth	-10.8735
illac	-10.8735
▁wager	-10.8736
▁brutal	-10.8736
▁exploded	-10.8736
▁wiser	-10.8736
▁ranch	-10.8737
▁dull	-10.8737
▁quote	-10.8738
▁etta	-10.874
▁li	-10.8741
▁humanity	-10.8742
▁wit	-10.8742
▁weeping	-10.8744
▁emotionally	-10.8744
▁psych	-10.8744
▁should	-10.8745
▁gary	-10.8746
top	-10.8746
▁producer	-10.8746
▁chester	-10.8747
▁delighted	-10.8747
▁sailor	-10.8748
▁bored	-10.8749
▁arrangements	-10.875
▁suggestion	-10.875
▁heroes	-10.875
▁beans	-10.8751
▁merge	-10.8754
▁behaved	-10.8755
int	-10.8756
▁fried	-10.8757
▁mixed	-10.8758
▁fools	-10.8759
▁boxes	-10.8759
▁lone	-10.8759
▁sixth	-10.876
▁chambers	-10.876
▁gown	-10.8764
▁bumped	-10.8764
▁label	-10.8766
▁urge	-10.8766
▁grovel	-10.8767
▁glowing	-10.8767
▁inventor	-10.8768
▁dearest	-10.8769
▁zoot	-10.8769
▁peep	-10.8769
▁consequences	-10.877
▁flyin	-10.8771
▁soak	-10.8774
▁pasta	-10.8775
▁suffered	-10.8778
▁limited	-10.8779
▁bella	-10.8779
▁daring	-10.8782
▁goodlooking	-10.8787
▁correctly	-10.8792
▁scaring	-10.8797
▁trains	-10.8797
▁wholl	-10.8803
▁defeated	-10.8804
▁experienced	-10.881
▁scouts	-10.8811
▁drops	-10.8812
▁explorers	-10.8813
▁sale	-10.8816
▁screwed	-10.8817
▁escaped	-10.8817
▁finds	-10.8818
▁discussed	-10.8825
▁exceptional	-10.8831
▁upgrades	-10.8832
▁mammals	-10.8832
▁scales	-10.8833
▁pretending	-10.8837
▁smaller	-10.8845
▁dela	-10.8853
▁brakes	-10.8853
▁radioactiv	-10.8854
▁fightin	-10.8855
▁peas	-10.8858
▁coconuts	-10.8874
▁farts	-10.8875
▁cor	-10.8879
mi	-10.8879
▁coaching	-10.8883
▁cart	-10.8889
▁cue	-10.8891
▁miller	-10.8892
▁hack	-10.8894
▁cheeks	-10.8895
▁adults	-10.8895
▁goblins	-10.8895
▁victims	-10.8895
▁mightve	-10.8911
ates	-10.8912
▁instruments	-10.8916
▁guarantees	-10.8917
ions	-10.8917
▁tricked	-10.8922
pit	-10.8928
▁switching	-10.893
▁lao	-10.8932
▁seller	-10.8933
▁belle	-10.8934
led	-10.8938
▁explained	-10.894
▁ding	-10.8944
▁watches	-10.8949
▁squeeze	-10.8957
▁qui	-10.8967
▁packing	-10.8975
▁crystals	-10.8979
▁tones	-10.8987
▁wire	-10.8992
▁rebels	-10.9
▁demands	-10.9001
▁clues	-10.9022
▁sails	-10.9024
▁courts	-10.9028
▁bake	-10.9028
▁strangers	-10.903
▁fre	-10.9037
lly	-10.9042
▁mar	-10.9046
ox	-10.905
▁sins	-10.9059
▁dimensions	-10.9064
▁callers	-10.9065
▁emb	-10.9082
▁marked	-10.9082
my	-10.9089
▁rides	-10.9091
ado	-10.9097
▁tiggers	-10.9106
▁hunters	-10.9111
▁aa	-10.9115
heads	-10.912
▁interests	-10.913
▁generate	-10.9132
▁chatters	-10.9173
▁waiter	-10.9179
▁pockets	-10.9192
▁y	-10.9217
▁receive	-10.9219
▁fr	-10.9225
▁puff	-10.9228
nie	-10.9241
▁cam	-10.9247
▁loads	-10.9256
▁wo	-10.9259
tore	-10.9279
▁shhh	-10.9292
▁clip	-10.9304
▁mash	-10.9316
▁caller	-10.9316
▁carlos	-10.9324
ir	-10.934
ied	-10.9341
▁goal	-10.9349
eur	-10.9359
▁baths	-10.9384
ator	-10.9394
▁tu	-10.9395
▁hiya	-10.9407
▁wi	-10.9408
▁ofa	-10.9421
▁relationships	-10.943
▁bin	-10.9499
▁raw	-10.9539
▁clar	-10.9556
per	-10.9565
▁gahh	-10.9569
▁owes	-10.9575
▁greater	-10.9583
ston	-10.9592
▁cr	-10.9603
▁wheels	-10.9605
ack	-10.9606
▁devo	-10.9617
▁americans	-10.9629
▁indicate	-10.9635
▁media	-10.9655
red	-10.9685
▁roads	-10.9705
▁om	-10.9711
▁trips	-10.9719
▁drugs	-10.972
▁yii	-10.9731
▁fuse	-10.9734
▁for	-10.9749
cca	-10.9751
▁lions	-10.977
▁jims	-10.9774
▁nap	-10.9799
▁ham	-10.9807
▁tick	-10.9829
▁ji	-10.9839
odoo	-10.9848
▁squeez	-10.9877
aw	-10.9917
▁ru	-10.9921
what	-10.993
▁via	-10.9945
▁sum	-10.9947
▁stack	-10.9953
▁widow	-10.9956
▁fragment	-10.9956
▁helmet	-10.9956
▁whisper	-10.9956
▁proposal	-10.9957
▁attraction	-10.9959
▁grip	-10.9959
▁lamp	-10.996
sa	-10.9962
▁counsel	-10.9972
▁pellet	-10.9974
▁gizzard	-10.9974
▁stamp	-10.9974
▁headline	-10.9976
▁improvement	-10.9978
▁email	-10.9983
▁vine	-10.9984
uch	-10.9984
▁marble	-10.9986
▁billion	-10.9988
▁surprises	-10.9988
▁method	-10.9991
▁relative	-10.9992
▁brake	-10.9993
▁principle	-10.9994
▁affair	-10.9994
▁communication	-10.9994
▁visits	-10.9995
▁skill	-10.9997
▁troop	-11.0001
▁claw	-11.0005
ite	-11.0005
▁arch	-11.0006
▁dinners	-11.0008
ese	-11.0015
we	-11.0015
fish	-11.0018
▁intention	-11.0021
▁payment	-11.0022
itched	-11.0039
▁dep	-11.0044
called	-11.0045
▁lace	-11.0046
▁dun	-11.0054
▁invent	-11.0058
▁plac	-11.006
uff	-11.006
pic	-11.0069
▁elses	-11.0071
▁proves	-11.0073
▁scann	-11.0085
ina	-11.0085
ocus	-11.0088
▁eth	-11.009
ford	-11.0093
▁malfunction	-11.0093
▁greet	-11.0093
hi	-11.01
▁rang	-11.0101
kind	-11.0101
book	-11.0105
▁strain	-11.0106
▁shush	-11.0108
ified	-11.0108
▁steer	-11.0108
▁dreamer	-11.011
grade	-11.0115
john	-11.0118
shot	-11.0119
quick	-11.0119
believe	-11.0119
wise	-11.012
▁improve	-11.0124
away	-11.0128
▁wealth	-11.0129
▁relate	-11.0129
▁ban	-11.0132
▁literal	-11.0135
▁programme	-11.0136
▁sak	-11.0137
▁incredibl	-11.0137
▁julie	-11.0138
▁achieve	-11.0138
▁superhero	-11.0141
▁potato	-11.0141
oe	-11.0143
▁compass	-11.0144
▁ellis	-11.0144
▁doug	-11.0145
▁holler	-11.0145
▁mort	-11.0145
▁cult	-11.0146
▁makin	-11.0146
▁straw	-11.0146
▁airspeed	-11.0146
▁altogether	-11.0146
▁apologise	-11.0146
▁aqaba	-11.0146
▁athlete	-11.0146
▁atlanta	-11.0146
▁barbecue	-11.0146
▁beijing	-11.0146
▁bicycle	-11.0146
▁bixler	-11.0146
▁blossom	-11.0146
▁capacitor	-11.0146
▁chamberlain	-11.0146
▁chitter	-11.0146
▁dagobah	-11.0146
▁detroit	-11.0146
▁dylan	-11.0146
▁eclipse	-11.0146
▁elefun	-11.0146
▁elegant	-11.0146
▁exhusband	-11.0146
▁ferris	-11.0146
▁fifteen	-11.0146
▁fifth	-11.0146
▁fiji	-11.0146
▁finnegan	-11.0146
▁firm	-11.0146
▁genuine	-11.0146
▁harold	-11.0146
▁hercule	-11.0146
▁industry	-11.0146
▁jergens	-11.0146
▁jerusalem	-11.0146
▁kirk	-11.0146
▁liquid	-11.0146
▁makunga	-11.0146
▁mellow	-11.0146
▁mercedes	-11.0146
▁mhm	-11.0146
▁misfortune	-11.0146
▁mississippi	-11.0146
▁nesmith	-11.0146
▁obsessed	-11.0146
▁october	-11.0146
▁ominous	-11.0146
▁override	-11.0146
▁penalty	-11.0146
▁pennington	-11.0146
▁pennsylvania	-11.0146
▁phew	-11.0146
▁popcorn	-11.0146
▁possibilities	-11.0146
▁privacy	-11.0146
▁puke	-11.0146
▁quality	-11.0146
▁randamonium	-11.0146
▁reckless	-11.0146
▁rehearsal	-11.0146
▁reign	-11.0146
▁resources	-11.0146
▁ribbon	-11.0146
▁ritual	-11.0146
▁samuels	-11.0146
▁sankara	-11.0146
▁satisfy	-11.0146
▁scissors	-11.0146
▁scoot	-11.0146
▁separation	-11.0146
▁snatch	-11.0146
▁spaghetti	-11.0146
▁strategi	-11.0146
▁sylvia	-11.0146
▁tennessee	-11.0146
▁texas	-11.0146
▁thwip	-11.0146
▁unacceptable	-11.0146
▁vulgar	-11.0146
▁zeniba	-11.0146
▁cheeseburger	-11.0146
▁entry	-11.0146
▁fundamental	-11.0146
▁length	-11.0146
▁motivat	-11.0146
▁muertos	-11.0146
▁offend	-11.0146
▁scandal	-11.0146
▁unstable	-11.0146
▁update	-11.0146
▁dialogue	-11.0146
▁ebersol	-11.0146
▁italy	-11.0146
▁primitive	-11.0146
▁shuttle	-11.0146
▁querer	-11.0146
▁referral	-11.0146
▁abilities	-11.0146
▁cereal	-11.0146
▁doomed	-11.0146
▁residence	-11.0146
▁violent	-11.0146
▁activities	-11.0146
▁exceed	-11.0146
▁gambling	-11.0146
▁roast	-11.0146
▁sloppy	-11.0146
▁classmates	-11.0146
▁drank	-11.0146
▁pepper	-11.0146
▁treason	-11.0146
▁willard	-11.0146
▁feldstein	-11.0146
▁nuwanda	-11.0146
▁salome	-11.0146
▁zong	-11.0146
▁vault	-11.0146
▁tornado	-11.0146
▁alliance	-11.0146
▁blix	-11.0146
▁genetic	-11.0146
▁conbaby	-11.0146
▁fireworks	-11.0146
▁honcho	-11.0146
▁visual	-11.0146
▁grandfather	-11.0146
thrall	-11.0146
▁picard	-11.0146
▁whinnies	-11.0146
▁evacuation	-11.0146
▁theft	-11.0146
▁inspiration	-11.0146
▁fifi	-11.0146
▁continuum	-11.0147
▁nurhachi	-11.0147
▁robbing	-11.0147
▁merchant	-11.0147
▁adam	-11.0147
▁charmont	-11.0147
▁detention	-11.0147
▁moses	-11.0147
▁comedian	-11.0147
▁olga	-11.0147
▁daphne	-11.0147
▁preschool	-11.0147
▁helen	-11.0147
▁abduction	-11.0147
▁robbed	-11.0147
▁dagger	-11.0147
▁behold	-11.0147
▁construction	-11.0147
▁alfa	-11.0147
▁cecil	-11.0147
▁myth	-11.0147
▁andrew	-11.0147
▁stiff	-11.0147
▁envy	-11.0147
▁loony	-11.0147
▁purse	-11.0147
▁traitor	-11.0147
▁furball	-11.0147
▁dutch	-11.0147
ternity	-11.0147
▁kni	-11.0147
▁destruction	-11.0147
▁jello	-11.0147
▁inspection	-11.0147
▁oona	-11.0147
▁resistance	-11.0147
▁merton	-11.0147
▁alva	-11.0147
▁buddies	-11.0147
▁violation	-11.0147
▁medium	-11.0147
▁bookwright	-11.0147
▁colorado	-11.0147
▁guido	-11.0147
▁harp	-11.0148
▁wiggly	-11.0148
▁fanny	-11.0148
▁fireplace	-11.0148
▁betcha	-11.0148
▁firing	-11.0148
▁oof	-11.0148
▁static	-11.0148
▁compassion	-11.0148
▁dedicated	-11.0148
▁investment	-11.0148
▁clive	-11.0148
▁soil	-11.0148
▁mccat	-11.0148
▁leviosa	-11.0148
▁danny	-11.0148
▁crm	-11.0148
▁yup	-11.0148
▁blah	-11.0149
▁spitting	-11.0149
▁elsewhere	-11.0149
▁headache	-11.0149
▁stitches	-11.0149
▁ripping	-11.0149
▁phrase	-11.0149
▁jury	-11.0149
▁violet	-11.0149
▁slide	-11.0149
▁warden	-11.0149
▁nevertheless	-11.0149
▁grudge	-11.0149
▁liege	-11.0149
▁canal	-11.0149
▁yuck	-11.0149
▁classroom	-11.0149
▁owooo	-11.015
▁hallway	-11.015
▁with	-11.015
▁commitment	-11.015
▁scarce	-11.015
▁julien	-11.015
▁dispute	-11.015
▁bait	-11.015
▁voila	-11.015
▁fiine	-11.015
▁retired	-11.0151
▁ferry	-11.0151
▁extend	-11.0151
▁waking	-11.0151
asive	-11.0151
▁capital	-11.0151
▁raid	-11.0151
▁freezing	-11.0151
▁juliet	-11.0151
▁youse	-11.0151
▁adore	-11.0152
▁rubies	-11.0152
▁scam	-11.0152
▁oliver	-11.0152
▁intense	-11.0152
▁childhood	-11.0152
▁las	-11.0152
▁bushes	-11.0152
▁location	-11.0153
▁diary	-11.0153
▁loco	-11.0153
▁cluck	-11.0154
▁tries	-11.0154
▁infinitely	-11.0154
▁utterly	-11.0154
▁electrical	-11.0154
▁kidney	-11.0154
▁product	-11.0155
▁sway	-11.0155
▁committee	-11.0156
▁clapping	-11.0156
▁maud	-11.0156
▁inspired	-11.0156
▁philosophy	-11.0158
▁classical	-11.0158
▁bush	-11.0158
▁management	-11.0158
▁complaint	-11.0159
▁protest	-11.0159
▁dna	-11.0159
▁pinch	-11.016
▁gigawatts	-11.016
▁wig	-11.016
▁jigs	-11.016
▁active	-11.0161
▁offense	-11.0161
▁associate	-11.0161
▁dak	-11.0162
▁located	-11.0162
▁taunting	-11.0163
▁fence	-11.0164
▁virtue	-11.0164
▁asset	-11.0164
▁tedd	-11.0165
▁successfully	-11.0166
▁claus	-11.0166
▁annoyed	-11.0167
▁sac	-11.0167
▁slimy	-11.0167
▁generals	-11.0168
▁whee	-11.0169
▁handling	-11.017
▁policeman	-11.017
▁expression	-11.017
▁gay	-11.017
▁fl	-11.0171
▁dwell	-11.0172
▁thus	-11.0173
▁piss	-11.0173
ndistinct	-11.0174
▁cure	-11.0175
▁rosey	-11.0176
usp	-11.0176
▁zoom	-11.0176
▁included	-11.0177
▁dragging	-11.0177
▁engineering	-11.0177
▁forgiven	-11.0177
▁lens	-11.0178
▁speaker	-11.0178
▁hoc	-11.0178
▁tookie	-11.018
▁betrayed	-11.018
▁twisted	-11.018
▁camper	-11.0181
▁burnt	-11.0181
▁inhales	-11.0183
▁bully	-11.0183
▁entre	-11.0185
▁insulted	-11.0185
▁loan	-11.0185
▁hum	-11.0186
▁buckle	-11.0187
▁lit	-11.0191
▁immortality	-11.0192
▁shish	-11.0193
▁nanny	-11.0195
▁angela	-11.0196
▁nailed	-11.0196
▁shrieking	-11.0197
▁lawn	-11.0197
jo	-11.0197
▁described	-11.0198
▁are	-11.0199
▁diseased	-11.0199
▁driven	-11.0201
four	-11.0204
▁whys	-11.0206
▁mah	-11.0208
▁sealed	-11.021
▁assured	-11.0211
▁fallin	-11.0211
▁tables	-11.0214
▁wandering	-11.0217
cast	-11.0218
ang	-11.0228
▁winds	-11.0231
▁bugle	-11.0231
pa	-11.0231
▁warmer	-11.0236
▁disco	-11.0236
▁guided	-11.0237
▁directed	-11.0247
▁shatters	-11.0255
▁goombas	-11.0255
▁honks	-11.0255
visible	-11.0256
▁moaning	-11.0263
▁jay	-11.0267
▁entered	-11.0271
▁engineers	-11.0272
▁tasted	-11.0276
yman	-11.0276
▁mes	-11.0277
▁coins	-11.028
▁nazis	-11.028
▁riddles	-11.028
▁gag	-11.028
▁commands	-11.0289
▁axe	-11.0291
epsi	-11.0292
▁guarded	-11.0296
▁capt	-11.0296
▁tag	-11.03
▁intentions	-11.0303
▁claws	-11.0304
▁methods	-11.0304
▁communications	-11.0304
▁relatives	-11.0304
▁repeating	-11.0305
nd	-11.0308
▁reminder	-11.0312
ex	-11.0313
▁colored	-11.0323
▁sire	-11.0325
▁traveled	-11.0326
▁nd	-11.0326
▁worms	-11.0328
▁pad	-11.0329
▁sheets	-11.0331
▁washing	-11.0333
▁yumm	-11.0336
▁dancers	-11.0348
de	-11.0348
▁speakers	-11.0352
▁compliments	-11.0353
pelled	-11.0356
▁crate	-11.0357
itation	-11.036
▁wr	-11.0362
▁sticky	-11.0364
▁nash	-11.0365
▁maxi	-11.0376
▁cocks	-11.0376
di	-11.0377
▁instincts	-11.0377
▁represents	-11.0377
▁spic	-11.0383
▁nails	-11.0386
▁consume	-11.0391
▁crossed	-11.0391
▁sucks	-11.0397
▁cooler	-11.0401
▁turtles	-11.0402
▁wolfwalkers	-11.0402
▁plates	-11.0402
▁permitt	-11.0414
▁educational	-11.042
▁fades	-11.0423
stop	-11.0429
▁hoot	-11.043
▁hustle	-11.0431
▁drawer	-11.0431
▁uses	-11.0442
ana	-11.0446
▁chains	-11.0451
▁options	-11.0451
▁yards	-11.0451
▁counted	-11.0456
▁lighter	-11.046
▁psycho	-11.0463
ble	-11.047
▁workin	-11.0476
▁wh	-11.0477
ris	-11.0483
inthe	-11.0488
▁vis	-11.0491
▁guessing	-11.0496
ries	-11.0511
▁by	-11.0516
▁dice	-11.0517
▁bare	-11.0521
▁claims	-11.0524
▁closely	-11.0525
▁waves	-11.0525
▁detectives	-11.0525
▁dent	-11.0534
aged	-11.0537
nstitution	-11.0544
▁expos	-11.0564
▁sol	-11.0564
▁roars	-11.0577
▁develop	-11.0585
▁lightly	-11.0587
▁testing	-11.0593
▁troubles	-11.0598
▁investigate	-11.0613
▁rats	-11.0618
ri	-11.0619
▁cows	-11.0647
▁mucho	-11.0649
▁shines	-11.0651
▁booked	-11.0662
▁yia	-11.0669
▁elephants	-11.0675
▁ver	-11.0708
▁mob	-11.0712
▁returning	-11.0714
ative	-11.0719
rate	-11.0724
▁events	-11.073
▁sticking	-11.0731
ists	-11.0758
▁musicians	-11.0776
▁directions	-11.0776
▁bugs	-11.0782
▁controls	-11.0797
▁unicorns	-11.0801
▁tapes	-11.0801
▁gl	-11.0802
op	-11.0834
▁noises	-11.0854
ire	-11.0871
▁opinions	-11.0877
▁frog	-11.0879
youre	-11.0892
▁sto	-11.0893
maker	-11.0905
▁rested	-11.0906
some	-11.092
▁predict	-11.0921
dom	-11.0929
▁swallows	-11.0954
▁agents	-11.0954
▁targets	-11.0979
ups	-11.0984
▁whi	-11.0988
▁kindly	-11.0992
▁presidents	-11.0993
▁attacks	-11.1008
▁me	-11.1011
zing	-11.104
og	-11.1047
about	-11.1057
▁od	-11.1059
ac	-11.1062
ual	-11.1085
sky	-11.1087
▁signs	-11.1092
▁gil	-11.1098
▁abs	-11.1098
ver	-11.1101
▁blessings	-11.1109
▁colors	-11.1114
sm	-11.1118
ms	-11.1122
ky	-11.1125
ttler	-11.1126
▁ifyou	-11.1129
wa	-11.1191
▁thinkin	-11.1207
▁chickens	-11.1209
ence	-11.1223
nto	-11.1243
ew	-11.1267
mos	-11.1274
reatgreatgrandpa	-11.1288
of	-11.1297
dos	-11.1313
fully	-11.1315
east	-11.1319
etic	-11.1331
▁bruise	-11.1358
gy	-11.1384
▁gin	-11.1405
▁ka	-11.1407
▁slap	-11.1429
▁mmmmmm	-11.1441
▁der	-11.1453
pre	-11.1454
▁loyal	-11.1457
▁sardines	-11.1458
doo	-11.147
▁bombs	-11.1481
chi	-11.1505
▁bot	-11.1507
▁moo	-11.1515
lock	-11.1528
▁ink	-11.1532
▁am	-11.1545
ons	-11.1555
▁roo	-11.1555
▁ke	-11.1563
▁expose	-11.1565
▁creep	-11.1579
▁stations	-11.1583
heart	-11.1592
this	-11.1598
▁text	-11.1604
ung	-11.1606
ida	-11.161
▁fa	-11.161
▁reject	-11.1611
▁gifts	-11.1612
▁badge	-11.1619
▁wars	-11.162
▁offers	-11.1621
▁turnip	-11.1622
▁conclusion	-11.1623
▁dork	-11.1624
▁payroll	-11.1624
▁stake	-11.1627
▁trumpet	-11.1629
assigned	-11.163
▁flavor	-11.1631
▁messages	-11.1635
▁fights	-11.164
▁comrade	-11.1641
▁item	-11.1641
▁struggle	-11.1641
▁ellen	-11.1641
▁knocks	-11.1642
▁colour	-11.1644
▁apes	-11.1647
▁elbow	-11.1648
▁kingpin	-11.1648
▁bracelet	-11.1649
ora	-11.1649
▁xray	-11.1652
▁chick	-11.1652
▁droid	-11.1652
▁riddle	-11.1652
▁pencil	-11.1653
▁autograph	-11.1653
▁neville	-11.1653
raising	-11.1655
▁emotion	-11.1656
▁cigarette	-11.1656
▁underdog	-11.1656
▁terrorist	-11.1657
▁nazi	-11.1658
▁mammal	-11.1661
▁statue	-11.1661
▁upgrade	-11.1663
▁knot	-11.1666
▁pul	-11.1669
▁scale	-11.1671
ating	-11.1673
▁highp	-11.1681
▁sucker	-11.1681
ud	-11.1685
▁strap	-11.1689
▁coin	-11.1692
▁dispatch	-11.1694
pack	-11.1704
▁traveler	-11.1713
▁distract	-11.1726
▁fra	-11.1726
▁jo	-11.1727
▁spill	-11.1731
▁farmer	-11.1736
▁jock	-11.1759
▁blackmail	-11.176
stage	-11.1764
▁val	-11.1764
▁crunch	-11.1769
▁historic	-11.177
kins	-11.177
af	-11.1773
▁gr	-11.1774
▁encounter	-11.1777
cal	-11.1777
▁drain	-11.178
piece	-11.178
▁draft	-11.1783
▁faint	-11.1783
▁scan	-11.1784
mobile	-11.1785
▁surround	-11.1785
school	-11.1785
proof	-11.1785
howe	-11.1786
year	-11.1786
talk	-11.1791
▁cruise	-11.1793
▁cooperate	-11.1794
▁locate	-11.1794
▁mor	-11.1795
▁spook	-11.1796
▁remote	-11.1798
▁frida	-11.1798
▁practical	-11.1799
▁apparent	-11.1799
▁precise	-11.1799
▁premier	-11.1799
▁norm	-11.1801
▁react	-11.1801
▁squ	-11.1802
sper	-11.1805
around	-11.1805
took	-11.1806
▁melan	-11.1807
▁tomato	-11.1807
▁happie	-11.1808
▁drunken	-11.1808
▁splash	-11.1808
ville	-11.1809
▁communi	-11.181
▁navigat	-11.181
▁manipulat	-11.181
▁rev	-11.1811
▁scarf	-11.1811
▁capit	-11.1813
▁november	-11.1813
conscious	-11.1813
equipped	-11.1813
lemere	-11.1813
▁abbess	-11.1813
▁abuelita	-11.1813
▁accusing	-11.1813
▁adequate	-11.1813
▁agenda	-11.1813
▁ajam	-11.1813
▁albrecht	-11.1813
▁andiamo	-11.1813
▁anonymous	-11.1813
▁anubis	-11.1813
▁anyhow	-11.1813
▁approximately	-11.1813
▁archaeology	-11.1813
▁architect	-11.1813
▁atlanti	-11.1813
▁bikini	-11.1813
▁bourget	-11.1813
▁buongiorno	-11.1813
▁capacity	-11.1813
▁ceiling	-11.1813
▁cheerleader	-11.1813
▁chloe	-11.1813
▁chomofsky	-11.1813
▁clifton	-11.1813
▁commercial	-11.1813
▁condemn	-11.1813
▁connolly	-11.1813
▁convincing	-11.1813
▁corporation	-11.1813
▁cottage	-11.1813
▁covenant	-11.1813
▁crusade	-11.1813
▁curriculum	-11.1813
▁deceased	-11.1813
▁december	-11.1813
▁depression	-11.1813
▁despair	-11.1813
▁dessert	-11.1813
▁disregard	-11.1813
▁dobbs	-11.1813
▁dougherty	-11.1813
▁effendi	-11.1813
▁elaborate	-11.1813
▁embrace	-11.1813
▁enthusiasm	-11.1813
▁essential	-11.1813
▁expotition	-11.1813
▁gestapo	-11.1813
▁goober	-11.1813
▁gossip	-11.1813
▁greece	-11.1813
▁herlihy	-11.1813
▁hmph	-11.1813
▁humiliating	-11.1813
▁identify	-11.1813
▁invasion	-11.1813
▁isham	-11.1813
▁juilliard	-11.1813
▁juvie	-11.1813
▁koushik	-11.1813
▁lenore	-11.1813
▁longhorns	-11.1813
▁lydia	-11.1813
▁malfoy	-11.1813
▁mattress	-11.1813
▁mccadden	-11.1813
▁melody	-11.1813
▁misunderstood	-11.1813
▁motive	-11.1813
▁mutiny	-11.1813
▁neutr	-11.1813
▁niebold	-11.1813
▁oasis	-11.1813
▁orrin	-11.1813
▁oyster	-11.1813
▁perimeter	-11.1813
▁pillow	-11.1813
▁razor	-11.1813
▁reception	-11.1813
▁robotolution	-11.1813
▁rossmore	-11.1813
▁scholar	-11.1813
▁scientific	-11.1813
▁scoundrel	-11.1813
▁shelby	-11.1813
▁shirley	-11.1813
▁skating	-11.1813
▁strategy	-11.1813
▁stuttering	-11.1813
▁substance	-11.1813
▁survival	-11.1813
▁tatiana	-11.1813
▁teetsi	-11.1813
▁tsukasa	-11.1813
▁unnecessary	-11.1813
▁valentin	-11.1813
▁vigilante	-11.1813
▁vodka	-11.1813
▁yotsuha	-11.1813
▁ankle	-11.1813
▁arguing	-11.1813
▁crisis	-11.1813
▁deraa	-11.1813
▁felicity	-11.1813
▁fierce	-11.1813
▁goodwill	-11.1813
▁gratitude	-11.1813
▁grazie	-11.1813
▁griffith	-11.1813
▁haunted	-11.1813
▁hyper	-11.1813
▁intima	-11.1813
▁optimistic	-11.1813
▁parasite	-11.1813
▁throne	-11.1813
maintenance	-11.1813
▁grief	-11.1813
▁increase	-11.1813
▁kyle	-11.1813
▁population	-11.1813
▁restrict	-11.1813
▁scroll	-11.1813
▁toad	-11.1813
emption	-11.1813
▁bouncing	-11.1813
▁civilization	-11.1813
▁conspiracy	-11.1813
▁romania	-11.1813
▁brazil	-11.1813
▁meddling	-11.1813
▁negro	-11.1813
▁opponent	-11.1813
▁incinerat	-11.1813
▁outnumbered	-11.1813
▁japanese	-11.1813
▁rubbish	-11.1813
▁traction	-11.1813
▁defective	-11.1813
▁bronze	-11.1813
▁concrete	-11.1813
▁murney	-11.1813
▁profile	-11.1813
▁temperature	-11.1813
▁horizontal	-11.1813
▁sallah	-11.1813
▁vandali	-11.1813
▁wimp	-11.1813
▁yeehaw	-11.1813
▁marlon	-11.1813
▁hancock	-11.1813
▁summon	-11.1813
▁bottling	-11.1813
▁deception	-11.1813
▁chiming	-11.1813
▁clarence	-11.1813
▁nerd	-11.1813
▁enchantment	-11.1813
▁chores	-11.1813
▁june	-11.1813
▁steam	-11.1813
▁uplift	-11.1813
▁revelation	-11.1813
▁forsak	-11.1813
▁leather	-11.1813
▁marcie	-11.1813
▁robotics	-11.1813
▁hunch	-11.1813
▁confront	-11.1813
▁sundance	-11.1813
▁bunny	-11.1813
▁orbit	-11.1813
▁montage	-11.1813
▁departure	-11.1813
▁calculations	-11.1813
▁nogood	-11.1813
▁abner	-11.1813
▁apology	-11.1813
▁refresh	-11.1813
▁banner	-11.1813
▁saint	-11.1813
▁scrub	-11.1813
▁pruitt	-11.1813
▁truce	-11.1813
▁lodge	-11.1813
▁zog	-11.1814
▁dripping	-11.1814
▁duties	-11.1814
▁overridden	-11.1814
▁woah	-11.1814
▁reform	-11.1814
▁cobra	-11.1814
▁decade	-11.1814
▁lobby	-11.1814
▁revolt	-11.1814
▁welton	-11.1814
▁krum	-11.1814
▁remarkable	-11.1814
▁stepmother	-11.1814
▁combat	-11.1814
▁landlord	-11.1814
▁establishment	-11.1814
▁minions	-11.1814
▁uphold	-11.1814
▁babysitting	-11.1814
▁calvin	-11.1814
▁piggy	-11.1814
▁aircraft	-11.1814
▁disturbance	-11.1814
▁investors	-11.1814
▁geez	-11.1814
▁internet	-11.1814
▁spur	-11.1814
▁barbaric	-11.1814
▁yawn	-11.1814
▁orale	-11.1814
▁signature	-11.1814
▁jatt	-11.1814
▁native	-11.1814
▁documentary	-11.1814
▁salon	-11.1814
▁plotting	-11.1814
▁elderly	-11.1814
▁aaaah	-11.1814
▁flashlight	-11.1814
▁unger	-11.1814
▁celia	-11.1814
▁aspirin	-11.1815
▁fluffy	-11.1815
▁puck	-11.1815
▁swap	-11.1815
▁onward	-11.1815
▁grain	-11.1815
▁humiliated	-11.1815
▁paranoid	-11.1815
▁combined	-11.1815
▁cunt	-11.1815
▁barrel	-11.1815
▁wireless	-11.1815
▁mailbox	-11.1815
▁cozy	-11.1815
▁countries	-11.1815
▁independent	-11.1815
▁valet	-11.1815
▁eternity	-11.1815
▁replacement	-11.1816
▁megan	-11.1816
▁caution	-11.1816
▁enterprise	-11.1816
▁mafia	-11.1816
▁occupation	-11.1816
▁pupil	-11.1816
▁golf	-11.1816
▁waving	-11.1816
▁collective	-11.1816
▁inhabit	-11.1816
▁amar	-11.1816
▁crackling	-11.1816
▁sidewalk	-11.1816
▁entertainment	-11.1816
▁limp	-11.1816
▁jean	-11.1816
▁pronounce	-11.1816
▁critical	-11.1817
▁beam	-11.1817
▁hughes	-11.1817
▁voters	-11.1817
▁duh	-11.1817
▁attractive	-11.1817
ganas	-11.1817
▁stove	-11.1817
▁scorching	-11.1817
▁slurping	-11.1817
▁gravity	-11.1818
▁lime	-11.1818
▁paperwork	-11.1818
▁ballroom	-11.1818
▁whisky	-11.1818
▁squish	-11.1818
▁kneel	-11.1818
▁funky	-11.1818
▁effective	-11.1818
▁dried	-11.1818
▁injured	-11.1818
▁governor	-11.1818
▁dentist	-11.1818
▁splashes	-11.1818
▁tackle	-11.1818
▁dime	-11.1818
▁judy	-11.1819
▁graceful	-11.1819
▁metaphor	-11.1819
▁alas	-11.1819
▁tapping	-11.1819
▁dummy	-11.1819
▁cellar	-11.182
▁quiere	-11.182
▁crocodile	-11.182
▁hutt	-11.1821
▁july	-11.1821
▁mein	-11.1821
▁cube	-11.1821
▁rosie	-11.1821
▁hank	-11.1821
▁denied	-11.1821
▁facebook	-11.1821
▁shelf	-11.1821
▁abducted	-11.1821
▁lenin	-11.1821
▁racket	-11.1821
▁relieved	-11.1822
▁slavery	-11.1822
▁zod	-11.1822
▁logical	-11.1822
▁lifestyle	-11.1822
▁royalty	-11.1822
▁apply	-11.1822
▁alongside	-11.1822
▁bitten	-11.1823
▁slice	-11.1823
▁taxes	-11.1823
▁princeton	-11.1823
▁peachy	-11.1824
▁vous	-11.1824
▁stepping	-11.1824
▁liza	-11.1824
▁magician	-11.1824
▁chillin	-11.1825
▁constantly	-11.1825
▁neighing	-11.1825
▁swis	-11.1825
▁tolling	-11.1825
▁begging	-11.1826
▁hospitality	-11.1826
▁rusty	-11.1827
▁subt	-11.1828
▁bravery	-11.1828
▁vincent	-11.1829
▁aww	-11.1829
drops	-11.1829
▁afterwards	-11.1829
▁fluids	-11.1829
▁regulations	-11.1829
▁specialty	-11.1829
▁acknowledged	-11.183
▁stable	-11.183
▁grabb	-11.183
▁hissing	-11.183
▁fearless	-11.1831
▁peel	-11.1831
▁promotion	-11.1831
▁andy	-11.1831
▁piper	-11.1831
▁untied	-11.1832
▁julio	-11.1832
▁forgiveness	-11.1832
▁cello	-11.1832
▁lair	-11.1833
▁canning	-11.1833
▁soar	-11.1834
▁bedtime	-11.1834
▁consideration	-11.1834
▁hunger	-11.1834
▁bumper	-11.1835
▁bein	-11.1835
▁madness	-11.1836
▁deadline	-11.1836
▁bane	-11.1836
▁endure	-11.1836
▁mall	-11.1837
▁painfully	-11.1837
▁jazzed	-11.1837
▁partial	-11.1838
▁persuaded	-11.1839
▁melted	-11.1839
▁recycling	-11.1841
▁squawking	-11.1841
▁activated	-11.1842
▁factory	-11.1844
▁predicted	-11.1844
▁threatening	-11.1844
▁pale	-11.1844
az	-11.1845
▁ceased	-11.1845
▁pegg	-11.1845
▁slope	-11.1846
▁sincere	-11.1846
ard	-11.1848
▁fatal	-11.1848
▁larger	-11.1848
▁mona	-11.1848
▁hager	-11.1848
▁graduated	-11.1848
▁guaranteed	-11.1849
stead	-11.185
▁consult	-11.185
▁severe	-11.1852
▁lew	-11.1856
▁mansion	-11.1856
▁takin	-11.1856
▁sel	-11.1858
▁batter	-11.1859
▁poured	-11.1859
▁rarely	-11.1862
▁pint	-11.1864
▁licensed	-11.1865
▁positively	-11.1868
dess	-11.1868
▁grind	-11.1869
▁strongest	-11.187
aham	-11.1872
▁pinky	-11.1872
▁weirdo	-11.1873
▁taller	-11.1874
▁goose	-11.1874
▁tide	-11.1875
▁ramp	-11.1875
▁lever	-11.1878
▁canceled	-11.1881
▁pouring	-11.1881
▁lice	-11.1882
▁bore	-11.1883
▁victoria	-11.1884
▁polls	-11.1885
▁dolphins	-11.1886
▁ingredients	-11.1886
▁passengers	-11.1886
▁sleeves	-11.1886
▁verse	-11.1886
ney	-11.1888
▁stripes	-11.1889
ged	-11.189
▁squared	-11.189
test	-11.189
▁fling	-11.1892
▁amuse	-11.1892
ont	-11.1896
▁claimed	-11.1898
fire	-11.1899
▁goof	-11.1903
▁bricks	-11.1913
▁dumped	-11.1913
▁rhymes	-11.1915
▁uglydolls	-11.1915
▁regarding	-11.1915
▁nervously	-11.1916
▁poisoned	-11.1919
▁collected	-11.1919
▁placement	-11.1921
going	-11.1921
▁entertaining	-11.1922
▁treaty	-11.1924
▁croc	-11.1926
▁off	-11.1928
▁witnessed	-11.193
▁kly	-11.193
▁coordinates	-11.1931
▁spec	-11.1934
for	-11.1936
▁requested	-11.1937
▁flowing	-11.1938
▁pirates	-11.1943
▁relations	-11.1944
▁samples	-11.1944
▁candles	-11.1944
▁beeps	-11.1946
▁horny	-11.195
▁awe	-11.195
▁puls	-11.1955
nows	-11.1955
jan	-11.1963
▁mango	-11.1966
▁ohoh	-11.1969
▁if	-11.197
▁knots	-11.1971
▁tricky	-11.1972
▁shrink	-11.1972
▁hooker	-11.1973
▁cigarettes	-11.1973
▁underdogs	-11.1973
▁terrorists	-11.1973
▁par	-11.1973
▁creeps	-11.1974
▁shocking	-11.1979
sexual	-11.198
▁quicker	-11.1985
▁witnessing	-11.1987
tery	-11.1988
▁tur	-11.1996
▁messy	-11.1998
▁stays	-11.2003
▁ditch	-11.201
▁ranger	-11.2017
▁oneway	-11.2019
▁cracking	-11.202
▁therm	-11.2022
▁cuts	-11.2023
▁ale	-11.2026
▁loudly	-11.2027
▁studies	-11.2029
▁grit	-11.203
▁heights	-11.2031
▁drums	-11.2032
▁discussing	-11.2036
▁entering	-11.2037
▁coke	-11.2038
▁sides	-11.2042
ink	-11.2047
▁smelly	-11.2052
▁ranks	-11.2057
ils	-11.2058
▁companions	-11.206
▁nerves	-11.206
▁spikes	-11.206
▁artists	-11.2061
▁pits	-11.2065
▁bathing	-11.207
▁ooo	-11.2082
▁soot	-11.2085
▁grades	-11.2089
bol	-11.209
▁sl	-11.2097
▁porter	-11.2113
▁scientists	-11.2119
▁peanuts	-11.2124
▁corpse	-11.2125
▁tease	-11.2126
▁ahhhh	-11.2126
▁itch	-11.213
▁dislike	-11.2134
▁cl	-11.2143
▁fishy	-11.2143
▁hive	-11.2147
▁dinosaurs	-11.2149
▁grandmothers	-11.2149
▁effects	-11.2149
▁hairy	-11.2154
▁gathering	-11.2159
vi	-11.2159
▁tracker	-11.2159
ice	-11.2162
▁feathers	-11.2173
▁brigades	-11.2178
▁quarters	-11.2179
▁tents	-11.2184
▁asks	-11.2184
ational	-11.2194
▁seated	-11.2197
▁eee	-11.2198
▁creaks	-11.2202
▁lovers	-11.2205
ked	-11.2206
▁helicopters	-11.2208
▁towels	-11.2208
▁communists	-11.2208
▁belts	-11.2209
▁laughed	-11.2223
kin	-11.2234
▁divisions	-11.2238
uction	-11.2241
▁dens	-11.2253
▁crossing	-11.2254
▁misunderstand	-11.2257
▁ut	-11.2258
▁stat	-11.2265
▁meals	-11.2267
▁explosions	-11.2268
▁senses	-11.2268
▁reaching	-11.2271
▁wedd	-11.2274
ties	-11.2274
▁returns	-11.2281
▁crowded	-11.2289
ando	-11.2292
▁boyle	-11.2292
▁twins	-11.2298
▁hats	-11.2304
fe	-11.2316
ten	-11.2316
▁stepsister	-11.2322
▁husbands	-11.2322
▁uniforms	-11.2328
▁suspects	-11.2329
▁grove	-11.2329
▁raining	-11.2342
lyn	-11.2344
▁pope	-11.2356
▁connections	-11.2358
▁rays	-11.2358
nuff	-11.2362
▁au	-11.2364
ag	-11.2374
▁ble	-11.2382
▁hears	-11.2384
▁bangs	-11.2385
▁airplanes	-11.2388
▁committe	-11.2407
oid	-11.2408
▁operations	-11.2419
▁arrives	-11.2419
▁bea	-11.2422
otic	-11.2422
sburg	-11.2426
hes	-11.2427
▁landed	-11.2435
za	-11.2436
▁boats	-11.2438
▁fiddle	-11.2448
▁and	-11.2451
convenience	-11.2459
ations	-11.2462
verge	-11.2463
▁devot	-11.2472
bag	-11.2473
▁les	-11.2476
▁bobbleheads	-11.248
▁requests	-11.248
ture	-11.2514
▁throws	-11.2532
▁fart	-11.2534
▁ti	-11.2535
▁gulp	-11.2572
▁barr	-11.2572
▁senor	-11.2581
▁reduce	-11.2586
ade	-11.2593
▁bal	-11.26
▁dunes	-11.2607
▁rust	-11.263
▁bla	-11.2631
owns	-11.2636
▁levels	-11.2662
▁deactivate	-11.2664
▁ot	-11.2676
▁types	-11.2692
▁signing	-11.27
▁wel	-11.2725
▁ci	-11.273
▁drives	-11.2739
▁seas	-11.2753
▁oo	-11.2778
hold	-11.2784
iss	-11.2811
▁ge	-11.2818
▁rem	-11.282
uda	-11.2834
▁hid	-11.284
▁travell	-11.2841
▁hits	-11.2852
sen	-11.2873
pressed	-11.2896
▁missions	-11.2899
▁chairs	-11.2942
▁bros	-11.2947
▁che	-11.2952
nde	-11.2953
fer	-11.296
▁cla	-11.2967
sers	-11.2974
▁stuffed	-11.2986
ru	-11.2993
▁eats	-11.3019
ech	-11.3022
tto	-11.3039
▁dip	-11.3046
▁slum	-11.3048
ology	-11.305
ku	-11.3057
▁cro	-11.3059
ick	-11.3073
▁var	-11.308
ummy	-11.3084
tis	-11.3096
▁pets	-11.3098
▁checks	-11.3103
ooo	-11.3111
mou	-11.3134
▁juic	-11.3147
▁sch	-11.3186
▁deserves	-11.3198
▁col	-11.3225
ens	-11.3232
▁plunge	-11.3238
ama	-11.3243
aid	-11.3265
▁constitut	-11.3267
▁hopes	-11.3282
▁juan	-11.3284
ral	-11.33
eryl	-11.3311
liness	-11.3315
▁ven	-11.3315
▁battles	-11.3322
mp	-11.3342
▁needing	-11.3344
▁medi	-11.3355
▁wee	-11.3392
▁spi	-11.3424
ev	-11.3429
can	-11.3435
hoo	-11.3441
ously	-11.3446
lon	-11.3452
saver	-11.3466
ath	-11.3466
▁guessed	-11.3473
▁planets	-11.3476
▁flor	-11.3478
▁origin	-11.3484
dd	-11.3498
▁bor	-11.3505
▁sha	-11.3511
ved	-11.3514
▁tra	-11.3534
▁beep	-11.3543
ik	-11.3544
nel	-11.3546
mor	-11.3548
tell	-11.355
▁frighten	-11.355
▁mist	-11.3561
▁ripe	-11.3579
gen	-11.358
dad	-11.3584
field	-11.3586
▁enforce	-11.3587
▁imitat	-11.3589
▁noi	-11.3589
▁clo	-11.3595
▁mini	-11.3606
▁ic	-11.3609
▁custom	-11.3609
▁weep	-11.3611
▁click	-11.3612
▁bleed	-11.3613
▁crimes	-11.3614
▁whoop	-11.3615
iri	-11.3619
▁curtain	-11.3623
▁slug	-11.3623
▁bakewell	-11.3623
▁economic	-11.3623
▁conviction	-11.3624
▁thug	-11.3625
uk	-11.3626
▁demonstrate	-11.3627
▁tire	-11.3627
lli	-11.3629
▁amaze	-11.363
ability	-11.3634
▁whore	-11.3634
▁snicker	-11.3641
▁muscle	-11.3641
▁hollow	-11.3641
▁jaw	-11.3641
▁tourist	-11.3647
▁dungeon	-11.3649
▁stardestroyer	-11.3649
▁volunteer	-11.3649
▁finance	-11.3649
ming	-11.365
▁element	-11.365
▁plague	-11.365
▁cole	-11.3651
▁ambition	-11.3653
▁mines	-11.3654
▁airline	-11.3654
▁resume	-11.3654
▁relation	-11.3656
▁sample	-11.3656
▁candle	-11.3656
▁goomba	-11.3658
▁scout	-11.366
▁honk	-11.366
▁generation	-11.3661
▁circuit	-11.3662
▁rumor	-11.3662
▁jew	-11.3668
▁explorer	-11.3672
▁flea	-11.3672
▁pirate	-11.3674
▁skull	-11.368
▁shatter	-11.3683
term	-11.3684
take	-11.3685
ile	-11.3687
▁liver	-11.3692
bi	-11.3701
▁simp	-11.3705
▁cone	-11.3706
power	-11.3708
ning	-11.371
▁engineer	-11.371
▁await	-11.3714
alei	-11.3717
▁wal	-11.372
ores	-11.372
▁exception	-11.3722
ground	-11.373
ig	-11.3731
▁covers	-11.3731
▁scrape	-11.3735
▁annoy	-11.3741
▁worrying	-11.3743
▁indulge	-11.3751
▁accidental	-11.3751
ines	-11.3751
▁depart	-11.3765
▁frost	-11.3768
▁multiply	-11.3769
den	-11.3771
wall	-11.3771
▁clatter	-11.3771
▁blush	-11.3772
▁rack	-11.3777
▁vers	-11.3777
walk	-11.3781
known	-11.3781
▁conquer	-11.3782
▁flee	-11.3782
▁slaughter	-11.3782
▁alleg	-11.3783
▁jazz	-11.3783
▁clum	-11.3783
section	-11.3785
bride	-11.3785
life	-11.3785
grown	-11.3785
bound	-11.3785
found	-11.3786
force	-11.3786
space	-11.3786
two	-11.3787
safe	-11.3787
▁magn	-11.3788
self	-11.3788
wit	-11.379
▁interfere	-11.379
▁intent	-11.3791
letter	-11.3791
important	-11.3791
▁pursue	-11.3792
▁suite	-11.3794
▁organize	-11.3794
▁chunk	-11.3794
▁frau	-11.3796
▁pluck	-11.3796
▁frame	-11.3796
▁philosoph	-11.3797
▁harsh	-11.3797
how	-11.3797
▁creative	-11.3798
▁constant	-11.3798
▁sharpe	-11.3799
▁definite	-11.3799
▁barbar	-11.3807
▁gamble	-11.3807
▁torch	-11.3807
▁thiev	-11.3807
▁voil	-11.3808
▁insect	-11.3808
▁pengu	-11.3809
▁bodi	-11.3809
semble	-11.381
▁meg	-11.381
▁jeep	-11.381
▁reflect	-11.381
▁dictat	-11.381
▁extract	-11.3811
▁alcohol	-11.3811
▁runnin	-11.3811
▁hazard	-11.3811
▁sherif	-11.3812
▁indian	-11.3812
▁automatic	-11.3812
▁alternat	-11.3813
▁abstract	-11.3813
▁gurgl	-11.3813
▁serpent	-11.3813
karetasokawatare	-11.3813
responsibilities	-11.3813
▁accommodate	-11.3813
▁acquisition	-11.3813
▁advisor	-11.3813
▁aftershave	-11.3813
▁agamemnon	-11.3813
▁alebrije	-11.3813
▁anastasia	-11.3813
▁ankhvanharis	-11.3813
▁arkham	-11.3813
▁avalanna	-11.3813
▁barbados	-11.3813
▁belfry	-11.3813
▁binturi	-11.3813
▁bourbon	-11.3813
▁bureau	-11.3813
▁burpelson	-11.3813
▁chauffeur	-11.3813
▁chewbacca	-11.3813
▁childcare	-11.3813
▁claudia	-11.3813
▁competitor	-11.3813
▁concentration	-11.3813
▁convenient	-11.3813
▁corridor	-11.3813
▁creator	-11.3813
▁crossbow	-11.3813
▁curiosity	-11.3813
▁curve	-11.3813
▁danburry	-11.3813
▁detach	-11.3813
▁devaney	-11.3813
▁dignity	-11.3813
▁dishwasher	-11.3813
▁domain	-11.3813
▁downpour	-11.3813
▁farraj	-11.3813
▁ferret	-11.3813
▁fortress	-11.3813
▁fracture	-11.3813
▁fremont	-11.3813
▁gahoole	-11.3813
▁georgia	-11.3813
▁gesture	-11.3813
▁grenade	-11.3813
▁griswald	-11.3813
▁handkerchief	-11.3813
▁hannigan	-11.3813
▁harlem	-11.3813
▁hebrew	-11.3813
▁hideandseek	-11.3813
▁holyoke	-11.3813
▁humbly	-11.3813
▁humiliation	-11.3813
▁hurricane	-11.3813
▁immune	-11.3813
▁implosion	-11.3813
▁incorrect	-11.3813
▁innocence	-11.3813
▁insignificant	-11.3813
▁jinx	-11.3813
▁jonquils	-11.3813
▁kaiser	-11.3813
▁knuckles	-11.3813
▁kristen	-11.3813
▁lazarus	-11.3813
▁lettuce	-11.3813
▁lyrics	-11.3813
▁magali	-11.3813
▁maguire	-11.3813
▁memoirs	-11.3813
▁mongrel	-11.3813
▁monologue	-11.3813
▁moulage	-11.3813
▁nitwit	-11.3813
▁nowadays	-11.3813
▁pajamas	-11.3813
▁perigee	-11.3813
▁pfft	-11.3813
▁phoenix	-11.3813
▁pianoforte	-11.3813
▁piranhas	-11.3813
▁pretzel	-11.3813
▁puberty	-11.3813
▁purple	-11.3813
▁quellek	-11.3813
▁quirrell	-11.3813
▁receipt	-11.3813
▁recognise	-11.3813
▁refrigerator	-11.3813
▁roam	-11.3813
▁rumpel	-11.3813
▁sangimel	-11.3813
▁scullery	-11.3813
▁semester	-11.3813
▁semifinal	-11.3813
▁sennett	-11.3813
▁shotgun	-11.3813
▁sleigh	-11.3813
▁starfleet	-11.3813
▁striking	-11.3813
▁sultenfuss	-11.3813
▁swahili	-11.3813
▁switzerland	-11.3813
▁technique	-11.3813
▁thuggee	-11.3813
▁thunderclap	-11.3813
▁ungrateful	-11.3813
▁vanilla	-11.3813
▁vignaud	-11.3813
▁voyage	-11.3813
▁wookiee	-11.3813
▁worries	-11.3813
▁zippleback	-11.3813
▁bedevere	-11.3813
▁distress	-11.3813
▁giddy	-11.3813
▁interrogat	-11.3813
▁irritat	-11.3813
▁jutt	-11.3813
▁lreland	-11.3813
▁pennies	-11.3813
▁provinc	-11.3813
▁retain	-11.3813
▁swift	-11.3813
▁torment	-11.3813
▁vanquish	-11.3813
▁versailles	-11.3813
rilla	-11.3813
▁centuries	-11.3813
▁devin	-11.3813
▁intrigue	-11.3813
▁prank	-11.3813
▁reluctan	-11.3813
▁carmine	-11.3813
▁clutche	-11.3813
▁organization	-11.3813
▁warrant	-11.3813
▁broomstick	-11.3813
▁dolores	-11.3813
▁goddard	-11.3813
▁ignoring	-11.3813
▁itsits	-11.3813
▁judging	-11.3813
▁asylum	-11.3813
▁corrupt	-11.3813
▁memorial	-11.3813
▁sidney	-11.3813
▁spectacular	-11.3813
▁donwell	-11.3813
▁endanger	-11.3813
▁grimble	-11.3813
▁phd	-11.3813
▁pacino	-11.3813
▁climate	-11.3813
▁gracious	-11.3813
▁numbskull	-11.3813
▁sermon	-11.3813
▁mariachi	-11.3813
▁revving	-11.3813
▁vector	-11.3813
▁buena	-11.3813
▁doohickey	-11.3813
▁porridge	-11.3813
▁accreditation	-11.3813
▁baloney	-11.3813
▁cartoon	-11.3813
▁freedonia	-11.3813
▁intellectual	-11.3813
▁yves	-11.3813
▁congregation	-11.3813
▁sketch	-11.3813
▁swag	-11.3813
▁confident	-11.3813
▁flaming	-11.3813
▁sparrow	-11.3813
▁belgian	-11.3813
▁florida	-11.3813
▁ravenwood	-11.3813
▁whitman	-11.3813
▁thudding	-11.3813
▁divert	-11.3813
▁glamo	-11.3813
▁strut	-11.3813
▁daniella	-11.3813
▁curt	-11.3813
▁anarch	-11.3813
▁atta	-11.3813
▁monitor	-11.3813
▁norton	-11.3813
▁sakana	-11.3813
▁escaping	-11.3813
▁lonesome	-11.3813
▁primate	-11.3813
▁aloud	-11.3813
▁casualties	-11.3813
▁flick	-11.3813
▁typewriter	-11.3813
▁revenge	-11.3813
▁cancer	-11.3813
▁mag	-11.3813
▁underworld	-11.3813
▁tasties	-11.3813
▁campbell	-11.3813
▁pills	-11.3813
▁flourish	-11.3813
▁radius	-11.3813
▁disrespectful	-11.3813
▁interior	-11.3813
▁hippie	-11.3813
▁ramsey	-11.3813
▁edition	-11.3813
▁delhi	-11.3813
▁weasley	-11.3813
▁surgery	-11.3813
▁absent	-11.3813
▁anita	-11.3813
▁squid	-11.3813
▁paycheck	-11.3814
▁dryden	-11.3814
▁properties	-11.3814
▁denver	-11.3814
▁plastic	-11.3814
▁goom	-11.3814
▁babs	-11.3814
▁ginormica	-11.3814
▁proving	-11.3814
▁radical	-11.3814
▁oven	-11.3814
▁republican	-11.3814
▁tapped	-11.3814
▁tissue	-11.3814
▁contrary	-11.3814
▁breweries	-11.3814
▁vinci	-11.3814
▁hasty	-11.3814
▁jewelry	-11.3814
▁blares	-11.3814
▁initiative	-11.3814
▁aaaargh	-11.3814
▁granger	-11.3814
▁spaz	-11.3814
▁harbor	-11.3814
▁phy	-11.3814
▁moonlight	-11.3814
▁andand	-11.3814
▁breast	-11.3814
▁spade	-11.3814
▁barkley	-11.3814
▁buffet	-11.3814
▁cooperation	-11.3814
▁buzzer	-11.3814
▁drool	-11.3814
▁manero	-11.3814
▁surgeon	-11.3814
▁classification	-11.3814
▁chopped	-11.3814
▁transition	-11.3814
▁debbie	-11.3814
▁debut	-11.3814
▁macho	-11.3814
▁irresponsible	-11.3814
▁siva	-11.3814
▁lionheart	-11.3815
▁specifically	-11.3815
▁casa	-11.3815
▁mmmmm	-11.3815
▁significant	-11.3815
▁interpretation	-11.3815
▁courtyard	-11.3815
▁brawl	-11.3815
▁lamb	-11.3815
▁luci	-11.3815
▁appetite	-11.3815
▁overnight	-11.3815
▁abortion	-11.3815
▁venus	-11.3815
▁ridgeway	-11.3815
▁decoration	-11.3815
▁mira	-11.3815
▁hooray	-11.3815
▁waterwheel	-11.3815
▁representation	-11.3815
▁employment	-11.3815
▁embarrassment	-11.3815
▁guesthouse	-11.3815
▁crippled	-11.3815
▁complication	-11.3815
▁preach	-11.3815
sea	-11.3815
▁algerian	-11.3815
▁massage	-11.3815
▁panda	-11.3816
▁dictator	-11.3816
▁leonardo	-11.3816
▁riff	-11.3816
▁foresee	-11.3816
▁hague	-11.3816
▁squirt	-11.3816
▁keen	-11.3816
▁sabe	-11.3816
▁chaw	-11.3816
▁anti	-11.3816
▁tactic	-11.3816
▁geek	-11.3816
▁hockey	-11.3817
▁unwell	-11.3817
▁fifty	-11.3817
▁absorb	-11.3817
▁skies	-11.3817
▁necessarily	-11.3817
▁occupied	-11.3817
▁lava	-11.3817
▁thrilled	-11.3817
▁sensitive	-11.3817
▁snuff	-11.3817
▁frown	-11.3817
▁cloak	-11.3817
▁dinero	-11.3817
▁buts	-11.3817
▁cycle	-11.3817
▁presume	-11.3817
▁supes	-11.3817
▁instructor	-11.3817
▁babysitter	-11.3817
▁shopping	-11.3817
▁spaceship	-11.3817
▁attica	-11.3817
▁greenhouse	-11.3817
▁pittsie	-11.3817
▁horror	-11.3818
▁audit	-11.3818
▁lobo	-11.3818
▁modesto	-11.3818
▁traders	-11.3818
▁waterfall	-11.3818
▁yahoo	-11.3818
▁thieves	-11.3818
▁zapping	-11.3818
▁suffocating	-11.3818
▁vien	-11.3819
▁confine	-11.3819
▁celebrity	-11.3819
▁excellency	-11.3819
▁lefthanded	-11.3819
▁therapy	-11.3819
▁sharing	-11.3819
▁gutter	-11.3819
▁kim	-11.3819
▁morrison	-11.3819
▁plump	-11.3819
▁teamwork	-11.382
▁negotiate	-11.382
▁jake	-11.382
▁deriv	-11.382
▁curl	-11.382
▁realistic	-11.382
▁whiz	-11.3821
▁eyeball	-11.3821
▁superheroes	-11.3821
▁translat	-11.3821
▁stepped	-11.3821
▁production	-11.3821
▁carpet	-11.3821
▁participate	-11.3821
▁sew	-11.3822
▁reasonably	-11.3822
▁terry	-11.3822
▁chen	-11.3822
▁sour	-11.3822
▁dine	-11.3822
▁norman	-11.3822
▁weaken	-11.3822
▁blank	-11.3823
▁cities	-11.3823
▁biggie	-11.3823
▁hamps	-11.3823
▁nile	-11.3823
▁payday	-11.3823
▁harmless	-11.3823
▁colorful	-11.3823
▁sor	-11.3823
▁stre	-11.3823
▁rene	-11.3823
▁catastrophe	-11.3824
▁descent	-11.3824
▁notion	-11.3824
▁determine	-11.3824
▁bien	-11.3825
▁modest	-11.3825
▁analysis	-11.3825
▁betsy	-11.3825
▁flipped	-11.3825
▁vida	-11.3825
▁stern	-11.3826
▁wallet	-11.3826
atherin	-11.3826
▁knockout	-11.3827
bber	-11.3827
▁decreed	-11.3827
▁intensif	-11.3828
▁hauling	-11.3828
▁ladyship	-11.3828
▁render	-11.3828
▁racing	-11.3829
▁duce	-11.3829
▁memorize	-11.3829
▁continuing	-11.3829
▁investigating	-11.3829
▁triple	-11.383
▁passive	-11.383
▁isolated	-11.383
▁unmasked	-11.383
▁banished	-11.383
▁motherinlaw	-11.383
▁stashed	-11.383
▁sustained	-11.383
▁rhythmic	-11.3831
▁acceptable	-11.3831
▁stunt	-11.3831
arith	-11.3831
▁runner	-11.3832
▁framed	-11.3832
▁abr	-11.3832
▁stealth	-11.3833
▁bugger	-11.3833
▁nugs	-11.3833
▁hostages	-11.3833
▁flecks	-11.3833
▁hombres	-11.3833
▁anna	-11.3833
▁hesitate	-11.3833
▁presentation	-11.3834
▁ducts	-11.3834
▁tar	-11.3835
▁chap	-11.3835
▁vest	-11.3835
▁crashes	-11.3835
▁battery	-11.3836
▁examined	-11.3836
▁stirred	-11.3836
▁established	-11.3836
▁flooded	-11.3836
▁promoted	-11.3837
▁freakin	-11.3837
front	-11.3837
ocks	-11.3837
▁ridden	-11.3838
▁hup	-11.3838
▁reelected	-11.3838
▁stalling	-11.3838
▁breeding	-11.3838
▁sadness	-11.3838
▁cf	-11.3838
▁brightest	-11.3839
▁witnesses	-11.3839
than	-11.384
▁hatch	-11.384
▁kiddo	-11.3841
▁righthanded	-11.3841
▁madman	-11.3841
▁mast	-11.3841
▁growth	-11.3841
▁shutting	-11.3841
▁tinker	-11.3842
▁melon	-11.3842
▁rendered	-11.3843
▁tame	-11.3843
▁losses	-11.3844
▁slippery	-11.3845
▁cooing	-11.3845
▁punches	-11.3846
▁branching	-11.3847
▁advised	-11.3849
▁approved	-11.3849
▁drafted	-11.385
▁fainted	-11.385
▁crusher	-11.3851
▁hometown	-11.3853
▁traced	-11.3853
▁forty	-11.3853
▁rink	-11.3855
▁replaced	-11.3857
▁bind	-11.3858
▁burp	-11.3859
▁frightening	-11.3859
▁clicking	-11.3859
mantle	-11.3861
▁equally	-11.3862
▁argued	-11.3862
estini	-11.3863
▁nicky	-11.3864
▁mystical	-11.3865
▁shovel	-11.3865
▁molecul	-11.3867
▁implies	-11.3867
▁mankind	-11.3868
▁flaws	-11.3868
▁beliefs	-11.3868
▁catapults	-11.3868
▁fatherland	-11.3868
▁rivera	-11.3868
▁texting	-11.3869
▁restless	-11.3869
▁handful	-11.387
▁trainin	-11.3872
▁fasten	-11.3873
▁mutters	-11.3875
▁shermanus	-11.3875
essa	-11.3878
▁ticking	-11.3879
▁leftist	-11.388
▁solved	-11.3881
▁virtual	-11.3883
qualified	-11.3886
▁brad	-11.3887
▁pork	-11.3888
▁recommended	-11.389
▁miner	-11.389
▁lud	-11.3892
▁swelling	-11.3898
▁lungs	-11.3901
▁bash	-11.3901
▁abuse	-11.3901
▁jewels	-11.3903
▁gaps	-11.3904
▁heels	-11.3904
▁chaser	-11.3904
▁teaches	-11.3906
▁risky	-11.3907
▁counts	-11.3907
▁concentrated	-11.3909
▁coolest	-11.391
▁cursed	-11.391
▁smashed	-11.3912
▁spared	-11.3913
▁hah	-11.3915
allie	-11.3915
▁albu	-11.3916
onald	-11.3916
thats	-11.3918
▁charmed	-11.3918
▁dye	-11.3919
▁ese	-11.392
▁thankyou	-11.3921
▁crushed	-11.3924
▁mal	-11.3925
▁talented	-11.3926
▁das	-11.3927
▁limo	-11.3927
▁richer	-11.393
▁additional	-11.3931
▁suspected	-11.3932
▁contents	-11.3933
▁mainly	-11.3938
▁fled	-11.3939
▁gloves	-11.3939
▁footprints	-11.3939
▁bolts	-11.3939
▁dresser	-11.3939
▁todos	-11.394
▁outmodes	-11.394
▁timing	-11.3942
vu	-11.3946
▁ruler	-11.3946
▁proceeding	-11.3948
▁closeup	-11.3949
▁rams	-11.395
▁weirder	-11.395
▁attempted	-11.3951
▁setup	-11.3951
▁shocked	-11.3952
▁cri	-11.3958
▁sporting	-11.396
▁wart	-11.3962
▁lam	-11.3965
▁strapp	-11.3967
▁assisting	-11.3968
wode	-11.3971
▁awaits	-11.3972
fa	-11.3973
▁added	-11.3975
▁capabilit	-11.3975
▁ambitions	-11.3975
▁clicks	-11.3976
▁resumes	-11.3976
▁weeps	-11.3976
▁honesty	-11.3977
▁fleas	-11.3979
▁golly	-11.3979
▁functioning	-11.3981
▁lure	-11.3983
aga	-11.3984
▁trou	-11.3985
▁cracked	-11.3986
▁joyful	-11.3987
▁rash	-11.3989
▁discovering	-11.3989
▁deserted	-11.3992
▁beard	-11.3994
▁coma	-11.3994
▁reads	-11.3994
▁warp	-11.4003
▁takeoff	-11.4006
▁healing	-11.4009
▁defending	-11.4009
▁changer	-11.4011
▁autographs	-11.4012
▁pencils	-11.4012
▁nevilles	-11.4012
▁chicks	-11.4012
▁verses	-11.4015
uck	-11.4017
▁trailer	-11.4018
▁frogs	-11.4019
▁wang	-11.4019
▁zing	-11.4025
▁cheater	-11.4025
iness	-11.4032
▁goddamned	-11.4033
▁slower	-11.4035
step	-11.4035
nny	-11.4035
type	-11.4036
▁spics	-11.4038
▁mau	-11.4039
ol	-11.4043
▁ohio	-11.4043
▁posted	-11.4046
pot	-11.4046
▁marbles	-11.4048
▁diet	-11.4051
▁payments	-11.4052
▁risking	-11.4063
▁ste	-11.4073
▁smiled	-11.4077
through	-11.4079
▁finer	-11.4083
▁threats	-11.4085
▁objections	-11.4086
▁wires	-11.4087
▁charged	-11.4092
sick	-11.4093
▁dots	-11.4099
▁melt	-11.4101
han	-11.4114
ennis	-11.4115
▁amazingly	-11.4117
▁parked	-11.4121
▁amu	-11.4124
▁oldest	-11.4129
▁dragg	-11.413
▁rational	-11.4145
▁timeout	-11.4147
bonite	-11.4155
▁restaurants	-11.4158
ap	-11.4162
▁she	-11.4164
▁banker	-11.4165
▁wakey	-11.4166
▁searched	-11.4187
▁warmed	-11.4188
▁roommates	-11.4195
▁tunnels	-11.4195
▁paintings	-11.4196
tonic	-11.4197
▁talons	-11.42
▁gifted	-11.421
▁vin	-11.421
iv	-11.4213
▁rushing	-11.4215
mad	-11.4219
▁doubted	-11.4228
▁trolls	-11.4232
▁nuns	-11.4232
yan	-11.4238
▁movements	-11.4239
▁deals	-11.4239
▁naive	-11.4256
▁tested	-11.4261
▁stinker	-11.4262
oyalty	-11.4262
▁fangs	-11.4269
▁seals	-11.427
▁shifts	-11.427
▁pickle	-11.4272
▁mas	-11.4274
▁coordinate	-11.428
agging	-11.4282
▁mart	-11.4283
▁occasions	-11.4304
▁desires	-11.4308
▁schools	-11.431
▁endless	-11.431
uddle	-11.4311
▁workers	-11.4318
▁dearly	-11.4319
▁ally	-11.432
▁inn	-11.433
▁squeals	-11.4343
▁outfits	-11.4344
▁featur	-11.435
▁anybodys	-11.4354
▁fare	-11.4369
▁sleepy	-11.4374
▁comments	-11.4374
▁generators	-11.4381
▁sniff	-11.4381
ere	-11.4382
▁examine	-11.4406
▁misses	-11.4407
▁dada	-11.4409
nk	-11.4411
▁circles	-11.4418
▁advantages	-11.4419
▁anyways	-11.4419
▁talents	-11.442
▁visiting	-11.4421
rf	-11.4423
▁weas	-11.4426
▁plung	-11.4427
▁singers	-11.4429
▁atom	-11.443
yes	-11.4435
▁paws	-11.4454
▁professionals	-11.4456
▁christians	-11.4456
▁sil	-11.4462
pie	-11.4466
▁rates	-11.4472
▁ce	-11.4488
▁stocks	-11.4495
▁skate	-11.4496
ck	-11.4512
▁or	-11.4514
▁freed	-11.4519
▁crop	-11.4558
tact	-11.4558
most	-11.4566
▁plants	-11.4566
aux	-11.4569
▁winners	-11.4571
▁reelect	-11.4576
mbe	-11.4595
▁her	-11.4597
▁bre	-11.4601
▁grease	-11.4612
ni	-11.464
▁nimb	-11.465
▁provides	-11.4651
hl	-11.4669
nn	-11.4673
▁sacrifices	-11.468
▁nurses	-11.4685
▁adds	-11.4694
evel	-11.4706
▁butcher	-11.4713
ode	-11.4713
ash	-11.4717
▁hog	-11.4736
▁lively	-11.4742
▁marks	-11.4757
▁chips	-11.4762
size	-11.4788
py	-11.4792
▁conversations	-11.48
▁apartments	-11.4801
▁sayin	-11.4822
old	-11.4823
▁ser	-11.4825
cover	-11.4828
▁languages	-11.4839
nium	-11.4842
▁observ	-11.4861
▁shields	-11.4871
▁kel	-11.4872
osis	-11.4887
▁sorts	-11.4899
rummy	-11.4933
▁pon	-11.4952
▁keeper	-11.4978
▁preserv	-11.4979
▁gro	-11.499
▁weekends	-11.4997
list	-11.5003
sel	-11.5023
▁rider	-11.503
▁worker	-11.5031
ake	-11.5053
▁is	-11.5065
▁pace	-11.5071
spun	-11.5073
▁shuffle	-11.5106
lapping	-11.5107
rose	-11.511
▁helpless	-11.5113
▁saturdays	-11.5154
snt	-11.5161
▁sakes	-11.5162
▁bums	-11.5168
▁casual	-11.517
▁domin	-11.5191
▁shops	-11.5205
▁rod	-11.5207
ou	-11.5211
ying	-11.5211
ica	-11.5214
ayah	-11.5217
rrito	-11.5222
▁pos	-11.5228
cho	-11.5229
ore	-11.5231
▁maids	-11.5234
▁ash	-11.5255
▁ax	-11.5257
▁inf	-11.5267
▁unh	-11.5267
ition	-11.5272
▁clocks	-11.5273
▁rud	-11.5314
oggy	-11.5324
▁sw	-11.5358
ule	-11.538
▁situations	-11.5395
▁critic	-11.5396
▁kle	-11.5396
▁observe	-11.5399
▁farms	-11.5403
▁strip	-11.5405
ota	-11.5408
burg	-11.5417
fo	-11.542
▁prop	-11.5423
ino	-11.5432
awa	-11.5441
▁offices	-11.5453
▁sob	-11.5468
▁burns	-11.5488
inence	-11.5503
▁chooses	-11.5518
ei	-11.552
ame	-11.5521
▁branche	-11.5541
▁ze	-11.5553
▁bottoms	-11.5558
▁lu	-11.5567
▁clearing	-11.5569
ork	-11.5579
▁fue	-11.5591
▁castles	-11.5601
au	-11.5604
tant	-11.5644
rum	-11.5654
misunderstanding	-11.5654
▁beau	-11.5665
▁costa	-11.5667
▁holds	-11.5668
▁wonders	-11.568
▁daves	-11.5682
▁gal	-11.569
erie	-11.5699
olic	-11.5705
▁loses	-11.5719
iff	-11.5724
▁accelerat	-11.5743
▁nin	-11.5744
▁ram	-11.5744
▁ups	-11.5747
▁ur	-11.5772
see	-11.5783
ven	-11.5792
oni	-11.5796
▁aaa	-11.5803
▁shakes	-11.5806
▁kat	-11.5807
▁iii	-11.5817
▁blo	-11.5847
rnie	-11.587
▁alt	-11.5871
▁swings	-11.5887
coming	-11.5898
rak	-11.5903
▁talks	-11.5903
▁hangs	-11.5925
▁operate	-11.5926
ima	-11.5927
making	-11.5942
▁lap	-11.5943
bra	-11.5954
ament	-11.5967
▁gall	-11.5979
▁wand	-11.599
▁bb	-11.5994
cky	-11.5997
palm	-11.6018
mm	-11.602
ose	-11.6023
▁prep	-11.6028
▁qua	-11.6036
sterian	-11.6038
atory	-11.6039
ola	-11.6065
▁unlock	-11.6078
▁leak	-11.6079
rity	-11.6091
▁slam	-11.6096
bird	-11.6096
▁compete	-11.6104
▁agricola	-11.6106
▁phon	-11.6115
▁biscuit	-11.6123
▁rainbow	-11.6123
▁pigeon	-11.6123
▁continent	-11.6123
▁egyptian	-11.6126
phone	-11.6127
▁cy	-11.6127
▁current	-11.6128
▁chic	-11.6131
ach	-11.6131
▁outmode	-11.6132
zed	-11.6136
that	-11.6138
▁poet	-11.614
press	-11.614
▁drip	-11.6141
▁expense	-11.6141
▁hairdresser	-11.6141
▁pharaoh	-11.6141
▁diaper	-11.6141
▁token	-11.6142
▁skeleton	-11.6142
▁rifle	-11.6143
▁cater	-11.6146
▁tribe	-11.6147
▁vow	-11.6147
▁provision	-11.6149
▁souvenir	-11.6149
▁randall	-11.6149
▁result	-11.6149
▁preparation	-11.6149
▁brew	-11.615
▁moth	-11.6152
▁bolt	-11.6153
▁fore	-11.6153
ookie	-11.6153
▁footprint	-11.6154
▁todo	-11.6155
▁produc	-11.6156
▁rhyme	-11.6156
▁uglydoll	-11.6156
▁dec	-11.6156
▁tool	-11.6163
▁growl	-11.6163
▁sock	-11.6164
▁addition	-11.6164
▁circumstance	-11.6165
▁glove	-11.6166
▁peters	-11.6167
join	-11.6169
▁blade	-11.6177
▁tid	-11.6191
tor	-11.6197
▁term	-11.62
▁whwh	-11.6211
▁ladys	-11.6211
▁sc	-11.6213
now	-11.6218
▁territor	-11.6222
▁remov	-11.6228
▁rio	-11.6233
▁excuses	-11.6233
vy	-11.6236
att	-11.6236
pending	-11.6237
faced	-11.6238
▁vir	-11.6242
▁mul	-11.6245
▁threaten	-11.6246
cent	-11.6246
app	-11.6247
▁poster	-11.625
▁erase	-11.6254
▁gran	-11.6254
▁influen	-11.6255
▁promot	-11.6257
▁adjust	-11.6261
▁bustin	-11.6262
▁deflect	-11.6262
yard	-11.6264
▁astonish	-11.6265
▁shudder	-11.6267
▁screech	-11.6267
worth	-11.6268
▁squawk	-11.6269
▁recycl	-11.6269
▁fascinat	-11.6271
fall	-11.6271
keeper	-11.6271
▁suppos	-11.6271
▁disgust	-11.6271
▁dread	-11.6272
▁wrestle	-11.6272
▁rattle	-11.6273
minded	-11.6274
▁familia	-11.6274
augh	-11.6277
identified	-11.6277
▁prevail	-11.6277
berry	-11.6279
borne	-11.628
▁rustl	-11.628
▁shanghai	-11.628
turn	-11.628
▁cases	-11.6281
connect	-11.6281
fax	-11.6281
▁turb	-11.6281
rrit	-11.6282
guard	-11.6282
ridden	-11.6282
▁peach	-11.6282
war	-11.6283
root	-11.6283
▁vocal	-11.6283
julio	-11.6283
historic	-11.6283
precedent	-11.6284
water	-11.6285
yearold	-11.6285
natural	-11.6285
held	-11.6286
wide	-11.6286
guy	-11.6286
people	-11.6286
course	-11.6286
▁flood	-11.6286
wanted	-11.6286
▁establish	-11.6286
heard	-11.6287
pants	-11.6287
▁dish	-11.6287
▁forge	-11.6289
order	-11.6289
well	-11.629
maid	-11.629
▁scram	-11.6291
flyer	-11.6292
ug	-11.6292
▁conclude	-11.6292
▁deevolve	-11.6292
span	-11.6293
▁tighten	-11.6294
dog	-11.6294
ifying	-11.6294
▁inspire	-11.6294
flies	-11.6294
▁univers	-11.6295
▁cautious	-11.6295
▁valiant	-11.6295
▁thorough	-11.6295
▁guilt	-11.6296
▁confuse	-11.6297
▁galax	-11.6298
▁destin	-11.6298
▁rog	-11.6298
▁blam	-11.6299
▁utter	-11.63
udge	-11.63
▁infinite	-11.63
stay	-11.6301
▁reveren	-11.6302
▁slack	-11.6302
brain	-11.6302
▁rosi	-11.6303
▁resign	-11.6303
▁trig	-11.6303
▁contend	-11.6303
etta	-11.6304
opening	-11.6305
atu	-11.6305
▁narc	-11.6305
▁adi	-11.6306
▁intrude	-11.6307
▁cockroach	-11.6307
▁mosquito	-11.6307
▁flirt	-11.6308
▁clump	-11.6308
▁attic	-11.6308
▁germ	-11.6309
▁harris	-11.631
▁oblige	-11.631
▁annihilat	-11.631
▁abort	-11.631
haven	-11.631
▁tow	-11.6311
▁fergus	-11.6311
▁patriot	-11.6311
▁freezin	-11.6311
▁drivin	-11.6311
stand	-11.6311
▁puttin	-11.6312
▁dancin	-11.6312
▁fabric	-11.6312
▁inquire	-11.6312
gnant	-11.6312
nuts	-11.6312
▁budge	-11.6313
▁prodig	-11.6313
▁intellect	-11.6313
▁pluto	-11.6313
dynamic	-11.6313
▁shari	-11.6313
▁irregular	-11.6313
dolph	-11.6313
▁exterminat	-11.6313
▁recollect	-11.6313
haired	-11.6313
issimo	-11.6313
▁abdullah	-11.6313
▁abnormal	-11.6313
▁adapt	-11.6313
▁agricolis	-11.6313
▁aisle	-11.6313
▁allcomers	-11.6313
▁altimeter	-11.6313
▁amnesty	-11.6313
▁anatomy	-11.6313
▁anticipat	-11.6313
▁anxiety	-11.6313
▁atmosphere	-11.6313
▁attorney	-11.6313
▁avocado	-11.6313
▁babbling	-11.6313
▁bachelor	-11.6313
▁bagpipes	-11.6313
▁beethoven	-11.6313
▁behaving	-11.6313
▁belches	-11.6313
▁bouquet	-11.6313
▁branzino	-11.6313
▁bucephalos	-11.6313
▁butbut	-11.6313
▁cadillac	-11.6313
▁canyon	-11.6313
▁caravan	-11.6313
▁circulation	-11.6313
▁collateral	-11.6313
▁compensation	-11.6313
▁compromise	-11.6313
▁concord	-11.6313
▁corporal	-11.6313
▁custody	-11.6313
▁deevolution	-11.6313
▁deliberately	-11.6313
▁disadvantage	-11.6313
▁disciple	-11.6313
▁downhill	-11.6313
▁dowry	-11.6313
▁eggbeater	-11.6313
▁enhance	-11.6313
▁episcopalians	-11.6313
▁eubanks	-11.6313
▁everlasting	-11.6313
▁exemplary	-11.6313
▁exquisite	-11.6313
▁extinguish	-11.6313
▁fascist	-11.6313
▁felicia	-11.6313
▁filter	-11.6313
▁fldsmdfr	-11.6313
▁folklore	-11.6313
▁frustration	-11.6313
▁gigantic	-11.6313
▁graffiti	-11.6313
▁graph	-11.6313
▁gulf	-11.6313
▁hallelujah	-11.6313
▁handmedown	-11.6313
▁heartbroken	-11.6313
▁heidi	-11.6313
▁hermia	-11.6313
▁hooligan	-11.6313
▁humility	-11.6313
▁hydrant	-11.6313
▁ignition	-11.6313
▁increasing	-11.6313
▁industrial	-11.6313
▁injustice	-11.6313
▁inspiring	-11.6313
▁intimidat	-11.6313
▁introducing	-11.6313
▁intrusion	-11.6313
▁invincible	-11.6313
▁irrelevant	-11.6313
▁irrevocable	-11.6313
▁itinerary	-11.6313
▁jettison	-11.6313
▁jinkies	-11.6313
▁kaboom	-11.6313
▁knighfs	-11.6313
▁kraut	-11.6313
▁kuchikamizake	-11.6313
▁kwame	-11.6313
▁livelihood	-11.6313
▁loverlover	-11.6313
▁machiavelli	-11.6313
▁marvellous	-11.6313
▁matrimony	-11.6313
▁mayugoro	-11.6313
▁mcgonagall	-11.6313
▁merchandise	-11.6313
▁mexican	-11.6313
▁miranda	-11.6313
▁mitsubishi	-11.6313
▁monroe	-11.6313
▁mozzarella	-11.6313
▁necklace	-11.6313
▁nectar	-11.6313
▁neighbourhood	-11.6313
▁nerra	-11.6313
▁obnoxious	-11.6313
▁occupy	-11.6313
▁ofjail	-11.6313
▁olivier	-11.6313
▁paddle	-11.6313
▁parrot	-11.6313
▁peekajoo	-11.6313
▁perpetual	-11.6313
▁piccoletto	-11.6313
▁pimple	-11.6313
▁pineapple	-11.6313
▁pontiero	-11.6313
▁portrait	-11.6313
▁poverty	-11.6313
▁preceded	-11.6313
▁premises	-11.6313
▁puppies	-11.6313
▁qualities	-11.6313
▁quincy	-11.6313
▁ragazzi	-11.6313
▁redhot	-11.6313
▁rehearsing	-11.6313
▁rescuing	-11.6313
▁richmond	-11.6313
▁ridicule	-11.6313
▁rouannet	-11.6313
▁sausage	-11.6313
▁savior	-11.6313
▁schuyler	-11.6313
▁separating	-11.6313
▁sherri	-11.6313
▁shrubberies	-11.6313
▁smirk	-11.6313
▁snotlout	-11.6313
▁solitude	-11.6313
▁sponsor	-11.6313
▁submit	-11.6313
▁superpets	-11.6313
▁surveillance	-11.6313
▁survivor	-11.6313
▁sussex	-11.6313
▁sybil	-11.6313
▁taggert	-11.6313
▁theories	-11.6313
▁thoreau	-11.6313
▁tragedy	-11.6313
▁trajectory	-11.6313
▁treasury	-11.6313
▁trombone	-11.6313
▁tvprogram	-11.6313
▁underestimate	-11.6313
▁unpleasant	-11.6313
▁upriver	-11.6313
▁vacuum	-11.6313
▁vittori	-11.6313
▁vomit	-11.6313
▁werewolves	-11.6313
▁wijnsto	-11.6313
▁willoughby	-11.6313
▁yanquis	-11.6313
▁zombie	-11.6313
▁assessment	-11.6313
▁chord	-11.6313
▁correspond	-11.6313
▁creation	-11.6313
▁dairy	-11.6313
▁dedication	-11.6313
▁douche	-11.6313
▁evidently	-11.6313
▁galleon	-11.6313
▁iki	-11.6313
▁jorel	-11.6313
▁lzma	-11.6313
▁moondance	-11.6313
▁nfl	-11.6313
▁oscar	-11.6313
▁salvation	-11.6313
▁stench	-11.6313
▁strive	-11.6313
▁unseen	-11.6313
▁yidont	-11.6313
▁zoinks	-11.6313
itzer	-11.6313
▁actress	-11.6313
▁anchor	-11.6313
▁cattle	-11.6313
▁embalm	-11.6313
▁genova	-11.6313
▁goverment	-11.6313
▁impose	-11.6313
▁invade	-11.6313
▁mulatto	-11.6313
▁multiverse	-11.6313
▁pedro	-11.6313
▁pranee	-11.6313
▁trek	-11.6313
▁vase	-11.6313
▁welfare	-11.6313
erdict	-11.6313
▁bayonet	-11.6313
▁convert	-11.6313
▁audacity	-11.6313
▁deciding	-11.6313
▁eagle	-11.6313
▁fishlegs	-11.6313
▁telescope	-11.6313
▁transparent	-11.6313
▁blanche	-11.6313
▁desperation	-11.6313
▁eighteen	-11.6313
▁lizzie	-11.6313
▁luncheon	-11.6313
▁luxur	-11.6313
▁mimic	-11.6313
▁practis	-11.6313
▁salute	-11.6313
▁townsend	-11.6313
▁harness	-11.6313
▁lipstick	-11.6313
▁matrix	-11.6313
▁mild	-11.6313
▁plaster	-11.6313
▁prosecut	-11.6313
▁stephans	-11.6313
swept	-11.6313
▁devere	-11.6313
▁gravy	-11.6313
▁toothpick	-11.6313
▁accurate	-11.6313
▁characteristics	-11.6313
▁fanfare	-11.6313
▁pendragon	-11.6313
▁rerout	-11.6313
▁billionaire	-11.6313
▁ingenious	-11.6313
▁snoop	-11.6313
▁cocktail	-11.6313
▁essay	-11.6313
▁frazier	-11.6313
▁lounge	-11.6313
▁preoccupied	-11.6313
▁transmit	-11.6313
▁vicar	-11.6313
hrer	-11.6313
▁bestowed	-11.6313
▁plutonium	-11.6313
▁shaft	-11.6313
▁zebra	-11.6313
▁defy	-11.6313
▁duplicate	-11.6313
▁sludge	-11.6313
dammit	-11.6313
▁beacon	-11.6313
▁fading	-11.6313
▁literature	-11.6313
▁hurray	-11.6313
▁kitties	-11.6313
▁opposition	-11.6313
▁scrunchie	-11.6313
▁yarn	-11.6313
▁retraction	-11.6313
▁swoon	-11.6313
▁blunder	-11.6313
▁chickenpox	-11.6313
▁exwife	-11.6313
▁tarath	-11.6313
▁courtesy	-11.6313
▁glaux	-11.6313
▁reset	-11.6313
buque	-11.6313
▁bentley	-11.6313
▁frigid	-11.6313
▁molina	-11.6313
▁twit	-11.6313
▁chacha	-11.6313
▁railway	-11.6313
▁addict	-11.6313
▁harrow	-11.6313
▁identical	-11.6313
▁rumour	-11.6313
▁batsignal	-11.6313
▁yikes	-11.6313
▁youngstown	-11.6313
▁sidelines	-11.6313
▁solitary	-11.6313
▁prowl	-11.6313
▁flunk	-11.6313
▁parole	-11.6313
▁voltaire	-11.6313
▁reliable	-11.6313
▁discount	-11.6313
▁insectosaurus	-11.6313
▁fluent	-11.6313
▁errand	-11.6313
▁gobbling	-11.6313
▁chou	-11.6313
▁beware	-11.6313
▁ababa	-11.6313
▁appreciation	-11.6313
▁pedal	-11.6313
▁bbomb	-11.6313
▁helga	-11.6313
▁trashcan	-11.6313
▁petersons	-11.6313
▁boogie	-11.6313
▁booboo	-11.6313
▁felon	-11.6313
▁grasp	-11.6313
▁confidential	-11.6313
▁ufo	-11.6313
▁gallery	-11.6313
▁mija	-11.6313
▁deliri	-11.6313
▁eliminat	-11.6313
▁heap	-11.6313
▁otisburg	-11.6313
▁bidding	-11.6313
▁frolic	-11.6313
▁cherries	-11.6313
▁bulldozer	-11.6314
▁spinning	-11.6314
▁prodigious	-11.6314
▁torn	-11.6314
▁tracy	-11.6314
▁forehead	-11.6314
▁velocity	-11.6314
▁singlehanded	-11.6314
▁diagram	-11.6314
▁shred	-11.6314
▁bragging	-11.6314
▁graveyard	-11.6314
▁swoop	-11.6314
▁scurr	-11.6314
▁resolve	-11.6314
▁soap	-11.6314
▁probation	-11.6314
▁thunderstorm	-11.6314
▁adios	-11.6314
▁arrogant	-11.6314
▁whwhat	-11.6314
▁jammed	-11.6314
▁buzzes	-11.6314
▁consistent	-11.6314
▁disposal	-11.6314
▁grape	-11.6314
oohoohooh	-11.6314
▁malvolia	-11.6314
▁matchmaking	-11.6314
vard	-11.6314
▁abys	-11.6314
▁handwriting	-11.6314
▁toot	-11.6314
▁enroll	-11.6314
▁snores	-11.6314
▁pantry	-11.6314
▁andre	-11.6314
▁gypsies	-11.6314
▁description	-11.6314
▁empti	-11.6314
▁demonstration	-11.6314
▁fluoridation	-11.6314
▁retaliation	-11.6314
▁oui	-11.6314
▁aqui	-11.6314
▁casper	-11.6314
▁bribe	-11.6314
▁guilders	-11.6314
▁repu	-11.6314
▁attachment	-11.6314
▁fiind	-11.6314
▁burial	-11.6314
▁whack	-11.6314
▁silverstone	-11.6314
▁dandy	-11.6314
▁boris	-11.6314
▁trolley	-11.6314
▁clone	-11.6314
▁oxford	-11.6314
▁feat	-11.6314
▁khan	-11.6314
▁spoon	-11.6314
▁folly	-11.6314
▁marqu	-11.6314
▁poodle	-11.6315
▁serial	-11.6315
▁rebellion	-11.6315
▁twig	-11.6315
unque	-11.6315
▁enchanter	-11.6315
▁sherry	-11.6315
▁bonds	-11.6315
▁cretin	-11.6315
▁giantville	-11.6315
▁rapping	-11.6315
▁raven	-11.6315
▁rainwater	-11.6315
▁hilarious	-11.6315
▁battlefield	-11.6315
▁elite	-11.6315
▁slipping	-11.6315
▁molly	-11.6315
▁linkav	-11.6315
▁slammer	-11.6315
▁novelist	-11.6315
▁poachers	-11.6315
▁theatre	-11.6315
▁drastic	-11.6315
▁labour	-11.6315
▁onions	-11.6315
▁iggy	-11.6315
lip	-11.6315
▁amusement	-11.6315
▁tourism	-11.6315
▁inheritance	-11.6315
▁tubby	-11.6315
▁mamma	-11.6315
▁feisal	-11.6315
▁baggy	-11.6315
▁crucial	-11.6315
▁liberal	-11.6315
▁russkies	-11.6315
▁hunk	-11.6315
▁insurers	-11.6315
▁napis	-11.6315
▁morphia	-11.6315
▁sensational	-11.6315
▁gps	-11.6316
▁cupboard	-11.6316
▁preferred	-11.6316
▁groot	-11.6316
▁gloomy	-11.6316
▁injury	-11.6316
▁harmonica	-11.6316
▁leftovers	-11.6316
▁quant	-11.6316
▁eastern	-11.6316
▁status	-11.6316
▁tasty	-11.6316
▁strawberry	-11.6316
izer	-11.6316
▁cleo	-11.6316
istic	-11.6316
▁recover	-11.6316
▁storeroom	-11.6316
▁ifl	-11.6316
▁appointed	-11.6316
▁assembled	-11.6316
▁marcello	-11.6316
▁sixteen	-11.6316
▁attendance	-11.6316
▁reef	-11.6316
▁bonne	-11.6316
▁farroni	-11.6316
▁version	-11.6316
▁translator	-11.6316
▁bathhouse	-11.6316
▁bummer	-11.6316
▁butterfly	-11.6316
▁grr	-11.6317
▁obligation	-11.6317
▁midget	-11.6317
▁staines	-11.6317
▁berna	-11.6317
▁jamie	-11.6317
▁minimal	-11.6317
▁delusional	-11.6317
▁occasionally	-11.6317
▁auda	-11.6317
▁manipulation	-11.6317
▁arden	-11.6317
▁debat	-11.6317
▁revolutionary	-11.6317
▁hitler	-11.6317
▁dough	-11.6318
▁pervert	-11.6318
▁download	-11.6318
key	-11.6318
▁cushion	-11.6318
▁shroud	-11.6318
▁wrestling	-11.6318
▁concealed	-11.6318
▁enchanted	-11.6318
▁fashionable	-11.6318
▁percy	-11.6318
▁armour	-11.6318
▁gusto	-11.6318
▁morality	-11.6318
▁counselor	-11.6318
▁cheerful	-11.6318
▁dormant	-11.6318
▁web	-11.6318
▁copper	-11.6319
▁overboard	-11.6319
▁directive	-11.6319
▁cork	-11.6319
apul	-11.6319
▁cabinet	-11.6319
▁civilized	-11.6319
▁stirr	-11.6319
▁discrimination	-11.6319
▁stalk	-11.6319
▁pong	-11.6319
▁longbottom	-11.6319
▁insecto	-11.6319
▁courageous	-11.6319
▁equality	-11.632
▁discreetly	-11.632
▁nadder	-11.632
▁santo	-11.632
▁torches	-11.632
▁kit	-11.632
▁advertising	-11.632
▁thrilling	-11.632
▁menace	-11.632
▁crumble	-11.632
▁eww	-11.632
▁annihilation	-11.632
▁diner	-11.6321
▁publisher	-11.6321
▁pew	-11.6321
▁sweetface	-11.6321
▁minefield	-11.6321
▁jocko	-11.6321
pathy	-11.6321
▁rite	-11.6322
▁tomatoes	-11.6322
▁stomp	-11.6322
▁sassy	-11.6322
▁confirmation	-11.6322
▁celeste	-11.6322
▁pudding	-11.6322
▁app	-11.6322
▁grandson	-11.6323
▁steep	-11.6323
▁faraway	-11.6323
▁sundown	-11.6323
▁contender	-11.6324
▁flop	-11.6324
▁hugh	-11.6324
▁conveyor	-11.6324
▁undies	-11.6324
▁burger	-11.6324
▁baboon	-11.6324
▁splitting	-11.6325
▁shook	-11.6325
▁caball	-11.6325
▁rancho	-11.6325
▁speechless	-11.6326
▁caption	-11.6326
▁nish	-11.6326
▁dire	-11.6326
▁define	-11.6326
▁cramped	-11.6326
▁overwhelmed	-11.6326
▁reunited	-11.6326
▁scattered	-11.6326
▁cherished	-11.6327
▁refus	-11.6327
▁prejudiced	-11.6327
▁fiction	-11.6327
▁hound	-11.6327
▁compared	-11.6327
▁plead	-11.6327
▁touchdown	-11.6328
▁coverage	-11.6328
▁megaton	-11.6328
▁instrumental	-11.6328
▁foam	-11.6328
▁whim	-11.6328
▁orly	-11.6329
▁undo	-11.6329
▁lease	-11.6329
▁flown	-11.633
▁certificate	-11.633
▁reptile	-11.633
ndish	-11.633
▁copies	-11.633
▁markings	-11.633
▁quitting	-11.6331
▁tweety	-11.6331
▁arse	-11.6331
▁flier	-11.6331
▁handicapp	-11.6332
▁discouraged	-11.6332
▁settlement	-11.6332
▁creatively	-11.6333
▁moss	-11.6333
▁beaches	-11.6333
▁exhausting	-11.6333
▁unveiling	-11.6333
▁vel	-11.6333
▁lumin	-11.6333
▁labar	-11.6333
▁monstrous	-11.6334
▁booth	-11.6334
▁blended	-11.6334
▁selected	-11.6334
▁impound	-11.6335
▁flushed	-11.6335
▁suspended	-11.6335
▁sayaka	-11.6335
▁tempted	-11.6335
▁fitting	-11.6335
▁satin	-11.6336
▁plucky	-11.6336
▁photographer	-11.6336
▁agreeable	-11.6336
▁remotely	-11.6337
▁sincerely	-11.6337
▁goddess	-11.6337
▁loot	-11.6337
pt	-11.6337
▁executioner	-11.6338
▁crock	-11.6338
▁majority	-11.6339
▁clay	-11.6339
▁wrappings	-11.6339
▁pitchforks	-11.6339
▁cane	-11.6339
▁romans	-11.6339
▁thermians	-11.634
ree	-11.634
▁flare	-11.634
▁spooky	-11.6341
▁armus	-11.6341
▁tidy	-11.6341
▁brow	-11.6341
▁breach	-11.6342
ication	-11.6343
theres	-11.6344
▁organized	-11.6344
▁lethal	-11.6344
▁stance	-11.6344
greatgrandfather	-11.6344
▁cruiser	-11.6344
▁nostr	-11.6345
▁wealthy	-11.6345
▁fulltime	-11.6345
▁trespassing	-11.6346
▁snitch	-11.6346
▁fax	-11.6346
▁spanking	-11.6346
▁freshen	-11.6347
▁whir	-11.6347
▁trustee	-11.6347
▁looper	-11.6348
▁ache	-11.6348
▁brick	-11.6348
▁passionate	-11.6349
dadada	-11.635
▁reel	-11.6351
▁logan	-11.6351
▁gunk	-11.6351
mutation	-11.6351
▁fable	-11.6351
▁heroin	-11.6352
▁lav	-11.6352
▁awaited	-11.6353
▁vi	-11.6353
▁alleged	-11.6353
▁slaughtered	-11.6353
▁shoveled	-11.6353
▁formation	-11.6353
▁gunner	-11.6354
▁bagel	-11.6355
▁bottler	-11.6355
mation	-11.6356
nched	-11.6356
▁okey	-11.6356
▁sandal	-11.6357
▁searchers	-11.6357
▁dana	-11.6358
▁homeboy	-11.6359
▁teen	-11.6359
▁shuddering	-11.6359
▁flirting	-11.6359
▁evolve	-11.636
▁marine	-11.636
▁leaking	-11.636
▁brewing	-11.636
▁backyard	-11.6361
▁augustin	-11.6361
▁coop	-11.6361
▁distracted	-11.6362
▁rejected	-11.6363
▁achieved	-11.6363
▁straighten	-11.6363
▁involve	-11.6363
▁patter	-11.6365
▁showdown	-11.6366
▁developed	-11.6366
nder	-11.6368
▁ignoran	-11.6368
▁unload	-11.6371
▁desperately	-11.6372
▁multiplying	-11.6372
▁mou	-11.6373
rid	-11.6373
▁beaten	-11.6373
▁coal	-11.6375
▁background	-11.6375
▁fairies	-11.6375
▁tyrann	-11.6375
▁racking	-11.6377
alignment	-11.6378
▁legally	-11.6379
▁esto	-11.6379
▁cynic	-11.638
▁sn	-11.6382
▁coyotes	-11.6385
▁kittens	-11.6385
▁vitamins	-11.6385
▁gymnastics	-11.6385
▁booms	-11.6385
▁crunching	-11.6385
▁jen	-11.6388
▁invested	-11.6388
▁dryer	-11.6388
▁philly	-11.639
▁decorat	-11.639
▁booty	-11.639
▁produced	-11.6392
uld	-11.6393
▁divided	-11.6393
▁lsd	-11.6394
▁sharpen	-11.6394
▁hopeful	-11.6395
▁privileged	-11.6396
▁darkies	-11.6397
▁sweepers	-11.6397
▁shushing	-11.6398
▁accelerate	-11.6399
▁cocoa	-11.64
▁logo	-11.6402
▁boarder	-11.6403
▁dumpy	-11.6405
▁ringo	-11.6405
wal	-11.6405
▁villainy	-11.6406
▁wandered	-11.6406
▁cent	-11.6407
▁ford	-11.6409
▁sneaky	-11.641
estro	-11.641
▁broadcasting	-11.6412
▁disappointing	-11.6412
▁performed	-11.6416
▁yelled	-11.6417
lbert	-11.6417
▁farting	-11.6418
▁vane	-11.6424
▁mocking	-11.6425
▁herring	-11.6425
▁pina	-11.6426
▁lem	-11.6428
▁maneuver	-11.643
▁initializ	-11.643
▁blackouts	-11.6432
▁sentiments	-11.6432
▁caw	-11.6433
▁recognized	-11.6436
▁stinky	-11.6437
▁comforting	-11.6438
rell	-11.6439
tial	-11.644
▁pic	-11.644
▁indis	-11.6442
▁pry	-11.6442
▁sailed	-11.6444
sander	-11.6445
ix	-11.6446
▁headless	-11.6449
▁punchy	-11.645
▁partys	-11.6451
elves	-11.6451
▁folding	-11.6452
▁appealing	-11.6452
▁researching	-11.6452
▁crackers	-11.6452
▁traveller	-11.6452
▁sandy	-11.6453
▁muchach	-11.6454
▁bead	-11.6454
▁garn	-11.6459
▁rightfully	-11.6462
▁linen	-11.6464
▁docks	-11.6464
▁privately	-11.6464
▁dreamt	-11.6466
▁sucking	-11.6467
▁borrowed	-11.6478
▁seeds	-11.6478
▁germs	-11.6478
▁avoided	-11.6478
▁provisions	-11.648
▁randalls	-11.648
▁results	-11.648
▁souvenirs	-11.648
▁preparations	-11.648
▁slams	-11.6481
▁finale	-11.6485
lic	-11.6486
▁blamed	-11.6488
▁endor	-11.6489
▁favorites	-11.649
▁delivery	-11.649
▁weakly	-11.6491
▁waf	-11.6494
▁demanding	-11.6495
▁pretended	-11.6496
▁performer	-11.6497
▁quake	-11.6497
▁cans	-11.6501
▁scanner	-11.6501
▁timeline	-11.6502
▁gaining	-11.6504
▁gardening	-11.6507
▁blur	-11.6508
▁momento	-11.6512
▁content	-11.6512
▁surrendered	-11.6514
▁difficulty	-11.652
▁pickles	-11.6524
▁conne	-11.6524
▁tweet	-11.6525
▁elements	-11.6528
▁finances	-11.6528
▁dungeons	-11.6528
▁stardestroyers	-11.6528
▁volunteers	-11.6528
▁realm	-11.6528
▁plagues	-11.6529
▁breakin	-11.6529
▁lid	-11.6531
▁meantime	-11.6533
wing	-11.6539
▁camel	-11.654
▁dealt	-11.654
▁excitedly	-11.6544
▁shorts	-11.6545
▁cones	-11.6546
▁lef	-11.655
▁punched	-11.6559
buns	-11.656
▁tougher	-11.6562
▁awaken	-11.6565
▁xrays	-11.6576
▁bracelets	-11.6576
▁kingpins	-11.6576
▁texts	-11.6577
▁droids	-11.6577
ides	-11.6578
▁elbows	-11.6581
cake	-11.6584
tish	-11.6584
▁suggested	-11.6586
abby	-11.6592
▁una	-11.6595
ass	-11.6602
soir	-11.6607
uria	-11.6608
▁oz	-11.6609
▁farmers	-11.6609
▁digg	-11.6614
▁tal	-11.6616
erogat	-11.6616
▁addi	-11.6616
gram	-11.6618
▁attending	-11.6621
▁hums	-11.6621
▁emails	-11.6624
oma	-11.6626
▁fucked	-11.6627
▁ensco	-11.663
▁ces	-11.6633
▁manos	-11.664
▁sup	-11.664
▁heston	-11.6651
▁cub	-11.6652
▁recorded	-11.6655
▁mei	-11.6658
▁dings	-11.6659
bot	-11.6664
▁proudly	-11.6666
▁mole	-11.6671
▁clangs	-11.6672
▁cigars	-11.6673
▁grownups	-11.6674
▁tab	-11.6674
▁starters	-11.6676
kill	-11.6677
▁conci	-11.6684
bre	-11.6688
▁robes	-11.6688
▁coloni	-11.6693
▁gobble	-11.6694
ax	-11.6697
▁gir	-11.67
▁longest	-11.6706
▁sme	-11.671
▁aged	-11.6713
▁appreciated	-11.6714
▁organs	-11.6715
sses	-11.6719
▁coo	-11.6719
▁appearances	-11.6721
▁efforts	-11.6721
▁tytos	-11.6721
▁goals	-11.6725
▁sleeps	-11.6727
▁cooked	-11.6739
▁dated	-11.6741
eight	-11.6741
▁gardener	-11.6743
▁panick	-11.6747
▁lowering	-11.6748
▁accounting	-11.6755
elle	-11.6758
▁demons	-11.676
▁schemes	-11.6763
ho	-11.6769
▁vikings	-11.677
▁vehicles	-11.677
▁auditions	-11.6771
▁was	-11.678
▁za	-11.6789
▁theresa	-11.6789
▁descend	-11.6802
▁yas	-11.6803
▁authors	-11.6819
▁tanks	-11.6819
▁snacks	-11.682
▁yankees	-11.682
▁experiments	-11.682
▁bulls	-11.6834
▁ey	-11.6834
▁can	-11.6842
vast	-11.6842
▁explosives	-11.6845
oyer	-11.6855
▁commoner	-11.6857
kado	-11.6858
nip	-11.6863
▁sens	-11.6863
▁perk	-11.6864
▁carriages	-11.6869
▁mermaids	-11.6869
ff	-11.6871
ezy	-11.6877
ging	-11.6882
ders	-11.6884
▁pins	-11.6906
con	-11.6907
▁routes	-11.6911
▁edges	-11.6917
▁arguments	-11.6918
▁packages	-11.6918
▁blankets	-11.6919
▁officials	-11.6919
▁mus	-11.6928
▁starter	-11.6939
hov	-11.6951
▁downs	-11.6953
▁enslave	-11.6958
▁boob	-11.6961
iquette	-11.6964
▁commissioners	-11.6975
▁scars	-11.6976
▁tops	-11.6977
ast	-11.6978
▁linked	-11.7001
gged	-11.7001
▁tinkl	-11.7011
tes	-11.7011
▁lettie	-11.7018
▁dra	-11.7018
▁woozles	-11.7018
▁equals	-11.7019
ires	-11.702
▁carve	-11.7021
▁flanks	-11.7021
▁attentions	-11.7025
oy	-11.7026
▁nicer	-11.7027
▁acts	-11.7028
mon	-11.7038
▁prompt	-11.7041
▁newt	-11.7049
dor	-11.7063
▁josephs	-11.7068
▁warming	-11.7069
▁limits	-11.707
row	-11.707
▁stimulat	-11.708
▁liner	-11.7085
ixi	-11.7093
▁jumped	-11.7105
▁branch	-11.7107
▁dock	-11.711
▁bedrooms	-11.7119
▁educat	-11.7122
▁defenses	-11.7123
▁boxing	-11.7123
were	-11.7134
▁luth	-11.7146
▁kar	-11.715
del	-11.7152
thing	-11.7153
▁waitin	-11.7164
▁covering	-11.7166
▁kicking	-11.7168
▁chatt	-11.7169
▁appointments	-11.7169
▁slips	-11.717
▁doubled	-11.7174
▁priorit	-11.7178
ibble	-11.718
itch	-11.7183
▁conserv	-11.7185
▁dea	-11.719
mund	-11.7196
hal	-11.7202
▁resemble	-11.7202
▁sorted	-11.7202
▁iit	-11.7208
▁dazzle	-11.7215
itat	-11.7217
▁owners	-11.7218
▁understands	-11.7228
▁goody	-11.7234
▁vo	-11.7235
▁speeding	-11.7236
ofthem	-11.7238
win	-11.7245
▁schn	-11.7245
▁trim	-11.7263
▁youths	-11.727
▁challenges	-11.7272
▁coats	-11.7273
▁meter	-11.7281
▁electrici	-11.7302
▁jumps	-11.7307
▁museums	-11.7323
▁swords	-11.7323
ome	-11.7328
ft	-11.7332
gie	-11.7338
▁embezzle	-11.7355
ony	-11.7356
eel	-11.7357
▁kawa	-11.7368
▁insur	-11.7368
▁lag	-11.7371
▁rabbits	-11.7374
▁files	-11.7375
▁drawings	-11.7375
▁pres	-11.7377
law	-11.7379
▁trauma	-11.7383
▁cu	-11.7415
▁puppets	-11.7426
▁hooks	-11.7427
dger	-11.7429
quel	-11.7437
▁jos	-11.7448
▁flu	-11.7451
pi	-11.7458
▁trans	-11.7464
stra	-11.7466
▁pies	-11.747
▁votes	-11.7477
ement	-11.7477
▁lessons	-11.7483
akin	-11.7488
▁tan	-11.7498
▁sensu	-11.751
mar	-11.7516
ct	-11.7529
bling	-11.7538
▁graves	-11.7544
aha	-11.755
ush	-11.7551
▁sends	-11.7554
▁maria	-11.7557
rawl	-11.7563
lent	-11.7575
▁vespas	-11.7582
▁purposes	-11.7582
▁snows	-11.7593
ldie	-11.7612
▁arr	-11.7613
lump	-11.762
▁hover	-11.7625
ab	-11.7633
mal	-11.7636
▁slowing	-11.7645
▁shav	-11.7659
▁emm	-11.7661
ano	-11.7662
lackin	-11.7677
▁accidents	-11.7678
▁shuffl	-11.7686
▁alarms	-11.7688
▁sundays	-11.7688
▁ties	-11.769
▁intr	-11.7695
▁corr	-11.7707
breaker	-11.7722
kay	-11.7728
▁clog	-11.773
▁shu	-11.7732
▁cons	-11.7734
rie	-11.7734
▁flo	-11.7735
itive	-11.7742
▁sim	-11.7757
eers	-11.7766
clusi	-11.7776
▁cousins	-11.7793
▁departments	-11.7794
els	-11.7795
▁mates	-11.7832
▁likeness	-11.7838
▁scenes	-11.7847
▁bathrooms	-11.7847
▁bases	-11.7853
▁yiyou	-11.7854
chin	-11.7857
▁penetrate	-11.7874
luxe	-11.7881
▁nic	-11.7883
▁arts	-11.7884
▁drinker	-11.7891
cha	-11.7929
job	-11.7929
gan	-11.7955
▁fuller	-11.796
tro	-11.7965
mot	-11.7966
▁babys	-11.798
▁dips	-11.7984
▁gala	-11.8002
▁burro	-11.8008
▁springs	-11.8014
ction	-11.8015
due	-11.8035
▁prote	-11.8042
whupp	-11.8062
▁rises	-11.8062
▁bra	-11.8064
rial	-11.8068
▁gam	-11.8069
unt	-11.8071
▁your	-11.8081
▁ski	-11.8093
▁sounding	-11.8109
▁cakes	-11.8117
ef	-11.8133
▁excused	-11.8134
zo	-11.815
alo	-11.8153
pkins	-11.8156
ita	-11.8158
▁sizes	-11.8172
lud	-11.8173
▁boyfriends	-11.8173
▁unc	-11.8177
▁universes	-11.818
▁countrys	-11.8183
▁odo	-11.8196
▁ger	-11.8233
▁arti	-11.8243
▁rivers	-11.8257
sse	-11.8263
ander	-11.8278
▁wool	-11.8281
ight	-11.8288
▁uglies	-11.8288
▁baba	-11.829
▁spells	-11.8291
bang	-11.8304
▁spiders	-11.8312
tie	-11.8316
bet	-11.8322
▁cin	-11.8337
▁ramm	-11.8348
oft	-11.8356
har	-11.8363
air	-11.8367
▁inconvenien	-11.8368
▁tails	-11.8368
imous	-11.8374
educed	-11.8388
ugged	-11.839
car	-11.8398
▁spa	-11.8401
ps	-11.8401
▁phi	-11.8428
▁handed	-11.8438
ouncy	-11.8441
nose	-11.845
ishly	-11.8464
dc	-11.8465
▁hurrying	-11.8466
▁assum	-11.8467
▁contacts	-11.8489
▁hen	-11.8502
umming	-11.851
anka	-11.8528
quat	-11.8534
ub	-11.8535
▁shov	-11.8542
ello	-11.8563
▁killings	-11.8573
▁packs	-11.8576
ez	-11.8577
▁yiwe	-11.8579
▁aft	-11.8585
bar	-11.8591
▁asp	-11.8604
▁leo	-11.8616
▁locks	-11.8618
ide	-11.8632
▁synchroniz	-11.8636
▁wil	-11.864
shaped	-11.8645
▁parks	-11.8647
bell	-11.8657
▁adventur	-11.8668
ments	-11.8686
ela	-11.8691
▁wease	-11.8694
▁rout	-11.8696
maniac	-11.8703
reen	-11.871
▁ea	-11.8712
▁holo	-11.8719
▁dia	-11.8719
gers	-11.8724
▁div	-11.8731
▁stores	-11.875
▁feature	-11.8755
▁harmon	-11.8759
▁tink	-11.8774
anza	-11.8777
hen	-11.879
▁hospitals	-11.8792
▁stain	-11.8797
▁pac	-11.8824
▁triumpha	-11.883
qu	-11.8832
ants	-11.8843
ving	-11.8845
che	-11.8849
▁champions	-11.8851
ini	-11.8866
▁liter	-11.8872
▁smuggle	-11.8881
▁purchase	-11.8883
ounce	-11.8885
▁fau	-11.8886
ender	-11.8894
zers	-11.8896
▁hav	-11.8902
good	-11.8904
national	-11.8913
chop	-11.8918
ius	-11.8928
addy	-11.8942
bbing	-11.8962
bertie	-11.898
onda	-11.8985
▁umm	-11.902
ami	-11.9025
ace	-11.9026
tit	-11.9028
▁tri	-11.9033
▁notices	-11.904
ngling	-11.9043
ference	-11.9048
gal	-11.9054
▁gummi	-11.9063
fulness	-11.9078
▁differences	-11.9083
▁mit	-11.9093
aaah	-11.9097
fu	-11.9102
did	-11.911
moles	-11.9128
get	-11.9134
style	-11.9151
▁don	-11.9154
▁execute	-11.9189
ux	-11.9189
ler	-11.9191
igned	-11.9201
act	-11.922
▁petit	-11.9229
plication	-11.9231
▁protects	-11.9235
ograph	-11.9238
▁dieu	-11.9252
morrow	-11.9256
▁hom	-11.9257
▁saf	-11.9271
ometric	-11.9271
▁cowl	-11.9282
orte	-11.9291
tri	-11.9292
leg	-11.9295
▁fla	-11.931
▁initial	-11.9314
edded	-11.9346
have	-11.935
▁recon	-11.9359
liest	-11.936
prehend	-11.9362
▁twee	-11.9378
teen	-11.9384
▁battl	-11.9396
high	-11.94
▁infer	-11.9402
▁cont	-11.9406
▁sixty	-11.9408
▁ado	-11.944
▁sustain	-11.9451
▁volt	-11.9452
▁plea	-11.9454
▁exam	-11.9456
▁militant	-11.9457
▁rattlesnake	-11.9457
▁bulb	-11.9457
▁prospect	-11.9457
▁brook	-11.9458
▁magnet	-11.9459
▁moustache	-11.946
▁archaeologist	-11.946
▁distraction	-11.9463
▁hobo	-11.9464
berg	-11.9467
▁mug	-11.9469
bert	-11.9472
▁remark	-11.9475
▁potion	-11.9475
▁ellingboe	-11.9475
▁romanov	-11.9475
▁sprinkle	-11.9475
▁ornament	-11.9475
▁narcotic	-11.9475
▁muggle	-11.9476
▁cowboy	-11.9477
▁donation	-11.9477
▁region	-11.9477
▁sentiment	-11.9477
▁cour	-11.948
owski	-11.948
▁particle	-11.9481
▁prune	-11.9483
▁gambler	-11.9484
▁drone	-11.9485
▁acre	-11.9487
▁jewel	-11.9487
▁cod	-11.9487
▁muff	-11.9489
▁oop	-11.9489
▁ingredient	-11.949
▁passenger	-11.949
▁sleeve	-11.949
▁dolphin	-11.949
▁illustr	-11.9492
▁consequence	-11.9494
▁gap	-11.9494
tead	-11.9498
fam	-11.9498
▁intruder	-11.9505
▁stripe	-11.951
▁heel	-11.951
▁toil	-11.9514
▁blackout	-11.9526
▁valid	-11.9532
▁havin	-11.9534
▁shi	-11.9535
ometer	-11.954
nf	-11.9541
▁indi	-11.9543
guer	-11.9546
mina	-11.9547
par	-11.9549
▁physic	-11.9549
▁why	-11.9551
▁blu	-11.9552
remi	-11.956
olo	-11.956
▁poll	-11.956
▁lung	-11.9561
▁spank	-11.9566
▁complain	-11.9567
anne	-11.9568
▁ruff	-11.9573
here	-11.9573
puta	-11.9575
▁slop	-11.9575
friend	-11.9576
basti	-11.9576
▁how	-11.9577
manos	-11.9577
week	-11.9578
▁monstr	-11.9579
abide	-11.9579
▁fag	-11.958
▁doubl	-11.9582
▁poo	-11.9584
▁experienc	-11.9586
▁petition	-11.9588
▁flir	-11.9591
organizing	-11.9593
earned	-11.9593
▁chomp	-11.9593
▁cracker	-11.9594
ising	-11.9594
cide	-11.9597
▁compose	-11.9598
▁stammer	-11.9598
▁retriev	-11.9599
▁polish	-11.96
▁trespass	-11.9601
▁unti	-11.9603
▁publish	-11.9603
▁profession	-11.9604
▁applaud	-11.9605
climber	-11.9605
▁yithe	-11.9606
▁interpret	-11.9608
print	-11.9609
▁toto	-11.9609
▁transplant	-11.9611
balt	-11.9611
solv	-11.9612
▁disrupt	-11.9613
▁outlaw	-11.9613
poster	-11.9614
long	-11.9614
▁register	-11.9614
northwest	-11.9614
▁hallucinat	-11.9614
▁squash	-11.9614
secret	-11.9614
cut	-11.9615
name	-11.9615
pool	-11.9615
▁shares	-11.9616
warming	-11.9616
▁unmask	-11.9616
▁suspend	-11.9616
slow	-11.9617
chester	-11.9618
mission	-11.9618
wig	-11.9618
confidence	-11.9618
▁banish	-11.9618
solution	-11.9618
level	-11.9618
columbia	-11.9619
winning	-11.9619
pops	-11.9619
american	-11.9619
world	-11.9619
given	-11.9619
distance	-11.9619
related	-11.9619
major	-11.9619
track	-11.9619
different	-11.9619
dead	-11.9619
weather	-11.9619
clean	-11.9619
sharp	-11.9619
bridge	-11.962
claw	-11.962
▁will	-11.962
haku	-11.962
▁negotiat	-11.962
▁squeak	-11.9621
▁stash	-11.9621
nancy	-11.9621
▁taunt	-11.9622
▁tender	-11.9623
▁crib	-11.9623
baby	-11.9623
storm	-11.9623
▁duc	-11.9624
owned	-11.9624
tub	-11.9624
▁tempt	-11.9624
▁metaph	-11.9625
rench	-11.9625
onger	-11.9626
▁communicat	-11.9626
▁fuzz	-11.9626
▁pip	-11.9627
▁fulfill	-11.9627
▁prejudice	-11.9627
▁stall	-11.9628
▁compare	-11.9628
▁sympath	-11.9628
hook	-11.9629
▁defens	-11.9629
▁discourage	-11.963
dest	-11.963
▁relieve	-11.963
▁ann	-11.963
▁thirst	-11.963
▁founder	-11.9631
gr	-11.9631
▁filth	-11.9631
▁energ	-11.9632
jit	-11.9634
fied	-11.9634
▁scatt	-11.9634
▁inject	-11.9634
▁morris	-11.9635
ification	-11.9636
▁acknowledge	-11.9636
▁antiqu	-11.9636
bank	-11.9636
▁isolat	-11.9636
▁walt	-11.9637
▁inspect	-11.9638
model	-11.9639
▁organis	-11.9639
▁franc	-11.964
▁ratio	-11.964
▁daniel	-11.964
▁ceremoni	-11.964
▁delusion	-11.9641
▁nigh	-11.9641
▁hawk	-11.9641
▁independen	-11.9641
▁leonard	-11.9641
▁festiv	-11.9643
▁archaeologi	-11.9643
▁aggravat	-11.9643
luc	-11.9643
worthy	-11.9643
play	-11.9644
▁eleven	-11.9644
▁exhibit	-11.9644
plit	-11.9644
▁civi	-11.9644
horse	-11.9644
quit	-11.9644
ivan	-11.9644
▁imbecil	-11.9644
▁inca	-11.9644
▁ef	-11.9644
▁livin	-11.9645
▁poach	-11.9645
arrison	-11.9645
▁ofyou	-11.9645
▁transit	-11.9645
▁sarcastic	-11.9645
▁dais	-11.9645
▁republic	-11.9646
▁dorm	-11.9646
▁alchem	-11.9646
▁kiddin	-11.9646
▁differ	-11.9646
spin	-11.9646
▁drift	-11.9646
▁japan	-11.9646
▁posse	-11.9646
powered	-11.9646
▁ballancourt	-11.9646
▁exec	-11.9646
▁gleam	-11.9646
▁infirm	-11.9646
▁schloss	-11.9646
eflex	-11.9646
extraterrestrial	-11.9646
ficiency	-11.9646
imentary	-11.9646
javajavajavajava	-11.9646
▁accompany	-11.9646
▁acrobat	-11.9646
▁afresh	-11.9646
▁alligator	-11.9646
▁amnesia	-11.9646
▁amsterdam	-11.9646
▁anguish	-11.9646
▁animatronic	-11.9646
▁antidote	-11.9646
▁antoinette	-11.9646
▁anyplace	-11.9646
▁appalling	-11.9646
▁austin	-11.9646
▁avl	-11.9646
▁bamboo	-11.9646
▁bamboozle	-11.9646
▁bennett	-11.9646
▁benoit	-11.9646
▁blindfold	-11.9646
▁bobbalicious	-11.9646
▁bogey	-11.9646
▁bogus	-11.9646
▁bourgeois	-11.9646
▁briggs	-11.9646
▁britain	-11.9646
▁bujumbura	-11.9646
▁burghard	-11.9646
▁burroughs	-11.9646
▁cafeteria	-11.9646
▁canada	-11.9646
▁canadian	-11.9646
▁cannoli	-11.9646
▁cartilage	-11.9646
▁cavalier	-11.9646
▁cezi	-11.9646
▁challenging	-11.9646
▁chariot	-11.9646
▁charisma	-11.9646
▁charlotte	-11.9646
▁chemical	-11.9646
▁chihuahua	-11.9646
▁childbirth	-11.9646
▁chivalry	-11.9646
▁clarinet	-11.9646
▁clerk	-11.9646
▁colleen	-11.9646
▁compartment	-11.9646
▁conceited	-11.9646
▁condominiums	-11.9646
▁congratulate	-11.9646
▁contrive	-11.9646
▁coolsonian	-11.9646
▁copilot	-11.9646
▁cornelia	-11.9646
▁deceiving	-11.9646
▁definition	-11.9646
▁democrat	-11.9646
▁dempsey	-11.9646
▁deteriorated	-11.9646
▁devastating	-11.9646
▁diabolical	-11.9646
▁diagnos	-11.9646
▁dialect	-11.9646
▁dilemma	-11.9646
▁diligent	-11.9646
▁dishonor	-11.9646
▁disillusion	-11.9646
▁disloyal	-11.9646
▁dismount	-11.9646
▁disneyland	-11.9646
▁diversion	-11.9646
▁dizzy	-11.9646
▁dominoes	-11.9646
▁dunphy	-11.9646
▁dynasty	-11.9646
▁enthusiastic	-11.9646
▁entrusted	-11.9646
▁epidemic	-11.9646
▁equivalent	-11.9646
▁escobar	-11.9646
▁esteem	-11.9646
▁evolution	-11.9646
▁exploit	-11.9646
▁extortion	-11.9646
▁filippo	-11.9646
▁fingertips	-11.9646
▁gandhi	-11.9646
▁giuseppe	-11.9646
▁gonzalez	-11.9646
▁guadalupe	-11.9646
▁haarlem	-11.9646
▁hangnail	-11.9646
▁haycorn	-11.9646
▁hovitos	-11.9646
▁impenetrable	-11.9646
▁improper	-11.9646
▁indefinitely	-11.9646
▁inevitable	-11.9646
▁insinuat	-11.9646
▁insurrection	-11.9646
▁intoxicated	-11.9646
▁iowa	-11.9646
▁isabella	-11.9646
▁jellybean	-11.9646
▁jeopardy	-11.9646
▁jewellery	-11.9646
▁jurisdiction	-11.9646
▁katawaredoki	-11.9646
▁katrien	-11.9646
▁kennedy	-11.9646
▁kentucky	-11.9646
▁ketchup	-11.9646
▁kilkenny	-11.9646
▁klutz	-11.9646
▁koonstra	-11.9646
▁landscape	-11.9646
▁lasalle	-11.9646
▁lazard	-11.9646
▁lempereur	-11.9646
▁lorenzo	-11.9646
▁louisiana	-11.9646
▁mackerel	-11.9646
▁maktar	-11.9646
▁maltodextrose	-11.9646
▁manuscript	-11.9646
▁marshmallow	-11.9646
▁massacre	-11.9646
▁maturity	-11.9646
▁mayonnaise	-11.9646
▁mazril	-11.9646
▁mcclatchey	-11.9646
▁mccullough	-11.9646
▁mckitty	-11.9646
▁measly	-11.9646
▁mercenaries	-11.9646
▁militia	-11.9646
▁mineshaft	-11.9646
▁momentarily	-11.9646
▁mouldy	-11.9646
▁multimedia	-11.9646
▁murphy	-11.9646
▁musicmusic	-11.9646
▁mutineers	-11.9646
▁necesita	-11.9646
▁neighbours	-11.9646
▁netherland	-11.9646
▁ninepence	-11.9646
▁norwegia	-11.9646
▁obedience	-11.9646
▁oberon	-11.9646
▁oblivio	-11.9646
▁obstacle	-11.9646
▁offiice	-11.9646
▁oklahoma	-11.9646
▁orangutan	-11.9646
▁orleans	-11.9646
▁outstanding	-11.9646
▁overmutate	-11.9646
▁oxygen	-11.9646
▁paragraph	-11.9646
▁pedestal	-11.9646
▁pentagon	-11.9646
▁perfume	-11.9646
▁persuasion	-11.9646
▁phenomenon	-11.9646
▁piffle	-11.9646
▁pipeworkers	-11.9646
▁platter	-11.9646
▁pneumonia	-11.9646
▁policies	-11.9646
▁potomac	-11.9646
▁prostate	-11.9646
▁quaffle	-11.9646
▁qualification	-11.9646
▁religious	-11.9646
▁repulsive	-11.9646
▁reservation	-11.9646
▁retiring	-11.9646
▁reunion	-11.9646
▁rhapsody	-11.9646
▁rival	-11.9646
▁robbers	-11.9646
▁rrrraa	-11.9646
▁saviour	-11.9646
▁scalpel	-11.9646
▁scarecrow	-11.9646
▁shortcircuit	-11.9646
▁singular	-11.9646
▁sleuth	-11.9646
▁solicitor	-11.9646
▁sophisticated	-11.9646
▁spewlia	-11.9646
▁sprite	-11.9646
▁strudel	-11.9646
▁strykers	-11.9646
▁stugats	-11.9646
▁subscription	-11.9646
▁substantial	-11.9646
▁substation	-11.9646
▁summit	-11.9646
▁surprising	-11.9646
▁suspicion	-11.9646
▁taxicab	-11.9646
▁tennyson	-11.9646
▁terrain	-11.9646
▁testify	-11.9646
▁testimony	-11.9646
▁tinhorn	-11.9646
▁tommaso	-11.9646
▁travesty	-11.9646
▁tremble	-11.9646
▁tricorder	-11.9646
▁trophy	-11.9646
▁tshirt	-11.9646
▁tutankhamen	-11.9646
▁tutankhamun	-11.9646
▁tweak	-11.9646
▁twinkle	-11.9646
▁ultra	-11.9646
▁unlimited	-11.9646
▁unquestionably	-11.9646
▁unspeakable	-11.9646
▁unthinkable	-11.9646
▁urinating	-11.9646
▁vamos	-11.9646
▁veteran	-11.9646
▁virgins	-11.9646
▁volkswagen	-11.9646
▁vulcan	-11.9646
▁vulture	-11.9646
▁wardrobe	-11.9646
▁wilbur	-11.9646
▁wimbledon	-11.9646
▁woodcutter	-11.9646
▁wwwait	-11.9646
▁yippee	-11.9646
▁youtube	-11.9646
▁ziener	-11.9646
▁backflip	-11.9646
▁competitive	-11.9646
▁concession	-11.9646
▁cosmic	-11.9646
▁dudley	-11.9646
▁eccentric	-11.9646
▁facilitat	-11.9646
▁figment	-11.9646
▁klingon	-11.9646
▁knob	-11.9646
▁mandolin	-11.9646
▁meddle	-11.9646
▁obscur	-11.9646
▁rafael	-11.9646
▁resort	-11.9646
▁safari	-11.9646
▁stereo	-11.9646
▁venom	-11.9646
▁brooch	-11.9646
▁caretaker	-11.9646
▁carinya	-11.9646
▁collision	-11.9646
▁commend	-11.9646
▁deceit	-11.9646
▁delude	-11.9646
▁eusie	-11.9646
▁idiom	-11.9646
▁kalel	-11.9646
▁knicks	-11.9646
▁milan	-11.9646
▁ofthings	-11.9646
▁oleary	-11.9646
▁outdated	-11.9646
▁outlive	-11.9646
▁persecuti	-11.9646
▁pottytrained	-11.9646
▁refrain	-11.9646
▁seatbelt	-11.9646
▁snare	-11.9646
▁spuds	-11.9646
▁storage	-11.9646
▁sykes	-11.9646
▁thrive	-11.9646
▁untimeout	-11.9646
▁veggie	-11.9646
▁casino	-11.9646
▁depressing	-11.9646
▁dewdrop	-11.9646
▁doggone	-11.9646
▁gasket	-11.9646
▁godspeed	-11.9646
▁hurrie	-11.9646
▁mirth	-11.9646
▁salesmen	-11.9646
▁sedative	-11.9646
▁shrewd	-11.9646
▁thong	-11.9646
▁timber	-11.9646
▁affirmative	-11.9646
▁alabama	-11.9646
▁criminolog	-11.9646
▁fiesta	-11.9646
▁fiftyfifty	-11.9646
▁fragile	-11.9646
▁gnat	-11.9646
▁hassle	-11.9646
▁klan	-11.9646
▁opportunities	-11.9646
▁presumption	-11.9646
▁proverb	-11.9646
▁rascal	-11.9646
▁recess	-11.9646
▁revolve	-11.9646
▁tolerate	-11.9646
▁undress	-11.9646
▁whaaa	-11.9646
▁whitney	-11.9646
▁zurich	-11.9646
▁bluebells	-11.9646
▁creek	-11.9646
▁insight	-11.9646
▁mangano	-11.9646
▁norbert	-11.9646
▁toothbrush	-11.9646
▁unjustly	-11.9646
▁vanishing	-11.9646
aredoki	-11.9646
▁bongogram	-11.9646
▁redeem	-11.9646
opoly	-11.9646
▁sheila	-11.9646
▁spontaneous	-11.9646
▁terminal	-11.9646
▁vicinit	-11.9646
▁accumulat	-11.9646
▁alpoca	-11.9646
▁cunning	-11.9646
▁melodramatic	-11.9646
▁ninja	-11.9646
▁ordinarily	-11.9646
▁participation	-11.9646
▁rosy	-11.9646
▁scowl	-11.9646
▁unaware	-11.9646
▁whatsoever	-11.9646
▁feroci	-11.9646
▁hydrogen	-11.9646
▁schmuck	-11.9646
▁cavities	-11.9646
▁fraulein	-11.9646
▁marseill	-11.9646
▁snail	-11.9646
▁unfold	-11.9646
▁iook	-11.9646
▁latte	-11.9646
▁morgue	-11.9646
▁namath	-11.9646
▁reinforcements	-11.9646
▁scopes	-11.9646
▁devastate	-11.9646
▁pooch	-11.9646
▁smelt	-11.9646
▁southend	-11.9646
▁surgeries	-11.9646
▁indict	-11.9646
▁herbert	-11.9646
▁oneliners	-11.9646
▁prettier	-11.9646
▁vivid	-11.9646
oitering	-11.9646
▁chock	-11.9646
▁doughnuts	-11.9646
▁deathbed	-11.9646
▁freckle	-11.9646
▁pipkin	-11.9646
▁volume	-11.9646
▁offlander	-11.9646
▁outburst	-11.9646
bula	-11.9646
start	-11.9646
▁controvers	-11.9646
▁squander	-11.9646
▁uhuhuh	-11.9646
▁cackling	-11.9646
▁bulg	-11.9646
▁croix	-11.9646
▁decaf	-11.9646
▁excessive	-11.9646
▁frequent	-11.9646
▁buffoon	-11.9646
▁debt	-11.9646
▁elsie	-11.9646
▁refuge	-11.9646
▁dispense	-11.9646
▁orientation	-11.9646
▁suburb	-11.9646
▁trimble	-11.9646
▁forecast	-11.9647
▁smooch	-11.9647
▁dublin	-11.9647
▁defence	-11.9647
▁jennie	-11.9647
▁solberg	-11.9647
▁stunned	-11.9647
▁sympathize	-11.9647
▁termite	-11.9647
▁conju	-11.9647
▁tramp	-11.9647
▁clergyman	-11.9647
▁commune	-11.9647
▁foureyes	-11.9647
▁rigid	-11.9647
▁wheat	-11.9647
▁unemployment	-11.9647
▁unend	-11.9647
▁wiggle	-11.9647
▁clayface	-11.9647
▁granddaughter	-11.9647
▁thumbprint	-11.9647
▁victorious	-11.9647
▁offence	-11.9647
▁grumbling	-11.9647
▁wept	-11.9647
▁marrow	-11.9647
▁verbal	-11.9647
▁attaboy	-11.9647
▁governess	-11.9647
▁nickname	-11.9647
▁referee	-11.9647
▁unison	-11.9647
▁darwin	-11.9647
▁inviting	-11.9647
▁discharge	-11.9647
▁barnyard	-11.9647
▁coupling	-11.9647
▁mandated	-11.9647
▁vernon	-11.9647
▁conformity	-11.9647
▁facing	-11.9647
▁grady	-11.9647
▁twentyfive	-11.9647
▁pancho	-11.9647
▁awoke	-11.9647
▁cabbage	-11.9647
▁skateboard	-11.9647
▁babysit	-11.9647
▁groceries	-11.9647
▁cardinal	-11.9647
tigious	-11.9647
▁bleating	-11.9647
▁dormitories	-11.9647
▁downfall	-11.9647
▁mysteri	-11.9647
▁budbuddy	-11.9647
recede	-11.9647
▁savage	-11.9647
▁aspect	-11.9647
▁quadrant	-11.9647
▁tropical	-11.9647
▁aggression	-11.9647
▁ajedi	-11.9647
▁contribution	-11.9647
▁satisfaction	-11.9647
▁bernard	-11.9647
▁fester	-11.9647
▁swimsuit	-11.9647
▁bonding	-11.9647
▁postcard	-11.9647
▁laboratory	-11.9647
▁ingles	-11.9647
▁pollut	-11.9647
▁racine	-11.9647
aragu	-11.9647
▁representative	-11.9647
▁cheque	-11.9647
▁stunning	-11.9647
▁mourn	-11.9647
▁rrrah	-11.9647
daunted	-11.9647
▁physician	-11.9647
▁sweetgrass	-11.9647
▁confound	-11.9647
oula	-11.9647
▁rupe	-11.9647
▁undone	-11.9647
▁rocknroll	-11.9647
▁logic	-11.9647
▁spectacle	-11.9647
▁relevation	-11.9647
▁cappy	-11.9647
▁aroma	-11.9647
▁solemn	-11.9647
▁ethical	-11.9647
▁keller	-11.9647
▁originated	-11.9647
reagan	-11.9647
▁harassment	-11.9647
▁swat	-11.9647
▁witchcraft	-11.9647
▁prosperous	-11.9647
▁underwater	-11.9647
▁hija	-11.9647
▁pensive	-11.9647
▁kenwood	-11.9647
▁degenerate	-11.9647
▁dolce	-11.9647
▁sarcastically	-11.9647
▁unfinished	-11.9647
▁marxist	-11.9647
▁poochie	-11.9647
▁shoemaker	-11.9647
▁cruising	-11.9647
▁expedit	-11.9647
▁finito	-11.9647
▁calamo	-11.9647
▁decode	-11.9647
▁atheist	-11.9647
▁raving	-11.9647
▁barber	-11.9647
▁obsession	-11.9647
▁suture	-11.9647
▁admirable	-11.9648
▁dismantle	-11.9648
▁confide	-11.9648
▁goggles	-11.9648
▁cheet	-11.9648
▁jerkins	-11.9648
▁barbarian	-11.9648
▁vouch	-11.9648
▁purdy	-11.9648
▁servir	-11.9648
▁journalist	-11.9648
▁cecilia	-11.9648
▁jelly	-11.9648
▁boise	-11.9648
▁janice	-11.9648
▁iora	-11.9648
▁fulfillment	-11.9648
▁oaf	-11.9648
▁passport	-11.9648
▁snapping	-11.9648
▁jeffries	-11.9648
▁panther	-11.9648
▁ginger	-11.9648
▁donna	-11.9648
▁fabrication	-11.9648
▁kush	-11.9648
▁despise	-11.9648
▁typing	-11.9648
▁surf	-11.9648
▁melodi	-11.9648
▁digest	-11.9648
▁chapel	-11.9648
▁tumble	-11.9648
llister	-11.9648
▁clash	-11.9648
▁rarebit	-11.9648
▁doodle	-11.9648
▁formula	-11.9648
▁similarities	-11.9648
▁envious	-11.9648
▁futility	-11.9648
▁stacy	-11.9648
▁grump	-11.9648
▁customary	-11.9648
▁oversea	-11.9648
▁wrist	-11.9648
▁shortcut	-11.9648
▁martial	-11.9648
▁screwups	-11.9648
▁liking	-11.9648
▁drunkard	-11.9648
▁socializing	-11.9648
▁overture	-11.9648
▁mcca	-11.9648
▁guiltless	-11.9649
▁sunlight	-11.9649
▁toodle	-11.9649
▁vigo	-11.9649
▁complainin	-11.9649
▁bunker	-11.9649
▁captive	-11.9649
▁domination	-11.9649
▁amba	-11.9649
▁punchin	-11.9649
▁sparkling	-11.9649
▁wellbeing	-11.9649
▁gingy	-11.9649
▁sidekick	-11.9649
▁slink	-11.9649
▁interven	-11.9649
▁exhibition	-11.9649
▁hazardous	-11.9649
▁plotted	-11.9649
▁spotlight	-11.9649
▁void	-11.9649
▁alcoholic	-11.9649
▁pike	-11.9649
▁wack	-11.9649
▁siege	-11.9649
▁fright	-11.9649
▁brag	-11.9649
▁radish	-11.9649
▁batdad	-11.9649
▁waitress	-11.9649
▁jefferson	-11.9649
▁luna	-11.9649
▁roy	-11.9649
▁beattie	-11.9649
▁seahorse	-11.9649
▁dessie	-11.9649
▁zeus	-11.9649
▁panties	-11.9649
▁immediate	-11.9649
▁sellick	-11.9649
▁maze	-11.9649
▁contribute	-11.9649
▁upright	-11.965
▁pension	-11.965
▁descendant	-11.965
▁hark	-11.965
▁variation	-11.965
▁dipper	-11.965
▁imperfect	-11.965
▁pug	-11.965
▁prick	-11.965
▁carefree	-11.965
▁coastline	-11.965
▁cellul	-11.965
▁maharajaton	-11.965
▁deflection	-11.965
▁furni	-11.965
▁dressmaker	-11.965
▁marsh	-11.965
▁crem	-11.965
▁auxiliary	-11.965
▁monarchy	-11.965
▁dietl	-11.965
▁senile	-11.965
▁illusion	-11.965
▁refill	-11.965
▁fiix	-11.9651
▁hugged	-11.9651
▁flour	-11.9651
▁kil	-11.9651
▁notebook	-11.9651
▁cleve	-11.9651
▁piling	-11.9651
▁pickets	-11.9651
▁inexperienced	-11.9651
▁mutated	-11.9651
▁obtained	-11.9651
▁paralyzed	-11.9651
▁lynch	-11.9651
▁bombard	-11.9651
▁vibration	-11.9651
▁judiciary	-11.9651
▁topsecret	-11.9651
▁outdo	-11.9651
▁superpower	-11.9651
▁fluc	-11.9651
▁cheng	-11.9651
▁sofa	-11.9651
vious	-11.9651
▁underway	-11.9651
▁excel	-11.9651
▁gert	-11.9651
▁batgirl	-11.9651
▁reflection	-11.9651
estate	-11.9651
▁cuddle	-11.9651
▁zipping	-11.9652
▁radioactivity	-11.9652
▁merit	-11.9652
▁impert	-11.9652
doubledgoddamn	-11.9652
▁colony	-11.9652
▁femme	-11.9652
▁garfield	-11.9652
▁expectations	-11.9652
▁sanza	-11.9652
▁kra	-11.9652
ngel	-11.9652
▁incline	-11.9652
▁mega	-11.9652
▁regi	-11.9652
▁glen	-11.9652
▁depth	-11.9652
▁maim	-11.9652
▁cupid	-11.9652
▁ballast	-11.9652
▁navigator	-11.9653
▁dander	-11.9653
▁marina	-11.9653
▁bookstore	-11.9653
▁clubhouse	-11.9653
▁dependable	-11.9653
▁cloth	-11.9653
▁extraction	-11.9653
▁attendant	-11.9653
quent	-11.9653
▁cruelty	-11.9653
▁snooze	-11.9653
▁beginner	-11.9653
▁kettle	-11.9653
▁sauce	-11.9653
▁soviet	-11.9653
▁acquainted	-11.9653
▁bueno	-11.9653
▁diminished	-11.9653
▁pillar	-11.9653
▁vato	-11.9653
▁eyesight	-11.9654
▁fishm	-11.9654
▁cement	-11.9654
▁admitted	-11.9654
▁breed	-11.9654
▁yithats	-11.9654
▁penguin	-11.9654
▁chess	-11.9654
▁thaw	-11.9654
▁encouragement	-11.9654
▁stool	-11.9654
hael	-11.9654
▁grrr	-11.9654
▁michel	-11.9654
▁hooch	-11.9654
▁perpetuate	-11.9654
▁hidin	-11.9654
▁disposition	-11.9654
▁miguelito	-11.9654
▁mesh	-11.9654
▁enci	-11.9654
▁traumatiz	-11.9654
▁cockroaches	-11.9654
▁mosquitoes	-11.9654
▁conman	-11.9654
▁drama	-11.9654
▁removal	-11.9655
▁tuna	-11.9655
▁hence	-11.9655
▁brian	-11.9655
▁filing	-11.9655
▁budget	-11.9655
▁repent	-11.9655
▁hedge	-11.9655
▁wagon	-11.9655
▁admitting	-11.9655
▁checklist	-11.9655
▁uran	-11.9656
▁achievement	-11.9656
▁accountant	-11.9656
▁catfish	-11.9656
▁input	-11.9656
▁rapidly	-11.9656
▁iike	-11.9656
▁dj	-11.9656
idna	-11.9656
▁convey	-11.9656
▁cutler	-11.9656
▁virus	-11.9656
radle	-11.9656
▁openminded	-11.9657
▁frat	-11.9657
▁billboard	-11.9657
▁wendy	-11.9657
▁drummer	-11.9657
▁tutor	-11.9657
▁indicator	-11.9657
▁inquiry	-11.9658
▁creepo	-11.9658
▁happier	-11.9658
▁pester	-11.9658
▁plow	-11.9658
▁franklin	-11.9658
▁disposed	-11.9658
▁riddler	-11.9658
▁leadership	-11.9658
▁mj	-11.9658
▁terminated	-11.9659
▁vendor	-11.9659
▁catwoman	-11.9659
▁dogsitting	-11.9659
▁lug	-11.9659
▁lifeform	-11.9659
endi	-11.9659
▁omen	-11.9659
hive	-11.9659
▁tito	-11.9659
▁prose	-11.9659
▁mooney	-11.966
▁fiancee	-11.966
▁negotiation	-11.966
▁fiend	-11.966
▁postage	-11.966
▁decree	-11.966
venue	-11.966
▁lovable	-11.966
▁robo	-11.966
▁feud	-11.966
▁sparta	-11.9661
▁frapp	-11.9661
▁insta	-11.9661
▁celest	-11.9661
▁forcing	-11.9661
▁fern	-11.9661
▁enchanting	-11.9661
▁squint	-11.9661
hire	-11.9661
▁hoist	-11.9662
▁supportive	-11.9662
▁slacker	-11.9662
▁restroom	-11.9662
▁meier	-11.9662
▁popularity	-11.9662
▁nickel	-11.9662
▁hairdo	-11.9663
▁ninety	-11.9663
▁bever	-11.9663
▁monk	-11.9663
▁brotherinlaw	-11.9663
▁controlled	-11.9663
▁sank	-11.9663
▁millimeter	-11.9663
▁destruct	-11.9663
ighter	-11.9663
▁flankers	-11.9663
▁twofive	-11.9664
▁sig	-11.9664
▁reins	-11.9664
▁sympathy	-11.9664
▁buggy	-11.9664
▁campus	-11.9664
▁idol	-11.9665
▁flush	-11.9665
▁oilers	-11.9665
asic	-11.9665
▁actua	-11.9665
orthodox	-11.9665
▁flynn	-11.9666
▁hallow	-11.9666
▁acquired	-11.9666
▁stranded	-11.9666
▁frenchman	-11.9666
▁instructed	-11.9666
▁punished	-11.9666
▁aggressive	-11.9666
▁vulnerable	-11.9666
▁bench	-11.9667
ryb	-11.9667
▁surre	-11.9667
▁lazy	-11.9667
▁rex	-11.9667
▁constructed	-11.9668
▁footage	-11.9668
▁figurin	-11.9669
▁layton	-11.9669
▁respectfully	-11.9669
▁bach	-11.9669
holy	-11.9669
▁xk	-11.9669
▁begged	-11.967
cery	-11.967
▁kum	-11.967
▁experimental	-11.9671
▁startled	-11.9671
▁outla	-11.9671
▁feli	-11.9672
▁stabb	-11.9672
▁hanker	-11.9672
▁fiance	-11.9672
bia	-11.9673
▁composer	-11.9673
▁phony	-11.9673
▁possesses	-11.9673
▁shithead	-11.9673
lting	-11.9674
▁jot	-11.9674
▁indoor	-11.9674
▁scorn	-11.9675
▁concluded	-11.9675
▁deevolved	-11.9675
▁harshly	-11.9675
▁tel	-11.9675
▁popped	-11.9675
▁sputtering	-11.9675
▁dashing	-11.9675
▁hijacking	-11.9675
▁avenged	-11.9675
▁premiere	-11.9676
▁policemen	-11.9676
▁bluffing	-11.9676
▁karate	-11.9676
▁heroine	-11.9676
▁tangle	-11.9676
▁erased	-11.9677
▁wither	-11.9677
▁respectful	-11.9677
▁highland	-11.9677
▁exc	-11.9678
▁thorn	-11.9678
▁lighthouse	-11.9678
▁tina	-11.9679
homor	-11.9679
▁hallucinated	-11.9679
▁northwest	-11.9679
▁curly	-11.9679
▁disintegrated	-11.9679
▁disrupted	-11.9679
▁registered	-11.9679
▁squashed	-11.9679
▁fulfilled	-11.9679
▁inches	-11.9679
▁recipe	-11.9679
▁brady	-11.9679
▁blad	-11.9679
▁exploring	-11.9679
▁daw	-11.968
▁lathe	-11.968
arctic	-11.968
▁vol	-11.968
▁sanders	-11.968
▁personality	-11.9681
▁signora	-11.9681
▁chun	-11.9681
▁flipping	-11.9681
▁breakdown	-11.9682
▁tray	-11.9682
▁brighton	-11.9682
▁obliged	-11.9682
▁duch	-11.9682
▁shallow	-11.9682
▁pursued	-11.9683
▁windup	-11.9684
▁quitter	-11.9684
▁tucker	-11.9684
▁dingo	-11.9684
▁hardship	-11.9684
▁cray	-11.9684
product	-11.9684
▁veins	-11.9685
▁gnomes	-11.9685
▁greeks	-11.9685
▁libyans	-11.9685
▁statistics	-11.9685
▁vacanc	-11.9685
▁sweepstakes	-11.9685
▁wrinkles	-11.9685
▁peasants	-11.9685
▁killem	-11.9685
▁dumbest	-11.9685
igible	-11.9685
▁phenomenal	-11.9686
▁published	-11.9686
▁magnifi	-11.9688
▁jive	-11.9688
ordi	-11.9689
▁judgement	-11.969
▁shanghaied	-11.9692
▁sharpened	-11.9692
▁fiive	-11.9692
▁tailor	-11.9692
▁blending	-11.9692
issa	-11.9692
▁its	-11.9692
▁mustard	-11.9692
▁spicy	-11.9693
▁brid	-11.9694
▁crazie	-11.9694
▁stammering	-11.9695
▁sandwiches	-11.9696
▁upload	-11.9697
▁hoop	-11.9699
▁geniuses	-11.9699
▁fatherinlaw	-11.9699
▁improved	-11.9699
▁oppress	-11.97
▁pussy	-11.97
▁crafty	-11.97
▁menu	-11.97
▁ahem	-11.9701
▁thicker	-11.9701
▁alexi	-11.9702
▁monstro	-11.9702
▁simpleton	-11.9702
▁munch	-11.9704
▁weakened	-11.9704
▁conquered	-11.9704
▁marrie	-11.9705
▁dispar	-11.9706
▁bigfoot	-11.9706
▁dose	-11.9706
▁cheaper	-11.9706
▁disarm	-11.9706
▁gable	-11.9706
▁whereve	-11.9707
▁bandi	-11.9707
essie	-11.9707
▁deem	-11.9708
bri	-11.9708
▁disc	-11.9708
▁blaze	-11.9709
oodle	-11.9709
▁raine	-11.971
erical	-11.9711
▁transfus	-11.9712
▁seethrough	-11.9713
▁deflecting	-11.9714
▁astonishing	-11.9714
▁abu	-11.9714
▁clumping	-11.9714
shop	-11.9715
fried	-11.9716
ration	-11.9716
▁twoface	-11.9717
▁jc	-11.9717
▁bitches	-11.9718
▁berry	-11.9719
tasoka	-11.9719
▁wolfie	-11.9719
▁manpower	-11.9719
▁ident	-11.972
▁petitioner	-11.9722
▁dane	-11.9722
▁accused	-11.9724
▁wiped	-11.9724
▁cuz	-11.9726
affe	-11.9728
▁stoke	-11.9728
building	-11.9728
▁polar	-11.9728
▁cling	-11.9729
▁markl	-11.9732
▁frosting	-11.9733
▁departing	-11.9733
▁ugli	-11.9734
▁cory	-11.9735
▁celebrated	-11.9735
▁workingman	-11.9736
▁ech	-11.9737
▁toughest	-11.9739
▁hacked	-11.9741
ional	-11.9742
▁predator	-11.9742
▁handout	-11.9743
fect	-11.9744
gestion	-11.9744
ria	-11.9746
▁goodall	-11.9746
▁unan	-11.9747
▁cryin	-11.9747
▁ratings	-11.9751
▁brass	-11.9751
▁tolls	-11.9752
▁permanently	-11.9752
▁expires	-11.9752
▁relics	-11.9752
▁accomplices	-11.9752
▁ashtrays	-11.9752
▁chimichangas	-11.9752
▁eskimos	-11.9752
▁fergals	-11.9752
▁valves	-11.9752
▁candies	-11.9752
gon	-11.9752
▁bandits	-11.9754
▁pointless	-11.9755
▁backpack	-11.9756
▁sewers	-11.9757
▁tart	-11.9757
▁foolin	-11.9757
▁admirers	-11.9759
serv	-11.9759
icle	-11.976
▁pushin	-11.9761
▁kin	-11.9762
▁developing	-11.9762
▁esta	-11.9762
▁deserter	-11.9764
▁anth	-11.9765
▁upsta	-11.9767
wind	-11.9768
▁declared	-11.9768
▁smuggler	-11.9768
▁trigg	-11.977
left	-11.977
axis	-11.9772
▁stacking	-11.9773
▁sweetest	-11.9774
scot	-11.9775
▁pleas	-11.9779
▁wearin	-11.9782
▁aimed	-11.9782
niko	-11.9782
pierre	-11.9784
▁cope	-11.9784
▁tenant	-11.9784
▁gene	-11.9785
▁pickers	-11.9786
▁pest	-11.9786
▁damp	-11.9786
▁radiat	-11.9788
▁jest	-11.9788
winds	-11.9788
▁beeper	-11.9793
▁rewarded	-11.9795
▁possessed	-11.9795
▁muffle	-11.9796
▁churches	-11.9797
aka	-11.9798
▁chaf	-11.9799
▁collector	-11.9806
▁gent	-11.9807
▁contractor	-11.9807
▁rotor	-11.9808
▁recruited	-11.9808
▁disturbed	-11.9808
▁peeler	-11.981
racks	-11.9811
▁blissful	-11.9812
▁lana	-11.9813
light	-11.9815
all	-11.9816
▁parch	-11.9816
gis	-11.9816
▁delayed	-11.9817
▁followers	-11.9818
iety	-11.982
▁acres	-11.9821
▁muggles	-11.9821
▁particles	-11.9821
▁cowboys	-11.9821
▁ellingboes	-11.9821
▁narcotics	-11.9821
▁ornaments	-11.9821
▁romanovs	-11.9821
▁sprinkles	-11.9821
▁remarks	-11.9821
▁donations	-11.9821
▁regions	-11.9821
▁sustains	-11.9821
▁gamblers	-11.9822
▁interrupted	-11.9822
▁sane	-11.9823
▁initials	-11.9823
▁prunes	-11.9824
ature	-11.9829
▁bursting	-11.983
▁mite	-11.9835
▁brighter	-11.984
ache	-11.9842
▁longb	-11.9847
▁seperate	-11.9847
▁jerky	-11.9849
▁sanitar	-11.985
▁irre	-11.985
▁yum	-11.9851
▁smoked	-11.9856
▁runts	-11.9863
▁deceive	-11.9871
▁contra	-11.9872
▁careless	-11.9877
▁compress	-11.9878
▁cutest	-11.9884
▁provider	-11.9885
▁redo	-11.9885
▁swam	-11.9887
▁arty	-11.9888
▁vows	-11.989
▁drips	-11.9891
▁expenses	-11.9891
▁hairdressers	-11.9891
▁pharaohs	-11.9891
▁diapers	-11.9891
▁tokens	-11.9891
▁skeletons	-11.9891
▁moths	-11.9891
▁currents	-11.9891
▁rifles	-11.9892
▁trus	-11.9893
▁tribes	-11.9894
ueste	-11.9894
▁frisk	-11.9895
▁dung	-11.9897
▁honoured	-11.99
▁defended	-11.9901
rdles	-11.9905
▁hath	-11.9905
▁happenin	-11.9907
▁disappearing	-11.9909
▁interrupting	-11.9909
▁ju	-11.9909
rick	-11.9911
▁zane	-11.9915
own	-11.9916
▁cen	-11.9919
▁minim	-11.9921
▁costas	-11.9922
▁wildly	-11.9927
fields	-11.9928
▁aero	-11.9928
▁sal	-11.9929
▁posters	-11.993
▁printing	-11.9931
▁pumping	-11.9931
▁flanking	-11.9932
▁pobr	-11.9932
▁mace	-11.9938
▁blindly	-11.994
▁sniffl	-11.994
▁swor	-11.9941
▁aspir	-11.9952
▁blend	-11.9953
ished	-11.9954
▁cand	-11.9957
eavesdropper	-11.996
▁hollows	-11.9961
▁snickers	-11.9961
▁airlines	-11.9961
▁muscles	-11.9961
▁tourists	-11.9964
alami	-11.9964
▁martyr	-11.9966
▁albus	-11.9967
▁diplomat	-11.9972
▁lifted	-11.9973
wright	-11.9976
dang	-11.9977
moi	-11.9979
▁halfa	-11.999
▁chico	-11.9991
▁suitor	-11.9993
▁sensibl	-11.9994
▁calibr	-11.9994
sized	-11.9996
▁cann	-11.9997
▁goble	-11.9997
▁uno	-11.9999
▁sued	-12.0003
hroughou	-12.0003
▁oi	-12.0003
▁ador	-12.001
ets	-12.0011
▁archer	-12.0015
▁jer	-12.0024
ttered	-12.0026
fly	-12.0028
▁rejects	-12.003
▁struggles	-12.0031
▁colours	-12.0032
▁items	-12.0032
▁comrades	-12.0032
▁ellens	-12.0032
▁focused	-12.0033
▁freaked	-12.0034
▁badges	-12.0034
tering	-12.0034
▁dolly	-12.0042
▁hater	-12.0043
▁asses	-12.0046
llis	-12.0048
zier	-12.0051
▁pant	-12.0052
rit	-12.0052
sauro	-12.0054
▁bots	-12.0054
omic	-12.0056
▁imper	-12.0058
▁impost	-12.006
▁deduce	-12.0066
▁reminded	-12.0071
▁eatin	-12.0071
▁travelers	-12.0078
▁som	-12.0081
ith	-12.0081
▁listed	-12.0086
▁incan	-12.0087
eering	-12.009
pping	-12.0091
▁nois	-12.0096
▁oversize	-12.0098
▁sca	-12.01
▁axes	-12.0102
▁stamps	-12.0103
▁gizzards	-12.0103
▁pellets	-12.0103
▁improvements	-12.0104
▁elitis	-12.0104
▁foreigner	-12.0104
▁rul	-12.0109
▁stitch	-12.0112
▁needle	-12.0112
▁gen	-12.0114
▁quot	-12.0118
▁vines	-12.0119
▁thinkyou	-12.0122
▁sm	-12.0123
mingly	-12.0138
bian	-12.014
ggle	-12.014
▁stoned	-12.0143
▁triumphs	-12.0152
▁mars	-12.0152
▁sweeter	-12.0155
▁ske	-12.0156
▁galla	-12.0158
chanting	-12.0158
▁ops	-12.0166
▁puzzles	-12.0169
▁rushed	-12.0171
▁pushy	-12.0171
▁rolled	-12.0171
▁amis	-12.0174
▁shades	-12.0175
▁winslows	-12.0175
▁punishments	-12.0175
▁photographs	-12.0176
▁imitate	-12.0177
mbus	-12.0181
▁communicates	-12.0181
▁peaches	-12.0184
▁ano	-12.0186
▁sweaters	-12.019
▁cornered	-12.0193
sten	-12.0229
▁uhh	-12.0233
▁clan	-12.0235
ouch	-12.0238
▁apples	-12.0247
▁cultures	-12.0248
▁measures	-12.0249
▁glows	-12.025
▁rely	-12.0257
▁inde	-12.0258
▁deficien	-12.0272
▁pods	-12.0274
ep	-12.0284
▁queer	-12.0287
▁gri	-12.0288
▁korea	-12.0291
sake	-12.0292
▁fees	-12.0296
tation	-12.0298
marco	-12.0302
▁handled	-12.0313
▁vie	-12.0315
tingly	-12.0318
▁magazines	-12.0321
▁flames	-12.0321
any	-12.0324
▁toying	-12.0339
▁axl	-12.034
▁charger	-12.0356
ider	-12.036
▁my	-12.0364
inny	-12.0372
▁retrac	-12.0374
part	-12.0379
▁linger	-12.0384
▁joints	-12.0386
▁cables	-12.0394
▁stuarts	-12.0394
▁errors	-12.0395
▁includes	-12.0395
▁preachers	-12.0399
▁pulses	-12.0407
mmed	-12.0417
▁rais	-12.0421
▁spelling	-12.0422
afoot	-12.0427
▁listenin	-12.0427
▁praying	-12.0435
▁restor	-12.0438
used	-12.044
▁visited	-12.0442
▁blob	-12.0442
▁layer	-12.0456
nounce	-12.0466
▁plots	-12.0467
▁ofrendas	-12.0468
diana	-12.0481
liding	-12.0483
▁deer	-12.0487
▁sooo	-12.0492
etch	-12.0493
▁allowing	-12.0493
dan	-12.0502
▁porc	-12.0513
▁rott	-12.0515
▁feared	-12.0517
▁fors	-12.0521
▁tons	-12.0527
still	-12.0531
▁litera	-12.0532
▁ohhhh	-12.0539
▁beaks	-12.0542
▁tasks	-12.0542
▁sentences	-12.0543
▁regards	-12.0546
▁childish	-12.0561
▁drumm	-12.0563
▁fooled	-12.057
five	-12.057
unk	-12.0579
▁cra	-12.0584
▁pans	-12.0593
lander	-12.0597
▁avon	-12.06
named	-12.0602
▁amp	-12.0606
▁morons	-12.0607
▁keepers	-12.0616
▁warriors	-12.0617
▁makers	-12.063
▁seeking	-12.0633
▁rum	-12.0634
▁pots	-12.0638
▁stared	-12.0638
▁hips	-12.0647
exp	-12.0689
▁nieces	-12.0693
▁transports	-12.0696
▁prints	-12.0696
▁pumps	-12.0697
▁juanit	-12.0698
ute	-12.07
cc	-12.0702
▁painter	-12.0709
come	-12.0716
▁illness	-12.0718
latinum	-12.0726
utility	-12.0731
yd	-12.074
stained	-12.0766
▁fancies	-12.0777
▁synchronize	-12.0777
▁expects	-12.078
mediately	-12.0793
▁explaining	-12.0794
cat	-12.0808
huah	-12.0811
▁iso	-12.0816
after	-12.0839
▁projects	-12.0846
skater	-12.0847
▁functions	-12.0848
▁denie	-12.0862
▁haz	-12.0875
▁criticis	-12.0877
mens	-12.0877
▁ump	-12.0891
acious	-12.09
ue	-12.0905
arse	-12.0918
▁respected	-12.0921
▁exits	-12.0922
▁images	-12.0928
▁marra	-12.0931
▁refu	-12.0937
▁transfers	-12.0945
arian	-12.0956
election	-12.096
pul	-12.0974
▁noses	-12.098
▁mont	-12.0985
▁stun	-12.0995
▁flapp	-12.0999
▁valleys	-12.0999
▁assignments	-12.0999
▁zig	-12.0999
zul	-12.1002
▁brides	-12.1007
▁questioned	-12.1009
▁pens	-12.1018
▁spoils	-12.1029
▁agitat	-12.1031
claim	-12.1038
rega	-12.104
▁select	-12.1045
▁vacations	-12.1077
▁winters	-12.1077
lessly	-12.1085
ague	-12.1091
▁chan	-12.1102
▁petro	-12.1115
sucking	-12.1144
laine	-12.115
▁treasures	-12.1156
▁chops	-12.1156
▁stomachs	-12.1156
▁usc	-12.1161
▁rightful	-12.1184
▁sillie	-12.119
gans	-12.1196
xha	-12.1212
▁spo	-12.1218
▁harmoni	-12.123
▁seasons	-12.1233
dar	-12.1293
▁scramble	-12.1297
▁savings	-12.1314
▁estates	-12.1315
▁germans	-12.1318
▁settles	-12.1321
▁reinforce	-12.1323
▁reconcile	-12.1328
▁plank	-12.1332
asse	-12.1344
its	-12.1349
tric	-12.135
aste	-12.1377
▁subjects	-12.1395
▁fridays	-12.1395
▁kinder	-12.1412
▁trades	-12.1415
ient	-12.144
oon	-12.1453
▁perri	-12.1454
cis	-12.1459
▁risks	-12.1484
▁carrie	-12.1514
▁mai	-12.1534
argeant	-12.1548
▁alb	-12.155
▁invites	-12.1563
tan	-12.1567
anned	-12.1567
▁tellin	-12.1577
▁exp	-12.1578
▁overlap	-12.1603
oth	-12.1618
china	-12.1633
▁knightleys	-12.1638
▁nos	-12.1639
▁avenge	-12.1645
▁gram	-12.165
▁viewer	-12.1654
position	-12.1656
▁span	-12.166
astic	-12.1681
▁swindle	-12.1691
lit	-12.1699
roni	-12.1711
movief	-12.1719
▁governments	-12.1721
▁damages	-12.1728
▁nations	-12.1732
hit	-12.1752
mox	-12.1765
▁wanton	-12.1771
▁redhead	-12.1776
▁penetrat	-12.1796
▁survives	-12.181
urn	-12.1811
▁questioning	-12.1843
▁preserve	-12.1857
▁sticker	-12.1876
▁distribut	-12.19
▁murders	-12.1904
lar	-12.1919
mortality	-12.1944
▁fails	-12.1963
hopping	-12.2011
▁nico	-12.2014
▁heartbreak	-12.2024
▁sip	-12.2044
▁careers	-12.2051
▁hali	-12.2058
▁needles	-12.2072
ckle	-12.2072
atit	-12.2077
▁lib	-12.2086
▁verm	-12.2089
▁views	-12.2099
ko	-12.2114
▁isl	-12.2123
▁montr	-12.2139
▁yu	-12.2149
▁digs	-12.2152
▁jud	-12.2172
umble	-12.2193
▁mee	-12.2217
store	-12.2223
▁brainwa	-12.2232
ctors	-12.2235
gi	-12.2259
hle	-12.2279
fi	-12.2293
lot	-12.2307
▁fucks	-12.2334
▁mun	-12.2362
hur	-12.2394
nking	-12.2405
arl	-12.2407
ura	-12.2407
▁hiss	-12.2415
▁ref	-12.2428
ofter	-12.2446
eating	-12.246
▁exo	-12.2526
▁ou	-12.2528
cio	-12.2544
▁popp	-12.2547
▁bel	-12.2612
rich	-12.2623
cant	-12.2627
wan	-12.2654
▁prefa	-12.2655
dding	-12.2664
▁utili	-12.268
acc	-12.269
▁tun	-12.27
▁agitate	-12.2724
▁hemi	-12.2732
tat	-12.2735
bs	-12.278
gia	-12.2801
▁journal	-12.2825
▁fusil	-12.2847
iled	-12.2854
ole	-12.2862
▁hal	-12.2875
itches	-12.2879
▁flipp	-12.2887
▁az	-12.29
iel	-12.2913
bru	-12.2916
▁prior	-12.2917
▁cli	-12.2918
inity	-12.2927
▁defi	-12.2929
ori	-12.2953
omagn	-12.297
▁complet	-12.2972
▁fiddl	-12.2979
nning	-12.2988
lacking	-12.3003
eth	-12.3028
▁fanci	-12.3033
uc	-12.3044
▁tai	-12.3046
▁explor	-12.3048
▁gra	-12.3057
▁sling	-12.3073
six	-12.3074
▁stimulate	-12.3093
ras	-12.3115
pity	-12.3122
why	-12.3144
roid	-12.315
▁fon	-12.3159
ger	-12.3167
wanda	-12.3184
▁distribute	-12.3184
▁kang	-12.3196
mes	-12.3202
▁faker	-12.3216
▁ego	-12.3223
▁masse	-12.324
▁indo	-12.3253
▁ampl	-12.3261
mmm	-12.3292
▁invalid	-12.3303
▁enslav	-12.3316
illo	-12.3325
anda	-12.3335
▁unf	-12.3342
▁meta	-12.3342
▁seein	-12.3362
▁sled	-12.3398
rough	-12.343
rated	-12.343
run	-12.3432
ttery	-12.3451
▁reduc	-12.347
▁rac	-12.3487
illi	-12.3492
▁solv	-12.3494
armed	-12.3499
▁vibra	-12.352
▁cooper	-12.3524
ust	-12.3536
wn	-12.355
▁sav	-12.3562
loving	-12.3568
assed	-12.3576
▁lum	-12.3591
q	-12.3616
harley	-12.3619
rance	-12.3636
▁admir	-12.3637
▁dub	-12.3651
▁spl	-12.3664
▁tou	-12.3681
▁consum	-12.3682
▁hagg	-12.3688
▁feu	-12.369
sonne	-12.369
choo	-12.3699
aire	-12.3717
▁wooo	-12.3736
▁batar	-12.3736
attended	-12.3741
pho	-12.3745
avi	-12.3746
eller	-12.3769
late	-12.3791
▁pier	-12.3809
▁dim	-12.382
uf	-12.3839
▁scor	-12.3843
range	-12.3856
rem	-12.3861
inner	-12.3864
ease	-12.3889
▁needa	-12.3894
cro	-12.39
skell	-12.3901
uh	-12.3909
qualify	-12.3928
▁ec	-12.3928
ptop	-12.3941
▁infiltrat	-12.3944
▁guid	-12.3956
▁horr	-12.3971
▁oldie	-12.3974
roll	-12.3976
▁peni	-12.3984
▁basin	-12.3996
trum	-12.4007
erge	-12.4013
▁sobe	-12.4015
ument	-12.4038
aria	-12.4043
▁marc	-12.4046
vel	-12.405
tons	-12.4056
hey	-12.4061
▁sham	-12.4062
▁winn	-12.4071
vers	-12.4082
craz	-12.4087
▁initiat	-12.4094
ately	-12.4095
▁continu	-12.4096
upper	-12.4106
not	-12.4107
▁rig	-12.4117
ofa	-12.4132
▁burb	-12.4136
xa	-12.4169
rge	-12.4175
arity	-12.4191
ante	-12.4198
▁multi	-12.4212
▁shin	-12.4216
▁tru	-12.4234
shes	-12.4241
▁glim	-12.4242
rray	-12.4249
tinct	-12.4262
▁skid	-12.4265
▁scal	-12.4271
dale	-12.4275
▁sancti	-12.4278
agh	-12.4291
▁arman	-12.4291
▁biz	-12.4294
▁raisin	-12.4297
metric	-12.4302
perated	-12.4313
oir	-12.4319
▁brav	-12.4328
card	-12.4333
edict	-12.4337
too	-12.4342
▁sadde	-12.4351
class	-12.4352
port	-12.4353
▁debri	-12.4358
waiting	-12.4361
iance	-12.4366
inds	-12.437
link	-12.437
hu	-12.4381
owner	-12.4386
ales	-12.4389
▁kidnap	-12.4394
▁silli	-12.44
assy	-12.4403
▁exten	-12.4408
▁bluff	-12.4412
ticks	-12.4414
under	-12.4417
▁unbe	-12.4424
rky	-12.4433
hok	-12.4435
▁sanit	-12.444
▁barrac	-12.4445
hhh	-12.4449
▁snarl	-12.4456
goes	-12.4459
▁corpu	-12.4459
▁jama	-12.4459
▁artifact	-12.4459
▁athletic	-12.4459
▁bartender	-12.4459
▁schematic	-12.4459
▁waffle	-12.4459
▁mushroom	-12.4459
▁disorder	-12.4461
▁cough	-12.4461
▁cupcake	-12.4461
▁coupon	-12.4461
▁banana	-12.4462
ckers	-12.4463
▁integr	-12.4465
mus	-12.4466
▁vibe	-12.4466
dling	-12.4467
▁border	-12.4467
▁pol	-12.4468
▁meatball	-12.4469
▁jug	-12.4469
drop	-12.4472
ddling	-12.4473
▁accomplice	-12.4476
▁ashtray	-12.4476
▁chimichanga	-12.4476
▁eskimo	-12.4476
▁fergal	-12.4476
▁expire	-12.4477
▁digit	-12.4478
▁coyote	-12.4484
▁gymnastic	-12.4484
▁vitamin	-12.4484
▁kitten	-12.4484
▁relic	-12.4484
rdy	-12.4486
▁gallo	-12.4488
▁belief	-12.4488
▁catapult	-12.4488
▁implie	-12.4489
▁valve	-12.4494
▁allen	-12.4494
▁mystic	-12.4496
▁flaw	-12.4496
nching	-12.4497
▁inhale	-12.4499
▁yelp	-12.4499
▁giggle	-12.4502
rine	-12.4503
▁instruction	-12.4503
▁meek	-12.4503
itable	-12.4504
▁villa	-12.4504
▁bandit	-12.4504
▁runaway	-12.4506
▁untr	-12.4511
▁tyran	-12.4512
▁medic	-12.4514
▁sewer	-12.4514
cola	-12.4517
▁sass	-12.4517
▁rag	-12.4518
▁toll	-12.4518
pez	-12.4519
▁arrangement	-12.4519
▁coro	-12.4522
▁declar	-12.4524
grams	-12.4529
▁gener	-12.4532
▁determin	-12.4533
▁correction	-12.4534
▁mutter	-12.4536
ductive	-12.4537
lap	-12.4538
wald	-12.4539
trenche	-12.4539
eeze	-12.4541
▁evolv	-12.4541
▁dwel	-12.4542
datory	-12.4543
▁bean	-12.4544
▁admirer	-12.4544
▁chich	-12.4545
fight	-12.4554
▁achiev	-12.4554
mares	-12.4557
iti	-12.4558
▁inmediat	-12.4564
▁zap	-12.4567
▁stir	-12.4572
▁refer	-12.4572
build	-12.4572
ccio	-12.4573
▁exhaust	-12.4573
ibly	-12.4574
changed	-12.4575
▁describ	-12.4577
▁curs	-12.4577
mati	-12.4579
past	-12.4579
sibility	-12.458
▁peg	-12.4582
▁phenomena	-12.4582
▁mummif	-12.4584
▁vaca	-12.4584
▁associat	-12.4584
▁fenc	-12.4584
▁offens	-12.4585
▁recogniz	-12.4588
▁apprentic	-12.4591
▁requir	-12.4591
▁draco	-12.4591
▁hypnoti	-12.4592
▁execution	-12.4593
ken	-12.4594
ifies	-12.4595
▁cycl	-12.4595
umber	-12.4595
▁oppos	-12.4596
▁demoli	-12.4597
▁instruct	-12.4599
▁celebrat	-12.4599
▁hijack	-12.4599
▁disintegrat	-12.46
dres	-12.4601
[...]
