<unk>	0
<s>	0
</s>	0
s	-3.99476
▁im	-4.35647
▁dont	-4.40369
▁know	-4.47409
▁get	-4.64899
▁right	-4.74699
▁like	-4.77872
▁go	-4.80443
▁yeah	-4.80901
▁got	-4.82495
▁youre	-4.9179
▁come	-5.01896
▁na	-5.05889
▁oh	-5.06415
▁thats	-5.0863
▁want	-5.13058
▁one	-5.13354
▁okay	-5.1757
▁well	-5.19667
▁think	-5.25778
▁gon	-5.26281
▁good	-5.30244
▁see	-5.37894
▁man	-5.42882
ing	-5.49588
▁look	-5.50705
▁hey	-5.53557
▁time	-5.54475
▁back	-5.56076
▁ill	-5.61944
▁yes	-5.62507
▁take	-5.62783
▁hes	-5.64215
▁going	-5.65398
▁us	-5.66768
▁fuck	-5.67657
ed	-5.73257
▁need	-5.74686
▁cant	-5.75355
▁fucking	-5.75581
▁tell	-5.7819
▁would	-5.81367
▁shit	-5.82118
▁say	-5.82877
▁really	-5.86497
▁could	-5.87398
▁didnt	-5.88836
▁something	-5.92727
▁make	-5.93271
▁way	-5.94855
▁lets	-5.97205
▁mean	-5.98409
▁people	-5.99598
▁sorry	-5.9969
▁please	-6.01442
▁love	-6.01776
▁god	-6.02148
▁let	-6.03477
▁little	-6.03652
▁thank	-6.06151
▁two	-6.07078
▁whats	-6.07108
▁ive	-6.08897
▁theres	-6.09915
▁give	-6.16164
▁never	-6.17453
▁said	-6.19123
d	-6.22246
▁uh	-6.24272
▁help	-6.26057
▁call	-6.27106
▁much	-6.27676
▁thing	-6.29535
▁	-6.31991
▁l	-6.32661
▁guys	-6.34156
▁sure	-6.35698
▁shes	-6.3774
▁even	-6.38444
▁theyre	-6.38654
▁maybe	-6.41844
▁mr	-6.43636
▁anything	-6.43982
▁first	-6.44705
▁stop	-6.45265
▁put	-6.4557
▁talk	-6.46102
▁wait	-6.46921
▁money	-6.48247
▁find	-6.49651
▁great	-6.49878
▁work	-6.49947
▁day	-6.49958
▁sir	-6.51584
▁life	-6.51903
▁night	-6.52342
y	-6.52729
▁ever	-6.53033
▁nothing	-6.53811
▁home	-6.57514
▁away	-6.57698
▁new	-6.5855
▁hell	-6.60757
▁still	-6.61193
▁around	-6.61226
▁guy	-6.63599
▁long	-6.64436
▁years	-6.6458
▁keep	-6.65547
▁stay	-6.66475
▁everything	-6.67428
▁thought	-6.67454
ly	-6.67648
▁three	-6.67762
▁nice	-6.68145
▁last	-6.68326
▁leave	-6.71029
▁name	-6.71208
▁car	-6.71874
▁feel	-6.72071
▁listen	-6.72446
▁told	-6.73207
▁place	-6.73533
▁kill	-6.73868
▁id	-6.73941
▁fine	-6.7574
▁things	-6.7584
▁better	-6.76543
▁ta	-6.76987
▁lot	-6.77028
▁always	-6.77542
▁house	-6.77993
▁doesnt	-6.78148
▁wont	-6.8061
▁coming	-6.81245
▁move	-6.81553
▁made	-6.8167
▁hello	-6.81927
▁wan	-6.82409
▁done	-6.8335
▁kind	-6.8442
▁girl	-6.8456
▁big	-6.84615
▁old	-6.84977
▁remember	-6.85167
▁youve	-6.85287
▁hi	-6.85397
▁talking	-6.86335
▁mom	-6.86364
▁father	-6.87921
▁bad	-6.89609
▁baby	-6.91342
▁hear	-6.91933
▁youll	-6.92039
e	-6.92841
▁dead	-6.93911
▁wrong	-6.94394
▁happened	-6.94553
er	-6.94642
▁boy	-6.95
▁every	-6.95084
▁believe	-6.95396
▁next	-6.97052
▁must	-6.97257
▁left	-6.97297
▁understand	-6.97611
▁dad	-6.9977
▁wanted	-7.00116
▁son	-7.00494
▁ok	-7.01047
▁morning	-7.02073
▁aint	-7.02329
▁huh	-7.03109
▁hold	-7.03479
▁today	-7.03628
▁isnt	-7.0389
▁enough	-7.04415
▁door	-7.0499
▁ask	-7.05738
▁world	-7.06012
▁thanks	-7.06078
▁try	-7.06613
▁real	-7.0667
▁getting	-7.07478
▁else	-7.07901
▁looking	-7.07966
▁came	-7.08134
▁room	-7.08575
▁woman	-7.09434
▁might	-7.10638
▁um	-7.11053
▁another	-7.12365
▁care	-7.12818
▁start	-7.13024
▁together	-7.13512
▁open	-7.14456
▁someone	-7.15216
▁wasnt	-7.15259
▁mother	-7.1551
▁trying	-7.16004
▁live	-7.16185
▁friend	-7.17805
▁course	-7.17939
▁whole	-7.18241
▁john	-7.18758
▁head	-7.18994
▁play	-7.19243
▁best	-7.21321
▁show	-7.21394
▁job	-7.22338
▁cause	-7.22362
▁ass	-7.23848
▁run	-7.23934
▁wife	-7.24286
▁took	-7.24484
▁killed	-7.2502
▁tonight	-7.25453
▁mind	-7.25717
▁may	-7.26755
▁men	-7.27079
▁saying	-7.2717
▁weve	-7.27425
▁phone	-7.27625
▁many	-7.28019
▁used	-7.28236
▁went	-7.28425
▁die	-7.29846
▁guess	-7.30359
▁jesus	-7.30797
▁called	-7.31023
▁jack	-7.31053
▁gun	-7.31058
▁days	-7.3176
▁use	-7.32109
a	-7.32728
▁actually	-7.3324
▁nobody	-7.3358
▁bitch	-7.34608
▁ready	-7.34749
▁hard	-7.34825
▁heard	-7.34949
▁family	-7.35
in	-7.35324
▁meet	-7.35667
▁saw	-7.35727
▁kids	-7.3603
▁four	-7.36075
▁pretty	-7.3608
▁un	-7.3612
▁bit	-7.36302
▁game	-7.3684
▁seen	-7.36856
▁wouldnt	-7.37211
▁found	-7.37506
▁damn	-7.37565
▁without	-7.38274
▁goddamn	-7.38277
▁knew	-7.38644
▁five	-7.38965
▁everybody	-7.39068
▁watch	-7.39397
t	-7.39964
▁miss	-7.40397
▁idea	-7.40552
▁friends	-7.40893
▁school	-7.4097
▁inside	-7.41284
▁whos	-7.41308
▁second	-7.41374
▁excuse	-7.42425
▁check	-7.42451
▁em	-7.43195
▁youd	-7.43595
▁hit	-7.43789
▁problem	-7.44127
▁sit	-7.4514
▁face	-7.4535
r	-7.45845
▁turn	-7.47441
▁couldnt	-7.47607
▁shut	-7.48274
▁alone	-7.4838
▁somebody	-7.48609
▁pay	-7.49007
▁already	-7.50029
▁ago	-7.5004
▁drink	-7.50297
▁probably	-7.51708
▁minute	-7.52455
▁bring	-7.52549
▁easy	-7.52995
▁couple	-7.53412
▁gone	-7.53663
▁police	-7.53792
▁beautiful	-7.53843
▁tomorrow	-7.5471
▁whoa	-7.54716
n	-7.54825
▁hand	-7.55426
▁dog	-7.56192
▁hurt	-7.56456
▁stuff	-7.56563
▁lost	-7.5692
▁end	-7.57034
▁boys	-7.57147
▁eyes	-7.5717
▁crazy	-7.57363
o	-7.57511
▁ah	-7.58401
▁matter	-7.58726
▁water	-7.59153
▁part	-7.5945
▁heart	-7.59527
▁whatever	-7.59622
▁honey	-7.59623
▁fire	-7.60811
▁thinking	-7.61125
▁walk	-7.61177
▁point	-7.61541
▁kid	-7.62008
▁says	-7.62386
▁worry	-7.62454
▁later	-7.62468
▁deal	-7.62666
▁close	-7.6286
▁anyone	-7.63352
▁set	-7.6341
▁late	-7.63674
▁hope	-7.63927
▁hands	-7.64359
▁cool	-7.65148
▁music	-7.65261
▁happen	-7.65471
▁shot	-7.6589
▁wheres	-7.66575
▁case	-7.66731
▁read	-7.67171
▁number	-7.67395
al	-7.67971
▁eat	-7.68277
▁week	-7.68919
es	-7.6894
▁taking	-7.69229
▁six	-7.69258
▁playing	-7.69396
▁minutes	-7.69849
▁everyone	-7.69946
▁havent	-7.70234
▁girls	-7.70412
▁since	-7.70727
▁yet	-7.70745
▁gave	-7.71222
▁speaking	-7.71569
▁change	-7.71811
▁mine	-7.71893
▁far	-7.72414
▁black	-7.72801
▁looks	-7.73099
▁fun	-7.73316
▁brother	-7.73628
▁happy	-7.73864
▁bye	-7.73865
▁sighs	-7.73886
▁cut	-7.74177
▁exactly	-7.74933
▁soon	-7.75363
▁anyway	-7.75458
▁true	-7.76009
▁supposed	-7.7607
▁fight	-7.77347
▁motherfucker	-7.78011
▁year	-7.78029
▁women	-7.78175
▁working	-7.79105
▁town	-7.79295
▁sleep	-7.79427
▁though	-7.79773
▁alright	-7.80404
▁forget	-7.80404
▁richard	-7.80406
▁young	-7.80871
▁half	-7.80975
▁blood	-7.81391
▁different	-7.81403
▁business	-7.81501
▁lose	-7.81547
▁hours	-7.81588
▁afraid	-7.82683
▁also	-7.82684
▁stand	-7.82739
▁pick	-7.83114
▁body	-7.83267
▁front	-7.83838
▁party	-7.84029
▁wants	-7.84202
▁million	-7.84327
▁death	-7.84428
▁rest	-7.84444
p	-7.84724
▁shoot	-7.84776
▁christ	-7.85009
▁story	-7.85016
▁funny	-7.8502
▁free	-7.85549
▁war	-7.85671
▁book	-7.8572
g	-7.85919
▁doctor	-7.86177
▁welcome	-7.86202
i	-7.8638
▁full	-7.87243
▁trust	-7.87831
▁high	-7.88972
▁outside	-7.89233
▁daughter	-7.89252
▁behind	-7.89851
▁break	-7.90081
▁hate	-7.90313
▁chuckles	-7.90581
▁chance	-7.91139
▁anymore	-7.91725
▁either	-7.92995
▁side	-7.931
▁word	-7.93108
▁asked	-7.93132
▁months	-7.93268
▁truth	-7.94263
▁line	-7.94475
▁least	-7.94931
▁arent	-7.94932
▁question	-7.95287
▁molly	-7.95587
▁drive	-7.95666
▁goes	-7.96715
▁making	-7.96907
▁started	-7.9699
▁wish	-7.97392
▁bed	-7.97826
▁makes	-7.9793
▁sick	-7.98231
▁speak	-7.98597
▁bullshit	-7.98905
▁team	-7.99082
▁trouble	-7.99548
▁jim	-7.99602
▁hot	-7.99698
▁means	-8.00033
▁serious	-8.00157
▁stupid	-8.00283
▁almost	-8.00284
▁telling	-8.00624
▁sound	-8.00893
▁york	-8.00973
▁city	-8.00981
▁person	-8.01216
▁buy	-8.01289
▁feeling	-8.01313
▁hang	-8.01857
▁times	-8.0188
▁sam	-8.02357
▁anybody	-8.02366
▁clear	-8.02444
▁safe	-8.02875
▁pull	-8.033
▁save	-8.043
l	-8.04307
▁met	-8.04426
▁special	-8.04479
c	-8.04919
▁died	-8.04993
▁news	-8.05077
▁brought	-8.05214
▁light	-8.05472
ic	-8.05772
▁catch	-8.05886
▁plan	-8.05908
▁street	-8.06293
▁control	-8.06643
▁sometimes	-8.06945
▁red	-8.0713
▁hurry	-8.07403
▁married	-8.07403
▁alive	-8.0741
▁heres	-8.07508
▁mrs	-8.07808
▁dance	-8.07866
▁touch	-8.08059
▁ahead	-8.08147
▁law	-8.08214
▁reason	-8.08522
▁daddy	-8.08546
▁fucked	-8.08744
▁radio	-8.0889
▁hows	-8.08954
▁top	-8.09165
▁michael	-8.09288
▁david	-8.09637
▁theyll	-8.09643
▁perfect	-8.10384
▁office	-8.11097
▁sweet	-8.11129
▁white	-8.11166
less	-8.11674
▁waiting	-8.11754
▁lady	-8.1195
▁send	-8.12303
▁write	-8.12458
▁th	-8.12634
▁promise	-8.13298
▁country	-8.13491
▁calling	-8.13779
m	-8.13836
▁till	-8.14248
▁ben	-8.1427
▁running	-8.1429
▁cover	-8.14355
▁report	-8.14737
ion	-8.15021
▁hair	-8.15081
man	-8.15398
en	-8.15627
▁tried	-8.1589
▁dale	-8.15891
▁billy	-8.16008
▁ii	-8.16045
▁follow	-8.16467
▁sex	-8.16532
▁clean	-8.16595
▁itll	-8.16676
▁somewhere	-8.16676
▁wow	-8.16677
▁sister	-8.17293
▁re	-8.17364
▁joel	-8.17495
▁able	-8.17622
▁g	-8.1769
▁win	-8.17702
ve	-8.17719
▁dude	-8.18101
▁moment	-8.18133
▁children	-8.18309
▁straight	-8.19068
▁ya	-8.19404
▁ten	-8.19774
▁happening	-8.19839
▁careful	-8.19886
▁leaving	-8.1997
▁none	-8.20032
▁truck	-8.20636
▁cops	-8.2072
on	-8.20754
▁wake	-8.20834
▁parents	-8.21008
▁bet	-8.21063
▁dr	-8.21561
▁j	-8.21907
▁bill	-8.22216
▁looked	-8.22268
k	-8.22381
▁sort	-8.22517
▁beat	-8.22967
▁dream	-8.2329
▁hour	-8.23311
▁answer	-8.23364
▁sign	-8.23881
▁husband	-8.24126
▁information	-8.24246
▁food	-8.24249
▁continues	-8.243
▁quite	-8.24308
▁king	-8.24562
▁order	-8.24711
▁weird	-8.24965
▁company	-8.2512
▁officer	-8.25124
▁scared	-8.25216
▁air	-8.26007
▁important	-8.26009
▁holy	-8.26078
▁screaming	-8.26085
▁fact	-8.2685
▁boss	-8.26853
▁hmm	-8.2691
▁sent	-8.26935
▁lives	-8.26981
▁laughing	-8.28079
▁ha	-8.28079
▁seven	-8.28697
▁alexander	-8.28708
▁kidding	-8.2872
▁k	-8.28957
▁sense	-8.29551
▁lie	-8.29703
▁kiss	-8.29744
▁weeks	-8.30181
▁fast	-8.30306
▁dick	-8.30542
▁agent	-8.30555
▁asshole	-8.30587
▁table	-8.30591
▁de	-8.30765
▁rock	-8.31515
▁dollars	-8.32103
▁b	-8.32201
▁ride	-8.32328
▁road	-8.32419
▁sergeant	-8.3243
▁glad	-8.32439
▁tired	-8.32441
▁quiet	-8.33253
▁cop	-8.33306
▁drunk	-8.33382
▁living	-8.33385
▁shouldnt	-8.33385
▁drop	-8.33417
▁happens	-8.33455
▁picture	-8.33522
▁hed	-8.33558
▁yo	-8.33925
▁roll	-8.33977
▁prison	-8.34221
▁luck	-8.3423
▁m	-8.34298
▁child	-8.34312
▁america	-8.34321
▁coffee	-8.34345
▁maam	-8.34345
▁comes	-8.34478
▁throw	-8.34846
▁amazing	-8.35314
▁lord	-8.35314
▁piece	-8.35443
▁record	-8.35777
▁asking	-8.35843
▁finish	-8.35969
f	-8.36114
▁taken	-8.36127
▁shall	-8.36291
▁panting	-8.36296
▁american	-8.36448
▁gets	-8.36488
▁s	-8.36515
h	-8.36812
▁needs	-8.37001
▁lawyer	-8.37454
▁pain	-8.38108
▁cia	-8.38237
▁george	-8.38285
▁song	-8.38413
▁power	-8.3846
▁fuckin	-8.38639
▁needed	-8.38791
▁sounds	-8.38908
▁step	-8.38918
▁murder	-8.39013
▁moving	-8.39297
▁plane	-8.39528
▁knows	-8.39886
▁ones	-8.39962
ers	-8.40179
▁in	-8.4026
▁buddy	-8.40316
▁names	-8.40858
▁quick	-8.41109
▁along	-8.41347
▁wed	-8.41472
▁lm	-8.41577
▁stick	-8.42308
▁captain	-8.42388
est	-8.42416
▁lucky	-8.42547
▁less	-8.42902
▁r	-8.43075
▁dinner	-8.43431
▁cold	-8.43441
▁past	-8.43472
▁pass	-8.43621
▁voice	-8.43734
▁indistinct	-8.44377
▁small	-8.4438
▁felt	-8.44504
▁gentlemen	-8.44505
▁worked	-8.44635
▁honor	-8.45566
▁phil	-8.45597
▁nine	-8.456
▁seriously	-8.45779
▁zodiac	-8.45815
▁bag	-8.4587
ies	-8.45945
▁laughs	-8.45977
▁mouth	-8.46511
▁unit	-8.46556
▁goodbye	-8.46667
▁grunts	-8.46819
▁human	-8.46938
▁fair	-8.47478
▁strong	-8.47642
▁ladies	-8.47768
▁tv	-8.47772
▁figure	-8.47847
▁soldier	-8.48146
▁blue	-8.48162
▁act	-8.48291
▁sell	-8.48467
▁floor	-8.48876
▁werent	-8.48876
▁fbi	-8.48879
▁bobby	-8.48882
▁wedding	-8.48882
▁shouting	-8.48912
▁state	-8.49116
▁park	-8.4915
▁questions	-8.4974
▁slow	-8.49764
▁blow	-8.49896
▁possible	-8.5
▁cash	-8.50001
▁bob	-8.50003
▁dave	-8.50041
▁mm	-8.50399
▁become	-8.50419
▁computer	-8.50434
▁meeting	-8.50521
▁leg	-8.50594
▁chatter	-8.50712
▁paul	-8.50925
▁c	-8.51044
▁low	-8.51044
▁board	-8.51104
▁double	-8.51136
▁groans	-8.51136
▁dear	-8.5115
▁early	-8.51169
▁band	-8.51528
▁choice	-8.51578
▁boat	-8.51579
▁eye	-8.51903
▁calm	-8.52307
▁code	-8.52391
▁army	-8.52398
able	-8.52822
ie	-8.53277
▁ronnie	-8.53449
▁poor	-8.53454
▁watching	-8.53565
▁seeing	-8.5372
▁dress	-8.54248
▁eight	-8.54464
▁security	-8.54633
▁paid	-8.54636
▁accident	-8.55062
▁seems	-8.55187
▁words	-8.55614
▁nick	-8.55665
▁broke	-8.55769
▁system	-8.55815
▁contact	-8.55816
▁tommy	-8.55817
▁yall	-8.55836
▁finally	-8.55871
▁beer	-8.56422
▁cell	-8.56429
us	-8.56656
▁hospital	-8.57005
▁shell	-8.58152
▁fear	-8.58245
▁hotel	-8.58259
▁seat	-8.58583
▁owe	-8.58619
▁savage	-8.58772
▁spend	-8.59052
▁meant	-8.59069
▁seem	-8.59288
▁tough	-8.59452
▁fault	-8.59474
▁president	-8.59474
▁middle	-8.59475
▁theyve	-8.59475
▁fall	-8.59739
▁screams	-8.59971
▁machine	-8.60164
▁frank	-8.60338
or	-8.60623
▁others	-8.60724
▁attention	-8.60725
▁uncle	-8.60726
▁church	-8.60728
▁absolutely	-8.60732
▁mmhmm	-8.60734
▁sitting	-8.60761
▁born	-8.60842
▁talked	-8.60989
▁protect	-8.61174
▁ground	-8.61323
▁month	-8.615
▁respect	-8.61631
▁turned	-8.61741
▁smart	-8.61842
▁program	-8.61984
▁chef	-8.61993
▁grunting	-8.6203
▁learn	-8.62514
▁group	-8.62698
▁worth	-8.6312
▁moved	-8.63211
▁master	-8.63274
▁lying	-8.63284
▁explain	-8.63778
▁knock	-8.63821
▁rose	-8.63978
▁ball	-8.64099
▁dark	-8.64428
▁steve	-8.64516
▁gunfire	-8.64576
▁apple	-8.6458
▁wear	-8.64918
▁finished	-8.65016
▁longer	-8.65287
▁service	-8.65388
▁known	-8.654
▁p	-8.65848
▁laugh	-8.65962
▁killing	-8.6604
▁dan	-8.6612
▁bar	-8.66488
▁ring	-8.665
▁quit	-8.6706
▁dangerous	-8.67222
▁bank	-8.67341
▁crying	-8.67586
▁join	-8.67712
le	-8.6779
▁given	-8.67876
▁ran	-8.6829
▁walking	-8.6842
▁mad	-8.68518
▁worried	-8.68571
▁department	-8.68572
▁birthday	-8.68573
▁peter	-8.68645
▁busy	-8.68674
st	-8.68694
▁miles	-8.68895
▁expect	-8.69192
▁adam	-8.69424
▁movie	-8.69482
▁cross	-8.6969
▁proud	-8.69941
▁terrible	-8.69942
▁ooh	-8.69942
▁skin	-8.69954
▁loved	-8.70101
ant	-8.70548
▁works	-8.70966
▁french	-8.71296
▁court	-8.71315
▁yesterday	-8.7133
▁robert	-8.7133
▁cowhand	-8.71331
▁girlfriend	-8.71341
▁tucker	-8.71349
up	-8.71742
▁wearing	-8.7177
▁charge	-8.72108
▁hide	-8.72335
▁train	-8.72558
▁fat	-8.72599
▁near	-8.72606
▁personal	-8.72694
▁spot	-8.72733
▁swear	-8.72739
▁turkish	-8.7274
▁clothes	-8.72741
▁giving	-8.72741
▁date	-8.72969
▁bomb	-8.73005
ful	-8.73207
▁lovely	-8.73227
▁mess	-8.73326
▁share	-8.73638
▁reach	-8.73826
▁suppose	-8.73968
▁entire	-8.74037
u	-8.7407
▁english	-8.74167
▁general	-8.74167
▁charlie	-8.74168
▁future	-8.74169
▁feet	-8.74179
▁eh	-8.74185
▁using	-8.74423
w	-8.74658
▁jump	-8.74769
▁gas	-8.7519
re	-8.7544
▁except	-8.75512
▁across	-8.75616
▁heavy	-8.75616
▁college	-8.75617
▁evil	-8.75617
▁forever	-8.75617
▁rather	-8.75618
▁pete	-8.75623
▁carry	-8.75711
▁shh	-8.75894
▁lt	-8.7638
▁honest	-8.7681
▁imagine	-8.77087
▁flight	-8.77089
▁writing	-8.77095
▁mommy	-8.77099
is	-8.77213
▁kick	-8.77255
▁named	-8.77266
▁brothers	-8.77742
▁short	-8.77856
▁ann	-8.77991
▁yep	-8.7858
▁christmas	-8.7858
▁sweetheart	-8.78581
▁upset	-8.78581
▁mmm	-8.78583
▁wonderful	-8.78596
▁evening	-8.78611
▁totally	-8.78663
▁f	-8.78788
▁copy	-8.78815
▁crime	-8.78933
▁offer	-8.7895
▁sun	-8.79031
▁cry	-8.79149
▁la	-8.79298
▁arm	-8.79593
▁wonder	-8.79664
▁breathe	-8.79804
▁appreciate	-8.79871
▁anywhere	-8.80095
▁difference	-8.80095
▁history	-8.80095
▁military	-8.80095
▁green	-8.80099
▁bought	-8.801
▁lunch	-8.801
▁max	-8.80106
▁tom	-8.80361
▁liked	-8.80571
▁balls	-8.80702
▁states	-8.81045
▁list	-8.81046
▁handle	-8.81297
▁key	-8.81386
te	-8.8149
▁worse	-8.81634
▁instead	-8.81634
▁earth	-8.81636
▁hungry	-8.81638
▁tony	-8.81681
▁ho	-8.81685
▁dying	-8.81695
▁smoke	-8.81903
▁saved	-8.82086
▁count	-8.82139
▁push	-8.82375
▁fix	-8.82435
▁lived	-8.82685
▁bastard	-8.82916
▁partner	-8.82934
▁anna	-8.82954
▁letter	-8.83114
▁adela	-8.83196
▁pleasure	-8.83196
▁blame	-8.83199
▁suck	-8.83241
▁decided	-8.83339
▁surprise	-8.84281
▁seconds	-8.84373
▁store	-8.84445
▁fly	-8.84503
▁window	-8.84541
▁trip	-8.84588
▁rules	-8.84592
▁forgot	-8.84779
▁marriage	-8.84783
▁moondog	-8.84783
▁grace	-8.84784
▁jail	-8.84785
▁wall	-8.84786
▁danni	-8.84789
▁super	-8.84794
▁north	-8.84795
▁jem	-8.84795
▁stopped	-8.84804
▁al	-8.85165
ity	-8.85306
▁star	-8.85347
▁feels	-8.85474
▁d	-8.85795
▁smell	-8.85872
▁station	-8.86096
ll	-8.86096
▁missed	-8.86175
▁horse	-8.86206
▁doug	-8.86218
▁forward	-8.86396
▁kept	-8.86398
▁lisa	-8.86398
▁definitely	-8.864
▁chief	-8.86402
▁mace	-8.86481
▁dogs	-8.86549
▁breathing	-8.86647
▁warm	-8.86751
▁whose	-8.8682
▁test	-8.87016
it	-8.87277
▁class	-8.87348
▁n	-8.87415
▁secret	-8.87821
▁russian	-8.87837
▁hundred	-8.87841
▁guard	-8.87849
▁simple	-8.87971
▁judge	-8.88035
▁charley	-8.88035
▁st	-8.88163
▁carter	-8.88169
▁drugs	-8.88172
▁lead	-8.8895
b	-8.89328
▁government	-8.89443
ive	-8.89461
▁sarah	-8.8947
▁idiot	-8.89487
▁weekend	-8.89547
▁victor	-8.8955
▁drug	-8.89563
▁games	-8.89643
▁throat	-8.89702
▁bunch	-8.89705
▁outta	-8.89706
▁single	-8.89719
▁interesting	-8.89901
▁certain	-8.89933
▁bucks	-8.89967
▁br	-8.90267
▁grab	-8.90301
▁age	-8.9039
▁land	-8.906
▁calls	-8.90843
▁bro	-8.91059
▁joke	-8.91127
▁club	-8.91136
▁continue	-8.91144
▁chair	-8.91173
▁round	-8.91173
▁area	-8.91199
ch	-8.91218
▁normal	-8.9128
▁paper	-8.91282
▁rich	-8.91324
▁distance	-8.91397
▁lincoln	-8.91397
▁hasnt	-8.91397
▁matthew	-8.91397
▁spanish	-8.91397
▁spent	-8.914
▁third	-8.91402
▁mary	-8.91492
▁building	-8.91505
▁sea	-8.91594
▁keys	-8.91697
▁changed	-8.92069
▁killer	-8.92079
ous	-8.9225
▁pre	-8.92393
▁box	-8.92665
▁engine	-8.92883
▁message	-8.93028
▁peace	-8.93105
▁pregnant	-8.93121
▁upstairs	-8.93121
▁fell	-8.93162
▁enjoy	-8.94096
▁sake	-8.94747
▁groaning	-8.94875
▁perhaps	-8.94875
▁gasps	-8.94879
▁jake	-8.94884
▁doin	-8.94914
▁players	-8.94992
▁card	-8.9529
▁dies	-8.95483
▁fighting	-8.9622
▁block	-8.96275
▁realize	-8.96485
▁hero	-8.9655
▁soul	-8.96624
▁built	-8.96661
▁jennifer	-8.96661
▁relax	-8.96661
▁darius	-8.96661
▁senator	-8.96662
▁karen	-8.96664
▁mama	-8.96665
▁theyd	-8.9667
▁gay	-8.96698
▁guilty	-8.96705
▁mikey	-8.96791
▁mate	-8.96801
id	-8.97504
th	-8.9763
▁mark	-8.97683
ment	-8.97903
▁return	-8.98141
▁lay	-8.98262
▁doc	-8.9836
▁neither	-8.98479
▁stalin	-8.9848
▁driving	-8.9848
▁congratulations	-8.98498
▁dreams	-8.98661
▁singing	-8.98791
▁promised	-8.9899
▁player	-8.99078
ation	-8.99438
▁attack	-8.99543
▁holding	-8.99549
▁e	-9.00087
▁forgive	-9.00262
▁apartment	-9.00292
▁paris	-9.00309
▁evidence	-9.00331
▁kitchen	-9.00331
▁watson	-9.00331
▁knife	-9.00333
▁gasping	-9.00334
▁field	-9.00339
▁animal	-9.00375
▁softly	-9.00416
▁jay	-9.00485
▁san	-9.012
▁shooting	-9.01648
▁blind	-9.0187
▁crowd	-9.01886
▁public	-9.01979
▁olive	-9.02154
▁present	-9.02169
▁cab	-9.0218
▁bodies	-9.02222
▁mistake	-9.02225
▁involved	-9.02271
▁hole	-9.02352
▁uhhuh	-9.02388
▁missing	-9.02397
ry	-9.02401
▁indistinctly	-9.02445
▁listening	-9.02515
▁training	-9.02774
▁burn	-9.03447
▁standing	-9.036
▁lock	-9.03675
▁steal	-9.037
▁gods	-9.03834
▁mac	-9.03836
▁t	-9.03841
▁deep	-9.03911
▁heaven	-9.04141
▁zeke	-9.04141
▁address	-9.04142
▁camp	-9.04143
▁dancing	-9.04151
▁foot	-9.04161
▁obviously	-9.04182
▁account	-9.04241
▁track	-9.04257
▁queen	-9.04278
no	-9.04479
▁locked	-9.04487
▁bus	-9.04574
▁shoes	-9.04609
▁wouldve	-9.04861
▁cat	-9.04929
ness	-9.05073
▁fish	-9.05534
▁pop	-9.05905
▁experience	-9.05928
▁strange	-9.06033
▁gold	-9.06078
▁libby	-9.06102
▁chicago	-9.06103
▁paying	-9.06104
▁favorite	-9.06107
▁sad	-9.06164
▁completely	-9.06179
▁broken	-9.06196
▁certainly	-9.06252
▁goin	-9.06607
▁banks	-9.06806
▁fired	-9.06964
▁co	-9.07384
ish	-9.07578
▁witness	-9.08052
▁force	-9.08056
▁beach	-9.08056
▁afternoon	-9.08102
▁darling	-9.08104
▁price	-9.08104
▁a	-9.08109
▁wrote	-9.08111
▁usually	-9.08152
▁center	-9.08172
▁form	-9.08182
▁conversation	-9.08205
▁weapon	-9.08287
▁interested	-9.08291
▁finger	-9.08292
▁brain	-9.08305
ar	-9.08575
▁wine	-9.086
▁van	-9.08656
v	-9.09168
▁hall	-9.0926
▁support	-9.09689
▁babe	-9.1
▁mike	-9.10008
▁sold	-9.10139
▁breakfast	-9.10143
▁innocent	-9.10143
▁bathroom	-9.10144
▁worst	-9.10144
▁henry	-9.10145
▁pants	-9.10147
▁within	-9.10149
▁willie	-9.10149
▁devil	-9.10153
▁director	-9.10159
▁books	-9.10267
▁rule	-9.10272
▁fool	-9.10303
▁situation	-9.10315
▁scene	-9.10334
▁suspect	-9.10338
▁allowed	-9.10362
▁gotten	-9.10423
▁shed	-9.1045
▁grow	-9.10849
▁cos	-9.11427
▁ed	-9.11635
▁marry	-9.11777
▁accept	-9.1189
▁ice	-9.1201
▁smile	-9.12017
▁glass	-9.12182
▁nothin	-9.12183
▁drinking	-9.12203
▁apart	-9.12213
▁river	-9.12223
▁delorean	-9.12226
▁dylan	-9.12226
▁andy	-9.12227
▁fresh	-9.12229
▁markos	-9.1224
▁speed	-9.12277
▁fit	-9.12301
▁corner	-9.12436
▁position	-9.12442
▁comrade	-9.12459
▁note	-9.12481
▁figured	-9.12626
▁gives	-9.12816
▁couldve	-9.12962
▁shower	-9.13046
os	-9.13128
▁starting	-9.13162
▁ow	-9.13255
▁jobs	-9.13783
▁ought	-9.14302
▁legal	-9.14307
▁large	-9.14308
▁faith	-9.14354
▁lieutenant	-9.14354
▁pashto	-9.14354
▁lonnie	-9.14354
▁neck	-9.14357
▁everywhere	-9.14357
▁putting	-9.14511
el	-9.14518
▁thousand	-9.14682
▁folks	-9.14694
▁wondering	-9.1494
▁starts	-9.14985
▁tea	-9.15206
ist	-9.1525
▁w	-9.15754
▁freak	-9.15906
▁ro	-9.16086
um	-9.1643
▁coach	-9.16488
▁wild	-9.16526
▁dumb	-9.16527
▁restaurant	-9.16527
▁choose	-9.16528
▁priest	-9.16528
▁juan	-9.16529
▁neil	-9.16529
▁extra	-9.16529
▁mister	-9.16532
▁jimmy	-9.16533
▁jewell	-9.16533
▁paco	-9.16535
▁james	-9.16543
▁clay	-9.16547
▁kathy	-9.16561
▁decide	-9.16587
▁fathers	-9.16657
▁played	-9.16675
ne	-9.1673
▁favor	-9.16808
▁crap	-9.16811
▁mothers	-9.16824
▁pig	-9.16867
▁decision	-9.16875
▁pray	-9.17833
▁search	-9.17934
an	-9.1818
▁risk	-9.18223
▁pretend	-9.18322
▁waste	-9.18547
▁sharp	-9.18562
ting	-9.18589
▁albert	-9.1875
▁angry	-9.1875
▁especially	-9.1875
▁maggie	-9.18751
▁jerry	-9.18756
▁cleo	-9.18758
▁space	-9.18758
▁stuck	-9.18762
▁male	-9.1879
▁grand	-9.18798
▁h	-9.18974
▁east	-9.19093
▁ray	-9.19149
z	-9.19423
▁kinda	-9.19445
▁pro	-9.19626
▁gi	-9.19994
▁pal	-9.20067
▁problems	-9.20153
▁speaks	-9.20309
▁reading	-9.20647
▁press	-9.20712
▁cute	-9.20721
▁rent	-9.20772
▁escape	-9.20822
▁loud	-9.20867
▁total	-9.20896
▁medical	-9.20908
▁ruth	-9.20992
▁cancer	-9.21022
▁impossible	-9.21022
▁keith	-9.21022
▁twice	-9.21022
▁cream	-9.21023
▁investigation	-9.21024
▁kevin	-9.21044
▁joey	-9.21079
▁awful	-9.21108
▁firm	-9.21362
x	-9.21376
▁burned	-9.21413
▁level	-9.21468
▁begin	-9.21476
▁ship	-9.21477
▁arms	-9.21482
co	-9.21531
▁rid	-9.21592
▁fill	-9.22609
▁eating	-9.22961
▁private	-9.23197
▁twenty	-9.23345
▁became	-9.23348
▁caught	-9.23348
▁justice	-9.23348
▁morgan	-9.23348
▁nope	-9.23349
▁shame	-9.2335
▁teeth	-9.2335
▁local	-9.23354
▁dirty	-9.23395
▁bother	-9.23441
▁doctors	-9.23451
▁agree	-9.23523
▁surprised	-9.23645
▁taste	-9.23801
▁camera	-9.23919
▁learned	-9.23957
et	-9.24017
▁reporter	-9.2403
son	-9.24112
ey	-9.24586
ur	-9.24623
▁art	-9.24823
▁consider	-9.25254
▁weapons	-9.25491
ter	-9.25631
▁difficult	-9.25704
▁major	-9.25712
▁south	-9.25725
▁nowhere	-9.25729
▁summer	-9.25729
▁credit	-9.2573
▁often	-9.25731
▁bottom	-9.25731
▁football	-9.25735
▁amen	-9.25741
▁pussy	-9.25744
▁simon	-9.25752
▁texas	-9.25842
▁hiding	-9.25866
▁bear	-9.26043
▁ghost	-9.26185
▁letters	-9.26197
▁opens	-9.26207
▁nuts	-9.26293
▁mission	-9.26412
▁con	-9.26629
▁closed	-9.26759
▁so	-9.27116
▁pulling	-9.27145
▁teach	-9.27641
ent	-9.27653
▁correct	-9.27804
▁mention	-9.27864
▁tight	-9.28129
▁freedom	-9.28168
▁grew	-9.28168
▁afford	-9.28168
▁desk	-9.28169
▁kirk	-9.2817
▁exhales	-9.2817
▁repeat	-9.28173
▁jones	-9.28173
▁written	-9.28175
▁nose	-9.28177
▁emily	-9.28182
▁pressure	-9.28183
▁danny	-9.28185
▁amy	-9.2822
▁glasses	-9.28225
▁cap	-9.28302
▁color	-9.28347
▁deserve	-9.28539
▁en	-9.28555
▁film	-9.28683
▁video	-9.28755
▁client	-9.28832
▁condition	-9.28885
▁passed	-9.28933
▁keeping	-9.28938
▁sing	-9.29085
▁ex	-9.29225
▁legs	-9.29669
▁spirit	-9.29847
▁cook	-9.2985
▁pack	-9.2989
▁fucker	-9.29895
▁da	-9.29994
▁sleeping	-9.30016
ian	-9.3021
▁base	-9.30459
▁should	-9.30537
▁main	-9.30589
▁rabbi	-9.30594
▁advice	-9.30668
▁federal	-9.30668
▁laura	-9.30668
▁lockhart	-9.30668
▁nervous	-9.30668
▁detective	-9.3067
▁willing	-9.30689
▁west	-9.307
▁whimpers	-9.30787
▁losing	-9.30789
▁honestly	-9.30887
▁file	-9.31184
▁crew	-9.31273
▁julie	-9.31312
▁sheriff	-9.31319
▁v	-9.31325
▁flying	-9.31328
▁shine	-9.31408
▁action	-9.31428
▁over	-9.31634
to	-9.31652
▁huge	-9.31674
▁walked	-9.32464
▁weak	-9.32972
▁arrest	-9.33064
out	-9.33075
▁travel	-9.33086
▁suit	-9.33127
▁takes	-9.33148
▁attorney	-9.33232
▁gallegos	-9.33232
▁shirt	-9.33232
▁taught	-9.33232
▁hadnt	-9.33232
▁bigger	-9.33234
▁thatll	-9.33234
▁layne	-9.33249
▁bridge	-9.33259
▁michelle	-9.33261
▁cup	-9.3327
▁quickly	-9.33554
▁nicky	-9.33555
▁arrested	-9.3356
▁notice	-9.3367
ass	-9.33838
▁battle	-9.33878
▁prove	-9.33889
▁bloody	-9.33909
▁motherfuckers	-9.34023
▁falling	-9.34099
▁z	-9.34693
▁piss	-9.34888
▁numbers	-9.34995
▁crash	-9.3501
na	-9.35255
▁sh	-9.35431
▁everythings	-9.35449
▁switch	-9.35465
▁bell	-9.35676
▁raise	-9.35694
▁sexual	-9.35756
▁spoke	-9.35811
▁sue	-9.35844
▁due	-9.35851
▁female	-9.35864
▁plenty	-9.35864
▁vietnam	-9.35864
▁whether	-9.35866
▁jared	-9.35867
▁pool	-9.35868
▁avery	-9.35875
▁plus	-9.35876
▁bread	-9.35876
▁practice	-9.35876
▁alma	-9.35877
▁lake	-9.35929
▁apologize	-9.35933
ts	-9.35938
▁naked	-9.35961
▁showed	-9.35987
▁breath	-9.36107
▁ness	-9.36127
▁faster	-9.36143
▁add	-9.36155
ia	-9.36261
▁where	-9.36344
▁dry	-9.36349
▁sexy	-9.36352
▁prisoners	-9.366
▁explosion	-9.3667
▁type	-9.36676
▁bite	-9.36759
▁older	-9.37065
▁access	-9.37541
▁blues	-9.37593
▁breaking	-9.37661
time	-9.37697
▁files	-9.37799
▁hearing	-9.37965
▁closes	-9.38058
nt	-9.38071
▁build	-9.38153
▁final	-9.38348
▁settle	-9.38356
▁animals	-9.38502
▁percent	-9.38559
▁dwayne	-9.38566
▁otherwise	-9.38566
▁funeral	-9.38567
▁beria	-9.38567
▁tongue	-9.38567
▁mitch	-9.3857
▁sophie	-9.3857
▁basement	-9.3858
▁immediately	-9.38586
▁boyfriend	-9.38591
▁stock	-9.38604
▁jane	-9.38668
▁magic	-9.38784
▁staying	-9.39371
▁doubt	-9.39401
▁ringing	-9.39426
▁er	-9.39544
▁dollar	-9.39583
▁sin	-9.39747
▁pulled	-9.3984
▁shop	-9.39887
ary	-9.401
▁cost	-9.40146
▁lee	-9.40232
▁ammo	-9.40423
ling	-9.40817
▁doors	-9.40835
▁focus	-9.40998
▁soft	-9.41264
▁esti	-9.41298
▁joan	-9.41319
▁purge	-9.41335
▁prefer	-9.41342
▁slept	-9.41344
▁larry	-9.41344
▁threw	-9.41344
▁violence	-9.41344
▁neighborhood	-9.41345
▁whoever	-9.41345
▁strength	-9.41347
▁agency	-9.41353
▁castle	-9.41353
▁ronit	-9.41356
▁heavily	-9.41357
▁size	-9.41361
▁laughter	-9.41364
▁trial	-9.41369
▁incredible	-9.41383
▁visit	-9.41416
▁sweetie	-9.41417
▁brave	-9.41462
▁papers	-9.41543
▁whispers	-9.41582
▁se	-9.41862
▁target	-9.41922
ty	-9.42066
▁guns	-9.42083
▁dressed	-9.4213
▁cock	-9.42186
▁expecting	-9.42201
▁subject	-9.42262
land	-9.42266
▁tree	-9.4228
▁chicken	-9.4232
▁wind	-9.42321
▁ticket	-9.42342
▁writer	-9.43178
▁treat	-9.43407
▁loose	-9.43473
▁lawyers	-9.43709
▁command	-9.43784
▁everybodys	-9.43801
▁chain	-9.43897
▁release	-9.43994
▁introduce	-9.43997
rs	-9.44101
▁admit	-9.44197
▁grandpa	-9.442
▁blew	-9.44201
▁famous	-9.44201
▁whenever	-9.44202
▁mmmhmm	-9.44203
▁meat	-9.44204
▁washington	-9.44204
▁beginning	-9.44205
▁sunday	-9.44211
▁wet	-9.44234
▁weight	-9.44251
▁coke	-9.44252
▁bath	-9.44257
▁louise	-9.4426
▁jacket	-9.44284
▁match	-9.44293
▁manager	-9.44326
▁bleeding	-9.4434
▁cheering	-9.44343
▁boom	-9.44377
▁besides	-9.44499
▁guards	-9.44512
▁letting	-9.44525
▁lied	-9.44754
▁torture	-9.45071
▁gunshot	-9.45205
▁do	-9.45209
▁pa	-9.45408
▁following	-9.45698
ma	-9.45835
▁picked	-9.45854
ta	-9.4614
▁appear	-9.46796
▁wire	-9.46928
▁aw	-9.47026
▁heat	-9.47093
▁martin	-9.47099
▁sugar	-9.47111
lng	-9.47115
▁split	-9.47131
you	-9.47132
▁harm	-9.47138
▁pembroke	-9.47143
▁whitaker	-9.47143
▁monday	-9.47145
▁insane	-9.47147
▁mummy	-9.47148
▁aware	-9.4716
▁liar	-9.47161
▁stage	-9.47164
▁memory	-9.47167
▁sight	-9.47174
▁butter	-9.47199
▁whatd	-9.47201
▁laid	-9.47202
▁arrived	-9.47361
▁tall	-9.47361
▁county	-9.47428
▁union	-9.47437
ra	-9.47448
▁sucks	-9.47621
▁dare	-9.47799
▁alien	-9.47873
go	-9.47897
▁harder	-9.4796
▁whoo	-9.48083
▁border	-9.48214
▁operation	-9.4826
▁services	-9.48301
▁bird	-9.48324
ee	-9.4836
▁driver	-9.4853
led	-9.48548
▁strike	-9.48583
▁loser	-9.48603
la	-9.48604
▁di	-9.49026
▁helped	-9.49319
▁shots	-9.49341
▁howd	-9.4975
▁allow	-9.49851
▁pictures	-9.49912
▁matt	-9.49964
▁chill	-9.50024
▁natural	-9.50042
▁awesome	-9.50173
▁california	-9.50173
▁changing	-9.50173
▁downstairs	-9.50173
▁empty	-9.50173
▁central	-9.50174
▁beauty	-9.50174
▁alarm	-9.50175
▁several	-9.50181
▁abby	-9.50182
▁juice	-9.50182
▁truly	-9.50187
▁pair	-9.50199
▁row	-9.50206
▁suggest	-9.5035
▁served	-9.5036
▁ends	-9.50394
▁officers	-9.50426
▁concerned	-9.50448
▁nation	-9.50481
▁tits	-9.5051
▁forced	-9.50526
▁rain	-9.50827
▁text	-9.51013
▁stone	-9.51036
▁horn	-9.51219
▁sat	-9.51337
▁whore	-9.51381
▁criminal	-9.51384
▁vampire	-9.51446
▁ave	-9.51515
▁helping	-9.51528
▁members	-9.51583
▁loves	-9.51753
▁thinks	-9.5179
▁nah	-9.52193
▁career	-9.52353
▁boo	-9.52482
▁wash	-9.52516
▁draw	-9.52557
▁rio	-9.52703
head	-9.52785
▁survive	-9.53095
▁invite	-9.53096
▁rick	-9.53137
▁to	-9.53138
▁stole	-9.53248
▁somethin	-9.53256
▁out	-9.5327
▁garbage	-9.53298
▁holiday	-9.53298
▁period	-9.53298
▁prick	-9.53298
▁progress	-9.53298
▁saturday	-9.53298
▁vallejo	-9.53298
▁nokes	-9.53298
▁someplace	-9.53298
▁square	-9.53298
▁basically	-9.533
▁emergency	-9.53305
▁thirty	-9.53306
▁patch	-9.53312
▁silly	-9.53317
▁aah	-9.53318
▁harper	-9.53319
▁flat	-9.53319
▁enter	-9.53325
▁chest	-9.53328
▁cake	-9.53337
▁boring	-9.53356
▁motherfucking	-9.53356
▁chad	-9.53364
▁kable	-9.53371
▁hired	-9.53505
im	-9.53518
▁nearly	-9.53585
▁mass	-9.53667
ri	-9.53729
▁i	-9.53908
▁fixed	-9.53967
▁remind	-9.54159
▁gift	-9.54496
▁chick	-9.5456
▁pocket	-9.54638
▁patient	-9.54656
▁friendly	-9.54659
line	-9.54863
▁el	-9.54883
▁product	-9.55105
ship	-9.55357
gest	-9.55428
▁lift	-9.55704
▁whip	-9.55749
▁records	-9.56078
▁study	-9.56108
▁complete	-9.56198
de	-9.5624
▁freeze	-9.56401
▁bringing	-9.56436
▁footsteps	-9.56524
▁moustache	-9.56524
▁oclock	-9.56524
▁process	-9.56524
▁stomach	-9.56524
▁including	-9.56524
▁cameron	-9.56524
▁william	-9.56524
▁ripley	-9.56525
▁chocolate	-9.56529
▁easier	-9.5653
▁airport	-9.56533
▁gang	-9.56534
▁pge	-9.56537
▁rowan	-9.56537
▁bedroom	-9.5654
▁held	-9.56556
▁brad	-9.56601
▁erin	-9.56602
▁tax	-9.56604
▁prepared	-9.56695
ance	-9.56727
▁blessed	-9.56822
▁ba	-9.56841
▁oneil	-9.5685
▁ms	-9.56949
ir	-9.57222
▁burning	-9.57233
▁ar	-9.5727
▁laz	-9.57451
▁remain	-9.57527
ig	-9.57539
ut	-9.57573
▁ears	-9.57666
▁project	-9.57766
▁roger	-9.5787
▁grandma	-9.57905
▁value	-9.57914
▁claim	-9.58007
▁bottle	-9.58094
▁page	-9.58128
▁per	-9.58372
▁siren	-9.58557
▁bone	-9.58723
▁clients	-9.58969
▁ghosts	-9.59036
age	-9.59284
▁checked	-9.59356
▁market	-9.59372
se	-9.59827
▁jerk	-9.59852
▁keeps	-9.59854
▁drank	-9.59857
▁eben	-9.59857
▁kincaid	-9.59857
▁opinion	-9.59857
▁toilet	-9.59857
▁ugly	-9.59857
▁asleep	-9.59857
▁kurt	-9.59857
▁sheep	-9.59857
▁donnie	-9.59858
▁joking	-9.59858
▁unbelievable	-9.59859
▁permission	-9.5986
▁awake	-9.59861
▁tour	-9.59863
▁stifler	-9.59866
▁sally	-9.5988
▁marion	-9.59889
▁sky	-9.59894
▁matters	-9.59904
▁lana	-9.59912
▁doll	-9.59932
▁pot	-9.59937
▁mar	-9.59967
▁swim	-9.5999
▁failed	-9.6002
▁yelling	-9.60023
▁rise	-9.60029
▁invited	-9.60077
▁pat	-9.60086
▁flowers	-9.6041
ca	-9.60418
▁attacked	-9.60459
▁clearly	-9.60477
▁o	-9.60512
▁bust	-9.61076
▁knees	-9.61106
▁feed	-9.61114
▁scare	-9.61236
▁article	-9.61278
▁regular	-9.61278
▁amount	-9.61279
▁angel	-9.61368
▁score	-9.61382
▁quarter	-9.61384
▁vehicle	-9.61391
▁turns	-9.61488
▁everyones	-9.61859
red	-9.62037
▁feelings	-9.62142
ce	-9.62345
▁hunt	-9.62414
▁ma	-9.6253
▁interest	-9.62577
il	-9.62587
ble	-9.62613
▁stayed	-9.62676
▁songs	-9.62705
▁rush	-9.62875
▁borrow	-9.6296
▁serve	-9.6303
at	-9.63097
▁divorce	-9.631
▁regret	-9.63278
▁abraham	-9.63305
▁according	-9.63305
▁claire	-9.63305
▁excellent	-9.63305
▁excited	-9.63305
▁leigh	-9.63305
▁majesty	-9.63305
▁opportunity	-9.63305
▁thomas	-9.63305
▁andrew	-9.63307
▁earlier	-9.63307
▁pardon	-9.63307
▁committee	-9.63307
▁donna	-9.63307
▁onto	-9.63308
▁available	-9.6331
▁suicide	-9.63311
▁mail	-9.63311
▁social	-9.63312
▁property	-9.63313
▁franklin	-9.63321
▁responsible	-9.63322
▁upon	-9.63324
▁confused	-9.6333
▁announcer	-9.63335
▁whyd	-9.63345
▁yearold	-9.63349
▁rav	-9.63365
▁hoping	-9.63438
▁cards	-9.63479
▁deeply	-9.63538
▁agreed	-9.63606
▁loan	-9.63727
▁closer	-9.63743
ure	-9.63813
▁higher	-9.63864
▁perfectly	-9.63899
▁range	-9.64006
ah	-9.64138
▁expected	-9.64151
▁sisters	-9.64155
▁seemed	-9.64403
▁murdered	-9.6445
▁chattering	-9.64596
▁rings	-9.64651
▁opening	-9.64807
▁relationship	-9.64891
▁disease	-9.64911
▁magazine	-9.64999
▁bullet	-9.65019
▁clears	-9.65422
▁li	-9.65573
▁tape	-9.65708
▁tie	-9.65806
▁ended	-9.65928
▁bless	-9.66229
▁thoughts	-9.66253
▁brains	-9.66535
▁dump	-9.66541
▁celebrate	-9.6664
▁trade	-9.66655
▁deuce	-9.66717
▁lack	-9.66719
▁actual	-9.66758
▁dig	-9.66856
▁beyond	-9.66877
▁ganz	-9.66877
▁hooyah	-9.66877
▁language	-9.66877
▁sunshine	-9.66877
▁view	-9.66877
▁somehow	-9.66877
▁staff	-9.66877
▁graham	-9.66877
▁lucas	-9.66878
▁feck	-9.66879
▁toast	-9.66879
▁brown	-9.6688
▁beamen	-9.66883
▁gaga	-9.66884
▁package	-9.66887
▁mask	-9.66887
▁cassie	-9.6689
▁nasty	-9.66894
▁allen	-9.66895
▁common	-9.66898
▁july	-9.66904
▁mood	-9.66924
▁fake	-9.66973
▁route	-9.66981
▁created	-9.67019
▁barking	-9.67054
▁weed	-9.67061
▁destroyed	-9.67197
▁lily	-9.67201
▁hurts	-9.67205
▁pen	-9.673
▁wayne	-9.67325
the	-9.67359
em	-9.67372
▁hill	-9.67523
▁pounds	-9.67594
way	-9.67637
▁concern	-9.67849
▁knocking	-9.6805
▁movies	-9.68098
▁pump	-9.68102
▁si	-9.68178
▁victims	-9.68212
▁request	-9.68319
▁character	-9.68554
▁spread	-9.68554
▁abe	-9.68568
▁button	-9.68612
▁fellas	-9.68645
▁interview	-9.68683
▁sentence	-9.68684
▁teacher	-9.68828
▁wood	-9.6883
ro	-9.69308
▁medic	-9.6932
ich	-9.69591
▁race	-9.69638
▁tim	-9.69729
▁translat	-9.69738
▁screw	-9.69794
▁destroy	-9.69802
▁egg	-9.70016
▁pe	-9.70121
as	-9.70192
▁fingers	-9.70227
▁health	-9.70436
▁original	-9.70444
▁proper	-9.70469
▁michel	-9.70474
▁bum	-9.70481
▁penis	-9.7054
▁album	-9.7058
▁allison	-9.7058
▁clamoring	-9.7058
▁desert	-9.7058
▁jealous	-9.7058
▁london	-9.7058
▁mirror	-9.7058
▁ocean	-9.7058
▁sobbing	-9.7058
▁guitar	-9.7058
▁stories	-9.70581
▁darlene	-9.70581
▁whirring	-9.70581
▁eddie	-9.70581
▁grandmother	-9.70581
▁itd	-9.70581
▁friday	-9.70581
▁francisco	-9.70582
▁senate	-9.70582
▁organization	-9.70583
▁arthur	-9.70584
▁finch	-9.70585
▁handwriting	-9.70586
▁dropped	-9.70588
▁model	-9.7059
▁comfortable	-9.70592
▁zone	-9.70613
▁map	-9.70643
▁navy	-9.70643
▁pure	-9.70643
▁farm	-9.70674
▁cates	-9.70676
ad	-9.7071
▁ruined	-9.70752
▁papa	-9.70785
▁ate	-9.70818
▁raised	-9.70933
▁pissed	-9.71052
▁frances	-9.71115
ard	-9.71115
▁lies	-9.71212
▁ohh	-9.71255
ate	-9.7179
▁acting	-9.72012
▁photos	-9.7211
▁covered	-9.72162
▁talkin	-9.72212
▁throwing	-9.72213
▁section	-9.72404
▁runner	-9.72483
▁fella	-9.7249
▁pilot	-9.72512
▁jean	-9.72514
▁nicola	-9.72519
▁plans	-9.72534
▁email	-9.72535
▁official	-9.72542
▁tt	-9.72555
▁lights	-9.72574
▁runs	-9.73055
▁sins	-9.73127
am	-9.73359
ier	-9.73711
▁flag	-9.73862
▁sacrifice	-9.74236
▁foreign	-9.74293
▁hung	-9.74316
▁hon	-9.74356
▁chose	-9.74372
▁alcohol	-9.74387
▁bloom	-9.74426
▁cocaine	-9.74426
▁cristina	-9.74426
▁families	-9.74426
▁fletcher	-9.74426
▁graeme	-9.74426
▁hephaistion	-9.74426
▁janice	-9.74426
▁kumail	-9.74426
▁mcdeere	-9.74426
▁ridiculous	-9.74426
▁twelve	-9.74426
▁however	-9.74427
▁harold	-9.74427
▁piano	-9.74427
▁allyson	-9.7443
▁clive	-9.7443
▁buried	-9.74431
▁dust	-9.74435
▁motor	-9.74437
▁positive	-9.7444
▁launch	-9.74448
▁standard	-9.74469
▁freeway	-9.74469
▁chase	-9.74731
▁tip	-9.7478
▁heads	-9.74792
▁lll	-9.74879
▁opened	-9.74933
▁dads	-9.75048
▁coughs	-9.7513
▁triple	-9.7518
▁mum	-9.75205
▁charges	-9.75613
▁reports	-9.75615
▁clicks	-9.75726
▁cars	-9.75908
▁hat	-9.75949
▁hells	-9.76214
▁purpose	-9.76486
▁fellow	-9.76493
▁exist	-9.76519
▁monster	-9.76521
▁issue	-9.76529
▁gate	-9.76581
▁shark	-9.76583
▁member	-9.76586
▁leader	-9.76667
▁tear	-9.77048
▁cases	-9.77229
▁strip	-9.77258
▁voices	-9.77314
▁swing	-9.77459
▁self	-9.77522
▁discuss	-9.77594
▁suffer	-9.77655
▁collect	-9.77743
▁pieces	-9.77916
▁post	-9.78016
▁trash	-9.78069
▁rat	-9.78205
▁porn	-9.7823
▁assholes	-9.78293
▁particular	-9.78293
▁bright	-9.7838
▁mmhm	-9.78404
▁among	-9.78406
▁apparently	-9.78426
▁clinch	-9.78426
▁faggot	-9.78426
▁fantastic	-9.78426
▁halloween	-9.78426
▁literally	-9.78426
▁understood	-9.78426
▁cyrus	-9.78427
▁example	-9.78427
▁yellow	-9.78428
▁community	-9.78428
▁june	-9.78429
▁failure	-9.7843
▁horrible	-9.78433
▁capone	-9.78433
▁poker	-9.78438
▁studio	-9.7844
▁sauce	-9.78442
▁treatment	-9.78445
▁barely	-9.78445
▁bike	-9.78452
▁cure	-9.78453
▁terry	-9.78453
▁benny	-9.78454
▁thatd	-9.78459
▁lonely	-9.78461
▁moon	-9.78468
▁hm	-9.78471
▁lowry	-9.78471
▁rex	-9.78492
▁suddenly	-9.78498
▁received	-9.78537
▁lil	-9.78552
▁coma	-9.78659
▁fisher	-9.78664
▁bin	-9.78702
▁personally	-9.78831
▁tires	-9.7885
by	-9.78913
▁stops	-9.78929
▁smells	-9.78977
▁stars	-9.79005
ism	-9.79055
tic	-9.79384
▁places	-9.79388
▁sec	-9.7942
▁towards	-9.79465
▁backup	-9.79574
▁bat	-9.79886
▁selling	-9.79967
▁signed	-9.79983
▁trick	-9.80175
▁sharks	-9.80318
▁ad	-9.80335
▁beating	-9.80431
▁eggs	-9.80443
▁helicopter	-9.80567
▁location	-9.80569
▁tapes	-9.80581
▁ways	-9.80603
▁procedure	-9.80607
▁statement	-9.80615
▁season	-9.80632
▁bones	-9.80699
▁bi	-9.80761
▁hanging	-9.809
ally	-9.81148
ola	-9.81263
▁plant	-9.81386
▁bombing	-9.81839
lin	-9.81989
▁counsel	-9.82087
▁talent	-9.82245
▁hurting	-9.82333
▁prepare	-9.82391
▁mistakes	-9.82442
▁speech	-9.82539
▁silver	-9.82547
▁style	-9.82577
▁sara	-9.82583
▁although	-9.82593
▁cheese	-9.82593
▁garden	-9.82593
▁genius	-9.82593
▁laurie	-9.82593
▁mccormack	-9.82593
▁mullins	-9.82593
▁necessary	-9.82593
▁schedule	-9.82593
▁nature	-9.82594
▁trigger	-9.82594
▁surgery	-9.82594
▁glory	-9.82595
▁lexi	-9.82595
▁babies	-9.82595
▁pipe	-9.82596
▁television	-9.82597
▁chuckling	-9.82598
▁clock	-9.82607
▁duty	-9.82608
▁linda	-9.82608
▁oil	-9.82626
▁smoking	-9.82628
▁bout	-9.8264
▁exchange	-9.82658
▁harlan	-9.82675
▁protection	-9.82692
▁approaching	-9.82728
▁sean	-9.82743
mo	-9.82842
ul	-9.82878
▁headed	-9.82937
▁fuckers	-9.8304
▁balance	-9.83092
▁lookin	-9.83139
▁bitches	-9.83184
▁partners	-9.83317
▁finding	-9.83486
▁kicked	-9.83543
▁details	-9.83838
▁heading	-9.84164
▁parking	-9.84192
▁bang	-9.84227
▁crack	-9.84412
▁dis	-9.84437
▁hook	-9.84438
▁shake	-9.84586
▁fan	-9.84599
▁machines	-9.84604
▁connection	-9.84981
▁nurse	-9.84981
▁nigger	-9.84982
▁print	-9.85007
▁computers	-9.85251
▁indian	-9.85309
▁he	-9.85373
▁refuse	-9.85712
▁mo	-9.85897
▁of	-9.86168
▁guarantee	-9.86724
▁vote	-9.86743
▁shift	-9.86779
▁va	-9.86782
▁cheap	-9.86807
▁physical	-9.8681
▁ambulance	-9.86941
▁ashamed	-9.86941
▁borras	-9.86941
▁dukhovich	-9.86941
▁khrushchev	-9.86941
▁margaret	-9.86941
▁attitude	-9.86941
▁ransom	-9.86941
▁woke	-9.86943
▁appointment	-9.86944
▁fought	-9.86945
▁kitty	-9.86945
▁rapid	-9.86947
▁vacation	-9.86949
▁handsome	-9.86953
▁familiar	-9.86954
▁extreme	-9.86956
▁complicated	-9.86969
▁saving	-9.87006
▁dive	-9.87012
nial	-9.87017
▁beeping	-9.87026
▁designed	-9.87097
▁healthy	-9.87117
▁bay	-9.87157
▁clark	-9.8719
▁messages	-9.872
▁signal	-9.87245
▁rate	-9.87261
▁pin	-9.87293
▁x	-9.87303
▁based	-9.87307
▁orders	-9.87332
▁knowledge	-9.87351
▁realized	-9.87501
▁rude	-9.88029
▁u	-9.88079
▁staring	-9.88101
▁carol	-9.88344
ge	-9.88449
▁documents	-9.88503
▁hardly	-9.88559
ill	-9.88906
ng	-9.89214
▁scream	-9.89236
▁belong	-9.89241
▁load	-9.89311
▁patricia	-9.895
▁noise	-9.89508
bo	-9.89522
▁debt	-9.89527
▁interrogation	-9.8956
▁tower	-9.8958
▁carli	-9.89586
▁vampires	-9.89609
▁student	-9.89614
▁photo	-9.89634
ha	-9.89871
▁dancer	-9.89892
▁ron	-9.89905
io	-9.90456
▁snap	-9.90522
▁smash	-9.90657
▁under	-9.90702
▁disappear	-9.90711
of	-9.90931
▁points	-9.91035
▁provide	-9.91097
▁swallow	-9.91138
▁cats	-9.91222
▁recognize	-9.9127
▁creep	-9.91336
▁daughters	-9.91343
▁mental	-9.91346
▁beg	-9.91432
▁dean	-9.91481
▁amelia	-9.91486
▁atlanta	-9.91486
▁brilliant	-9.91486
▁defense	-9.91486
▁deputy	-9.91486
▁enemy	-9.91486
▁flesh	-9.91486
▁league	-9.91486
▁maintain	-9.91486
▁pathetic	-9.91486
▁weather	-9.91486
▁anger	-9.91487
▁bride	-9.91487
▁barbara	-9.91487
▁intelligence	-9.91488
▁false	-9.91488
▁dozen	-9.9149
▁began	-9.91497
▁peyton	-9.91498
▁rosa	-9.91505
▁planned	-9.91508
▁therapy	-9.91508
▁fortune	-9.91511
▁buttle	-9.91514
▁secretary	-9.91521
▁flash	-9.91526
▁highway	-9.91535
▁whimpering	-9.91537
▁stolen	-9.91566
day	-9.91583
▁pm	-9.91592
▁express	-9.91652
▁reality	-9.9174
▁discovered	-9.91773
▁noticed	-9.91849
▁wasted	-9.91909
▁forty	-9.91916
▁slayers	-9.92061
▁walls	-9.92185
▁sand	-9.92334
wa	-9.92396
▁lately	-9.92755
▁showing	-9.93057
li	-9.9345
▁phones	-9.93598
▁nicolas	-9.93741
▁bullets	-9.93919
▁meaning	-9.94043
▁cares	-9.94073
▁pages	-9.94095
▁beth	-9.94166
▁spit	-9.94227
▁contract	-9.94283
▁guest	-9.94314
▁snake	-9.94354
ton	-9.94365
▁terrorist	-9.94389
▁sometime	-9.94422
▁tickets	-9.94546
▁demo	-9.94764
ot	-9.95111
▁su	-9.95166
▁shows	-9.95171
▁lo	-9.95291
j	-9.95385
▁thousands	-9.95539
▁watched	-9.95688
▁deliver	-9.95725
▁connect	-9.95768
ine	-9.95793
▁plays	-9.95812
▁remove	-9.96043
▁stan	-9.9609
▁rough	-9.96118
▁success	-9.96212
▁insurance	-9.96248
▁lindsey	-9.96248
▁lydia	-9.96248
▁material	-9.96248
▁mexican	-9.96248
▁paradise	-9.96248
▁research	-9.96248
▁simply	-9.96248
▁society	-9.96248
▁southjet	-9.96248
▁steel	-9.96248
▁illegal	-9.96248
▁larson	-9.96248
▁marcus	-9.96248
▁mostly	-9.96248
▁slim	-9.96248
▁nicole	-9.96249
▁science	-9.96249
▁mexico	-9.96249
▁powder	-9.96249
▁elevator	-9.96249
▁smith	-9.9625
▁trapped	-9.96251
▁argue	-9.96251
▁parry	-9.96252
▁gear	-9.96253
▁century	-9.96253
▁wikus	-9.96253
▁stella	-9.96254
▁booze	-9.96254
▁wack	-9.96255
▁fancy	-9.96256
▁jury	-9.96257
▁baseball	-9.96257
▁slight	-9.96262
▁rome	-9.96264
▁philip	-9.96265
▁warden	-9.96266
▁edge	-9.96269
▁quarterback	-9.96269
▁cries	-9.96276
▁carrie	-9.96279
▁pink	-9.96285
▁milk	-9.96287
▁role	-9.96295
▁safety	-9.96306
▁meal	-9.9632
▁national	-9.9633
▁badge	-9.96364
▁sofi	-9.96378
▁buzzing	-9.96382
▁turning	-9.964
▁bench	-9.9641
▁moaning	-9.96484
▁former	-9.96486
▁wounded	-9.96488
▁comedy	-9.96588
▁clicking	-9.96614
▁joint	-9.96647
▁weekends	-9.96725
▁planet	-9.96728
▁manage	-9.96743
▁mustve	-9.96824
▁hunter	-9.96899
▁tap	-9.9692
▁lab	-9.96922
▁bills	-9.9695
▁windows	-9.96994
▁younger	-9.97098
▁highly	-9.97281
▁yells	-9.97318
▁offered	-9.97322
▁cheers	-9.97326
ke	-9.97418
▁enjoying	-9.97418
▁pr	-9.97554
per	-9.97667
▁closet	-9.97897
▁rep	-9.98191
▁touched	-9.98446
▁tears	-9.98532
▁woods	-9.98709
▁knee	-9.98828
▁ton	-9.99128
▁cousin	-9.99224
▁birds	-9.99294
▁victim	-9.99395
▁term	-9.99401
be	-9.99424
▁pie	-9.9948
▁bags	-9.99704
▁murderer	-9.99777
ber	-9.99789
▁nail	-9.99833
▁path	-9.99856
▁ph	-10
▁gal	-10.0033
▁sweat	-10.0051
▁ca	-10.0058
▁climb	-10.0081
▁traffic	-10.0086
▁mix	-10.009
ball	-10.0098
▁chris	-10.0101
▁muff	-10.0121
q	-10.0123
▁comin	-10.0124
▁rig	-10.0124
▁alison	-10.0125
▁behavior	-10.0125
▁caleb	-10.0125
▁chelsea	-10.0125
▁courage	-10.0125
▁dovid	-10.0125
▁enemies	-10.0125
▁ferguson	-10.0125
▁georgy	-10.0125
▁infection	-10.0125
▁internet	-10.0125
▁kovic	-10.0125
▁luther	-10.0125
▁nightmare	-10.0125
▁wednesday	-10.0125
▁jodie	-10.0125
▁silence	-10.0125
▁miami	-10.0125
▁kidnapped	-10.0125
▁authorities	-10.0125
▁expensive	-10.0125
▁firing	-10.0125
▁hoffman	-10.0125
▁elwood	-10.0125
▁edward	-10.0126
▁decent	-10.0126
▁link	-10.0126
▁punk	-10.0126
▁roof	-10.0126
▁beast	-10.0126
▁zero	-10.0126
▁ryan	-10.0127
▁winning	-10.0128
▁commissioner	-10.013
boy	-10.0131
▁chanting	-10.0131
▁mercy	-10.0131
▁aim	-10.0131
▁usual	-10.0131
▁barry	-10.0132
▁trailer	-10.0137
▁pickup	-10.014
▁hearts	-10.014
▁corn	-10.0141
▁mis	-10.0141
ding	-10.0142
▁properly	-10.0142
▁embarrassing	-10.0156
▁sobs	-10.0159
▁golf	-10.0166
▁managed	-10.0166
▁lips	-10.0167
▁dumped	-10.0172
▁sons	-10.0177
▁slowly	-10.0184
▁mid	-10.0185
▁mentioned	-10.0194
▁quietly	-10.0194
▁wipe	-10.0212
▁hardt	-10.0215
▁non	-10.0221
▁loss	-10.0223
▁growing	-10.0229
ability	-10.0233
▁slaves	-10.0244
▁und	-10.0248
▁ja	-10.0251
lie	-10.0255
▁le	-10.0261
▁johner	-10.0294
▁abuse	-10.0296
lo	-10.0306
▁ordered	-10.032
▁terrorists	-10.0325
ors	-10.0326
alam	-10.0329
▁recording	-10.0346
▁mon	-10.0355
▁streets	-10.0391
▁beers	-10.0402
▁pee	-10.0412
▁photograph	-10.0424
▁document	-10.0428
▁create	-10.0428
▁who	-10.0434
▁led	-10.044
▁ear	-10.0443
▁szell	-10.0453
▁cowboy	-10.0453
▁instrument	-10.0455
▁island	-10.0455
▁tuesday	-10.0459
▁odd	-10.0467
▁soldiers	-10.0469
▁professional	-10.0471
▁units	-10.0485
ba	-10.0523
ui	-10.0525
▁up	-10.0528
▁lines	-10.0558
▁pigs	-10.0564
▁believed	-10.0569
▁cheat	-10.0573
▁bo	-10.0576
▁lots	-10.0594
▁discover	-10.0601
▁confirm	-10.0614
▁ken	-10.0622
▁secure	-10.0629
▁require	-10.063
▁cave	-10.063
off	-10.0645
▁pakistan	-10.0647
▁pimp	-10.0649
▁birth	-10.0651
▁cunt	-10.0651
▁custody	-10.0651
▁dungeon	-10.0651
▁eventually	-10.0651
▁fabulous	-10.0651
▁flew	-10.0651
▁frozen	-10.0651
▁jordan	-10.0651
▁lazarus	-10.0651
▁moscow	-10.0651
▁pizza	-10.0651
▁popular	-10.0651
▁stood	-10.0651
▁taylor	-10.0651
▁thursday	-10.0651
▁valek	-10.0651
▁vegas	-10.0651
▁vodka	-10.0651
▁yunger	-10.0651
▁therapist	-10.0651
▁trauma	-10.0651
▁alpha	-10.0651
▁susie	-10.0651
▁sherwood	-10.0651
▁bravo	-10.0651
▁kidnapping	-10.0651
▁squad	-10.0651
▁assistant	-10.0652
▁uniform	-10.0652
▁harry	-10.0652
▁tuttle	-10.0652
▁lras	-10.0652
▁fadela	-10.0652
▁rare	-10.0652
▁alice	-10.0653
▁screen	-10.0653
▁princess	-10.0653
▁data	-10.0653
▁santa	-10.0654
▁touchdown	-10.0654
▁planning	-10.0654
▁shape	-10.0654
▁satan	-10.0654
▁luke	-10.0654
▁jill	-10.0654
▁mobile	-10.0655
▁airline	-10.0657
▁bud	-10.0657
▁subtitles	-10.0657
▁penny	-10.0658
▁counselor	-10.0659
▁blaring	-10.0659
▁nest	-10.066
▁net	-10.066
▁fifty	-10.0661
▁math	-10.0663
▁diego	-10.0664
▁grown	-10.0664
▁bobi	-10.0671
▁pity	-10.0672
▁johnson	-10.0672
▁coughing	-10.0673
▁metal	-10.0687
▁cheating	-10.0694
▁stronger	-10.0699
▁kings	-10.0708
▁event	-10.0711
▁treated	-10.0714
▁hundreds	-10.0715
▁secrets	-10.0716
▁drag	-10.0723
▁shouts	-10.0728
▁pills	-10.0731
▁starks	-10.0749
▁march	-10.0751
ver	-10.0755
▁lower	-10.0762
▁sports	-10.0769
▁waited	-10.0779
▁nights	-10.0785
▁mi	-10.0792
▁lover	-10.0809
▁leaves	-10.0877
▁somebodys	-10.0891
me	-10.0902
der	-10.0914
ka	-10.0917
our	-10.0928
▁sending	-10.0949
and	-10.0959
▁patients	-10.0967
▁faces	-10.0971
▁click	-10.0979
ny	-10.0988
▁winner	-10.1013
▁defendant	-10.1016
▁wave	-10.1017
▁marine	-10.1018
▁cigarette	-10.1019
▁lesson	-10.1034
▁shoulder	-10.1038
▁anti	-10.106
▁mu	-10.1083
ated	-10.109
▁demon	-10.1095
un	-10.1104
ize	-10.1122
▁defend	-10.1124
he	-10.1142
▁dealing	-10.1144
▁paint	-10.1146
work	-10.1173
▁all	-10.1183
woman	-10.1185
▁severe	-10.1188
▁separate	-10.1189
▁wh	-10.1194
▁fold	-10.1197
▁parts	-10.1202
▁homosexual	-10.1205
▁favour	-10.1206
▁cleitus	-10.1207
▁dallas	-10.1207
▁district	-10.1207
▁irene	-10.1207
▁license	-10.1207
▁neiman	-10.1207
▁possibly	-10.1207
▁retrieval	-10.1207
▁smooth	-10.1207
▁advance	-10.1207
▁flea	-10.1207
▁steady	-10.1207
▁warrant	-10.1207
▁someday	-10.1207
▁helpmann	-10.1207
while	-10.1207
▁insist	-10.1207
▁valley	-10.1207
▁cherry	-10.1207
▁enforcement	-10.1207
▁executive	-10.1207
▁darrell	-10.1207
▁diana	-10.1207
▁zeus	-10.1207
▁salt	-10.1207
▁grail	-10.1207
▁closing	-10.1207
▁negative	-10.1207
▁raw	-10.1207
▁violet	-10.1207
▁memories	-10.1207
▁medicine	-10.1207
▁practically	-10.1208
▁coward	-10.1208
▁award	-10.1209
▁energy	-10.1209
▁alley	-10.1209
▁loving	-10.1209
▁kansas	-10.1209
▁wives	-10.1209
▁drill	-10.121
▁lena	-10.121
▁wallet	-10.121
▁dating	-10.1211
▁exit	-10.1211
▁betty	-10.1212
▁wailing	-10.1213
▁recently	-10.1213
▁waitress	-10.1214
▁johnny	-10.1215
▁gim	-10.1216
▁boz	-10.1219
▁when	-10.1219
▁souls	-10.1222
▁oi	-10.1223
▁belt	-10.1223
ities	-10.1223
loans	-10.1225
▁christie	-10.1226
▁louder	-10.1232
▁coat	-10.1232
▁facts	-10.1237
▁warning	-10.1237
▁lifetime	-10.1239
▁jackie	-10.124
▁movement	-10.1242
▁provided	-10.1243
▁bowl	-10.1243
▁engines	-10.1244
ph	-10.1245
▁disappeared	-10.1248
▁loaded	-10.1249
▁anne	-10.1251
▁wide	-10.1251
▁beard	-10.1256
▁checking	-10.1257
▁dope	-10.1263
▁suffering	-10.1267
▁techniques	-10.1277
▁answers	-10.1278
▁jo	-10.1292
▁someones	-10.1292
▁asses	-10.1295
▁reached	-10.134
▁trained	-10.1345
▁knocked	-10.1354
▁messing	-10.1377
▁grave	-10.1393
ious	-10.1394
▁thin	-10.1403
▁pit	-10.1417
▁reported	-10.1449
▁ver	-10.1463
▁sp	-10.148
▁cleaning	-10.1508
ial	-10.1521
▁bottles	-10.153
▁touching	-10.1535
▁badly	-10.1539
▁punch	-10.1541
ten	-10.1557
ler	-10.1558
▁aliens	-10.1565
▁lev	-10.1575
▁gut	-10.1579
▁cocks	-10.1587
▁tank	-10.1588
▁steak	-10.1592
▁pi	-10.1594
▁expert	-10.1596
▁doughnut	-10.1596
▁cow	-10.1598
▁wilkinson	-10.1599
▁what	-10.161
▁ana	-10.1621
▁suits	-10.1623
▁plate	-10.1624
▁picking	-10.163
one	-10.1632
▁lou	-10.1638
▁perform	-10.1655
▁chop	-10.1655
▁houses	-10.1671
men	-10.1676
▁butt	-10.1693
ect	-10.1698
▁sides	-10.1716
▁screech	-10.1752
▁sink	-10.1755
▁attempt	-10.1759
▁twist	-10.176
▁crush	-10.1761
▁jeff	-10.1763
house	-10.177
▁curse	-10.1774
▁assume	-10.1774
uck	-10.1774
▁acknowledge	-10.1775
easy	-10.1777
▁guilt	-10.178
▁emotional	-10.1782
▁obvious	-10.1782
▁flow	-10.1783
▁mornin	-10.1791
▁patrol	-10.1791
▁bamb	-10.1792
▁gross	-10.1793
▁psycho	-10.1793
▁charles	-10.1795
▁accent	-10.1795
▁audience	-10.1795
▁benefit	-10.1795
▁cadence	-10.1795
▁ceiling	-10.1795
▁circle	-10.1795
▁dawn	-10.1795
▁elgyn	-10.1795
▁exciting	-10.1795
▁explosiveskull	-10.1795
▁graysmith	-10.1795
▁gretta	-10.1795
▁hinkley	-10.1795
▁library	-10.1795
▁revenge	-10.1795
▁saint	-10.1795
▁woz	-10.1795
▁presence	-10.1795
▁drove	-10.1795
▁telephone	-10.1795
▁andand	-10.1795
▁bureau	-10.1795
▁interzone	-10.1795
▁claude	-10.1795
▁polite	-10.1795
▁trunk	-10.1795
▁xray	-10.1795
▁swimming	-10.1795
▁candy	-10.1795
▁moonlight	-10.1795
▁combat	-10.1795
▁favourite	-10.1795
▁motion	-10.1795
▁chinese	-10.1796
▁wherever	-10.1796
▁beef	-10.1796
▁yup	-10.1797
▁trap	-10.1797
▁plain	-10.1797
▁responsibility	-10.1797
▁series	-10.1798
▁rae	-10.1798
▁slide	-10.1799
▁policy	-10.18
▁jenny	-10.18
▁benway	-10.18
▁italian	-10.18
▁burger	-10.18
▁snow	-10.1801
▁roaring	-10.1802
▁jamie	-10.1803
▁taxes	-10.1804
▁wise	-10.1805
▁bass	-10.1807
▁shithole	-10.1808
▁tiny	-10.1808
▁scary	-10.1809
▁setting	-10.181
▁witnesses	-10.181
▁eva	-10.1811
▁fry	-10.1812
▁creaking	-10.1812
▁creepy	-10.1815
▁hire	-10.182
▁removed	-10.182
▁shy	-10.1828
▁spin	-10.1835
▁fate	-10.1842
ern	-10.1844
▁tied	-10.1851
▁banging	-10.1854
▁media	-10.1868
▁kills	-10.188
▁depends	-10.1895
▁bastards	-10.1903
▁yay	-10.1905
▁riding	-10.1907
▁minds	-10.1925
▁armed	-10.1929
ap	-10.1931
ou	-10.1948
ol	-10.1951
▁lend	-10.1971
▁acted	-10.1978
nk	-10.199
▁bush	-10.2002
▁odds	-10.2009
op	-10.201
▁drinks	-10.202
▁terms	-10.2021
▁students	-10.2045
▁shakes	-10.2058
▁reasons	-10.208
▁seek	-10.2093
ons	-10.2098
side	-10.2104
▁tone	-10.211
▁hal	-10.212
▁changes	-10.2127
her	-10.2133
▁commit	-10.2136
▁demand	-10.218
▁jt	-10.2182
▁hug	-10.2187
tion	-10.2193
▁costs	-10.2211
▁pan	-10.2212
▁moron	-10.2218
▁desire	-10.2224
▁artist	-10.2224
▁fence	-10.2225
▁degree	-10.2229
▁christian	-10.223
▁blade	-10.223
▁detail	-10.2234
▁toe	-10.2249
▁cal	-10.2264
ating	-10.2272
▁drives	-10.2291
▁murders	-10.2306
ite	-10.2313
▁dealer	-10.2363
ted	-10.2367
▁forces	-10.2369
▁bend	-10.2372
▁echo	-10.2375
▁convict	-10.2377
▁shock	-10.2386
bi	-10.2388
▁panic	-10.239
▁burns	-10.2395
▁rocks	-10.2397
▁stab	-10.2397
ible	-10.24
▁sneak	-10.24
just	-10.24
what	-10.2401
▁sail	-10.2405
▁exact	-10.2408
▁irish	-10.2412
▁asia	-10.2415
▁gettin	-10.2417
▁comfort	-10.2418
▁pride	-10.2418
▁measure	-10.2418
▁virgin	-10.2419
▁kidnap	-10.2419
▁village	-10.2419
▁brand	-10.2419
▁abandon	-10.242
▁angie	-10.242
▁beresford	-10.242
▁corporate	-10.242
▁cyril	-10.242
▁equipment	-10.242
▁financial	-10.242
▁gorgeous	-10.242
▁harvard	-10.242
▁hawkins	-10.242
▁headaches	-10.242
▁incident	-10.242
▁injured	-10.242
▁jazz	-10.242
▁knives	-10.242
▁ludlow	-10.242
▁malenkov	-10.242
▁oskar	-10.242
▁parmenion	-10.242
▁reggie	-10.242
▁reynolds	-10.242
▁scusa	-10.242
▁svetlana	-10.242
▁whistling	-10.242
▁adult	-10.242
▁bryant	-10.242
▁current	-10.242
▁ellen	-10.242
▁mnu	-10.242
▁random	-10.242
▁chromium	-10.242
▁cortez	-10.242
▁coincidence	-10.242
▁lutz	-10.242
▁clever	-10.242
▁olga	-10.242
▁behalf	-10.242
▁curious	-10.242
▁activity	-10.242
▁device	-10.242
▁stake	-10.242
▁flashlight	-10.242
▁keating	-10.242
▁chasing	-10.242
▁couch	-10.2421
▁therell	-10.2421
▁japanese	-10.2421
▁scratch	-10.2421
▁coast	-10.2421
▁marshall	-10.2421
▁padre	-10.2421
▁temple	-10.2421
▁aboard	-10.2421
▁oath	-10.2421
▁capital	-10.2421
▁passport	-10.2421
▁forgotten	-10.2422
▁thumb	-10.2422
▁stream	-10.2422
▁storm	-10.2422
▁solution	-10.2422
▁exercise	-10.2423
▁inspector	-10.2423
▁filthy	-10.2423
▁impression	-10.2423
▁direction	-10.2424
▁distress	-10.2424
▁cage	-10.2425
▁peterson	-10.2425
▁darkness	-10.2426
▁unfortunately	-10.2426
▁katie	-10.2426
▁duel	-10.2428
▁stopping	-10.243
▁china	-10.243
▁inch	-10.2431
▁off	-10.2431
▁active	-10.2433
▁goal	-10.2435
▁bored	-10.2435
▁meters	-10.2443
▁joe	-10.2449
▁ham	-10.245
▁pile	-10.2456
▁divorced	-10.2458
▁eaten	-10.2458
▁homeless	-10.246
▁stoned	-10.2463
▁drawer	-10.2473
▁screwed	-10.2478
▁ditch	-10.2488
ose	-10.2493
▁commander	-10.2514
▁greatest	-10.2516
▁carefully	-10.2521
om	-10.2524
▁gloves	-10.2525
▁cooking	-10.2529
ner	-10.2534
ai	-10.2546
▁sales	-10.2558
▁leading	-10.2584
▁options	-10.2587
ze	-10.259
▁goodness	-10.2591
▁pushing	-10.2596
▁neighbors	-10.2599
▁kicking	-10.2605
▁vi	-10.2606
▁shove	-10.2607
▁resist	-10.2613
▁slice	-10.2633
cy	-10.2636
▁spending	-10.2643
▁passing	-10.268
cha	-10.2681
▁fi	-10.2687
ina	-10.2689
▁aa	-10.2704
▁rolling	-10.2707
ex	-10.2709
les	-10.2746
▁magazines	-10.2762
▁cells	-10.2772
we	-10.2819
▁buying	-10.2823
▁organ	-10.2826
▁becomes	-10.2835
che	-10.2839
▁gig	-10.2851
▁les	-10.2855
▁wound	-10.2857
▁arrive	-10.2866
▁spring	-10.2884
▁sack	-10.2886
▁aunt	-10.2888
▁clue	-10.2891
▁experiment	-10.2896
▁greek	-10.2896
▁dolphin	-10.2897
▁mountain	-10.2897
▁neighbor	-10.2899
ck	-10.2903
▁tune	-10.2908
▁cameras	-10.294
▁ideas	-10.2954
▁steps	-10.2969
jo	-10.2969
▁decisions	-10.2979
▁be	-10.2987
ized	-10.299
▁bow	-10.2995
▁americans	-10.2999
▁fail	-10.3009
▁embarrass	-10.3011
▁walks	-10.3039
▁transport	-10.3041
▁inform	-10.3046
▁stain	-10.3051
▁lick	-10.3052
▁review	-10.3053
▁accounts	-10.3056
▁ending	-10.3058
▁struggle	-10.3064
▁brit	-10.3064
▁advise	-10.3066
▁scar	-10.3067
▁trail	-10.3071
▁jam	-10.3071
▁violent	-10.3072
▁bunk	-10.3078
▁sandwich	-10.3081
▁kev	-10.3083
▁slip	-10.3086
▁wreck	-10.3086
▁antoine	-10.3087
▁brennan	-10.3087
▁bronco	-10.3087
▁challenge	-10.3087
▁champagne	-10.3087
▁confidence	-10.3087
▁declan	-10.3087
▁desmond	-10.3087
▁diondra	-10.3087
▁fridge	-10.3087
▁grendel	-10.3087
▁heinrich	-10.3087
▁initial	-10.3087
▁melvin	-10.3087
▁misunderstand	-10.3087
▁orange	-10.3087
▁outfit	-10.3087
▁potential	-10.3087
▁prevent	-10.3087
▁profile	-10.3087
▁sarge	-10.3087
▁slut	-10.3087
▁squeeze	-10.3087
▁tragedy	-10.3087
▁wilson	-10.3087
▁woodcock	-10.3087
▁zoil	-10.3087
▁apologies	-10.3087
▁blanc	-10.3087
▁boston	-10.3087
▁byebye	-10.3087
▁deposit	-10.3087
▁proceed	-10.3087
▁strawberry	-10.3087
▁superior	-10.3087
▁vasily	-10.3087
▁advantage	-10.3087
▁stairs	-10.3087
▁toschi	-10.3087
▁flies	-10.3087
▁modern	-10.3087
▁molotov	-10.3087
▁limp	-10.3087
▁becoming	-10.3087
▁motorcycle	-10.3087
▁junk	-10.3087
▁midnight	-10.3087
▁guldo	-10.3087
▁identity	-10.3087
▁josie	-10.3087
▁babysitter	-10.3087
▁contest	-10.3087
▁frawl	-10.3087
▁craig	-10.3087
▁anytime	-10.3087
▁wray	-10.3087
▁timmy	-10.3087
▁mitchell	-10.3087
▁turkey	-10.3087
▁industry	-10.3087
▁university	-10.3087
▁brush	-10.3087
▁blanket	-10.3087
▁seventeen	-10.3088
▁leadership	-10.3088
▁aside	-10.3088
▁label	-10.3088
▁greg	-10.3088
▁whatre	-10.3089
▁intend	-10.3089
▁laden	-10.3089
▁lean	-10.3089
▁confession	-10.309
▁selfish	-10.3091
▁background	-10.3091
▁haul	-10.3091
▁forgiveness	-10.3091
▁lucy	-10.3092
▁alcoholic	-10.3092
▁madness	-10.3093
▁brutal	-10.3093
▁murphy	-10.3094
▁captured	-10.3096
▁quote	-10.3096
▁marks	-10.3097
▁powerful	-10.3098
▁steam	-10.3099
▁highness	-10.31
▁cutting	-10.3101
▁core	-10.3101
▁committed	-10.3102
▁royal	-10.3102
▁spoken	-10.3104
▁fried	-10.3106
▁hitting	-10.3106
▁joy	-10.3106
▁physically	-10.3107
▁realise	-10.3111
▁joker	-10.3111
▁highest	-10.3113
▁carried	-10.3116
▁tillman	-10.3117
▁hugh	-10.3118
▁inmates	-10.312
▁embarrassed	-10.312
▁cable	-10.3121
▁dec	-10.3127
▁scoffs	-10.3133
▁announce	-10.3135
▁belly	-10.3135
▁normally	-10.314
▁operate	-10.314
▁fe	-10.3142
▁beeps	-10.3145
▁painting	-10.3146
▁sniffs	-10.3146
▁doo	-10.3147
▁entirely	-10.3149
▁escaped	-10.315
▁cent	-10.315
pe	-10.3154
▁washed	-10.316
down	-10.3165
▁signs	-10.3171
▁gosh	-10.3171
▁russians	-10.3173
▁camel	-10.3179
▁charged	-10.3188
oy	-10.3194
▁rope	-10.3231
ake	-10.3237
▁fishing	-10.3238
▁mel	-10.3245
▁tryin	-10.3252
▁shutter	-10.3265
▁offering	-10.3281
▁bombs	-10.3299
▁guide	-10.3302
ho	-10.3317
▁cigarettes	-10.3319
▁sc	-10.3337
▁tin	-10.3347
▁blowing	-10.3348
▁waiter	-10.3367
▁events	-10.338
▁prints	-10.3384
▁she	-10.3391
▁inc	-10.3411
▁gates	-10.3413
▁daddys	-10.3416
▁moves	-10.3418
▁seats	-10.3446
▁remains	-10.3482
▁cente	-10.3488
▁choices	-10.3519
ley	-10.3524
ions	-10.3526
▁ri	-10.3538
▁ruin	-10.3568
▁cancel	-10.3572
▁limit	-10.3577
▁damage	-10.3578
▁chapter	-10.3599
▁ka	-10.3601
▁nerve	-10.3602
▁monkey	-10.3607
▁option	-10.3608
▁am	-10.3611
▁wheel	-10.3612
▁toward	-10.3616
▁yard	-10.3619
▁billion	-10.3624
▁farmer	-10.3628
▁payment	-10.3632
▁prayer	-10.3639
▁fore	-10.368
▁prisoner	-10.3692
▁ram	-10.37
▁auto	-10.3702
▁fa	-10.3713
▁insult	-10.3717
▁worrying	-10.3726
ip	-10.3729
▁faint	-10.375
▁chances	-10.3752
▁alert	-10.3762
▁recommend	-10.3763
▁charm	-10.3766
▁gain	-10.377
▁breaks	-10.3775
▁describe	-10.3779
▁multipl	-10.3784
▁dirt	-10.3786
▁desperate	-10.3787
▁sudden	-10.3788
▁rape	-10.3788
▁incredibl	-10.3791
▁direct	-10.3795
▁julia	-10.3797
▁chuck	-10.3798
razie	-10.3799
▁represent	-10.3799
▁prior	-10.3799
▁transfer	-10.38
▁identify	-10.3801
▁monitor	-10.3801
▁appeal	-10.3801
▁cease	-10.3801
▁charlotte	-10.3801
▁chrisann	-10.3801
▁clarissa	-10.3801
▁florida	-10.3801
▁gasoline	-10.3801
▁hillbilly	-10.3801
▁intel	-10.3801
▁invitation	-10.3801
▁jeannie	-10.3801
▁liquor	-10.3801
▁memphis	-10.3801
▁nonsense	-10.3801
▁opposite	-10.3801
▁perimeter	-10.3801
▁political	-10.3801
▁professor	-10.3801
▁rhythm	-10.3801
▁sculley	-10.3801
▁selva	-10.3801
▁senior	-10.3801
▁shotgun	-10.3801
▁surrounded	-10.3801
▁surveillance	-10.3801
▁tattoo	-10.3801
▁teresa	-10.3801
▁unusual	-10.3801
▁bryce	-10.3801
▁genie	-10.3801
▁instructions	-10.3801
▁kingdom	-10.3801
▁indeed	-10.3801
▁candidate	-10.3801
▁underground	-10.3801
▁berlin	-10.3801
▁indictment	-10.3801
▁apology	-10.3801
▁nova	-10.3801
▁testimony	-10.3801
▁durant	-10.3801
▁fuel	-10.3801
▁status	-10.3801
▁cheney	-10.3802
▁roussel	-10.3802
▁blah	-10.3802
▁torn	-10.3802
serving	-10.3802
▁hayes	-10.3802
▁southern	-10.3802
▁obey	-10.3802
▁bucket	-10.3802
▁facility	-10.3803
▁paperwork	-10.3803
cious	-10.3803
▁response	-10.3803
▁colin	-10.3803
▁reilly	-10.3803
▁bonus	-10.3803
▁plug	-10.3803
▁wore	-10.3804
▁hush	-10.3804
▁babylon	-10.3804
▁duck	-10.3804
▁fruit	-10.3805
hmer	-10.3805
▁reaction	-10.3805
▁dna	-10.3805
▁miller	-10.3806
▁shore	-10.3806
▁bait	-10.3806
▁error	-10.3806
▁ranch	-10.3808
▁germany	-10.3809
▁robbery	-10.3809
▁chat	-10.3809
▁taxi	-10.381
▁cried	-10.381
▁authorized	-10.3811
▁err	-10.3811
▁bury	-10.3813
▁shining	-10.3813
▁whispering	-10.3815
▁stress	-10.3819
▁earned	-10.382
ned	-10.3822
▁down	-10.3823
▁cooperate	-10.3825
▁mal	-10.3825
▁tail	-10.3825
▁bond	-10.3826
▁sonia	-10.3827
▁fourth	-10.3828
▁kate	-10.3828
▁pub	-10.3828
▁latest	-10.3831
▁naturally	-10.3832
ters	-10.3836
▁eve	-10.3837
▁squealing	-10.3837
▁survived	-10.3851
▁jr	-10.3853
▁settled	-10.3857
▁singer	-10.3859
▁grade	-10.386
▁thankyou	-10.3861
▁useless	-10.3868
▁chin	-10.3869
▁busted	-10.3875
▁jews	-10.3879
▁drawing	-10.3901
▁accepted	-10.392
▁image	-10.3921
▁considering	-10.3933
▁tested	-10.3954
ni	-10.3963
▁sub	-10.3966
▁pet	-10.3971
ning	-10.3987
▁speakers	-10.3991
▁allie	-10.3996
bed	-10.4004
▁op	-10.4012
▁classic	-10.4028
▁lessons	-10.4054
▁feelin	-10.4055
▁terror	-10.4063
cal	-10.4067
▁mim	-10.4081
▁cleaned	-10.4113
▁chip	-10.4119
▁groups	-10.4138
ator	-10.4143
▁moral	-10.4177
four	-10.4177
▁fla	-10.4178
▁stepp	-10.421
▁rooms	-10.4211
▁angels	-10.4211
▁claims	-10.4226
ya	-10.423
ev	-10.4234
▁pockets	-10.424
▁fr	-10.4253
bra	-10.4265
▁po	-10.4268
▁menu	-10.429
▁caused	-10.4298
ga	-10.4311
▁spell	-10.4329
▁leak	-10.4344
▁bug	-10.4346
▁understanding	-10.4348
▁actions	-10.4361
▁taliban	-10.4368
▁version	-10.4368
▁threat	-10.437
▁prawn	-10.4372
▁creature	-10.4374
▁towel	-10.4378
▁olympic	-10.4379
▁result	-10.438
▁diner	-10.4384
▁parent	-10.4388
▁nut	-10.4395
▁mile	-10.4398
▁stranger	-10.4402
▁tastes	-10.4404
tor	-10.4408
ations	-10.4415
▁y	-10.4436
▁bars	-10.4446
da	-10.4457
▁mit	-10.447
back	-10.4473
▁jackal	-10.4478
pping	-10.448
▁bon	-10.4497
▁respond	-10.4518
▁receive	-10.453
▁crawl	-10.4534
▁slaughter	-10.4535
▁queens	-10.4538
like	-10.4546
▁hack	-10.4547
▁bull	-10.4548
▁rub	-10.4549
▁whi	-10.4549
▁replace	-10.4549
▁involve	-10.4553
▁thick	-10.4554
▁holes	-10.4555
▁memo	-10.4563
▁med	-10.4563
▁peck	-10.4564
▁dancin	-10.4567
▁flu	-10.4568
▁eleven	-10.457
▁slap	-10.457
▁argument	-10.457
▁barbecue	-10.457
▁crateros	-10.457
▁cube	-10.457
▁cynthia	-10.457
▁disagree	-10.457
▁elijah	-10.457
▁exposure	-10.457
▁garage	-10.457
▁glenn	-10.457
▁grenade	-10.457
▁hammond	-10.457
▁hebrew	-10.457
▁herakles	-10.457
▁hockey	-10.457
▁interpol	-10.457
▁isabella	-10.457
▁japan	-10.457
▁ntsb	-10.457
▁rachel	-10.457
▁religious	-10.457
▁reputation	-10.457
▁rizzo	-10.457
▁rouge	-10.457
▁slevin	-10.457
▁traitor	-10.457
▁trevor	-10.457
▁universe	-10.457
▁aircraft	-10.457
▁mercedes	-10.457
▁suspicious	-10.457
▁drew	-10.457
▁romesha	-10.457
▁annoying	-10.457
▁freezing	-10.457
▁novel	-10.457
▁choking	-10.457
▁helmet	-10.457
▁hollywood	-10.457
▁boomboom	-10.457
▁shboom	-10.457
▁smiling	-10.457
▁chinatown	-10.457
▁harris	-10.457
▁silent	-10.457
▁chronicle	-10.457
▁romantic	-10.4571
▁ksm	-10.4571
▁kiki	-10.4571
▁online	-10.4571
▁punishment	-10.4571
▁palace	-10.4571
▁messiah	-10.4571
▁sunset	-10.4571
▁douglas	-10.4571
▁tissue	-10.4571
▁worship	-10.4571
▁possession	-10.4571
▁grandfather	-10.4572
▁toby	-10.4572
▁possibility	-10.4572
▁clayton	-10.4572
▁dropping	-10.4572
▁addiction	-10.4572
▁zip	-10.4572
▁ordinary	-10.4572
▁sensitive	-10.4572
▁persian	-10.4573
▁joanna	-10.4573
▁reward	-10.4573
▁cities	-10.4573
▁dora	-10.4573
▁concentrate	-10.4574
▁tempo	-10.4574
▁becker	-10.4574
▁bert	-10.4574
▁thirsty	-10.4574
▁danger	-10.4574
▁champion	-10.4575
▁stack	-10.4575
▁brent	-10.4575
▁dime	-10.4575
▁bible	-10.4575
▁helen	-10.4576
▁inches	-10.4577
▁threatened	-10.4578
▁ugh	-10.4579
▁labor	-10.4579
▁threatening	-10.458
▁growling	-10.458
▁discussion	-10.4582
▁theme	-10.4582
▁port	-10.4584
▁sniffing	-10.4586
▁foy	-10.4586
▁thee	-10.4588
▁copies	-10.4589
hi	-10.459
▁homework	-10.4591
▁engaged	-10.4592
▁counter	-10.4593
▁boxes	-10.4596
▁regarding	-10.4596
▁blocks	-10.4602
gging	-10.4602
▁slave	-10.4603
▁steven	-10.4604
▁dresses	-10.4604
▁heroin	-10.4606
▁circumstances	-10.4609
▁thrown	-10.4615
▁closest	-10.4621
▁raped	-10.4621
▁whistles	-10.4624
▁soak	-10.4626
▁released	-10.4627
ring	-10.4631
▁behave	-10.4632
▁musicians	-10.4639
▁sa	-10.464
▁victory	-10.4643
▁buildings	-10.4644
▁dougy	-10.4645
▁sew	-10.4651
field	-10.4656
▁daniels	-10.4685
▁visiting	-10.4691
▁drums	-10.4701
do	-10.4708
▁wings	-10.4719
▁structure	-10.4723
▁stands	-10.4724
▁ahh	-10.4736
ville	-10.4757
▁laying	-10.4758
▁joined	-10.4771
▁inter	-10.4773
▁fully	-10.4773
▁dudes	-10.4776
▁explained	-10.478
ang	-10.4787
▁mountains	-10.4794
▁me	-10.4799
▁brings	-10.4802
▁crossing	-10.482
▁joining	-10.4826
▁tanks	-10.4826
▁guts	-10.4827
▁ir	-10.4842
▁protecting	-10.4843
▁recorded	-10.4848
▁dealers	-10.4851
shi	-10.486
▁kissed	-10.4866
▁ward	-10.4869
▁ease	-10.487
▁dreamed	-10.4885
▁snakes	-10.4889
▁tend	-10.4889
▁belongs	-10.4905
▁ab	-10.4912
▁hated	-10.4914
▁las	-10.4945
▁cleared	-10.496
▁officials	-10.4967
▁emails	-10.4967
▁demons	-10.4986
▁fart	-10.5004
▁trusted	-10.5024
▁hu	-10.5029
gi	-10.504
▁bump	-10.5056
▁fo	-10.5081
▁cart	-10.5108
erm	-10.5116
ded	-10.5117
▁nu	-10.512
▁yell	-10.5139
▁carly	-10.5142
▁breaths	-10.5146
▁volunteer	-10.5166
ado	-10.5172
▁admire	-10.5179
▁cheer	-10.5183
▁cor	-10.5184
▁weigh	-10.5191
▁prosecutor	-10.5195
▁increase	-10.5195
▁vision	-10.5205
▁effect	-10.5206
▁channel	-10.5208
▁survivor	-10.5208
▁rifle	-10.5211
▁stink	-10.5212
▁tribe	-10.5213
▁tool	-10.5214
sta	-10.5215
▁sport	-10.5219
sh	-10.5221
▁sale	-10.5226
▁pran	-10.5229
▁aid	-10.5241
▁heal	-10.5307
▁notes	-10.5308
▁ac	-10.5315
▁diet	-10.5315
▁suspects	-10.5322
▁gather	-10.5324
▁drown	-10.5328
▁the	-10.5334
kin	-10.5335
▁speaker	-10.5349
▁tuck	-10.5354
▁squeal	-10.5361
▁bleed	-10.5362
face	-10.5364
▁conduct	-10.5367
▁tracks	-10.5371
load	-10.5371
▁grant	-10.5372
▁moan	-10.5374
board	-10.5376
▁convince	-10.5382
▁produce	-10.5384
wood	-10.5384
▁grad	-10.5384
dollar	-10.5385
▁solve	-10.5388
▁recover	-10.5388
▁louis	-10.5389
saw	-10.5391
▁comp	-10.5396
▁macedonia	-10.5398
▁runnin	-10.54
▁europe	-10.5401
▁blank	-10.5403
▁confident	-10.5403
▁cigar	-10.5403
▁stereo	-10.5403
▁similar	-10.5403
▁annabelle	-10.5403
▁applause	-10.5403
▁awkward	-10.5403
▁cocksucker	-10.5403
▁council	-10.5403
▁cubs	-10.5403
▁dennis	-10.5403
▁dunno	-10.5403
▁empire	-10.5403
▁fugitive	-10.5403
▁gracias	-10.5403
▁hertzfeld	-10.5403
▁hetrick	-10.5403
▁horror	-10.5403
▁journey	-10.5403
▁lease	-10.5403
▁maximum	-10.5403
▁mcdonough	-10.5403
▁minimum	-10.5403
▁november	-10.5403
▁offense	-10.5403
▁oscar	-10.5403
▁recipe	-10.5403
▁rehearsal	-10.5403
▁restricted	-10.5403
▁sheppard	-10.5403
▁skirt	-10.5403
▁sonofabitch	-10.5403
▁strict	-10.5403
▁temporary	-10.5403
▁thrill	-10.5403
▁treasury	-10.5403
▁underneath	-10.5403
▁widow	-10.5403
▁zubaydah	-10.5403
▁crisis	-10.5403
▁mechanic	-10.5403
▁reveal	-10.5403
▁dragging	-10.5403
▁instance	-10.5404
▁terrified	-10.5404
▁remote	-10.5404
▁freddy	-10.5404
▁frost	-10.5404
▁pepper	-10.5404
▁vincent	-10.5404
▁radlo	-10.5404
▁income	-10.5404
▁plastic	-10.5404
▁yankee	-10.5404
▁predator	-10.5404
▁fashion	-10.5404
▁survival	-10.5404
▁skull	-10.5404
▁culture	-10.5404
▁bacon	-10.5404
▁uptown	-10.5404
▁specifically	-10.5404
▁uncomfortable	-10.5404
▁owns	-10.5404
▁application	-10.5404
▁shopping	-10.5404
▁stroke	-10.5404
▁qaeda	-10.5404
▁surgeon	-10.5404
▁violation	-10.5405
▁geez	-10.5405
▁stall	-10.5405
▁villagers	-10.5405
▁intense	-10.5405
▁broward	-10.5405
▁barrel	-10.5405
▁riverside	-10.5405
▁saul	-10.5405
▁cue	-10.5405
▁chirping	-10.5406
▁susan	-10.5406
▁unique	-10.5406
▁species	-10.5406
▁minor	-10.5406
▁objection	-10.5406
▁yoga	-10.5406
▁salad	-10.5406
▁itsit	-10.5406
▁footage	-10.5407
▁host	-10.5407
▁tammy	-10.5407
▁grass	-10.5407
▁pace	-10.5408
▁agreement	-10.5408
▁kiddo	-10.5409
▁grateful	-10.5409
▁chet	-10.541
▁chen	-10.5411
▁proof	-10.5411
▁personality	-10.5413
▁toss	-10.5413
▁queer	-10.5413
▁electric	-10.5413
▁battery	-10.5413
▁sword	-10.5414
▁mall	-10.5415
▁armor	-10.5415
▁samson	-10.5417
▁burst	-10.5419
▁michelin	-10.5419
▁matches	-10.5419
▁frightened	-10.542
▁plead	-10.5421
▁clattering	-10.5424
▁disgusting	-10.5424
▁fallen	-10.5424
▁arse	-10.5427
▁fee	-10.5429
▁we	-10.543
▁delivery	-10.5431
bit	-10.5432
▁jackson	-10.5433
▁mud	-10.5435
▁required	-10.5437
▁this	-10.5438
▁vari	-10.544
▁rip	-10.5446
▁howdy	-10.5447
▁baron	-10.5448
▁es	-10.545
▁mayor	-10.5454
▁boot	-10.5459
ow	-10.5461
▁straighten	-10.5475
▁filed	-10.5476
▁discussed	-10.5476
▁objects	-10.5479
▁parker	-10.5481
▁bea	-10.5497
▁timing	-10.5503
end	-10.5506
▁hut	-10.5513
wi	-10.5517
▁buyin	-10.5522
ward	-10.5523
▁helpful	-10.5525
oo	-10.5526
▁diamonds	-10.5529
▁filled	-10.553
▁mob	-10.5531
▁mc	-10.5544
▁teaching	-10.5556
▁filling	-10.5564
▁returned	-10.5565
▁marked	-10.5566
▁sooner	-10.5567
▁cr	-10.5567
▁wa	-10.5567
▁pretending	-10.5571
▁bark	-10.5572
▁freaking	-10.5574
▁landed	-10.5578
▁strings	-10.558
▁trucks	-10.5584
▁bomber	-10.5592
▁eli	-10.5596
▁ted	-10.5605
▁messed	-10.5611
▁breathes	-10.562
let	-10.5631
▁moments	-10.5631
▁limits	-10.5632
▁despi	-10.5635
▁counting	-10.5646
▁dolphins	-10.5648
▁closely	-10.5648
▁follows	-10.5663
▁blades	-10.5665
▁react	-10.5667
▁tu	-10.5684
▁trains	-10.5685
ied	-10.5697
▁hides	-10.57
▁warn	-10.5722
▁answered	-10.5749
▁pies	-10.5756
▁indians	-10.5784
▁lovers	-10.5797
▁issues	-10.582
▁jan	-10.5828
bs	-10.5832
▁laws	-10.584
▁falls	-10.5847
▁interviews	-10.5855
▁remembered	-10.5894
▁can	-10.5905
ula	-10.5912
gina	-10.5932
▁shar	-10.5942
ological	-10.5972
▁rob	-10.5973
▁chi	-10.5979
br	-10.599
sa	-10.5991
▁acts	-10.6013
▁fund	-10.6021
▁explosions	-10.603
▁as	-10.6031
tra	-10.6039
▁rag	-10.609
▁individual	-10.6104
▁thomson	-10.6104
▁minister	-10.6105
▁crimes	-10.611
▁schools	-10.6117
ization	-10.6118
▁miracle	-10.6119
▁symbol	-10.6122
▁complaint	-10.6123
▁pound	-10.6127
▁levels	-10.6136
▁begins	-10.6137
▁permit	-10.6148
▁string	-10.6159
▁engineer	-10.6171
▁mil	-10.6173
▁ski	-10.6182
mer	-10.6187
▁comrades	-10.6208
▁fits	-10.6212
▁publish	-10.6218
▁ne	-10.6218
▁design	-10.6223
▁scenes	-10.6227
▁johns	-10.6236
ual	-10.6241
py	-10.6245
▁te	-10.6252
▁complain	-10.6262
▁employ	-10.6264
▁pitch	-10.6268
ada	-10.6274
▁lad	-10.6276
▁fighter	-10.6277
▁contain	-10.6278
▁rap	-10.6278
▁wick	-10.6279
▁dial	-10.6285
▁cooper	-10.6285
ery	-10.6285
▁effective	-10.63
▁fift	-10.6301
▁numb	-10.6302
▁norma	-10.6303
▁commission	-10.6303
▁dai	-10.6304
▁ey	-10.6306
▁africa	-10.6307
▁corrupt	-10.6307
▁tab	-10.6308
▁prince	-10.6309
▁stretch	-10.6311
▁automatic	-10.6312
▁leather	-10.6313
▁anonymous	-10.6313
▁arrow	-10.6313
▁assigned	-10.6313
▁avoid	-10.6313
▁beloved	-10.6313
▁brodski	-10.6313
▁burden	-10.6313
▁confusing	-10.6313
▁congress	-10.6313
▁creek	-10.6313
▁dammit	-10.6313
▁division	-10.6313
▁egypt	-10.6313
▁elizabeth	-10.6313
▁encounter	-10.6313
▁escort	-10.6313
▁gambling	-10.6313
▁goddammit	-10.6313
▁greece	-10.6313
▁inject	-10.6313
▁inviting	-10.6313
▁jeep	-10.6313
▁jerusalem	-10.6313
▁krug	-10.6313
▁lamb	-10.6313
▁marcano	-10.6313
▁massacre	-10.6313
▁mississippi	-10.6313
▁motel	-10.6313
▁october	-10.6313
▁platoon	-10.6313
▁proposal	-10.6313
▁raf	-10.6313
▁ralph	-10.6313
▁resume	-10.6313
▁routine	-10.6313
▁samantha	-10.6313
▁session	-10.6313
▁supply	-10.6313
▁surrender	-10.6313
▁terrific	-10.6313
▁transplant	-10.6313
▁vessel	-10.6313
▁wolf	-10.6313
▁backpack	-10.6313
▁lewis	-10.6313
▁reece	-10.6313
▁avenue	-10.6313
▁rpg	-10.6313
▁embrace	-10.6313
▁janessa	-10.6313
▁myers	-10.6313
▁praise	-10.6313
▁socks	-10.6313
▁lamp	-10.6313
▁distant	-10.6313
▁strapped	-10.6313
▁assuming	-10.6313
▁minnie	-10.6313
▁shimmer	-10.6313
▁cassander	-10.6313
▁sniffles	-10.6313
▁dragged	-10.6313
▁riff	-10.6313
▁uhuh	-10.6313
▁playoffs	-10.6313
viet	-10.6313
▁rotten	-10.6313
▁hostile	-10.6313
▁begged	-10.6313
▁colonel	-10.6313
▁whiskey	-10.6313
▁declaration	-10.6313
▁trey	-10.6313
▁delicious	-10.6313
▁magnet	-10.6313
▁existence	-10.6313
▁eliot	-10.6313
▁miserable	-10.6313
▁bail	-10.6313
▁youyou	-10.6313
▁subway	-10.6313
▁grey	-10.6313
▁doris	-10.6313
▁romance	-10.6313
▁masry	-10.6313
▁testify	-10.6313
▁countries	-10.6313
▁transferred	-10.6313
▁wallace	-10.6314
▁communicate	-10.6314
▁assault	-10.6314
▁costume	-10.6314
▁tooth	-10.6314
▁impressive	-10.6314
▁chaos	-10.6314
▁heather	-10.6314
▁pact	-10.6314
▁population	-10.6314
▁baptist	-10.6314
▁ivan	-10.6314
▁fever	-10.6314
▁hanson	-10.6314
▁fork	-10.6314
▁bookkeeper	-10.6314
▁crackling	-10.6314
▁damon	-10.6315
▁fox	-10.6315
▁doorbell	-10.6315
▁agents	-10.6315
▁dice	-10.6315
▁factory	-10.6315
▁forth	-10.6315
▁sixteen	-10.6315
▁tables	-10.6315
▁intention	-10.6315
▁axel	-10.6315
▁fifteen	-10.6315
▁habit	-10.6315
ification	-10.6316
▁title	-10.6316
▁gentleman	-10.6316
▁successor	-10.6316
▁deny	-10.6317
▁rescue	-10.6317
▁rug	-10.6317
▁dismissed	-10.6317
▁registered	-10.6317
▁disappointed	-10.6318
▁maid	-10.6318
▁precisely	-10.6318
▁dicks	-10.6318
▁hammer	-10.6318
▁radical	-10.6318
▁julian	-10.632
▁deck	-10.632
▁capable	-10.6321
▁dino	-10.6321
▁broad	-10.6322
▁after	-10.6322
▁madame	-10.6323
▁attacks	-10.6324
▁jet	-10.6324
▁daily	-10.6327
▁murmuring	-10.6327
▁ford	-10.6327
▁stable	-10.6327
▁sonny	-10.6329
▁recovery	-10.6329
▁directly	-10.633
▁sickness	-10.633
▁kit	-10.6331
▁handling	-10.6331
▁gee	-10.6334
▁damaged	-10.634
▁prom	-10.6341
ib	-10.6343
▁kath	-10.6344
aron	-10.6344
▁assumed	-10.6345
counterterrorism	-10.6346
▁wicked	-10.6347
▁pole	-10.6348
▁finale	-10.6348
▁por	-10.6349
▁iim	-10.6351
▁warned	-10.6354
▁bald	-10.6356
▁voted	-10.6358
▁passes	-10.6358
▁limited	-10.6358
▁brakes	-10.6359
▁roars	-10.6359
▁drowning	-10.636
▁convicted	-10.6363
▁ghostly	-10.6365
▁bosses	-10.6366
▁interrupt	-10.6367
▁sacrificed	-10.6368
▁confirmed	-10.6374
▁hopeless	-10.6375
▁troops	-10.6377
▁screeching	-10.638
port	-10.6389
▁actor	-10.6391
▁darko	-10.6392
▁ay	-10.6392
▁smaller	-10.6402
▁mop	-10.6404
▁shithead	-10.6407
▁fed	-10.641
▁equals	-10.6414
▁lands	-10.6415
▁shitty	-10.6418
▁los	-10.6418
▁appeared	-10.6421
rink	-10.6426
▁fairly	-10.6427
▁hunting	-10.6431
▁breasts	-10.6432
▁shadows	-10.6433
▁husbands	-10.6441
▁expose	-10.6441
▁packed	-10.6442
▁detainees	-10.6451
▁mortars	-10.6451
▁walkin	-10.6452
▁freaked	-10.6461
▁hood	-10.6463
▁shown	-10.6483
▁bee	-10.649
▁safely	-10.6493
▁rd	-10.6503
▁bets	-10.6505
▁symbols	-10.6507
▁counts	-10.6508
▁sole	-10.6525
▁tools	-10.6526
▁killers	-10.6526
▁no	-10.6533
▁jumped	-10.6538
▁mat	-10.6543
▁results	-10.6544
▁mini	-10.6546
▁goat	-10.655
▁chips	-10.6552
▁hen	-10.6561
▁yards	-10.6562
▁images	-10.6563
▁wheels	-10.6563
▁testing	-10.6565
▁ironic	-10.657
▁sucking	-10.6575
▁experiments	-10.6582
▁greeks	-10.6582
▁der	-10.6585
▁gra	-10.6587
▁parked	-10.6605
▁learning	-10.6636
▁shoulders	-10.6648
▁photographs	-10.6659
ov	-10.6673
▁followed	-10.6719
▁belli	-10.6733
more	-10.6737
ically	-10.6752
▁worker	-10.6752
▁tricks	-10.6755
▁cha	-10.6756
▁ti	-10.6767
▁michaels	-10.6771
▁monsters	-10.6771
eth	-10.6773
▁bel	-10.6781
erry	-10.6782
▁pur	-10.6783
▁tips	-10.6786
▁qu	-10.6792
for	-10.6807
▁sentences	-10.681
ology	-10.6811
▁dot	-10.6819
▁teachers	-10.682
bl	-10.6836
gged	-10.6839
▁owes	-10.6844
▁scares	-10.6857
▁ga	-10.6871
ast	-10.6877
▁nash	-10.6878
▁reminds	-10.689
ita	-10.6895
▁bra	-10.693
▁boats	-10.6932
▁imma	-10.6932
▁che	-10.694
light	-10.6944
▁pu	-10.6956
▁arti	-10.6959
▁chickens	-10.6965
can	-10.7045
▁shoe	-10.7063
▁cough	-10.7085
▁associate	-10.7104
▁generation	-10.7109
▁cocktail	-10.711
▁warrior	-10.711
▁chamber	-10.711
▁effort	-10.711
▁arrangement	-10.7111
▁scout	-10.7112
▁vow	-10.7113
▁basic	-10.7114
▁sample	-10.7119
▁sheet	-10.7122
▁chuckle	-10.7132
▁nazi	-10.7142
ise	-10.7143
▁stark	-10.7144
gs	-10.7148
▁skip	-10.7156
▁toy	-10.7162
▁lap	-10.7164
▁freaks	-10.7169
cu	-10.7174
▁fade	-10.7177
▁dy	-10.718
izing	-10.72
ware	-10.7203
▁sixty	-10.7223
top	-10.7228
▁opera	-10.7234
▁cam	-10.725
▁drift	-10.7252
▁india	-10.7254
▁on	-10.7256
looking	-10.7257
ora	-10.7262
▁drops	-10.7262
▁emma	-10.7267
▁exception	-10.7269
▁recruit	-10.7269
▁cass	-10.7272
▁poison	-10.7275
book	-10.7276
▁retard	-10.7277
▁flood	-10.7278
▁delay	-10.7279
▁draft	-10.7279
jack	-10.7281
▁cast	-10.7283
▁trim	-10.7286
▁investigate	-10.729
town	-10.7298
▁neat	-10.7298
▁custom	-10.73
stick	-10.73
▁log	-10.7301
shit	-10.7302
▁withdraw	-10.7306
▁cambodia	-10.7306
▁madam	-10.7307
▁russia	-10.7307
beat	-10.7307
▁gentle	-10.731
▁journal	-10.7311
▁disney	-10.7312
▁dramatic	-10.7312
▁addison	-10.7313
▁anniversary	-10.7313
▁august	-10.7313
▁babak	-10.7313
▁bypass	-10.7313
▁cavalry	-10.7313
▁cheek	-10.7313
▁cindy	-10.7313
▁conference	-10.7313
▁connolly	-10.7313
▁domestic	-10.7313
▁figaro	-10.7313
▁gardner	-10.7313
▁hopkins	-10.7313
▁imagination	-10.7313
▁junior	-10.7313
▁lobby	-10.7313
▁mafia	-10.7313
▁merger	-10.7313
▁mulqueen	-10.7313
▁neena	-10.7313
▁paranoid	-10.7313
▁philotas	-10.7313
▁politics	-10.7313
▁profit	-10.7313
▁psychologist	-10.7313
▁reckon	-10.7313
▁rooney	-10.7313
▁salute	-10.7313
▁shaft	-10.7313
▁sydney	-10.7313
▁terribly	-10.7313
▁theater	-10.7313
▁therefore	-10.7313
▁typewriter	-10.7313
▁undateable	-10.7313
▁vengeance	-10.7313
▁wickwire	-10.7313
▁womb	-10.7313
▁yitzchok	-10.7313
▁brick	-10.7313
▁damato	-10.7313
▁oldfashioned	-10.7313
▁parasite	-10.7313
▁raylee	-10.7313
▁ventilat	-10.7313
▁lambert	-10.7313
▁prosecute	-10.7313
▁cnn	-10.7313
▁gazelle	-10.7313
▁beneath	-10.7313
▁generous	-10.7313
▁revving	-10.7313
▁sheryl	-10.7313
▁sondra	-10.7313
▁kraus	-10.7313
▁aksel	-10.7313
▁somewhat	-10.7313
▁krissi	-10.7313
▁titties	-10.7313
▁barbarian	-10.7313
▁polina	-10.7313
▁oops	-10.7313
▁bagels	-10.7313
▁poetry	-10.7313
▁celebration	-10.7313
▁downtown	-10.7313
▁hahaha	-10.7313
▁kayem	-10.7313
▁charlestown	-10.7313
▁nicos	-10.7313
▁polish	-10.7313
▁confidential	-10.7313
▁trent	-10.7313
▁stabbed	-10.7313
▁wrist	-10.7313
▁humor	-10.7313
▁malone	-10.7313
▁rattle	-10.7313
▁internal	-10.7313
▁groov	-10.7313
▁suitcase	-10.7313
▁niece	-10.7313
▁urgent	-10.7313
▁strategy	-10.7313
▁development	-10.7313
▁airplane	-10.7314
▁classified	-10.7314
▁swiss	-10.7314
▁ripped	-10.7314
▁virus	-10.7314
▁legitimate	-10.7314
▁personnel	-10.7314
▁significant	-10.7314
▁assure	-10.7314
▁honour	-10.7314
▁authority	-10.7314
▁waist	-10.7314
▁incoming	-10.7314
▁tripped	-10.7314
▁purse	-10.7314
▁brace	-10.7314
▁knight	-10.7314
▁owned	-10.7314
▁slavery	-10.7314
▁sofa	-10.7314
▁homicide	-10.7315
▁flush	-10.7315
▁bardo	-10.7315
▁spanky	-10.7315
▁hash	-10.7315
▁elite	-10.7316
▁solid	-10.7316
▁european	-10.7316
▁buzzes	-10.7316
▁tackle	-10.7316
▁herb	-10.7316
▁critical	-10.7317
▁recommendation	-10.7317
▁housekeeper	-10.7318
▁sober	-10.7318
▁confirmation	-10.7318
▁hank	-10.7319
▁task	-10.7319
▁kane	-10.732
▁noone	-10.732
▁civil	-10.732
▁pakistani	-10.732
▁hose	-10.7321
▁medication	-10.7321
▁ofthe	-10.7321
▁manwhore	-10.7321
▁production	-10.7322
▁reverse	-10.7323
▁kim	-10.7323
▁fist	-10.7324
▁sturges	-10.7324
▁whooping	-10.7325
▁arranged	-10.7325
▁controlling	-10.7325
▁possessed	-10.7325
▁offended	-10.7325
▁winter	-10.7325
▁latin	-10.7326
▁conviction	-10.7327
▁blast	-10.7327
▁organized	-10.7327
▁comb	-10.7328
▁chaser	-10.7329
▁specialist	-10.7329
▁painful	-10.733
▁folder	-10.7331
▁tender	-10.7331
▁spine	-10.7331
▁drawn	-10.7331
vo	-10.7332
▁rum	-10.7336
▁wander	-10.7336
▁ole	-10.7338
▁whine	-10.734
▁reasonable	-10.7342
▁peep	-10.7343
▁betrayed	-10.7343
▁crown	-10.7345
▁followers	-10.7346
▁nancy	-10.7348
▁cursed	-10.7349
▁tricky	-10.7351
▁gathered	-10.7354
▁cargo	-10.7357
▁dei	-10.7359
ja	-10.736
ette	-10.7361
▁poll	-10.7362
▁manita	-10.7362
ack	-10.7363
▁lifeline	-10.7363
▁horny	-10.7365
▁blown	-10.7365
▁sexually	-10.7365
▁performed	-10.7373
▁unable	-10.7373
▁sharply	-10.7375
▁pastor	-10.7383
▁flames	-10.7384
▁photographer	-10.7385
▁wing	-10.7385
▁stiff	-10.7387
▁outer	-10.7389
▁site	-10.7389
▁introduced	-10.7391
▁lawn	-10.7391
▁safer	-10.7404
▁dock	-10.7406
▁requested	-10.741
▁meantime	-10.7416
▁darts	-10.7416
zed	-10.7416
▁smiled	-10.7418
▁sources	-10.7425
▁republicans	-10.7425
▁messy	-10.7427
▁uni	-10.7437
ence	-10.7437
▁prim	-10.744
▁crop	-10.744
▁employees	-10.7446
▁leads	-10.7449
▁lit	-10.7449
▁clo	-10.7457
▁rami	-10.7463
▁evans	-10.7466
med	-10.747
lt	-10.7487
▁fur	-10.7498
▁sheets	-10.7508
itz	-10.7516
▁searching	-10.7518
▁ap	-10.752
▁thy	-10.7522
ue	-10.7523
▁makeup	-10.7524
▁annas	-10.7529
▁lads	-10.7529
▁cooler	-10.7534
▁cans	-10.7536
▁sucked	-10.7542
▁pushed	-10.7544
▁pleased	-10.7546
▁boots	-10.7547
▁stinks	-10.7549
lf	-10.7551
▁irs	-10.7559
▁olympics	-10.757
▁spells	-10.7571
hand	-10.7573
▁strangers	-10.7575
▁crossed	-10.7576
▁landing	-10.7583
▁payments	-10.7591
ight	-10.7595
low	-10.7597
▁gul	-10.7603
▁seated	-10.7611
▁wins	-10.7613
▁mae	-10.7616
▁kat	-10.7627
▁degrees	-10.7633
▁tub	-10.7637
▁refus	-10.7645
ay	-10.7645
▁ec	-10.7656
ris	-10.7662
▁hatch	-10.7671
▁barb	-10.7674
▁waves	-10.7675
▁marines	-10.7677
king	-10.7691
lessness	-10.7693
▁ofa	-10.7704
▁bl	-10.7737
▁abu	-10.7743
▁et	-10.7743
▁pays	-10.777
▁wears	-10.7779
▁pl	-10.7779
▁you	-10.7787
ily	-10.7807
▁jeans	-10.7845
▁pilots	-10.7845
▁answering	-10.7849
▁requests	-10.7868
gh	-10.7879
vious	-10.7895
▁vehicles	-10.7909
▁shooter	-10.7911
▁owner	-10.7916
don	-10.7932
▁plot	-10.7954
oc	-10.7956
umb	-10.7963
▁stu	-10.7966
ach	-10.7969
▁criminals	-10.7974
hen	-10.7987
▁an	-10.7992
▁operations	-10.7996
▁drivers	-10.801
▁losers	-10.8015
▁depend	-10.8033
▁trees	-10.8039
▁targets	-10.8042
ote	-10.8049
▁iron	-10.8054
ory	-10.8066
va	-10.8077
▁myth	-10.8082
▁types	-10.8083
▁bells	-10.8091
▁flo	-10.8093
▁sheriffs	-10.8127
▁ni	-10.8132
▁videos	-10.8149
▁deserves	-10.8151
dy	-10.8165
▁ag	-10.8186
iest	-10.82
▁likely	-10.8204
▁gl	-10.8206
use	-10.8209
▁ankle	-10.8216
▁affair	-10.8216
▁await	-10.8216
▁cipher	-10.8221
▁comment	-10.8222
nce	-10.8222
▁network	-10.8222
ath	-10.8223
▁bur	-10.8225
▁bodyguard	-10.8225
▁relative	-10.8228
▁pond	-10.8232
▁visitor	-10.8233
▁glove	-10.8237
▁seal	-10.8237
▁rays	-10.8237
▁folk	-10.824
▁buck	-10.8242
▁sayin	-10.8244
▁drum	-10.8247
▁flower	-10.8259
▁rabbit	-10.8261
▁powers	-10.8266
hu	-10.8275
▁prime	-10.8286
ping	-10.8304
▁positions	-10.8304
ins	-10.8314
▁just	-10.832
▁addict	-10.8324
▁situations	-10.8326
▁flip	-10.8336
ckl	-10.8337
▁betray	-10.834
▁damned	-10.8342
▁sm	-10.8356
ski	-10.8369
▁attend	-10.8372
▁sy	-10.8373
▁impress	-10.8375
▁breed	-10.8377
▁squeak	-10.8379
▁boil	-10.8381
▁waterboard	-10.8385
ties	-10.8387
▁defeat	-10.8388
▁unlock	-10.8393
▁soy	-10.8395
▁float	-10.8397
boat	-10.8398
▁bribe	-10.84
▁collapse	-10.8401
▁shave	-10.8401
▁propose	-10.8402
▁approve	-10.8402
▁purchase	-10.8403
ium	-10.8407
▁wealth	-10.8407
how	-10.8407
▁visual	-10.8409
▁recent	-10.8412
▁spy	-10.8414
▁teenage	-10.8417
▁fran	-10.8417
▁concert	-10.8418
▁confess	-10.8418
▁quo	-10.8419
▁mattress	-10.8419
▁axe	-10.842
▁author	-10.8421
▁extract	-10.8421
▁sanders	-10.8421
▁motherfuckin	-10.8422
▁excess	-10.8422
▁scott	-10.8422
ral	-10.8422
▁revolution	-10.8423
▁arrogan	-10.8423
▁specific	-10.8423
▁drama	-10.8423
▁lemon	-10.8424
▁almighty	-10.8424
▁alyosha	-10.8424
▁ambassador	-10.8424
▁anxious	-10.8424
▁bargain	-10.8424
▁barracks	-10.8424
▁berryessa	-10.8424
▁beverage	-10.8424
▁celebrity	-10.8424
▁column	-10.8424
▁complex	-10.8424
▁cricket	-10.8424
▁curtain	-10.8424
▁depressed	-10.8424
▁detention	-10.8424
▁elephant	-10.8424
▁england	-10.8424
▁evolution	-10.8424
▁fraud	-10.8424
▁furniture	-10.8424
▁hexa	-10.8424
▁illinois	-10.8424
▁immortal	-10.8424
▁international	-10.8424
▁iraq	-10.8424
▁jangers	-10.8424
▁judas	-10.8424
▁judgment	-10.8424
▁laundry	-10.8424
▁lorenzo	-10.8424
▁lounge	-10.8424
▁manhattan	-10.8424
▁mohammed	-10.8424
▁montreal	-10.8424
▁mystery	-10.8424
▁obligation	-10.8424
▁onstage	-10.8424
▁precinct	-10.8424
▁prosecution	-10.8424
▁ritual	-10.8424
▁september	-10.8424
▁shaffer	-10.8424
▁shatter	-10.8424
▁slovnik	-10.8424
▁solaris	-10.8424
▁sparrow	-10.8424
▁sunrise	-10.8424
▁technology	-10.8424
▁terek	-10.8424
▁tokyo	-10.8424
▁turbot	-10.8424
▁unknown	-10.8424
▁ventress	-10.8424
▁vicente	-10.8424
▁virgil	-10.8424
▁watts	-10.8424
▁wheelchair	-10.8424
▁wisdom	-10.8424
▁wrestling	-10.8424
▁cunningham	-10.8424
▁fingerprints	-10.8424
▁tiger	-10.8424
▁vriess	-10.8424
▁mourn	-10.8424
▁backstage	-10.8424
▁brazil	-10.8424
▁headquarters	-10.8424
▁mickey	-10.8424
▁muttering	-10.8424
▁mccool	-10.8424
▁cloquet	-10.8424
▁happily	-10.8424
▁residence	-10.8424
▁bloke	-10.8424
▁granny	-10.8424
▁underwear	-10.8424
▁statue	-10.8424
▁divine	-10.8424
▁bishop	-10.8424
▁collins	-10.8424
▁bunny	-10.8424
▁carrot	-10.8424
▁marquez	-10.8424
▁parole	-10.8424
▁pushups	-10.8424
▁skate	-10.8424
▁resent	-10.8424
▁branch	-10.8424
▁todd	-10.8424
▁canada	-10.8424
▁tanner	-10.8424
▁concussion	-10.8424
▁repair	-10.8424
▁budget	-10.8424
▁donald	-10.8424
▁celia	-10.8424
▁facing	-10.8424
▁begging	-10.8424
▁psychiatrist	-10.8424
▁foryou	-10.8424
▁ginger	-10.8424
▁misery	-10.8424
▁influence	-10.8424
▁winston	-10.8424
▁loyalty	-10.8424
▁argh	-10.8424
▁vital	-10.8424
▁vibe	-10.8425
▁thieves	-10.8425
▁software	-10.8425
▁josh	-10.8425
▁begun	-10.8425
▁volume	-10.8425
▁slick	-10.8425
▁colorado	-10.8425
▁noble	-10.8425
▁paralyzed	-10.8425
▁fruma	-10.8425
▁hoover	-10.8425
▁performance	-10.8425
▁griffin	-10.8425
▁reception	-10.8425
▁cooperation	-10.8425
▁consistent	-10.8425
▁acid	-10.8425
▁soap	-10.8426
▁operator	-10.8426
▁replacement	-10.8426
▁radiator	-10.8426
▁electricity	-10.8426
▁jesse	-10.8426
▁exhausted	-10.8426
▁stammers	-10.8426
▁reform	-10.8426
▁recall	-10.8426
▁informant	-10.8427
▁diary	-10.8427
▁privilege	-10.8427
▁baptized	-10.8427
▁jaw	-10.8427
▁hallway	-10.8427
▁thug	-10.8428
▁forest	-10.8428
▁ambition	-10.8428
▁sen	-10.8428
▁nearby	-10.8429
havin	-10.8429
▁gent	-10.8429
▁stray	-10.8429
▁heartbeat	-10.843
▁brian	-10.843
▁governor	-10.8431
▁tore	-10.8431
▁cliff	-10.8431
▁passage	-10.8432
▁fitch	-10.8432
▁soda	-10.8432
▁hail	-10.8433
▁seri	-10.8433
▁barts	-10.8433
▁bound	-10.8433
▁liberty	-10.8434
▁adopted	-10.8434
▁technically	-10.8434
▁vest	-10.8434
▁dedicated	-10.8435
▁asian	-10.8435
▁metro	-10.8436
▁inhales	-10.8436
▁apply	-10.8437
▁pepe	-10.8437
▁controlled	-10.8437
▁weep	-10.8437
▁crystal	-10.8438
▁enh	-10.8438
▁gary	-10.8438
▁helene	-10.8439
▁betting	-10.8439
▁martini	-10.844
▁dragon	-10.844
▁determined	-10.8441
▁rear	-10.8441
▁snapped	-10.8442
▁attached	-10.8442
▁hop	-10.8442
▁dough	-10.8443
▁drain	-10.8443
▁consult	-10.8444
angle	-10.8446
▁applauding	-10.8447
▁wholl	-10.845
▁ville	-10.8451
▁formal	-10.8452
▁loner	-10.8456
▁heroes	-10.8457
▁larger	-10.8457
▁impressed	-10.8458
▁whoohoo	-10.8458
▁afterwards	-10.8459
▁clouds	-10.8459
▁iii	-10.8459
▁classes	-10.846
▁coordinates	-10.846
▁particularly	-10.8462
▁cole	-10.8462
▁barn	-10.8467
▁spying	-10.8467
▁granted	-10.847
▁growls	-10.847
▁drowned	-10.847
tches	-10.8471
▁recruiting	-10.8472
▁helpless	-10.8473
▁relations	-10.8481
▁slots	-10.8482
▁locker	-10.8489
▁loudly	-10.8492
▁fort	-10.8495
▁passion	-10.8503
▁wel	-10.8504
▁melt	-10.8505
▁connected	-10.8507
▁delivered	-10.8507
▁deke	-10.8511
▁hooked	-10.8517
▁ruler	-10.8518
ez	-10.8518
▁greatness	-10.852
▁exam	-10.852
▁foundation	-10.8525
▁bitter	-10.8526
▁inventor	-10.8534
▁finest	-10.854
▁citizens	-10.8549
▁discussing	-10.855
▁sabotage	-10.856
▁dish	-10.8563
▁chained	-10.8564
▁blessing	-10.8566
▁worthy	-10.8574
▁idiots	-10.8575
eyed	-10.8578
▁palm	-10.858
▁studying	-10.8581
▁pope	-10.8592
▁shitting	-10.8595
▁bothered	-10.8596
▁thuds	-10.8597
▁comics	-10.8597
▁handled	-10.8607
▁cookies	-10.8608
ade	-10.8616
▁addicts	-10.8618
▁horses	-10.8622
ress	-10.8631
▁rake	-10.8634
▁surprises	-10.8649
▁blocked	-10.865
▁enjoyed	-10.8655
▁skipp	-10.8657
▁app	-10.8674
▁toxic	-10.8675
▁rifles	-10.869
▁tribes	-10.8692
ame	-10.8702
▁differently	-10.8704
▁towels	-10.8714
▁diners	-10.8716
▁ch	-10.8727
▁cents	-10.8744
ab	-10.8746
▁respected	-10.8747
▁shorts	-10.8748
▁protected	-10.8749
▁sting	-10.8753
▁fixing	-10.8755
▁scheme	-10.8757
▁arrives	-10.8766
▁sucker	-10.8779
▁jumping	-10.8783
hal	-10.8784
▁plates	-10.8807
▁ren	-10.8811
▁owed	-10.8821
ening	-10.8826
▁defendants	-10.8832
▁handy	-10.8847
com	-10.8852
▁tuesdays	-10.8856
▁workers	-10.8858
▁adams	-10.8877
▁spits	-10.8904
cat	-10.8915
▁trac	-10.8918
▁gr	-10.8923
▁interrogations	-10.8928
mate	-10.8965
▁womans	-10.8974
▁kissing	-10.8991
▁ras	-10.9013
▁dreaming	-10.903
▁wha	-10.9032
▁har	-10.9052
ington	-10.908
▁sw	-10.9086
▁pill	-10.909
▁scores	-10.9097
▁quarters	-10.9098
not	-10.9103
▁occasion	-10.9111
▁wei	-10.9119
ara	-10.912
▁sirens	-10.9121
anced	-10.9149
ori	-10.9151
▁improve	-10.916
▁spa	-10.9164
▁krist	-10.9165
▁wifes	-10.9169
ledge	-10.9183
▁gu	-10.9195
▁bookie	-10.9203
▁boards	-10.9221
▁useful	-10.9227
des	-10.9232
utter	-10.9233
▁blows	-10.9246
▁writers	-10.9254
▁rot	-10.926
▁meetings	-10.9261
▁doubts	-10.9269
▁persons	-10.927
uce	-10.9278
oh	-10.9297
rich	-10.9304
licate	-10.9304
spare	-10.9314
▁trace	-10.9325
▁reads	-10.9329
▁julies	-10.9345
tro	-10.9361
▁conditions	-10.9369
▁handed	-10.9396
▁toxicolog	-10.9398
ell	-10.9403
▁crow	-10.9414
▁stamm	-10.9449
▁grunt	-10.945
▁shout	-10.9457
ella	-10.9462
▁sip	-10.9465
▁retreat	-10.9466
▁marble	-10.9468
▁western	-10.947
roll	-10.9472
▁medal	-10.9474
▁pattern	-10.9475
▁tshirt	-10.9478
▁nerd	-10.9478
▁height	-10.9478
▁macedonian	-10.948
▁thud	-10.948
▁skill	-10.9481
▁teenager	-10.9482
▁diamond	-10.9483
▁detainee	-10.9484
▁mortar	-10.9484
▁comic	-10.9484
▁daniel	-10.9485
▁cookie	-10.9492
▁france	-10.9492
▁evan	-10.9498
▁here	-10.9507
▁invent	-10.951
▁tri	-10.951
▁poster	-10.9513
hes	-10.9518
▁defin	-10.9539
▁grows	-10.9564
▁hid	-10.9568
lu	-10.9581
▁initiate	-10.9582
▁prep	-10.9583
card	-10.9587
▁approach	-10.9592
▁regard	-10.9592
ander	-10.9609
run	-10.9612
▁disrespect	-10.9625
▁arriv	-10.9626
▁pops	-10.9626
▁clink	-10.9629
▁tan	-10.9632
▁dispatch	-10.9635
▁ally	-10.9635
▁stamp	-10.9637
▁haunt	-10.9638
▁encourage	-10.9651
case	-10.9652
▁ignore	-10.9652
▁locks	-10.9655
mouth	-10.9655
year	-10.9656
class	-10.9658
half	-10.9658
▁german	-10.9659
▁batter	-10.9659
▁robber	-10.9659
▁puss	-10.9661
▁examine	-10.9662
ook	-10.9664
▁villa	-10.9666
▁hustle	-10.9666
▁champ	-10.9666
▁merc	-10.9667
▁potato	-10.9667
▁georgia	-10.9668
▁obsess	-10.9669
▁heh	-10.967
▁zoo	-10.9672
stone	-10.9672
▁engage	-10.9672
▁wrap	-10.9673
▁loyal	-10.9673
▁trans	-10.9673
away	-10.9673
▁smurf	-10.9673
▁mamma	-10.9674
▁satellite	-10.9674
▁scrub	-10.9674
▁achilles	-10.9674
▁ambush	-10.9674
▁appropriate	-10.9674
▁approval	-10.9674
▁arizona	-10.9674
▁audible	-10.9674
▁behaviour	-10.9674
▁breeze	-10.9674
▁canadian	-10.9674
▁cemetery	-10.9674
▁clamp	-10.9674
▁colour	-10.9674
▁companies	-10.9674
▁compliment	-10.9674
▁conscience	-10.9674
▁cotton	-10.9674
▁december	-10.9674
▁defeo	-10.9674
▁depot	-10.9674
▁depression	-10.9674
▁dionysus	-10.9674
▁disgrace	-10.9674
▁education	-10.9674
▁embassy	-10.9674
▁fergie	-10.9674
▁ferrin	-10.9674
▁fiction	-10.9674
▁funkyzeit	-10.9674
▁grief	-10.9674
▁gunfight	-10.9674
▁hartog	-10.9674
▁hathaway	-10.9674
▁honeymoon	-10.9674
▁hulka	-10.9674
▁inaudible	-10.9674
▁innkeeper	-10.9674
▁lifeanddeath	-10.9674
▁lobster	-10.9674
▁lonesome	-10.9674
▁lorenson	-10.9674
▁memorandum	-10.9674
▁ministry	-10.9674
▁montoya	-10.9674
▁morgue	-10.9674
▁nigga	-10.9674
▁orchestra	-10.9674
▁orgasm	-10.9674
▁outpost	-10.9674
▁pancakes	-10.9674
▁parrot	-10.9674
▁perspective	-10.9674
▁rawhide	-10.9674
▁reliable	-10.9674
▁rifki	-10.9674
▁rumbling	-10.9674
▁russell	-10.9674
▁sacred	-10.9674
▁scenario	-10.9674
▁shirley	-10.9674
▁shmoo	-10.9674
▁snyder	-10.9674
▁specimen	-10.9674
▁surrounding	-10.9674
▁syndrome	-10.9674
▁tiamat	-10.9674
▁tolar	-10.9674
▁unfair	-10.9674
▁unhappy	-10.9674
▁urinat	-10.9674
▁valuable	-10.9674
▁vanessa	-10.9674
▁vaughn	-10.9674
▁watkins	-10.9674
▁witherspoon	-10.9674
▁domain	-10.9674
▁editor	-10.9674
▁frog	-10.9674
▁graduate	-10.9674
▁holler	-10.9674
▁importance	-10.9674
▁jamaica	-10.9674
▁kumi	-10.9674
▁merwe	-10.9674
▁terrain	-10.9674
▁vomit	-10.9674
▁bigalow	-10.9674
▁jelly	-10.9674
▁kelly	-10.9674
▁method	-10.9674
▁millimeter	-10.9674
▁trousers	-10.9674
▁veil	-10.9674
▁commercial	-10.9674
▁analysis	-10.9674
▁jungle	-10.9674
▁assessment	-10.9674
▁banana	-10.9674
▁hopefully	-10.9674
▁donkey	-10.9674
▁mageau	-10.9674
▁preston	-10.9674
▁tur	-10.9674
▁ceo	-10.9674
▁minnieboo	-10.9674
▁clinic	-10.9674
▁scumbag	-10.9674
▁vendor	-10.9674
▁basis	-10.9674
▁dorm	-10.9674
▁reference	-10.9674
▁alexandria	-10.9674
▁feather	-10.9674
▁cowgirl	-10.9674
▁investigating	-10.9674
▁tragic	-10.9674
▁dialogue	-10.9674
▁numero	-10.9674
▁wrapped	-10.9674
▁giggling	-10.9674
▁rosie	-10.9674
▁barrier	-10.9674
▁retirement	-10.9674
▁supper	-10.9674
▁believing	-10.9674
▁bracelet	-10.9674
▁pacific	-10.9674
▁teddy	-10.9674
▁piggy	-10.9674
▁scorpion	-10.9674
▁assistance	-10.9674
▁eternal	-10.9674
▁martial	-10.9674
▁occur	-10.9674
▁robbed	-10.9674
▁compete	-10.9674
▁struck	-10.9674
▁clang	-10.9674
▁tuning	-10.9674
▁trading	-10.9674
▁finance	-10.9674
▁radar	-10.9674
▁terminal	-10.9674
▁architecture	-10.9674
▁grill	-10.9674
▁description	-10.9674
▁eviction	-10.9674
▁mouse	-10.9674
▁overnight	-10.9674
▁comedian	-10.9674
▁coughlin	-10.9674
▁robot	-10.9674
▁entertainment	-10.9674
▁saddle	-10.9674
▁diving	-10.9674
▁saber	-10.9674
▁vagina	-10.9674
▁genetic	-10.9675
▁lousy	-10.9675
▁hissing	-10.9675
▁jewish	-10.9675
▁breach	-10.9675
▁stanley	-10.9675
▁racist	-10.9675
▁napa	-10.9675
▁raid	-10.9675
▁leap	-10.9675
▁backwards	-10.9675
▁institution	-10.9675
▁scam	-10.9675
▁elias	-10.9675
▁engagement	-10.9675
▁cardinal	-10.9675
▁fanny	-10.9675
▁shush	-10.9675
▁operating	-10.9675
▁macintosh	-10.9675
▁patience	-10.9675
▁servant	-10.9675
▁coffin	-10.9675
▁thunder	-10.9675
▁youth	-10.9675
▁rising	-10.9675
▁binding	-10.9676
▁ashes	-10.9676
▁attendant	-10.9676
▁bartender	-10.9676
▁mega	-10.9676
▁duh	-10.9676
▁oral	-10.9676
▁burnley	-10.9676
▁maria	-10.9676
▁reservation	-10.9676
▁clown	-10.9676
▁wax	-10.9676
▁abortion	-10.9676
▁groom	-10.9677
▁reactor	-10.9677
▁jude	-10.9677
▁splash	-10.9677
▁celebrating	-10.9677
▁nsa	-10.9677
▁surviving	-10.9677
▁appearance	-10.9677
▁patty	-10.9677
▁imitate	-10.9677
▁fax	-10.9677
▁theory	-10.9677
▁mortal	-10.9677
▁courthouse	-10.9678
▁soil	-10.9678
▁roam	-10.9678
▁shill	-10.9678
▁elvis	-10.9678
▁sweep	-10.9678
▁spotted	-10.9678
▁departure	-10.9678
▁skinny	-10.9678
▁retired	-10.9678
▁flatter	-10.9678
▁jammed	-10.9678
▁prank	-10.9678
▁erica	-10.9678
▁jose	-10.9679
▁frame	-10.9679
▁losin	-10.968
▁foolish	-10.968
▁sync	-10.968
▁accidentally	-10.968
▁guido	-10.968
▁newberry	-10.9681
▁shield	-10.9681
▁lighthouse	-10.9681
▁corruption	-10.9681
▁christina	-10.9682
▁gloria	-10.9682
▁guessed	-10.9682
▁vet	-10.9683
▁constantly	-10.9684
▁sandwiches	-10.9684
▁temper	-10.9684
▁shaking	-10.9684
▁tow	-10.9684
▁portal	-10.9684
▁sere	-10.9684
▁dickhead	-10.9685
▁attracted	-10.9685
▁disk	-10.9687
▁peaceful	-10.9687
▁roommate	-10.9687
▁hitler	-10.9689
▁jag	-10.9689
▁programmed	-10.9689
▁expression	-10.9689
▁halfway	-10.9689
▁exp	-10.9692
▁seventh	-10.9693
▁angeles	-10.9693
▁elli	-10.9694
▁crooked	-10.9694
▁vanished	-10.9695
▁daylight	-10.9695
▁executed	-10.9695
▁clich	-10.9695
▁pause	-10.9695
▁restore	-10.9696
▁brat	-10.9696
▁ark	-10.9697
▁toughest	-10.9699
▁fields	-10.9699
▁sum	-10.9699
▁crashes	-10.9699
▁sweater	-10.97
▁rec	-10.9701
▁lane	-10.9701
▁approved	-10.9702
▁golden	-10.9702
▁monte	-10.9702
▁choke	-10.9703
▁developed	-10.9704
▁consideration	-10.9705
▁friendship	-10.9707
▁roman	-10.9708
▁buses	-10.9709
▁predict	-10.971
▁os	-10.9711
▁accused	-10.9711
▁honking	-10.9712
▁neighbours	-10.9714
▁waters	-10.9714
▁straining	-10.9716
▁deadline	-10.9717
▁digital	-10.9719
▁ellie	-10.9719
▁crutch	-10.972
▁laser	-10.9721
▁beaten	-10.9721
▁contained	-10.9722
▁published	-10.9722
iance	-10.9724
▁acknowledged	-10.9732
▁capps	-10.9733
▁senses	-10.9733
▁complaining	-10.9735
▁brief	-10.9736
▁alex	-10.9738
▁ribs	-10.974
▁shocked	-10.9745
▁rage	-10.9746
▁crushed	-10.975
▁correspond	-10.975
▁spec	-10.9753
▁claus	-10.9754
▁publisher	-10.9759
▁mixed	-10.9764
▁intercept	-10.9764
▁legally	-10.9764
▁il	-10.9765
▁demanding	-10.9766
▁risky	-10.9767
▁completed	-10.9767
▁pad	-10.9769
▁freaky	-10.9769
▁but	-10.9772
▁manner	-10.9773
▁sakes	-10.9777
▁bowling	-10.9777
berg	-10.9779
▁at	-10.978
▁bal	-10.9784
▁deserved	-10.9789
▁ai	-10.979
▁eits	-10.9793
my	-10.9797
▁borrowed	-10.9806
orn	-10.9811
ving	-10.9814
▁experienced	-10.9817
▁mightve	-10.9817
▁elbows	-10.9818
▁instincts	-10.9818
▁whys	-10.9819
▁placed	-10.9823
▁deer	-10.9826
▁logical	-10.9827
▁blonde	-10.9829
▁areas	-10.9829
own	-10.9839
▁rushing	-10.9841
▁muscles	-10.9845
▁customers	-10.9848
▁ages	-10.9849
▁crashed	-10.9849
▁faci	-10.9854
▁dealt	-10.9859
block	-10.9863
▁posters	-10.988
▁prayed	-10.9882
▁shoots	-10.9887
▁strain	-10.9891
▁timeout	-10.9891
▁pissing	-10.9898
▁seals	-10.99
▁millions	-10.9907
▁packing	-10.9908
oi	-10.9915
▁wak	-10.992
▁samples	-10.9925
▁milli	-10.9938
ical	-10.9946
▁miracles	-10.9952
▁bees	-10.9952
▁liver	-10.9956
▁supporting	-10.9961
over	-10.9961
inal	-10.9969
▁para	-10.9976
▁aids	-10.9978
▁gus	-10.9984
▁carls	-10.9987
ped	-10.9991
▁attacking	-10.9991
bbe	-10.9992
▁ups	-10.9993
▁lists	-10.9993
ec	-11.0002
▁laughed	-11.0026
▁ge	-11.0026
▁monkeys	-11.0032
act	-11.0038
▁guessing	-11.0043
well	-11.0045
▁prayers	-11.0048
robe	-11.0072
cut	-11.0084
▁amp	-11.0085
▁her	-11.0092
▁troubled	-11.0096
▁dam	-11.0096
▁casey	-11.0105
▁toes	-11.0108
▁evacuate	-11.0122
▁scrape	-11.0126
tle	-11.0131
qualified	-11.0136
▁penn	-11.0149
oulder	-11.0162
▁haz	-11.017
▁willy	-11.0176
ham	-11.0204
ably	-11.021
▁fights	-11.0212
ais	-11.022
▁guests	-11.0223
hoo	-11.0242
▁loads	-11.0253
▁towers	-11.0254
▁ida	-11.026
▁pic	-11.027
▁update	-11.0277
▁nate	-11.0277
ever	-11.0279
ency	-11.0282
ition	-11.0285
▁qui	-11.0292
▁mens	-11.031
▁exists	-11.0328
▁purposes	-11.0334
▁fellows	-11.0336
▁hats	-11.0355
▁sounded	-11.0361
▁cuts	-11.0363
▁lu	-11.037
cul	-11.0388
▁tad	-11.0394
▁concerns	-11.0396
▁hills	-11.0397
▁tra	-11.041
▁negotiate	-11.0429
▁vo	-11.0431
▁reporting	-11.0433
▁mag	-11.0438
hole	-11.0477
ace	-11.0477
▁booked	-11.048
▁grandmas	-11.0485
uit	-11.05
tch	-11.0501
▁chicks	-11.0503
ude	-11.0529
▁horns	-11.0532
▁texts	-11.0534
▁stones	-11.0534
▁clearing	-11.0539
▁cla	-11.0569
▁pulls	-11.0572
▁bands	-11.0586
▁gunshots	-11.0588
call	-11.059
▁din	-11.0599
▁subjects	-11.0616
gue	-11.0623
rum	-11.0628
ong	-11.0649
▁min	-11.0657
▁pos	-11.0672
▁hits	-11.0678
this	-11.0689
ox	-11.0706
gon	-11.0716
▁anal	-11.0719
▁str	-11.0732
ax	-11.076
▁est	-11.0761
als	-11.0767
▁caps	-11.0771
ggy	-11.0786
▁arts	-11.0811
▁com	-11.0814
ush	-11.0818
▁bothers	-11.0822
zy	-11.083
rine	-11.0854
ii	-11.0861
▁cru	-11.0865
rel	-11.0867
▁include	-11.0878
▁sausage	-11.0894
▁napkin	-11.0894
▁dune	-11.0896
▁receipt	-11.09
▁pearl	-11.0901
▁element	-11.0904
▁poem	-11.0905
▁corpse	-11.0906
▁favors	-11.0906
▁belief	-11.0906
▁newspaper	-11.0906
▁mas	-11.0908
▁muscle	-11.0908
list	-11.0909
gger	-11.0911
▁shadow	-11.0912
elli	-11.0912
▁breast	-11.0912
▁employee	-11.0912
▁era	-11.0913
▁technique	-11.0915
ane	-11.0916
▁slayer	-11.0922
▁customer	-11.0923
▁leo	-11.0925
las	-11.0932
rous	-11.0956
que	-11.0972
valent	-11.098
ramer	-11.0989
▁ven	-11.0993
▁fools	-11.0994
oth	-11.1004
▁disturb	-11.1022
▁conversations	-11.1024
▁pour	-11.1025
ified	-11.1033
▁accus	-11.1043
▁buzz	-11.1045
▁rac	-11.105
▁promis	-11.1053
hood	-11.1054
▁snarl	-11.1058
▁creak	-11.106
▁affect	-11.1064
place	-11.1066
room	-11.1066
▁develop	-11.1066
▁overwhelm	-11.1067
▁plea	-11.1069
faced	-11.107
▁mock	-11.107
▁honk	-11.107
world	-11.1076
▁boost	-11.1079
▁locate	-11.1079
speed	-11.1083
▁earn	-11.1085
▁felon	-11.1086
▁mysterious	-11.1087
water	-11.1087
▁murph	-11.1087
▁technical	-11.1089
▁unfortunate	-11.1089
▁jess	-11.1092
▁assassin	-11.1092
think	-11.1092
▁successful	-11.1094
vinci	-11.1094
▁phase	-11.1095
su	-11.1095
▁tro	-11.1095
▁warren	-11.1096
▁noon	-11.1097
▁inspect	-11.1097
▁ambitio	-11.1098
▁livin	-11.1098
▁peyt	-11.1099
▁sittin	-11.1099
▁distort	-11.1099
▁sim	-11.1099
▁abort	-11.1099
▁jewel	-11.1099
▁par	-11.11
▁fright	-11.11
▁accomplish	-11.1101
▁architect	-11.1102
▁casual	-11.1102
ficial	-11.1102
▁bankrupt	-11.1102
▁rehab	-11.1102
▁academy	-11.1102
▁accurate	-11.1102
▁afghanistan	-11.1102
▁alternative	-11.1102
▁amateur	-11.1102
▁amsterdam	-11.1102
▁anthony	-11.1102
▁arguing	-11.1102
▁average	-11.1102
▁bahia	-11.1102
▁bangkok	-11.1102
▁boogeyman	-11.1102
▁brooklyn	-11.1102
▁caravan	-11.1102
▁catholic	-11.1102
▁celebrities	-11.1102
▁circus	-11.1102
▁conflict	-11.1102
▁conspiracy	-11.1102
▁creative	-11.1102
▁cripple	-11.1102
▁crucified	-11.1102
▁discipline	-11.1102
▁distephano	-11.1102
▁douche	-11.1102
▁dracula	-11.1102
▁eivind	-11.1102
▁encouraging	-11.1102
▁entitled	-11.1102
▁explanation	-11.1102
▁extinct	-11.1102
▁exwife	-11.1102
▁fantasy	-11.1102
▁feinstein	-11.1102
▁fernando	-11.1102
▁fitzpatrick	-11.1102
▁fracture	-11.1102
▁geoffrey	-11.1102
▁graduation	-11.1102
▁grohl	-11.1102
▁haggard	-11.1102
▁hannah	-11.1102
▁hiphop	-11.1102
▁humungus	-11.1102
▁intact	-11.1102
▁invisible	-11.1102
▁ireland	-11.1102
▁istanbul	-11.1102
▁joshua	-11.1102
▁judging	-11.1102
▁kaganovich	-11.1102
▁kehoe	-11.1102
▁kettle	-11.1102
▁krushka	-11.1102
▁kurosawa	-11.1102
▁lloyd	-11.1102
▁massapequa	-11.1102
▁mckenna	-11.1102
▁millaney	-11.1102
▁mongrel	-11.1102
▁mulanax	-11.1102
▁naughty	-11.1102
▁neighing	-11.1102
▁nffa	-11.1102
▁obama	-11.1102
▁obliged	-11.1102
▁olivia	-11.1102
▁pharmacy	-11.1102
▁phrase	-11.1102
▁plaintiffs	-11.1102
▁portuguese	-11.1102
▁prettier	-11.1102
▁protocol	-11.1102
▁razor	-11.1102
▁rebuil	-11.1102
▁redneck	-11.1102
▁representative	-11.1102
▁salinas	-11.1102
▁samuel	-11.1102
▁sangria	-11.1102
▁schenk	-11.1102
▁seifert	-11.1102
▁shelter	-11.1102
▁shura	-11.1102
▁snitch	-11.1102
▁southwest	-11.1102
▁sullivan	-11.1102
▁sunglasses	-11.1102
▁tequila	-11.1102
▁territory	-11.1102
▁twilight	-11.1102
▁valentine	-11.1102
▁veronica	-11.1102
▁violin	-11.1102
▁yllescas	-11.1102
▁abanks	-11.1102
▁aristotle	-11.1102
▁bookstore	-11.1102
▁ceremony	-11.1102
▁cmon	-11.1102
▁competition	-11.1102
▁content	-11.1102
▁creation	-11.1102
▁fulfill	-11.1102
▁guinea	-11.1102
▁harvey	-11.1102
▁hidden	-11.1102
▁inappropriate	-11.1102
▁mutual	-11.1102
▁phillip	-11.1102
▁plugger	-11.1102
▁psychological	-11.1102
▁sensible	-11.1102
▁squash	-11.1102
▁stabilize	-11.1102
▁survey	-11.1102
▁thief	-11.1102
▁humming	-11.1102
▁ledger	-11.1102
▁manchester	-11.1102
▁omar	-11.1102
▁pervert	-11.1102
▁google	-11.1102
▁graphic	-11.1102
▁causing	-11.1102
▁deaf	-11.1102
▁nevertheless	-11.1102
▁carpet	-11.1102
▁yacht	-11.1102
▁intellectual	-11.1102
▁mackenzie	-11.1102
▁worries	-11.1102
▁dutch	-11.1102
▁africanamerican	-11.1102
▁gym	-11.1102
▁jocke	-11.1102
▁plaza	-11.1102
▁presume	-11.1102
▁scale	-11.1102
▁exclusive	-11.1102
▁script	-11.1102
▁basketball	-11.1102
▁creating	-11.1102
▁gallery	-11.1102
▁cynic	-11.1102
sky	-11.1102
▁disconnect	-11.1102
▁picnic	-11.1102
▁skinheads	-11.1102
▁banjo	-11.1102
▁isis	-11.1102
▁muslim	-11.1102
▁veal	-11.1102
▁surface	-11.1102
▁broadcast	-11.1102
▁infant	-11.1102
▁chiago	-11.1102
▁fireworks	-11.1102
▁administration	-11.1102
▁auction	-11.1103
▁tuition	-11.1103
▁smack	-11.1103
▁authorization	-11.1103
▁zeca	-11.1103
▁envy	-11.1103
▁orphanage	-11.1103
▁psst	-11.1103
▁robinson	-11.1103
▁wasting	-11.1103
▁harsh	-11.1103
▁forbid	-11.1103
▁verbal	-11.1103
▁friendlies	-11.1103
▁instructor	-11.1103
▁slipping	-11.1103
▁theories	-11.1103
▁buggs	-11.1103
▁rail	-11.1103
▁vicar	-11.1103
▁collar	-11.1103
▁iggy	-11.1103
▁cartoonist	-11.1103
▁flank	-11.1103
▁righteous	-11.1103
▁princeton	-11.1103
▁occurred	-11.1103
▁remarkable	-11.1103
▁temptation	-11.1103
▁addition	-11.1103
▁hijackers	-11.1103
▁objective	-11.1103
▁holly	-11.1103
▁principle	-11.1103
▁turk	-11.1103
▁adjustment	-11.1103
▁sector	-11.1103
▁charity	-11.1103
▁tech	-11.1103
▁wooh	-11.1104
▁trina	-11.1104
▁communist	-11.1104
▁chapman	-11.1104
▁construction	-11.1104
▁portland	-11.1104
▁wolves	-11.1104
▁starving	-11.1104
▁malia	-11.1104
▁caroline	-11.1104
▁whorehouse	-11.1104
▁aaron	-11.1104
▁lime	-11.1104
▁elsewhere	-11.1104
▁nixon	-11.1104
▁admitted	-11.1104
▁condor	-11.1105
▁alike	-11.1105
▁demonstrate	-11.1105
▁cogs	-11.1105
▁wiggle	-11.1105
▁fluid	-11.1105
▁outof	-11.1105
▁erect	-11.1105
▁compare	-11.1105
▁lockdown	-11.1105
▁anus	-11.1105
▁beginner	-11.1105
▁hague	-11.1105
▁paycheck	-11.1105
▁happier	-11.1106
▁convention	-11.1106
▁lone	-11.1106
▁bingo	-11.1106
▁ditt	-11.1106
▁atm	-11.1106
▁destiny	-11.1106
▁dumpling	-11.1106
▁legend	-11.1106
▁penance	-11.1106
▁oren	-11.1106
▁extraction	-11.1106
▁traditional	-11.1106
▁layton	-11.1107
▁aggressive	-11.1107
▁educate	-11.1107
▁harling	-11.1107
▁relief	-11.1107
▁scotch	-11.1107
▁grownup	-11.1107
▁ofyou	-11.1107
▁benji	-11.1108
▁hisse	-11.1108
▁preacher	-11.1108
▁stine	-11.1108
▁untie	-11.1108
▁relevant	-11.1108
▁ox	-11.1108
kov	-11.1108
▁generator	-11.1108
▁sharon	-11.1109
▁stir	-11.1109
▁phan	-11.1109
▁grossman	-11.111
▁waltz	-11.111
▁reflection	-11.111
▁tries	-11.1111
▁african	-11.1111
uary	-11.1112
▁gambler	-11.1113
▁spicy	-11.1113
▁howling	-11.1113
▁display	-11.1114
▁joanie	-11.1114
▁root	-11.1114
▁equally	-11.1114
▁collection	-11.1114
▁adventure	-11.1114
▁playbook	-11.1114
▁haha	-11.1115
▁mein	-11.1115
▁rusty	-11.1116
▁inverted	-11.1116
▁suspended	-11.1116
▁rejected	-11.1116
▁soup	-11.1116
▁roth	-11.1117
▁losses	-11.1118
▁divided	-11.1119
▁drapes	-11.1119
▁lyrics	-11.1119
▁tense	-11.1119
▁frontier	-11.112
▁rv	-11.112
▁gently	-11.112
▁vl	-11.112
▁exploded	-11.112
▁vera	-11.1121
▁hospitality	-11.1122
▁shuffle	-11.1122
▁estate	-11.1122
▁morale	-11.1123
▁bunker	-11.1125
▁vain	-11.1126
▁gray	-11.1129
▁avie	-11.1132
▁ol	-11.1132
▁spear	-11.1133
▁punished	-11.1134
▁assured	-11.1134
▁everyday	-11.1136
▁emotionally	-11.1137
▁spite	-11.1137
▁madman	-11.1137
▁overwhelmed	-11.1137
▁fuckedup	-11.114
▁receiver	-11.1141
▁compound	-11.1141
▁convinced	-11.1142
▁hunger	-11.1143
▁levy	-11.1143
▁apartments	-11.1144
▁described	-11.1147
▁goodnight	-11.1148
▁heels	-11.1149
▁claws	-11.1149
▁regulations	-11.1149
▁forgiven	-11.1149
▁charts	-11.1149
▁newton	-11.115
▁flooded	-11.1153
get	-11.1154
▁burnt	-11.1156
▁sealed	-11.1156
▁reaches	-11.1158
gar	-11.116
▁mustnt	-11.116
▁floating	-11.1161
▁conducted	-11.1164
▁coolest	-11.1178
▁decades	-11.1179
▁coins	-11.1181
▁chilly	-11.1181
▁apo	-11.1182
▁deeper	-11.1185
▁needles	-11.119
▁twisted	-11.1191
▁traded	-11.1194
▁bold	-11.1195
▁painted	-11.1203
▁euros	-11.121
▁giggles	-11.121
▁twins	-11.121
▁elders	-11.121
▁tag	-11.1211
aking	-11.1215
▁swallowed	-11.1218
▁crackers	-11.1218
▁foreigners	-11.1219
▁belonged	-11.122
▁ru	-11.1222
▁defending	-11.1222
▁lungs	-11.1225
▁talented	-11.1229
▁suffered	-11.1235
▁climbing	-11.1236
six	-11.1237
▁ki	-11.1238
▁moo	-11.1241
▁disappearing	-11.125
▁unconscious	-11.125
▁lucs	-11.1252
▁pine	-11.1254
▁adore	-11.1255
▁du	-11.1258
▁honesty	-11.1267
▁mount	-11.1267
▁candles	-11.1267
▁caymans	-11.1271
wing	-11.1271
▁rumors	-11.1272
▁reminded	-11.1272
▁yesil	-11.1273
▁suggested	-11.1277
▁pumping	-11.1287
mu	-11.129
▁cds	-11.129
▁focused	-11.1294
▁lang	-11.1295
▁jokes	-11.1296
▁grape	-11.1298
▁hart	-11.1301
▁shelly	-11.1301
▁beliefs	-11.1302
▁newspapers	-11.1302
▁marketing	-11.1305
▁switched	-11.1306
▁squ	-11.1307
▁remaining	-11.1308
uc	-11.1313
▁pauly	-11.1316
▁lighter	-11.1323
▁fairy	-11.1324
▁sarahs	-11.1326
corn	-11.1328
▁suited	-11.1328
▁nerds	-11.1333
▁skills	-11.1333
▁heights	-11.1333
▁tshirts	-11.1333
nom	-11.1336
▁pressed	-11.1338
▁micro	-11.134
backs	-11.1351
▁goons	-11.1356
▁sticky	-11.136
ogue	-11.1363
▁relatives	-11.1364
▁rabbits	-11.137
▁tests	-11.137
▁blinded	-11.1387
ify	-11.1395
▁trips	-11.1416
bar	-11.1417
▁nor	-11.1418
▁cra	-11.1421
▁uhh	-11.1422
▁complaints	-11.1428
za	-11.143
▁picks	-11.1445
▁engineers	-11.1449
▁appoint	-11.1452
▁translate	-11.1453
▁listed	-11.1456
▁stealing	-11.1458
▁channels	-11.1458
▁survivors	-11.1458
▁effects	-11.1458
▁gab	-11.1463
▁clar	-11.1468
rb	-11.1477
▁creatures	-11.149
▁threats	-11.149
oul	-11.1491
▁meds	-11.1494
▁there	-11.1496
▁fuckup	-11.1514
hhh	-11.1524
▁doj	-11.1529
ino	-11.1532
▁farmers	-11.1532
▁offers	-11.1532
▁organs	-11.1553
▁clues	-11.1553
▁wounds	-11.1555
▁eu	-11.1576
tar	-11.1577
▁desires	-11.1585
▁fences	-11.1585
▁demands	-11.1587
con	-11.1589
pped	-11.1616
▁wilkinsons	-11.1617
▁whipp	-11.1623
▁ak	-11.1623
▁rod	-11.1625
▁arc	-11.1633
▁emt	-11.1635
▁winners	-11.1649
lock	-11.1653
pin	-11.1657
▁professionals	-11.168
▁instruments	-11.1681
▁islands	-11.1681
fic	-11.1694
▁dip	-11.1708
bag	-11.1727
ust	-11.1734
▁mouthing	-11.1742
▁cd	-11.1745
▁contracts	-11.1746
▁murderers	-11.1755
▁not	-11.1771
▁committ	-11.1776
▁debts	-11.1778
ania	-11.179
▁seed	-11.1791
▁dancers	-11.1797
▁nurses	-11.1811
▁niggers	-11.1812
▁bangs	-11.1816
air	-11.1828
llis	-11.183
▁devi	-11.1837
oma	-11.184
ethe	-11.1846
▁roses	-11.1858
▁thinkin	-11.1923
ere	-11.1925
ff	-11.1925
estate	-11.1932
gen	-11.1934
ani	-11.1939
▁wished	-11.194
anda	-11.1948
ries	-11.1959
cin	-11.1987
▁desp	-11.1993
tz	-11.1998
▁wee	-11.2007
▁hem	-11.2009
und	-11.2011
▁sch	-11.2026
uff	-11.204
arian	-11.2041
▁values	-11.2041
▁projects	-11.2043
▁allerg	-11.2094
bc	-11.2097
▁eth	-11.2103
hot	-11.2107
▁tube	-11.2111
most	-11.2112
▁tit	-11.2127
▁strikes	-11.2139
▁borders	-11.2142
rated	-11.2146
▁chan	-11.2179
style	-11.2205
▁tac	-11.2217
▁visits	-11.2219
trus	-11.2239
ceived	-11.225
yes	-11.2254
mission	-11.2258
▁ju	-11.2258
ps	-11.2269
roke	-11.2273
fo	-11.2293
▁humans	-11.2302
ummy	-11.2305
▁proves	-11.2311
▁mouths	-11.2329
▁crews	-11.2346
▁troubles	-11.2347
▁don	-11.2349
▁spirits	-11.2358
▁teams	-11.2363
▁colors	-11.2385
▁stuffed	-11.2394
ole	-11.2399
▁humiliate	-11.2399
rn	-11.2411
▁lai	-11.2416
▁ot	-11.242
lk	-11.2429
▁missions	-11.2431
▁fu	-11.2439
▁listened	-11.2449
▁sticks	-11.2459
▁rud	-11.2476
set	-11.2482
non	-11.2493
termination	-11.2503
▁pals	-11.251
ana	-11.2522
▁decides	-11.2557
▁temperature	-11.2561
▁casino	-11.2561
▁blond	-11.2561
▁equal	-11.2563
▁tire	-11.2566
▁item	-11.2571
▁resident	-11.2571
▁civilian	-11.2572
▁cayman	-11.2573
▁elbow	-11.2575
▁instinct	-11.2575
▁rumor	-11.2577
▁candle	-11.2577
▁republican	-11.2578
▁jew	-11.2578
▁citizen	-11.2578
tes	-11.2578
▁source	-11.2583
▁som	-11.2585
▁beside	-11.2585
ans	-11.2595
igan	-11.2605
hor	-11.2608
▁static	-11.2613
▁why	-11.2613
▁hooker	-11.2613
ung	-11.2616
▁deals	-11.262
▁headline	-11.2626
ome	-11.2631
▁corners	-11.2633
fuck	-11.2634
▁dee	-11.2642
state	-11.2649
▁provid	-11.2654
▁manag	-11.2657
▁logic	-11.2658
▁chic	-11.2665
▁dom	-11.2672
▁pointing	-11.2675
▁fri	-11.2684
▁marty	-11.2686
▁frighten	-11.2694
▁slam	-11.2695
night	-11.2702
▁conti	-11.2707
▁profession	-11.2718
▁digit	-11.2721
▁renew	-11.2721
▁adjust	-11.2723
▁protest	-11.2724
▁sever	-11.2725
▁disgust	-11.2726
▁clatter	-11.2726
fucking	-11.2727
▁detect	-11.2729
▁punish	-11.2731
▁alleg	-11.2732
▁experiences	-11.2734
▁fires	-11.274
hour	-11.2742
fire	-11.2743
dad	-11.2746
ought	-11.2746
▁dodge	-11.2747
▁arrange	-11.2747
▁fog	-11.2747
▁determine	-11.2748
pitched	-11.2749
claim	-11.275
authorized	-11.275
print	-11.275
bridge	-11.275
yearold	-11.2751
kids	-11.2751
▁goddam	-11.2751
letter	-11.2753
▁linger	-11.2753
▁libert	-11.2754
▁observe	-11.2754
wise	-11.2755
▁constant	-11.2755
two	-11.2756
▁capture	-11.2757
▁prop	-11.2759
inlaw	-11.276
▁chai	-11.276
▁intent	-11.2762
▁justif	-11.2763
▁delusion	-11.2763
▁persia	-11.2764
▁witch	-11.2764
▁coop	-11.2764
▁tradition	-11.2764
▁critic	-11.2764
▁invest	-11.2765
▁harlin	-11.2766
▁reflect	-11.2766
▁agh	-11.2766
unch	-11.2766
▁grocer	-11.2767
▁rust	-11.2767
▁mercenar	-11.2767
cast	-11.2767
▁authentic	-11.2767
▁thirteen	-11.2768
▁heck	-11.2768
▁whee	-11.2768
▁craft	-11.2769
▁hippo	-11.2769
▁immigra	-11.2769
oslova	-11.2769
▁albuquerque	-11.2769
▁arabic	-11.2769
▁armstrong	-11.2769
▁asparagus	-11.2769
▁assignment	-11.2769
▁athlete	-11.2769
▁attalus	-11.2769
▁bailiff	-11.2769
▁ballerina	-11.2769
▁billionaire	-11.2769
▁bruno	-11.2769
▁bucephalus	-11.2769
▁buffet	-11.2769
▁casoria	-11.2769
▁catacombs	-11.2769
▁centipede	-11.2769
▁clerk	-11.2769
▁comanche	-11.2769
▁combination	-11.2769
▁conclusion	-11.2769
▁corporal	-11.2769
▁crucifix	-11.2769
▁curtis	-11.2769
▁depressing	-11.2769
▁dessert	-11.2769
▁disobey	-11.2769
▁dunleavy	-11.2769
▁easily	-11.2769
▁entrance	-11.2769
▁environment	-11.2769
▁eurydice	-11.2769
▁exotic	-11.2769
▁fabric	-11.2769
▁facetoface	-11.2769
▁flirting	-11.2769
▁fundamental	-11.2769
▁galaxy	-11.2769
▁georgie	-11.2769
▁gibson	-11.2769
▁greedy	-11.2769
▁hallelujah	-11.2769
▁harvest	-11.2769
▁hollow	-11.2769
▁infected	-11.2769
▁inherit	-11.2769
▁inspiring	-11.2769
▁interrogator	-11.2769
▁janitor	-11.2769
▁jeez	-11.2769
▁joliet	-11.2769
▁kalina	-11.2769
▁katerina	-11.2769
▁kendall	-11.2769
▁kennedy	-11.2769
▁kottke	-11.2769
▁kuperman	-11.2769
▁lavrenti	-11.2769
▁lilith	-11.2769
▁limpdick	-11.2769
▁lombardi	-11.2769
▁loneliness	-11.2769
▁machete	-11.2769
▁manslaughter	-11.2769
▁markkula	-11.2769
▁martha	-11.2769
▁marvelous	-11.2769
▁marvin	-11.2769
▁medevac	-11.2769
▁miriam	-11.2769
▁monastery	-11.2769
▁morris	-11.2769
▁motive	-11.2769
▁nearchus	-11.2769
▁necklace	-11.2769
▁neglect	-11.2769
▁nickname	-11.2769
▁nikita	-11.2769
▁obrien	-11.2769
▁obtain	-11.2769
▁offensive	-11.2769
▁oogie	-11.2769
▁paranoia	-11.2769
▁parlor	-11.2769
▁passengers	-11.2769
▁pencil	-11.2769
▁penguin	-11.2769
▁permanent	-11.2769
▁platter	-11.2769
▁politician	-11.2769
▁pornography	-11.2769
▁privacy	-11.2769
▁psychic	-11.2769
▁quality	-11.2769
▁raccoon	-11.2769
▁radek	-11.2769
▁rattling	-11.2769
▁reckless	-11.2769
▁recognition	-11.2769
▁rendezvous	-11.2769
▁revelation	-11.2769
▁revenue	-11.2769
▁sanatorium	-11.2769
▁schlomo	-11.2769
▁semester	-11.2769
▁sentencing	-11.2769
▁shortsighted	-11.2769
▁soccer	-11.2769
▁spiral	-11.2769
▁sprout	-11.2769
▁stevie	-11.2769
▁switzerland	-11.2769
▁synthetic	-11.2769
▁teardrop	-11.2769
▁tehronne	-11.2769
▁theft	-11.2769
▁throughout	-11.2769
▁tomatoes	-11.2769
▁troubling	-11.2769
▁tunnel	-11.2769
▁ultimate	-11.2769
▁unexpected	-11.2769
▁voorhees	-11.2769
▁wheezing	-11.2769
▁wozniak	-11.2769
▁apache	-11.2769
▁buddies	-11.2769
▁forbidden	-11.2769
▁lodge	-11.2769
▁noshow	-11.2769
▁scholar	-11.2769
▁shaw	-11.2769
▁spoil	-11.2769
▁spoon	-11.2769
▁stephanie	-11.2769
▁swamp	-11.2769
▁sykes	-11.2769
▁transcript	-11.2769
▁warehouse	-11.2769
▁entry	-11.2769
▁inspiration	-11.2769
▁nosebleed	-11.2769
▁oak	-11.2769
▁stabbing	-11.2769
▁unstable	-11.2769
▁tolling	-11.2769
▁combined	-11.2769
▁ninetythousand	-11.2769
▁repuls	-11.2769
▁suburb	-11.2769
▁margie	-11.2769
▁ridden	-11.2769
▁slit	-11.2769
▁burbank	-11.2769
▁eighteen	-11.2769
▁electronic	-11.2769
▁ethics	-11.2769
▁happiness	-11.2769
▁blink	-11.2769
▁hotshot	-11.2769
▁shadowchild	-11.2769
▁substance	-11.2769
▁reverend	-11.2769
▁gooks	-11.2769
▁lsrael	-11.2769
▁drool	-11.2769
▁maniac	-11.2769
▁tarrance	-11.2769
▁nows	-11.2769
▁phalanx	-11.2769
▁plague	-11.2769
▁salvation	-11.2769
▁revue	-11.2769
▁nazareth	-11.2769
▁yves	-11.2769
▁melod	-11.2769
▁prescription	-11.2769
▁ashley	-11.2769
▁tennis	-11.2769
▁variety	-11.2769
▁defer	-11.2769
▁antonio	-11.2769
▁briefcase	-11.2769
▁northwestern	-11.2769
▁corpsmen	-11.2769
▁judy	-11.2769
▁audio	-11.2769
▁nuns	-11.2769
▁stacy	-11.2769
▁exorcism	-11.2769
▁aaaah	-11.2769
▁pussay	-11.2769
▁allegations	-11.2769
▁destruction	-11.2769
▁wagon	-11.2769
▁outstanding	-11.2769
▁disappointment	-11.2769
▁kinsa	-11.2769
▁sidelines	-11.2769
▁nadya	-11.2769
▁laptop	-11.2769
▁instant	-11.2769
▁alamo	-11.2769
▁jules	-11.2769
▁royce	-11.2769
▁context	-11.2769
▁liquid	-11.2769
▁evacuation	-11.2769
▁marilia	-11.2769
▁dentist	-11.2769
▁slipped	-11.2769
▁throne	-11.2769
▁lump	-11.2769
▁gregory	-11.2769
▁pulse	-11.277
▁racine	-11.277
▁feast	-11.277
▁panties	-11.277
▁paso	-11.277
▁thatthat	-11.277
▁vein	-11.277
▁password	-11.277
▁unlike	-11.277
▁attractive	-11.277
▁twentyfive	-11.277
▁expertise	-11.277
▁argentina	-11.277
▁prospect	-11.277
▁barrett	-11.277
▁polson	-11.277
▁springfield	-11.277
▁designated	-11.277
▁cabinet	-11.277
▁riley	-11.277
▁upside	-11.277
▁passionate	-11.277
▁chili	-11.277
▁spinning	-11.277
▁shakespeare	-11.277
▁meenie	-11.277
▁vicious	-11.277
▁chipper	-11.277
▁proust	-11.277
▁mort	-11.277
▁cruel	-11.277
▁investment	-11.277
▁thirteenth	-11.277
▁wong	-11.277
▁pervers	-11.277
▁kidnapper	-11.277
▁carolina	-11.277
▁authenticity	-11.277
▁shack	-11.2771
▁cattle	-11.2771
▁heap	-11.2771
▁crackles	-11.2771
▁sidewalk	-11.2771
▁immediate	-11.2771
▁prepped	-11.2771
▁convo	-11.2771
▁joyce	-11.2771
▁contractors	-11.2771
▁upper	-11.2771
▁shipped	-11.2771
▁corporation	-11.2771
▁cruise	-11.2771
▁resistance	-11.2771
▁bruce	-11.2771
▁yyou	-11.2771
▁wi	-11.2771
▁popped	-11.2771
▁molina	-11.2771
▁elsa	-11.2771
▁suspension	-11.2771
▁avenge	-11.2771
▁clapping	-11.2771
▁hamas	-11.2772
▁minus	-11.2772
▁downey	-11.2772
▁caff	-11.2772
▁glori	-11.2772
▁horseshit	-11.2772
▁scum	-11.2772
▁popping	-11.2772
▁sensational	-11.2772
▁foul	-11.2772
▁undergo	-11.2772
▁conny	-11.2772
▁kong	-11.2772
▁randy	-11.2772
▁solo	-11.2772
▁frustrated	-11.2772
▁priority	-11.2773
▁conductor	-11.2773
▁rapist	-11.2773
chever	-11.2773
▁obsession	-11.2773
▁lenses	-11.2773
▁trembling	-11.2773
▁expectations	-11.2773
▁korean	-11.2774
▁stripper	-11.2774
▁scatter	-11.2774
▁percentage	-11.2774
▁tension	-11.2774
▁sammy	-11.2774
▁concept	-11.2774
▁regional	-11.2774
▁sophisticated	-11.2775
▁sym	-11.2775
▁altar	-11.2775
▁maiden	-11.2775
▁inspired	-11.2775
▁tourist	-11.2775
▁fourteen	-11.2775
▁magician	-11.2775
▁collective	-11.2776
▁pork	-11.2776
▁ahhh	-11.2776
▁mere	-11.2776
▁allan	-11.2777
▁distraction	-11.2777
▁beau	-11.2777
▁crab	-11.2777
▁employment	-11.2777
▁recon	-11.2777
▁predictable	-11.2777
▁mice	-11.2777
▁partnership	-11.2778
▁countryside	-11.2778
▁blend	-11.2778
▁scent	-11.2778
▁fitting	-11.2779
▁haley	-11.2779
▁shipment	-11.278
▁controller	-11.278
▁guardian	-11.278
▁facebook	-11.278
▁peek	-11.278
▁poach	-11.2781
tzin	-11.2781
▁bambi	-11.2782
▁snorting	-11.2782
yard	-11.2782
▁promoted	-11.2783
▁tapped	-11.2783
▁urge	-11.2783
▁refer	-11.2783
▁publicity	-11.2784
▁handing	-11.2784
▁moss	-11.2784
▁quitting	-11.2784
▁producer	-11.2785
▁successfully	-11.2785
▁accountant	-11.2786
▁flown	-11.2786
▁compromised	-11.2787
▁kara	-11.2787
▁winger	-11.2787
▁cellar	-11.2787
▁benton	-11.2788
▁oxy	-11.2788
▁identified	-11.2788
▁gap	-11.2788
▁tito	-11.2788
▁cycl	-11.2788
▁enterpriser	-11.2789
▁mchales	-11.2789
▁moroltos	-11.2789
▁oysters	-11.2789
▁rack	-11.279
▁bitten	-11.279
▁chopped	-11.279
▁fin	-11.279
▁mankind	-11.2791
▁takin	-11.2791
▁conquered	-11.2791
▁denied	-11.2792
▁tighten	-11.2792
▁crucial	-11.2792
▁lingerie	-11.2793
▁coordinated	-11.2793
▁roads	-11.2793
▁respectful	-11.2794
▁herr	-11.2794
▁via	-11.2794
▁included	-11.2795
▁bounce	-11.2795
▁drummer	-11.2795
▁chosen	-11.2796
▁styler	-11.2796
▁ticking	-11.2796
anian	-11.2797
▁mule	-11.2797
▁katy	-11.2798
▁mayday	-11.2799
▁bolt	-11.2799
▁presents	-11.2802
▁crt	-11.2802
▁faintly	-11.2803
▁proposed	-11.2803
▁kar	-11.2805
▁iv	-11.2805
▁lube	-11.2806
▁oro	-11.2806
▁proven	-11.2809
▁smallest	-11.281
▁nod	-11.281
▁affected	-11.2811
▁humping	-11.2811
▁switchback	-11.2811
▁kent	-11.2811
▁pli	-11.2812
▁sailor	-11.2813
▁kay	-11.2813
▁puke	-11.2813
coming	-11.2814
▁any	-11.2815
▁doorway	-11.2816
▁briefed	-11.2817
lles	-11.2817
▁sixth	-11.2818
▁roughly	-11.282
▁strut	-11.2821
▁vick	-11.2821
▁endure	-11.2822
▁snarling	-11.2822
▁disturbing	-11.2822
▁matte	-11.2823
▁unlocked	-11.2824
▁episodes	-11.2825
▁scissors	-11.2825
▁donors	-11.2825
▁hesped	-11.2826
▁fishin	-11.2828
▁clinking	-11.283
▁delayed	-11.283
▁tumb	-11.2833
▁boiling	-11.2838
▁advised	-11.2838
▁squeaking	-11.2838
▁momma	-11.2839
au	-11.284
▁projection	-11.284
▁yelled	-11.2845
▁tara	-11.2845
▁mold	-11.2849
▁slaughtered	-11.2849
▁hacked	-11.2851
▁recognized	-11.2854
▁separated	-11.2854
▁relocate	-11.2854
▁skiing	-11.2855
▁recommended	-11.2856
▁guaranteed	-11.2858
▁puzzles	-11.2861
▁wiped	-11.2863
▁parties	-11.2863
▁tucking	-11.2863
▁pale	-11.2865
▁freezer	-11.2865
▁weakly	-11.2866
▁accusation	-11.2867
▁businessman	-11.2869
▁tanker	-11.2869
▁ciao	-11.2869
▁abused	-11.287
▁pom	-11.2872
▁kisses	-11.2872
▁severed	-11.2874
▁designer	-11.2876
▁val	-11.2877
▁charming	-11.2879
▁grind	-11.2879
lly	-11.2885
▁failing	-11.2888
▁vibrat	-11.2889
wo	-11.2891
▁hardest	-11.2892
enny	-11.2892
▁ra	-11.2894
▁echoing	-11.2896
▁usa	-11.2897
▁endless	-11.2902
▁wired	-11.2902
▁louie	-11.2903
▁chica	-11.291
▁wishes	-11.2912
▁rank	-11.2914
▁cracked	-11.2917
▁comms	-11.2919
▁tricked	-11.2924
▁sher	-11.2925
▁stare	-11.2927
▁seizures	-11.2934
▁snacks	-11.2934
▁worms	-11.2934
dan	-11.2936
▁whoops	-11.2936
▁bent	-11.2938
▁swor	-11.2943
▁reader	-11.2944
ugh	-11.2946
▁classy	-11.2946
▁ants	-11.2954
▁cho	-11.2958
▁counseling	-11.2962
▁ranks	-11.2965
▁frankly	-11.297
▁collecting	-11.2971
▁civilians	-11.2971
▁items	-11.2971
▁residents	-11.2971
▁swinging	-11.2973
▁grams	-11.2975
▁texted	-11.2977
▁continu	-11.2982
▁hookers	-11.2982
▁destroying	-11.2987
▁screwing	-11.2987
▁peel	-11.2991
▁concerning	-11.2991
▁elements	-11.3008
▁poems	-11.3008
nit	-11.3014
▁traveled	-11.3019
▁rounds	-11.3019
▁define	-11.3019
▁chairs	-11.302
▁misses	-11.3024
▁sod	-11.3026
▁washing	-11.3029
▁cooked	-11.3033
▁raining	-11.3033
▁suggesting	-11.3034
▁gram	-11.3037
▁colored	-11.3044
▁teenagers	-11.3047
▁rated	-11.3047
▁treating	-11.3054
▁governments	-11.3056
▁searched	-11.306
mans	-11.3062
ending	-11.3068
▁pd	-11.3073
▁kin	-11.3073
amin	-11.3075
▁bodyguards	-11.3083
▁visitors	-11.3086
▁bu	-11.3088
▁plots	-11.3094
▁weirdo	-11.3094
▁mugg	-11.3102
▁suite	-11.3112
▁basics	-11.3121
▁efforts	-11.3121
cr	-11.3121
▁renting	-11.313
▁stations	-11.3133
▁praying	-11.3139
cra	-11.3142
▁feds	-11.3156
▁stated	-11.3157
▁fare	-11.3161
▁by	-11.3162
▁stores	-11.3166
▁visions	-11.3196
▁liberat	-11.3198
anne	-11.3198
▁volunteers	-11.3198
▁til	-11.3201
▁rais	-11.3222
▁prawns	-11.3234
▁leaks	-11.3236
▁gin	-11.3252
▁ale	-11.3257
▁nerves	-11.3272
bre	-11.3276
▁rebel	-11.3297
▁aunts	-11.3306
▁tunes	-11.331
▁danced	-11.3318
▁kicks	-11.3335
dor	-11.3338
▁if	-11.3379
▁doughnuts	-11.3388
▁experts	-11.3388
lapping	-11.339
▁intimidat	-11.3392
sham	-11.3398
▁que	-11.34
was	-11.3413
▁ku	-11.3426
arm	-11.3437
nic	-11.3446
▁dart	-11.3446
▁rolled	-11.3456
▁cowboys	-11.3466
▁szells	-11.3466
hold	-11.3468
▁manipulate	-11.3476
old	-11.3486
ford	-11.3494
ked	-11.3501
til	-11.3502
▁tee	-11.3503
▁nails	-11.3508
▁covers	-11.3529
onos	-11.3533
ept	-11.3535
▁shitless	-11.3568
▁imim	-11.3578
▁patricias	-11.3583
▁noises	-11.3586
track	-11.359
hon	-11.3593
tation	-11.3606
teen	-11.3611
▁av	-11.3618
▁negotiat	-11.3618
▁ami	-11.3619
val	-11.3624
▁connections	-11.3624
▁mes	-11.3628
▁hooks	-11.3635
ore	-11.3637
▁diss	-11.3642
erto	-11.3651
▁procedures	-11.3663
▁bombings	-11.3663
▁seasons	-11.3663
ock	-11.3678
▁ant	-11.3684
▁plants	-11.3684
any	-11.3716
▁alan	-11.3722
▁leaders	-11.3732
▁runners	-11.3743
ozin	-11.3744
▁signing	-11.3747
▁roller	-11.3756
▁luc	-11.376
aaa	-11.3761
▁eric	-11.3762
▁anticipate	-11.3766
▁grounds	-11.3777
its	-11.3777
▁buttons	-11.3784
▁sou	-11.3787
▁swa	-11.38
ital	-11.3804
actical	-11.3807
oosh	-11.3808
▁reserve	-11.3813
nnie	-11.3818
▁diseases	-11.3823
▁relationships	-11.3823
▁ambi	-11.3835
▁spiritua	-11.384
▁savages	-11.3855
▁feeds	-11.3869
▁au	-11.3877
▁cared	-11.3901
▁rogers	-11.3904
ncy	-11.3955
▁yan	-11.3966
▁accidents	-11.3974
▁whores	-11.3985
wah	-11.3986
tial	-11.4007
▁kindly	-11.401
vot	-11.4066
▁wishing	-11.4068
▁kris	-11.4084
▁questioning	-11.4096
▁len	-11.4109
atic	-11.411
▁lion	-11.4143
▁shops	-11.4144
▁hallo	-11.4156
▁tr	-11.4179
▁trusting	-11.4209
▁flop	-11.4221
▁figures	-11.4227
▁travell	-11.4227
▁allies	-11.4229
▁battles	-11.4235
▁notices	-11.4239
▁beam	-11.4247
▁arrests	-11.4248
tal	-11.4263
tors	-11.4291
▁prot	-11.4298
▁zodiacs	-11.4298
▁films	-11.432
nag	-11.433
▁rang	-11.4341
▁frat	-11.4349
▁bears	-11.4368
▁han	-11.4376
▁easter	-11.4381
ssie	-11.4386
▁undo	-11.4387
▁agrees	-11.4409
inister	-11.4448
▁ships	-11.4448
▁firms	-11.4448
tom	-11.446
▁reporters	-11.4473
nd	-11.4476
iro	-11.4484
carce	-11.4488
nia	-11.4498
ego	-11.4499
gul	-11.4508
▁how	-11.4521
▁sniff	-11.4536
▁whisper	-11.4541
mat	-11.4542
iness	-11.4548
▁kidney	-11.4561
▁ador	-11.4565
lay	-11.4565
▁pigeon	-11.4567
▁crapp	-11.4568
▁seizure	-11.4571
▁snack	-11.4571
▁object	-11.4572
▁worm	-11.4573
▁villain	-11.4573
▁fag	-11.4574
▁eit	-11.4593
▁tellin	-11.4595
▁server	-11.4601
▁angle	-11.4609
▁dio	-11.4615
▁musician	-11.4625
aged	-11.4627
aste	-11.463
▁snatch	-11.4635
chi	-11.464
▁asset	-11.464
▁flee	-11.4651
jays	-11.4657
related	-11.4667
▁constitution	-11.4671
exia	-11.4673
▁lip	-11.4673
aching	-11.4676
▁walker	-11.4677
▁polic	-11.4678
keeper	-11.4686
psy	-11.4712
power	-11.4713
▁distract	-11.4714
▁bid	-11.4719
▁observ	-11.472
▁forc	-11.4725
▁applaud	-11.4726
▁hump	-11.4727
▁ohhh	-11.4728
▁steamin	-11.4728
▁invade	-11.4732
marita	-11.4733
▁crook	-11.4735
ggle	-11.4735
▁pun	-11.4737
lasting	-11.4738
bound	-11.4741
▁vanish	-11.4742
fall	-11.4745
phone	-11.4746
▁compromise	-11.4747
life	-11.4748
▁dedicate	-11.4748
cloth	-11.4748
slav	-11.4748
bird	-11.475
burger	-11.475
service	-11.4751
finished	-11.4751
safe	-11.4751
mark	-11.4751
▁execute	-11.4752
speaker	-11.4754
▁competitive	-11.4754
▁dar	-11.4755
▁precise	-11.4756
▁programme	-11.4756
▁explode	-11.4756
hair	-11.4756
▁absolute	-11.4757
string	-11.4757
right	-11.4758
▁cel	-11.4758
▁with	-11.4759
▁moos	-11.4759
▁govern	-11.476
but	-11.476
▁bennet	-11.4761
▁peg	-11.4763
▁dispos	-11.4763
▁korea	-11.4763
▁sn	-11.4763
▁refuge	-11.4763
▁confront	-11.4763
cake	-11.4765
▁leavin	-11.4765
▁movin	-11.4765
▁exhibit	-11.4765
sale	-11.4765
▁epi	-11.4765
▁communi	-11.4766
▁spic	-11.4766
▁scienti	-11.4767
▁gro	-11.4767
▁relev	-11.4767
▁ore	-11.4767
▁commend	-11.4768
▁entertain	-11.4768
▁region	-11.4768
▁cartoon	-11.4768
xico	-11.4768
▁sil	-11.4768
▁detain	-11.4768
▁consist	-11.4768
▁wage	-11.4768
▁limb	-11.4768
▁francis	-11.4768
▁museum	-11.4769
▁contradict	-11.4769
▁deux	-11.4769
▁vertical	-11.4769
ijuana	-11.4769
▁aargh	-11.4769
▁accommodate	-11.4769
▁accompan	-11.4769
▁accomplice	-11.4769
▁accordance	-11.4769
▁acquire	-11.4769
▁affirmative	-11.4769
▁afghan	-11.4769
▁aldren	-11.4769
▁alejandro	-11.4769
▁alligator	-11.4769
▁altogether	-11.4769
▁ammunition	-11.4769
▁antibiotic	-11.4769
▁antigonus	-11.4769
▁applied	-11.4769
▁arbitration	-11.4769
▁arrgh	-11.4769
▁aspirin	-11.4769
▁association	-11.4769
▁asthma	-11.4769
▁balcony	-11.4769
▁baltimore	-11.4769
▁basileus	-11.4769
▁battalion	-11.4769
▁berziers	-11.4769
▁bhai	-11.4769
▁bikini	-11.4769
▁blackmail	-11.4769
▁bleach	-11.4769
▁blunt	-11.4769
▁bolivia	-11.4769
▁breaststroke	-11.4769
▁bruises	-11.4769
▁caesar	-11.4769
▁campaign	-11.4769
▁capacity	-11.4769
▁carnival	-11.4769
▁carpenter	-11.4769
▁certificate	-11.4769
▁cheerleader	-11.4769
▁cherubini	-11.4769
▁cloister	-11.4769
▁compartment	-11.4769
▁conceal	-11.4769
▁controversy	-11.4769
▁copiague	-11.4769
▁corridor	-11.4769
▁courier	-11.4769
▁dalavan	-11.4769
▁damascus	-11.4769
▁debate	-11.4769
▁devotion	-11.4769
▁dildo	-11.4769
▁disaster	-11.4769
▁disorder	-11.4769
▁dispute	-11.4769
▁distinguish	-11.4769
▁dublin	-11.4769
▁eduardo	-11.4769
▁elegant	-11.4769
▁emoji	-11.4769
▁endtoend	-11.4769
▁engel	-11.4769
▁enthusiasm	-11.4769
▁entries	-11.4769
▁envelope	-11.4769
▁equation	-11.4769
▁eustice	-11.4769
▁evolve	-11.4769
▁excellence	-11.4769
▁fingernail	-11.4769
▁fishbowl	-11.4769
▁florist	-11.4769
▁fokkin	-11.4769
▁forrest	-11.4769
▁fountain	-11.4769
▁freud	-11.4769
▁gendarmerie	-11.4769
▁genuine	-11.4769
▁gilbert	-11.4769
▁giraffe	-11.4769
▁glide	-11.4769
▁gretchen	-11.4769
▁haddonfield	-11.4769
▁handshake	-11.4769
▁hilarious	-11.4769
▁impulse	-11.4769
▁ineffective	-11.4769
▁ingredient	-11.4769
▁innocence	-11.4769
▁inquiries	-11.4769
▁instagram	-11.4769
▁interrogate	-11.4769
▁isolation	-11.4769
▁jeopardize	-11.4769
▁jeopardy	-11.4769
▁jigsaw	-11.4769
▁jurisdiction	-11.4769
▁kassar	-11.4769
▁katrina	-11.4769
▁kelevra	-11.4769
▁ketchup	-11.4769
▁koobus	-11.4769
▁liberal	-11.4769
▁lsharp	-11.4769
▁luggage	-11.4769
▁lunatic	-11.4769
▁magdalene	-11.4769
▁manifest	-11.4769
▁manufacture	-11.4769
▁marianne	-11.4769
▁massachusetts	-11.4769
▁mcdonalds	-11.4769
▁medieval	-11.4769
▁mistress	-11.4769
▁morgen	-11.4769
▁mortgage	-11.4769
▁murdock	-11.4769
▁narrow	-11.4769
▁necessarily	-11.4769
▁negro	-11.4769
▁nikki	-11.4769
▁offlimits	-11.4769
▁oklahoma	-11.4769
▁orlando	-11.4769
▁pamela	-11.4769
▁pavitt	-11.4769
▁peanut	-11.4769
▁peasants	-11.4769
▁penalty	-11.4769
▁pistachio	-11.4769
▁platform	-11.4769
▁preparation	-11.4769
▁prometheus	-11.4769
▁promotion	-11.4769
▁proposition	-11.4769
▁psychology	-11.4769
▁purple	-11.4769
▁pursuing	-11.4769
▁rainbow	-11.4769
▁rehearsing	-11.4769
▁releasing	-11.4769
▁religion	-11.4769
▁restraint	-11.4769
▁rutherford	-11.4769
▁samurai	-11.4769
▁sarcasm	-11.4769
▁schanberg	-11.4769
▁scylla	-11.4769
▁selfconscious	-11.4769
▁sfpd	-11.4769
▁shapiro	-11.4769
▁shuddering	-11.4769
▁shudders	-11.4769
▁sinclair	-11.4769
▁slug	-11.4769
▁souvenir	-11.4769
▁splutters	-11.4769
▁spooked	-11.4769
▁stairwell	-11.4769
▁subpoena	-11.4769
▁subsequent	-11.4769
▁summary	-11.4769
▁supplies	-11.4769
▁thailand	-11.4769
▁thorough	-11.4769
▁tomasino	-11.4769
▁travis	-11.4769
▁treason	-11.4769
▁umbrella	-11.4769
▁undercover	-11.4769
▁unleash	-11.4769
▁unwavering	-11.4769
▁urban	-11.4769
▁vacuum	-11.4769
▁valentina	-11.4769
▁vault	-11.4769
▁verbier	-11.4769
▁volcano	-11.4769
▁vulgar	-11.4769
▁walden	-11.4769
▁walkietalkie	-11.4769
▁wannabe	-11.4769
▁watermelon	-11.4769
▁waturi	-11.4769
▁wertzner	-11.4769
▁whereabouts	-11.4769
▁yakitito	-11.4769
▁yeehaw	-11.4769
▁aqua	-11.4769
▁blaming	-11.4769
▁blowjob	-11.4769
▁chloe	-11.4769
▁choosing	-11.4769
▁depth	-11.4769
▁devoted	-11.4769
▁distinct	-11.4769
▁explore	-11.4769
▁harbor	-11.4769
▁input	-11.4769
▁interfere	-11.4769
▁islam	-11.4769
▁jersey	-11.4769
▁kinky	-11.4769
▁lawsuits	-11.4769
▁legacy	-11.4769
▁loomis	-11.4769
▁moreno	-11.4769
▁nuclear	-11.4769
▁outcome	-11.4769
▁preparing	-11.4769
▁pursuit	-11.4769
▁rahman	-11.4769
▁regain	-11.4769
▁reunion	-11.4769
▁ruched	-11.4769
▁sheila	-11.4769
▁spider	-11.4769
▁struggling	-11.4769
▁synchroni	-11.4769
▁thurman	-11.4769
▁yelp	-11.4769
▁analyst	-11.4769
▁butterfly	-11.4769
▁chimes	-11.4769
▁decommission	-11.4769
▁disabled	-11.4769
▁earrings	-11.4769
▁extend	-11.4769
▁function	-11.4769
▁gasket	-11.4769
▁prophet	-11.4769
▁torch	-11.4769
▁voltaire	-11.4769
▁wrights	-11.4769
▁bandaid	-11.4769
▁fumble	-11.4769
▁hinda	-11.4769
▁bore	-11.4769
▁rehabilitat	-11.4769
▁stump	-11.4769
▁cement	-11.4769
▁collaborat	-11.4769
▁knicks	-11.4769
▁sincerity	-11.4769
▁superstar	-11.4769
▁annoyed	-11.4769
▁communism	-11.4769
▁foster	-11.4769
▁sinners	-11.4769
▁doyle	-11.4769
▁glorifie	-11.4769
▁endanger	-11.4769
▁impact	-11.4769
▁remix	-11.4769
▁transgene	-11.4769
▁gollings	-11.4769
▁indicate	-11.4769
▁insight	-11.4769
▁hardworking	-11.4769
▁hypo	-11.4769
▁bleating	-11.4769
▁brandnew	-11.4769
▁cinema	-11.4769
▁leverage	-11.4769
▁persist	-11.4769
▁disrupt	-11.4769
▁lomax	-11.4769
▁oxygen	-11.4769
▁funky	-11.4769
▁butcher	-11.4769
▁drugged	-11.4769
▁fender	-11.4769
▁nanex	-11.4769
▁scrawl	-11.4769
▁lyons	-11.4769
▁particle	-11.4769
▁absence	-11.4769
▁dizzy	-11.4769
▁valium	-11.4769
▁pajamas	-11.4769
▁bluff	-11.4769
▁transition	-11.4769
▁chalk	-11.4769
▁phenomenon	-11.4769
▁respirator	-11.4769
▁retai	-11.4769
▁insemination	-11.4769
▁smurfette	-11.4769
▁fordham	-11.4769
▁memorial	-11.4769
▁spiro	-11.4769
▁arsehole	-11.4769
▁babysit	-11.4769
▁destination	-11.4769
▁compact	-11.4769
▁humble	-11.4769
▁salary	-11.4769
▁fragment	-11.4769
▁jonah	-11.4769
▁activities	-11.4769
▁criticize	-11.4769
▁paddle	-11.4769
▁medium	-11.477
▁quadrant	-11.477
▁grip	-11.477
▁somber	-11.477
▁clank	-11.477
▁butthole	-11.477
▁guidance	-11.477
▁twat	-11.477
▁tsk	-11.477
▁advisor	-11.477
▁booboo	-11.477
▁elaine	-11.477
▁prius	-11.477
▁blaze	-11.477
▁antique	-11.477
▁concentration	-11.477
▁achievement	-11.477
▁stasi	-11.477
▁cherita	-11.477
▁chapel	-11.477
▁delta	-11.477
▁altitude	-11.477
▁scarlet	-11.477
▁sniffling	-11.477
▁extension	-11.477
▁edwin	-11.477
▁thudding	-11.477
▁macray	-11.477
▁hazard	-11.477
▁southbound	-11.477
▁grasp	-11.477
▁hunk	-11.477
▁coordinator	-11.477
▁rotate	-11.477
▁memor	-11.477
▁honklng	-11.477
alyo	-11.477
▁diane	-11.477
▁peach	-11.477
▁tickle	-11.477
▁doggy	-11.477
▁parade	-11.477
▁shook	-11.477
▁dvd	-11.4771
▁broadway	-11.4771
▁liking	-11.4771
▁pirate	-11.4771
▁festival	-11.4771
▁perez	-11.4771
▁gershen	-11.4771
▁diversion	-11.4771
▁whwhat	-11.4771
▁hodges	-11.4771
▁icu	-11.4771
▁stunt	-11.4771
▁edgar	-11.4771
▁spaz	-11.4771
▁stash	-11.4771
▁edition	-11.4771
▁woof	-11.4771
▁spill	-11.4771
▁litter	-11.4771
▁scientist	-11.4771
▁dummy	-11.4771
▁heckle	-11.4771
▁beret	-11.4771
▁contra	-11.4771
▁render	-11.4771
▁audition	-11.4771
▁journalist	-11.4771
▁chaz	-11.4771
▁estimate	-11.4771
▁circuit	-11.4771
▁gravity	-11.4771
▁occupied	-11.4771
▁satisfied	-11.4771
▁pepsi	-11.4771
▁jessup	-11.4772
▁courtroom	-11.4772
▁stroll	-11.4772
▁illusion	-11.4772
▁dental	-11.4772
▁ballroom	-11.4772
▁horrific	-11.4772
▁puff	-11.4772
logger	-11.4772
▁cuff	-11.4772
▁titty	-11.4772
▁beings	-11.4772
▁jeffries	-11.4772
▁outhouse	-11.4772
▁gastro	-11.4772
▁innit	-11.4772
▁moore	-11.4772
▁loot	-11.4772
▁oj	-11.4772
▁rico	-11.4772
▁epic	-11.4772
nstein	-11.4773
▁sunlight	-11.4773
▁beep	-11.4773
▁corrections	-11.4773
▁childhood	-11.4773
▁spotlight	-11.4773
▁pussies	-11.4773
▁limo	-11.4773
▁seduc	-11.4773
▁bobcat	-11.4773
▁keyboard	-11.4773
▁hull	-11.4773
▁delight	-11.4773
▁instructed	-11.4773
▁elam	-11.4773
▁fame	-11.4773
▁affection	-11.4774
▁reset	-11.4774
▁allah	-11.4774
▁dandy	-11.4774
▁zoom	-11.4774
▁sundown	-11.4774
▁buon	-11.4774
▁philosophy	-11.4774
▁crusader	-11.4774
▁regardless	-11.4774
eye	-11.4774
▁accountability	-11.4774
▁probability	-11.4775
▁ridge	-11.4775
▁titan	-11.4775
▁bean	-11.4775
▁naveed	-11.4775
▁brandi	-11.4775
▁macke	-11.4775
▁potter	-11.4776
▁eagle	-11.4776
▁knob	-11.4776
▁tide	-11.4776
▁milf	-11.4776
▁witches	-11.4776
▁curl	-11.4776
▁cuba	-11.4776
▁sworn	-11.4776
▁discharged	-11.4776
▁fordon	-11.4776
▁verse	-11.4776
▁spaceship	-11.4777
▁attach	-11.4777
▁urgh	-11.4777
▁fide	-11.4777
▁inner	-11.4777
▁splitting	-11.4778
▁hype	-11.4778
▁caf	-11.4778
▁jaffey	-11.4778
▁spru	-11.4778
▁eyeball	-11.4778
▁pinch	-11.4779
ondo	-11.4779
▁scoop	-11.4779
▁conspir	-11.4779
▁whoaoh	-11.4779
▁payroll	-11.4779
pleasant	-11.4779
▁donation	-11.478
▁dishes	-11.478
▁settlement	-11.478
▁thou	-11.478
▁drone	-11.4781
▁doomed	-11.4782
▁breakdown	-11.4782
▁runaway	-11.4782
▁perry	-11.4782
▁hedge	-11.4783
▁salam	-11.4783
▁dried	-11.4784
▁buzzer	-11.4784
▁penh	-11.4784
▁jessen	-11.4785
▁deeds	-11.4785
▁notion	-11.4785
▁ace	-11.4785
▁evie	-11.4785
▁alba	-11.4786
▁ache	-11.4786
▁tipped	-11.4786
▁rally	-11.4788
▁hehe	-11.4789
▁devastated	-11.4789
▁scan	-11.4789
▁brass	-11.479
▁lifestyle	-11.479
▁mich	-11.4791
▁hysterical	-11.4792
▁rookie	-11.4792
▁hamburger	-11.4792
▁felony	-11.4792
▁wiser	-11.4793
▁campus	-11.4793
▁hips	-11.4794
▁dim	-11.4794
▁stretcher	-11.4794
minded	-11.4794
▁bidding	-11.4794
▁sore	-11.4794
▁hiccups	-11.4794
▁videotapes	-11.4794
▁grieving	-11.4794
▁jacobs	-11.4794
▁slum	-11.4795
▁geek	-11.4795
▁mustang	-11.4795
▁gage	-11.4797
▁its	-11.4797
holders	-11.4797
▁dash	-11.4799
▁uk	-11.4799
▁reel	-11.4799
▁psychotic	-11.4799
▁mumbl	-11.4802
▁parish	-11.4802
▁annie	-11.4803
▁overdo	-11.4803
▁clothing	-11.4804
▁shrieking	-11.4804
▁ignored	-11.4806
ield	-11.4806
▁uhoh	-11.4807
rice	-11.4808
▁scraping	-11.4809
▁darkest	-11.481
▁sour	-11.4811
▁desperately	-11.4811
▁alleged	-11.4813
▁poop	-11.4813
rence	-11.4814
▁honorable	-11.4814
▁distracting	-11.4815
iah	-11.4815
▁peeled	-11.4815
▁strongest	-11.4818
▁dc	-11.4818
▁rubb	-11.4819
▁lace	-11.482
▁sup	-11.4821
▁disturbed	-11.4821
▁poured	-11.4821
▁carver	-11.4821
▁preserve	-11.4821
▁cheaper	-11.4822
▁printer	-11.4823
▁janet	-11.4825
▁frightening	-11.4825
▁coal	-11.4826
▁fod	-11.4827
▁singin	-11.4829
▁starve	-11.4829
▁haunted	-11.4829
▁approached	-11.4829
▁regarded	-11.4829
▁harp	-11.4832
▁shaki	-11.4835
▁mentally	-11.4836
▁homeboy	-11.4836
inch	-11.4837
▁condoms	-11.4838
▁consequences	-11.4838
▁donuts	-11.4838
▁skitters	-11.4838
▁standup	-11.4839
▁defeated	-11.4839
▁sweaty	-11.484
▁flaps	-11.484
▁painless	-11.4842
▁reminder	-11.4843
▁rl	-11.4844
▁oughta	-11.4844
▁retarded	-11.4845
▁poisoned	-11.4845
▁replaced	-11.4845
▁wr	-11.4847
▁erm	-11.4848
▁shifty	-11.485
▁assist	-11.485
▁cabin	-11.485
wait	-11.485
▁cheri	-11.4852
▁doe	-11.4852
▁messes	-11.4852
▁setup	-11.4854
▁waterboarding	-11.4855
▁simpler	-11.4855
▁betraying	-11.4855
▁scoot	-11.4857
pensive	-11.486
▁intr	-11.4863
▁countin	-11.4865
▁cycle	-11.4866
▁badass	-11.4866
▁locke	-11.4867
▁constitutional	-11.4869
▁boobs	-11.4869
▁leaked	-11.4871
▁collector	-11.4872
▁pid	-11.4875
▁pitched	-11.4878
▁paulo	-11.4879
▁canceled	-11.4879
▁mandy	-11.4881
▁balloons	-11.4883
▁hostages	-11.4883
▁emotions	-11.4883
▁wails	-11.4884
▁ricky	-11.4884
▁stoney	-11.4885
▁jeffr	-11.4886
▁gathering	-11.4886
▁healing	-11.4886
▁fleet	-11.4888
▁jman	-11.4893
▁bubb	-11.4899
▁attempted	-11.4901
▁yoo	-11.4902
▁nighttime	-11.4903
▁mow	-11.4904
▁bol	-11.4904
▁insulting	-11.4907
▁meth	-11.4915
▁scaring	-11.4916
▁licking	-11.4917
▁carson	-11.4919
▁cheated	-11.4919
▁rash	-11.4919
▁dod	-11.4921
▁flipp	-11.4922
test	-11.4923
▁unh	-11.4929
▁nailed	-11.4929
▁operatives	-11.4929
▁touches	-11.4929
▁colleagues	-11.4929
▁expenses	-11.4929
▁firecrackers	-11.4929
▁forensics	-11.4929
▁investigators	-11.4929
▁truffles	-11.4929
▁veterans	-11.4929
logue	-11.4929
▁alp	-11.4935
▁performing	-11.4939
mhm	-11.4941
▁smashed	-11.4943
▁dreamt	-11.4943
▁ambivalen	-11.495
gulf	-11.495
▁smarter	-11.4956
▁hesitates	-11.4957
▁fans	-11.496
▁walt	-11.4964
▁friggin	-11.4967
▁del	-11.497
▁beans	-11.4972
▁assets	-11.4975
▁pigeons	-11.4975
date	-11.4976
▁angles	-11.4977
▁tasted	-11.4979
▁ideal	-11.498
look	-11.498
▁hans	-11.4981
▁dios	-11.4984
lon	-11.4988
▁lens	-11.499
▁sticker	-11.4996
▁rebels	-11.5003
vd	-11.5004
▁iced	-11.5006
ata	-11.5007
zi	-11.5008
▁shorty	-11.5012
▁cle	-11.5014
▁painter	-11.5018
▁volks	-11.5022
▁fuse	-11.5029
▁tubes	-11.5044
▁seeking	-11.5046
▁chev	-11.5053
▁targeted	-11.5053
▁visited	-11.5057
▁pearls	-11.5067
▁receipts	-11.5068
▁feeding	-11.5068
▁includes	-11.5068
opher	-11.5069
▁corpses	-11.5072
▁boneing	-11.5073
▁eighty	-11.5077
▁tags	-11.5097
▁corrected	-11.5098
▁ifthe	-11.5098
tta	-11.5108
▁mute	-11.5112
▁arch	-11.5113
▁clubs	-11.5114
▁patterns	-11.5114
▁macedonians	-11.5114
▁westerns	-11.5114
▁crows	-11.5117
rican	-11.5119
fund	-11.5144
▁vern	-11.5154
▁digg	-11.5156
▁crashing	-11.5157
▁wherea	-11.516
▁rely	-11.516
▁ponds	-11.5161
▁ciphers	-11.5161
▁networks	-11.5161
▁comments	-11.5161
▁permitt	-11.5162
▁traveling	-11.5165
▁myths	-11.5167
▁exc	-11.5171
▁owners	-11.5173
▁oneway	-11.5174
▁sta	-11.5179
▁snapp	-11.5207
▁toys	-11.5208
▁nazis	-11.5208
▁chambers	-11.5208
▁cocktails	-11.5208
▁scouts	-11.5208
▁warriors	-11.5208
▁vows	-11.5208
▁arrangements	-11.5211
▁frankie	-11.5212
leen	-11.5217
▁for	-11.5257
▁rags	-11.5257
▁marrying	-11.5261
ough	-11.5271
▁smelled	-11.5273
disco	-11.5275
▁funds	-11.5275
▁weighs	-11.5307
ark	-11.5315
▁talibans	-11.5351
▁versions	-11.5351
▁bugs	-11.5353
▁zan	-11.5356
▁jackals	-11.5364
▁ringer	-11.5364
▁askin	-11.5367
all	-11.5376
▁cri	-11.5378
▁bor	-11.5381
▁mode	-11.5381
ello	-11.5383
▁leon	-11.5391
▁chapters	-11.54
▁comm	-11.54
▁damages	-11.5401
▁ruins	-11.5402
▁admiss	-11.5404
posed	-11.5409
▁billions	-11.5409
▁halt	-11.5413
▁deceive	-11.5437
▁sacks	-11.5448
▁springs	-11.5448
hard	-11.5478
ladi	-11.548
▁artists	-11.5496
▁morons	-11.5496
▁christians	-11.5496
▁probabl	-11.5506
▁jenn	-11.5518
▁butts	-11.5539
▁cows	-11.5545
▁steaks	-11.5548
esy	-11.555
▁fad	-11.5552
gum	-11.5559
▁explaining	-11.5579
nosy	-11.5596
▁hesitate	-11.5596
rid	-11.5631
▁ping	-11.5641
▁spike	-11.5644
▁creates	-11.5645
war	-11.565
ix	-11.5667
▁manor	-11.5673
▁frie	-11.5677
▁boarding	-11.5693
▁cousins	-11.5693
were	-11.571
lab	-11.5722
▁lung	-11.5729
▁naive	-11.5755
mus	-11.5759
▁missy	-11.5776
hugging	-11.5789
han	-11.5795
▁carlis	-11.5795
▁deli	-11.5801
▁utili	-11.5807
ett	-11.5815
▁gla	-11.5832
vel	-11.5834
▁hardy	-11.5834
▁workin	-11.5838
stitution	-11.5842
▁cracks	-11.5849
bone	-11.585
ago	-11.5868
▁scr	-11.5874
▁waitin	-11.5875
▁statements	-11.5894
▁helicopters	-11.5894
▁locations	-11.5897
sel	-11.5926
▁scrap	-11.594
sure	-11.5954
▁defi	-11.5982
▁cou	-11.5985
▁pent	-11.5991
▁cob	-11.5991
▁sections	-11.5996
▁char	-11.5999
▁findings	-11.6
▁gua	-11.6001
yl	-11.601
▁coll	-11.6019
▁convert	-11.602
▁bums	-11.6023
▁det	-11.603
▁races	-11.6044
▁spreads	-11.6048
▁characters	-11.6048
▁pumps	-11.6054
▁tease	-11.6096
lance	-11.6098
hea	-11.6103
▁carte	-11.6129
▁amounts	-11.6151
▁articles	-11.6151
▁regulars	-11.6151
rus	-11.6153
▁that	-11.6169
delia	-11.6179
owl	-11.6181
zo	-11.6192
▁tw	-11.6221
▁spik	-11.6248
▁gifts	-11.6256
▁crossbo	-11.6263
rate	-11.6286
ptic	-11.6293
▁rode	-11.6293
▁grabb	-11.6314
▁rains	-11.6317
lated	-11.632
▁suggests	-11.6324
ique	-11.6325
zman	-11.6329
▁pronounce	-11.635
late	-11.6351
wee	-11.6358
▁intimidate	-11.6365
▁kr	-11.6365
▁pickle	-11.6365
▁shin	-11.6372
▁stat	-11.6376
▁slic	-11.6377
ilia	-11.6383
▁conscious	-11.6393
pong	-11.641
▁guid	-11.6418
▁ala	-11.642
uz	-11.6425
▁cooi	-11.6458
▁shov	-11.6473
▁wu	-11.6499
mart	-11.6501
▁conf	-11.6531
orno	-11.6572
ecto	-11.6575
ament	-11.6617
▁bash	-11.6645
cher	-11.6646
ork	-11.6656
elle	-11.6677
▁fre	-11.6722
▁buyer	-11.6725
▁abus	-11.6725
▁carl	-11.6743
▁pol	-11.677
otto	-11.6772
▁unc	-11.6776
arleen	-11.6783
▁tact	-11.6784
lier	-11.6795
▁mol	-11.6796
under	-11.6867
ashu	-11.6869
pie	-11.6904
ati	-11.6926
▁tele	-11.6928
▁breaker	-11.693
ban	-11.6952
▁persona	-11.6956
key	-11.696
perfection	-11.6961
▁recorder	-11.6967
nfield	-11.6969
▁stif	-11.6971
▁spe	-11.6972
eggy	-11.7002
▁lowe	-11.7014
▁spark	-11.7025
▁volk	-11.7035
grams	-11.7043
▁rem	-11.7059
▁bachelor	-11.7062
▁biscuit	-11.7062
▁cheque	-11.7062
▁companion	-11.7062
uk	-11.7063
▁gallon	-11.7065
▁elder	-11.7067
▁colleague	-11.7067
▁expense	-11.7067
▁firecracker	-11.7067
▁forensic	-11.7067
▁investigator	-11.7067
▁veteran	-11.7067
▁truffle	-11.7067
▁tang	-11.7069
▁euro	-11.7074
▁giggle	-11.7076
tit	-11.7077
▁yank	-11.708
▁twin	-11.708
▁flame	-11.708
▁troop	-11.708
▁whistle	-11.708
▁colon	-11.7081
▁operative	-11.7082
▁scoff	-11.7083
emper	-11.7087
▁sob	-11.7088
▁wal	-11.7089
▁von	-11.7095
▁recreation	-11.7096
▁hacker	-11.71
▁deco	-11.7113
▁sau	-11.7117
▁cracker	-11.7144
▁foreigner	-11.7151
▁induce	-11.7154
pano	-11.716
▁pap	-11.7167
▁poo	-11.7178
placed	-11.7181
▁tru	-11.7182
▁chow	-11.7184
iffy	-11.7185
▁engag	-11.7191
▁disc	-11.7195
▁paus	-11.7197
▁bein	-11.72
▁stud	-11.7205
play	-11.7206
▁gam	-11.7208
▁brag	-11.721
ega	-11.721
mind	-11.7216
born	-11.7216
spect	-11.7219
▁consul	-11.7219
five	-11.7221
▁offend	-11.7221
▁lumber	-11.7222
▁shriek	-11.7224
▁murmur	-11.7226
▁plac	-11.723
▁glow	-11.723
▁railroad	-11.723
▁consume	-11.7232
▁condemn	-11.7232
▁possess	-11.7233
▁conquer	-11.7234
▁stockhol	-11.7237
lums	-11.7237
▁woo	-11.7238
▁enterprise	-11.7238
▁urg	-11.7241
itters	-11.7242
girl	-11.7242
body	-11.7242
proof	-11.7245
school	-11.7246
▁rook	-11.7246
▁conclude	-11.7246
▁pul	-11.7248
plane	-11.7248
cycle	-11.7248
rdon	-11.7249
veston	-11.7249
▁cloth	-11.7249
colored	-11.7249
crow	-11.7249
mobile	-11.7249
▁promote	-11.725
sexual	-11.725
▁gamble	-11.725
grateful	-11.725
hmm	-11.725
thousand	-11.7251
lift	-11.7251
minute	-11.7251
american	-11.7251
space	-11.7251
shore	-11.7251
foot	-11.7251
broad	-11.7252
▁bog	-11.7252
▁confuse	-11.7252
worthy	-11.7252
▁goldenbe	-11.7253
box	-11.7253
▁thirst	-11.7254
▁filth	-11.7254
▁intimate	-11.7254
ofthe	-11.7254
walkin	-11.7255
nick	-11.7255
human	-11.7256
▁heavi	-11.7256
▁continuous	-11.7256
▁institut	-11.7256
▁bun	-11.7256
around	-11.7257
▁orient	-11.7257
zone	-11.7257
pole	-11.7257
person	-11.7257
▁poke	-11.7257
wall	-11.7258
thats	-11.7258
▁semi	-11.7258
▁trib	-11.7258
▁yea	-11.7259
orium	-11.7259
▁snip	-11.7259
coat	-11.7259
fucker	-11.726
▁slay	-11.726
▁tox	-11.7261
▁unti	-11.7262
▁olympia	-11.7262
bang	-11.7262
game	-11.7263
win	-11.7264
▁lind	-11.7264
▁preach	-11.7264
▁easie	-11.7265
▁sensation	-11.7265
▁soci	-11.7265
▁contribut	-11.7265
▁radiat	-11.7266
minar	-11.7266
▁construct	-11.7266
▁origin	-11.7266
▁retract	-11.7266
▁audit	-11.7267
▁vacat	-11.7267
▁bough	-11.7267
▁depart	-11.7267
▁integr	-11.7267
▁makin	-11.7267
separa	-11.7268
ounty	-11.7268
uzzle	-11.7268
▁whisk	-11.7268
▁orphan	-11.7268
▁multi	-11.7268
▁intelligen	-11.7268
▁northwest	-11.7268
fusion	-11.7269
▁tort	-11.7269
▁bootleg	-11.7269
▁schwarz	-11.7269
forsaken	-11.7269
hnikov	-11.7269
strasse	-11.7269
▁abduction	-11.7269
▁absurd	-11.7269
▁adderall	-11.7269
▁alaikum	-11.7269
▁amazon	-11.7269
▁anoint	-11.7269
▁anomaly	-11.7269
▁antipater	-11.7269
▁anxiety	-11.7269
▁apprentice	-11.7269
▁auriga	-11.7269
▁autism	-11.7269
▁avalanche	-11.7269
▁avila	-11.7269
▁balerdi	-11.7269
▁bannion	-11.7269
▁belfast	-11.7269
▁bellasarious	-11.7269
▁benedict	-11.7269
▁bereavement	-11.7269
▁bizarre	-11.7269
▁blanston	-11.7269
▁bolitonov	-11.7269
▁bourbon	-11.7269
▁breakthrough	-11.7269
▁brockovich	-11.7269
▁brokaw	-11.7269
▁buick	-11.7269
▁bundermann	-11.7269
▁bushwick	-11.7269
▁carnivore	-11.7269
▁centimeters	-11.7269
▁centuries	-11.7269
▁cereal	-11.7269
▁challenging	-11.7269
▁chitchat	-11.7269
▁chunk	-11.7269
▁clacker	-11.7269
▁collateral	-11.7269
▁cologne	-11.7269
▁compassion	-11.7269
▁competitor	-11.7269
▁composition	-11.7269
▁confinement	-11.7269
▁convenience	-11.7269
▁cordova	-11.7269
▁coventry	-11.7269
▁crucify	-11.7269
▁curfew	-11.7269
▁cursing	-11.7269
▁cymbal	-11.7269
▁davrow	-11.7269
▁dehaven	-11.7269
▁descent	-11.7269
▁describing	-11.7269
▁detroit	-11.7269
▁disciple	-11.7269
▁discourage	-11.7269
▁disguise	-11.7269
▁disregard	-11.7269
▁dreadful	-11.7269
▁dukakis	-11.7269
▁dweeb	-11.7269
▁eamons	-11.7269
▁election	-11.7269
▁entrepreneur	-11.7269
▁eskimo	-11.7269
▁essential	-11.7269
▁evident	-11.7269
▁exaggerating	-11.7269
▁exhusband	-11.7269
▁factionalism	-11.7269
▁february	-11.7269
▁fierce	-11.7269
▁fingertips	-11.7269
▁forfeit	-11.7269
▁franchise	-11.7269
▁gaugamela	-11.7269
▁glimpse	-11.7269
▁goldfarb	-11.7269
▁gradually	-11.7269
▁granddaddy	-11.7269
▁grudge	-11.7269
▁hampton	-11.7269
▁hancock	-11.7269
▁handcuff	-11.7269
▁hashtag	-11.7269
▁hayslip	-11.7269
▁hebitch	-11.7269
▁hillbillies	-11.7269
▁historian	-11.7269
▁hypocrite	-11.7269
▁identification	-11.7269
▁incorporated	-11.7269
▁indebted	-11.7269
▁insects	-11.7269
▁intrusion	-11.7269
▁isaac	-11.7269
▁johannesburg	-11.7269
▁jonathan	-11.7269
▁kennilworth	-11.7269
▁kilometer	-11.7269
▁knuckles	-11.7269
▁krystal	-11.7269
▁leclerc	-11.7269
▁leondria	-11.7269
▁lesbian	-11.7269
▁lnvestigation	-11.7269
▁louisiana	-11.7269
▁malaysia	-11.7269
▁manufacturing	-11.7269
▁marathon	-11.7269
▁masseuse	-11.7269
▁mccarthy	-11.7269
▁megahertz	-11.7269
▁migraine	-11.7269
▁militia	-11.7269
▁misunderstood	-11.7269
▁mugwump	-11.7269
▁mulholland	-11.7269
▁narcotics	-11.7269
▁nephew	-11.7269
▁neutral	-11.7269
▁nietzsche	-11.7269
▁nitti	-11.7269
▁noodle	-11.7269
▁nowadays	-11.7269
▁obstacle	-11.7269
▁offseason	-11.7269
▁opponent	-11.7269
▁opportunities	-11.7269
▁overcome	-11.7269
▁override	-11.7269
▁painkillers	-11.7269
▁patroclus	-11.7269
▁penitentiary	-11.7269
▁pentagon	-11.7269
▁perpetrate	-11.7269
▁phoenix	-11.7269
▁pippa	-11.7269
▁polnikov	-11.7269
▁poverty	-11.7269
▁prague	-11.7269
▁precaution	-11.7269
▁ptolemy	-11.7269
▁puttnam	-11.7269
▁quebec	-11.7269
▁receiving	-11.7269
▁recompil	-11.7269
▁refrigerator	-11.7269
▁remanded	-11.7269
▁resort	-11.7269
▁retrograde	-11.7269
▁ribbon	-11.7269
▁rodriguez	-11.7269
▁roxane	-11.7269
▁saloon	-11.7269
▁sanction	-11.7269
▁sanitarium	-11.7269
▁satchmo	-11.7269
▁scallop	-11.7269
▁schmuck	-11.7269
▁scrawny	-11.7269
▁scrimmage	-11.7269
▁seatbelt	-11.7269
▁secrecy	-11.7269
▁selfdefense	-11.7269
▁semantics	-11.7269
▁shabbos	-11.7269
▁shackleford	-11.7269
▁shaving	-11.7269
▁sheik	-11.7269
▁shiff	-11.7269
▁shitbrick	-11.7269
▁shoelaces	-11.7269
▁shrapnel	-11.7269
▁smuggling	-11.7269
▁snooping	-11.7269
▁sorceress	-11.7269
▁southeast	-11.7269
▁spectacle	-11.7269
▁sponsor	-11.7269
▁spooky	-11.7269
▁storage	-11.7269
▁symptoms	-11.7269
▁telluride	-11.7269
▁temporarily	-11.7269
▁thanksgiving	-11.7269
▁thompson	-11.7269
▁toothbrush	-11.7269
▁tupperware	-11.7269
▁udall	-11.7269
▁underestimate	-11.7269
▁unemployed	-11.7269
▁unfaithful	-11.7269
▁unnecessary	-11.7269
▁unofficial	-11.7269
▁unsolv	-11.7269
▁vericom	-11.7269
▁vienna	-11.7269
▁vintage	-11.7269
▁vitamins	-11.7269
▁vititoe	-11.7269
▁whiplash	-11.7269
▁witty	-11.7269
▁xerox	-11.7269
▁aphrodi	-11.7269
▁bendini	-11.7269
▁boogie	-11.7269
▁brewster	-11.7269
▁bueno	-11.7269
▁circulat	-11.7269
▁cluster	-11.7269
▁dalton	-11.7269
▁dawg	-11.7269
▁degrad	-11.7269
▁dignity	-11.7269
▁expired	-11.7269
▁flavor	-11.7269
▁fortyeight	-11.7269
▁gryphon	-11.7269
▁hafid	-11.7269
▁jvc	-11.7269
▁luxur	-11.7269
▁maury	-11.7269
▁narcissis	-11.7269
▁nolan	-11.7269
▁pilgrim	-11.7269
▁pursue	-11.7269
▁siege	-11.7269
▁spunk	-11.7269
▁supervis	-11.7269
▁unlucky	-11.7269
▁charging	-11.7269
▁declined	-11.7269
▁derek	-11.7269
▁hastings	-11.7269
▁imaging	-11.7269
▁inviola	-11.7269
▁jackpot	-11.7269
▁licence	-11.7269
▁loaf	-11.7269
▁napoleon	-11.7269
▁pneum	-11.7269
▁signature	-11.7269
▁slack	-11.7269
▁tanaka	-11.7269
▁torso	-11.7269
▁treacher	-11.7269
▁woah	-11.7269
▁marshal	-11.7269
▁scandal	-11.7269
▁sponge	-11.7269
clamation	-11.7269
▁babsie	-11.7269
▁console	-11.7269
▁divert	-11.7269
▁gump	-11.7269
▁hilton	-11.7269
▁minivan	-11.7269
▁oven	-11.7269
▁relish	-11.7269
▁unmarked	-11.7269
▁acquaint	-11.7269
▁carillo	-11.7269
▁courtney	-11.7269
▁lrene	-11.7269
▁romanians	-11.7269
▁alexei	-11.7269
▁clutch	-11.7269
▁emerge	-11.7269
▁fiona	-11.7269
▁merri	-11.7269
▁sedated	-11.7269
▁classmates	-11.7269
▁resolv	-11.7269
▁issa	-11.7269
▁neighbourhood	-11.7269
▁revolve	-11.7269
▁testicle	-11.7269
▁beneficial	-11.7269
▁exceed	-11.7269
▁hummus	-11.7269
▁metallic	-11.7269
▁wheat	-11.7269
▁aero	-11.7269
▁democrat	-11.7269
▁minimal	-11.7269
▁nathan	-11.7269
dext	-11.7269
▁pawn	-11.7269
▁narlow	-11.7269
▁darwin	-11.7269
▁defy	-11.7269
▁gossip	-11.7269
▁merit	-11.7269
▁italy	-11.7269
▁jingling	-11.7269
▁mutt	-11.7269
▁refinery	-11.7269
▁juvenile	-11.7269
▁stoked	-11.7269
▁suffocate	-11.7269
azzi	-11.7269
▁apollo	-11.7269
▁middlesex	-11.7269
▁welfare	-11.7269
▁gravy	-11.7269
▁deduction	-11.7269
▁dutchess	-11.7269
▁volmer	-11.7269
▁microphone	-11.7269
▁oldtimer	-11.7269
▁backache	-11.7269
▁huddle	-11.7269
▁singular	-11.7269
▁wormhole	-11.7269
▁congregati	-11.7269
▁typing	-11.7269
▁bliss	-11.7269
▁charade	-11.7269
▁dripping	-11.7269
▁canvas	-11.7269
▁evasion	-11.7269
▁farewell	-11.7269
▁notified	-11.7269
bastian	-11.7269
▁keg	-11.7269
▁anyhow	-11.7269
▁comiccon	-11.7269
▁luong	-11.7269
▁midterm	-11.7269
▁mccabe	-11.7269
▁zapped	-11.7269
▁insert	-11.7269
▁slope	-11.7269
▁bloodsuck	-11.7269
▁bronze	-11.7269
▁stool	-11.7269
▁dipshit	-11.7269
▁refill	-11.7269
▁bugged	-11.7269
▁biologist	-11.7269
▁integrated	-11.7269
▁salon	-11.7269
▁notification	-11.7269
▁invasion	-11.7269
▁strangle	-11.7269
▁reconstruction	-11.7269
neak	-11.7269
▁beacon	-11.7269
▁patriot	-11.7269
▁geology	-11.7269
▁referring	-11.7269
▁anesthetic	-11.7269
▁independence	-11.7269
▁majestic	-11.7269
▁cathedral	-11.7269
▁hawaii	-11.727
▁modifie	-11.727
▁detachment	-11.727
▁hootch	-11.727
▁precision	-11.727
▁whew	-11.727
▁pow	-11.727
▁thems	-11.727
▁finchmeister	-11.727
▁montana	-11.727
▁plateau	-11.727
▁stitches	-11.727
▁decadent	-11.727
▁graveyard	-11.727
▁intensity	-11.727
▁mutation	-11.727
▁tolerate	-11.727
▁mailbox	-11.727
▁native	-11.727
▁civilization	-11.727
▁venom	-11.727
▁gangbang	-11.727
▁stomp	-11.727
▁hobbies	-11.727
▁nibs	-11.727
▁powell	-11.727
▁daisy	-11.727
▁israelis	-11.727
▁moses	-11.727
▁muham	-11.727
▁underrated	-11.727
meister	-11.727
▁sputter	-11.727
▁gangster	-11.727
▁establishment	-11.727
▁itit	-11.727
bourg	-11.727
▁confusion	-11.727
▁inhaler	-11.727
▁donate	-11.727
▁invoice	-11.727
▁krass	-11.727
▁coco	-11.727
▁nev	-11.727
▁lyle	-11.727
▁furious	-11.727
▁pension	-11.727
▁waffle	-11.727
▁referred	-11.727
▁cooperating	-11.727
▁slov	-11.727
▁overlook	-11.727
▁squat	-11.727
▁downfield	-11.727
▁burke	-11.727
▁selected	-11.727
▁rooftop	-11.727
▁erratic	-11.727
▁anke	-11.727
▁historic	-11.727
▁consciousness	-11.727
▁expedition	-11.727
▁repay	-11.727
▁vista	-11.727
▁lamont	-11.727
▁babysitting	-11.727
▁vende	-11.727
owski	-11.727
▁upload	-11.7271
▁exclaim	-11.7271
▁properties	-11.7271
▁hallucination	-11.7271
▁surf	-11.7271
▁journalism	-11.7271
▁interpreter	-11.7271
▁doodle	-11.7271
▁launder	-11.7271
▁polar	-11.7271
▁attachment	-11.7271
▁hunch	-11.7271
▁tyre	-11.7271
▁feat	-11.7271
▁hernia	-11.7271
ooned	-11.7271
▁standpoint	-11.7271
▁csi	-11.7271
▁catalog	-11.7271
▁gail	-11.7271
▁martinez	-11.7271
▁humiliation	-11.7271
▁boundary	-11.7271
▁revolutionary	-11.7271
▁sentimental	-11.7271
▁approximately	-11.7271
▁delightful	-11.7271
▁walsh	-11.7271
affle	-11.7271
▁accessory	-11.7271
▁preference	-11.7271
▁premat	-11.7271
▁compuls	-11.7271
▁voting	-11.7271
▁lightweight	-11.7271
▁electra	-11.7271
▁blasphemy	-11.7272
▁deploy	-11.7272
▁choreograph	-11.7272
▁tasty	-11.7272
▁atom	-11.7272
▁nooo	-11.7272
▁void	-11.7272
▁interim	-11.7272
▁clarity	-11.7272
▁crank	-11.7272
▁janette	-11.7272
▁lowlife	-11.7272
▁classroom	-11.7272
high	-11.7272
▁shipping	-11.7272
▁dull	-11.7272
▁aaah	-11.7272
▁recess	-11.7272
▁inbound	-11.7272
▁april	-11.7272
▁biography	-11.7272
▁discretion	-11.7272
▁feminist	-11.7272
▁habib	-11.7272
▁practicing	-11.7272
▁sufficient	-11.7272
▁cept	-11.7272
▁kraut	-11.7272
▁merci	-11.7272
▁mature	-11.7272
▁mvd	-11.7272
▁exterminator	-11.7272
▁caliber	-11.7272
▁dealership	-11.7273
▁valor	-11.7273
▁imac	-11.7273
▁excessive	-11.7273
▁transformed	-11.7273
▁beamers	-11.7273
▁groceries	-11.7273
▁mercenaries	-11.7273
▁sinned	-11.7273
▁lupe	-11.7273
▁seized	-11.7273
▁oat	-11.7273
▁verde	-11.7273
▁strap	-11.7273
▁wits	-11.7273
▁frantic	-11.7273
hawk	-11.7273
▁columbo	-11.7273
▁pasa	-11.7273
▁info	-11.7273
ancy	-11.7273
▁visa	-11.7273
check	-11.7273
▁austrian	-11.7273
▁brendan	-11.7273
▁whale	-11.7273
▁pulp	-11.7273
▁lawrence	-11.7273
▁slo	-11.7274
▁chatting	-11.7274
▁snl	-11.7274
▁amends	-11.7274
▁maze	-11.7274
▁web	-11.7274
▁banal	-11.7274
▁tyrant	-11.7274
▁ferry	-11.7274
▁globe	-11.7274
▁waive	-11.7274
▁clow	-11.7274
osene	-11.7274
agnostic	-11.7274
▁leland	-11.7274
▁null	-11.7274
acle	-11.7274
▁firewall	-11.7275
▁porch	-11.7275
▁contingen	-11.7275
▁comon	-11.7275
▁nichola	-11.7275
▁distortion	-11.7275
ternity	-11.7275
▁charter	-11.7275
▁panel	-11.7275
▁substitute	-11.7275
▁chew	-11.7275
▁shyne	-11.7275
▁detest	-11.7275
▁josef	-11.7275
▁commitment	-11.7275
▁corona	-11.7276
▁herman	-11.7276
▁fuss	-11.7276
stead	-11.7276
▁repel	-11.7276
▁quest	-11.7276
▁halfhour	-11.7276
▁cloudy	-11.7276
▁fashionable	-11.7276
▁descending	-11.7276
▁irritating	-11.7276
▁satisfying	-11.7276
▁introducing	-11.7276
▁mech	-11.7277
▁confrontation	-11.7277
▁tango	-11.7277
▁exile	-11.7277
▁pending	-11.7277
rame	-11.7277
▁homosexuality	-11.7277
playing	-11.7277
▁dug	-11.7277
▁kiddie	-11.7277
▁management	-11.7277
▁songwriter	-11.7277
▁gps	-11.7277
meal	-11.7278
pido	-11.7278
▁chemical	-11.7278
▁sleeve	-11.7278
▁connor	-11.7278
▁overhead	-11.7278
▁barrow	-11.7278
▁brotherhood	-11.7278
▁thora	-11.7278
▁scarf	-11.7278
▁youse	-11.7278
▁alta	-11.7278
▁jamil	-11.7279
▁blar	-11.7279
▁bund	-11.7279
▁mixup	-11.7279
▁narrat	-11.7279
▁sniper	-11.728
▁viable	-11.728
▁robbing	-11.728
▁warrenn	-11.728
ndy	-11.728
oever	-11.728
▁drip	-11.7281
▁approaches	-11.7281
▁tightass	-11.7281
▁negotiation	-11.7281
▁bakery	-11.7281
▁kessi	-11.7281
▁stem	-11.7281
▁dix	-11.7282
▁betrayal	-11.7282
▁georgian	-11.7282
▁brig	-11.7282
▁shuttle	-11.7282
▁dumbass	-11.7282
compensat	-11.7282
▁reduce	-11.7282
▁lecture	-11.7282
moto	-11.7282
rrifying	-11.7283
▁concerto	-11.7283
▁cult	-11.7283
▁vice	-11.7283
▁truthfully	-11.7283
▁wither	-11.7283
▁reai	-11.7283
▁wizard	-11.7283
▁lightning	-11.7284
▁weakness	-11.7284
▁shortage	-11.7284
▁regretful	-11.7284
▁studies	-11.7284
▁mason	-11.7284
▁selfie	-11.7285
▁newborn	-11.7285
▁grandson	-11.7285
▁resurrected	-11.7285
▁sustained	-11.7285
▁bpd	-11.7285
▁achieved	-11.7285
▁spain	-11.7285
▁bj	-11.7285
▁skies	-11.7285
▁modest	-11.7286
▁disser	-11.7286
▁debo	-11.7286
▁brightest	-11.7286
▁dwell	-11.7287
page	-11.7287
▁stance	-11.7287
▁earl	-11.7287
▁marie	-11.7288
▁bib	-11.7288
▁assassination	-11.7289
▁harassing	-11.7289
▁cuc	-11.7289
▁disappointing	-11.7289
▁fuzz	-11.729
▁presentation	-11.729
▁candi	-11.729
▁brighton	-11.7291
▁sanderson	-11.7291
zealo	-11.7291
▁booth	-11.7291
▁concluded	-11.7292
▁wig	-11.7292
▁smartass	-11.7292
▁vanity	-11.7292
▁poked	-11.7292
▁foo	-11.7292
huh	-11.7293
▁rlng	-11.7293
▁ballet	-11.7294
▁interruption	-11.7294
▁alist	-11.7294
▁dinnertime	-11.7295
▁hijacked	-11.7295
▁overheated	-11.7295
▁succeeded	-11.7295
▁peers	-11.7296
▁whacked	-11.7296
▁sline	-11.7296
▁digest	-11.7296
▁taser	-11.7297
▁nickel	-11.7297
▁difficulties	-11.7298
▁declared	-11.7298
▁faa	-11.7298
▁rice	-11.7299
▁deadbeat	-11.7299
▁petal	-11.7299
▁cove	-11.73
▁diesel	-11.73
▁hideous	-11.73
▁sugarman	-11.73
▁bona	-11.73
▁clearance	-11.7301
▁lenny	-11.7301
berry	-11.7301
▁pitcher	-11.7302
▁eta	-11.7302
▁firefighter	-11.7302
▁gladiators	-11.7302
▁vegetables	-11.7302
▁swelling	-11.7302
▁compelling	-11.7302
▁stalking	-11.7302
▁rocket	-11.7303
▁partial	-11.7303
▁thumping	-11.7303
▁sighing	-11.7303
▁tray	-11.7304
▁protective	-11.7304
▁silverman	-11.7304
▁anda	-11.7305
ebb	-11.7305
▁panicked	-11.7305
▁speeches	-11.7305
▁condemned	-11.7306
▁slammed	-11.7306
▁chie	-11.7306
▁schoolboy	-11.7307
▁tracy	-11.7308
▁pecker	-11.7308
▁hostilit	-11.7308
▁legit	-11.7308
▁bates	-11.7308
▁wealthy	-11.7309
▁reanimat	-11.7309
▁bip	-11.731
▁shaken	-11.731
▁bedtime	-11.731
▁examiner	-11.731
▁ruthless	-11.7311
▁humanity	-11.7311
▁effectively	-11.7312
▁boop	-11.7314
▁fulltime	-11.7314
▁chopper	-11.7315
ural	-11.7315
▁pam	-11.7316
▁lumbering	-11.7316
▁bio	-11.7317
▁turd	-11.7317
▁encouraged	-11.7317
▁tenth	-11.7318
▁rad	-11.7319
▁zu	-11.7319
▁deana	-11.7319
ffy	-11.7321
▁collapsed	-11.7324
▁shaved	-11.7324
▁barf	-11.7325
▁lame	-11.7326
▁artie	-11.7327
▁thicken	-11.7327
▁pisses	-11.7328
▁violently	-11.7328
▁aye	-11.7329
▁belles	-11.7329
▁kia	-11.733
▁investigated	-11.733
▁hick	-11.7331
▁terr	-11.7334
▁truthful	-11.7335
▁backyard	-11.7338
▁coaches	-11.734
▁poly	-11.7341
▁vic	-11.7341
▁smarten	-11.7342
▁adjusting	-11.7342
ntana	-11.7343
handed	-11.7343
▁cord	-11.7343
▁bodi	-11.7346
▁beaches	-11.7346
▁slamm	-11.7348
▁stamped	-11.7352
▁dang	-11.7352
▁corps	-11.7353
▁illustrate	-11.7353
▁identi	-11.7353
▁hah	-11.7354
▁ridin	-11.7354
▁gobble	-11.7355
▁booster	-11.7356
▁discovery	-11.7357
omi	-11.7359
▁loc	-11.7359
▁mistaken	-11.7359
▁sung	-11.736
▁kilos	-11.736
▁coworkers	-11.736
▁merchants	-11.736
▁sprinkles	-11.736
▁jingles	-11.736
▁heathens	-11.736
▁ducts	-11.7361
▁statistical	-11.7361
▁investors	-11.7361
▁marin	-11.7361
▁cabo	-11.7362
▁offenders	-11.7363
▁struggled	-11.7363
▁oliver	-11.7368
cked	-11.7368
▁childless	-11.737
▁snor	-11.7373
fraction	-11.7374
▁irre	-11.7374
▁oppose	-11.7375
eces	-11.7377
▁sincere	-11.7378
▁originally	-11.7378
ray	-11.7382
▁breeding	-11.7383
▁sto	-11.7383
▁hel	-11.7384
▁wills	-11.7385
induced	-11.7386
▁grove	-11.7386
▁ironing	-11.7386
▁ip	-11.7387
ady	-11.7388
▁secured	-11.7389
▁cutie	-11.7389
▁weaker	-11.7389
mad	-11.7392
uer	-11.7393
itin	-11.7394
oke	-11.7394
▁quitter	-11.7398
▁glance	-11.7399
▁deucey	-11.74
▁crawled	-11.7401
▁coup	-11.7404
▁clippe	-11.7406
▁employer	-11.7407
▁kp	-11.7407
▁jumpin	-11.7408
▁skier	-11.7409
▁dialing	-11.741
izzl	-11.741
▁gained	-11.7412
▁fainted	-11.7412
▁ththat	-11.7412
▁bono	-11.7412
mita	-11.7416
▁blackouts	-11.742
▁essays	-11.742
▁explosives	-11.742
▁features	-11.742
▁jensens	-11.742
▁prostitutes	-11.742
▁flares	-11.742
▁goodlooking	-11.7425
itation	-11.7428
▁pupp	-11.7429
▁roy	-11.7431
mba	-11.7432
▁porno	-11.7433
▁missus	-11.7436
▁cocky	-11.7436
▁economics	-11.7441
▁cleaner	-11.7445
▁payback	-11.7446
▁genes	-11.7448
▁pissy	-11.7451
▁medically	-11.7454
▁defended	-11.7455
▁kan	-11.7458
▁transporter	-11.7459
▁magda	-11.746
▁costa	-11.7463
▁informing	-11.7464
upin	-11.7466
▁gh	-11.7467
▁sav	-11.7468
▁documented	-11.7469
▁sauc	-11.7472
▁gavel	-11.7475
▁sno	-11.7475
▁od	-11.7478
ogram	-11.7478
▁companions	-11.748
▁yanks	-11.748
▁bachelors	-11.748
▁biscuits	-11.748
▁cheques	-11.748
▁gallons	-11.7481
▁ranger	-11.7484
▁panick	-11.7486
▁publicly	-11.7486
▁reg	-11.7489
▁hackers	-11.749
▁sinking	-11.7494
laria	-11.7495
▁bare	-11.7512
▁banged	-11.7514
▁ifwe	-11.7515
▁cli	-11.7519
▁covert	-11.7521
▁trashed	-11.753
▁posted	-11.7531
▁sweating	-11.7533
▁lacke	-11.7535
▁revo	-11.7537
▁kidneys	-11.7541
▁villains	-11.7542
▁fags	-11.7542
▁shortly	-11.7546
▁suing	-11.7547
▁slower	-11.7548
▁servers	-11.7549
▁tranquili	-11.7559
▁smashing	-11.756
▁hangin	-11.7563
ringe	-11.7569
▁fred	-11.757
▁cleaners	-11.7573
▁quicker	-11.7574
▁mint	-11.7575
▁fris	-11.7577
▁crumbl	-11.7577
▁kneel	-11.7591
▁ber	-11.7592
▁wade	-11.7594
▁lifted	-11.7597
▁exceptional	-11.7598
▁breakin	-11.7601
▁headlines	-11.7602
▁casinos	-11.7603
▁temperatures	-11.7603
▁cope	-11.7611
mmy	-11.7612
▁careless	-11.7614
▁pla	-11.7616
▁lug	-11.7638
▁rods	-11.7641
▁chap	-11.7642
▁lat	-11.7644
▁fightin	-11.7647
▁tick	-11.7656
▁dunes	-11.7665
▁napkins	-11.7665
▁sausages	-11.7665
▁burr	-11.7675
▁lifting	-11.7686
▁mags	-11.7689
▁scrapes	-11.7704
ppy	-11.7707
▁ty	-11.7709
asey	-11.7712
▁fudd	-11.7719
▁fiveo	-11.7721
▁admin	-11.7726
▁marbles	-11.7727
▁retreats	-11.7727
▁medals	-11.7728
▁appreciated	-11.773
▁enthusiastic	-11.7742
▁occasions	-11.7745
▁upsta	-11.7745
▁fasten	-11.7745
▁traces	-11.7748
▁risked	-11.775
▁magn	-11.7752
▁foreclos	-11.7757
▁readers	-11.7759
▁awaits	-11.779
▁affairs	-11.779
▁ankles	-11.779
▁cy	-11.7791
vas	-11.7791
▁arresting	-11.7794
▁gaz	-11.7795
ony	-11.7798
▁despise	-11.7801
▁relate	-11.7812
bro	-11.7817
▁stillman	-11.7829
▁boner	-11.7839
▁crowded	-11.7839
▁associates	-11.7853
▁generations	-11.7853
▁laps	-11.7857
▁hardin	-11.7858
▁spie	-11.7863
heim	-11.7909
▁hy	-11.7913
▁individuals	-11.7917
▁thomsons	-11.7917
▁ministers	-11.7917
oop	-11.7924
mis	-11.7945
▁marker	-11.7952
▁cro	-11.796
▁increases	-11.7981
▁prosecutors	-11.7981
▁boxer	-11.7986
▁chopp	-11.7988
▁freely	-11.7988
▁fees	-11.7989
iterate	-11.7994
▁ban	-11.7995
sap	-11.7996
▁ple	-11.7998
luxe	-11.8011
▁admir	-11.8037
ppe	-11.8061
▁fighters	-11.8063
fat	-11.8096
▁cancell	-11.8102
col	-11.8109
▁confi	-11.8122
annoy	-11.8126
▁trainer	-11.8132
▁trou	-11.8136
hill	-11.8139
▁dealin	-11.8147
▁nic	-11.8163
fin	-11.8184
▁ththe	-11.8203
izz	-11.8206
▁riot	-11.8232
wage	-11.8238
icat	-11.8255
quid	-11.8255
▁signor	-11.826
▁jon	-11.8267
propria	-11.8302
bet	-11.8314
lawful	-11.8338
reach	-11.8343
nta	-11.8353
▁plas	-11.8359
▁eliminat	-11.8371
▁fled	-11.8381
▁happie	-11.8384
▁crypt	-11.8403
omin	-11.8409
▁humil	-11.8422
▁allergi	-11.8425
▁mic	-11.8465
maker	-11.8483
▁ze	-11.8502
▁gene	-11.8511
aked	-11.8523
eau	-11.8551
▁punche	-11.8565
productive	-11.8569
▁generat	-11.8572
lez	-11.8624
ji	-11.8678
▁mia	-11.8681
phill	-11.8682
▁gigo	-11.871
mont	-11.8717
chor	-11.8724
pur	-11.8738
▁gash	-11.8744
llo	-11.8758
▁wren	-11.8763
month	-11.8773
lag	-11.8775
▁grin	-11.8791
▁distribute	-11.8817
▁swat	-11.883
▁beet	-11.8853
▁af	-11.886
▁vir	-11.8887
▁anticipat	-11.8901
verge	-11.8909
▁ava	-11.8919
zin	-11.8925
▁uncontroll	-11.8932
▁dictate	-11.897
nel	-11.8985
asco	-11.8998
eased	-11.8999
▁banker	-11.9001
▁updat	-11.9002
orro	-11.9017
▁bla	-11.9024
▁hum	-11.9028
▁economic	-11.9043
bul	-11.9051
▁reassure	-11.9098
tub	-11.9122
aug	-11.9124
ost	-11.9169
bach	-11.917
boo	-11.9193
▁happ	-11.9206
▁fal	-11.9208
▁eliminate	-11.9246
hub	-11.9267
ret	-11.9285
resistant	-11.9287
▁rev	-11.9287
▁ration	-11.93
active	-11.9302
▁electro	-11.9334
▁wwe	-11.9334
lde	-11.9355
▁wor	-11.9357
met	-11.9401
▁gravel	-11.9436
▁tortur	-11.9488
▁jen	-11.9505
▁itch	-11.9531
they	-11.9559
▁stru	-11.9573
▁raisin	-11.9584
rah	-11.9594
▁slav	-11.9607
cking	-11.9628
▁swi	-11.9685
anza	-11.971
writing	-11.9784
cola	-11.9844
yne	-11.9864
action	-11.9889
hm	-11.9904
▁marche	-11.9922
agan	-11.9957
tock	-11.9962
▁wip	-11.9962
repe	-11.9963
▁stra	-11.9988
bin	-12.0002
uddy	-12.0005
ception	-12.0016
issy	-12.004
▁dur	-12.0047
▁hydro	-12.0059
trained	-12.0061
ility	-12.0069
orse	-12.0077
code	-12.0079
formed	-12.0119
trol	-12.0177
▁indi	-12.0183
erich	-12.0207
▁mur	-12.0212
▁ref	-12.0244
oucher	-12.0248
▁dez	-12.0252
bility	-12.0262
▁idol	-12.0267
ddle	-12.0278
uke	-12.0298
▁temp	-12.0301
onia	-12.0311
▁disclos	-12.0314
▁independen	-12.0331
▁hitch	-12.0334
dale	-12.0336
▁rece	-12.0343
iel	-12.0343
▁sigh	-12.0345
▁transmit	-12.0345
▁wail	-12.0363
▁whimper	-12.0377
ologist	-12.0382
ngle	-12.0384
conditioning	-12.0385
▁reassur	-12.0386
that	-12.0392
▁roar	-12.0394
▁explosive	-12.0396
▁prostitute	-12.0396
▁essay	-12.0396
▁jensen	-12.0396
▁ev	-12.0396
▁emotion	-12.0396
▁feature	-12.0397
▁balloon	-12.0401
why	-12.0403
▁flare	-12.0405
▁hostage	-12.0405
▁decade	-12.0408
▁puzzle	-12.0408
▁relation	-12.041
▁circumstance	-12.0414
▁slot	-12.0421
▁slain	-12.0423
▁inmate	-12.0423
▁brake	-12.0424
▁texa	-12.0426
elley	-12.0441
▁devas	-12.0448
etti	-12.045
▁rib	-12.0452
ager	-12.0454
▁hors	-12.0457
▁thro	-12.0457
▁particip	-12.0468
mine	-12.0469
arious	-12.047
▁blackout	-12.0475
▁statistic	-12.0476
▁hog	-12.048
▁mont	-12.0486
▁illustr	-12.0487
▁gag	-12.0492
▁tum	-12.0492
▁bounc	-12.0497
eating	-12.0502
powered	-12.0502
▁clip	-12.0503
▁vol	-12.0504
▁sof	-12.0512
▁solv	-12.0525
eenie	-12.0531
▁tomb	-12.0532
▁patron	-12.0535
▁threaten	-12.0543
▁separat	-12.0544
changed	-12.0547
▁coordinat	-12.0548
▁atta	-12.0551
▁shuffl	-12.0553
▁purchas	-12.0554
▁appreciat	-12.0556
▁thump	-12.0556
▁firefight	-12.0556
▁stalk	-12.0556
▁compell	-12.0557
▁acknowledg	-12.0558
▁coin	-12.0558
▁drumm	-12.0558
▁griev	-12.0558
ogical	-12.0561
▁hyster	-12.0562
▁motherfuck	-12.0563
▁attract	-12.0563
▁reject	-12.0564
▁succeed	-12.0566
▁wrestle	-12.0566
▁overheat	-12.0566
▁swell	-12.0566
▁establish	-12.0567
▁suspend	-12.0568
▁invert	-12.0568
▁figur	-12.0568
▁adopt	-12.0568
▁whack	-12.0569
walk	-12.0569
mic	-12.0574
▁pup	-12.0576
arza	-12.0578
▁achieve	-12.0578
piece	-12.0579
▁premi	-12.0579
▁identifie	-12.0581
heart	-12.0581
weight	-12.0582
fare	-12.0582
identified	-12.0583
text	-12.0583
sync	-12.0583
▁complicate	-12.0583
front	-12.0583
draft	-12.0583
rescue	-12.0583
bug	-12.0583
operative	-12.0584
spoken	-12.0584
shield	-12.0584
seven	-12.0584
therapy	-12.0584
train	-12.0584
screw	-12.0584
common	-12.0584
responsible	-12.0584
prepared	-12.0584
client	-12.0584
practice	-12.0584
child	-12.0584
trial	-12.0584
building	-12.0584
poke	-12.0584
paint	-12.0584
whoa	-12.0584
course	-12.0584
security	-12.0584
important	-12.0584
fruit	-12.0584
blood	-12.0584
first	-12.0584
▁concentr	-12.0584
break	-12.0584
kansas	-12.0584
seek	-12.0584
crazy	-12.0584
shoot	-12.0584
wives	-12.0585
▁beck	-12.0585
market	-12.0585
share	-12.0585
▁jerem	-12.0585
count	-12.0585
soft	-12.0585
bread	-12.0585
▁magnificent	-12.0586
launch	-12.0586
parents	-12.0586
▁jaffe	-12.0586
feed	-12.0586
value	-12.0587
level	-12.0587
▁responsibilit	-12.0587
bike	-12.0587
▁vampir	-12.0588
wrote	-12.0589
horse	-12.0589
tank	-12.059
johner	-12.0591
root	-12.0591
▁bladd	-12.0591
drive	-12.0591
throw	-12.0592
▁sparkle	-12.0592
▁scatt	-12.0592
▁energ	-12.0593
▁continent	-12.0593
▁convent	-12.0594
▁fond	-12.0595
ifies	-12.0595
▁tyran	-12.0595
emin	-12.0595
▁flick	-12.0596
▁populat	-12.0596
▁sacrament	-12.0596
▁austria	-12.0596
▁brenda	-12.0596
▁columb	-12.0597
scope	-12.0597
▁surge	-12.0597
▁settin	-12.0597
fell	-12.0597
▁givin	-12.0598
▁chron	-12.0599
▁abdom	-12.0599
▁contaminat	-12.0599
▁investigati	-12.0599
▁gersh	-12.0599
plications	-12.0599
▁kiddin	-12.06
elching	-12.06
bath	-12.06
▁simul	-12.0601
▁amaze	-12.0601
sequence	-12.0601
zac	-12.0601
▁posse	-12.0601
▁specia	-12.0602
boom	-12.0602
▁leaf	-12.0602
▁suffo	-12.0602
▁chrom	-12.0602
▁arsch	-12.0602
▁infra	-12.0602
ptured	-12.0602
▁tarra	-12.0602
bell	-12.0602
▁hobby	-12.0602
▁innovati	-12.0602
▁npdvi	-12.0602
avor	-12.0602
constitut	-12.0602
discriminate	-12.0602
emorrhoid	-12.0602
fertile	-12.0602
norfolk	-12.0602
ogenic	-12.0602
percussion	-12.0602
▁abducted	-12.0602
▁abilities	-12.0602
▁absolve	-12.0602
▁adrenaline	-12.0602
▁aesthetic	-12.0602
▁aggression	-12.0602
▁albino	-12.0602
▁alfred	-12.0602
▁alkuwaiti	-12.0602
▁alternate	-12.0602
▁amnesty	-12.0602
▁anaconda	-12.0602
▁analogy	-12.0602
▁analyze	-12.0602
▁ancient	-12.0602
▁announcing	-12.0602
▁antenna	-12.0602
▁apologise	-12.0602
▁aquarium	-12.0602
▁aqueduct	-12.0602
▁archibald	-12.0602
▁asphyxiate	-12.0602
▁aspire	-12.0602
▁asprey	-12.0602
▁athletic	-12.0602
▁attribute	-12.0602
▁autopilot	-12.0602
▁aviator	-12.0602
▁aztecs	-12.0602
▁backstabbin	-12.0602
▁bactria	-12.0602
▁beautifui	-12.0602
▁bellhop	-12.0602
▁blackandwhite	-12.0602
▁blatant	-12.0602
▁blisters	-12.0602
▁bloated	-12.0602
▁blossom	-12.0602
▁blubber	-12.0602
▁bonjour	-12.0602
▁botched	-12.0602
▁brikowski	-12.0602
▁brochure	-12.0602
▁buddhist	-12.0602
▁bulganin	-12.0602
▁buonasera	-12.0602
▁burglar	-12.0602
▁butterflies	-12.0602
▁caddy	-12.0602
▁cadillac	-12.0602
▁calculator	-12.0602
▁camouflage	-12.0602
▁canaan	-12.0602
▁carmichael	-12.0602
▁casket	-12.0602
▁cavity	-12.0602
▁cerebral	-12.0602
▁cetera	-12.0602
▁chalfont	-12.0602
▁cholera	-12.0602
▁chuggins	-12.0602
▁cinnamon	-12.0602
▁circum	-12.0602
▁cleveland	-12.0602
▁commodit	-12.0602
▁communication	-12.0602
▁component	-12.0602
▁composite	-12.0602
▁comprehend	-12.0602
▁concrete	-12.0602
▁condolence	-12.0602
▁consecutive	-12.0602
▁contempt	-12.0602
▁contusion	-12.0602
▁convenient	-12.0602
▁cosmetic	-12.0602
▁crawford	-12.0602
▁crocodile	-12.0602
▁crozier	-12.0602
▁crumple	-12.0602
▁cuckoo	-12.0602
▁cuisine	-12.0602
▁curtie	-12.0602
▁database	-12.0602
▁dawson	-12.0602
▁debby	-12.0602
▁decisive	-12.0602
▁delinquent	-12.0602
▁democracy	-12.0602
▁demurrers	-12.0602
▁derecha	-12.0602
▁derelict	-12.0602
▁destitute	-12.0602
▁detlev	-12.0602
▁diabolical	-12.0602
▁dictionary	-12.0602
▁disbarred	-12.0602
▁disbursement	-12.0602
▁discomfort	-12.0602
▁disconcerting	-12.0602
▁discreet	-12.0602
▁disinfect	-12.0602
▁divorcing	-12.0602
▁duplicate	-12.0602
▁economy	-12.0602
▁elaziz	-12.0602
▁eloquent	-12.0602
▁encrypt	-12.0602
▁epiphany	-12.0602
▁equit	-12.0602
▁escalate	-12.0602
▁eugene	-12.0602
▁exboyfriend	-12.0602
▁excitement	-12.0602
▁exemplar	-12.0602
▁expansion	-12.0602
▁exploring	-12.0602
▁exquisite	-12.0602
▁eyebrows	-12.0602
▁fantastisch	-12.0602
▁faulkner	-12.0602
▁felipe	-12.0602
▁filter	-12.0602
▁fitzgerald	-12.0602
▁flaccid	-12.0602
▁flaherty	-12.0602
▁forgave	-12.0602
▁foxtrot	-12.0602
▁fragile	-12.0602
▁frequency	-12.0602
▁futuristic	-12.0602
▁gabriel	-12.0602
▁garnish	-12.0602
▁gatito	-12.0602
▁gaulle	-12.0602
▁gediman	-12.0602
▁glamorous	-12.0602
▁glenco	-12.0602
▁glynnis	-12.0602
▁grasshopper	-12.0602
▁greeting	-12.0602
▁gremlins	-12.0602
▁griffith	-12.0602
▁grumbling	-12.0602
▁halfnaked	-12.0602
▁halibut	-12.0602
▁hector	-12.0602
▁hippies	-12.0602
▁holster	-12.0602
▁horizon	-12.0602
▁horoscope	-12.0602
▁horrid	-12.0602
▁houston	-12.0602
▁hydraulic	-12.0602
▁hypothetically	-12.0602
▁ignoring	-12.0602
▁imaginary	-12.0602
▁imagining	-12.0602
▁imbecile	-12.0602
▁impolite	-12.0602
▁imprisoned	-12.0602
▁increasing	-12.0602
▁incriminating	-12.0602
▁indonesia	-12.0602
▁inherent	-12.0602
▁insecur	-12.0602
▁inshallah	-12.0602
▁intervention	-12.0602
▁jakarta	-12.0602
▁katherine	-12.0602
▁kohl	-12.0602
▁koppes	-12.0602
▁landlady	-12.0602
▁landlord	-12.0602
▁leash	-12.0602
▁ligament	-12.0602
▁lipschitz	-12.0602
▁lisianthu	-12.0602
▁literary	-12.0602
▁lithuanian	-12.0602
▁lozano	-12.0602
▁lsaiah	-12.0602
▁lynch	-12.0602
▁malfunction	-12.0602
▁mammoth	-12.0602
▁mandatory	-12.0602
▁marshmallow	-12.0602
▁marvellous	-12.0602
▁masturbate	-12.0602
▁mcknight	-12.0602
▁melendez	-12.0602
▁membrane	-12.0602
▁mercury	-12.0602
▁midwest	-12.0602
▁midwicket	-12.0602
▁miguel	-12.0602
▁minnesota	-12.0602
▁mistreat	-12.0602
▁molestation	-12.0602
▁morrill	-12.0602
▁mulligan	-12.0602
▁municipal	-12.0602
▁mysteries	-12.0602
▁necessity	-12.0602
▁neighs	-12.0602
▁nightclub	-12.0602
▁nipple	-12.0602
▁nonverbal	-12.0602
▁notepad	-12.0602
▁notorious	-12.0602
▁nurture	-12.0602
▁obstruct	-12.0602
▁occupant	-12.0602
▁occupation	-12.0602
▁oggi	-12.0602
▁okinawa	-12.0602
▁omelet	-12.0602
▁optical	-12.0602
▁orleans	-12.0602
▁ounce	-12.0602
▁outnumbered	-12.0602
▁outrageous	-12.0602
▁overcharged	-12.0602
▁overdressed	-12.0602
▁padilla	-12.0602
▁pagniacci	-12.0602
▁pamphlet	-12.0602
▁parody	-12.0602
▁pasadena	-12.0602
▁pascoe	-12.0602
▁peacocks	-12.0602
▁pediatrician	-12.0602
▁perceive	-12.0602
▁perdiccas	-12.0602
▁perfume	-12.0602
▁pharaoh	-12.0602
▁philadelphia	-12.0602
▁physician	-12.0602
▁plume	-12.0602
▁politovsky	-12.0602
▁poncho	-12.0602
▁preflop	-12.0602
▁premeditated	-12.0602
▁presidium	-12.0602
▁prototype	-12.0602
▁psyche	-12.0602
▁qualifications	-12.0602
▁qualify	-12.0602
▁quatre	-12.0602
▁rahim	-12.0602
▁raspberry	-12.0602
▁rearrange	-12.0602
▁rearview	-12.0602
▁recognise	-12.0602
▁redemption	-12.0602
▁rematch	-12.0602
▁reschedule	-12.0602
▁resilient	-12.0602
▁resuppl	-12.0602
▁resuscitat	-12.0602
▁retrieve	-12.0602
▁rewrite	-12.0602
▁rhyme	-12.0602
▁roxanne	-12.0602
▁salud	-12.0602
▁sanctuary	-12.0602
▁sawzall	-12.0602
▁saxophone	-12.0602
▁scourge	-12.0602
▁scramble	-12.0602
▁sedative	-12.0602
▁selection	-12.0602
▁selfrighteous	-12.0602
▁sensitivity	-12.0602
▁serpent	-12.0602
▁seymour	-12.0602
▁shelby	-12.0602
▁shimotomo	-12.0602
▁shrimp	-12.0602
▁shriveled	-12.0602
▁sketchy	-12.0602
▁skymall	-12.0602
▁smuggler	-12.0602
▁snooze	-12.0602
▁snuffles	-12.0602
▁solano	-12.0602
▁sorrow	-12.0602
▁spectacular	-12.0602
▁spectrum	-12.0602
▁spencer	-12.0602
▁spreadsheet	-12.0602
▁squaw	-12.0602
▁sslimonov	-12.0602
▁stadium	-12.0602
▁stalingrad	-12.0602
▁stewart	-12.0602
▁streak	-12.0602
▁stylish	-12.0602
▁stylus	-12.0602
▁sunburn	-12.0602
▁supernatura	-12.0602
▁surgical	-12.0602
▁surpass	-12.0602
▁sweeney	-12.0602
▁swollen	-12.0602
▁syracuse	-12.0602
▁tabloids	-12.0602
▁technician	-12.0602
▁telepathic	-12.0602
▁tennyson	-12.0602
▁terminate	-12.0602
▁thread	-12.0602
▁throttle	-12.0602
▁toulette	-12.0602
▁transparent	-12.0602
▁treasure	-12.0602
▁treble	-12.0602
▁trombone	-12.0602
▁trumpet	-12.0602
▁tulips	-12.0602
▁twitter	-12.0602
▁typical	-12.0602
▁unacceptable	-12.0602
▁unexcused	-12.0602
▁untouchable	-12.0602
▁untraceable	-12.0602
▁urdu	-12.0602
▁uruguay	-12.0602
▁utensil	-12.0602
▁vatican	-12.0602
▁vaughan	-12.0602
▁vegetarian	-12.0602
▁velocity	-12.0602
▁vicenza	-12.0602
▁vivid	-12.0602
▁voluntarily	-12.0602
▁westlake	-12.0602
▁wichita	-12.0602
▁wisconsin	-12.0602
▁wrinkled	-12.0602
▁wunderbar	-12.0602
▁xavier	-12.0602
▁yogurt	-12.0602
▁zhenya	-12.0602
▁zombie	-12.0602
▁zovek	-12.0602
▁zykov	-12.0602
funct	-12.0602
precedent	-12.0602
▁atheist	-12.0602
▁ballistic	-12.0602
▁broccoli	-12.0602
▁censor	-12.0602
▁cultivat	-12.0602
▁deputi	-12.0602
▁destabiliz	-12.0602
▁ecuador	-12.0602
▁houten	-12.0602
▁lubricat	-12.0602
▁metaphor	-12.0602
▁navigat	-12.0602
▁nutrition	-12.0602
▁overflow	-12.0602
▁provoke	-12.0602
▁relieve	-12.0602
▁saturn	-12.0602
▁sundress	-12.0602
▁trickortreat	-12.0602
▁uterus	-12.0602
▁achangin	-12.0602
▁australia	-12.0602
▁baggage	-12.0602
▁bagoas	-12.0602
▁burnaley	-12.0602
▁carriage	-12.0602
▁catheter	-12.0602
▁cockpit	-12.0602
▁cuida	-12.0602
▁curve	-12.0602
▁ebay	-12.0602
▁erotic	-12.0602
▁indifferent	-12.0602
▁infinitely	-12.0602
▁ipod	-12.0602
▁jorge	-12.0602
▁juicy	-12.0602
▁lavay	-12.0602
▁misdemeanors	-12.0602
▁monterey	-12.0602
▁nelson	-12.0602
▁nonetheless	-12.0602
▁pilates	-12.0602
▁salma	-12.0602
▁slush	-12.0602
▁solemn	-12.0602
▁spoor	-12.0602
▁staple	-12.0602
▁stench	-12.0602
▁strode	-12.0602
▁stuart	-12.0602
▁summon	-12.0602
▁swedish	-12.0602
▁tamales	-12.0602
▁valeron	-12.0602
▁website	-12.0602
▁wharf	-12.0602
▁yyyou	-12.0602
▁alibi	-12.0602
▁alumin	-12.0602
▁bronx	-12.0602
▁canyon	-12.0602
▁essence	-12.0602
▁fatima	-12.0602
▁generic	-12.0602
▁heartbreaking	-12.0602
▁kahn	-12.0602
▁malala	-12.0602
▁misspell	-12.0602
▁moguls	-12.0602
▁mvp	-12.0602
▁ninth	-12.0602
▁ouch	-12.0602
▁stardom	-12.0602
▁stuttering	-12.0602
▁thoracentesis	-12.0602
▁vermin	-12.0602
shelves	-12.0602
▁arena	-12.0602
▁aspects	-12.0602
▁cristo	-12.0602
▁diaper	-12.0602
▁fetus	-12.0602
▁halfbreed	-12.0602
▁ibm	-12.0602
▁kittens	-12.0602
▁margin	-12.0602
▁quench	-12.0602
▁resources	-12.0602
▁ringtone	-12.0602
▁subversi	-12.0602
▁thighs	-12.0602
▁thirtie	-12.0602
▁amendment	-12.0602
▁barnicke	-12.0602
▁bathe	-12.0602
▁brew	-12.0602
▁dinosaur	-12.0602
▁inbred	-12.0602
▁lamar	-12.0602
▁stranded	-12.0602
▁strawberries	-12.0602
▁cramp	-12.0602
▁heartache	-12.0602
▁heterosexual	-12.0602
▁jukebox	-12.0602
▁retrospect	-12.0602
▁shades	-12.0602
▁ukrain	-12.0602
ophobi	-12.0602
▁charlene	-12.0602
▁chiming	-12.0602
▁flaming	-12.0602
▁judi	-12.0602
▁linwood	-12.0602
▁ninetynine	-12.0602
▁oversight	-12.0602
▁stumble	-12.0602
▁ctc	-12.0602
▁memoirs	-12.0602
▁immense	-12.0602
▁feud	-12.0602
▁hallucinating	-12.0602
▁hindu	-12.0602
▁inhibitions	-12.0602
▁obscenit	-12.0602
▁belarus	-12.0602
▁callahan	-12.0602
▁sven	-12.0602
▁install	-12.0602
▁neuro	-12.0602
validate	-12.0602
▁adapt	-12.0602
▁blackberrys	-12.0602
▁chamomile	-12.0602
▁hamster	-12.0602
▁intrigue	-12.0602
imony	-12.0602
▁optimistic	-12.0602
▁dusk	-12.0602
▁lightheaded	-12.0602
calyp	-12.0602
▁djong	-12.0602
▁finnelli	-12.0602
▁moderate	-12.0602
▁negligence	-12.0602
▁granada	-12.0602
▁millionaire	-12.0602
▁infinit	-12.0602
▁mammals	-12.0602
▁requirements	-12.0602
▁downhill	-12.0602
▁firearms	-12.0602
▁gender	-12.0602
▁keen	-12.0602
▁thesis	-12.0602
▁avns	-12.0602
▁cabbie	-12.0602
▁intestine	-12.0602
▁suprem	-12.0602
▁thrust	-12.0602
▁crotch	-12.0602
siberia	-12.0602
▁ugli	-12.0602
▁hemorrhage	-12.0603
▁hornets	-12.0603
▁incorrect	-12.0603
▁neuf	-12.0603
▁electrocut	-12.0603
▁nanny	-12.0603
▁headphones	-12.0603
▁laminate	-12.0603
▁uncover	-12.0603
▁arraignment	-12.0603
▁demonstrators	-12.0603
▁identities	-12.0603
▁intercourse	-12.0603
▁housing	-12.0603
▁lakis	-12.0603
▁butbut	-12.0603
▁quorate	-12.0603
▁sequel	-12.0603
▁bugger	-12.0603
▁lottery	-12.0603
▁overruled	-12.0603
▁wilk	-12.0603
▁communities	-12.0603
▁notify	-12.0603
▁inflat	-12.0603
▁swept	-12.0603
rithm	-12.0603
▁sculpture	-12.0603
▁inconvenience	-12.0603
▁cheesy	-12.0603
▁libya	-12.0603
▁ails	-12.0603
▁baroness	-12.0603
▁isolate	-12.0603
▁outwith	-12.0603
▁neyer	-12.0603
▁definition	-12.0603
▁intubat	-12.0603
▁nobility	-12.0603
terres	-12.0603
▁casualties	-12.0603
▁injury	-12.0603
▁turtle	-12.0603
▁aisle	-12.0603
▁duties	-12.0603
▁forthcoming	-12.0603
▁alphabet	-12.0603
▁spray	-12.0603
▁swapped	-12.0603
▁velv	-12.0603
▁whoohoohoo	-12.0603
▁tyler	-12.0603
nourish	-12.0603
▁trench	-12.0603
▁triangle	-12.0603
nomination	-12.0603
▁venue	-12.0603
▁constipation	-12.0603
▁evaluation	-12.0603
▁implie	-12.0603
▁regroup	-12.0603
▁satisfaction	-12.0603
▁lemonade	-12.0603
▁rival	-12.0603
▁excop	-12.0603
▁pinkberry	-12.0603
▁taunt	-12.0603
▁grievance	-12.0603
leep	-12.0603
▁payoffs	-12.0603
▁deprivation	-12.0603
▁purified	-12.0603
▁harassment	-12.0603
▁lovebirds	-12.0603
ulein	-12.0603
▁bonnie	-12.0603
▁pillow	-12.0603
▁timetable	-12.0603
▁depravity	-12.0603
▁hyah	-12.0603
▁bootlegging	-12.0603
▁diamondback	-12.0603
maid	-12.0603
▁bulletproof	-12.0603
▁improvise	-12.0603
▁probation	-12.0603
▁tweet	-12.0603
▁slapped	-12.0603
▁enslave	-12.0603
▁guidons	-12.0603
▁chore	-12.0603
▁donny	-12.0603
▁pedal	-12.0603
▁twentyseven	-12.0603
▁davis	-12.0603
▁esther	-12.0603
▁opium	-12.0603
▁leonard	-12.0603
▁stubs	-12.0603
shop	-12.0604
▁rafkin	-12.0604
▁rampage	-12.0604
▁twig	-12.0604
▁nigerian	-12.0604
▁malware	-12.0604
▁shady	-12.0604
▁ploy	-12.0604
▁bluesmobile	-12.0604
▁amazement	-12.0604
▁hitchhiker	-12.0604
▁modu	-12.0604
morph	-12.0604
▁allegro	-12.0604
▁interior	-12.0604
▁urine	-12.0604
cussing	-12.0604
▁degenerate	-12.0604
▁oslo	-12.0604
▁supermarket	-12.0604
mones	-12.0604
▁vague	-12.0604
▁choir	-12.0604
▁ecsta	-12.0604
▁knickers	-12.0604
lead	-12.0604
▁deranged	-12.0604
▁mummies	-12.0604
dolph	-12.0604
▁straw	-12.0604
▁hermo	-12.0604
▁boise	-12.0604
▁lisp	-12.0604
▁chronic	-12.0604
▁participant	-12.0604
▁pansy	-12.0604
webs	-12.0604
▁integration	-12.0604
lres	-12.0604
▁acceleration	-12.0604
▁pistol	-12.0604
▁mandel	-12.0604
fellatio	-12.0604
▁boast	-12.0604
▁heckling	-12.0604
▁ladder	-12.0604
▁sperm	-12.0604
iscate	-12.0604
▁farther	-12.0604
▁narrative	-12.0604
▁reduction	-12.0604
▁waylander	-12.0604
▁carved	-12.0605
▁bilb	-12.0605
▁dyke	-12.0605
▁fittest	-12.0605
▁mik	-12.0605
▁shshe	-12.0605
▁vandali	-12.0605
▁chatted	-12.0605
▁dramatically	-12.0605
▁chemo	-12.0605
▁cuddle	-12.0605
▁inevitable	-12.0605
▁boredom	-12.0605
▁arrogance	-12.0605
▁flier	-12.0605
▁yuck	-12.0605
▁whatcha	-12.0605
▁cummin	-12.0605
mmmmm	-12.0605
▁dagger	-12.0605
▁automatically	-12.0605
▁psychiatri	-12.0605
▁enlist	-12.0605
▁fowl	-12.0605
▁mariana	-12.0605
▁ripping	-12.0605
▁tillsman	-12.0605
▁granp	-12.0605
▁earthbound	-12.0605
▁sku	-12.0605
▁roost	-12.0605
▁jaded	-12.0605
▁stubb	-12.0605
▁dustin	-12.0606
▁squish	-12.0606
▁commentary	-12.0606
▁enrich	-12.0606
▁pumpkin	-12.0606
▁contamination	-12.0606
▁attraction	-12.0606
▁pinned	-12.0606
▁glitches	-12.0606
▁disneyland	-12.0606
▁foil	-12.0606
▁muti	-12.0606
▁patsy	-12.0606
▁pyro	-12.0606
▁stale	-12.0606
▁crib	-12.0606
▁vetting	-12.0606
▁tribeca	-12.0606
▁hydra	-12.0606
rawl	-12.0606
▁accomplishment	-12.0606
▁prize	-12.0606
▁tummy	-12.0606
▁affiliation	-12.0606
▁carlos	-12.0606
▁galley	-12.0606
▁mash	-12.0606
▁mcca	-12.0606
airie	-12.0606
▁quoting	-12.0606
▁testified	-12.0607
▁lsat	-12.0607
▁klaus	-12.0607
▁roach	-12.0607
▁tuna	-12.0607
▁logan	-12.0607
ogre	-12.0607
asonic	-12.0607
▁stove	-12.0607
▁improvement	-12.0607
▁leper	-12.0607
▁toot	-12.0607
▁assessed	-12.0607
▁experiencing	-12.0607
▁dimension	-12.0607
▁intuiti	-12.0607
▁orthodo	-12.0607
▁pogo	-12.0607
▁trois	-12.0607
▁notebook	-12.0607
▁contribution	-12.0607
▁reese	-12.0607
▁hashish	-12.0607
▁decapitated	-12.0608
▁remarried	-12.0608
▁sleepwalk	-12.0608
▁andro	-12.0608
angelo	-12.0608
▁pony	-12.0608
cara	-12.0608
shape	-12.0608
▁attic	-12.0608
▁hom	-12.0608
▁replay	-12.0608
▁acne	-12.0608
▁copycat	-12.0608
avior	-12.0608
▁brackett	-12.0608
▁stepdad	-12.0608
▁sacramento	-12.0608
istol	-12.0608
▁phat	-12.0608
▁venus	-12.0608
▁bummer	-12.0608
▁oui	-12.0608
▁virginia	-12.0608
▁savor	-12.0608
▁filing	-12.0609
▁semen	-12.0609
▁quart	-12.0609
▁liais	-12.0609
▁soph	-12.0609
▁mandra	-12.0609
▁sept	-12.0609
▁millius	-12.0609
▁overpa	-12.0609
▁purity	-12.0609
▁buckle	-12.0609
▁sensor	-12.0609
kill	-12.0609
▁splinter	-12.0609
▁casing	-12.0609
▁inhumane	-12.0609
▁speculate	-12.0609
▁nile	-12.0609
▁tamper	-12.0609
▁preface	-12.0609
▁unkind	-12.061
▁valve	-12.061
▁pigsty	-12.061
ncile	-12.061
▁batteries	-12.061
▁pep	-12.061
▁bonne	-12.061
▁simulation	-12.061
▁airspeed	-12.061
▁bushel	-12.061
▁anton	-12.061
▁quant	-12.061
▁hijack	-12.061
▁karl	-12.061
▁att	-12.061
▁divers	-12.061
▁postponed	-12.0611
▁darre	-12.0611
ternal	-12.0611
ctua	-12.0611
▁accuse	-12.0611
▁unanimously	-12.0611
▁continental	-12.0611
standing	-12.0612
▁zbi	-12.0612
▁portis	-12.0612
▁masha	-12.0612
▁thong	-12.0612
uvre	-12.0612
▁misha	-12.0612
▁hence	-12.0612
▁haircut	-12.0612
▁posture	-12.0612
▁massage	-12.0612
▁swap	-12.0612
▁refugees	-12.0612
▁stow	-12.0612
▁fivefive	-12.0613
▁centre	-12.0613
▁insta	-12.0613
▁grid	-12.0613
shire	-12.0613
tagoni	-12.0613
aries	-12.0613
ritic	-12.0613
▁fck	-12.0613
▁overbilling	-12.0613
▁trespassing	-12.0613
▁huit	-12.0613
▁floorboard	-12.0613
▁flicker	-12.0614
▁bladder	-12.0614
▁biz	-12.0614
▁kristen	-12.0614
▁davy	-12.0614
▁prideful	-12.0614
▁hangover	-12.0614
▁payphone	-12.0614
wind	-12.0614
▁delusional	-12.0614
▁brink	-12.0614
▁tailor	-12.0614
▁traders	-12.0614
▁triplets	-12.0614
▁vile	-12.0614
▁cocon	-12.0614
▁clap	-12.0615
▁lacer	-12.0615
▁vibrates	-12.0615
ographic	-12.0615
▁tracers	-12.0615
▁perv	-12.0615
▁patent	-12.0615
▁hyper	-12.0615
herald	-12.0615
▁equipped	-12.0615
▁mtv	-12.0615
▁berries	-12.0616
▁ethical	-12.0616
▁auntie	-12.0616
▁finn	-12.0616
▁effortless	-12.0616
▁ash	-12.0616
▁fatten	-12.0616
▁surprisingly	-12.0616
▁benita	-12.0616
▁levit	-12.0616
rked	-12.0616
▁exaggerated	-12.0617
tonic	-12.0617
▁responders	-12.0617
▁mentality	-12.0617
▁efficient	-12.0617
ulous	-12.0617
▁cite	-12.0617
▁weaver	-12.0617
rritos	-12.0617
▁manually	-12.0617
▁purgers	-12.0617
▁duo	-12.0618
▁exert	-12.0618
▁rita	-12.0618
▁chess	-12.0618
wide	-12.0618
▁perish	-12.0618
▁yapping	-12.0618
▁bung	-12.0619
▁hound	-12.0619
▁jeremy	-12.062
▁shek	-12.062
▁cardio	-12.062
▁moleste	-12.062
▁deai	-12.062
tzg	-12.062
▁handicap	-12.0621
▁cran	-12.0621
▁bonesis	-12.0621
▁glue	-12.0621
▁yearbook	-12.0621
▁unify	-12.0621
▁chinless	-12.0621
quet	-12.0621
▁dj	-12.0621
▁bile	-12.0621
▁markings	-12.0621
▁mattresses	-12.0621
▁meaningful	-12.0622
▁monies	-12.0622
▁barnes	-12.0622
▁brandon	-12.0622
▁motherinlaw	-12.0623
took	-12.0623
▁dow	-12.0623
▁continuously	-12.0623
▁intimately	-12.0623
▁amongst	-12.0623
arland	-12.0623
▁marksman	-12.0623
▁idealist	-12.0624
▁elderly	-12.0624
▁prego	-12.0624
▁tec	-12.0624
▁whim	-12.0625
▁rubber	-12.0625
▁altered	-12.0626
▁advertised	-12.0626
▁cambodian	-12.0626
▁probe	-12.0626
▁itchy	-12.0626
▁toxin	-12.0626
▁ramp	-12.0626
▁empori	-12.0627
▁evac	-12.0627
▁bundy	-12.0627
▁aww	-12.0627
▁shovel	-12.0627
▁harmful	-12.0628
zers	-12.0628
▁hopin	-12.0628
▁showcase	-12.0628
▁davidoff	-12.0629
▁caen	-12.0629
▁specialize	-12.0629
▁competitively	-12.0629
▁fatty	-12.0629
▁kip	-12.063
▁bandage	-12.063
▁majority	-12.063
▁weaponry	-12.0631
▁growth	-12.0631
▁intoxicating	-12.0632
▁hooting	-12.0632
▁showboat	-12.0632
▁optional	-12.0632
▁payload	-12.0633
▁chant	-12.0633
▁jism	-12.0633
▁fatter	-12.0634
titude	-12.0634
▁supportive	-12.0634
▁businessmen	-12.0634
▁chatterlng	-12.0634
▁loop	-12.0635
fish	-12.0635
▁robin	-12.0635
▁unlikely	-12.0635
▁threehour	-12.0635
▁enjoyment	-12.0636
▁reeds	-12.0636
▁expanding	-12.0637
▁unload	-12.0637
hto	-12.0637
▁andrea	-12.0637
▁cling	-12.0637
▁ninety	-12.0638
▁murderee	-12.0638
▁hern	-12.0638
▁kittie	-12.0638
▁reich	-12.0638
▁forceful	-12.064
▁deceitful	-12.064
▁established	-12.0641
▁realizing	-12.0641
▁mysteriously	-12.0641
▁whir	-12.0642
aware	-12.0642
nine	-12.0642
▁cum	-12.0643
▁gall	-12.0643
igu	-12.0644
▁policemen	-12.0644
▁span	-12.0645
▁humanz	-12.0646
▁berry	-12.0646
itive	-12.0646
▁transmitter	-12.0646
▁dropout	-12.0646
ndo	-12.0647
▁vine	-12.0647
▁condu	-12.0647
▁selfp	-12.0647
rried	-12.0648
▁wager	-12.0648
door	-12.0648
▁handoff	-12.0648
▁fireball	-12.0648
audi	-12.0648
▁homo	-12.0649
▁login	-12.0649
▁nicolai	-12.065
▁regis	-12.065
▁divide	-12.065
▁agony	-12.065
▁cray	-12.065
▁upt	-12.065
▁aust	-12.065
greatgrandmother	-12.0651
▁gland	-12.0651
▁virtue	-12.0651
▁pseudonyms	-12.0651
▁pyramids	-12.0651
▁shepherds	-12.0651
▁suspicions	-12.0651
▁bouncing	-12.0651
▁jackai	-12.0652
▁punter	-12.0652
▁cort	-12.0652
▁visually	-12.0653
▁emba	-12.0653
▁dodged	-12.0654
▁searchers	-12.0654
▁tonic	-12.0655
▁goodsen	-12.0655
▁railroaded	-12.0656
ukh	-12.0656
▁neatly	-12.0659
▁gill	-12.0661
▁penises	-12.0662
▁passive	-12.0663
▁irony	-12.0664
▁inflict	-12.0665
▁lust	-12.0665
▁mede	-12.0666
term	-12.0666
▁walkway	-12.0666
cute	-12.0667
▁cul	-12.0668
▁rut	-12.0668
▁located	-12.0669
▁patronize	-12.067
▁hiring	-12.067
▁glowing	-12.0671
▁onion	-12.0671
▁pausing	-12.0671
▁gaming	-12.0671
▁reco	-12.0671
▁sass	-12.0671
iles	-12.0672
▁premier	-12.0672
▁bam	-12.0672
▁snatched	-12.0672
▁swingin	-12.0672
▁ross	-12.0674
▁masses	-12.0674
▁sweetness	-12.0675
▁bullshitting	-12.0676
▁kla	-12.0677
meda	-12.0678
dget	-12.0681
▁bribed	-12.0682
munity	-12.0683
▁sparkler	-12.0687
▁detected	-12.0687
▁nob	-12.0687
▁bully	-12.0689
chest	-12.069
▁mmmm	-12.0691
▁organize	-12.0694
▁whoop	-12.0694
▁marketa	-12.0695
▁multiply	-12.0696
▁pai	-12.0698
▁sur	-12.0699
gb	-12.0699
▁connector	-12.0699
▁frenchman	-12.0699
▁deus	-12.0701
▁kir	-12.0702
▁muffin	-12.0703
icky	-12.0704
vy	-12.0705
▁touchup	-12.0707
▁protesting	-12.071
▁renewing	-12.071
▁sneaky	-12.071
▁brandy	-12.071
▁tilt	-12.0712
▁eastman	-12.0712
▁trimm	-12.0715
zai	-12.0716
▁compose	-12.0717
▁dispatched	-12.0718
▁invented	-12.0719
hero	-12.0721
▁these	-12.0721
into	-12.0721
▁purchased	-12.0721
gent	-12.0722
▁rye	-12.0722
▁observed	-12.0724
▁tramp	-12.0724
▁devastat	-12.0728
enance	-12.0729
▁suckered	-12.0729
▁studi	-12.0729
▁pouring	-12.073
▁mocking	-12.073
▁tong	-12.0731
▁lsd	-12.0735
▁produced	-12.0735
▁dreamers	-12.0736
▁suggestion	-12.0738
oises	-12.074
normal	-12.0741
▁they	-12.0742
▁pater	-12.0745
▁bandit	-12.0748
▁pushes	-12.0748
▁disrespecting	-12.0749
▁drafted	-12.0749
round	-12.0749
▁solved	-12.075
▁displace	-12.0754
▁heater	-12.0755
kind	-12.0756
▁senseless	-12.0757
▁appetit	-12.0761
▁activ	-12.0762
salaam	-12.0762
▁publication	-12.0767
▁vin	-12.0767
wine	-12.0767
▁revis	-12.0768
▁carat	-12.0768
▁attending	-12.0769
▁hangers	-12.0769
▁fath	-12.077
▁doped	-12.077
▁reacted	-12.0775
▁bp	-12.0775
▁carton	-12.0777
compatible	-12.0777
▁caved	-12.0778
▁volunteered	-12.0783
▁dann	-12.0785
▁sor	-12.0786
▁bumped	-12.0788
▁hint	-12.0789
lyde	-12.079
▁tata	-12.0792
▁barr	-12.0793
▁bela	-12.0795
▁andre	-12.0796
▁martyr	-12.0796
▁topic	-12.0802
▁pickers	-12.0804
▁maint	-12.0805
▁manual	-12.0805
▁reformer	-12.0807
dwell	-12.0807
▁sharper	-12.0808
▁alerted	-12.0811
▁insulted	-12.0812
▁killian	-12.0825
▁reviewed	-12.0827
▁stained	-12.0827
▁lard	-12.0828
▁drifter	-12.0832
▁organiz	-12.0834
▁elde	-12.0834
▁resisted	-12.0837
▁dubi	-12.0846
▁runup	-12.0846
▁denie	-12.0847
▁piti	-12.0848
▁responding	-12.0848
▁recreational	-12.0848
▁spelling	-12.0852
▁privately	-12.0859
icable	-12.086
▁kindness	-12.0863
thefuck	-12.0871
▁actin	-12.0871
▁richer	-12.0872
▁celebrated	-12.0873
▁sparkl	-12.0876
otted	-12.0881
▁healer	-12.0881
▁derma	-12.0891
▁bab	-12.0893
▁beto	-12.0896
strom	-12.0897
▁lance	-12.0903
▁kicker	-12.0912
▁rollin	-12.0914
uffle	-12.0915
▁lien	-12.0916
▁bidd	-12.0917
vonne	-12.0918
▁catches	-12.0922
▁provider	-12.0944
oaring	-12.0946
choo	-12.0956
▁uphol	-12.096
▁carder	-12.097
▁vouch	-12.0971
ante	-12.0974
vertible	-12.0986
▁performer	-12.1002
aux	-12.1004
▁amus	-12.1027
nished	-12.1032
onald	-12.1045
▁fundi	-12.1048
▁dent	-12.1054
doyou	-12.1059
diagnos	-12.1059
▁bake	-12.1059
▁shaker	-12.1066
nya	-12.1077
▁jug	-12.108
▁mythic	-12.1085
▁clone	-12.1099
▁some	-12.1102
▁telegra	-12.1109
bble	-12.111
▁plavin	-12.1119
▁policeman	-12.1186
▁swinger	-12.1188
▁redact	-12.1203
▁baker	-12.1223
▁regenerat	-12.1255
ammering	-12.1266
▁handler	-12.1272
kiss	-12.1282
▁sewer	-12.1283
▁poon	-12.1295
lston	-12.131
▁terrorize	-12.1312
▁recit	-12.1316
ddlin	-12.1324
change	-12.1324
▁astr	-12.1376
tolerable	-12.1396
▁indig	-12.1431
▁humiliat	-12.1455
▁patri	-12.1472
laine	-12.1477
uf	-12.1524
dynamic	-12.1549
yria	-12.1551
aut	-12.1591
dependent	-12.1604
▁subl	-12.1606
galoo	-12.164
▁dominat	-12.1643
▁capp	-12.165
▁obli	-12.1653
▁loosen	-12.1655
▁bod	-12.1676
liberation	-12.1692
ittle	-12.17
kuz	-12.1712
ownership	-12.1713
▁occasional	-12.1733
norm	-12.1762
▁replicat	-12.179
▁fib	-12.18
ouve	-12.1813
▁patholog	-12.1871
▁strippe	-12.19
▁boob	-12.1948
ipped	-12.1992
aki	-12.2034
luck	-12.2045
▁enforc	-12.2061
▁domini	-12.2098
omet	-12.2119
fulness	-12.2129
iddle	-12.2141
▁haze	-12.2158
rut	-12.2173
trovert	-12.2196
opper	-12.221
▁peak	-12.2264
urdy	-12.2294
▁improv	-12.2309
rez	-12.2312
lagged	-12.2332
horn	-12.234
▁twink	-12.2351
▁domin	-12.2396
hhhh	-12.2427
allel	-12.2431
▁penetrate	-12.2448
▁elevate	-12.2455
▁disapprove	-12.2473
▁bumper	-12.2499
terrorism	-12.2515
phony	-12.2523
ugging	-12.2543
▁rider	-12.2544
▁dictat	-12.2549
▁oooo	-12.257
▁deni	-12.2574
chat	-12.2575
solution	-12.2582
▁growl	-12.2585
nder	-12.2608
assurance	-12.2636
care	-12.2683
uter	-12.2699
▁gring	-12.2775
▁tipp	-12.2799
▁literat	-12.2805
eeny	-12.2805
iza	-12.2813
▁chari	-12.2816
rational	-12.2822
▁deliberat	-12.2834
nclusive	-12.2863
▁hesitat	-12.2876
rite	-12.2885
bbling	-12.2893
lunge	-12.2896
▁vu	-12.2955
▁implement	-12.2955
▁substitut	-12.2978
▁phon	-12.3005
zzl	-12.3029
oooh	-12.3035
done	-12.3055
tif	-12.3107
▁will	-12.3125
arily	-12.3178
dont	-12.3185
mmies	-12.3229
gener	-12.3255
ryan	-12.3272
winkle	-12.3281
▁manipulat	-12.3422
▁distribut	-12.3425
ulder	-12.3533
▁dab	-12.3538
▁propri	-12.3586
▁enforce	-12.3592
cdr	-12.361
belli	-12.3698
▁prob	-12.371
mics	-12.3716
▁execut	-12.3756
laus	-12.376
terra	-12.3801
disclosed	-12.3872
▁feeb	-12.3921
▁schem	-12.3947
hew	-12.3954
devil	-12.4071
▁parc	-12.4107
▁hoppin	-12.411
▁unrea	-12.4113
love	-12.416
tures	-12.4173
appa	-12.422
▁dynam	-12.4223
▁myr	-12.4231
cial	-12.4265
▁manwhorin	-12.4288
arch	-12.4315
taker	-12.4357
lux	-12.4359
▁yu	-12.4369
rius	-12.4393
▁structur	-12.4447
▁smok	-12.4514
eared	-12.4538
destructive	-12.4675
▁hym	-12.4678
▁imbalance	-12.4695
hof	-12.4729
atta	-12.4751
onzi	-12.4755
graph	-12.4804
omp	-12.482
▁gran	-12.4829
▁strik	-12.4853
▁embr	-12.4916
wai	-12.4919
▁crumb	-12.4936
aboo	-12.4968
▁tranquil	-12.4972
served	-12.5008
▁refu	-12.5027
▁bran	-12.5058
▁forge	-12.506
egnan	-12.509
▁parame	-12.5115
iago	-12.5143
▁mill	-12.5162
▁craz	-12.5164
sprit	-12.5167
borne	-12.5175
▁vibra	-12.5177
elan	-12.519
jc	-12.5194
rained	-12.5205
▁pictur	-12.5216
▁andr	-12.5229
▁corresponden	-12.524
▁shak	-12.524
▁flap	-12.5255
falla	-12.5299
▁scoo	-12.5324
▁casa	-12.5331
ranged	-12.5355
▁imperfect	-12.5358
immer	-12.5365
▁declar	-12.5385
smelling	-12.5389
▁cloud	-12.5396
▁merchant	-12.5398
▁sprinkle	-12.5398
▁coworker	-12.5398
▁jingle	-12.5398
▁kilo	-12.5401
▁skitter	-12.5403
▁heathen	-12.5403
▁consequence	-12.5405
▁duct	-12.5405
▁investor	-12.5406
▁donut	-12.5406
▁episode	-12.5407
▁scissor	-12.5407
▁condom	-12.5407
▁regulation	-12.5411
▁neighbour	-12.5411
▁coordinate	-12.5412
▁afterward	-12.5415
▁donor	-12.5415
▁violat	-12.5417
▁predic	-12.5417
▁claw	-12.5418
▁chart	-12.5419
▁captiv	-12.5424
▁resid	-12.5425
▁offender	-12.5426
▁sala	-12.5428
▁heel	-12.5429
▁corp	-12.5437
mpounded	-12.544
▁divid	-12.5456
▁facilit	-12.5459
▁dav	-12.546
▁produc	-12.5465
lasted	-12.5476
friends	-12.5478
▁stag	-12.5482
▁tolera	-12.5484
▁insid	-12.5491
▁crim	-12.5492
▁machin	-12.5494
vine	-12.5506
dog	-12.5507
approved	-12.5509
earned	-12.5514
▁disappoint	-12.5521
phyl	-12.5522
▁frag	-12.5523
elena	-12.5523
eatgrandmother	-12.5524
▁quar	-12.5525
▁cruci	-12.553
polis	-12.5536
▁hamburg	-12.5537
▁sacrific	-12.5539
▁rever	-12.554
▁ayeaye	-12.5541
▁immun	-12.5545
ground	-12.5552
▁adventur	-12.5553
▁intoxicat	-12.5554
▁advis	-12.5556
▁expand	-12.5557
▁replac	-12.5557
▁complet	-12.5557
lashed	-12.5559
▁harass	-12.5561
▁slid	-12.5562
where	-12.5564
▁advertis	-12.5564
▁resurrect	-12.5566
▁sustain	-12.5566
quarter	-12.5568
▁aft	-12.5568
▁dismiss	-12.5569
izards	-12.5569
stand	-12.557
▁register	-12.5571
fart	-12.5572
john	-12.5573
speak	-12.5574
watch	-12.5574
▁tamp	-12.5574
▁howl	-12.5575
▁vulnerab	-12.5575
▁shou	-12.5577
retching	-12.5577
▁weave	-12.5578
▁extrem	-12.5579
▁exaggerate	-12.5579
word	-12.5579
point	-12.558
▁hoot	-12.558
▁retire	-12.558
▁discharge	-12.5581
▁juli	-12.5581
efficient	-12.5581
equipped	-12.5581
▁inspire	-12.5581
▁baptize	-12.5582
voice	-12.5582
▁panama	-12.5582
mount	-12.5582
barrow	-12.5582
chemical	-12.5582
connor	-12.5582
robbing	-12.5582
corps	-12.5582
studies	-12.5582
turned	-12.5582
humping	-12.5582
▁kess	-12.5582
ethical	-12.5582
knob	-12.5582
hound	-12.5582
employment	-12.5583
predictable	-12.5583
cooked	-12.5583
source	-12.5583
obbled	-12.5583
aggressive	-12.5583
relevant	-12.5583
relief	-12.5583
written	-12.5583
ookie	-12.5583
scotch	-12.5583
berries	-12.5583
departure	-12.5583
jammed	-12.5583
elvis	-12.5583
improve	-12.5583
rabbit	-12.5583
determined	-12.5583
greg	-12.5583
privilege	-12.5583
storm	-12.5583
sweep	-12.5583
▁assembl	-12.5583
disk	-12.5583
fashion	-12.5583
ordinary	-12.5584
tempo	-12.5584
fifteen	-12.5584
sensitive	-12.5584
bury	-12.5584
christian	-12.5584
tune	-12.5584
stream	-12.5584
access	-12.5584
screen	-12.5584
familiar	-12.5584
selfish	-12.5584
positive	-12.5584
spirit	-12.5584
complete	-12.5584
juice	-12.5584
pressure	-12.5584
broken	-12.5584
roommate	-12.5584
definitely	-12.5584
machine	-12.5584
church	-12.5584
dried	-12.5584
chief	-12.5584
third	-12.5584
green	-12.5584
dream	-12.5584
thirty	-12.5584
secret	-12.5584
held	-12.5584
sleeve	-12.5584
maybe	-12.5584
free	-12.5584
fifty	-12.5584
plus	-12.5585
yeah	-12.5585
sound	-12.5585
duty	-12.5585
winning	-12.5585
▁authorize	-12.5585
connect	-12.5585
reflection	-12.5585
solid	-12.5585
mother	-12.5585
▁destin	-12.5586
bedroom	-12.5586
▁crusade	-12.5586
running	-12.5586
▁probabilit	-12.5586
▁philosoph	-12.5586
elain	-12.5586
educate	-12.5587
loving	-12.5587
trash	-12.5587
▁surprising	-12.5587
▁unanimous	-12.5587
beach	-12.5588
▁emergenc	-12.5588
▁demonstrat	-12.5588
▁agenc	-12.5588
consider	-12.5588
week	-12.5588
▁brut	-12.5589
cuba	-12.5589
labor	-12.5589
▁intens	-12.5589
figur	-12.559
▁resembl	-12.559
frame	-12.559
intend	-12.559
▁splint	-12.5591
▁baptis	-12.5591
▁securit	-12.5591
▁practical	-12.5592
jackson	-12.5592
better	-12.5592
▁speculat	-12.5592
gwriter	-12.5592
zero	-12.5592
▁horribl	-12.5592
therland	-12.5593
▁glob	-12.5593
ambala	-12.5593
theme	-12.5593
copy	-12.5593
▁bartend	-12.5594
▁horrifi	-12.5594
with	-12.5594
▁insan	-12.5594
▁griff	-12.5594
wear	-12.5595
ussels	-12.5595
eagle	-12.5595
▁spank	-12.5595
when	-12.5596
fortunately	-12.5596
uction	-12.5596
▁reflex	-12.5596
hush	-12.5596
▁glitch	-12.5597
oggin	-12.5597
smoke	-12.5597
▁televis	-12.5597
▁sentiment	-12.5597
flection	-12.5597
▁pyr	-12.5597
▁hodg	-12.5597
▁inhuman	-12.5597
▁princip	-12.5598
terior	-12.5598
boxes	-12.5598
▁thiev	-12.5598
bank	-12.5598
cool	-12.5598
▁drivin	-12.5598
▁lovin	-12.5598
▁aggravat	-12.5599
▁prohibit	-12.5599
▁robbin	-12.5599
quisition	-12.5599
▁influen	-12.5599
▁suppress	-12.5599
▁blog	-12.5599
▁oppress	-12.5599
▁unsee	-12.5599
▁accelerat	-12.5599
▁evict	-12.5599
paths	-12.5599
▁permissi	-12.56
arrett	-12.56
▁categor	-12.56
marm	-12.56
▁coloss	-12.56
▁recept	-12.56
▁wiggl	-12.56
▁darlin	-12.56
▁jef	-12.56
▁mirac	-12.56
dead	-12.56
filtrat	-12.56
▁curio	-12.56
▁israel	-12.56
dispensa	-12.56
▁deprav	-12.5601
▁chemist	-12.5601
▁serge	-12.5601
▁cremat	-12.5601
▁quadr	-12.5601
▁depriv	-12.5601
▁convers	-12.5601
roubles	-12.5601
▁scalp	-12.5601
▁indict	-12.5601
alysis	-12.5601
▁negat	-12.5601
rainer	-12.5601
▁miscarri	-12.5601
▁inconvenien	-12.5601
▁sculpt	-12.5601
▁alexandr	-12.5601
jamas	-12.5602
▁civ	-12.5602
▁detach	-12.5602
▁troph	-12.5602
negotia	-12.5602
utti	-12.5602
▁basket	-12.5602
▁incorr	-12.5602
riety	-12.5602
▁nois	-12.5602
israeli	-12.5602
scape	-12.5602
▁salva	-12.5602
punch	-12.5602
▁intellect	-12.5602
▁infa	-12.5602
▁avail	-12.5602
contin	-12.5602
▁succ	-12.5602
ceremon	-12.5602
strand	-12.5602
▁shagal	-12.5602
scient	-12.5602
▁amplifie	-12.5602
▁arbitrar	-12.5602
▁astronom	-12.5602
▁flexib	-12.5602
▁fossil	-12.5602
▁jubila	-12.5602
▁machiavelli	-12.5602
▁submit	-12.5602
▁subscribe	-12.5602
▁tarantino	-12.5602
▁triumph	-12.5602
▁youryour	-12.5602
adequate	-12.5602
aholic	-12.5602
alangalalang	-12.5602
azolam	-12.5602
certified	-12.5602
chrome	-12.5602
consummated	-12.5602
demeanor	-12.5602
dreyfus	-12.5602
germeister	-12.5602
hyperventilating	-12.5602
phrenic	-12.5602
recognizable	-12.5602
referencing	-12.5602
sburg	-12.5602
skirts	-12.5602
sympathetic	-12.5602
taneous	-12.5602
thgraders	-12.5602
▁abigail	-12.5602
▁abode	-12.5602
▁abramov	-12.5602
▁abscess	-12.5602
▁academic	-12.5602
▁accuracy	-12.5602
▁acoustic	-12.5602
▁adjourned	-12.5602
▁adolescent	-12.5602
▁advocate	-12.5602
▁aerobics	-12.5602
▁afrikanischer	-12.5602
▁agriculture	-12.5602
▁albritani	-12.5602
▁amnesia	-12.5602
▁anagram	-12.5602
▁ancestor	-12.5602
▁ankara	-12.5602
▁anthrax	-12.5602
▁anymfay	-12.5602
▁applicants	-12.5602
▁appraisal	-12.5602
▁arabesque	-12.5602
▁arabia	-12.5602
▁arnold	-12.5602
▁arrrgh	-12.5602
▁ashtray	-12.5602
▁aslanov	-12.5602
▁athena	-12.5602
▁atlantic	-12.5602
▁atmosphere	-12.5602
▁autumn	-12.5602
▁avril	-12.5602
▁barricad	-12.5602
▁beforehand	-12.5602
▁befriend	-12.5602
▁belvedere	-12.5602
▁bendinilamberts	-12.5602
▁bernard	-12.5602
▁betamax	-12.5602
▁bflat	-12.5602
▁birmingham	-12.5602
▁blofeld	-12.5602
▁bouquet	-12.5602
▁bourgeois	-12.5602
▁brikowskl	-12.5602
▁brunette	-12.5602
▁bystander	-12.5602
▁cabbage	-12.5602
▁cacaw	-12.5602
▁calculation	-12.5602
▁calendar	-12.5602
▁cannibal	-12.5602
▁capabilities	-12.5602
▁cappuccino	-12.5602
▁catastrophe	-12.5602
▁catastrophic	-12.5602
▁catherine	-12.5602
▁caucasian	-12.5602
▁cautious	-12.5602
▁cayenne	-12.5602
▁cellulite	-12.5602
▁census	-12.5602
▁chambliss	-12.5602
▁childbirth	-12.5602
▁chubby	-12.5602
▁chump	-12.5602
▁circe	-12.5602
▁circumcise	-12.5602
▁claudi	-12.5602
▁cleodegaria	-12.5602
▁cockroach	-12.5602
▁commute	-12.5602
▁comparative	-12.5602
▁comparison	-12.5602
▁compressor	-12.5602
▁concession	-12.5602
▁congrats	-12.5602
▁congratulate	-12.5602
▁conjugal	-12.5602
▁conservatory	-12.5602
▁consolation	-12.5602
▁consonant	-12.5602
▁contender	-12.5602
▁contortion	-12.5602
▁copilot	-12.5602
▁corkscrew	-12.5602
▁cosmopolitan	-12.5602
▁cottage	-12.5602
▁cottontail	-12.5602
▁credentials	-12.5602
▁cryostasis	-12.5602
▁cryounit	-12.5602
▁cubic	-12.5602
▁culminat	-12.5602
▁cylinder	-12.5602
▁darfur	-12.5602
▁deceptive	-12.5602
▁decisionmaking	-12.5602
▁decorating	-12.5602
▁default	-12.5602
▁defence	-12.5602
▁depreciation	-12.5602
▁desecrate	-12.5602
▁desperation	-12.5602
▁devour	-12.5602
▁diabetes	-12.5602
▁diagram	-12.5602
▁dilemma	-12.5602
▁dingdong	-12.5602
▁discredit	-12.5602
▁disengage	-12.5602
▁dispense	-12.5602
▁donahue	-12.5602
▁doortodoor	-12.5602
▁dormitory	-12.5602
▁dorothy	-12.5602
▁druzhinsky	-12.5602
▁dunbar	-12.5602
[...]
