<unk>	0
<s>	0
</s>	0
s	-3.04012
ing	-4.33256
e	-4.57855
ed	-4.61955
d	-4.62071
▁im	-4.66104
y	-4.78249
▁know	-4.80471
t	-4.82455
▁dont	-4.85363
n	-4.91359
▁	-4.94723
▁get	-5.02747
er	-5.05271
▁go	-5.05809
a	-5.09045
p	-5.11312
r	-5.12038
▁right	-5.13134
u	-5.1615
m	-5.20057
i	-5.20295
▁come	-5.21551
▁oh	-5.21775
▁like	-5.21909
▁got	-5.22376
▁na	-5.23283
▁yeah	-5.25338
▁youre	-5.27373
▁l	-5.29184
c	-5.36975
▁okay	-5.37388
▁thats	-5.46957
in	-5.46994
b	-5.47502
▁one	-5.49149
g	-5.49978
f	-5.5199
o	-5.54002
▁see	-5.56629
▁gon	-5.59818
▁want	-5.60034
▁well	-5.60718
▁look	-5.66556
▁good	-5.67246
▁think	-5.68218
le	-5.69019
or	-5.71351
al	-5.72144
▁hey	-5.73567
▁man	-5.75864
l	-5.77965
▁s	-5.78422
▁back	-5.81495
ly	-5.82256
▁time	-5.91541
▁take	-5.92673
▁going	-5.9428
ar	-5.965
▁need	-5.98264
▁say	-5.99852
▁yes	-6.00355
▁love	-6.01191
on	-6.01301
▁us	-6.01652
▁de	-6.03859
▁cant	-6.04262
en	-6.0609
re	-6.06247
it	-6.06678
▁tell	-6.06693
▁ill	-6.08693
▁hes	-6.10969
w	-6.13262
an	-6.14907
▁g	-6.15772
es	-6.15774
▁way	-6.17229
k	-6.18235
▁a	-6.19166
▁really	-6.19526
▁re	-6.1954
v	-6.19724
▁mean	-6.19804
h	-6.2124
▁would	-6.21736
▁could	-6.23669
▁thank	-6.24618
▁let	-6.26291
ve	-6.26576
il	-6.2664
▁little	-6.30486
is	-6.31293
ie	-6.31506
ter	-6.32282
▁ta	-6.32671
▁sorry	-6.32798
▁make	-6.33547
▁lets	-6.33672
▁god	-6.33822
▁please	-6.35686
▁never	-6.37609
▁something	-6.38136
ra	-6.38925
th	-6.39524
ck	-6.39769
▁whats	-6.41395
ll	-6.42054
st	-6.46387
▁co	-6.46449
▁t	-6.46456
▁give	-6.47203
ic	-6.47278
▁ive	-6.50289
▁in	-6.50498
▁theres	-6.52889
▁didnt	-6.53012
▁hi	-6.54305
▁help	-6.56302
ke	-6.56388
▁thing	-6.5702
el	-6.57787
ion	-6.5891
▁work	-6.59109
▁c	-6.59628
z	-6.59816
▁wait	-6.5991
▁great	-6.60237
▁ha	-6.6037
ri	-6.61225
▁ma	-6.61866
▁said	-6.61929
▁w	-6.62125
▁two	-6.62401
▁day	-6.62497
▁people	-6.62537
▁call	-6.62783
▁stop	-6.62999
ce	-6.64323
▁st	-6.66168
ch	-6.68569
▁even	-6.68925
▁th	-6.69854
ur	-6.69952
▁life	-6.70515
▁ca	-6.72237
▁new	-6.73143
▁theyre	-6.73555
▁un	-6.73738
▁la	-6.73767
et	-6.74624
ate	-6.74877
▁o	-6.74962
▁po	-6.75892
ir	-6.76236
▁find	-6.76948
ne	-6.77005
▁guys	-6.77094
▁sure	-6.77131
▁put	-6.79206
te	-6.8
▁first	-6.80155
at	-6.80444
ol	-6.80507
▁mr	-6.8067
▁talk	-6.80817
▁uh	-6.81818
▁much	-6.81854
▁shes	-6.81985
ation	-6.82136
▁keep	-6.83475
sh	-6.83872
▁be	-6.85735
▁night	-6.86387
▁nothing	-6.86583
▁still	-6.86806
▁e	-6.86917
▁con	-6.86927
▁car	-6.8695
▁je	-6.87378
▁f	-6.87824
▁mi	-6.88465
id	-6.88487
▁ever	-6.89175
us	-6.89327
▁baby	-6.89566
▁home	-6.90542
x	-6.90688
▁hell	-6.91468
la	-6.91581
▁feel	-6.91583
▁mo	-6.92706
▁long	-6.93072
ment	-6.93099
▁maybe	-6.93434
ge	-6.9392
▁sp	-6.94415
▁sir	-6.95014
lo	-6.95601
ent	-6.9577
▁k	-6.96104
▁p	-6.96116
ies	-6.96186
▁big	-6.96615
as	-6.96626
▁dad	-6.96665
▁live	-6.97152
▁wan	-6.97972
nt	-6.98362
▁pro	-6.98981
▁b	-6.98995
▁gr	-6.99447
▁nice	-6.99982
▁stay	-7.00494
▁pa	-7.00911
▁ch	-7.00912
▁move	-7.00986
▁sa	-7.01384
▁away	-7.01407
▁last	-7.02033
tion	-7.02122
um	-7.02235
▁name	-7.02742
▁anything	-7.0298
▁better	-7.0323
▁show	-7.03257
▁hear	-7.03406
▁le	-7.03531
▁mom	-7.04424
age	-7.0449
ers	-7.04956
é	-7.05053
▁aint	-7.05482
▁around	-7.05894
▁vi	-7.06222
▁thought	-7.06599
ro	-7.06999
am	-7.07025
li	-7.07033
▁fine	-7.07761
im	-7.07845
▁hold	-7.08033
▁everything	-7.08247
ver	-7.08727
▁guy	-7.08915
▁jack	-7.0949
▁coming	-7.09568
▁done	-7.09696
▁place	-7.10246
ty	-7.10434
▁sc	-7.10669
▁play	-7.11337
▁years	-7.11391
ow	-7.11525
▁always	-7.11542
▁h	-7.11566
▁di	-7.11576
▁lm	-7.11577
▁every	-7.121
ry	-7.12214
ta	-7.12486
▁told	-7.1267
▁kind	-7.12904
▁d	-7.13183
▁ja	-7.13723
▁world	-7.13802
ut	-7.14854
▁listen	-7.14954
ive	-7.14957
▁ho	-7.15048
▁ba	-7.15587
ul	-7.15632
▁lot	-7.16049
▁turn	-7.16589
▁fl	-7.16949
▁kill	-7.17547
vi	-7.18233
▁sh	-7.18248
ist	-7.18358
▁believe	-7.18961
▁leave	-7.19204
ant	-7.19673
▁hello	-7.19957
▁boy	-7.20106
▁youve	-7.20416
me	-7.2251
▁miss	-7.22825
na	-7.23627
▁three	-7.23902
▁pi	-7.23946
▁no	-7.24099
▁bu	-7.24133
▁to	-7.24138
▁old	-7.24168
▁m	-7.24198
▁made	-7.24219
mp	-7.2429
▁dr	-7.248
▁do	-7.25003
▁mar	-7.25782
▁house	-7.26035
▁head	-7.26041
▁ok	-7.26538
est	-7.26732
ia	-7.27658
▁id	-7.27874
▁wh	-7.27901
▁ex	-7.27912
▁care	-7.28841
▁he	-7.29088
▁bad	-7.29168
▁must	-7.30022
▁du	-7.30089
▁real	-7.30279
▁remember	-7.30424
ard	-7.30549
▁try	-7.30662
▁te	-7.31953
▁wont	-7.32061
▁watch	-7.32355
▁thanks	-7.32608
per	-7.32927
▁ready	-7.33112
▁shit	-7.33157
▁things	-7.33273
▁tu	-7.33436
▁start	-7.33522
▁tr	-7.33588
▁girl	-7.33668
▁meet	-7.34397
mo	-7.34522
▁son	-7.34887
▁left	-7.3541
▁doesnt	-7.35974
▁men	-7.36142
▁talking	-7.36257
ha	-7.36643
▁ri	-7.36766
▁fight	-7.36904
ng	-7.37081
▁li	-7.37348
▁door	-7.3837
up	-7.38599
ap	-7.38799
pp	-7.38972
end	-7.38981
▁ro	-7.3909
▁today	-7.39162
▁father	-7.39466
▁da	-7.39751
▁cha	-7.39995
▁i	-7.40137
▁money	-7.40653
▁wrong	-7.40945
▁ass	-7.42088
▁pe	-7.42292
de	-7.42355
ick	-7.42406
▁yöu	-7.42456
ting	-7.42965
ec	-7.43803
▁understand	-7.4399
▁youll	-7.4399
▁fire	-7.44242
▁fun	-7.44258
▁best	-7.44462
▁getting	-7.44486
▁trying	-7.44893
▁someone	-7.45547
▁woman	-7.45548
▁end	-7.45548
▁open	-7.45552
ling	-7.45825
▁another	-7.45862
▁win	-7.46049
ill	-7.46051
▁second	-7.46177
▁may	-7.46485
▁me	-7.46635
▁cr	-7.46769
▁ben	-7.46873
▁plan	-7.46882
▁friend	-7.4713
▁close	-7.47147
▁dead	-7.47196
▁tonight	-7.47465
▁phone	-7.47787
▁run	-7.48268
▁isnt	-7.48421
▁actually	-7.49062
▁huh	-7.49162
▁cause	-7.49407
to	-7.49496
▁r	-7.49972
▁fa	-7.5022
▁em	-7.50692
▁an	-7.51452
▁bo	-7.51456
ity	-7.51518
▁bring	-7.52061
▁se	-7.52375
▁va	-7.52459
▁die	-7.52621
▁wanted	-7.53294
co	-7.53294
▁enough	-7.53722
▁next	-7.5475
▁ru	-7.54935
▁bar	-7.55009
man	-7.5504
op	-7.55225
ot	-7.55314
▁hard	-7.55568
ence	-7.55794
▁lo	-7.55805
▁might	-7.55848
ted	-7.56043
▁stand	-7.56972
▁course	-7.57896
▁mind	-7.57921
▁um	-7.58143
▁v	-7.58192
▁dis	-7.58392
▁walk	-7.58619
▁guess	-7.59328
▁pre	-7.59408
▁bl	-7.59415
able	-7.59542
and	-7.59591
ac	-7.59601
▁ask	-7.59967
ag	-7.60265
▁came	-7.60479
tch	-7.60574
▁everybody	-7.60779
▁fr	-7.61229
ma	-7.61441
▁heart	-7.61582
▁ra	-7.61797
▁job	-7.61812
▁so	-7.61852
▁wasnt	-7.62256
▁war	-7.6256
▁pay	-7.62598
▁else	-7.63408
j	-7.63809
▁whos	-7.63844
▁kid	-7.64062
ine	-7.64117
▁game	-7.64137
ii	-7.64518
▁idea	-7.64586
▁saw	-7.64917
▁playing	-7.65229
▁excuse	-7.65266
▁room	-7.6548
tic	-7.65676
▁family	-7.6642
▁seen	-7.668
▁whole	-7.66811
be	-7.67116
▁part	-7.67449
▁ju	-7.68023
ance	-7.68108
▁check	-7.68378
▁music	-7.68392
▁use	-7.68467
▁mu	-7.68533
▁eat	-7.68561
▁bit	-7.686
▁morning	-7.68768
▁au	-7.68826
ful	-7.68977
▁hand	-7.69289
▁word	-7.70375
ee	-7.70627
▁ah	-7.70659
▁pretty	-7.70769
▁damn	-7.70775
▁far	-7.711
▁together	-7.71173
oo	-7.71219
ber	-7.71585
▁met	-7.71926
ai	-7.72158
▁looking	-7.72395
▁without	-7.72398
▁found	-7.72824
om	-7.73113
▁heard	-7.73211
▁hope	-7.7326
ti	-7.7398
▁break	-7.74054
▁happened	-7.74216
▁change	-7.74522
▁happen	-7.74674
▁mother	-7.74897
os	-7.75681
▁happy	-7.7574
▁en	-7.76095
▁school	-7.76164
▁high	-7.7625
▁sound	-7.76631
▁cl	-7.77262
▁many	-7.77394
ous	-7.77409
▁su	-7.77411
▁question	-7.77455
▁cre	-7.776
▁went	-7.77771
▁sleep	-7.77885
▁weve	-7.7789
▁everyone	-7.77962
ight	-7.78409
▁brother	-7.78756
▁ne	-7.78957
▁crazy	-7.80077
▁fe	-7.80113
ian	-7.80479
▁used	-7.80507
▁face	-7.80725
ton	-7.8111
▁problem	-7.81417
▁matter	-7.81422
▁laughing	-7.81624
▁honey	-7.8187
▁sign	-7.82068
▁week	-7.82256
▁ow	-7.82609
ew	-7.83047
▁ya	-7.83117
ak	-7.83176
ness	-7.83298
▁read	-7.83627
▁al	-7.83996
▁five	-7.84147
▁number	-7.8415
▁tomorrow	-7.85078
▁fi	-7.85287
▁whoa	-7.85551
▁knew	-7.86017
da	-7.86136
▁ring	-7.86323
ny	-7.86457
ig	-7.86477
▁power	-7.86496
▁hot	-7.86662
ise	-7.86867
▁sighs	-7.86962
▁worry	-7.86962
▁somebody	-7.87437
▁pu	-7.87853
▁safe	-7.87965
▁took	-7.88067
ated	-7.88379
▁deal	-7.88549
▁wi	-7.88644
▁ar	-7.88734
▁vo	-7.88764
▁clear	-7.88885
▁light	-7.88906
▁shut	-7.89052
▁kids	-7.8922
▁eyes	-7.89348
▁lost	-7.89649
▁j	-7.89731
▁hurt	-7.8986
▁book	-7.90626
▁save	-7.90997
▁working	-7.91297
▁pick	-7.91342
▁lts	-7.91349
▁anyone	-7.91829
ide	-7.92108
▁boys	-7.92222
▁beautiful	-7.92328
ook	-7.92363
▁pr	-7.92738
▁cool	-7.93319
▁bon	-7.93535
ize	-7.94184
▁friends	-7.94354
▁year	-7.94601
▁since	-7.94872
▁true	-7.94877
bi	-7.94912
▁jo	-7.95078
▁am	-7.95275
▁pass	-7.95565
▁mon	-7.95798
▁yet	-7.95922
▁party	-7.96062
▁stuff	-7.96421
▁wouldnt	-7.96439
▁alone	-7.96469
▁called	-7.96592
▁sta	-7.96933
▁saying	-7.96937
▁already	-7.96944
▁promise	-7.96945
king	-7.9696
▁mama	-7.97158
ade	-7.9716
▁hit	-7.97302
▁welcome	-7.9747
one	-7.97564
▁six	-7.97569
ho	-7.98002
▁inside	-7.98008
▁trust	-7.98536
▁fall	-7.99349
▁business	-7.99604
▁four	-7.99769
bo	-8.00549
▁minutes	-8.00566
▁bi	-8.00597
▁order	-8.00691
▁bye	-8.00712
▁hands	-8.0079
▁minute	-8.0081
tin	-8.00939
▁gone	-8.00947
▁bob	-8.01168
▁drink	-8.01792
▁speak	-8.02127
ture	-8.02138
▁set	-8.02287
▁grunts	-8.02336
▁water	-8.02516
▁hang	-8.02682
▁nobody	-8.02892
▁chuckles	-8.029
▁grow	-8.03134
▁par	-8.03225
▁sha	-8.03303
▁touch	-8.03453
▁wife	-8.03456
▁z	-8.03689
▁act	-8.03711
ary	-8.04027
und	-8.04088
he	-8.04481
▁youd	-8.04582
▁free	-8.04912
▁sit	-8.05125
▁easy	-8.05149
▁soon	-8.05566
▁cut	-8.05673
▁days	-8.05773
▁killed	-8.05852
▁ago	-8.05911
▁drive	-8.05967
ah	-8.06033
▁for	-8.06313
▁comp	-8.06349
▁supposed	-8.0643
ven	-8.06772
▁bra	-8.06783
▁follow	-8.0687
▁daddy	-8.06894
▁side	-8.07369
▁secret	-8.07451
▁kiss	-8.08067
out	-8.08156
▁star	-8.08186
▁human	-8.08192
▁though	-8.08433
▁perfect	-8.08624
▁forget	-8.08625
▁laughs	-8.08813
▁late	-8.08832
▁rest	-8.08951
▁wow	-8.08991
act	-8.09021
▁different	-8.09216
▁whatever	-8.09216
▁havent	-8.09219
▁making	-8.09979
▁pas	-8.10079
▁wish	-8.10089
min	-8.10285
ez	-8.10345
▁cor	-8.10435
▁si	-8.1058
▁blood	-8.11013
▁gave	-8.1102
ish	-8.1139
ten	-8.11645
▁wa	-8.1169
che	-8.11736
▁line	-8.11909
▁fast	-8.11951
▁cest	-8.12168
▁couldnt	-8.12238
▁point	-8.1225
ving	-8.12302
▁hate	-8.12327
▁lose	-8.12689
▁team	-8.13046
que	-8.13393
▁learn	-8.13467
kin	-8.13904
▁yo	-8.14082
▁dream	-8.14083
▁moment	-8.14092
▁ce	-8.14153
do	-8.14226
▁mad	-8.14266
oc	-8.14291
▁dance	-8.1501
▁probably	-8.15334
▁gun	-8.15494
▁sister	-8.15993
▁speaking	-8.16208
▁dog	-8.16603
▁lu	-8.16806
▁sweet	-8.17246
▁later	-8.17445
▁makes	-8.17694
our	-8.17722
ial	-8.17802
▁full	-8.17951
▁boo	-8.17956
▁thinking	-8.18243
▁wear	-8.18555
▁ball	-8.18656
▁chance	-8.18693
▁person	-8.18766
▁pull	-8.18776
▁air	-8.18778
▁shot	-8.19355
▁non	-8.1944
▁death	-8.19862
▁leg	-8.19984
▁screaming	-8.20049
her	-8.20263
▁figure	-8.20513
▁ricky	-8.20517
▁month	-8.20735
▁que	-8.20766
▁doctor	-8.2118
▁child	-8.21183
▁throw	-8.21183
▁heres	-8.21219
▁app	-8.2177
▁president	-8.21851
▁fell	-8.22145
ious	-8.22152
▁finish	-8.22527
▁wheres	-8.22758
▁shoot	-8.23213
▁answer	-8.23892
▁young	-8.23892
▁drop	-8.24094
▁hu	-8.24519
▁george	-8.24581
ally	-8.24652
▁step	-8.24682
▁bell	-8.24742
▁king	-8.2479
▁voice	-8.2528
▁blue	-8.25293
tre	-8.25466
▁qui	-8.25542
▁it	-8.25745
▁special	-8.25975
▁almost	-8.25975
▁el	-8.26109
ank	-8.26184
▁taking	-8.26243
▁aw	-8.2627
▁sl	-8.26594
▁record	-8.26679
▁exactly	-8.2668
▁half	-8.2669
der	-8.26809
▁sex	-8.26909
ang	-8.27011
▁per	-8.27244
▁feeling	-8.27521
▁mine	-8.27523
▁sometimes	-8.28103
▁anyway	-8.28103
▁ab	-8.28633
▁count	-8.28741
▁ladies	-8.28827
▁city	-8.29137
▁mer	-8.29232
▁song	-8.29307
▁street	-8.29549
▁story	-8.29563
▁top	-8.30218
▁gasps	-8.30291
▁bed	-8.30342
▁send	-8.30389
▁sw	-8.30468
go	-8.30803
▁ph	-8.30896
lic	-8.31534
ical	-8.31779
io	-8.32481
▁john	-8.32501
▁front	-8.32505
▁white	-8.32574
ble	-8.32731
▁bill	-8.33065
▁yell	-8.33253
▁living	-8.33338
▁box	-8.33479
ler	-8.33852
▁out	-8.33863
▁buddy	-8.34014
▁goes	-8.34056
▁girls	-8.34144
for	-8.34206
▁hours	-8.34516
▁exp	-8.34772
▁anymore	-8.34772
▁class	-8.34983
▁arm	-8.35252
▁afraid	-8.35541
ign	-8.35664
▁san	-8.36262
▁hubie	-8.36318
▁reason	-8.36319
ner	-8.3676
▁mess	-8.36812
way	-8.37066
▁truth	-8.37101
▁jesus	-8.37126
▁continues	-8.37248
▁anybody	-8.37885
▁grunting	-8.37885
▁stupid	-8.37885
▁ahead	-8.37966
▁alive	-8.38135
▁inter	-8.3826
▁black	-8.38682
▁cook	-8.38937
▁whoo	-8.38949
▁lock	-8.39075
au	-8.39166
▁max	-8.39267
▁waiting	-8.39363
▁behind	-8.39479
▁teach	-8.39484
▁least	-8.39487
▁red	-8.3965
▁eye	-8.3965
▁report	-8.39715
light	-8.39842
▁maam	-8.40001
▁ran	-8.40256
▁body	-8.40305
port	-8.4047
▁daughter	-8.41098
▁control	-8.41099
▁running	-8.41122
▁slow	-8.41206
ite	-8.4131
▁all	-8.41511
▁butt	-8.41566
▁paint	-8.41621
▁brought	-8.41918
▁hmm	-8.41928
▁carl	-8.42099
▁sur	-8.42255
▁beat	-8.42273
▁ac	-8.42311
▁lll	-8.42427
▁hair	-8.42706
▁magic	-8.42755
less	-8.43631
▁lord	-8.43666
▁fact	-8.43763
▁law	-8.43955
▁pen	-8.4399
▁bitch	-8.44037
ating	-8.44175
▁sun	-8.44729
▁sea	-8.44839
▁asked	-8.45073
▁cur	-8.45079
▁rob	-8.45081
▁pack	-8.4509
▁greg	-8.45299
▁feet	-8.4552
ure	-8.45624
▁pla	-8.45881
▁scared	-8.4613
▁key	-8.46198
gh	-8.4634
▁died	-8.46426
▁ten	-8.46505
▁started	-8.46741
▁wonder	-8.46936
▁dinner	-8.46983
▁write	-8.47044
▁date	-8.47212
ator	-8.47726
▁teddy	-8.47853
com	-8.47913
▁happening	-8.47968
▁arent	-8.4805
▁kick	-8.48143
▁dan	-8.48315
▁amazing	-8.48729
▁important	-8.4873
▁food	-8.48735
▁clean	-8.48738
iff	-8.48771
▁ton	-8.48775
▁ni	-8.49278
▁pop	-8.49452
▁join	-8.49471
▁straight	-8.49614
▁smell	-8.49616
▁also	-8.49652
▁cla	-8.49878
▁buy	-8.49912
▁qu	-8.50071
▁cover	-8.50268
▁french	-8.50507
▁picture	-8.50507
▁police	-8.50509
▁horse	-8.5051
▁married	-8.50512
▁luck	-8.50822
▁laugh	-8.5106
tro	-8.51127
▁gentlemen	-8.51408
▁blow	-8.51616
▁quick	-8.51684
▁office	-8.51716
▁bet	-8.51897
▁freak	-8.52318
▁funny	-8.5245
▁state	-8.52586
▁rose	-8.52596
ition	-8.52647
con	-8.52901
▁sense	-8.53243
ron	-8.5343
▁case	-8.5359
▁sick	-8.53602
▁small	-8.54162
▁outside	-8.54163
▁york	-8.54163
▁children	-8.54164
▁calm	-8.54194
▁land	-8.54293
▁sent	-8.54293
▁gene	-8.54544
▁fo	-8.54591
▁tried	-8.54988
▁along	-8.55098
▁seven	-8.55197
▁earth	-8.55255
▁moving	-8.5526
▁singing	-8.55387
▁trick	-8.55446
▁mmm	-8.55595
▁system	-8.56038
▁hurry	-8.56039
▁couple	-8.5604
qui	-8.56313
▁et	-8.56521
▁rock	-8.56594
▁strong	-8.56992
▁kidding	-8.57023
▁eight	-8.57225
▁dude	-8.57257
▁less	-8.57345
▁tech	-8.57445
▁ann	-8.57583
▁zoey	-8.57952
▁women	-8.57954
▁careful	-8.58125
▁fair	-8.5845
gue	-8.58555
▁kate	-8.58568
▁serious	-8.58624
▁protect	-8.58923
▁leaving	-8.58924
▁glad	-8.58936
▁ooh	-8.58968
▁gold	-8.59042
▁burn	-8.5948
▁colonel	-8.59903
▁cap	-8.60052
▁wake	-8.60145
▁shake	-8.602
▁rep	-8.60484
▁park	-8.6069
ease	-8.60724
▁trouble	-8.60893
▁choice	-8.60896
▁train	-8.60913
▁cold	-8.60932
▁lead	-8.61015
▁ear	-8.61244
tle	-8.61794
▁surprise	-8.61893
▁julia	-8.619
time	-8.6233
▁scream	-8.626
▁low	-8.6266
▁interest	-8.63012
▁form	-8.63043
▁fly	-8.63211
▁stick	-8.63364
▁knock	-8.63924
▁finally	-8.64091
▁rain	-8.64127
▁lang	-8.64141
▁grand	-8.64192
▁queen	-8.64304
▁past	-8.64313
▁lie	-8.6459
▁pain	-8.64613
▁hour	-8.64963
▁broke	-8.6509
▁il	-8.65116
▁hug	-8.65397
▁nu	-8.6565
▁art	-8.65843
▁roy	-8.6585
press	-8.65852
▁either	-8.65997
▁mouth	-8.66003
▁short	-8.66065
▁fix	-8.66213
▁dear	-8.66347
▁fish	-8.6649
ome	-8.66734
▁mark	-8.6682
▁handle	-8.66824
▁captain	-8.67049
▁honest	-8.67054
▁bur	-8.67059
▁dark	-8.67062
▁piece	-8.67062
▁honor	-8.67064
▁hows	-8.67115
▁country	-8.67174
▁deep	-8.67208
lin	-8.6728
▁town	-8.67359
▁wall	-8.67383
▁nine	-8.67389
▁seat	-8.67662
▁sam	-8.67958
▁husband	-8.68113
▁mistake	-8.68113
▁return	-8.68113
▁theyll	-8.68274
▁sub	-8.68285
▁est	-8.68377
▁till	-8.6866
▁tree	-8.68799
▁att	-8.68931
▁arnie	-8.69193
▁round	-8.69307
▁push	-8.69491
ship	-8.69573
▁catch	-8.69691
▁over	-8.69806
unk	-8.69869
▁asking	-8.69897
▁ii	-8.69911
▁absolutely	-8.70275
▁general	-8.70281
▁grace	-8.7029
▁dress	-8.70332
▁fat	-8.70384
ible	-8.70686
▁they	-8.71033
▁gilbert	-8.71374
▁hundred	-8.71374
▁ground	-8.71375
▁ray	-8.71786
▁aii	-8.72076
▁louise	-8.72314
▁bud	-8.72406
▁destroy	-8.72485
▁lady	-8.72547
line	-8.72648
▁cell	-8.72834
▁near	-8.73211
▁cheering	-8.73528
▁security	-8.73609
▁weird	-8.73609
▁ride	-8.74542
land	-8.74666
▁million	-8.74747
▁chatter	-8.74752
▁parents	-8.74755
▁frank	-8.74827
▁card	-8.74844
▁cho	-8.74953
▁shall	-8.75109
▁anywhere	-8.75894
▁entire	-8.75895
▁explain	-8.75895
▁goodbye	-8.75895
▁attack	-8.75896
▁decide	-8.75902
▁treat	-8.75969
▁fear	-8.76584
▁command	-8.77057
▁reach	-8.77074
▁copy	-8.77111
▁wonderful	-8.7712
▁cat	-8.77136
▁bank	-8.77228
▁super	-8.77265
▁building	-8.77835
▁certain	-8.78234
▁charlie	-8.78234
▁perhaps	-8.78234
▁contact	-8.78236
▁forever	-8.78236
▁become	-8.78237
▁green	-8.78258
▁grab	-8.78259
▁proud	-8.78267
▁gay	-8.78305
▁army	-8.78356
▁quite	-8.78472
▁hum	-8.78606
▁suit	-8.78635
▁rat	-8.78879
read	-8.78938
▁tri	-8.79197
▁age	-8.79284
▁chuck	-8.79351
▁comme	-8.79411
▁crawl	-8.79424
▁kevin	-8.79424
▁crowd	-8.79427
▁brian	-8.79523
▁partner	-8.79526
▁jump	-8.79664
▁under	-8.79702
▁boat	-8.7984
▁yall	-8.79862
gger	-8.79928
▁paris	-8.7993
▁american	-8.7995
▁roll	-8.80135
▁enjoy	-8.80629
▁hercules	-8.80629
▁service	-8.80629
▁expect	-8.80632
▁worth	-8.80634
▁charge	-8.80637
▁panting	-8.80647
▁sky	-8.80667
▁iike	-8.80797
▁sad	-8.81685
▁indistinct	-8.81849
▁wedding	-8.8185
▁cross	-8.81862
▁suck	-8.82343
▁painting	-8.8269
▁bou	-8.8285
▁birthday	-8.83083
▁somewhere	-8.83083
▁apart	-8.83083
▁rachel	-8.83084
▁totally	-8.83084
▁imagine	-8.83086
▁fit	-8.831
▁bird	-8.83104
▁road	-8.83109
▁sort	-8.83186
▁warn	-8.8338
▁rich	-8.83721
▁cute	-8.83992
▁able	-8.84052
▁bag	-8.84224
▁lucky	-8.84253
▁groans	-8.84333
▁murder	-8.84334
▁relax	-8.84334
▁strange	-8.84335
▁evil	-8.84338
▁pray	-8.84356
▁born	-8.84366
▁ship	-8.85215
▁brain	-8.85256
▁pour	-8.85558
▁future	-8.856
▁shouting	-8.85601
▁track	-8.85608
▁soft	-8.85615
▁court	-8.85623
▁officer	-8.86446
board	-8.86841
▁goddamn	-8.86881
▁thousand	-8.86881
▁tough	-8.86882
▁zeus	-8.86884
▁tro	-8.87296
▁sell	-8.87637
▁shouldnt	-8.8818
▁engine	-8.88181
▁bobby	-8.88188
▁bro	-8.88258
▁witch	-8.88323
▁theo	-8.88566
▁camera	-8.88795
▁troy	-8.89069
▁possible	-8.89496
▁soldier	-8.895
▁agree	-8.89501
▁guard	-8.89502
▁foot	-8.89585
▁heat	-8.89838
▁rule	-8.89971
▁base	-8.90113
▁tv	-8.90493
▁mm	-8.90732
hoo	-8.90757
▁forgot	-8.9083
▁stuck	-8.90838
▁brave	-8.91041
aught	-8.91451
▁mission	-8.91591
▁kaulder	-8.9218
▁weapon	-8.9218
▁island	-8.92186
▁shell	-8.92205
▁felt	-8.92206
▁agent	-8.92304
▁soul	-8.92498
▁paul	-8.92781
▁offer	-8.92875
ique	-8.93104
▁respect	-8.9355
▁machine	-8.93551
▁radio	-8.93551
▁mountain	-8.93551
▁arrest	-8.93554
▁company	-8.93555
▁scott	-8.93563
▁steal	-8.93592
▁joe	-8.93594
▁vou	-8.93934
▁spend	-8.94028
down	-8.94934
▁fresh	-8.94947
▁hunt	-8.95317
▁mini	-8.95346
▁moon	-8.9542
ncy	-8.9565
▁hole	-8.95664
▁personal	-8.95882
▁code	-8.96093
▁definitely	-8.96347
▁survive	-8.96348
▁adam	-8.96367
▁fool	-8.96524
▁cheer	-8.96606
eux	-8.96779
▁field	-8.96846
ja	-8.96887
▁tired	-8.96901
▁share	-8.97587
▁christ	-8.97695
▁bernie	-8.97776
▁forward	-8.97776
▁dollar	-8.97778
▁linda	-8.97786
▁where	-8.97852
▁quiet	-8.98043
▁ver	-8.98211
▁fan	-8.98309
▁vee	-8.98428
▁breathing	-8.98793
▁hide	-8.98868
▁sophie	-8.99225
▁history	-8.99225
▁middle	-8.99225
▁asshole	-8.99226
▁situation	-8.99227
▁yep	-8.99228
▁glass	-8.99229
▁burger	-8.99235
▁dancing	-8.99236
▁chris	-8.99367
ette	-8.9951
▁paper	-8.99737
▁pal	-8.99882
▁table	-9.00252
▁boss	-9.00259
▁tour	-9.00315
▁college	-9.00696
▁hospital	-9.00696
▁victor	-9.00696
▁study	-9.00696
▁direct	-9.00698
▁alarm	-9.00701
▁crack	-9.00705
▁visit	-9.00793
▁finger	-9.00893
▁unless	-9.00917
▁katniss	-9.02188
▁attention	-9.02189
▁beeping	-9.02189
▁animal	-9.0219
▁smart	-9.0219
▁peace	-9.02195
▁jj	-9.02345
▁seriously	-9.02657
▁bri	-9.02761
▁force	-9.02847
▁fill	-9.03287
▁except	-9.03704
▁foreman	-9.03705
▁werent	-9.03711
▁tina	-9.03758
▁realize	-9.03906
▁crap	-9.04133
▁raise	-9.04138
▁race	-9.04387
▁ali	-9.04456
qua	-9.04756
▁travel	-9.05242
▁gift	-9.05242
▁computer	-9.05247
▁north	-9.05249
▁floor	-9.05255
▁horn	-9.05324
▁breathe	-9.05347
▁message	-9.05421
▁trip	-9.05843
▁gas	-9.05999
▁dangerous	-9.06804
▁restaurant	-9.06804
▁sebastian	-9.06804
▁russian	-9.06805
▁charles	-9.06805
▁faith	-9.06812
▁draw	-9.06815
▁bigger	-9.06877
▁nick	-9.07132
work	-9.07692
▁taste	-9.07714
▁shh	-9.08169
▁ice	-9.08347
▁obvious	-9.08392
▁sheiiey	-9.08392
▁across	-9.08392
▁photo	-9.08393
▁lucas	-9.08393
▁marshal	-9.08396
▁worse	-9.08397
▁punch	-9.08397
▁wood	-9.08397
▁truck	-9.08397
▁crash	-9.08399
▁paige	-9.084
▁melon	-9.08401
▁uncle	-9.08408
▁crying	-9.08462
▁dying	-9.08479
▁ginger	-9.08557
▁sitting	-9.08604
▁completely	-9.08617
▁test	-9.0987
▁off	-9.09882
▁jimmy	-9.10005
▁uhhuh	-9.10005
▁folks	-9.10005
▁tommy	-9.10005
▁group	-9.10008
▁screw	-9.1001
▁appreciate	-9.11644
▁bruce	-9.11644
▁girlfriend	-9.11644
▁mmhmm	-9.11644
▁awesome	-9.11644
▁worried	-9.11644
▁summer	-9.11644
▁patient	-9.11644
▁prison	-9.11646
▁others	-9.11646
▁chief	-9.1165
▁weii	-9.1165
▁remind	-9.11652
▁master	-9.1177
▁robot	-9.11788
▁bow	-9.11794
▁early	-9.12155
▁serve	-9.12158
▁enter	-9.12479
▁spent	-9.1254
▁america	-9.12577
▁toronto	-9.13311
▁ghost	-9.13313
▁giving	-9.13314
▁window	-9.13315
▁walter	-9.1332
▁austin	-9.13322
▁present	-9.13334
▁loud	-9.13354
▁jules	-9.13384
▁moses	-9.13426
▁single	-9.13447
▁band	-9.13836
▁shop	-9.1384
▁joke	-9.13848
▁carry	-9.14141
▁west	-9.14342
▁jake	-9.14343
▁incredibl	-9.15005
▁yesterday	-9.15005
▁square	-9.15007
▁fault	-9.1501
▁begin	-9.15013
▁space	-9.15019
▁devil	-9.1502
▁atom	-9.15022
▁extra	-9.15039
▁rather	-9.15054
off	-9.15404
▁marry	-9.1558
▁clothes	-9.1673
▁monsieur	-9.1673
▁washington	-9.1673
▁simple	-9.16731
▁donna	-9.16735
▁bomb	-9.1675
▁blind	-9.16751
▁movie	-9.1676
▁corner	-9.16825
▁east	-9.16851
▁miles	-9.16928
▁bless	-9.17005
▁spot	-9.17294
▁tight	-9.17343
▁fail	-9.17816
▁heh	-9.18426
▁halloween	-9.18484
▁heavy	-9.18484
▁target	-9.18484
▁driving	-9.18486
▁swear	-9.18491
▁angel	-9.18503
▁add	-9.18675
▁drone	-9.18806
ball	-9.19114
▁neck	-9.19179
▁student	-9.2027
▁vincent	-9.2027
▁commit	-9.2027
▁alright	-9.20271
▁peeta	-9.2028
▁doyle	-9.2029
▁caught	-9.20447
▁busy	-9.20568
room	-9.20881
▁account	-9.22088
▁bruno	-9.22088
▁bastard	-9.22089
▁chicken	-9.22089
▁major	-9.2209
▁plus	-9.22093
▁invest	-9.22097
▁howd	-9.22111
▁risk	-9.22217
▁final	-9.2367
▁commun	-9.2394
▁congratulations	-9.2394
▁sudden	-9.2394
▁hungry	-9.2394
▁smile	-9.23943
▁ronny	-9.23943
▁upon	-9.23952
▁football	-9.23954
▁chuckling	-9.24037
▁breath	-9.24369
▁prim	-9.24431
▁hotel	-9.24519
▁lying	-9.2481
▁paid	-9.24899
▁nervous	-9.25827
▁bathroom	-9.25827
▁south	-9.25843
▁self	-9.25853
▁stole	-9.26052
▁lisa	-9.26161
▁wash	-9.2622
▁afternoon	-9.2775
▁terrible	-9.2775
▁groaning	-9.2775
▁cough	-9.27752
▁lunch	-9.27759
▁position	-9.27762
▁papa	-9.27811
▁dirt	-9.28117
▁hero	-9.28419
house	-9.29075
gging	-9.29624
▁accident	-9.2971
▁boyfriend	-9.2971
▁chocolate	-9.2971
▁disappear	-9.2971
▁english	-9.2971
▁goldmember	-9.2971
▁kept	-9.29711
▁buzz	-9.29712
▁heaven	-9.29712
▁cheese	-9.29712
▁connect	-9.29714
▁favorite	-9.29733
▁falco	-9.29747
▁arriv	-9.29781
▁yard	-9.29782
▁swim	-9.29961
▁weekend	-9.2999
duct	-9.30033
▁build	-9.30399
head	-9.3083
load	-9.31395
▁kitchen	-9.3171
▁comfort	-9.31711
▁female	-9.31711
▁quarter	-9.31711
▁strike	-9.31714
▁quoi	-9.31715
▁judge	-9.31717
▁cosette	-9.31721
▁wheel	-9.31731
▁rudy	-9.31758
hrer	-9.31856
▁allow	-9.31923
▁notice	-9.31969
▁usual	-9.32507
▁excited	-9.33751
▁correct	-9.33751
▁double	-9.33753
▁deliver	-9.33754
▁debora	-9.33756
▁search	-9.33756
▁whatd	-9.3376
▁crime	-9.33769
▁ellis	-9.3377
▁grandpa	-9.33783
ified	-9.3379
▁color	-9.33823
▁hasnt	-9.33823
▁loose	-9.33825
▁giri	-9.33965
field	-9.35105
▁electric	-9.35835
▁bullshit	-9.35835
▁pleasure	-9.35835
▁sacrifice	-9.35835
▁beyond	-9.35835
▁throat	-9.35836
▁beeps	-9.35838
▁clock	-9.35841
▁echo	-9.35845
▁level	-9.35846
▁lawyer	-9.35858
▁brianna	-9.35972
▁drunk	-9.35978
▁shoe	-9.36029
well	-9.36287
▁complete	-9.3767
▁announce	-9.37962
▁private	-9.37962
▁forgive	-9.37964
▁eddie	-9.37964
▁bridge	-9.37966
▁block	-9.37969
▁weak	-9.37969
▁julie	-9.37972
▁rosie	-9.38045
▁artist	-9.38127
▁continue	-9.39716
▁audience	-9.40136
▁object	-9.40136
▁launch	-9.40136
▁jasmine	-9.40136
▁thunder	-9.40139
▁brown	-9.40142
▁type	-9.40142
▁egg	-9.40159
▁film	-9.40164
▁operation	-9.40197
▁wild	-9.40217
▁richard	-9.40262
▁hitler	-9.40269
▁honk	-9.40313
q	-9.4037
▁information	-9.42358
▁instead	-9.42358
▁lambert	-9.42358
▁consider	-9.42359
▁deserve	-9.4236
▁stella	-9.42361
▁distance	-9.42362
▁beach	-9.42371
▁third	-9.42376
▁oui	-9.42403
graph	-9.42411
▁settle	-9.42456
ify	-9.42576
▁beckett	-9.44631
▁decision	-9.44631
▁sweetheart	-9.44631
▁discuss	-9.44631
▁memory	-9.44632
ology	-9.44632
▁darling	-9.44636
▁built	-9.44645
▁guest	-9.44646
▁larry	-9.44653
▁terry	-9.4466
▁monster	-9.4468
▁chose	-9.46045
▁favor	-9.46934
▁twenty	-9.46957
▁borrow	-9.46957
▁impossible	-9.46957
▁izzy	-9.46957
▁suggest	-9.46957
▁coffee	-9.46957
▁conversation	-9.46957
▁escape	-9.46957
▁government	-9.46957
▁regret	-9.46957
▁organ	-9.46957
▁normal	-9.46957
▁pressure	-9.46957
▁spanish	-9.46958
▁issue	-9.4696
▁remain	-9.46963
▁prepare	-9.46963
▁zeta	-9.46968
▁roof	-9.46971
▁coach	-9.46975
▁center	-9.46985
▁diane	-9.46996
print	-9.48223
▁andrew	-9.49338
▁admit	-9.49338
▁jaeger	-9.49338
▁toward	-9.4934
▁within	-9.49341
▁idiot	-9.49343
▁scoffs	-9.49343
▁sparta	-9.49346
▁candy	-9.49347
▁shirt	-9.49347
▁liesel	-9.49367
▁roger	-9.49372
▁stopped	-9.49443
▁slip	-9.49623
▁store	-9.49852
▁medi	-9.50417
▁confirm	-9.51777
▁approach	-9.51777
▁experience	-9.51777
▁mmmhmm	-9.51777
▁upstairs	-9.51777
▁exhales	-9.51777
▁reaiiy	-9.51777
▁twice	-9.51777
▁belong	-9.51778
▁champion	-9.51778
▁besides	-9.51778
▁violet	-9.51779
▁focus	-9.51779
▁bullet	-9.51779
▁prince	-9.5178
▁medical	-9.51784
▁video	-9.51785
▁cheap	-9.51789
▁gentle	-9.51789
▁tower	-9.51807
▁andy	-9.51884
▁apologize	-9.54277
▁difference	-9.54277
▁program	-9.54277
▁taylor	-9.54277
▁bought	-9.54277
▁lloyd	-9.54277
▁ritchie	-9.54278
▁bottle	-9.54278
▁engage	-9.54281
▁gasping	-9.5429
▁dolan	-9.54294
▁amara	-9.54294
▁snow	-9.54304
▁sold	-9.54339
▁invite	-9.5435
▁waste	-9.54882
▁tire	-9.56123
town	-9.562
▁purpose	-9.56841
▁district	-9.56841
▁upset	-9.56841
▁felix	-9.56841
▁access	-9.56842
▁support	-9.56842
▁battle	-9.56843
▁thatll	-9.56844
▁spirit	-9.56845
▁shadow	-9.56845
▁pretend	-9.56847
▁bother	-9.56854
▁club	-9.56855
▁beginning	-9.56855
▁design	-9.56881
▁nuts	-9.56942
▁area	-9.56949
▁everywhere	-9.59472
▁relationship	-9.59472
▁ridiculous	-9.59472
▁shouldve	-9.59472
▁spiderman	-9.59472
▁concern	-9.59473
▁enemy	-9.59473
▁nurse	-9.59474
▁jacob	-9.59475
▁switch	-9.59475
▁christmas	-9.59478
▁bunch	-9.59482
▁spoke	-9.59482
▁lonely	-9.59484
▁cooper	-9.59488
▁fuck	-9.59488
▁helen	-9.59574
▁whip	-9.59627
▁excellent	-9.62175
▁official	-9.62175
▁london	-9.62176
▁address	-9.62176
▁bleeding	-9.62177
▁brief	-9.62183
▁flash	-9.62188
▁threat	-9.62191
▁truly	-9.62199
▁rope	-9.62384
▁cheat	-9.62553
▁spare	-9.6286
▁lovin	-9.63517
▁introduce	-9.64953
▁rebecca	-9.64953
▁success	-9.64953
▁suspect	-9.64953
▁civil	-9.64953
▁wrote	-9.64955
▁writing	-9.64955
▁detail	-9.64959
▁client	-9.64959
▁repeat	-9.64966
▁nerve	-9.64967
▁daesu	-9.64968
▁price	-9.64973
▁retire	-9.64974
▁freeze	-9.65
▁held	-9.65002
▁china	-9.65014
▁advance	-9.6781
▁asleep	-9.6781
▁circle	-9.6781
▁dinosaur	-9.6781
▁emergency	-9.6781
▁innocent	-9.6781
▁nowhere	-9.6781
▁strength	-9.6781
▁became	-9.6781
▁public	-9.67811
▁glenn	-9.67811
▁climb	-9.67813
▁spencer	-9.67815
▁empty	-9.67816
▁zack	-9.67816
▁gabe	-9.67821
▁german	-9.67822
▁tessa	-9.6783
▁credit	-9.67848
▁shark	-9.67849
weight	-9.68409
tric	-9.69044
▁custom	-9.70751
▁especially	-9.70751
▁fischoeder	-9.70751
▁genius	-9.70751
▁practice	-9.70751
▁stauffenberg	-9.70751
▁common	-9.70751
▁perform	-9.70752
▁maureen	-9.70753
▁nigel	-9.70754
▁focker	-9.70757
▁location	-9.70758
▁beast	-9.70785
▁fruit	-9.7079
▁chip	-9.70874
▁accept	-9.73781
▁advice	-9.73781
▁breakfast	-9.73781
▁cowboy	-9.73781
▁knox	-9.73781
▁shoulder	-9.73781
▁vegas	-9.73782
▁exciting	-9.73782
▁doubt	-9.73782
▁beauty	-9.73782
▁nightmare	-9.73784
▁witness	-9.73785
▁jorge	-9.73787
▁babies	-9.73789
▁regard	-9.73792
▁worst	-9.73797
▁teeth	-9.73806
▁roaring	-9.73817
▁steve	-9.7417
▁applause	-9.76906
▁kaiju	-9.76906
▁unfortunate	-9.76906
▁weather	-9.76906
▁bernard	-9.76907
▁sobbing	-9.76907
▁discover	-9.76907
▁neither	-9.76907
▁percent	-9.76909
▁receive	-9.76911
▁mount	-9.76913
▁online	-9.76914
▁appear	-9.76919
▁emily	-9.76938
▁chanting	-9.76944
▁lift	-9.76978
▁somethin	-9.79721
▁nothin	-9.79731
▁apparently	-9.80132
▁develop	-9.80132
▁foxxy	-9.80132
▁miracle	-9.80132
▁measure	-9.80133
▁collect	-9.80133
▁attract	-9.80134
▁dragon	-9.80134
▁generation	-9.80135
▁request	-9.80136
▁smoke	-9.8014
▁damage	-9.80142
▁thief	-9.80149
▁cousin	-9.80153
▁toast	-9.80168
▁demand	-9.80184
▁explosive	-9.83466
▁heavily	-9.83466
▁inspector	-9.83466
▁involved	-9.83466
▁isabelle	-9.83466
▁japanese	-9.83466
▁military	-9.83466
▁possibly	-9.83466
▁attempt	-9.83466
▁jersey	-9.83466
▁schedule	-9.83466
▁speech	-9.83468
▁choose	-9.83469
▁secure	-9.8347
▁anchor	-9.8347
▁release	-9.83473
▁daryn	-9.83477
▁daniel	-9.8348
▁sword	-9.83481
▁ugh	-9.83483
▁chili	-9.83491
▁opera	-9.84557
▁celebrate	-9.86914
▁difficult	-9.86914
▁embarrass	-9.86914
▁fantastic	-9.86914
▁rumbling	-9.86914
▁finnick	-9.86914
▁ought	-9.86914
▁wouid	-9.86914
▁plenty	-9.86914
▁england	-9.86915
▁nargle	-9.86915
▁drown	-9.86923
▁stories	-9.86923
▁logan	-9.86923
▁sweat	-9.86936
▁pilot	-9.86936
▁split	-9.86941
▁blame	-9.86989
▁defense	-9.90485
▁department	-9.90485
▁effect	-9.90485
▁knife	-9.90485
▁olivia	-9.90485
▁otherwise	-9.90485
▁research	-9.90485
▁written	-9.90485
▁transfer	-9.90485
▁perseus	-9.90486
▁chinese	-9.90486
▁abandon	-9.90486
▁wilson	-9.90486
▁gather	-9.90487
▁marriage	-9.90487
▁league	-9.90488
▁wound	-9.90489
▁whistle	-9.9049
▁angry	-9.90495
▁sugar	-9.905
▁crush	-9.90507
homme	-9.90635
▁text	-9.9086
▁bottom	-9.94189
▁opportunity	-9.94189
▁pregnant	-9.94189
▁professional	-9.94189
▁stomach	-9.94189
▁whirring	-9.94189
▁burlington	-9.94189
▁whoever	-9.94189
▁mirror	-9.94189
▁psych	-9.9419
▁rough	-9.94191
▁often	-9.94192
▁skip	-9.94193
▁insane	-9.94193
▁kenton	-9.94196
▁louis	-9.94786
destruct	-9.98035
▁afford	-9.98035
▁ambrosia	-9.98035
▁dramatic	-9.98035
▁familiar	-9.98035
▁footsteps	-9.98035
▁leonidas	-9.98035
▁saturday	-9.98035
▁somehow	-9.98035
▁unbelievable	-9.98035
▁vehicle	-9.98035
▁challenge	-9.98035
▁central	-9.98035
▁soccer	-9.98035
▁disgust	-9.98036
▁medicine	-9.98036
▁senior	-9.98036
▁assistant	-9.98036
▁shrink	-9.98036
▁drift	-9.98037
▁squirl	-9.98037
▁sunday	-9.98037
▁impressive	-9.98038
▁skank	-9.98039
▁natural	-9.98039
▁famous	-9.9804
▁suppose	-10.0106
▁amount	-10.0204
▁eisenheim	-10.0204
▁evidence	-10.0204
▁frazier	-10.0204
▁journey	-10.0204
▁michael	-10.0204
▁sydney	-10.0204
▁thornton	-10.0204
▁criminal	-10.0204
▁iittie	-10.0204
▁insurance	-10.0204
▁interrupt	-10.0204
▁dylan	-10.0204
▁interview	-10.0204
▁screech	-10.0204
▁shield	-10.0204
▁british	-10.0204
▁equal	-10.0204
▁dubois	-10.0204
▁ugly	-10.0204
▁creature	-10.0204
▁peanut	-10.0204
▁berlin	-10.0204
skull	-10.0205
ability	-10.0207
yearold	-10.0282
▁affect	-10.062
▁brilliant	-10.062
▁cherevin	-10.062
▁elevator	-10.062
▁horrible	-10.062
▁pizza	-10.062
ö	-11.713
