<unk>	0
<s>	0
</s>	0
s	-3.67592
▁im	-4.46953
▁dont	-4.59333
▁know	-4.6481
▁go	-4.78895
▁get	-4.82834
▁right	-4.94388
▁come	-4.97775
▁like	-5.04212
▁youre	-5.05623
▁got	-5.06198
▁oh	-5.08638
▁one	-5.12156
▁yeah	-5.13567
▁well	-5.15658
ing	-5.23579
▁thats	-5.24556
▁na	-5.24727
▁okay	-5.31858
▁good	-5.35671
▁see	-5.35723
▁want	-5.46736
ed	-5.47859
▁back	-5.48153
▁gon	-5.50963
▁think	-5.54031
▁yes	-5.54207
▁us	-5.54879
▁look	-5.60726
▁hey	-5.60956
▁going	-5.62438
▁hes	-5.63337
▁take	-5.63474
▁time	-5.68114
▁man	-5.68829
▁cant	-5.7415
▁	-5.74699
d	-5.74939
▁ill	-5.74965
▁l	-5.83271
▁tell	-5.8749
▁need	-5.87565
▁say	-5.90155
▁would	-5.91482
▁way	-5.95855
▁please	-5.9605
▁could	-6.00721
▁lets	-6.01551
▁sorry	-6.02153
▁never	-6.02261
▁sir	-6.02357
▁make	-6.03078
▁thank	-6.05976
▁really	-6.06474
▁something	-6.07862
▁let	-6.08729
▁two	-6.13439
▁whats	-6.13964
▁love	-6.14503
▁theres	-6.1685
▁didnt	-6.16957
▁little	-6.16958
▁god	-6.1954
▁give	-6.21079
▁mean	-6.2161
▁people	-6.22816
▁ive	-6.23767
y	-6.25009
▁wait	-6.27126
▁thing	-6.2923
▁uh	-6.2988
▁mr	-6.30626
e	-6.32951
ly	-6.33565
er	-6.34616
▁stop	-6.40005
▁said	-6.41349
▁help	-6.41627
▁keep	-6.42396
▁theyre	-6.4343
▁shes	-6.45584
▁home	-6.47522
▁work	-6.48628
▁new	-6.5011
▁much	-6.50432
▁find	-6.50942
▁even	-6.51542
▁life	-6.53051
▁great	-6.53198
▁first	-6.56122
▁day	-6.56876
▁call	-6.56954
▁sure	-6.57048
▁still	-6.57226
▁put	-6.58337
▁name	-6.5948
▁nothing	-6.61192
▁must	-6.62109
▁away	-6.6237
▁last	-6.62946
▁maybe	-6.64316
▁night	-6.64476
▁hell	-6.65236
▁anything	-6.65319
▁stay	-6.68465
▁guys	-6.68699
▁ta	-6.6897
▁talk	-6.69192
▁leave	-6.69873
▁thought	-6.70807
▁always	-6.72594
▁around	-6.72597
▁ever	-6.73935
▁three	-6.74118
▁kill	-6.74758
▁coming	-6.74791
in	-6.75632
▁hi	-6.75891
▁long	-6.77074
▁world	-6.77202
▁wan	-6.78154
▁guy	-6.78697
▁everything	-6.79056
▁youve	-6.79519
▁place	-6.79839
▁told	-6.80681
▁nice	-6.80704
▁every	-6.81108
▁wont	-6.81384
▁things	-6.81933
▁move	-6.82458
▁years	-6.82463
▁listen	-6.85438
▁dad	-6.85918
▁baby	-6.86209
▁hear	-6.86765
▁show	-6.87411
▁better	-6.88211
▁hold	-6.88948
▁youll	-6.89225
▁big	-6.89417
▁id	-6.89552
▁hello	-6.90353
▁doesnt	-6.90761
▁may	-6.90821
▁done	-6.91287
r	-6.94456
t	-6.94683
▁remember	-6.94838
▁left	-6.95533
▁believe	-6.95754
▁fine	-6.95773
▁made	-6.95857
▁woman	-6.97176
▁understand	-6.97726
▁ok	-6.98566
▁real	-6.98784
▁old	-6.99254
▁men	-6.99311
▁ready	-7.0007
▁feel	-7.01557
▁enough	-7.01975
▁lot	-7.02031
▁might	-7.02557
▁dead	-7.04606
▁house	-7.04614
▁bad	-7.04782
o	-7.0599
▁car	-7.06106
es	-7.06339
▁girl	-7.06737
▁son	-7.06823
n	-7.07612
▁watch	-7.07921
▁another	-7.09175
▁shit	-7.09472
▁door	-7.0954
▁kind	-7.10035
▁lm	-7.10109
▁father	-7.10584
▁someone	-7.11695
▁ask	-7.11713
▁fight	-7.12498
al	-7.13534
▁boy	-7.13838
▁thanks	-7.14515
▁today	-7.14608
▁run	-7.15903
▁friend	-7.15982
▁try	-7.16302
▁getting	-7.16436
▁bring	-7.16442
▁wrong	-7.16933
▁talking	-7.1745
▁room	-7.17694
▁best	-7.1797
▁live	-7.18421
▁wanted	-7.18528
▁weve	-7.1863
a	-7.18896
▁money	-7.19315
▁seen	-7.20198
▁isnt	-7.20701
▁looking	-7.22618
▁die	-7.22815
▁excuse	-7.22817
▁sam	-7.2318
▁next	-7.23893
▁playing	-7.23909
▁face	-7.23934
▁care	-7.24057
▁um	-7.24363
▁mind	-7.24642
▁tonight	-7.25345
▁miss	-7.25514
▁music	-7.25983
▁happened	-7.26727
▁trying	-7.27036
▁huh	-7.27564
▁turn	-7.27978
▁war	-7.28289
▁head	-7.28533
▁came	-7.29132
ll	-7.29577
▁aint	-7.30215
▁cause	-7.31048
▁found	-7.31327
▁job	-7.31382
▁mom	-7.3214
▁hand	-7.32471
▁course	-7.32549
▁hope	-7.32597
▁together	-7.3294
c	-7.34123
▁open	-7.34396
▁meet	-7.34402
▁family	-7.34931
▁end	-7.35677
▁else	-7.35741
▁everybody	-7.35798
m	-7.35863
▁without	-7.36145
▁whole	-7.36151
▁called	-7.36238
p	-7.36393
▁f	-7.36852
▁chuckles	-7.3709
▁many	-7.37589
▁gone	-7.3865
g	-7.39341
▁alone	-7.39459
▁morning	-7.39466
▁mother	-7.39611
▁happy	-7.3988
▁tomorrow	-7.3988
▁damn	-7.39887
▁lost	-7.3989
▁yet	-7.39893
▁heart	-7.40599
▁fire	-7.4061
▁matter	-7.40945
▁school	-7.41164
▁friends	-7.41278
▁john	-7.42449
▁whoa	-7.42466
▁side	-7.42481
▁em	-7.42877
▁five	-7.42928
▁saw	-7.43762
▁second	-7.43983
▁four	-7.44207
▁speak	-7.44329
▁knew	-7.45982
▁days	-7.46026
▁beautiful	-7.47797
▁went	-7.478
▁city	-7.47814
▁dr	-7.48545
▁hard	-7.48796
▁late	-7.49036
▁phone	-7.49615
▁actually	-7.49655
▁un	-7.50415
i	-7.50531
▁story	-7.50586
▁ago	-7.51063
▁sighs	-7.51572
l	-7.51847
▁break	-7.51993
▁whos	-7.52665
▁far	-7.53177
▁already	-7.5393
▁eat	-7.54424
▁wouldnt	-7.5546
▁killed	-7.55829
▁guess	-7.55896
u	-7.55908
▁start	-7.56022
▁shut	-7.5639
▁president	-7.56393
▁kid	-7.56477
▁change	-7.56702
▁play	-7.56844
▁took	-7.57396
▁ring	-7.57398
▁eyes	-7.58271
or	-7.58342
▁frank	-7.58383
b	-7.59019
▁minutes	-7.59084
▁idea	-7.59114
▁case	-7.59235
▁used	-7.59309
▁hit	-7.59529
▁close	-7.59732
▁death	-7.60468
▁heard	-7.60609
▁laughing	-7.60669
▁ah	-7.60796
▁wasnt	-7.60986
▁easy	-7.6099
▁inside	-7.61513
▁problem	-7.61729
▁use	-7.62072
▁welcome	-7.63099
▁roy	-7.63349
▁everyone	-7.63408
▁pretty	-7.63631
▁part	-7.63956
▁happen	-7.64603
▁re	-7.64629
▁lady	-7.64734
▁anyone	-7.65253
▁tommy	-7.65255
▁bit	-7.65432
▁saying	-7.65542
▁shot	-7.65602
▁power	-7.6618
▁lose	-7.66183
▁sit	-7.66662
▁stand	-7.66758
▁nobody	-7.66902
▁hurt	-7.67307
▁line	-7.67424
▁looks	-7.677
ers	-7.67865
▁hands	-7.67956
▁exactly	-7.6803
▁minute	-7.68406
▁read	-7.6843
▁young	-7.69539
▁check	-7.69588
▁youd	-7.69752
▁walk	-7.69928
▁wish	-7.70199
▁safe	-7.70551
▁company	-7.70857
▁havent	-7.70857
▁worry	-7.70857
▁pay	-7.71537
on	-7.71954
▁alive	-7.72022
▁lord	-7.72092
▁half	-7.72589
▁stuff	-7.72601
▁since	-7.73191
le	-7.73416
▁mine	-7.73746
▁black	-7.73764
▁number	-7.7435
▁set	-7.7495
▁wheres	-7.75088
▁save	-7.75264
▁cut	-7.75312
▁water	-7.75624
▁control	-7.76183
▁crazy	-7.76184
▁word	-7.7683
▁moment	-7.76861
▁rest	-7.77049
ve	-7.77188
▁bob	-7.77405
▁afraid	-7.77407
▁wants	-7.77535
▁soon	-7.77856
▁shall	-7.78683
▁miles	-7.78842
▁promise	-7.79056
▁true	-7.7927
▁bye	-7.79272
▁couldnt	-7.79339
▁supposed	-7.79349
▁chance	-7.79387
▁high	-7.79476
▁trust	-7.79486
▁taking	-7.79915
▁boys	-7.80172
▁waiting	-7.8043
▁six	-7.80535
▁voice	-7.81317
st	-7.8134
▁kids	-7.82365
▁ass	-7.82998
▁gentlemen	-7.83106
▁says	-7.83124
▁working	-7.83159
▁sleep	-7.83888
▁doctor	-7.83983
▁clear	-7.84028
est	-7.84112
▁frodo	-7.84416
k	-7.8487
▁ten	-7.85009
▁honey	-7.85081
h	-7.8534
▁somebody	-7.85745
▁pull	-7.86139
▁wow	-7.8642
▁question	-7.8669
▁behind	-7.87092
▁whatever	-7.87092
▁they	-7.87696
▁forget	-7.87755
▁wife	-7.87772
▁year	-7.88089
▁plan	-7.88676
▁deal	-7.88782
▁ha	-7.89381
▁free	-7.89794
▁party	-7.90098
▁light	-7.90262
▁white	-7.90338
▁person	-7.90453
▁probably	-7.9054
▁gave	-7.90548
▁brother	-7.90936
▁full	-7.91053
▁goes	-7.91183
▁almost	-7.91245
▁point	-7.9168
▁heres	-7.91954
▁till	-7.91978
▁laughs	-7.92543
▁win	-7.92553
▁country	-7.92673
▁king	-7.92734
▁later	-7.9283
▁answer	-7.92875
▁radio	-7.93389
▁shoot	-7.93576
▁hang	-7.93633
▁hours	-7.93666
▁blood	-7.93926
▁send	-7.94319
▁b	-7.94468
▁deep	-7.94485
▁mrs	-7.94742
▁makes	-7.95049
▁though	-7.95473
▁ride	-7.96274
▁means	-7.96599
▁pick	-7.96863
▁paul	-7.96967
▁children	-7.97064
f	-7.97151
en	-7.97381
▁continues	-7.97402
▁thinking	-7.9776
▁p	-7.9804
▁fun	-7.98362
re	-7.98461
▁important	-7.98574
▁roger	-7.98581
▁air	-7.98605
▁game	-7.99207
▁business	-7.99337
▁women	-7.99338
▁fear	-7.9934
▁gun	-7.99908
▁th	-7.99926
▁york	-8.00109
▁ho	-8.0063
▁follow	-8.00705
▁husband	-8.00793
ion	-8.01058
▁trouble	-8.01568
us	-8.01586
▁front	-8.01665
▁died	-8.01692
▁peter	-8.01733
▁fall	-8.0185
it	-8.01866
▁land	-8.024
▁daddy	-8.02454
▁tony	-8.02464
▁rocky	-8.02643
▁ship	-8.02659
▁rock	-8.02711
▁started	-8.03109
▁in	-8.03154
ic	-8.04117
▁hurry	-8.0485
▁least	-8.0485
▁grunts	-8.05146
▁truth	-8.05663
▁making	-8.05666
▁running	-8.05668
▁earth	-8.0567
▁different	-8.06483
▁jesus	-8.0649
▁drink	-8.06834
lng	-8.06998
▁anymore	-8.07309
el	-8.07945
▁claire	-8.08143
▁food	-8.08143
▁outside	-8.08146
▁week	-8.08217
▁team	-8.0827
man	-8.08348
▁buddy	-8.08984
▁daughter	-8.09087
▁also	-8.09832
▁boss	-8.09838
▁dog	-8.10081
▁met	-8.10165
▁hate	-8.10208
▁slow	-8.10507
▁professor	-8.10685
▁c	-8.10733
▁tried	-8.10746
▁sign	-8.11233
▁times	-8.11377
▁girls	-8.11508
▁future	-8.11548
▁max	-8.1155
▁general	-8.12417
▁horse	-8.12617
▁book	-8.12668
▁cooper	-8.12956
▁luck	-8.13103
▁goodbye	-8.13294
▁feet	-8.13303
▁order	-8.13993
▁along	-8.14177
▁anyway	-8.14179
▁captain	-8.14179
▁arent	-8.14182
▁body	-8.14186
▁grunting	-8.14249
▁cheering	-8.14283
▁asked	-8.14438
▁sometimes	-8.14547
▁news	-8.1495
▁touch	-8.15001
▁d	-8.15019
▁happening	-8.15044
▁dear	-8.1507
▁couple	-8.15077
▁buy	-8.15697
▁quiet	-8.15795
▁ladies	-8.15979
▁married	-8.1598
▁hmm	-8.16029
▁a	-8.16335
▁lives	-8.16341
▁dark	-8.16871
▁major	-8.16882
▁quite	-8.16949
▁eye	-8.17157
▁needs	-8.17278
▁wear	-8.17301
▁drive	-8.17427
▁stupid	-8.17799
▁brought	-8.178
▁top	-8.17954
▁special	-8.18708
▁de	-8.19087
▁bed	-8.19337
▁cover	-8.19608
▁living	-8.1967
▁seem	-8.19722
▁human	-8.20039
▁fat	-8.20165
▁fast	-8.20327
▁itll	-8.20623
▁pop	-8.2065
▁quick	-8.21198
▁song	-8.21211
▁strong	-8.21338
▁harold	-8.21556
▁leaving	-8.21556
▁english	-8.21556
▁khan	-8.21558
▁murder	-8.21871
▁master	-8.22008
▁small	-8.22342
ies	-8.22483
▁seven	-8.22535
▁catch	-8.22539
▁army	-8.2263
▁scared	-8.22658
▁dream	-8.22899
▁reason	-8.2296
▁happens	-8.22974
▁telling	-8.23178
▁past	-8.2323
ar	-8.23863
▁breathe	-8.24088
▁count	-8.24172
▁office	-8.24316
▁sound	-8.24571
▁hot	-8.24616
▁secret	-8.24995
▁cool	-8.25012
▁perfect	-8.25279
▁fly	-8.25421
▁moon	-8.26008
▁dance	-8.26233
able	-8.26378
▁pain	-8.26422
▁ahead	-8.26468
▁taken	-8.2663
less	-8.26654
▁space	-8.27464
▁anybody	-8.27469
▁neil	-8.27471
▁hour	-8.28141
▁command	-8.28246
▁police	-8.28444
▁straight	-8.28454
▁hows	-8.2849
▁road	-8.28492
▁mama	-8.28603
▁yo	-8.28712
▁sister	-8.29148
▁sing	-8.29358
▁join	-8.29422
▁super	-8.29484
▁child	-8.29506
▁dinner	-8.29522
▁able	-8.29871
▁write	-8.3025
▁fact	-8.30412
▁comes	-8.30511
▁pass	-8.30563
ch	-8.30668
▁step	-8.30808
▁an	-8.30829
▁lt	-8.31025
▁seems	-8.31216
▁ya	-8.31276
▁mad	-8.31518
▁gasps	-8.31743
▁sent	-8.32115
▁french	-8.32644
▁m	-8.33233
▁t	-8.33423
▁red	-8.33609
▁across	-8.33753
▁none	-8.33806
▁return	-8.33871
v	-8.33994
▁lts	-8.34247
▁german	-8.34645
▁relax	-8.3484
▁hair	-8.34852
▁throw	-8.35325
▁flight	-8.35701
▁cold	-8.35951
▁calling	-8.36877
▁clean	-8.36991
▁wake	-8.37049
▁drop	-8.3705
▁shouldnt	-8.37057
▁bet	-8.371
▁bitch	-8.37109
▁crowd	-8.37126
ity	-8.37407
ie	-8.37968
▁machine	-8.37991
▁lie	-8.38056
▁christmas	-8.38174
▁history	-8.38174
▁jet	-8.38185
w	-8.38479
▁knows	-8.38553
▁teach	-8.38562
▁glad	-8.39123
▁fool	-8.39148
▁blue	-8.3931
▁moving	-8.39334
is	-8.39572
▁ln	-8.40033
▁mission	-8.40425
▁either	-8.4046
▁lead	-8.40737
▁pie	-8.40797
▁g	-8.40859
▁months	-8.41085
▁choice	-8.41495
▁weeks	-8.41513
▁system	-8.41518
▁enemy	-8.41623
▁mouth	-8.41647
▁target	-8.42799
▁marry	-8.42802
▁tv	-8.42825
▁parents	-8.43141
▁seconds	-8.43384
▁protect	-8.43433
▁entire	-8.43806
▁indistinct	-8.4381
▁others	-8.4399
▁panting	-8.43996
▁calm	-8.44001
▁funny	-8.44002
▁speaking	-8.44223
▁chatter	-8.44658
▁feeling	-8.4491
▁tom	-8.45167
▁bruce	-8.45196
▁maam	-8.45199
▁ground	-8.45204
▁eight	-8.45224
▁hotel	-8.45231
▁letter	-8.45362
▁building	-8.45374
▁groans	-8.45423
▁singing	-8.4582
▁roll	-8.45916
▁fighting	-8.45965
▁hamilton	-8.46414
▁agent	-8.46433
▁mia	-8.46475
▁town	-8.46491
▁burn	-8.46869
ri	-8.46912
▁honor	-8.47205
▁worth	-8.47415
▁engine	-8.47458
▁mmm	-8.47571
▁words	-8.4761
▁k	-8.47665
▁piece	-8.47709
▁felt	-8.47721
▁copy	-8.47764
▁lucky	-8.47923
▁sounds	-8.48232
ln	-8.4826
▁sun	-8.48337
ful	-8.48375
▁beat	-8.48394
▁given	-8.48471
ation	-8.48569
▁strange	-8.48595
▁o	-8.48623
▁bar	-8.48677
▁alright	-8.4869
▁anderton	-8.48898
▁wed	-8.49171
▁glass	-8.50087
▁peace	-8.50145
▁da	-8.50154
▁audience	-8.50164
te	-8.5023
▁present	-8.50241
▁pa	-8.50623
ut	-8.5098
▁swear	-8.51446
▁field	-8.51579
▁screaming	-8.51597
▁become	-8.51599
▁kiss	-8.51666
▁kick	-8.51776
▁age	-8.52121
▁rain	-8.52227
▁destroy	-8.52328
▁sweet	-8.52681
▁sick	-8.52731
▁cruella	-8.52747
▁respect	-8.52751
▁wonderful	-8.52765
▁born	-8.52768
▁duke	-8.52777
▁round	-8.5289
▁attack	-8.53082
▁less	-8.53186
▁hide	-8.5354
▁finish	-8.53645
um	-8.53976
▁green	-8.54061
▁georgia	-8.54068
▁station	-8.541
▁rome	-8.54111
up	-8.54309
▁burr	-8.54411
▁train	-8.54455
▁worked	-8.54607
▁laugh	-8.54611
▁jump	-8.54972
▁watching	-8.55016
▁ann	-8.55232
▁amazing	-8.55394
▁floor	-8.55394
▁river	-8.55394
▁sense	-8.55395
▁caught	-8.55397
▁charlie	-8.55398
▁america	-8.55411
▁explain	-8.55437
▁magic	-8.55466
▁report	-8.55467
▁known	-8.55566
▁gets	-8.5594
▁record	-8.56052
▁bud	-8.56057
▁takes	-8.56065
▁e	-8.56173
▁asking	-8.56274
▁smart	-8.56568
▁goddamn	-8.56745
▁somewhere	-8.56745
▁forward	-8.56746
▁poor	-8.56769
▁planet	-8.56934
▁thousand	-8.57027
▁st	-8.57092
▁knock	-8.57153
▁suit	-8.57281
▁murph	-8.57905
▁serious	-8.57938
▁gandalf	-8.58115
▁sherman	-8.58115
▁forever	-8.58117
▁sky	-8.58167
▁officer	-8.58329
▁mistake	-8.58341
▁lee	-8.58466
▁state	-8.58491
▁cat	-8.58519
▁learn	-8.58538
▁wonder	-8.58951
▁class	-8.59177
▁careful	-8.59402
▁possible	-8.59504
▁smile	-8.59505
▁hungry	-8.59508
▁hitler	-8.59518
▁brendan	-8.59533
▁theyve	-8.59593
▁seat	-8.59619
th	-8.59663
▁wayne	-8.59743
▁list	-8.59783
▁adam	-8.59831
▁hed	-8.5986
▁bag	-8.59907
▁saved	-8.60246
▁wind	-8.60327
ter	-8.60402
an	-8.60481
▁blow	-8.60671
▁tight	-8.60881
▁mark	-8.60918
▁director	-8.60966
▁early	-8.61048
ment	-8.61331
▁push	-8.61779
▁loved	-8.61785
▁grab	-8.61878
ent	-8.62097
▁short	-8.6234
▁michael	-8.62341
▁sort	-8.62343
▁absolutely	-8.62365
▁nine	-8.62366
▁drover	-8.62441
▁billy	-8.62503
▁law	-8.62702
▁broke	-8.62754
▁ball	-8.6296
▁forgive	-8.63777
▁government	-8.6379
▁throat	-8.6379
▁dangerous	-8.63799
▁ice	-8.63812
▁totally	-8.63854
▁bowl	-8.63884
▁cost	-8.63895
▁meeting	-8.6426
▁gate	-8.64278
▁date	-8.64653
▁band	-8.65072
▁cell	-8.65157
ur	-8.65217
▁hospital	-8.65234
▁south	-8.65253
▁amelia	-8.65261
▁contact	-8.65262
▁hasnt	-8.65262
▁tree	-8.65807
▁key	-8.6584
▁questions	-8.6615
ive	-8.66626
▁worried	-8.66754
▁turned	-8.66898
▁message	-8.67316
▁needed	-8.6739
▁plane	-8.6756
▁longer	-8.67909
▁court	-8.68259
▁uncle	-8.68269
▁low	-8.68272
▁security	-8.68273
▁stone	-8.68302
▁unless	-8.68354
▁r	-8.68511
▁lawyer	-8.68852
ra	-8.69272
ty	-8.69478
▁lock	-8.69586
age	-8.69629
▁lunch	-8.69807
▁proud	-8.69807
▁weekend	-8.69819
▁birdie	-8.69839
▁heh	-8.69922
et	-8.70025
▁figure	-8.70113
▁lou	-8.70283
▁share	-8.70373
▁reach	-8.70421
▁million	-8.70464
▁force	-8.70482
z	-8.70797
▁cry	-8.70937
▁meant	-8.70963
▁near	-8.71189
la	-8.71345
▁forgot	-8.71367
▁anywhere	-8.7137
▁perhaps	-8.7137
▁werent	-8.7137
▁alarm	-8.71374
ate	-8.7138
▁carry	-8.71454
▁finally	-8.71508
▁smoke	-8.7202
▁guard	-8.72076
▁street	-8.72084
▁paper	-8.72084
▁month	-8.72106
▁changed	-8.72373
▁looked	-8.72567
▁sea	-8.72923
▁christ	-8.72948
▁pleasure	-8.72957
▁terrible	-8.72957
▁washington	-8.72958
▁knight	-8.7296
▁charles	-8.72963
▁paddy	-8.7298
▁stick	-8.72986
▁slr	-8.73012
▁seriously	-8.73163
▁hat	-8.73459
▁s	-8.73896
▁joe	-8.74494
▁paige	-8.7457
▁simple	-8.74572
▁dude	-8.74575
ting	-8.74575
▁chicken	-8.74576
▁rise	-8.74577
▁june	-8.74629
▁anne	-8.74904
▁choose	-8.7494
▁bella	-8.75021
▁expect	-8.75091
▁la	-8.75577
ist	-8.75826
▁ba	-8.75884
as	-8.76008
▁coffee	-8.76209
▁college	-8.76209
▁service	-8.76209
▁wrote	-8.76209
▁island	-8.76209
▁shell	-8.7622
▁gold	-8.76434
▁arm	-8.76718
ry	-8.76775
ne	-8.7692
▁names	-8.77039
▁smell	-8.77083
▁handle	-8.7764
▁middle	-8.77874
▁mommy	-8.7789
▁andi	-8.7789
▁trip	-8.78087
▁continue	-8.78506
▁cute	-8.78726
▁per	-8.78907
▁enjoy	-8.7913
▁books	-8.79191
ce	-8.79246
▁surprise	-8.79248
▁balboa	-8.79571
▁merry	-8.79571
▁spend	-8.79574
▁price	-8.79575
▁ooh	-8.79609
▁sitting	-8.79621
ness	-8.79757
▁star	-8.79819
▁bell	-8.79924
ous	-8.79944
id	-8.80117
▁seeing	-8.804
▁screams	-8.80512
▁tank	-8.80547
▁gods	-8.80558
▁box	-8.80655
▁form	-8.8066
▁tickets	-8.81064
to	-8.81069
▁bill	-8.8109
▁group	-8.81295
▁brand	-8.81297
▁mike	-8.813
▁west	-8.81337
▁tired	-8.81395
▁breathing	-8.81788
▁wall	-8.82148
▁bank	-8.82262
▁gift	-8.82345
▁pat	-8.82512
▁ls	-8.82792
▁east	-8.83042
▁viktor	-8.83049
▁battle	-8.8305
▁attention	-8.8305
▁darling	-8.83051
▁congratulations	-8.83053
▁foot	-8.83058
▁outta	-8.83059
▁fair	-8.83067
▁lab	-8.8308
▁pants	-8.83084
▁race	-8.83333
▁killing	-8.83744
▁san	-8.83768
▁lay	-8.83813
▁act	-8.83847
▁fix	-8.83868
▁press	-8.84431
▁lll	-8.8445
▁pack	-8.84461
▁should	-8.84598
▁carl	-8.84742
▁fell	-8.84751
▁weird	-8.84835
▁jason	-8.84836
▁snow	-8.84838
ial	-8.84839
▁upon	-8.84851
▁archie	-8.84855
▁sweetie	-8.84867
▁ray	-8.84946
▁stopped	-8.84957
▁sad	-8.84985
▁kit	-8.84992
am	-8.85354
▁al	-8.85358
▁out	-8.8537
▁lf	-8.85537
▁lovely	-8.85662
▁pre	-8.85913
▁brain	-8.86056
ad	-8.86188
▁rule	-8.8634
▁normal	-8.86468
▁zak	-8.86646
▁afternoon	-8.86653
▁fault	-8.86653
▁within	-8.86655
▁kidding	-8.86659
▁colonel	-8.86661
▁lying	-8.86773
▁shouting	-8.86785
▁states	-8.87238
ro	-8.87261
▁crying	-8.87278
▁ex	-8.87478
▁tea	-8.87783
out	-8.8779
▁picture	-8.87904
▁american	-8.88151
▁realize	-8.88223
▁spot	-8.88486
▁george	-8.885
▁llttle	-8.88505
▁lieutenant	-8.88505
▁type	-8.88506
▁clothes	-8.88511
▁giving	-8.88514
▁third	-8.88521
▁fletcher	-8.88521
▁single	-8.88609
▁breath	-8.88702
▁hall	-8.88737
▁soldiers	-8.88958
▁sacrifice	-8.89086
▁imagine	-8.90062
▁raise	-8.90085
▁strength	-8.90392
▁thomas	-8.90392
▁blind	-8.90392
▁rancho	-8.90393
▁personal	-8.90403
▁data	-8.90438
▁joey	-8.90621
il	-8.90876
▁bloody	-8.90904
▁arms	-8.91315
▁throwing	-8.91316
▁dan	-8.91382
▁flying	-8.91422
▁fish	-8.91879
▁allow	-8.91923
▁certain	-8.92153
▁standing	-8.92225
▁stole	-8.92237
▁shirley	-8.92315
▁horn	-8.92329
▁shh	-8.92344
at	-8.92354
▁forest	-8.92363
ul	-8.9238
▁path	-8.92401
▁ringing	-8.92412
▁broken	-8.92435
▁doin	-8.92478
▁united	-8.92665
▁quickly	-8.92677
▁prime	-8.92888
▁whose	-8.9304
▁ones	-8.93144
▁north	-8.93268
you	-8.9351
▁truck	-8.93766
▁soldier	-8.93802
▁table	-8.93916
▁gas	-8.94226
▁village	-8.9426
▁accident	-8.94265
▁jenna	-8.94276
▁military	-8.94278
▁bridge	-8.94283
▁evening	-8.9431
▁payne	-8.94331
▁betty	-8.94347
▁beeping	-8.94403
▁tars	-8.94429
▁dressed	-8.94662
▁j	-8.94922
rs	-8.95172
▁belong	-8.95385
▁park	-8.95419
▁window	-8.95814
▁accept	-8.95849
▁hundred	-8.95852
▁art	-8.96068
▁scott	-8.96082
▁final	-8.96099
▁jane	-8.96218
▁rich	-8.96242
▁flat	-8.96263
▁project	-8.96276
▁situation	-8.96276
▁difference	-8.96279
▁prove	-8.96334
▁groaning	-8.96358
▁brave	-8.96399
▁jim	-8.96751
▁program	-8.96816
▁learned	-8.96892
▁finished	-8.96913
▁rules	-8.96968
ia	-8.97308
▁mountain	-8.97902
▁mess	-8.97903
▁position	-8.97912
▁code	-8.97928
▁where	-8.98061
▁dawn	-8.98317
▁definitely	-8.98317
▁sheriff	-8.98317
▁ulrich	-8.98317
▁favorite	-8.98317
▁bother	-8.98317
▁taught	-8.9832
▁favor	-8.98327
▁champion	-8.98336
▁holding	-8.98481
▁signal	-8.98508
ling	-8.98704
▁n	-8.9871
▁pen	-8.98752
▁ran	-8.98764
▁wondering	-8.99106
▁bus	-8.99188
▁brothers	-8.99225
▁lights	-8.99239
▁bro	-8.99366
▁over	-8.99375
ma	-8.99375
▁offer	-8.99555
▁clears	-8.99708
▁fate	-8.99917
▁partner	-9.0001
▁appreciate	-9.00064
▁nurse	-9.00119
▁computer	-9.004
▁bathroom	-9.00402
▁area	-9.00415
▁heavy	-9.00418
▁fbi	-9.00421
▁loud	-9.00454
▁guns	-9.00716
▁store	-9.00864
▁shoes	-9.01012
▁dress	-9.01457
▁lve	-9.01553
▁dis	-9.01779
▁travel	-9.01783
▁works	-9.01912
▁sell	-9.02004
▁board	-9.02115
▁idiot	-9.02197
▁russian	-9.02208
▁whoo	-9.02233
▁prison	-9.02293
▁sh	-9.02342
ish	-9.0242
▁repeat	-9.02527
▁apollo	-9.02528
▁bloom	-9.02528
▁strike	-9.02529
▁ashley	-9.02529
▁fought	-9.02537
▁spent	-9.02537
▁laughter	-9.02556
▁paid	-9.02577
▁doubt	-9.02582
▁completely	-9.02656
▁virus	-9.02665
▁busy	-9.02731
ant	-9.02761
▁missed	-9.02808
▁parker	-9.02889
▁greatest	-9.03014
▁tim	-9.0304
▁commander	-9.03059
▁rings	-9.03342
▁missing	-9.03491
▁bite	-9.04042
▁suggest	-9.04138
▁sleeping	-9.04277
▁notice	-9.04378
▁weapon	-9.04435
▁hero	-9.04474
▁camera	-9.04523
▁brief	-9.04701
▁rizvan	-9.04701
▁spartacus	-9.04701
▁uhhuh	-9.04701
▁yesterday	-9.04701
▁alexander	-9.04702
▁lionel	-9.04702
▁wedding	-9.04704
▁kept	-9.04707
▁sight	-9.04723
▁main	-9.04855
▁certainly	-9.04903
▁con	-9.04962
ping	-9.05156
▁dollars	-9.0523
▁rocket	-9.0535
▁charge	-9.06351
▁sm	-9.06577
▁pilot	-9.06682
▁risk	-9.06718
▁cop	-9.06725
ge	-9.06868
▁calvin	-9.06924
▁emergency	-9.06924
▁tough	-9.06924
▁public	-9.06924
▁impossible	-9.06924
▁helen	-9.06924
▁teeth	-9.06924
▁writing	-9.06926
▁thls	-9.06928
▁camp	-9.06934
▁color	-9.06985
▁starting	-9.07082
un	-9.071
da	-9.07145
▁weapons	-9.0719
▁track	-9.0735
▁pounds	-9.07467
ot	-9.07532
▁suck	-9.07775
▁dreams	-9.08071
▁screw	-9.08216
▁mo	-9.08356
▁plays	-9.08731
▁bear	-9.08808
▁co	-9.08826
▁escape	-9.0887
▁survive	-9.08872
▁william	-9.08963
▁soul	-9.08982
▁except	-9.09106
▁drunk	-9.0916
▁extra	-9.09193
▁club	-9.09196
▁conversation	-9.09196
▁crassus	-9.09196
▁evil	-9.09196
▁instead	-9.09196
▁mandira	-9.09196
▁sauron	-9.09196
▁universe	-9.09196
▁fresh	-9.09196
▁mulan	-9.09199
▁chuckling	-9.092
▁rather	-9.09201
▁airport	-9.09203
▁conlon	-9.09203
▁babe	-9.09208
▁katie	-9.0922
▁princess	-9.09231
▁golden	-9.09243
▁losing	-9.09396
▁size	-9.09404
▁hobbs	-9.09455
▁figured	-9.09668
▁dare	-9.09738
ck	-9.09886
▁wearing	-9.10536
▁keys	-9.10684
▁visit	-9.10833
▁mate	-9.11135
▁closes	-9.11156
▁students	-9.11212
em	-9.11273
▁crime	-9.11345
▁reading	-9.11389
▁ad	-9.11451
▁albert	-9.11522
▁deserve	-9.11522
▁jefferson	-9.11522
▁journey	-9.11522
▁rochester	-9.11522
▁private	-9.11522
▁benoit	-9.11523
▁jiro	-9.11524
agol	-9.11526
▁dying	-9.11535
▁information	-9.11539
▁james	-9.11555
▁center	-9.11564
▁rumbling	-9.11591
▁pool	-9.11592
▁dave	-9.11602
▁corner	-9.11621
▁softly	-9.11654
▁janet	-9.11662
▁grow	-9.11673
▁teacher	-9.11715
▁eating	-9.11723
▁beer	-9.11817
▁nash	-9.12005
▁bomb	-9.12182
co	-9.12909
▁buzz	-9.13066
ha	-9.13208
▁steal	-9.13342
▁leg	-9.13549
▁walking	-9.13731
▁weak	-9.1376
▁alien	-9.13818
▁summer	-9.13903
▁worse	-9.13903
▁driving	-9.13903
▁automat	-9.13904
▁birthday	-9.13905
▁stuck	-9.13905
▁wild	-9.13907
▁doc	-9.1391
▁apartment	-9.13921
▁robin	-9.13921
▁beyond	-9.13922
▁tour	-9.1393
▁heads	-9.13942
▁dragon	-9.13952
▁yall	-9.14063
land	-9.14114
▁germany	-9.14335
▁pro	-9.14735
▁begin	-9.14927
▁plates	-9.14973
nt	-9.15322
▁sol	-9.15991
▁agree	-9.15993
▁feed	-9.16008
▁ends	-9.16131
▁quit	-9.16269
▁asshole	-9.16316
▁phil	-9.1634
▁address	-9.16342
▁defense	-9.16342
▁friday	-9.16342
▁neither	-9.16342
▁nowhere	-9.16342
▁support	-9.16342
▁empty	-9.16342
▁truly	-9.16342
▁leo	-9.16342
▁heavily	-9.16343
▁estella	-9.16345
▁bev	-9.16358
▁raju	-9.16364
▁common	-9.16364
▁handsome	-9.16364
▁mmhmm	-9.16381
▁neck	-9.1639
▁paulie	-9.16418
▁interested	-9.16555
▁manage	-9.16762
▁he	-9.16945
men	-9.17008
▁destroyed	-9.17133
im	-9.17258
▁sub	-9.17398
▁note	-9.17601
▁draw	-9.17602
▁pray	-9.17887
me	-9.17925
▁named	-9.18032
▁trick	-9.18199
se	-9.18245
▁horses	-9.18286
▁mann	-9.18385
▁base	-9.18513
▁suppose	-9.18524
▁nervous	-9.18659
▁w	-9.18756
▁van	-9.18781
▁queen	-9.18838
▁dumb	-9.1884
▁excited	-9.18842
▁matthew	-9.18842
▁tongue	-9.18842
▁sake	-9.18842
▁dancing	-9.18842
▁zoobi	-9.18847
▁bought	-9.18848
▁pressure	-9.18849
▁detective	-9.1885
▁hank	-9.18857
▁technology	-9.18859
▁liar	-9.18861
▁ghost	-9.1888
▁chosen	-9.18885
▁incredible	-9.18886
▁bigger	-9.18898
▁animal	-9.1891
▁slave	-9.18937
▁whispering	-9.18946
▁mary	-9.1896
▁huge	-9.18972
▁action	-9.19064
ped	-9.19221
▁hole	-9.19238
▁deer	-9.19331
time	-9.19487
▁dogs	-9.19907
▁wouldve	-9.19992
ta	-9.20119
▁promised	-9.20139
▁beg	-9.20273
▁owe	-9.20384
▁test	-9.20709
▁match	-9.20979
▁unit	-9.21076
▁lived	-9.21231
▁slaves	-9.21326
▁doug	-9.21371
▁broadway	-9.21406
▁everywhere	-9.21406
▁houston	-9.21406
▁pregnant	-9.21406
▁upset	-9.21406
▁bullshit	-9.21408
▁shaw	-9.21415
▁grandma	-9.21417
▁maura	-9.21429
▁dies	-9.2144
▁josh	-9.2144
▁boat	-9.2144
▁lii	-9.21461
▁honestly	-9.21576
▁sword	-9.2159
▁putting	-9.21634
▁breaking	-9.21685
▁fit	-9.21756
▁yelling	-9.21797
▁wine	-9.22069
▁stars	-9.22502
▁tap	-9.22789
ary	-9.22872
▁goin	-9.22906
▁trees	-9.23102
▁starts	-9.23618
oobi	-9.23716
do	-9.23834
▁sex	-9.23854
▁drago	-9.23925
▁genius	-9.23937
▁opens	-9.23983
▁post	-9.23989
▁david	-9.24038
▁jake	-9.24038
▁launch	-9.24038
▁london	-9.24038
▁lynch	-9.24038
▁nullah	-9.24038
▁precious	-9.24038
▁purpose	-9.24038
▁search	-9.24038
▁garden	-9.24038
▁cliff	-9.2404
▁contract	-9.2404
▁department	-9.24046
▁bright	-9.24048
▁chief	-9.24052
▁norman	-9.24061
▁cake	-9.24077
▁lucy	-9.24093
▁skin	-9.24094
hrer	-9.24127
▁weight	-9.24174
▁warm	-9.24574
▁allowed	-9.24614
▁tie	-9.25568
▁freak	-9.25634
▁closed	-9.2572
▁i	-9.26221
▁focus	-9.26315
▁honest	-9.26371
▁decide	-9.26421
▁remind	-9.26555
pl	-9.2663
▁pal	-9.26715
▁courage	-9.26723
▁access	-9.2674
▁sweetheart	-9.2674
▁whirring	-9.2674
▁wrestling	-9.2674
▁minister	-9.26742
▁built	-9.26745
▁france	-9.26748
▁gondor	-9.26749
▁papa	-9.26755
▁yep	-9.26757
▁angela	-9.26801
▁deck	-9.26832
▁whatd	-9.26897
▁spirit	-9.26971
▁bird	-9.27027
▁fi	-9.2704
ow	-9.27086
▁letting	-9.27135
▁woods	-9.27215
▁closer	-9.27273
▁feels	-9.27337
▁kinda	-9.27419
▁goodness	-9.27513
▁turns	-9.27731
ee	-9.2781
x	-9.28004
ally	-9.28532
▁lips	-9.28595
▁orders	-9.28791
▁study	-9.28957
ance	-9.28962
▁po	-9.29091
▁fl	-9.29218
▁cream	-9.29321
▁drove	-9.29371
▁large	-9.29414
▁double	-9.2944
▁nothin	-9.29458
▁danger	-9.29503
▁blanc	-9.29508
▁bunch	-9.29518
▁capitol	-9.29518
▁chamberlain	-9.29518
▁church	-9.29518
▁explosion	-9.29518
▁mordor	-9.29518
▁research	-9.29518
▁satisfied	-9.29518
▁whether	-9.29518
▁angry	-9.29518
▁spell	-9.29519
▁percent	-9.29521
▁opportunity	-9.29523
▁beach	-9.29524
▁elise	-9.29524
▁cattle	-9.29525
▁blame	-9.29528
▁gay	-9.29535
▁grand	-9.29546
▁speed	-9.29551
▁national	-9.29589
▁swim	-9.29698
ba	-9.2974
▁decided	-9.29849
▁student	-9.2989
▁ticket	-9.29902
▁heaven	-9.29928
▁leader	-9.30278
▁folks	-9.30341
▁en	-9.3055
ts	-9.30578
▁experience	-9.3071
hi	-9.30711
▁card	-9.30803
▁le	-9.30826
▁picked	-9.31096
▁problems	-9.31173
▁di	-9.3126
▁defend	-9.31351
ho	-9.31577
▁do	-9.31789
▁using	-9.31863
▁oil	-9.31878
▁direct	-9.31969
▁serve	-9.32046
▁remain	-9.32191
▁switch	-9.32322
▁baroness	-9.32375
▁insane	-9.32375
▁speech	-9.32375
▁loose	-9.32375
▁whoever	-9.32378
▁apologize	-9.32381
▁onto	-9.32384
▁crew	-9.32384
▁fellow	-9.32386
▁sarah	-9.3239
▁steady	-9.32395
▁hiding	-9.32397
▁distance	-9.32401
▁producer	-9.32762
ted	-9.32814
▁mit	-9.32984
▁ii	-9.32986
▁mum	-9.33191
he	-9.33221
op	-9.33535
▁couldve	-9.33578
ip	-9.33585
▁thinks	-9.33853
ol	-9.3386
om	-9.34025
▁dry	-9.34044
▁humans	-9.34073
ord	-9.34287
▁design	-9.34569
▁mi	-9.34852
▁cash	-9.3489
os	-9.34998
▁prepare	-9.35022
▁solve	-9.35042
de	-9.35112
▁complete	-9.35153
▁alex	-9.35236
▁somethin	-9.35253
▁became	-9.35316
▁bottle	-9.35316
▁difficult	-9.35316
▁madison	-9.35316
▁plenty	-9.35316
▁recognize	-9.35316
▁suicide	-9.35316
▁twice	-9.35316
▁worst	-9.35316
▁silly	-9.35317
▁angelica	-9.35318
▁medicine	-9.35319
▁zero	-9.35319
▁koba	-9.3532
▁beauty	-9.3532
▁shame	-9.35326
▁fuel	-9.3533
▁contest	-9.35331
▁coat	-9.35334
▁involved	-9.35389
▁gasping	-9.35407
▁victory	-9.35419
▁numbers	-9.35466
▁taste	-9.35549
sh	-9.35573
▁metal	-9.35656
▁dagger	-9.35775
▁helpless	-9.35814
▁movie	-9.35818
▁bi	-9.35827
▁shadow	-9.35846
▁guest	-9.35858
▁shed	-9.35966
les	-9.36212
▁ed	-9.36271
▁sisters	-9.36404
▁training	-9.36519
▁pan	-9.36649
▁signed	-9.36757
▁wi	-9.36976
▁staying	-9.36986
▁treat	-9.37138
▁h	-9.3734
ian	-9.37559
ine	-9.37691
▁thousands	-9.37713
▁climb	-9.37773
▁march	-9.37805
▁build	-9.37827
▁correct	-9.37998
▁waste	-9.38108
▁howd	-9.38146
▁talked	-9.38275
▁virgin	-9.38324
▁document	-9.38347
▁emperor	-9.38347
▁excellent	-9.38347
▁fashion	-9.38347
▁llke	-9.38347
▁maverick	-9.38347
▁orleans	-9.38347
▁upstairs	-9.38347
▁limit	-9.38347
▁indeed	-9.38347
▁eliza	-9.38347
▁creaking	-9.38347
▁dick	-9.3835
▁simon	-9.38351
▁bialystock	-9.38352
▁terrorist	-9.38352
▁often	-9.38354
▁legat	-9.38363
▁jack	-9.38369
▁plain	-9.3838
▁pia	-9.38399
▁darkness	-9.38399
▁chest	-9.38406
▁obviously	-9.38421
▁powerful	-9.38464
▁thin	-9.38595
▁interesting	-9.38687
▁games	-9.38879
▁spiderman	-9.38932
if	-9.38959
▁bone	-9.39029
▁eggs	-9.39328
▁opening	-9.39339
go	-9.39355
▁moved	-9.39432
oo	-9.39436
j	-9.39937
hua	-9.40079
▁pulled	-9.40271
▁announce	-9.40344
▁trap	-9.40345
▁sl	-9.40479
▁cross	-9.40486
▁bless	-9.40596
▁wave	-9.40604
▁event	-9.40691
▁killer	-9.40958
▁cab	-9.41225
▁soft	-9.41294
▁cup	-9.41323
▁comin	-9.41437
▁especially	-9.41472
▁gravity	-9.41472
▁justice	-9.41472
▁rooster	-9.41472
▁science	-9.41472
▁foreign	-9.41473
▁piano	-9.41477
▁appointment	-9.4148
▁meat	-9.4149
▁badger	-9.41494
▁exist	-9.41495
▁apple	-9.41496
▁pair	-9.41504
▁cia	-9.41521
▁storm	-9.41531
▁smith	-9.41531
▁stage	-9.41561
over	-9.41608
▁amen	-9.41649
▁sean	-9.41655
way	-9.41737
▁warning	-9.4179
lt	-9.41877
▁hearing	-9.41891
▁faster	-9.42063
tic	-9.4208
ca	-9.42085
▁level	-9.42182
▁wood	-9.42374
▁nation	-9.42586
▁heading	-9.42746
▁points	-9.42801
▁du	-9.42857
▁tires	-9.42886
ny	-9.42926
▁ow	-9.4318
be	-9.43389
▁devil	-9.43427
▁hearts	-9.436
▁liked	-9.43678
▁ruin	-9.43715
▁enter	-9.43745
▁earl	-9.43873
▁fighter	-9.43932
ton	-9.43947
▁who	-9.44132
▁punch	-9.44159
head	-9.44168
▁fill	-9.44414
▁witness	-9.44608
▁wa	-9.44695
▁bilbo	-9.44698
▁evidence	-9.44698
▁fruit	-9.44698
▁language	-9.44698
▁navorski	-9.44698
▁pocket	-9.44698
▁precrime	-9.44698
▁request	-9.44698
▁freedom	-9.44698
▁saving	-9.44698
▁federal	-9.44698
▁larry	-9.44698
▁beginning	-9.44698
▁negative	-9.44698
▁surface	-9.44699
▁midnight	-9.44699
▁henry	-9.44701
▁chair	-9.44703
▁prize	-9.44703
▁girlfriend	-9.44704
▁farhan	-9.44718
▁milk	-9.44725
▁scene	-9.44725
▁fox	-9.4473
▁button	-9.44747
▁legs	-9.44784
▁medical	-9.44788
▁invited	-9.4493
▁secure	-9.45041
line	-9.45083
▁listening	-9.45222
▁ace	-9.45318
▁judge	-9.45465
na	-9.45467
▁rebels	-9.4549
▁higher	-9.45609
▁file	-9.4589
▁wh	-9.46038
▁fathers	-9.46379
▁it	-9.46477
▁cheers	-9.46512
▁ate	-9.4655
▁v	-9.46583
▁baggins	-9.46844
▁crack	-9.47079
▁walked	-9.47113
ze	-9.47114
▁account	-9.47458
▁cr	-9.47503
▁arrest	-9.47608
▁ma	-9.47712
away	-9.47841
▁original	-9.47848
▁paris	-9.47955
▁sneak	-9.47976
▁spring	-9.48028
▁alicia	-9.48031
▁alpha	-9.48031
▁aragorn	-9.48031
▁awesome	-9.48031
▁bread	-9.48031
▁byrd	-9.48031
▁horace	-9.48031
▁marriage	-9.48031
▁tournament	-9.48031
▁hannibal	-9.48031
▁whiskey	-9.48031
▁brady	-9.48031
▁faith	-9.48032
▁jail	-9.48034
▁desk	-9.48034
▁winner	-9.48035
▁slim	-9.48043
cient	-9.48045
▁apparently	-9.48052
▁carney	-9.48072
▁halt	-9.48074
▁boom	-9.48092
▁nose	-9.48101
▁applauding	-9.48113
▁cage	-9.48113
▁pete	-9.48117
▁pet	-9.48196
ier	-9.4841
▁ra	-9.48466
▁fail	-9.48493
▁sold	-9.48499
▁checks	-9.48751
▁decision	-9.48915
▁besides	-9.49024
▁pot	-9.49289
va	-9.49308
▁passed	-9.4939
▁hobbits	-9.49437
our	-9.49866
▁tall	-9.50002
▁gra	-9.50142
▁shower	-9.50474
▁checked	-9.50525
▁be	-9.50731
li	-9.50761
▁cook	-9.5091
ru	-9.51151
▁career	-9.51264
▁hug	-9.51303
▁bow	-9.51322
▁aw	-9.51333
▁hatch	-9.51445
▁adrian	-9.51479
▁applause	-9.51479
▁rush	-9.51479
▁sergeant	-9.51479
▁sugar	-9.51479
▁uniform	-9.51479
▁whinnies	-9.51479
▁chinese	-9.51479
▁hattie	-9.51479
▁local	-9.51479
▁heep	-9.51479
▁kitchen	-9.51481
▁rohan	-9.51482
▁fuck	-9.51485
▁forgotten	-9.51488
▁gunfire	-9.51492
▁scoffs	-9.51497
▁secretary	-9.51515
▁defendant	-9.51519
▁troy	-9.51548
▁squad	-9.51561
▁dust	-9.51582
▁view	-9.5159
ring	-9.51624
▁betrayed	-9.51649
▁tape	-9.51665
▁aid	-9.51673
▁nature	-9.51698
▁exhales	-9.51704
▁rig	-9.51743
▁approaching	-9.5181
▁cops	-9.51822
wa	-9.52
▁yell	-9.52018
▁quietly	-9.52176
▁deeply	-9.52342
▁bron	-9.52368
▁due	-9.52406
▁block	-9.52517
▁locked	-9.5252
ated	-9.53187
▁ted	-9.53484
▁wings	-9.53514
▁am	-9.53736
▁falling	-9.53882
▁wide	-9.54216
▁heal	-9.54574
▁doors	-9.54586
▁spare	-9.54731
▁fighters	-9.54761
ern	-9.54799
ball	-9.54812
▁iron	-9.54829
▁create	-9.5484
▁deliver	-9.5485
ay	-9.54879
▁range	-9.54953
▁apart	-9.55025
▁garrison	-9.55051
▁ignore	-9.55051
▁jazz	-9.55051
▁katniss	-9.55051
▁krakozhia	-9.55051
▁possibly	-9.55051
▁simply	-9.55051
▁snowflake	-9.55051
▁someday	-9.55051
▁pardon	-9.55051
▁video	-9.55051
▁flesh	-9.55051
▁angle	-9.55051
▁blast	-9.55051
▁tutsi	-9.55051
▁morgan	-9.55053
▁roof	-9.55056
▁aircraft	-9.55058
▁specific	-9.55059
▁memory	-9.55059
▁eagle	-9.55059
▁investigation	-9.55067
▁santa	-9.55072
▁sobbing	-9.55082
▁shake	-9.55094
▁barely	-9.551
▁scare	-9.5515
▁heat	-9.55157
▁hutu	-9.55161
▁tower	-9.55213
▁willing	-9.55303
▁pm	-9.55358
ng	-9.55392
▁butt	-9.56103
▁engineer	-9.56142
▁trained	-9.56199
▁joke	-9.56213
▁so	-9.56272
▁helping	-9.56273
▁miller	-9.56277
old	-9.56536
▁tan	-9.56544
▁rid	-9.56564
▁calls	-9.56654
▁u	-9.56798
▁fellas	-9.56804
▁lip	-9.56994
▁slip	-9.57026
ig	-9.57751
▁bones	-9.58039
▁played	-9.581
▁attempt	-9.58191
▁peg	-9.58209
▁piss	-9.58335
▁awful	-9.58588
ug	-9.58616
▁no	-9.58682
▁champ	-9.5871
▁rose	-9.58712
▁lift	-9.5875
▁complicated	-9.58754
▁condition	-9.58754
▁device	-9.58754
▁district	-9.58754
▁gorgeous	-9.58754
▁somehow	-9.58754
▁vegas	-9.58754
▁personnel	-9.58754
▁proceed	-9.58754
▁witwer	-9.58754
▁gracie	-9.58754
▁shift	-9.58755
▁lake	-9.58755
▁unbelievable	-9.58755
▁grandpa	-9.58756
▁clever	-9.58756
▁reggie	-9.58756
▁permission	-9.58757
▁noble	-9.58761
▁noise	-9.58761
▁crap	-9.58764
▁gang	-9.58772
▁coward	-9.58776
▁mav	-9.58782
▁wet	-9.58833
▁eh	-9.58867
▁opened	-9.58883
▁ships	-9.58927
▁pity	-9.58975
▁add	-9.58976
▁manager	-9.59005
▁bay	-9.59225
▁created	-9.59247
▁agreed	-9.5925
▁rent	-9.5945
▁surprised	-9.5947
▁whispers	-9.5948
▁challenge	-9.59494
▁rot	-9.59589
▁sp	-9.59835
lon	-9.59836
▁shows	-9.59929
▁pictures	-9.5998
▁shield	-9.60021
▁sentinel	-9.60021
▁interview	-9.60034
▁sch	-9.6004
▁whistle	-9.60081
▁bullet	-9.60097
▁reporter	-9.60218
▁towards	-9.6025
▁to	-9.60282
▁turning	-9.60318
▁defeat	-9.60398
▁bat	-9.60468
▁li	-9.60682
ir	-9.60709
▁dent	-9.60864
▁drinking	-9.61216
▁ben	-9.61446
▁ro	-9.61469
ise	-9.61772
▁cos	-9.61826
▁birds	-9.62208
▁mention	-9.62256
▁release	-9.62267
▁paying	-9.62296
▁curse	-9.62437
▁animals	-9.62495
▁mmhm	-9.62538
▁muscle	-9.62591
▁thirty	-9.62596
▁advice	-9.626
▁breakfast	-9.626
▁brilliant	-9.626
▁brixton	-9.626
▁international	-9.626
▁italian	-9.626
▁lelaina	-9.626
▁mattiece	-9.626
▁murdock	-9.626
▁nonsense	-9.626
▁oclock	-9.626
▁quigley	-9.626
▁regret	-9.626
▁ridiculous	-9.626
▁someplace	-9.626
▁soviet	-9.626
▁thunder	-9.626
▁byebye	-9.62601
▁familiar	-9.62601
▁hadnt	-9.62601
▁presence	-9.62601
▁adele	-9.62601
▁alert	-9.62602
▁dramatic	-9.62604
▁quant	-9.62605
▁capcom	-9.62605
▁edward	-9.62605
▁fancy	-9.62606
▁benny	-9.62608
▁winning	-9.62613
▁shire	-9.62617
▁shop	-9.62621
▁fortune	-9.62623
▁social	-9.6265
▁aim	-9.62663
▁immediately	-9.62667
▁ulla	-9.62671
▁letters	-9.62681
▁trade	-9.6274
▁fan	-9.62796
▁bleeding	-9.62823
▁ranger	-9.62827
▁hoping	-9.62906
▁cap	-9.6296
▁under	-9.6302
▁tax	-9.63031
▁gettin	-9.6305
▁va	-9.63068
▁announc	-9.63075
▁filled	-9.63105
▁noticed	-9.6318
▁armed	-9.63589
▁nuts	-9.63656
▁beeps	-9.6376
▁cars	-9.63806
▁expecting	-9.63893
ily	-9.64059
▁tone	-9.64107
▁ab	-9.64236
▁lied	-9.64303
▁nah	-9.64543
end	-9.64965
the	-9.65064
▁showed	-9.65174
▁plant	-9.65241
▁following	-9.65331
▁balls	-9.65376
▁blows	-9.65509
▁hanging	-9.65537
▁nick	-9.6563
ize	-9.65638
▁mistakes	-9.65677
qu	-9.65708
ill	-9.6571
▁wash	-9.66189
▁schedule	-9.66267
▁for	-9.66274
▁tests	-9.66424
▁total	-9.66427
▁spoke	-9.66515
▁eve	-9.66522
▁crick	-9.66526
▁prince	-9.66532
▁wlth	-9.66584
▁bottom	-9.666
▁british	-9.666
▁eject	-9.666
▁hanratty	-9.666
▁klump	-9.666
▁license	-9.666
▁tuesday	-9.666
▁admit	-9.66601
▁cousin	-9.66601
▁credit	-9.66601
▁equal	-9.66601
▁tanner	-9.66601
▁otherwise	-9.66601
▁ugly	-9.66601
▁bounce	-9.66602
▁alfred	-9.66602
▁fake	-9.66603
▁held	-9.66608
▁split	-9.66611
▁accountant	-9.66625
▁coach	-9.66626
▁circle	-9.6663
▁bobby	-9.66636
▁agreement	-9.66643
▁coughing	-9.66657
▁suddenly	-9.66714
▁safety	-9.66717
▁professional	-9.6682
▁swing	-9.66877
▁wise	-9.66893
▁feelings	-9.66902
ble	-9.67037
▁cameras	-9.67109
▁hls	-9.67128
▁style	-9.67159
▁indistinctly	-9.67215
▁that	-9.67309
▁keeps	-9.67327
▁pr	-9.67356
▁fa	-9.67504
ver	-9.67514
one	-9.67532
ens	-9.67767
▁legal	-9.67774
▁official	-9.68035
▁blowing	-9.68151
▁harder	-9.68151
▁criminal	-9.68185
▁hardly	-9.68194
▁bastard	-9.68216
▁issue	-9.68216
▁tells	-9.6822
▁suspect	-9.68225
▁creature	-9.68225
▁bath	-9.68267
▁dads	-9.68433
ung	-9.68544
▁bid	-9.68561
der	-9.68751
▁streets	-9.68863
mm	-9.68895
▁bringing	-9.69025
▁helped	-9.69084
ns	-9.69232
ism	-9.6945
▁hip	-9.69453
▁yells	-9.69501
off	-9.70005
▁shadows	-9.70018
ized	-9.70212
▁pretend	-9.70219
py	-9.70403
▁madam	-9.70638
▁silence	-9.70664
▁threat	-9.70671
▁brenda	-9.70678
▁agents	-9.70752
▁adhemar	-9.70767
▁anthony	-9.70767
▁april	-9.70767
▁bulgarian	-9.70767
▁lindsey	-9.70767
▁mcbride	-9.70767
▁mystery	-9.70767
▁raven	-9.70767
▁relationship	-9.70767
▁riordan	-9.70767
▁romilly	-9.70767
▁saruman	-9.70767
▁scratch	-9.70767
▁separate	-9.70767
▁several	-9.70767
▁underneath	-9.70767
▁university	-9.70767
▁vehicle	-9.70767
▁intend	-9.70767
▁cheese	-9.70767
▁toast	-9.70767
▁affair	-9.70768
▁rosenberg	-9.70768
▁england	-9.70768
▁monday	-9.70769
▁female	-9.70772
▁stories	-9.70772
▁aunt	-9.70779
▁yellow	-9.70779
▁springtime	-9.7078
▁property	-9.70781
▁sunday	-9.70781
▁snap	-9.70784
▁edge	-9.70786
▁confused	-9.70788
▁whatre	-9.70793
▁alnt	-9.70795
▁aside	-9.70797
▁title	-9.70801
▁theory	-9.70805
▁smash	-9.7081
▁energy	-9.70822
▁mister	-9.70832
▁freeze	-9.70836
▁hook	-9.70842
▁bout	-9.70893
▁whyd	-9.70926
▁meaning	-9.70961
▁refuse	-9.71042
▁chase	-9.71067
▁union	-9.71072
led	-9.71073
▁lance	-9.71218
▁failed	-9.7129
▁non	-9.71343
po	-9.71397
▁screwed	-9.71553
▁au	-9.71661
ni	-9.71667
▁reached	-9.71917
▁clearly	-9.71926
▁sooner	-9.71977
▁at	-9.72023
▁watched	-9.72274
▁answers	-9.72338
▁wheel	-9.72362
▁walls	-9.72493
▁mu	-9.72542
▁character	-9.72559
▁gl	-9.72692
▁plans	-9.72928
▁und	-9.73157
just	-9.73344
son	-9.73559
tion	-9.73562
▁auction	-9.73767
▁spin	-9.73772
▁lad	-9.73814
▁wing	-9.73981
▁fired	-9.74024
▁consider	-9.74137
▁signs	-9.74212
vi	-9.74313
▁everybodys	-9.74485
▁vote	-9.74513
ps	-9.74627
▁dock	-9.74668
▁desert	-9.74668
▁br	-9.74672
▁damage	-9.74785
▁me	-9.74869
▁health	-9.74938
▁you	-9.7503
▁twenty	-9.75107
▁perform	-9.75109
▁desperate	-9.75115
▁extreme	-9.75115
▁fabulous	-9.75115
▁fantastic	-9.75115
▁jersey	-9.75115
▁majesty	-9.75115
▁melinda	-9.75115
▁optimus	-9.75115
▁rough	-9.75115
▁tatiana	-9.75115
▁threw	-9.75115
▁wolf	-9.75115
▁japanese	-9.75115
▁hidden	-9.75115
▁jerk	-9.75115
▁stanford	-9.75116
▁hyah	-9.75117
▁afford	-9.75118
▁staff	-9.75121
▁pride	-9.75122
▁peeta	-9.75124
▁ought	-9.75132
▁crackling	-9.75132
▁pike	-9.75133
▁witch	-9.75134
▁comfortable	-9.75134
▁spacecom	-9.75135
▁gear	-9.75137
▁oath	-9.75141
▁plus	-9.75142
▁capable	-9.75144
▁map	-9.75162
▁proof	-9.75162
▁panic	-9.75175
▁mayday	-9.75184
▁chain	-9.75187
▁thatll	-9.75191
▁toll	-9.75197
▁dirty	-9.75242
▁print	-9.75256
▁lins	-9.75273
▁grown	-9.75276
▁bombs	-9.75291
ide	-9.75293
▁harm	-9.75307
▁screeching	-9.75319
▁remove	-9.75323
▁received	-9.75358
▁jad	-9.75443
▁wire	-9.75443
▁dc	-9.75457
▁bane	-9.75473
▁mm	-9.75476
▁suffering	-9.75562
▁von	-9.75569
▁bucks	-9.75744
▁min	-9.75798
side	-9.7586
▁mid	-9.7589
▁sand	-9.75982
▁hundreds	-9.7612
▁keeping	-9.76463
▁staring	-9.76506
▁scream	-9.76638
▁cheer	-9.76694
▁bra	-9.76827
▁sa	-9.76908
▁murdered	-9.7707
▁quarter	-9.77083
▁patient	-9.77089
▁tunnel	-9.77108
▁chattering	-9.77111
▁stops	-9.77117
▁bull	-9.77137
▁seemed	-9.7714
▁warrior	-9.77149
▁ordered	-9.77226
▁fingers	-9.77233
▁lies	-9.7731
▁talkin	-9.77547
ew	-9.77609
▁grade	-9.77746
▁sale	-9.77852
of	-9.77912
▁landing	-9.78161
ag	-9.78338
▁marks	-9.78407
ass	-9.78474
mb	-9.78668
▁crash	-9.78673
▁heavens	-9.78995
▁par	-9.79041
▁paint	-9.79083
ci	-9.79158
ship	-9.79236
▁moments	-9.79388
▁assume	-9.79414
male	-9.79431
▁pee	-9.79529
▁engines	-9.79539
▁discuss	-9.79625
▁object	-9.79626
▁stayed	-9.79655
▁celebrate	-9.7966
▁destiny	-9.7966
▁dozen	-9.7966
▁effort	-9.7966
▁footsteps	-9.7966
▁grantham	-9.7966
▁however	-9.7966
▁intelligent	-9.7966
▁location	-9.7966
▁loxley	-9.7966
▁magazine	-9.7966
▁ocean	-9.7966
▁phoenix	-9.7966
▁retreat	-9.7966
▁source	-9.7966
▁subject	-9.7966
▁surrender	-9.7966
▁trigger	-9.7966
▁understood	-9.7966
▁unhappy	-9.7966
▁whistling	-9.7966
▁robbie	-9.79661
▁dump	-9.79662
▁gotham	-9.79662
▁maggie	-9.79663
▁monster	-9.79663
▁teddy	-9.79663
▁blew	-9.79665
▁assistant	-9.79666
▁bride	-9.79667
▁rlght	-9.79668
▁boyfriend	-9.79669
▁chocolate	-9.79669
▁written	-9.79669
▁habit	-9.7967
▁mimi	-9.79671
▁connection	-9.79672
▁stink	-9.79672
▁duty	-9.79684
▁gentleman	-9.79688
▁audition	-9.7969
▁bowen	-9.79705
▁forth	-9.79707
▁anger	-9.79709
▁hugh	-9.79713
▁reaction	-9.79713
▁mona	-9.79714
▁page	-9.7972
▁classical	-9.79734
▁pace	-9.7975
▁spoken	-9.79759
▁el	-9.79773
gh	-9.79806
▁forty	-9.79812
▁according	-9.79824
▁fourth	-9.79827
▁clicking	-9.79928
▁joy	-9.7999
▁all	-9.8007
▁systems	-9.80099
▁bike	-9.80272
▁prisoners	-9.80423
▁precogs	-9.80436
▁orcs	-9.80451
▁believed	-9.80494
▁bigge	-9.80786
▁ned	-9.80881
▁mans	-9.80889
ath	-9.81037
▁attacked	-9.81156
▁gosh	-9.81173
▁speakers	-9.81193
ical	-9.81289
lar	-9.81437
▁recording	-9.81512
ster	-9.81527
▁loss	-9.8159
ga	-9.81812
▁scientist	-9.81836
hop	-9.81848
▁se	-9.81991
▁warriors	-9.82237
▁bum	-9.82323
▁vi	-9.82498
▁rat	-9.82552
▁hips	-9.82605
▁jab	-9.82633
▁fans	-9.82656
▁mothers	-9.82673
lic	-9.82994
▁picking	-9.83048
▁goat	-9.83138
▁shooting	-9.83161
▁interest	-9.83527
▁mars	-9.83804
▁cheat	-9.83917
▁poison	-9.83974
▁disappear	-9.83991
▁introduce	-9.84094
back	-9.84094
▁congress	-9.8439
▁clue	-9.84394
▁california	-9.84422
▁downstairs	-9.84422
▁eboshi	-9.84422
▁experiment	-9.84422
▁fifty	-9.84422
▁monitor	-9.84422
▁opinion	-9.84422
▁ranchhoddas	-9.84422
▁tradition	-9.84422
▁troops	-9.84422
▁eyre	-9.84422
▁imperial	-9.84422
▁blaring	-9.84423
▁debt	-9.84423
▁swimming	-9.84423
▁desire	-9.84423
▁senator	-9.84423
▁innocent	-9.84424
▁blade	-9.84424
▁cheap	-9.84424
▁erik	-9.84424
▁memories	-9.84424
▁gollum	-9.84424
▁francisco	-9.84425
▁weather	-9.84425
▁slept	-9.84427
▁toilet	-9.84427
▁blanket	-9.84428
▁flame	-9.84428
▁giant	-9.84429
▁honour	-9.8443
▁flag	-9.84432
▁earlier	-9.84434
▁loving	-9.84436
▁duck	-9.84439
▁wlll	-9.84441
▁grace	-9.84443
▁agena	-9.84453
▁lean	-9.84456
▁mj	-9.84462
▁unfortunately	-9.84462
▁batman	-9.84463
▁shore	-9.84464
▁regular	-9.84464
▁flip	-9.84475
▁tune	-9.8448
▁penny	-9.84491
▁trish	-9.84504
▁tip	-9.84505
▁battery	-9.84524
▁hon	-9.84532
▁winter	-9.84547
▁protection	-9.8456
▁passion	-9.84562
▁confirmed	-9.84681
▁adventure	-9.84692
▁former	-9.8472
▁glasses	-9.84779
▁comm	-9.84809
▁x	-9.84819
▁reality	-9.84839
▁gotten	-9.84897
▁armor	-9.84922
▁personally	-9.84953
▁carla	-9.84973
▁lower	-9.84986
▁prepared	-9.85028
▁based	-9.85081
▁gunn	-9.85155
▁autobots	-9.85362
▁mountains	-9.8541
▁kat	-9.85577
▁cure	-9.85582
▁lo	-9.85591
▁pills	-9.8574
▁lines	-9.85991
ok	-9.86237
light	-9.86387
▁closet	-9.86406
▁appear	-9.86408
▁up	-9.86443
▁burning	-9.86559
▁ear	-9.86562
▁leading	-9.86698
▁einon	-9.86819
▁roman	-9.86902
▁loser	-9.8698
▁pin	-9.87074
▁papers	-9.87161
▁forces	-9.87261
we	-9.87375
ure	-9.87593
room	-9.87737
her	-9.87786
▁of	-9.88077
▁seats	-9.882
▁voices	-9.88244
oden	-9.88402
▁guests	-9.88532
▁daughters	-9.88794
▁siren	-9.88803
▁echo	-9.88861
▁bang	-9.88909
▁chip	-9.88933
down	-9.89015
▁provide	-9.89091
▁settle	-9.89093
▁fund	-9.89098
▁proper	-9.89242
▁mal	-9.89276
▁pig	-9.89324
▁drag	-9.89339
▁chose	-9.89348
▁operation	-9.89361
▁jun	-9.89369
▁among	-9.89381
▁transport	-9.89402
▁symbol	-9.89404
▁orphan	-9.89404
▁revolution	-9.89412
▁agatha	-9.89422
▁beast	-9.89422
▁champagne	-9.89422
▁chicago	-9.89422
▁empire	-9.89422
▁enemies	-9.89422
▁extraordinary	-9.89422
▁flush	-9.89422
▁groot	-9.89422
▁guitar	-9.89422
▁increase	-9.89422
▁instant	-9.89422
▁jasper	-9.89422
▁joob	-9.89422
▁knife	-9.89422
▁mirror	-9.89422
▁morrison	-9.89422
▁mount	-9.89422
▁solution	-9.89422
▁struggle	-9.89422
▁unusual	-9.89422
▁vacation	-9.89422
▁wizard	-9.89422
▁eema	-9.89423
▁joyner	-9.89423
▁avoid	-9.89423
▁italy	-9.89423
▁miracle	-9.89423
▁telephone	-9.89423
▁renai	-9.89424
▁mickey	-9.89424
▁shirt	-9.89424
▁stress	-9.89424
▁glory	-9.89425
▁famous	-9.89427
▁subtitles	-9.8943
▁marston	-9.89431
▁stallion	-9.89432
▁horrible	-9.89436
▁function	-9.89441
▁brace	-9.89446
▁season	-9.89446
▁aah	-9.89447
▁vow	-9.89449
▁guardian	-9.8945
▁yup	-9.89452
▁rip	-9.89459
▁aware	-9.89465
▁jacket	-9.89469
▁skies	-9.8948
▁trial	-9.89485
▁demon	-9.89496
▁square	-9.89533
▁butter	-9.89672
▁nest	-9.89683
▁coughs	-9.89755
▁row	-9.89759
▁cello	-9.89786
▁arrived	-9.89813
▁hired	-9.89839
▁invitation	-9.89985
▁showing	-9.90023
▁survived	-9.90151
▁riding	-9.90175
▁worlds	-9.90203
▁decepticons	-9.90279
▁ul	-9.90433
▁codes	-9.90449
▁belongs	-9.90617
▁downs	-9.90636
for	-9.90689
▁traveling	-9.90718
by	-9.90737
per	-9.9075
▁expected	-9.9075
▁clicks	-9.90802
▁flowers	-9.90851
▁powers	-9.91007
▁led	-9.9103
▁backup	-9.91083
▁burned	-9.91183
▁stands	-9.91213
▁brains	-9.91242
▁gut	-9.913
▁fr	-9.91359
▁driver	-9.91389
▁lately	-9.91434
cy	-9.91534
▁members	-9.91605
▁site	-9.91797
▁odds	-9.91872
▁angel	-9.91944
▁finger	-9.92123
▁lively	-9.92148
ler	-9.92156
▁odd	-9.92172
▁followed	-9.92227
▁fires	-9.92329
▁dat	-9.92416
ions	-9.92432
▁fella	-9.92456
▁whi	-9.92506
ious	-9.92882
▁trusted	-9.92904
▁tale	-9.93102
▁cl	-9.93193
ux	-9.93202
▁hunt	-9.93499
▁suffer	-9.93714
▁sc	-9.93845
lve	-9.93919
▁respond	-9.94133
▁becomes	-9.94183
▁load	-9.94278
▁convince	-9.94334
book	-9.94344
▁hills	-9.9438
annoy	-9.9439
▁loves	-9.94447
▁usual	-9.94508
rt	-9.94514
▁pieces	-9.94538
▁sharp	-9.94541
▁awake	-9.94591
▁gentle	-9.94643
lor	-9.94646
▁brown	-9.94656
▁self	-9.94669
▁flash	-9.94684
▁ashitaka	-9.94685
▁central	-9.94685
▁cepheus	-9.94685
▁custody	-9.94685
▁disease	-9.94685
▁elliot	-9.94685
▁exchange	-9.94685
▁incident	-9.94685
▁intelligence	-9.94685
▁jacob	-9.94685
▁kragen	-9.94685
▁measure	-9.94685
▁mmmhmm	-9.94685
▁novalee	-9.94685
▁pippin	-9.94685
▁positive	-9.94685
▁revenge	-9.94685
▁silent	-9.94685
▁spread	-9.94685
▁traffic	-9.94685
▁whenever	-9.94685
▁closing	-9.94686
▁distant	-9.94686
▁donald	-9.94686
▁hustle	-9.94686
▁thief	-9.94686
▁kingdom	-9.94686
▁grey	-9.94686
▁gym	-9.94686
▁impact	-9.94686
▁underground	-9.94686
▁funeral	-9.94686
▁sniffles	-9.94687
▁altitude	-9.94689
▁basically	-9.9469
▁planning	-9.9469
▁film	-9.94691
▁section	-9.94692
▁species	-9.94694
▁chasing	-9.94695
▁responsible	-9.94696
▁elves	-9.94696
▁slide	-9.94696
▁leap	-9.94697
▁wwe	-9.94698
▁cabinet	-9.947
▁rising	-9.94703
▁stock	-9.94703
▁barking	-9.94704
▁tragedy	-9.94712
▁birth	-9.94712
▁southern	-9.94713
▁pulse	-9.94714
▁bedroom	-9.94716
▁literally	-9.9472
▁necessary	-9.94723
▁began	-9.94725
▁brings	-9.94733
▁mitch	-9.94736
▁dropped	-9.94737
▁cock	-9.94738
▁nasty	-9.94739
▁medal	-9.94747
▁minor	-9.94748
▁chill	-9.94761
▁tiny	-9.94826
▁statement	-9.94835
▁setting	-9.94836
▁mail	-9.94842
▁jc	-9.94861
▁lots	-9.94886
▁concerned	-9.94886
▁fallen	-9.94918
▁stolen	-9.94929
▁coin	-9.94963
▁warn	-9.94969
▁exclaims	-9.95036
▁off	-9.95118
ld	-9.9518
▁headed	-9.95225
▁salt	-9.95241
ard	-9.95255
▁fred	-9.95337
▁arrested	-9.95363
▁designed	-9.95458
▁knowing	-9.95486
▁hood	-9.95519
▁guineas	-9.9559
▁tied	-9.95644
▁chop	-9.95777
▁stealing	-9.9591
ris	-9.9614
▁highly	-9.96247
▁martians	-9.96289
▁likely	-9.96402
▁jumped	-9.96403
▁str	-9.96452
▁tryin	-9.96528
▁tag	-9.96616
▁hill	-9.96649
▁kings	-9.96803
▁knocking	-9.96835
red	-9.9687
use	-9.96944
▁beating	-9.97027
▁guts	-9.97299
▁ge	-9.97409
▁tire	-9.97471
▁rec	-9.97495
▁passing	-9.97503
▁ch	-9.97521
▁landed	-9.9759
ace	-9.97669
▁result	-9.97716
▁hobbit	-9.97757
▁plate	-9.97776
▁rage	-9.9779
▁lesson	-9.97828
▁songs	-9.97835
nce	-9.97905
▁z	-9.98001
▁si	-9.98155
▁ca	-9.98189
▁shoulder	-9.98234
▁ie	-9.98472
▁inter	-9.99008
▁records	-9.99125
▁shock	-9.99244
▁what	-9.9925
▁sweat	-9.99277
▁approach	-9.99605
▁bur	-9.99723
▁cast	-9.99738
ations	-9.99805
▁crow	-9.99877
▁checking	-9.99881
ap	-9.99893
▁graduate	-9.99906
▁grant	-9.99914
▁swords	-9.99974
▁victor	-10.0004
▁coop	-10.0004
▁rub	-10.0017
▁livin	-10.0018
▁europe	-10.0022
▁guarantee	-10.0024
▁although	-10.0024
▁borrow	-10.0024
▁campaign	-10.0024
▁channel	-10.0024
▁dwarf	-10.0024
▁dylan	-10.0024
▁eventually	-10.0024
▁express	-10.0024
▁flood	-10.0024
▁fluid	-10.0024
▁gross	-10.0024
▁melody	-10.0024
▁michelle	-10.0024
▁miserable	-10.0024
▁process	-10.0024
▁rattling	-10.0024
▁violent	-10.0024
▁africa	-10.0024
▁drax	-10.0024
▁finkle	-10.0024
▁harris	-10.0024
▁deke	-10.0024
▁jessica	-10.0024
▁upbeat	-10.0024
▁garbage	-10.0024
▁priest	-10.0025
▁punk	-10.0025
▁commit	-10.0025
▁romantic	-10.0025
▁committed	-10.0025
▁zone	-10.0025
▁richard	-10.0025
▁belt	-10.0026
▁medication	-10.0026
▁onion	-10.0027
▁quill	-10.0028
▁mere	-10.0029
▁rare	-10.003
▁jimmy	-10.003
▁yearold	-10.003
▁market	-10.0031
▁core	-10.0033
▁runs	-10.0034
▁surrounded	-10.004
▁meal	-10.0041
▁usually	-10.0043
▁rosen	-10.0044
▁parties	-10.0055
▁mar	-10.0057
▁endless	-10.0062
▁mixed	-10.0064
▁stopping	-10.0067
no	-10.0071
▁drum	-10.0075
▁hire	-10.0082
▁spit	-10.0084
▁pissed	-10.0088
▁ruined	-10.0099
▁tent	-10.0101
▁idiots	-10.0112
▁stairs	-10.012
▁perfectly	-10.0129
▁stronger	-10.013
▁realized	-10.0137
ified	-10.0149
▁mel	-10.0149
▁mustve	-10.0154
▁sire	-10.0163
ome	-10.0171
ments	-10.0188
▁hurts	-10.0188
▁image	-10.0191
▁auctione	-10.02
▁knocked	-10.0202
▁pe	-10.0202
▁americans	-10.0215
▁ac	-10.0224
▁gu	-10.0229
▁knees	-10.0239
und	-10.0251
▁fe	-10.0251
▁degrees	-10.0253
▁mint	-10.0257
▁pl	-10.0273
▁cur	-10.0277
▁results	-10.0283
▁bee	-10.0338
▁guards	-10.0347
▁te	-10.0351
▁gunshot	-10.0359
▁member	-10.0361
▁sometime	-10.0365
▁sue	-10.0387
▁whistles	-10.0403
▁doctors	-10.0407
com	-10.0417
ker	-10.0418
face	-10.0436
ley	-10.0448
▁steps	-10.0451
▁sending	-10.0456
▁whip	-10.0465
▁reed	-10.0473
▁leaves	-10.0484
▁reports	-10.0507
▁sha	-10.0529
▁dive	-10.0538
od	-10.055
▁text	-10.0556
ible	-10.0563
▁leaders	-10.0564
art	-10.0566
▁hung	-10.0567
▁reveal	-10.0568
▁engage	-10.0573
▁mix	-10.0574
town	-10.0577
▁earn	-10.0579
▁practice	-10.0581
house	-10.0581
▁flow	-10.0582
▁wln	-10.0585
▁def	-10.0593
boy	-10.0597
▁rick	-10.06
▁seal	-10.0601
▁martin	-10.0607
▁helm	-10.0609
▁comfort	-10.061
▁taxi	-10.061
▁complex	-10.0612
▁darby	-10.0612
▁ducard	-10.0612
▁elizabeth	-10.0612
▁equipment	-10.0612
▁gemini	-10.0612
▁horizon	-10.0612
▁jensen	-10.0612
▁junior	-10.0612
▁necklace	-10.0612
▁nuclear	-10.0612
▁oxygen	-10.0612
▁privacy	-10.0612
▁progress	-10.0612
▁pyramid	-10.0612
▁remote	-10.0612
▁responsibility	-10.0612
▁restaurant	-10.0612
▁signature	-10.0612
▁snake	-10.0612
▁violence	-10.0612
▁volunteer	-10.0612
▁ammi	-10.0612
▁farewell	-10.0612
▁nightmare	-10.0612
▁knowledge	-10.0612
▁ferry	-10.0612
▁rachel	-10.0612
▁rodney	-10.0612
▁orbit	-10.0612
▁hansen	-10.0613
▁stood	-10.0613
▁civilian	-10.0613
▁senate	-10.0613
▁fairfax	-10.0613
▁wilson	-10.0613
▁pork	-10.0613
▁spark	-10.0613
▁backwards	-10.0613
▁denny	-10.0613
▁severe	-10.0613
▁sophie	-10.0613
▁punishment	-10.0613
▁lisa	-10.0614
▁status	-10.0614
▁static	-10.0614
▁goose	-10.0614
▁towel	-10.0614
▁wherever	-10.0614
▁robot	-10.0614
▁therell	-10.0615
▁football	-10.0615
▁clock	-10.0615
▁rhythm	-10.0615
▁marian	-10.0616
▁naked	-10.0617
▁package	-10.0618
▁fence	-10.0619
▁homework	-10.0621
▁peaceful	-10.0622
▁bender	-10.0624
▁craft	-10.0624
▁patch	-10.0626
▁whooshing	-10.0627
▁mass	-10.0627
▁blt	-10.0628
▁guilty	-10.0629
▁invented	-10.0629
▁model	-10.0629
▁scary	-10.0631
▁creed	-10.0632
▁wander	-10.0632
▁ricky	-10.0632
▁ash	-10.0638
▁finding	-10.0643
▁tear	-10.0652
▁loaded	-10.066
▁beth	-10.0671
▁spa	-10.0673
▁rocko	-10.0678
▁archer	-10.068
▁belly	-10.0683
ara	-10.0685
▁troubles	-10.0686
sa	-10.0686
and	-10.0712
▁raised	-10.0717
▁nasa	-10.0723
▁smaller	-10.0724
▁fights	-10.0737
tt	-10.0739
row	-10.0745
▁details	-10.0746
▁sports	-10.0762
▁den	-10.0765
▁ding	-10.0769
ence	-10.078
▁younger	-10.0801
▁ending	-10.0807
▁shots	-10.0843
▁pushing	-10.0844
▁fart	-10.086
▁bl	-10.0866
▁dings	-10.0866
ste	-10.0904
▁chips	-10.0912
▁ears	-10.0919
▁or	-10.0924
▁author	-10.0925
▁wei	-10.0943
▁masters	-10.0943
▁goal	-10.0957
▁millions	-10.097
▁expert	-10.0978
ock	-10.0984
▁degree	-10.0985
▁toward	-10.0988
▁mp	-10.0989
▁older	-10.0996
▁ideas	-10.1004
▁ar	-10.1024
▁chi	-10.1033
▁gives	-10.1051
gen	-10.1059
▁places	-10.1072
▁bags	-10.108
▁contain	-10.1097
ign	-10.1116
▁events	-10.1148
pers	-10.1164
▁sail	-10.1169
▁los	-10.1181
▁gus	-10.1191
▁wound	-10.1195
▁assure	-10.1209
▁sudden	-10.1219
▁sn	-10.1222
▁exam	-10.1232
▁maid	-10.1233
▁waited	-10.1233
▁combat	-10.1236
▁sparta	-10.1237
▁canyon	-10.1237
▁deepcore	-10.1237
▁discovered	-10.1237
▁explode	-10.1237
▁genetic	-10.1237
▁helicopter	-10.1237
▁including	-10.1237
▁inhales	-10.1237
▁isengard	-10.1237
▁jealous	-10.1237
▁jeez	-10.1237
▁jenny	-10.1237
▁manhattan	-10.1237
▁milady	-10.1237
▁monsieur	-10.1237
▁pascal	-10.1237
▁recommend	-10.1237
▁repair	-10.1237
▁rouran	-10.1237
▁supply	-10.1237
▁trunk	-10.1237
▁valuable	-10.1237
▁wednesday	-10.1237
▁maintain	-10.1237
▁spear	-10.1237
▁thlnk	-10.1237
▁coast	-10.1237
▁joshua	-10.1237
▁mostly	-10.1237
▁serum	-10.1237
▁superior	-10.1237
▁swallow	-10.1237
▁beverly	-10.1237
▁varinia	-10.1237
▁conference	-10.1237
▁tech	-10.1237
▁creep	-10.1237
▁reese	-10.1238
▁burden	-10.1238
▁joking	-10.1238
▁league	-10.1238
▁sodom	-10.1238
▁score	-10.1238
▁online	-10.1238
▁navy	-10.1238
▁legend	-10.1238
▁chatur	-10.1238
▁willow	-10.1238
▁failure	-10.1238
▁broadcast	-10.1239
▁wrap	-10.1239
▁princeton	-10.1239
▁mysterious	-10.1239
▁selfish	-10.1239
▁easier	-10.1239
▁dube	-10.1239
▁sept	-10.1239
▁firing	-10.1239
▁trophy	-10.1239
▁ingram	-10.124
▁howard	-10.124
▁diana	-10.124
▁grandfather	-10.1241
▁lunar	-10.1241
▁humor	-10.1241
▁doom	-10.1242
▁elf	-10.1243
▁eastern	-10.1243
▁standard	-10.1243
▁flies	-10.1243
▁firm	-10.1244
▁moms	-10.1246
▁squeaking	-10.125
▁taxes	-10.1253
▁fu	-10.1253
▁sweetest	-10.1258
▁dld	-10.1264
▁gathered	-10.1267
▁bury	-10.1271
▁wink	-10.1273
▁ne	-10.1273
▁provided	-10.1279
▁fay	-10.128
▁owen	-10.1281
▁bb	-10.1282
▁eaten	-10.1282
▁laser	-10.1283
▁sexy	-10.1286
▁carlin	-10.1287
▁scan	-10.1288
▁shy	-10.1295
▁phones	-10.1299
▁scotty	-10.1301
▁shape	-10.1302
▁cursed	-10.131
▁nearly	-10.1312
▁gloves	-10.1313
king	-10.1317
istic	-10.1325
▁survivors	-10.1329
▁escaped	-10.133
▁container	-10.133
▁rate	-10.1331
▁machines	-10.1343
▁finest	-10.1344
▁joint	-10.1345
fi	-10.1348
▁crossing	-10.1349
▁drugs	-10.135
▁slowly	-10.1375
▁fully	-10.1421
tin	-10.1433
▁slap	-10.1444
ash	-10.1478
▁wins	-10.1485
▁jam	-10.1491
▁returned	-10.1492
▁teaching	-10.155
▁inn	-10.1558
ah	-10.1572
▁counter	-10.1576
day	-10.1584
▁arrive	-10.1594
ator	-10.1597
▁counting	-10.1597
▁grunt	-10.1603
▁knee	-10.1605
▁touching	-10.1634
▁skill	-10.1648
▁victim	-10.165
▁tu	-10.1653
▁cleared	-10.1657
ex	-10.1658
iv	-10.1661
▁bullets	-10.1666
▁hits	-10.1687
▁prim	-10.1705
gie	-10.1705
▁cal	-10.1711
▁answering	-10.1732
▁cow	-10.1758
▁su	-10.1766
ox	-10.1769
▁murderer	-10.177
▁chances	-10.1779
▁cu	-10.1806
▁hates	-10.1836
▁jo	-10.1841
▁ant	-10.1847
lu	-10.1851
▁pum	-10.1854
▁pour	-10.186
▁route	-10.1861
ama	-10.1869
two	-10.1875
▁hm	-10.1877
▁dirt	-10.1885
▁exact	-10.1888
▁mis	-10.1891
▁weigh	-10.1892
▁merc	-10.1892
▁mental	-10.1892
▁rom	-10.1894
▁tick	-10.1894
▁audit	-10.19
▁confess	-10.19
▁trans	-10.1901
▁success	-10.1902
▁loyal	-10.1902
▁memo	-10.1904
▁activity	-10.1904
▁amount	-10.1904
▁atlantic	-10.1904
▁ceiling	-10.1904
▁counsel	-10.1904
▁coyote	-10.1904
▁disgusting	-10.1904
▁expensive	-10.1904
▁explosiveskull	-10.1904
▁gamora	-10.1904
▁generous	-10.1904
▁glabrus	-10.1904
▁holiday	-10.1904
▁honghui	-10.1904
▁inspire	-10.1904
▁juilliard	-10.1904
▁okkoto	-10.1904
▁peanut	-10.1904
▁pizza	-10.1904
▁political	-10.1904
▁pomatter	-10.1904
▁saturday	-10.1904
▁senior	-10.1904
▁shinyoung	-10.1904
▁silver	-10.1904
▁soccer	-10.1904
▁ventura	-10.1904
▁await	-10.1904
▁bhai	-10.1904
▁clamoring	-10.1904
▁equation	-10.1904
▁escort	-10.1904
▁example	-10.1904
▁juice	-10.1904
▁rifle	-10.1904
▁bodies	-10.1904
▁motive	-10.1904
▁nope	-10.1904
▁propose	-10.1904
▁snoring	-10.1904
▁motor	-10.1904
▁warrant	-10.1904
▁facility	-10.1904
▁owner	-10.1904
▁stroke	-10.1904
▁hoo	-10.1904
▁steel	-10.1904
▁martha	-10.1904
▁denied	-10.1904
▁peacekeepers	-10.1904
▁pacific	-10.1905
▁catherine	-10.1905
▁tribe	-10.1905
▁franz	-10.1905
▁theme	-10.1905
▁purty	-10.1905
▁sameer	-10.1905
▁orange	-10.1905
▁ladder	-10.1905
▁surgery	-10.1905
▁doris	-10.1905
▁talent	-10.1906
▁lima	-10.1906
▁filthy	-10.1907
▁coordinates	-10.1908
▁reward	-10.1908
▁cockroaches	-10.1908
▁jammer	-10.1908
▁booth	-10.1909
▁helmet	-10.1909
▁callahan	-10.191
▁possession	-10.191
▁port	-10.191
▁rio	-10.1911
▁determined	-10.1912
▁grateful	-10.1912
▁classic	-10.1913
▁dash	-10.1913
▁colon	-10.1914
▁toss	-10.1915
▁hail	-10.1917
▁bound	-10.1918
▁buildings	-10.1922
▁chin	-10.1925
▁math	-10.1932
▁healthy	-10.1935
▁frankie	-10.1936
▁gray	-10.1944
▁directly	-10.1948
▁dot	-10.1956
▁host	-10.197
▁pilots	-10.1978
▁legions	-10.1986
ang	-10.1995
▁blessed	-10.1998
izing	-10.1998
▁wasted	-10.2006
▁fort	-10.2008
▁focused	-10.2012
▁russians	-10.2014
ire	-10.2028
▁we	-10.203
▁partners	-10.2031
cha	-10.2037
▁bump	-10.2044
▁offered	-10.2045
▁nights	-10.205
▁guide	-10.2052
▁bon	-10.2055
▁fixed	-10.207
▁dancer	-10.2077
▁trucks	-10.2083
▁sip	-10.2086
▁pillars	-10.2092
▁thuds	-10.211
▁cows	-10.2162
▁victims	-10.2165
▁tr	-10.2166
▁ju	-10.2177
▁scar	-10.2192
▁kicking	-10.2196
▁hy	-10.2198
▁bomber	-10.2217
ney	-10.2227
▁touched	-10.2234
▁smells	-10.2236
▁cleaning	-10.2244
ray	-10.2255
▁rats	-10.2267
▁sons	-10.2314
ten	-10.2317
ja	-10.233
▁sin	-10.2336
▁effect	-10.2353
▁ram	-10.2353
▁mask	-10.2355
▁client	-10.2361
▁photo	-10.2361
▁option	-10.2363
▁dec	-10.2369
▁gum	-10.2376
▁gates	-10.2385
nat	-10.2393
ame	-10.2394
fl	-10.242
▁changes	-10.2434
▁dam	-10.2436
▁adams	-10.2439
▁ph	-10.2441
▁ka	-10.2444
ors	-10.2444
top	-10.2465
▁will	-10.2472
▁suits	-10.2475
▁pulling	-10.2475
▁cha	-10.2481
▁mag	-10.2542
act	-10.2559
▁shout	-10.2567
▁publish	-10.2575
▁wrestle	-10.2579
▁advance	-10.2586
▁ven	-10.2598
▁guilt	-10.2598
▁surely	-10.2599
▁obvious	-10.26
▁actual	-10.2601
air	-10.2606
▁invite	-10.2607
▁possess	-10.2612
▁woo	-10.2614
▁sara	-10.2614
▁stark	-10.2615
▁concert	-10.2618
▁interrupt	-10.2618
▁prevent	-10.2618
▁antoninus	-10.2618
▁attorney	-10.2618
▁chamber	-10.2618
▁chanchad	-10.2618
▁disgrace	-10.2618
▁elevat	-10.2618
▁envelope	-10.2618
▁fifth	-10.2618
▁garcia	-10.2618
▁governor	-10.2618
▁include	-10.2618
▁insurance	-10.2618
▁legacy	-10.2618
▁levinson	-10.2618
▁liberty	-10.2618
▁library	-10.2618
▁lichtenstein	-10.2618
▁newspaper	-10.2618
▁phase	-10.2618
▁physics	-10.2618
▁procedure	-10.2618
▁purple	-10.2618
▁sauce	-10.2618
▁succeed	-10.2618
▁television	-10.2618
▁virtue	-10.2618
▁walmart	-10.2618
▁weyland	-10.2618
▁cancer	-10.2618
▁depth	-10.2618
▁fetch	-10.2618
▁grond	-10.2618
▁laura	-10.2618
▁practical	-10.2618
▁stream	-10.2618
▁radar	-10.2618
▁shove	-10.2618
▁smooth	-10.2618
▁daisy	-10.2618
▁distress	-10.2618
▁agency	-10.2618
▁starving	-10.2618
▁sequence	-10.2618
▁convention	-10.2618
▁scholarship	-10.2618
▁cletus	-10.2618
▁wolves	-10.2618
▁lizard	-10.2618
▁choking	-10.2619
▁muslim	-10.2619
▁foster	-10.2619
▁herr	-10.2619
▁false	-10.2619
▁instructions	-10.2619
▁protest	-10.2619
▁curious	-10.2619
▁ivan	-10.2619
▁resist	-10.2619
▁knots	-10.2619
▁kali	-10.2619
▁abagnale	-10.2619
▁brick	-10.2619
▁electricity	-10.2619
▁plato	-10.2619
▁plow	-10.262
▁treasure	-10.262
▁crawl	-10.262
▁moan	-10.2621
▁dignity	-10.2621
▁flop	-10.2621
▁dragonhead	-10.2621
▁narrator	-10.2621
▁hostage	-10.2621
▁poem	-10.2621
▁hlm	-10.2621
▁decent	-10.2622
▁begun	-10.2622
▁plot	-10.2622
▁coco	-10.2622
▁regard	-10.2623
▁rally	-10.2623
▁unlock	-10.2624
▁howl	-10.2624
▁flynn	-10.2625
▁mach	-10.2626
▁version	-10.2627
▁castle	-10.2628
▁grave	-10.2628
▁rode	-10.2628
▁dig	-10.2631
▁oughta	-10.2631
▁johnny	-10.2632
▁lois	-10.2633
ium	-10.2633
▁pit	-10.2634
▁begins	-10.2634
▁humanity	-10.2637
▁honking	-10.2638
▁mercy	-10.264
▁communication	-10.264
▁clattering	-10.2641
▁laid	-10.2642
ying	-10.2642
▁mood	-10.2645
▁billion	-10.2646
lou	-10.2649
▁leak	-10.2651
▁deny	-10.2655
▁lifetime	-10.2662
▁hopeless	-10.2669
▁creamy	-10.2671
▁ticking	-10.2677
▁recall	-10.2678
▁media	-10.2689
▁ren	-10.2691
▁hunting	-10.2695
mate	-10.2695
▁leads	-10.2703
▁pod	-10.2705
▁ego	-10.2708
▁fools	-10.2719
▁treated	-10.2722
▁associate	-10.2732
▁lover	-10.2739
▁carrie	-10.274
▁airlines	-10.2744
▁yay	-10.276
▁freaking	-10.2772
▁accepted	-10.2776
▁drawing	-10.2781
▁arts	-10.2786
▁realm	-10.2788
▁boars	-10.2803
▁offering	-10.2813
bo	-10.2814
tz	-10.2817
▁cam	-10.2828
▁nor	-10.2846
▁acting	-10.2848
▁intr	-10.2849
▁hunters	-10.2862
▁kicked	-10.2864
▁reaching	-10.288
ya	-10.2901
▁pats	-10.2911
▁humble	-10.2919
▁gunshots	-10.2938
▁dreamed	-10.2946
▁bells	-10.2952
▁prefer	-10.2958
▁secrets	-10.2964
▁bees	-10.2991
▁med	-10.3
▁fore	-10.3003
▁matters	-10.3005
▁reasons	-10.3007
▁sw	-10.3026
▁friendly	-10.3034
▁tube	-10.3037
▁cave	-10.304
▁pure	-10.305
▁ld	-10.3054
▁royal	-10.3062
ways	-10.3069
▁badly	-10.3079
bi	-10.3084
▁hesitate	-10.3104
▁satellite	-10.3129
▁millers	-10.3134
▁depend	-10.3135
▁egg	-10.3137
▁ti	-10.314
▁ras	-10.3145
▁cares	-10.3149
▁laws	-10.3152
▁mile	-10.3156
▁hunter	-10.3159
▁bo	-10.3163
lock	-10.3168
ong	-10.3175
▁stranger	-10.319
lin	-10.3212
▁seek	-10.3246
▁movies	-10.3256
▁promises	-10.3256
▁caused	-10.326
▁teams	-10.3296
▁boot	-10.3313
▁cards	-10.3313
▁eva	-10.3326
▁han	-10.3343
▁confirm	-10.3343
▁abandon	-10.3345
▁assum	-10.3349
▁arrange	-10.3351
wise	-10.3359
ix	-10.3363
▁waters	-10.3363
▁collect	-10.3367
▁recover	-10.3368
▁constant	-10.3368
▁twist	-10.3368
▁essential	-10.3368
▁physical	-10.3369
▁particular	-10.3369
▁rum	-10.3374
▁ghosts	-10.3375
▁spy	-10.3378
▁mille	-10.3378
▁thou	-10.3387
▁tlg	-10.3387
▁admiral	-10.3388
▁ambulance	-10.3388
▁august	-10.3388
▁australia	-10.3388
▁bachelor	-10.3388
▁belief	-10.3388
▁brigman	-10.3388
▁cheek	-10.3388
▁coffey	-10.3388
▁commercial	-10.3388
▁discovery	-10.3388
▁dolores	-10.3388
▁edmunds	-10.3388
▁enormous	-10.3388
▁favour	-10.3388
▁gracchus	-10.3388
▁gupta	-10.3388
▁hurricane	-10.3388
▁illegal	-10.3388
▁instrument	-10.3388
▁lafayette	-10.3388
▁multiple	-10.3388
▁munich	-10.3388
▁nahoko	-10.3388
▁pelican	-10.3388
▁politics	-10.3388
▁rochelle	-10.3388
▁servant	-10.3388
▁shelter	-10.3388
▁society	-10.3388
▁sordino	-10.3388
▁withdraw	-10.3388
▁zephyr	-10.3388
▁babies	-10.3388
▁balance	-10.3388
▁eteon	-10.3388
▁exciting	-10.3388
▁guild	-10.3388
▁ironworks	-10.3388
▁youii	-10.3388
▁boston	-10.3388
▁doyle	-10.3388
▁modern	-10.3388
▁moria	-10.3388
▁profit	-10.3388
▁strict	-10.3388
▁rogue	-10.3388
▁tatsi	-10.3388
▁terrified	-10.3388
▁wicked	-10.3388
▁judy	-10.3388
▁revvin	-10.3388
▁lamar	-10.3388
▁scatter	-10.3388
▁resume	-10.3388
▁lonely	-10.3388
▁nazg	-10.3388
▁pym	-10.3388
▁allegra	-10.3388
▁vision	-10.3388
▁accent	-10.3388
▁describe	-10.3388
▁invisible	-10.3388
▁narf	-10.3388
▁robert	-10.3388
▁woke	-10.3388
▁japan	-10.3388
▁gimli	-10.3388
▁wrist	-10.3388
▁eddie	-10.3388
▁splash	-10.3389
▁hippy	-10.3389
▁ugh	-10.3389
▁benson	-10.3389
▁reckon	-10.339
▁aggressive	-10.339
▁sosa	-10.339
▁championship	-10.339
▁ceremony	-10.339
▁successful	-10.339
▁gim	-10.339
▁beings	-10.3391
▁authority	-10.3391
bag	-10.3391
▁loan	-10.3391
▁gunther	-10.3391
▁jj	-10.3391
▁collection	-10.3391
▁gap	-10.3391
▁task	-10.3391
▁heil	-10.3392
▁soup	-10.3392
▁spotted	-10.3392
▁tlme	-10.3392
▁weakness	-10.3393
▁alma	-10.3393
▁web	-10.3393
▁atf	-10.3393
▁puzzle	-10.3394
▁comment	-10.3394
▁thirsty	-10.3395
▁available	-10.3395
▁bog	-10.3395
▁footage	-10.3395
▁relative	-10.3396
▁dimension	-10.3397
▁pink	-10.3397
▁macho	-10.3398
▁highway	-10.3398
▁china	-10.3398
▁exclaiming	-10.3399
▁commissioner	-10.34
▁planned	-10.34
▁coma	-10.34
▁fried	-10.34
▁grass	-10.3401
▁jay	-10.3401
▁hack	-10.3401
▁exit	-10.3402
▁angeles	-10.3402
▁player	-10.3404
▁mob	-10.3404
▁cole	-10.3405
▁sonny	-10.3409
▁reasonable	-10.3409
▁developed	-10.3412
▁farm	-10.3412
▁penis	-10.3413
▁sharply	-10.3415
▁ended	-10.3415
▁aliens	-10.3416
▁murmuring	-10.3416
▁divorced	-10.3417
▁retired	-10.3419
▁advanced	-10.3423
▁madame	-10.3425
ight	-10.3427
▁rear	-10.3428
▁dial	-10.3429
▁kate	-10.343
▁lands	-10.343
▁abandoned	-10.343
▁engaged	-10.3431
▁boost	-10.3434
▁rocks	-10.3434
▁tri	-10.3436
▁charming	-10.3438
lc	-10.3439
▁howdy	-10.344
▁divas	-10.344
▁rope	-10.3443
▁nervously	-10.3446
▁thrown	-10.3452
▁cable	-10.3454
▁lap	-10.3463
▁considered	-10.3465
▁string	-10.3471
▁kim	-10.3475
▁designer	-10.3475
action	-10.3479
▁considering	-10.3487
▁pretending	-10.3491
▁foundation	-10.3492
▁carefully	-10.3493
▁tin	-10.3493
▁bandy	-10.3496
▁pirates	-10.3502
all	-10.3534
▁defending	-10.354
▁citizens	-10.3542
▁belonged	-10.3559
▁wha	-10.3561
▁buzzing	-10.3571
▁mutt	-10.3572
▁windows	-10.3578
▁boarding	-10.3594
▁thy	-10.3596
▁parking	-10.3609
▁toe	-10.3649
ont	-10.3652
▁worker	-10.3654
▁oi	-10.366
▁ava	-10.3673
tha	-10.3678
itates	-10.3679
ville	-10.3704
▁acts	-10.3708
▁gifts	-10.3712
▁tears	-10.3728
▁sounded	-10.3737
▁ir	-10.3793
▁ko	-10.3794
▁returning	-10.3797
▁thoughts	-10.3799
sta	-10.3808
▁grades	-10.3839
▁dreaming	-10.3844
▁vil	-10.3849
▁suspects	-10.3884
▁creatures	-10.3884
▁officials	-10.3885
▁wipe	-10.3891
▁messages	-10.3909
▁scrap	-10.391
ward	-10.3914
▁claim	-10.3915
aft	-10.3916
iest	-10.3919
▁require	-10.3925
▁terror	-10.394
▁traitor	-10.3957
▁toot	-10.3958
▁beep	-10.396
▁thud	-10.3967
▁carly	-10.3968
▁martian	-10.3968
▁beside	-10.3972
▁rank	-10.3975
▁shoe	-10.3976
▁parent	-10.3977
▁chuckle	-10.3978
▁bug	-10.3984
hal	-10.3986
▁folk	-10.3987
▁kin	-10.3991
▁fed	-10.4008
▁reg	-10.401
▁files	-10.4015
▁planes	-10.4017
cu	-10.4036
▁nations	-10.4038
▁dealing	-10.4038
ank	-10.4043
▁hop	-10.406
▁harve	-10.4077
gs	-10.4077
▁transfer	-10.4081
▁visual	-10.4111
▁strip	-10.4115
▁insult	-10.4118
tle	-10.4122
▁dl	-10.4138
▁breaks	-10.4156
▁gain	-10.4163
▁sink	-10.4171
▁burst	-10.4171
▁affect	-10.4172
▁stretch	-10.4175
▁detect	-10.4175
▁breach	-10.4177
▁drill	-10.4177
▁insist	-10.4178
walk	-10.4182
▁betray	-10.4182
star	-10.4184
what	-10.4187
▁charm	-10.4196
izz	-10.4197
▁natural	-10.4202
▁lack	-10.4203
power	-10.4209
▁sandwich	-10.4211
▁pupp	-10.4217
▁spider	-10.4218
▁mort	-10.422
▁circu	-10.422
▁damned	-10.422
▁establish	-10.422
rim	-10.4221
▁fabric	-10.4221
▁intercept	-10.4221
▁interfere	-10.4221
▁magarri	-10.4221
▁academy	-10.4221
▁almighty	-10.4221
▁ambassador	-10.4221
▁arguing	-10.4221
▁arwen	-10.4221
▁bargain	-10.4221
▁beethoven	-10.4221
▁behalf	-10.4221
▁behavior	-10.4221
▁beloved	-10.4221
▁beneath	-10.4221
▁boromir	-10.4221
▁connors	-10.4221
▁dwarves	-10.4221
▁elephant	-10.4221
▁encrypt	-10.4221
▁extend	-10.4221
▁families	-10.4221
▁fifteen	-10.4221
▁flavor	-10.4221
▁fortunate	-10.4221
▁hartley	-10.4221
▁hehhehheh	-10.4221
▁herald	-10.4221
▁identify	-10.4221
▁injured	-10.4221
▁jean	-10.4221
▁mcbain	-10.4221
▁opponent	-10.4221
▁ordinary	-10.4221
▁pittsburgh	-10.4221
▁rebuild	-10.4221
▁relations	-10.4221
▁reputation	-10.4221
▁response	-10.4221
▁scheme	-10.4221
▁scrunt	-10.4221
▁supreme	-10.4221
▁survival	-10.4221
▁thursday	-10.4221
▁tirith	-10.4221
▁trauma	-10.4221
▁tremendous	-10.4221
▁trevor	-10.4221
▁unknown	-10.4221
▁violation	-10.4221
▁voyles	-10.4221
▁wheirdicht	-10.4221
▁whimpers	-10.4221
▁wisdom	-10.4221
▁circumstances	-10.4221
▁dutch	-10.4221
▁grew	-10.4221
▁offense	-10.4221
▁outfit	-10.4221
▁parcher	-10.4221
▁pathetic	-10.4221
▁penalty	-10.4221
▁policy	-10.4221
▁wangdu	-10.4221
▁article	-10.4221
▁lainie	-10.4221
▁candy	-10.4221
▁crisis	-10.4221
▁cadet	-10.4221
▁faramir	-10.4221
▁neighborhood	-10.4221
▁stomach	-10.4221
▁miami	-10.4221
▁aisle	-10.4221
▁thick	-10.4221
▁begging	-10.4221
▁collar	-10.4221
▁wormhole	-10.4221
▁lonnie	-10.4221
▁cigarette	-10.4221
▁middleearth	-10.4221
▁twelve	-10.4221
▁heels	-10.4221
▁monkey	-10.4221
▁sobs	-10.4221
▁expand	-10.4221
▁asleep	-10.4221
▁marino	-10.4221
▁allah	-10.4222
martial	-10.4222
▁foul	-10.4222
▁flank	-10.4222
▁existence	-10.4222
▁prick	-10.4222
▁salad	-10.4222
▁soap	-10.4222
▁bolt	-10.4222
▁thieves	-10.4222
▁rewind	-10.4222
▁dldnt	-10.4222
▁wilhemina	-10.4222
▁passport	-10.4223
▁huit	-10.4223
▁marine	-10.4223
▁roland	-10.4223
▁charity	-10.4224
▁classified	-10.4224
▁hatred	-10.4224
▁coup	-10.4224
▁review	-10.4224
▁heck	-10.4225
▁interpreter	-10.4225
▁squeeze	-10.4225
▁define	-10.4225
▁impression	-10.4225
▁obliged	-10.4225
▁century	-10.4225
▁dora	-10.4226
▁touchdown	-10.4226
▁treatment	-10.4226
▁solid	-10.4226
▁aj	-10.4227
▁choke	-10.4227
▁hunterson	-10.4227
▁fitz	-10.4227
▁notes	-10.4228
▁explorer	-10.4228
▁sammy	-10.4229
▁dropping	-10.423
▁whore	-10.423
▁tapped	-10.4232
▁rah	-10.4233
▁pepper	-10.4234
▁announcement	-10.4237
▁attend	-10.4237
▁ability	-10.4238
▁facing	-10.4238
▁tug	-10.4239
▁rice	-10.4241
▁why	-10.4243
▁cane	-10.4247
za	-10.4252
▁shine	-10.4259
▁insisted	-10.4264
▁vice	-10.4265
▁wrestler	-10.4267
▁residents	-10.4278
▁sheets	-10.4278
▁cape	-10.4286
▁granted	-10.4287
▁removed	-10.4292
▁falls	-10.4292
ept	-10.4294
ture	-10.4299
▁boobs	-10.43
▁driven	-10.4305
▁zed	-10.4307
▁painted	-10.4311
▁washed	-10.4313
▁mentioned	-10.4317
ther	-10.432
▁served	-10.4321
▁husbands	-10.4321
▁products	-10.4323
▁thankyou	-10.4329
▁shar	-10.4331
▁kay	-10.4338
▁dal	-10.4342
▁psycho	-10.4349
▁entirely	-10.4355
▁swa	-10.4362
▁wishes	-10.4365
▁entering	-10.4368
▁imagined	-10.4373
▁safer	-10.4378
ette	-10.4383
▁makeup	-10.4385
val	-10.439
▁passengers	-10.4392
ike	-10.4393
ino	-10.4397
▁borders	-10.4415
▁drones	-10.4415
▁growing	-10.4422
▁my	-10.4424
rid	-10.4439
▁nap	-10.4458
my	-10.446
▁diet	-10.4478
ink	-10.4485
▁nu	-10.4485
five	-10.4486
▁seated	-10.4495
ction	-10.4508
▁chap	-10.4519
▁honored	-10.4526
▁options	-10.453
ina	-10.4537
▁cleaned	-10.4558
▁solo	-10.4561
▁learning	-10.457
che	-10.457
▁prayer	-10.4572
eat	-10.458
ardi	-10.4589
▁las	-10.4599
▁forms	-10.4601
▁everyones	-10.4614
▁banks	-10.4631
▁shoulders	-10.4647
▁maya	-10.4652
▁sis	-10.4654
ef	-10.4658
▁jan	-10.4668
▁er	-10.4668
▁appears	-10.4671
▁wit	-10.4671
▁op	-10.4688
ties	-10.4689
ries	-10.4705
▁tunnels	-10.4716
▁lookin	-10.4753
▁buying	-10.4761
▁bastards	-10.4763
▁issues	-10.4763
▁purchase	-10.4776
ron	-10.4778
gram	-10.4783
▁nut	-10.4799
tal	-10.481
▁click	-10.4813
ez	-10.4832
▁arch	-10.4841
itched	-10.4842
lm	-10.4847
ration	-10.4847
▁demand	-10.4866
aries	-10.487
▁breast	-10.4872
▁astronaut	-10.4873
▁pillar	-10.4878
▁pill	-10.488
nic	-10.4882
han	-10.489
▁judges	-10.4905
▁wis	-10.4919
▁flower	-10.4935
▁rooms	-10.4942
▁gather	-10.4985
q	-10.5031
▁reminds	-10.5043
lson	-10.5056
rk	-10.506
▁drinks	-10.507
ives	-10.5072
▁bleed	-10.5077
▁profession	-10.5079
▁inform	-10.5085
▁disappoint	-10.5087
▁photograph	-10.509
▁corn	-10.5092
▁retire	-10.5095
▁rescue	-10.5096
john	-10.5098
▁divorce	-10.5098
lie	-10.5103
phone	-10.5107
▁luc	-10.5108
▁burns	-10.5115
▁medic	-10.5116
▁unlike	-10.5117
▁batter	-10.5117
bra	-10.512
▁branch	-10.512
▁russia	-10.5121
▁environment	-10.5121
▁chuck	-10.5123
▁surge	-10.5124
▁thrust	-10.5125
▁holo	-10.5126
▁cruel	-10.5126
▁wreck	-10.5128
▁beautif	-10.5129
▁choi	-10.5129
▁assault	-10.513
▁conquer	-10.513
▁display	-10.513
▁period	-10.513
▁application	-10.513
▁assemble	-10.513
▁audrey	-10.513
▁benthic	-10.513
▁billionaire	-10.513
▁brandnew	-10.513
▁brooklyn	-10.513
▁celebration	-10.513
▁charging	-10.513
▁curtain	-10.513
▁darwin	-10.513
▁easily	-10.513
▁education	-10.513
▁einhorn	-10.513
▁entrance	-10.513
▁exercise	-10.513
▁gambling	-10.513
▁gracious	-10.513
▁happiness	-10.513
▁holmes	-10.513
▁increasing	-10.513
▁isildur	-10.513
▁judgment	-10.513
▁maitland	-10.513
▁marilyn	-10.513
▁narracott	-10.513
▁nebula	-10.513
▁opposite	-10.513
▁potential	-10.513
▁rizu	-10.513
▁schuyler	-10.513
▁solemn	-10.513
▁summon	-10.513
▁terribly	-10.513
▁vacuum	-10.513
▁value	-10.513
▁zhou	-10.513
▁gordon	-10.513
▁initial	-10.513
▁rascal	-10.513
▁reflect	-10.513
▁sheep	-10.513
▁sixteen	-10.513
▁stabbed	-10.513
▁submit	-10.513
▁wadia	-10.513
▁wharf	-10.513
▁advise	-10.513
▁anytime	-10.513
▁material	-10.513
▁cmon	-10.513
▁humming	-10.513
▁smiling	-10.513
▁everdeen	-10.513
▁stubborn	-10.513
▁throne	-10.513
▁dragged	-10.513
▁crane	-10.513
▁narrow	-10.513
▁riend	-10.513
▁trask	-10.513
▁waitress	-10.513
▁civilization	-10.513
▁spleen	-10.513
▁financial	-10.513
▁attitude	-10.513
▁shining	-10.513
▁despite	-10.513
▁neuf	-10.513
▁snack	-10.513
▁evolutionary	-10.513
▁parade	-10.513
▁upside	-10.5131
▁dummy	-10.5131
▁jewel	-10.5131
▁rainbow	-10.5131
▁employee	-10.5131
▁barks	-10.5131
▁forney	-10.5131
▁radiation	-10.5131
▁shortcut	-10.5131
▁childhood	-10.5131
▁overboard	-10.5131
▁valor	-10.5131
▁smack	-10.5131
▁boring	-10.5131
▁spacecraft	-10.5131
▁email	-10.5131
▁cannon	-10.5131
▁portland	-10.5131
▁keen	-10.5132
▁magnet	-10.5132
▁chapter	-10.5132
▁structure	-10.5132
▁ripped	-10.5132
▁popular	-10.5132
▁distraction	-10.5132
▁remarkable	-10.5133
▁changing	-10.5133
▁temple	-10.5133
▁feur	-10.5133
▁actors	-10.5133
▁shopping	-10.5133
▁massage	-10.5133
▁barrel	-10.5133
▁philip	-10.5133
▁trapped	-10.5133
▁neat	-10.5133
▁lamb	-10.5134
▁diner	-10.5134
▁slice	-10.5134
▁electrical	-10.5134
▁potatoes	-10.5135
▁samoan	-10.5136
▁beef	-10.5137
▁shave	-10.5138
▁arrangement	-10.5139
▁brush	-10.5139
▁whale	-10.5139
▁stepped	-10.514
▁bedtime	-10.5141
▁mankind	-10.5142
▁assholes	-10.5144
iff	-10.5145
▁campus	-10.5145
▁comedy	-10.5146
▁apply	-10.5147
▁preparing	-10.5149
▁rash	-10.5149
▁bait	-10.5149
▁bandit	-10.5152
▁assist	-10.5152
▁tucker	-10.5153
▁chanting	-10.5154
▁cue	-10.5156
▁on	-10.5156
▁beaten	-10.5156
▁witnesses	-10.5158
▁slipped	-10.5158
▁sald	-10.5159
▁mechanical	-10.5161
▁hitting	-10.5161
▁hiller	-10.5161
▁mon	-10.5162
▁fold	-10.5164
▁drawn	-10.5164
▁bitter	-10.5164
▁quest	-10.5167
▁direction	-10.5168
▁conners	-10.5168
▁wheeler	-10.5169
▁qui	-10.5171
▁raya	-10.5174
▁whooping	-10.5174
▁lang	-10.5176
▁ox	-10.5179
▁detected	-10.5179
▁useless	-10.518
▁boxes	-10.5182
▁delivery	-10.5183
▁gathering	-10.5186
▁wat	-10.5187
fire	-10.5193
▁sniffs	-10.5193
▁wounded	-10.5194
ddy	-10.5194
▁sealed	-10.5202
▁bagg	-10.5204
▁suffered	-10.5207
▁disappeared	-10.5215
▁juli	-10.5222
▁sucks	-10.5227
▁responding	-10.5228
▁melt	-10.5236
ji	-10.5237
▁terms	-10.5243
▁wally	-10.5244
▁burger	-10.5244
▁crashing	-10.5244
▁entered	-10.5256
ied	-10.5259
▁engineering	-10.5274
▁concentrate	-10.5291
▁wo	-10.5298
pan	-10.5312
lip	-10.5312
▁cont	-10.5315
ka	-10.5322
▁messed	-10.5331
▁via	-10.5333
ack	-10.5334
▁tits	-10.5336
▁positions	-10.5338
▁sec	-10.5339
▁bearing	-10.536
▁packed	-10.536
▁cared	-10.5362
▁tracking	-10.5363
▁hum	-10.5369
▁gal	-10.5369
▁cent	-10.5372
ridge	-10.5372
▁riders	-10.5375
▁tables	-10.5386
▁tra	-10.539
▁astronauts	-10.5394
▁del	-10.5404
▁sk	-10.5412
▁vo	-10.5422
zing	-10.5434
▁depends	-10.5439
▁if	-10.5439
key	-10.5449
▁clients	-10.547
▁photos	-10.547
pping	-10.5515
ache	-10.5517
▁feelin	-10.5519
▁joined	-10.5531
▁moo	-10.5547
▁disco	-10.5561
▁rolling	-10.5566
stra	-10.5595
▁angels	-10.5596
▁rap	-10.5604
▁romans	-10.5621
ran	-10.5638
▁imma	-10.5654
▁remembered	-10.5678
tter	-10.5691
ets	-10.5725
▁opera	-10.5786
▁bust	-10.5791
▁dates	-10.5825
uch	-10.5827
▁boo	-10.583
▁blocks	-10.5831
▁pound	-10.5839
▁boar	-10.5844
▁nail	-10.5849
▁mac	-10.5862
▁ye	-10.5865
▁saint	-10.5866
▁missile	-10.5868
▁indian	-10.5868
▁dolphin	-10.587
▁mutant	-10.587
▁sport	-10.5877
▁cloud	-10.5877
▁creat	-10.5883
▁farmer	-10.5889
▁prom	-10.5891
▁dollar	-10.5892
▁bu	-10.5893
rine	-10.5906
▁rebel	-10.5909
▁levels	-10.591
▁suite	-10.5929
▁spidermans	-10.5936
uf	-10.5948
▁camel	-10.5948
▁blinkin	-10.5961
▁bake	-10.5962
▁crib	-10.5965
▁down	-10.5982
ative	-10.5982
▁remains	-10.5993
▁tro	-10.6019
▁hoped	-10.6021
▁fields	-10.6038
▁spirits	-10.6042
▁mini	-10.6052
ark	-10.6065
▁ver	-10.6076
▁trail	-10.6079
car	-10.6079
▁impress	-10.608
▁ap	-10.6081
▁punish	-10.6084
▁cancel	-10.6085
board	-10.6087
▁improv	-10.6089
inch	-10.6093
▁amaze	-10.6095
point	-10.6096
flower	-10.6096
print	-10.6097
▁wast	-10.6097
weight	-10.6098
▁que	-10.6099
▁era	-10.6104
four	-10.6105
▁demo	-10.6107
▁barr	-10.6107
made	-10.6109
▁mud	-10.611
▁rob	-10.611
▁immediate	-10.6112
▁absolute	-10.6112
▁incredibl	-10.6112
▁invest	-10.6113
▁greater	-10.6116
fish	-10.6117
▁occasion	-10.612
▁aborigin	-10.612
▁qua	-10.6122
through	-10.6124
▁react	-10.6127
▁corpora	-10.6129
▁instruct	-10.6129
▁occur	-10.613
▁absorb	-10.613
▁admire	-10.613
▁antonio	-10.613
▁appetite	-10.613
▁argue	-10.613
▁arthur	-10.613
▁atlanta	-10.613
▁atmosphere	-10.613
▁baracus	-10.613
▁barbecue	-10.613
▁berkeley	-10.613
▁brundusium	-10.613
▁bunny	-10.613
▁column	-10.613
▁compromise	-10.613
▁congratulate	-10.613
▁council	-10.613
▁cybertron	-10.613
▁cycle	-10.613
▁deploy	-10.613
▁electronic	-10.613
▁eleven	-10.613
▁endurance	-10.613
▁fugitive	-10.613
▁gargantua	-10.613
▁gulapa	-10.613
▁harbor	-10.613
▁hartmann	-10.613
▁havens	-10.613
▁hector	-10.613
▁inspector	-10.613
▁intense	-10.613
▁iraq	-10.613
▁isolate	-10.613
▁jocelyn	-10.613
▁kurokawa	-10.613
▁laundry	-10.613
▁louisiana	-10.613
▁luggage	-10.613
▁maneuver	-10.613
▁marlak	-10.613
▁maximum	-10.613
▁napoleon	-10.613
▁orgocorp	-10.613
▁patrol	-10.613
▁permanent	-10.613
▁protocol	-10.613
▁saturn	-10.613
▁stadium	-10.613
▁teenage	-10.613
▁unacceptable	-10.613
▁vodka	-10.613
▁walkabout	-10.613
▁zodiac	-10.613
▁becky	-10.613
▁brakes	-10.613
▁capital	-10.613
▁concur	-10.613
▁divide	-10.613
▁joust	-10.613
▁minuti	-10.613
▁terminal	-10.613
▁walt	-10.613
▁yakul	-10.613
▁collines	-10.613
▁ghul	-10.613
▁identity	-10.613
▁deaf	-10.613
▁fourteen	-10.613
▁pierce	-10.613
▁pledge	-10.613
▁bosco	-10.613
▁ease	-10.613
▁statue	-10.613
▁clerk	-10.613
▁oscar	-10.613
▁forbidden	-10.613
▁rottingham	-10.613
▁flatbed	-10.613
▁uhuh	-10.613
▁network	-10.613
▁supplies	-10.613
▁torture	-10.613
▁jonah	-10.613
▁sponge	-10.613
▁relics	-10.613
▁downtown	-10.613
▁misery	-10.613
lght	-10.613
▁chugga	-10.613
▁element	-10.613
▁blah	-10.6131
▁wagon	-10.6131
▁division	-10.6131
▁arena	-10.6131
▁terrific	-10.6131
▁shush	-10.6131
▁hahaha	-10.6131
▁dotson	-10.6131
▁nazi	-10.6131
athlete	-10.6131
▁negro	-10.6131
▁clapping	-10.6131
▁urgent	-10.6131
▁attractive	-10.6132
▁jaw	-10.6132
▁primary	-10.6132
▁leah	-10.6132
▁impressive	-10.6132
▁lungs	-10.6132
▁frame	-10.6132
▁heather	-10.6132
▁chime	-10.6132
▁mush	-10.6133
▁chew	-10.6133
▁aboard	-10.6133
▁massive	-10.6133
▁baseball	-10.6133
▁chef	-10.6133
▁nearby	-10.6134
▁assignment	-10.6134
▁abuse	-10.6134
ndez	-10.6134
▁mick	-10.6134
▁probe	-10.6134
▁colt	-10.6134
▁scum	-10.6134
▁zakir	-10.6134
▁auto	-10.6134
▁comic	-10.6134
▁claus	-10.6135
▁romance	-10.6135
▁pitch	-10.6135
▁length	-10.6135
▁queens	-10.6135
▁geek	-10.6136
▁karen	-10.6136
▁congressman	-10.6137
▁draft	-10.6137
▁tide	-10.6138
▁tung	-10.6138
▁curve	-10.6138
▁bail	-10.6139
▁exposed	-10.6139
▁digg	-10.6139
▁screen	-10.6139
▁drama	-10.6139
▁subway	-10.614
▁herb	-10.614
▁dna	-10.614
▁moral	-10.614
▁sensitive	-10.614
▁tolerate	-10.6141
▁forgiveness	-10.6142
▁linger	-10.6142
▁roommate	-10.6142
▁bugger	-10.6142
▁related	-10.6142
▁noon	-10.6143
▁copies	-10.6143
▁aye	-10.6144
▁currently	-10.6145
▁debate	-10.6145
▁embarrassing	-10.6145
▁clearance	-10.6145
▁glve	-10.6145
▁cosmo	-10.6146
▁madness	-10.6146
▁crown	-10.6146
▁recently	-10.6147
vous	-10.6147
▁armies	-10.6148
▁johnson	-10.6149
▁roaring	-10.6151
▁dean	-10.6151
▁app	-10.6152
▁factory	-10.6153
▁cain	-10.6153
▁cri	-10.6154
▁depressed	-10.6155
▁silencer	-10.6156
▁wailing	-10.6156
▁stable	-10.6157
▁captured	-10.616
▁formula	-10.6161
▁depressing	-10.6162
▁vest	-10.6163
▁switches	-10.6165
▁tempt	-10.6165
▁straighten	-10.6166
▁coal	-10.6169
▁threatened	-10.6169
▁larger	-10.6169
▁freakin	-10.617
▁stammers	-10.6172
▁ax	-10.6173
▁impressed	-10.6173
▁useful	-10.6174
▁officially	-10.6177
▁hangman	-10.6177
▁mansion	-10.6177
▁disappointed	-10.6179
▁factor	-10.6179
▁dearest	-10.6179
▁busted	-10.618
▁thee	-10.618
▁becom	-10.6182
▁ez	-10.6183
▁arranged	-10.6186
▁pounding	-10.6187
▁lex	-10.6195
▁mistaken	-10.6198
▁resources	-10.62
▁giggles	-10.62
▁unto	-10.62
▁weep	-10.6201
▁runway	-10.6201
ik	-10.6203
spect	-10.6204
▁kisses	-10.6208
uke	-10.6209
▁falcone	-10.6212
▁bend	-10.6213
▁pam	-10.6216
▁dish	-10.6218
▁released	-10.622
▁passes	-10.6226
▁highp	-10.6239
▁bulls	-10.624
die	-10.6245
▁sat	-10.6246
▁honks	-10.6256
long	-10.6258
ably	-10.6261
▁docking	-10.6264
▁grip	-10.627
▁smarter	-10.627
▁movement	-10.6294
hard	-10.6299
▁pu	-10.63
▁transferr	-10.6302
▁accounting	-10.6303
▁compete	-10.6308
▁refugees	-10.6316
▁nurses	-10.6324
▁fur	-10.6329
▁tracked	-10.6332
▁yards	-10.6339
▁cookies	-10.6348
▁pla	-10.6357
illam	-10.6365
▁flights	-10.6374
▁visiting	-10.6382
hole	-10.6387
▁comp	-10.6396
▁timing	-10.6402
▁cents	-10.641
▁selling	-10.6415
▁breasts	-10.6423
▁embrace	-10.6438
▁af	-10.6449
▁toots	-10.6456
▁not	-10.6458
▁spl	-10.6459
▁writer	-10.6464
ab	-10.6471
▁whl	-10.6476
▁forg	-10.6479
▁satellites	-10.648
gged	-10.6499
▁facts	-10.6501
▁communicate	-10.6514
▁gar	-10.6523
plicate	-10.6538
▁arrives	-10.6539
▁she	-10.6566
▁ll	-10.6576
▁kissing	-10.6589
▁murderers	-10.6593
▁tanks	-10.6609
▁pur	-10.662
▁covered	-10.6622
aron	-10.6637
▁pea	-10.6668
▁pronounce	-10.6684
▁receive	-10.6692
▁joining	-10.6706
▁menu	-10.6707
lnd	-10.6708
▁q	-10.6708
rawl	-10.6718
hr	-10.672
▁dun	-10.6728
▁cho	-10.6729
▁patients	-10.6737
▁quarters	-10.6737
eye	-10.674
▁characters	-10.6762
▁wheels	-10.6767
▁figures	-10.678
▁cla	-10.6783
ford	-10.6795
▁ski	-10.6798
ery	-10.6802
▁lawyers	-10.6803
with	-10.6813
▁interviews	-10.6853
ants	-10.6869
▁concern	-10.688
ever	-10.6912
▁engineers	-10.693
ena	-10.6933
▁decisions	-10.694
▁fails	-10.6943
▁turd	-10.6977
▁receipt	-10.6979
▁scout	-10.698
▁border	-10.6985
van	-10.6986
▁detail	-10.6988
▁generation	-10.6994
▁drone	-10.7001
har	-10.7022
▁bond	-10.7039
ade	-10.7056
▁americas	-10.7061
▁sal	-10.7064
oid	-10.7091
ization	-10.7106
▁rounds	-10.7113
nium	-10.7132
▁rever	-10.7145
▁falcon	-10.7151
▁continu	-10.7169
▁bars	-10.7169
▁presents	-10.7171
▁screech	-10.7187
▁descend	-10.7189
work	-10.7191
▁tow	-10.7193
▁exp	-10.7193
▁slaughter	-10.7196
▁delay	-10.7196
jack	-10.7198
▁beats	-10.72
well	-10.7201
▁rabbi	-10.7201
▁rider	-10.7203
charge	-10.7208
▁capture	-10.7209
▁tit	-10.7211
midt	-10.7214
pack	-10.7217
▁burge	-10.7219
▁wealth	-10.722
▁manual	-10.7222
▁commission	-10.7223
▁threaten	-10.7224
▁rwanda	-10.7224
night	-10.7228
▁recent	-10.7231
port	-10.7231
▁constitution	-10.7232
▁jig	-10.7235
▁link	-10.7238
▁mornin	-10.7239
▁journal	-10.7239
▁extract	-10.7239
▁moro	-10.7239
▁hub	-10.7239
ification	-10.724
▁attract	-10.724
▁beau	-10.724
▁jew	-10.724
▁basic	-10.7241
▁emotional	-10.7241
egrin	-10.7241
▁ahchoo	-10.7241
▁ancestors	-10.7241
▁armstrong	-10.7241
▁arrival	-10.7241
▁avenue	-10.7241
▁balcony	-10.7241
▁banana	-10.7241
▁britani	-10.7241
▁buffalo	-10.7241
▁cheyenne	-10.7241
▁chirping	-10.7241
▁coincidence	-10.7241
▁colvin	-10.7241
▁conduct	-10.7241
▁conscience	-10.7241
▁cuff	-10.7241
▁daggett	-10.7241
▁debris	-10.7241
▁deception	-10.7241
▁delicious	-10.7241
▁distort	-10.7241
▁eiffel	-10.7241
▁encounter	-10.7241
▁executi	-10.7241
▁fascinating	-10.7241
▁florida	-10.7241
▁fortress	-10.7241
▁glimpse	-10.7241
▁graduation	-10.7241
▁headquarters	-10.7241
▁infinite	-10.7241
▁influence	-10.7241
▁instinct	-10.7241
▁interahamwe	-10.7241
▁lawsuit	-10.7241
▁legolas	-10.7241
▁melissa	-10.7241
▁mockingjay	-10.7241
▁motorcycle	-10.7241
▁museum	-10.7241
▁nietzsche	-10.7241
▁outnumbered	-10.7241
▁patience	-10.7241
▁pencil	-10.7241
▁pentagon	-10.7241
▁petrakis	-10.7241
▁podacter	-10.7241
▁pompey	-10.7241
▁possibilities	-10.7241
▁prevision	-10.7241
▁principal	-10.7241
▁rastogi	-10.7241
▁ritual	-10.7241
▁rivendell	-10.7241
▁rupture	-10.7241
▁salute	-10.7241
▁sebastian	-10.7241
▁struck	-10.7241
▁therefore	-10.7241
▁thermal	-10.7241
▁thornfield	-10.7241
▁tokyo	-10.7241
▁twins	-10.7241
▁tyranny	-10.7241
▁uncomfortable	-10.7241
▁witwicky	-10.7241
▁yield	-10.7241
▁ashamed	-10.7241
▁caesar	-10.7241
▁carlisle	-10.7241
▁dillings	-10.7241
▁emilie	-10.7241
▁pancakes	-10.7241
▁rude	-10.7241
▁swedish	-10.7241
▁tattoo	-10.7241
▁agaln	-10.7241
▁bmw	-10.7241
▁jerry	-10.7241
▁pigeon	-10.7241
▁random	-10.7241
▁riley	-10.7241
▁session	-10.7241
▁competition	-10.7241
▁feast	-10.7241
▁hammer	-10.7241
▁harry	-10.7241
▁pleasant	-10.7241
▁steam	-10.7241
▁cardinal	-10.7241
▁panicked	-10.7241
▁entry	-10.7241
▁alice	-10.7241
▁float	-10.7241
▁slick	-10.7241
▁fieri	-10.7241
▁francs	-10.7241
▁rosie	-10.7241
▁surveillance	-10.7241
▁luis	-10.7241
▁bialy	-10.7241
▁warren	-10.7241
▁greetings	-10.7241
▁transform	-10.7241
▁patents	-10.7241
▁ankle	-10.7241
▁gratitude	-10.7241
▁psychological	-10.7241
▁bravo	-10.7241
▁routine	-10.7242
▁sprock	-10.7242
▁eternal	-10.7242
▁golf	-10.7242
▁praise	-10.7242
▁bingo	-10.7242
▁beans	-10.7242
▁extension	-10.7242
▁begged	-10.7242
▁sample	-10.7242
▁chug	-10.7242
▁destruction	-10.7242
▁pistol	-10.7242
▁dalton	-10.7242
ucci	-10.7242
▁vickie	-10.7242
▁revs	-10.7242
▁pillow	-10.7242
▁geoff	-10.7242
▁offend	-10.7243
▁quarterback	-10.7243
▁geez	-10.7243
▁arab	-10.7243
▁bruise	-10.7243
▁hissing	-10.7243
▁after	-10.7243
▁garage	-10.7243
▁shaking	-10.7243
▁supper	-10.7243
▁kno	-10.7243
▁bucket	-10.7243
▁boil	-10.7243
▁humiliat	-10.7243
▁production	-10.7243
▁conscious	-10.7243
▁grandmother	-10.7243
▁incoming	-10.7243
▁fellowship	-10.7243
▁visa	-10.7243
▁fanny	-10.7243
▁flew	-10.7244
▁bronze	-10.7244
▁ladles	-10.7244
▁flour	-10.7244
▁motion	-10.7244
▁dickhead	-10.7244
▁instance	-10.7244
▁gag	-10.7245
▁wore	-10.7245
▁centre	-10.7245
▁strut	-10.7245
▁sentence	-10.7245
▁bald	-10.7246
▁panem	-10.7246
▁bryan	-10.7246
▁condom	-10.7246
▁cities	-10.7246
▁hallway	-10.7246
▁internal	-10.7247
▁groom	-10.7247
▁reactor	-10.7247
▁ura	-10.7247
▁invention	-10.7248
▁holes	-10.7248
▁sack	-10.7248
▁pile	-10.7248
▁thrusters	-10.7248
▁poet	-10.7248
▁andrew	-10.7248
▁torn	-10.7248
▁precisely	-10.7249
▁fitting	-10.7249
▁chem	-10.725
▁farther	-10.725
▁fever	-10.725
▁allen	-10.725
▁reservation	-10.725
consi	-10.7251
▁homecoming	-10.7252
▁tooth	-10.7253
▁ballad	-10.7253
▁engagement	-10.7253
▁lecture	-10.7253
▁embarrassed	-10.7254
▁bold	-10.7254
▁foolish	-10.7254
▁logan	-10.7254
▁fraud	-10.7255
▁sickness	-10.7256
▁scooter	-10.7256
▁sie	-10.7257
▁role	-10.7257
take	-10.7258
▁fulfill	-10.7259
▁mode	-10.7259
▁haha	-10.7259
▁dury	-10.726
▁examine	-10.726
▁kara	-10.726
▁wallet	-10.7262
▁curt	-10.7262
▁fatty	-10.7262
▁seo	-10.7263
▁woe	-10.7263
▁fleet	-10.7265
▁cries	-10.7265
▁painful	-10.7267
▁worthless	-10.7267
▁particularly	-10.7269
▁ahem	-10.7269
▁connected	-10.7269
lrst	-10.7272
▁july	-10.7272
▁smoking	-10.7273
▁lvan	-10.7273
▁shithead	-10.7273
▁carol	-10.7273
▁butcher	-10.7274
▁param	-10.7275
▁civil	-10.7275
▁annoying	-10.7277
▁tend	-10.7278
▁policeman	-10.7279
▁neg	-10.7282
▁git	-10.7285
▁required	-10.7288
▁sang	-10.7289
▁dresses	-10.7294
▁dragons	-10.7297
▁toy	-10.73
▁kindness	-10.7302
▁disturb	-10.7304
▁bent	-10.7305
lord	-10.7306
▁tail	-10.7307
▁unable	-10.7309
▁graduated	-10.731
▁grows	-10.7311
▁ber	-10.7314
▁lara	-10.7315
▁tele	-10.7319
▁ahh	-10.7325
▁culture	-10.7326
▁fry	-10.7335
▁pouring	-10.7337
table	-10.7337
▁warned	-10.7337
▁ink	-10.7346
▁hardest	-10.7348
▁sto	-10.7349
▁souls	-10.7356
▁sewer	-10.7362
▁pale	-10.7364
▁asset	-10.737
▁rl	-10.7371
▁choices	-10.7372
▁teachers	-10.7376
▁socks	-10.7382
▁solved	-10.7386
▁foe	-10.7401
▁patriots	-10.7413
▁scarf	-10.7414
▁missions	-10.7418
▁yu	-10.742
▁hitch	-10.7426
can	-10.7433
grade	-10.7434
▁cracking	-10.7437
▁tested	-10.744
▁marc	-10.7444
▁ruining	-10.7444
▁airplanes	-10.7445
this	-10.7451
▁treating	-10.7457
▁nago	-10.7461
▁speaker	-10.7465
▁quicker	-10.7466
▁sy	-10.7466
▁promote	-10.7478
pat	-10.748
een	-10.75
▁bonds	-10.7505
▁concerns	-10.751
▁feeding	-10.7511
▁drawer	-10.7526
▁dolphins	-10.754
▁mutants	-10.754
▁indians	-10.754
muck	-10.7552
ities	-10.7555
handed	-10.7564
right	-10.7587
bar	-10.7596
▁transmitte	-10.7599
▁claims	-10.7605
▁wee	-10.7608
tract	-10.7618
▁cart	-10.7624
▁boxing	-10.7626
▁boots	-10.7628
▁kissed	-10.7642
▁mayor	-10.7645
▁strap	-10.7659
▁shown	-10.7667
lst	-10.7669
▁pep	-10.767
▁bru	-10.7672
usion	-10.7675
ory	-10.7675
▁scrapp	-10.7678
den	-10.7695
stance	-10.7722
ana	-10.7731
▁experts	-10.7731
tempo	-10.7751
▁assassinat	-10.7777
▁mat	-10.7779
▁layer	-10.7783
▁der	-10.7786
nning	-10.779
▁protecting	-10.7803
▁images	-10.7805
ular	-10.7806
▁handles	-10.7865
zar	-10.789
▁scientists	-10.7893
▁gin	-10.7895
ement	-10.7902
thin	-10.7919
▁ps	-10.7924
aking	-10.793
▁sales	-10.7932
▁marsh	-10.794
▁ham	-10.7951
▁lads	-10.7964
▁answered	-10.7968
▁dove	-10.7979
▁criminals	-10.7991
▁encourage	-10.8002
let	-10.8021
▁locke	-10.8041
▁sentinels	-10.8057
▁shields	-10.8057
▁jokes	-10.8089
eth	-10.8097
▁gi	-10.8108
▁louis	-10.8121
nine	-10.8169
▁gri	-10.8174
▁sod	-10.8174
▁whisper	-10.8186
▁groan	-10.8191
eak	-10.8194
▁mc	-10.8216
roll	-10.8219
ula	-10.8222
ica	-10.8223
▁arrow	-10.823
▁tool	-10.8231
▁item	-10.8232
▁yard	-10.8233
▁passenger	-10.8235
▁citizen	-10.8239
▁autobot	-10.8239
▁andy	-10.8241
▁cookie	-10.8242
▁drug	-10.8244
pti	-10.8254
▁orc	-10.8254
▁vari	-10.8265
range	-10.8267
▁plea	-10.827
▁stu	-10.8286
▁daggers	-10.8289
lot	-10.8316
fusion	-10.8319
▁producers	-10.8323
▁chit	-10.8339
▁stan	-10.8363
▁domin	-10.8368
▁ana	-10.8368
▁sew	-10.8372
▁rag	-10.8412
▁nic	-10.8416
▁squa	-10.843
▁clip	-10.8438
▁thrill	-10.8445
ological	-10.8446
▁che	-10.845
view	-10.8455
▁involve	-10.8459
▁restore	-10.8459
seven	-10.846
mail	-10.8464
fight	-10.8465
word	-10.8466
law	-10.8469
▁hurting	-10.8471
▁faint	-10.8472
▁current	-10.8473
▁passionate	-10.8476
lves	-10.8477
▁india	-10.8481
▁raj	-10.8482
▁breed	-10.8485
▁givin	-10.8485
▁runnin	-10.8486
▁narrat	-10.8486
▁refer	-10.8487
while	-10.8488
▁chick	-10.8489
▁detach	-10.8489
▁movin	-10.849
▁cigar	-10.8491
▁steward	-10.8491
▁navigat	-10.8491
uitt	-10.8491
▁alliance	-10.8491
▁anonymous	-10.8491
▁applied	-10.8491
▁arriving	-10.8491
▁awkward	-10.8491
▁baghdad	-10.8491
▁behold	-10.8491
▁bicycle	-10.8491
▁canada	-10.8491
▁chubb	-10.8491
▁cleveland	-10.8491
▁clown	-10.8491
▁comanche	-10.8491
▁combination	-10.8491
▁companion	-10.8491
▁compartment	-10.8491
▁compliment	-10.8491
▁component	-10.8491
▁contlnue	-10.8491
▁contrary	-10.8491
▁cottage	-10.8491
▁crixus	-10.8491
▁dedicate	-10.8491
▁destined	-10.8491
▁disaster	-10.8491
▁elegant	-10.8491
▁enhance	-10.8491
▁enterprises	-10.8491
▁episode	-10.8491
▁evaluation	-10.8491
▁explosive	-10.8491
▁floyd	-10.8491
▁forfeit	-10.8491
▁galaxy	-10.8491
▁gelderland	-10.8491
▁gilbert	-10.8491
▁google	-10.8491
▁gregoire	-10.8491
▁guido	-10.8491
▁heirloom	-10.8491
▁honjo	-10.8491
▁hulk	-10.8491
▁hysterical	-10.8491
▁immigrant	-10.8491
▁inaudible	-10.8491
▁independence	-10.8491
▁indicate	-10.8491
▁kuchever	-10.8491
▁liebkind	-10.8491
▁lorraine	-10.8491
▁marcellus	-10.8491
▁massacre	-10.8491
▁milltary	-10.8491
▁moscow	-10.8491
▁naughty	-10.8491
▁nickname	-10.8491
▁nigger	-10.8491
▁orchestra	-10.8491
▁pineapple	-10.8491
▁polite	-10.8491
▁previous	-10.8491
▁privilege	-10.8491
▁prototype	-10.8491
▁quote	-10.8491
▁reynolds	-10.8491
▁semester	-10.8491
▁sensltlve	-10.8491
▁serving	-10.8491
▁sesterces	-10.8491
▁shrink	-10.8491
▁skull	-10.8491
▁spencer	-10.8491
▁spoil	-10.8491
▁territory	-10.8491
▁turtle	-10.8491
▁umbrella	-10.8491
▁underwear	-10.8491
▁vallelonga	-10.8491
▁verheek	-10.8491
▁whimpering	-10.8491
▁whitmore	-10.8491
▁wullgar	-10.8491
▁xianniang	-10.8491
▁average	-10.8491
▁capua	-10.8491
▁cassie	-10.8491
▁dungeon	-10.8491
▁hostile	-10.8491
▁intact	-10.8491
▁mccain	-10.8491
▁odette	-10.8491
▁shelf	-10.8491
▁silk	-10.8491
▁thread	-10.8491
▁update	-10.8491
▁whlstle	-10.8491
▁error	-10.8491
▁expense	-10.8491
▁psychiatri	-10.8491
▁studies	-10.8491
▁gramps	-10.8491
▁grind	-10.8491
▁hineman	-10.8491
▁motel	-10.8491
▁multi	-10.8491
▁rehman	-10.8491
▁tumor	-10.8491
▁governess	-10.8491
▁harness	-10.8491
▁mlss	-10.8491
▁morse	-10.8491
▁osborn	-10.8491
▁oven	-10.8491
▁whoohoo	-10.8491
▁decoy	-10.8491
▁dread	-10.8491
▁descent	-10.8491
▁innocence	-10.8491
▁kyle	-10.8491
▁roast	-10.8491
▁estate	-10.8491
▁buddies	-10.8491
▁carpet	-10.8491
▁muttering	-10.8491
▁grabbed	-10.8491
▁advantage	-10.8491
▁drift	-10.8491
▁lamp	-10.8491
▁ounce	-10.8491
▁spinning	-10.8491
acle	-10.8491
▁uhoh	-10.8491
▁disruptors	-10.8491
▁titties	-10.8491
▁muffled	-10.8491
▁imagination	-10.8491
▁cody	-10.8491
▁berlin	-10.8491
▁mantis	-10.8491
▁lauren	-10.8491
▁unconscious	-10.8491
▁disconnect	-10.8491
▁unimaginable	-10.8491
▁repeatedly	-10.8492
▁decade	-10.8492
▁hamster	-10.8492
▁knott	-10.8492
▁kidnapping	-10.8492
▁marvelous	-10.8492
▁stumble	-10.8492
▁buried	-10.8492
▁corporation	-10.8492
▁rustling	-10.8492
▁riddle	-10.8492
▁polish	-10.8492
▁sync	-10.8492
▁suitcase	-10.8492
▁korea	-10.8492
▁reset	-10.8492
▁spanish	-10.8492
▁marcee	-10.8492
▁rattle	-10.8492
▁saddle	-10.8492
▁causing	-10.8492
▁salary	-10.8492
▁zap	-10.8492
▁assistance	-10.8492
▁slack	-10.8492
▁moses	-10.8493
▁overnight	-10.8493
▁assassinations	-10.8493
▁couch	-10.8493
▁qian	-10.8493
▁election	-10.8493
▁compare	-10.8493
▁resistance	-10.8493
▁limp	-10.8493
▁budget	-10.8493
▁purse	-10.8493
▁expedition	-10.8493
▁poetry	-10.8493
▁paperwork	-10.8493
▁starboard	-10.8493
▁timmy	-10.8493
▁rapid	-10.8493
▁evacuation	-10.8493
▁junk	-10.8493
▁palace	-10.8494
▁nonny	-10.8494
▁conspiracy	-10.8494
▁inbound	-10.8494
▁coke	-10.8494
▁transit	-10.8494
▁waking	-10.8494
▁nuke	-10.8494
▁myth	-10.8494
▁operator	-10.8494
▁griev	-10.8494
▁swell	-10.8494
▁cinq	-10.8494
▁psychic	-10.8494
▁mason	-10.8494
▁courtney	-10.8494
▁jackson	-10.8494
▁trois	-10.8494
▁cuba	-10.8495
▁adjust	-10.8495
▁countries	-10.8495
▁root	-10.8495
▁blanche	-10.8496
▁region	-10.8497
▁fran	-10.8497
▁waltz	-10.8497
▁freezing	-10.8497
▁extraction	-10.8497
▁sunlight	-10.8497
▁shoutlng	-10.8497
▁rotate	-10.8497
▁cabin	-10.8497
▁digit	-10.8497
▁surgeon	-10.8498
▁flaw	-10.8498
▁quality	-10.8498
▁stir	-10.8498
▁appropriate	-10.8498
▁significant	-10.8498
▁barnes	-10.8498
▁dice	-10.8499
▁sworn	-10.8499
▁wage	-10.8499
▁allies	-10.85
▁objective	-10.8501
▁basement	-10.8501
▁hlt	-10.8502
▁blight	-10.8502
▁growth	-10.8502
▁relieved	-10.8502
▁mock	-10.8503
▁moron	-10.8503
▁martini	-10.8504
eight	-10.8505
▁molly	-10.8505
▁stepping	-10.8506
ility	-10.8506
▁deeds	-10.8507
▁blonde	-10.8507
▁spies	-10.8507
cent	-10.8507
▁mouse	-10.8508
▁hut	-10.8508
lfe	-10.851
▁thumping	-10.851
▁lane	-10.851
▁ross	-10.8512
▁wealthy	-10.8514
▁jones	-10.8514
▁declared	-10.8516
▁photographer	-10.8517
▁clothing	-10.8517
▁haunted	-10.8518
▁distracted	-10.8518
▁ramp	-10.8519
▁naturally	-10.852
▁achieve	-10.852
▁snoop	-10.8521
▁bored	-10.8522
▁physically	-10.8522
▁sacred	-10.8523
▁frightened	-10.8524
▁trace	-10.8524
▁assigned	-10.8525
▁palm	-10.8526
pot	-10.8527
▁cutting	-10.8529
▁corpse	-10.853
▁squealing	-10.8532
▁sweater	-10.8534
▁tenth	-10.854
▁surrounding	-10.854
▁yah	-10.8541
▁cath	-10.8542
▁exception	-10.8544
▁drowning	-10.8545
▁vet	-10.8545
▁canceled	-10.8547
▁strongest	-10.855
qualified	-10.8557
▁net	-10.8558
▁funk	-10.8562
▁urge	-10.8562
▁bush	-10.8563
▁shitty	-10.8564
▁painter	-10.8569
▁bam	-10.857
▁published	-10.857
▁drilling	-10.8578
▁settled	-10.8579
▁gladiators	-10.8581
▁heights	-10.8581
▁fasten	-10.8588
▁jar	-10.8592
ode	-10.8592
▁crimes	-10.8593
▁voted	-10.8594
▁shocked	-10.8595
▁lawn	-10.8605
▁sailing	-10.8607
▁mmmm	-10.861
▁takeoff	-10.8611
▁louder	-10.8613
▁risky	-10.8614
▁thumbs	-10.8616
▁crashed	-10.8618
▁lure	-10.8619
bear	-10.8627
▁williams	-10.8627
▁dreamt	-10.8631
▁echoing	-10.8638
▁ag	-10.8647
▁matt	-10.8658
▁charges	-10.8666
▁fade	-10.867
▁helpful	-10.8677
▁crossed	-10.8685
▁neighbors	-10.8688
▁binds	-10.8688
▁strangely	-10.8692
▁minim	-10.8695
▁bare	-10.8698
▁seeking	-10.87
▁cooking	-10.8707
▁freaked	-10.8708
▁fee	-10.8711
▁posted	-10.8711
▁worthy	-10.8714
▁harvest	-10.8716
▁matched	-10.8718
▁represents	-10.8724
▁whoop	-10.8724
mature	-10.8731
nation	-10.8735
▁arrows	-10.876
▁studying	-10.8761
▁swi	-10.8782
▁ton	-10.8784
door	-10.8796
▁receipts	-10.8796
▁tha	-10.8804
▁bombing	-10.8808
vol	-10.8811
▁pursue	-10.8821
▁screwing	-10.8822
ye	-10.8827
▁deeper	-10.8828
▁clouds	-10.8832
▁missiles	-10.8832
▁vl	-10.8833
▁pad	-10.8837
▁peel	-10.8847
▁investigat	-10.8883
▁fishing	-10.8885
▁whitey	-10.8888
harlan	-10.8891
ishi	-10.8906
▁requires	-10.8906
▁prep	-10.8912
▁pressing	-10.8914
▁fixing	-10.8917
▁hay	-10.892
▁laying	-10.8922
gon	-10.8931
▁safely	-10.8932
lala	-10.8942
▁feds	-10.8953
▁strangers	-10.8958
▁closely	-10.8981
pped	-10.8998
▁mont	-10.9001
▁cher	-10.901
▁skills	-10.9015
▁cre	-10.9019
▁tracker	-10.9025
tory	-10.9026
▁reporting	-10.9057
▁attacking	-10.9071
▁raining	-10.9079
▁players	-10.9081
▁shu	-10.9111
▁tub	-10.9115
▁needle	-10.9115
▁kl	-10.912
▁lessons	-10.9126
▁rages	-10.9136
world	-10.9148
▁funds	-10.919
▁einons	-10.9201
nder	-10.9227
▁shi	-10.9228
nails	-10.9238
▁verse	-10.924
rice	-10.9252
esy	-10.9277
▁covering	-10.9311
▁cc	-10.9317
▁doo	-10.9322
▁dip	-10.9333
uk	-10.9342
bli	-10.9348
▁vin	-10.9348
ida	-10.9371
ington	-10.9383
lse	-10.9386
ngton	-10.9408
▁intention	-10.9425
▁hated	-10.9433
▁righthand	-10.944
▁butts	-10.9458
hut	-10.9461
rang	-10.9495
▁brok	-10.9504
▁ja	-10.9514
hlp	-10.9529
active	-10.9536
▁ji	-10.9564
ooh	-10.9565
utton	-10.9569
▁tapes	-10.9577
▁lai	-10.9577
▁ach	-10.9606
bean	-10.9611
▁stab	-10.9618
▁psych	-10.9621
llery	-10.9622
thor	-10.9632
▁hen	-10.9644
▁bou	-10.9651
▁kilo	-10.9655
▁dealer	-10.9656
▁represent	-10.9657
▁airplane	-10.9661
▁guinea	-10.9667
▁decepticon	-10.9667
▁precog	-10.9668
▁fo	-10.967
▁undo	-10.967
▁stair	-10.9671
▁refugee	-10.9677
▁airline	-10.9682
▁rib	-10.9691
▁hu	-10.9725
▁ohh	-10.9771
maker	-10.978
▁plug	-10.9797
▁drown	-10.9805
▁develop	-10.9811
▁cultur	-10.9812
▁crush	-10.9818
▁historic	-10.9818
ckle	-10.9818
▁surround	-10.9821
▁refus	-10.9821
▁invit	-10.983
▁complain	-10.9845
pel	-10.9854
▁ze	-10.9862
▁murmur	-10.9865
▁tor	-10.9865
▁accord	-10.9866
bell	-10.9866
place	-10.9867
▁invent	-10.9869
nia	-10.9872
ought	-10.9876
looking	-10.9883
wood	-10.9886
mouth	-10.9887
chuckles	-10.9887
girl	-10.9887
▁atten	-10.9888
life	-10.9888
stand	-10.9888
betty	-10.9889
know	-10.989
▁marshal	-10.989
year	-10.9891
▁swor	-10.9892
▁bore	-10.9893
put	-10.9897
▁virginia	-10.99
▁blond	-10.9902
▁energ	-10.9904
▁span	-10.9904
▁scoot	-10.9909
plant	-10.991
▁cockroach	-10.991
rien	-10.9911
▁expla	-10.9913
▁ange	-10.9913
hour	-10.9914
aught	-10.9916
▁yea	-10.9917
nderson	-10.9918
▁employ	-10.9918
▁tragic	-10.9919
ague	-10.9919
▁aaaooo	-10.992
▁abomination	-10.992
▁abrupt	-10.992
▁accompany	-10.992
▁allegiance	-10.992
▁amateur	-10.992
▁amdursky	-10.992
▁americus	-10.992
▁analyze	-10.992
▁anniversary	-10.992
▁antenna	-10.992
▁apologies	-10.992
▁audio	-10.992
▁banner	-10.992
▁battalion	-10.992
▁benefit	-10.992
▁billabong	-10.992
▁britain	-10.992
▁caitlin	-10.992
▁centuries	-10.992
▁congrats	-10.992
▁consumed	-10.992
▁coochle	-10.992
▁czechs	-10.992
▁dalmatian	-10.992
▁definition	-10.992
▁demonstration	-10.992
▁despair	-10.992
▁destination	-10.992
▁diamond	-10.992
▁dinosaur	-10.992
▁divine	-10.992
▁doughnut	-10.992
▁dragonslayer	-10.992
▁elvish	-10.992
▁embassy	-10.992
▁enrique	-10.992
▁epiglottis	-10.992
▁exhibition	-10.992
▁exploit	-10.992
▁flaunt	-10.992
▁forensic	-10.992
▁goolaj	-10.992
▁granddaughter	-10.992
▁greece	-10.992
▁grenade	-10.992
▁happily	-10.992
▁hercules	-10.992
▁hilbert	-10.992
▁ignition	-10.992
▁indestructible	-10.992
▁inspiration	-10.992
▁inspiring	-10.992
▁kangaroo	-10.992
▁kansas	-10.992
▁kennedy	-10.992
▁kirby	-10.992
▁knuckles	-10.992
▁lincoln	-10.992
▁literature	-10.992
▁lucullus	-10.992
▁lunatic	-10.992
▁lylla	-10.992
▁mackerel	-10.992
▁mademoiselle	-10.992
▁mercenary	-10.992
▁misunderstand	-10.992
▁mobilise	-10.992
▁natasha	-10.992
▁neptune	-10.992
▁nobility	-10.992
▁november	-10.992
▁oldfashioned	-10.992
▁oprah	-10.992
▁pebble	-10.992
▁plutarch	-10.992
▁powder	-10.992
▁pregnancy	-10.992
▁profile	-10.992
▁quatre	-10.992
▁regulator	-10.992
▁rehearse	-10.992
▁religion	-10.992
▁shamaldas	-10.992
▁somethln	-10.992
▁spectacular	-10.992
▁studied	-10.992
▁summit	-10.992
▁sunshine	-10.992
▁technique	-10.992
▁texas	-10.992
▁treasury	-10.992
▁triumph	-10.992
▁turbulence	-10.992
▁verheiden	-10.992
▁volume	-10.992
▁worship	-10.992
▁anticipat	-10.992
▁conflict	-10.992
▁dixon	-10.992
▁download	-10.992
▁ector	-10.992
▁einstein	-10.992
▁favourite	-10.992
▁jiko	-10.992
▁manipulat	-10.992
▁napkin	-10.992
▁recruit	-10.992
▁smuggl	-10.992
▁smurf	-10.992
▁steinway	-10.992
▁suppress	-10.992
▁treacher	-10.992
▁actress	-10.992
▁appeal	-10.992
▁captive	-10.992
▁cheep	-10.992
▁crunch	-10.992
▁lslam	-10.992
▁ninth	-10.992
▁noisy	-10.992
▁pluck	-10.992
▁register	-10.992
▁reunion	-10.992
▁spiritual	-10.992
▁teefs	-10.992
▁cullen	-10.992
▁hydro	-10.992
▁overcome	-10.992
▁violate	-10.992
▁vocal	-10.992
▁bacon	-10.992
▁carmine	-10.992
▁lounge	-10.992
▁sphere	-10.992
▁vanished	-10.992
▁whatsoever	-10.992
▁sweatshop	-10.992
▁thatcher	-10.992
▁worn	-10.992
▁bosom	-10.992
▁costume	-10.992
▁giggling	-10.992
▁ruth	-10.992
▁endanger	-10.992
▁lodge	-10.992
▁suhas	-10.992
▁kelly	-10.992
▁adapt	-10.992
▁sensation	-10.992
▁wristwatch	-10.992
▁nomin	-10.992
▁relay	-10.992
▁slams	-10.992
▁apology	-10.992
▁halo	-10.992
▁acquired	-10.992
▁approval	-10.992
▁finnick	-10.992
▁transmission	-10.992
▁gossip	-10.992
▁representative	-10.992
▁farber	-10.992
▁zulu	-10.992
▁oops	-10.992
▁scanner	-10.992
▁altogether	-10.992
▁ronnie	-10.992
▁grief	-10.992
▁bullseye	-10.992
▁housing	-10.992
▁belgian	-10.992
▁onboard	-10.992
▁optimistic	-10.992
▁sportscast	-10.992
▁tingle	-10.992
▁robbing	-10.992
▁limo	-10.992
▁breeze	-10.992
▁regina	-10.992
▁fond	-10.992
▁lipstick	-10.992
▁pension	-10.992
▁shatter	-10.992
▁kidnapped	-10.992
▁whatwhat	-10.9921
▁deceiv	-10.9921
▁pursuit	-10.9921
▁storage	-10.9921
▁garver	-10.9921
▁lightning	-10.9921
▁exclusive	-10.9921
▁clink	-10.9921
▁community	-10.9921
▁adolf	-10.9921
▁internet	-10.9921
▁crank	-10.9921
▁gown	-10.9921
▁uptown	-10.9921
▁celebrating	-10.9921
▁strawberry	-10.9921
▁confident	-10.9921
▁campana	-10.9921
▁obsession	-10.9921
▁quack	-10.9921
▁institution	-10.9921
▁jewish	-10.9921
▁forehead	-10.9921
▁association	-10.9921
▁cherry	-10.9922
▁operative	-10.9922
▁ezra	-10.9922
▁satan	-10.9922
▁unique	-10.9923
▁coppers	-10.9923
▁jimbo	-10.9923
▁creative	-10.9923
▁scramble	-10.9923
▁stiff	-10.9923
▁jess	-10.9923
▁heartbeat	-10.9923
▁whens	-10.9923
▁seattle	-10.9923
▁loyalty	-10.9923
▁diversion	-10.9924
▁alley	-10.9924
▁grimes	-10.9924
▁confirmation	-10.9924
uveni	-10.9924
▁activate	-10.9924
▁grasp	-10.9924
▁ouch	-10.9924
urban	-10.9924
▁collide	-10.9925
▁referee	-10.9925
▁soil	-10.9925
▁poop	-10.9925
▁pipe	-10.9925
▁feather	-10.9926
▁junkers	-10.9926
▁transportation	-10.9926
▁investment	-10.9927
▁critical	-10.9927
▁airlock	-10.9927
▁kickoff	-10.9927
▁hull	-10.9928
▁semi	-10.9928
▁convoy	-10.9928
▁anti	-10.9928
▁continent	-10.9928
▁promising	-10.9928
▁ahab	-10.9928
▁brownies	-10.9928
▁moonlight	-10.9928
▁chopper	-10.9928
azy	-10.9928
▁nightfall	-10.9929
▁bench	-10.993
▁flap	-10.993
▁obsessed	-10.993
▁batch	-10.993
▁development	-10.993
▁poppy	-10.993
▁franklin	-10.9931
▁anomaly	-10.9931
▁discussion	-10.9931
▁artist	-10.9932
▁technically	-10.9933
rock	-10.9933
▁villagers	-10.9933
▁snorting	-10.9933
▁closure	-10.9933
▁amongst	-10.9934
▁sore	-10.9934
▁patty	-10.9935
▁portion	-10.9935
sque	-10.9935
▁complaint	-10.9936
▁cj	-10.9936
▁dismissed	-10.9937
▁greedy	-10.9937
▁valley	-10.9937
▁maiden	-10.9938
▁dong	-10.9938
▁ninety	-10.9938
▁choir	-10.9938
▁tess	-10.994
▁gig	-10.994
▁module	-10.994
▁xp	-10.9941
▁faintly	-10.9942
▁drew	-10.9942
▁dime	-10.9942
▁protective	-10.9943
▁ashes	-10.9944
▁kar	-10.9944
▁temper	-10.9944
▁organized	-10.9945
▁dung	-10.9945
▁operational	-10.9945
▁passage	-10.9946
▁friendship	-10.9947
▁hawk	-10.9949
▁unlikely	-10.995
▁thered	-10.9951
▁tons	-10.9953
▁doll	-10.9954
▁condo	-10.9955
▁pager	-10.9955
▁don	-10.9957
▁chat	-10.9957
▁amp	-10.9959
▁carrier	-10.9959
▁duel	-10.996
▁marshall	-10.9961
▁flirting	-10.9964
▁predict	-10.9964
▁punches	-10.9966
▁colony	-10.9966
▁cargo	-10.9967
dadadadaiahd	-10.9967
▁frightening	-10.9968
▁hose	-10.9968
▁lever	-10.9969
▁payment	-10.9971
lene	-10.9972
▁rabbit	-10.9972
▁badge	-10.9972
▁shutting	-10.9973
▁rescued	-10.9975
▁achieved	-10.9976
▁crushing	-10.9977
▁linked	-10.9978
▁colleagues	-10.9983
▁breeding	-10.9985
▁showtime	-10.9986
▁pic	-10.9987
▁meter	-10.9988
▁sway	-10.9989
▁informed	-10.9992
▁proven	-10.9992
▁punished	-10.9993
▁ob	-10.9993
▁gatherer	-10.9997
▁awfully	-10.9997
▁cau	-10.9998
▁breached	-10.9998
▁assured	-11.0001
▁pudd	-11.0002
▁originally	-11.0006
▁irony	-11.0008
▁peek	-11.0015
ole	-11.0018
▁voter	-11.0018
▁bass	-11.0021
▁bursting	-11.0021
get	-11.0023
▁consequences	-11.0024
▁tomahawks	-11.0024
▁classes	-11.0028
▁reduce	-11.0036
▁damaged	-11.0038
▁hunger	-11.0039
isal	-11.004
▁carter	-11.004
▁scaring	-11.0043
▁hunted	-11.0048
▁sieg	-11.0049
▁scheduled	-11.0049
identifie	-11.005
▁fist	-11.005
▁appeared	-11.0056
▁artie	-11.0063
▁texting	-11.0064
▁maggots	-11.0065
▁thugs	-11.0066
▁spared	-11.0066
▁rumors	-11.0066
bodi	-11.0072
▁com	-11.0073
▁sweating	-11.0074
▁shocking	-11.0074
havin	-11.0076
▁normally	-11.0079
▁shei	-11.0082
gents	-11.0083
▁banging	-11.009
▁paula	-11.0091
▁growls	-11.0097
▁unre	-11.01
▁added	-11.0102
mill	-11.0105
▁zoo	-11.0106
▁methods	-11.0107
▁pearls	-11.0107
▁blg	-11.0119
▁divers	-11.0123
▁cracked	-11.0123
▁punched	-11.013
▁lily	-11.0137
▁manners	-11.014
avin	-11.0148
▁stitch	-11.015
▁visitors	-11.0152
▁attempting	-11.0152
▁asses	-11.0153
▁peed	-11.0154
▁reminded	-11.0169
▁organ	-11.0171
rgl	-11.0173
▁cleaner	-11.0175
▁prey	-11.0182
▁tricked	-11.0191
▁kilos	-11.0191
▁intentions	-11.0193
▁blessing	-11.02
▁marching	-11.0207
▁fades	-11.0211
▁sucked	-11.0221
▁remaining	-11.0223
▁items	-11.0233
▁tools	-11.0233
▁dw	-11.0247
▁testing	-11.0261
▁earle	-11.0265
▁generations	-11.0276
▁turds	-11.0276
▁scouts	-11.0276
▁meters	-11.0286
▁continued	-11.0291
▁gill	-11.03
▁saints	-11.0318
▁prior	-11.0321
▁suggesting	-11.0322
▁enjoyed	-11.0325
▁farmers	-11.0328
▁dressing	-11.0335
ius	-11.0354
▁chan	-11.0355
▁demands	-11.0361
▁ops	-11.0373
list	-11.0374
position	-11.0377
▁locker	-11.0379
▁gil	-11.039
▁sum	-11.0399
▁traitors	-11.0403
▁ranks	-11.0404
▁marked	-11.0404
▁irs	-11.0404
▁recorder	-11.0415
▁cy	-11.0418
▁reported	-11.0433
▁laughed	-11.0436
▁ropes	-11.0436
cast	-11.0454
upper	-11.0455
▁rac	-11.046
▁caves	-11.0461
aff	-11.0462
▁curs	-11.0482
uous	-11.0485
▁masks	-11.0489
▁effects	-11.0489
▁padd	-11.05
▁naive	-11.0502
▁nud	-11.0509
▁ki	-11.0517
▁industr	-11.0553
▁casey	-11.0555
▁translat	-11.0564
▁appoint	-11.0564
rad	-11.0577
▁unite	-11.0579
omic	-11.058
sap	-11.0581
▁receiv	-11.0596
▁fam	-11.0598
▁spine	-11.0601
▁slipp	-11.0616
▁initiate	-11.0628
nto	-11.063
anda	-11.0632
▁adore	-11.0667
lne	-11.0703
▁compet	-11.0726
▁stat	-11.0746
lan	-11.076
▁wr	-11.0766
▁temp	-11.0768
gun	-11.079
▁skip	-11.0792
▁smo	-11.0815
▁iti	-11.082
aki	-11.0835
▁translate	-11.0858
ela	-11.0874
▁exc	-11.0963
▁atom	-11.0964
ddle	-11.0966
▁bio	-11.097
shade	-11.103
▁buyer	-11.109
till	-11.11
▁programm	-11.1113
▁trie	-11.1151
cut	-11.1155
nya	-11.1219
▁vers	-11.1224
more	-11.1225
tric	-11.1255
▁dee	-11.1275
ability	-11.1275
vo	-11.1289
mat	-11.1293
▁spec	-11.1297
▁custom	-11.1299
▁mist	-11.1299
▁buck	-11.1307
▁there	-11.1316
▁neighbor	-11.1324
▁bind	-11.1326
▁patriot	-11.1326
▁pirate	-11.1331
▁survivor	-11.1332
hanger	-11.1339
jama	-11.1352
▁mir	-11.1355
▁visitor	-11.1363
▁critic	-11.138
▁reception	-11.1381
vitational	-11.1395
▁secur	-11.1401
▁zo	-11.1416
fk	-11.1447
▁deli	-11.1451
gra	-11.1464
ndex	-11.1466
sky	-11.1469
▁frighten	-11.1486
▁depress	-11.1488
▁prisoner	-11.1489
look	-11.1497
▁alg	-11.15
▁mechanic	-11.1528
▁squeal	-11.153
▁compos	-11.153
▁clack	-11.1532
▁clatter	-11.1532
minute	-11.1539
▁produce	-11.154
▁joel	-11.154
clo	-11.154
▁adopt	-11.1541
▁sacr	-11.1542
craft	-11.1547
break	-11.1547
bush	-11.1551
hawk	-11.1552
▁declare	-11.1553
folk	-11.1553
stick	-11.1554
smith	-11.1554
born	-11.1554
school	-11.1554
▁connect	-11.1554
bound	-11.1555
burn	-11.1555
foot	-11.1556
like	-11.1556
check	-11.1556
▁refuge	-11.1558
who	-11.1559
job	-11.156
water	-11.1563
mark	-11.1564
▁valle	-11.1566
▁greed	-11.1566
▁glob	-11.1566
▁ultimate	-11.1567
pie	-11.1569
▁explore	-11.1571
▁samoa	-11.1575
▁electric	-11.1576
▁potato	-11.1577
▁coordinat	-11.1577
▁entertain	-11.1577
▁gran	-11.1578
form	-11.1578
coming	-11.1579
eather	-11.1582
▁levant	-11.1582
▁diplomat	-11.1583
▁alcohol	-11.1583
▁mysterio	-11.1583
mbling	-11.1584
▁republic	-11.1584
verybody	-11.1584
▁evolution	-11.1585
▁alternat	-11.1585
▁stereo	-11.1586
▁worm	-11.1586
ologist	-11.1586
▁vietnam	-11.1586
▁disagree	-11.1586
▁disrespect	-11.1586
▁addition	-11.1586
▁analog	-11.1586
▁argument	-11.1586
▁arrogan	-11.1586
▁ascend	-11.1586
▁asylum	-11.1586
▁ausiello	-11.1586
▁autograph	-11.1586
▁batiatus	-11.1586
▁beacon	-11.1586
▁blasphem	-11.1586
▁bleep	-11.1586
▁blonsky	-11.1586
▁bluff	-11.1586
▁bravura	-11.1586
▁caproni	-11.1586
▁casualties	-11.1586
▁challenging	-11.1586
▁cheerleader	-11.1586
▁chlldren	-11.1586
▁chunk	-11.1586
▁clunk	-11.1586
▁cohorts	-11.1586
▁colville	-11.1586
▁companies	-11.1586
▁confront	-11.1586
▁confusing	-11.1586
▁cradle	-11.1586
▁cripple	-11.1586
▁crucified	-11.1586
▁daladier	-11.1586
▁deceased	-11.1586
▁dinkley	-11.1586
▁discount	-11.1586
▁educate	-11.1586
▁embedd	-11.1586
▁estimate	-11.1586
▁exploration	-11.1586
▁facilities	-11.1586
▁fountain	-11.1586
▁frozen	-11.1586
▁gauge	-11.1586
▁generator	-11.1586
▁gherson	-11.1586
▁guidance	-11.1586
▁harpsichord	-11.1586
▁harvard	-11.1586
▁hawaii	-11.1586
▁hehheh	-11.1586
▁homicide	-11.1586
▁horikoshi	-11.1586
▁immigration	-11.1586
▁imminent	-11.1586
▁incorrect	-11.1586
▁individual	-11.1586
▁injustice	-11.1586
▁isolation	-11.1586
▁jupiter	-11.1586
▁kigali	-11.1586
▁koroku	-11.1586
▁kraglin	-11.1586
▁lennox	-11.1586
▁liquid	-11.1586
▁lobster	-11.1586
▁loscudo	-11.1586
▁magnitude	-11.1586
▁malfunction	-11.1586
▁mehnaz	-11.1586
▁messenger	-11.1586
▁metaphor	-11.1586
▁microwave	-11.1586
▁militia	-11.1586
▁mortgage	-11.1586
▁mulligan	-11.1586
▁negotiations	-11.1586
▁nitrogen	-11.1586
▁obstacle	-11.1586
▁oerstadt	-11.1586
▁paranoid	-11.1586
▁perimeter	-11.1586
▁pisceshite	-11.1586
▁possibility	-11.1586
▁quesadilla	-11.1586
▁refreshment	-11.1586
▁rehearsal	-11.1586
▁religious	-11.1586
▁richmond	-11.1586
▁rufus	-11.1586
▁safari	-11.1586
▁samurai	-11.1586
▁sausage	-11.1586
▁scientific	-11.1586
▁selfdefense	-11.1586
▁shazam	-11.1586
▁sherwood	-11.1586
▁simmons	-11.1586
▁solitary	-11.1586
▁somewhat	-11.1586
▁splendid	-11.1586
▁strategy	-11.1586
▁stroud	-11.1586
▁studio	-11.1586
▁surprising	-11.1586
▁temporary	-11.1586
▁therapy	-11.1586
▁thirteen	-11.1586
▁thorough	-11.1586
▁throttle	-11.1586
▁treason	-11.1586
▁trench	-11.1586
▁turkey	-11.1586
▁twilight	-11.1586
▁typical	-11.1586
▁unhook	-11.1586
▁unicorn	-11.1586
▁upstate	-11.1586
▁valedictorian	-11.1586
▁vengeance	-11.1586
▁verdict	-11.1586
▁virgil	-11.1586
▁volcano	-11.1586
▁vulture	-11.1586
▁wheelchair	-11.1586
▁wheezing	-11.1586
▁wichita	-11.1586
▁agenda	-11.1586
▁babum	-11.1586
▁blunt	-11.1586
▁brazil	-11.1586
▁brenna	-11.1586
▁caiman	-11.1586
▁capsule	-11.1586
▁confine	-11.1586
▁cotton	-11.1586
▁crook	-11.1586
▁deutsch	-11.1586
▁editor	-11.1586
▁gugu	-11.1586
▁hindu	-11.1586
▁klaus	-11.1586
▁latrine	-11.1586
▁momentarily	-11.1586
▁notify	-11.1586
▁nxt	-11.1586
▁override	-11.1586
▁peasants	-11.1586
▁population	-11.1586
▁salmon	-11.1586
▁shieid	-11.1586
▁statute	-11.1586
▁steep	-11.1586
▁sweep	-11.1586
▁albie	-11.1586
▁bribe	-11.1586
▁deceit	-11.1586
▁describing	-11.1586
▁glrl	-11.1586
▁howre	-11.1586
▁klear	-11.1586
▁leaf	-11.1586
▁neutralize	-11.1586
▁phrase	-11.1586
▁sector	-11.1586
▁sedative	-11.1586
▁strider	-11.1586
▁toki	-11.1586
▁darla	-11.1586
▁loeb	-11.1586
▁outrage	-11.1586
▁permit	-11.1586
▁deavers	-11.1586
▁draco	-11.1586
▁ethel	-11.1586
▁jedda	-11.1586
▁warehouse	-11.1586
▁crust	-11.1586
▁dennis	-11.1586
▁mitchell	-11.1586
▁pavel	-11.1586
▁punctu	-11.1586
▁gently	-11.1586
▁mearing	-11.1586
▁sympathy	-11.1586
▁vault	-11.1586
▁luther	-11.1586
▁dodge	-11.1586
▁cassa	-11.1586
▁initiating	-11.1586
▁candle	-11.1586
▁dope	-11.1586
▁taylor	-11.1586
▁bloodshed	-11.1586
▁firsthand	-11.1586
▁ripple	-11.1586
▁vapor	-11.1586
▁crystal	-11.1586
▁confidence	-11.1586
▁veil	-11.1586
▁exceed	-11.1586
▁tendency	-11.1586
▁hopefully	-11.1586
▁rivet	-11.1586
▁adult	-11.1587
▁antique	-11.1587
▁davis	-11.1587
▁tiger	-11.1587
▁fireworks	-11.1587
▁merge	-11.1587
▁douglas	-11.1587
▁genes	-11.1587
▁introduction	-11.1587
▁stunning	-11.1587
▁bulletproof	-11.1587
▁stewardess	-11.1587
▁compassion	-11.1587
▁demonstrate	-11.1587
▁glitch	-11.1587
▁holler	-11.1587
▁greas	-11.1587
▁trolls	-11.1587
▁egyptian	-11.1587
▁shelley	-11.1587
▁drain	-11.1587
▁promotion	-11.1587
▁scrubbing	-11.1587
▁bubble	-11.1587
▁reply	-11.1587
onnais	-11.1587
▁registr	-11.1587
▁charr	-11.1587
▁snickers	-11.1587
▁confound	-11.1587
▁stabilize	-11.1587
▁sniffling	-11.1587
▁authorities	-11.1587
▁mentor	-11.1587
▁construction	-11.1587
▁patrick	-11.1587
▁contender	-11.1587
▁magnificent	-11.1587
▁rational	-11.1587
▁invaders	-11.1587
proportion	-11.1587
▁franny	-11.1587
▁series	-11.1588
▁hush	-11.1588
▁tread	-11.1588
▁sunset	-11.1588
▁avengers	-11.1588
▁shiny	-11.1588
weave	-11.1588
▁disturbance	-11.1588
▁cupboard	-11.1588
▁utter	-11.1588
▁avalon	-11.1588
▁prix	-11.1588
▁duties	-11.1588
▁blend	-11.1588
▁merchan	-11.1588
▁thrac	-11.1588
▁alternative	-11.1588
▁flashlight	-11.1588
▁delete	-11.1589
▁tilt	-11.1589
▁nlght	-11.1589
▁salv	-11.1589
▁ersa	-11.1589
▁runner	-11.1589
▁brew	-11.1589
▁sinner	-11.1589
▁minimum	-11.1589
▁halloween	-11.1589
▁roster	-11.1589
▁legendary	-11.1589
▁airfield	-11.1589
▁native	-11.1589
▁deckard	-11.159
▁clop	-11.159
▁brisket	-11.159
▁negotiate	-11.159
▁anais	-11.159
▁peck	-11.159
▁retirement	-11.159
▁anderson	-11.159
▁revolutionary	-11.159
▁engl	-11.159
▁oui	-11.1591
liath	-11.1591
▁stake	-11.1591
▁spaceport	-11.1591
▁mlght	-11.1591
▁tipped	-11.1591
▁drool	-11.1591
▁riches	-11.1591
▁dumbass	-11.1591
▁arse	-11.1591
▁ideals	-11.1591
▁latin	-11.1592
▁containment	-11.1592
▁rebellio	-11.1592
▁outback	-11.1592
▁robbery	-11.1592
▁logical	-11.1592
▁ogie	-11.1592
▁roam	-11.1593
▁commitment	-11.1593
▁aaa	-11.1593
▁attendant	-11.1593
▁orphanage	-11.1593
▁alike	-11.1593
▁guan	-11.1593
▁puke	-11.1593
▁lousy	-11.1593
▁payroll	-11.1593
▁workshop	-11.1593
▁bragg	-11.1593
▁crescen	-11.1593
▁settlement	-11.1593
▁lick	-11.1593
▁affection	-11.1594
▁overhead	-11.1594
▁tension	-11.1594
▁poker	-11.1594
▁dentist	-11.1594
▁strat	-11.1594
▁liz	-11.1594
▁translation	-11.1595
▁effective	-11.1595
▁rotting	-11.1595
▁drownin	-11.1595
▁render	-11.1595
▁villain	-11.1595
▁substitute	-11.1595
▁stall	-11.1595
▁waist	-11.1596
▁dim	-11.1596
▁confession	-11.1596
actic	-11.1596
osphere	-11.1596
▁stung	-11.1596
▁caution	-11.1597
▁skirt	-11.1597
▁doorbell	-11.1597
▁christian	-11.1597
▁harmless	-11.1598
▁sunny	-11.1599
▁daring	-11.1599
▁distinguished	-11.1599
▁exhausted	-11.1599
▁accomplished	-11.1599
▁topside	-11.1599
▁sharon	-11.1601
▁reign	-11.1601
▁clarif	-11.1601
▁stealth	-11.1602
▁taxman	-11.1602
▁rumbl	-11.1602
▁environmental	-11.1603
▁pinch	-11.1603
▁taint	-11.1604
raising	-11.1604
▁marco	-11.1604
▁spice	-11.1604
▁heir	-11.1604
▁fork	-11.1605
arian	-11.1605
neck	-11.1607
▁suspended	-11.1607
▁trio	-11.1607
▁sandwiches	-11.1607
▁background	-11.1607
▁brag	-11.1608
▁appro	-11.1608
▁bonus	-11.1608
▁cord	-11.1608
▁ledge	-11.1609
▁phony	-11.1609
▁popped	-11.1609
▁owned	-11.1609
ddling	-11.161
▁alan	-11.161
▁pony	-11.1612
▁tina	-11.1613
▁cult	-11.1613
▁prefects	-11.1614
▁jammed	-11.1615
▁approved	-11.1615
▁approaches	-11.1618
▁label	-11.162
▁aff	-11.162
▁straining	-11.1623
▁clanking	-11.1623
▁spain	-11.1624
▁collector	-11.1625
▁unlt	-11.1625
▁haul	-11.1625
▁mous	-11.1625
▁rlng	-11.1627
▁endure	-11.163
▁essentially	-11.163
ulus	-11.163
▁eel	-11.1631
▁turnip	-11.1631
▁perk	-11.1631
▁tighten	-11.1632
▁torp	-11.1633
▁tray	-11.1633
▁recovery	-11.1634
▁highness	-11.1634
▁buckle	-11.1635
mont	-11.1637
▁hatches	-11.1638
▁predicted	-11.1639
▁deadline	-11.164
▁crushed	-11.164
▁grid	-11.164
▁mma	-11.1643
▁clacking	-11.1644
▁superman	-11.1645
▁cit	-11.1645
▁sunk	-11.1646
▁reck	-11.1648
▁active	-11.1649
▁annoy	-11.1649
▁hl	-11.165
▁habe	-11.1654
▁properly	-11.1654
▁av	-11.1655
▁slaughtered	-11.1656
▁hitched	-11.1657
▁ay	-11.166
▁annu	-11.166
▁tender	-11.1665
▁cried	-11.1668
▁heroes	-11.1668
▁fastest	-11.167
▁buses	-11.1674
ryan	-11.1677
▁evacuate	-11.1677
▁trailer	-11.1677
▁concerning	-11.1678
▁thel	-11.1679
▁dup	-11.168
▁insulted	-11.1681
▁booing	-11.1682
▁weaken	-11.1684
fax	-11.1685
▁jr	-11.1685
▁taller	-11.1686
lude	-11.1687
▁practiced	-11.169
▁jon	-11.1695
▁okra	-11.17
▁correctly	-11.17
▁can	-11.1704
▁blown	-11.1705
equat	-11.1706
▁insulting	-11.1708
▁historical	-11.1708
▁sinking	-11.1708
▁kneel	-11.171
▁symptoms	-11.1711
▁treaty	-11.1712
▁homeland	-11.1712
▁seth	-11.172
▁spying	-11.172
▁revealed	-11.1722
▁rod	-11.1722
▁ai	-11.1723
▁lend	-11.1727
▁earned	-11.1731
▁lace	-11.1732
owy	-11.1734
▁tricky	-11.1738
▁mall	-11.1739
▁clam	-11.174
▁meantime	-11.1741
▁vent	-11.1746
▁poisoned	-11.1755
▁nerves	-11.1761
▁expectation	-11.1762
▁golson	-11.1762
▁reverse	-11.1763
test	-11.1763
▁deserted	-11.1771
▁casting	-11.1771
▁stare	-11.1791
cond	-11.1802
▁cheating	-11.1803
ewer	-11.1808
▁essays	-11.1811
▁customers	-11.1816
▁planted	-11.1818
▁agh	-11.1827
ith	-11.1844
▁painting	-11.1846
▁cav	-11.1848
▁now	-11.1854
▁customs	-11.1857
▁cashed	-11.1862
▁classy	-11.1863
▁acknowledge	-11.1866
▁murphy	-11.1866
spel	-11.1867
▁charged	-11.1868
▁defended	-11.1872
▁resolve	-11.1875
▁blink	-11.1885
▁lem	-11.1885
▁alrighty	-11.1894
▁gladly	-11.1895
▁appreciated	-11.1901
▁scro	-11.1915
▁singer	-11.1919
▁climbing	-11.1931
▁proved	-11.1938
mortality	-11.1946
▁traveled	-11.197
▁county	-11.1978
▁pasty	-11.1985
▁twe	-11.1991
▁announced	-11.1991
▁musical	-11.2021
edo	-11.2024
▁penn	-11.2082
▁misses	-11.2085
▁il	-11.2089
▁mcc	-11.2093
oir	-11.2095
▁wang	-11.2114
pro	-11.2145
▁mol	-11.2168
app	-11.2202
▁revive	-11.2211
▁unh	-11.2228
acco	-11.225
▁sucker	-11.2253
▁dur	-11.2342
enance	-11.2344
▁pol	-11.2344
bit	-11.2347
▁flirt	-11.237
holl	-11.2394
ony	-11.2403
▁reserve	-11.241
▁num	-11.2411
▁diver	-11.2411
hel	-11.2418
▁cooler	-11.2445
bon	-11.2469
▁barn	-11.2488
▁infra	-11.2506
▁authoriz	-11.2514
polo	-11.253
tonic	-11.2532
oke	-11.2556
▁wid	-11.257
lsh	-11.2587
▁blo	-11.259
illes	-11.2646
burg	-11.2668
phy	-11.2674
▁smok	-11.2688
▁joan	-11.269
ai	-11.2704
▁tre	-11.2706
▁lag	-11.273
lov	-11.2748
lster	-11.2791
▁nod	-11.2793
▁carbon	-11.2847
▁minu	-11.285
▁sta	-11.2856
▁var	-11.2897
▁roc	-11.2933
▁tl	-11.2949
▁priorit	-11.3034
erous	-11.3051
▁choos	-11.3098
verge	-11.3109
hill	-11.3122
ugged	-11.3122
ois	-11.3146
▁mln	-11.3166
nla	-11.3283
wl	-11.3283
▁honk	-11.329
▁detr	-11.3301
fold	-11.3305
▁essay	-11.3319
▁pearl	-11.3322
▁method	-11.3322
▁product	-11.3326
▁term	-11.3328
atlon	-11.3331
▁glove	-11.3333
rose	-11.3336
▁customer	-11.3341
▁sock	-11.3342
▁hobb	-11.3344
▁gasp	-11.3358
▁legion	-11.3365
doo	-11.3399
▁calcul	-11.341
racks	-11.3424
▁fianc	-11.3427
▁prov	-11.3429
▁evacuat	-11.3473
bet	-11.348
free	-11.3481
ology	-11.3481
▁manner	-11.3489
▁are	-11.3502
▁bree	-11.3516
▁dadadadada	-11.3519
▁corps	-11.3521
▁pra	-11.3529
▁applaud	-11.3533
▁tuck	-11.3536
▁anyth	-11.3539
▁distract	-11.354
▁wail	-11.354
▁reject	-11.3541
▁haunt	-11.3543
▁whoosh	-11.3543
field	-11.3546
▁flee	-11.3549
▁assign	-11.355
claim	-11.3552
storm	-11.3552
planned	-11.3553
fried	-11.3553
bury	-11.3553
hundred	-11.3554
bird	-11.3554
cake	-11.3554
hood	-11.3555
tender	-11.3556
▁approve	-11.3558
good	-11.3558
write	-11.3558
wire	-11.3561
will	-11.3564
dead	-11.3566
▁thirst	-11.3566
▁interven	-11.3566
▁theor	-11.3567
▁technical	-11.3567
▁unfortunate	-11.3568
shot	-11.3569
▁chart	-11.3571
▁heav	-11.3573
▁replace	-11.3574
kat	-11.3574
band	-11.3575
▁tomato	-11.3576
▁lndia	-11.3577
▁supervis	-11.3578
▁scoo	-11.3579
▁fiction	-11.358
▁changin	-11.358
▁lovin	-11.358
▁risin	-11.358
▁disable	-11.3581
▁disrupt	-11.3582
▁depart	-11.3583
script	-11.3583
titude	-11.3584
▁kidnap	-11.3584
lified	-11.3584
▁valid	-11.3585
▁avenge	-11.3585
ndra	-11.3585
▁francis	-11.3585
▁basket	-11.3585
▁scrub	-11.3586
▁mathematic	-11.3586
▁obtain	-11.3586
artolomeo	-11.3586
jacques	-11.3586
▁abortion	-11.3586
▁abroad	-11.3586
▁affirmative	-11.3586
▁amendola	-11.3586
▁analysis	-11.3586
▁antidote	-11.3586
▁arizona	-11.3586
▁asano	-11.3586
▁asperger	-11.3586
▁avalanche	-11.3586
▁aztec	-11.3586
▁baltimore	-11.3586
▁bankrupt	-11.3586
▁bathrobe	-11.3586
▁bathtub	-11.3586
▁believing	-11.3586
▁benedict	-11.3586
▁beware	-11.3586
▁blazevich	-11.3586
▁bollocks	-11.3586
▁buffet	-11.3586
▁capacity	-11.3586
▁catastrophe	-11.3586
▁certificate	-11.3586
▁chernobyl	-11.3586
▁cocktail	-11.3586
▁coexist	-11.3586
▁concept	-11.3586
▁concrete	-11.3586
▁consumer	-11.3586
▁copilot	-11.3586
▁crumbs	-11.3586
▁curfew	-11.3586
▁dadadatdatda	-11.3586
▁dazzl	-11.3586
▁delightful	-11.3586
▁delusional	-11.3586
▁democracy	-11.3586
▁diablo	-11.3586
▁dilemma	-11.3586
▁disguise	-11.3586
▁duchess	-11.3586
▁dynasty	-11.3586
▁eduardo	-11.3586
▁elrond	-11.3586
▁enforcement	-11.3586
▁enmebaragesi	-11.3586
▁epidemic	-11.3586
▁evolve	-11.3586
▁execute	-11.3586
▁festival	-11.3586
▁foxtrot	-11.3586
▁fragile	-11.3586
▁furniture	-11.3586
▁genocide	-11.3586
▁genuine	-11.3586
▁governing	-11.3586
▁greek	-11.3586
▁gronk	-11.3586
▁handcuff	-11.3586
▁handwriting	-11.3586
▁heathcoat	-11.3586
▁horror	-11.3586
▁hunnicutt	-11.3586
▁infected	-11.3586
▁invincible	-11.3586
▁itinerary	-11.3586
▁jonghoon	-11.3586
▁kirsten	-11.3586
▁ldiot	-11.3586
▁lizzard	-11.3586
▁loomis	-11.3586
▁manufacture	-11.3586
▁mattress	-11.3586
▁maurice	-11.3586
▁mexican	-11.3586
▁mexico	-11.3586
▁miraculous	-11.3586
▁monsoon	-11.3586
▁mueller	-11.3586
▁mutual	-11.3586
▁mystique	-11.3586
▁neighbours	-11.3586
▁neighs	-11.3586
▁oklahoma	-11.3586
▁opportunities	-11.3586
▁perfume	-11.3586
▁poverty	-11.3586
▁practicing	-11.3586
▁premeditation	-11.3586
▁preserve	-11.3586
▁primitive	-11.3586
▁principle	-11.3586
▁propaganda	-11.3586
▁proposal	-11.3586
▁rabble	-11.3586
▁raccoon	-11.3586
▁raymond	-11.3586
▁recognise	-11.3586
▁regroup	-11.3586
▁relief	-11.3586
▁resigned	-11.3586
▁rifemen	-11.3586
▁rosalie	-11.3586
▁scenario	-11.3586
▁scoundrel	-11.3586
▁selfdestruct	-11.3586
▁separation	-11.3586
▁similar	-11.3586
▁snatch	-11.3586
▁sneller	-11.3586
▁solitude	-11.3586
▁struggling	-11.3586
▁sumbitch	-11.3586
▁summary	-11.3586
▁surviving	-11.3586
▁syndrome	-11.3586
▁tarmac	-11.3586
▁tartutic	-11.3586
▁tatopoulos	-11.3586
▁technician	-11.3586
▁temperature	-11.3586
▁theatre	-11.3586
▁tigranes	-11.3586
▁tissue	-11.3586
▁twirl	-11.3586
▁twitch	-11.3586
▁unexpected	-11.3586
▁unload	-11.3586
▁unsub	-11.3586
▁uphold	-11.3586
▁vampire	-11.3586
▁vessel	-11.3586
▁vigilant	-11.3586
▁vogue	-11.3586
▁vomit	-11.3586
▁vulnerable	-11.3586
▁walburn	-11.3586
▁wardrobe	-11.3586
▁wrestlemania	-11.3586
▁wrinkle	-11.3586
▁youngsoon	-11.3586
▁youtube	-11.3586
▁airborne	-11.3586
▁allison	-11.3586
▁bradley	-11.3586
▁buttress	-11.3586
▁cease	-11.3586
▁coconut	-11.3586
▁extinguish	-11.3586
▁julep	-11.3586
▁lawrence	-11.3586
▁merlin	-11.3586
▁metouch	-11.3586
▁oasis	-11.3586
▁omelet	-11.3586
▁particles	-11.3586
▁physici	-11.3586
▁reliable	-11.3586
▁retail	-11.3586
▁sensible	-11.3586
▁shanti	-11.3586
▁sorrow	-11.3586
▁swift	-11.3586
▁trespass	-11.3586
▁uav	-11.3586
▁ucla	-11.3586
▁aspir	-11.3586
▁conceal	-11.3586
▁didier	-11.3586
▁gaffer	-11.3586
▁gaze	-11.3586
▁hasek	-11.3586
▁jungle	-11.3586
▁martyr	-11.3586
▁mobile	-11.3586
▁nlce	-11.3586
▁postpone	-11.3586
▁squawk	-11.3586
▁thurman	-11.3586
▁trident	-11.3586
▁variety	-11.3586
▁butterfly	-11.3586
▁carriage	-11.3586
▁devon	-11.3586
▁dispute	-11.3586
▁dynamics	-11.3586
▁fingerprints	-11.3586
▁gloom	-11.3586
▁gravy	-11.3586
▁income	-11.3586
▁seventeen	-11.3586
▁upgrades	-11.3586
▁yummy	-11.3586
▁pandem	-11.3586
▁prodig	-11.3586
▁abbot	-11.3586
▁andand	-11.3586
▁plastic	-11.3586
▁subordinate	-11.3586
▁yankees	-11.3586
▁ernie	-11.3586
▁outcome	-11.3586
▁regain	-11.3586
▁sober	-11.3586
▁cartoon	-11.3586
▁crater	-11.3586
▁dairy	-11.3586
▁jelly	-11.3586
▁outgoing	-11.3586
aneous	-11.3586
▁assessment	-11.3586
▁attach	-11.3586
▁jingling	-11.3586
▁peggy	-11.3586
▁obey	-11.3586
▁oleg	-11.3586
▁staging	-11.3586
▁yacht	-11.3586
▁rusesabagina	-11.3586
▁sunrise	-11.3586
▁typing	-11.3586
▁diaper	-11.3586
▁flint	-11.3586
▁lyons	-11.3586
▁ringtone	-11.3586
▁swamp	-11.3586
▁ammo	-11.3586
▁chancellor	-11.3586
▁torres	-11.3586
▁chiming	-11.3586
▁compell	-11.3586
▁playfully	-11.3586
▁neutr	-11.3586
▁nancy	-11.3587
▁blake	-11.3587
▁rubber	-11.3587
▁yank	-11.3587
▁darn	-11.3587
▁jody	-11.3587
▁steve	-11.3587
▁lulu	-11.3587
▁sabena	-11.3587
▁vandal	-11.3587
▁hasina	-11.3587
▁ransom	-11.3587
▁threshold	-11.3587
▁dawes	-11.3587
▁downhill	-11.3587
▁elsie	-11.3587
▁neuro	-11.3587
▁reek	-11.3587
▁bunk	-11.3587
ruff	-11.3587
▁september	-11.3587
▁disengage	-11.3587
▁unstable	-11.3587
▁inches	-11.3587
▁perkins	-11.3587
▁buckeye	-11.3587
▁elbow	-11.3587
▁vesuvius	-11.3587
▁urn	-11.3587
▁frisk	-11.3587
▁stutter	-11.3587
▁calculations	-11.3587
▁departure	-11.3587
▁trills	-11.3587
▁anxious	-11.3587
▁spicy	-11.3587
▁afterward	-11.3587
▁cere	-11.3587
▁whining	-11.3587
scope	-11.3587
▁acceleration	-11.3587
▁josephine	-11.3587
▁oracle	-11.3587
▁wrath	-11.3587
▁boogie	-11.3587
▁tranquility	-11.3587
▁clarity	-11.3587
▁ambush	-11.3587
▁dyer	-11.3587
▁absence	-11.3587
▁nelson	-11.3587
▁saraya	-11.3587
▁morgul	-11.3587
▁stockade	-11.3587
▁tminus	-11.3587
▁preach	-11.3587
▁rust	-11.3588
▁widow	-11.3588
▁herd	-11.3588
▁prettie	-11.3588
▁halflings	-11.3588
▁fading	-11.3588
▁endorse	-11.3588
▁colour	-11.3588
▁prescription	-11.3588
▁battlefield	-11.3588
▁jingle	-11.3588
▁preferred	-11.3588
▁venture	-11.3588
▁cele	-11.3588
▁validate	-11.3588
▁resent	-11.3588
▁xray	-11.3588
▁lobo	-11.3588
wich	-11.3588
amental	-11.3588
▁victorious	-11.3588
scription	-11.3588
▁dining	-11.3588
▁radius	-11.3588
▁yuck	-11.3588
▁decay	-11.3588
▁bruun	-11.3589
▁confusion	-11.3589
▁delta	-11.3589
▁psychotic	-11.3589
▁fedens	-11.3589
▁midtown	-11.3589
▁racist	-11.3589
▁rotten	-11.3589
▁fanboy	-11.3589
▁evade	-11.3589
▁salvation	-11.3589
▁colli	-11.3589
▁subtle	-11.3589
▁armbar	-11.359
elimina	-11.359
▁stalk	-11.359
▁icu	-11.359
▁hun	-11.359
▁scam	-11.359
▁stability	-11.359
▁disruption	-11.359
▁mild	-11.359
▁nina	-11.359
▁chaos	-11.359
▁makln	-11.359
▁mummy	-11.359
▁liftoff	-11.359
▁voting	-11.359
▁tuco	-11.359
▁sutton	-11.359
▁disney	-11.359
▁fesh	-11.359
▁gangster	-11.3591
▁appearance	-11.3591
▁slightest	-11.3591
▁alcoholic	-11.3591
▁accurate	-11.3591
▁bbbbbad	-11.3591
▁philippe	-11.3591
▁communi	-11.3591
▁combatant	-11.3591
▁exile	-11.3591
▁notebook	-11.3591
▁rival	-11.3591
▁brian	-11.3591
liber	-11.3591
▁performance	-11.3591
▁elder	-11.3591
▁jackass	-11.3591
▁cilician	-11.3591
▁establishment	-11.3591
▁peach	-11.3592
▁newsstand	-11.3592
▁awhile	-11.3592
▁supervisor	-11.3592
▁trumpet	-11.3592
▁whack	-11.3592
▁reich	-11.3592
▁conj	-11.3592
▁lemon	-11.3592
▁acid	-11.3592
▁transition	-11.3592
▁hardwick	-11.3592
▁owns	-11.3593
▁inverter	-11.3593
▁dwell	-11.3593
▁loop	-11.3593
▁vick	-11.3593
ssup	-11.3593
▁landlord	-11.3593
▁slx	-11.3593
ukh	-11.3593
▁calum	-11.3594
▁ambition	-11.3594
▁scribbl	-11.3594
▁robinson	-11.3594
sgi	-11.3594
▁ifit	-11.3594
▁oxen	-11.3595
▁jamie	-11.3595
▁strapon	-11.3595
▁harmoni	-11.3595
▁kong	-11.3595
▁crop	-11.3595
▁ofyou	-11.3596
clined	-11.3596
▁lndian	-11.3596
▁blur	-11.3596
▁reference	-11.3596
▁slight	-11.3597
▁moanlng	-11.3597
▁replacement	-11.3597
▁elys	-11.3597
▁scale	-11.3597
▁donation	-11.3597
▁puppet	-11.3597
▁marina	-11.3597
▁suspense	-11.3597
▁oof	-11.3598
▁filing	-11.3598
▁spill	-11.3598
▁award	-11.3598
▁collapsed	-11.3598
▁conceived	-11.3598
▁opposed	-11.3598
▁slate	-11.3599
▁breakthrough	-11.3599
▁haney	-11.3599
▁rog	-11.36
▁courageous	-11.36
▁hallowe	-11.3601
▁acre	-11.3601
▁kinu	-11.3601
▁adamian	-11.3601
▁labor	-11.3601
pher	-11.3601
▁observe	-11.3601
▁hump	-11.3601
▁bret	-11.3602
▁retarded	-11.3602
▁trash	-11.3602
▁alongside	-11.3603
▁philosophy	-11.3603
▁sidewalk	-11.3603
▁tailor	-11.3603
▁perish	-11.3604
▁abel	-11.3604
store	-11.3604
▁rack	-11.3604
▁restart	-11.3604
▁jackie	-11.3605
▁bravery	-11.3606
▁curb	-11.3606
▁cuse	-11.3606
▁indiana	-11.3606
▁combined	-11.3606
▁sexual	-11.3606
▁countryside	-11.3607
▁hedge	-11.3607
▁adamant	-11.3607
▁nightstand	-11.3607
▁aborigines	-11.3608
▁yoga	-11.3608
imately	-11.3608
▁kitty	-11.3608
▁castor	-11.3608
▁apes	-11.3608
▁fong	-11.3609
▁branches	-11.361
▁alter	-11.361
▁constitute	-11.361
▁leeds	-11.361
▁ultimately	-11.361
▁dj	-11.361
▁investor	-11.3613
▁equi	-11.3613
rubbing	-11.3614
▁located	-11.3614
▁richie	-11.3614
▁formation	-11.3616
ulla	-11.3616
▁seized	-11.3617
▁regiment	-11.3618
ellen	-11.3618
▁diction	-11.3619
▁anton	-11.362
▁sniffing	-11.362
▁popping	-11.362
▁pushup	-11.362
ermin	-11.362
▁swan	-11.362
▁flown	-11.3621
▁dough	-11.3621
▁pond	-11.3621
▁disabled	-11.3622
▁drunken	-11.3622
stage	-11.3622
▁betting	-11.3622
▁decorated	-11.3622
▁plg	-11.3622
▁hiya	-11.3623
▁heroic	-11.3623
▁sneakers	-11.3623
▁manually	-11.3623
▁glen	-11.3624
▁awaken	-11.3625
▁erin	-11.3625
▁dian	-11.3626
ich	-11.3627
chment	-11.3628
▁everyday	-11.3628
▁oft	-11.3629
▁produced	-11.363
▁coverage	-11.363
▁virginian	-11.3631
▁robe	-11.3632
▁rejected	-11.3632
▁parttime	-11.3633
▁sighing	-11.3633
▁intern	-11.3635
▁photography	-11.3636
▁tore	-11.3636
occupied	-11.3637
▁nun	-11.3638
▁luca	-11.3639
▁hotter	-11.3639
▁itsi	-11.364
▁constantly	-11.3641
▁composed	-11.3642
▁adopted	-11.3642
▁musician	-11.3643
▁forgetting	-11.3645
▁mustard	-11.3645
▁restored	-11.3646
▁willy	-11.3648
▁klng	-11.3649
▁iim	-11.3649
▁mentally	-11.3649
▁blackness	-11.3649
iggy	-11.365
▁deadhead	-11.3652
▁hobbitses	-11.3653
imple	-11.3657
▁bumpy	-11.3657
▁frenchman	-11.3657
▁drowned	-11.3658
▁amazed	-11.366
etus	-11.3661
▁goodlooking	-11.3662
▁thrilled	-11.3663
provoke	-11.3664
▁sanct	-11.367
▁sweaty	-11.367
▁geniuses	-11.367
▁complaining	-11.3671
▁developing	-11.3671
▁activated	-11.3673
▁delayed	-11.3673
▁formerly	-11.3675
▁lame	-11.3676
▁hangar	-11.3677
▁buzzes	-11.368
▁commence	-11.3683
laborator	-11.3684
▁redeem	-11.3685
▁chant	-11.3686
manned	-11.3688
▁traced	-11.3689
▁protector	-11.369
bbing	-11.3692
▁descending	-11.3697
▁realise	-11.3699
▁lighten	-11.3702
▁stretched	-11.3704
▁affected	-11.3704
bone	-11.3705
▁whisk	-11.3712
▁sab	-11.3713
▁heroin	-11.3715
▁maint	-11.372
▁lones	-11.3723
▁awe	-11.3724
▁convinced	-11.3731
wick	-11.3734
▁defi	-11.3736
▁gaining	-11.3736
▁erase	-11.3737
▁accelera	-11.3737
▁claiming	-11.374
▁farming	-11.3751
▁contained	-11.3751
▁pry	-11.3757
▁gee	-11.376
▁honesty	-11.3761
nched	-11.3762
▁buzzer	-11.3763
▁tel	-11.3765
▁hugg	-11.3766
▁modif	-11.3767
▁lil	-11.377
▁introduced	-11.3773
▁esc	-11.3775
▁yao	-11.3782
▁rout	-11.3785
▁loudly	-11.3794
▁vine	-11.3797
▁copa	-11.3805
roy	-11.3806
▁log	-11.3807
blam	-11.3825
▁mule	-11.3826
▁prosecut	-11.3835
▁starters	-11.3839
receptionist	-11.3843
▁tate	-11.3865
▁farting	-11.3877
▁assumed	-11.3884
▁mute	-11.3922
terior	-11.3923
▁sen	-11.3923
▁seeds	-11.3941
▁healer	-11.3944
▁ditch	-11.3947
oaring	-11.3956
▁surf	-11.3962
▁baker	-11.3984
▁mugg	-11.3984
▁anna	-11.3999
vanna	-11.4046
▁contribut	-11.4061
▁conde	-11.4063
▁cosm	-11.4085
▁spi	-11.4086
▁mandat	-11.41
rv	-11.4108
mission	-11.412
▁wel	-11.4128
▁nicker	-11.4137
berg	-11.4193
▁gan	-11.4194
▁operat	-11.4206
▁arc	-11.4207
inner	-11.427
ilda	-11.4277
▁trac	-11.4293
▁berth	-11.4295
generation	-11.4322
▁pole	-11.434
olo	-11.4348
▁wav	-11.4388
▁alumn	-11.4396
▁checkie	-11.4412
▁sle	-11.4431
ando	-11.4449
▁vic	-11.4464
▁cooperate	-11.4504
▁eli	-11.451
cult	-11.4511
brah	-11.4512
oulet	-11.4534
▁goggle	-11.4537
▁pon	-11.4561
fall	-11.4573
hea	-11.4616
nfl	-11.4628
▁zu	-11.463
▁obscure	-11.4653
oit	-11.4718
▁growl	-11.4739
▁clan	-11.4791
uja	-11.4803
▁ador	-11.4897
defeated	-11.4931
appointed	-11.4988
nen	-11.5015
lia	-11.5072
▁doln	-11.5074
lence	-11.5092
▁but	-11.511
anna	-11.5117
▁bidd	-11.5137
▁alum	-11.5167
▁villa	-11.5255
diction	-11.526
tinction	-11.5261
▁charl	-11.5261
wan	-11.5263
pposition	-11.527
▁investigate	-11.5287
rug	-11.5287
▁flex	-11.5293
▁pub	-11.5396
ckey	-11.5399
pati	-11.542
xed	-11.5431
▁mop	-11.5437
▁ou	-11.5478
guided	-11.5504
▁shipp	-11.5549
▁fac	-11.5601
rated	-11.5609
▁surfin	-11.5627
▁rul	-11.5667
▁mortal	-11.569
wei	-11.5696
▁sigh	-11.5765
▁boe	-11.5766
▁travell	-11.5776
▁plac	-11.5817
▁nerve	-11.5819
▁maggot	-11.5822
▁thumb	-11.5825
▁rumor	-11.5842
▁thug	-11.585
etti	-11.5851
▁jock	-11.5873
▁colo	-11.589
ooooo	-11.5894
icini	-11.5903
▁raw	-11.5927
▁nurs	-11.5955
▁prepar	-11.5967
▁immortal	-11.5967
owned	-11.5969
ummin	-11.597
▁activat	-11.5972
▁illustr	-11.5973
arms	-11.5975
urned	-11.5981
▁grove	-11.599
▁butch	-11.6011
iahd	-11.6011
▁occup	-11.6021
rles	-11.6023
▁boob	-11.6025
▁decorat	-11.6025
ibrating	-11.6028
▁strain	-11.6029
▁squeak	-11.6032
etta	-11.6035
▁clank	-11.6036
▁elect	-11.6036
kind	-11.6037
▁valkyr	-11.604
itating	-11.6043
▁fulfil	-11.6044
woman	-11.6045
opher	-11.6046
▁cloth	-11.6048
▁frau	-11.6049
▁eliminate	-11.605
phony	-11.6051
▁locate	-11.6051
rick	-11.6051
▁roar	-11.6052
buck	-11.6052
jones	-11.6052
dimension	-11.6053
ready	-11.6053
grateful	-11.6053
▁relate	-11.6053
trish	-11.6054
shake	-11.6054
▁determine	-11.6054
level	-11.6054
josh	-11.6054
blood	-11.6054
control	-11.6054
crowd	-11.6054
glass	-11.6054
▁seize	-11.6056
course	-11.6056
speed	-11.6056
class	-11.6058
metal	-11.6058
around	-11.6058
okay	-11.6059
▁organize	-11.6059
▁observ	-11.6059
boat	-11.606
paid	-11.6061
▁fletch	-11.6062
▁philosoph	-11.6065
▁anomal	-11.6066
▁necessar	-11.6067
show	-11.6067
▁stead	-11.6067
case	-11.6067
▁precise	-11.6068
▁literal	-11.6068
▁apparent	-11.6068
wayne	-11.607
trust	-11.6071
bank	-11.6073
▁norma	-11.6073
three	-11.6074
▁corrupt	-11.6074
▁ambitio	-11.6077
▁technolog	-11.6078
hras	-11.6078
pants	-11.6079
beat	-11.6079
▁riva	-11.608
▁takin	-11.6081
▁logic	-11.6082
▁grocer	-11.6083
▁blank	-11.6084
▁andre	-11.6084
▁compass	-11.6085
tribute	-11.6085
▁invade	-11.6085
▁joseph	-11.6085
▁optimis	-11.6085
▁muff	-11.6086
restri	-11.6086
▁scholar	-11.6086
▁marvel	-11.6086
snicker	-11.6086
▁micro	-11.6086
▁confer	-11.6086
definite	-11.6086
otape	-11.6086
▁inflict	-11.6086
ngbang	-11.6086
▁overwhelm	-11.6086
▁perjur	-11.6086
▁sorcer	-11.6086
determination	-11.6086
forsaken	-11.6086
responsive	-11.6086
uspicious	-11.6086
▁abilities	-11.6086
▁absurd	-11.6086
▁acoustic	-11.6086
▁activities	-11.6086
▁administrator	-11.6086
▁advertis	-11.6086
▁advisor	-11.6086
▁alabama	-11.6086
▁andreiko	-11.6086
▁antarctica	-11.6086
▁antibio	-11.6086
▁antoinett	-11.6086
▁anyhow	-11.6086
▁aquitania	-11.6086
▁arathorn	-11.6086
▁astonish	-11.6086
▁austria	-11.6086
▁authentic	-11.6086
▁autopilot	-11.6086
▁bamboo	-11.6086
▁barricade	-11.6086
▁bascomb	-11.6086
▁basejumping	-11.6086
▁becareful	-11.6086
▁behave	-11.6086
▁behaviour	-11.6086
▁birmingham	-11.6086
▁bizimungu	-11.6086
▁bouncing	-11.6086
▁bradshaw	-11.6086
▁brillianc	-11.6086
▁brushstrokes	-11.6086
▁bypass	-11.6086
▁cadillac	-11.6086
▁cadogan	-11.6086
▁cannelloni	-11.6086
▁catastrophic	-11.6086
▁cautious	-11.6086
▁chaucer	-11.6086
▁chemistry	-11.6086
▁chhote	-11.6086
▁columbia	-11.6086
▁competitive	-11.6086
▁comprehen	-11.6086
▁conclude	-11.6086
▁conclusion	-11.6086
▁conclusive	-11.6086
▁connecticut	-11.6086
▁context	-11.6086
▁controvers	-11.6086
▁counterfeit	-11.6086
▁crocodile	-11.6086
▁croissant	-11.6086
▁crucial	-11.6086
▁crusade	-11.6086
▁czechoslovakia	-11.6086
▁declaration	-11.6086
▁defect	-11.6086
▁dialogue	-11.6086
▁discipline	-11.6086
▁dishonest	-11.6086
▁disobey	-11.6086
▁domestic	-11.6086
▁droving	-11.6086
▁efficient	-11.6086
▁electrocuted	-11.6086
▁enchant	-11.6086
▁endeavor	-11.6086
▁entangle	-11.6086
▁eothain	-11.6086
▁espionage	-11.6086
▁eternity	-11.6086
▁extradition	-11.6086
▁fanfare	-11.6086
▁fantasy	-11.6086
▁ferruccio	-11.6086
▁fitzgerald	-11.6086
▁florins	-11.6086
▁fracture	-11.6086
▁frampton	-11.6086
▁frequenc	-11.6086
▁fuzz	-11.6086
▁gatesboro	-11.6086
▁geometry	-11.6086
▁gerbil	-11.6086
▁giminski	-11.6086
▁glamour	-11.6086
▁glasstipped	-11.6086
▁grumpy	-11.6086
▁hebrew	-11.6086
▁hereby	-11.6086
▁honeymoon	-11.6086
▁hopclop	-11.6086
▁housekeeping	-11.6086
▁hypnotize	-11.6086
▁ignoring	-11.6086
▁indulge	-11.6086
▁infiltrated	-11.6086
▁inhabit	-11.6086
▁injuries	-11.6086
▁insect	-11.6086
▁intimate	-11.6086
▁intimidat	-11.6086
▁invalid	-11.6086
▁isaac	-11.6086
▁jordan	-11.6086
▁karapetyan	-11.6086
▁khamel	-11.6086
▁knitting	-11.6086
▁koppel	-11.6086
▁ladakh	-11.6086
▁landscape	-11.6086
▁liquor	-11.6086
▁loudspeaker	-11.6086
▁ludwig	-11.6086
▁mandarin	-11.6086
▁margarita	-11.6086
▁mcguckian	-11.6086
▁meadow	-11.6086
▁megatron	-11.6086
▁mellark	-11.6086
▁merciless	-11.6086
▁merrily	-11.6086
▁minstrel	-11.6086
▁miscarriage	-11.6086
▁molecul	-11.6086
▁mononoke	-11.6086
▁monstrous	-11.6086
▁morphine	-11.6086
▁multiverse	-11.6086
▁mussolini	-11.6086
▁nevada	-11.6086
▁nightclub	-11.6086
▁nobrainer	-11.6086
▁nowadays	-11.6086
▁october	-11.6086
▁offlcer	-11.6086
▁okeydoke	-11.6086
▁oliver	-11.6086
▁operatically	-11.6086
▁optical	-11.6086
▁orefice	-11.6086
▁outgunned	-11.6086
▁outpost	-11.6086
▁paradise	-11.6086
▁paragraph	-11.6086
▁paralyzed	-11.6086
▁pardner	-11.6086
▁payload	-11.6086
▁perceive	-11.6086
▁persuade	-11.6086
▁phenomen	-11.6086
▁picasso	-11.6086
▁pirouette	-11.6086
▁pneumonia	-11.6086
▁pollard	-11.6086
▁pollux	-11.6086
▁prairie	-11.6086
▁pumpkin	-11.6086
▁quarantine	-11.6086
▁ravishing	-11.6086
▁reinforce	-11.6086
▁reload	-11.6086
▁rererere	-11.6086
▁residence	-11.6086
▁revelation	-11.6086
▁revolver	-11.6086
▁rupert	-11.6086
▁satisfy	-11.6086
▁satomi	-11.6086
▁savage	-11.6086
▁schizophrenia	-11.6086
▁scissors	-11.6086
▁scowl	-11.6086
▁seatbelt	-11.6086
▁shockwave	-11.6086
▁singularity	-11.6086
▁spectacle	-11.6086
▁speculation	-11.6086
▁splutter	-11.6086
▁sponsor	-11.6086
▁squire	-11.6086
▁squirrel	-11.6086
▁stagger	-11.6086
▁stamped	-11.6086
▁substantial	-11.6086
▁sudetenland	-11.6086
▁suffragettes	-11.6086
▁sunglasses	-11.6086
▁surname	-11.6086
▁suspicion	-11.6086
▁sustain	-11.6086
▁sybil	-11.6086
▁tampa	-11.6086
▁tantrum	-11.6086
▁tanzania	-11.6086
▁tchoupitoulas	-11.6086
▁terrain	-11.6086
▁territories	-11.6086
▁thanksgiving	-11.6086
▁thoroughbred	-11.6086
▁tweezers	-11.6086
▁twitter	-11.6086
▁ultrasound	-11.6086
▁umbutu	-11.6086
▁unattended	-11.6086
▁unauthorized	-11.6086
▁undercarriage	-11.6086
▁underdog	-11.6086
▁underestimate	-11.6086
▁unnecessary	-11.6086
▁unreasonable	-11.6086
▁urukhai	-11.6086
▁vector	-11.6086
▁walrus	-11.6086
▁warfare	-11.6086
▁windshield	-11.6086
▁wrench	-11.6086
▁wretche	-11.6086
▁bleach	-11.6086
▁calories	-11.6086
▁chump	-11.6086
▁cisco	-11.6086
▁comrade	-11.6086
▁crazi	-11.6086
▁discharged	-11.6086
▁discriminat	-11.6086
▁edoras	-11.6086
▁epps	-11.6086
▁gerald	-11.6086
▁groov	-11.6086
▁halfcaste	-11.6086
▁hypothetical	-11.6086
▁kipling	-11.6086
▁mellow	-11.6086
▁memorable	-11.6086
▁monument	-11.6086
▁morrow	-11.6086
▁nobel	-11.6086
▁nurtur	-11.6086
▁obedien	-11.6086
▁octa	-11.6086
▁outstanding	-11.6086
▁penthouse	-11.6086
▁slosh	-11.6086
▁snorlng	-11.6086
▁therapist	-11.6086
▁truce	-11.6086
▁verify	-11.6086
▁apprehend	-11.6086
▁darcy	-11.6086
▁duff	-11.6086
▁embark	-11.6086
▁exotic	-11.6086
▁extort	-11.6086
▁friggin	-11.6086
▁generate	-11.6086
▁holiness	-11.6086
▁ignoran	-11.6086
▁install	-11.6086
▁kevl	-11.6086
▁lupino	-11.6086
▁lurking	-11.6086
▁montreal	-11.6086
▁motherinlaw	-11.6086
▁pervert	-11.6086
▁ringbearer	-11.6086
▁samantha	-11.6086
▁southwest	-11.6086
▁sprout	-11.6086
▁stench	-11.6086
▁twain	-11.6086
▁voyage	-11.6086
▁gwen	-11.6086
▁oyster	-11.6086
▁zito	-11.6086
arbarians	-11.6086
▁byron	-11.6086
▁codename	-11.6086
▁keycard	-11.6086
▁mathematicians	-11.6086
▁outrun	-11.6086
▁pussy	-11.6086
▁uncover	-11.6086
▁vietnamese	-11.6086
liseo	-11.6086
▁accuse	-11.6086
▁apprentice	-11.6086
▁bayonet	-11.6086
▁eomer	-11.6086
▁finler	-11.6086
▁heii	-11.6086
▁luxur	-11.6086
▁timmon	-11.6086
▁alvin	-11.6086
▁bedlam	-11.6086
▁candidates	-11.6086
▁carousel	-11.6086
▁cecil	-11.6086
▁convert	-11.6086
▁ethan	-11.6086
▁gail	-11.6086
▁hallucinations	-11.6086
▁lease	-11.6086
▁sweden	-11.6086
▁binary	-11.6086
▁gesture	-11.6086
▁retain	-11.6086
▁settling	-11.6086
▁delighted	-11.6086
▁reaper	-11.6086
▁robbed	-11.6086
secrate	-11.6086
▁dmk	-11.6086
▁elven	-11.6086
▁harsh	-11.6086
▁rooftops	-11.6086
▁radical	-11.6086
▁abyss	-11.6086
▁kurt	-11.6086
▁overhear	-11.6086
▁recipe	-11.6086
dioc	-11.6086
▁balloon	-11.6086
▁collision	-11.6086
▁dyne	-11.6086
▁fierce	-11.6086
▁otto	-11.6086
▁finchberg	-11.6086
▁spyders	-11.6086
▁anchor	-11.6086
▁bogey	-11.6086
▁filter	-11.6086
▁rita	-11.6086
▁triads	-11.6086
▁emerge	-11.6086
▁frog	-11.6086
▁acquaintance	-11.6086
▁emeril	-11.6086
▁restoration	-11.6086
▁counterearth	-11.6086
▁saxo	-11.6087
▁mumbles	-11.6087
▁seminar	-11.6087
▁skype	-11.6087
▁keg	-11.6087
▁revolt	-11.6087
▁insight	-11.6087
▁radiator	-11.6087
▁tidy	-11.6087
▁yelp	-11.6087
▁ivy	-11.6087
▁thrive	-11.6087
▁holies	-11.6087
▁wield	-11.6087
decisive	-11.6087
▁relativity	-11.6087
▁snitch	-11.6087
▁vermont	-11.6087
▁architect	-11.6087
▁gunnars	-11.6087
▁untll	-11.6087
▁aguado	-11.6087
▁maria	-11.6087
▁reproduc	-11.6087
▁tourists	-11.6087
▁bonnie	-11.6087
▁compound	-11.6087
▁trampled	-11.6087
▁kipp	-11.6087
▁lucius	-11.6087
▁replie	-11.6087
▁satisfaction	-11.6087
▁sneezes	-11.6087
ibald	-11.6087
▁rue	-11.6087
▁cerebr	-11.6087
▁wimp	-11.6087
▁lexington	-11.6087
▁fundamental	-11.6087
▁conserv	-11.6087
▁rebuilt	-11.6087
▁novel	-11.6087
▁scarlet	-11.6087
mistress	-11.6087
▁underhill	-11.6087
▁cunning	-11.6087
▁basketball	-11.6087
▁nerd	-11.6087
▁bllnd	-11.6087
▁basis	-11.6087
▁lowood	-11.6088
▁sketch	-11.6088
▁icon	-11.6088
▁infantry	-11.6088
▁tunic	-11.6088
▁consistent	-11.6088
▁deathbed	-11.6088
▁rite	-11.6088
ssert	-11.6088
▁laptop	-11.6088
▁scalp	-11.6088
▁obligation	-11.6088
▁caden	-11.6088
▁neville	-11.6088
▁meltdown	-11.6088
assurance	-11.6088
▁porch	-11.6088
▁sltu	-11.6088
▁tragically	-11.6088
▁cancelled	-11.6088
▁crab	-11.6088
▁administration	-11.6088
▁invasion	-11.6088
▁thelma	-11.6088
▁hasty	-11.6088
▁tawes	-11.6089
▁righteous	-11.6089
▁squash	-11.6089
▁skipped	-11.6089
mach	-11.6089
▁litter	-11.6089
▁obstruction	-11.6089
▁oppression	-11.6089
▁mul	-11.6089
▁cherish	-11.6089
▁delhi	-11.6089
▁elite	-11.6089
▁squadron	-11.6089
▁rrincess	-11.6089
▁providence	-11.6089
▁foam	-11.6089
▁prospect	-11.6089
▁shutters	-11.6089
dammit	-11.6089
▁rcs	-11.6089
▁republican	-11.609
▁spray	-11.609
▁tryouts	-11.609
▁chili	-11.609
▁feat	-11.609
▁boong	-11.609
▁madonna	-11.609
▁tiles	-11.609
▁conjure	-11.609
▁plumb	-11.609
▁removal	-11.6091
▁toby	-11.6091
▁jules	-11.6091
▁detachment	-11.6091
▁cookbook	-11.6091
▁occasional	-11.6091
▁artery	-11.6091
▁irish	-11.6091
▁programmable	-11.6091
▁burrito	-11.6091
▁steak	-11.6091
▁erich	-11.6091
▁forbid	-11.6091
▁cleanse	-11.6092
▁mega	-11.6092
▁hornets	-11.6092
▁accomplishment	-11.6092
ahili	-11.6092
▁amore	-11.6092
▁junkie	-11.6092
never	-11.6092
▁wreckage	-11.6092
sota	-11.6092
▁voil	-11.6092
▁diplomatic	-11.6092
▁wither	-11.6092
▁contamination	-11.6092
▁frlend	-11.6092
▁hutch	-11.6092
▁gutted	-11.6092
eft	-11.6092
▁eighteen	-11.6093
▁leadership	-11.6093
▁recal	-11.6093
pathy	-11.6093
▁flass	-11.6093
▁slay	-11.6093
▁hewe	-11.6093
stained	-11.6093
▁royalty	-11.6093
▁traln	-11.6093
▁scarce	-11.6093
▁blim	-11.6093
▁feedback	-11.6093
▁commute	-11.6093
iteration	-11.6093
▁morality	-11.6093
▁defib	-11.6094
▁gloria	-11.6094
▁havo	-11.6094
▁observation	-11.6094
▁tango	-11.6094
▁shred	-11.6094
▁promoting	-11.6094
▁toil	-11.6094
aggle	-11.6094
▁sequ	-11.6094
▁undone	-11.6094
▁agitate	-11.6094
▁grandson	-11.6095
▁partnership	-11.6095
▁poetic	-11.6095
▁superpower	-11.6096
▁shotgun	-11.6096
▁maze	-11.6096
▁european	-11.6097
▁melas	-11.6097
▁eric	-11.6097
trix	-11.6097
▁lockdown	-11.6097
▁stove	-11.6097
▁etc	-11.6097
▁heartbreak	-11.6097
▁posh	-11.6097
▁babysit	-11.6097
▁suv	-11.6097
▁iran	-11.6097
▁vibration	-11.6097
ancho	-11.6097
▁wlthout	-11.6098
dorf	-11.6098
▁chow	-11.6098
▁fictional	-11.6098
▁rail	-11.6098
▁lola	-11.6098
▁barker	-11.6098
▁morg	-11.6098
▁pause	-11.6098
▁gutter	-11.6099
▁poland	-11.6099
▁replac	-11.6099
▁ateam	-11.6099
▁monk	-11.6099
oleum	-11.6099
▁stray	-11.6099
▁bub	-11.6099
▁tomatoes	-11.61
▁rigid	-11.61
▁rotty	-11.61
▁hubers	-11.61
▁fraction	-11.61
▁presume	-11.6101
▁deliberately	-11.6101
▁hatchet	-11.6102
▁accidentally	-11.6102
▁crypt	-11.6102
▁decoration	-11.6102
▁scent	-11.6102
▁charlle	-11.6102
▁pawn	-11.6102
▁mice	-11.6103
▁countdown	-11.6103
▁comb	-11.6103
▁clang	-11.6103
▁psst	-11.6103
▁clueless	-11.6104
▁panty	-11.6104
▁yaga	-11.6104
▁tapout	-11.6104
▁judgement	-11.6104
▁translator	-11.6104
▁berries	-11.6104
▁levi	-11.6104
▁marci	-11.6104
▁contributor	-11.6105
▁peak	-11.6106
▁inherited	-11.6107
▁cann	-11.6107
▁tripped	-11.6107
▁finch	-11.6107
▁clone	-11.6107
wind	-11.6107
moral	-11.6107
▁quitting	-11.6108
▁headache	-11.6108
ency	-11.6108
▁constitutional	-11.6108
▁everythin	-11.6108
▁diehard	-11.6109
▁teasing	-11.6109
▁dried	-11.6109
▁warmth	-11.6109
▁sym	-11.6109
▁occasionally	-11.6109
▁lining	-11.6109
▁enri	-11.611
▁brlng	-11.611
▁lastminute	-11.611
▁sarai	-11.611
▁wager	-11.6111
▁charter	-11.6111
▁intervene	-11.6112
▁retrieved	-11.6112
▁contribute	-11.6113
▁milli	-11.6114
▁spotting	-11.6114
▁isi	-11.6115
▁flatter	-11.6115
▁ironic	-11.6115
stone	-11.6116
▁warlock	-11.6116
▁oat	-11.6116
▁perry	-11.6117
▁notion	-11.6117
▁globe	-11.6118
▁cora	-11.6118
▁hijack	-11.6118
▁workplace	-11.6118
▁bruin	-11.6119
▁policemen	-11.612
▁hup	-11.6121
▁flre	-11.6121
▁controlled	-11.6121
▁eliminated	-11.6122
▁xi	-11.6123
eering	-11.6123
▁portal	-11.6124
▁childish	-11.6124
▁dose	-11.6124
▁fries	-11.6125
▁personality	-11.6126
▁rwandan	-11.6127
▁dine	-11.6127
nnie	-11.6128
▁passionately	-11.6129
▁gto	-11.6129
utterlng	-11.613
▁strive	-11.6131
▁stripper	-11.6132
▁uncha	-11.6133
▁jap	-11.6133
▁elected	-11.6133
▁vain	-11.6137
▁hospitality	-11.6137
▁monte	-11.6138
▁parachute	-11.6139
▁faceoff	-11.6141
▁pinn	-11.6142
▁specialty	-11.6142
▁halftime	-11.6142
▁cricket	-11.6144
▁burris	-11.6146
▁drip	-11.6146
▁maur	-11.6148
▁liberat	-11.615
▁orcses	-11.615
▁sailor	-11.6151
▁cleansed	-11.6152
▁gale	-11.6153
▁honorable	-11.6153
▁twister	-11.6156
▁firearm	-11.6157
onig	-11.6158
strate	-11.6158
meal	-11.6159
▁laughlng	-11.6162
▁barrier	-11.6162
▁cooperation	-11.6163
▁barge	-11.6164
▁bumme	-11.6164
▁sur	-11.6165
▁immens	-11.6167
▁alexa	-11.6169
▁latch	-11.6169
gow	-11.617
route	-11.6171
stein	-11.6174
▁plasm	-11.6175
▁barri	-11.6176
▁visitation	-11.6179
▁carine	-11.6179
bbie	-11.618
▁quad	-11.6183
▁parish	-11.6185
▁musl	-11.619
gave	-11.6201
▁donate	-11.6206
▁improved	-11.6212
▁tomb	-11.6218
▁psycholog	-11.622
▁your	-11.6225
▁correction	-11.6232
▁operate	-11.6237
▁brat	-11.6239
▁jamm	-11.6244
▁compensat	-11.6246
▁promo	-11.6252
hlet	-11.6275
▁freeway	-11.6281
▁proph	-11.6284
▁env	-11.6288
eemed	-11.6297
▁tut	-11.6302
▁fiance	-11.6305
hose	-11.6313
crack	-11.6337
▁dominate	-11.6356
osity	-11.6364
ramp	-11.6364
ound	-11.6381
▁pump	-11.639
▁calam	-11.6395
ogan	-11.6421
▁chr	-11.6429
bow	-11.6434
visualize	-11.6454
kable	-11.6455
▁ore	-11.6493
equi	-11.6509
▁sca	-11.651
pound	-11.6549
▁asia	-11.6553
plash	-11.6581
tching	-11.6611
pee	-11.664
ront	-11.6655
allow	-11.6662
ember	-11.6677
▁veri	-11.6714
eith	-11.6733
▁allerg	-11.6754
▁correspond	-11.6769
▁participate	-11.6792
▁stor	-11.6804
firm	-11.6827
▁sim	-11.6844
▁addict	-11.6947
▁restrict	-11.6948
▁distinct	-11.6987
pola	-11.7011
ool	-11.702
nose	-11.7024
lich	-11.7069
ique	-11.7072
elton	-11.7156
itch	-11.7229
uru	-11.7259
▁clove	-11.7261
▁vivi	-11.7299
clap	-11.7338
▁sni	-11.7349
▁bugg	-11.7357
▁bir	-11.7528
deli	-11.7555
▁ethic	-11.7556
talk	-11.7622
hero	-11.764
solved	-11.7663
aria	-11.7677
buddh	-11.7738
joon	-11.7742
▁comln	-11.7798
▁assassin	-11.7799
▁glori	-11.7808
▁mov	-11.7815
▁reserv	-11.7821
▁dispos	-11.7876
ggles	-11.789
aka	-11.7948
▁industri	-11.7952
▁humbl	-11.7986
▁replica	-11.8023
chen	-11.8057
▁hype	-11.811
gnment	-11.8138
tache	-11.816
▁viv	-11.8187
▁hopp	-11.8225
aver	-11.8226
lapping	-11.8262
restricted	-11.8336
▁embrac	-11.8341
qualify	-11.8372
stlc	-11.8539
▁corresponden	-11.8541
▁allergi	-11.8558
tribution	-11.8568
mia	-11.8572
▁pun	-11.8613
duction	-11.872
hiba	-11.8765
keepers	-11.8871
▁styl	-11.8901
▁exteri	-11.8924
burgers	-11.9056
▁grim	-11.9073
grain	-11.9084
▁sniff	-11.9103
▁cough	-11.9114
▁straw	-11.9115
▁exclaim	-11.9115
called	-11.9133
▁quiz	-11.914
▁symptom	-11.9153
▁consequence	-11.9156
▁tomahawk	-11.9156
▁gladiator	-11.9159
▁resource	-11.9162
▁giggle	-11.9162
▁height	-11.9167
▁resident	-11.917
▁exhale	-11.917
▁sheet	-11.9171
▁diva	-11.9176
▁viru	-11.9178
▁interacti	-11.9179
▁achiev	-11.919
compensating	-11.9202
▁urg	-11.9206
umble	-11.921
warming	-11.9263
▁pokin	-11.93
▁embarrass	-11.9321
▁snoo	-11.9341
ground	-11.9342
berating	-11.9344
▁morn	-11.9355
▁introduc	-11.9356
▁arrang	-11.936
▁thump	-11.9364
▁debat	-11.9367
slgn	-11.9371
▁lexi	-11.9373
▁suspend	-11.9375
▁dismiss	-11.9376
body	-11.9376
oodles	-11.9378
▁soci	-11.9379
married	-11.9382
connect	-11.9383
▁retrieve	-11.9384
sexual	-11.9384
glen	-11.9385
spice	-11.9385
closure	-11.9385
fella	-11.9385
screen	-11.9386
cloud	-11.9386
dollar	-11.9386
brush	-11.9386
▁relieve	-11.9386
available	-11.9386
▁combine	-11.9386
plane	-11.9386
callahan	-11.9386
▁expose	-11.9387
friendly	-11.9387
jimmy	-11.9387
regular	-11.9387
aware	-11.9387
flynn	-11.9387
watch	-11.9387
certain	-11.9387
distance	-11.9387
third	-11.9387
jesus	-11.9387
people	-11.9388
little	-11.9388
proof	-11.9388
easy	-11.9388
cloth	-11.9388
▁beyon	-11.9388
pitt	-11.9388
horn	-11.9388
scene	-11.9388
shore	-11.9388
piece	-11.9388
smash	-11.9388
selling	-11.9389
guard	-11.9389
closed	-11.939
horse	-11.939
version	-11.939
found	-11.9394
ffles	-11.9395
master	-11.94
▁deliberate	-11.94
▁filth	-11.94
▁suspens	-11.94
▁presum	-11.9401
▁sensitiv	-11.9401
▁qualit	-11.9401
▁squeez	-11.9401
▁interpret	-11.9402
▁convo	-11.9402
delu	-11.9407
▁origin	-11.9411
▁numb	-11.9412
orbid	-11.9413
drive	-11.9413
▁winnin	-11.9413
deposit	-11.9413
▁scot	-11.9414
▁easie	-11.9414
ternal	-11.9414
▁abagna	-11.9415
▁theodo	-11.9416
▁stoppin	-11.9416
▁terrif	-11.9416
▁obstruct	-11.9416
▁oppress	-11.9416
▁institut	-11.9416
erfect	-11.9416
▁destruct	-11.9416
nounce	-11.9416
verything	-11.9418
▁poke	-11.9418
▁infant	-11.9418
sippi	-11.9418
▁consist	-11.9419
▁egypt	-11.9419
sneeze	-11.9419
supplie	-11.9419
eutenant	-11.9419
▁scram	-11.9419
batul	-11.942
▁candida	-11.942
▁theatrical	-11.942
▁crawf	-11.942
borough	-11.942
diagnos	-11.942
jackhammer	-11.942
missible	-11.942
orthodo	-11.942
▁aborted	-11.942
▁abundant	-11.942
▁accusation	-11.942
▁adjacent	-11.942
▁adolescent	-11.942
▁adrenaline	-11.942
▁afghanistan	-11.942
▁alligator	-11.942
▁ammunition	-11.942
▁annihilat	-11.942
▁aperitif	-11.942
▁aquarius	-11.942
▁armchair	-11.942
▁arnhem	-11.942
▁ascension	-11.942
▁assumption	-11.942
▁astron	-11.942
▁automobile	-11.942
▁banned	-11.942
▁banquet	-11.942
▁banshee	-11.942
▁barbaric	-11.942
▁barbosa	-11.942
▁beatboxing	-11.942
▁beggars	-11.942
▁berkley	-11.942
▁biscuit	-11.942
▁blushing	-11.942
▁bonjour	-11.942
▁boogeyman	-11.942
▁bracegirdle	-11.942
▁brakish	-11.942
▁bridetobe	-11.942
▁bulbs	-11.942
▁butterflies	-11.942
▁bystander	-11.942
▁cahstink	-11.942
▁calendar	-11.942
▁canopy	-11.942
▁carburetor	-11.942
▁cartilage	-11.942
▁casualty	-11.942
▁catalog	-11.942
▁catapult	-11.942
▁cavanagh	-11.942
▁caviar	-11.942
▁certifi	-11.942
▁chrissie	-11.942
▁citadel	-11.942
▁claude	-11.942
▁claudia	-11.942
▁cloak	-11.942
▁clucking	-11.942
▁clumsy	-11.942
▁collateral	-11.942
▁consolation	-11.942
▁constellation	-11.942
▁convenient	-11.942
▁cookware	-11.942
▁corridor	-11.942
▁cougar	-11.942
▁creativity	-11.942
▁credentials	-11.942
▁cronkite	-11.942
▁cuisine	-11.942
▁darcelle	-11.942
▁database	-11.942
▁deactivate	-11.942
▁debrief	-11.942
▁decipher	-11.942
▁decompress	-11.942
▁detention	-11.942
▁detonator	-11.942
▁devastati	-11.942
▁devenne	-11.942
▁devotion	-11.942
▁dhillon	-11.942
▁dhokla	-11.942
▁diameter	-11.942
▁dictatorship	-11.942
▁dionysius	-11.942
▁disadvantage	-11.942
▁disloyal	-11.942
▁dobkin	-11.942
▁dramamine	-11.942
▁economic	-11.942
▁economy	-11.942
▁ecthelion	-11.942
▁egelloc	-11.942
▁elaborate	-11.942
▁emmett	-11.942
▁enthusiastic	-11.942
▁entrepreneur	-11.942
▁escalator	-11.942
▁eureka	-11.942
▁exaggerati	-11.942
▁excellencies	-11.942
▁excellency	-11.942
▁excitement	-11.942
▁existential	-11.942
▁exposure	-11.942
▁extravagant	-11.942
▁fantasies	-11.942
▁fascinated	-11.942
▁fidelity	-11.942
▁flickering	-11.942
▁florence	-11.942
▁foreskin	-11.942
▁forrester	-11.942
▁frankfurt	-11.942
▁gamble	-11.942
▁gamgee	-11.942
▁genghis	-11.942
▁genital	-11.942
▁giovanni	-11.942
▁grandchildren	-11.942
▁grandkids	-11.942
▁greatgreat	-11.942
▁grifts	-11.942
▁grudge	-11.942
▁grumbling	-11.942
▁grunion	-11.942
▁guacamole	-11.942
▁guaymas	-11.942
▁haldir	-11.942
▁halothane	-11.942
▁harbour	-11.942
▁harlem	-11.942
▁hawthorne	-11.942
▁haymitch	-11.942
▁heiglemann	-11.942
▁hisaishi	-11.942
▁historian	-11.942
▁histories	-11.942
▁hollingsworth	-11.942
▁hollywood	-11.942
▁houdini	-11.942
▁hovercraft	-11.942
▁hurdle	-11.942
▁hybrid	-11.942
▁hydraulic	-11.942
▁imbecile	-11.942
▁inbreathiate	-11.942
▁incinerate	-11.942
▁independent	-11.942
▁indication	-11.942
▁inevitable	-11.942
▁infection	-11.942
▁ingredients	-11.942
▁insanity	-11.942
▁inseparable	-11.942
▁intellectual	-11.942
▁intensif	-11.942
▁intruders	-11.942
▁jagger	-11.942
▁jenkins	-11.942
▁jeopardiz	-11.942
▁jogging	-11.942
▁jonathan	-11.942
▁judging	-11.942
▁jujitsu	-11.942
▁jukebox	-11.942
▁kathleen	-11.942
▁kentucky	-11.942
▁kiilln	-11.942
▁kilometer	-11.942
▁kindergarten	-11.942
▁knicks	-11.942
▁koolaid	-11.942
▁lesbian	-11.942
▁librarian	-11.942
▁lloyd	-11.942
▁looters	-11.942
▁lozano	-11.942
▁lucille	-11.942
▁majesti	-11.942
▁margaret	-11.942
▁meatloaf	-11.942
▁mechanism	-11.942
▁meriadoc	-11.942
▁michelangelo	-11.942
▁millimeter	-11.942
▁misdirect	-11.942
▁misfits	-11.942
▁misunderstood	-11.942
▁mongoose	-11.942
▁motivate	-11.942
▁mountalns	-11.942
▁munitions	-11.942
▁neighing	-11.942
▁newlywed	-11.942
▁nourish	-11.942
▁nuisance	-11.942
▁observatory	-11.942
▁octopus	-11.942
▁offduty	-11.942
▁offgrid	-11.942
▁ordnance	-11.942
▁overload	-11.942
▁overreact	-11.942
▁overthrow	-11.942
▁parameters	-11.942
▁parasite	-11.942
▁peculiar	-11.942
▁perceptive	-11.942
▁perverse	-11.942
▁polynesia	-11.942
▁porpoise	-11.942
▁prejud	-11.942
▁premises	-11.942
▁preparatory	-11.942
▁propellant	-11.942
▁provisions	-11.942
▁pussycat	-11.942
▁quarrel	-11.942
▁quintana	-11.942
▁qureshi	-11.942
▁rebecca	-11.942
▁reconsider	-11.942
▁reflex	-11.942
▁refrigerator	-11.942
▁rejoice	-11.942
▁reprimand	-11.942
▁retiring	-11.942
▁revenue	-11.942
▁ringwraiths	-11.942
▁risotto	-11.942
▁roadblocks	-11.942
▁rochambeau	-11.942
▁roosevelt	-11.942
▁rusticated	-11.942
▁rydell	-11.942
▁sabbatical	-11.942
▁sanatorium	-11.942
▁savior	-11.942
▁schnapps	-11.942
▁schroeder	-11.942
▁selected	-11.942
▁selection	-11.942
▁serpent	-11.942
▁shakespeare	-11.942
▁shuddering	-11.942
▁siberia	-11.942
▁singapore	-11.942
▁sloppy	-11.942
▁smudge	-11.942
▁soaked	-11.942
▁sovereign	-11.942
▁spelunking	-11.942
▁sprinkle	-11.942
▁sputnik	-11.942
▁squeamish	-11.942
▁stamina	-11.942
▁stamps	-11.942
▁steiss	-11.942
▁stewart	-11.942
▁straightforward	-11.942
▁strangle	-11.942
▁stunned	-11.942
▁suffocat	-11.942
▁superintendent	-11.942
▁sylvia	-11.942
▁teresa	-11.942
▁testosterone	-11.942
▁toreador	-11.942
▁tornado	-11.942
▁trajectory	-11.942
▁triangulate	-11.942
▁trlck	-11.942
▁tshirt	-11.942
▁turbo	-11.942
▁twink	-11.942
▁umbilical	-11.942
▁unbearable	-11.942
▁understatement	-11.942
▁unemployed	-11.942
▁unnatural	-11.942
▁unnoticed	-11.942
▁unpleasant	-11.942
▁unscheduled	-11.942
▁untraceable	-11.942
▁urineexpulsion	-11.942
▁valentin	-11.942
▁velmano	-11.942
▁veloci	-11.942
▁velvet	-11.942
▁virtual	-11.942
▁virtuos	-11.942
▁vitamins	-11.942
▁vittorino	-11.942
▁voshkod	-11.942
▁weasel	-11.942
▁whereabouts	-11.942
▁whinnying	-11.942
▁wombat	-11.942
▁wraith	-11.942
▁xanthium	-11.942
▁yoohoo	-11.942
▁zamb	-11.942
cumber	-11.942
▁aggravat	-11.942
▁bradford	-11.942
▁capricornia	-11.942
▁cipher	-11.942
▁detonate	-11.942
▁engrav	-11.942
▁errand	-11.942
▁eyebrow	-11.942
▁fragment	-11.942
▁fugue	-11.942
▁gorilla	-11.942
▁inject	-11.942
▁leavln	-11.942
▁legitima	-11.942
▁marciano	-11.942
▁niece	-11.942
▁pediatric	-11.942
▁puff	-11.942
▁skinnydip	-11.942
▁skywayman	-11.942
▁twig	-11.942
▁wannabe	-11.942
▁aircondition	-11.942
▁amerlc	-11.942
▁autopsy	-11.942
▁bounty	-11.942
▁chaplain	-11.942
▁chattel	-11.942
▁clayton	-11.942
▁coworker	-11.942
▁dishonor	-11.942
▁dowry	-11.942
▁famished	-11.942
▁flunk	-11.942
▁fritz	-11.942
▁gamling	-11.942
▁govind	-11.942
▁grappl	-11.942
▁hudson	-11.942
▁kombucha	-11.942
▁launchpad	-11.942
▁midwest	-11.942
▁nipp	-11.942
▁outlast	-11.942
▁pancaked	-11.942
▁plunge	-11.942
▁pummel	-11.942
▁quarry	-11.942
▁renewed	-11.942
▁resemb	-11.942
▁responslb	-11.942
▁rtlm	-11.942
▁sisterinlaw	-11.942
▁soundwave	-11.942
▁speclal	-11.942
▁stupld	-11.942
▁thattaway	-11.942
▁volley	-11.942
▁yawns	-11.942
▁yeoman	-11.942
▁album	-11.942
▁amigo	-11.942
▁anvil	-11.942
▁arsenal	-11.942
▁barbara	-11.942
▁cartridges	-11.942
▁chestnut	-11.942
▁courtyard	-11.942
▁loaf	-11.942
▁lraq	-11.942
▁memorial	-11.942
▁pupil	-11.942
▁rallies	-11.942
▁rouen	-11.942
▁sanitation	-11.942
▁sarge	-11.942
▁shook	-11.942
▁slamm	-11.942
▁sleeve	-11.942
▁spiral	-11.942
▁sprain	-11.942
▁token	-11.942
▁uprising	-11.942
▁vernon	-11.942
precedent	-11.942
▁astray	-11.942
▁befit	-11.942
▁botch	-11.942
▁clinic	-11.942
▁commune	-11.942
▁darius	-11.942
▁defcon	-11.942
▁disarm	-11.942
▁dizzy	-11.942
▁foreseen	-11.942
▁gringo	-11.942
▁harley	-11.942
▁hisham	-11.942
▁maroon	-11.942
▁nineteen	-11.942
▁noose	-11.942
▁outlive	-11.942
▁pianist	-11.942
▁ramsden	-11.942
▁repay	-11.942
▁reunit	-11.942
▁schnar	-11.942
▁stomp	-11.942
▁theater	-11.942
sensual	-11.942
▁arturo	-11.942
▁bagelle	-11.942
▁chalk	-11.942
▁cheryl	-11.942
▁committee	-11.942
▁hayao	-11.942
▁importance	-11.942
▁organisms	-11.942
▁quaint	-11.942
▁utah	-11.942
▁binions	-11.942
▁bomp	-11.942
▁bulk	-11.942
▁coroner	-11.942
▁creaks	-11.942
▁hemorrhoid	-11.942
▁lembas	-11.942
▁trooper	-11.942
▁unwilling	-11.942
▁warmonger	-11.942
communicating	-11.942
▁detain	-11.942
▁encode	-11.942
▁jerem	-11.942
onarchy	-11.942
▁furthermo	-11.942
▁tamper	-11.942
▁tomcat	-11.942
▁drongo	-11.942
▁lambert	-11.942
▁madeleine	-11.942
▁merde	-11.942
▁orgies	-11.942
▁pantlng	-11.942
▁salud	-11.942
▁caretaker	-11.942
▁chorus	-11.942
▁llsten	-11.942
▁resort	-11.942
▁stephen	-11.942
▁altar	-11.942
▁gaul	-11.942
▁nonstop	-11.942
▁podell	-11.942
▁euro	-11.942
▁mullen	-11.942
libr	-11.942
▁retro	-11.942
▁sonorous	-11.942
▁edict	-11.942
▁erotic	-11.942
▁mashed	-11.942
▁smite	-11.942
▁thethe	-11.942
▁unison	-11.942
▁wesson	-11.942
currency	-11.942
▁carcass	-11.942
▁fiber	-11.942
▁sulli	-11.942
▁durbatul	-11.942
▁ransack	-11.942
▁remedi	-11.942
▁pbc	-11.942
▁ntis	-11.942
▁belch	-11.942
▁redefin	-11.942
▁manifest	-11.942
▁amusing	-11.942
▁ellis	-11.942
▁madeira	-11.942
▁organics	-11.942
▁yourjob	-11.942
▁herman	-11.942
▁ensure	-11.942
▁intel	-11.942
▁expulsion	-11.942
▁gamemakers	-11.942
▁loyalists	-11.942
▁meows	-11.942
▁kittykat	-11.942
behaving	-11.942
▁gloss	-11.942
▁eyedent	-11.942
▁fbl	-11.942
▁diving	-11.942
▁utopia	-11.942
▁diffract	-11.942
▁easing	-11.942
▁antonius	-11.942
▁hurl	-11.942
▁lilith	-11.942
▁susan	-11.942
lphi	-11.942
▁frost	-11.942
▁prosper	-11.942
▁cnn	-11.942
▁zippe	-11.942
▁boytoy	-11.942
▁circuits	-11.942
▁fraternity	-11.942
▁mudrick	-11.942
▁reconstruct	-11.942
▁microphone	-11.942
▁telescope	-11.942
▁matsu	-11.942
▁raids	-11.942
▁airbags	-11.942
▁maniac	-11.942
▁canals	-11.942
▁ethiopian	-11.942
▁euph	-11.942
▁truss	-11.942
▁polka	-11.942
▁coils	-11.942
▁dosage	-11.942
▁whlsper	-11.942
▁dorm	-11.942
▁bellows	-11.942
▁intersect	-11.942
▁amendment	-11.942
▁backyard	-11.942
▁wreak	-11.942
▁creole	-11.942
▁stereogram	-11.942
▁hamlet	-11.942
▁yoyo	-11.942
rresist	-11.942
▁goblin	-11.942
▁whines	-11.942
▁donkey	-11.942
▁calculator	-11.942
▁slippery	-11.942
▁schei	-11.942
▁zebra	-11.942
▁tonlght	-11.942
▁resurrection	-11.942
▁consent	-11.9421
▁cynic	-11.9421
▁butler	-11.9421
▁deteriorati	-11.9421
quench	-11.9421
▁twentythree	-11.9421
▁vicious	-11.9421
▁kabul	-11.9421
▁cyber	-11.9421
▁bloke	-11.9421
▁monica	-11.9421
▁frantically	-11.9421
▁postmaster	-11.9421
▁persist	-11.9421
▁brutal	-11.9421
niko	-11.9421
▁banville	-11.9421
▁jiang	-11.9421
▁reclamation	-11.9421
atherine	-11.9421
uzman	-11.9421
▁transmitting	-11.9421
▁mascot	-11.9421
▁goodfellas	-11.9421
▁conversion	-11.9421
shimla	-11.9421
bourne	-11.9421
▁gulp	-11.9421
▁fortnight	-11.9421
▁compact	-11.9421
▁foley	-11.9421
▁mumbling	-11.9421
▁bubba	-11.9421
▁frequent	-11.9421
▁olympic	-11.9421
▁fertility	-11.9421
▁irina	-11.9421
▁harmony	-11.9421
▁underwater	-11.9421
▁unsold	-11.9421
▁frantic	-11.9421
▁hippie	-11.9421
▁biology	-11.9421
▁midget	-11.9421
douche	-11.9421
▁managing	-11.9422
▁terminat	-11.9422
▁recess	-11.9422
▁claustrophobia	-11.9422
▁twentyeight	-11.9422
▁vegeta	-11.9422
▁imprinted	-11.9422
▁flashpoint	-11.9422
▁galley	-11.9422
▁podium	-11.9422
▁blair	-11.9422
▁pinpoint	-11.9422
▁appreciation	-11.9422
▁mutation	-11.9422
▁loathe	-11.9422
▁upsidedown	-11.9422
▁ifwe	-11.9422
▁fitzys	-11.9422
▁valet	-11.9422
▁expire	-11.9422
blings	-11.9422
▁requirements	-11.9422
▁unsha	-11.9422
▁tinkl	-11.9422
▁vital	-11.9422
▁awoke	-11.9422
▁enlist	-11.9422
▁scotch	-11.9422
▁crossword	-11.9423
▁edith	-11.9423
▁jackpot	-11.9423
▁snowstorm	-11.9423
▁intuitive	-11.9423
imony	-11.9423
▁rico	-11.9423
▁circumstan	-11.9423
▁klds	-11.9423
▁vein	-11.9423
▁dislike	-11.9423
▁masterpiece	-11.9423
uffl	-11.9423
▁comedian	-11.9423
▁clark	-11.9423
▁tramp	-11.9423
▁bodyguard	-11.9423
▁tumble	-11.9423
▁concentration	-11.9423
▁powell	-11.9423
▁ventilator	-11.9423
▁watson	-11.9423
ovich	-11.9423
▁strand	-11.9423
▁klck	-11.9423
▁cutters	-11.9423
▁theodore	-11.9424
▁phew	-11.9424
▁twentytwo	-11.9424
▁compassionate	-11.9424
▁sparring	-11.9424
dolf	-11.9424
▁confidential	-11.9424
zaki	-11.9424
▁thirtytwo	-11.9424
▁groceries	-11.9424
remors	-11.9424
▁avail	-11.9424
▁tiring	-11.9424
▁conven	-11.9424
▁wakefield	-11.9425
▁shoppers	-11.9425
▁teapot	-11.9425
▁parlor	-11.9425
▁ohio	-11.9425
▁arise	-11.9425
▁flair	-11.9425
itrate	-11.9425
▁hicks	-11.9425
▁simulat	-11.9425
▁secre	-11.9425
▁remarried	-11.9425
▁windmill	-11.9425
▁torment	-11.9425
ulsion	-11.9425
sanctioned	-11.9426
▁continuous	-11.9426
▁journalist	-11.9426
thril	-11.9426
sident	-11.9426
▁gould	-11.9426
▁nothln	-11.9426
shhhh	-11.9426
▁middleweight	-11.9427
▁tactic	-11.9427
▁stroll	-11.9427
▁supervision	-11.9427
haza	-11.9427
▁seaboard	-11.9427
fluent	-11.9427
▁jangl	-11.9427
▁conviction	-11.9427
▁pinhead	-11.9427
▁clash	-11.9427
▁detest	-11.9427
drin	-11.9427
▁keyboard	-11.9427
▁jewelry	-11.9428
▁limb	-11.9428
▁cruelty	-11.9428
▁relying	-11.9428
▁vibe	-11.9428
wobbl	-11.9428
▁derive	-11.9428
▁ashland	-11.9428
▁prepped	-11.9428
iliar	-11.9428
▁landmark	-11.9428
immo	-11.9428
▁mirv	-11.9428
▁interim	-11.9429
▁whew	-11.9429
▁levantus	-11.9429
▁posture	-11.9429
▁decree	-11.9429
▁musclehead	-11.9429
▁pillage	-11.9429
▁void	-11.943
▁bulldo	-11.943
▁balin	-11.943
▁tasty	-11.943
▁liais	-11.943
▁georgetown	-11.943
▁afar	-11.9431
▁deport	-11.9431
▁primate	-11.9431
▁plum	-11.9431
▁stale	-11.9431
▁nece	-11.9431
▁mumps	-11.9432
▁shear	-11.9432
▁hds	-11.9432
twit	-11.9432
▁weaponized	-11.9433
▁karate	-11.9433
▁stack	-11.9433
wish	-11.9433
▁radi	-11.9434
▁taters	-11.9434
▁symbolist	-11.9434
toback	-11.9434
▁cowan	-11.9434
▁scamm	-11.9434
▁polar	-11.9434
▁ahhh	-11.9434
endil	-11.9435
▁purge	-11.9435
▁courtroom	-11.9435
▁strokin	-11.9436
▁nosing	-11.9436
▁juggl	-11.9436
▁trent	-11.9436
▁stub	-11.9437
▁corruption	-11.9437
spoon	-11.9437
▁beam	-11.9437
▁marie	-11.9437
▁toto	-11.9438
▁garb	-11.9439
ltat	-11.9439
▁hence	-11.9439
▁claw	-11.9439
holic	-11.944
▁entertainment	-11.944
▁argentina	-11.9441
▁innit	-11.9441
high	-11.9443
▁chess	-11.9443
▁slot	-11.9446
▁shark	-11.9447
raham	-11.945
▁tock	-11.945
▁glue	-11.945
eatures	-11.9456
fleld	-11.9456
mulate	-11.9458
itzer	-11.9465
▁eag	-11.9465
▁fingernail	-11.9466
▁entit	-11.9467
steppe	-11.9469
▁baffle	-11.947
▁poodle	-11.9476
▁auswe	-11.9481
most	-11.9482
▁valkyrie	-11.9484
▁vibrat	-11.9486
▁euc	-11.9487
urvey	-11.9505
sighs	-11.9511
lmme	-11.9516
▁substitut	-11.9518
▁libb	-11.9521
▁merma	-11.9525
▁doublecross	-11.953
aiser	-11.9535
farthing	-11.9536
▁geograph	-11.9537
▁masc	-11.9538
milk	-11.954
▁grubb	-11.9552
▁grovel	-11.9555
▁verifi	-11.9568
▁patron	-11.9597
▁clippe	-11.9601
▁slugge	-11.9604
ifled	-11.9613
qq	-11.9653
▁splen	-11.9664
▁restructur	-11.9681
▁induce	-11.9683
▁resi	-11.9696
aya	-11.9701
▁mourn	-11.9709
ridden	-11.9722
▁calculate	-11.9741
▁inspecti	-11.9744
gender	-11.9749
now	-11.9762
swept	-11.9771
hlee	-11.9814
agnes	-11.9818
zzes	-11.9833
otine	-11.9847
vinci	-11.9852
nito	-11.9856
lnner	-11.986
▁presto	-11.9863
▁criticiz	-11.9868
▁absen	-11.9896
▁persia	-11.9908
ivate	-11.9963
▁ribb	-12.0033
▁capabilit	-12.0048
intentionally	-12.0052
▁anthi	-12.0089
metric	-12.0096
baking	-12.0112
sbee	-12.0137
scarred	-12.0142
from	-12.0159
areyou	-12.0167
berry	-12.0167
▁clari	-12.0271
yoshi	-12.0301
▁flexib	-12.0645
acada	-12.067
spense	-12.0715
▁archiv	-12.0721
realistic	-12.0769
villan	-12.078
▁macar	-12.0845
ffa	-12.0917
bagginses	-12.0917
▁purchas	-12.1038
▁pranc	-12.1071
tuna	-12.1105
dispose	-12.1227
which	-12.131
▁hideou	-12.1319
abolic	-12.1347
▁bullsh	-12.1363
ummy	-12.1425
moto	-12.1434
ctum	-12.1532
talki	-12.158
▁otherw	-12.1613
▁northeast	-12.1688
ethical	-12.1709
▁obscur	-12.1828
sentries	-12.19
▁overtur	-12.2058
whir	-12.2094
zu	-12.2129
stripes	-12.2233
communicated	-12.2336
ndi	-12.2345
▁degenerat	-12.2459
▁reviv	-12.2465
▁sacrific	-12.2593
▁transmit	-12.2648
minus	-12.2689
vance	-12.2821
hhhhhh	-12.2907
▁submissi	-12.2923
▁pursu	-12.2956
▁experienc	-12.2977
moi	-12.3121
challenged	-12.3232
experienced	-12.3316
▁associat	-12.3475
duced	-12.3548
▁gibb	-12.3575
▁remov	-12.362
secution	-12.3726
variabl	-12.3852
protected	-12.3855
unctio	-12.3862
harmed	-12.3881
berries	-12.389
predictabl	-12.4052
▁commenc	-12.4149
▁colleague	-12.4158
▁stammer	-12.4164
▁conner	-12.4175
▁grub	-12.4207
crossed	-12.4208
ography	-12.423
doubted	-12.4256
▁regimen	-12.4329
▁appreciat	-12.4347
▁modul	-12.4348
▁constitu	-12.435
earned	-12.4356
proxim	-12.4359
▁accomplish	-12.4363
▁snort	-12.4364
▁sobb	-12.4367
▁obsess	-12.4369
▁inherit	-12.4373
▁circl	-12.4374
▁retard	-12.4375
▁distinguish	-12.4375
▁exhaust	-12.4375
earth	-12.4381
pawn	-12.4383
▁georgi	-12.4384
trash	-12.4385
mile	-12.4385
sleep	-12.4385
skirt	-12.4385
▁collapse	-12.4385
▁oppose	-12.4385
caution	-12.4385
▁conceive	-12.4385
promising	-12.4385
continent	-12.4385
temper	-12.4385
punished	-12.4386
▁argentin	-12.4386
▁tolera	-12.4386
appropriate	-12.4386
significant	-12.4386
assigned	-12.4386
andrew	-12.4386
