<unk>	0
<s>	0
</s>	0
s	-4.05578
▁im	-4.53492
▁dont	-4.59694
▁know	-4.7037
▁oh	-4.78047
▁get	-4.80079
▁go	-4.83347
▁right	-4.92115
▁come	-4.92228
▁like	-4.94085
▁well	-4.96976
▁got	-5.04353
▁youre	-5.08809
▁one	-5.15827
▁yeah	-5.15871
▁thats	-5.15924
▁good	-5.17142
▁see	-5.30144
▁think	-5.39061
▁hey	-5.39173
ing	-5.41625
▁na	-5.44791
▁want	-5.44836
▁back	-5.50294
▁look	-5.5304
▁okay	-5.53597
▁time	-5.54187
▁yes	-5.5606
▁us	-5.60286
▁going	-5.64032
▁gon	-5.67697
▁would	-5.68225
ed	-5.70315
▁ill	-5.70826
▁take	-5.71656
▁cant	-5.74247
▁l	-5.74723
▁hes	-5.75643
▁little	-5.83598
▁say	-5.83842
▁never	-5.85379
▁way	-5.85447
▁mr	-5.86715
▁really	-5.87426
▁man	-5.89129
▁could	-5.90693
▁need	-5.96651
▁tell	-5.97864
▁make	-5.98819
▁thank	-6.0016
▁lets	-6.00298
▁something	-6.06313
▁love	-6.08353
▁whats	-6.09026
▁ive	-6.0961
▁let	-6.10073
▁theres	-6.11258
▁mean	-6.11954
▁sorry	-6.12859
d	-6.14366
▁didnt	-6.14411
▁	-6.14825
▁please	-6.16261
▁wait	-6.20678
▁thing	-6.24421
y	-6.25785
▁day	-6.25902
▁two	-6.28465
▁give	-6.32185
▁help	-6.3262
▁uh	-6.35791
▁home	-6.36377
▁sure	-6.37142
▁great	-6.37556
▁said	-6.38807
▁ever	-6.40797
▁much	-6.40979
▁must	-6.41275
▁away	-6.42248
▁guys	-6.42747
▁stop	-6.45549
▁sir	-6.45868
▁better	-6.46114
▁even	-6.46125
▁music	-6.48395
▁people	-6.49488
▁new	-6.49609
▁find	-6.49837
▁life	-6.50206
▁theyre	-6.5069
▁shes	-6.5107
▁first	-6.51384
▁nothing	-6.53853
▁thought	-6.54195
ly	-6.54776
▁keep	-6.56134
▁always	-6.56563
▁things	-6.59742
▁night	-6.60558
▁anything	-6.6068
▁maybe	-6.60684
▁put	-6.62592
▁feel	-6.6349
▁guy	-6.63558
▁long	-6.65462
▁still	-6.67395
▁big	-6.68214
▁huh	-6.69252
▁place	-6.69574
▁dad	-6.70178
e	-6.71923
▁whoa	-6.71993
▁old	-6.72965
▁work	-6.73854
▁hello	-6.7441
▁nice	-6.74595
▁leave	-6.7463
▁youve	-6.74816
▁boy	-6.74988
▁wont	-6.75476
▁best	-6.75708
er	-6.76672
▁course	-6.77039
▁around	-6.77271
▁believe	-6.77953
▁youll	-6.78171
▁call	-6.78624
▁bad	-6.79868
▁world	-6.80341
▁id	-6.80689
▁stay	-6.82434
▁everything	-6.82691
▁coming	-6.82828
▁done	-6.83547
▁hear	-6.83654
▁may	-6.85136
▁baby	-6.85242
▁mom	-6.85662
▁last	-6.85756
▁made	-6.86258
▁talk	-6.86649
▁kind	-6.87496
▁try	-6.87727
▁miss	-6.88005
▁gasps	-6.88255
▁house	-6.88818
▁name	-6.9001
▁hi	-6.90075
▁told	-6.90249
▁might	-6.90311
▁ah	-6.91647
▁mother	-6.91812
▁god	-6.91919
▁thanks	-6.92402
▁playing	-6.9274
▁grunts	-6.92946
▁enough	-6.93113
▁every	-6.94233
▁doesnt	-6.95248
▁ta	-6.95655
▁play	-6.96127
▁hold	-6.96193
▁remember	-6.96824
▁dog	-6.97198
▁show	-6.97341
▁lot	-6.98049
▁isnt	-6.9882
▁laughing	-7.00616
▁girl	-7.00622
▁listen	-7.01464
▁wrong	-7.01657
▁morning	-7.01946
▁years	-7.02769
▁ready	-7.02911
▁left	-7.03102
▁found	-7.037
▁happy	-7.03989
▁together	-7.0607
▁aint	-7.06071
▁getting	-7.06161
▁another	-7.0728
▁understand	-7.07474
▁fine	-7.07578
▁run	-7.08217
▁three	-7.08816
▁hell	-7.09067
▁money	-7.10372
▁ask	-7.12472
▁king	-7.13159
▁move	-7.1373
▁excuse	-7.13886
▁knew	-7.1486
▁school	-7.15697
▁real	-7.16519
▁ok	-7.16774
▁next	-7.16857
▁chuckles	-7.17245
▁weve	-7.17867
▁car	-7.17977
▁mind	-7.19763
▁today	-7.19919
▁guess	-7.19924
▁wan	-7.20415
▁family	-7.21311
▁someone	-7.22012
▁came	-7.22365
▁true	-7.22367
▁talking	-7.22632
▁kids	-7.2339
▁cause	-7.23434
▁hope	-7.23833
▁lost	-7.24154
▁tomorrow	-7.24512
▁happened	-7.24721
▁red	-7.25006
▁idea	-7.25138
▁meet	-7.25534
▁heard	-7.27407
▁care	-7.27577
▁whole	-7.27824
▁wouldnt	-7.27863
▁friend	-7.27937
▁seen	-7.28148
▁everyone	-7.28536
▁father	-7.29028
▁head	-7.29263
▁captain	-7.29328
▁um	-7.29391
▁friends	-7.29821
▁bring	-7.30027
▁wanted	-7.30256
▁watch	-7.30407
▁live	-7.30488
▁kill	-7.30525
▁whos	-7.30824
▁dear	-7.31048
▁trying	-7.31531
▁end	-7.31612
▁son	-7.31651
▁everybody	-7.32019
▁laughs	-7.32155
▁woman	-7.32412
▁dead	-7.33199
▁else	-7.332
▁alone	-7.33595
▁mrs	-7.33747
▁many	-7.34005
in	-7.34492
▁fight	-7.34705
▁far	-7.34915
▁pretty	-7.3519
▁fun	-7.35354
▁without	-7.35593
▁ha	-7.35766
▁la	-7.35883
▁job	-7.36505
▁jack	-7.36523
▁alice	-7.36818
▁looking	-7.37083
al	-7.37607
▁start	-7.37815
▁turn	-7.37921
▁kid	-7.3843
▁wasnt	-7.38462
▁minute	-7.40231
a	-7.40433
▁tonight	-7.40563
▁youd	-7.40579
▁yet	-7.40991
▁gone	-7.41252
t	-7.41634
▁worry	-7.42261
▁sighs	-7.42791
▁bit	-7.42898
▁eat	-7.43356
▁lm	-7.43476
▁honey	-7.43581
▁saw	-7.44021
▁hand	-7.4438
▁beautiful	-7.45195
▁screaming	-7.45428
▁heart	-7.45465
▁em	-7.45985
▁looks	-7.46257
▁open	-7.47066
▁peter	-7.47179
▁face	-7.48313
▁room	-7.4833
▁matter	-7.50188
▁sit	-7.50727
▁havent	-7.51311
▁hard	-7.51487
▁problem	-7.52585
▁days	-7.52639
▁welcome	-7.5322
▁actually	-7.5323
▁use	-7.53412
▁door	-7.53571
▁wish	-7.53792
▁afraid	-7.54189
▁went	-7.5419
▁says	-7.5506
▁easy	-7.55167
▁christmas	-7.5565
▁stuff	-7.5566
▁already	-7.56155
▁forget	-7.56155
▁late	-7.5651
es	-7.56638
▁boys	-7.57282
▁game	-7.57589
▁quite	-7.58195
▁inside	-7.58669
▁wow	-7.58671
▁later	-7.59243
▁part	-7.59443
▁ooh	-7.59697
▁five	-7.59717
r	-7.59798
▁soon	-7.60096
o	-7.60675
▁saying	-7.61181
▁anyone	-7.61245
▁used	-7.613
▁shall	-7.61761
▁men	-7.62327
▁since	-7.62812
▁couldnt	-7.64476
▁hmm	-7.64974
▁die	-7.65255
▁fire	-7.65299
▁second	-7.65549
▁book	-7.66119
▁mine	-7.66144
▁dream	-7.66358
▁al	-7.66824
▁exactly	-7.67172
▁sleep	-7.68256
▁lady	-7.68295
▁wheres	-7.68767
▁clear	-7.68792
▁enzo	-7.68842
▁food	-7.68843
▁point	-7.6906
▁happen	-7.69302
▁change	-7.69304
▁year	-7.69497
est	-7.69594
▁moment	-7.70097
▁side	-7.70146
ve	-7.71307
▁close	-7.71608
▁read	-7.71652
▁water	-7.7305
▁called	-7.73114
▁hands	-7.73234
▁young	-7.73331
▁power	-7.73607
n	-7.73685
▁stand	-7.73746
▁arent	-7.74041
▁grunting	-7.74099
▁high	-7.74411
▁win	-7.74688
▁team	-7.74969
▁full	-7.75027
▁miyagi	-7.75234
l	-7.75577
▁boss	-7.75839
▁speak	-7.7586
▁check	-7.76193
▁follow	-7.76243
▁hair	-7.76559
▁trouble	-7.76713
▁pay	-7.77037
▁children	-7.77053
▁hit	-7.77128
▁town	-7.77953
▁hurt	-7.78098
▁dance	-7.78214
▁four	-7.78283
▁crazy	-7.78288
▁making	-7.78295
▁un	-7.78317
▁groans	-7.7836
▁brother	-7.78542
▁anyway	-7.78579
▁supposed	-7.79028
▁chance	-7.79198
▁dinner	-7.79529
▁somebody	-7.79529
▁eyes	-7.79926
▁cool	-7.80043
▁denny	-7.80162
▁voice	-7.80466
▁luck	-7.80609
▁working	-7.80782
▁took	-7.80792
▁fast	-7.81243
▁perfect	-7.81926
▁though	-7.82038
▁hurry	-7.82069
▁marley	-7.8207
▁rest	-7.8209
▁cut	-7.82303
▁radio	-7.82539
▁means	-7.82999
▁wants	-7.83199
▁wife	-7.83372
▁perhaps	-7.84017
▁probably	-7.84017
▁break	-7.84861
▁continues	-7.85073
▁save	-7.85795
▁ow	-7.86601
▁cat	-7.86729
▁girls	-7.87093
▁bye	-7.87351
▁waiting	-7.87616
▁business	-7.88015
▁light	-7.88196
▁thinking	-7.88448
▁safe	-7.88503
▁free	-7.88511
▁shut	-7.89395
▁almost	-7.89407
▁wonderful	-7.89451
▁hate	-7.89713
▁johnny	-7.90044
▁funny	-7.90106
▁sound	-7.90109
▁sister	-7.90592
▁elephant	-7.90604
▁air	-7.90808
▁makes	-7.91681
▁deal	-7.91816
▁ago	-7.92952
▁crowd	-7.93371
▁papa	-7.93651
▁mmm	-7.93659
▁goes	-7.94166
▁nobody	-7.94222
▁whatever	-7.94371
▁ahead	-7.94374
▁an	-7.94433
▁g	-7.9454
▁met	-7.94898
▁seem	-7.9498
▁john	-7.95097
▁anymore	-7.95101
▁taking	-7.9512
▁fly	-7.955
▁ball	-7.95707
▁sweet	-7.95765
▁pull	-7.96474
▁finally	-7.96628
▁speaking	-7.97115
▁small	-7.97209
▁lose	-7.97298
▁george	-7.97323
▁buddy	-7.97328
▁growls	-7.97355
▁bob	-7.98065
▁catch	-7.98182
▁trust	-7.98496
▁number	-7.98754
▁hot	-7.98851
▁tried	-7.98863
▁pick	-7.99415
▁important	-7.99436
▁different	-7.99594
▁half	-7.99595
▁walk	-7.99699
▁bet	-7.99784
▁along	-8.01136
▁asked	-8.01158
▁cheering	-8.01243
▁line	-8.01421
▁times	-8.01499
▁word	-8.0188
▁least	-8.0193
▁plan	-8.02139
▁hang	-8.02282
▁special	-8.02455
▁set	-8.02675
▁secret	-8.02683
▁control	-8.02688
▁itll	-8.02714
▁lord	-8.03495
▁running	-8.03504
▁story	-8.03512
▁step	-8.0411
▁behind	-8.04303
▁forever	-8.04303
▁evening	-8.04813
▁gentlemen	-8.0511
▁gave	-8.05113
▁train	-8.05184
▁war	-8.05314
▁drink	-8.05509
▁feet	-8.05925
▁lll	-8.06111
▁bed	-8.06155
▁buck	-8.06325
i	-8.06656
▁party	-8.07098
▁promise	-8.07409
▁coach	-8.07934
▁brought	-8.08402
▁james	-8.08407
▁learn	-8.08466
▁heres	-8.08562
▁seems	-8.0858
▁panting	-8.09246
▁anna	-8.09271
▁parents	-8.09319
▁hours	-8.09375
▁lts	-8.09478
▁person	-8.10028
▁country	-8.101
▁top	-8.10117
on	-8.10188
▁phone	-8.102
▁sounds	-8.10353
m	-8.1039
▁question	-8.10693
▁week	-8.10893
▁living	-8.10944
▁damn	-8.10952
▁kidding	-8.10954
▁queen	-8.11058
▁singing	-8.11356
▁knows	-8.11705
▁stupid	-8.11806
▁married	-8.11812
▁send	-8.12234
▁wake	-8.12466
▁de	-8.1265
▁anybody	-8.12676
▁ladies	-8.12679
▁sea	-8.13903
▁mama	-8.14391
▁reason	-8.14586
▁minutes	-8.15143
▁mad	-8.15221
▁darling	-8.15325
▁private	-8.15332
▁city	-8.1535
▁shouldnt	-8.16232
▁harry	-8.16238
▁island	-8.16434
▁fear	-8.16773
▁sing	-8.17045
▁jacob	-8.17359
▁feeling	-8.17523
▁smell	-8.1773
▁fall	-8.17839
▁sign	-8.17857
▁started	-8.17868
▁killed	-8.17921
▁princess	-8.18024
▁death	-8.18296
▁needs	-8.1846
▁buy	-8.1855
c	-8.18818
▁outside	-8.18964
▁amazing	-8.18984
▁till	-8.18993
▁gets	-8.19289
▁song	-8.19299
▁daniel	-8.19918
▁able	-8.20099
▁tree	-8.20203
▁ride	-8.20844
▁lucy	-8.20862
▁theyll	-8.20863
▁also	-8.20864
▁glad	-8.20868
▁c	-8.20924
▁news	-8.21066
▁bird	-8.21125
▁lucky	-8.21157
▁daddy	-8.21166
▁touch	-8.21436
▁screams	-8.21515
▁loved	-8.21709
▁return	-8.21782
▁hat	-8.21789
▁goodbye	-8.21815
▁six	-8.21883
▁ship	-8.2224
▁drive	-8.22713
▁leaving	-8.22776
▁white	-8.22779
or	-8.23204
▁beat	-8.2365
g	-8.23662
▁prince	-8.23721
▁ya	-8.23742
▁truth	-8.23747
▁ice	-8.23771
▁french	-8.2471
▁poor	-8.24734
▁shot	-8.25095
▁eye	-8.25097
▁magic	-8.25442
p	-8.25457
▁quiet	-8.25573
▁deep	-8.25578
en	-8.25596
▁professor	-8.25717
▁eh	-8.25737
▁taken	-8.26286
▁jump	-8.26541
▁died	-8.2722
▁slow	-8.27461
▁blood	-8.27731
▁case	-8.27738
▁terrible	-8.27751
▁scared	-8.27928
st	-8.2795
▁land	-8.28585
▁blue	-8.2876
▁sometimes	-8.29061
▁birthday	-8.29184
▁dogs	-8.29556
▁dr	-8.29727
▁become	-8.29779
▁alive	-8.2981
▁ten	-8.29954
▁dude	-8.30242
ion	-8.30282
▁join	-8.30289
ers	-8.30347
▁record	-8.30494
▁plays	-8.30644
▁careful	-8.30725
▁future	-8.30822
▁sent	-8.30826
▁sick	-8.30828
▁s	-8.31063
▁doctor	-8.31307
u	-8.31625
▁wind	-8.31828
▁lebron	-8.31873
▁simba	-8.31873
▁moving	-8.31875
▁past	-8.32887
▁shrek	-8.32937
▁couple	-8.32939
▁yelling	-8.33006
▁p	-8.33081
▁wed	-8.3312
▁fish	-8.33584
▁suppose	-8.33797
ic	-8.33859
▁either	-8.34012
▁tommy	-8.34014
▁dawn	-8.34014
▁cute	-8.34414
▁fair	-8.34727
▁child	-8.35099
▁front	-8.35101
h	-8.35158
▁cold	-8.36119
▁fault	-8.36198
▁somewhere	-8.36198
▁danielsan	-8.36199
▁elsa	-8.36203
▁gasping	-8.36546
▁rock	-8.3655
▁husband	-8.36798
▁comes	-8.37147
▁weeks	-8.37173
▁pass	-8.37563
▁telling	-8.37574
▁order	-8.3761
▁york	-8.37814
▁weird	-8.38307
▁uncle	-8.38416
▁bond	-8.38478
▁f	-8.38773
na	-8.38853
▁b	-8.38875
▁short	-8.39139
▁serious	-8.39427
▁aunt	-8.39463
▁witch	-8.39514
▁yall	-8.39592
▁throw	-8.40226
▁dom	-8.40358
▁harold	-8.40719
▁felt	-8.40721
▁sad	-8.40858
▁cross	-8.41012
▁bear	-8.41248
▁fact	-8.41383
▁horse	-8.41421
▁shell	-8.41731
▁wonder	-8.41745
▁road	-8.41881
▁earth	-8.41885
▁sort	-8.41896
▁jamie	-8.41945
▁bella	-8.41947
▁certainly	-8.42002
▁known	-8.42549
le	-8.42799
▁imagine	-8.42835
▁impossible	-8.43058
▁maisie	-8.43058
▁stick	-8.43214
▁yells	-8.43343
▁happening	-8.4397
ish	-8.44032
▁except	-8.44221
▁excellent	-8.44248
▁alright	-8.44252
▁cj	-8.44255
▁laugh	-8.44256
▁ring	-8.44824
▁drop	-8.45021
▁mary	-8.45063
ies	-8.45189
▁strange	-8.4538
▁absolutely	-8.45471
▁boat	-8.46274
▁strong	-8.46558
able	-8.47217
▁bill	-8.47309
▁picture	-8.47529
▁quick	-8.47765
▁sun	-8.47857
▁pleasure	-8.47907
▁hows	-8.47908
▁space	-8.47909
▁e	-8.48472
▁protect	-8.48569
▁report	-8.48622
▁table	-8.48753
▁calling	-8.49028
▁general	-8.49157
▁rather	-8.49158
▁tv	-8.49164
▁tired	-8.49167
▁born	-8.49193
▁groaning	-8.49199
▁whoo	-8.49209
▁a	-8.49376
▁clean	-8.49483
▁present	-8.49574
▁figure	-8.49841
▁destroy	-8.49971
▁street	-8.50072
▁office	-8.50351
▁dramatic	-8.50421
▁london	-8.50423
▁attention	-8.50423
▁warm	-8.50432
▁act	-8.50885
▁eve	-8.50889
▁wear	-8.5131
▁daughter	-8.51367
▁mountain	-8.51368
f	-8.514
▁dark	-8.51436
▁hero	-8.51692
▁north	-8.51705
▁others	-8.51705
▁foot	-8.51708
▁marry	-8.5171
▁clothes	-8.51711
▁less	-8.52104
▁pack	-8.52181
▁el	-8.52421
▁mouth	-8.52679
▁happens	-8.52784
▁forgot	-8.53002
▁jesus	-8.53004
▁morgan	-8.53004
▁throat	-8.53004
▁summer	-8.53006
▁growling	-8.53023
▁needed	-8.53304
▁missed	-8.53407
k	-8.5347
▁enjoy	-8.5353
▁bell	-8.53834
▁shoot	-8.54099
▁possible	-8.5432
▁explain	-8.54321
▁skipper	-8.54331
▁re	-8.5438
▁lives	-8.5453
▁kiss	-8.54802
▁meant	-8.54992
▁club	-8.55389
▁yi	-8.55637
▁anywhere	-8.55653
▁maam	-8.55655
▁meeting	-8.55917
▁greatest	-8.56059
us	-8.56179
by	-8.56272
▁longer	-8.56409
▁guard	-8.5646
▁sense	-8.56691
▁ho	-8.56887
▁wolf	-8.56989
▁chocolate	-8.57004
▁fiona	-8.57004
▁middle	-8.57004
▁worse	-8.57004
▁company	-8.57005
▁favorite	-8.57005
▁zo	-8.57274
an	-8.57314
▁saved	-8.57444
▁goodness	-8.57463
b	-8.57975
▁months	-8.57983
▁beast	-8.58138
▁certain	-8.58232
▁smart	-8.58256
▁joy	-8.58374
▁major	-8.58374
▁village	-8.58375
▁shouting	-8.58426
▁folks	-8.58432
▁words	-8.58448
▁lt	-8.58589
▁answer	-8.58699
▁lovely	-8.58711
▁gasp	-8.59114
▁pain	-8.5923
ll	-8.59243
▁surprise	-8.59303
▁monster	-8.59536
▁hour	-8.59572
▁definitely	-8.59763
▁kevin	-8.59763
▁malcolm	-8.59763
▁tense	-8.59874
▁count	-8.60047
▁write	-8.60903
▁wizard	-8.60941
▁wall	-8.61
ry	-8.61052
▁english	-8.6115
▁hungry	-8.61176
▁eep	-8.61184
▁martha	-8.61214
▁bull	-8.61241
▁gun	-8.61333
▁z	-8.61355
▁hed	-8.6139
▁names	-8.61435
▁push	-8.61801
▁expect	-8.61821
▁knock	-8.61821
▁blow	-8.61919
▁proud	-8.6244
▁wild	-8.62509
▁werent	-8.626
▁chuckling	-8.62604
▁evil	-8.62605
▁fix	-8.6322
▁m	-8.63517
▁ground	-8.63521
▁forgive	-8.64041
▁ones	-8.64044
▁thunder	-8.64044
▁broken	-8.64093
▁seven	-8.64147
▁crying	-8.64395
▁suit	-8.64481
▁kick	-8.64518
▁teach	-8.6488
▁lie	-8.65275
▁karate	-8.6533
▁window	-8.65347
▁near	-8.65361
▁soft	-8.65379
▁decided	-8.65606
um	-8.66047
▁t	-8.66476
▁riley	-8.66864
▁human	-8.66885
▁mitchell	-8.67013
▁puppy	-8.67013
▁kingdom	-8.67017
▁majesty	-8.67017
▁shh	-8.67024
▁star	-8.67413
▁normal	-8.68386
▁in	-8.68413
▁class	-8.68445
▁piece	-8.6845
▁straight	-8.68497
▁date	-8.68535
▁calm	-8.68536
▁unless	-8.68548
▁sky	-8.68566
▁madame	-8.68626
ment	-8.68995
up	-8.69281
▁fool	-8.69613
▁list	-8.69883
▁key	-8.70048
rs	-8.70061
▁selina	-8.70067
▁super	-8.70508
▁tim	-8.70509
▁given	-8.70551
▁lead	-8.7094
▁box	-8.71437
▁gru	-8.71498
▁handle	-8.71543
▁choice	-8.7155
▁doubt	-8.71619
▁max	-8.7162
▁dorothy	-8.71629
▁hassan	-8.71629
▁police	-8.71629
▁spongebob	-8.71629
▁women	-8.7163
▁board	-8.71664
▁totally	-8.71675
▁d	-8.71676
▁roars	-8.71903
▁miles	-8.7206
▁bag	-8.7239
▁travel	-8.72427
▁k	-8.72633
▁lots	-8.7275
▁turned	-8.72882
▁cover	-8.72941
▁worth	-8.73015
▁tough	-8.73083
▁looked	-8.73152
▁soul	-8.73156
▁rules	-8.73156
▁across	-8.73216
▁afternoon	-8.73216
▁uhhuh	-8.73216
▁eddie	-8.73216
▁giving	-8.73217
▁fighting	-8.73354
▁le	-8.73431
▁tom	-8.73614
▁th	-8.7375
▁finish	-8.74028
▁rain	-8.74246
▁rick	-8.74586
▁dreams	-8.74683
▁indistinct	-8.74684
▁extra	-8.74827
▁aye	-8.74849
▁hide	-8.75002
▁seriously	-8.75031
▁chattering	-8.75156
▁none	-8.75409
▁race	-8.75512
▁roll	-8.75668
▁aw	-8.75819
▁mess	-8.75901
▁grow	-8.75907
▁j	-8.76163
▁realize	-8.76268
▁peace	-8.76274
man	-8.76278
▁co	-8.76306
▁mistake	-8.76422
▁carol	-8.76463
▁spot	-8.76467
▁history	-8.76468
▁dave	-8.76492
▁taste	-8.7655
▁fat	-8.77267
▁visit	-8.77292
▁worked	-8.77296
▁belong	-8.77838
▁questions	-8.77929
▁master	-8.78038
▁feels	-8.78074
▁broke	-8.78092
▁south	-8.78125
▁michael	-8.78135
▁breakfast	-8.78137
▁dangerous	-8.78149
▁body	-8.7815
▁bigger	-8.7815
▁uhoh	-8.78172
▁share	-8.78175
▁rule	-8.78181
▁monkey	-8.78191
▁busy	-8.78285
ness	-8.78613
▁wondering	-8.78764
▁offer	-8.79033
▁low	-8.79054
▁butt	-8.79644
▁entire	-8.79685
▁aah	-8.79818
▁kept	-8.79831
▁cheese	-8.79833
▁wedding	-8.79838
▁danger	-8.79858
▁floor	-8.79885
▁simple	-8.79908
▁army	-8.79929
▁mark	-8.79944
▁fairy	-8.80123
▁moon	-8.8042
▁learned	-8.80505
ar	-8.80524
ie	-8.8072
▁woods	-8.81087
▁eight	-8.81314
▁quit	-8.81429
▁yellow	-8.81556
▁movie	-8.81679
▁quickly	-8.81753
▁pal	-8.81825
▁grab	-8.81949
▁black	-8.82575
▁mm	-8.82858
▁fell	-8.83239
▁julia	-8.83262
▁jill	-8.83304
▁indeed	-8.83308
▁worst	-8.83308
▁plankton	-8.83309
▁wrote	-8.83314
▁tony	-8.8335
▁sam	-8.83369
▁odie	-8.83418
▁ran	-8.83482
▁law	-8.83519
▁watching	-8.83554
▁faster	-8.83623
▁lf	-8.83729
▁awful	-8.83971
▁legs	-8.84556
▁respect	-8.84699
▁san	-8.84829
la	-8.84861
▁church	-8.85092
▁helen	-8.85095
▁joan	-8.85096
▁upon	-8.85108
▁tiny	-8.85181
▁eagle	-8.85252
▁yep	-8.85252
▁million	-8.85263
▁soldier	-8.85273
▁finished	-8.85463
▁honor	-8.85714
▁reach	-8.86116
▁trees	-8.8639
▁speed	-8.8642
z	-8.86447
▁steal	-8.86475
▁takes	-8.86864
▁seat	-8.86899
▁lunch	-8.86912
▁instead	-8.86912
▁green	-8.86914
▁powerful	-8.86948
▁usually	-8.86987
▁nose	-8.87083
▁flight	-8.87104
▁where	-8.87161
▁flower	-8.87168
ous	-8.87235
▁works	-8.87253
▁asking	-8.87578
▁changed	-8.87626
▁dress	-8.87911
▁over	-8.87946
▁cry	-8.88322
▁owe	-8.88572
▁loud	-8.88582
▁madam	-8.88656
▁caught	-8.88764
▁congratulations	-8.88764
▁ugly	-8.88764
▁donkey	-8.88764
▁horrible	-8.88764
▁stuck	-8.88771
▁castle	-8.88776
▁helping	-8.8878
▁forest	-8.88784
▁completely	-8.88848
▁america	-8.88932
▁besides	-8.88934
▁circle	-8.88946
▁paper	-8.89033
▁begin	-8.89037
w	-8.8931
▁bar	-8.89369
▁wearing	-8.89401
ity	-8.89571
▁rid	-8.89799
ation	-8.8996
▁tea	-8.90096
▁powers	-8.9011
▁standing	-8.90152
▁round	-8.903
▁pop	-8.90356
▁prepare	-8.90434
▁match	-8.90594
▁enemy	-8.90651
▁worried	-8.90651
▁molly	-8.90663
▁ross	-8.90704
▁dare	-8.90732
▁band	-8.9074
▁scary	-8.90779
▁charming	-8.90811
▁sweetheart	-8.90849
▁shit	-8.90879
▁teacher	-8.91081
▁trip	-8.91136
▁breathe	-8.91164
▁relax	-8.91721
▁letters	-8.91869
▁birds	-8.91987
▁treat	-8.9203
▁attack	-8.92056
▁victor	-8.92412
▁david	-8.92574
▁dancing	-8.92574
▁memory	-8.92577
▁ugh	-8.92578
▁france	-8.92579
▁charley	-8.9258
▁pants	-8.92591
▁hiding	-8.92773
▁interesting	-8.92853
re	-8.92902
▁sell	-8.93335
▁pan	-8.93545
out	-8.93629
ia	-8.93739
▁bare	-8.9392
▁u	-8.94058
▁liked	-8.94236
▁seconds	-8.94416
▁test	-8.94504
▁babies	-8.94535
▁silver	-8.94535
▁incredible	-8.94535
▁smile	-8.94535
▁theyve	-8.94537
▁prove	-8.9456
▁gold	-8.94672
▁machine	-8.94804
▁thousand	-8.94881
▁bugs	-8.94883
▁missing	-8.96007
▁punch	-8.96054
▁build	-8.96092
▁escape	-8.96315
▁notice	-8.96318
▁dumb	-8.9639
▁wonka	-8.96535
▁fortune	-8.96542
▁cream	-8.96556
th	-8.96634
▁stars	-8.9669
to	-8.9683
▁brown	-8.96865
▁field	-8.96875
▁w	-8.97505
▁flo	-8.97693
▁final	-8.98445
▁accident	-8.9857
▁angry	-8.98575
▁kristoff	-8.98575
▁minionese	-8.98575
▁ought	-8.98575
▁bottom	-8.98587
▁jungle	-8.98589
▁jones	-8.9861
▁putting	-8.98677
▁appreciate	-8.98794
▁allowed	-8.98894
▁president	-8.98948
▁lucas	-8.98969
▁gosh	-8.99242
▁wood	-8.99259
▁snow	-9.00163
▁named	-9.00455
▁tight	-9.00504
▁rich	-9.00538
▁lock	-9.00594
▁strength	-9.00632
▁language	-9.00659
▁pardon	-9.00659
▁driving	-9.0066
▁spent	-9.0066
▁eating	-9.00661
▁annie	-9.00662
▁sunday	-9.00663
▁wicked	-9.00677
▁hall	-9.00688
▁barking	-9.00774
▁seeing	-9.01128
▁message	-9.0113
▁brain	-9.01152
▁planet	-9.01153
▁lights	-9.01391
▁hunt	-9.01853
▁beg	-9.019
▁con	-9.01918
▁age	-9.02038
▁park	-9.02386
▁allow	-9.02453
▁shake	-9.02528
▁raise	-9.02571
▁shop	-9.02658
▁spend	-9.02774
▁coffee	-9.02786
▁however	-9.02786
▁garfield	-9.02787
▁bunch	-9.02787
▁dobby	-9.02787
▁sake	-9.02792
▁color	-9.02817
▁nature	-9.0283
▁chicken	-9.03284
▁station	-9.03285
▁fellow	-9.03313
▁position	-9.03326
▁krab	-9.0333
▁hole	-9.03396
▁sisters	-9.03422
▁bus	-9.03437
▁plane	-9.03547
▁consider	-9.04148
▁bomb	-9.04247
▁chatter	-9.04523
▁fill	-9.04595
▁neither	-9.0496
▁mercy	-9.04961
▁whatd	-9.04961
▁dalton	-9.04962
▁forward	-9.04962
▁phil	-9.04963
▁difference	-9.04963
▁everywhere	-9.04964
▁golden	-9.04988
▁hotel	-9.05003
▁sitting	-9.0501
▁losing	-9.05028
▁single	-9.0504
▁softly	-9.05172
▁si	-9.05345
▁heads	-9.05365
▁charlie	-9.05468
▁ticket	-9.05547
▁tail	-9.05616
▁driver	-9.05717
▁dollars	-9.05744
▁pa	-9.05928
▁snake	-9.06009
▁lived	-9.06198
▁note	-9.06371
ty	-9.06685
ful	-9.06889
▁nervous	-9.07039
▁fresh	-9.07137
▁bright	-9.07175
▁empty	-9.07183
▁marriage	-9.07183
▁monsieur	-9.07183
▁saturday	-9.07183
▁third	-9.07183
▁underpants	-9.07183
▁patrick	-9.07184
▁hasnt	-9.0719
▁early	-9.07283
▁using	-9.0747
▁blows	-9.07479
ta	-9.07542
▁mommy	-9.07782
▁american	-9.07835
▁month	-9.07842
▁belle	-9.07878
▁ringing	-9.08004
▁orders	-9.08176
▁r	-9.0819
▁everythings	-9.08477
te	-9.08556
▁cook	-9.08627
▁trick	-9.08698
▁reading	-9.08896
▁stole	-9.09413
▁engine	-9.09415
▁paris	-9.09434
▁bong	-9.09437
▁awesome	-9.09439
▁bought	-9.09455
▁nope	-9.09455
▁biggest	-9.09455
▁countess	-9.09457
▁scarlet	-9.09457
▁beauty	-9.09457
▁thatll	-9.09461
▁famous	-9.09463
▁bridge	-9.09466
▁gentleman	-9.09469
▁press	-9.09469
▁teeth	-9.09469
▁emma	-9.09486
eat	-9.09517
▁breathing	-9.09801
▁force	-9.09849
▁leg	-9.09878
▁charge	-9.09906
▁hospital	-9.10026
▁noise	-9.10067
▁size	-9.10075
▁sight	-9.10085
▁service	-9.10105
▁penguins	-9.10113
▁hardly	-9.10148
▁n	-9.10334
▁picked	-9.10448
▁risk	-9.11323
▁mike	-9.11585
▁double	-9.11702
▁scream	-9.11735
▁candy	-9.11776
▁paddington	-9.11781
▁possibly	-9.11781
▁pumbaa	-9.11781
▁swear	-9.11781
▁taught	-9.11781
▁whimpers	-9.11781
▁byebye	-9.11781
▁beginning	-9.11781
▁merry	-9.11782
▁olaf	-9.11783
▁potter	-9.11784
▁kitchen	-9.11785
▁mmhmm	-9.11785
▁chief	-9.11787
▁outta	-9.1179
▁gloria	-9.1179
▁tower	-9.11801
▁handsome	-9.11803
▁arrived	-9.1184
▁west	-9.11855
▁fit	-9.12009
▁giggles	-9.12152
▁joke	-9.1217
▁cave	-9.12359
▁st	-9.12391
▁price	-9.12424
▁battle	-9.12457
▁cake	-9.12461
▁view	-9.12465
▁cousin	-9.12469
▁giant	-9.12483
▁ted	-9.12509
▁lay	-9.1253
▁keeping	-9.12668
▁whose	-9.12793
▁hut	-9.12857
▁flying	-9.13197
ch	-9.13318
▁feelings	-9.13682
▁pretend	-9.13714
▁goin	-9.13765
▁carry	-9.13837
▁prefer	-9.14101
▁brave	-9.1412
▁apart	-9.14145
▁plenty	-9.14162
▁suzu	-9.14163
▁verne	-9.14163
ive	-9.14167
▁paid	-9.14168
▁laughter	-9.1418
▁doin	-9.14205
▁timon	-9.1421
▁lying	-9.14275
▁sandy	-9.14281
▁mumbles	-9.14342
▁scoffs	-9.14382
▁interested	-9.14423
▁yelps	-9.14862
▁partner	-9.14928
▁river	-9.14947
▁animal	-9.14965
▁state	-9.14976
▁building	-9.1546
▁crown	-9.16243
▁h	-9.16266
▁chuck	-9.16311
▁giggling	-9.16601
▁situation	-9.16602
▁bunny	-9.16602
▁isabella	-9.16604
▁shape	-9.16623
▁stopped	-9.16674
▁corner	-9.16725
▁ate	-9.16745
ra	-9.16829
▁closer	-9.16938
▁ruin	-9.17035
▁winner	-9.17362
▁van	-9.1737
▁store	-9.17416
▁heaven	-9.17463
▁pig	-9.17525
▁dig	-9.17628
▁waste	-9.18063
sh	-9.18084
ce	-9.18132
▁moved	-9.18249
▁ben	-9.18567
▁blind	-9.18757
▁flowers	-9.18812
▁jim	-9.19083
▁public	-9.19089
▁exhales	-9.19101
▁larusso	-9.19101
▁laszlo	-9.19101
▁thistlewaite	-9.19101
▁decision	-9.19102
▁upset	-9.19102
▁delicious	-9.19102
▁henry	-9.19102
▁beyond	-9.19109
▁personal	-9.19131
▁boom	-9.19188
▁nine	-9.19229
os	-9.19411
age	-9.19415
il	-9.19437
▁remind	-9.19523
▁crow	-9.19586
▁problems	-9.19922
▁idiot	-9.19951
▁spell	-9.19963
▁truck	-9.19978
▁letter	-9.20226
▁falling	-9.20312
▁arms	-9.20349
▁listening	-9.20428
▁holding	-9.20629
▁unit	-9.20817
▁agree	-9.20931
▁europe	-9.21502
▁hook	-9.2166
▁casablanca	-9.21665
▁mallory	-9.21666
▁rumbling	-9.21666
▁chamber	-9.21666
▁ellen	-9.21667
▁jeanne	-9.21667
▁bluster	-9.21667
▁journey	-9.21668
▁football	-9.21674
▁royal	-9.21677
▁bank	-9.21692
▁christ	-9.21717
▁starting	-9.21822
▁east	-9.21839
▁ends	-9.2187
▁surprised	-9.22068
▁beep	-9.22208
▁stone	-9.22567
it	-9.22665
▁birdie	-9.22671
▁pie	-9.22903
is	-9.23017
the	-9.23218
▁shine	-9.23343
el	-9.23382
▁devil	-9.23433
▁lion	-9.23457
▁staying	-9.23845
and	-9.23886
▁simpl	-9.23958
▁rescue	-9.24072
▁sue	-9.24129
▁archer	-9.24206
▁admit	-9.24291
▁built	-9.24297
▁especially	-9.24297
▁hadnt	-9.24297
▁england	-9.24297
▁toast	-9.24298
▁card	-9.24303
▁lionel	-9.24306
▁heck	-9.24308
▁arendelle	-9.2432
▁friendship	-9.24333
▁oz	-9.2472
▁figured	-9.24761
▁bones	-9.24963
▁gift	-9.24963
▁continue	-9.25143
▁nuts	-9.25254
▁rose	-9.25275
▁ogre	-9.2529
▁walking	-9.2583
ist	-9.26325
▁map	-9.26403
▁camp	-9.26511
▁feed	-9.2663
▁books	-9.26764
▁scott	-9.26787
▁court	-9.26991
▁became	-9.26999
▁college	-9.26999
▁dublin	-9.26999
▁restaurant	-9.26999
▁rough	-9.26999
▁security	-9.26999
▁hindi	-9.27002
▁area	-9.27006
▁rico	-9.27014
▁exclaiming	-9.27055
▁ass	-9.27056
▁button	-9.27089
▁secrets	-9.27097
▁exclaims	-9.27205
▁stevens	-9.27207
▁loves	-9.27419
▁beeping	-9.27462
▁yay	-9.27543
▁winter	-9.28108
▁fella	-9.28234
▁turns	-9.29295
▁accept	-9.29408
▁blame	-9.29534
▁dirt	-9.29586
▁wee	-9.29672
▁nothin	-9.29751
▁gross	-9.29761
▁contact	-9.29777
▁exciting	-9.29777
▁yesterday	-9.29777
▁basketball	-9.29778
▁california	-9.29781
▁stories	-9.29781
▁mansur	-9.29786
▁storm	-9.2979
▁robin	-9.29794
▁held	-9.29795
▁rise	-9.29795
▁factory	-9.29801
▁toto	-9.29805
▁sadness	-9.29815
▁suddenly	-9.29835
▁huge	-9.29841
ting	-9.29853
▁hyenas	-9.29942
▁dirty	-9.29971
▁holy	-9.30074
ur	-9.30268
ah	-9.30369
▁hagrid	-9.30906
▁computer	-9.30934
▁spirit	-9.30947
▁hundred	-9.30956
▁granny	-9.30958
▁creature	-9.30986
▁tune	-9.30988
▁eggs	-9.31209
▁bite	-9.31663
▁launch	-9.31782
▁climb	-9.31833
▁ii	-9.32068
▁starts	-9.32137
▁repeat	-9.32164
▁ba	-9.322
▁honest	-9.32296
▁pet	-9.32313
▁scar	-9.32331
▁settle	-9.324
▁release	-9.32404
▁greg	-9.3261
▁courage	-9.32618
▁genius	-9.32634
▁soccer	-9.32634
▁larry	-9.32634
▁choose	-9.32636
▁edward	-9.32638
▁duke	-9.32638
▁beach	-9.32638
▁common	-9.32638
▁practice	-9.32639
▁information	-9.32639
▁trent	-9.32641
▁comfortable	-9.32644
▁path	-9.32671
▁engaged	-9.32675
▁obviously	-9.32678
▁grug	-9.32682
▁silly	-9.32684
▁gotten	-9.32768
▁nearly	-9.32915
▁mission	-9.32931
▁prepared	-9.32966
▁breath	-9.32985
▁chewing	-9.33001
▁bringing	-9.33049
▁played	-9.33226
▁lips	-9.33264
▁nah	-9.33312
▁shoes	-9.33436
▁doors	-9.33562
▁talked	-9.33578
▁deserve	-9.33677
ter	-9.33683
▁bing	-9.33727
▁rocket	-9.3388
▁level	-9.33893
▁out	-9.3398
▁training	-9.34211
▁gum	-9.34733
▁bother	-9.34782
▁tickets	-9.3479
▁fathers	-9.34957
▁gather	-9.35108
▁dash	-9.35133
▁vi	-9.35328
▁introduce	-9.3535
▁spare	-9.35367
▁shame	-9.3544
▁excited	-9.35442
▁wet	-9.35507
▁se	-9.35529
▁foreign	-9.35545
▁group	-9.3556
▁alarm	-9.35575
▁halloween	-9.35575
▁heavily	-9.35575
▁heavy	-9.35575
▁mahira	-9.35575
▁marguerite	-9.35575
▁marmalade	-9.35575
▁principal	-9.35575
▁ramsey	-9.35575
▁sven	-9.35575
▁rayleen	-9.35576
▁sugar	-9.35576
▁often	-9.35576
▁wax	-9.35578
▁rj	-9.35583
▁neck	-9.35588
▁belt	-9.35596
▁meat	-9.35601
▁cup	-9.35626
▁yah	-9.35654
▁bobby	-9.35655
▁del	-9.35792
▁page	-9.36002
▁gods	-9.36034
▁hoo	-9.36126
▁chip	-9.36212
▁destroyed	-9.36358
ro	-9.36384
▁expecting	-9.36499
▁dragon	-9.3689
▁leader	-9.37119
▁sh	-9.37147
no	-9.37333
▁ron	-9.37647
time	-9.37671
▁smash	-9.37759
▁bless	-9.37813
▁interest	-9.37879
▁sleeping	-9.37937
▁plus	-9.38111
▁enter	-9.38145
▁no	-9.38326
▁joe	-9.38424
▁leonard	-9.38547
▁julius	-9.38606
▁mercedes	-9.38606
▁bailey	-9.38606
▁bonsai	-9.38606
▁pepper	-9.38606
▁saving	-9.38606
▁formula	-9.38607
▁wilson	-9.38608
▁rowley	-9.38609
▁grandma	-9.38611
▁airport	-9.38612
▁doo	-9.38637
▁zero	-9.3864
▁prime	-9.38643
▁strike	-9.38652
▁haha	-9.38655
▁sally	-9.3866
▁male	-9.3869
▁sailor	-9.38716
▁dust	-9.3873
▁plans	-9.3875
▁bath	-9.38793
▁pieces	-9.38801
▁warning	-9.38836
▁showed	-9.39195
▁dry	-9.3922
▁clearly	-9.39389
▁promised	-9.39437
▁thinks	-9.39526
▁fingers	-9.39669
▁opinion	-9.40016
▁rope	-9.40061
▁di	-9.40319
▁brothers	-9.404
▁bow	-9.40497
▁animals	-9.40689
▁suggest	-9.40777
▁dis	-9.41251
▁discuss	-9.41348
▁complete	-9.41362
less	-9.41381
▁hai	-9.41384
▁doc	-9.41457
▁barrie	-9.41611
▁mothers	-9.41618
▁mufasa	-9.41731
▁rapunzel	-9.41731
▁stomach	-9.41731
▁zazu	-9.41731
▁society	-9.41731
▁toilet	-9.41731
▁forgotten	-9.41735
▁angeline	-9.4174
▁squad	-9.41744
▁loose	-9.41745
▁kowalski	-9.41751
▁zone	-9.41754
▁immediately	-9.41756
▁main	-9.41791
▁knuckles	-9.41811
▁hip	-9.4198
▁upb	-9.42012
▁scare	-9.42048
▁noticed	-9.42077
▁hm	-9.42168
▁butter	-9.42172
▁pete	-9.42208
▁so	-9.42291
▁harder	-9.42494
▁kinda	-9.42541
li	-9.42553
▁helped	-9.42589
▁reed	-9.42628
▁pictures	-9.42718
▁track	-9.42884
▁ears	-9.42978
▁serve	-9.43019
▁system	-9.43266
▁egg	-9.43315
▁officer	-9.43413
▁gas	-9.43666
▁form	-9.43678
▁ch	-9.43871
▁rent	-9.43994
▁krabs	-9.44145
▁burn	-9.44146
me	-9.44453
▁trash	-9.44736
▁add	-9.44737
▁difficult	-9.44739
▁freeze	-9.44905
▁glass	-9.44906
▁fort	-9.44938
▁milk	-9.44938
▁adorable	-9.44956
▁twice	-9.44956
▁colony	-9.44957
▁wherever	-9.44961
▁grandpa	-9.44962
▁teddy	-9.44963
▁frozen	-9.44968
▁fancy	-9.44971
▁fake	-9.44972
▁sobbing	-9.44976
▁daley	-9.44985
▁switch	-9.45076
▁turning	-9.45156
▁farm	-9.45168
▁sweetie	-9.45204
▁shrieks	-9.45263
son	-9.45315
▁deeply	-9.4543
▁games	-9.45491
▁sail	-9.45649
▁expected	-9.45721
▁magical	-9.45874
▁arm	-9.46081
▁goat	-9.46121
▁cheer	-9.4624
▁fired	-9.46276
▁jon	-9.46385
▁fa	-9.46628
▁guest	-9.46657
▁pilot	-9.46672
▁older	-9.4669
▁fellas	-9.46918
▁draw	-9.46943
▁do	-9.47591
▁ls	-9.47673
▁yo	-9.47689
▁appear	-9.4793
▁focus	-9.47939
▁request	-9.47951
▁louis	-9.47981
nt	-9.47981
land	-9.47997
▁permanent	-9.48134
▁correct	-9.48135
▁bucks	-9.48159
▁opening	-9.48199
▁due	-9.48243
▁anthony	-9.4829
▁attitude	-9.4829
▁purpose	-9.4829
▁somehow	-9.4829
▁terrific	-9.4829
▁upstairs	-9.4829
▁video	-9.4829
▁whether	-9.4829
▁willoughby	-9.4829
▁grandfather	-9.4829
▁military	-9.4829
▁oclock	-9.4829
▁pride	-9.48291
▁edmund	-9.48291
▁desk	-9.48291
▁happiness	-9.48292
▁writing	-9.48295
▁cash	-9.48296
▁diary	-9.48298
▁clock	-9.48311
▁coughing	-9.48328
▁stage	-9.48342
▁sniffing	-9.4838
▁ew	-9.48403
▁grand	-9.48411
▁cats	-9.48444
▁keys	-9.48452
▁raised	-9.48635
▁guards	-9.48929
▁barks	-9.48939
▁beard	-9.49014
▁pounds	-9.49057
▁closed	-9.49576
▁boo	-9.4958
▁stayed	-9.49592
▁it	-9.49593
▁ed	-9.49655
▁stink	-9.49784
▁rocks	-9.49842
▁tiger	-9.50021
▁odd	-9.50041
▁exist	-9.50089
▁gate	-9.50124
▁horn	-9.50157
▁o	-9.50248
▁art	-9.50288
ng	-9.50881
▁chew	-9.51306
▁player	-9.5143
▁score	-9.51554
▁command	-9.51564
▁gentle	-9.51719
▁usual	-9.51719
▁joseph	-9.51738
▁lawrence	-9.51738
▁margaret	-9.51738
▁marianne	-9.51738
▁precious	-9.51738
▁thief	-9.51738
▁weather	-9.51738
▁whimpering	-9.51738
▁ocean	-9.51738
▁female	-9.51738
▁stuart	-9.51738
▁poopypants	-9.51738
▁nacho	-9.51738
▁clever	-9.51739
▁champion	-9.5174
▁nowhere	-9.5174
▁kong	-9.5174
▁shouldve	-9.51741
▁easier	-9.51741
▁whoohoo	-9.51742
▁vincent	-9.5175
▁snoring	-9.51775
▁sword	-9.51796
▁willy	-9.51822
▁hellno	-9.5183
▁tie	-9.51846
▁wise	-9.51856
▁newland	-9.51897
▁heading	-9.52273
▁cub	-9.52285
▁da	-9.52398
▁dads	-9.5277
▁passed	-9.52784
▁pre	-9.5288
▁rings	-9.52958
▁bananas	-9.53
▁gus	-9.53011
v	-9.53063
▁lies	-9.53088
▁faces	-9.53347
▁couldve	-9.53426
▁cheers	-9.5349
▁beaufort	-9.53573
▁skin	-9.53578
▁member	-9.53635
▁agent	-9.53638
▁beer	-9.53669
▁lesson	-9.53703
▁rat	-9.53809
▁regret	-9.54168
▁paying	-9.54293
▁mighty	-9.54415
ts	-9.54504
▁announce	-9.54505
▁mo	-9.54751
▁poison	-9.5495
▁weak	-9.55106
▁robert	-9.55172
▁proper	-9.55207
▁pit	-9.55224
▁ferdinand	-9.55309
▁girlfriend	-9.55309
▁ridiculous	-9.55309
▁tournament	-9.5531
▁milo	-9.5531
▁romantic	-9.5531
▁bathroom	-9.5531
▁address	-9.5531
▁kitten	-9.55311
▁matata	-9.55311
▁particular	-9.55312
▁aboard	-9.55317
▁apparently	-9.55317
▁primero	-9.55318
▁within	-9.5532
▁theyd	-9.5533
▁weekend	-9.55331
▁taxi	-9.55337
▁energy	-9.55348
▁mister	-9.55364
▁jimmy	-9.55368
▁sold	-9.55383
▁sensei	-9.55396
kuna	-9.55414
▁tall	-9.55428
▁weight	-9.5543
▁manny	-9.55444
▁manage	-9.55473
▁hoping	-9.5554
▁lower	-9.55554
▁auntie	-9.55653
▁jackets	-9.55776
▁legal	-9.55795
▁shed	-9.55846
op	-9.56043
▁fades	-9.56066
▁perfectly	-9.56124
▁code	-9.5613
▁bro	-9.56162
▁matters	-9.56744
▁ex	-9.56881
ble	-9.56965
▁decide	-9.57098
▁bastard	-9.5725
▁finding	-9.57258
▁column	-9.57272
▁astronaut	-9.57293
▁account	-9.57293
do	-9.57342
▁student	-9.57362
▁cost	-9.57382
▁camera	-9.57388
▁villain	-9.57408
▁troop	-9.57511
▁tear	-9.57607
▁patient	-9.57628
▁bello	-9.57651
▁opened	-9.57992
▁search	-9.58213
▁wash	-9.58303
▁regular	-9.5853
▁intend	-9.58661
▁lift	-9.58673
▁arrest	-9.58678
▁crush	-9.58689
▁grant	-9.58731
▁movies	-9.58742
▁survive	-9.5885
▁tr	-9.58895
▁steve	-9.58975
▁colonel	-9.59013
▁conrad	-9.59013
▁hidden	-9.59013
▁innocent	-9.59013
▁kansas	-9.59013
▁thomas	-9.59013
▁treasure	-9.59013
▁ethan	-9.59013
▁justice	-9.59014
▁spock	-9.59014
▁government	-9.59014
▁cowboy	-9.59015
▁dutch	-9.59015
▁dashwood	-9.59017
▁twinkle	-9.59017
▁brit	-9.59017
▁patty	-9.59018
▁guilty	-9.59046
▁johnson	-9.59057
▁coat	-9.59102
▁oil	-9.59103
▁trumpets	-9.5911
▁roaring	-9.59192
ka	-9.59237
▁tablet	-9.59249
▁bike	-9.5925
▁pity	-9.59269
▁gotcha	-9.59321
▁corn	-9.59486
▁ruined	-9.59519
▁burning	-9.59527
▁locked	-9.5961
▁ni	-9.59849
▁en	-9.59928
▁places	-9.60179
▁singer	-9.6024
▁remain	-9.60306
▁acting	-9.60323
im	-9.6065
▁character	-9.61094
▁rabbit	-9.61191
▁cards	-9.61398
▁reporter	-9.61447
ri	-9.61477
▁states	-9.61587
▁calls	-9.61673
ne	-9.61796
▁pleased	-9.61939
we	-9.62233
▁oops	-9.62448
▁mention	-9.62547
▁jealous	-9.62648
▁frank	-9.62707
▁fur	-9.62707
▁prison	-9.62747
▁gee	-9.62821
▁collect	-9.62834
▁split	-9.62852
▁bottle	-9.62859
▁hermione	-9.62859
▁krupp	-9.62859
▁mancub	-9.62859
▁stammering	-9.62859
▁type	-9.62859
▁desert	-9.62859
▁planning	-9.6286
▁earlier	-9.62861
▁jenny	-9.62861
▁chasing	-9.62863
▁blast	-9.62864
▁elise	-9.62869
▁tuck	-9.6287
▁duty	-9.62871
▁exit	-9.62872
▁truly	-9.62873
▁potion	-9.62876
▁bread	-9.62878
▁happily	-9.62885
▁began	-9.62895
▁trade	-9.629
▁hans	-9.62908
▁pro	-9.62918
▁owner	-9.62932
▁stolen	-9.62937
▁approaching	-9.62955
▁ka	-9.62989
▁heroes	-9.63032
▁ray	-9.63038
▁commander	-9.63056
▁failed	-9.6308
▁concerned	-9.63089
▁salt	-9.63103
▁squeals	-9.63156
▁claws	-9.63223
ma	-9.63326
▁du	-9.63427
ow	-9.63491
ul	-9.63656
▁keeps	-9.63876
▁fan	-9.63915
▁moms	-9.6393
as	-9.64204
▁returned	-9.64227
▁fishing	-9.64483
▁tin	-9.64617
▁fate	-9.64908
▁ld	-9.65053
▁asteroid	-9.65092
▁adventure	-9.65095
▁paul	-9.6513
▁apartment	-9.65165
▁crystal	-9.65165
▁large	-9.65175
▁whistle	-9.65203
▁likes	-9.65316
▁heat	-9.65463
▁fantastic	-9.65568
▁program	-9.65764
▁brains	-9.65929
▁disappear	-9.66028
et	-9.66038
▁papers	-9.66332
▁headed	-9.6639
▁seats	-9.66443
▁soldiers	-9.6646
▁hill	-9.66515
king	-9.66585
though	-9.66633
▁receive	-9.66639
▁howd	-9.66654
▁wave	-9.66658
▁believed	-9.66669
▁sharp	-9.66691
▁plant	-9.668
▁favor	-9.66858
▁advice	-9.66859
▁afford	-9.66859
▁atlantis	-9.66859
▁dennis	-9.66859
▁destiny	-9.66859
▁dumbledore	-9.66859
▁expensive	-9.66859
▁goddamn	-9.66859
▁okinawa	-9.66859
▁someday	-9.66859
▁twenty	-9.66859
▁grateful	-9.66859
▁mostly	-9.66859
▁brilliant	-9.6686
▁froggy	-9.6686
▁violet	-9.6686
▁hammy	-9.66861
▁tongue	-9.66861
▁otto	-9.66861
▁rudy	-9.66861
▁saint	-9.66863
▁francisco	-9.66865
▁emergency	-9.66879
▁chanting	-9.66883
▁crew	-9.66894
▁lola	-9.66913
▁mum	-9.66913
▁national	-9.66915
▁safety	-9.66927
▁whispering	-9.66942
▁mood	-9.66946
▁dean	-9.66953
▁lines	-9.67194
▁vo	-9.67233
▁hug	-9.67248
▁log	-9.67317
ism	-9.67329
▁killing	-9.67436
▁towards	-9.67509
▁beasts	-9.67585
▁reached	-9.6761
▁sand	-9.67657
ary	-9.67683
▁nala	-9.67763
▁to	-9.67827
▁growing	-9.67974
▁gives	-9.68077
▁knocking	-9.68132
▁cares	-9.68361
▁up	-9.68488
▁jj	-9.6856
▁block	-9.6882
▁bum	-9.68837
▁fi	-9.69016
ee	-9.69141
▁ear	-9.69145
▁german	-9.69163
▁creatures	-9.69227
▁hurts	-9.69249
▁paw	-9.69289
▁dolphin	-9.69325
▁squirrel	-9.69333
▁richard	-9.69356
▁garden	-9.69361
▁action	-9.69384
ian	-9.6948
▁sale	-9.69531
▁smells	-9.69989
ba	-9.69991
▁crash	-9.70127
▁shower	-9.70153
way	-9.70161
▁march	-9.70209
▁points	-9.70238
▁li	-9.70313
▁per	-9.7053
▁wing	-9.70551
▁pray	-9.70571
▁rub	-9.70691
▁ma	-9.70753
▁chest	-9.70757
▁sacrifice	-9.70782
▁desperate	-9.70866
▁natural	-9.70874
▁monkeys	-9.70886
▁francis	-9.7102
▁butler	-9.71026
▁dalgleish	-9.71026
▁ferrars	-9.71026
▁knowledge	-9.71026
▁otherwise	-9.71026
▁recognize	-9.71026
▁speech	-9.71026
▁ugga	-9.71026
▁headquarters	-9.71026
▁whoever	-9.71027
▁palace	-9.71028
▁solid	-9.71028
▁pacino	-9.71028
▁engagement	-9.71029
▁estate	-9.71031
▁grew	-9.71035
▁property	-9.71039
▁lonely	-9.71047
▁birth	-9.71048
▁pool	-9.71048
▁trumpeting	-9.71055
▁jared	-9.71077
▁liar	-9.71082
▁rare	-9.71095
▁row	-9.71144
ent	-9.71211
▁barrier	-9.71228
▁honestly	-9.71238
▁nervously	-9.71299
▁hatch	-9.71328
▁ahh	-9.71333
▁whispers	-9.71349
go	-9.71407
▁strains	-9.71492
ir	-9.71517
co	-9.71618
▁slowly	-9.71632
▁filled	-9.71702
▁hunters	-9.71829
▁higher	-9.71842
am	-9.72097
▁lab	-9.72151
▁juice	-9.72479
ha	-9.72662
led	-9.72809
▁students	-9.72922
▁fart	-9.72971
▁opens	-9.73092
▁wheel	-9.73159
▁cl	-9.73326
▁grunt	-9.73329
▁worlds	-9.73471
▁tunes	-9.73497
▁jerk	-9.73603
▁roger	-9.7365
▁weasley	-9.73662
▁hoped	-9.73837
ton	-9.74002
▁there	-9.74252
▁cab	-9.74792
▁crap	-9.75049
eful	-9.75056
▁schedule	-9.75141
ling	-9.75216
▁belongs	-9.75244
▁base	-9.75353
▁flat	-9.75362
▁applause	-9.75374
▁lieutenant	-9.75374
▁narnia	-9.75374
▁ossory	-9.75374
▁science	-9.75374
▁suspens	-9.75374
▁aisha	-9.75374
▁familiar	-9.75374
▁written	-9.75374
▁motes	-9.75374
▁telephone	-9.75374
▁julie	-9.75374
▁sarah	-9.75374
▁meteorite	-9.75375
▁fortunate	-9.75375
▁monday	-9.75375
▁planned	-9.75375
▁midnight	-9.75375
▁templeton	-9.75375
▁revenge	-9.75375
▁stood	-9.75375
▁roof	-9.75376
▁cruel	-9.75377
▁heir	-9.75377
▁threw	-9.75378
▁understood	-9.7538
▁glenn	-9.75382
▁thatch	-9.75385
▁nasty	-9.75391
▁shant	-9.75391
▁soup	-9.75398
▁support	-9.754
▁mansion	-9.75414
▁season	-9.75417
▁setting	-9.75428
▁useless	-9.75453
▁willing	-9.7547
▁stonea	-9.75482
▁chirping	-9.75483
▁fallen	-9.75496
▁minions	-9.75636
▁stops	-9.75642
▁signal	-9.75726
▁tricks	-9.75771
▁sniffs	-9.75793
▁apologize	-9.75828
▁answers	-9.76139
▁rocky	-9.76153
▁kw	-9.7619
▁balls	-9.76193
▁opera	-9.76217
▁tale	-9.76292
▁closet	-9.76322
▁kicked	-9.76385
mo	-9.7664
▁twins	-9.76831
ut	-9.76878
▁damage	-9.76906
▁haul	-9.77158
ans	-9.77163
▁freak	-9.77189
▁gang	-9.77672
▁film	-9.77731
▁click	-9.77781
un	-9.77814
▁tunnel	-9.78105
▁ernie	-9.78148
▁ali	-9.78169
▁conversation	-9.78175
▁criminal	-9.78217
▁badge	-9.78218
▁condition	-9.78237
▁russian	-9.78264
▁banana	-9.78271
▁dollar	-9.78349
▁smoke	-9.78426
lo	-9.78523
▁nut	-9.78561
▁following	-9.78661
off	-9.78772
j	-9.78893
▁faith	-9.79277
bra	-9.79317
▁tells	-9.79331
▁self	-9.79494
▁lookin	-9.79551
▁judge	-9.79693
▁invite	-9.79708
▁separate	-9.79726
▁knowing	-9.79839
▁honour	-9.799
▁asleep	-9.79919
▁crime	-9.79919
▁douglas	-9.79919
▁milady	-9.79919
▁olenska	-9.79919
▁ominous	-9.79919
▁sergeant	-9.79919
▁gently	-9.79919
▁fetch	-9.7992
▁memories	-9.7992
▁ease	-9.79922
▁judy	-9.79922
▁assistant	-9.79922
▁unknown	-9.79922
▁awake	-9.79923
▁simon	-9.79924
▁brick	-9.79924
▁nixon	-9.7993
▁responsible	-9.79936
▁balance	-9.79938
▁frightened	-9.79943
▁bala	-9.79956
▁mail	-9.79961
▁proof	-9.79994
▁fred	-9.80015
▁lake	-9.80019
▁stairs	-9.80116
▁hint	-9.80137
just	-9.80162
▁ian	-9.80179
▁mentioned	-9.80318
▁bitch	-9.80334
▁stronger	-9.80354
hop	-9.80581
▁realized	-9.8059
▁billy	-9.80654
▁cooking	-9.80828
ated	-9.80947
vi	-9.81105
▁mountains	-9.81143
▁streets	-9.8122
▁lately	-9.81272
▁pushing	-9.81375
▁kings	-9.81415
▁touched	-9.81561
▁throwing	-9.81728
▁stays	-9.81809
▁wast	-9.81885
▁pulled	-9.82029
ant	-9.82189
▁pilots	-9.82232
▁guests	-9.82233
▁pee	-9.82473
▁load	-9.82637
▁post	-9.82741
▁ways	-9.82802
▁demand	-9.82868
▁flame	-9.82908
▁shark	-9.8291
▁defense	-9.82915
▁angel	-9.82949
▁chef	-9.82963
▁who	-9.82968
▁standard	-9.82998
▁finger	-9.83038
▁cow	-9.83068
oo	-9.83083
▁tour	-9.83203
▁pole	-9.83294
pa	-9.83328
▁songs	-9.83369
▁positions	-9.83497
▁moves	-9.83603
lock	-9.8372
ard	-9.83872
id	-9.84194
▁harm	-9.84287
▁panic	-9.84305
▁claim	-9.84311
▁guide	-9.84462
▁total	-9.84549
▁direct	-9.84584
▁heave	-9.84637
▁drunk	-9.84649
▁somethin	-9.84655
▁fashion	-9.84659
▁plain	-9.84671
▁capsule	-9.84681
▁challenge	-9.84681
▁ferrari	-9.84681
▁fought	-9.84681
▁garbage	-9.84681
▁heffley	-9.84681
▁hudson	-9.84681
▁imagination	-9.84681
▁mirror	-9.84681
▁mowgli	-9.84681
▁museum	-9.84681
▁mystery	-9.84681
▁phoenix	-9.84681
▁piano	-9.84681
▁section	-9.84681
▁tenneray	-9.84681
▁weasel	-9.84681
▁interview	-9.84681
▁audience	-9.84681
▁stretch	-9.84681
▁susan	-9.84682
▁neighborhood	-9.84682
▁pleasant	-9.84682
▁bride	-9.84682
▁mmmhmm	-9.84682
▁humming	-9.84682
▁staff	-9.84683
▁alert	-9.84683
▁buddies	-9.84684
▁department	-9.84684
▁washington	-9.84686
▁flash	-9.84687
▁mush	-9.84687
▁freedom	-9.84689
▁khan	-9.84689
▁tape	-9.84694
▁opportunity	-9.84696
▁kitty	-9.84719
▁anson	-9.84745
▁nearby	-9.84747
▁involved	-9.84761
▁glasses	-9.84766
▁sato	-9.84784
▁charles	-9.84814
▁nest	-9.84821
▁discovered	-9.84838
▁mere	-9.8532
▁counter	-9.85333
▁aha	-9.85411
▁monsters	-9.85489
▁fixed	-9.85813
you	-9.85857
▁boots	-9.85882
▁cookies	-9.86003
▁career	-9.8618
▁signed	-9.86461
▁horses	-9.86602
▁sa	-9.86614
▁friendly	-9.86617
▁lou	-9.86644
▁whistles	-9.86697
▁ne	-9.871
▁teller	-9.87264
▁shows	-9.87454
▁hanging	-9.87471
▁hearts	-9.87485
▁sport	-9.87512
da	-9.87522
▁picking	-9.87533
▁paint	-9.87555
▁talent	-9.8767
bo	-9.87756
▁combination	-9.87864
▁maid	-9.87887
▁shirt	-9.87985
▁target	-9.87993
▁weapon	-9.88018
▁twin	-9.88029
▁string	-9.88183
ors	-9.88783
▁fo	-9.88857
▁teachers	-9.8903
▁dam	-9.89098
▁interrupt	-9.89178
ship	-9.89232
▁poop	-9.8929
▁sub	-9.89297
▁scratch	-9.89309
▁er	-9.89326
▁chase	-9.89399
▁assure	-9.89449
▁terribl	-9.89562
▁spin	-9.89604
▁among	-9.89651
▁express	-9.89654
▁percent	-9.8967
▁divorce	-9.89681
▁koskov	-9.89681
▁mukhtar	-9.89681
▁prophet	-9.89681
▁quarrel	-9.89681
▁subtitle	-9.89681
▁whenever	-9.89682
▁friday	-9.89682
▁reverend	-9.89682
▁rosie	-9.89682
▁patties	-9.89682
▁dojo	-9.89683
▁zeta	-9.89685
▁superstar	-9.89685
▁newspaper	-9.89685
▁impressive	-9.89686
▁grim	-9.89687
▁pressure	-9.89688
▁dexter	-9.89688
▁historic	-9.89688
▁triumphant	-9.89689
▁watergate	-9.8969
▁legend	-9.89692
▁brandon	-9.89693
▁foul	-9.89696
▁aside	-9.89697
▁pink	-9.89699
▁deck	-9.897
▁dropped	-9.89702
▁market	-9.89713
▁ox	-9.89714
▁precisely	-9.89715
▁snowman	-9.8972
▁clay	-9.89729
▁hatter	-9.8973
▁lick	-9.89754
▁runs	-9.89775
▁disgusting	-9.89785
▁port	-9.89807
▁bound	-9.8981
▁mar	-9.89826
▁created	-9.89858
▁bee	-9.89874
end	-9.89898
▁settled	-9.90071
▁bay	-9.90104
▁finest	-9.90168
▁letting	-9.90191
▁silence	-9.90292
over	-9.90343
▁bulls	-9.90408
▁shouts	-9.90417
▁turnin	-9.90423
▁walls	-9.90438
ini	-9.90455
▁smaller	-9.90469
▁shoo	-9.905
▁closes	-9.90647
▁offered	-9.90698
▁covered	-9.90767
▁hunting	-9.90775
▁sooner	-9.90824
▁selling	-9.90857
▁riding	-9.90899
▁ira	-9.90926
ey	-9.91046
▁swim	-9.91077
▁pen	-9.91448
our	-9.91521
▁villains	-9.91978
at	-9.92203
▁charm	-9.92414
▁learning	-9.92435
▁followed	-9.9254
oooo	-9.92903
▁desire	-9.92923
nny	-9.92974
di	-9.9302
▁effort	-9.93158
▁breaking	-9.93176
▁pizza	-9.93181
ho	-9.93212
▁miracle	-9.93215
▁prisoner	-9.93281
▁sometime	-9.93312
▁hid	-9.9334
▁col	-9.93375
▁hon	-9.93907
▁the	-9.94271
ke	-9.94327
▁bud	-9.94419
▁witness	-9.94561
back	-9.94627
▁fighter	-9.94694
▁propose	-9.94709
▁tag	-9.94752
▁coast	-9.94848
▁oi	-9.94893
▁india	-9.94907
▁georgi	-9.94915
▁cannonball	-9.94918
cient	-9.94944
▁ashamed	-9.94944
▁aslan	-9.94944
▁boyfriend	-9.94944
▁decent	-9.94944
▁garrad	-9.94944
▁insane	-9.94944
▁magazine	-9.94944
▁maintain	-9.94944
▁monterey	-9.94944
▁nonsense	-9.94944
▁reputation	-9.94944
▁responsibility	-9.94944
▁turtle	-9.94944
▁madeleine	-9.94944
▁knife	-9.94945
▁conference	-9.94945
▁magnificent	-9.94945
▁patrol	-9.94946
▁golf	-9.94946
▁defend	-9.94946
▁gorgeous	-9.94947
▁vacation	-9.94947
▁jeremy	-9.94951
▁governor	-9.94953
▁inhales	-9.94955
▁blew	-9.94956
▁square	-9.94957
▁dying	-9.94958
▁noble	-9.94958
▁glow	-9.94959
▁burger	-9.9496
▁style	-9.94964
▁credit	-9.94976
▁oome	-9.94976
▁everybodys	-9.9498
▁darlington	-9.9498
▁according	-9.94981
▁halt	-9.94983
▁assume	-9.94985
▁pure	-9.94993
▁meal	-9.94999
▁model	-9.95001
▁darkness	-9.9501
▁loving	-9.9504
▁screeching	-9.95054
▁mud	-9.95083
▁julian	-9.95084
▁gary	-9.9509
▁kai	-9.95105
▁racing	-9.95108
▁hire	-9.95158
▁contract	-9.95161
▁grade	-9.9517
be	-9.95215
▁personally	-9.95287
▁disappeared	-9.95393
▁entirely	-9.95403
▁agreed	-9.95405
se	-9.95407
od	-9.95474
▁forced	-9.95485
▁you	-9.95532
▁concentrate	-9.95566
de	-9.9562
▁jos	-9.95921
▁dressed	-9.95927
▁sin	-9.95997
▁nobodys	-9.96058
▁remembered	-9.96081
▁brakes	-9.96085
▁stealing	-9.96272
▁ideas	-9.96434
▁teaching	-9.96593
▁counting	-9.96665
▁orl	-9.96692
▁v	-9.97139
ance	-9.97237
▁woo	-9.97338
▁rip	-9.97407
▁beating	-9.97437
ph	-9.97683
▁par	-9.9772
▁suck	-9.97827
▁doctors	-9.97893
▁checked	-9.97964
▁waited	-9.97966
▁ant	-9.98033
▁wha	-9.98078
▁ge	-9.98439
tic	-9.98473
ted	-9.98539
▁pigs	-9.98567
▁chair	-9.98607
▁iii	-9.98636
▁scarecrow	-9.98723
▁preacher	-9.9874
▁guinea	-9.98784
▁nerve	-9.98784
▁lordship	-9.98787
▁source	-9.98788
▁yelp	-9.98859
▁penguin	-9.98885
▁babe	-9.98943
▁loser	-9.99241
▁sweat	-9.99317
▁betterman	-9.99359
▁ape	-9.99398
▁success	-9.99407
▁mel	-9.99609
▁thick	-9.99614
▁leaves	-9.99617
head	-9.99755
▁creep	-9.99805
▁bars	-9.99805
les	-9.99904
▁laws	-10.0005
▁study	-10.0006
▁rush	-10.0007
gh	-10.0011
▁cancel	-10.0013
▁concern	-10.0017
▁surely	-10.0022
▁cheat	-10.0029
▁official	-10.0035
▁lala	-10.0043
▁volcano	-10.0044
▁arthur	-10.005
▁audrey	-10.005
▁brandnew	-10.005
▁cackling	-10.005
▁champagne	-10.005
▁cherry	-10.005
▁chinese	-10.005
▁ffynnon	-10.005
▁ginny	-10.005
▁lydia	-10.005
▁melvin	-10.005
▁muffled	-10.005
▁mysterious	-10.005
▁nevins	-10.005
▁popcorn	-10.005
▁remote	-10.005
▁someplace	-10.005
▁tuesday	-10.005
▁diane	-10.005
▁smedt	-10.005
▁insist	-10.005
▁resist	-10.005
▁supper	-10.005
▁vision	-10.005
▁jazz	-10.005
▁cast	-10.005
▁waitress	-10.005
▁aware	-10.005
▁charity	-10.005
▁route	-10.005
▁flag	-10.005
▁smee	-10.005
▁spring	-10.005
▁grantham	-10.005
▁onto	-10.005
▁sauce	-10.0051
▁authority	-10.0051
▁junior	-10.0051
▁peaches	-10.0051
▁welsh	-10.0051
▁youth	-10.0051
▁medical	-10.0052
ped	-10.0052
▁distance	-10.0052
▁scottie	-10.0053
▁faye	-10.0053
▁spoken	-10.0054
▁steady	-10.0056
▁gim	-10.0056
▁murmuring	-10.0056
▁bloom	-10.0057
▁shining	-10.006
▁billion	-10.006
▁iron	-10.0061
▁impressed	-10.0066
▁grown	-10.0068
▁splutters	-10.0074
▁invited	-10.0081
▁received	-10.0081
▁slip	-10.0082
▁tip	-10.0082
▁eaten	-10.0083
oli	-10.0089
▁brings	-10.0091
▁ham	-10.0106
ac	-10.0108
▁escaped	-10.0112
▁bron	-10.013
▁spit	-10.0136
▁pile	-10.0168
▁parking	-10.017
ence	-10.0176
▁testing	-10.0179
▁worker	-10.0179
ine	-10.0228
▁weapons	-10.0239
ern	-10.024
▁bowl	-10.0254
▁pot	-10.0272
▁passing	-10.028
▁val	-10.0285
▁metal	-10.0298
fully	-10.0302
▁tears	-10.0311
▁rats	-10.0314
▁winds	-10.0357
▁lack	-10.0364
▁records	-10.0368
▁fail	-10.0372
▁ani	-10.0397
▁tu	-10.0398
▁pulling	-10.0398
▁nights	-10.0401
▁curse	-10.0433
▁ships	-10.0445
▁rhythmic	-10.0448
▁loca	-10.0449
▁photo	-10.0455
▁blanket	-10.0456
▁task	-10.0457
▁value	-10.0458
▁nightmare	-10.046
▁trap	-10.0461
▁coward	-10.0463
▁goal	-10.0465
▁universe	-10.0466
▁pocket	-10.0468
▁pirate	-10.0471
▁shoe	-10.0476
▁prayer	-10.0477
▁mile	-10.0478
▁va	-10.0485
▁bucket	-10.0497
▁bump	-10.0509
▁abe	-10.0511
▁sum	-10.0515
▁reasons	-10.0523
▁doll	-10.0553
▁bust	-10.0562
▁i	-10.0567
▁mall	-10.0568
▁warn	-10.0582
▁darn	-10.0602
▁deny	-10.0606
mount	-10.0615
▁health	-10.0619
▁curious	-10.0626
▁tradition	-10.0631
▁complain	-10.0631
▁experiment	-10.0631
▁cell	-10.0632
▁sandwich	-10.0632
▁enz	-10.0635
▁vince	-10.0637
▁basket	-10.0638
▁advantage	-10.0638
▁carriage	-10.0638
▁cassidy	-10.0638
▁commercial	-10.0638
▁electric	-10.0638
▁enterprise	-10.0638
▁mulgarath	-10.0638
▁necessary	-10.0638
▁ordinary	-10.0638
▁puppies	-10.0638
▁rehearsal	-10.0638
▁renault	-10.0638
▁silent	-10.0638
▁strangways	-10.0638
▁strasser	-10.0638
▁surface	-10.0638
▁therefore	-10.0638
▁thunk	-10.0638
▁aladar	-10.0638
▁modern	-10.0638
▁proceed	-10.0638
▁debbie	-10.0638
▁eugene	-10.0638
▁grace	-10.0638
▁laurel	-10.0638
▁matrix	-10.0638
▁bravo	-10.0638
▁critic	-10.0638
▁davies	-10.0638
▁example	-10.0638
▁pumpkin	-10.0638
▁permission	-10.0638
▁accus	-10.0638
▁praise	-10.0638
▁joking	-10.0638
dy	-10.0638
▁lightning	-10.0638
▁failure	-10.0639
▁invitation	-10.0639
▁oink	-10.0639
▁evans	-10.0639
▁basically	-10.0639
▁kron	-10.0639
▁garw	-10.0639
▁edge	-10.0639
▁miniboss	-10.0639
▁slept	-10.0639
▁jail	-10.0639
▁invention	-10.0639
▁anger	-10.064
▁reward	-10.064
▁complicated	-10.064
▁hannah	-10.064
▁snack	-10.064
▁winning	-10.0641
▁fence	-10.0641
▁marine	-10.0641
▁crab	-10.0641
▁pair	-10.0641
▁filthy	-10.0641
▁classic	-10.0642
▁ferd	-10.0643
▁arranged	-10.0646
▁recently	-10.0647
▁gray	-10.0649
▁slide	-10.065
▁fourth	-10.0651
▁bags	-10.0652
▁boring	-10.0652
▁embarrassing	-10.0653
▁shrieking	-10.0653
▁copy	-10.0653
▁wholl	-10.0663
▁down	-10.0663
▁decepticons	-10.0664
▁squeaks	-10.0664
▁germany	-10.0667
▁bon	-10.0668
▁tada	-10.0673
▁tires	-10.0674
▁duck	-10.068
▁served	-10.068
▁content	-10.068
▁buzzing	-10.0681
sp	-10.0687
▁benn	-10.0688
▁humans	-10.069
▁tied	-10.0694
▁orphans	-10.0695
▁seal	-10.0696
▁victory	-10.07
▁wishes	-10.071
▁dearest	-10.0712
▁passengers	-10.0715
x	-10.0722
▁sw	-10.0728
▁bothering	-10.073
▁der	-10.0741
▁pretending	-10.0752
▁younger	-10.0757
▁sting	-10.0763
ate	-10.0769
▁toys	-10.0777
▁lad	-10.0782
▁bears	-10.0784
▁lied	-10.0788
line	-10.079
▁sha	-10.0791
▁engineer	-10.0817
▁rider	-10.0844
▁for	-10.0855
▁russians	-10.086
▁wonders	-10.0876
ally	-10.089
▁led	-10.0905
rt	-10.0925
▁crack	-10.0926
▁minds	-10.0931
▁gates	-10.0933
▁buying	-10.0934
▁voices	-10.0954
▁cars	-10.0974
▁drinking	-10.0974
ward	-10.098
▁deserves	-10.0984
▁me	-10.1026
▁beeps	-10.1027
▁seek	-10.1032
▁ar	-10.104
▁meaning	-10.1041
▁jokes	-10.1069
▁operation	-10.1078
▁orange	-10.1081
▁clue	-10.1085
▁minister	-10.1086
▁shadow	-10.1088
▁peanut	-10.1091
▁priest	-10.1092
▁tank	-10.1094
▁cookie	-10.1101
▁falls	-10.1104
▁prize	-10.1106
▁yard	-10.1111
▁ohh	-10.1123
▁yii	-10.1123
▁bl	-10.1143
▁watched	-10.118
▁bang	-10.1181
▁deliver	-10.1207
▁cape	-10.1209
▁twist	-10.1216
▁buzz	-10.1219
ley	-10.1221
▁borrow	-10.1228
▁earn	-10.1235
que	-10.1236
▁create	-10.1242
ible	-10.1243
▁refuse	-10.1244
▁fift	-10.1246
▁positive	-10.1249
▁spoke	-10.1259
ca	-10.1261
▁journal	-10.1262
▁wire	-10.1263
▁downstairs	-10.1263
▁hockey	-10.1263
▁invisible	-10.1263
▁jamboree	-10.1263
▁lucius	-10.1263
▁project	-10.1263
▁rufus	-10.1263
▁suicide	-10.1263
▁technology	-10.1263
▁thursday	-10.1263
▁underwear	-10.1263
▁unicron	-10.1263
▁vehicle	-10.1263
▁wolves	-10.1263
▁worries	-10.1263
▁muttering	-10.1263
▁drove	-10.1263
▁serum	-10.1263
▁whitney	-10.1263
▁digging	-10.1263
▁whyd	-10.1263
▁playtone	-10.1263
▁ramses	-10.1263
▁material	-10.1263
▁necessities	-10.1263
▁outfit	-10.1263
▁squidward	-10.1263
▁italian	-10.1263
▁blackbeard	-10.1263
▁dining	-10.1263
▁poopsie	-10.1263
▁collar	-10.1264
▁dimas	-10.1264
▁television	-10.1264
▁steam	-10.1264
▁competition	-10.1264
▁booboo	-10.1264
▁rude	-10.1264
▁unhappy	-10.1264
▁blah	-10.1264
▁limo	-10.1264
▁soda	-10.1264
▁kenton	-10.1264
▁grave	-10.1266
▁reverse	-10.1266
▁under	-10.1266
▁stock	-10.1266
▁puss	-10.1267
▁motion	-10.1267
▁vocalizing	-10.1268
▁massey	-10.1268
▁chop	-10.1269
▁lamp	-10.1269
▁pork	-10.1269
▁recall	-10.127
▁piper	-10.127
▁carried	-10.127
▁vera	-10.1272
▁narrat	-10.1272
▁laid	-10.1273
▁doomed	-10.1274
▁betty	-10.1276
▁mid	-10.1276
▁fairies	-10.1277
▁bout	-10.128
▁whooping	-10.1281
▁mixed	-10.1281
▁spy	-10.1282
▁delighted	-10.1286
▁classes	-10.1288
▁coal	-10.1289
▁properly	-10.1289
▁drag	-10.1291
▁kisses	-10.1291
away	-10.1296
ring	-10.1298
ding	-10.1311
▁munchkins	-10.1313
▁loudly	-10.1314
▁bend	-10.1323
▁normally	-10.1325
▁peaceful	-10.134
▁event	-10.134
▁greetings	-10.1345
mp	-10.1357
ct	-10.1365
▁local	-10.1372
ai	-10.1375
▁thoughts	-10.1377
▁cops	-10.1382
▁imitate	-10.1382
▁honored	-10.1384
▁mat	-10.139
▁spending	-10.1398
ass	-10.1399
▁wine	-10.1401
▁knees	-10.1411
▁manners	-10.1421
ap	-10.1429
▁daughters	-10.1435
▁rolling	-10.144
▁staring	-10.1456
▁cole	-10.1467
▁lamb	-10.1467
▁protecting	-10.1496
va	-10.1508
▁mi	-10.1514
▁germans	-10.1522
▁breaks	-10.1529
▁walked	-10.1549
▁understanding	-10.1552
▁bi	-10.1561
▁finds	-10.1562
▁sending	-10.16
▁woohoo	-10.1624
▁showing	-10.1652
▁dive	-10.1658
▁lions	-10.1678
▁yell	-10.1686
▁reminds	-10.1689
▁scout	-10.17
▁flavor	-10.1712
▁bake	-10.1728
▁signature	-10.1747
▁oven	-10.1747
▁bedroom	-10.1748
▁device	-10.1752
▁robot	-10.1757
▁adult	-10.1758
▁quarter	-10.1758
▁autobot	-10.1759
▁root	-10.1761
▁politic	-10.1763
▁shoulder	-10.1764
▁fellows	-10.1766
▁professional	-10.1766
▁islands	-10.1777
oy	-10.1786
▁manner	-10.1792
▁changes	-10.1794
▁boot	-10.1798
▁pe	-10.18
▁bone	-10.1806
▁thousands	-10.181
▁tests	-10.1812
▁carl	-10.1812
▁mans	-10.1813
▁rot	-10.1824
▁breathes	-10.1844
▁shock	-10.1845
ize	-10.185
▁concentrat	-10.1851
▁photograph	-10.1857
▁trail	-10.1881
like	-10.1881
▁murder	-10.1883
▁weep	-10.1889
▁attend	-10.1892
▁killer	-10.1897
▁crate	-10.1899
▁butts	-10.1901
free	-10.1907
▁experience	-10.1908
▁trains	-10.1912
▁firm	-10.1914
▁social	-10.1915
▁cure	-10.1915
▁sudden	-10.1916
▁exact	-10.1916
▁actual	-10.1918
ff	-10.192
▁transform	-10.1922
▁transit	-10.1927
▁hanna	-10.1927
▁permit	-10.1929
▁insect	-10.193
▁awkward	-10.193
▁becoming	-10.193
▁dylan	-10.193
▁extraordinary	-10.193
▁false	-10.193
▁families	-10.193
▁flesh	-10.193
▁honeycutt	-10.193
▁ignacio	-10.193
▁ilsa	-10.193
▁jeez	-10.193
▁luggage	-10.193
▁meatloaf	-10.193
▁nuclear	-10.193
▁offense	-10.193
▁pathetic	-10.193
▁polite	-10.193
▁slytherin	-10.193
▁smiling	-10.193
▁stroke	-10.193
▁superior	-10.193
▁throne	-10.193
▁ultra	-10.193
▁unusual	-10.193
▁whistling	-10.193
▁gorilla	-10.193
▁title	-10.193
▁warrior	-10.193
▁contain	-10.193
▁grogan	-10.193
▁merino	-10.193
▁splendid	-10.193
▁weaver	-10.193
▁squarepants	-10.193
▁dunk	-10.193
▁malik	-10.193
▁period	-10.193
▁orbit	-10.193
▁cooing	-10.193
▁edith	-10.193
▁equipment	-10.193
▁behold	-10.193
▁vicious	-10.193
▁powder	-10.193
▁romance	-10.193
▁secure	-10.193
▁distant	-10.193
▁glorious	-10.193
▁magnus	-10.193
▁glory	-10.193
▁boogie	-10.193
▁terry	-10.193
▁wrist	-10.1931
▁summon	-10.1931
▁knight	-10.1931
▁naked	-10.1931
▁spoon	-10.1931
▁popular	-10.1931
▁ouch	-10.1931
▁maxwell	-10.1931
▁practical	-10.1931
▁daisy	-10.1931
▁shopping	-10.1931
▁wales	-10.1931
▁impression	-10.1931
▁liz	-10.1931
▁gear	-10.1932
▁couch	-10.1932
▁barber	-10.1932
▁confused	-10.1932
▁valley	-10.1933
▁quality	-10.1933
▁chosen	-10.1934
▁trim	-10.1934
▁yada	-10.1934
▁pushkin	-10.1934
▁yukie	-10.1935
▁beam	-10.1935
▁trapped	-10.1935
med	-10.1935
▁moaning	-10.1938
▁disappointed	-10.1938
▁nick	-10.1939
▁manager	-10.1943
▁dial	-10.1946
▁sexy	-10.1947
▁original	-10.1948
▁amen	-10.1948
▁straining	-10.195
▁healthy	-10.1952
▁of	-10.1954
▁jackie	-10.1954
▁former	-10.1955
▁pod	-10.1955
▁louise	-10.1955
▁x	-10.1957
▁beans	-10.196
▁chased	-10.196
▁skills	-10.1971
▁process	-10.1972
▁tent	-10.1974
▁oliver	-10.1976
▁parts	-10.1978
▁customers	-10.1984
▁mikey	-10.1988
▁arrested	-10.1992
▁fond	-10.2
▁burned	-10.2002
▁everyones	-10.2004
▁numbers	-10.2005
▁terms	-10.2006
▁visitors	-10.2008
▁accepted	-10.2013
▁sec	-10.2027
ler	-10.203
▁reg	-10.2037
house	-10.2043
▁shown	-10.2045
▁pitch	-10.2049
▁attacked	-10.2051
▁menu	-10.2057
▁hills	-10.2061
▁messed	-10.2072
▁anne	-10.2079
▁announc	-10.2081
▁highly	-10.2099
▁mac	-10.2107
▁lame	-10.2113
der	-10.2119
▁pirates	-10.2124
▁laughed	-10.2125
▁presents	-10.2129
▁te	-10.2134
min	-10.2135
▁hopes	-10.2135
▁blowing	-10.2147
▁events	-10.2148
▁rhythm	-10.2151
▁talents	-10.216
▁enjoying	-10.2168
▁ob	-10.2201
▁seize	-10.2203
side	-10.2214
▁rabbits	-10.2234
▁q	-10.2241
▁trace	-10.2255
▁leo	-10.2287
▁snakes	-10.2299
▁lo	-10.2303
ium	-10.2309
▁chips	-10.2314
▁para	-10.2355
▁hop	-10.2359
looking	-10.2361
ery	-10.2363
▁badly	-10.2371
▁suffer	-10.2373
▁mis	-10.2397
▁heavens	-10.2397
▁moons	-10.2428
▁pound	-10.2434
▁charges	-10.2435
ized	-10.2436
▁be	-10.2436
red	-10.2454
▁riddle	-10.2461
▁costume	-10.2461
▁instrument	-10.2461
▁league	-10.2461
▁knee	-10.2463
em	-10.2466
▁les	-10.2466
▁attempt	-10.2469
▁andrew	-10.2469
▁pigeon	-10.2471
▁william	-10.2472
▁indian	-10.2474
▁plate	-10.2476
▁herd	-10.2478
▁wipe	-10.2478
▁apple	-10.2482
▁subs	-10.2484
men	-10.2484
ins	-10.2502
▁chap	-10.2507
ations	-10.2513
▁toy	-10.2515
com	-10.2538
▁nail	-10.2559
of	-10.2561
▁millions	-10.2577
▁produce	-10.2579
▁flow	-10.2582
ge	-10.2588
▁if	-10.2593
▁cap	-10.2598
▁spread	-10.2599
▁snap	-10.2613
around	-10.2622
▁whoops	-10.2627
▁physical	-10.2629
ier	-10.2629
▁ad	-10.2629
▁tastes	-10.2636
▁cove	-10.2638
▁mamma	-10.2639
▁object	-10.264
▁sons	-10.2641
▁confess	-10.2642
▁nurse	-10.2642
▁devon	-10.2644
▁attorney	-10.2644
▁clamoring	-10.2644
▁clarity	-10.2644
▁client	-10.2644
▁corporal	-10.2644
▁cottage	-10.2644
▁disaster	-10.2644
▁emperor	-10.2644
▁enemies	-10.2644
▁escort	-10.2644
▁eventually	-10.2644
▁ghost	-10.2644
▁grissom	-10.2644
▁guitar	-10.2644
▁holiday	-10.2644
▁illegal	-10.2644
▁jabberwocky	-10.2644
▁judgment	-10.2644
▁kadam	-10.2644
▁kamiyah	-10.2644
▁library	-10.2644
▁license	-10.2644
▁lincoln	-10.2644
▁malfoy	-10.2644
▁paradise	-10.2644
▁piranha	-10.2644
▁privacy	-10.2644
▁purse	-10.2644
▁seagull	-10.2644
▁shift	-10.2644
▁staci	-10.2644
▁stammers	-10.2644
▁superweapon	-10.2644
▁sybok	-10.2644
▁teamwork	-10.2644
▁traffic	-10.2644
▁twp	-10.2644
▁unique	-10.2644
▁lewis	-10.2644
▁theater	-10.2644
▁elizabeth	-10.2644
▁torn	-10.2644
▁application	-10.2644
▁brenda	-10.2644
▁merrick	-10.2644
▁including	-10.2644
▁neigh	-10.2644
▁border	-10.2644
▁medicine	-10.2644
▁smack	-10.2644
▁rotten	-10.2644
▁flashlight	-10.2644
▁truce	-10.2644
▁slippers	-10.2645
▁suitcase	-10.2645
▁spanish	-10.2645
▁hooray	-10.2645
▁junk	-10.2645
▁luka	-10.2645
▁wore	-10.2645
▁classified	-10.2645
▁oak	-10.2645
▁humble	-10.2645
▁hahaha	-10.2645
▁fuel	-10.2645
▁satisfied	-10.2645
▁chaos	-10.2645
▁kara	-10.2645
▁committed	-10.2645
▁augustus	-10.2646
▁static	-10.2646
▁miserable	-10.2646
▁yup	-10.2646
▁oneders	-10.2646
▁chess	-10.2646
▁heh	-10.2647
▁retired	-10.2647
▁starship	-10.2647
▁confidence	-10.2647
▁housekeeper	-10.2647
▁fuse	-10.2647
▁regard	-10.2647
▁selfish	-10.2648
▁valentine	-10.2648
▁screen	-10.2649
▁valuable	-10.2649
▁pour	-10.2649
▁pony	-10.265
▁shiny	-10.265
▁forth	-10.2651
▁tax	-10.2652
▁classical	-10.2653
bur	-10.2653
▁dish	-10.2653
▁core	-10.2654
▁unfortunately	-10.2656
▁yar	-10.2656
▁drum	-10.2656
▁kneel	-10.2659
▁echoing	-10.2659
▁navy	-10.266
▁taff	-10.2669
▁frankly	-10.2672
▁now	-10.2672
q	-10.2673
▁print	-10.2674
▁degrees	-10.2676
▁footsteps	-10.2676
▁whines	-10.2676
bb	-10.2678
▁gonga	-10.2678
▁wandering	-10.2679
▁univers	-10.2683
ung	-10.2685
▁fools	-10.2687
ga	-10.2691
▁burie	-10.2695
▁crushed	-10.2711
▁chill	-10.2715
▁searching	-10.2735
▁distort	-10.2735
▁guns	-10.2753
▁quietly	-10.2753
▁mate	-10.2755
▁bored	-10.276
▁diamonds	-10.2764
▁guts	-10.2778
▁macho	-10.2802
▁stare	-10.2829
▁he	-10.2831
▁elephants	-10.2852
▁lads	-10.2854
▁wondered	-10.286
▁ordered	-10.2869
▁hu	-10.2888
▁angels	-10.2904
ose	-10.2915
▁depend	-10.2922
ay	-10.2928
▁wings	-10.2941
▁hugs	-10.2947
▁fra	-10.2947
▁trained	-10.2956
▁landing	-10.2973
▁es	-10.2977
tro	-10.2984
▁members	-10.2993
▁realise	-10.3002
▁po	-10.3003
▁exists	-10.3005
▁remove	-10.3015
▁turner	-10.3021
ping	-10.3041
▁hum	-10.3091
▁dealing	-10.3123
▁birdies	-10.314
ni	-10.3166
ily	-10.3196
▁or	-10.3197
▁checking	-10.3204
▁chain	-10.3204
▁measure	-10.3205
▁explode	-10.3209
▁moments	-10.3229
▁habit	-10.3233
▁artist	-10.3233
▁jet	-10.3236
but	-10.3238
▁rumble	-10.3238
▁effect	-10.3241
▁expert	-10.3242
▁height	-10.3243
▁cock	-10.3245
▁brake	-10.3247
▁lip	-10.3254
how	-10.3258
▁au	-10.3275
▁comfort	-10.33
ack	-10.3302
▁queens	-10.3311
▁gu	-10.3313
▁stab	-10.3313
▁wanting	-10.332
▁design	-10.3321
▁bat	-10.3327
▁fade	-10.3339
▁all	-10.3351
▁perform	-10.3361
sa	-10.3363
ade	-10.3363
▁avoid	-10.3364
▁sneak	-10.3367
▁bik	-10.3369
▁dang	-10.3372
▁gran	-10.3373
▁martin	-10.3374
▁file	-10.3377
▁dump	-10.3378
found	-10.3388
▁activate	-10.3389
▁guarantee	-10.3389
▁sat	-10.3389
▁shove	-10.339
▁tickle	-10.3392
▁sex	-10.3397
▁app	-10.3402
▁unlike	-10.3403
▁kowalsk	-10.3408
▁aaah	-10.3411
▁compliment	-10.3413
▁tranquil	-10.3413
▁benedict	-10.3413
▁bonjour	-10.3413
▁campaign	-10.3413
▁carlotta	-10.3413
▁covington	-10.3413
▁dauphin	-10.3413
▁disgrace	-10.3413
▁execute	-10.3413
▁expedition	-10.3413
▁explosion	-10.3413
▁fantasy	-10.3413
▁furniture	-10.3413
▁hogwarts	-10.3413
▁homework	-10.3413
▁kgb	-10.3413
▁lucille	-10.3413
▁mademoiselle	-10.3413
▁montmirail	-10.3413
▁myrtle	-10.3413
▁plastic	-10.3413
▁potential	-10.3413
▁raspberry	-10.3413
▁reject	-10.3413
▁sunshine	-10.3413
▁tumnus	-10.3413
▁ugarte	-10.3413
▁wrestling	-10.3413
▁average	-10.3413
▁contest	-10.3413
▁diaper	-10.3413
▁elinor	-10.3413
▁jaunt	-10.3413
▁ethel	-10.3413
▁francs	-10.3413
▁shrimp	-10.3413
▁current	-10.3413
▁struck	-10.3413
▁ozzie	-10.3414
▁roast	-10.3414
▁kelly	-10.3414
▁recover	-10.3414
▁uplift	-10.3414
▁gallant	-10.3414
▁downtown	-10.3414
▁attic	-10.3414
▁cliff	-10.3414
▁argue	-10.3414
▁kidnapped	-10.3414
▁tribe	-10.3414
▁grip	-10.3414
▁waking	-10.3414
▁education	-10.3414
▁carpenter	-10.3414
▁ladder	-10.3414
▁mouse	-10.3414
▁cartoon	-10.3414
▁available	-10.3414
▁intelligence	-10.3414
▁shore	-10.3414
▁fudge	-10.3414
▁several	-10.3415
▁penny	-10.3415
▁fever	-10.3415
▁lupe	-10.3415
▁myrna	-10.3415
▁center	-10.3415
▁hustle	-10.3415
▁performance	-10.3415
▁beaver	-10.3415
▁pinch	-10.3415
▁mimic	-10.3416
▁grownup	-10.3416
▁swish	-10.3416
▁geez	-10.3416
▁woof	-10.3416
▁morty	-10.3417
▁tuna	-10.3417
▁sentence	-10.3417
▁china	-10.3417
▁cries	-10.3417
▁fog	-10.3417
▁jab	-10.3418
▁hunk	-10.342
▁package	-10.342
▁demon	-10.342
▁inner	-10.3422
▁patch	-10.3422
▁bedtime	-10.3422
▁cage	-10.3422
▁changing	-10.3423
▁dating	-10.3423
▁cutter	-10.3425
▁foolish	-10.3425
▁balloon	-10.3426
▁ability	-10.3426
▁range	-10.3427
▁apply	-10.3428
▁annoying	-10.343
▁bitter	-10.343
▁stopping	-10.3431
▁fry	-10.3432
▁invented	-10.3434
▁circumstances	-10.3434
▁bruises	-10.3434
▁thin	-10.3441
▁informed	-10.3442
▁carrots	-10.3448
▁sp	-10.3453
▁sighing	-10.3456
▁helpless	-10.3461
▁suffering	-10.3464
cha	-10.3466
▁this	-10.3472
▁vet	-10.3474
▁exercise	-10.3476
▁neverland	-10.3484
▁indistinctly	-10.3486
top	-10.3489
▁freaking	-10.3493
▁marching	-10.3499
▁yithe	-10.352
▁drawing	-10.3522
wa	-10.3525
▁somethings	-10.3526
▁tis	-10.3532
one	-10.3535
▁carefully	-10.3536
▁belly	-10.354
▁painful	-10.3545
▁admire	-10.3548
ot	-10.3551
oh	-10.3556
hand	-10.3565
▁strangers	-10.3569
mate	-10.3608
▁politics	-10.3611
▁enjoyed	-10.3622
▁traveling	-10.3645
▁joined	-10.3677
▁sports	-10.368
ki	-10.3703
▁bo	-10.3706
▁that	-10.3728
▁rooms	-10.3734
here	-10.3736
▁workers	-10.3754
ny	-10.3759
▁image	-10.3769
▁jumping	-10.3778
▁horns	-10.3805
▁ra	-10.385
▁pr	-10.3852
▁eats	-10.387
▁dip	-10.3874
▁lava	-10.388
▁ln	-10.3904
▁ree	-10.3915
ber	-10.3918
▁hits	-10.3923
ile	-10.3941
▁wins	-10.3947
ious	-10.3955
ating	-10.3971
▁marc	-10.3972
▁waters	-10.3976
ville	-10.398
for	-10.3996
▁wrap	-10.3999
▁hurting	-10.4007
cal	-10.401
▁jam	-10.4024
▁sigh	-10.4026
mber	-10.4038
▁jacobs	-10.4041
▁arrive	-10.4042
▁limit	-10.4043
ball	-10.4049
▁issue	-10.4052
▁subject	-10.4064
▁kamal	-10.4065
▁volunteer	-10.4068
▁fu	-10.4068
▁cheek	-10.4069
▁visa	-10.4069
▁corp	-10.4071
▁lawyer	-10.4073
▁cloud	-10.4076
▁direction	-10.408
▁luca	-10.4083
▁hearing	-10.4099
▁toe	-10.4105
▁ton	-10.411
▁bark	-10.411
▁here	-10.4118
▁wrestle	-10.4145
▁ac	-10.4159
▁drown	-10.4165
▁boil	-10.4165
▁heal	-10.4167
▁eagles	-10.4171
▁ab	-10.4189
om	-10.4197
ign	-10.4202
▁mist	-10.4207
▁distract	-10.4208
▁defeat	-10.421
▁abandon	-10.421
▁suspect	-10.421
▁disturb	-10.4212
▁screw	-10.4213
▁hor	-10.4222
▁declare	-10.4225
▁faint	-10.423
ised	-10.4238
▁marie	-10.4242
▁whee	-10.4243
▁lovin	-10.4244
▁mornin	-10.4244
▁caf	-10.4244
▁threat	-10.4244
▁gettin	-10.4245
▁merci	-10.4245
▁brow	-10.4246
▁wiz	-10.4246
▁steps	-10.4246
▁hazel	-10.4247
▁absolem	-10.4247
▁acquaintance	-10.4247
▁anneclaire	-10.4247
▁aragog	-10.4247
▁bagheera	-10.4247
▁behalf	-10.4247
▁behavior	-10.4247
▁celebrate	-10.4247
▁crisis	-10.4247
▁discipline	-10.4247
▁dwayne	-10.4247
▁eduardo	-10.4247
▁enchant	-10.4247
▁federation	-10.4247
▁graduate	-10.4247
▁gryffindor	-10.4247
▁humberfloob	-10.4247
▁jumpathon	-10.4247
▁lockhart	-10.4247
▁orleans	-10.4247
▁policy	-10.4247
▁pregnant	-10.4247
▁proposal	-10.4247
▁rizzio	-10.4247
▁salad	-10.4247
▁stella	-10.4247
▁supply	-10.4247
▁swamp	-10.4247
▁ultimate	-10.4247
▁vulcan	-10.4247
▁wednesday	-10.4247
▁angus	-10.4247
▁explosiveskull	-10.4247
▁trilling	-10.4247
▁appointment	-10.4247
▁ellie	-10.4247
▁felix	-10.4247
▁shuttle	-10.4247
▁mushroom	-10.4247
▁mask	-10.4247
▁megatron	-10.4247
▁squeeze	-10.4247
▁jelly	-10.4247
▁beloved	-10.4247
▁recommend	-10.4247
▁influence	-10.4247
▁patience	-10.4247
▁woke	-10.4247
▁fruit	-10.4247
▁bacon	-10.4247
▁roam	-10.4247
▁bronx	-10.4247
▁garage	-10.4248
▁ponies	-10.4248
▁frost	-10.4248
▁lousy	-10.4248
▁sentimental	-10.4248
▁sniffles	-10.4248
▁slipped	-10.4248
▁elevator	-10.4248
▁circus	-10.4248
▁jeepers	-10.4248
▁comic	-10.4248
▁childhood	-10.4248
▁danny	-10.4248
▁cruise	-10.4249
▁chapman	-10.4249
▁literally	-10.4249
▁guapo	-10.4249
▁lemon	-10.4249
▁drill	-10.4249
▁flies	-10.4249
▁elster	-10.4249
▁grass	-10.4249
▁effective	-10.4249
▁barton	-10.425
▁ciao	-10.425
▁wide	-10.425
▁text	-10.425
▁sensitive	-10.425
▁godmother	-10.425
▁potatoes	-10.425
▁humor	-10.4251
▁recipe	-10.4252
▁evidence	-10.4252
▁santa	-10.4252
▁beds	-10.4253
▁wailing	-10.4253
▁trial	-10.4253
▁collection	-10.4254
▁boop	-10.4254
▁poochy	-10.4254
▁noon	-10.4256
▁extremely	-10.4256
▁honking	-10.4256
▁director	-10.4257
▁shivering	-10.4257
▁eeri	-10.4258
▁tinker	-10.4259
▁lane	-10.4262
▁squealing	-10.4265
▁howling	-10.4266
▁carson	-10.4273
▁worrying	-10.4276
stream	-10.4276
▁creepy	-10.4277
anshe	-10.4279
▁mount	-10.428
▁goodnight	-10.4281
▁geek	-10.4282
▁dumped	-10.4284
▁sidekicks	-10.4284
▁meows	-10.4284
▁squawks	-10.4284
▁delivered	-10.4293
▁su	-10.4295
▁mustnt	-10.4295
▁warned	-10.4296
▁busted	-10.4298
▁kindness	-10.4302
ps	-10.4302
▁cupcakes	-10.4314
▁str	-10.4317
▁safer	-10.4317
▁based	-10.4322
▁midge	-10.4329
▁clicking	-10.4333
▁nd	-10.4334
▁requested	-10.4335
▁suits	-10.4342
▁bubbles	-10.4344
ice	-10.4348
▁prospect	-10.4359
▁shortly	-10.4359
▁travell	-10.4361
▁frogs	-10.4374
▁owl	-10.438
▁considered	-10.4383
▁ending	-10.4395
ham	-10.4402
olly	-10.4404
▁arch	-10.4404
▁ye	-10.4405
▁ju	-10.4409
▁imagined	-10.4412
▁carrying	-10.4412
▁kida	-10.442
▁inc	-10.4423
▁vil	-10.4423
▁considering	-10.4429
dog	-10.4431
▁cha	-10.4436
▁provide	-10.4437
▁shoots	-10.4453
▁diet	-10.4453
▁talkin	-10.4465
▁kissed	-10.4471
▁cleaned	-10.4483
▁am	-10.4509
▁sucks	-10.4511
cy	-10.4536
▁pat	-10.455
▁hates	-10.4553
▁cows	-10.4553
▁conditions	-10.4569
▁fully	-10.4576
▁musical	-10.459
▁lu	-10.4591
▁richards	-10.4599
▁gal	-10.4613
▁fans	-10.4624
▁y	-10.4629
ex	-10.4638
▁trusted	-10.4644
▁mach	-10.4652
▁husbands	-10.4655
chi	-10.4661
▁stinks	-10.4676
▁useful	-10.4679
ak	-10.4708
rous	-10.4714
▁chances	-10.4719
▁hal	-10.472
▁parr	-10.473
▁dudes	-10.4742
ld	-10.476
▁lands	-10.4764
▁pad	-10.4765
▁kindly	-10.4767
▁cop	-10.4768
▁catching	-10.4778
▁non	-10.4791
▁dreamed	-10.4793
▁flu	-10.4801
▁popp	-10.4818
cat	-10.4826
▁plot	-10.4843
zz	-10.485
▁ver	-10.4855
ag	-10.4868
▁lap	-10.487
ti	-10.4882
old	-10.4902
▁mu	-10.4902
▁signs	-10.4922
▁she	-10.4923
▁bug	-10.4937
▁roar	-10.4949
▁thumb	-10.495
▁award	-10.4951
▁clo	-10.4956
▁net	-10.4965
▁passion	-10.4969
vida	-10.4971
▁item	-10.4974
▁sweep	-10.4977
▁goon	-10.4978
▁cigarette	-10.498
▁thud	-10.498
▁scene	-10.4981
▁cannon	-10.4983
▁shield	-10.4984
▁pipe	-10.4986
▁kin	-10.5001
▁gut	-10.5002
▁houses	-10.5002
▁fl	-10.5022
▁br	-10.5022
▁ended	-10.5028
▁stranger	-10.5031
▁hunter	-10.5042
▁dancer	-10.5062
fa	-10.5064
▁understands	-10.508
▁ren	-10.5082
▁swing	-10.509
▁delight	-10.5091
▁shush	-10.51
▁talks	-10.5106
▁wander	-10.5107
▁respond	-10.5108
▁leap	-10.511
▁aim	-10.511
▁blessing	-10.5113
▁repair	-10.5117
▁mock	-10.5117
▁succeed	-10.5119
▁swallow	-10.5121
▁wreck	-10.5121
▁inform	-10.5123
wood	-10.5126
▁include	-10.5131
nder	-10.5133
mouth	-10.5133
kill	-10.5134
▁glob	-10.5134
▁strap	-10.5134
▁siren	-10.5137
▁unfortunate	-10.5141
▁obvious	-10.5142
▁recent	-10.5142
▁absolute	-10.5142
what	-10.5142
gue	-10.5144
▁hung	-10.5145
through	-10.5151
▁chose	-10.5153
▁sink	-10.5154
▁individual	-10.5154
▁babys	-10.5154
▁comin	-10.5155
▁favour	-10.5156
▁attractive	-10.5156
▁explosive	-10.5156
▁cybertron	-10.5156
▁deposit	-10.5156
▁amsterdam	-10.5156
▁barnacle	-10.5156
▁brundon	-10.5156
▁cancer	-10.5156
▁century	-10.5156
▁comrade	-10.5156
▁cotton	-10.5156
▁cotwell	-10.5156
▁dozen	-10.5156
▁explanation	-10.5156
▁fascinating	-10.5156
▁galaxy	-10.5156
▁hawaii	-10.5156
▁hilarious	-10.5156
▁increase	-10.5156
▁ireland	-10.5156
▁jennings	-10.5156
▁komay	-10.5156
▁laundry	-10.5156
▁opposite	-10.5156
▁procedure	-10.5156
▁progress	-10.5156
▁prophecy	-10.5156
▁quote	-10.5156
▁receipt	-10.5156
▁reckon	-10.5156
▁relief	-10.5156
▁resume	-10.5156
▁sebastian	-10.5156
▁shepard	-10.5156
▁shinobu	-10.5156
▁smooth	-10.5156
▁socrates	-10.5156
▁struggling	-10.5156
▁temper	-10.5156
▁underground	-10.5156
▁uniform	-10.5156
▁whitaker	-10.5156
▁wisdom	-10.5156
▁abraham	-10.5156
▁burden	-10.5156
▁deaf	-10.5156
▁fortress	-10.5156
▁incoming	-10.5156
▁wendy	-10.5156
▁whatll	-10.5156
▁wilderness	-10.5156
ygen	-10.5156
▁greek	-10.5156
▁beneath	-10.5156
▁conclusion	-10.5156
▁fixerupper	-10.5156
▁hollywood	-10.5156
▁generous	-10.5156
▁renner	-10.5156
down	-10.5156
▁committee	-10.5156
▁centre	-10.5156
▁referee	-10.5156
▁sunset	-10.5156
▁medium	-10.5156
▁crims	-10.5156
▁scent	-10.5156
▁eleven	-10.5156
▁ponyboy	-10.5156
▁cassie	-10.5156
▁radar	-10.5156
▁cheap	-10.5156
▁swimming	-10.5156
▁excitement	-10.5156
▁psst	-10.5156
▁assistance	-10.5156
▁parrot	-10.5156
▁confident	-10.5156
▁detective	-10.5156
▁assignment	-10.5156
▁disappointment	-10.5156
▁woah	-10.5156
▁shelby	-10.5157
▁closing	-10.5157
▁turbo	-10.5157
▁unbelievable	-10.5157
▁downton	-10.5157
▁argh	-10.5157
▁massive	-10.5157
▁prank	-10.5157
▁flew	-10.5157
▁soap	-10.5157
▁fox	-10.5157
▁replacement	-10.5157
▁brace	-10.5157
▁armour	-10.5157
▁capital	-10.5157
▁exhausted	-10.5158
▁potty	-10.5158
▁elite	-10.5158
▁basic	-10.5158
▁carpet	-10.5158
▁surgery	-10.5158
▁spitz	-10.5158
▁begun	-10.5158
▁gig	-10.5159
▁touchdown	-10.5159
▁barnes	-10.5159
▁lenny	-10.5159
▁dummy	-10.5159
▁zini	-10.5159
▁artie	-10.516
▁linda	-10.516
▁surrounded	-10.5161
▁announcement	-10.5161
▁brush	-10.5161
▁dings	-10.5161
▁personality	-10.5161
▁owns	-10.5162
▁craft	-10.5163
▁halfway	-10.5164
▁secretary	-10.5164
▁slay	-10.5164
▁injured	-10.5164
▁brandy	-10.5165
▁bullet	-10.5165
▁cello	-10.5166
▁squawking	-10.5167
▁kup	-10.5167
▁erin	-10.5167
▁thus	-10.5168
▁chen	-10.5169
▁stepped	-10.5169
▁ahem	-10.517
▁cutting	-10.517
▁archie	-10.5171
▁bink	-10.5172
▁straighten	-10.5172
▁tray	-10.5173
▁sore	-10.5174
▁bah	-10.5175
▁warner	-10.5176
day	-10.5176
▁den	-10.5176
▁mole	-10.5178
▁walter	-10.5181
▁lanterns	-10.5181
▁bury	-10.5183
▁pm	-10.5184
▁showtime	-10.5186
▁fifty	-10.5187
latin	-10.5193
▁ticking	-10.5193
▁hail	-10.5194
▁refused	-10.5194
▁reality	-10.5197
▁croaks	-10.5197
▁luydens	-10.5197
▁coughs	-10.5197
▁delay	-10.5199
▁louie	-10.5206
▁separated	-10.5207
▁melt	-10.5209
▁bets	-10.5213
▁spiders	-10.5213
▁dope	-10.5214
▁pi	-10.5216
ster	-10.5216
ran	-10.5223
▁yawns	-10.523
▁affairs	-10.523
▁beef	-10.5231
▁goodlooking	-10.5236
berg	-10.5237
▁sid	-10.5241
▁stutters	-10.5246
▁min	-10.5249
vel	-10.5253
▁fame	-10.5256
aw	-10.5258
▁crashing	-10.5259
▁aid	-10.5267
▁ro	-10.5269
▁fore	-10.527
▁rely	-10.5278
▁mally	-10.5287
▁magnetic	-10.5289
▁bin	-10.5291
▁antiques	-10.5295
▁listened	-10.5314
▁wil	-10.5315
val	-10.5321
▁surprises	-10.5324
▁treated	-10.5326
▁joint	-10.5338
▁limits	-10.5345
▁issues	-10.5346
▁speakers	-10.5355
▁depends	-10.5363
▁bea	-10.5365
▁bas	-10.5366
ons	-10.5374
▁grounded	-10.5382
▁wears	-10.5414
▁figures	-10.5434
▁leading	-10.5434
▁bettermans	-10.5444
met	-10.5464
▁cur	-10.5465
ington	-10.547
▁ram	-10.5476
▁landed	-10.5477
▁jumped	-10.5484
atic	-10.5486
▁kissing	-10.5486
▁ru	-10.5493
▁clicks	-10.5512
▁bur	-10.5524
▁clip	-10.5528
▁and	-10.5556
▁fran	-10.5557
▁waves	-10.5559
▁dep	-10.5572
all	-10.5572
▁arts	-10.5628
▁sire	-10.5639
▁inter	-10.5666
per	-10.5674
▁officers	-10.5675
ded	-10.5678
ise	-10.5678
▁grannys	-10.5728
▁hundreds	-10.5728
ig	-10.573
use	-10.5742
ure	-10.5746
▁roses	-10.5762
▁gifts	-10.5763
▁ga	-10.5767
za	-10.5796
▁stands	-10.5806
ator	-10.581
▁buildings	-10.5829
▁rivers	-10.583
doo	-10.5834
tom	-10.5853
▁notes	-10.5892
▁sis	-10.5905
▁jobs	-10.5907
▁ami	-10.5909
▁holes	-10.5916
▁helpful	-10.592
▁hom	-10.5924
▁messages	-10.593
ify	-10.5946
▁weigh	-10.5951
▁mass	-10.5961
▁relationship	-10.5977
▁technique	-10.5977
▁savage	-10.598
▁swell	-10.598
▁traitor	-10.598
▁clown	-10.5982
▁medal	-10.5982
▁diamond	-10.5988
▁worm	-10.599
▁toward	-10.5992
▁giggle	-10.5992
▁scrap	-10.6
▁payment	-10.6002
art	-10.6004
▁begins	-10.6034
bi	-10.6038
che	-10.6061
▁at	-10.6069
▁crawl	-10.6073
gg	-10.6074
▁ri	-10.6084
ns	-10.6097
▁discover	-10.6103
▁advise	-10.6104
ial	-10.611
▁dies	-10.6114
▁marks	-10.6114
▁gain	-10.6118
▁drinks	-10.6119
▁chuckle	-10.6126
board	-10.6127
▁require	-10.6132
school	-10.6132
▁convince	-10.6133
wise	-10.6135
▁looka	-10.6139
▁conduct	-10.614
▁solve	-10.6143
hy	-10.6148
▁prob	-10.6149
▁tomato	-10.615
▁superhero	-10.615
▁pow	-10.6151
▁anthe	-10.6154
▁preach	-10.6154
▁equal	-10.6154
▁octopus	-10.6156
▁represent	-10.6156
▁dundund	-10.6156
▁ahtohallan	-10.6156
▁airplane	-10.6156
▁algorithm	-10.6156
▁approve	-10.6156
▁arrival	-10.6156
▁arriving	-10.6156
▁aspirin	-10.6156
▁background	-10.6156
▁berlin	-10.6156
▁breeze	-10.6156
▁charlotte	-10.6156
▁chorus	-10.6156
▁chubby	-10.6156
▁conceal	-10.6156
▁delicate	-10.6156
▁dessert	-10.6156
▁determine	-10.6156
▁diagusta	-10.6156
▁display	-10.6156
▁dunno	-10.6156
▁easily	-10.6156
▁enormous	-10.6156
▁ferguson	-10.6156
▁florida	-10.6156
▁glacier	-10.6156
▁gulps	-10.6156
▁harvey	-10.6156
▁jessica	-10.6156
▁leash	-10.6156
▁lecture	-10.6156
▁monitor	-10.6156
▁napoleon	-10.6156
▁orlando	-10.6156
▁pagogo	-10.6156
▁paxton	-10.6156
▁proffitt	-10.6156
▁register	-10.6156
▁reynolds	-10.6156
▁routine	-10.6156
▁scavenger	-10.6156
▁senior	-10.6156
▁sequence	-10.6156
▁skeleton	-10.6156
▁suspicious	-10.6156
▁sybbie	-10.6156
▁teeam	-10.6156
▁thanksgiving	-10.6156
▁tragedy	-10.6156
▁underneath	-10.6156
▁valiente	-10.6156
▁vessel	-10.6156
▁whatre	-10.6156
▁whinnies	-10.6156
▁agnes	-10.6156
▁document	-10.6156
▁insurance	-10.6156
▁personnel	-10.6156
▁presence	-10.6156
▁anytime	-10.6156
▁despicable	-10.6156
▁veruca	-10.6156
▁figaro	-10.6156
▁gibber	-10.6156
▁hotrod	-10.6156
▁territory	-10.6156
▁angle	-10.6156
▁beware	-10.6156
▁insectopia	-10.6156
▁rodrick	-10.6156
▁sniper	-10.6156
▁mandible	-10.6156
▁wives	-10.6156
▁profit	-10.6156
▁backyard	-10.6156
▁maureen	-10.6156
▁article	-10.6156
▁denver	-10.6156
▁pillow	-10.6156
▁repay	-10.6156
▁envy	-10.6156
▁choke	-10.6156
▁convention	-10.6156
▁pacific	-10.6156
▁hissing	-10.6156
▁urgent	-10.6156
▁duties	-10.6156
▁mild	-10.6156
▁lilies	-10.6156
▁orphanage	-10.6156
▁lump	-10.6156
▁amigo	-10.6157
▁nibs	-10.6157
▁inevitable	-10.6157
▁rising	-10.6157
▁eternity	-10.6157
▁whip	-10.6157
▁automatic	-10.6157
▁stake	-10.6157
▁liberty	-10.6157
▁commitment	-10.6157
▁community	-10.6157
▁margo	-10.6157
▁samples	-10.6157
▁sensor	-10.6157
▁skull	-10.6157
▁wig	-10.6157
▁serving	-10.6157
▁garry	-10.6157
▁bald	-10.6158
▁kidnap	-10.6158
▁barrel	-10.6158
▁fanny	-10.6158
▁assist	-10.6159
▁unload	-10.6159
▁minor	-10.6159
▁raw	-10.6159
▁loan	-10.6159
▁nora	-10.6159
▁dropping	-10.6159
erald	-10.6159
▁drew	-10.6159
▁wagon	-10.6159
▁jean	-10.616
▁mental	-10.616
▁alike	-10.616
▁groom	-10.616
▁bench	-10.6161
▁marvin	-10.6161
▁dull	-10.6161
▁jackjack	-10.6161
▁fluffy	-10.6161
▁tweety	-10.6161
▁yuck	-10.6161
▁jolly	-10.6162
▁sharing	-10.6163
▁grabbed	-10.6163
▁thirsty	-10.6163
▁applauding	-10.6163
▁smoking	-10.6164
▁discussion	-10.6164
▁suggestion	-10.6165
▁dishes	-10.6165
▁alley	-10.6165
▁treatment	-10.6165
▁bowers	-10.6165
▁bates	-10.6166
▁triple	-10.6167
▁nina	-10.6167
▁scale	-10.6167
▁snickering	-10.6168
▁creaking	-10.6168
▁diego	-10.6168
▁heel	-10.6168
▁honorable	-10.6169
▁hopefully	-10.617
▁vice	-10.617
▁july	-10.6173
▁hitting	-10.6173
▁kiddo	-10.6174
▁tina	-10.6175
▁jen	-10.6176
▁clattering	-10.6178
▁convinced	-10.6178
▁che	-10.618
▁webs	-10.6183
▁officially	-10.6183
▁jackson	-10.6184
▁coordinates	-10.6184
▁cents	-10.6184
▁highness	-10.6184
▁label	-10.6188
▁hare	-10.6191
▁starve	-10.6192
▁speaker	-10.6193
▁delightful	-10.6193
▁ohio	-10.6197
▁floating	-10.6197
▁bid	-10.6198
▁them	-10.6198
boy	-10.6199
▁drowned	-10.62
▁designed	-10.6201
▁disturbed	-10.6202
▁limited	-10.6202
▁spices	-10.6203
▁dai	-10.6203
▁putter	-10.6206
▁placed	-10.621
▁lifetime	-10.621
▁movement	-10.6213
▁moron	-10.6213
▁thinkin	-10.6213
▁hired	-10.6217
▁tone	-10.6217
▁touches	-10.6221
▁tingle	-10.6223
▁louder	-10.6223
▁joey	-10.6225
▁shy	-10.6227
▁loaded	-10.6231
▁introduced	-10.6236
▁archery	-10.6236
▁niggers	-10.6239
▁stinker	-10.624
▁nanny	-10.6243
▁rescued	-10.6245
▁breakin	-10.6254
ver	-10.6255
▁lily	-10.6256
▁scientists	-10.6256
▁aliens	-10.6256
▁dock	-10.6256
▁poisoned	-10.6256
▁behave	-10.6261
▁worthy	-10.6289
▁grounds	-10.6293
▁neighbors	-10.6293
▁blinded	-10.63
▁sailing	-10.6302
▁ol	-10.6304
▁feathers	-10.6311
▁wit	-10.6314
▁socs	-10.6319
▁scaring	-10.6323
▁sirens	-10.6349
▁cooler	-10.6353
▁writer	-10.6362
▁senses	-10.6376
▁tend	-10.6377
ther	-10.6377
▁heights	-10.6384
▁snowing	-10.6388
wi	-10.6388
tch	-10.639
▁acknowledge	-10.6395
▁apples	-10.6403
▁shoulders	-10.6421
▁mayor	-10.6427
▁jed	-10.6448
ities	-10.6448
▁pockets	-10.6458
ang	-10.647
▁feelin	-10.6493
▁ants	-10.6495
▁wand	-10.6497
▁targets	-10.6513
▁mop	-10.6514
ach	-10.6519
▁shirts	-10.652
▁sleepy	-10.6536
▁ke	-10.6551
▁freaks	-10.6552
▁crossing	-10.6577
▁facts	-10.6582
▁squirrels	-10.6587
▁stew	-10.6592
▁remains	-10.6627
▁dal	-10.6632
▁patients	-10.6637
▁agents	-10.6662
mon	-10.6671
ub	-10.6688
▁lee	-10.6692
▁occasion	-10.6709
▁ou	-10.672
ank	-10.6731
ying	-10.6756
▁chi	-10.6764
▁spirits	-10.6792
▁ana	-10.6812
▁soc	-10.6819
▁wy	-10.682
▁robb	-10.6838
▁chum	-10.684
▁ve	-10.6876
ite	-10.6885
▁anti	-10.6892
▁partners	-10.6904
▁hated	-10.6909
▁supers	-10.692
▁giants	-10.6923
▁when	-10.6933
ual	-10.6937
▁yyou	-10.6942
ork	-10.6942
▁engines	-10.6948
▁ki	-10.6953
▁rob	-10.698
ew	-10.7026
▁pointing	-10.703
▁dreaming	-10.7054
▁shout	-10.7062
▁planes	-10.708
▁rep	-10.7082
▁comment	-10.7086
▁chick	-10.709
▁division	-10.7091
▁result	-10.7091
▁troll	-10.7091
cu	-10.7092
▁nazi	-10.7093
▁tool	-10.7096
▁feather	-10.7097
▁arrangement	-10.7097
▁antique	-10.7098
▁frog	-10.7098
▁pops	-10.7111
▁mc	-10.7117
▁sucker	-10.7127
▁americas	-10.7132
▁august	-10.7133
▁coin	-10.7137
▁eva	-10.7146
▁flights	-10.7151
tec	-10.7158
tical	-10.7171
▁arc	-10.7172
▁organ	-10.7172
▁ja	-10.7192
▁ti	-10.7192
▁oo	-10.7199
▁ste	-10.7201
▁mines	-10.7207
▁kills	-10.7208
ell	-10.7209
▁tick	-10.7214
itched	-10.7214
▁develop	-10.7215
ath	-10.7216
▁insult	-10.722
▁herr	-10.722
born	-10.7226
some	-10.7227
▁smith	-10.7227
▁impress	-10.723
▁spoil	-10.7232
▁obey	-10.7239
▁dan	-10.724
▁origin	-10.7241
▁palm	-10.7241
turn	-10.7243
▁restore	-10.7244
▁dreadful	-10.7251
five	-10.7255
▁function	-10.7259
▁memo	-10.7262
▁sill	-10.7263
▁champ	-10.7265
▁spots	-10.7265
▁mistakes	-10.7266
▁terror	-10.7266
▁broad	-10.7266
rk	-10.7266
▁puff	-10.7267
▁author	-10.7267
▁auction	-10.7267
▁extend	-10.7267
▁jinx	-10.7267
▁pencil	-10.7267
▁tremendous	-10.7267
▁aaron	-10.7267
▁absurd	-10.7267
▁apologise	-10.7267
▁appeal	-10.7267
▁arguing	-10.7267
▁australia	-10.7267
▁blimp	-10.7267
▁cafeteria	-10.7267
▁cathedral	-10.7267
▁claire	-10.7267
▁constant	-10.7267
▁council	-10.7267
▁custody	-10.7267
▁daffy	-10.7267
▁declan	-10.7267
▁dempsey	-10.7267
▁despair	-10.7267
▁destination	-10.7267
▁emotional	-10.7267
▁february	-10.7267
▁felipe	-10.7267
▁flint	-10.7267
▁forbidden	-10.7267
▁gleam	-10.7267
▁instinct	-10.7267
▁international	-10.7267
▁juvenile	-10.7267
▁kahmunrah	-10.7267
▁kananga	-10.7267
▁lollipop	-10.7267
▁marnie	-10.7267
▁matador	-10.7267
▁mcgonagall	-10.7267
▁mississippi	-10.7267
▁moneypenny	-10.7267
▁monique	-10.7267
▁moxie	-10.7267
▁opponent	-10.7267
▁pattern	-10.7267
▁pittsburgh	-10.7267
▁practicing	-10.7267
▁preparing	-10.7267
▁primitive	-10.7267
▁rainbow	-10.7267
▁refund	-10.7267
▁sarabi	-10.7267
▁serververse	-10.7267
▁similar	-10.7267
▁snarls	-10.7267
▁solution	-10.7267
▁stubborn	-10.7267
▁subtle	-10.7267
▁sussex	-10.7267
▁syndrome	-10.7267
▁victim	-10.7267
▁wardrobe	-10.7267
▁canyon	-10.7267
▁distinguished	-10.7267
▁gagging	-10.7267
▁grandparents	-10.7267
▁karl	-10.7267
▁molesley	-10.7267
▁fuzz	-10.7267
▁foyt	-10.7267
▁whitmore	-10.7267
▁blubbering	-10.7267
▁apology	-10.7267
▁facing	-10.7267
▁gracious	-10.7267
ghorn	-10.7267
▁genuine	-10.7267
▁snatch	-10.7267
▁pellet	-10.7267
▁murray	-10.7267
▁tragic	-10.7267
▁denied	-10.7267
▁houston	-10.7267
▁plague	-10.7267
▁proposition	-10.7267
▁whwhat	-10.7267
▁chores	-10.7267
▁babysitter	-10.7267
▁kirk	-10.7267
▁steak	-10.7267
▁grandmother	-10.7267
▁location	-10.7267
▁straw	-10.7267
▁vermin	-10.7267
▁puppet	-10.7267
▁festival	-10.7267
▁theory	-10.7267
▁coronation	-10.7268
▁stunt	-10.7268
▁identity	-10.7268
▁interfere	-10.7268
▁rebel	-10.7268
▁shelter	-10.7268
▁poem	-10.7268
▁mumbling	-10.7268
▁divine	-10.7268
▁helmet	-10.7268
▁reception	-10.7268
▁cardiff	-10.7268
▁aircraft	-10.7268
▁jerry	-10.7268
▁punk	-10.7268
▁bayard	-10.7268
▁gunshot	-10.7268
▁telegram	-10.7268
▁strategy	-10.7268
▁auto	-10.7268
▁fabulous	-10.7269
▁gym	-10.7269
▁lisa	-10.7269
▁favourite	-10.7269
▁starboard	-10.7269
▁employer	-10.7269
▁allowance	-10.727
▁violation	-10.727
▁mason	-10.727
▁vega	-10.727
▁echoes	-10.727
▁survival	-10.727
▁capable	-10.7271
▁distraction	-10.7271
▁pub	-10.7271
▁parade	-10.7271
▁grows	-10.7272
▁galv	-10.7272
▁weakness	-10.7272
▁steele	-10.7272
▁kwan	-10.7272
▁stow	-10.7272
▁bible	-10.7273
owee	-10.7273
▁sack	-10.7273
▁lazy	-10.7273
▁yearold	-10.7273
▁selected	-10.7273
▁ahhh	-10.7274
▁juan	-10.7274
▁magician	-10.7274
▁technically	-10.7275
▁gigantor	-10.7275
▁jibe	-10.7275
▁awesomeness	-10.7275
▁hitler	-10.7275
▁chat	-10.7276
while	-10.7277
▁darry	-10.7278
▁breed	-10.7278
▁carnotaurs	-10.7279
▁highway	-10.728
▁gaze	-10.7281
▁bunk	-10.7281
▁rumor	-10.7281
▁fleet	-10.7282
▁bigenders	-10.7282
▁aahh	-10.7284
▁replaced	-10.7287
▁madness	-10.7288
▁heroic	-10.729
▁burnt	-10.7291
res	-10.7292
▁required	-10.7292
▁tralalaaa	-10.7293
▁attracted	-10.7294
▁lean	-10.7294
▁kite	-10.7296
▁lobster	-10.7299
▁signor	-10.7304
▁blown	-10.7306
▁inn	-10.7309
▁removed	-10.731
▁adviser	-10.731
▁sets	-10.7312
▁abandoned	-10.7314
▁enc	-10.7318
▁crawling	-10.7319
▁rage	-10.7324
▁ruby	-10.7325
▁globe	-10.7331
▁citizens	-10.7338
▁consequences	-10.7339
▁elements	-10.7339
▁sucked	-10.734
▁sobs	-10.7344
ric	-10.7345
tory	-10.7346
▁atch	-10.7347
▁talented	-10.7348
▁cracking	-10.7353
▁banging	-10.7353
ik	-10.7354
ray	-10.7354
▁survived	-10.7356
▁cr	-10.7358
▁dates	-10.7362
▁sweater	-10.7367
▁smarter	-10.7368
▁tricky	-10.7371
▁debt	-10.7378
▁warmer	-10.738
▁rag	-10.7384
▁beau	-10.7387
▁rd	-10.7388
▁shorter	-10.7389
▁weirdo	-10.7398
rab	-10.74
▁servants	-10.74
▁bothered	-10.7405
▁commission	-10.7405
▁kicks	-10.7408
▁funds	-10.7423
ook	-10.7433
▁tools	-10.7441
▁arrangements	-10.7441
▁suckers	-10.7447
▁climbing	-10.7456
▁rate	-10.7458
bus	-10.7462
▁tap	-10.7475
▁successful	-10.7496
▁mayo	-10.7497
▁clouds	-10.7503
▁directions	-10.7503
▁gar	-10.7512
▁toes	-10.7519
▁files	-10.7521
▁experts	-10.7524
▁effects	-10.7524
▁safely	-10.7525
▁fooled	-10.7532
▁cutie	-10.7533
cus	-10.7539
itty	-10.7541
▁float	-10.7547
▁severe	-10.7549
▁cube	-10.7552
▁knocked	-10.7555
▁pushed	-10.7555
▁lass	-10.7561
▁autobots	-10.7565
▁drawer	-10.7566
lyn	-10.7578
▁packed	-10.7584
act	-10.7591
▁visiting	-10.7595
▁erie	-10.7596
▁spits	-10.7619
▁maria	-10.7631
▁fin	-10.7633
▁pin	-10.7636
▁slap	-10.7647
▁bills	-10.7654
▁dodge	-10.7658
rpal	-10.766
▁gra	-10.7662
▁nap	-10.7662
jous	-10.7672
▁boats	-10.7672
boo	-10.7696
▁psycho	-10.7701
ev	-10.7708
▁criminals	-10.771
▁films	-10.7712
▁sr	-10.7726
ome	-10.7726
ont	-10.7727
rate	-10.7728
▁fears	-10.7741
▁advance	-10.7744
▁nana	-10.7745
▁dolphins	-10.7752
▁lover	-10.7758
▁crystals	-10.7773
ada	-10.7795
▁troops	-10.7812
▁teams	-10.7813
▁decides	-10.7816
bs	-10.7817
well	-10.7826
iest	-10.7833
▁lessons	-10.7839
▁grease	-10.7846
▁sta	-10.7861
▁schools	-10.7876
▁formal	-10.7884
▁buckle	-10.7888
▁sol	-10.7899
▁por	-10.7899
▁systems	-10.7899
▁mon	-10.7905
▁ropes	-10.792
▁slam	-10.7927
▁div	-10.7937
▁lit	-10.7938
▁towns	-10.7939
▁raf	-10.797
ck	-10.7977
▁tan	-10.8004
▁devils	-10.8037
▁sal	-10.805
tor	-10.8051
▁trucks	-10.8068
▁idiots	-10.8068
ado	-10.8095
▁drives	-10.8097
▁una	-10.8143
▁fits	-10.8145
▁tri	-10.8148
▁sm	-10.8152
▁services	-10.8153
rid	-10.8155
ries	-10.8175
▁americans	-10.8177
▁incident	-10.818
▁vers	-10.8203
▁chickens	-10.8217
▁tra	-10.8224
des	-10.8241
▁walker	-10.8244
▁my	-10.8252
eth	-10.8261
▁leak	-10.8293
beat	-10.8294
pl	-10.8296
▁cosm	-10.8297
▁rattl	-10.8302
gged	-10.8303
▁groan	-10.8311
las	-10.8325
▁attacks	-10.8331
▁limb	-10.8333
▁klingon	-10.8338
▁trunk	-10.8338
▁heist	-10.834
▁spear	-10.8341
▁hostage	-10.8342
▁neighbor	-10.8346
▁passenger	-10.835
▁stable	-10.8353
▁oop	-10.8359
▁greeting	-10.8371
▁jacket	-10.8374
▁actor	-10.8374
▁farmer	-10.8388
▁sash	-10.8388
▁ban	-10.8394
table	-10.8395
▁affect	-10.8417
shed	-10.8423
▁assum	-10.8425
more	-10.8436
▁invent	-10.8446
▁vic	-10.8459
ata	-10.8461
▁prop	-10.8461
▁bargain	-10.8465
▁wink	-10.8471
▁possess	-10.8472
▁convert	-10.8475
▁explore	-10.8477
▁dragg	-10.8486
▁swor	-10.8489
jack	-10.849
▁replace	-10.8493
▁disguise	-10.8494
▁guessed	-10.8496
town	-10.8496
▁compare	-10.8496
four	-10.85
tail	-10.85
▁extreme	-10.8502
▁ignore	-10.8505
▁garde	-10.8505
▁slight	-10.8505
▁reserve	-10.8506
▁spark	-10.8509
atron	-10.8512
▁froze	-10.8512
▁toot	-10.8516
jon	-10.8516
▁loyal	-10.8516
mbus	-10.8516
▁wretch	-10.8517
▁appropriate	-10.8517
▁blossom	-10.8517
▁previous	-10.8517
▁sylv	-10.8517
▁academy	-10.8517
▁amateur	-10.8517
▁antarctic	-10.8517
▁anxious	-10.8517
▁beuler	-10.8517
▁blimey	-10.8517
▁bruton	-10.8517
▁ceiling	-10.8517
▁ceremony	-10.8517
▁channel	-10.8517
▁christopher	-10.8517
▁cleveland	-10.8517
▁concept	-10.8517
▁culdesac	-10.8517
▁cynthia	-10.8517
▁dynamite	-10.8517
▁empire	-10.8517
▁entrust	-10.8517
▁fountain	-10.8517
▁fraud	-10.8517
▁fundamental	-10.8517
▁gavin	-10.8517
▁horizon	-10.8517
▁hurrah	-10.8517
▁inspiration	-10.8517
▁japanese	-10.8517
▁judith	-10.8517
▁lefferts	-10.8517
▁limousine	-10.8517
▁medieval	-10.8517
▁miniature	-10.8517
▁miyaji	-10.8517
▁mound	-10.8517
▁nuhuh	-10.8517
▁occupation	-10.8517
▁octopi	-10.8517
▁oldfashioned	-10.8517
▁optimus	-10.8517
▁patterson	-10.8517
▁persuade	-10.8517
▁presscott	-10.8517
▁privilege	-10.8517
▁pursuit	-10.8517
▁rabid	-10.8517
▁reptile	-10.8517
▁research	-10.8517
▁revving	-10.8517
▁rourke	-10.8517
▁rubbish	-10.8517
▁scientific	-10.8517
▁sought	-10.8517
▁struggle	-10.8517
▁swift	-10.8517
▁unfair	-10.8517
▁verdict	-10.8517
▁widow	-10.8517
▁adele	-10.8517
▁blaring	-10.8517
▁canoe	-10.8517
▁eema	-10.8517
▁farewell	-10.8517
▁fifteen	-10.8517
▁honeymoon	-10.8517
▁horror	-10.8517
▁jersey	-10.8517
▁lisbon	-10.8517
▁mistress	-10.8517
▁raising	-10.8517
▁sylvester	-10.8517
▁benefit	-10.8517
▁persad	-10.8517
▁tropic	-10.8517
▁starving	-10.8517
▁whining	-10.8517
▁yacht	-10.8517
▁gertie	-10.8517
▁studio	-10.8517
▁toad	-10.8517
▁yeager	-10.8517
▁cue	-10.8517
▁instance	-10.8517
▁kennedy	-10.8517
▁lottery	-10.8517
▁ribbon	-10.8517
▁bullshit	-10.8517
▁compete	-10.8517
▁freezing	-10.8517
▁chicago	-10.8517
▁dizzy	-10.8517
▁eliot	-10.8517
▁cooperate	-10.8517
▁butterflies	-10.8517
▁hysterical	-10.8517
▁undone	-10.8517
▁worid	-10.8517
▁bicycle	-10.8517
▁mirage	-10.8517
▁satisfaction	-10.8517
▁internet	-10.8517
▁funeral	-10.8517
▁soviet	-10.8517
▁microphone	-10.8517
▁authorities	-10.8517
▁atlas	-10.8517
▁civilian	-10.8517
▁snorts	-10.8517
▁elementary	-10.8517
▁flipping	-10.8517
▁commence	-10.8517
▁octopussy	-10.8517
▁kidnapping	-10.8517
▁cloak	-10.8517
▁zebra	-10.8517
▁sailboat	-10.8517
▁barrow	-10.8517
▁dandy	-10.8517
▁sledge	-10.8518
▁violence	-10.8518
▁blade	-10.8518
▁blondie	-10.8518
▁rood	-10.8518
▁intense	-10.8518
▁connection	-10.8518
▁rodent	-10.8518
▁necessarily	-10.8518
▁ifyou	-10.8518
▁rubber	-10.8518
▁donald	-10.8518
▁mature	-10.8518
▁june	-10.8518
▁outrageous	-10.8518
▁veeko	-10.8518
▁adam	-10.8518
▁blend	-10.8518
▁agency	-10.8518
▁exchange	-10.8518
▁feast	-10.8518
▁cabinet	-10.8518
▁drain	-10.8518
▁thread	-10.8518
▁skinny	-10.8518
▁existence	-10.8519
▁atlantic	-10.8519
▁circuit	-10.8519
▁dimension	-10.8519
▁petrified	-10.8519
▁satellite	-10.8519
▁jalape	-10.8519
▁overboard	-10.8519
▁stray	-10.8519
▁championship	-10.8519
▁shaking	-10.8519
▁cocoa	-10.8519
▁irish	-10.8519
▁faun	-10.8519
▁porch	-10.8519
▁specific	-10.8519
▁rail	-10.8519
▁tooth	-10.8519
▁loneliness	-10.8519
▁curry	-10.852
▁adore	-10.852
▁herb	-10.852
▁minus	-10.852
▁accidentally	-10.852
ative	-10.852
▁owens	-10.8521
▁oui	-10.8521
▁philosophy	-10.8521
▁barbecue	-10.8521
▁iso	-10.8522
▁confession	-10.8522
▁tarla	-10.8522
▁piggy	-10.8522
▁basement	-10.8522
ming	-10.8523
▁cork	-10.8523
▁happier	-10.8524
▁scarf	-10.8524
▁captured	-10.8525
▁solo	-10.8525
▁puke	-10.8525
▁pail	-10.8525
▁boost	-10.8525
▁coverage	-10.8526
▁coos	-10.8527
▁growth	-10.8527
▁rumi	-10.8527
▁puny	-10.8528
istic	-10.8528
▁federa	-10.8528
▁sour	-10.8528
▁grey	-10.8528
▁banished	-10.8529
▁gregg	-10.853
▁fearless	-10.853
▁hoof	-10.853
▁described	-10.8531
▁forgiveness	-10.8532
▁uhuh	-10.8532
▁robbery	-10.8532
▁fang	-10.8532
▁meowing	-10.8533
▁squeaking	-10.8533
▁mayday	-10.8533
▁booth	-10.8535
▁daylight	-10.8535
▁teen	-10.8536
▁role	-10.8536
▁bolt	-10.8536
▁improved	-10.8536
▁labor	-10.8537
▁connected	-10.8537
▁studie	-10.854
▁bingo	-10.8542
▁unveiled	-10.8543
▁curly	-10.8543
▁protection	-10.8545
▁begging	-10.8547
ney	-10.8548
▁hopeless	-10.855
▁reasonable	-10.855
▁threatening	-10.8551
▁rosa	-10.8552
▁pyramids	-10.8553
▁mammals	-10.8553
▁andie	-10.8554
▁thee	-10.8555
▁measured	-10.8556
▁stayne	-10.8557
▁snickers	-10.8557
▁roy	-10.8559
▁esp	-10.8563
▁blonde	-10.8565
▁op	-10.8565
▁mustard	-10.8565
▁alan	-10.8566
▁awarded	-10.8567
▁boxes	-10.8567
▁thrown	-10.8572
▁highp	-10.8574
▁union	-10.8578
▁suffered	-10.8581
▁moral	-10.8582
▁driven	-10.8582
▁crater	-10.8584
▁electronic	-10.8584
▁choices	-10.8584
▁excitedly	-10.8584
▁comb	-10.8588
▁plug	-10.8589
▁sneaking	-10.8595
▁gloves	-10.8597
▁goblins	-10.8599
▁crocodiles	-10.8599
▁princesses	-10.8603
▁lance	-10.8604
owned	-10.8608
▁assumed	-10.8609
▁honesty	-10.8611
▁scotty	-10.8617
▁candles	-10.862
▁prey	-10.8621
▁maniac	-10.8622
▁jews	-10.8622
▁studying	-10.8626
▁managed	-10.8628
▁cal	-10.8639
▁searched	-10.8642
▁granted	-10.8642
▁muscles	-10.8646
▁socks	-10.8646
▁greasers	-10.8649
▁rileys	-10.865
▁painting	-10.8651
▁hardest	-10.8654
▁sailed	-10.8658
▁dame	-10.8663
▁companions	-10.8669
▁loss	-10.8675
▁sew	-10.8678
▁lid	-10.8693
▁farting	-10.8693
▁actors	-10.8699
tte	-10.8701
▁whiz	-10.8711
▁locker	-10.8716
▁annu	-10.8723
▁worms	-10.8739
▁feeding	-10.8745
ory	-10.8749
▁lighter	-10.8749
▁shields	-10.8763
pan	-10.8766
▁rustl	-10.8771
urg	-10.8775
▁ay	-10.8777
▁risking	-10.8783
▁sau	-10.8791
▁belonged	-10.8796
▁ko	-10.8807
▁smelly	-10.8814
ties	-10.8817
▁mega	-10.8824
▁plates	-10.8834
▁williams	-10.8834
▁chaps	-10.8834
▁holdin	-10.8836
▁nails	-10.8837
▁attacking	-10.8839
▁gala	-10.8839
▁relaxing	-10.8841
▁cra	-10.8845
▁answered	-10.8855
mi	-10.8855
▁roots	-10.8856
▁adults	-10.8858
▁cho	-10.8858
▁priests	-10.8881
▁peanuts	-10.8881
▁yards	-10.8881
▁radios	-10.8888
▁ducks	-10.8894
▁messing	-10.8896
tal	-10.8897
▁backup	-10.8897
▁wrappe	-10.8908
▁pots	-10.8911
▁nerves	-10.8929
▁guineas	-10.8929
▁sources	-10.8929
▁poll	-10.893
▁crossed	-10.8932
▁underestimate	-10.8936
▁lovers	-10.8939
ill	-10.8956
▁ward	-10.8958
han	-10.8958
▁losers	-10.8965
▁bees	-10.8975
cee	-10.8981
▁tours	-10.9
▁ir	-10.9006
▁sn	-10.9006
air	-10.9011
▁badges	-10.9025
▁sticks	-10.9033
▁weasleys	-10.9048
▁fund	-10.9048
▁wheels	-10.9052
tors	-10.9056
ooh	-10.9068
▁gardens	-10.907
▁paws	-10.9073
▁os	-10.9075
▁bu	-10.9077
ock	-10.9077
my	-10.9098
▁recording	-10.9119
cation	-10.9132
light	-10.914
▁costs	-10.9145
▁rac	-10.9148
▁boos	-10.9168
▁regrets	-10.9174
▁crowded	-10.9179
▁pers	-10.9183
cap	-10.9186
▁odds	-10.9189
ten	-10.9205
rag	-10.9253
tak	-10.9304
▁rem	-10.9308
▁birthdays	-10.9315
▁sl	-10.9316
▁pets	-10.9323
▁scars	-10.9327
▁tralala	-10.9329
▁rippe	-10.9329
▁computers	-10.9337
▁que	-10.9367
tric	-10.9373
▁wa	-10.941
▁stones	-10.9411
eyed	-10.9417
▁cre	-10.942
▁host	-10.9427
▁beats	-10.9437
▁mix	-10.9452
▁oan	-10.9458
▁daddys	-10.9496
▁cousins	-10.9508
▁wished	-10.9509
▁amuse	-10.9517
▁keeper	-10.9527
▁mommys	-10.9557
▁bush	-10.957
▁torture	-10.9576
▁fights	-10.9592
▁sings	-10.9602
▁likely	-10.9606
▁stations	-10.9608
▁moo	-10.9622
▁ages	-10.9627
▁mill	-10.9653
▁sk	-10.9668
▁brew	-10.967
▁browns	-10.9678
▁unh	-10.9684
pu	-10.9685
▁mend	-10.9692
▁snaps	-10.9707
wn	-10.9729
▁magnet	-10.9736
▁strain	-10.9738
▁bore	-10.9749
▁nation	-10.9755
▁cricket	-10.9762
▁principle	-10.9762
▁reindeer	-10.9762
▁purr	-10.9762
▁meteor	-10.9766
cul	-10.9769
▁sheet	-10.977
▁companion	-10.9773
▁detail	-10.9773
▁remark	-10.9773
ette	-10.9774
▁bubble	-10.9776
▁scully	-10.9777
▁gruber	-10.9778
▁servant	-10.9781
hoo	-10.9783
jimmy	-10.9785
▁complaint	-10.9787
eries	-10.9792
▁ace	-10.9799
ability	-10.9802
▁visitor	-10.9804
let	-10.9821
his	-10.9824
sized	-10.9827
ncy	-10.9831
▁skip	-10.9836
▁term	-10.9836
▁olive	-10.9845
▁ooo	-10.9846
▁odies	-10.9855
was	-10.9858
night	-10.9863
▁partys	-10.9864
mer	-10.9865
break	-10.9885
bell	-10.9891
▁zoo	-10.9891
ates	-10.9893
▁quack	-10.9896
▁burst	-10.9898
▁retreat	-10.9899
▁wo	-10.99
▁attract	-10.9907
▁stress	-10.9907
▁accomplish	-10.9908
▁unleash	-10.9908
right	-10.9916
know	-10.9917
field	-10.9918
point	-10.9919
train	-10.9919
▁flood	-10.9922
proof	-10.9922
▁rum	-10.9923
letting	-10.9924
year	-10.9924
box	-10.9925
load	-10.9927
▁hears	-10.9928
▁vote	-10.9929
▁custom	-10.993
▁buff	-10.993
face	-10.9932
gy	-10.9932
▁brook	-10.9933
▁transport	-10.9934
inlaw	-10.9935
▁voyage	-10.9939
▁torch	-10.9939
▁branch	-10.9939
▁potato	-10.994
▁complex	-10.9942
▁defect	-10.9943
▁react	-10.9943
▁commit	-10.9943
▁brutal	-10.9944
▁spar	-10.9945
▁adjust	-10.9945
▁kitch	-10.9945
▁establish	-10.9946
▁revolution	-10.9946
▁afterwards	-10.9946
▁akela	-10.9946
▁ambassador	-10.9946
▁amulet	-10.9946
▁anderson	-10.9946
▁ashore	-10.9946
▁assassin	-10.9946
▁autograph	-10.9946
▁babbling	-10.9946
▁beetroot	-10.9946
▁belief	-10.9946
▁blares	-10.9946
▁buchanan	-10.9946
▁casserole	-10.9946
▁celebrity	-10.9946
▁ceremonies	-10.9946
▁chancho	-10.9946
▁coincidence	-10.9946
▁concert	-10.9946
▁conscience	-10.9946
▁counsel	-10.9946
▁couriers	-10.9946
▁crikey	-10.9946
▁culture	-10.9946
▁demonstration	-10.9946
▁dinosaur	-10.9946
▁empress	-10.9946
▁esteem	-10.9946
▁executive	-10.9946
▁exquisite	-10.9946
▁eyelashes	-10.9946
▁fireflies	-10.9946
▁formuler	-10.9946
▁frisbee	-10.9946
▁gulch	-10.9946
▁haircut	-10.9946
▁handicap	-10.9946
▁hanukkah	-10.9946
▁heinous	-10.9946
▁helicopter	-10.9946
▁hyatt	-10.9946
▁incredibly	-10.9946
▁jeanpierre	-10.9946
▁jewellery	-10.9946
▁jordan	-10.9946
▁ketchup	-10.9946
▁kreese	-10.9946
▁kumiko	-10.9946
▁lamlam	-10.9946
▁lemuel	-10.9946
▁lunatic	-10.9946
▁mcallister	-10.9946
▁mercury	-10.9946
▁mexican	-10.9946
▁mexico	-10.9946
▁michigan	-10.9946
▁minnesota	-10.9946
▁motel	-10.9946
▁motorcycle	-10.9946
▁nermal	-10.9946
▁obliged	-10.9946
▁obtain	-10.9946
▁omelet	-10.9946
▁orlov	-10.9946
▁pajamas	-10.9946
▁parseltongue	-10.9946
▁pennsylvania	-10.9946
▁phase	-10.9946
▁pixum	-10.9946
▁pledge	-10.9946
▁pleureur	-10.9946
▁portrait	-10.9946
▁predator	-10.9946
▁recognise	-10.9946
▁satchel	-10.9946
▁slingshot	-10.9946
▁slurps	-10.9946
▁spectacular	-10.9946
▁survey	-10.9946
▁terrifying	-10.9946
▁texas	-10.9946
▁theatre	-10.9946
▁translation	-10.9946
▁treason	-10.9946
▁trophy	-10.9946
▁twelve	-10.9946
▁twilight	-10.9946
▁unexpected	-10.9946
▁unicorn	-10.9946
▁unpack	-10.9946
▁virtue	-10.9946
▁voldemort	-10.9946
▁walden	-10.9946
▁xhosa	-10.9946
▁yoohoo	-10.9946
▁chancellor	-10.9946
▁clinking	-10.9946
▁descend	-10.9946
▁gossip	-10.9946
▁howre	-10.9946
▁imperial	-10.9946
▁instructions	-10.9946
▁lease	-10.9946
▁reich	-10.9946
▁shortcut	-10.9946
▁stranded	-10.9946
▁titus	-10.9946
▁wiggly	-10.9946
▁continent	-10.9946
▁crescen	-10.9946
▁glum	-10.9946
▁leaf	-10.9946
▁muffin	-10.9946
▁sascha	-10.9946
▁scandal	-10.9946
▁balm	-10.9946
▁broomstick	-10.9946
▁menace	-10.9946
▁entrance	-10.9946
▁preston	-10.9946
▁employee	-10.9946
▁surrender	-10.9946
▁turkey	-10.9946
▁glance	-10.9946
▁streak	-10.9946
▁llama	-10.9946
▁charities	-10.9946
▁feature	-10.9946
▁matrimon	-10.9946
▁mudblood	-10.9946
▁oyster	-10.9946
▁gogol	-10.9946
▁spike	-10.9946
▁avenue	-10.9946
▁skitch	-10.9946
▁violent	-10.9946
▁negative	-10.9946
▁sunrise	-10.9946
▁promotion	-10.9946
▁pinata	-10.9946
▁salmon	-10.9946
▁hostile	-10.9946
▁classroom	-10.9946
▁symp	-10.9946
▁whys	-10.9946
▁moonbase	-10.9946
▁institution	-10.9946
▁necklace	-10.9946
▁regina	-10.9946
▁dumpster	-10.9946
▁gambling	-10.9946
▁dentist	-10.9946
▁gallery	-10.9946
▁ingredient	-10.9946
▁whipped	-10.9946
▁baloo	-10.9946
▁clipping	-10.9946
▁pluck	-10.9946
▁whew	-10.9946
▁boca	-10.9946
▁broadway	-10.9946
▁accent	-10.9946
▁oates	-10.9947
▁phew	-10.9947
▁sloth	-10.9947
▁atmosphere	-10.9947
▁brute	-10.9947
▁courtney	-10.9947
▁crabbe	-10.9947
▁fisherman	-10.9947
▁gulf	-10.9947
▁hesitate	-10.9947
▁overnight	-10.9947
▁icy	-10.9947
▁radiation	-10.9947
▁jewish	-10.9947
▁snout	-10.9947
▁upside	-10.9947
▁rita	-10.9947
▁firing	-10.9947
▁shane	-10.9947
▁catherine	-10.9948
▁dignity	-10.9948
▁thirty	-10.9948
▁chapel	-10.9948
▁rug	-10.9948
▁transmission	-10.9948
▁opto	-10.9948
▁tractor	-10.9948
▁hush	-10.9948
▁reaction	-10.9948
▁myth	-10.9948
▁sensible	-10.9949
▁patron	-10.9949
▁possession	-10.9949
▁fregleyl	-10.9949
▁western	-10.9949
▁countdown	-10.9949
▁anchor	-10.9949
▁axel	-10.9949
▁modest	-10.9949
▁yum	-10.9949
arius	-10.9949
▁tramp	-10.9949
▁yearbook	-10.995
▁brandt	-10.995
▁medu	-10.995
▁grah	-10.995
▁jaw	-10.995
▁creation	-10.995
▁soil	-10.9951
key	-10.9951
▁rebuild	-10.9951
▁spotted	-10.9951
▁temperature	-10.9951
▁biggie	-10.9951
nez	-10.9951
▁looney	-10.9951
▁lords	-10.9951
▁related	-10.9951
▁scarce	-10.9952
▁snappy	-10.9952
▁maga	-10.9952
▁fashionable	-10.9953
▁puddle	-10.9953
▁wallet	-10.9953
▁injury	-10.9953
▁follered	-10.9954
▁offended	-10.9954
▁occurred	-10.9954
▁vent	-10.9954
intensifie	-10.9954
▁doggy	-10.9956
▁mockingly	-10.9956
▁version	-10.9956
▁pokee	-10.9956
▁contrary	-10.9957
▁brooke	-10.9958
▁pem	-10.9959
hiti	-10.9959
▁hideous	-10.9959
▁kei	-10.996
▁atta	-10.9962
▁wolfie	-10.9963
▁cia	-10.9963
▁slightly	-10.9963
▁crunching	-10.9964
▁bravest	-10.9964
▁revealed	-10.9965
▁oogie	-10.9965
▁parish	-10.9969
▁compared	-10.9972
▁inject	-10.9974
▁hooting	-10.9975
▁melon	-10.9975
▁betrayed	-10.9975
roni	-10.9977
▁bleeding	-10.9978
▁inch	-10.9978
▁barry	-10.9979
▁solved	-10.9979
▁sweetness	-10.998
▁endless	-10.9981
▁positively	-10.9982
▁tender	-10.9982
▁bold	-10.9983
▁businessman	-10.9983
▁foe	-10.9984
▁inventor	-10.9985
▁spine	-10.9985
▁blinking	-10.9985
▁rusty	-10.9986
▁andy	-10.9986
▁possessed	-10.9986
▁hawks	-10.9987
▁awaits	-10.9987
▁vultures	-10.9987
▁beaten	-10.9987
▁mistaken	-10.999
▁spoiled	-10.9992
▁shovel	-10.9993
▁provided	-10.9995
▁dresses	-10.9995
▁naturally	-11
▁leaking	-11
thats	-11.0002
▁dye	-11.0002
▁swallowed	-11.0003
▁wrecked	-11.0003
▁optic	-11.0007
▁dow	-11.0007
bas	-11.0008
▁laser	-11.0009
▁exceptional	-11.0009
▁scan	-11.0012
▁oompaloompas	-11.0014
▁freaky	-11.0015
headed	-11.0017
▁judged	-11.0022
▁sinking	-11.0023
▁howdy	-11.0023
▁murdered	-11.0025
▁shocked	-11.0025
▁melting	-11.0025
▁fasten	-11.0026
nda	-11.0027
▁passes	-11.0028
▁healing	-11.0029
▁taz	-11.0029
▁earned	-11.003
▁dane	-11.0031
▁twisted	-11.0032
▁wag	-11.0035
▁agee	-11.0039
▁pills	-11.0039
▁gags	-11.0055
▁walks	-11.0055
▁completed	-11.0058
▁brownies	-11.0059
▁gale	-11.0062
▁simpler	-11.0067
▁released	-11.0068
▁pond	-11.0069
▁bowling	-11.0072
▁chester	-11.0074
▁woh	-11.0082
anging	-11.0085
ink	-11.0087
▁hood	-11.0089
▁intended	-11.009
▁destroyer	-11.0092
▁selfdestruct	-11.0093
▁mingotts	-11.0095
▁termites	-11.0095
▁washed	-11.0097
inco	-11.0102
▁weed	-11.0106
▁focused	-11.0107
▁armed	-11.011
▁nun	-11.0111
▁suggested	-11.0118
aaa	-11.0122
▁remarks	-11.0123
▁voil	-11.0123
▁complaints	-11.0125
▁hee	-11.0126
nce	-11.0132
▁climbed	-11.0135
iness	-11.0155
▁slams	-11.0159
▁reminded	-11.016
pot	-11.0161
inch	-11.0162
▁crowned	-11.0167
▁county	-11.0171
▁nazis	-11.0177
▁entering	-11.0182
▁watches	-11.0188
▁gathering	-11.019
▁dashing	-11.019
cence	-11.0194
▁cooked	-11.0194
▁wizards	-11.0199
▁hunted	-11.0201
▁clowns	-11.0205
▁medals	-11.0205
bon	-11.0207
ulu	-11.022
▁agreeing	-11.0227
dos	-11.0229
▁scenes	-11.0232
▁ag	-11.0243
▁fianc	-11.0247
▁naive	-11.0251
ito	-11.0258
▁lawyers	-11.026
▁visited	-11.0273
▁ditch	-11.0274
▁rolled	-11.0277
▁los	-11.0283
▁bra	-11.0293
▁bounc	-11.0308
▁playin	-11.0309
clap	-11.0312
vo	-11.0314
▁pigeons	-11.0315
▁holds	-11.0339
hi	-11.0343
▁robots	-11.0343
▁bells	-11.0345
▁reaching	-11.0346
▁closely	-11.0351
erous	-11.0359
▁jane	-11.0367
▁site	-11.0387
▁acts	-11.0387
▁welland	-11.0396
▁buckets	-11.04
ere	-11.0408
▁timing	-11.0417
▁can	-11.0419
iff	-11.0453
▁miracles	-11.0454
▁brad	-11.0456
▁charms	-11.0457
▁bombs	-11.0459
tore	-11.046
▁mars	-11.0465
ger	-11.0477
▁beautifully	-11.048
▁las	-11.0497
ix	-11.0503
▁chefs	-11.051
▁standards	-11.051
▁packing	-11.0511
▁pays	-11.0512
stand	-11.0514
▁cleaning	-11.0526
▁purchase	-11.0527
▁sticking	-11.0563
▁rogers	-11.0566
▁wade	-11.0573
▁sto	-11.059
▁actions	-11.0594
▁sales	-11.0598
▁mor	-11.0609
▁apartments	-11.0622
▁adventures	-11.0626
▁wh	-11.0634
ello	-11.0638
eggie	-11.066
tit	-11.0662
▁pea	-11.067
▁accounts	-11.0678
▁astronauts	-11.0678
otic	-11.0678
▁cameras	-11.0678
▁sprinkle	-11.0684
▁helpa	-11.0684
▁bros	-11.0685
▁pose	-11.0701
▁ze	-11.0715
oul	-11.0726
▁barr	-11.0728
ft	-11.0731
▁tigers	-11.0734
▁hay	-11.0756
ind	-11.0768
▁sails	-11.0769
▁anyways	-11.0782
▁serves	-11.0792
▁nin	-11.0801
▁qua	-11.0813
▁opinions	-11.0819
sure	-11.0822
▁waiter	-11.0824
▁troubles	-11.0837
▁digit	-11.0837
ines	-11.0841
▁spa	-11.0846
itious	-11.0861
ple	-11.0867
▁leaders	-11.0872
▁rockets	-11.0878
▁elm	-11.088
▁not	-11.089
▁cared	-11.09
ache	-11.0921
▁ook	-11.093
▁winters	-11.0933
▁fe	-11.0938
▁yiyou	-11.0941
▁maps	-11.0941
gar	-11.0955
▁ogres	-11.0962
mit	-11.0973
udge	-11.0984
ified	-11.0985
▁nip	-11.0988
▁enthusias	-11.0998
▁redeem	-11.0999
▁stores	-11.1053
▁mal	-11.1055
alie	-11.1059
▁tripp	-11.1059
▁sayin	-11.1067
▁dim	-11.1071
rusty	-11.1073
rie	-11.1086
▁views	-11.1102
▁battles	-11.1105
con	-11.1117
▁stan	-11.1138
▁sides	-11.1145
▁imitat	-11.1151
▁sc	-11.1151
▁lifes	-11.1157
pi	-11.1161
▁lalala	-11.1181
▁tails	-11.1183
▁sleeps	-11.1196
▁conve	-11.1199
iege	-11.1206
ats	-11.1208
lly	-11.1213
▁sniff	-11.1216
net	-11.1219
▁stirr	-11.1229
▁ble	-11.1232
▁scram	-11.1247
▁locks	-11.1248
▁cos	-11.1249
▁rust	-11.126
pit	-11.1268
▁lever	-11.1271
▁clearing	-11.1286
▁tar	-11.131
hel	-11.1322
▁gall	-11.1326
rg	-11.1366
ren	-11.1395
operating	-11.1398
▁shriek	-11.1402
ight	-11.1419
▁mandrake	-11.1428
▁mermaid	-11.1428
▁thug	-11.1428
▁towel	-11.1429
▁arrow	-11.1433
▁muggle	-11.1434
▁sneeze	-11.1434
▁einstein	-11.1436
▁option	-11.1436
▁mingott	-11.1438
▁termite	-11.1438
▁era	-11.1438
▁whoop	-11.1439
▁affection	-11.1439
▁muscle	-11.144
▁scientist	-11.1442
▁stutter	-11.1443
▁orphan	-11.1444
▁sock	-11.1448
▁scoff	-11.1449
▁orchestra	-11.1449
▁beside	-11.1449
▁rank	-11.1451
▁parent	-11.1452
sky	-11.1452
▁alien	-11.1452
▁missile	-11.1455
▁baa	-11.1458
▁greaser	-11.1459
▁thrust	-11.1463
▁transfer	-11.1479
▁ken	-11.148
▁seventy	-11.1487
leys	-11.1495
▁promises	-11.1497
ux	-11.1497
port	-11.1498
cies	-11.1505
▁easter	-11.1507
▁hahahaha	-11.1514
▁lung	-11.1516
▁entertain	-11.1525
▁embarrass	-11.1528
pal	-11.154
▁worship	-11.1543
lick	-11.1545
wind	-11.1551
▁refresh	-11.1559
▁shrink	-11.156
▁devastat	-11.1561
ounding	-11.1568
▁chirp	-11.1568
▁blink	-11.1568
guard	-11.1569
▁mourn	-11.1571
▁retro	-11.1571
▁threaten	-11.1571
▁install	-11.1576
▁unveil	-11.1578
▁approach	-11.1579
wife	-11.1579
read	-11.1579
▁mur	-11.1581
▁profession	-11.1582
▁owes	-11.1582
▁betray	-11.1583
flavored	-11.1585
mark	-11.1585
bird	-11.1585
dress	-11.1586
villain	-11.1587
▁arrange	-11.1589
▁divide	-11.1589
▁monarch	-11.159
▁excellenc	-11.1591
▁improve	-11.1591
▁wars	-11.1592
▁stead	-11.1593
▁vanish	-11.1593
▁energ	-11.1594
life	-11.1594
▁instant	-11.1596
▁mode	-11.1597
suit	-11.1597
▁immediate	-11.1598
▁tink	-11.1598
hood	-11.1599
▁jib	-11.16
▁surf	-11.16
▁flip	-11.1601
▁intensi	-11.1602
▁pla	-11.1602
teen	-11.1604
▁kil	-11.1605
▁stamp	-11.1606
hole	-11.1609
▁mmhm	-11.1609
▁adopt	-11.1609
▁reflect	-11.161
▁automat	-11.161
▁invest	-11.161
▁outrage	-11.1611
ization	-11.1611
▁urge	-11.1612
▁todd	-11.1612
▁lilliput	-11.1612
arnac	-11.1612
structure	-11.1612
▁acquainted	-11.1612
▁administration	-11.1612
▁akhiya	-11.1612
▁alvarez	-11.1612
▁amelia	-11.1612
▁amundsen	-11.1612
▁analysis	-11.1612
▁anniversary	-11.1612
▁apologies	-11.1612
▁appease	-11.1612
▁arrogant	-11.1612
▁assault	-11.1612
▁bachelor	-11.1612
▁bandersnatch	-11.1612
▁banzai	-11.1612
▁basilisk	-11.1612
▁baxter	-11.1612
▁behaviour	-11.1612
▁bernadette	-11.1612
▁blueberry	-11.1612
▁bubby	-11.1612
▁buffalo	-11.1612
▁cabbage	-11.1612
▁catarina	-11.1612
▁caterpillar	-11.1612
▁caution	-11.1612
▁celebrating	-11.1612
▁chunky	-11.1612
▁clumsy	-11.1612
▁corrado	-11.1612
▁cuisine	-11.1612
▁curiosity	-11.1612
▁disagree	-11.1612
▁disrespect	-11.1612
▁district	-11.1612
▁dregmorr	-11.1612
▁duarto	-11.1612
▁dwarf	-11.1612
▁earhart	-11.1612
▁eleanor	-11.1612
▁entitled	-11.1612
▁fanfare	-11.1612
▁fawkes	-11.1612
▁fomard	-11.1612
▁frannie	-11.1612
▁frozone	-11.1612
▁funbucket	-11.1612
▁garrison	-11.1612
▁gratitude	-11.1612
▁gunpowder	-11.1612
▁hallelujah	-11.1612
▁incrediboy	-11.1612
▁infant	-11.1612
▁initiating	-11.1612
▁insignificant	-11.1612
▁intelligent	-11.1612
▁intriguing	-11.1612
▁jamaica	-11.1612
▁kozlova	-11.1612
▁lacrosse	-11.1612
▁leopard	-11.1612
▁livres	-11.1612
▁lullaby	-11.1612
▁marquis	-11.1612
▁meemaw	-11.1612
▁messenger	-11.1612
▁miniaturization	-11.1612
▁mumbai	-11.1612
▁nefario	-11.1612
▁neglect	-11.1612
▁nephew	-11.1612
▁neutral	-11.1612
▁northuldra	-11.1612
▁overdue	-11.1612
▁paperwork	-11.1612
▁pastuzo	-11.1612
▁pedestrian	-11.1612
▁pendelton	-11.1612
▁perimeter	-11.1612
▁perrault	-11.1612
▁pilgrim	-11.1612
▁possibilities	-11.1612
▁pratt	-11.1612
▁prevent	-11.1612
▁purple	-11.1612
▁raven	-11.1612
▁reconsider	-11.1612
▁refrigerator	-11.1612
▁review	-11.1612
▁scrimshaw	-11.1612
▁scusa	-11.1612
▁shackleton	-11.1612
▁shepherd	-11.1612
▁smithsonian	-11.1612
▁sodapop	-11.1612
▁sophisticated	-11.1612
▁sprout	-11.1612
▁squish	-11.1612
▁stunning	-11.1612
▁sunglasses	-11.1612
▁superduper	-11.1612
▁supplies	-11.1612
▁tangier	-11.1612
▁tempos	-11.1612
▁theodore	-11.1612
▁therapist	-11.1612
▁therapy	-11.1612
▁tiffany	-11.1612
▁typical	-11.1612
▁uncomfortable	-11.1612
▁unpleasant	-11.1612
▁vernon	-11.1612
▁virgil	-11.1612
▁vulgar	-11.1612
▁wealth	-11.1612
▁whiskey	-11.1612
▁wigasus	-11.1612
▁wimp	-11.1612
▁withdraw	-11.1612
▁alpha	-11.1612
▁calculations	-11.1612
▁epic	-11.1612
▁info	-11.1612
▁korman	-11.1612
▁liquid	-11.1612
▁polish	-11.1612
▁senator	-11.1612
▁anyhow	-11.1612
▁boston	-11.1612
▁emotions	-11.1612
▁entry	-11.1612
▁harmony	-11.1612
▁hyah	-11.1612
▁igoe	-11.1612
▁strict	-11.1612
▁cardinal	-11.1612
▁cozy	-11.1612
▁gann	-11.1612
▁resembl	-11.1612
▁sorcer	-11.1612
▁terrified	-11.1612
▁snug	-11.1612
▁carolina	-11.1612
▁davis	-11.1612
▁flunk	-11.1612
▁measuring	-11.1612
▁treves	-11.1612
▁cement	-11.1612
▁courtesy	-11.1612
▁grumbling	-11.1612
▁internal	-11.1612
▁spinning	-11.1612
▁mongolia	-11.1612
▁tennis	-11.1612
▁naughty	-11.1612
▁rehearse	-11.1612
wwait	-11.1612
▁moscow	-11.1612
▁scholarship	-11.1612
▁ignorant	-11.1612
scope	-11.1612
▁arrey	-11.1612
▁petrox	-11.1612
▁expelled	-11.1612
▁bozo	-11.1612
▁bullseye	-11.1612
▁goddess	-11.1612
▁supposing	-11.1612
▁tucson	-11.1612
▁prosper	-11.1612
▁attaboy	-11.1613
▁interference	-11.1613
▁update	-11.1613
▁lovebirds	-11.1613
▁vanilla	-11.1613
▁relations	-11.1613
▁whereabouts	-11.1613
▁dallas	-11.1613
▁goofy	-11.1613
▁grill	-11.1613
▁gloop	-11.1613
▁importance	-11.1613
▁octa	-11.1613
▁altogether	-11.1613
▁opium	-11.1613
▁yummy	-11.1613
▁breach	-11.1613
▁spray	-11.1613
▁dannyboy	-11.1613
▁chitter	-11.1613
▁drummer	-11.1613
▁scatter	-11.1613
▁zeke	-11.1613
▁nonono	-11.1613
▁piggies	-11.1613
▁marvelous	-11.1613
▁gunilla	-11.1613
▁hammer	-11.1613
▁devotion	-11.1613
▁isolation	-11.1613
▁despi	-11.1613
▁villaincon	-11.1613
▁sleepyhead	-11.1613
▁jewelry	-11.1613
▁choking	-11.1613
▁sleeve	-11.1613
▁vague	-11.1613
▁miami	-11.1613
▁random	-11.1613
▁yung	-11.1613
▁asshole	-11.1613
▁ballroom	-11.1613
▁heap	-11.1613
▁automatically	-11.1613
▁lounge	-11.1613
▁hobby	-11.1613
▁pierre	-11.1613
▁glitch	-11.1613
▁acid	-11.1613
▁biome	-11.1613
▁grasp	-11.1613
▁communicate	-11.1614
▁ginger	-11.1614
▁manero	-11.1614
▁suri	-11.1614
▁quarterback	-11.1614
▁tummy	-11.1614
▁isle	-11.1614
▁elsewhere	-11.1614
▁fiber	-11.1614
▁reservation	-11.1614
▁jason	-11.1614
▁terrorist	-11.1614
ctwi	-11.1614
▁supervillain	-11.1614
▁allergic	-11.1614
▁follerin	-11.1614
▁michelin	-11.1614
▁wright	-11.1614
▁mutters	-11.1614
▁panties	-11.1614
▁earring	-11.1614
agna	-11.1614
▁trans	-11.1614
▁backwards	-11.1614
▁cancelled	-11.1614
▁ensure	-11.1614
▁admiral	-11.1615
▁frustrated	-11.1615
▁deleted	-11.1615
▁depth	-11.1615
leather	-11.1615
▁crean	-11.1615
▁chinon	-11.1615
▁aggressive	-11.1615
▁poof	-11.1615
▁yeehaw	-11.1615
▁passport	-11.1615
▁translate	-11.1615
▁reflection	-11.1615
▁granddaughter	-11.1615
▁stall	-11.1615
▁development	-11.1615
▁crossfield	-11.1615
▁fading	-11.1615
▁timmy	-11.1615
▁westside	-11.1615
▁kingston	-11.1615
▁examine	-11.1616
▁pati	-11.1616
▁slobber	-11.1616
▁sulu	-11.1616
▁chinaman	-11.1616
▁stern	-11.1616
▁ideal	-11.1616
▁whim	-11.1617
▁christian	-11.1617
▁sisterinlaw	-11.1617
▁grump	-11.1617
▁screeches	-11.1617
▁whore	-11.1617
▁flushes	-11.1617
▁expectations	-11.1617
▁neat	-11.1618
▁pul	-11.1618
▁coot	-11.1618
▁elder	-11.1618
▁halen	-11.1618
▁oof	-11.1618
▁piss	-11.1618
▁temporary	-11.1618
▁ramp	-11.1618
▁skate	-11.1618
▁buh	-11.1618
▁skies	-11.1618
▁dedicated	-11.1619
▁objection	-11.1619
▁phrase	-11.1619
▁juicy	-11.1619
▁grandson	-11.1619
▁coma	-11.1619
▁heartache	-11.162
▁hamish	-11.162
ide	-11.162
▁vu	-11.1621
▁disobey	-11.1621
▁loosen	-11.1621
▁goyle	-11.1621
▁expression	-11.1622
▁spain	-11.1622
▁beatles	-11.1622
▁household	-11.1622
▁dismissed	-11.1622
▁hacker	-11.1622
▁cannonballers	-11.1622
▁fitting	-11.1622
▁worthless	-11.1622
iki	-11.1623
▁dice	-11.1623
▁publicity	-11.1623
▁relieved	-11.1623
▁fork	-11.1623
▁ladybug	-11.1623
▁kata	-11.1623
▁data	-11.1623
uh	-11.1624
▁ranch	-11.1624
▁wonderland	-11.1625
▁frightening	-11.1625
▁cranky	-11.1626
▁earl	-11.1626
▁statement	-11.1626
uddy	-11.1626
▁transporter	-11.1627
▁amazed	-11.1627
▁squirm	-11.1627
oise	-11.1628
▁iceland	-11.1628
▁seventh	-11.1628
▁crooked	-11.1629
▁hup	-11.163
▁mice	-11.163
▁pretzels	-11.163
▁idiotic	-11.1631
▁rolls	-11.1631
▁backstage	-11.1632
▁eliminated	-11.1633
▁yito	-11.1634
▁crou	-11.1634
▁qui	-11.1635
▁angeles	-11.1635
▁hunger	-11.1636
▁blod	-11.1636
▁cabin	-11.1638
▁restless	-11.1638
▁greed	-11.1638
▁crashes	-11.1639
▁poke	-11.1639
▁controls	-11.1639
▁eighth	-11.164
▁suitable	-11.1641
▁confirmed	-11.1641
▁pine	-11.1642
▁spilled	-11.1642
▁kilo	-11.1642
▁fist	-11.1642
▁clucking	-11.1643
▁departing	-11.1643
▁splashing	-11.1643
lez	-11.1643
▁disguised	-11.1644
▁snape	-11.1644
▁murderer	-11.1644
▁solly	-11.1645
▁twister	-11.1647
▁tack	-11.1647
▁vanished	-11.1648
▁entertained	-11.1648
▁discovery	-11.1648
▁sch	-11.1649
▁endure	-11.1649
▁physically	-11.165
▁mime	-11.1652
▁hog	-11.1652
▁yale	-11.1654
▁accomplished	-11.1654
▁newsman	-11.1655
▁pickup	-11.1655
▁recite	-11.1657
▁vast	-11.1658
▁erase	-11.1658
▁rains	-11.1659
▁skipping	-11.1659
▁poly	-11.166
▁knots	-11.1662
▁fireworks	-11.1662
▁obstacles	-11.1662
▁requirements	-11.1662
▁ricks	-11.1662
▁advised	-11.1663
▁pale	-11.1666
▁lawn	-11.167
hot	-11.1675
▁sewing	-11.1676
▁admired	-11.1677
▁peep	-11.1677
▁sweaty	-11.1679
▁hiro	-11.1679
och	-11.1681
▁sharply	-11.1681
▁worshiper	-11.1682
▁civiliz	-11.1684
▁lair	-11.1684
▁ahha	-11.1686
▁insulting	-11.1686
▁status	-11.1686
▁screwed	-11.1687
▁souls	-11.1688
▁dime	-11.1688
▁ca	-11.169
▁tingl	-11.1692
▁jewels	-11.1693
▁ringo	-11.1693
▁skipp	-11.1694
▁robber	-11.1694
dent	-11.1696
▁moans	-11.1697
rock	-11.17
▁batter	-11.1701
▁posters	-11.1705
▁explorer	-11.1706
▁gro	-11.1708
▁plum	-11.1708
▁squirt	-11.1712
▁borrowed	-11.1713
▁drowning	-11.1713
▁scheduled	-11.1715
▁chim	-11.1716
▁leads	-11.1724
▁gadgets	-11.1726
▁import	-11.173
▁hah	-11.1731
▁pounding	-11.1733
▁charmed	-11.1735
▁weeping	-11.174
▁slo	-11.1745
▁painted	-11.175
▁did	-11.1752
▁fee	-11.1754
▁picks	-11.1754
▁denying	-11.1756
▁yiit	-11.1756
▁sensations	-11.1759
▁curtains	-11.1759
▁relatives	-11.1759
▁fastest	-11.176
▁ast	-11.1763
▁cheating	-11.1763
▁busting	-11.1764
▁sucking	-11.1767
▁designer	-11.1769
▁interrupting	-11.1782
▁continued	-11.1786
▁marv	-11.1787
allagh	-11.1788
▁realm	-11.1789
▁sacr	-11.1789
▁shakey	-11.179
nba	-11.1791
▁options	-11.1792
▁einsteins	-11.1792
▁affections	-11.1792
ife	-11.1797
▁peed	-11.1802
▁appeared	-11.1804
about	-11.1805
▁treaty	-11.1809
▁formed	-11.1813
▁dup	-11.182
▁comeay	-11.182
roy	-11.1821
▁discussed	-11.1821
▁details	-11.1824
▁sheets	-11.1825
▁dreamt	-11.1826
▁windows	-11.1838
▁launched	-11.1839
▁vari	-11.1845
▁thy	-11.1852
▁gifted	-11.1854
▁spears	-11.1857
▁hostages	-11.1857
▁det	-11.1867
▁rel	-11.1869
▁cloth	-11.1876
oline	-11.1877
▁pins	-11.1887
▁locate	-11.1888
▁screamed	-11.1888
▁divisions	-11.189
▁results	-11.189
▁trolls	-11.189
▁cable	-11.1891
neur	-11.1892
▁coins	-11.1895
▁tricked	-11.1897
▁smashing	-11.1897
list	-11.19
ically	-11.1903
▁repeating	-11.1912
▁occasions	-11.1914
▁scr	-11.1922
▁savages	-11.1923
▁traitors	-11.1923
▁weighs	-11.1924
▁jer	-11.193
book	-11.1933
▁makeup	-11.1936
▁ter	-11.1942
ast	-11.1944
atch	-11.1953
get	-11.1953
▁ev	-11.1954
▁thuds	-11.1956
▁cigarettes	-11.1956
▁awards	-11.1957
▁capo	-11.1959
▁pipes	-11.196
zed	-11.1961
skin	-11.1964
▁pains	-11.1972
▁tease	-11.1982
aka	-11.1989
▁laying	-11.1998
▁wart	-11.201
passionate	-11.2022
▁mob	-11.2024
▁rumbles	-11.2033
hu	-11.2037
br	-11.2037
ekka	-11.2051
▁attempts	-11.2055
▁andrews	-11.2055
who	-11.2082
▁quarters	-11.2088
door	-11.21
▁prizes	-11.2121
▁shadows	-11.2122
▁tanks	-11.2128
▁salar	-11.2152
▁finishing	-11.2156
▁photos	-11.2156
▁gordo	-11.2172
▁bronc	-11.2176
▁muj	-11.2181
▁babes	-11.2186
▁lordships	-11.2189
▁reports	-11.2201
▁tables	-11.2205
▁dada	-11.2219
▁recorded	-11.2243
▁freed	-11.2272
▁drops	-11.2291
▁fri	-11.2296
▁presenting	-11.2308
▁fre	-11.2318
ain	-11.2322
▁conversations	-11.2323
amari	-11.233
▁smelled	-11.2331
▁blo	-11.2348
▁cart	-11.2359
▁organize	-11.237
▁off	-11.238
can	-11.2387
▁stopa	-11.239
if	-11.239
▁blocks	-11.2393
▁pauls	-11.2424
ison	-11.243
▁bor	-11.2431
▁dislike	-11.2451
▁barn	-11.2455
ept	-11.2487
▁columns	-11.2493
▁handy	-11.2495
▁def	-11.2508
▁carrie	-11.2511
▁captiv	-11.2512
iva	-11.252
▁beauforts	-11.2526
▁skins	-11.2529
ake	-11.2533
▁beers	-11.2541
eck	-11.255
▁itch	-11.2556
▁greas	-11.2578
ever	-11.2581
▁mee	-11.259
▁tracks	-11.2627
raft	-11.2634
▁stor	-11.2652
▁will	-11.2664
quire	-11.2668
tant	-11.2683
▁coaching	-11.2686
▁dragons	-11.2698
▁indi	-11.2706
▁begg	-11.2712
hold	-11.2714
john	-11.2721
▁lin	-11.2721
▁levels	-11.2732
▁breaths	-11.2736
▁hagrids	-11.2767
atta	-11.2771
▁scow	-11.2771
tial	-11.2779
ofthe	-11.2789
▁chee	-11.2799
▁jacks	-11.2822
▁ref	-11.2828
▁psych	-11.2842
ture	-11.2848
▁shots	-11.2852
▁units	-11.2863
youre	-11.2887
▁spells	-11.2903
itting	-11.2905
▁comm	-11.2921
▁spite	-11.2927
▁returns	-11.2947
lalalala	-11.2947
▁demo	-11.2959
▁vor	-11.2965
ua	-11.2968
cons	-11.297
state	-11.298
tri	-11.299
▁pav	-11.2997
bleh	-11.3002
this	-11.3005
▁ola	-11.3006
▁cakes	-11.301
jo	-11.3035
▁noises	-11.3045
▁chan	-11.3052
▁forces	-11.3053
▁deaths	-11.307
▁reli	-11.3076
▁charlies	-11.3116
ino	-11.3117
ety	-11.313
▁cana	-11.3131
izing	-11.3134
▁greater	-11.3135
▁bounce	-11.3138
ker	-11.3139
ura	-11.315
▁pap	-11.3155
▁virgin	-11.3166
▁radi	-11.3178
hen	-11.3187
▁planets	-11.3194
▁ai	-11.3218
▁presidents	-11.3221
▁missy	-11.3222
▁plu	-11.3225
els	-11.3225
ja	-11.323
▁vile	-11.323
▁forty	-11.3245
most	-11.3252
▁cor	-11.3258
two	-11.326
▁tha	-11.3272
ille	-11.3273
▁machines	-11.3293
uv	-11.3294
pier	-11.3309
shot	-11.3343
▁gr	-11.3349
bag	-11.3356
osa	-11.336
▁pier	-11.3361
▁howl	-11.3362
▁cheats	-11.338
▁uno	-11.3387
oid	-11.3392
▁rap	-11.3394
▁circles	-11.3399
▁squeal	-11.3401
▁whisper	-11.3402
▁fright	-11.3403
▁exclaim	-11.3404
▁av	-11.3408
▁doom	-11.3419
▁daydream	-11.3421
bed	-11.3426
▁blister	-11.3428
▁product	-11.3428
▁superpower	-11.3429
▁motor	-11.343
▁appearance	-11.3431
▁landmark	-11.3431
▁shade	-11.3432
aries	-11.3433
▁jew	-11.3435
▁noses	-11.3435
▁generation	-11.3435
▁curtain	-11.3436
▁sensation	-11.3436
▁relative	-11.3436
▁affair	-11.3443
▁nigger	-11.3443
▁candle	-11.3443
▁cupcake	-11.3444
▁universit	-11.3444
▁vow	-11.3444
▁munchkin	-11.3445
▁yawn	-11.3447
▁multi	-11.3453
▁mumble	-11.3453
▁robe	-11.3454
ute	-11.3456
▁customer	-11.3462
▁pup	-11.3468
thro	-11.3469
▁rear	-11.3474
▁rec	-11.3474
▁steven	-11.3477
rick	-11.3484
chola	-11.3489
vy	-11.3491
▁uhuhuh	-11.3496
▁manual	-11.3501
▁flap	-11.3505
▁walt	-11.3514
▁zip	-11.3517
oire	-11.3519
▁with	-11.3527
▁disgust	-11.3528
▁pals	-11.3531
▁surviv	-11.3534
ulation	-11.3537
▁annoy	-11.3538
fire	-11.3539
▁fig	-11.3543
ology	-11.355
▁bullfight	-11.3555
rew	-11.3556
▁fuss	-11.3561
▁flush	-11.3561
▁echo	-11.3561
▁screech	-11.3561
utterly	-11.3562
cular	-11.3563
▁chris	-11.3563
▁herman	-11.3565
▁clatter	-11.3566
rance	-11.3567
▁resign	-11.3573
▁detect	-11.3575
▁wound	-11.3576
▁confirm	-11.3577
▁toss	-11.3577
▁punish	-11.3578
▁prim	-11.358
▁adventur	-11.3581
zero	-11.3582
▁brand	-11.3584
▁happi	-11.3584
cream	-11.3585
ridge	-11.3585
▁bail	-11.3585
bound	-11.3586
foot	-11.3586
▁encourage	-11.3587
comb	-11.3588
▁spill	-11.3588
fleet	-11.3588
▁humiliate	-11.3588
friendly	-11.3589
juice	-11.3589
▁describe	-11.3589
secret	-11.3589
pilot	-11.3589
record	-11.3589
food	-11.359
▁liver	-11.3591
wide	-11.3591
think	-11.3592
▁guilt	-11.3593
water	-11.3593
▁darr	-11.3595
ranged	-11.3595
▁technical	-11.3597
▁merri	-11.3598
ppy	-11.3601
▁recit	-11.3602
▁precise	-11.3602
▁mag	-11.3603
▁alter	-11.3604
hour	-11.3605
▁actress	-11.3605
▁poss	-11.3606
▁czechoslovakia	-11.3606
watt	-11.3607
▁russia	-11.3607
kind	-11.3607
▁fregley	-11.3608
▁shave	-11.3608
▁guap	-11.3608
▁booya	-11.3609
▁associat	-11.3609
▁melanchol	-11.361
▁stiff	-11.3611
▁confide	-11.3611
▁etern	-11.3611
▁egypt	-11.3612
▁temple	-11.3612
▁hohoho	-11.3612
▁compassion	-11.3612
▁saloon	-11.3612
▁brief	-11.3612
responsibilities	-11.3612
▁abducted	-11.3612
▁activities	-11.3612
▁almighty	-11.3612
▁ambulance	-11.3612
▁baudricourt	-11.3612
▁baylene	-11.3612
▁believing	-11.3612
▁bribe	-11.3612
▁broadcast	-11.3612
▁broccoli	-11.3612
▁carnahan	-11.3612
▁carnival	-11.3612
▁carrgomm	-11.3612
▁cauldron	-11.3612
▁celebration	-11.3612
▁clevedon	-11.3612
▁compartment	-11.3612
▁conflict	-11.3612
▁confusion	-11.3612
▁contagious	-11.3612
▁corridor	-11.3612
▁crisp	-11.3612
▁crucified	-11.3612
▁cuckoo	-11.3612
▁cuddly	-11.3612
▁december	-11.3612
▁deploy	-11.3612
▁description	-11.3612
▁diddlyey	-11.3612
▁dingdong	-11.3612
▁dinobirds	-11.3612
▁dinobots	-11.3612
▁disengage	-11.3612
▁dumdum	-11.3612
▁dungeon	-11.3612
▁easley	-11.3612
▁election	-11.3612
▁elegant	-11.3612
▁encounter	-11.3612
▁escaping	-11.3612
▁extinct	-11.3612
▁feminine	-11.3612
▁firstclass	-11.3612
▁fjord	-11.3612
▁flexible	-11.3612
▁fundraiser	-11.3612
▁gestapo	-11.3612
▁glasdale	-11.3612
▁glitter	-11.3612
▁godspeed	-11.3612
▁grandchildren	-11.3612
▁grief	-11.3612
▁grildrig	-11.3612
▁hairspray	-11.3612
▁hamilton	-11.3612
▁harcourt	-11.3612
▁heavier	-11.3612
▁hedgehog	-11.3612
▁henchmen	-11.3612
▁hyperventilat	-11.3612
▁imaginary	-11.3612
▁impostor	-11.3612
▁innovation	-11.3612
▁jefferson	-11.3612
▁kamishin	-11.3612
▁lamarr	-11.3612
▁leslie	-11.3612
▁letterblair	-11.3612
▁lucinda	-11.3612
▁lyrics	-11.3612
▁mackerel	-11.3612
▁mammoth	-11.3612
▁manhattan	-11.3612
▁matonne	-11.3612
▁mattress	-11.3612
▁mccord	-11.3612
▁melody	-11.3612
▁merchandise	-11.3612
▁minimum	-11.3612
▁mmmmmm	-11.3612
▁montreal	-11.3612
▁mutiny	-11.3612
▁nelson	-11.3612
▁noodle	-11.3612
▁obligation	-11.3612
▁offensive	-11.3612
▁olivia	-11.3612
▁parallel	-11.3612
▁perceptor	-11.3612
▁pevensie	-11.3612
▁philadelphia	-11.3612
▁picnic	-11.3612
▁pinocchio	-11.3612
▁pistol	-11.3612
▁platform	-11.3612
▁prefect	-11.3612
▁profile	-11.3612
▁provisions	-11.3612
▁reentry	-11.3612
▁rescuing	-11.3612
▁ruffians	-11.3612
▁rupert	-11.3612
▁sayonara	-11.3612
▁scenario	-11.3612
▁scoot	-11.3612
▁selene	-11.3612
▁september	-11.3612
▁shampoo	-11.3612
▁shenzi	-11.3612
▁skunk	-11.3612
▁slimy	-11.3612
▁slope	-11.3612
▁snarling	-11.3612
▁sofie	-11.3612
▁sophie	-11.3612
▁spaghetti	-11.3612
▁strawberry	-11.3612
▁supermarket	-11.3612
▁surveillance	-11.3612
▁swirl	-11.3612
▁throttle	-11.3612
▁ticklish	-11.3612
▁timothy	-11.3612
▁titov	-11.3612
▁tofutti	-11.3612
▁toothpaste	-11.3612
▁translator	-11.3612
▁trophies	-11.3612
▁twerp	-11.3612
▁unbearable	-11.3612
▁unconventional	-11.3612
▁underbutler	-11.3612
▁ungrateful	-11.3612
▁vectorscope	-11.3612
▁vicksburgs	-11.3612
▁xosha	-11.3612
▁yippee	-11.3612
▁yvonne	-11.3612
infested	-11.3612
▁addition	-11.3612
▁affirm	-11.3612
▁aqua	-11.3612
▁barbatus	-11.3612
▁canvas	-11.3612
▁certified	-11.3612
▁croods	-11.3612
▁decree	-11.3612
▁drug	-11.3612
▁gagarin	-11.3612
▁goofball	-11.3612
▁hesitating	-11.3612
▁insert	-11.3612
▁intercept	-11.3612
▁mascot	-11.3612
▁norby	-11.3612
▁outstanding	-11.3612
▁quinn	-11.3612
▁rabies	-11.3612
▁reseda	-11.3612
▁rifle	-11.3612
▁salvage	-11.3612
▁saunders	-11.3612
▁serpent	-11.3612
▁session	-11.3612
▁shakespeare	-11.3612
▁stoked	-11.3612
▁symbol	-11.3612
▁beryl	-11.3612
▁donuts	-11.3612
▁eager	-11.3612
▁glue	-11.3612
▁heather	-11.3612
▁leiter	-11.3612
▁plead	-11.3612
▁silk	-11.3612
▁virtual	-11.3612
▁waterloo	-11.3612
▁wiggle	-11.3612
▁abstract	-11.3612
▁fertilizer	-11.3612
▁fierce	-11.3612
▁irritat	-11.3612
▁joyride	-11.3612
▁porthos	-11.3612
▁dominate	-11.3612
▁morris	-11.3612
▁paddle	-11.3612
▁blizzard	-11.3612
▁corset	-11.3612
▁marvellous	-11.3612
▁archives	-11.3612
▁manifest	-11.3612
▁scalp	-11.3612
▁spyglass	-11.3612
▁amnes	-11.3612
▁attagirl	-11.3612
▁kyle	-11.3612
▁newark	-11.3612
▁seattle	-11.3612
▁flynn	-11.3612
▁grazie	-11.3612
▁chickenshit	-11.3612
▁doris	-11.3612
▁whooshing	-11.3612
▁lashly	-11.3612
▁fulfill	-11.3612
▁recess	-11.3612
▁wizzie	-11.3612
▁mutual	-11.3612
▁ryan	-11.3612
▁alternative	-11.3612
▁crumbling	-11.3612
▁elvis	-11.3612
▁matienne	-11.3612
▁hexham	-11.3612
▁anonymous	-11.3612
▁slumber	-11.3612
▁forbid	-11.3612
▁poodleton	-11.3612
▁promote	-11.3612
▁obrien	-11.3612
▁flawless	-11.3612
▁seventyfive	-11.3612
▁stump	-11.3612
▁boomsies	-11.3613
▁ignition	-11.3613
▁online	-11.3613
▁beacon	-11.3613
▁congress	-11.3613
▁frivida	-11.3613
▁lund	-11.3613
▁smog	-11.3613
▁chestnut	-11.3613
▁revo	-11.3613
▁albert	-11.3613
▁snoop	-11.3613
▁dudley	-11.3613
▁relocat	-11.3613
▁defence	-11.3613
▁allright	-11.3613
▁sidney	-11.3613
▁invasion	-11.3613
▁upgrade	-11.3613
▁exposed	-11.3613
▁flank	-11.3613
▁deceive	-11.3613
▁burial	-11.3613
▁rival	-11.3613
▁egyptian	-11.3613
▁slack	-11.3613
▁substance	-11.3613
▁ivan	-11.3613
▁rowboat	-11.3613
▁stomp	-11.3613
▁scorch	-11.3613
▁stroll	-11.3613
▁racket	-11.3613
▁expand	-11.3613
▁confront	-11.3613
▁sector	-11.3613
▁altitude	-11.3613
▁excel	-11.3613
▁tinkling	-11.3613
▁beads	-11.3613
▁venture	-11.3613
▁oilcan	-11.3613
▁canada	-11.3613
▁canbury	-11.3613
▁selection	-11.3613
▁specifically	-11.3613
▁tidy	-11.3613
▁dishonor	-11.3613
▁repent	-11.3613
▁dirtbag	-11.3613
▁blush	-11.3613
▁buffet	-11.3613
▁valise	-11.3613
▁forehead	-11.3613
▁gents	-11.3613
▁harness	-11.3613
▁motto	-11.3614
▁hasty	-11.3614
▁hamster	-11.3614
▁steep	-11.3614
▁chalo	-11.3614
▁dustpan	-11.3614
▁franco	-11.3614
▁joshie	-11.3614
▁whack	-11.3614
▁bonehead	-11.3614
▁committing	-11.3614
▁conroy	-11.3614
▁envelope	-11.3614
▁evacuate	-11.3614
▁savior	-11.3614
▁danno	-11.3614
▁wheat	-11.3614
▁aokay	-11.3614
▁percy	-11.3614
▁financial	-11.3614
▁litter	-11.3614
▁thou	-11.3614
▁kapu	-11.3614
▁approximately	-11.3614
▁wedgie	-11.3614
▁loyalty	-11.3614
▁onion	-11.3614
▁reflexes	-11.3614
▁moore	-11.3614
▁spiritual	-11.3614
▁bogus	-11.3614
▁embarrassment	-11.3614
▁freddy	-11.3614
▁puck	-11.3615
▁afoot	-11.3615
▁despise	-11.3615
▁persist	-11.3615
▁pulse	-11.3615
▁independent	-11.3615
▁media	-11.3615
▁tread	-11.3615
▁bummer	-11.3615
▁vol	-11.3615
▁upsies	-11.3615
▁blasphemy	-11.3615
▁bleed	-11.3615
▁doodle	-11.3615
▁sammy	-11.3615
▁adjustment	-11.3615
▁dried	-11.3615
▁industry	-11.3615
▁association	-11.3615
▁mortal	-11.3615
▁hiyah	-11.3615
▁mummy	-11.3615
▁invaded	-11.3615
▁rome	-11.3615
▁script	-11.3615
▁caramel	-11.3615
▁dunkaccino	-11.3615
▁jennifer	-11.3615
▁obsess	-11.3615
▁yowch	-11.3615
▁production	-11.3615
▁shack	-11.3615
▁brood	-11.3615
▁snores	-11.3616
▁tow	-11.3616
▁sunlight	-11.3616
▁sweatshirt	-11.3616
▁rive	-11.3616
▁basis	-11.3616
▁waterfall	-11.3616
▁species	-11.3616
▁kari	-11.3616
ourne	-11.3616
▁tram	-11.3616
▁construction	-11.3616
▁gateway	-11.3617
▁spitting	-11.3617
▁toro	-11.3617
▁participate	-11.3617
▁rations	-11.3617
▁yancy	-11.3617
▁percentage	-11.3617
▁admitted	-11.3617
▁troy	-11.3617
▁koss	-11.3617
▁hack	-11.3617
▁comme	-11.3617
▁arab	-11.3617
▁saddle	-11.3617
▁doro	-11.3618
▁brass	-11.3618
▁depot	-11.3618
▁timber	-11.3618
▁coup	-11.3618
▁takin	-11.3618
▁reign	-11.3618
terior	-11.3618
▁budget	-11.3618
▁justin	-11.3618
▁copies	-11.3618
▁hence	-11.3618
▁nursery	-11.3618
▁trembling	-11.3618
▁carrier	-11.3618
▁columnist	-11.3618
▁brine	-11.3618
▁tactic	-11.3618
▁merciful	-11.3619
▁hedge	-11.3619
▁brotherinlaw	-11.3619
▁chairman	-11.3619
▁reliable	-11.3619
▁wetter	-11.362
▁coke	-11.362
▁crop	-11.362
▁amber	-11.362
▁civilization	-11.362
▁beh	-11.362
▁dino	-11.3621
▁priceless	-11.3621
▁marsh	-11.3621
▁surprisingly	-11.3621
▁bait	-11.3621
▁branches	-11.3621
▁spies	-11.3621
▁donation	-11.3621
▁bel	-11.3621
▁teasing	-11.3621
▁midst	-11.3622
▁response	-11.3623
▁define	-11.3623
raving	-11.3623
▁combine	-11.3623
▁agony	-11.3623
▁logan	-11.3624
▁tube	-11.3624
▁woop	-11.3624
wling	-11.3624
▁maiden	-11.3624
▁charter	-11.3625
▁colum	-11.3625
▁phony	-11.3625
▁sober	-11.3625
▁amongst	-11.3625
▁superheroes	-11.3625
▁hiya	-11.3625
▁quitting	-11.3626
▁dab	-11.3626
▁stampede	-11.3626
▁mechanic	-11.3626
▁rump	-11.3626
▁operator	-11.3626
▁settlement	-11.3626
▁shushes	-11.3627
weh	-11.3627
▁damp	-11.3627
▁kent	-11.3627
▁surfer	-11.3627
▁deeds	-11.3627
▁agreement	-11.3628
▁edna	-11.3629
▁distinct	-11.3629
▁bop	-11.3629
▁weaken	-11.3629
▁caroline	-11.3629
▁disc	-11.3629
▁az	-11.363
▁correction	-11.363
▁bog	-11.363
▁clapping	-11.363
▁bravery	-11.3631
▁watchdog	-11.3631
▁controlled	-11.3631
▁payback	-11.3631
▁twobit	-11.3632
▁clearance	-11.3632
▁depressed	-11.3632
▁cutler	-11.3633
▁num	-11.3633
▁math	-11.3633
have	-11.3633
▁rack	-11.3633
▁unlock	-11.3633
▁medic	-11.3633
▁negotiate	-11.3634
▁passage	-11.3634
tech	-11.3635
▁josh	-11.3635
▁pharaohs	-11.3635
▁sandwiches	-11.3635
▁resolved	-11.3635
▁anwe	-11.3635
▁warmth	-11.3636
orama	-11.3636
▁humiliated	-11.3636
▁operational	-11.3636
▁protective	-11.3637
▁maca	-11.3637
▁mini	-11.3637
▁sass	-11.3637
▁divert	-11.3637
▁sizzling	-11.3638
▁volu	-11.3638
▁legion	-11.3638
▁overwhelming	-11.3639
▁englishman	-11.3639
▁reply	-11.364
▁grape	-11.364
▁attached	-11.3641
▁strengthen	-11.3641
▁tech	-11.3641
▁penal	-11.3642
▁specialist	-11.3642
▁jingle	-11.3642
▁divided	-11.3644
▁stain	-11.3644
▁cuteness	-11.3647
▁fisherm	-11.3648
▁punished	-11.3649
▁wounded	-11.3649
handed	-11.3649
stone	-11.3649
▁wiser	-11.3649
▁disappointing	-11.365
▁bleating	-11.365
▁clanking	-11.365
▁accessor	-11.3651
▁alas	-11.3652
▁tension	-11.3654
▁dally	-11.3654
▁pace	-11.3654
boat	-11.3655
▁dc	-11.3655
▁unlikely	-11.3656
▁axe	-11.3656
▁reserved	-11.3656
▁mic	-11.3656
▁rod	-11.3658
▁scanner	-11.3659
▁cru	-11.3659
▁flushing	-11.3661
▁voted	-11.3662
▁ignored	-11.3664
▁bod	-11.3665
▁grin	-11.3667
▁careless	-11.3667
▁taco	-11.3668
references	-11.367
▁stayton	-11.3672
erton	-11.3674
▁qualifications	-11.3674
▁expenses	-11.3674
▁intruders	-11.3674
▁neighbours	-11.3674
▁vegetables	-11.3674
▁pra	-11.3675
▁dragged	-11.3675
▁halflings	-11.3677
▁matey	-11.3677
▁lowest	-11.3678
▁tomb	-11.3681
▁flooding	-11.3682
▁races	-11.3683
▁declared	-11.3685
▁frisk	-11.3687
▁barbari	-11.3687
▁maximu	-11.3688
oons	-11.3689
▁keen	-11.3689
star	-11.369
▁vel	-11.3693
▁experienced	-11.3693
▁wither	-11.3696
▁roberts	-11.3696
▁crowna	-11.3697
ubbing	-11.3697
▁rig	-11.37
▁lighten	-11.37
▁smither	-11.3701
▁rainin	-11.3701
▁niner	-11.3701
▁cursed	-11.3702
▁obeying	-11.3703
▁sled	-11.3704
▁palmer	-11.3704
▁suspected	-11.3705
▁distracted	-11.3705
▁teaches	-11.3705
▁mocking	-11.371
▁wiped	-11.371
▁proposed	-11.3711
▁natives	-11.3714
▁sponsors	-11.3714
▁exhibits	-11.3714
▁marbles	-11.3714
▁methods	-11.3714
▁leftovers	-11.3714
▁creaks	-11.3714
▁smokey	-11.3715
▁correctly	-11.3715
▁chained	-11.3715
▁assured	-11.3715
▁parties	-11.3718
▁ord	-11.3718
▁cod	-11.3724
▁nailed	-11.3724
▁responding	-11.3725
▁leaping	-11.3725
oving	-11.3726
from	-11.3726
▁attended	-11.373
▁photographed	-11.373
sical	-11.373
▁jealousy	-11.3732
▁witches	-11.3733
ettle	-11.3735
▁rewind	-11.3737
▁doubts	-11.3741
▁vine	-11.3743
▁darned	-11.3746
▁homeless	-11.3749
▁burps	-11.3754
▁pom	-11.3754
▁canceled	-11.3754
▁pumps	-11.3755
▁flowing	-11.3758
▁spreading	-11.3758
▁photographer	-11.3762
▁sealed	-11.3762
▁dent	-11.3763
▁nogo	-11.3765
▁identi	-11.3766
ou	-11.3771
link	-11.3772
▁transferr	-11.3777
▁allie	-11.3782
▁scored	-11.3783
▁charts	-11.3783
▁ap	-11.3784
▁manuals	-11.3794
▁vows	-11.3794
▁generations	-11.3795
▁deserved	-11.3795
▁adi	-11.3801
bric	-11.3802
▁scam	-11.3803
▁her	-11.3807
▁rein	-11.382
▁pooping	-11.3823
▁glori	-11.3823
▁corps	-11.3825
▁boiler	-11.3827
▁taped	-11.3832
▁arrows	-11.3835
▁muggles	-11.3836
▁missiles	-11.3839
▁filming	-11.3848
▁wildly	-11.3855
▁pest	-11.3859
▁greatness	-11.3861
good	-11.3868
▁cond	-11.3869
▁blocking	-11.387
▁bathed	-11.3874
▁scullys	-11.3876
▁meteors	-11.3876
▁wrestler	-11.3877
▁blessed	-11.3878
▁charged	-11.3878
▁grubers	-11.3879
agged	-11.3879
▁tomo	-11.3883
▁slower	-11.3886
▁nations	-11.389
▁chart	-11.3891
▁remaining	-11.3893
▁messy	-11.3899
▁washing	-11.39
▁karates	-11.3905
eens	-11.3912
▁comedy	-11.3914
▁laps	-11.3915
▁klingons	-11.3917
▁trunks	-11.3917
▁leaks	-11.3918
▁oot	-11.3922
▁faithful	-11.3927
▁trie	-11.3946
▁lug	-11.3955
▁dine	-11.3957
▁warp	-11.397
illes	-11.3975
▁handled	-11.3984
▁swells	-11.3999
▁relationships	-11.3999
▁techniques	-11.3999
▁ohho	-11.4005
pper	-11.4019
▁counts	-11.4033
▁cannons	-11.4039
▁sweeps	-11.404
▁rounded	-11.4043
▁mono	-11.4049
▁pun	-11.4064
▁je	-11.4075
tobe	-11.408
▁volunteers	-11.4082
▁cheeks	-11.4082
▁visas	-11.4082
▁jams	-11.4086
▁tons	-11.4092
▁wrinkle	-11.4094
▁retrieve	-11.4095
▁thumbs	-11.4107
▁sheep	-11.4108
▁dancers	-11.4113
▁tolerate	-11.4113
▁cocks	-11.4119
▁explodes	-11.4124
▁chains	-11.4126
▁jets	-11.4126
▁maka	-11.4129
vers	-11.4138
coat	-11.4147
▁wakey	-11.4162
▁herds	-11.4165
▁indians	-11.4167
nts	-11.4171
▁oka	-11.4177
▁kingsle	-11.4183
▁forag	-11.4185
▁fitte	-11.4192
▁ups	-11.4192
▁cy	-11.4196
▁gre	-11.4201
▁dressing	-11.4202
▁cava	-11.4204
▁tryin	-11.4205
▁professionals	-11.4205
▁devices	-11.4207
▁flavors	-11.4209
▁scouts	-11.4209
▁wr	-11.4211
▁mouths	-11.4212
▁guarded	-11.4212
onnie	-11.4212
nto	-11.422
▁imma	-11.4223
▁nno	-11.4232
▁zipp	-11.4233
▁mai	-11.424
▁vita	-11.4242
▁clues	-11.4248
▁ministers	-11.4248
▁operations	-11.4249
▁offering	-11.4256
▁cracks	-11.4258
rational	-11.426
▁kit	-11.4268
shes	-11.4278
▁dolls	-11.4279
▁bumps	-11.429
▁cowards	-11.429
▁nightmares	-11.429
▁traps	-11.4291
▁rightful	-11.4294
▁prayers	-11.4306
aise	-11.4309
nam	-11.4316
ets	-11.432
▁apes	-11.4329
▁scarecrows	-11.4332
▁abs	-11.4336
▁nono	-11.4339
▁fed	-11.4372
rator	-11.4373
▁fixing	-11.4373
▁efforts	-11.4374
▁pizzas	-11.4374
onald	-11.4375
▁desires	-11.4376
phe	-11.4382
mble	-11.4396
▁answering	-11.4404
▁enthusiastic	-11.4417
▁ports	-11.4417
▁strings	-11.4417
tz	-11.4444
▁gag	-11.4455
▁pooch	-11.4457
ani	-11.4458
▁defenses	-11.4459
▁flames	-11.4459
▁sharks	-11.4459
▁loads	-11.4459
▁jo	-11.4459
▁marys	-11.4462
snt	-11.4481
▁smokes	-11.4501
▁ernies	-11.4501
▁blu	-11.4518
▁seller	-11.452
▁jumper	-11.4527
▁dearly	-11.4543
▁fighters	-11.4543
▁lively	-11.4543
▁shin	-11.4553
▁questioned	-11.4577
▁nau	-11.4586
gum	-11.4595
lier	-11.4609
▁pon	-11.4616
any	-11.4627
▁asteroids	-11.4629
▁plants	-11.4631
▁lik	-11.464
▁holder	-11.4645
▁characters	-11.4671
▁pros	-11.4675
tically	-11.4698
▁observe	-11.4699
▁bastards	-11.4714
zo	-11.4715
▁compa	-11.4725
▁reporters	-11.4726
fied	-11.4727
beth	-11.473
▁diversi	-11.4751
bit	-11.4764
▁yihe	-11.4769
ner	-11.4789
pie	-11.4789
▁pearl	-11.4806
lace	-11.4817
oka	-11.482
▁pu	-11.4831
▁bam	-11.4847
rice	-11.4853
▁goodies	-11.4864
▁chin	-11.4867
▁presume	-11.4891
▁breaker	-11.4926
tility	-11.4931
coon	-11.4979
curr	-11.4984
▁tre	-11.4989
▁nu	-11.4997
▁dimi	-11.5013
▁embrace	-11.5021
liar	-11.5027
▁cro	-11.5037
eek	-11.504
ancy	-11.5047
apt	-11.5054
hauling	-11.5081
▁whale	-11.5081
angri	-11.51
bri	-11.5114
iala	-11.5122
size	-11.5135
cino	-11.5141
ati	-11.5153
▁pear	-11.5168
▁anto	-11.5208
lium	-11.5219
made	-11.5228
▁wav	-11.523
▁cla	-11.5233
cot	-11.5233
▁hose	-11.5237
▁sounding	-11.5244
▁crows	-11.5247
ummy	-11.5251
▁just	-11.5264
ym	-11.5272
▁winners	-11.5282
▁ruins	-11.5287
▁sob	-11.5304
uffe	-11.531
eeee	-11.5325
▁cit	-11.5339
▁prices	-11.536
nance	-11.5364
nik	-11.5375
immer	-11.5378
erb	-11.5395
▁sights	-11.5396
▁sizes	-11.5414
▁hospitals	-11.5415
fr	-11.5428
io	-11.5433
▁kni	-11.5439
▁sle	-11.5462
race	-11.5474
pping	-11.548
▁ku	-11.5522
▁meg	-11.5546
▁spends	-11.5558
anned	-11.556
▁poo	-11.5563
uch	-11.5566
wah	-11.5592
▁lle	-11.5619
eau	-11.562
▁prom	-11.5624
ahs	-11.5634
kins	-11.5651
▁fields	-11.5686
ital	-11.5699
yak	-11.5707
gate	-11.5715
eep	-11.5715
▁glo	-11.5725
hive	-11.5773
▁peek	-11.5794
▁mes	-11.5797
▁conn	-11.5811
mai	-11.5814
▁sweethearts	-11.5822
ax	-11.583
ois	-11.5837
ail	-11.5851
▁compos	-11.5853
▁claw	-11.5857
gie	-11.5857
▁anhe	-11.5867
▁reveal	-11.5893
▁pump	-11.5895
▁initial	-11.5903
▁sla	-11.5914
▁involve	-11.5916
▁senor	-11.5917
▁imbecile	-11.592
▁refugee	-11.592
▁clerk	-11.592
▁bugger	-11.592
▁intention	-11.5921
▁ninja	-11.5924
▁appetite	-11.5925
▁tire	-11.5926
▁dick	-11.5927
▁handcuff	-11.5928
▁teenager	-11.5928
▁ankle	-11.5928
that	-11.5929
▁yiw	-11.5929
▁hen	-11.5929
minded	-11.593
maker	-11.5931
▁gadget	-11.5936
▁brat	-11.5936
▁crocodile	-11.594
▁consequence	-11.5941
▁element	-11.5941
▁citizen	-11.5942
▁dart	-11.5942
▁spider	-11.5943
▁goblin	-11.5944
▁hyena	-11.5948
▁access	-11.595
▁tres	-11.5951
▁rib	-11.5953
▁skill	-11.5957
▁minion	-11.5959
▁booster	-11.596
▁redhead	-11.596
▁brownie	-11.596
▁hou	-11.5965
▁groov	-11.5968
▁factor	-11.597
owl	-11.5979
sipp	-11.5979
▁civil	-11.599
▁gunfight	-11.5994
urns	-11.5997
▁blond	-11.601
lips	-11.6011
▁refer	-11.6015
▁gene	-11.6021
▁disappoint	-11.6028
lore	-11.6031
▁marthai	-11.6032
rent	-11.6054
▁splash	-11.6057
▁flatter	-11.6059
▁kazoo	-11.606
▁charg	-11.6061
▁exception	-11.6062
ngled	-11.6063
▁depart	-11.6064
▁burp	-11.6066
▁greet	-11.6067
▁cluck	-11.6067
▁strik	-11.6071
▁wilde	-11.6072
▁triumph	-11.6073
▁clank	-11.6074
▁trigger	-11.6074
▁inherit	-11.6075
▁hoohoo	-11.6075
▁soak	-11.6077
keeper	-11.6078
▁bloomin	-11.608
▁attach	-11.6082
▁gigant	-11.6082
oppers	-11.6085
grade	-11.6085
▁pill	-11.6086
ittle	-11.6087
▁inspire	-11.6087
pipe	-11.6089
▁amaze	-11.6089
prints	-11.6089
▁glove	-11.6089
prison	-11.6089
scale	-11.6089
tree	-11.6089
apple	-11.6089
knock	-11.6089
▁burglar	-11.6089
second	-11.609
opening	-11.609
self	-11.609
people	-11.609
yeah	-11.609
▁bleat	-11.6091
tense	-11.6091
niner	-11.6091
lift	-11.6091
case	-11.6091
would	-11.6091
hill	-11.6091
▁contrar	-11.6092
▁thirst	-11.6092
▁resolve	-11.6092
tender	-11.6093
chuckle	-11.6093
bright	-11.6093
stick	-11.6094
▁engage	-11.6095
minute	-11.6095
cock	-11.6097
fall	-11.6097
ointed	-11.6097
▁execution	-11.6098
▁haste	-11.6098
▁numb	-11.6101
▁steel	-11.6102
colo	-11.6104
▁restrain	-11.6106
bbering	-11.6106
▁inhal	-11.6107
▁clim	-11.6107
▁africa	-11.6107
▁religio	-11.6108
cola	-11.6108
iction	-11.6108
▁kindergarten	-11.6109
▁alcohol	-11.6109
▁telegra	-11.6109
▁allergi	-11.6109
▁hibernat	-11.6109
▁movin	-11.611
▁sittin	-11.611
ometer	-11.611
▁runnin	-11.611
itude	-11.611
▁syn	-11.6111
tention	-11.6111
▁mutt	-11.6111
▁enlarg	-11.6111
qualified	-11.6111
olence	-11.6111
▁anso	-11.6111
mund	-11.6111
▁oom	-11.6112
▁drama	-11.6112
▁squid	-11.6112
▁hysteri	-11.6112
▁budge	-11.6112
▁comf	-11.6112
▁beetle	-11.6112
greatgrandmother	-11.6112
hurst	-11.6112
visibility	-11.6112
▁acrophobia	-11.6112
▁amazon	-11.6112
▁ambition	-11.6112
▁antelope	-11.6112
▁arachnneka	-11.6112
▁arnie	-11.6112
▁aroma	-11.6112
▁arrogance	-11.6112
▁arturo	-11.6112
▁attentive	-11.6112
▁autumn	-11.6112
▁aweemaweh	-11.6112
▁babbles	-11.6112
▁baloney	-11.6112
▁benefic	-11.6112
▁betroth	-11.6112
▁bizarre	-11.6112
▁blaine	-11.6112
▁blitz	-11.6112
▁boeuf	-11.6112
▁bourbon	-11.6112
▁brainiac	-11.6112
▁bristlemoss	-11.6112
▁bundle	-11.6112
▁caesar	-11.6112
▁capacity	-11.6112
▁caribbean	-11.6112
▁cease	-11.6112
▁celeste	-11.6112
▁central	-11.6112
▁chocolatier	-11.6112
▁choochoo	-11.6112
▁chozen	-11.6112
▁cinderella	-11.6112
▁clutch	-11.6112
▁colleague	-11.6112
▁comprehend	-11.6112
▁concussion	-11.6112
▁congratulate	-11.6112
▁console	-11.6112
▁crippled	-11.6112
▁cucaracha	-11.6112
▁cunning	-11.6112
▁currency	-11.6112
▁cushion	-11.6112
▁dalrymple	-11.6112
▁datsun	-11.6112
▁deacon	-11.6112
▁dekko	-11.6112
▁deputy	-11.6112
▁diagon	-11.6112
▁dialogue	-11.6112
▁discount	-11.6112
▁dissect	-11.6112
▁distress	-11.6112
▁drowsy	-11.6112
▁dulcinea	-11.6112
▁duplicate	-11.6112
▁economy	-11.6112
▁elastigirl	-11.6112
▁elbows	-11.6112
▁enlighten	-11.6112
▁evolution	-11.6112
▁examination	-11.6112
▁exploit	-11.6112
▁fannie	-11.6112
▁fascinated	-11.6112
▁filter	-11.6112
▁fingernails	-11.6112
▁fitzherbert	-11.6112
▁fleury	-11.6112
▁footwork	-11.6112
▁futterwacken	-11.6112
▁geoffrey	-11.6112
▁gertrude	-11.6112
▁giris	-11.6112
▁glimpse	-11.6112
▁glumdalclitch	-11.6112
▁guelston	-11.6112
▁gulping	-11.6112
▁hamburger	-11.6112
▁harbour	-11.6112
▁harvest	-11.6112
▁hazardous	-11.6112
▁hickory	-11.6112
▁hornagold	-11.6112
▁humiliating	-11.6112
▁identify	-11.6112
▁impertinen	-11.6112
▁indebted	-11.6112
▁injustice	-11.6112
▁inseparable	-11.6112
▁intellect	-11.6112
▁investigating	-11.6112
▁ironhide	-11.6112
▁jedediah	-11.6112
▁jonathan	-11.6112
▁karlmarxstadt	-11.6112
▁kathleen	-11.6112
▁klane	-11.6112
▁klaus	-11.6112
▁krishna	-11.6112
▁kupkakeinator	-11.6112
▁labradoodle	-11.6112
▁legitimate	-11.6112
▁length	-11.6112
▁lesbian	-11.6112
▁luxury	-11.6112
▁manipulat	-11.6112
▁marseilles	-11.6112
▁marshmallow	-11.6112
▁mcclure	-11.6112
▁mcginty	-11.6112
▁ministry	-11.6112
▁misjudged	-11.6112
▁monolith	-11.6112
▁mozart	-11.6112
▁network	-11.6112
▁nicklebones	-11.6112
▁norrin	-11.6112
▁norris	-11.6112
▁nougat	-11.6112
▁november	-11.6112
▁outcast	-11.6112
▁outrun	-11.6112
▁password	-11.6112
▁phantom	-11.6112
▁premises	-11.6112
▁prevail	-11.6112
▁prototype	-11.6112
▁pursue	-11.6112
▁pussfeller	-11.6112
▁quidditch	-11.6112
▁railsworth	-11.6112
▁ramsbottom	-11.6112
▁receiving	-11.6112
▁recognition	-11.6112
▁registration	-11.6112
▁rejoic	-11.6112
▁rheims	-11.6112
▁rhino	-11.6112
▁roulette	-11.6112
▁rupees	-11.6112
▁sabbath	-11.6112
▁samantha	-11.6112
▁seymour	-11.6112
▁shanghai	-11.6112
▁sharkticons	-11.6112
▁sheesh	-11.6112
▁smythe	-11.6112
▁solitaire	-11.6112
▁specimen	-11.6112
▁sponge	-11.6112
▁sprang	-11.6112
▁stallyns	-11.6112
▁stavros	-11.6112
▁stereo	-11.6112
▁stockbroker	-11.6112
▁sublime	-11.6112
▁succotash	-11.6112
▁superstition	-11.6112
▁supreme	-11.6112
▁switzerland	-11.6112
▁thieves	-11.6112
▁thunderstorms	-11.6112
▁ticktock	-11.6112
▁turkish	-11.6112
▁tweedledum	-11.6112
▁twirl	-11.6112
▁twostroke	-11.6112
▁umbrella	-11.6112
▁unacceptable	-11.6112
▁undercover	-11.6112
▁unlucky	-11.6112
▁unmovable	-11.6112
▁unprecedented	-11.6112
▁vaccinate	-11.6112
▁valiant	-11.6112
▁vaucouleurs	-11.6112
▁venom	-11.6112
▁veronica	-11.6112
▁villapianos	-11.6112
▁vulnerable	-11.6112
▁wazoo	-11.6112
▁wilcox	-11.6112
▁windshield	-11.6112
▁wisconsin	-11.6112
▁wlfe	-11.6112
▁youpia	-11.6112
contaminat	-11.6112
▁aorta	-11.6112
▁beagle	-11.6112
▁breech	-11.6112
▁chalk	-11.6112
▁concoct	-11.6112
▁disease	-11.6112
▁dreaded	-11.6112
▁empti	-11.6112
▁figuring	-11.6112
▁freelance	-11.6112
▁frustrating	-11.6112
▁gilbert	-11.6112
▁hallucinat	-11.6112
▁jimmyjacked	-11.6112
▁laurie	-11.6112
▁lillian	-11.6112
▁lntyre	-11.6112
▁methane	-11.6112
▁muzzle	-11.6112
▁norland	-11.6112
▁parlor	-11.6112
▁plymouth	-11.6112
▁pronounce	-11.6112
▁racecar	-11.6112
▁resort	-11.6112
▁retard	-11.6112
▁retting	-11.6112
▁semental	-11.6112
▁senate	-11.6112
▁significant	-11.6112
▁stupendous	-11.6112
▁unworthy	-11.6112
▁bosom	-11.6112
▁exports	-11.6112
▁filch	-11.6112
▁flare	-11.6112
▁houseelf	-11.6112
▁irregular	-11.6112
▁lilliputians	-11.6112
▁loaf	-11.6112
▁manilow	-11.6112
▁missouri	-11.6112
▁nauseous	-11.6112
▁noisy	-11.6112
▁rascal	-11.6112
▁shaving	-11.6112
plausible	-11.6112
▁ascen	-11.6112
▁conquer	-11.6112
▁grinning	-11.6112
▁nevertheless	-11.6112
▁toppling	-11.6112
▁vandoy	-11.6112
▁visual	-11.6112
▁angrily	-11.6112
▁backpack	-11.6112
▁generosity	-11.6112
▁hound	-11.6112
▁pinned	-11.6112
▁staging	-11.6112
▁whirr	-11.6112
▁yeshuh	-11.6112
▁blighter	-11.6112
▁introduction	-11.6112
▁veteran	-11.6112
▁afghanistan	-11.6112
▁converse	-11.6112
▁crucial	-11.6112
▁friction	-11.6112
▁runeard	-11.6112
▁berry	-11.6112
▁disarmament	-11.6112
▁essential	-11.6112
▁menatarms	-11.6112
▁monsoon	-11.6112
▁neighbourhood	-11.6112
▁buttocks	-11.6112
▁sleigh	-11.6112
▁berger	-11.6112
▁swiss	-11.6112
▁twinkie	-11.6112
▁whwhy	-11.6112
destined	-11.6112
▁briefcase	-11.6112
▁colleen	-11.6112
▁memorize	-11.6112
▁reeks	-11.6112
▁cedar	-11.6112
fuge	-11.6112
▁aero	-11.6112
▁immature	-11.6112
▁warrant	-11.6112
▁popsicle	-11.6112
▁hisses	-11.6112
▁hobbies	-11.6112
▁mccoy	-11.6112
▁conspiring	-11.6112
▁indicate	-11.6112
▁yikes	-11.6112
kyo	-11.6112
▁cardiologist	-11.6112
▁fragile	-11.6112
▁youknowwh	-11.6112
▁abort	-11.6112
▁mickey	-11.6112
▁snail	-11.6112
▁exalt	-11.6112
▁maurier	-11.6112
▁sansweet	-11.6112
▁admission	-11.6112
▁halves	-11.6112
witz	-11.6112
▁devonshire	-11.6112
heddin	-11.6112
▁canker	-11.6112
▁banner	-11.6112
▁ritz	-11.6113
▁underworld	-11.6113
▁jumprop	-11.6113
▁swoop	-11.6113
▁appliance	-11.6113
▁causing	-11.6113
▁demonstrate	-11.6113
▁anomalies	-11.6113
▁creative	-11.6113
▁gypsies	-11.6113
▁lapati	-11.6113
▁cried	-11.6113
▁disregard	-11.6113
▁lutz	-11.6113
▁befall	-11.6113
▁traiala	-11.6113
▁optimistic	-11.6113
▁destruction	-11.6113
▁expire	-11.6113
▁notify	-11.6113
▁abide	-11.6113
▁brig	-11.6113
▁nickname	-11.6113
▁genetic	-11.6113
▁repeatedly	-11.6113
▁micro	-11.6113
▁hind	-11.6113
▁japan	-11.6113
▁spooky	-11.6113
▁bleak	-11.6113
▁verified	-11.6113
▁absence	-11.6113
▁bracelet	-11.6113
▁compassionate	-11.6113
▁fender	-11.6113
▁triang	-11.6113
▁hohohoho	-11.6113
▁toddler	-11.6113
▁granger	-11.6113
▁gorge	-11.6113
▁snorting	-11.6113
▁scone	-11.6113
▁shelves	-11.6113
▁downwind	-11.6113
▁unoccupied	-11.6113
▁travis	-11.6113
▁crude	-11.6113
▁fester	-11.6113
▁achievement	-11.6113
▁enforcement	-11.6113
▁denial	-11.6113
▁tracts	-11.6113
▁vomit	-11.6113
▁ripple	-11.6113
▁holland	-11.6113
▁contribution	-11.6113
▁disqualified	-11.6113
▁scour	-11.6113
▁geroni	-11.6113
▁mongo	-11.6113
▁petition	-11.6113
▁preferably	-11.6113
▁xray	-11.6113
nnnn	-11.6113
▁organisation	-11.6113
▁cheerio	-11.6113
▁priority	-11.6113
gggg	-11.6113
▁laptop	-11.6113
▁shoving	-11.6113
▁chute	-11.6113
▁separation	-11.6113
▁braid	-11.6113
▁combat	-11.6113
▁conviction	-11.6113
▁trotting	-11.6113
▁choir	-11.6114
▁instructor	-11.6114
▁irma	-11.6114
▁greta	-11.6114
▁gasoline	-11.6114
▁stature	-11.6114
▁pipeline	-11.6114
▁vowel	-11.6114
▁cornfield	-11.6114
▁protest	-11.6114
▁debate	-11.6114
▁bidding	-11.6114
▁jammed	-11.6114
acious	-11.6114
▁alaska	-11.6114
▁recracker	-11.6114
imony	-11.6114
▁drumming	-11.6114
▁assign	-11.6114
▁luke	-11.6114
▁misery	-11.6114
▁patent	-11.6114
▁unpredictable	-11.6114
▁starscream	-11.6114
▁diana	-11.6114
▁resignation	-11.6114
▁chopping	-11.6114
▁depression	-11.6114
▁exhibition	-11.6114
▁hyper	-11.6114
▁mwah	-11.6114
▁poetry	-11.6114
▁humour	-11.6114
▁masquerade	-11.6114
▁arena	-11.6114
▁battlefield	-11.6114
▁raid	-11.6115
▁glee	-11.6115
▁massacre	-11.6115
▁bullied	-11.6115
▁portside	-11.6115
▁beginner	-11.6115
▁deliberately	-11.6115
▁agenda	-11.6115
▁foca	-11.6115
▁complimentary	-11.6115
▁roland	-11.6115
▁profound	-11.6115
▁attendant	-11.6115
▁cupboard	-11.6115
▁yonder	-11.6115
▁tryouts	-11.6115
▁hooper	-11.6115
▁restrict	-11.6115
▁hibernation	-11.6115
▁teapot	-11.6115
▁apex	-11.6115
▁giddy	-11.6115
▁refreshment	-11.6115
▁astro	-11.6115
▁entertainment	-11.6115
▁crackling	-11.6115
▁poking	-11.6115
▁ripping	-11.6115
▁draft	-11.6115
▁scum	-11.6115
▁gutter	-11.6115
▁jock	-11.6115
▁moonlight	-11.6115
▁duran	-11.6116
▁spotlight	-11.6116
▁petrol	-11.6116
▁temptation	-11.6116
▁gravity	-11.6116
▁climate	-11.6116
▁ooz	-11.6116
▁vase	-11.6116
▁broom	-11.6116
stabbing	-11.6116
▁chapter	-11.6116
▁slave	-11.6116
gun	-11.6116
▁bever	-11.6116
▁testify	-11.6116
▁legendary	-11.6116
▁antenna	-11.6116
▁memorial	-11.6116
▁occupied	-11.6116
▁glide	-11.6116
▁sufficient	-11.6116
anide	-11.6116
▁absorbe	-11.6116
▁churchill	-11.6116
▁rash	-11.6116
▁meditat	-11.6116
▁shone	-11.6117
kov	-11.6117
▁stallion	-11.6117
▁primate	-11.6117
▁mince	-11.6117
▁notion	-11.6117
▁plump	-11.6117
▁porc	-11.6117
▁defection	-11.6117
▁chopped	-11.6118
▁actua	-11.6118
▁stung	-11.6118
▁meaningless	-11.6118
▁cinch	-11.6118
▁ryder	-11.6118
▁makin	-11.6118
▁maximum	-11.6118
▁geese	-11.6118
▁coron	-11.6118
▁triba	-11.6118
▁scenery	-11.6118
▁poet	-11.6119
▁braz	-11.6119
▁barge	-11.6119
▁converters	-11.6119
▁dodo	-11.6119
▁restraint	-11.6119
▁amiable	-11.6119
▁puzzl	-11.6119
▁rapidly	-11.6119
▁polar	-11.6119
▁fourteen	-11.612
▁beak	-11.612
▁cellar	-11.612
▁thaw	-11.612
▁tralalaa	-11.612
▁arise	-11.612
▁surgeon	-11.612
▁exhausting	-11.612
urance	-11.612
▁bulb	-11.612
▁ravishing	-11.612
▁perch	-11.6121
▁swan	-11.6121
▁manag	-11.6121
▁gloomy	-11.6122
▁singsongy	-11.6122
▁huffy	-11.6122
llyho	-11.6122
▁dental	-11.6122
▁suckup	-11.6122
▁arf	-11.6122
▁grr	-11.6122
kety	-11.6122
▁sunny	-11.6122
▁zap	-11.6123
▁lust	-11.6123
▁gladys	-11.6123
▁cox	-11.6123
▁terminated	-11.6123
▁drift	-11.6123
▁losin	-11.6123
▁bonus	-11.6123
▁cities	-11.6123
▁jillian	-11.6123
▁aden	-11.6123
strate	-11.6123
▁laura	-11.6123
▁cheerful	-11.6123
▁activity	-11.6123
▁sincerely	-11.6124
▁torches	-11.6124
▁inches	-11.6124
▁crank	-11.6124
▁disco	-11.6124
baum	-11.6124
▁bushes	-11.6125
▁packard	-11.6125
▁tapping	-11.6126
▁tide	-11.6126
▁chemical	-11.6126
▁pew	-11.6126
▁curve	-11.6126
▁grain	-11.6126
▁emory	-11.6127
▁headache	-11.6127
▁honourable	-11.6127
▁scat	-11.6128
▁crunchy	-11.6128
▁shel	-11.6128
▁shipped	-11.6128
▁firewood	-11.6128
▁published	-11.6128
▁teammate	-11.6129
▁joyfully	-11.613
▁cuban	-11.613
▁sportsman	-11.613
▁booby	-11.613
▁skirt	-11.6131
▁hospitality	-11.6131
▁bode	-11.6132
▁flock	-11.6132
▁farther	-11.6132
▁warship	-11.6132
▁monk	-11.6133
▁dug	-11.6133
▁basin	-11.6133
▁sync	-11.6134
▁surrounding	-11.6134
▁tempting	-11.6134
▁sparkle	-11.6134
hospita	-11.6134
▁hoist	-11.6135
assic	-11.6135
▁eden	-11.6136
▁kra	-11.6136
▁swede	-11.6136
▁til	-11.6136
eter	-11.6136
▁moss	-11.6136
▁dumbness	-11.6137
▁instantly	-11.6137
▁oppose	-11.6138
▁gap	-11.6138
▁aww	-11.6139
▁pitches	-11.6139
▁devoted	-11.6139
▁perished	-11.6139
rietta	-11.614
▁ballet	-11.614
▁mouthful	-11.614
▁holly	-11.614
▁producer	-11.6141
▁swore	-11.6142
▁pixies	-11.6142
▁spuddies	-11.6142
▁foreigners	-11.6142
▁itchy	-11.6142
▁dined	-11.6143
▁battery	-11.6143
▁jimp	-11.6143
▁muck	-11.6144
▁superman	-11.6144
▁faraway	-11.6145
▁jackass	-11.6145
▁transformation	-11.6145
▁spank	-11.6145
▁experimental	-11.6146
▁traditional	-11.6146
▁excellency	-11.6146
▁delegate	-11.6146
▁vain	-11.6146
▁hookers	-11.6146
▁rice	-11.6148
▁superb	-11.6149
▁inherited	-11.615
▁flattered	-11.615
▁binder	-11.615
▁pank	-11.615
▁dreadfully	-11.6151
▁zum	-11.6151
▁ridge	-11.6152
▁guin	-11.6152
▁goodwill	-11.6152
▁anim	-11.6155
▁boxer	-11.6156
▁powerless	-11.6158
liga	-11.6158
▁splinter	-11.6158
▁specialty	-11.6158
piece	-11.6158
▁fulltime	-11.6158
▁teeny	-11.6158
▁scheme	-11.6159
▁colossal	-11.616
▁pointless	-11.616
▁detected	-11.616
▁resigned	-11.616
▁bailed	-11.616
▁altered	-11.616
▁annoyed	-11.616
▁whoaoh	-11.6161
▁larger	-11.6163
▁frenchman	-11.6164
mother	-11.6164
▁reduce	-11.6164
narr	-11.6165
▁fried	-11.6165
▁dale	-11.6168
▁christmastime	-11.6168
▁revis	-11.6169
▁impound	-11.6169
▁brady	-11.617
▁installed	-11.6171
▁pint	-11.6171
▁embarrassed	-11.6171
▁restored	-11.6172
▁after	-11.6172
▁curiouser	-11.6172
▁jay	-11.6175
▁terrier	-11.6178
▁asses	-11.6178
▁firmly	-11.6179
▁unleashed	-11.6182
▁lifelike	-11.6183
▁badab	-11.6184
▁included	-11.6185
▁bullfighter	-11.6186
▁buster	-11.6187
▁plank	-11.6189
▁mourning	-11.619
▁defy	-11.619
▁entertaining	-11.6191
▁riches	-11.6191
▁betsy	-11.6193
▁ancestors	-11.6193
▁inte	-11.6193
▁jacques	-11.6193
▁tattoos	-11.6193
tona	-11.6194
▁wails	-11.6194
▁doublet	-11.6194
▁porter	-11.6197
▁hitch	-11.6197
▁guaranteed	-11.6199
▁activated	-11.6199
▁jar	-11.62
▁niles	-11.62
▁grub	-11.6201
▁tickled	-11.6201
▁nasa	-11.6202
ially	-11.6203
andeli	-11.6204
▁quacking	-11.6204
▁retreating	-11.6205
▁tucker	-11.6205
▁topic	-11.6205
▁matches	-11.6207
▁bent	-11.6207
▁jur	-11.6208
▁delivery	-11.6209
▁stubb	-11.6211
buck	-11.6214
▁cryin	-11.6215
▁ruler	-11.6215
▁jr	-11.6216
▁desperately	-11.622
▁mona	-11.622
▁messes	-11.6222
▁mancha	-11.6223
▁buen	-11.6223
▁succeeded	-11.6224
▁fel	-11.6224
▁diving	-11.6227
▁honks	-11.6228
▁generat	-11.623
▁herring	-11.6234
▁sig	-11.6236
▁weakly	-11.6238
▁defeated	-11.6239
nky	-11.6239
▁pip	-11.6242
▁dome	-11.6242
azing	-11.6242
▁desired	-11.6243
▁lone	-11.6243
▁statue	-11.6243
▁mule	-11.6245
▁fixin	-11.6245
▁sputters	-11.6246
▁cheerleaders	-11.6246
▁cuddles	-11.6246
▁roosters	-11.6246
▁vampires	-11.6246
▁vikings	-11.6246
▁gaining	-11.6247
▁permanently	-11.6248
▁triplets	-11.6249
▁pola	-11.6249
▁propaga	-11.625
▁buns	-11.6254
▁reminder	-11.6254
▁martini	-11.6255
▁blunder	-11.6255
▁nighttime	-11.6257
▁kate	-11.6259
▁followers	-11.6259
▁speculat	-11.626
▁dusk	-11.6261
▁shushing	-11.6262
▁crosses	-11.6269
▁yelled	-11.6269
▁fleas	-11.6269
▁donate	-11.6272
lina	-11.6273
▁conor	-11.6275
iana	-11.6275
▁louisa	-11.6276
▁sacrificed	-11.6276
sits	-11.6282
▁cracked	-11.6282
▁dvd	-11.6285
▁domini	-11.6285
▁tighter	-11.6285
▁spec	-11.6287
▁bene	-11.6288
▁maman	-11.6289
▁avoiding	-11.629
▁strangle	-11.6291
▁dumber	-11.6295
▁cheated	-11.63
▁haver	-11.63
▁handcuffs	-11.63
▁teenagers	-11.63
▁ankles	-11.63
▁intentions	-11.63
▁reveals	-11.63
iya	-11.6302
▁difficulty	-11.6302
ament	-11.6304
▁involves	-11.6304
▁boosters	-11.6306
▁lush	-11.6307
▁shocking	-11.632
▁scratched	-11.6321
▁whales	-11.6323
edford	-11.6323
▁claimed	-11.6336
▁cinema	-11.6338
▁freaked	-11.6346
▁takeoff	-11.6347
▁meantime	-11.6349
▁thruster	-11.635
weed	-11.6351
▁superpowers	-11.6353
▁blisters	-11.6353
▁appearances	-11.6353
▁landmarks	-11.6353
▁products	-11.6354
▁pups	-11.6354
▁boxers	-11.6354
▁dooms	-11.6354
▁zoom	-11.6355
▁shades	-11.6355
▁motors	-11.6355
tto	-11.6355
▁blamed	-11.6361
▁rushing	-11.6361
▁sweating	-11.6362
▁creeping	-11.6363
▁prayed	-11.6364
▁robes	-11.6369
▁mul	-11.6371
▁panick	-11.6371
▁coll	-11.6373
▁fres	-11.6375
▁missus	-11.6376
▁placement	-11.6377
last	-11.6378
duct	-11.6383
▁hoot	-11.6385
▁protector	-11.6389
▁remained	-11.6391
▁sporting	-11.6394
▁jest	-11.6396
▁lifted	-11.6397
dom	-11.6397
▁idle	-11.64
▁wes	-11.6401
▁thugs	-11.6407
▁mandrakes	-11.6407
▁mermaids	-11.6407
▁lungs	-11.6407
▁ranks	-11.6407
▁towels	-11.6407
▁sneezes	-11.6412
illion	-11.6413
▁sticker	-11.6419
▁peas	-11.6427
▁proudly	-11.6434
▁augustin	-11.6438
▁added	-11.6441
▁tracked	-11.6444
▁rented	-11.6444
▁penne	-11.6456
▁sleepin	-11.6459
▁purrs	-11.6461
▁crickets	-11.6461
▁principles	-11.6461
▁reindeers	-11.6461
bili	-11.6462
▁disappearing	-11.6464
mock	-11.6465
▁smashed	-11.6467
▁pickle	-11.6471
▁eighty	-11.6472
▁aces	-11.648
▁cans	-11.6481
▁raci	-11.6489
amom	-11.6493
▁ricky	-11.6498
▁dee	-11.65
▁harr	-11.65
▁affects	-11.6506
▁heists	-11.6516
▁limbs	-11.6516
▁stables	-11.6518
▁joker	-11.653
▁shorty	-11.6538
▁fairly	-11.6538
▁deer	-11.6538
▁farmers	-11.6542
ena	-11.6557
▁dem	-11.6557
▁comments	-11.6566
▁don	-11.6568
▁suggesting	-11.6569
hoohoohoo	-11.6572
▁chicks	-11.6572
posed	-11.6586
▁rattle	-11.6588
uck	-11.6592
orie	-11.6594
▁sho	-11.6603
▁launching	-11.6612
▁interpret	-11.6616
▁constructi	-11.6616
▁scraps	-11.6619
▁payments	-11.6625
▁camping	-11.664
▁wip	-11.6643
▁masse	-11.665
▁weekly	-11.6653
gone	-11.6654
nose	-11.6665
balls	-11.6669
▁shelly	-11.667
▁swings	-11.6673
▁relaxed	-11.6674
▁cater	-11.6679
▁items	-11.668
▁blessings	-11.6681
▁sac	-11.6682
thank	-11.6683
▁galact	-11.6683
▁nets	-11.669
▁fer	-11.6701
▁slug	-11.6707
▁respected	-11.6714
▁importantly	-11.6724
veral	-11.6725
▁seated	-11.6727
▁subjects	-11.6735
▁kamals	-11.6735
hoohoo	-11.6736
▁arrives	-11.6736
▁oran	-11.674
auxi	-11.6758
▁illness	-11.6763
mic	-11.6766
▁soci	-11.677
▁seeking	-11.6772
▁habits	-11.679
▁artists	-11.679
▁measures	-11.6792
▁lightly	-11.6794
▁nato	-11.68
▁trio	-11.6814
▁diplomati	-11.6816
▁listed	-11.6819
▁chit	-11.682
▁punching	-11.6832
▁tortur	-11.6832
▁instruments	-11.6846
▁leagues	-11.6846
▁costumes	-11.6846
▁riddles	-11.6846
▁suffers	-11.6851
▁span	-11.686
month	-11.6866
▁holl	-11.6885
mashed	-11.6889
▁ovens	-11.6901
▁bedrooms	-11.6901
▁signatures	-11.6901
▁speeding	-11.6906
pain	-11.6941
▁ash	-11.6944
▁oranges	-11.6957
▁catchy	-11.6961
east	-11.6964
▁eu	-11.6981
ji	-11.6983
offs	-11.6992
▁your	-11.7004
▁values	-11.701
▁raining	-11.7011
▁tasks	-11.7013
▁blankets	-11.7013
▁curses	-11.7015
rien	-11.7016
▁baker	-11.7019
▁fails	-11.702
▁painter	-11.7022
▁goons	-11.7034
▁universes	-11.7039
▁backfire	-11.7049
acu	-11.7056
hopped	-11.7058
rjob	-11.7059
▁on	-11.7063
▁hump	-11.7066
▁tub	-11.7068
▁chairs	-11.707
▁occasional	-11.7076
▁preachers	-11.7078
pture	-11.7092
▁kicking	-11.7107
▁bol	-11.7132
aver	-11.7134
▁prisoners	-11.7149
ashes	-11.7156
gene	-11.7175
▁maids	-11.7182
▁combinations	-11.7183
▁papi	-11.7185
▁bett	-11.7203
▁justifi	-11.7211
gro	-11.7225
owls	-11.7228
iance	-11.7232
▁posts	-11.7234
▁jol	-11.7237
▁demands	-11.7239
izer	-11.7241
▁thi	-11.7241
lings	-11.7254
▁squir	-11.7259
ith	-11.7288
▁tunnels	-11.7296
ied	-11.7312
tythree	-11.7313
elle	-11.7336
▁regrett	-11.7342
▁blackeye	-11.7343
▁jerks	-11.7343
muff	-11.7361
itch	-11.7368
▁exu	-11.7384
okay	-11.7388
bre	-11.739
▁forg	-11.7391
▁cosmo	-11.7393
quest	-11.7396
▁willi	-11.7422
▁und	-11.7459
sett	-11.7461
▁surge	-11.7478
▁presum	-11.7503
llen	-11.7525
achi	-11.7547
▁ann	-11.756
▁exp	-11.7566
pet	-11.7575
▁we	-11.7596
ably	-11.7607
ige	-11.7615
▁deba	-11.7625
ouche	-11.7701
▁ski	-11.7715
mona	-11.7722
lein	-11.7739
yth	-11.7749
riff	-11.7753
▁flea	-11.7785
▁eli	-11.7787
▁tot	-11.7814
astic	-11.782
▁floo	-11.7837
llis	-11.7856
▁cav	-11.7882
ofthem	-11.7898
▁cran	-11.7918
▁et	-11.7925
ggie	-11.7934
erpl	-11.7935
nut	-11.794
▁palat	-11.7948
tub	-11.7958
ida	-11.7963
▁jellie	-11.7977
uatro	-11.7979
▁advanc	-11.799
bury	-11.7992
tack	-11.7995
▁hel	-11.7999
istan	-11.8028
gent	-11.8033
▁linger	-11.8037
ification	-11.8043
nag	-11.8045
▁assembl	-11.8067
▁magn	-11.8102
▁har	-11.8106
▁cou	-11.8108
▁bul	-11.8121
▁impatient	-11.8158
uckling	-11.8168
oggin	-11.8187
ulkin	-11.8201
▁damag	-11.8203
war	-11.8224
▁dodg	-11.8232
▁wad	-11.8236
job	-11.8237
die	-11.8296
▁jan	-11.8298
▁wearer	-11.8333
▁mak	-11.8341
hank	-11.8361
▁fab	-11.8373
▁whi	-11.8386
tivated	-11.839
ula	-11.8395
oose	-11.8412
dley	-11.8447
rack	-11.8497
▁canna	-11.8503
ean	-11.8533
igh	-11.856
▁bre	-11.8627
▁bun	-11.8627
uil	-11.8629
rb	-11.8635
iary	-11.8659
▁charl	-11.8671
hew	-11.8681
amas	-11.8688
band	-11.8696
ical	-11.8714
▁trav	-11.8717
hman	-11.8719
nks	-11.8723
▁ofthe	-11.8738
▁nutri	-11.8752
▁capt	-11.8753
▁construct	-11.8777
lapping	-11.8777
ashing	-11.8805
anita	-11.8807
▁gla	-11.883
alice	-11.8836
▁chchch	-11.8894
kline	-11.8897
mont	-11.89
▁bb	-11.89
lala	-11.8905
▁mau	-11.8918
elp	-11.8924
eye	-11.8936
maki	-11.8956
arian	-11.8982
▁rad	-11.8996
▁phon	-11.9005
tortion	-11.9013
▁slu	-11.9021
icious	-11.9047
dication	-11.9049
▁cam	-11.9066
anges	-11.9067
▁kn	-11.9067
▁sno	-11.9069
treat	-11.9073
▁roma	-11.9089
▁pil	-11.9102
▁tur	-11.9109
lew	-11.9123
▁sca	-11.9133
▁vin	-11.9145
▁cooper	-11.9151
rue	-11.9162
winding	-11.9169
iq	-11.9171
▁sixty	-11.9182
lous	-11.9184
▁shiver	-11.9208
▁ninety	-11.9217
▁squeak	-11.9218
▁creak	-11.9221
▁dispos	-11.9222
▁wick	-11.9222
▁gil	-11.9229
▁squawk	-11.9231
▁cough	-11.9233
▁tweet	-11.9233
front	-11.9233
▁meow	-11.9235
utti	-11.9236
▁viol	-11.9247
▁moan	-11.9249
obby	-11.9249
mom	-11.925
▁strip	-11.9253
▁sherman	-11.9253
▁corporation	-11.9254
▁swingin	-11.9255
▁pupil	-11.9255
connected	-11.9256
▁quill	-11.926
▁cheerleader	-11.9262
▁cuddle	-11.9262
▁rooster	-11.9262
▁vampire	-11.9262
▁sputter	-11.9262
▁exhibit	-11.9264
▁method	-11.9266
▁sponsor	-11.9267
▁runner	-11.9269
bums	-11.927
▁native	-11.9271
▁oompaloompa	-11.9272
▁viking	-11.9272
▁marble	-11.9273
▁luyden	-11.9276
▁sidekick	-11.9277
▁croak	-11.9277
▁footstep	-11.9278
▁degree	-11.9278
▁decepticon	-11.9279
▁splutter	-11.9279
▁whine	-11.9281
▁snicker	-11.9281
▁folk	-11.9283
▁carrot	-11.9285
▁stair	-11.9285
layed	-11.9288
▁spice	-11.9288
▁sham	-11.9288
▁jewel	-11.929
▁triplet	-11.9292
▁bean	-11.9316
ggle	-11.9322
▁scrub	-11.9322
loss	-11.9324
▁maxim	-11.9326
fia	-11.9337
▁leftover	-11.9344
kids	-11.9348
▁scor	-11.9357
▁growl	-11.9358
phones	-11.9362
▁explor	-11.9364
▁chang	-11.9364
asu	-11.9372
jector	-11.9374
▁crunch	-11.9377
▁stud	-11.9377
▁helga	-11.9379
shells	-11.938
▁ando	-11.9382
▁batteri	-11.939
▁injur	-11.9391
▁gw	-11.9392
▁involv	-11.9392
▁continu	-11.9393
▁thrill	-11.9394
▁trespass	-11.9394
▁aft	-11.9394
ucky	-11.9395
charge	-11.9395
▁slid	-11.9396
▁promis	-11.9397
affle	-11.9398
riffi	-11.9399
▁pleas	-11.94
▁murmur	-11.9401
▁blur	-11.9402
▁scann	-11.9404
range	-11.9406
▁poster	-11.9406
▁depress	-11.9407
▁slaughter	-11.9407
▁alleg	-11.9407
▁tou	-11.9407
▁connect	-11.9408
uity	-11.9409
▁crook	-11.9411
▁ax	-11.9412
▁insta	-11.9412
▁musician	-11.9414
eaves	-11.9415
mph	-11.9416
▁dyna	-11.9416
shirts	-11.9416
power	-11.9416
▁hav	-11.9416
cracker	-11.9416
▁yuk	-11.9417
▁kat	-11.9418
worth	-11.9418
▁banish	-11.9418
guff	-11.9419
sync	-11.942
skirt	-11.942
▁initiate	-11.942
sick	-11.942
poster	-11.9421
cooked	-11.9422
happy	-11.9422
crossed	-11.9422
position	-11.9422
sharing	-11.9422
evidence	-11.9422
quarter	-11.9422
filled	-11.9422
ola	-11.9422
screen	-11.9422
valuable	-11.9422
▁excite	-11.9422
▁relieve	-11.9422
solve	-11.9422
after	-11.9422
paper	-11.9422
poop	-11.9423
world	-11.9423
craft	-11.9423
proper	-11.9423
grown	-11.9423
birth	-11.9423
support	-11.9423
flower	-11.9423
loved	-11.9423
punch	-11.9423
jungle	-11.9423
jump	-11.9423
control	-11.9423
crowd	-11.9423
woman	-11.9423
guy	-11.9423
helm	-11.9423
worm	-11.9424
kilo	-11.9424
rabbits	-11.9424
coast	-11.9424
▁capture	-11.9424
plant	-11.9424
smith	-11.9424
▁frame	-11.9424
weight	-11.9424
credit	-11.9425
galact	-11.9425
win	-11.9425
▁filth	-11.9426
button	-11.9426
▁emergenc	-11.9426
mission	-11.9426
▁sneez	-11.9426
rapes	-11.9427
human	-11.9427
▁pudd	-11.9427
brady	-11.9427
stage	-11.9427
▁solemn	-11.9427
teeth	-11.9427
▁qualit	-11.9427
▁fluff	-11.9428
▁pictur	-11.9428
care	-11.9429
▁extensi	-11.943
▁surprising	-11.943
▁eliminate	-11.9431
▁extinguish	-11.9431
▁char	-11.9431
ssini	-11.9431
▁wond	-11.9432
patch	-11.9432
cake	-11.9432
vine	-11.9432
dash	-11.9432
▁switche	-11.9433
▁perish	-11.9433
▁vend	-11.9434
▁fami	-11.9435
▁sharpen	-11.9435
▁logical	-11.9435
▁scul	-11.9436
slide	-11.9436
date	-11.9437
correct	-11.9437
▁glen	-11.9438
level	-11.9438
zoom	-11.9439
pure	-11.9439
▁steer	-11.9439
ulating	-11.944
lio	-11.944
▁scot	-11.9441
ograph	-11.9441
fun	-11.9441
▁trifle	-11.9442
dale	-11.9442
▁flee	-11.9442
▁accommodat	-11.9443
▁educat	-11.9443
▁germ	-11.9443
▁twit	-11.9443
▁suburb	-11.9443
unction	-11.9443
ologist	-11.9443
umbling	-11.9444
▁villa	-11.9444
mix	-11.9444
▁smooch	-11.9444
▁henri	-11.9444
▁peach	-11.9444
orita	-11.9444
izi	-11.9445
▁practi	-11.9445
▁plato	-11.9445
operative	-11.9445
▁womb	-11.9445
wave	-11.9445
measur	-11.9445
▁casual	-11.9445
shire	-11.9445
▁cigar	-11.9445
▁candid	-11.9445
▁disarm	-11.9445
▁afghan	-11.9445
▁oxford	-11.9445
male	-11.9445
▁eloquen	-11.9446
▁poverty	-11.9446
cyclop	-11.9446
glycerin	-11.9446
hearted	-11.9446
heinliken	-11.9446
humiliation	-11.9446
impanzee	-11.9446
oaoa	-11.9446
ological	-11.9446
osaurus	-11.9446
oulder	-11.9446
ovascular	-11.9446
▁abroad	-11.9446
▁abusive	-11.9446
▁accompany	-11.9446
▁acquired	-11.9446
▁adolescent	-11.9446
▁ahkmenrah	-11.9446
▁alexander	-11.9446
▁ambush	-11.9446
▁anyplace	-11.9446
▁appraised	-11.9446
▁apprehen	-11.9446
▁aquarium	-11.9446
▁arizona	-11.9446
▁armagnac	-11.9446
▁artifact	-11.9446
▁ascertain	-11.9446
▁asylum	-11.9446
▁audition	-11.9446
▁azteca	-11.9446
▁bababa	-11.9446
▁balcony	-11.9446
▁baltese	-11.9446
▁battalion	-11.9446
▁bechamel	-11.9446
▁beethoven	-11.9446
▁blarda	-11.9446
▁bleeker	-11.9446
▁blynken	-11.9446
▁boggart	-11.9446
▁bouquet	-11.9446
▁branson	-11.9446
▁bratislava	-11.9446
▁brumble	-11.9446
▁brunette	-11.9446
▁brussels	-11.9446
▁bubbling	-11.9446
▁buddhist	-11.9446
▁bunnies	-11.9446
▁butterscotch	-11.9446
▁capuchin	-11.9446
▁caricature	-11.9446
▁carlisle	-11.9446
▁carnivore	-11.9446
▁casanova	-11.9446
▁catalog	-11.9446
▁cavalry	-11.9446
▁caviar	-11.9446
▁centuries	-11.9446
▁cereal	-11.9446
▁chantrellines	-11.9446
▁chariot	-11.9446
▁cheerleading	-11.9446
▁chimichanga	-11.9446
▁chrono	-11.9446
▁chugg	-11.9446
▁circulation	-11.9446
▁clarify	-11.9446
▁claustrophobi	-11.9446
▁cobbler	-11.9446
▁cockadoodle	-11.9446
▁collision	-11.9446
▁compadre	-11.9446
▁compound	-11.9446
▁compress	-11.9446
▁concrete	-11.9446
▁confine	-11.9446
▁confusing	-11.9446
▁consumed	-11.9446
▁contradict	-11.9446
▁contraption	-11.9446
▁corrupt	-11.9446
▁corvette	-11.9446
▁cosmetic	-11.9446
▁coyote	-11.9446
▁crumpets	-11.9446
▁cutthroat	-11.9446
▁debrief	-11.9446
▁deceiving	-11.9446
▁decipher	-11.9446
▁deformit	-11.9446
▁delaford	-11.9446
▁democracy	-11.9446
▁demolition	-11.9446
▁devour	-11.9446
▁diarrhea	-11.9446
▁economic	-11.9446
▁effley	-11.9446
▁eject	-11.9446
▁elected	-11.9446
▁elegance	-11.9446
▁emphasis	-11.9446
▁enamel	-11.9446
▁encouraging	-11.9446
▁errol	-11.9446
▁escobar	-11.9446
▁exboyfriend	-11.9446
▁excavat	-11.9446
▁exploding	-11.9446
▁exterminator	-11.9446
▁extravagan	-11.9446
▁exxon	-11.9446
▁eyebrows	-11.9446
▁fairfarren	-11.9446
▁fencing	-11.9446
▁flexibility	-11.9446
▁francine	-11.9446
▁frederick	-11.9446
▁frustration	-11.9446
▁furrows	-11.9446
▁gabby	-11.9446
▁galahad	-11.9446
▁gazerbeam	-11.9446
▁gibson	-11.9446
▁gilderoy	-11.9446
▁ginormous	-11.9446
▁girdle	-11.9446
▁giuseppe	-11.9446
▁gonzalez	-11.9446
▁graduation	-11.9446
▁hampstead	-11.9446
▁harlem	-11.9446
▁hayride	-11.9446
▁heathrow	-11.9446
▁hideandseek	-11.9446
▁honeymaren	-11.9446
▁horribly	-11.9446
▁hufflepuff	-11.9446
▁hurray	-11.9446
▁hypocri	-11.9446
▁hypothe	-11.9446
▁imagining	-11.9446
▁immensely	-11.9446
▁inappropriate	-11.9446
▁incorrigible	-11.9446
▁indestructible	-11.9446
▁indulge	-11.9446
▁inferior	-11.9446
▁inhumane	-11.9446
▁innocence	-11.9446
▁insecurity	-11.9446
▁intertwine	-11.9446
▁intrusion	-11.9446
▁invading	-11.9446
▁kaleigh	-11.9446
▁kindygarten	-11.9446
▁kingfisher	-11.9446
▁klondike	-11.9446
▁kobaya	-11.9446
▁korea	-11.9446
▁korrd	-11.9446
▁krystal	-11.9446
▁laboratory	-11.9446
▁landlord	-11.9446
▁laserbeak	-11.9446
▁lavaughn	-11.9446
▁librarian	-11.9446
▁lindsey	-11.9446
▁lorraine	-11.9446
▁luminous	-11.9446
▁macadamia	-11.9446
▁magenta	-11.9446
▁maggot	-11.9446
▁maneuver	-11.9446
▁maquina	-11.9446
▁megatunnel	-11.9446
▁microchip	-11.9446
▁mitchie	-11.9446
▁mitzvah	-11.9446
▁mizzen	-11.9446
▁mosquito	-11.9446
▁motorcar	-11.9446
▁mukesh	-11.9446
▁negotiation	-11.9446
▁norwegian	-11.9446
▁notredame	-11.9446
▁nuisance	-11.9446
▁oatmeal	-11.9446
▁obedient	-11.9446
▁october	-11.9446
▁oklahoma	-11.9446
▁olenski	-11.9446
▁outlaw	-11.9446
▁outlook	-11.9446
▁outnumber	-11.9446
▁panpisco	-11.9446
▁pantoni	-11.9446
▁parachute	-11.9446
▁paraguay	-11.9446
▁penetrate	-11.9446
▁peninsula	-11.9446
▁penniless	-11.9446
▁perspective	-11.9446
▁philippines	-11.9446
▁pianoforte	-11.9446
▁platter	-11.9446
▁polka	-11.9446
▁possibility	-11.9446
▁precaution	-11.9446
▁preparation	-11.9446
▁prescott	-11.9446
▁prescription	-11.9446
▁presidency	-11.9446
▁preview	-11.9446
▁propeller	-11.9446
▁provoke	-11.9446
▁qualify	-11.9446
▁quentin	-11.9446
▁rawhide	-11.9446
▁razor	-11.9446
▁redemption	-11.9446
▁regiment	-11.9446
▁regroup	-11.9446
▁reinforcement	-11.9446
▁renounce	-11.9446
▁replacing	-11.9446
▁residence	-11.9446
▁residents	-11.9446
▁resources	-11.9446
▁righteousness	-11.9446
▁roadblock	-11.9446
▁romulan	-11.9446
▁rookies	-11.9446
▁sadelstein	-11.9446
▁saintloup	-11.9446
▁salami	-11.9446
▁salaz	-11.9446
▁samaritan	-11.9446
▁sanitary	-11.9446
▁sarge	-11.9446
▁schwartzman	-11.9446
▁scissors	-11.9446
▁scoundrel	-11.9446
▁scuttle	-11.9446
▁sebastopol	-11.9446
▁selfesteem	-11.9446
▁selfloath	-11.9446
▁semifinal	-11.9446
▁serene	-11.9446
▁shaggy	-11.9446
▁shannon	-11.9446
▁shattered	-11.9446
▁shatters	-11.9446
▁shuddering	-11.9446
▁sicilian	-11.9446
▁silicon	-11.9446
▁skedaddle	-11.9446
▁sketch	-11.9446
▁slippery	-11.9446
▁smurf	-11.9446
▁sngsng	-11.9446
▁snooze	-11.9446
▁snowflake	-11.9446
▁somewhat	-11.9446
▁sorrow	-11.9446
▁souffl	-11.9446
▁souvenir	-11.9446
▁spiderwick	-11.9446
▁splattered	-11.9446
▁spontaneous	-11.9446
▁steadfast	-11.9446
▁supervisor	-11.9446
▁sustain	-11.9446
▁technician	-11.9446
▁telemart	-11.9446
▁tempests	-11.9446
▁tenspeed	-11.9446
▁terreray	-11.9446
▁thaddeus	-11.9446
▁thirsk	-11.9446
▁thirteen	-11.9446
▁thorough	-11.9446
▁thriving	-11.9446
▁tobacco	-11.9446
▁toboland	-11.9446
▁treasury	-11.9446
▁trenches	-11.9446
▁trinket	-11.9446
▁troubling	-11.9446
▁truffle	-11.9446
▁tweedledee	-11.9446
▁unconscious	-11.9446
▁underpantyworld	-11.9446
▁unharmed	-11.9446
▁unrealistic	-11.9446
▁ursula	-11.9446
▁varsity	-11.9446
▁vijay	-11.9446
▁vocabulary	-11.9446
▁volleyball	-11.9446
▁wacko	-11.9446
▁welfare	-11.9446
▁wendell	-11.9446
▁weselton	-11.9446
▁whatwhat	-11.9446
▁whinnying	-11.9446
▁whiskers	-11.9446
▁winniver	-11.9446
▁worcestershire	-11.9446
▁wreaths	-11.9446
▁wynken	-11.9446
▁xavier	-11.9446
▁yourejokin	-11.9446
▁zodiac	-11.9446
▁zombies	-11.9446
▁billiard	-11.9446
▁butcher	-11.9446
▁cannibal	-11.9446
▁choreograph	-11.9446
▁dibble	-11.9446
▁gibble	-11.9446
▁hillbill	-11.9446
▁intervene	-11.9446
▁patriot	-11.9446
▁pivot	-11.9446
▁rebellion	-11.9446
▁revelation	-11.9446
▁shabby	-11.9446
▁snazzy	-11.9446
▁unravel	-11.9446
oepolish	-11.9446
▁athens	-11.9446
▁baggage	-11.9446
▁bestseller	-11.9446
▁brodad	-11.9446
▁cataclysm	-11.9446
▁corresponde	-11.9446
▁error	-11.9446
▁graveyard	-11.9446
▁latitude	-11.9446
▁lettuce	-11.9446
▁metallic	-11.9446
▁mitts	-11.9446
▁muscular	-11.9446
▁obstructi	-11.9446
▁overheard	-11.9446
▁pennon	-11.9446
▁plateau	-11.9446
▁ravage	-11.9446
▁raymond	-11.9446
▁richmond	-11.9446
▁shudders	-11.9446
▁sleeppile	-11.9446
▁smuggle	-11.9446
▁soothe	-11.9446
▁stepsister	-11.9446
▁stopwatch	-11.9446
▁talbot	-11.9446
▁terminal	-11.9446
▁tourelles	-11.9446
▁tunic	-11.9446
▁blaming	-11.9446
▁carcass	-11.9446
▁collaps	-11.9446
▁endanger	-11.9446
▁guild	-11.9446
▁guru	-11.9446
▁labato	-11.9446
▁legacy	-11.9446
▁mainsail	-11.9446
▁mayhem	-11.9446
▁mhm	-11.9446
▁otra	-11.9446
▁overrated	-11.9446
▁pavement	-11.9446
▁proposing	-11.9446
▁scoop	-11.9446
▁sperm	-11.9446
▁spooks	-11.9446
▁tibbs	-11.9446
▁titani	-11.9446
▁trimmings	-11.9446
▁yeesh	-11.9446
▁baboon	-11.9446
▁bacho	-11.9446
▁bandaid	-11.9446
▁bourge	-11.9446
▁cautious	-11.9446
▁deactivate	-11.9446
▁dreary	-11.9446
▁foiled	-11.9446
▁hydro	-11.9446
▁reenter	-11.9446
▁retching	-11.9446
▁rigging	-11.9446
▁wagging	-11.9446
▁whirl	-11.9446
▁worn	-11.9446
feit	-11.9446
▁beret	-11.9446
▁cynic	-11.9446
▁decay	-11.9446
▁editor	-11.9446
▁fiesta	-11.9446
▁gesture	-11.9446
▁intrigue	-11.9446
▁sausage	-11.9446
▁thighs	-11.9446
▁abundan	-11.9446
▁automobile	-11.9446
▁lawsuits	-11.9446
ashb	-11.9446
▁gunnel	-11.9446
▁thump	-11.9446
▁affliction	-11.9446
▁coconut	-11.9446
▁cpr	-11.9446
▁outcome	-11.9446
▁agitat	-11.9446
▁communion	-11.9446
▁conservatoire	-11.9446
▁funnel	-11.9446
▁nansen	-11.9446
▁stint	-11.9446
▁tampa	-11.9446
▁untie	-11.9446
▁halfwit	-11.9446
▁sterling	-11.9446
▁visible	-11.9446
▁chord	-11.9446
▁wherefore	-11.9446
▁craftsman	-11.9446
▁definit	-11.9446
▁frown	-11.9446
▁inquiry	-11.9446
▁vibes	-11.9446
▁multiplied	-11.9446
▁ransom	-11.9446
▁waistcoat	-11.9446
▁knives	-11.9446
▁unaware	-11.9446
yfish	-11.9446
▁classmates	-11.9446
▁hollandaise	-11.9446
▁odor	-11.9446
▁physician	-11.9446
▁analog	-11.9446
▁musk	-11.9446
▁mccart	-11.9446
▁apocalypse	-11.9446
▁cougar	-11.9446
▁peckerwood	-11.9446
ncis	-11.9446
▁toothpick	-11.9446
▁vested	-11.9446
▁candidates	-11.9446
▁sensu	-11.9446
▁blaze	-11.9446
▁borneo	-11.9446
▁fanning	-11.9446
▁nostrils	-11.9446
tolerable	-11.9446
▁clogs	-11.9446
▁tombstone	-11.9446
▁stairwell	-11.9446
▁hisself	-11.9446
▁snuck	-11.9446
▁vaporize	-11.9446
▁democrat	-11.9446
▁incompetence	-11.9446
▁barging	-11.9446
▁eliza	-11.9446
▁sloppy	-11.9446
▁struthers	-11.9446
▁jehu	-11.9446
▁dingle	-11.9446
▁precedent	-11.9446
▁ignorance	-11.9446
▁resent	-11.9446
▁allenham	-11.9446
▁frood	-11.9446
▁juggle	-11.9446
▁mellow	-11.9446
termination	-11.9446
▁hazelnut	-11.9446
▁reeves	-11.9446
▁grocer	-11.9446
▁ethical	-11.9446
▁gravy	-11.9446
▁creek	-11.9446
▁splashdown	-11.9446
▁tranquilizer	-11.9446
▁salute	-11.9446
▁vandal	-11.9446
▁fironic	-11.9446
▁furnishings	-11.9446
▁chimney	-11.9446
▁snitch	-11.9446
▁substan	-11.9446
▁lipstick	-11.9446
▁pelt	-11.9446
▁mongoose	-11.9446
▁unforgivable	-11.9446
▁chainsaw	-11.9446
▁fionn	-11.9446
erhardt	-11.9446
▁disrupting	-11.9446
▁inquiring	-11.9446
▁tandoor	-11.9446
ampered	-11.9446
▁communication	-11.9446
▁denker	-11.9446
▁onward	-11.9446
▁tyre	-11.9446
▁revolting	-11.9446
▁flake	-11.9446
▁grouse	-11.9446
▁bleach	-11.9446
▁jeff	-11.9446
▁windowsill	-11.9446
▁textbook	-11.9446
▁uglie	-11.9446
▁beauties	-11.9446
▁nuance	-11.9446
▁ounce	-11.9446
▁morgue	-11.9446
▁papaya	-11.9446
▁appreciation	-11.9446
▁excessive	-11.9446
▁freddie	-11.9446
▁wuss	-11.9446
▁hardships	-11.9446
▁asia	-11.9446
▁gravestone	-11.9446
▁blouse	-11.9446
▁confer	-11.9446
▁avery	-11.9446
▁pushups	-11.9446
▁scotland	-11.9446
▁vacant	-11.9446
bluffing	-11.9446
▁genie	-11.9446
▁froth	-11.9446
▁stewart	-11.9446
▁ruthless	-11.9447
▁milord	-11.9447
▁slice	-11.9447
▁absent	-11.9447
▁blackmail	-11.9447
▁exert	-11.9447
▁grainne	-11.9447
▁undertake	-11.9447
▁pedal	-11.9447
▁methodist	-11.9447
▁cocktail	-11.9447
▁loot	-11.9447
▁clipboard	-11.9447
▁caravan	-11.9447
▁cogs	-11.9447
▁depriv	-11.9447
▁shaft	-11.9447
▁makalo	-11.9447
▁retirement	-11.9447
▁decade	-11.9447
▁inspect	-11.9447
▁scotch	-11.9447
▁locksley	-11.9447
▁aches	-11.9447
▁scurry	-11.9447
▁hunch	-11.9447
▁dwan	-11.9447
▁rogue	-11.9447
▁laddie	-11.9447
▁philip	-11.9447
▁footprint	-11.9447
▁roster	-11.9447
▁categories	-11.9447
▁swole	-11.9447
leviat	-11.9447
▁kingswater	-11.9447
▁uphold	-11.9447
riggin	-11.9447
▁harsh	-11.9447
▁lemonade	-11.9447
▁belgi	-11.9447
▁bidder	-11.9447
▁overpower	-11.9447
▁maniacally	-11.9447
▁paso	-11.9447
▁upwind	-11.9447
▁inaudible	-11.9447
▁navigation	-11.9447
▁binds	-11.9447
▁cheque	-11.9447
▁griev	-11.9447
▁fragment	-11.9447
▁trolley	-11.9447
▁efficien	-11.9448
▁detonat	-11.9448
▁whopper	-11.9448
▁cooperative	-11.9448
▁babysitting	-11.9448
▁armpit	-11.9448
stein	-11.9448
▁canteen	-11.9448
▁uptown	-11.9448
▁suburban	-11.9448
▁pillar	-11.9448
▁tickling	-11.9448
▁fortnight	-11.9448
▁pike	-11.9448
litary	-11.9448
▁booger	-11.9448
▁jules	-11.9448
▁reenlargement	-11.9448
▁whamm	-11.9448
▁witchcraft	-11.9448
▁ferry	-11.9448
▁posture	-11.9448
▁foster	-11.9448
▁corte	-11.9448
▁accommodation	-11.9448
▁nerd	-11.9448
▁population	-11.9448
▁stalk	-11.9449
drop	-11.9449
▁hassle	-11.9449
▁paycheck	-11.9449
▁shawl	-11.9449
▁juda	-11.9449
▁waltz	-11.9449
▁kerb	-11.9449
▁attendance	-11.9449
▁magnific	-11.9449
▁baseball	-11.9449
▁marvel	-11.9449
▁blois	-11.9449
▁twitch	-11.9449
▁spurn	-11.9449
▁polo	-11.9449
▁apri	-11.9449
▁waist	-11.9449
▁drainage	-11.9449
▁peeler	-11.9449
▁permitted	-11.9449
▁waah	-11.9449
string	-11.9449
▁prettier	-11.9449
kei	-11.9449
▁tipped	-11.9449
duction	-11.9449
▁inquire	-11.945
▁tasty	-11.945
▁claus	-11.945
▁webster	-11.945
▁gutless	-11.945
▁vienna	-11.945
▁beverage	-11.945
▁winston	-11.945
▁supersuit	-11.945
tenance	-11.945
▁investment	-11.945
▁airsick	-11.945
▁eyeballs	-11.945
▁ingen	-11.945
▁boomboo	-11.945
▁spurt	-11.945
▁verbal	-11.945
▁arcee	-11.945
▁ruth	-11.945
▁yoga	-11.945
▁bodies	-11.945
ptu	-11.945
▁beings	-11.945
▁savi	-11.945
▁herald	-11.945
▁monte	-11.945
▁bonnet	-11.9451
▁anxiety	-11.9451
▁okeydokey	-11.9451
▁booyah	-11.9451
▁accomplishment	-11.9451
bbled	-11.9451
▁chili	-11.9451
▁insure	-11.9451
▁pompo	-11.9451
▁bryan	-11.9451
▁winwin	-11.9451
▁squat	-11.9451
▁pox	-11.9451
▁foam	-11.9451
▁underland	-11.9451
▁firepower	-11.9451
▁airborne	-11.9451
▁discretion	-11.9451
▁avocado	-11.9451
▁compatible	-11.9451
▁inspiring	-11.9451
▁jammies	-11.9451
▁arson	-11.9452
▁heinz	-11.9452
▁outof	-11.9452
▁january	-11.9452
▁doughnut	-11.9452
▁flick	-11.9452
▁propriet	-11.9452
▁bishop	-11.9452
▁gunner	-11.9452
▁equality	-11.9452
▁reload	-11.9452
▁shred	-11.9452
▁accurate	-11.9452
▁decoration	-11.9452
▁adoption	-11.9452
▁matron	-11.9452
▁rustic	-11.9452
▁digger	-11.9452
▁membership	-11.9452
▁babysit	-11.9452
▁dwell	-11.9452
▁huph	-11.9452
▁abilities	-11.9452
▁twitter	-11.9453
▁troublemaker	-11.9453
▁grandda	-11.9453
ohohoh	-11.9453
▁observation	-11.9453
▁effortless	-11.9453
▁peak	-11.9453
▁incar	-11.9453
▁african	-11.9453
▁religion	-11.9453
▁whang	-11.9453
▁foreman	-11.9453
▁acceptance	-11.9453
▁strat	-11.9453
▁attraction	-11.9453
adada	-11.9453
▁hex	-11.9453
▁tux	-11.9453
▁spout	-11.9453
▁crock	-11.9454
▁storybook	-11.9454
▁reactor	-11.9454
▁intr	-11.9454
▁snot	-11.9454
called	-11.9454
▁blanche	-11.9454
▁spectre	-11.9454
▁mast	-11.9454
▁bapti	-11.9454
▁pollen	-11.9454
▁recycled	-11.9454
▁graceful	-11.9454
▁sanct	-11.9454
▁employed	-11.9454
▁petro	-11.9455
▁abandonment	-11.9455
▁booze	-11.9455
▁tourist	-11.9455
▁woodward	-11.9455
▁magi	-11.9455
▁plumber	-11.9455
▁spru	-11.9455
▁abby	-11.9455
▁mimi	-11.9455
▁exclusively	-11.9456
▁frequently	-11.9456
▁incorrectly	-11.9456
▁theoretically	-11.9456
▁mug	-11.9456
▁doings	-11.9456
▁diff	-11.9456
▁phy	-11.9456
▁bulldog	-11.9456
▁brotherhood	-11.9456
▁toil	-11.9456
jac	-11.9456
▁jig	-11.9457
▁overreacting	-11.9457
▁oooh	-11.9457
▁boan	-11.9457
▁coca	-11.9457
▁hull	-11.9457
icted	-11.9457
▁bagley	-11.9458
▁homeroom	-11.9458
▁anlet	-11.9458
rania	-11.9458
▁neato	-11.9458
oft	-11.9459
▁ivy	-11.9459
▁lime	-11.9459
▁harem	-11.9459
▁kibble	-11.946
▁aaahh	-11.946
▁advertise	-11.946
elter	-11.946
▁poker	-11.946
aboli	-11.946
▁tulip	-11.946
▁doggone	-11.9461
▁sadder	-11.9461
▁achieved	-11.9461
▁declined	-11.9461
▁supervised	-11.9461
▁muss	-11.9461
▁bruised	-11.9461
▁flyboy	-11.9461
▁vendor	-11.9462
▁adequate	-11.9462
▁region	-11.9462
▁entice	-11.9462
▁intro	-11.9462
semit	-11.9462
▁decal	-11.9462
▁rever	-11.9462
▁paco	-11.9462
▁frankie	-11.9462
▁conjure	-11.9463
▁prior	-11.9463
▁timid	-11.9463
sucker	-11.9463
▁allen	-11.9463
▁crave	-11.9463
▁poisonous	-11.9463
▁anwhat	-11.9463
told	-11.9464
▁albus	-11.9464
▁hoard	-11.9464
▁alteration	-11.9464
▁ohhh	-11.9464
▁breakdown	-11.9465
▁hover	-11.9465
▁flour	-11.9465
▁giganto	-11.9465
▁andor	-11.9465
▁losses	-11.9465
▁logic	-11.9465
▁tug	-11.9466
▁honestto	-11.9466
▁hager	-11.9466
▁invader	-11.9466
▁improvis	-11.9466
llinger	-11.9467
ccent	-11.9467
▁fairyland	-11.9467
▁rho	-11.9467
▁cando	-11.9467
▁loon	-11.9467
▁rex	-11.9467
▁barter	-11.9468
▁alongside	-11.9468
▁pact	-11.9468
▁courageous	-11.9468
▁estimate	-11.9468
▁milkman	-11.9468
▁honky	-11.9468
▁interruption	-11.9468
▁kidney	-11.9469
▁funky	-11.9469
▁yea	-11.9469
▁plotting	-11.9469
▁suspended	-11.9469
▁initially	-11.9469
▁ego	-11.9469
▁tong	-11.9469
▁tempted	-11.9469
▁windsor	-11.9469
▁neera	-11.947
▁ranting	-11.947
▁wooh	-11.947
▁tomatoes	-11.9471
▁fries	-11.9471
▁bandage	-11.9471
▁mack	-11.9471
▁initiated	-11.9471
▁tenant	-11.9471
▁heartbeat	-11.9471
▁hooligan	-11.9472
▁ththe	-11.9472
▁deke	-11.9472
▁housewife	-11.9472
llic	-11.9472
▁overhead	-11.9472
▁framed	-11.9473
▁cass	-11.9473
▁jetti	-11.9473
orating	-11.9474
▁helm	-11.9474
scar	-11.9474
▁consideration	-11.9475
▁gunter	-11.9475
▁advertis	-11.9475
▁overwhelm	-11.9475
▁referring	-11.9476
▁satisfying	-11.9477
dynamic	-11.9477
▁burglary	-11.9477
▁consulting	-11.9477
▁flattery	-11.9477
▁barbie	-11.9477
▁guff	-11.9477
▁abounding	-11.9478
▁flown	-11.9478
▁whatcha	-11.9478
▁fiddle	-11.9478
▁compromise	-11.9478
▁freshman	-11.9478
▁planoff	-11.9479
▁partay	-11.9479
▁sideline	-11.9479
▁acceptable	-11.9481
▁blackout	-11.9481
▁inspired	-11.9481
▁controlling	-11.9481
▁finance	-11.9481
uce	-11.9481
icid	-11.9482
▁sufferin	-11.9482
▁hobo	-11.9483
▁goldman	-11.9483
inister	-11.9483
▁appr	-11.9484
▁alleged	-11.9485
▁slaughtered	-11.9485
▁sharpened	-11.9485
▁gloat	-11.9485
▁newport	-11.9485
▁loft	-11.9485
terran	-11.9486
▁assembled	-11.9486
aged	-11.9486
▁sleepover	-11.9486
▁moonli	-11.9486
▁jury	-11.9487
▁magnif	-11.9487
▁morale	-11.9487
▁physics	-11.9488
▁humanity	-11.9488
▁earthquakes	-11.9489
▁poitiers	-11.9489
▁sardines	-11.9489
▁trousers	-11.9489
▁encouraged	-11.9491
▁shaved	-11.9491
onn	-11.9491
▁volcanoes	-11.9492
▁dimwitte	-11.9492
▁snapping	-11.9492
▁feat	-11.9492
▁sonny	-11.9492
▁conspira	-11.9493
▁snowball	-11.9493
▁monarchy	-11.9495
▁presentation	-11.9495
▁mustache	-11.9496
▁mala	-11.9497
▁flop	-11.9497
▁brighten	-11.9497
▁thrilling	-11.9497
▁trespassing	-11.9497
▁steering	-11.9497
mention	-11.9498
▁gambler	-11.9498
▁freshen	-11.9498
▁hun	-11.9498
bee	-11.9498
▁anthere	-11.9499
▁triggered	-11.95
▁soaked	-11.95
▁triumphed	-11.95
▁tighten	-11.9501
▁pumped	-11.9501
▁respectable	-11.9501
dore	-11.9502
▁unclear	-11.9504
▁portal	-11.9504
▁daybreak	-11.9505
▁probe	-11.9505
rva	-11.9505
▁decorate	-11.9506
erial	-11.9506
▁antic	-11.9506
▁mustang	-11.9507
▁racy	-11.9508
trapped	-11.9508
▁mah	-11.9509
▁handling	-11.9509
▁gam	-11.9509
▁certificate	-11.951
amal	-11.951
icia	-11.951
▁hart	-11.9511
▁bongi	-11.9511
▁shallow	-11.9515
▁disgusted	-11.9516
pid	-11.9516
▁sunk	-11.9517
▁kazooing	-11.9518
▁sop	-11.9519
▁observed	-11.952
▁comp	-11.952
▁leonardo	-11.9522
▁induce	-11.9522
bot	-11.9522
▁faintly	-11.9522
▁freezer	-11.9522
pass	-11.9523
▁kibbl	-11.9523
roll	-11.9523
▁rosen	-11.9524
▁thor	-11.9524
▁laker	-11.9525
▁lute	-11.9525
▁knewjust	-11.9525
▁appli	-11.9526
▁neer	-11.9527
▁satan	-11.9528
▁madman	-11.9528
▁adventurer	-11.9532
▁sang	-11.9532
▁badger	-11.9536
▁whupp	-11.9537
▁environmental	-11.9537
▁they	-11.9537
▁outsiders	-11.9538
▁tossing	-11.9539
▁hike	-11.9539
▁runway	-11.9539
▁zen	-11.9541
▁fussing	-11.9541
▁creed	-11.9541
▁cardi	-11.9541
seven	-11.9542
agen	-11.9543
▁summar	-11.9543
▁sincere	-11.9543
▁socially	-11.9543
▁coaster	-11.9543
▁shaken	-11.9544
▁bast	-11.9545
▁gad	-11.9546
▁setup	-11.9546
▁pish	-11.9546
▁stressed	-11.9547
▁lax	-11.9548
▁itching	-11.9548
▁sous	-11.9552
▁marrie	-11.9554
rest	-11.9554
▁stam	-11.9555
▁skid	-11.9558
▁richest	-11.9558
▁devastating	-11.9559
▁tame	-11.9559
▁refreshing	-11.9559
▁shrinking	-11.9559
rumbles	-11.956
aryl	-11.9562
▁converted	-11.9562
▁jeopardiz	-11.9563
▁huffs	-11.9564
▁issued	-11.9564
▁arguments	-11.9564
▁blenkers	-11.9564
▁cepes	-11.9564
▁disturbances	-11.9564
▁freckles	-11.9564
▁mannequins	-11.9564
▁tusks	-11.9564
▁airlines	-11.9564
▁measurements	-11.9564
▁sabers	-11.9564
▁blanks	-11.9564
▁applauds	-11.9565
▁irres	-11.9565
▁sung	-11.9567
▁athletes	-11.9568
long	-11.9568
▁robbed	-11.9569
▁sel	-11.9571
▁sizzl	-11.9574
▁exploded	-11.9574
ima	-11.9576
▁organis	-11.9577
▁anus	-11.9578
▁bursting	-11.958
rile	-11.9581
arrell	-11.9582
▁llet	-11.9583
▁vip	-11.9585
▁momentum	-11.9587
▁taro	-11.9588
▁taller	-11.9591
omic	-11.9592
▁crawled	-11.9594
▁millionaire	-11.9598
▁nameless	-11.9599
▁bargaining	-11.9601
cant	-11.9602
dance	-11.9604
ulf	-11.9605
▁honk	-11.9605
▁poob	-11.9608
▁repaired	-11.9609
▁wandered	-11.9609
▁wal	-11.9613
▁miners	-11.9617
gestion	-11.9617
▁popped	-11.9621
▁developing	-11.9622
forsaken	-11.9622
ico	-11.9625
▁healed	-11.9626
▁fatal	-11.9628
▁velo	-11.9629
▁rev	-11.963
▁fled	-11.9633
bottom	-11.9634
▁revs	-11.9635
▁quills	-11.964
▁wicks	-11.964
▁uncertaint	-11.9641
▁shermans	-11.9641
▁corporations	-11.9641
▁pupils	-11.9642
ggles	-11.9642
▁tweets	-11.9642
▁comforted	-11.9642
▁shivers	-11.9642
▁violat	-11.9642
▁musicians	-11.9642
▁scraping	-11.9643
▁funk	-11.9644
▁daw	-11.9648
▁runners	-11.9648
▁groove	-11.965
▁funding	-11.9652
▁bred	-11.9652
▁ferri	-11.9652
▁chilled	-11.9653
▁stripp	-11.9655
▁vat	-11.9659
▁mining	-11.9664
▁aiming	-11.9664
▁gram	-11.9667
hahahahaha	-11.9668
▁nuk	-11.9676
▁rockin	-11.9682
▁thankyou	-11.9683
▁fury	-11.9687
▁banged	-11.9689
god	-11.9689
▁blot	-11.969
▁guided	-11.9696
▁peri	-11.9696
▁european	-11.9697
yde	-11.97
hicks	-11.9702
▁mastermind	-11.9704
▁lament	-11.9704
▁enabl	-11.9704
staf	-11.9705
▁performing	-11.9706
▁lapse	-11.9714
▁darts	-11.9716
▁ribs	-11.9718
▁ninjas	-11.972
▁redheads	-11.972
▁refugees	-11.972
▁buggers	-11.972
▁clerks	-11.972
▁imbeciles	-11.972
▁initials	-11.972
▁brats	-11.9722
▁appetites	-11.9724
▁trashy	-11.9724
▁pasta	-11.9725
▁workout	-11.9732
▁witnessed	-11.9735
▁flavored	-11.9737
▁factors	-11.9743
▁tripe	-11.9746
▁cured	-11.9747
▁lem	-11.9748
▁trailing	-11.9749
mpton	-11.9749
▁scouting	-11.9752
▁transmitt	-11.9756
▁littleton	-11.9761
▁harmed	-11.9768
▁tougher	-11.9779
▁traveler	-11.9782
▁lent	-11.9784
▁johnnyo	-11.9784
▁duet	-11.9791
▁daydreams	-11.9796
▁failing	-11.9797
▁howls	-11.9799
▁hous	-11.9802
affe	-11.9809
▁marched	-11.9817
▁crashed	-11.9818
▁awe	-11.9819
▁compost	-11.982
▁tru	-11.9822
▁pullin	-11.9828
▁shamed	-11.9832
▁molte	-11.9842
enders	-11.9842
▁stitch	-11.9846
utes	-11.9854
▁cleaner	-11.9868
▁lotion	-11.987
▁budd	-11.9874
▁spared	-11.9893
▁coco	-11.9895
▁suz	-11.9898
▁bearer	-11.9902
▁snor	-11.9903
▁pir	-11.9908
▁horri	-11.9909
▁curl	-11.9911
▁sni	-11.9917
▁wheelie	-11.9923
▁standin	-11.9925
▁colder	-11.9934
▁checka	-11.9941
▁cracker	-11.9944
ttingly	-11.9953
▁loco	-11.9955
▁anhi	-11.9955
omen	-11.9957
▁oy	-11.999
▁deb	-12.0005
▁sued	-12.0007
gi	-12.001
▁yith	-12.0039
▁lil	-12.005
▁nutt	-12.0057
▁roman	-12.0064
▁capit	-12.0069
aule	-12.0073
drudd	-12.0089
eno	-12.0108
▁oc	-12.011
▁pierc	-12.0113
ule	-12.0116
will	-12.0121
▁snapp	-12.0123
ples	-12.0132
rim	-12.0145
rah	-12.0145
▁preserv	-12.0156
motion	-12.0176
mine	-12.0183
▁overse	-12.0192
▁brewer	-12.0197
illa	-12.0204
elves	-12.0207
rv	-12.0214
toone	-12.0219
oooooo	-12.0241
▁mol	-12.0244
▁peeka	-12.0278
▁frag	-12.0294
▁virginia	-12.0294
▁poise	-12.031
▁mischie	-12.0315
everage	-12.0318
▁moom	-12.032
▁renter	-12.0334
gee	-12.0353
ickens	-12.0365
▁cord	-12.0385
owning	-12.0392
its	-12.0402
▁are	-12.0429
witch	-12.0447
▁stepp	-12.0483
adios	-12.0492
▁manda	-12.0505
▁incidental	-12.0526
choo	-12.0547
chur	-12.0552
▁sor	-12.0584
▁trac	-12.0615
aga	-12.062
luxe	-12.063
▁wri	-12.0636
▁amus	-12.0645
▁crust	-12.066
▁squal	-12.0672
gger	-12.0685
igger	-12.0723
umpty	-12.0735
▁domes	-12.0735
▁mixe	-12.0747
▁fantastical	-12.0791
▁bowie	-12.0844
▁pota	-12.0856
▁maur	-12.0866
▁finn	-12.0883
pick	-12.0907
▁norm	-12.0959
▁magna	-12.0959
▁muc	-12.0964
▁heater	-12.0965
▁mer	-12.097
▁smie	-12.0983
assemble	-12.0995
jam	-12.1009
luc	-12.1022
icle	-12.1023
toto	-12.1027
▁caper	-12.1041
▁statu	-12.1082
arb	-12.1099
evel	-12.11
▁contribute	-12.1128
why	-12.1132
pec	-12.1169
tula	-12.1172
▁fleab	-12.1172
▁jelli	-12.1191
▁craz	-12.1198
▁conv	-12.1233
▁frantic	-12.124
▁versa	-12.1242
▁trai	-12.1249
path	-12.1255
▁larg	-12.1267
lima	-12.133
elain	-12.1403
goon	-12.1423
llow	-12.1424
rel	-12.1473
▁swatt	-12.1479
uppa	-12.1558
ellis	-12.1569
enhanced	-12.1592
mini	-12.1596
▁gangst	-12.1605
▁vei	-12.1608
hippie	-12.1627
▁cann	-12.1658
audible	-12.1689
olat	-12.1695
dispose	-12.1713
bat	-12.1717
▁yorker	-12.1764
▁slit	-12.1804
▁arr	-12.1808
swatter	-12.1817
version	-12.1829
lliance	-12.1842
ox	-12.1852
▁robbi	-12.1879
▁pegg	-12.1882
▁remov	-12.1897
▁bona	-12.1921
▁gastr	-12.1931
apa	-12.1932
▁ww	-12.2037
▁stat	-12.2043
lashed	-12.2059
▁admir	-12.2084
kab	-12.2085
three	-12.2121
▁cubb	-12.2155
▁chem	-12.2164
▁avo	-12.2165
km	-12.2206
▁andr	-12.2223
indo	-12.2226
servant	-12.2241
▁craze	-12.2243
viet	-12.225
▁unnecessar	-12.2252
code	-12.2295
rot	-12.2305
▁stu	-12.2318
oochie	-12.2354
▁clan	-12.2356
rotting	-12.2361
▁norma	-12.2364
roo	-12.2422
ulous	-12.2447
iger	-12.2459
ppets	-12.246
auer	-12.2477
▁bou	-12.2506
▁juic	-12.2518
frey	-12.2539
▁seiz	-12.255
base	-12.2552
uran	-12.2588
▁mortif	-12.2593
▁spat	-12.2622
aloo	-12.263
▁porto	-12.2669
▁squa	-12.2671
▁batt	-12.2681
ago	-12.2697
▁spic	-12.2734
erated	-12.2781
kitty	-12.2807
trum	-12.2845
▁offi	-12.2848
▁vot	-12.2857
▁ooooo	-12.2889
ipping	-12.2898
pala	-12.2902
atkins	-12.2903
▁pent	-12.293
▁provid	-12.2954
▁diploma	-12.3006
▁sever	-12.3062
mill	-12.3069
ylon	-12.307
▁grabb	-12.3077
kka	-12.3091
▁sheeps	-12.3126
arch	-12.3234
▁anno	-12.3271
▁predict	-12.3273
▁rape	-12.329
mela	-12.3319
bar	-12.3341
▁prep	-12.3345
ggi	-12.3349
hard	-12.3394
inc	-12.3445
aint	-12.3446
▁anit	-12.3448
▁vac	-12.3472
fit	-12.3496
udder	-12.3519
gan	-12.3524
ienne	-12.3563
lsh	-12.3587
▁kim	-12.3633
variabl	-12.3678
spect	-12.3687
▁smok	-12.3736
▁shu	-12.3779
▁snob	-12.3789
▁observ	-12.3793
▁apologiz	-12.3808
bul	-12.3819
▁ava	-12.3841
ollo	-12.3848
apping	-12.3858
vor	-12.3898
rnish	-12.3901
itten	-12.3915
ghan	-12.3916
corne	-12.3928
▁infl	-12.3929
cable	-12.3945
▁lak	-12.3948
▁transmit	-12.3958
▁cent	-12.396
mbe	-12.4001
trud	-12.4007
contented	-12.4033
charted	-12.4033
ronic	-12.4041
▁fro	-12.4049
▁cine	-12.405
▁tuc	-12.4059
cial	-12.4065
▁rom	-12.4101
tips	-12.411
doubted	-12.4116
▁yap	-12.412
bel	-12.4121
punctu	-12.4123
ckenb	-12.4124
▁poi	-12.4126
lement	-12.4134
bbut	-12.4141
udic	-12.4141
▁electron	-12.4145
lundering	-12.4147
pants	-12.4152
▁jeopard	-12.4163
hyde	-12.4168
▁bruise	-12.4176
▁pag	-12.418
traction	-12.4195
▁applaud	-12.4209
guardian	-12.4216
▁aff	-12.422
▁updo	-12.423
▁wail	-12.423
urch	-12.423
nine	-12.4235
▁huff	-12.4238
▁trumpet	-12.4238
orted	-12.4241
print	-12.4244
▁argument	-12.4255
▁blenker	-12.4255
▁mannequin	-12.4255
▁cepe	-12.4255
▁freckle	-12.4255
▁tusk	-12.4255
▁blank	-12.4257
▁disturbance	-12.4259
▁saber	-12.426
▁irre	-12.4263
▁ancestor	-12.4263
▁jacque	-12.4263
▁tattoo	-12.4263
anglers	-12.4263
▁neighbour	-12.4268
▁expense	-12.4268
▁intruder	-12.4268
▁vegetable	-12.4268
▁athlete	-12.427
▁obstacle	-12.4271
▁firework	-12.4271
▁knot	-12.4272
▁measurement	-12.4273
▁vulture	-12.4273
▁await	-12.4273
▁peg	-12.4274
▁pyramid	-12.4275
▁lantern	-12.4278
▁qualification	-12.4279
▁circumstance	-12.4279
▁web	-12.4282
▁requirement	-12.4285
▁coordinate	-12.4288
▁lndia	-12.4289
▁knuckle	-12.4294
▁terri	-12.4298
▁environment	-12.4298
even	-12.43
pound	-12.4301
▁mopin	-12.4301
▁airline	-12.4304
▁whup	-12.4307
▁hawk	-12.4311
▁pili	-12.4318
▁mammal	-12.4323
ware	-12.4329
lican	-12.433
▁philosoph	-12.4331
gloo	-12.4332
▁nile	-12.4333
▁halfling	-12.4333
▁consul	-12.4335
owners	-12.4337
▁decor	-12.4337
zzling	-12.434
▁halfa	-12.4341
▁dat	-12.4341
▁peck	-12.4341
▁schem	-12.4342
▁splint	-12.4343
▁charle	-12.4344
▁stir	-12.4345
▁antoine	-12.4346
▁advis	-12.435
▁tempt	-12.435
▁coloss	-12.4351
person	-12.4351
▁ignor	-12.4353
mala	-12.4354
▁mim	-12.4354
opia	-12.4355
tious	-12.4356
▁surround	-12.4363
▁gamble	-12.4363
▁separat	-12.4366
▁guid	-12.4367
▁conspi	-12.4368
▁preachin	-12.4372
wall	-12.4375
▁frighten	-12.4375
▁occur	-12.4378
▁refus	-12.4379
▁conduc	-12.4383
▁deli	-12.4384
▁metaphor	-12.4387
▁anticipat	-12.4388
▁intimidat	-12.4388
angel	-12.4389
▁arendell	-12.439
▁jingl	-12.439
▁negotia	-12.439
▁devot	-12.4391
▁satisfy	-12.4394
▁pac	-12.4396
room	-12.4396
▁eliminat	-12.4397
ribb	-12.4397
▁invit	-12.4397
▁engag	-12.4399
close	-12.44
impo	-12.44
▁jm	-12.44
▁accord	-12.4402
▁vocaliz	-12.4402
▁abound	-12.4402
ligans	-12.4404
▁foller	-12.4404
heck	-12.4405
▁suspend	-12.4407
▁declar	-12.4408
▁select	-12.4409
▁publish	-12.4409
▁dismiss	-12.4411
azy	-12.4413
stened	-12.4413
▁offend	-12.4413
▁disobe	-12.4415
chuck	-12.4416
▁achieve	-12.4418
gram	-12.4419
adequate	-12.4419
guided	-12.4419
guin	-12.442
sportsman	-12.442
activity	-12.442
▁supervise	-12.442
▁decline	-12.442
▁overhea	-12.4421
▁mercenar	-12.4421
▁infinit	-12.4421
▁facilit	-12.4421
stay	-12.4421
phrase	-12.4421
▁quantit	-12.4421
scheduled	-12.4421
goyle	-12.4421
newsman	-12.4421
▁terminate	-12.4422
melon	-12.4422
temperature	-12.4422
▁retire	-12.4422
regard	-12.4422
plug	-12.4422
digit	-12.4422
writer	-12.4422
▁tendenc	-12.4422
poly	-12.4422
disturbed	-12.4422
limited	-12.4422
speaker	-12.4422
brush	-12.4422
daughter	-12.4422
sensitive	-12.4422
comfort	-12.4422
text	-12.4422
professional	-12.4422
confidence	-12.4422
pros	-12.4423
▁dedicate	-12.4423
marine	-12.4423
inform	-12.4423
origin	-12.4423
winning	-12.4423
distance	-12.4423
responsible	-12.4423
balance	-12.4423
kun	-12.4423
hunting	-12.4423
sharp	-12.4423
american	-12.4423
▁rebuil	-12.4423
service	-12.4423
freeze	-12.4423
growing	-12.4423
teacher	-12.4423
girl	-12.4423
▁medi	-12.4423
figured	-12.4423
famous	-12.4423
fortune	-12.4423
wrote	-12.4423
cheese	-12.4423
party	-12.4423
crazy	-12.4423
magic	-12.4423
enough	-12.4423
first	-12.4423
safe	-12.4423
cool	-12.4423
theyre	-12.4423
must	-12.4423
nothing	-12.4423
dead	-12.4423
washed	-12.4423
▁postpone	-12.4424
▁confuse	-12.4424
fingers	-12.4424
▁complicate	-12.4424
▁athlet	-12.4424
park	-12.4424
▁singsong	-12.4424
dust	-12.4424
▁beyon	-12.4424
dramatic	-12.4424
active	-12.4425
shoulder	-12.4425
▁relate	-12.4425
plate	-12.4425
joke	-12.4425
▁temporar	-12.4425
course	-12.4425
▁appetit	-12.4426
▁dumm	-12.4426
valley	-12.4426
▁opportunit	-12.4426
groom	-12.4427
death	-12.4427
▁majest	-12.4427
▁should	-12.4427
linda	-12.4427
pool	-12.4427
▁unofficial	-12.4427
▁electro	-12.4428
week	-12.4428
check	-12.4428
spread	-12.4428
entice	-12.4429
▁exclusive	-12.4429
▁theoretical	-12.4429
bull	-12.4429
lippers	-12.4429
avia	-12.4429
ficiency	-12.443
beard	-12.443
▁gloom	-12.443
scepti	-12.443
bridge	-12.443
▁immaculat	-12.443
▁urinat	-12.443
track	-12.443
stuck	-12.4431
▁literal	-12.4431
exist	-12.4431
bread	-12.4431
walk	-12.4431
talk	-12.4431
beam	-12.4431
▁apparent	-12.4431
▁forc	-12.4431
▁spectr	-12.4432
▁frequent	-12.4432
probabl	-12.4432
▁blanch	-12.4432
▁burge	-12.4432
▁rapid	-12.4433
▁participat	-12.4433
▁precis	-12.4433
▁incorrect	-12.4433
▁sensibl	-12.4433
▁conten	-12.4433
▁intimidate	-12.4433
▁anticipate	-12.4433
luck	-12.4434
▁hustl	-12.4434
▁scull	-12.4434
today	-12.4434
▁tood	-12.4435
▁govern	-12.4435
horts	-12.4435
▁downlo	-12.4435
buckle	-12.4436
attack	-12.4436
▁enforce	-12.4437
▁devote	-12.4437
▁cruis	-12.4437
▁sentiment	-12.4439
▁independen	-12.4439
▁prettie	-12.4439
▁reflex	-12.4439
▁brough	-12.444
uckle	-12.444
▁michel	-12.444
left	-12.444
puss	-12.444
root	-12.444
bbly	-12.444
▁plumb	-12.4441
evils	-12.4441
▁elevat	-12.4441
▁pizz	-12.4441
▁volcan	-12.4441
▁persuasi	-12.4442
▁veek	-12.4442
▁contemp	-12.4442
mhmm	-12.4442
▁renovat	-12.4442
▁equi	-12.4442
▁evaluat	-12.4442
▁beck	-12.4442
▁televisi	-12.4442
▁instruct	-12.4442
▁fantasti	-12.4442
▁spur	-12.4443
▁navigat	-12.4443
ception	-12.4443
▁gamblin	-12.4443
▁pacifi	-12.4443
▁cyclon	-12.4443
▁oblivio	-12.4443
▁engl	-12.4443
▁drivin	-12.4443
▁givin	-12.4443
▁leavin	-12.4443
ruit	-12.4443
hattering	-12.4443
convenience	-12.4443
▁geograph	-12.4443
▁isolat	-12.4443
▁recept	-12.4443
▁reenlarge	-12.4444
rumming	-12.4444
ceived	-12.4444
known	-12.4444
▁feroci	-12.4444
▁advent	-12.4444
▁shakin	-12.4444
loom	-12.4444
▁fantasi	-12.4444
▁flaming	-12.4444
▁excess	-12.4444
▁fortuna	-12.4444
really	-12.4444
▁exaggerati	-12.4444
▁inquiri	-12.4445
ooling	-12.4445
▁disrupti	-12.4445
▁puttin	-12.4445
▁easie	-12.4445
▁vvh	-12.4445
▁poodle	-12.4445
▁scholar	-12.4445
umbers	-12.4445
▁furnish	-12.4445
magne	-12.4445
▁vapor	-12.4445
rywhere	-12.4445
▁mort	-12.4445
corde	-12.4445
▁conservat	-12.4445
▁entra	-12.4445
▁aris	-12.4445
distinguish	-12.4445
▁dough	-12.4445
dfather	-12.4445
slaught	-12.4445
cognit	-12.4446
dolph	-12.4446
▁cemeter	-12.4446
▁endeavo	-12.4446
▁enrich	-12.4446
▁enslave	-12.4446
▁fernand	-12.4446
▁retaliat	-12.4446
▁smug	-12.4446
▁vladi	-12.4446
aaarrgghh	-12.4446
arkansas	-12.4446
compulsive	-12.4446
dunkadunka	-12.4446
heeheeheehee	-12.4446
hehheh	-12.4446
ijuana	-12.4446
incomprehensible	-12.4446
increasing	-12.4446
lezvous	-12.4446
misunderstanding	-12.4446
nunciat	-12.4446
pronounc	-12.4446
rocco	-12.4446
secretarygeneral	-12.4446
sseldorf	-12.4446
terrestria	-12.4446
umpernickel	-12.4446
▁abominable	-12.4446
▁abracadabra	-12.4446
▁accomplice	-12.4446
▁advocate	-12.4446
▁afuera	-12.4446
▁aggression	-12.4446
▁anemia	-12.4446
▁annihilat	-12.4446
▁antidote	-12.4446
▁aplus	-12.4446
▁apologising	-12.4446
▁appetizer	-12.4446
▁arriba	-12.4446
▁artificial	-12.4446
▁astonish	-12.4446
▁atlantean	-12.4446
▁attila	-12.4446
▁aught	-12.4446
▁austrey	-12.4446
▁austria	-12.4446
▁bagshaw	-12.4446
▁ballplayer	-12.4446
▁ballycarbery	-12.4446
▁baltimore	-12.4446
▁bamboozle	-12.4446
▁bangbang	-12.4446
▁bankrupt	-12.4446
▁benadryl	-12.4446
▁berkeley	-12.4446
▁bertie	-12.4446
▁beseech	-12.4446
▁bienven	-12.4446
▁birdcalls	-12.4446
▁biscuit	-12.4446
▁blahblahblah	-12.4446
▁blemish	-12.4446
▁blindfold	-12.4446
▁bloodhound	-12.4446
▁bloodthirst	-12.4446
▁bohemian	-12.4446
▁bonanza	-12.4446
▁bonsoir	-12.4446
▁bourguignon	-12.4446
▁bremann	-12.4446
▁brickleback	-12.4446
▁bridesmaids	-12.4446
▁bruntford	-12.4446
▁bunpowder	-12.4446
▁burgundy	-12.4446
▁bytes	-12.4446
▁calendar	-12.4446
▁calvin	-12.4446
▁carburet	-12.4446
▁ceramic	-12.4446
▁challenging	-12.4446
▁chartreuse	-12.4446
▁chausses	-12.4446
▁chauvinis	-12.4446
▁chihuahua	-12.4446
▁chiweenie	-12.4446
▁chopchop	-12.4446
▁chordvettes	-12.4446
▁chunks	-12.4446
▁cinnamon	-12.4446
▁clarkson	-12.4446
▁cleopatra	-12.4446
▁clergy	-12.4446
▁cliffjumper	-12.4446
▁clockwork	-12.4446
▁codfish	-12.4446
▁cognac	-12.4446
▁combustion	-12.4446
▁commencing	-12.4446
▁communist	-12.4446
▁comparison	-12.4446
▁complication	-12.4446
▁conceit	-12.4446
▁concierge	-12.4446
▁condemn	-12.4446
▁condiments	-12.4446
▁conscious	-12.4446
▁consecrate	-12.4446
▁constitution	-12.4446
▁controversia	-12.4446
▁convincing	-12.4446
▁corru	-12.4446
▁craigslist	-12.4446
▁cribbage	-12.4446
▁cristo	-12.4446
▁critters	-12.4446
▁croissant	-12.4446
▁crossbows	-12.4446
▁crutches	-12.4446
▁culprit	-12.4446
▁currants	-12.4446
▁czech	-12.4446
▁dagobert	-12.4446
▁dakota	-12.4446
▁dandelion	-12.4446
▁dankworth	-12.4446
▁darwin	-12.4446
▁debutante	-12.4446
▁decaprio	-12.4446
▁deconstructi	-12.4446
▁defensive	-12.4446
▁deflates	-12.4446
▁deformed	-12.4446
▁detachment	-12.4446
▁detorque	-12.4446
▁diagnosis	-12.4446
▁diarmuid	-12.4446
▁dirigible	-12.4446
▁disinheritance	-12.4446
▁disintegrate	-12.4446
▁disorder	-12.4446
▁dissipate	-12.4446
▁doorknob	-12.4446
▁dormouse	-12.4446
▁draught	-12.4446
▁eardrum	-12.4446
▁effrontery	-12.4446
▁egregious	-12.4446
▁embarcadero	-12.4446
▁emphysema	-12.4446
▁escargot	-12.4446
▁espagnole	-12.4446
▁evangelist	-12.4446
▁eventempered	-12.4446
▁evidently	-12.4446
▁excruciating	-12.4446
▁exfoliate	-12.4446
▁exorbitant	-12.4446
▁exosuit	-12.4446
▁exposure	-12.4446
▁faculty	-12.4446
▁farfetched	-12.4446
▁fascists	-12.4446
▁femur	-12.4446
▁finetooth	-12.4446
▁flavour	-12.4446
▁flirtatious	-12.4446
▁fossil	-12.4446
▁frankenstein	-12.4446
▁fraternal	-12.4446
▁frenzy	-12.4446
▁frivolous	-12.4446
▁frumps	-12.4446
▁frumpy	-12.4446
▁fundraising	-12.4446
▁gangbang	-12.4446
▁garsongoldberg	-12.4446
▁gatinha	-12.4446
▁gaucourt	-12.4446
▁genital	-12.4446
▁genteel	-12.4446
▁geotopia	-12.4446
▁gesundheit	-12.4446
▁gibraltar	-12.4446
▁glucose	-12.4446
▁googoo	-12.4446
▁gracias	-12.4446
▁granpabbie	-12.4446
▁griots	-12.4446
▁griotsteam	-12.4446
▁gruzinkerbell	-12.4446
▁halifax	-12.4446
▁harvard	-12.4446
▁hasbeens	-12.4446
▁haunted	-12.4446
▁headmaster	-12.4446
▁hemmet	-12.4446
▁henceforth	-12.4446
▁hhhe	-12.4446
▁hieroglyphic	-12.4446
▁hippopotamus	-12.4446
▁hollyhocks	-12.4446
▁housekeeping	-12.4446
▁huddle	-12.4446
▁hypochondriac	-12.4446
▁illuminating	-12.4446
▁imaginable	-12.4446
▁impediment	-12.4446
▁incinerator	-12.4446
▁inclination	-12.4446
▁indelica	-12.4446
▁inexpressi	-12.4446
▁infiltrat	-12.4446
▁infirm	-12.4446
▁infrared	-12.4446
▁initiative	-12.4446
▁inscribe	-12.4446
▁inscription	-12.4446
▁insuricare	-12.4446
▁interlude	-12.4446
▁interplanetary	-12.4446
▁intersection	-12.4446
▁intimacy	-12.4446
▁intimate	-12.4446
▁introducing	-12.4446
▁investigation	-12.4446
▁invincib	-12.4446
▁invisaspray	-12.4446
▁isoscele	-12.4446
▁jellyfish	-12.4446
▁jetpack	-12.4446
▁judging	-12.4446
▁juggling	-12.4446
▁klapa	-12.4446
▁kojak	-12.4446
▁koobaya	-12.4446
▁kranix	-12.4446
▁latrine	-12.4446
▁leibel	-12.4446
▁leprechaun	-12.4446
▁liberal	-12.4446
▁livelihood	-12.4446
▁lnjun	-12.4446
▁loompaland	-12.4446
▁luchador	-12.4446
▁lullabies	-12.4446
▁mamba	-12.4446
▁marseillaise	-12.4446
▁maturity	-12.4446
▁maugrim	-12.4446
▁mckinley	-12.4446
▁meadow	-12.4446
▁mediocr	-12.4446
▁merlin	-12.4446
▁meticulous	-12.4446
▁micronesia	-12.4446
▁miniaturized	-12.4446
▁miniaturizer	-12.4446
▁miraculous	-12.4446
▁mirana	-12.4446
▁misinformed	-12.4446
▁mmmmmmmm	-12.4446
▁monument	-12.4446
▁mouthwash	-12.4446
▁murphy	-12.4446
▁mysteries	-12.4446
▁nailpolish	-12.4446
▁napol	-12.4446
▁narcissism	-12.4446
▁narrow	-12.4446
▁neonazi	-12.4446
▁nittygritty	-12.4446
▁nowadays	-12.4446
▁nucleus	-12.4446
▁nurtur	-12.4446
▁obituaries	-12.4446
▁obnoxious	-12.4446
▁offlimits	-12.4446
▁olympi	-12.4446
▁omnidroid	-12.4446
▁opportune	-12.4446
▁oreius	-12.4446
▁outburst	-12.4446
▁pablo	-12.4446
▁paperclip	-12.4446
▁parakeet	-12.4446
▁paramedics	-12.4446
▁parliament	-12.4446
▁parmesan	-12.4446
▁pavilion	-12.4446
▁pawpaw	-12.4446
▁peabody	-12.4446
▁pebble	-12.4446
▁penitentiary	-12.4446
▁perfume	-12.4446
▁pervert	-12.4446
▁pessimis	-12.4446
▁pettigrew	-12.4446
▁pianist	-12.4446
▁plausibility	-12.4446
▁pneumonia	-12.4446
▁pondicherry	-12.4446
▁porpoise	-12.4446
▁portugues	-12.4446
▁pounce	-12.4446
▁prejudice	-12.4446
▁premiere	-12.4446
▁premonition	-12.4446
▁promoting	-12.4446
▁prosecut	-12.4446
▁protocol	-12.4446
▁psalm	-12.4446
▁pudknocker	-12.4446
▁pugna	-12.4446
▁pyrite	-12.4446
▁quartet	-12.4446
▁rappin	-12.4446
▁ravenclaw	-12.4446
▁rearranging	-12.4446
▁recipient	-12.4446
▁reckless	-12.4446
▁reconnoitr	-12.4446
▁refurbish	-12.4446
▁rejuvenati	-12.4446
▁relevant	-12.4446
▁remodel	-12.4446
▁repellent	-12.4446
▁replica	-12.4446
▁repossessed	-12.4446
▁repulsive	-12.4446
▁resourceful	-12.4446
▁rhetorical	-12.4446
▁rhyme	-12.4446
▁rooney	-12.4446
▁rouge	-12.4446
▁sabaday	-12.4446
▁salvation	-12.4446
▁santiago	-12.4446
▁sapphire	-12.4446
▁savannah	-12.4446
▁schmuck	-12.4446
▁scruff	-12.4446
▁scuppernong	-12.4446
▁seahorse	-12.4446
▁secondgreatest	-12.4446
▁selfsacrific	-12.4446
▁semester	-12.4446
▁sequin	-12.4446
▁serenity	-12.4446
▁shitkicking	-12.4446
▁shrunk	-12.4446
▁significance	-12.4446
▁silhouette	-12.4446
▁simpson	-12.4446
▁sinsational	-12.4446
▁slimeball	-12.4446
▁slurping	-12.4446
▁smidge	-12.4446
▁smirk	-12.4446
▁smuggling	-12.4446
▁snooker	-12.4446
▁snuffl	-12.4446
▁spectacle	-12.4446
▁spionom	-12.4446
▁sprite	-12.4446
▁stradivarius	-12.4446
▁strutter	-12.4446
▁stumbled	-12.4446
▁stunned	-12.4446
▁sturdy	-12.4446
▁subconscious	-12.4446
▁subpods	-12.4446
▁sullivan	-12.4446
▁suppress	-12.4446
▁suspicion	-12.4446
▁syllables	-12.4446
[...]
