<unk>	0
<s>	0
</s>	0
s	-3.68458
▁im	-4.39401
▁know	-4.53854
▁dont	-4.56315
▁get	-4.74786
▁right	-4.82365
▁go	-4.84738
▁oh	-4.90644
▁got	-4.92443
▁like	-4.93441
▁yeah	-4.93769
▁come	-4.95508
▁youre	-4.99178
▁na	-5.033
▁okay	-5.06605
▁thats	-5.16877
▁	-5.17124
▁one	-5.2144
ing	-5.27103
▁gon	-5.27884
▁l	-5.29009
▁well	-5.30197
▁want	-5.37134
▁see	-5.3826
▁good	-5.38337
▁think	-5.42424
▁hey	-5.43079
ed	-5.46643
▁look	-5.49801
▁back	-5.53762
▁man	-5.57791
▁going	-5.64142
▁time	-5.67606
▁yes	-5.69145
▁take	-5.69795
▁us	-5.74211
▁cant	-5.74543
d	-5.76954
▁need	-5.79674
▁hes	-5.8054
▁say	-5.82339
▁ill	-5.84416
▁love	-5.85182
▁tell	-5.87396
▁way	-5.88721
▁really	-5.90079
▁would	-5.92883
▁could	-5.98024
▁little	-5.99285
▁thank	-5.99399
▁make	-6.01783
▁lets	-6.02832
▁please	-6.0405
▁sorry	-6.0519
▁let	-6.07546
▁something	-6.07635
▁never	-6.07848
▁mean	-6.11615
▁god	-6.12191
▁whats	-6.14088
▁theres	-6.18031
y	-6.18059
▁didnt	-6.21069
▁give	-6.21702
e	-6.22681
▁ive	-6.22729
▁thing	-6.31628
▁people	-6.32671
▁two	-6.33075
▁wait	-6.33337
▁stop	-6.33628
▁said	-6.3461
▁help	-6.36378
▁life	-6.3731
▁day	-6.38187
er	-6.38271
▁great	-6.38412
▁theyre	-6.40407
▁ta	-6.4097
▁guys	-6.43273
▁sure	-6.44065
▁call	-6.45679
▁much	-6.48964
▁mr	-6.49191
▁shes	-6.50322
▁first	-6.50432
▁hi	-6.50867
t	-6.51041
▁work	-6.51921
▁uh	-6.52944
▁find	-6.53074
▁even	-6.53718
▁nothing	-6.53963
▁put	-6.55159
▁night	-6.55327
a	-6.56339
ly	-6.58952
▁keep	-6.59631
▁hell	-6.59678
▁maybe	-6.61039
▁still	-6.61955
▁new	-6.63162
▁talk	-6.6566
▁ever	-6.65715
▁baby	-6.66294
▁big	-6.66688
▁home	-6.68027
▁away	-6.68863
▁anything	-6.69643
▁nice	-6.71257
▁better	-6.71868
▁long	-6.73557
▁wan	-6.73876
▁last	-6.74374
▁dad	-6.74381
▁thought	-6.74561
▁around	-6.75189
▁years	-6.76104
▁feel	-6.76757
▁hear	-6.76881
▁guy	-6.78201
▁done	-6.78423
r	-6.78895
▁stay	-6.79241
▁sir	-6.79504
▁aint	-6.79506
▁every	-6.79512
▁everything	-6.79888
▁lm	-6.80378
▁told	-6.80391
▁fine	-6.81068
in	-6.81234
▁place	-6.8265
▁always	-6.82868
▁coming	-6.83119
▁lot	-6.85428
▁mom	-6.85982
▁world	-6.87261
▁hold	-6.87277
▁show	-6.90133
▁youve	-6.90202
▁believe	-6.91872
▁three	-6.92189
▁leave	-6.92454
▁hello	-6.92802
▁move	-6.92875
▁kind	-6.93559
▁boy	-6.93913
▁thanks	-6.96242
▁ok	-6.96294
▁name	-6.96361
▁things	-6.96375
▁jack	-6.96459
▁shit	-6.97328
▁listen	-6.98678
▁made	-6.98816
▁de	-6.99118
▁remember	-6.99719
▁id	-6.99921
▁ready	-7.00352
▁must	-7.00536
▁girl	-7.00898
n	-7.02178
▁old	-7.02301
▁doesnt	-7.02733
▁bad	-7.04666
▁wont	-7.04983
▁house	-7.05292
▁care	-7.05751
▁door	-7.06461
▁wrong	-7.06995
i	-7.07191
▁car	-7.07492
▁talking	-7.08059
▁left	-7.08174
o	-7.08516
▁youll	-7.08754
▁today	-7.09642
▁money	-7.09644
▁tonight	-7.09941
▁live	-7.10762
▁another	-7.10841
▁try	-7.10848
al	-7.11453
▁son	-7.11643
▁real	-7.12796
▁kill	-7.13746
▁getting	-7.13806
▁je	-7.14812
▁father	-7.15045
▁best	-7.15491
▁huh	-7.15791
▁play	-7.16188
▁understand	-7.16225
▁trying	-7.16326
▁woman	-7.17392
▁cause	-7.17398
es	-7.17821
▁isnt	-7.18032
▁un	-7.20681
▁wanted	-7.21263
▁men	-7.21681
▁might	-7.22678
▁someone	-7.22792
c	-7.23497
▁dead	-7.23546
▁enough	-7.23701
▁actually	-7.23706
▁head	-7.24675
▁die	-7.25329
▁meet	-7.26684
▁um	-7.27009
▁may	-7.27112
▁next	-7.27191
▁guess	-7.27904
▁else	-7.27906
▁run	-7.28169
▁job	-7.28273
▁course	-7.28984
▁mind	-7.29645
▁phone	-7.30338
▁watch	-7.30565
▁looking	-7.30939
▁turn	-7.3126
▁seen	-7.32172
▁came	-7.32481
▁start	-7.3325
▁playing	-7.33639
▁wasnt	-7.33799
g	-7.34914
▁fight	-7.35075
▁ask	-7.35175
l	-7.35177
▁whos	-7.35276
▁fun	-7.35364
▁friend	-7.35992
▁morning	-7.36103
▁everybody	-7.36515
▁together	-7.36885
ll	-7.37071
▁open	-7.38377
▁found	-7.38447
▁whole	-7.38465
▁family	-7.38858
▁excuse	-7.39258
▁bring	-7.39315
▁end	-7.39476
▁music	-7.39579
▁pretty	-7.3966
▁second	-7.40126
ve	-7.4066
▁la	-7.40781
▁used	-7.41328
▁hope	-7.41577
▁yöu	-7.41916
▁heart	-7.4206
▁miss	-7.42197
▁hand	-7.42791
▁many	-7.43407
▁damn	-7.43769
▁school	-7.4421
▁saw	-7.44614
▁heard	-7.44792
p	-7.44843
▁weve	-7.45033
▁use	-7.45285
▁happy	-7.45458
▁happened	-7.45706
▁without	-7.46315
▁went	-7.46751
▁fire	-7.47168
▁idea	-7.48032
▁whoa	-7.48504
▁room	-7.48851
▁hard	-7.4949
▁everyone	-7.4975
▁crazy	-7.50263
▁tu	-7.5079
▁laughing	-7.51763
▁dr	-7.52752
▁mother	-7.5295
▁took	-7.53446
▁face	-7.53788
▁honey	-7.54376
▁five	-7.54857
▁beautiful	-7.5531
▁ben	-7.55588
▁called	-7.56091
▁em	-7.56185
▁tomorrow	-7.56255
▁eyes	-7.56687
▁break	-7.56691
▁yet	-7.56737
▁game	-7.57727
▁matter	-7.57783
▁check	-7.58205
▁bit	-7.58402
▁lts	-7.58515
▁working	-7.58661
▁saying	-7.5867
▁ah	-7.58731
f	-7.58887
▁knew	-7.59148
▁part	-7.59185
▁sighs	-7.59238
▁kids	-7.59556
▁cool	-7.59646
▁le	-7.59679
u	-7.59883
on	-7.59913
▁anyone	-7.6013
▁kid	-7.60202
▁friends	-7.60697
▁boys	-7.60792
▁stuff	-7.61624
▁walk	-7.61662
▁minutes	-7.61919
▁somebody	-7.6263
▁since	-7.6314
▁wouldnt	-7.63245
▁alone	-7.6365
▁deal	-7.63792
▁problem	-7.63863
▁pay	-7.64488
▁hot	-7.64718
▁worry	-7.65194
▁ago	-7.65206
▁minute	-7.65421
▁lost	-7.65725
le	-7.6582
m	-7.66449
▁party	-7.66466
▁days	-7.66844
▁shut	-7.67795
▁eat	-7.67824
▁stand	-7.68392
▁killed	-7.68544
▁mama	-7.689
▁hurt	-7.69291
▁ya	-7.69333
▁gone	-7.69668
▁six	-7.69972
▁easy	-7.69982
▁business	-7.69983
▁brother	-7.70349
▁welcome	-7.70531
▁inside	-7.70531
or	-7.70564
▁havent	-7.71079
▁four	-7.7109
▁ass	-7.71097
▁set	-7.7111
ers	-7.71539
▁already	-7.71631
▁true	-7.71631
▁year	-7.71879
▁supposed	-7.72229
▁re	-7.72443
▁daddy	-7.72767
▁hit	-7.73154
▁th	-7.73407
ie	-7.73528
▁close	-7.73578
▁chuckles	-7.73594
▁laughs	-7.73616
▁pas	-7.73692
▁gave	-7.75012
é	-7.75115
▁trust	-7.75217
▁safe	-7.75306
▁sleep	-7.75947
▁far	-7.76035
b	-7.76088
▁thinking	-7.76142
▁grunts	-7.76358
▁s	-7.76372
▁cut	-7.76911
▁word	-7.77296
▁water	-7.77346
▁sit	-7.77689
▁clear	-7.77865
▁number	-7.78517
▁says	-7.78884
▁point	-7.79135
▁chance	-7.79703
▁george	-7.79704
▁nobody	-7.79747
▁met	-7.79999
▁read	-7.80198
▁blood	-7.80307
▁wife	-7.80323
▁couldnt	-7.80427
re	-7.80664
▁looks	-7.80823
▁bye	-7.80913
▁whatever	-7.81523
▁cest	-7.81576
▁c	-7.82535
▁change	-7.83341
▁makes	-7.83349
▁probably	-7.83375
▁m	-7.83646
▁different	-7.83855
▁wants	-7.83856
▁though	-7.83879
▁wow	-7.84004
▁forget	-7.84005
▁bob	-7.8506
▁side	-7.85356
▁later	-7.85464
▁dance	-7.85688
h	-7.86129
▁hands	-7.86368
▁making	-7.86552
▁wish	-7.87105
▁team	-7.8784
▁youd	-7.87855
▁goes	-7.88214
▁speaking	-7.88899
▁light	-7.89363
▁war	-7.89492
▁person	-7.89702
▁free	-7.89898
▁special	-7.90017
▁soon	-7.90999
▁screaming	-7.91238
▁late	-7.91339
▁ricky	-7.91896
▁question	-7.92158
▁heres	-7.92577
▁promise	-7.93302
▁wheres	-7.93318
▁hate	-7.93384
▁gasps	-7.93451
▁high	-7.9364
▁mine	-7.93893
▁line	-7.93916
▁f	-7.94195
▁voice	-7.94573
▁death	-7.94577
k	-7.94862
▁red	-7.9532
▁full	-7.95655
▁b	-7.95668
▁perfect	-7.95804
▁president	-7.95969
▁taking	-7.96051
▁means	-7.96528
▁anyway	-7.96683
▁almost	-7.96684
▁exactly	-7.96704
▁top	-7.96747
▁happen	-7.96949
▁book	-7.97398
▁rest	-7.97459
est	-7.97577
▁power	-7.97917
▁ladies	-7.98117
▁hours	-7.9826
▁girls	-7.98608
▁moment	-7.98724
▁hang	-8.00559
▁sometimes	-8.00625
▁lose	-8.01607
▁human	-8.01661
▁continues	-8.01865
▁week	-8.02407
▁save	-8.03012
▁shot	-8.03229
▁truth	-8.03303
▁grunting	-8.03357
w	-8.03414
▁fall	-8.0351
▁shoot	-8.03558
▁drive	-8.03868
▁anymore	-8.04066
▁behind	-8.04066
▁front	-8.04076
▁alive	-8.04092
▁city	-8.04094
en	-8.04106
▁bed	-8.04624
▁fast	-8.05414
▁follow	-8.0545
▁touch	-8.0546
▁least	-8.05629
▁sign	-8.05906
▁ow	-8.05932
it	-8.06118
▁ha	-8.06226
▁afraid	-8.06392
▁jesus	-8.06394
▁buddy	-8.06395
▁half	-8.06418
▁story	-8.07184
▁drink	-8.0749
▁king	-8.07536
▁lt	-8.07928
▁lll	-8.08181
▁singing	-8.08288
▁child	-8.08782
▁living	-8.08817
▁speak	-8.08898
▁waiting	-8.09288
▁anybody	-8.10393
▁married	-8.10393
▁stupid	-8.10393
▁white	-8.10394
▁que	-8.10764
▁plan	-8.10775
▁sound	-8.10865
▁pick	-8.11089
▁sweet	-8.11136
▁maam	-8.11214
▁feet	-8.11227
▁eye	-8.11289
▁doctor	-8.11303
▁scared	-8.11355
▁young	-8.11874
man	-8.11893
▁black	-8.12039
▁win	-8.12134
▁street	-8.12151
▁news	-8.12469
ies	-8.12683
▁it	-8.128
▁r	-8.12919
▁asked	-8.13783
▁important	-8.14425
▁john	-8.14549
▁hubie	-8.1456
▁tried	-8.1464
▁started	-8.1465
▁gun	-8.14913
te	-8.15326
▁brought	-8.15415
▁ahead	-8.15422
▁control	-8.15425
▁daughter	-8.15615
▁dog	-8.15688
▁song	-8.15807
▁body	-8.16295
▁case	-8.16309
▁bitch	-8.16355
▁air	-8.16395
▁reason	-8.16491
▁date	-8.16516
▁secret	-8.16518
ion	-8.16848
▁dinner	-8.17148
v	-8.17152
▁hmm	-8.17154
▁moving	-8.17155
▁blue	-8.17395
▁ball	-8.17589
▁hurry	-8.18023
▁women	-8.18023
▁teddy	-8.18024
▁also	-8.18025
▁arent	-8.18025
▁seems	-8.1819
▁sister	-8.18296
▁times	-8.18462
▁send	-8.18477
ra	-8.189
▁along	-8.18908
▁answer	-8.19135
▁kidding	-8.19807
▁died	-8.19807
▁french	-8.19809
▁running	-8.19809
▁order	-8.20084
▁food	-8.21601
▁trouble	-8.21609
us	-8.222
▁amazing	-8.22529
▁zoey	-8.22541
▁sense	-8.22544
▁eight	-8.22577
▁telling	-8.23213
▁sounds	-8.23369
▁kiss	-8.23373
▁outside	-8.23456
an	-8.23679
▁lord	-8.23694
▁past	-8.23738
st	-8.23764
▁a	-8.238
▁colonel	-8.2439
▁calm	-8.24441
▁sick	-8.24464
▁figure	-8.25022
▁max	-8.25307
▁throw	-8.25685
▁en	-8.25746
▁happening	-8.26005
▁hows	-8.26287
▁couple	-8.26295
▁kate	-8.26317
▁et	-8.26565
▁ooh	-8.27207
▁wake	-8.27252
▁pull	-8.27291
▁bar	-8.27641
▁office	-8.28089
▁grace	-8.28218
▁children	-8.28223
able	-8.28355
▁greg	-8.29195
▁rose	-8.29219
▁dear	-8.2926
▁army	-8.29336
▁g	-8.29492
ic	-8.29701
▁dude	-8.29794
▁luck	-8.30061
▁feeling	-8.30091
▁york	-8.30184
▁country	-8.30209
ry	-8.30367
▁choice	-8.31188
▁gentlemen	-8.31189
▁finally	-8.31251
▁buy	-8.31724
▁either	-8.32198
▁police	-8.32205
▁till	-8.3222
▁funny	-8.3222
▁captain	-8.33218
▁seven	-8.33218
▁shake	-8.33228
▁theyll	-8.33276
▁aii	-8.33343
▁carl	-8.33461
▁wear	-8.33739
▁finish	-8.33829
▁ten	-8.34062
▁weird	-8.34249
▁earth	-8.34255
▁rain	-8.34283
▁words	-8.3432
▁beat	-8.34433
▁hair	-8.35093
▁lives	-8.3513
▁serious	-8.35153
▁careful	-8.3521
▁proud	-8.35291
▁julia	-8.35311
▁drop	-8.35322
▁dream	-8.36174
▁cold	-8.36346
▁leaving	-8.3636
▁husband	-8.36371
▁step	-8.37172
▁wedding	-8.37409
▁quite	-8.37529
el	-8.37603
▁smell	-8.38255
▁comes	-8.38402
▁arnie	-8.38483
▁crowd	-8.38516
▁cover	-8.39136
▁park	-8.3919
th	-8.39258
▁hour	-8.39378
▁glad	-8.3958
▁town	-8.39655
▁weeks	-8.39757
▁join	-8.39976
ch	-8.40034
▁yo	-8.40442
▁ride	-8.40538
▁they	-8.40605
▁straight	-8.40636
▁anywhere	-8.40669
▁kevin	-8.40669
▁green	-8.4067
▁seem	-8.40998
▁catch	-8.41371
▁write	-8.41687
z	-8.41744
▁security	-8.4178
▁ground	-8.41796
▁learn	-8.41978
▁months	-8.42131
▁ho	-8.42381
▁cute	-8.42644
▁goodbye	-8.42904
▁iike	-8.4291
ation	-8.43518
▁slow	-8.43736
▁mad	-8.43879
▁near	-8.44013
▁parents	-8.4404
▁cheering	-8.44192
▁class	-8.44617
▁small	-8.45018
▁general	-8.45189
▁fact	-8.4522
▁ce	-8.45398
ity	-8.45971
▁record	-8.46209
▁system	-8.46302
▁mouth	-8.46328
▁somewhere	-8.46352
▁forever	-8.46352
▁charlie	-8.46353
less	-8.46375
▁cell	-8.46412
▁seat	-8.46654
▁needs	-8.47157
▁handle	-8.47165
▁known	-8.47315
▁gold	-8.47508
▁brian	-8.47515
▁tv	-8.47547
ment	-8.47994
▁stick	-8.48267
▁gilbert	-8.48719
▁roy	-8.48724
▁shouting	-8.48834
▁in	-8.4894
▁lucky	-8.48985
▁mar	-8.49028
▁asking	-8.49101
▁art	-8.4913
▁il	-8.49172
▁shall	-8.49935
▁road	-8.49941
▁boat	-8.49955
▁bank	-8.49964
ur	-8.49971
ng	-8.50122
▁count	-8.50308
▁watching	-8.50385
▁i	-8.5056
ist	-8.50624
▁honor	-8.5071
▁st	-8.50998
▁evil	-8.51143
▁panting	-8.51147
▁lady	-8.51163
▁absolutely	-8.51166
▁louise	-8.51172
▁contact	-8.5121
▁ray	-8.51224
▁turned	-8.51293
▁qui	-8.5179
▁pass	-8.51849
is	-8.52076
▁sex	-8.52184
ro	-8.52374
▁relax	-8.52378
▁definitely	-8.52382
▁yep	-8.52383
▁crawl	-8.52396
▁non	-8.52442
▁round	-8.52454
▁box	-8.52504
▁tree	-8.52506
▁con	-8.52619
▁ring	-8.5294
▁screams	-8.53192
▁mmm	-8.53617
▁become	-8.53738
▁picture	-8.53747
▁fear	-8.53751
▁star	-8.53792
▁building	-8.53939
▁wed	-8.54006
▁meeting	-8.54178
▁fly	-8.54628
▁worth	-8.54677
▁hercules	-8.54893
▁imagine	-8.54894
▁rachel	-8.54894
▁happens	-8.55327
▁able	-8.55662
▁law	-8.55713
▁lie	-8.55754
▁shouldnt	-8.56176
▁future	-8.56178
▁felt	-8.56208
▁paint	-8.56235
▁wonderful	-8.56245
▁vee	-8.56264
▁yall	-8.56324
▁explain	-8.57043
▁act	-8.57128
x	-8.57216
▁perhaps	-8.57474
▁linda	-8.57482
▁copy	-8.57527
▁key	-8.57762
▁saved	-8.58009
ce	-8.58178
▁pop	-8.58346
▁sing	-8.58517
▁rock	-8.58574
▁strong	-8.58583
▁grab	-8.58664
▁p	-8.58672
nt	-8.58694
▁company	-8.5879
▁situation	-8.5879
▁zeus	-8.58793
▁gay	-8.58798
▁shell	-8.58805
▁troy	-8.58846
▁sent	-8.58983
ter	-8.58993
▁hundred	-8.59035
▁clean	-8.59172
▁mess	-8.59354
▁foreman	-8.60126
▁bobby	-8.60142
▁joe	-8.60264
▁jai	-8.60285
▁mistake	-8.60313
▁calling	-8.60394
▁queen	-8.6045
▁d	-8.60505
▁less	-8.6051
▁list	-8.60714
▁va	-8.60734
▁worked	-8.60755
▁questions	-8.60807
▁reach	-8.61064
ting	-8.61367
▁pour	-8.61494
▁nine	-8.61528
▁totally	-8.61528
▁field	-8.61595
▁born	-8.61603
▁tired	-8.61687
▁ringing	-8.62035
▁sun	-8.62104
ent	-8.62393
▁fat	-8.62764
▁goddamn	-8.62845
▁kaulder	-8.62845
▁birthday	-8.62846
▁melon	-8.62863
et	-8.62905
▁bet	-8.63052
ling	-8.63162
na	-8.63255
▁magic	-8.63583
▁short	-8.63909
▁surprise	-8.6393
▁respect	-8.64233
▁floor	-8.64251
▁alarm	-8.64262
vous	-8.64688
▁kick	-8.64705
▁american	-8.64724
▁pain	-8.65139
▁an	-8.6523
▁low	-8.65363
▁quick	-8.65519
▁trick	-8.65603
▁island	-8.65642
▁tough	-8.65643
▁ginger	-8.65643
▁bernie	-8.65658
▁doin	-8.65712
▁unless	-8.65734
▁taken	-8.65935
▁protect	-8.66078
▁w	-8.66128
▁ones	-8.66816
▁deep	-8.66947
▁paris	-8.67061
▁katniss	-8.67071
▁radio	-8.67076
▁sort	-8.67138
▁ship	-8.67298
▁e	-8.67369
▁sam	-8.67404
▁groans	-8.67411
▁return	-8.67558
▁hole	-8.67707
▁track	-8.67995
▁les	-8.68085
▁fair	-8.68116
▁h	-8.68505
▁hospital	-8.6852
▁middle	-8.6852
▁asshole	-8.68524
▁stuck	-8.68528
▁mmhmm	-8.68534
▁arm	-8.68695
▁fix	-8.69046
▁works	-8.69104
▁lead	-8.69355
▁o	-8.69526
▁forgot	-8.69984
▁dark	-8.69984
▁attention	-8.6999
▁sheiiey	-8.69991
▁summer	-8.69991
▁offer	-8.70092
▁est	-8.70171
▁horse	-8.70571
▁fish	-8.70635
▁wall	-8.70653
▁bell	-8.70656
▁si	-8.70726
▁faith	-8.70767
ar	-8.7085
▁lock	-8.70853
▁command	-8.71007
ge	-8.71015
▁jump	-8.71079
▁looked	-8.71119
▁longer	-8.71182
ful	-8.71347
▁sad	-8.7138
▁college	-8.71483
▁history	-8.71483
▁sophie	-8.7149
▁early	-8.71532
▁million	-8.72104
▁piece	-8.72153
me	-8.72159
▁officer	-8.72268
▁du	-8.72519
▁seconds	-8.72758
▁une	-8.72931
up	-8.72991
▁werent	-8.72998
▁sebastian	-8.72999
▁charles	-8.73
▁court	-8.73083
▁lisa	-8.73094
▁seriously	-8.732
at	-8.73226
▁missing	-8.73357
▁meant	-8.73426
ness	-8.73604
▁thousand	-8.73677
▁mark	-8.73707
▁teach	-8.73826
▁loved	-8.73836
▁report	-8.7388
▁share	-8.74225
▁laugh	-8.74272
▁broke	-8.74454
▁worse	-8.74537
▁spent	-8.74541
▁dancing	-8.74554
▁beeping	-8.74613
▁mission	-8.7471
▁sea	-8.74785
▁shh	-8.74825
▁super	-8.75045
▁push	-8.75144
▁knock	-8.75153
▁state	-8.75608
▁lee	-8.75613
▁sell	-8.75627
▁entire	-8.75959
▁chief	-8.76099
▁machine	-8.76099
▁smart	-8.76099
▁moses	-8.76101
▁walking	-8.7612
to	-8.76135
age	-8.76152
ia	-8.7636
▁crying	-8.76419
▁breathe	-8.7642
▁appreciate	-8.76493
▁pa	-8.76559
▁bill	-8.76625
▁service	-8.76864
▁card	-8.76911
ne	-8.77465
▁k	-8.77468
▁fell	-8.77544
▁games	-8.77559
▁fool	-8.77677
▁bruce	-8.77686
▁forward	-8.77686
▁weii	-8.77686
▁group	-8.77688
▁tina	-8.77714
▁bud	-8.77792
▁none	-8.77955
▁ice	-8.77956
▁mon	-8.78084
▁wonder	-8.78258
▁agent	-8.78493
▁table	-8.78571
ate	-8.78691
▁co	-8.78751
▁survive	-8.78981
▁ne	-8.79093
▁paul	-8.79099
▁land	-8.79211
▁whoo	-8.79276
▁monsieur	-8.79299
▁possible	-8.79299
▁restaurant	-8.79299
▁yesterday	-8.79299
▁dangerous	-8.79304
▁bigger	-8.7936
▁single	-8.79372
▁gods	-8.79791
▁soul	-8.79803
tre	-8.79862
▁knows	-8.8004
▁wearing	-8.80105
▁code	-8.80251
▁rings	-8.80845
▁except	-8.80878
▁boss	-8.80886
▁across	-8.80939
▁austin	-8.80939
▁uhhuh	-8.80939
▁race	-8.8097
▁space	-8.80976
▁sky	-8.81035
▁dying	-8.81035
▁jules	-8.81084
il	-8.81307
▁lve	-8.81348
▁attack	-8.8163
▁dis	-8.81664
im	-8.82113
▁al	-8.8215
▁chris	-8.82204
▁america	-8.8251
▁robot	-8.82516
▁chuck	-8.82566
▁uncle	-8.82587
▁awesome	-8.82605
▁toronto	-8.82606
▁football	-8.8261
▁clothes	-8.82614
▁groaning	-8.82689
▁corner	-8.82734
▁foot	-8.82736
▁decided	-8.8279
▁christ	-8.82986
▁seeing	-8.83074
ty	-8.83125
▁brain	-8.83235
▁cross	-8.83323
▁changed	-8.83488
▁te	-8.83565
▁owe	-8.84028
ii	-8.84068
▁remind	-8.84121
▁frank	-8.8415
▁gene	-8.84222
▁jj	-8.84236
▁age	-8.84245
▁fault	-8.843
▁target	-8.843
▁washington	-8.843
▁paige	-8.843
▁russian	-8.84327
▁poor	-8.84345
▁band	-8.84371
▁square	-8.844
▁lucas	-8.84407
▁completely	-8.8441
▁rent	-8.84602
▁miles	-8.84885
▁vi	-8.85224
▁paper	-8.85342
la	-8.8543
▁mm	-8.85772
▁standing	-8.85935
out	-8.85943
▁plus	-8.86024
▁jimmy	-8.86025
▁giving	-8.86028
▁grandpa	-8.86042
▁lying	-8.86092
id	-8.86108
▁hide	-8.86181
▁lay	-8.86263
▁breathing	-8.86432
▁fighting	-8.86619
▁so	-8.86759
▁pray	-8.87563
▁swear	-8.87779
▁blind	-8.87779
▁alright	-8.87782
▁driving	-8.87783
▁suis	-8.87791
▁walter	-8.87801
▁missed	-8.87807
▁sitting	-8.87845
▁painting	-8.87846
▁tour	-8.87923
ive	-8.88044
se	-8.88228
▁ex	-8.88251
ta	-8.88483
▁dress	-8.88517
▁enjoy	-8.886
▁lovely	-8.88827
▁au	-8.88892
▁wind	-8.88951
▁gets	-8.8906
ir	-8.89096
▁pack	-8.89168
▁quiet	-8.8945
ant	-8.89561
▁others	-8.89564
▁rather	-8.89564
hrer	-8.89566
▁jake	-8.89577
▁terrible	-8.8958
▁patch	-8.89587
▁weekend	-8.89594
▁moved	-8.8996
▁train	-8.90036
▁burn	-8.90048
▁cat	-8.90427
▁truck	-8.90784
▁mountain	-8.90788
▁month	-8.90842
▁spend	-8.90862
▁v	-8.90867
▁marshal	-8.90922
▁ja	-8.90965
▁feels	-8.90976
▁lang	-8.91049
▁listening	-8.912
▁worried	-8.91383
▁simple	-8.91383
▁instead	-8.91384
▁ronny	-8.91387
▁chicken	-8.91394
▁hitler	-8.914
▁quoi	-8.91411
▁whatd	-8.91425
▁heh	-8.91442
▁brave	-8.91493
▁hat	-8.91754
▁crap	-8.91907
▁starting	-8.92034
▁blow	-8.92074
▁trip	-8.92096
▁plane	-8.92151
ff	-8.92186
iy	-8.92367
▁orders	-8.9259
▁message	-8.92669
▁camera	-8.92811
▁destroy	-8.92812
▁rick	-8.93047
▁glass	-8.93153
▁apart	-8.93215
▁devil	-8.93234
▁accident	-8.93235
▁cosette	-8.93236
▁tommy	-8.9324
▁caught	-8.93245
▁cake	-8.93247
▁west	-8.93279
▁moon	-8.93307
▁personal	-8.93317
▁dare	-8.93341
▁closer	-8.93612
▁pre	-8.93662
rs	-8.93833
de	-8.93876
▁lin	-8.93913
▁grow	-8.93932
▁pal	-8.9422
▁fit	-8.9437
▁cook	-8.94416
▁engine	-8.94477
▁bag	-8.94493
▁given	-8.94586
▁names	-8.94986
▁horn	-8.94999
▁eddie	-8.95121
▁halloween	-8.95121
▁major	-8.95121
▁nervous	-8.95121
▁hasnt	-8.95122
▁rudy	-8.95123
▁heaven	-8.95123
▁bathroom	-8.95124
▁donna	-8.95125
▁master	-8.9513
▁hungry	-8.95131
▁bomb	-8.95131
▁papa	-8.95156
▁busy	-8.95259
▁yöur	-8.95603
▁present	-8.95671
▁folks	-8.9576
▁peace	-8.95766
▁ton	-8.9609
▁po	-8.96344
▁t	-8.96421
▁hanging	-8.96442
▁computer	-8.96522
▁gift	-8.96523
▁guard	-8.96584
▁wash	-8.96671
▁honest	-8.96692
▁mo	-8.96837
▁larry	-8.97045
▁spot	-8.97047
▁peeta	-8.9705
▁mike	-8.97056
▁tech	-8.9707
▁beer	-8.97264
ah	-8.9755
▁se	-8.97687
▁gosh	-8.97847
▁ran	-8.97888
▁n	-8.98347
▁steal	-8.98481
▁agree	-8.98669
▁realize	-8.98738
▁gas	-8.98995
▁female	-8.99005
▁congratulations	-8.99005
▁south	-8.99011
▁judge	-8.99012
▁favorite	-8.99015
▁neck	-8.9902
▁flight	-8.99021
▁upon	-8.99022
▁needed	-8.99076
▁peter	-8.99107
▁pen	-8.99114
▁bella	-8.99257
▁goin	-8.99626
▁j	-8.99692
▁east	-8.99915
▁charge	-9.00173
▁adam	-9.00593
▁where	-9.00694
▁scott	-9.00806
▁grand	-9.00919
▁rich	-9.00967
▁favor	-9.00996
▁beyond	-9.01005
▁boyfriend	-9.01005
▁double	-9.01005
▁position	-9.01005
▁rosie	-9.01007
▁roof	-9.01009
▁bruno	-9.01009
▁chuckling	-9.01028
▁chon	-9.01035
▁male	-9.01082
▁ii	-9.01086
▁action	-9.01116
▁tom	-9.01149
ord	-9.01186
ck	-9.01268
▁atom	-9.01401
um	-9.01446
▁ellis	-9.01838
▁bon	-9.0188
do	-9.02005
▁picked	-9.02041
sh	-9.0205
am	-9.0221
ance	-9.02217
▁chatter	-9.02537
▁suit	-9.02538
▁form	-9.02675
▁partner	-9.02693
▁carry	-9.02702
▁dans	-9.02817
▁fresh	-9.03021
▁nick	-9.03035
▁north	-9.0304
▁jasmine	-9.03046
▁doyle	-9.03046
▁cheese	-9.03047
▁support	-9.03047
▁richard	-9.03052
▁heavy	-9.03059
as	-9.03122
▁wood	-9.03135
▁hotel	-9.03139
▁broken	-9.03165
▁stopped	-9.0317
▁lake	-9.0333
▁artist	-9.03391
▁theo	-9.0341
▁dollars	-9.03738
▁expect	-9.04178
▁arrest	-9.04716
▁hug	-9.04775
ous	-9.04783
▁falco	-9.05037
▁impossible	-9.05131
▁river	-9.05131
▁darling	-9.05135
▁afternoon	-9.05136
▁heat	-9.05181
▁cream	-9.05184
▁skin	-9.05187
▁wine	-9.05197
▁losing	-9.05226
▁holding	-9.05405
▁talked	-9.05477
▁learned	-9.05922
▁moi	-9.06061
que	-9.06538
op	-9.06715
▁girlfriend	-9.06955
▁window	-9.06969
▁file	-9.07018
▁indistinct	-9.07118
▁complete	-9.07145
▁evening	-9.07197
▁audience	-9.07257
▁drunk	-9.07257
▁lunch	-9.07257
▁strike	-9.07257
▁private	-9.07258
▁kept	-9.07261
▁clock	-9.07267
▁cash	-9.07272
ri	-9.07285
▁roz	-9.07301
▁paid	-9.07326
tic	-9.07359
▁jail	-9.07379
▁lived	-9.07387
▁freaky	-9.07416
▁putting	-9.07495
▁hed	-9.08023
▁breath	-9.08476
▁do	-9.08771
▁build	-9.0892
▁leg	-9.08984
▁reading	-9.09092
▁feed	-9.09189
▁final	-9.09294
▁eating	-9.09344
ma	-9.09371
▁continue	-9.09396
▁add	-9.09429
▁bunch	-9.09431
▁memory	-9.09431
▁smile	-9.09431
▁throat	-9.09432
▁center	-9.09457
▁begin	-9.09508
▁letter	-9.09531
no	-9.09695
ul	-9.09994
▁books	-9.1014
▁killing	-9.10837
▁huge	-9.109
▁fired	-9.11006
▁no	-9.11165
▁warm	-9.11172
▁enter	-9.11261
▁bastard	-9.11446
▁joke	-9.11464
▁weapon	-9.11479
▁witch	-9.11578
▁per	-9.11652
▁coffee	-9.11653
▁lambert	-9.11653
▁upset	-9.11653
▁terry	-9.11653
▁cia	-9.11656
▁glenn	-9.11662
▁coach	-9.11664
▁andy	-9.11664
▁excited	-9.11678
▁fuck	-9.11687
▁main	-9.11693
▁cr	-9.11718
▁taste	-9.11722
▁type	-9.11745
▁forgive	-9.1184
▁yelling	-9.11965
▁quit	-9.11997
▁named	-9.12127
▁ro	-9.12186
▁greatest	-9.12202
▁locked	-9.12287
▁pro	-9.12294
▁van	-9.12326
▁figured	-9.12394
▁par	-9.12426
▁test	-9.12445
▁finished	-9.12592
▁visit	-9.13351
ine	-9.1355
▁raise	-9.13642
▁prison	-9.13714
▁certain	-9.1377
▁brown	-9.13895
▁kitchen	-9.13926
▁sweetheart	-9.1393
▁reaiiy	-9.13931
▁store	-9.13937
▁nose	-9.14025
▁driver	-9.14137
▁holy	-9.14203
▁pam	-9.14261
▁sexy	-9.14311
ke	-9.14633
▁video	-9.14902
▁travel	-9.14929
▁lights	-9.15276
▁butt	-9.15914
▁tight	-9.16073
▁strange	-9.16119
▁correct	-9.16123
▁movie	-9.16159
▁bullshit	-9.16251
▁everywhere	-9.16251
▁stella	-9.16251
▁taylor	-9.16251
▁sold	-9.16253
▁nature	-9.16256
▁exhales	-9.16262
▁shirt	-9.16268
▁incredible	-9.16287
▁size	-9.16301
▁sake	-9.16341
▁plays	-9.16911
land	-9.16923
▁powers	-9.16938
▁tire	-9.17006
▁turning	-9.17121
▁bro	-9.17405
bo	-9.17407
▁killer	-9.17527
▁sh	-9.17651
▁fill	-9.17787
▁aw	-9.18033
▁study	-9.18119
▁marry	-9.18158
▁mu	-9.18218
▁howd	-9.1841
▁risk	-9.18583
▁burger	-9.18622
▁numbers	-9.18626
▁beach	-9.18632
▁chocolate	-9.18632
▁regret	-9.18632
▁vincent	-9.18632
▁english	-9.18633
▁bottle	-9.18634
▁twice	-9.18636
▁distance	-9.18639
▁june	-9.18639
▁andrew	-9.1864
▁roger	-9.1864
▁enemy	-9.18653
▁milo	-9.18654
▁liesel	-9.18656
▁julie	-9.18679
▁level	-9.18681
▁annie	-9.18694
▁warning	-9.18902
▁interesting	-9.18905
▁mi	-9.18957
▁teacher	-9.18965
▁chattering	-9.19236
▁san	-9.19243
▁brothers	-9.19425
▁promised	-9.19818
▁ali	-9.19894
ga	-9.2056
▁screw	-9.20625
ai	-9.20793
▁prove	-9.20882
▁loose	-9.21017
ha	-9.21061
▁extra	-9.21066
▁amara	-9.21071
▁jacob	-9.21071
▁lloyd	-9.21071
▁upstairs	-9.21071
▁area	-9.21072
▁felix	-9.21072
▁beckett	-9.21072
▁spanish	-9.21072
▁club	-9.21075
▁taught	-9.21076
▁harry	-9.21077
▁brianna	-9.21109
▁sub	-9.2112
▁babe	-9.21158
▁indistinctly	-9.21232
▁due	-9.21294
▁united	-9.21365
ow	-9.21443
▁faster	-9.21608
▁bucks	-9.21722
ite	-9.21786
▁cost	-9.22023
ally	-9.22187
▁suck	-9.22914
▁crash	-9.23056
▁keys	-9.23144
▁takes	-9.23366
▁cry	-9.23387
▁rebecca	-9.23571
▁violet	-9.23571
▁within	-9.23571
▁lonely	-9.23572
▁excellent	-9.23577
▁pressure	-9.23581
▁purpose	-9.23594
▁oui	-9.23609
▁third	-9.23623
▁ghost	-9.23649
▁deserve	-9.23658
▁mais	-9.23668
▁chill	-9.2369
▁barn	-9.23983
ass	-9.2399
▁freeze	-9.23991
▁rip	-9.24029
▁whispers	-9.24043
▁starts	-9.24089
▁stars	-9.24182
li	-9.24436
ure	-9.24566
▁sa	-9.24577
▁kissed	-9.24722
▁using	-9.24836
▁lies	-9.24952
▁bo	-9.25003
per	-9.2574
▁dads	-9.25908
son	-9.25922
▁force	-9.25967
▁hero	-9.26019
▁serve	-9.26091
▁district	-9.26135
▁maureen	-9.26135
▁practice	-9.26135
▁idiot	-9.26136
▁shop	-9.26136
▁operation	-9.26137
▁candy	-9.26138
▁pool	-9.26143
▁information	-9.26143
▁pleasure	-9.26153
▁dick	-9.2616
▁fbi	-9.26164
▁laughter	-9.26166
▁bird	-9.2627
▁crime	-9.26289
▁gasping	-9.26347
▁quickly	-9.2639
▁mud	-9.26462
▁rule	-9.26503
ish	-9.27028
▁stage	-9.27117
ee	-9.27469
ton	-9.27835
ut	-9.27894
▁press	-9.27921
co	-9.27938
▁sacrifice	-9.2844
▁public	-9.28616
▁wild	-9.28671
▁mount	-9.28767
▁especially	-9.28767
▁government	-9.28767
▁strength	-9.28767
▁wrote	-9.28767
▁daryn	-9.28767
▁diane	-9.28767
▁sugar	-9.28767
▁tower	-9.28767
▁truly	-9.28767
▁program	-9.28768
▁comfortable	-9.2878
▁medical	-9.28795
▁data	-9.28797
▁path	-9.28816
un	-9.28828
▁cow	-9.28842
▁view	-9.28849
▁certainly	-9.28928
▁there	-9.29185
▁besides	-9.292
▁dreams	-9.29468
▁cooking	-9.29492
▁played	-9.29581
▁turns	-9.29595
▁gil	-9.29831
▁des	-9.3022
time	-9.30455
▁sisters	-9.30659
line	-9.3075
▁soldiers	-9.31138
▁rules	-9.31266
▁bridge	-9.31298
▁apologize	-9.3147
▁built	-9.3147
▁fischoeder	-9.3147
▁ritchie	-9.3147
▁suspect	-9.3147
▁scoffs	-9.3147
▁credit	-9.3147
▁beginning	-9.3147
▁access	-9.3147
▁cheap	-9.31472
▁hank	-9.31474
▁over	-9.3149
▁izzy	-9.31494
▁snow	-9.31496
▁apartment	-9.315
▁chain	-9.31529
▁boom	-9.31544
▁bono	-9.31596
▁tank	-9.31638
▁account	-9.3172
▁soldier	-9.3181
▁button	-9.31811
▁reporter	-9.32123
▁shoes	-9.32325
▁treat	-9.33026
da	-9.3306
mo	-9.33286
▁wouldve	-9.33307
▁out	-9.33546
▁freak	-9.33547
▁sur	-9.33729
▁photo	-9.34
ais	-9.3405
▁seal	-9.34058
▁swim	-9.34246
▁asleep	-9.34247
▁breakfast	-9.34247
▁kaiju	-9.34247
▁writing	-9.34247
▁zack	-9.34247
▁thunder	-9.34248
▁difference	-9.34248
▁bought	-9.34248
▁spread	-9.34248
▁harper	-9.3425
▁dolan	-9.34251
▁noise	-9.34252
▁outta	-9.34262
▁jason	-9.34265
▁james	-9.34287
▁dumb	-9.3433
▁sight	-9.34342
▁bleeding	-9.34458
▁ld	-9.3458
▁monster	-9.34614
▁cl	-9.34707
▁tear	-9.34779
io	-9.34837
▁siren	-9.35055
▁fathers	-9.35286
▁lied	-9.35547
▁arms	-9.36031
▁sais	-9.36089
▁yells	-9.36125
ts	-9.3644
ian	-9.36463
▁bear	-9.36587
▁helped	-9.36791
▁plans	-9.36839
▁deliver	-9.36893
▁ai	-9.36901
▁admit	-9.37095
▁miracle	-9.37105
▁nowhere	-9.37105
▁shouldve	-9.37105
▁cousin	-9.37105
▁price	-9.3711
▁advance	-9.3713
▁lift	-9.37149
▁doc	-9.37172
▁celebrate	-9.37175
▁match	-9.37179
▁safety	-9.37181
▁hal	-9.3723
▁cale	-9.37255
▁meat	-9.37282
▁lawyer	-9.3753
▁bot	-9.37554
▁gotten	-9.37648
▁writer	-9.37698
▁beeps	-9.37795
▁nuts	-9.37928
ped	-9.37935
▁staying	-9.37998
▁wondering	-9.38031
▁bus	-9.38226
lng	-9.38302
▁map	-9.38344
and	-9.38366
go	-9.38482
by	-9.38514
▁cops	-9.38577
▁focker	-9.38763
ated	-9.39238
▁punch	-9.39433
▁film	-9.39516
▁fail	-9.39627
▁board	-9.398
▁walker	-9.39849
▁loves	-9.39897
▁normal	-9.39902
▁soft	-9.39906
▁ann	-9.39939
▁loud	-9.3996
▁gettin	-9.4
▁couid	-9.40046
▁jorge	-9.40046
▁worst	-9.40046
▁repeat	-9.40046
▁nerve	-9.40046
▁ridiculous	-9.40046
▁chili	-9.40053
▁pants	-9.40063
▁dropped	-9.4007
▁battle	-9.4008
▁thatll	-9.40081
▁hiding	-9.40081
▁bien	-9.40085
▁chanting	-9.40135
▁records	-9.40191
▁sl	-9.40303
▁legs	-9.40347
▁victor	-9.40352
▁fake	-9.40355
ez	-9.40641
▁dig	-9.40704
▁shed	-9.40708
▁destroyed	-9.40725
▁su	-9.40734
off	-9.41065
▁be	-9.41177
▁da	-9.41287
▁introduce	-9.41318
▁bite	-9.41354
▁states	-9.41673
▁kinda	-9.41728
▁drones	-9.41803
▁tape	-9.41913
▁cheers	-9.41979
he	-9.42029
▁draw	-9.42032
▁tall	-9.422
▁hook	-9.42646
▁opens	-9.42683
▁ab	-9.4269
▁piss	-9.42691
j	-9.42845
▁launch	-9.42893
▁settle	-9.4307
▁address	-9.43076
▁daesu	-9.43076
▁genius	-9.43076
▁london	-9.43076
▁vegas	-9.43076
▁whoever	-9.43076
▁empty	-9.43076
▁steve	-9.43077
▁bernard	-9.43078
▁beast	-9.43081
▁emergency	-9.43086
▁cooper	-9.43093
▁legend	-9.43106
▁exit	-9.43131
▁remain	-9.43179
▁flor	-9.43272
▁spare	-9.43362
▁wa	-9.43397
▁butter	-9.43455
ary	-9.4363
▁vie	-9.4372
▁animal	-9.4375
▁guest	-9.43755
▁shower	-9.43812
▁hall	-9.44292
mp	-9.4446
▁feelings	-9.44532
▁fingers	-9.44657
▁whip	-9.44913
▁drinking	-9.45099
▁crack	-9.45157
▁murder	-9.45178
ations	-9.45288
▁di	-9.45556
▁allow	-9.45794
▁roll	-9.45816
▁experience	-9.4587
▁pictures	-9.45902
▁pr	-9.46048
▁stole	-9.46116
▁me	-9.4614
▁nu	-9.46183
▁beauty	-9.46201
▁exciting	-9.46201
▁goldmember	-9.46201
▁relationship	-9.46201
▁gabe	-9.46201
▁christmas	-9.46202
▁ryan	-9.46202
▁tongue	-9.46206
▁zone	-9.46206
▁comin	-9.46207
▁saving	-9.46208
▁shame	-9.46209
▁toast	-9.46209
▁helen	-9.46211
▁danny	-9.46211
▁chair	-9.46212
▁spiderman	-9.46212
▁heavily	-9.46222
▁rise	-9.46243
▁stone	-9.46249
▁electric	-9.46259
▁tessa	-9.46276
▁held	-9.46284
▁self	-9.46319
▁whispering	-9.46326
▁obviously	-9.46332
▁hunter	-9.46396
▁toi	-9.46576
▁metal	-9.46661
ism	-9.46758
▁letting	-9.46774
▁gate	-9.46999
▁bringing	-9.47055
▁everythings	-9.47058
les	-9.47179
min	-9.47229
▁pulled	-9.47595
▁eggs	-9.47672
▁heading	-9.47677
▁all	-9.47882
ny	-9.48055
▁liked	-9.481
head	-9.4836
▁borrow	-9.48974
▁focus	-9.48988
gest	-9.49023
▁bake	-9.49109
▁decide	-9.49178
▁somethin	-9.49364
▁daniel	-9.49375
▁caesar	-9.49427
▁mmmhmm	-9.49427
▁nigel	-9.49427
▁plenty	-9.49427
▁stories	-9.49427
▁chinese	-9.49427
▁grew	-9.49427
▁scene	-9.49427
▁england	-9.49427
▁robert	-9.49428
▁medicine	-9.49428
▁sobbing	-9.49429
▁witness	-9.4943
▁teeth	-9.49431
▁emily	-9.49439
▁innocent	-9.49442
▁chloe	-9.49443
▁onto	-9.49454
▁kim	-9.49467
▁chest	-9.4947
▁sword	-9.49481
▁china	-9.49486
▁amen	-9.4952
▁honking	-9.49541
▁cory	-9.4956
▁roaring	-9.49574
▁scary	-9.49589
▁comme	-9.49595
▁el	-9.4962
▁richie	-9.49626
▁noticed	-9.49669
▁vais	-9.49678
ster	-9.4976
▁row	-9.49795
ig	-9.49925
▁mary	-9.50056
▁tie	-9.5008
▁conversation	-9.5024
▁patient	-9.503
▁station	-9.50313
▁blame	-9.50412
▁tip	-9.50541
▁flying	-9.50764
▁signed	-9.51202
ize	-9.5127
▁goal	-9.51325
fully	-9.51406
▁grave	-9.51471
▁couldve	-9.51523
▁sn	-9.51583
▁bless	-9.51891
▁animals	-9.52023
▁thinks	-9.52155
em	-9.52156
▁ends	-9.52264
▁disappear	-9.52315
▁post	-9.52403
▁birds	-9.52523
▁li	-9.52616
▁obvious	-9.52621
▁nothin	-9.52698
▁accept	-9.52732
▁ra	-9.52743
▁camp	-9.52748
▁advice	-9.5276
▁choose	-9.5276
▁involved	-9.5276
▁split	-9.5276
▁stauffenberg	-9.5276
▁ugh	-9.5276
▁wouid	-9.5276
▁japanese	-9.5276
▁babies	-9.5276
▁blaring	-9.5276
▁sweat	-9.52761
uppper	-9.52763
▁cowboy	-9.52766
▁online	-9.52767
▁assistant	-9.52768
▁aids	-9.5277
▁packard	-9.52772
▁logan	-9.52778
▁iron	-9.5278
▁common	-9.52792
▁castle	-9.528
▁generation	-9.528
▁duke	-9.52812
▁mommy	-9.5284
▁sec	-9.52872
▁jackson	-9.52903
▁bull	-9.52959
▁cage	-9.52987
▁jean	-9.53048
▁note	-9.53139
▁hoping	-9.5323
▁measure	-9.53309
▁lower	-9.53466
ade	-9.53481
ap	-9.53498
▁headed	-9.53571
▁zeta	-9.53733
▁location	-9.53745
▁color	-9.53787
lo	-9.5387
▁yard	-9.541
▁martin	-9.54126
▁mini	-9.54186
▁dan	-9.54298
▁closed	-9.54638
ger	-9.54655
▁awful	-9.54802
ring	-9.54838
▁heads	-9.55091
▁showed	-9.55135
▁es	-9.55242
bu	-9.55355
▁dogs	-9.55368
▁keeping	-9.55519
homme	-9.55598
▁mention	-9.55856
os	-9.55966
▁total	-9.56098
▁fait	-9.56114
▁carol	-9.56196
▁apparently	-9.56209
▁applause	-9.56209
▁foxxy	-9.56209
▁jersey	-9.56209
▁leonidas	-9.56209
▁nargle	-9.56209
▁perseus	-9.56209
▁possibly	-9.56209
▁pregnant	-9.56209
▁rumbling	-9.56209
▁schedule	-9.56209
▁travis	-9.56209
▁thief	-9.56209
▁angry	-9.56209
▁storm	-9.56209
▁unbelievable	-9.5621
▁ought	-9.5621
▁glory	-9.5621
▁bottom	-9.56211
▁iook	-9.56218
▁basement	-9.56222
▁twenty	-9.56229
▁secretary	-9.56242
▁growling	-9.56243
▁rush	-9.56245
▁dna	-9.56262
▁vice	-9.56263
▁immediately	-9.5628
▁pig	-9.56302
▁speed	-9.56341
▁dc	-9.56422
▁honestly	-9.56461
tion	-9.56472
▁cars	-9.56523
▁swing	-9.56531
ted	-9.56634
▁billy	-9.56672
▁faire	-9.56699
bi	-9.56741
▁doubt	-9.56742
▁lu	-9.56913
▁crashing	-9.56927
▁duck	-9.57082
▁paintings	-9.57524
▁passed	-9.57561
▁bone	-9.57685
▁smoke	-9.57776
▁bow	-9.57776
▁fellas	-9.57866
▁sat	-9.57997
▁sending	-9.58265
than	-9.58272
und	-9.58634
▁balls	-9.58766
over	-9.58885
▁climb	-9.59257
▁grant	-9.59358
▁doctors	-9.59383
▁sleeping	-9.59383
▁for	-9.5954
▁dirt	-9.59571
▁aim	-9.59729
▁champ	-9.59735
▁announce	-9.59739
▁became	-9.5978
▁difficult	-9.5978
▁eisenheim	-9.5978
▁explosive	-9.5978
▁gwen	-9.5978
▁mirror	-9.5978
▁opportunity	-9.5978
▁research	-9.5978
▁sergeant	-9.5978
▁spencer	-9.5978
▁thornton	-9.5978
▁ugly	-9.5978
▁clamoring	-9.5978
▁mercy	-9.5978
▁wailing	-9.5978
▁crew	-9.5978
▁jerk	-9.59781
▁funeral	-9.59781
▁planning	-9.59782
▁local	-9.59782
▁lori	-9.59791
▁nope	-9.59794
▁bike	-9.59797
▁farm	-9.598
▁weather	-9.59833
▁package	-9.59861
▁usually	-9.59894
▁intern	-9.59945
▁systems	-9.59966
▁sweetie	-9.59975
▁weapons	-9.60063
▁mothers	-9.60122
▁closes	-9.60199
▁lack	-9.60258
pe	-9.60273
▁sale	-9.60417
▁yell	-9.60522
▁scream	-9.60556
▁tout	-9.60572
con	-9.60596
▁tan	-9.60629
▁dressed	-9.60646
▁training	-9.60816
▁bullet	-9.60884
▁decision	-9.60942
▁las	-9.6104
▁wire	-9.61139
▁harder	-9.61164
▁hop	-9.61202
▁loser	-9.61264
▁leader	-9.61356
▁tes	-9.61507
▁fan	-9.61628
ac	-9.61635
▁helping	-9.61705
mi	-9.61788
our	-9.61871
▁ears	-9.61913
▁students	-9.62114
▁following	-9.62209
mer	-9.627
ée	-9.62932
▁bother	-9.62952
▁search	-9.62962
▁streets	-9.62977
▁cart	-9.63055
ber	-9.6316
▁escape	-9.63164
▁waste	-9.63166
▁nobodys	-9.63216
▁gr	-9.63358
▁ni	-9.63362
▁lovin	-9.6342
cho	-9.63463
▁cal	-9.63479
▁automated	-9.63484
▁friday	-9.63484
▁whimpering	-9.63484
▁central	-9.63484
▁circle	-9.63484
▁borg	-9.63484
▁attempt	-9.63484
▁whirring	-9.63485
▁fantastic	-9.63486
▁wilson	-9.63488
▁impressive	-9.63489
▁isabelle	-9.63492
▁grover	-9.63492
▁milk	-9.63493
▁thirty	-9.63496
▁sunday	-9.63496
▁liar	-9.63505
▁quarter	-9.63511
▁laid	-9.63513
▁theory	-9.63532
▁meal	-9.63568
▁eric	-9.63579
▁hut	-9.63595
▁cab	-9.63658
ho	-9.63675
▁dirty	-9.63701
▁breaking	-9.63754
▁created	-9.63796
od	-9.63799
ten	-9.6383
ating	-9.63832
▁cap	-9.63834
▁signal	-9.63882
▁dean	-9.63932
▁pissed	-9.64007
▁bond	-9.6408
▁ln	-9.64136
▁lion	-9.64221
ver	-9.64226
▁block	-9.643
▁qu	-9.64367
▁cheer	-9.64425
ick	-9.64627
▁student	-9.64873
▁seemed	-9.64948
▁boxing	-9.65056
ial	-9.6548
▁throwing	-9.65543
▁problems	-9.65696
▁angels	-9.65718
▁pieces	-9.65739
one	-9.66066
ard	-9.66191
▁blog	-9.66263
▁leo	-9.66398
▁dump	-9.66916
▁release	-9.66995
▁mis	-9.6713
▁pe	-9.6715
▁sudden	-9.67196
▁speech	-9.67237
▁object	-9.67271
▁discuss	-9.67301
▁bounce	-9.6733
▁complicated	-9.6733
▁defense	-9.6733
▁dylan	-9.6733
▁iittie	-9.6733
▁insurance	-9.6733
▁knife	-9.6733
▁nigger	-9.6733
▁stomach	-9.6733
▁studio	-9.6733
▁marvin	-9.6733
▁noisy	-9.6733
▁pardon	-9.6733
▁negative	-9.67331
▁skank	-9.67331
▁finnick	-9.67331
▁silver	-9.67333
▁slept	-9.67334
▁saint	-9.67335
▁fancy	-9.67335
▁rough	-9.67336
▁elevator	-9.67337
▁viola	-9.67341
▁moves	-9.67342
▁beam	-9.67346
▁gain	-9.67356
▁danger	-9.67356
▁giant	-9.67357
▁owner	-9.6736
▁comment	-9.67379
▁vision	-9.6742
▁fe	-9.67446
▁witches	-9.67476
▁deck	-9.67528
▁jr	-9.67561
om	-9.67591
▁prepared	-9.67684
▁fi	-9.67843
▁allowed	-9.67857
▁bath	-9.67878
▁page	-9.67949
▁fate	-9.68002
▁perfectly	-9.68107
▁ba	-9.68117
ney	-9.6812
▁studying	-9.68176
▁rooms	-9.68485
▁lou	-9.68608
▁to	-9.68767
▁nightmare	-9.68785
▁jaeger	-9.68843
▁client	-9.68844
▁nurse	-9.68855
the	-9.68988
▁runs	-9.69023
▁ordered	-9.69178
▁jo	-9.69296
▁talkin	-9.69502
way	-9.69874
kin	-9.7013
▁grade	-9.70502
▁rub	-9.70562
▁beg	-9.70719
▁confirm	-9.70865
▁switch	-9.70889
▁rat	-9.70924
▁player	-9.70966
▁suppose	-9.71021
car	-9.71044
▁marty	-9.71051
▁rid	-9.71117
▁chose	-9.71242
▁clears	-9.71263
▁percent	-9.71312
dy	-9.71324
▁burlington	-9.7133
▁garbage	-9.7133
▁league	-9.7133
▁military	-9.7133
▁neither	-9.7133
▁otherwise	-9.7133
▁pilgrim	-9.7133
▁pizza	-9.7133
▁potential	-9.7133
▁soccer	-9.7133
▁tattoo	-9.7133
▁jealous	-9.7133
▁monkey	-9.7133
▁pearl	-9.7133
▁moaning	-9.7133
▁fruit	-9.7133
▁ocean	-9.71331
▁desert	-9.71331
uffled	-9.71332
▁often	-9.71332
▁knox	-9.71334
▁inspector	-9.71335
▁aware	-9.71336
▁theme	-9.71339
▁ruth	-9.71342
▁handsome	-9.7135
▁dragon	-9.7136
▁motor	-9.71371
▁naked	-9.71385
▁famous	-9.71389
▁style	-9.71437
▁suddenly	-9.71476
▁grown	-9.71508
▁softly	-9.71521
▁vote	-9.71572
▁bout	-9.71681
▁approaching	-9.71765
▁mayor	-9.7204
▁phil	-9.72187
▁smells	-9.72193
▁unit	-9.72248
▁surprised	-9.72277
ier	-9.72419
▁lover	-9.72461
▁pu	-9.72495
ner	-9.72502
▁dit	-9.72563
▁phones	-9.72596
▁issue	-9.72623
▁hip	-9.72725
▁march	-9.72806
▁kicking	-9.72835
▁angel	-9.72949
▁acting	-9.72968
▁ear	-9.73059
▁drone	-9.73106
▁event	-9.732
▁lines	-9.73292
▁who	-9.73665
▁units	-9.73779
▁older	-9.73829
▁spit	-9.73912
ign	-9.74208
▁large	-9.74345
sta	-9.74452
▁stu	-9.74456
ni	-9.74472
ey	-9.74473
work	-9.74808
▁ch	-9.749
▁suggest	-9.74907
ag	-9.74923
▁taik	-9.74986
▁deb	-9.74996
▁success	-9.75015
▁doors	-9.75031
▁direct	-9.75059
▁market	-9.75072
▁design	-9.75096
▁ruin	-9.75127
▁secure	-9.75174
▁notice	-9.75188
▁everybodys	-9.75251
▁debora	-9.75458
▁weak	-9.75491
▁anchor	-9.75496
▁channel	-9.75496
▁criminal	-9.75496
▁dubois	-9.75496
▁emmett	-9.75496
▁familiar	-9.75496
▁insane	-9.75496
▁language	-9.75496
▁peanut	-9.75496
▁sarah	-9.75496
▁saturday	-9.75496
▁senior	-9.75496
▁somehow	-9.75496
▁berlin	-9.75497
▁footsteps	-9.75497
▁ignore	-9.75497
▁robbie	-9.75497
▁bodies	-9.75497
▁hadnt	-9.75497
▁gym	-9.75497
▁alert	-9.75497
▁bravo	-9.75497
▁sharp	-9.75497
▁herr	-9.75498
▁romantic	-9.75498
▁justice	-9.75498
▁miller	-9.75498
▁drift	-9.755
▁flesh	-9.75501
▁recognize	-9.75501
▁massage	-9.75507
▁assume	-9.75513
▁burgers	-9.7552
▁bust	-9.7553
▁vika	-9.75533
avec	-9.75542
▁aunt	-9.75544
▁bug	-9.75549
▁desk	-9.75569
▁professional	-9.75584
▁tiny	-9.75586
▁manager	-9.7561
▁grid	-9.75673
▁coat	-9.75749
▁showing	-9.75768
▁jacket	-9.75798
▁weight	-9.75862
▁stronger	-9.76041
▁mate	-9.76187
▁humans	-9.76232
▁expected	-9.76365
▁aff	-9.76524
fe	-9.7654
▁blows	-9.76789
▁commander	-9.76862
lar	-9.76881
▁boobs	-9.76888
▁rate	-9.76897
▁knocking	-9.76912
▁ana	-9.77021
▁scare	-9.77158
▁spirit	-9.77322
▁scar	-9.77441
▁mimi	-9.77534
▁dry	-9.7755
nic	-9.77765
▁tr	-9.78043
br	-9.78346
▁career	-9.78449
▁z	-9.78494
▁bu	-9.78541
▁rob	-9.78674
▁calls	-9.78806
clear	-9.79189
▁matters	-9.79193
back	-9.79195
▁cai	-9.79196
▁ka	-9.79344
▁stayed	-9.79384
▁ver	-9.79619
▁speaks	-9.79626
ical	-9.79648
▁usual	-9.79707
▁sand	-9.79768
▁prince	-9.79774
▁ambrosia	-9.79844
▁current	-9.79844
▁department	-9.79844
▁frazier	-9.79844
▁lincoln	-9.79844
▁mystery	-9.79844
▁pocket	-9.79844
▁precious	-9.79844
▁regular	-9.79844
▁thomas	-9.79844
▁whenever	-9.79844
▁whether	-9.79844
▁cathy	-9.79844
▁flame	-9.79844
▁physical	-9.79844
▁merde	-9.79845
▁iove	-9.79845
▁cotys	-9.79845
▁subject	-9.79846
▁snake	-9.79847
▁disease	-9.79848
▁british	-9.79849
▁sneak	-9.79849
▁sydney	-9.7985
▁sauce	-9.79852
▁racing	-9.79854
▁zero	-9.79855
▁bread	-9.79855
▁lungs	-9.79856
▁understood	-9.79859
▁wherever	-9.79859
▁prom	-9.79875
▁written	-9.79881
▁gal	-9.79889
▁wet	-9.79904
▁soup	-9.79921
▁powerful	-9.79947
▁garden	-9.79957
▁bail	-9.79976
▁joy	-9.80049
▁aah	-9.80099
▁pot	-9.80197
▁photos	-9.80232
▁kisses	-9.80243
▁interested	-9.80263
▁echoing	-9.80319
▁planet	-9.80338
▁tim	-9.80409
oo	-9.80419
▁watched	-9.8048
ice	-9.80692
▁lately	-9.80771
ble	-9.80794
▁interest	-9.80918
my	-9.80945
▁opening	-9.81106
▁poe	-9.81151
▁hardly	-9.8125
▁tryin	-9.81399
▁lil	-9.81424
▁prim	-9.81447
▁ate	-9.8158
▁iive	-9.81684
▁belong	-9.81887
▁ke	-9.81912
▁sport	-9.81963
▁pulling	-9.82241
moi	-9.82344
▁falling	-9.82874
az	-9.82909
▁patients	-9.83166
ay	-9.83207
▁ge	-9.83225
▁players	-9.83277
tes	-9.83308
▁vas	-9.83358
lf	-9.83408
▁warn	-9.83575
ette	-9.83738
▁tears	-9.83744
tu	-9.83776
▁wh	-9.83777
▁junk	-9.84083
▁bra	-9.84089
▁fr	-9.84223
▁create	-9.84255
▁exact	-9.84261
▁virgin	-9.84366
▁cha	-9.84368
▁dramatic	-9.84384
▁champagne	-9.8439
▁downstairs	-9.8439
▁experiment	-9.8439
▁families	-9.8439
▁marriage	-9.8439
▁olivia	-9.8439
▁peopie	-9.8439
▁positive	-9.8439
▁scratch	-9.8439
▁xerxes	-9.8439
▁byebye	-9.8439
▁cotton	-9.8439
▁hastings	-9.8439
▁henry	-9.8439
▁threw	-9.8439
▁article	-9.8439
▁freedom	-9.8439
▁firm	-9.8439
▁interview	-9.8439
▁science	-9.8439
▁ramses	-9.8439
▁project	-9.84392
▁kenton	-9.84392
▁brush	-9.84392
▁affair	-9.84393
▁basically	-9.84395
▁marius	-9.84396
▁augie	-9.84396
▁clue	-9.84397
▁talent	-9.84397
▁heck	-9.84399
▁johanna	-9.84402
▁allez	-9.84402
▁monique	-9.84403
▁section	-9.84409
▁bright	-9.8441
▁airport	-9.84414
▁wide	-9.84419
▁pi	-9.8442
▁nah	-9.84425
▁crown	-9.8443
▁toilet	-9.84431
▁gentle	-9.8444
cra	-9.84469
▁mood	-9.84496
▁golden	-9.84518
▁humanity	-9.84524
▁clicking	-9.84526
▁pure	-9.84534
▁syd	-9.84535
ions	-9.84542
▁disgusting	-9.84547
▁changing	-9.84553
▁payment	-9.84579
▁checking	-9.84655
▁mole	-9.84814
▁deeply	-9.84844
▁pin	-9.84852
di	-9.84863
▁keeps	-9.8488
rate	-9.84911
▁lips	-9.8492
▁mid	-9.84929
▁murdered	-9.85021
▁agreed	-9.85133
ide	-9.85179
▁cookie	-9.85183
▁gives	-9.85197
▁tub	-9.85207
▁yöure	-9.85347
lin	-9.85433
▁believed	-9.85532
▁backup	-9.85662
▁growing	-9.85666
▁fixed	-9.85743
▁kicked	-9.85804
▁mountains	-9.85913
▁wrap	-9.8606
▁hearing	-9.86116
▁von	-9.86422
▁tickets	-9.86447
▁shouts	-9.86575
▁finger	-9.867
▁pilot	-9.86705
▁chuckle	-9.86857
▁moms	-9.86863
▁pla	-9.87197
▁on	-9.872
cy	-9.87441
▁prime	-9.87454
▁sen	-9.87493
room	-9.87547
end	-9.87565
dden	-9.87838
▁daughters	-9.88023
▁cop	-9.88094
▁guests	-9.8811
▁changes	-9.88112
light	-9.88456
▁echo	-9.88565
▁approach	-9.88634
▁abe	-9.88817
▁invite	-9.88835
▁finding	-9.89076
▁mmhm	-9.89105
▁threat	-9.89117
▁amount	-9.89152
▁enemies	-9.89152
▁energy	-9.89152
▁equal	-9.89152
▁evidence	-9.89152
▁frozen	-9.89152
▁guitar	-9.89152
▁heartbeat	-9.89152
▁javert	-9.89152
▁opinion	-9.89152
▁perimeter	-9.89152
▁reserve	-9.89152
▁revenge	-9.89152
▁sheriff	-9.89152
▁trigger	-9.89152
▁valentine	-9.89152
▁mcara	-9.89152
▁piano	-9.89152
▁proceed	-9.89152
▁route	-9.89152
▁solid	-9.89152
▁indeed	-9.89152
▁respond	-9.89152
▁blew	-9.89152
▁biodome	-9.89152
▁transport	-9.89155
▁text	-9.89156
▁horrible	-9.89158
▁veux	-9.8916
▁natural	-9.89164
▁cannon	-9.89165
▁easier	-9.89166
▁judgment	-9.89168
▁thumb	-9.89171
▁email	-9.89179
▁began	-9.89184
▁deborah	-9.89196
▁marine	-9.892
▁barely	-9.89217
king	-9.89218
▁freshman	-9.89224
▁rare	-9.89229
▁trap	-9.8923
▁guilty	-9.89249
▁jeez	-9.89282
▁eh	-9.89294
▁jewel	-9.89318
▁evan	-9.89322
▁trade	-9.89327
▁amy	-9.89343
▁arrived	-9.8939
▁rep	-9.89405
▁yearold	-9.89435
▁troops	-9.89461
▁shape	-9.89514
▁rage	-9.89518
ized	-9.89522
▁facts	-9.89523
▁tro	-9.89526
▁brad	-9.89609
ung	-9.89745
▁lui	-9.89822
▁lo	-9.89825
▁panic	-9.89868
▁dina	-9.89974
▁jackie	-9.8998
▁realized	-9.90016
▁emotional	-9.90249
▁steps	-9.90347
▁jur	-9.9051
▁goodness	-9.9066
▁represent	-9.90818
▁painter	-9.90851
▁hm	-9.90868
▁affect	-9.90878
che	-9.9088
▁not	-9.90915
▁ropes	-9.91065
let	-9.91291
nd	-9.91461
▁wheel	-9.91472
▁apes	-9.91518
▁shield	-9.91598
▁giri	-9.91622
▁whistle	-9.91626
▁toward	-9.91677
▁zoo	-9.9168
▁plate	-9.91741
▁chi	-9.91914
ious	-9.9192
com	-9.92232
▁sc	-9.92268
ill	-9.92586
art	-9.92743
act	-9.92763
▁parts	-9.92796
mon	-9.92828
▁harm	-9.9291
ka	-9.92923
men	-9.93387
▁load	-9.93522
ons	-9.93546
▁damage	-9.93835
▁rap	-9.93912
▁hung	-9.93988
boy	-9.94016
ns	-9.94034
▁spoke	-9.9406
▁paying	-9.94117
▁according	-9.94152
▁brilliant	-9.94152
▁california	-9.94152
▁confused	-9.94152
▁david	-9.94152
▁desperate	-9.94152
▁environment	-9.94152
▁favour	-9.94152
▁gipsy	-9.94152
▁merci	-9.94152
▁michael	-9.94152
▁midnight	-9.94152
▁necessary	-9.94152
▁rabbit	-9.94152
▁screen	-9.94152
▁texas	-9.94152
▁valkyrie	-9.94152
▁church	-9.94152
▁loomis	-9.94152
▁stood	-9.94152
▁delta	-9.94152
▁heip	-9.94152
▁stairs	-9.94152
▁shopping	-9.94152
▁prefer	-9.94154
▁phase	-9.94154
▁homosexual	-9.94155
▁outfit	-9.94155
▁gunshot	-9.94155
▁process	-9.94155
▁junior	-9.94159
▁trash	-9.94161
▁calvin	-9.94164
▁skylar	-9.94171
▁heather	-9.94182
▁social	-9.94183
▁corn	-9.94184
▁eagle	-9.94188
▁champion	-9.94222
▁estel	-9.94235
▁trial	-9.94241
▁silly	-9.94241
▁maria	-9.94248
▁shift	-9.94256
▁peut	-9.94261
▁concerned	-9.94275
▁madame	-9.943
▁cast	-9.94316
▁buzzing	-9.94353
▁effect	-9.94369
▁mouths	-9.94417
▁eaten	-9.94465
▁tony	-9.94726
▁carter	-9.94843
▁pee	-9.95038
▁log	-9.95042
▁screwed	-9.95045
▁matt	-9.95057
▁thud	-9.95384
▁hum	-9.95424
▁sooner	-9.9545
▁guards	-9.95458
▁doll	-9.95478
▁sw	-9.95554
▁ahh	-9.95562
led	-9.95566
ze	-9.9578
▁sin	-9.95806
▁messed	-9.95808
ler	-9.95901
▁engineer	-9.95956
▁slip	-9.96
▁dé	-9.96008
▁para	-9.96115
▁papers	-9.96221
▁ma	-9.96287
▁shout	-9.96461
▁bowl	-9.9662
▁towards	-9.96689
▁beating	-9.96735
ence	-9.96826
▁shoulder	-9.9686
rie	-9.96877
▁cur	-9.9688
▁fence	-9.96897
▁carnie	-9.96906
▁shark	-9.96911
▁chick	-9.96917
▁fl	-9.96918
▁winner	-9.9693
▁egg	-9.96959
▁touched	-9.97034
▁that	-9.97079
tro	-9.97123
▁stranger	-9.97149
▁ape	-9.97158
▁fella	-9.97431
▁singer	-9.97585
ica	-9.97744
of	-9.97817
▁mas	-9.97913
▁secrets	-9.97977
▁speaker	-9.98046
▁tick	-9.98185
loo	-9.98246
▁consider	-9.9843
down	-9.9873
▁brief	-9.98888
▁pretend	-9.9889
▁hill	-9.98933
▁leaves	-9.98961
▁defeat	-9.98977
▁jet	-9.98984
▁comm	-9.99043
▁divorce	-9.9908
▁flow	-9.9908
▁prepare	-9.99182
▁sucks	-9.9921
▁german	-9.99219
▁base	-9.99236
be	-9.99284
▁proper	-9.9931
▁sandwich	-9.99324
▁comfort	-9.9939
▁resist	-9.99407
▁flash	-9.9941
▁birth	-9.9941
▁buffalo	-9.99415
▁byrnes	-9.99415
▁creaking	-9.99415
▁example	-9.99415
▁fifteen	-9.99415
▁haymitch	-9.99415
▁international	-9.99415
▁memories	-9.99415
▁particular	-9.99415
▁remote	-9.99415
▁rhesus	-9.99415
▁shelter	-9.99415
▁shouid	-9.99415
▁someday	-9.99415
▁simply	-9.99415
▁stretch	-9.99415
▁thorin	-9.99415
▁fought	-9.99415
▁permission	-9.99416
▁faulkner	-9.99416
▁susan	-9.99416
▁dallas	-9.99416
▁cliff	-9.99416
▁journey	-9.99417
▁insist	-9.99417
▁bored	-9.99418
▁pbs	-9.99419
▁coast	-9.99421
▁hans	-9.99421
▁anniversary	-9.99421
▁joking	-9.99422
▁mansfield	-9.99423
▁quarterback	-9.99423
▁kong	-9.99424
▁dropping	-9.99425
▁claim	-9.99428
▁alex	-9.99429
▁deux	-9.99429
▁rosa	-9.9943
▁earlier	-9.99432
▁aboard	-9.99437
▁crackling	-9.99447
▁propose	-9.99466
▁vow	-9.99474
▁national	-9.99475
▁forest	-9.99478
▁nasty	-9.99478
▁buried	-9.99483
▁naughton	-9.99507
▁direction	-9.99534
▁ranger	-9.99536
▁mag	-9.9955
▁dust	-9.99559
▁healthy	-9.99569
▁engaged	-9.99579
▁homework	-9.9958
▁wi	-9.9958
▁challenge	-9.99675
▁spell	-9.9968
▁sandy	-9.99686
▁simon	-9.99689
fo	-9.99707
▁cup	-9.99741
▁fifty	-9.99742
▁chad	-9.99749
▁nein	-9.99786
if	-9.99793
▁victory	-9.99793
▁former	-9.99867
▁falls	-9.99928
▁tri	-9.99939
ors	-9.99947
▁lean	-9.99951
▁ruined	-9.99961
▁pete	-10
▁arr	-10.0012
▁cents	-10.0017
▁manage	-10.0027
ang	-10.0039
yard	-10.0046
▁filled	-10.0046
▁arrested	-10.0052
▁adams	-10.0053
ley	-10.0061
ja	-10.0112
▁hurts	-10.0114
▁langs	-10.012
▁painted	-10.0124
▁bat	-10.0127
▁flowers	-10.0131
▁legal	-10.0139
ique	-10.0173
▁x	-10.0176
▁ti	-10.0186
ren	-10.0189
▁learning	-10.0194
▁codes	-10.02
▁pound	-10.0202
▁speakers	-10.0228
▁sports	-10.0237
cha	-10.0237
▁followed	-10.0241
▁score	-10.0244
▁odd	-10.0248
▁ticket	-10.0252
▁sometime	-10.0254
▁iet	-10.0261
▁fac	-10.0264
▁bend	-10.0328
oi	-10.0333
▁hunt	-10.0367
▁pie	-10.0384
▁iii	-10.0414
port	-10.0419
▁can	-10.0425
▁tricks	-10.0428
ball	-10.0436
▁or	-10.0437
▁vo	-10.0438
like	-10.044
▁tone	-10.044
étai	-10.0441
ving	-10.0442
▁he	-10.0442
▁bush	-10.0443
▁interrupt	-10.0443
▁feei	-10.0455
▁mix	-10.0457
▁dec	-10.0458
▁crush	-10.048
▁sp	-10.0481
▁flat	-10.0497
ify	-10.0497
▁adventure	-10.0497
▁aurora	-10.0497
▁bohme	-10.0497
▁chicago	-10.0497
▁eventually	-10.0497
▁fashion	-10.0497
▁fridge	-10.0497
▁girard	-10.0497
▁izzi	-10.0497
▁kraken	-10.0497
▁license	-10.0497
▁lieutenant	-10.0497
▁magazine	-10.0497
▁museum	-10.0497
▁response	-10.0497
▁responsibility	-10.0497
▁sensitive	-10.0497
▁spoil	-10.0497
▁surrender	-10.0497
▁technology	-10.0497
▁universe	-10.0497
▁visual	-10.0497
▁whistling	-10.0497
▁jazz	-10.0497
▁ancient	-10.0497
▁geneva	-10.0497
▁steady	-10.0497
▁everdeen	-10.0497
▁expert	-10.0497
▁mostly	-10.0497
▁martel	-10.0497
▁nancy	-10.0497
▁impact	-10.0497
▁including	-10.0497
▁literally	-10.0497
▁actuaiiy	-10.0497
▁hayes	-10.0497
▁belt	-10.0497
▁connais	-10.0497
▁tracy	-10.0497
▁hades	-10.0498
▁council	-10.0498
▁influence	-10.0498
▁chaos	-10.0498
▁kiah	-10.0498
▁minister	-10.0498
▁franklin	-10.0499
▁decent	-10.0499
▁sequence	-10.0499
▁several	-10.0499
▁connie	-10.0499
▁ap	-10.05
▁santa	-10.05
▁loan	-10.0501
▁mask	-10.0501
▁genetic	-10.0501
▁mental	-10.0502
▁booth	-10.0502
▁lilli	-10.0502
▁mash	-10.0503
▁darkness	-10.0503
▁iot	-10.0504
▁creepy	-10.0505
▁ron	-10.0505
▁salem	-10.0505
▁stock	-10.0505
▁capable	-10.0506
▁committed	-10.0506
▁whyd	-10.0507
▁loving	-10.0508
▁edge	-10.0508
▁labor	-10.0509
day	-10.0509
▁barb	-10.0513
▁stolen	-10.0513
▁becky	-10.0515
▁bury	-10.0515
▁wheeler	-10.0516
▁spy	-10.0519
▁gear	-10.0527
▁whooping	-10.0529
▁invited	-10.0534
▁lab	-10.0542
▁movement	-10.0545
▁jew	-10.0554
▁scotty	-10.0557
nya	-10.0559
▁down	-10.0561
▁caii	-10.0562
▁off	-10.0577
▁ceo	-10.0577
▁clicks	-10.0577
▁bobbi	-10.0592
▁partners	-10.0601
▁murderer	-10.0605
▁wipe	-10.0606
▁link	-10.0615
▁squeeze	-10.0632
▁ou	-10.0634
▁higher	-10.0638
▁invest	-10.0654
▁bags	-10.0656
▁returned	-10.0667
▁closet	-10.0667
▁reached	-10.0678
▁mat	-10.0714
▁cares	-10.0726
▁passing	-10.0754
▁under	-10.0757
pa	-10.0769
▁up	-10.0772
▁giris	-10.0781
ient	-10.0796
▁bills	-10.0802
ue	-10.0814
fi	-10.0814
▁kissing	-10.082
▁creature	-10.083
▁season	-10.0835
▁plant	-10.0842
▁millions	-10.0843
▁horses	-10.0863
▁picking	-10.0863
▁lesson	-10.0865
au	-10.0878
▁fans	-10.0883
▁wires	-10.0884
ink	-10.0885
▁answers	-10.0885
▁prayer	-10.0891
▁shooting	-10.0893
▁vu	-10.09
▁yards	-10.0914
▁lookin	-10.0926
▁mel	-10.0938
▁reai	-10.0952
▁elli	-10.0973
▁flip	-10.0975
lly	-10.0981
skull	-10.1025
▁suffer	-10.1031
born	-10.104
▁refuse	-10.1052
▁javi	-10.1068
▁fre	-10.1069
▁official	-10.1073
▁tornado	-10.1076
▁jam	-10.108
▁collect	-10.1081
▁product	-10.1082
▁loyal	-10.1084
▁advantage	-10.1085
▁beneath	-10.1085
▁capitol	-10.1085
▁daccord	-10.1085
▁dennit	-10.1085
▁hmhmm	-10.1085
▁jumanji	-10.1085
▁murmuring	-10.1085
▁negotiat	-10.1085
▁oiiver	-10.1085
▁pablo	-10.1085
▁paradise	-10.1085
▁satellite	-10.1085
▁smooth	-10.1085
▁source	-10.1085
▁swallow	-10.1085
▁theater	-10.1085
▁wolf	-10.1085
▁traffic	-10.1085
▁contain	-10.1085
▁duchess	-10.1085
▁thrace	-10.1085
▁greet	-10.1085
▁osborn	-10.1085
▁candle	-10.1085
▁drove	-10.1085
▁illusion	-10.1085
▁opposite	-10.1085
▁expensive	-10.1085
▁woke	-10.1085
▁grandfather	-10.1085
▁defend	-10.1086
▁lyons	-10.1086
▁throne	-10.1086
▁downtown	-10.1086
▁palace	-10.1086
▁dwarves	-10.1086
▁shaking	-10.1086
▁grill	-10.1086
▁performance	-10.1086
▁fever	-10.1086
▁blanket	-10.1087
▁wiii	-10.1087
▁monday	-10.1087
▁available	-10.1087
▁growls	-10.1087
▁horsemen	-10.1087
▁spark	-10.1088
▁fuel	-10.1089
▁france	-10.1089
▁slice	-10.1089
▁roommate	-10.1089
▁hef	-10.109
▁soir	-10.1091
▁duty	-10.1091
▁heal	-10.1092
▁stub	-10.1093
▁shine	-10.1093
▁johnson	-10.1093
▁midas	-10.1094
▁mister	-10.1099
▁coughing	-10.11
▁mido	-10.1102
▁wave	-10.1105
▁retired	-10.1106
▁rhodes	-10.1109
▁sang	-10.1113
▁hired	-10.1113
▁screeching	-10.1119
▁opened	-10.112
ov	-10.1123
▁spring	-10.1123
▁pitch	-10.1137
▁hostages	-10.1139
▁managed	-10.1141
▁coughs	-10.1155
▁slowly	-10.116
▁riding	-10.1164
▁searching	-10.117
▁failed	-10.1173
▁pan	-10.1204
▁younger	-10.121
wn	-10.1213
▁treasure	-10.1216
▁clearly	-10.123
▁tet	-10.1236
▁loss	-10.1238
▁burning	-10.1262
▁spin	-10.1268
▁mot	-10.1269
▁bee	-10.1287
▁pushing	-10.1289
▁dinosaurs	-10.1294
▁fighter	-10.1295
▁hu	-10.1297
▁depend	-10.1305
▁friendly	-10.1308
▁hearts	-10.1333
▁lessons	-10.1343
tive	-10.1347
▁fort	-10.1349
▁recording	-10.1356
ied	-10.1367
▁voi	-10.1374
side	-10.1381
▁fa	-10.1387
▁boo	-10.139
▁receive	-10.1394
▁detail	-10.1416
▁repair	-10.1417
lic	-10.1417
▁cards	-10.1427
▁meaning	-10.1427
▁sal	-10.1429
▁gasp	-10.1431
▁thousands	-10.1438
rri	-10.1452
▁cherevin	-10.1457
▁member	-10.1463
▁magician	-10.1464
▁rope	-10.1466
▁walls	-10.1468
▁brains	-10.1487
▁blues	-10.1529
▁songs	-10.1556
ern	-10.1583
▁request	-10.1611
▁sha	-10.1613
bar	-10.1636
house	-10.1646
▁hack	-10.1646
field	-10.165
foot	-10.1654
box	-10.1658
▁port	-10.1663
▁appear	-10.1664
▁shock	-10.1666
oid	-10.1688
▁coup	-10.1693
▁drinks	-10.1695
▁initiate	-10.1695
ls	-10.1697
ub	-10.1704
ose	-10.1705
▁sans	-10.1706
▁revolution	-10.1709
▁transfer	-10.171
▁alpha	-10.171
▁pipe	-10.171
▁amelia	-10.171
▁arthur	-10.171
▁attitude	-10.171
▁barricade	-10.171
▁becca	-10.171
▁behavior	-10.171
▁beloved	-10.171
▁creek	-10.171
▁cristina	-10.171
▁davis	-10.171
▁equipment	-10.171
▁giggling	-10.171
▁global	-10.171
▁gottlieb	-10.171
▁grateful	-10.171
▁helicopter	-10.171
▁howard	-10.171
▁include	-10.171
▁operator	-10.171
▁reward	-10.171
▁satisfied	-10.171
▁subtitles	-10.171
▁surgery	-10.171
▁torture	-10.171
▁wreck	-10.171
▁spear	-10.171
▁truman	-10.171
▁vault	-10.171
▁wharf	-10.171
▁aaron	-10.171
▁chirp	-10.171
▁emperor	-10.171
▁monitor	-10.171
▁novel	-10.171
▁ferry	-10.171
▁pym	-10.171
▁civilization	-10.171
▁salad	-10.171
▁content	-10.171
▁todd	-10.171
▁teschen	-10.1711
▁foreign	-10.1711
▁contract	-10.1711
▁winning	-10.1711
▁multipl	-10.1711
▁wagon	-10.1711
▁cafe	-10.1711
▁baseball	-10.1711
▁kenny	-10.1711
▁desire	-10.1711
▁acid	-10.1711
▁border	-10.1711
▁firing	-10.1712
▁boring	-10.1713
▁motel	-10.1713
▁whatre	-10.1713
▁solution	-10.1713
▁balance	-10.1714
▁maddy	-10.1714
▁chef	-10.1714
▁burst	-10.1715
▁bedroom	-10.1715
▁discussion	-10.1715
▁oil	-10.1717
▁dois	-10.1717
▁extremely	-10.1717
▁pair	-10.1717
▁drill	-10.1717
▁objection	-10.1717
▁qualit	-10.1718
▁spain	-10.1718
▁uhoh	-10.1719
▁dire	-10.1719
▁princess	-10.1719
▁leap	-10.172
▁unfortunately	-10.1722
▁dawn	-10.1722
▁alien	-10.1723
▁protection	-10.1723
▁jude	-10.1725
▁officially	-10.1725
bel	-10.1726
▁cole	-10.1729
▁ease	-10.173
▁directly	-10.1732
▁hitting	-10.1733
▁forty	-10.1735
▁germany	-10.1736
▁cheating	-10.1736
▁impressed	-10.1737
▁discovered	-10.174
▁billion	-10.174
▁jen	-10.1741
▁sally	-10.1741
▁dive	-10.1752
▁ob	-10.1757
▁personally	-10.1769
▁armor	-10.177
▁hunting	-10.1776
▁designed	-10.1776
▁oid	-10.1782
▁quil	-10.179
▁mentioned	-10.179
▁climbing	-10.1806
ei	-10.1807
▁treated	-10.181
▁avis	-10.181
▁am	-10.1817
▁lick	-10.1819
▁everyones	-10.1827
▁freaking	-10.1831
▁exp	-10.1838
▁spartans	-10.185
▁roars	-10.1851
▁tra	-10.1857
▁carrying	-10.1876
▁jumped	-10.1896
▁cameras	-10.1906
▁mortal	-10.1913
▁cos	-10.1919
▁tea	-10.1928
low	-10.1932
▁thin	-10.1938
hi	-10.1953
ants	-10.1964
▁mum	-10.1969
▁cleaning	-10.1971
▁regarde	-10.1973
▁frickin	-10.1975
oc	-10.1975
▁image	-10.1975
▁gl	-10.1978
▁bal	-10.1979
▁cla	-10.1988
▁ri	-10.2003
▁pm	-10.2011
▁chicks	-10.2016
▁mass	-10.2033
▁trans	-10.2033
▁plates	-10.2035
▁buying	-10.2048
▁popp	-10.2052
▁lit	-10.2056
▁bi	-10.2064
▁poop	-10.2069
▁med	-10.2082
▁char	-10.2088
▁eu	-10.2093
uck	-10.2094
eak	-10.2098
▁regard	-10.2108
▁mac	-10.2112
▁condition	-10.2121
▁vehicle	-10.2122
▁treatment	-10.2126
▁demand	-10.2129
▁badge	-10.214
pro	-10.2143
▁someones	-10.2144
▁assassin	-10.2176
pped	-10.2181
▁zetas	-10.2183
▁sk	-10.2191
▁com	-10.2209
▁guns	-10.2223
▁tas	-10.2246
▁woo	-10.2248
▁philip	-10.2267
▁rocks	-10.2269
▁goat	-10.2304
▁surely	-10.231
hel	-10.2314
board	-10.2315
ris	-10.2316
row	-10.2318
▁bio	-10.2318
▁flag	-10.2319
wood	-10.2323
▁bleed	-10.2326
▁gather	-10.2333
▁bang	-10.2333
▁stops	-10.2335
qui	-10.2342
▁solve	-10.2344
▁corps	-10.2349
▁faces	-10.2357
▁beck	-10.236
▁immediate	-10.2363
▁madam	-10.2364
▁russia	-10.2366
▁brace	-10.2368
▁organ	-10.2371
▁stress	-10.2375
▁trauma	-10.2377
▁avoid	-10.2377
▁bernström	-10.2377
▁chapter	-10.2377
▁convict	-10.2377
▁dozen	-10.2377
▁lobster	-10.2377
▁lucille	-10.2377
▁material	-10.2377
▁mexico	-10.2377
▁oxygen	-10.2377
▁phoenix	-10.2377
▁powder	-10.2377
▁professor	-10.2377
▁rathbone	-10.2377
▁rattling	-10.2377
▁robinson	-10.2377
▁smiling	-10.2377
▁sphere	-10.2377
▁struck	-10.2377
▁sweep	-10.2377
▁tambourine	-10.2377
▁turkey	-10.2377
▁valjean	-10.2377
▁village	-10.2377
▁vodka	-10.2377
▁william	-10.2377
▁value	-10.2377
▁warehouse	-10.2377
▁blast	-10.2377
▁telephone	-10.2377
▁lottery	-10.2377
▁obannon	-10.2377
▁vacation	-10.2377
▁pourquoi	-10.2377
▁hammer	-10.2377
▁silence	-10.2377
▁darrow	-10.2377
▁confusing	-10.2377
▁darren	-10.2377
▁joanne	-10.2378
▁louisette	-10.2378
▁muttering	-10.2378
▁surface	-10.2378
▁pump	-10.2378
▁detective	-10.2378
▁piay	-10.2378
▁signature	-10.2378
▁accent	-10.2378
▁rico	-10.2378
▁root	-10.2378
▁slide	-10.2378
▁lucy	-10.2378
▁salut	-10.2378
▁species	-10.2378
▁punk	-10.2378
▁shining	-10.2378
▁faut	-10.2378
▁prick	-10.2378
▁shane	-10.2378
▁marcus	-10.2379
▁keri	-10.2379
▁abby	-10.2379
▁childhood	-10.2379
▁reaction	-10.238
▁cure	-10.238
▁alley	-10.238
▁anger	-10.2381
▁weep	-10.2381
▁headache	-10.2381
▁grandson	-10.2381
▁connection	-10.2381
▁mail	-10.2382
▁spooky	-10.2382
▁teii	-10.2383
▁taxi	-10.2383
▁footage	-10.2384
▁sack	-10.2384
▁frame	-10.2384
▁mansion	-10.2384
▁title	-10.2384
▁jane	-10.2385
▁responsible	-10.2387
▁complaint	-10.2387
▁neur	-10.2388
▁shatter	-10.2388
▁cries	-10.239
▁squirly	-10.2391
▁dave	-10.2391
▁iz	-10.2391
▁passion	-10.2393
▁plain	-10.2393
▁spoken	-10.2395
▁straighten	-10.2397
▁ranch	-10.2399
▁beth	-10.2404
▁maid	-10.2405
▁fallen	-10.2407
▁ended	-10.2414
▁debt	-10.2414
▁reality	-10.2426
▁delivery	-10.2428
▁quietly	-10.2431
▁rev	-10.2442
▁lair	-10.2443
▁bitches	-10.2448
▁timing	-10.2457
▁brand	-10.247
▁watchers	-10.2473
▁belly	-10.2476
▁fred	-10.2477
▁served	-10.2483
▁rag	-10.2485
▁bump	-10.2487
▁vin	-10.2492
▁raised	-10.2494
val	-10.2503
har	-10.2506
ction	-10.2509
wasting	-10.2518
▁gi	-10.2527
ible	-10.2527
▁mal	-10.2548
gy	-10.2551
▁ideas	-10.2553
▁deco	-10.2569
▁chips	-10.257
▁blowing	-10.2572
▁fires	-10.2573
▁tou	-10.2605
▁shadows	-10.2615
▁swa	-10.2625
▁yay	-10.2649
▁pea	-10.2664
▁gig	-10.2683
▁ami	-10.2719
▁feelin	-10.2727
ok	-10.2737
▁pilots	-10.274
▁dies	-10.2748
▁belongs	-10.2758
pp	-10.2759
▁concentrate	-10.2772
▁dar	-10.2774
you	-10.2796
▁grunt	-10.2796
▁rats	-10.2802
▁officers	-10.2808
▁jaegers	-10.2811
▁ca	-10.2824
▁diamond	-10.2833
▁knee	-10.2834
▁compliment	-10.2836
▁stink	-10.2837
▁drug	-10.2838
▁shadow	-10.2842
▁fellow	-10.2842
▁dinosaur	-10.2842
▁folk	-10.2847
▁flower	-10.2866
▁term	-10.2869
▁mile	-10.2871
▁dollar	-10.2873
▁hated	-10.2874
▁medi	-10.2878
▁eli	-10.2888
hand	-10.2927
▁mistakes	-10.2938
more	-10.2944
ait	-10.2953
▁nate	-10.2968
▁ru	-10.2988
▁boob	-10.3007
▁comp	-10.3013
ship	-10.3023
town	-10.3033
though	-10.3035
▁drown	-10.3047
▁connect	-10.3054
▁convince	-10.3058
▁dial	-10.3059
▁bum	-10.3066
▁traitor	-10.3068
rai	-10.3068
lie	-10.3069
▁steel	-10.3073
▁health	-10.3073
▁ohh	-10.3076
▁original	-10.3077
▁absolute	-10.3077
▁actual	-10.3078
▁africa	-10.3091
▁andante	-10.3091
▁ashamed	-10.3091
▁avenue	-10.3091
▁cambridge	-10.3091
▁capture	-10.3091
▁competition	-10.3091
▁corporation	-10.3091
▁dessert	-10.3091
▁distort	-10.3091
▁driscoll	-10.3091
▁empire	-10.3091
▁europe	-10.3091
▁evergreen	-10.3091
▁fernando	-10.3091
▁fromm	-10.3091
▁gretel	-10.3091
▁hemingway	-10.3091
▁jungle	-10.3091
▁murphy	-10.3091
▁orange	-10.3091
▁patience	-10.3091
▁peyton	-10.3091
▁plug	-10.3091
▁popular	-10.3091
▁practicing	-10.3091
▁profile	-10.3091
▁rescue	-10.3091
▁suicide	-10.3091
▁sunshine	-10.3091
▁territory	-10.3091
▁token	-10.3091
▁towel	-10.3091
▁tunnel	-10.3091
▁twelve	-10.3091
▁underwear	-10.3091
▁upbeat	-10.3091
▁viktor	-10.3091
▁violent	-10.3091
▁whimpers	-10.3091
▁closing	-10.3091
▁dignity	-10.3091
▁federal	-10.3091
▁pathetic	-10.3091
▁shrike	-10.3091
▁arena	-10.3091
▁beany	-10.3091
▁dodge	-10.3091
▁fitzgerald	-10.3091
▁oath	-10.3091
▁option	-10.3091
▁worn	-10.3091
▁bosley	-10.3091
▁humming	-10.3091
▁typing	-10.3091
▁faint	-10.3091
▁yacht	-10.3091
▁jerry	-10.3091
▁freezing	-10.3091
▁meteor	-10.3091
▁minor	-10.3091
▁pender	-10.3091
▁violence	-10.3091
▁web	-10.3092
▁spoon	-10.3092
▁juice	-10.3092
▁moscow	-10.3092
▁kingdom	-10.3092
▁piease	-10.3092
▁cassie	-10.3092
▁illegal	-10.3092
▁photograph	-10.3092
▁freddy	-10.3092
▁flashlight	-10.3092
▁contest	-10.3092
▁terrific	-10.3093
▁arrow	-10.3093
▁trapped	-10.3093
▁cabinet	-10.3093
▁sector	-10.3093
▁property	-10.3093
▁steak	-10.3093
▁warrant	-10.3094
▁puff	-10.3094
▁obsessed	-10.3094
▁japan	-10.3094
▁gum	-10.3094
▁cities	-10.3095
▁gang	-10.3095
▁rien	-10.3095
▁practically	-10.3095
▁recently	-10.3095
▁clone	-10.3096
▁gentleman	-10.3096
▁axe	-10.3096
▁sunny	-10.3096
▁friendship	-10.3098
▁humor	-10.3098
▁cave	-10.3098
▁yoga	-10.3098
▁hump	-10.31
▁nora	-10.31
▁statement	-10.3101
▁rocket	-10.3102
▁unique	-10.3102
▁knowledge	-10.3102
▁trace	-10.3105
▁narrat	-10.3106
▁wise	-10.3106
▁winter	-10.3108
▁chosen	-10.3108
▁highness	-10.3109
▁cabin	-10.3111
▁assure	-10.3113
▁jap	-10.3115
▁shrinking	-10.3117
▁peu	-10.3119
▁nights	-10.312
▁falcon	-10.3124
▁leak	-10.3126
▁laser	-10.3136
▁unti	-10.314
▁parties	-10.314
▁justin	-10.3148
▁considered	-10.3151
▁er	-10.3152
▁wasted	-10.3154
▁cable	-10.3157
▁thrown	-10.3163
▁pretending	-10.3164
▁ticking	-10.3164
▁begins	-10.317
▁wing	-10.3174
▁disappeared	-10.3186
▁intercept	-10.3201
aught	-10.3203
▁sucker	-10.322
▁tied	-10.3224
▁worlds	-10.3227
▁woods	-10.3228
▁gu	-10.3234
rac	-10.3238
▁gross	-10.3239
▁hire	-10.325
▁marrying	-10.3254
▁burned	-10.3268
▁trained	-10.3268
▁feeding	-10.327
▁moments	-10.3276
▁expecting	-10.3279
ded	-10.3279
▁attacked	-10.3284
▁skills	-10.3288
▁stealing	-10.329
▁knocked	-10.3297
▁nation	-10.3301
▁classic	-10.3306
▁spending	-10.3307
▁ants	-10.3315
▁iris	-10.3319
▁boots	-10.3328
▁nail	-10.3329
▁cleaned	-10.3333
▁selling	-10.3341
▁drugs	-10.3352
▁fixing	-10.3358
▁sou	-10.338
▁magicians	-10.3388
▁booker	-10.3392
▁dreamed	-10.3394
▁vois	-10.3395
▁bl	-10.3403
cat	-10.342
▁noon	-10.3421
▁odds	-10.3425
▁hates	-10.3438
▁ty	-10.3438
▁publish	-10.3465
▁tables	-10.347
▁halt	-10.3499
ib	-10.3503
▁menu	-10.3515
▁easter	-10.3522
een	-10.3528
▁ag	-10.3537
spite	-10.3548
▁grades	-10.3554
▁clients	-10.356
▁cas	-10.3574
▁touching	-10.3599
▁waiter	-10.3606
▁aa	-10.3607
▁shoe	-10.3615
▁tess	-10.3618
▁souls	-10.3628
hot	-10.3636
▁quan	-10.3645
▁mus	-10.365
gu	-10.3664
▁era	-10.3666
▁emotion	-10.3683
▁bur	-10.3685
ford	-10.3713
▁hundreds	-10.3714
ept	-10.3734
tri	-10.3742
▁u	-10.3748
▁wins	-10.3753
▁shows	-10.3755
ero	-10.3755
▁boot	-10.376
▁checked	-10.3762
▁peoples	-10.3771
▁fed	-10.3797
print	-10.38
▁pleased	-10.3807
▁crimes	-10.3813
▁perform	-10.3814
za	-10.3814
▁volunteer	-10.3814
fall	-10.3814
just	-10.3816
▁limit	-10.3817
load	-10.3819
▁inspire	-10.3827
▁curse	-10.383
▁cour	-10.3831
▁earn	-10.3837
▁é	-10.384
▁unfortunate	-10.3846
▁dun	-10.3848
▁express	-10.3852
▁range	-10.3852
▁weakness	-10.3855
▁blank	-10.3859
▁progress	-10.3859
▁besoin	-10.386
▁complex	-10.386
▁conduct	-10.386
▁conference	-10.386
▁confidence	-10.386
▁construction	-10.386
▁cougar	-10.386
▁denham	-10.386
▁donkey	-10.386
▁editor	-10.386
▁edward	-10.386
▁embassy	-10.386
▁entrance	-10.386
▁femme	-10.386
▁greek	-10.386
▁however	-10.386
▁intelligence	-10.386
▁invisible	-10.386
▁johanson	-10.386
▁landolfa	-10.386
▁lecture	-10.386
▁library	-10.386
▁malcolm	-10.386
▁memoirs	-10.386
▁offense	-10.386
▁philadelphia	-10.386
▁politics	-10.386
▁relief	-10.386
▁society	-10.386
▁stammers	-10.386
▁stryker	-10.386
▁tissue	-10.386
▁trunk	-10.386
▁uniform	-10.386
▁university	-10.386
▁valuable	-10.386
▁vandergeld	-10.386
▁anytime	-10.386
▁behave	-10.386
▁bethany	-10.386
▁disagree	-10.386
▁effort	-10.386
▁florida	-10.386
▁period	-10.386
▁stiii	-10.386
▁staff	-10.386
▁goodnight	-10.386
▁television	-10.386
▁temperature	-10.3861
▁breast	-10.3861
▁chimes	-10.3861
▁programmed	-10.3861
▁graduation	-10.3861
▁delay	-10.3861
▁method	-10.3861
▁prevent	-10.3861
▁autograph	-10.3861
▁chase	-10.3861
▁riot	-10.3861
▁fireworks	-10.3861
▁lazy	-10.3861
▁portrait	-10.3861
▁worrying	-10.3861
▁bravestone	-10.3861
▁herd	-10.3861
▁clapping	-10.3861
▁francisco	-10.3861
▁random	-10.3861
▁championship	-10.3861
▁moral	-10.3861
while	-10.3861
▁romance	-10.3861
▁employee	-10.3861
▁adorable	-10.3861
▁sawyer	-10.3862
▁review	-10.3862
▁swimming	-10.3862
▁doris	-10.3862
▁stopping	-10.3862
▁failure	-10.3863
▁creative	-10.3863
▁imagination	-10.3863
▁starving	-10.3863
▁foolish	-10.3864
▁nico	-10.3864
▁bride	-10.3864
▁teammate	-10.3864
▁rude	-10.3864
▁grandma	-10.3865
▁string	-10.3866
▁electricity	-10.3866
ight	-10.3866
▁thirsty	-10.3866
▁inaudible	-10.3867
▁flies	-10.3868
▁lemon	-10.3868
▁whale	-10.3868
▁lsnt	-10.3868
▁rice	-10.3868
▁allen	-10.3869
▁whore	-10.3869
▁distan	-10.3869
▁math	-10.387
▁parce	-10.387
▁pink	-10.387
▁preparation	-10.3871
▁motion	-10.3872
▁trailer	-10.3872
▁jelly	-10.3872
▁personne	-10.3873
▁mere	-10.3873
▁ils	-10.3874
▁fais	-10.3875
▁benny	-10.3876
▁nous	-10.3876
away	-10.3877
▁carver	-10.3879
▁benson	-10.388
▁howling	-10.388
▁fur	-10.3887
▁cheated	-10.3888
ise	-10.3889
▁daylight	-10.3889
▁model	-10.3889
▁dating	-10.389
▁century	-10.3891
▁movies	-10.3892
▁thee	-10.3894
▁embarrassing	-10.3896
▁chasing	-10.3897
▁suite	-10.39
▁blown	-10.39
mar	-10.3901
▁parler	-10.3905
▁bay	-10.3906
▁reader	-10.3908
▁tune	-10.3908
▁barking	-10.3909
▁core	-10.3913
▁charm	-10.3913
▁charming	-10.3913
▁coin	-10.3915
▁fuse	-10.392
▁banging	-10.3922
▁escaped	-10.3929
▁shy	-10.3935
▁pounding	-10.3936
▁helpful	-10.3956
▁beef	-10.3959
▁blessed	-10.3964
▁tap	-10.3965
▁petit	-10.3971
ement	-10.3972
▁scientists	-10.3973
▁greater	-10.3973
▁porter	-10.3976
▁smaller	-10.398
▁tail	-10.3981
uc	-10.3985
ana	-10.3988
▁aha	-10.3989
▁vol	-10.4019
▁survived	-10.4019
▁boner	-10.4022
▁locker	-10.4027
▁charges	-10.4034
▁muscles	-10.4035
▁slaves	-10.4035
▁filling	-10.4037
▁washed	-10.404
▁traveling	-10.4042
well	-10.4043
itter	-10.4055
▁zombies	-10.4056
▁crossed	-10.4066
▁thoughts	-10.4067
▁whoops	-10.4078
▁che	-10.4081
▁exist	-10.4126
▁explained	-10.4131
▁sons	-10.4132
▁teaching	-10.4136
pen	-10.414
▁wings	-10.4141
mate	-10.4156
▁demands	-10.4158
▁laws	-10.4159
ative	-10.4162
▁thy	-10.4166
▁pier	-10.4168
▁site	-10.4173
ory	-10.4175
▁members	-10.4178
▁messing	-10.4181
▁details	-10.4181
▁tit	-10.4192
▁camel	-10.4204
chi	-10.4207
ways	-10.4214
▁ages	-10.422
▁don	-10.4222
cut	-10.4253
▁lands	-10.4261
▁seek	-10.4263
▁sounded	-10.4285
▁den	-10.4294
▁breed	-10.431
▁reports	-10.4325
den	-10.4379
▁fo	-10.4382
▁brings	-10.4401
▁she	-10.4405
▁gp	-10.4411
▁counter	-10.4426
▁the	-10.4429
▁skip	-10.4433
▁spider	-10.4434
▁til	-10.4437
▁adult	-10.4437
▁cloud	-10.4439
▁missile	-10.4441
▁colors	-10.4453
▁customer	-10.4454
▁bones	-10.446
▁sch	-10.4462
▁pit	-10.4493
▁prisoner	-10.4501
▁sings	-10.4505
▁spr	-10.4508
▁penn	-10.4517
▁nat	-10.456
pr	-10.456
lum	-10.4575
▁accounts	-10.4602
q	-10.4624
▁trees	-10.4638
weight	-10.4638
▁mort	-10.464
▁flush	-10.4649
▁remove	-10.4661
▁nut	-10.4662
▁louis	-10.4679
ima	-10.4681
▁movin	-10.4688
▁runnin	-10.4688
▁bern	-10.4689
▁among	-10.469
▁sail	-10.4691
ability	-10.4692
▁occasion	-10.4693
▁basic	-10.4693
▁poison	-10.4693
▁harvard	-10.4694
▁oggie	-10.4694
▁agency	-10.4694
▁antonio	-10.4694
▁babbling	-10.4694
▁colour	-10.4694
▁communicate	-10.4694
▁cornwall	-10.4694
▁coyote	-10.4694
▁detroit	-10.4694
▁donovan	-10.4694
▁dwarf	-10.4694
▁elizabeth	-10.4694
▁eponine	-10.4694
▁escort	-10.4694
▁gambling	-10.4694
▁gauguin	-10.4694
▁hallelujah	-10.4694
▁holiday	-10.4694
▁kababik	-10.4694
▁laundry	-10.4694
▁lsabel	-10.4694
▁manuscript	-10.4694
▁mobile	-10.4694
▁nataiie	-10.4694
▁nickname	-10.4694
▁olbricht	-10.4694
▁pancake	-10.4694
▁political	-10.4694
▁routine	-10.4694
▁shmuel	-10.4694
▁shrieks	-10.4694
▁skirt	-10.4694
▁sniffing	-10.4694
▁volume	-10.4694
▁wealth	-10.4694
▁yknow	-10.4694
▁authority	-10.4694
▁becoming	-10.4694
▁beiieve	-10.4694
▁clown	-10.4694
▁hamptons	-10.4694
▁oscorp	-10.4694
▁smash	-10.4694
▁tractor	-10.4694
▁vienna	-10.4694
▁incoming	-10.4694
▁martha	-10.4694
▁tool	-10.4694
▁robbed	-10.4694
▁utter	-10.4694
▁buddies	-10.4694
▁sample	-10.4694
▁vital	-10.4694
▁hydro	-10.4694
▁corwin	-10.4694
▁arius	-10.4694
▁pork	-10.4694
▁quelquun	-10.4694
▁coughlin	-10.4694
▁juniper	-10.4694
▁gomez	-10.4694
▁lamb	-10.4694
▁vermont	-10.4694
▁argos	-10.4694
▁fortune	-10.4694
▁snoring	-10.4694
▁bonnie	-10.4694
▁blink	-10.4694
▁aye	-10.4694
▁spray	-10.4694
▁lightning	-10.4694
▁commence	-10.4695
▁bradley	-10.4695
▁blade	-10.4695
▁awake	-10.4695
▁cattle	-10.4695
▁rem	-10.4695
▁tiger	-10.4695
▁await	-10.4695
▁jamais	-10.4695
▁series	-10.4695
▁garage	-10.4695
▁scale	-10.4696
▁courage	-10.4696
▁development	-10.4696
▁coward	-10.4696
▁prize	-10.4696
▁begun	-10.4696
▁award	-10.4696
▁moonlight	-10.4696
▁servant	-10.4696
▁pride	-10.4697
▁sentence	-10.4697
▁chew	-10.4697
▁caused	-10.4697
▁sammy	-10.4697
▁define	-10.4698
▁internet	-10.4698
▁confirmation	-10.4699
▁buzzes	-10.4699
▁rode	-10.4699
▁avenger	-10.47
▁disaster	-10.47
▁burton	-10.4701
▁dope	-10.4701
▁effie	-10.4701
▁tuck	-10.4702
▁sexual	-10.4702
▁fantasy	-10.4702
▁ellen	-10.4703
▁carlos	-10.4703
▁clam	-10.4704
▁thick	-10.4705
▁forth	-10.4705
▁praise	-10.4706
▁haul	-10.4707
▁mes	-10.4707
▁apple	-10.4707
▁planned	-10.4707
▁foul	-10.4707
▁coll	-10.4709
▁compromised	-10.4709
▁hail	-10.4711
▁teenager	-10.4711
izing	-10.4713
cher	-10.4713
lock	-10.4714
▁jamie	-10.4715
▁dish	-10.4716
▁palm	-10.4717
▁abandoned	-10.4718
▁betrayed	-10.4722
▁cutting	-10.4723
▁flu	-10.473
eux	-10.473
▁glasses	-10.4733
▁gar	-10.4738
▁damaged	-10.4748
▁mistaken	-10.4753
▁div	-10.4757
▁tastes	-10.4765
▁tend	-10.4767
▁entirely	-10.4773
iong	-10.4779
▁briefing	-10.4779
▁sim	-10.4782
▁shots	-10.4784
▁dumped	-10.479
▁auto	-10.4807
▁commit	-10.4812
▁windows	-10.4816
▁sponsors	-10.4816
▁tributes	-10.4817
▁spared	-10.4821
cus	-10.4828
use	-10.4833
▁carefully	-10.4837
▁twins	-10.484
▁rolling	-10.4845
▁punching	-10.4849
▁chip	-10.4849
▁minds	-10.4851
▁shared	-10.4875
erto	-10.4885
aging	-10.4889
▁boxes	-10.4901
ome	-10.4901
▁enjoyed	-10.4907
▁dy	-10.4923
ties	-10.4958
▁laying	-10.4961
tone	-10.498
▁cats	-10.4981
▁knees	-10.4996
▁carin	-10.5003
▁syn	-10.5007
▁depends	-10.5045
▁stare	-10.5071
▁ar	-10.5075
▁hon	-10.508
▁oni	-10.5084
ada	-10.5086
gue	-10.51
▁sting	-10.5108
▁sharks	-10.5111
▁joining	-10.5119
▁zip	-10.5124
▁wheels	-10.5134
▁warp	-10.5139
aux	-10.5185
▁understanding	-10.5251
hoo	-10.5257
▁inn	-10.5264
▁buck	-10.527
▁rot	-10.5273
yl	-10.5279
▁bullets	-10.5295
log	-10.5301
with	-10.531
itch	-10.5314
▁bin	-10.5319
▁whoop	-10.5335
▁chin	-10.5346
▁attend	-10.5346
▁skill	-10.5356
▁protest	-10.537
▁inter	-10.5395
ries	-10.5397
▁toy	-10.5398
▁pet	-10.5408
ium	-10.5414
▁victors	-10.5435
toi	-10.5439
té	-10.5442
ola	-10.5449
eur	-10.5464
▁vers	-10.55
▁fears	-10.5515
▁becomes	-10.552
▁net	-10.5528
▁inf	-10.5536
book	-10.5537
▁discover	-10.5538
mble	-10.5549
▁fart	-10.555
▁screech	-10.5551
ities	-10.5552
▁forces	-10.5552
▁develop	-10.5555
▁shush	-10.5556
▁sue	-10.5562
▁retire	-10.5569
▁describe	-10.5572
▁separate	-10.5573
▁eva	-10.5574
▁bark	-10.5591
▁possess	-10.5593
▁region	-10.5594
▁sparta	-10.5594
▁soph	-10.5599
▁confess	-10.56
▁punish	-10.5601
▁fro	-10.5601
▁drama	-10.5603
▁advise	-10.5603
▁anderson	-10.5603
▁arkenstone	-10.5603
▁circuit	-10.5603
▁coiiins	-10.5603
▁crisis	-10.5603
▁disguise	-10.5603
▁education	-10.5603
▁enterprise	-10.5603
▁eternity	-10.5603
▁fabulous	-10.5603
▁fifth	-10.5603
▁financial	-10.5603
▁furniture	-10.5603
▁hashimoto	-10.5603
▁helmet	-10.5603
▁historic	-10.5603
▁infected	-10.5603
▁jordan	-10.5603
▁jurgen	-10.5603
▁lawsuit	-10.5603
▁liwen	-10.5603
▁mcginty	-10.5603
▁nonsense	-10.5603
▁ominous	-10.5603
▁procedure	-10.5603
▁protocol	-10.5603
▁recall	-10.5603
▁receipt	-10.5603
▁refrigerator	-10.5603
▁saumensch	-10.5603
▁sentinels	-10.5603
▁someplace	-10.5603
▁struggle	-10.5603
▁submarine	-10.5603
▁suspicious	-10.5603
▁thumping	-10.5603
▁thursday	-10.5603
▁tressler	-10.5603
▁twentyfive	-10.5603
▁ultimate	-10.5603
▁device	-10.5603
▁grief	-10.5603
▁pulse	-10.5603
▁savage	-10.5603
▁stenz	-10.5603
▁supply	-10.5603
▁clinic	-10.5603
▁nolan	-10.5603
▁pussy	-10.5603
▁steam	-10.5603
▁element	-10.5603
▁mutant	-10.5603
▁battery	-10.5603
▁ceiling	-10.5603
▁morris	-10.5603
▁myth	-10.5603
▁merry	-10.5603
▁gutterboy	-10.5603
▁nephew	-10.5603
▁imitate	-10.5603
▁katherine	-10.5603
▁facility	-10.5603
▁deaf	-10.5603
▁hollywood	-10.5603
▁division	-10.5603
▁mankind	-10.5603
▁ambush	-10.5603
une	-10.5603
▁miami	-10.5603
▁flood	-10.5603
▁pillow	-10.5603
▁sobs	-10.5603
▁recogni	-10.5603
▁expense	-10.5604
▁pooter	-10.5604
▁avai	-10.5604
▁cramp	-10.5604
▁shotgun	-10.5604
▁hartman	-10.5604
▁sanford	-10.5604
▁cookbook	-10.5604
▁gray	-10.5604
▁herb	-10.5604
▁creation	-10.5605
▁silent	-10.5605
▁seattle	-10.5605
▁proof	-10.5605
▁passionate	-10.5605
▁fox	-10.5605
▁extension	-10.5605
▁tango	-10.5605
▁fanny	-10.5605
▁yellow	-10.5606
▁effective	-10.5606
▁grass	-10.5606
▁gossie	-10.5606
▁jenna	-10.5606
▁bound	-10.5606
▁factory	-10.5606
▁yeh	-10.5606
▁housemother	-10.5606
▁deposit	-10.5606
▁prophecy	-10.5606
▁version	-10.5606
▁dizzy	-10.5606
▁grandmother	-10.5606
▁alors	-10.5607
▁brutal	-10.5607
▁rack	-10.5607
▁nascar	-10.5607
▁arrangement	-10.5607
▁charity	-10.5607
▁aside	-10.5607
▁skies	-10.5607
▁stake	-10.5608
▁distraction	-10.5609
▁bible	-10.5609
▁exam	-10.5609
▁ash	-10.561
▁rum	-10.561
assic	-10.561
▁halfway	-10.5611
▁squeaking	-10.5611
▁campus	-10.5611
▁alter	-10.5612
▁presidential	-10.5612
▁agreement	-10.5613
▁allies	-10.5614
▁perry	-10.5614
▁rib	-10.5615
▁growth	-10.5615
▁bubble	-10.5615
▁rubber	-10.5616
▁hola	-10.5617
▁rumor	-10.5617
▁uhuh	-10.5617
▁fargo	-10.5617
▁surrounded	-10.5618
▁sailor	-10.5618
▁alan	-10.5619
▁carried	-10.5623
▁dealing	-10.5623
▁brit	-10.5624
▁eve	-10.5624
▁twist	-10.5625
▁prov	-10.5629
▁threatened	-10.563
▁rollin	-10.563
▁reasonable	-10.5632
▁mmmm	-10.5634
▁yup	-10.5637
▁thrilled	-10.5638
ook	-10.564
▁role	-10.564
▁useful	-10.5642
▁quest	-10.5644
▁bitter	-10.5644
▁fleet	-10.5647
▁loudly	-10.5649
▁float	-10.5649
▁pile	-10.5649
▁director	-10.5649
▁willing	-10.565
bell	-10.565
▁gee	-10.5651
▁shushing	-10.5656
▁transform	-10.5657
▁deny	-10.5658
▁drowned	-10.5659
▁beli	-10.5667
▁fu	-10.5668
▁ability	-10.5668
▁royal	-10.5669
ark	-10.5671
▁yah	-10.5672
▁issued	-10.5677
istic	-10.5678
ari	-10.5685
▁drivers	-10.5686
▁bastards	-10.5691
▁sean	-10.5691
▁warned	-10.5694
▁vari	-10.5706
▁task	-10.5707
▁greatness	-10.5713
▁results	-10.5714
▁successful	-10.5716
▁tax	-10.5717
▁forced	-10.5721
▁taiking	-10.5722
▁vive	-10.5724
▁pad	-10.5738
▁broadcast	-10.574
▁fairy	-10.5744
▁forms	-10.5752
▁asses	-10.5752
▁warriors	-10.5763
▁cracking	-10.5764
▁spa	-10.5773
▁filming	-10.5774
▁hits	-10.5775
▁hairy	-10.5799
berg	-10.5807
▁finds	-10.5807
▁jud	-10.5809
▁coma	-10.5815
ration	-10.5819
▁ren	-10.5822
right	-10.5824
▁visiting	-10.5825
▁iv	-10.5844
▁you	-10.5845
▁cher	-10.5854
▁trainer	-10.5871
han	-10.5873
▁painful	-10.5879
▁farts	-10.5883
▁missiles	-10.5887
▁mall	-10.5888
▁enjoying	-10.5888
▁beats	-10.5893
▁protected	-10.5896
can	-10.5912
▁dip	-10.5919
▁trucks	-10.5929
▁dancer	-10.5938
mber	-10.5941
▁ph	-10.5943
▁mont	-10.5949
▁protecting	-10.5961
lle	-10.5977
▁covered	-10.5989
havin	-10.5991
▁promises	-10.5999
▁sil	-10.6006
▁salt	-10.601
▁waves	-10.601
▁arrive	-10.6019
▁mags	-10.602
▁pays	-10.6037
▁pounds	-10.6039
▁prayers	-10.6039
▁catching	-10.6064
▁br	-10.6076
▁dreaming	-10.6086
▁lac	-10.6093
▁services	-10.6121
▁oops	-10.6122
burg	-10.6128
▁madea	-10.6134
▁boxer	-10.6136
▁chat	-10.6142
▁of	-10.6154
▁chari	-10.6154
▁sire	-10.6177
sma	-10.6186
▁ted	-10.6205
gie	-10.6214
▁wee	-10.6215
▁pat	-10.6225
▁react	-10.6241
▁character	-10.6247
ake	-10.6254
nda	-10.6261
▁holes	-10.6274
▁needle	-10.6286
▁sid	-10.6294
▁snap	-10.6301
▁groan	-10.6309
▁americans	-10.632
aire	-10.6324
ends	-10.6336
oon	-10.6345
▁beep	-10.6349
▁degree	-10.6349
ili	-10.635
▁zombie	-10.6352
▁laisse	-10.6354
▁will	-10.6358
las	-10.6378
nny	-10.6389
▁spar	-10.639
ole	-10.6404
▁bots	-10.645
▁thinkin	-10.6457
▁sirens	-10.6471
lon	-10.6479
▁buttons	-10.6498
▁resident	-10.6532
air	-10.6532
▁cor	-10.6535
▁rounds	-10.6538
▁promis	-10.6539
pot	-10.654
yearold	-10.6545
contact	-10.6546
school	-10.6546
year	-10.6547
face	-10.6552
▁tooth	-10.6555
▁insult	-10.6557
▁cancel	-10.6558
itating	-10.6559
▁sink	-10.6566
▁guarantee	-10.6569
vais	-10.6572
▁liv	-10.6572
▁crow	-10.6573
hood	-10.6576
▁gamble	-10.658
▁custom	-10.6581
ister	-10.6581
▁squirl	-10.6582
▁guilt	-10.6582
▁tradition	-10.6594
▁produce	-10.6594
▁costs	-10.6595
▁orphan	-10.6601
▁civil	-10.6602
▁inform	-10.6602
▁bri	-10.6603
▁activity	-10.6603
▁adriana	-10.6603
▁aggressive	-10.6603
▁annabelle	-10.6603
▁assignment	-10.6603
▁bolivar	-10.6603
▁breeze	-10.6603
▁brittany	-10.6603
▁bruise	-10.6603
▁cassandra	-10.6603
▁chemical	-10.6603
▁concert	-10.6603
▁conflict	-10.6603
▁destination	-10.6603
▁destiny	-10.6603
▁dwight	-10.6603
▁désolé	-10.6603
▁etienne	-10.6603
▁eunice	-10.6603
▁exercise	-10.6603
▁fortunate	-10.6603
▁foxtrot	-10.6603
▁gorgeous	-10.6603
▁happier	-10.6603
▁hebrew	-10.6603
▁himmler	-10.6603
▁huddle	-10.6603
▁hummingbird	-10.6603
▁illyria	-10.6603
▁inhales	-10.6603
▁joohwan	-10.6603
▁majesty	-10.6603
▁manhattan	-10.6603
▁merritt	-10.6603
▁mickey	-10.6603
▁minnesota	-10.6603
▁myseif	-10.6603
▁newspaper	-10.6603
▁november	-10.6603
▁odonnell	-10.6603
▁ordinary	-10.6603
▁phillip	-10.6603
▁phrase	-10.6603
▁polite	-10.6603
▁prostitute	-10.6603
▁prudence	-10.6603
▁rhinehart	-10.6603
▁teresa	-10.6603
▁underneath	-10.6603
▁valens	-10.6603
▁venezuela	-10.6603
▁woojin	-10.6603
▁yellowjacket	-10.6603
▁youtube	-10.6603
efficient	-10.6603
▁bilbo	-10.6603
▁carlisle	-10.6603
▁circus	-10.6603
▁clever	-10.6603
▁dedicate	-10.6603
▁gaylord	-10.6603
▁ladder	-10.6603
▁landlord	-10.6603
▁maintain	-10.6603
▁marlene	-10.6603
▁tuesday	-10.6603
▁voyage	-10.6603
▁adjust	-10.6603
▁dentist	-10.6603
▁fierce	-10.6603
▁strict	-10.6603
▁victim	-10.6603
▁ankle	-10.6603
▁committee	-10.6603
▁latrell	-10.6603
▁maddow	-10.6603
▁radical	-10.6603
▁raptor	-10.6603
▁contamination	-10.6603
▁flunk	-10.6603
▁cancer	-10.6603
▁crois	-10.6603
▁cadet	-10.6603
▁grind	-10.6603
▁reveal	-10.6603
▁particle	-10.6603
▁residence	-10.6603
▁shore	-10.6603
▁preston	-10.6603
▁surveillance	-10.6603
▁intel	-10.6603
▁clasky	-10.6603
▁oclock	-10.6603
▁priest	-10.6603
▁uppercut	-10.6603
ucius	-10.6603
▁collins	-10.6603
▁gollum	-10.6603
▁denise	-10.6603
▁disconnect	-10.6603
▁trouv	-10.6603
▁electronic	-10.6603
▁software	-10.6603
▁soak	-10.6603
▁pepper	-10.6603
▁plague	-10.6603
▁urgent	-10.6604
▁hahaha	-10.6604
▁supper	-10.6604
▁latin	-10.6604
▁reset	-10.6604
author	-10.6604
▁plot	-10.6604
▁claire	-10.6604
▁crook	-10.6604
▁uber	-10.6604
▁accuse	-10.6605
▁boneys	-10.6605
▁bacon	-10.6605
▁slipped	-10.6605
▁feast	-10.6605
▁replacement	-10.6605
▁audition	-10.6605
▁brick	-10.6605
▁appearance	-10.6605
▁unknown	-10.6605
▁huff	-10.6605
▁mmmmmm	-10.6605
▁fold	-10.6605
▁massive	-10.6605
▁sheet	-10.6605
▁rising	-10.6605
▁noble	-10.6606
▁saddle	-10.6606
▁limo	-10.6606
▁iife	-10.6606
▁celebrating	-10.6606
▁selfish	-10.6606
▁puzzle	-10.6608
▁drag	-10.6608
▁ouch	-10.6609
▁tide	-10.6609
▁announcement	-10.6609
▁touchdown	-10.6609
▁haif	-10.6609
▁chow	-10.661
▁forgotten	-10.6611
▁pleasant	-10.6612
▁constantly	-10.6613
▁reign	-10.6615
▁alice	-10.6615
▁betty	-10.6616
▁burt	-10.6616
▁standard	-10.6616
▁temple	-10.6616
▁wallet	-10.6616
▁preacher	-10.6617
▁scan	-10.6617
▁clattering	-10.6617
▁lever	-10.6618
▁approved	-10.6618
▁madness	-10.6619
ians	-10.6619
▁toss	-10.6619
▁elle	-10.662
▁dock	-10.6622
▁fraud	-10.6623
▁shao	-10.6626
uda	-10.6627
▁print	-10.6627
▁vite	-10.6628
▁parl	-10.6628
▁ew	-10.663
▁deadline	-10.6633
▁javier	-10.6633
▁punches	-10.6633
iast	-10.6634
▁naturally	-10.6634
▁rue	-10.6636
▁hunger	-10.6639
▁cobb	-10.6639
▁hooting	-10.664
▁embarrassed	-10.6642
▁badass	-10.6644
▁andre	-10.6648
▁aller	-10.6651
▁normally	-10.6654
▁impress	-10.666
▁semi	-10.6661
▁yea	-10.6661
▁wiped	-10.6664
▁host	-10.6666
▁hood	-10.6669
▁q	-10.6671
uh	-10.6671
▁requires	-10.6672
▁actor	-10.6675
▁classes	-10.6682
▁bid	-10.6682
nows	-10.6686
▁tin	-10.6686
▁mona	-10.6688
▁defeated	-10.6689
▁planted	-10.6692
▁hardest	-10.6693
ail	-10.6696
▁jokes	-10.6697
▁fee	-10.6705
▁tak	-10.6718
▁app	-10.6722
▁homeless	-10.6724
▁cheeks	-10.6726
▁suggesting	-10.6736
▁warner	-10.6741
▁wishes	-10.6743
▁tada	-10.6748
▁bothering	-10.6753
▁guts	-10.6755
▁girlfriends	-10.6756
▁ac	-10.6768
▁rand	-10.6769
▁blessing	-10.6773
illa	-10.6774
ipping	-10.6779
▁exclaims	-10.6781
▁mc	-10.6782
▁honks	-10.6782
▁dings	-10.6783
▁qua	-10.6784
▁remaining	-10.6784
▁sy	-10.6802
▁sadie	-10.6805
▁ditch	-10.6807
▁statu	-10.6813
▁lai	-10.6813
▁musical	-10.6829
▁bare	-10.6833
▁drums	-10.6833
▁survivors	-10.6836
▁jim	-10.6844
▁corpses	-10.6849
▁packed	-10.6862
▁degrees	-10.6863
▁pd	-10.6883
▁toys	-10.6892
▁reported	-10.6903
▁customers	-10.6924
▁wil	-10.6924
▁ward	-10.6926
ude	-10.6936
▁messages	-10.694
▁har	-10.6943
▁bak	-10.6944
▁arch	-10.6969
▁fellows	-10.6974
▁coo	-10.6987
▁translate	-10.699
▁tracking	-10.6991
eau	-10.7008
▁ger	-10.7014
▁prob	-10.7024
▁phi	-10.703
▁cherevins	-10.703
▁images	-10.7036
▁maniacal	-10.7039
▁dudes	-10.7041
▁sor	-10.7046
esh	-10.7066
▁iets	-10.7082
▁toe	-10.7083
how	-10.7099
pu	-10.711
▁winners	-10.7114
▁hills	-10.7116
▁strangers	-10.7121
▁whistles	-10.7142
▁badly	-10.7146
▁singers	-10.7155
corporate	-10.7158
▁luis	-10.7164
▁cd	-10.7191
▁spi	-10.721
▁spirits	-10.7226
▁evolve	-10.7231
▁answering	-10.7243
▁batt	-10.7263
tif	-10.7338
far	-10.7358
run	-10.736
▁ducks	-10.737
▁mcc	-10.7393
▁locations	-10.7397
▁ir	-10.7399
▁reasons	-10.7403
▁wound	-10.7412
▁cooi	-10.7419
▁roar	-10.7421
▁trusted	-10.7425
▁stations	-10.7433
▁skeleton	-10.7455
▁barrel	-10.7455
▁gates	-10.7459
▁waitin	-10.7459
▁survivor	-10.746
▁prep	-10.746
iiy	-10.746
▁stew	-10.7462
▁communication	-10.7462
▁muscle	-10.7463
▁slave	-10.7463
▁spartan	-10.7476
▁remains	-10.7477
▁queens	-10.7479
tag	-10.7482
itched	-10.7489
▁corpse	-10.7494
▁drum	-10.7496
itz	-10.7512
oli	-10.7512
▁ju	-10.7531
lation	-10.7545
▁anti	-10.7549
horn	-10.7556
tll	-10.7561
▁monsters	-10.7569
▁wha	-10.7585
oster	-10.7601
▁trusting	-10.7616
▁embarrass	-10.7618
▁mode	-10.7625
wat	-10.764
▁recover	-10.7646
point	-10.7651
rait	-10.7657
▁andr	-10.7662
play	-10.7662
eight	-10.7669
▁thrill	-10.767
four	-10.7678
▁loo	-10.7678
▁cock	-10.7678
▁banks	-10.7678
▁trail	-10.7701
tial	-10.7702
▁signs	-10.7704
▁breach	-10.7705
graph	-10.7705
avoir	-10.7709
▁casual	-10.7712
▁employ	-10.7713
▁recommend	-10.7714
▁vietnam	-10.7714
▁album	-10.7714
▁anxious	-10.7714
▁appointment	-10.7714
▁athens	-10.7714
▁beacon	-10.7714
▁bourguignon	-10.7714
▁caution	-10.7714
▁ceremony	-10.7714
▁chimney	-10.7714
▁coconut	-10.7714
▁colleague	-10.7714
▁crunch	-10.7714
▁delicious	-10.7714
▁explanation	-10.7714
▁fiddle	-10.7714
▁fountain	-10.7714
▁gabriel	-10.7714
▁georgie	-10.7714
▁groceries	-10.7714
▁gruff	-10.7714
▁guatemala	-10.7714
▁handshake	-10.7714
▁hennessy	-10.7714
▁hermann	-10.7714
▁industri	-10.7714
▁infection	-10.7714
▁injured	-10.7714
▁injuries	-10.7714
▁instance	-10.7714
▁institution	-10.7714
▁intelligent	-10.7714
▁investigate	-10.7714
▁junebug	-10.7714
▁kidnapping	-10.7714
▁knight	-10.7714
▁liberty	-10.7714
▁magnificent	-10.7714
▁malibu	-10.7714
▁mysterious	-10.7714
▁naughty	-10.7714
▁nipple	-10.7714
▁observation	-10.7714
▁politician	-10.7714
▁pretzel	-10.7714
▁purchase	-10.7714
▁rycart	-10.7714
▁semester	-10.7714
▁seventyfive	-10.7714
▁sniper	-10.7714
▁surviving	-10.7714
▁talladega	-10.7714
▁thanksgiving	-10.7714
▁valerie	-10.7714
▁xavier	-10.7714
▁analyst	-10.7714
▁beetee	-10.7714
▁berries	-10.7714
▁bulb	-10.7714
▁clinking	-10.7714
▁desmond	-10.7714
▁destruction	-10.7714
▁fantine	-10.7714
▁hollow	-10.7714
▁honeymoon	-10.7714
▁jeremy	-10.7714
▁located	-10.7714
▁megan	-10.7714
▁pouce	-10.7714
▁reckon	-10.7714
▁riddick	-10.7714
▁snack	-10.7714
▁storage	-10.7714
▁atlas	-10.7714
▁choking	-10.7714
▁kurt	-10.7714
▁tolan	-10.7714
▁aussi	-10.7714
▁hostile	-10.7714
▁karl	-10.7714
▁flew	-10.7714
oeuf	-10.7714
▁vickie	-10.7714
▁presence	-10.7714
▁chiming	-10.7714
▁neighborhood	-10.7714
▁crane	-10.7714
▁false	-10.7714
▁durin	-10.7714
▁reef	-10.7714
▁thermos	-10.7714
▁whiskey	-10.7714
▁digital	-10.7714
▁orcs	-10.7714
▁choke	-10.7714
▁dessus	-10.7714
▁sorrow	-10.7714
▁boogie	-10.7714
▁lethal	-10.7715
▁ozzie	-10.7715
▁oyster	-10.7715
▁bunny	-10.7715
▁broad	-10.7715
▁patrol	-10.7715
▁existence	-10.7715
▁individual	-10.7715
▁busbee	-10.7715
▁network	-10.7715
▁specific	-10.7715
▁tyler	-10.7715
▁blend	-10.7715
▁micro	-10.7715
▁liiiy	-10.7715
▁excitement	-10.7715
▁denial	-10.7715
▁pumpkin	-10.7715
▁attractive	-10.7715
▁combat	-10.7715
▁spice	-10.7715
▁fried	-10.7715
▁bouge	-10.7715
▁avant	-10.7715
▁rogue	-10.7715
▁decade	-10.7716
▁divide	-10.7716
▁vraiment	-10.7716
▁commission	-10.7716
▁sensor	-10.7716
▁medication	-10.7716
▁powell	-10.7716
▁fluid	-10.7716
▁offline	-10.7716
▁buns	-10.7716
▁cried	-10.7716
▁proposal	-10.7717
▁kili	-10.7717
▁heil	-10.7717
▁cease	-10.7717
▁monte	-10.7717
▁commitment	-10.7717
▁pubie	-10.7717
▁cruel	-10.7717
▁gens	-10.7717
▁loyalty	-10.7717
▁dawg	-10.7718
▁confession	-10.7718
▁investment	-10.7718
▁cul	-10.7719
▁debra	-10.7719
▁dash	-10.7719
▁heir	-10.772
▁mechanical	-10.772
▁intention	-10.772
▁collection	-10.772
▁lesions	-10.772
▁indian	-10.772
▁filthy	-10.772
▁noah	-10.7721
▁anthe	-10.7721
▁wick	-10.7723
▁wax	-10.7723
▁inez	-10.7723
▁when	-10.7724
▁highway	-10.7725
▁crumble	-10.7726
▁zoom	-10.7726
▁owns	-10.7726
▁smoking	-10.7726
▁slightly	-10.7727
terior	-10.7727
▁burglar	-10.7728
▁suggestion	-10.773
▁apply	-10.773
▁haut	-10.773
▁just	-10.773
▁slap	-10.7731
▁circumstances	-10.7731
▁habit	-10.7732
▁disappointed	-10.7732
▁serv	-10.7732
▁mint	-10.7734
▁entre	-10.7735
▁provided	-10.7735
▁demon	-10.7735
▁info	-10.7738
eth	-10.7738
▁nug	-10.7739
▁voir	-10.774
▁gim	-10.774
chel	-10.774
▁disturbing	-10.7743
rence	-10.7744
▁sixty	-10.7747
▁mec	-10.7751
▁rear	-10.7751
▁lens	-10.7753
▁craft	-10.7753
▁mooing	-10.7753
▁heroes	-10.7753
▁rv	-10.7755
▁gale	-10.7756
▁squealing	-10.7756
▁removed	-10.7758
▁passengers	-10.7761
▁nun	-10.7764
▁fade	-10.7765
▁fourth	-10.7765
▁operate	-10.7766
▁twisted	-10.7769
▁pity	-10.777
▁dresses	-10.7772
▁bench	-10.7773
appelle	-10.7775
▁useless	-10.7777
▁inch	-10.7779
▁ref	-10.7781
▁vast	-10.7781
▁cane	-10.7782
▁connected	-10.7784
▁this	-10.7788
▁diablos	-10.7791
ches	-10.7793
▁tor	-10.7793
▁requested	-10.7795
▁bridget	-10.7799
▁mixed	-10.7805
▁sore	-10.7808
ador	-10.7812
▁union	-10.782
▁squirrels	-10.7822
▁yelps	-10.7822
ttering	-10.7826
kes	-10.7827
▁shu	-10.7833
▁sleepin	-10.7847
sav	-10.785
▁benefits	-10.7852
▁tourists	-10.7853
▁jay	-10.7857
▁letters	-10.7862
▁ani	-10.7871
▁focused	-10.7873
▁statue	-10.7894
▁charged	-10.7905
▁messy	-10.7907
▁lj	-10.7909
▁costumes	-10.7914
▁patterns	-10.7914
▁worthy	-10.7916
▁visitors	-10.7917
▁joint	-10.7924
ank	-10.7926
▁boarding	-10.7926
▁rt	-10.7935
▁beard	-10.7936
▁replace	-10.7945
▁entered	-10.7947
▁suits	-10.7948
▁communications	-10.7976
test	-10.8004
▁snaps	-10.8008
▁tales	-10.8012
▁safely	-10.8013
▁marshall	-10.8014
▁lighter	-10.8025
▁gifts	-10.8036
▁computers	-10.8036
▁sayin	-10.8038
▁attends	-10.8038
▁encourage	-10.8039
▁explore	-10.8047
▁pushed	-10.8049
oh	-10.8051
gon	-10.8054
▁skipp	-10.8055
▁ripp	-10.8058
▁erase	-10.8066
▁grows	-10.8066
▁clouds	-10.8069
▁parle	-10.8074
▁fits	-10.8078
azar	-10.8092
ohoh	-10.8093
hush	-10.8099
▁sum	-10.8121
▁hel	-10.8123
▁burns	-10.8136
▁rewrit	-10.814
▁ye	-10.8141
aka	-10.8142
▁def	-10.8153
▁los	-10.8153
▁sleepy	-10.8161
▁vehicles	-10.8163
put	-10.8171
▁geo	-10.818
▁tuer	-10.8187
▁siri	-10.8204
▁seasons	-10.8227
▁counting	-10.8238
▁sticking	-10.8249
ology	-10.8254
▁scores	-10.8258
▁chan	-10.8263
tle	-10.8275
▁lively	-10.8286
rant	-10.8318
▁sont	-10.8321
▁agents	-10.8334
ition	-10.8339
ezvous	-10.8347
hold	-10.8362
▁sau	-10.8383
▁interests	-10.839
▁lame	-10.8405
▁marks	-10.8426
▁martini	-10.8445
▁nurses	-10.8486
jo	-10.8489
hen	-10.8508
▁ici	-10.8521
▁chas	-10.8522
▁unh	-10.8529
quand	-10.854
▁ans	-10.8543
ko	-10.8556
ache	-10.8571
ire	-10.8573
▁quel	-10.8592
umb	-10.8595
bet	-10.8596
▁psych	-10.8602
▁dome	-10.8612
aged	-10.8622
▁sigh	-10.8633
▁conversations	-10.8642
uel	-10.8653
▁chop	-10.866
▁whisper	-10.8668
▁bard	-10.8672
▁rolls	-10.8684
▁recipe	-10.8707
▁relative	-10.8707
▁wu	-10.871
▁minim	-10.874
▁stat	-10.8752
▁increase	-10.8766
▁lawyers	-10.8771
press	-10.878
▁patt	-10.8783
▁wav	-10.88
maker	-10.8859
ological	-10.8862
▁twi	-10.8862
ght	-10.8872
▁cheat	-10.8873
▁prepar	-10.8886
amp	-10.889
class	-10.8897
▁buzz	-10.8902
▁attract	-10.8905
▁scrap	-10.8908
▁deserves	-10.8918
▁betray	-10.8921
▁detect	-10.8925
▁hurting	-10.8927
eft	-10.8927
▁achieve	-10.893
rten	-10.8931
▁oc	-10.8932
fish	-10.8934
▁engage	-10.8934
▁ghosts	-10.8935
▁teenage	-10.8937
▁weigh	-10.8941
▁incredibl	-10.8944
▁bubb	-10.8947
▁technical	-10.8949
▁extreme	-10.895
▁gent	-10.8957
▁sittin	-10.8958
▁what	-10.896
▁terror	-10.8962
dresse	-10.8962
▁predict	-10.8964
▁devot	-10.8964
▁eyewitness	-10.8964
▁succeed	-10.8964
▁adapt	-10.8964
▁aleksandr	-10.8964
▁almighty	-10.8964
▁analysis	-10.8964
▁anonymous	-10.8964
▁apologies	-10.8964
▁appetite	-10.8964
▁argument	-10.8964
▁astronomy	-10.8964
▁atmosphere	-10.8964
▁attorney	-10.8964
▁average	-10.8964
▁baxter	-10.8964
▁believing	-10.8964
▁bonjour	-10.8964
▁butterflies	-10.8964
▁coincidence	-10.8964
▁cufflink	-10.8964
▁curtain	-10.8964
▁cycle	-10.8964
▁dakota	-10.8964
▁dialogue	-10.8964
▁dummy	-10.8964
▁evacuate	-10.8964
▁finnerty	-10.8964
▁gavroche	-10.8964
▁glorious	-10.8964
▁google	-10.8964
▁gracias	-10.8964
▁granny	-10.8964
▁happiness	-10.8964
▁hiphop	-10.8964
▁horror	-10.8964
▁ignoring	-10.8964
▁injury	-10.8964
▁investigation	-10.8964
▁lamarque	-10.8964
▁lynch	-10.8964
▁maclean	-10.8964
▁mashido	-10.8964
▁mccarter	-10.8964
▁meilleur	-10.8964
▁melody	-10.8964
▁metaphor	-10.8964
▁password	-10.8964
▁petrified	-10.8964
▁principal	-10.8964
▁prophet	-10.8964
▁robbery	-10.8964
▁sabres	-10.8964
▁santoro	-10.8964
▁sattler	-10.8964
▁schmidt	-10.8964
▁schooi	-10.8964
▁shakespeare	-10.8964
▁smack	-10.8964
▁squad	-10.8964
▁stadium	-10.8964
▁therapist	-10.8964
▁thunderclap	-10.8964
▁uncomfortable	-10.8964
▁unusual	-10.8964
▁weicome	-10.8964
▁widow	-10.8964
▁baggage	-10.8964
▁batteries	-10.8964
▁exotic	-10.8964
▁fortress	-10.8964
▁italian	-10.8964
▁mwah	-10.8964
▁orbit	-10.8964
▁southwest	-10.8964
▁spidey	-10.8964
▁straw	-10.8964
▁waffle	-10.8964
▁appeal	-10.8964
▁conceal	-10.8964
▁essential	-10.8964
▁medusa	-10.8964
▁miserable	-10.8964
▁protein	-10.8964
▁simca	-10.8964
▁tammy	-10.8964
▁casino	-10.8964
▁crepe	-10.8964
▁discre	-10.8964
▁dutch	-10.8964
▁error	-10.8964
▁gaze	-10.8964
▁pirates	-10.8964
▁wrist	-10.8964
▁apollonia	-10.8964
▁dragged	-10.8964
▁fbl	-10.8964
▁flirt	-10.8964
metry	-10.8964
▁assigned	-10.8964
▁canyon	-10.8964
▁norman	-10.8964
▁backward	-10.8964
▁oven	-10.8964
▁basil	-10.8964
▁stirr	-10.8964
▁grain	-10.8964
▁fiona	-10.8964
▁napkin	-10.8964
▁wore	-10.8964
▁boston	-10.8964
▁observe	-10.8964
▁flare	-10.8964
▁grabbed	-10.8964
▁lagoon	-10.8964
▁entry	-10.8964
▁carnival	-10.8964
▁instructions	-10.8964
▁minos	-10.8964
▁ollie	-10.8964
▁spectacu	-10.8964
▁underworld	-10.8964
▁jones	-10.8964
▁vulnerable	-10.8964
▁beans	-10.8964
▁cameron	-10.8964
▁fulfill	-10.8964
▁piace	-10.8964
▁sensation	-10.8964
▁moans	-10.8964
▁vicious	-10.8964
▁reese	-10.8964
▁dilio	-10.8964
▁montana	-10.8964
▁sunset	-10.8964
▁apology	-10.8965
▁blond	-10.8965
▁steer	-10.8965
▁feature	-10.8965
▁vivian	-10.8965
▁associates	-10.8965
▁canada	-10.8965
▁roast	-10.8965
▁upload	-10.8965
▁greed	-10.8965
▁daily	-10.8965
▁rotten	-10.8965
▁persian	-10.8965
▁electro	-10.8965
▁pursuit	-10.8965
▁pennsylvania	-10.8965
▁titan	-10.8965
▁nerd	-10.8965
▁addition	-10.8965
▁abort	-10.8965
▁rumble	-10.8965
▁hankins	-10.8965
▁bleat	-10.8966
▁guide	-10.8966
▁plastic	-10.8966
▁bribe	-10.8966
▁heap	-10.8966
▁critical	-10.8966
▁display	-10.8966
▁imperial	-10.8966
▁chum	-10.8966
▁upper	-10.8966
▁bingo	-10.8966
▁engagement	-10.8966
▁partnership	-10.8966
▁waltz	-10.8966
▁sidewalk	-10.8967
▁purse	-10.8967
▁assembl	-10.8967
▁bucket	-10.8967
▁copyright	-10.8967
▁dix	-10.8967
▁questce	-10.8967
▁retirement	-10.8967
▁ringtone	-10.8967
▁summon	-10.8967
▁activate	-10.8967
▁stressful	-10.8967
▁iran	-10.8967
▁saber	-10.8967
▁charter	-10.8968
▁strap	-10.8968
▁blur	-10.8968
▁flo	-10.8968
▁slight	-10.8968
▁custody	-10.8968
▁episode	-10.8969
▁crank	-10.8969
▁arrival	-10.8969
▁purp	-10.8969
▁tease	-10.8969
▁organic	-10.8969
▁holly	-10.8969
▁sonya	-10.8969
▁beings	-10.897
▁sworn	-10.897
▁fetch	-10.897
▁spotted	-10.897
▁troupe	-10.897
▁chores	-10.8971
▁policy	-10.8971
▁victoria	-10.8972
▁walt	-10.8972
▁lighthouse	-10.8972
▁parade	-10.8972
▁livin	-10.8972
▁spill	-10.8973
▁ego	-10.8973
▁chamber	-10.8973
▁jive	-10.8974
▁donner	-10.8974
▁homo	-10.8974
▁stepped	-10.8975
▁soil	-10.8975
▁crop	-10.8976
▁fitness	-10.8976
▁ashes	-10.8976
▁attraction	-10.8976
▁inches	-10.8977
▁function	-10.8977
▁quitting	-10.8977
▁tackle	-10.8978
▁gently	-10.8979
▁expression	-10.8979
▁admire	-10.8979
▁guardian	-10.8979
▁estate	-10.898
▁possession	-10.8981
▁immortality	-10.8981
▁july	-10.8981
▁christian	-10.8982
▁wel	-10.8982
▁highline	-10.8983
▁coverage	-10.8985
▁invented	-10.8985
▁attached	-10.8985
▁standby	-10.8987
▁bracer	-10.8987
▁splash	-10.8988
▁stein	-10.899
▁tucker	-10.8991
▁judith	-10.8992
▁brandt	-10.8993
▁backpack	-10.8995
▁carley	-10.8995
gara	-10.8995
▁seventh	-10.8996
▁poke	-10.8996
▁jab	-10.8996
▁straining	-10.8997
ooah	-10.8997
▁kiddo	-10.8999
▁prend	-10.9001
▁ciass	-10.9001
▁risks	-10.9001
▁corey	-10.9001
▁duh	-10.9002
ep	-10.9002
▁haunted	-10.9003
▁ple	-10.9004
▁winch	-10.9004
▁fury	-10.9004
▁drawn	-10.9005
▁dale	-10.9007
▁beaten	-10.9007
▁weed	-10.9008
▁oliver	-10.9008
▁inc	-10.9009
eval	-10.9011
▁assist	-10.9012
▁exception	-10.9013
▁wounded	-10.9016
▁stream	-10.9017
▁loosen	-10.9017
▁francs	-10.9017
▁dug	-10.9022
▁epi	-10.9024
▁sweetest	-10.9025
▁pole	-10.9025
▁cocking	-10.9025
▁solved	-10.9028
▁convinced	-10.9028
▁takin	-10.9029
▁existed	-10.9035
▁earned	-10.9038
abie	-10.9039
▁void	-10.9041
▁ant	-10.9043
▁nailed	-10.9045
▁charger	-10.9046
▁ducky	-10.9046
▁based	-10.9049
▁gathered	-10.905
▁hamp	-10.905
▁brakes	-10.9053
▁shocked	-10.9056
▁fireman	-10.9061
▁rug	-10.9064
▁jar	-10.9065
▁mayan	-10.907
▁lawn	-10.9076
▁dal	-10.9076
▁highp	-10.9079
▁booing	-10.908
▁loaded	-10.9081
▁suresh	-10.9084
▁terrorists	-10.9087
▁fleas	-10.9087
▁pry	-10.9088
▁slams	-10.9088
▁interrupting	-10.9091
zo	-10.9096
▁flowing	-10.9098
▁skull	-10.9098
▁tent	-10.9102
▁bald	-10.9105
▁fois	-10.9106
▁loading	-10.9106
▁bowling	-10.9109
▁confirmed	-10.911
▁switched	-10.911
▁toid	-10.9111
▁compli	-10.9111
▁horny	-10.9118
puis	-10.9118
▁sacrificed	-10.9129
▁hint	-10.9132
▁marketing	-10.9134
▁buster	-10.9135
▁paula	-10.9139
▁drawer	-10.9144
ident	-10.9148
▁blocking	-10.9152
▁pills	-10.9155
▁piedges	-10.9157
▁assets	-10.9158
▁concerns	-10.9158
▁tricky	-10.9169
▁filed	-10.917
▁tale	-10.9171
▁acc	-10.9179
▁rigs	-10.9192
▁heels	-10.9193
▁solo	-10.9193
▁importantly	-10.9194
hit	-10.9195
▁sucked	-10.9199
▁ko	-10.9203
▁county	-10.9204
▁troi	-10.9206
armed	-10.9221
▁wink	-10.9224
▁recipes	-10.9228
▁relatives	-10.9228
ean	-10.9235
▁mir	-10.9236
lies	-10.924
▁kat	-10.9247
▁parles	-10.9262
▁wounds	-10.9265
▁differently	-10.9277
▁testing	-10.929
▁passes	-10.9298
tard	-10.9325
▁lap	-10.933
uch	-10.9333
▁wondered	-10.9335
▁mob	-10.9348
▁ze	-10.9361
▁adults	-10.937
▁spiders	-10.9371
▁exists	-10.9381
▁workers	-10.9387
▁prisoners	-10.94
▁rubb	-10.9414
▁triple	-10.9432
▁reporting	-10.9435
▁terms	-10.9442
▁stinks	-10.9442
but	-10.945
▁fishing	-10.9454
▁counted	-10.9454
▁honored	-10.9455
▁mil	-10.9457
▁belle	-10.9463
▁returning	-10.9468
tched	-10.947
▁conditions	-10.9478
▁treatments	-10.9478
arm	-10.9485
▁tripp	-10.9488
▁obs	-10.9488
rous	-10.9498
▁parked	-10.9516
▁ham	-10.9526
ison	-10.9547
▁creatures	-10.955
cette	-10.9562
fiance	-10.9567
bee	-10.9567
▁plants	-10.9573
atic	-10.9573
▁fore	-10.9579
ett	-10.9607
▁cared	-10.9616
una	-10.9622
▁shoulders	-10.9623
▁fences	-10.9623
▁media	-10.9626
win	-10.9626
▁carnies	-10.9628
▁sup	-10.963
▁answered	-10.9637
▁kit	-10.9657
▁shields	-10.9659
▁temp	-10.9663
▁lra	-10.9749
avo	-10.977
▁rais	-10.9779
▁ordering	-10.9783
▁scares	-10.9798
▁trop	-10.98
▁issues	-10.9808
▁chor	-10.9814
▁fric	-10.9816
▁nightmares	-10.9842
vor	-10.9843
▁blocks	-10.9868
mont	-10.991
▁decisions	-10.9916
▁chang	-10.9957
▁conn	-10.9961
▁ram	-10.9963
sca	-10.9974
tom	-10.9996
▁quell	-11.0006
bble	-11.0008
gre	-11.0009
▁viva	-11.0036
ini	-11.0053
▁squeal	-11.0079
▁ideal	-11.0083
▁boxe	-11.0089
▁honk	-11.0092
▁comb	-11.011
cam	-11.0115
▁cardi	-11.0125
▁costume	-11.0137
▁pattern	-11.0137
evi	-11.0138
▁exclaim	-11.0138
▁warrior	-11.0139
▁heel	-11.0141
▁beside	-11.0149
▁onion	-11.0152
▁twin	-11.0153
▁gai	-11.0154
▁visitor	-11.0168
▁rig	-11.0173
ax	-11.022
arian	-11.0229
▁gro	-11.0268
▁shove	-11.0278
pal	-11.0278
ride	-11.0289
inch	-11.0308
read	-11.0312
▁cru	-11.0313
▁opera	-11.0322
dog	-11.0325
▁thankful	-11.0328
heart	-11.0328
place	-11.0331
hawk	-11.0332
stream	-11.0332
phone	-11.0333
century	-11.0334
▁caus	-11.0334
grid	-11.0335
free	-11.0336
thats	-11.0337
▁distract	-11.0337
power	-11.034
▁disgust	-11.0341
▁shrink	-11.0341
▁hoot	-11.0342
▁olive	-11.0343
speed	-11.0348
▁haunt	-11.0348
▁abandon	-11.0349
▁wander	-11.0352
▁lis	-11.0357
▁truc	-11.0359
▁threaten	-11.036
▁gia	-11.036
band	-11.036
▁graduate	-11.0367
self	-11.0367
ippin	-11.0369
▁complain	-11.037
▁creep	-11.0371
▁zoe	-11.0373
▁moore	-11.0376
▁delight	-11.0376
▁pur	-11.0377
▁constant	-11.0378
▁newt	-11.0383
▁doug	-11.0384
term	-11.0385
▁probabi	-11.0387
through	-11.0387
▁counsel	-11.0388
annon	-11.0388
▁makin	-11.0388
▁audit	-11.039
▁deploy	-11.039
▁stall	-11.039
▁extract	-11.0391
▁ian	-11.0392
▁confident	-11.0392
▁francis	-11.0392
destruct	-11.0393
▁encrypt	-11.0393
▁accompany	-11.0393
▁accompli	-11.0393
▁afterwards	-11.0393
▁amphiaraus	-11.0393
▁anarchy	-11.0393
▁anniversaire	-11.0393
▁antwine	-11.0393
▁appétit	-11.0393
▁athena	-11.0393
▁awkward	-11.0393
▁banana	-11.0393
▁bartender	-11.0393
▁beaucoup	-11.0393
▁beverly	-11.0393
▁bikini	-11.0393
▁bolster	-11.0393
▁certificate	-11.0393
▁colombia	-11.0393
▁commercial	-11.0393
▁congress	-11.0393
▁conscious	-11.0393
▁consistent	-11.0393
▁decorator	-11.0393
▁description	-11.0393
▁easily	-11.0393
▁enjolras	-11.0393
▁envelope	-11.0393
▁exhausted	-11.0393
▁faggot	-11.0393
▁gandalf	-11.0393
▁ghetto	-11.0393
▁greece	-11.0393
▁gulliver	-11.0393
▁hawaii	-11.0393
▁hilarious	-11.0393
▁insecure	-11.0393
▁instinct	-11.0393
▁institute	-11.0393
▁instrument	-11.0393
▁intense	-11.0393
▁interpol	-11.0393
▁josef	-11.0393
▁jukebox	-11.0393
▁karaoke	-11.0393
▁knives	-11.0393
▁lauderdale	-11.0393
▁leather	-11.0393
▁lndistinct	-11.0393
▁mademoiselle	-11.0393
▁maintenant	-11.0393
▁matthew	-11.0393
▁mediocre	-11.0393
▁michigan	-11.0393
▁mississippi	-11.0393
▁mosquito	-11.0393
▁mumbling	-11.0393
▁offensive	-11.0393
▁oracle	-11.0393
▁overwhelm	-11.0393
▁pacifi	-11.0393
▁penguin	-11.0393
▁picasso	-11.0393
▁pistol	-11.0393
▁pookie	-11.0393
▁potatoes	-11.0393
▁primitive	-11.0393
▁privacy	-11.0393
▁privilege	-11.0393
▁reconsider	-11.0393
▁religious	-11.0393
▁reservation	-11.0393
▁shrieking	-11.0393
▁sleeve	-11.0393
▁snarling	-11.0393
▁spaghetti	-11.0393
▁squawking	-11.0393
▁stephanie	-11.0393
▁symbol	-11.0393
▁technique	-11.0393
▁terrifying	-11.0393
▁tiffany	-11.0393
▁tokyo	-11.0393
▁vengeance	-11.0393
▁versailles	-11.0393
▁vitamin	-11.0393
▁voicemail	-11.0393
▁worries	-11.0393
▁alliance	-11.0393
▁alligator	-11.0393
▁allonsy	-11.0393
▁canvas	-11.0393
▁capital	-11.0393
▁constitution	-11.0393
▁disrespect	-11.0393
▁explode	-11.0393
▁extinct	-11.0393
▁granger	-11.0393
▁hobby	-11.0393
▁hypnotized	-11.0393
▁inspiration	-11.0393
▁intact	-11.0393
▁juicy	-11.0393
▁koba	-11.0393
▁lesbian	-11.0393
▁midget	-11.0393
▁overcome	-11.0393
▁possum	-11.0393
▁rouge	-11.0393
▁smith	-11.0393
▁supplie	-11.0393
▁unfair	-11.0393
▁withdraw	-11.0393
▁worship	-11.0393
▁august	-11.0393
▁bleep	-11.0393
▁coiby	-11.0393
▁collapse	-11.0393
▁evelyn	-11.0393
▁mundi	-11.0393
▁phony	-11.0393
▁valley	-11.0393
▁whiie	-11.0393
▁after	-11.0393
▁buddha	-11.0393
▁reverse	-11.0393
▁domestic	-11.0393
▁gelé	-11.0393
▁harmony	-11.0393
▁lolaus	-11.0393
▁session	-11.0393
▁worf	-11.0393
▁amusing	-11.0393
▁butterfly	-11.0393
▁diaper	-11.0393
▁stacy	-11.0393
▁vomit	-11.0393
▁chariot	-11.0393
▁yourseif	-11.0393
▁bloom	-11.0393
▁carolina	-11.0393
▁debbie	-11.0393
▁density	-11.0393
▁hustle	-11.0393
▁transferred	-11.0393
▁application	-11.0393
▁incident	-11.0393
▁veut	-11.0393
▁clanks	-11.0393
▁yeux	-11.0393
▁bidding	-11.0393
▁fiancé	-11.0393
▁stiff	-11.0393
▁albert	-11.0393
▁scoot	-11.0393
▁totaiiy	-11.0393
terrain	-11.0393
▁penthouse	-11.0393
▁trading	-11.0393
▁yyou	-11.0393
▁oxford	-11.0393
▁formula	-11.0393
▁convention	-11.0393
▁rhythmically	-11.0393
▁porch	-11.0393
▁stepping	-11.0393
▁exchange	-11.0393
▁alphabet	-11.0393
▁antony	-11.0393
▁culture	-11.0393
▁picard	-11.0393
▁confront	-11.0393
▁été	-11.0393
▁drain	-11.0393
normous	-11.0393
▁townsend	-11.0393
▁beware	-11.0393
▁admission	-11.0393
▁angle	-11.0393
▁jingle	-11.0393
reliable	-11.0393
▁moron	-11.0393
▁radiation	-11.0393
▁scanner	-11.0394
▁rattle	-11.0394
rizon	-11.0394
▁fingerprint	-11.0394
▁denied	-11.0394
▁eternal	-11.0394
▁marquez	-11.0394
▁cartoon	-11.0394
▁april	-11.0394
▁slipping	-11.0394
▁zeke	-11.0394
▁basket	-11.0394
▁mummy	-11.0394
▁env	-11.0394
▁curious	-11.0394
▁investors	-11.0394
▁delightful	-11.0394
▁couch	-11.0394
▁apologise	-11.0394
▁vrai	-11.0394
▁sharing	-11.0395
▁compassion	-11.0395
▁divine	-11.0395
▁communist	-11.0395
▁community	-11.0395
▁dread	-11.0395
▁stubby	-11.0395
▁meatball	-11.0395
▁mouse	-11.0395
▁whoohoo	-11.0395
▁buff	-11.0395
▁liking	-11.0395
▁milestone	-11.0395
▁jewish	-11.0395
▁grey	-11.0396
▁visa	-11.0396
▁slick	-11.0396
▁ether	-11.0396
▁resistance	-11.0396
▁scum	-11.0396
▁commun	-11.0396
▁centre	-11.0396
▁maze	-11.0396
▁youth	-11.0396
▁ambition	-11.0397
▁antman	-11.0397
cular	-11.0397
▁passe	-11.0397
▁dougie	-11.0397
▁haircut	-11.0397
▁thread	-11.0397
▁counselor	-11.0397
▁lockdown	-11.0398
▁possibility	-11.0398
▁appropriate	-11.0398
▁explosion	-11.0398
▁ratings	-11.0398
▁gregory	-11.0398
acious	-11.0398
▁skate	-11.0398
▁silk	-11.0398
▁passport	-11.0399
▁infant	-11.0399
▁ridge	-11.0399
▁ivan	-11.0399
▁starlight	-11.0399
▁grownup	-11.0399
▁parlor	-11.0399
▁castro	-11.04
▁marcy	-11.04
▁wiry	-11.04
▁determined	-11.04
▁raid	-11.0401
▁ethic	-11.0401
▁slim	-11.0402
▁groom	-11.0402
▁slop	-11.0403
▁dj	-11.0403
▁settlement	-11.0404
▁cochrane	-11.0404
▁depress	-11.0404
▁forgiveness	-11.0404
▁gap	-11.0405
▁annoying	-11.0405
▁required	-11.0406
▁manual	-11.0406
tty	-11.0407
▁educated	-11.0407
▁script	-11.0407
▁item	-11.0407
▁severe	-11.0407
▁pont	-11.0408
thesis	-11.0408
▁cuba	-11.0408
▁wade	-11.0409
▁keen	-11.0409
udge	-11.0409
▁shack	-11.0409
▁technically	-11.041
▁groove	-11.041
tribune	-11.0411
▁temper	-11.0411
▁fries	-11.0411
▁nickel	-11.0411
▁viens	-11.0412
new	-11.0412
▁haha	-11.0412
▁thruster	-11.0412
▁bait	-11.0413
▁mayday	-11.0413
▁ox	-11.0414
▁fulltime	-11.0414
▁moorer	-11.0414
▁rally	-11.0415
▁bonus	-11.0416
▁squi	-11.0416
▁psycho	-11.0418
joe	-11.0418
▁toll	-11.0418
▁ahem	-11.0418
▁galen	-11.0421
▁taunting	-11.0422
▁geez	-11.0423
▁frightened	-11.0424
▁angeles	-11.0425
nata	-11.0425
▁dose	-11.0428
evine	-11.0431
▁intended	-11.0431
▁diet	-11.0433
▁tori	-11.0434
▁bama	-11.0435
▁stable	-11.0438
▁snickering	-11.0439
▁bass	-11.0439
▁demi	-11.044
▁jp	-11.044
▁stark	-11.0441
▁reno	-11.0442
▁porto	-11.0445
▁lease	-11.0447
▁shutter	-11.045
▁separated	-11.045
▁hotter	-11.045
▁shutting	-11.0451
▁marie	-11.0453
▁hawk	-11.0454
▁compar	-11.0456
▁inspired	-11.0456
ville	-11.0457
▁sighing	-11.0457
▁canceled	-11.0458
▁cursed	-11.046
▁active	-11.0462
▁paie	-11.0463
▁endure	-11.0464
ulation	-11.0467
▁cloth	-11.0472
itt	-11.0472
▁lip	-11.0473
▁branch	-11.0476
▁homeland	-11.048
▁formation	-11.048
astic	-11.0484
▁taller	-11.0484
▁newton	-11.0485
high	-11.0494
▁cigarettes	-11.0495
▁gloves	-11.0495
▁lifetime	-11.0497
▁carrie	-11.0498
▁hike	-11.0498
▁appeared	-11.05
eca	-11.0511
▁hunted	-11.0514
▁chased	-11.0516
▁pris	-11.0517
▁verb	-11.0517
▁fog	-11.0519
▁referr	-11.052
▁singin	-11.0523
▁fry	-11.053
▁meters	-11.0531
▁suffering	-11.0532
▁citizens	-11.0536
▁neighbors	-11.0536
▁earrings	-11.0536
▁scouts	-11.0536
▁cf	-11.0537
ooh	-11.0542
▁cord	-11.0542
▁dune	-11.0543
headed	-11.0547
▁liz	-11.0548
uz	-11.0553
▁shortly	-11.0555
▁étai	-11.0559
▁busted	-11.0559
▁experienced	-11.0569
▁honesty	-11.0569
▁hacker	-11.0571
▁fisher	-11.0573
▁scavs	-11.0577
▁giggles	-11.0577
ieve	-11.058
dern	-11.0582
▁driven	-11.0585
▁shave	-11.0592
▁farmers	-11.0599
▁hein	-11.0615
▁minn	-11.0615
▁hooked	-11.0618
roll	-11.0621
cess	-11.0625
▁slower	-11.0634
onald	-11.0636
▁realm	-11.0641
▁pod	-11.0644
▁sealed	-11.0645
▁squeals	-11.066
tru	-11.0661
▁onions	-11.0662
▁temps	-11.0664
▁homme	-11.0664
▁makeup	-11.0666
▁drawing	-11.0669
holle	-11.0688
▁frapp	-11.069
▁classy	-11.0691
▁peach	-11.0692
▁treating	-11.0696
▁illness	-11.071
▁barrels	-11.0742
▁skeletons	-11.0742
▁anne	-11.0745
ito	-11.0758
▁seize	-11.0782
▁characters	-11.0788
▁robe	-11.0789
▁hatch	-11.0794
▁closely	-11.0795
▁rab	-11.0805
▁liver	-11.0819
▁gram	-11.0824
▁laughed	-11.0841
▁ding	-11.0865
▁dressing	-11.087
atu	-11.0874
▁mist	-11.088
▁robbin	-11.0895
▁crossing	-11.0896
▁attacking	-11.0905
▁compliments	-11.0946
▁diamonds	-11.0951
▁hiss	-11.0967
your	-11.097
▁tile	-11.0974
▁whack	-11.0976
most	-11.0982
▁dag	-11.0987
▁shown	-11.0996
state	-11.0998
▁moo	-11.1
fore	-11.1005
autre	-11.1039
▁deadly	-11.1067
ogging	-11.1095
▁whipp	-11.1122
▁lex	-11.1123
▁magical	-11.1131
▁bou	-11.1144
▁avi	-11.1157
sler	-11.1191
▁kin	-11.124
▁mimic	-11.124
▁wage	-11.1298
rank	-11.1305
▁tir	-11.1332
▁finn	-11.1334
apping	-11.1336
top	-11.1364
▁maniac	-11.1366
horus	-11.1389
▁hugg	-11.139
nia	-11.1393
omp	-11.1395
▁peaceful	-11.147
inner	-11.1502
ius	-11.151
old	-11.1516
fey	-11.1518
zer	-11.152
ily	-11.1553
lance	-11.1554
▁retr	-11.1562
▁viv	-11.1701
atomic	-11.1715
▁peni	-11.1716
serving	-11.1722
▁select	-11.1724
say	-11.1726
form	-11.1735
▁strip	-11.1746
▁wit	-11.1751
hole	-11.1758
▁concern	-11.1759
▁click	-11.1762
▁journal	-11.1767
▁scot	-11.1781
looking	-11.1794
▁frau	-11.1796
▁piedge	-11.1805
▁tribute	-11.1807
▁scientist	-11.1808
▁sponsor	-11.1809
tex	-11.1821
▁pill	-11.1837
adi	-11.1839
▁gut	-11.1859
▁asset	-11.1865
▁cent	-11.1874
ebra	-11.1882
rlock	-11.1889
▁prof	-11.1937
▁pent	-11.1937
tez	-11.1949
▁recruit	-11.1961
pack	-11.1967
▁appel	-11.197
▁trib	-11.1981
ility	-11.1985
▁stag	-11.1987
▁refer	-11.1987
two	-11.1993
craft	-11.1996
what	-11.2
dollar	-11.2
yeah	-11.2001
natural	-11.2001
mouth	-11.2003
piece	-11.2004
▁snicker	-11.2005
train	-11.2007
stein	-11.201
▁gros	-11.2013
type	-11.2013
sky	-11.2014
▁intend	-11.2014
▁mock	-11.2015
stand	-11.2024
cost	-11.2024
rebor	-11.2026
▁compromise	-11.2027
▁provide	-11.2028
▁physi	-11.2034
▁jinx	-11.2037
reme	-11.2037
▁nurs	-11.2037
▁admir	-11.2039
▁groov	-11.2039
home	-11.204
▁shav	-11.2043
▁asia	-11.2044
▁chant	-11.2046
▁realise	-11.2046
▁swede	-11.2049
▁mechanic	-11.2051
▁donne	-11.2051
▁exhal	-11.2052
▁heii	-11.2055
▁prior	-11.2057
▁entertain	-11.2057
mperial	-11.2058
▁yank	-11.2058
etically	-11.2058
▁forbid	-11.2059
▁vocal	-11.2059
intellectual	-11.2059
neutral	-11.2059
nscreen	-11.2059
nstagram	-11.2059
responsibilities	-11.2059
squat	-11.2059
▁adamantium	-11.2059
▁advertising	-11.2059
▁advisor	-11.2059
▁airplane	-11.2059
▁ambassador	-11.2059
▁antibiotics	-11.2059
▁autolycus	-11.2059
▁benedict	-11.2059
▁blueberry	-11.2059
▁bouncing	-11.2059
▁brannen	-11.2059
▁cackling	-11.2059
▁cafeteria	-11.2059
▁cheerleader	-11.2059
▁choosing	-11.2059
▁companies	-11.2059
▁conclusion	-11.2059
▁concrete	-11.2059
▁cuckoo	-11.2059
▁cunning	-11.2059
▁deactivate	-11.2059
▁destined	-11.2059
▁detonator	-11.2059
▁devastat	-11.2059
▁diploma	-11.2059
▁draft	-11.2059
▁dummkopf	-11.2059
▁eleven	-11.2059
▁exaggerat	-11.2059
▁execute	-11.2059
▁execution	-11.2059
▁exhume	-11.2059
▁exploit	-11.2059
▁famiiy	-11.2059
▁franz	-11.2059
▁gagging	-11.2059
▁gibberish	-11.2059
▁grandkids	-11.2059
▁grenade	-11.2059
▁grenkin	-11.2059
▁hammond	-11.2059
▁happily	-11.2059
▁hehhehheh	-11.2059
▁holmes	-11.2059
▁iadies	-11.2059
▁iearn	-11.2059
▁imagining	-11.2059
▁inbetween	-11.2059
▁inbound	-11.2059
▁indestructible	-11.2059
▁insect	-11.2059
▁interference	-11.2059
▁invasion	-11.2059
▁iraq	-11.2059
▁knack	-11.2059
▁kommandant	-11.2059
▁kotler	-11.2059
▁kuchi	-11.2059
▁luxury	-11.2059
▁lyrics	-11.2059
▁mainframe	-11.2059
▁malfunction	-11.2059
▁mandarin	-11.2059
▁mechanism	-11.2059
▁memorial	-11.2059
▁merrick	-11.2059
▁ministry	-11.2059
▁miriam	-11.2059
▁mushrooms	-11.2059
▁nostalgi	-11.2059
▁nowadays	-11.2059
▁oakenshield	-11.2059
▁obstacle	-11.2059
▁oldfashioned	-11.2059
▁opponent	-11.2059
▁orlando	-11.2059
▁ostrich	-11.2059
▁outbreak	-11.2059
▁outnumber	-11.2059
▁outstanding	-11.2059
▁overnight	-11.2059
▁perfume	-11.2059
▁permanent	-11.2059
▁perspective	-11.2059
▁plutarch	-11.2059
▁promotion	-11.2059
▁prosecut	-11.2059
▁religion	-11.2059
▁rhino	-11.2059
▁rhinoceros	-11.2059
▁ritual	-11.2059
▁romulus	-11.2059
▁rustling	-11.2059
▁savior	-11.2059
▁scholarship	-11.2059
▁seagulls	-11.2059
▁shanghai	-11.2059
▁similar	-11.2059
▁snorts	-11.2059
▁stammering	-11.2059
▁stereo	-11.2059
▁stimulate	-11.2059
▁suitcase	-11.2059
▁switchblade	-11.2059
▁tactical	-11.2059
▁tadpole	-11.2059
▁technologies	-11.2059
▁thermal	-11.2059
▁transplant	-11.2059
▁triads	-11.2059
▁trickortreat	-11.2059
▁tshirt	-11.2059
▁tydeus	-11.2059
▁unleash	-11.2059
▁vacuum	-11.2059
▁vegetables	-11.2059
▁venture	-11.2059
▁veteran	-11.2059
▁vonnegut	-11.2059
▁walcott	-11.2059
▁watermelon	-11.2059
▁whitman	-11.2059
▁whittaker	-11.2059
▁wizard	-11.2059
▁wyantwheeler	-11.2059
compatible	-11.2059
▁absorb	-11.2059
▁authorized	-11.2059
▁blaze	-11.2059
▁bluff	-11.2059
▁brooklyn	-11.2059
▁café	-11.2059
▁clucking	-11.2059
▁copeland	-11.2059
▁debutante	-11.2059
▁durian	-11.2059
▁fluffy	-11.2059
▁kiran	-11.2059
▁mourir	-11.2059
▁negro	-11.2059
▁pledge	-11.2059
▁puppy	-11.2059
▁quote	-11.2059
▁refresh	-11.2059
▁regime	-11.2059
▁sidekick	-11.2059
▁surgeon	-11.2059
▁swift	-11.2059
▁toujours	-11.2059
▁voiture	-11.2059
▁wendy	-11.2059
equinox	-11.2059
▁bargain	-11.2059
▁crisp	-11.2059
▁dillon	-11.2059
▁expired	-11.2059
▁hunk	-11.2059
▁polish	-11.2059
▁rejected	-11.2059
▁slurp	-11.2059
▁spiritual	-11.2059
▁warbling	-11.2059
▁dennis	-11.2059
▁flaw	-11.2059
▁grip	-11.2059
▁permit	-11.2059
▁teddyfier	-11.2059
▁cheesy	-11.2059
▁genre	-11.2059
▁identity	-11.2059
▁reinforcements	-11.2059
▁vicky	-11.2059
▁virus	-11.2059
▁headquarters	-11.2059
▁angei	-11.2059
▁gaby	-11.2059
▁sacred	-11.2059
▁testicle	-11.2059
▁howre	-11.2059
▁panicked	-11.2059
▁whooshing	-11.2059
▁isolate	-11.2059
▁noticing	-11.2059
▁derek	-11.2059
▁plums	-11.2059
▁wilkins	-11.2059
▁mutation	-11.2059
▁reich	-11.2059
▁levier	-11.2059
▁ahmet	-11.2059
▁backbone	-11.2059
▁humiliat	-11.2059
▁hippo	-11.2059
▁fiancee	-11.2059
▁irrelevant	-11.2059
▁scumbag	-11.2059
▁bosco	-11.2059
▁cocktail	-11.2059
▁compound	-11.2059
▁unreal	-11.2059
▁adore	-11.2059
▁berry	-11.2059
▁consequence	-11.2059
▁indicate	-11.2059
▁assuming	-11.2059
▁goddess	-11.2059
▁clerk	-11.2059
▁economic	-11.2059
▁organization	-11.2059
▁nazis	-11.2059
▁tyres	-11.206
▁frogs	-11.206
▁rodin	-11.206
▁tumor	-11.206
▁waitress	-11.206
▁banner	-11.206
▁kiddies	-11.206
▁gaug	-11.206
▁treason	-11.206
▁cruise	-11.206
inlaw	-11.206
▁civilians	-11.206
▁resume	-11.206
erreur	-11.206
▁graduating	-11.206
▁sheep	-11.206
▁endora	-11.206
▁stain	-11.206
▁pension	-11.206
▁arise	-11.206
▁burden	-11.206
▁mako	-11.206
▁dagger	-11.206
alvin	-11.206
▁colon	-11.206
▁fellowship	-11.206
▁aisle	-11.206
▁owned	-11.206
▁forehead	-11.206
▁celebration	-11.206
▁bernice	-11.2061
▁revving	-11.2061
▁ufo	-11.2061
▁tension	-11.2061
▁rubbish	-11.2061
▁gravity	-11.2061
▁honour	-11.2061
▁upside	-11.2061
instant	-11.2061
▁activation	-11.2061
▁snitch	-11.2061
▁incompetent	-11.2061
▁scrapper	-11.2061
▁elementary	-11.2061
▁fiction	-11.2061
▁offend	-11.2061
▁subtle	-11.2061
▁bummer	-11.2061
▁dragging	-11.2061
▁trembl	-11.2061
▁babysitter	-11.2061
▁kroll	-11.2061
▁vanilla	-11.2061
▁generous	-11.2061
▁logical	-11.2061
▁entertainment	-11.2061
▁veal	-11.2062
▁godforsaken	-11.2062
▁deployment	-11.2062
▁theories	-11.2062
▁volts	-11.2062
▁millionaire	-11.2062
▁wrapped	-11.2063
▁khan	-11.2063
▁blah	-11.2063
▁ralf	-11.2063
▁eff	-11.2063
▁spec	-11.2063
▁height	-11.2063
▁egyptian	-11.2063
▁controi	-11.2063
▁western	-11.2064
▁fourteen	-11.2064
▁faii	-11.2064
▁juan	-11.2064
▁jill	-11.2064
▁subway	-11.2064
▁dominat	-11.2064
▁dwell	-11.2064
▁feedback	-11.2064
▁tempora	-11.2065
trude	-11.2065
▁fright	-11.2065
▁vibe	-11.2065
▁jock	-11.2065
▁roaches	-11.2065
▁peck	-11.2065
▁rapid	-11.2065
▁raven	-11.2065
▁songwriter	-11.2065
▁scientific	-11.2066
▁flatter	-11.2066
▁impression	-11.2066
▁slut	-11.2066
▁yorktown	-11.2066
▁hence	-11.2066
▁precisely	-11.2066
▁amongst	-11.2066
▁sober	-11.2066
▁static	-11.2066
▁addict	-11.2066
▁civilized	-11.2066
▁pony	-11.2067
▁shiver	-11.2068
▁spitting	-11.2068
▁chump	-11.2068
▁mainland	-11.2068
▁announc	-11.2068
▁lauren	-11.2069
▁acquired	-11.2069
▁reins	-11.2069
▁hera	-11.2069
▁scottish	-11.2069
▁stunt	-11.2069
ware	-11.2069
▁boost	-11.2069
mnh	-11.2069
▁production	-11.2069
▁kno	-11.2069
▁unison	-11.207
▁debate	-11.207
▁soda	-11.207
▁boil	-11.207
▁joan	-11.207
▁conquer	-11.2071
▁copies	-11.2072
▁coke	-11.2072
▁sock	-11.2072
▁margo	-11.2073
▁luke	-11.2074
▁iate	-11.2074
▁jour	-11.2075
▁exceeding	-11.2075
▁frustrating	-11.2075
▁marco	-11.2075
▁surprising	-11.2075
▁payday	-11.2076
▁monde	-11.2076
▁venom	-11.2076
▁kneel	-11.2076
▁notion	-11.2076
▁ninety	-11.2077
▁alike	-11.2077
▁bandage	-11.2078
▁dishes	-11.2078
▁donor	-11.2078
▁neat	-11.2079
▁lemkova	-11.2079
▁background	-11.2079
▁weaknesses	-11.2079
▁warmth	-11.2079
▁eag	-11.208
▁laven	-11.208
▁sustained	-11.208
▁bund	-11.2081
▁tomb	-11.2082
▁personality	-11.2082
▁maxson	-11.2082
▁alas	-11.2084
▁truce	-11.2084
▁continuing	-11.2085
▁exploring	-11.2086
▁label	-11.2086
▁silhouettes	-11.2086
idian	-11.2087
▁accountant	-11.2087
▁exposed	-11.2087
posa	-11.2088
▁royce	-11.2091
▁standoff	-11.2091
▁bravest	-11.2091
qualified	-11.2093
▁aggie	-11.2094
▁recovery	-11.2094
▁parisian	-11.2094
▁bam	-11.2094
cup	-11.2095
▁surf	-11.2095
▁begging	-11.2095
uture	-11.2095
▁fame	-11.2096
▁adopted	-11.2097
▁tender	-11.2098
▁gambler	-11.2099
▁peep	-11.2099
▁graduated	-11.2099
▁melted	-11.2099
▁fou	-11.2099
▁publisher	-11.2101
▁geek	-11.2102
▁initiat	-11.2102
▁randy	-11.2104
▁mustard	-11.2105
ptic	-11.2106
▁swan	-11.2107
▁receiver	-11.2108
▁mug	-11.2109
▁properly	-11.2109
▁quant	-11.211
▁goodlooking	-11.2111
▁recruiter	-11.2112
▁strongest	-11.2112
▁compared	-11.2113
▁delighted	-11.2113
▁apr	-11.2113
▁tele	-11.2114
▁leaky	-11.2114
▁partir	-11.2114
▁matches	-11.2116
▁restless	-11.2118
▁discovery	-11.2119
▁lester	-11.212
▁nearest	-11.212
▁attracted	-11.2122
▁pic	-11.2124
▁clay	-11.2125
▁wandering	-11.2125
▁activated	-11.2126
▁fond	-11.2127
▁fig	-11.2131
▁rail	-11.2133
▁nest	-11.2133
▁handcuffs	-11.2134
▁fist	-11.2134
▁perfection	-11.2138
▁sap	-11.2139
▁melting	-11.2139
▁fasten	-11.214
▁skipping	-11.2144
▁jury	-11.2146
▁developed	-11.2146
▁why	-11.2147
▁ont	-11.2148
▁ripping	-11.2149
▁detected	-11.215
▁hiring	-11.2155
▁printing	-11.2155
▁sinking	-11.2157
▁roboto	-11.2158
▁latest	-11.2159
▁conf	-11.216
▁refused	-11.216
▁jogg	-11.2161
▁foundation	-11.2165
▁burnin	-11.2169
▁louder	-11.217
take	-11.217
prompt	-11.217
▁divorced	-11.2172
▁correctly	-11.2175
▁your	-11.2176
▁anan	-11.2176
▁rend	-11.2179
▁limited	-11.218
▁coordinates	-11.2182
▁olympics	-11.2182
▁wolves	-11.2182
▁cones	-11.2189
▁structure	-11.2189
▁wiggl	-11.2193
▁amp	-11.2195
▁dialing	-11.2196
tric	-11.2198
erran	-11.2199
▁secured	-11.2203
▁treaty	-11.2205
▁seduc	-11.2206
▁martyr	-11.2207
▁tack	-11.2208
▁hick	-11.2209
▁requesting	-11.2215
▁released	-11.2216
▁frankly	-11.2219
▁meantime	-11.2219
▁mia	-11.2226
idney	-11.2228
▁howdy	-11.2229
▁eb	-11.2229
van	-11.2235
▁feeiing	-11.2236
▁pub	-11.2239
▁dom	-11.2241
god	-11.2244
▁considering	-11.2247
▁reminder	-11.2252
▁stab	-11.2252
▁yu	-11.2262
eyed	-11.2268
▁sander	-11.2268
fit	-11.2281
aiso	-11.2285
▁granted	-11.2288
active	-11.2295
▁shorter	-11.2295
empti	-11.2296
▁cured	-11.2299
▁ken	-11.231
▁gotcha	-11.2312
▁manny	-11.2313
▁borrowed	-11.2313
▁rolled	-11.232
▁peel	-11.2322
▁fishy	-11.2333
enez	-11.2334
▁oy	-11.2345
▁dam	-11.2346
▁cracker	-11.2348
▁hav	-11.2373
▁pressed	-11.2373
ease	-11.2384
▁ace	-11.2401
▁manque	-11.2402
pond	-11.2402
step	-11.241
▁unite	-11.2412
▁cardio	-11.2419
▁fitz	-11.2422
▁pressing	-11.2442
▁velvet	-11.2449
▁safer	-11.2454
▁mae	-11.2465
lette	-11.2472
▁pup	-11.2477
▁sac	-11.2491
▁bobo	-11.2493
▁psycholog	-11.2543
▁bate	-11.259
▁pep	-11.2597
▁mell	-11.2607
▁invo	-11.2612
rik	-11.2624
▁yearn	-11.2633
▁rockin	-11.2643
▁kara	-11.2653
▁overpa	-11.2719
▁gat	-11.2746
argent	-11.2748
▁raisin	-11.2781
aker	-11.279
▁shoo	-11.2809
▁disengage	-11.2812
awning	-11.2832
ough	-11.2837
▁lend	-11.2841
vé	-11.285
chen	-11.288
bil	-11.2886
▁laisser	-11.2889
▁stan	-11.2926
▁salv	-11.2994
ipper	-11.3002
▁ul	-11.3006
▁pint	-11.3011
inna	-11.3049
pul	-11.3066
ator	-11.3075
▁underwa	-11.3107
teau	-11.311
lake	-11.3135
▁ol	-11.3136
▁chu	-11.315
about	-11.3198
rail	-11.3212
▁ki	-11.323
lton	-11.3266
▁recorder	-11.3276
▁din	-11.3309
teen	-11.3341
▁eject	-11.3381
▁beh	-11.3395
rapping	-11.341
▁faci	-11.3412
bag	-11.3448
ope	-11.3514
▁lag	-11.3554
▁ww	-11.3558
▁sera	-11.3625
mmies	-11.3633
was	-11.3652
▁laiss	-11.3653
alty	-11.3687
▁dol	-11.3712
cco	-11.3729
▁cough	-11.3762
▁idol	-11.3783
ace	-11.3794
▁scav	-11.3799
▁giggle	-11.38
▁benefit	-11.3804
▁cheek	-11.3805
▁result	-11.3806
▁dat	-11.3815
▁tourist	-11.3831
▁here	-11.3833
▁eco	-11.3835
east	-11.3869
ggle	-11.3895
▁structur	-11.3924
lot	-11.3925
almon	-11.3932
▁farmer	-11.3935
▁hydra	-11.3958
▁slug	-11.396
▁frighten	-11.3962
▁josh	-11.3971
cream	-11.3996
easley	-11.3996
écoute	-11.3997
walk	-11.3999
guard	-11.4001
grade	-11.4001
world	-11.4002
husband	-11.4002
minute	-11.4002
wife	-11.4002
seven	-11.4003
style	-11.4003
named	-11.4003
wipe	-11.4003
▁disturb	-11.4004
three	-11.4005
great	-11.4005
▁howl	-11.4007
wash	-11.4007
▁flee	-11.4008
doo	-11.4008
found	-11.401
cock	-11.401
trust	-11.401
▁strain	-11.4013
▁adopt	-11.4014
▁profession	-11.4021
fire	-11.4025
▁approve	-11.4027
▁expose	-11.4027
reader	-11.4028
othe	-11.4028
ector	-11.403
veau	-11.4031
▁joseph	-11.4033
base	-11.4035
▁lemkov	-11.4035
▁fantas	-11.4037
apar	-11.4038
▁terribl	-11.404
▁sever	-11.4044
▁swor	-11.4046
leigh	-11.4047
▁interpret	-11.4047
▁korea	-11.4049
▁inject	-11.4049
produc	-11.4051
▁mornin	-11.4053
▁brut	-11.4054
▁heavi	-11.4054
▁kiddin	-11.4055
▁atta	-11.4055
▁influen	-11.4056
diction	-11.4056
▁demonstrat	-11.4056
umpy	-11.4057
mitted	-11.4058
▁innovati	-11.4059
▁arrange	-11.4059
ably	-11.4059
▁russell	-11.4059
ivate	-11.4059
▁occur	-11.4059
▁reinforce	-11.4059
chemistry	-11.4059
competitive	-11.4059
▁accordion	-11.4059
▁aloud	-11.4059
▁anxiety	-11.4059
▁aspic	-11.4059
▁athlete	-11.4059
▁atlantic	-11.4059
▁bachelor	-11.4059
▁balcony	-11.4059
▁behalf	-11.4059
▁benjamin	-11.4059
▁bizarre	-11.4059
▁bladder	-11.4059
▁blush	-11.4059
▁borovsky	-11.4059
▁bourbon	-11.4059
▁caterpillars	-11.4059
▁cepacia	-11.4059
▁chimichanga	-11.4059
▁cinema	-11.4059
▁classified	-11.4059
▁collapsing	-11.4059
▁commotion	-11.4059
▁comprends	-11.4059
▁connpod	-11.4059
▁corporal	-11.4059
▁cripple	-11.4059
▁definiteiy	-11.4059
▁democracy	-11.4059
▁deutscher	-11.4059
▁diabetic	-11.4059
▁disgrace	-11.4059
▁dorothy	-11.4059
▁dynamite	-11.4059
▁elbow	-11.4059
▁embrace	-11.4059
▁encounter	-11.4059
▁enlighten	-11.4059
▁enslave	-11.4059
▁experiencing	-11.4059
▁extraordinary	-11.4059
▁fathom	-11.4059
▁february	-11.4059
▁felicia	-11.4059
▁flicker	-11.4059
▁fragile	-11.4059
▁fuji	-11.4059
▁fundraiser	-11.4059
▁futile	-11.4059
▁genuine	-11.4059
▁gratitude	-11.4059
▁greasy	-11.4059
▁grigio	-11.4059
▁handkerchief	-11.4059
▁hatherton	-11.4059
▁heartbreak	-11.4059
▁hedgehog	-11.4059
▁hmmmmm	-11.4059
▁hubermann	-11.4059
▁hysterical	-11.4059
▁inquisitor	-11.4059
▁invade	-11.4059
▁inviting	-11.4059
▁janitor	-11.4059
▁javelin	-11.4059
▁jignor	-11.4059
▁kegger	-11.4059
▁kosher	-11.4059
▁lencre	-11.4059
▁lenihan	-11.4059
▁literature	-11.4059
▁locutus	-11.4059
▁maddox	-11.4059
▁mahimahi	-11.4059
▁makebelieve	-11.4059
▁mannequin	-11.4059
▁masseuse	-11.4059
▁masturbat	-11.4059
▁megapark	-11.4059
▁messenger	-11.4059
▁microwave	-11.4059
▁millennium	-11.4059
▁miranda	-11.4059
▁morocco	-11.4059
▁muskrat	-11.4059
▁napoleon	-11.4059
▁nitrogen	-11.4059
▁nouvelle	-11.4059
▁négatif	-11.4059
▁odyssey	-11.4059
▁orchestra	-11.4059
▁overthrow	-11.4059
▁palladium	-11.4059
▁paxton	-11.4059
▁penetrate	-11.4059
▁pharaoh	-11.4059
▁pingpong	-11.4059
▁popuiar	-11.4059
▁precautions	-11.4059
▁pronounce	-11.4059
▁province	-11.4059
▁pyjamas	-11.4059
▁rhyme	-11.4059
▁satisfaction	-11.4059
▁singapore	-11.4059
▁smaug	-11.4059
▁sniffles	-11.4059
▁sniffling	-11.4059
▁souvenir	-11.4059
▁stunned	-11.4059
▁substantial	-11.4059
▁survival	-11.4059
▁switzerland	-11.4059
▁sylvia	-11.4059
▁temporarily	-11.4059
▁therapy	-11.4059
▁thorough	-11.4059
▁toxic	-11.4059
▁tremendous	-11.4059
▁tresckow	-11.4059
▁tumbleweed	-11.4059
▁undefeated	-11.4059
▁undercover	-11.4059
▁underestimate	-11.4059
▁unhappy	-11.4059
▁unnecessary	-11.4059
▁vantastic	-11.4059
▁velociraptor	-11.4059
▁vessel	-11.4059
▁vicinity	-11.4059
▁volatile	-11.4059
▁whatsoever	-11.4059
▁whichever	-11.4059
▁wisdom	-11.4059
▁xanax	-11.4059
▁xibalba	-11.4059
▁yeeee	-11.4059
▁yield	-11.4059
▁zeppelin	-11.4059
▁zoologist	-11.4059
▁anticipat	-11.4059
▁aztec	-11.4059
▁combination	-11.4059
▁dencre	-11.4059
▁dobler	-11.4059
▁encore	-11.4059
▁everlasting	-11.4059
▁examination	-11.4059
▁gulia	-11.4059
▁houston	-11.4059
▁index	-11.4059
▁koushik	-11.4059
▁mamma	-11.4059
▁monument	-11.4059
▁orchard	-11.4059
▁outcome	-11.4059
▁pencil	-11.4059
▁postcard	-11.4059
▁reckless	-11.4059
▁snoopy	-11.4059
▁stokes	-11.4059
▁trousers	-11.4059
▁whittle	-11.4059
▁whiz	-11.4059
▁worid	-11.4059
▁wrath	-11.4059
▁afghan	-11.4059
▁ahhaha	-11.4059
▁canaan	-11.4059
▁carousel	-11.4059
▁cullen	-11.4059
▁farewell	-11.4059
▁grape	-11.4059
▁install	-11.4059
▁jessica	-11.4059
▁kopi	-11.4059
▁nauseous	-11.4059
▁poetry	-11.4059
▁rainbow	-11.4059
▁raynell	-11.4059
▁strand	-11.4059
▁tofu	-11.4059
▁toppings	-11.4059
▁ashore	-11.4059
▁graphic	-11.4059
▁lewis	-11.4059
▁meowing	-11.4059
▁muhammad	-11.4059
▁munch	-11.4059
▁scheme	-11.4059
▁viceroy	-11.4059
▁whereabouts	-11.4059
▁shaft	-11.4059
▁waik	-11.4059
▁angri	-11.4059
▁audio	-11.4059
▁cyber	-11.4059
▁doomed	-11.4059
▁feather	-11.4059
▁madeleine	-11.4059
▁coffin	-11.4059
▁finance	-11.4059
▁gesture	-11.4059
▁mildred	-11.4059
▁ostin	-11.4059
▁patron	-11.4059
▁razor	-11.4059
▁zach	-11.4059
▁bentley	-11.4059
▁brew	-11.4059
▁manifest	-11.4059
▁vagina	-11.4059
▁clutch	-11.4059
▁dork	-11.4059
▁merger	-11.4059
▁mutual	-11.4059
▁scab	-11.4059
▁andand	-11.4059
▁chrissake	-11.4059
▁diversion	-11.4059
▁judging	-11.4059
▁overhear	-11.4059
▁playdoh	-11.4059
▁sausage	-11.4059
▁sputter	-11.4059
▁stack	-11.4059
▁sushi	-11.4059
▁administration	-11.4059
▁imagina	-11.4059
▁swelling	-11.4059
▁charging	-11.4059
▁dorm	-11.4059
▁restrict	-11.4059
▁contaminated	-11.4059
▁depth	-11.4059
▁extend	-11.4059
▁homepage	-11.4059
▁ernest	-11.4059
▁kilometer	-11.4059
▁urine	-11.4059
▁hesitate	-11.4059
▁serum	-11.4059
▁cube	-11.4059
▁fiirt	-11.4059
▁reaping	-11.4059
▁boulot	-11.4059
▁bugged	-11.4059
▁exgirlfriend	-11.4059
▁trex	-11.4059
halos	-11.4059
▁bliss	-11.4059
▁rational	-11.4059
▁blueprints	-11.4059
▁pinned	-11.4059
▁iost	-11.4059
▁retreat	-11.4059
▁misery	-11.4059
▁narrow	-11.406
▁laptop	-11.406
▁claws	-11.406
▁reflect	-11.406
▁snatche	-11.406
▁bamberg	-11.406
▁compass	-11.406
▁crave	-11.406
▁leaf	-11.406
▁apocalypse	-11.406
▁interrogation	-11.406
▁kearney	-11.406
▁tennis	-11.406
▁unrest	-11.406
▁bolt	-11.406
▁convert	-11.406
thorax	-11.406
▁forbidden	-11.406
▁russellfield	-11.406
▁upgrade	-11.406
▁yummy	-11.406
▁biscuits	-11.406
▁dispar	-11.406
▁bensley	-11.406
▁fungus	-11.406
▁unseen	-11.406
▁reference	-11.406
▁twirl	-11.406
▁werewolf	-11.406
▁bcd	-11.406
▁devrai	-11.406
▁endorsement	-11.406
▁finai	-11.406
▁choy	-11.406
cinq	-11.406
▁defence	-11.406
▁hatred	-11.406
▁elvis	-11.406
▁pudding	-11.406
▁derni	-11.406
▁isabella	-11.406
▁diagnos	-11.406
▁independent	-11.406
▁argue	-11.406
▁establishment	-11.4061
▁platts	-11.4061
▁northeast	-11.4061
▁centuri	-11.4061
ologne	-11.4061
▁playoffs	-11.4061
▁avez	-11.4061
▁kilo	-11.4061
▁namani	-11.4061
▁drownded	-11.4061
▁improvement	-11.4061
▁reception	-11.4061
▁buzzline	-11.4061
▁behold	-11.4061
▁discrimination	-11.4061
▁climate	-11.4061
▁righteous	-11.4061
▁organized	-11.4061
▁poppys	-11.4061
▁paui	-11.4061
▁maddie	-11.4061
▁gulf	-11.4061
▁remarkable	-11.4061
▁mentor	-11.4061
▁leadership	-11.4061
▁evict	-11.4061
▁nineteen	-11.4062
▁chalet	-11.4062
▁obey	-11.4062
▁huber	-11.4062
▁discs	-11.4062
▁itching	-11.4062
▁salvation	-11.4062
▁promote	-11.4062
▁occasionally	-11.4062
omeda	-11.4062
▁kays	-11.4062
▁allergic	-11.4062
▁hypocrite	-11.4062
▁iisten	-11.4062
▁amigo	-11.4062
▁prai	-11.4062
▁mieux	-11.4062
▁archive	-11.4062
▁operating	-11.4062
▁salary	-11.4062
▁troopers	-11.4062
▁bodyguard	-11.4062
▁stroll	-11.4062
▁gunfire	-11.4062
▁raving	-11.4063
▁graz	-11.4063
▁pipeline	-11.4063
▁bailey	-11.4063
▁starfish	-11.4063
▁attendant	-11.4063
▁harness	-11.4063
▁humble	-11.4063
▁snowball	-11.4063
▁essay	-11.4063
▁pimp	-11.4063
▁aaah	-11.4063
ject	-11.4063
▁saigne	-11.4063
▁multi	-11.4063
▁arrivé	-11.4064
▁stump	-11.4064
▁stallion	-11.4064
▁copper	-11.4064
▁nsa	-11.4064
▁fisherman	-11.4064
▁truffle	-11.4064
▁northern	-11.4064
▁princeton	-11.4064
▁troublemaker	-11.4064
manipulat	-11.4064
▁respirator	-11.4064
▁ratio	-11.4064
▁iso	-11.4065
▁minu	-11.4065
▁eise	-11.4065
▁countries	-11.4065
▁whir	-11.4065
▁yaps	-11.4065
▁reduce	-11.4066
▁belongings	-11.4066
▁balloon	-11.4066
▁starboard	-11.4066
▁mmmmm	-11.4066
▁slot	-11.4066
dolf	-11.4067
▁hex	-11.4067
▁maii	-11.4067
▁colin	-11.4067
▁maxwell	-11.4067
▁delfi	-11.4067
▁algorithm	-11.4067
▁beautifui	-11.4067
▁hispanic	-11.4067
▁hypnosis	-11.4067
▁necessarily	-11.4067
▁extraction	-11.4067
▁housekeeper	-11.4067
▁dontdont	-11.4067
▁tabie	-11.4067
▁hague	-11.4067
▁nuke	-11.4067
▁breakthrough	-11.4068
▁whup	-11.4068
▁disappearance	-11.4068
door	-11.4068
▁iight	-11.4068
▁panel	-11.4068
▁management	-11.4069
▁rash	-11.4069
▁imply	-11.4069
▁gamemaker	-11.4069
▁applie	-11.4069
▁equi	-11.4069
▁raison	-11.4069
▁tauriel	-11.4069
▁daw	-11.4069
▁foster	-11.4069
▁perish	-11.407
▁tj	-11.407
▁chopper	-11.407
▁amazed	-11.4071
▁huit	-11.4071
▁cooperate	-11.4072
▁savoir	-11.4072
▁yahoo	-11.4072
▁roam	-11.4072
▁eden	-11.4073
▁hisses	-11.4073
▁fathead	-11.4073
▁glow	-11.4073
▁tasty	-11.4073
▁shade	-11.4074
▁compell	-11.4074
ography	-11.4074
▁reveren	-11.4074
▁pinch	-11.4075
▁dood	-11.4075
▁scam	-11.4075
▁certainty	-11.4075
▁phonebook	-11.4077
▁loop	-11.4077
▁torn	-11.4078
▁traditional	-11.4078
▁gurgling	-11.4078
▁relieved	-11.4078
▁peak	-11.4079
▁disco	-11.4079
▁melt	-11.4079
▁coil	-11.408
▁deput	-11.408
▁regional	-11.408
▁forged	-11.4081
▁orientation	-11.4082
▁raw	-11.4083
▁nev	-11.4083
▁ciu	-11.4083
▁zel	-11.4084
▁established	-11.4085
▁airline	-11.4085
▁josepha	-11.4085
▁payback	-11.4086
▁firstclass	-11.4087
▁jinxy	-11.4087
▁foodland	-11.4087
▁pose	-11.4087
▁nip	-11.4088
▁rustler	-11.4089
▁cret	-11.4089
▁ioser	-11.4089
▁legit	-11.409
▁steiner	-11.409
▁neighing	-11.4091
▁tomber	-11.4091
▁kidney	-11.4092
▁aww	-11.4092
▁tornadoes	-11.4092
▁liquid	-11.4093
▁revel	-11.4094
▁cellar	-11.4094
▁worm	-11.4094
▁danielle	-11.4095
▁rome	-11.4095
▁registered	-11.4095
▁sandwiches	-11.4096
▁hart	-11.4098
▁heroic	-11.4098
▁birdie	-11.41
▁medal	-11.41
▁creo	-11.41
▁defy	-11.4101
▁tense	-11.4101
▁realised	-11.4102
▁applauding	-11.4103
▁disappointing	-11.4103
▁hallway	-11.4104
tomy	-11.4104
▁likewise	-11.4104
▁bask	-11.4105
▁originally	-11.4105
▁emerge	-11.4105
▁shaw	-11.4105
▁null	-11.4107
▁voulai	-11.4108
▁sait	-11.4108
▁pickup	-11.4109
▁grandp	-11.4109
▁bec	-11.4109
iness	-11.4112
▁peru	-11.4113
▁dang	-11.4113
▁peur	-11.4113
scope	-11.4114
▁steeler	-11.4114
▁frightening	-11.4116
▁recruited	-11.4116
▁achieved	-11.4116
▁faites	-11.4117
▁lapd	-11.4117
▁mori	-11.4119
▁farmin	-11.412
▁assimilated	-11.4122
▁écoute	-11.4122
▁easley	-11.4122
▁unclear	-11.4125
▁distracted	-11.4126
▁mocking	-11.4128
▁tore	-11.4128
▁traitoro	-11.413
▁bulletin	-11.4131
▁crusher	-11.4131
▁policeman	-11.4131
▁guaranteed	-11.4131
▁vp	-11.4132
▁endings	-11.4134
▁setup	-11.4134
▁herm	-11.4135
▁preserv	-11.4145
▁itit	-11.4146
▁topic	-11.4146
▁recovered	-11.4147
ofa	-11.4149
▁showtime	-11.415
▁coop	-11.4151
▁tribe	-11.4152
▁scraping	-11.4153
▁described	-11.4155
▁declare	-11.4156
▁rim	-11.4157
▁insulted	-11.4157
▁lane	-11.4166
▁sway	-11.4167
▁hottie	-11.4169
▁gala	-11.4172
▁ore	-11.4174
▁flushed	-11.4178
▁godking	-11.4179
▁bosses	-11.4181
quil	-11.4182
▁publicly	-11.4186
▁cruci	-11.4186
▁roller	-11.4187
▁hopeless	-11.4188
▁volunteered	-11.4188
▁performed	-11.4188
ember	-11.4189
▁launcher	-11.4192
▁protesting	-11.4192
order	-11.4204
▁anna	-11.4206
▁junkie	-11.4207
nual	-11.4208
cott	-11.4213
▁laide	-11.4221
▁detailed	-11.4222
▁missus	-11.4232
▁ache	-11.4232
▁trie	-11.4233
▁snapp	-11.4233
▁tighter	-11.4233
exi	-11.4235
▁challenged	-11.4237
fram	-11.4246
▁wilder	-11.4248
mmons	-11.4248
▁overlook	-11.4259
▁seth	-11.427
▁diver	-11.4278
▁limb	-11.4283
▁closest	-11.4292
tempted	-11.4306
nnie	-11.4306
▁esp	-11.431
plicate	-11.4328
▁barba	-11.4341
▁tickle	-11.436
▁stumbl	-11.4367
ayer	-11.4382
scotch	-11.4389
▁karat	-11.4405
▁daz	-11.443
▁poster	-11.4447
▁carni	-11.4465
tempo	-11.4479
panem	-11.4481
tail	-11.4483
▁interact	-11.4507
▁curl	-11.4515
▁sno	-11.4529
pense	-11.4561
▁sizzl	-11.4574
shire	-11.4628
meter	-11.466
▁digg	-11.4674
apoli	-11.4723
▁plat	-11.4737
lio	-11.4764
tory	-11.4809
▁bookie	-11.4869
avion	-11.4921
presentation	-11.4922
election	-11.4954
vant	-11.4958
▁congratulate	-11.4961
hat	-11.4973
▁elm	-11.5026
antic	-11.5029
▁proven	-11.503
▁boon	-11.5031
▁generate	-11.506
▁concentrat	-11.5078
▁bran	-11.5109
▁arg	-11.5112
▁vip	-11.5113
ippies	-11.5134
▁receiv	-11.5159
▁foi	-11.5168
vision	-11.518
▁faithful	-11.5203
urne	-11.5226
ckle	-11.5237
▁dehydrat	-11.5249
ott	-11.528
▁arriv	-11.5284
▁coco	-11.5318
gun	-11.5322
fax	-11.5336
▁introduc	-11.5425
otape	-11.5426
▁prop	-11.5429
wang	-11.544
▁mic	-11.544
lexing	-11.544
▁deli	-11.5457
paid	-11.5599
▁hitch	-11.5607
▁blam	-11.5749
▁poo	-11.5857
ouche	-11.5869
▁squeez	-11.5916
izzle	-11.5936
▁shir	-11.5949
▁velve	-11.5978
versi	-11.598
arold	-11.6021
keeper	-11.603
istan	-11.6066
nori	-11.609
pid	-11.6096
loss	-11.6119
ature	-11.6135
ologist	-11.6159
▁seul	-11.6162
▁slam	-11.6197
▁challeng	-11.6204
▁alcohol	-11.6215
will	-11.6229
sits	-11.6251
▁lump	-11.626
hhh	-11.6266
ification	-11.6267
turn	-11.6288
▁clip	-11.6289
▁citizen	-11.6299
▁neighbor	-11.6299
▁flea	-11.6302
▁squirrel	-11.6304
▁yelp	-11.6304
▁earring	-11.6306
▁terrorist	-11.6307
▁scout	-11.6308
▁hostage	-11.6315
associate	-11.6322
▁jule	-11.6329
formation	-11.6341
winding	-11.6372
▁smuggl	-11.6378
sticks	-11.6394
▁creat	-11.6408
▁condo	-11.6411
▁rebuil	-11.6427
▁declar	-11.6441
▁disappoint	-11.6457
ternal	-11.6465
▁decid	-11.6474
▁conven	-11.6478
feit	-11.6486
▁assimilat	-11.6491
mother	-11.6492
woman	-11.6496
▁garde	-11.6497
view	-11.6497
finn	-11.6498
body	-11.6499
charge	-11.6499
judith	-11.6499
legal	-11.65
fleet	-11.65
color	-11.6501
shift	-11.6502
secret	-11.6502
third	-11.6502
american	-11.6502
girl	-11.6503
called	-11.6503
child	-11.6503
▁applaud	-11.6503
▁taunt	-11.6505
buster	-11.6507
space	-11.6508
fighting	-11.6509
▁register	-11.6513
job	-11.6514
why	-11.6514
▁invent	-11.6515
▁surround	-11.6516
burn	-11.6518
▁attach	-11.6518
▁craw	-11.6519
▁rustle	-11.6521
▁preach	-11.6522
boat	-11.6523
▁wrestle	-11.6524
▁excite	-11.6526
▁iose	-11.6532
cook	-11.6534
▁chéri	-11.6537
egar	-11.6537
taking	-11.6538
▁thirst	-11.6538
▁sak	-11.6538
▁cochran	-11.6538
▁inaudibl	-11.6539
▁pleasur	-11.654
▁spook	-11.654
▁numb	-11.6542
▁practical	-11.6545
▁recent	-11.6545
▁intent	-11.6546
wire	-11.6547
▁assimilate	-11.6547
▁drip	-11.6549
rich	-11.655
▁roach	-11.655
▁isabel	-11.6552
▁egypt	-11.6553
▁drivin	-11.6553
▁leavin	-11.6553
▁dancin	-11.6553
▁chron	-11.6553
▁posse	-11.6554
circ	-11.6555
water	-11.6556
fort	-11.6556
▁rhythm	-11.6556
▁patriot	-11.6556
▁drawl	-11.6557
▁integr	-11.6557
▁sororit	-11.6557
▁remark	-11.6557
▁conqu	-11.6558
▁convers	-11.6558
▁tomato	-11.6558
ization	-11.6559
▁whisk	-11.6559
▁begg	-11.6559
itude	-11.6559
▁imperfect	-11.6559
▁orient	-11.6559
sibility	-11.6559
▁hypnoti	-11.6559
▁nitrous	-11.6559
awfui	-11.6559
enthusiastic	-11.6559
kindergarten	-11.6559
misunderstanding	-11.6559
▁abracadabra	-11.6559
▁abraham	-11.6559
▁absurd	-11.6559
▁acquisition	-11.6559
▁acrisius	-11.6559
▁adjourn	-11.6559
▁adventurous	-11.6559
▁afflovest	-11.6559
▁ajax	-11.6559
▁allegations	-11.6559
▁allegiance	-11.6559
▁altitude	-11.6559
▁amateur	-11.6559
▁antisocial	-11.6559
▁aretha	-11.6559
▁assault	-11.6559
▁asteroid	-11.6559
▁atalanta	-11.6559
▁atlanta	-11.6559
▁auditorium	-11.6559
▁axelrod	-11.6559
▁bandshell	-11.6559
▁bazooka	-11.6559
▁beaumont	-11.6559
▁benefactor	-11.6559
▁blackbird	-11.6559
▁blankenship	-11.6559
▁blatant	-11.6559
▁bohemia	-11.6559
▁briefcase	-11.6559
▁broccoli	-11.6559
▁budapest	-11.6559
▁bumbershoot	-11.6559
▁capitai	-11.6559
▁celebrity	-11.6559
▁celui	-11.6559
▁centaurs	-11.6559
▁charlatan	-11.6559
▁choix	-11.6559
▁chopstick	-11.6559
▁cienfuegos	-11.6559
▁conspir	-11.6559
▁consult	-11.6559
▁contender	-11.6559
▁convincing	-11.6559
▁cuddl	-11.6559
▁cuisine	-11.6559
▁curiosity	-11.6559
▁dammit	-11.6559
▁degenerate	-11.6559
▁departure	-11.6559
▁descend	-11.6559
▁diarrhea	-11.6559
▁discount	-11.6559
▁disrupt	-11.6559
▁documentary	-11.6559
▁dodgson	-11.6559
▁earthquake	-11.6559
▁eduard	-11.6559
▁einstein	-11.6559
▁elegant	-11.6559
▁elephant	-11.6559
▁enchanté	-11.6559
▁erythromycin	-11.6559
▁eurystheus	-11.6559
▁eusebios	-11.6559
▁evolution	-11.6559
▁exclusive	-11.6559
▁executive	-11.6559
▁exercising	-11.6559
▁exposure	-11.6559
▁fanfare	-11.6559
▁fellgiebel	-11.6559
▁ferret	-11.6559
▁flamingo	-11.6559
▁fonzie	-11.6559
▁fraternity	-11.6559
▁frisky	-11.6559
▁ginoux	-11.6559
▁girifriend	-11.6559
▁glaeser	-11.6559
▁grandchildren	-11.6559
▁grotesque	-11.6559
▁hamburger	-11.6559
▁harvest	-11.6559
▁horrifi	-11.6559
▁hyenas	-11.6559
▁identifi	-11.6559
▁ieave	-11.6559
▁independence	-11.6559
▁inherit	-11.6559
▁intensifies	-11.6559
▁intervention	-11.6559
▁intimate	-11.6559
▁intimidat	-11.6559
▁investigator	-11.6559
▁invitation	-11.6559
▁involving	-11.6559
▁jeopardiz	-11.6559
▁jinhai	-11.6559
▁jumbo	-11.6559
▁keitel	-11.6559
▁keymaster	-11.6559
▁kowolski	-11.6559
▁lambassadeur	-11.6559
▁landscape	-11.6559
▁luggage	-11.6559
▁machowacho	-11.6559
▁maharaja	-11.6559
▁maintenance	-11.6559
▁manufactur	-11.6559
▁marijuana	-11.6559
▁marshmallow	-11.6559
▁marvelous	-11.6559
▁maurice	-11.6559
▁mccleod	-11.6559
▁meadow	-11.6559
▁memorable	-11.6559
▁mendelson	-11.6559
▁mercedes	-11.6559
▁mercenaries	-11.6559
▁merchant	-11.6559
▁meticulous	-11.6559
▁miraculous	-11.6559
▁mockingjay	-11.6559
▁molehill	-11.6559
▁morphine	-11.6559
▁motivation	-11.6559
▁mulcahy	-11.6559
▁neckbone	-11.6559
▁neighbourhood	-11.6559
▁nerscylla	-11.6559
▁northwestern	-11.6559
▁occupied	-11.6559
▁odoyle	-11.6559
▁omaha	-11.6559
▁onceinalifetime	-11.6559
▁ortega	-11.6559
▁overlapping	-11.6559
▁ozzy	-11.6559
▁pacoima	-11.6559
▁pakistan	-11.6559
▁paramedic	-11.6559
▁participate	-11.6559
▁pewter	-11.6559
▁phiianthropy	-11.6559
▁piccata	-11.6559
▁pithom	-11.6559
▁plutonium	-11.6559
▁poseidon	-11.6559
▁precursors	-11.6559
▁prejudice	-11.6559
▁previous	-11.6559
▁principle	-11.6559
▁prohibit	-11.6559
▁prospect	-11.6559
▁pyramid	-11.6559
▁raspberr	-11.6559
▁reboot	-11.6559
▁reflex	-11.6559
▁regulations	-11.6559
▁regulator	-11.6559
▁rephrase	-11.6559
▁reputation	-11.6559
▁reschedule	-11.6559
▁resolve	-11.6559
▁resurrection	-11.6559
▁roosevelt	-11.6559
▁réalis	-11.6559
▁sarkisian	-11.6559
▁saukerl	-11.6559
▁scenario	-11.6559
▁scrub	-11.6559
▁selfesteem	-11.6559
▁selkirk	-11.6559
▁shepherd	-11.6559
▁shudder	-11.6559
▁solemn	-11.6559
▁spandex	-11.6559
▁speciai	-11.6559
▁specimen	-11.6559
▁sponge	-11.6559
▁spontaneous	-11.6559
▁stawicki	-11.6559
▁sterilize	-11.6559
▁strangle	-11.6559
▁struggling	-11.6559
▁suicidal	-11.6559
▁summit	-11.6559
▁suspended	-11.6559
▁terminated	-11.6559
▁terrace	-11.6559
▁thrashing	-11.6559
▁tijuana	-11.6559
▁transcend	-11.6559
▁trespass	-11.6559
▁turkish	-11.6559
▁twain	-11.6559
▁typical	-11.6559
▁utilise	-11.6559
▁valenzuela	-11.6559
▁vendor	-11.6559
▁virtual	-11.6559
▁walmart	-11.6559
▁weasel	-11.6559
▁wheelchair	-11.6559
▁whopper	-11.6559
▁wigging	-11.6559
▁windshield	-11.6559
▁withstand	-11.6559
▁wookiee	-11.6559
▁wrestling	-11.6559
▁wsbtv	-11.6559
▁zhatmire	-11.6559
ourgeois	-11.6559
▁aaaaah	-11.6559
▁accusation	-11.6559
▁adios	-11.6559
▁adrift	-11.6559
▁amazon	-11.6559
▁apporte	-11.6559
▁bacteri	-11.6559
▁battalion	-11.6559
▁beneficia	-11.6559
▁bordel	-11.6559
▁concept	-11.6559
▁couteau	-11.6559
▁cradle	-11.6559
▁dismiss	-11.6559
▁dossier	-11.6559
▁embryo	-11.6559
▁friggin	-11.6559
▁giasses	-11.6559
▁harbor	-11.6559
▁hunch	-11.6559
▁ignition	-11.6559
▁initial	-11.6559
▁interfere	-11.6559
▁jarrive	-11.6559
▁knick	-11.6559
▁mcgee	-11.6559
▁mistress	-11.6559
▁nigga	-11.6559
▁obtain	-11.6559
▁ounce	-11.6559
▁pliers	-11.6559
▁recule	-11.6559
▁rookie	-11.6559
▁significan	-11.6559
▁sneeze	-11.6559
▁stroke	-11.6559
▁suburb	-11.6559
▁theatre	-11.6559
▁tombstone	-11.6559
▁undercard	-11.6559
▁venir	-11.6559
▁welcoming	-11.6559
▁ahahah	-11.6559
▁bicyc	-11.6559
▁blares	-11.6559
▁carriage	-11.6559
▁clarity	-11.6559
▁congrats	-11.6559
▁cubic	-11.6559
▁destructive	-11.6559
▁distress	-11.6559
▁genital	-11.6559
▁hotmail	-11.6559
▁hypoth	-11.6559
▁identical	-11.6559
▁identify	-11.6559
▁jadore	-11.6559
▁jericho	-11.6559
▁juiia	-11.6559
▁lunatic	-11.6559
▁monarch	-11.6559
▁muffin	-11.6559
▁pervert	-11.6559
▁poodle	-11.6559
▁practis	-11.6559
▁rehab	-11.6559
▁resort	-11.6559
▁rifle	-11.6559
▁somme	-11.6559
▁sophisticat	-11.6559
▁sprinkle	-11.6559
▁swedish	-11.6559
▁gender	-11.6559
▁holland	-11.6559
▁suspense	-11.6559
présente	-11.6559
▁arguing	-11.6559
▁belief	-11.6559
▁bulk	-11.6559
▁ciose	-11.6559
▁collided	-11.6559
▁descent	-11.6559
▁gulp	-11.6559
▁studied	-11.6559
▁walsh	-11.6559
▁xray	-11.6559
▁bogey	-11.6559
▁deceive	-11.6559
▁domino	-11.6559
▁dreamwalker	-11.6559
▁envoy	-11.6559
▁hyper	-11.6559
▁terminal	-11.6559
▁bonnet	-11.6559
▁bracelets	-11.6559
▁duffy	-11.6559
▁gospel	-11.6559
▁loaf	-11.6559
▁related	-11.6559
▁tolerate	-11.6559
▁vanished	-11.6559
▁whew	-11.6559
▁camion	-11.6559
▁kayla	-11.6559
▁lysine	-11.6559
▁radar	-11.6559
▁rigged	-11.6559
▁wyant	-11.6559
▁yolk	-11.6559
oignées	-11.6559
▁arab	-11.6559
▁bithia	-11.6559
▁clanging	-11.6559
▁dairy	-11.6559
▁falter	-11.6559
▁habla	-11.6559
▁kume	-11.6559
▁navigat	-11.6559
▁regain	-11.6559
▁ariel	-11.6559
▁pavel	-11.6559
▁scandal	-11.6559
▁tweak	-11.6559
▁hittite	-11.6559
▁oak	-11.6559
▁relive	-11.6559
▁mourn	-11.6559
▁budget	-11.6559
▁congratuiations	-11.6559
▁nonstop	-11.6559
▁website	-11.6559
▁essence	-11.6559
▁manhoie	-11.6559
▁instantly	-11.6559
▁oubli	-11.6559
▁scanning	-11.6559
▁oort	-11.6559
▁playlist	-11.6559
▁overall	-11.6559
▁coddl	-11.6559
▁cush	-11.6559
▁fumes	-11.6559
▁gusto	-11.6559
▁imposter	-11.6559
▁riker	-11.6559
▁crappy	-11.6559
▁hardworking	-11.6559
▁thieves	-11.6559
▁spinning	-11.6559
▁hidin	-11.6559
▁kingpin	-11.6559
▁undone	-11.6559
▁triumphant	-11.6559
▁coven	-11.6559
relevant	-11.656
▁brawl	-11.656
▁valor	-11.656
▁forcing	-11.656
▁pigeon	-11.656
▁larson	-11.656
▁christina	-11.656
▁acres	-11.656
again	-11.656
▁duckhunting	-11.656
▁sewer	-11.656
▁underground	-11.656
▁whining	-11.656
▁eyeballs	-11.656
▁cnn	-11.656
▁sinkhole	-11.656
▁suppress	-11.656
conceiv	-11.656
▁croy	-11.656
▁microphone	-11.656
▁bamba	-11.656
▁drew	-11.656
cuous	-11.656
▁pjs	-11.656
▁separation	-11.656
▁unconscious	-11.656
▁osbo	-11.656
relui	-11.656
▁edition	-11.656
▁titanium	-11.656
▁azt	-11.656
▁teacup	-11.656
▁attaboy	-11.656
▁kennedy	-11.656
compiete	-11.656
▁brandnew	-11.656
▁starved	-11.656
▁fading	-11.656
▁loneliness	-11.656
▁senator	-11.656
▁fumble	-11.656
▁transition	-11.656
▁tuele	-11.656
▁tomatoli	-11.656
▁overcharge	-11.656
▁biological	-11.656
▁titties	-11.656
▁biology	-11.656
▁bloat	-11.656
▁grease	-11.656
ouvert	-11.656
▁flank	-11.656
▁christopher	-11.656
bilities	-11.656
▁excess	-11.656
▁rejection	-11.656
audible	-11.6561
▁belgian	-11.6561
▁refill	-11.6561
▁kidnappers	-11.6561
▁strippers	-11.6561
▁kitten	-11.6561
▁maximum	-11.6561
▁appris	-11.6561
▁spicy	-11.6561
▁panties	-11.6561
▁peacekeeper	-11.6561
▁stanton	-11.6561
▁wives	-11.6561
▁broadway	-11.6561
▁rival	-11.6561
▁disturbance	-11.6561
▁conserv	-11.6561
wassup	-11.6561
ngenious	-11.6561
▁darpa	-11.6561
▁furious	-11.6561
▁beggar	-11.6561
▁cammie	-11.6561
▁popcorn	-11.6561
▁plaza	-11.6561
▁babysitting	-11.6561
▁cupboard	-11.6561
▁thresh	-11.6561
▁disappointment	-11.6562
▁butch	-11.6562
▁yankee	-11.6562
▁yuck	-11.6562
▁churn	-11.6562
▁turd	-11.6562
▁clark	-11.6562
▁specifically	-11.6562
▁brazilian	-11.6562
▁gutter	-11.6562
▁lemonade	-11.6562
▁tapping	-11.6562
▁assistance	-11.6562
▁thigh	-11.6562
▁quarr	-11.6562
▁distinctive	-11.6562
▁flav	-11.6562
▁degas	-11.6562
▁cherish	-11.6562
▁piggy	-11.6563
agonal	-11.6563
▁underwater	-11.6563
▁karen	-11.6563
▁keyhole	-11.6563
▁interrogate	-11.6563
▁belche	-11.6563
▁conform	-11.6563
▁pregnancy	-11.6563
▁ferai	-11.6563
▁shipping	-11.6563
▁revolutionary	-11.6563
▁visage	-11.6563
▁india	-11.6563
▁battlefield	-11.6563
▁turbo	-11.6563
▁overboard	-11.6564
▁parole	-11.6564
▁graveyard	-11.6564
▁jesse	-11.6564
▁poisonous	-11.6564
▁deception	-11.6564
▁legitim	-11.6564
▁risd	-11.6564
▁swamp	-11.6564
▁kenne	-11.6564
▁automati	-11.6564
▁ranks	-11.6564
▁jeanette	-11.6564
▁pitts	-11.6564
▁aircraft	-11.6564
▁coca	-11.6564
▁glen	-11.6564
▁holyfield	-11.6565
▁bugger	-11.6565
▁prank	-11.6565
▁darla	-11.6565
▁tandy	-11.6565
▁chanel	-11.6565
▁titanic	-11.6565
▁testify	-11.6565
monos	-11.6565
▁decline	-11.6566
▁crude	-11.6566
▁dimi	-11.6566
▁auction	-11.6566
▁tubab	-11.6566
▁revive	-11.6566
▁titty	-11.6566
▁sentimental	-11.6566
▁carbon	-11.6566
▁messaging	-11.6566
▁heathen	-11.6566
heat	-11.6566
▁motts	-11.6566
▁dramatically	-11.6566
▁punishment	-11.6566
amér	-11.6566
▁vigilant	-11.6566
▁macho	-11.6566
▁cheerio	-11.6567
▁collective	-11.6567
▁organism	-11.6567
▁sixteen	-11.6567
▁brook	-11.6567
▁tiens	-11.6567
▁diary	-11.6567
▁servantless	-11.6567
▁portia	-11.6567
▁jeering	-11.6568
▁voto	-11.6568
▁admitted	-11.6568
▁confine	-11.6568
▁yum	-11.6569
▁gina	-11.6569
▁bash	-11.6569
▁roundhouse	-11.6569
▁plow	-11.657
▁debrah	-11.657
▁glue	-11.657
▁dixie	-11.657
▁caroline	-11.657
▁heist	-11.657
▁siide	-11.657
▁polo	-11.657
▁translator	-11.6571
▁dough	-11.6571
▁fiim	-11.6571
▁sunlight	-11.6571
▁horseback	-11.6571
▁ruies	-11.6572
▁madden	-11.6572
▁percentage	-11.6572
▁portable	-11.6572
▁clint	-11.6572
▁korean	-11.6572
manship	-11.6572
▁medic	-11.6572
▁funding	-11.6572
ccino	-11.6573
dorf	-11.6573
▁harmless	-11.6573
▁motive	-11.6573
▁joyce	-11.6573
▁checkpoint	-11.6573
▁cind	-11.6574
ymph	-11.6574
▁waii	-11.6574
▁virginity	-11.6574
▁heiio	-11.6574
mean	-11.6574
▁interpretation	-11.6574
▁premiere	-11.6575
▁sweden	-11.6575
▁flock	-11.6576
▁jewelry	-11.6576
▁pierce	-11.6576
▁dime	-11.6576
▁joue	-11.6576
▁kink	-11.6577
▁facebook	-11.6577
▁parkour	-11.6577
▁probl	-11.6577
▁affection	-11.6578
▁boii	-11.6578
▁ballroom	-11.6578
▁sinner	-11.6578
odome	-11.6579
▁peril	-11.6579
▁tueur	-11.6579
▁iater	-11.658
▁objective	-11.658
▁sandman	-11.6581
▁screwup	-11.6581
▁chérie	-11.6581
▁breaches	-11.6582
▁amor	-11.6582
▁acceptable	-11.6583
▁calend	-11.6583
▁jeep	-11.6584
▁hors	-11.6584
▁cmon	-11.6584
▁eliminated	-11.6584
▁grit	-11.6585
▁personnel	-11.6585
▁bile	-11.6585
▁conine	-11.6587
▁asian	-11.6588
▁debut	-11.6588
bab	-11.6588
▁fini	-11.6588
▁sortir	-11.6589
▁hanson	-11.6589
▁urg	-11.659
quez	-11.659
▁breakdown	-11.659
▁defl	-11.6591
▁girion	-11.6591
▁fitting	-11.6592
▁barbay	-11.6592
▁litera	-11.6592
▁bombur	-11.6594
▁wrestled	-11.6594
▁producer	-11.6594
▁lime	-11.6595
▁monet	-11.6596
▁heath	-11.6596
▁kla	-11.6597
▁cult	-11.6597
▁darn	-11.6598
jah	-11.6599
▁suitable	-11.6599
▁roman	-11.6599
physics	-11.66
▁pace	-11.6602
▁brownies	-11.6602
▁clap	-11.6603
this	-11.6604
▁bushes	-11.6606
▁vik	-11.6608
▁rave	-11.6608
▁maxim	-11.6609
solin	-11.6611
▁kia	-11.6612
▁echoes	-11.6614
▁hoff	-11.6615
▁sympath	-11.6615
▁cocky	-11.6616
▁barret	-11.6616
▁erin	-11.662
▁abso	-11.6621
▁anto	-11.6622
▁elve	-11.6622
▁speeches	-11.6627
leasing	-11.6628
▁mild	-11.6628
▁lndia	-11.6633
▁indi	-11.6633
▁immun	-11.6636
icu	-11.6637
▁gua	-11.6638
▁ridin	-11.6638
▁coupon	-11.6638
adill	-11.6638
▁vaca	-11.6639
▁moist	-11.664
lava	-11.664
▁sash	-11.664
▁envie	-11.6643
rusty	-11.6643
▁auu	-11.6647
onné	-11.6648
▁tray	-11.6654
▁iist	-11.6665
▁willie	-11.6666
▁sole	-11.667
norm	-11.6675
▁potion	-11.6675
▁slamm	-11.6677
▁vc	-11.6677
▁tacti	-11.6679
▁sip	-11.668
shua	-11.6683
▁babysit	-11.6688
▁toothp	-11.669
level	-11.669
roit	-11.669
▁astr	-11.6692
lynn	-11.6693
▁heav	-11.67
▁mack	-11.6705
addle	-11.6735
▁bom	-11.6743
▁collar	-11.6743
▁smuggler	-11.6743
▁thro	-11.6749
▁diner	-11.6754
ofthe	-11.6756
▁enti	-11.6761
▁purr	-11.677
▁shovel	-11.6776
tale	-11.6783
oohooh	-11.6792
▁associ	-11.68
▁translat	-11.6805
▁musk	-11.6833
isette	-11.6836
▁buckle	-11.6845
▁mop	-11.6863
corn	-11.6867
rift	-11.6939
osis	-11.6959
▁unzip	-11.6977
duction	-11.6981
▁baggin	-11.6982
▁seule	-11.699
▁increas	-11.6995
iine	-11.7005
igato	-11.7029
▁surv	-11.7087
prec	-11.7096
▁superb	-11.7099
▁protester	-11.7111
ckin	-11.7128
▁span	-11.715
▁stewar	-11.7195
flake	-11.7207
bach	-11.7211
▁choppe	-11.7242
▁snoo	-11.7251
▁reaiize	-11.7259
▁exterminate	-11.7295
▁infiltrate	-11.7295
mmage	-11.7316
nks	-11.7317
vette	-11.7331
talk	-11.7333
achet	-11.7346
intér	-11.7419
few	-11.7454
▁twe	-11.7456
war	-11.7472
ween	-11.7507
nutrition	-11.7626
▁scarie	-11.7631
bill	-11.7659
▁grav	-11.7702
▁serai	-11.7715
▁phiia	-11.773
pente	-11.7734
▁travail	-11.7755
▁abid	-11.7798
▁tropic	-11.7801
▁evolv	-11.7832
flop	-11.7903
corp	-11.7919
oot	-11.7933
verge	-11.7976
▁improve	-11.7998
bbing	-11.8009
▁parlez	-11.8047
cane	-11.8134
gui	-11.8143
rma	-11.8239
notch	-11.8363
ési	-11.8372
▁travaill	-11.8434
rns	-11.863
nner	-11.8745
▁explor	-11.8797
polis	-11.8812
fib	-11.8842
nvestor	-11.8856
érer	-11.889
▁isi	-11.8921
▁inconvenien	-11.9
vito	-11.9006
▁treasur	-11.9077
viet	-11.9101
infor	-11.9141
▁corte	-11.9147
tching	-11.9153
▁replac	-11.9157
quit	-11.9227
▁magnet	-11.9262
eligi	-11.927
▁measur	-11.9274
amson	-11.93
▁defian	-11.9305
licate	-11.9444
▁continu	-11.9527
▁forgiv	-11.954
lacking	-11.9561
hhhh	-11.9568
▁simulat	-11.958
lateral	-11.9591
▁require	-11.9606
▁wolve	-11.963
▁olympic	-11.963
▁coordinate	-11.9631
▁cigarette	-11.9633
▁glove	-11.9634
eaving	-11.9637
▁diablo	-11.9638
▁liqu	-11.9639
pending	-11.9641
tynine	-11.9646
▁brake	-11.9647
▁luca	-11.965
▁troop	-11.9652
helma	-11.9685
tchup	-11.9695
cson	-11.9707
lashes	-11.9707
▁polic	-11.9724
▁activat	-11.9739
wise	-11.9773
ground	-11.9792
chucks	-11.9815
▁voul	-11.9815
▁sympa	-11.9815
▁unloa	-11.9823
ughton	-11.9827
known	-11.9829
worm	-11.983
wilder	-11.983
melting	-11.9831
detected	-11.9831
father	-11.9832
connect	-11.9832
planned	-11.9834
quoi	-11.9834
pound	-11.9834
filled	-11.9834
road	-11.9834
knowledge	-11.9834
responsible	-11.9834
market	-11.9835
location	-11.9835
famous	-11.9835
weather	-11.9835
service	-11.9835
thousand	-11.9835
bath	-11.9835
committed	-11.9836
learn	-11.9836
lucky	-11.9836
horse	-11.9836
maybe	-11.9836
keeping	-11.9836
drop	-11.9837
▁neigh	-11.9837
lift	-11.9837
nothing	-11.9838
stock	-11.9838
▁clatter	-11.984
habit	-11.984
hurt	-11.9841
osaurus	-11.9842
▁establish	-11.9844
life	-11.9846
making	-11.9847
▁sustain	-11.9847
▁propos	-11.9849
human	-11.985
▁burgl	-11.9853
▁eliminate	-11.9858
▁relieve	-11.9859
▁crumb	-11.9859
said	-11.9859
enchman	-11.986
gencies	-11.986
slash	-11.9864
▁avenge	-11.9866
▁inspect	-11.9866
▁brat	-11.9867
▁premier	-11.9871
▁filth	-11.9871
okay	-11.9872
bama	-11.9873
▁shiv	-11.9874
▁innocen	-11.9875
oaching	-11.9876
aggie	-11.9876
▁precise	-11.9878
mmuniti	-11.9878
pleted	-11.988
▁officia	-11.988
▁easie	-11.9881
▁chlo	-11.9882
▁boar	-11.9883
▁extensi	-11.9883
▁sentiment	-11.9883
▁apprehen	-11.9885
▁terrifi	-11.9885
▁elevat	-11.9886
▁ambitio	-11.9886
▁givin	-11.9886
▁shinin	-11.9886
▁contro	-11.9886
▁droppin	-11.9886
▁racin	-11.9887
▁horrib	-11.9888
▁brazil	-11.9889
reath	-11.9889
▁republic	-11.9889
▁discriminat	-11.9889
blooded	-11.989
induc	-11.989
▁homeostas	-11.989
mpression	-11.989
▁immortal	-11.989
▁instruct	-11.9892
egory	-11.9892
▁kidnappe	-11.9892
▁kearn	-11.9893
▁muhamm	-11.9893
construct	-11.9893
▁disembo	-11.9893
croft	-11.9893
déjeuner	-11.9893
fertilize	-11.9893
imposteur	-11.9893
rouille	-11.9893
▁ablaze	-11.9893
▁academic	-11.9893
▁accelerating	-11.9893
▁accumulate	-11.9893
▁accurate	-11.9893
▁activities	-11.9893
▁advancing	-11.9893
▁aerobics	-11.9893
▁aidemoi	-11.9893
▁albany	-11.9893
▁alfrid	-11.9893
▁alsharif	-11.9893
▁amsterdam	-11.9893
▁amusement	-11.9893
▁anscreaming	-11.9893
▁anthony	-11.9893
▁apceros	-11.9893
▁appetizers	-11.9893
▁approval	-11.9893
▁approximately	-11.9893
▁arbitra	-11.9893
▁arcadia	-11.9893
▁architect	-11.9893
▁arnold	-11.9893
▁arrogance	-11.9893
▁articulate	-11.9893
▁athletic	-11.9893
▁attrape	-11.9893
▁australia	-11.9893
▁autumn	-11.9893
▁avatar	-11.9893
▁baptize	-11.9893
▁barbarino	-11.9893
▁barbecue	-11.9893
▁befriend	-11.9893
▁bloomingdales	-11.9893
▁bluebirds	-11.9893
▁brassart	-11.9893
▁bridesmaid	-11.9893
▁bureaucrat	-11.9893
▁calculated	-11.9893
▁calhoun	-11.9893
▁camille	-11.9893
▁canadian	-11.9893
▁casserole	-11.9893
▁catastrophe	-11.9893
▁catholic	-11.9893
▁cautious	-11.9893
▁cavity	-11.9893
▁celebrities	-11.9893
▁ceramic	-11.9893
▁chandras	-11.9893
▁chardonnay	-11.9893
▁cheddar	-11.9893
▁chipmunk	-11.9893
▁claustrophobi	-11.9893
▁cleopatra	-11.9893
▁closure	-11.9893
▁cocaptain	-11.9893
▁cockroach	-11.9893
▁collision	-11.9893
▁colonnade	-11.9893
▁communicating	-11.9893
▁conclude	-11.9893
▁conscience	-11.9893
▁contraption	-11.9893
▁contribute	-11.9893
▁coordinator	-11.9893
▁cornelius	-11.9893
▁correspond	-11.9893
▁cynthia	-11.9893
▁debrauwn	-11.9893
▁decapitat	-11.9893
▁defensive	-11.9893
▁deficit	-11.9893
▁delusional	-11.9893
▁dicaprio	-11.9893
▁dilophosaurus	-11.9893
▁diminish	-11.9893
▁disobey	-11.9893
▁dolphin	-11.9893
▁détendstoi	-11.9893
▁economy	-11.9893
▁elkhorn	-11.9893
▁endorphins	-11.9893
▁esteemed	-11.9893
▁exboyfriend	-11.9893
▁exclalm	-11.9893
▁exhausting	-11.9893
▁facilities	-11.9893
▁fascinati	-11.9893
▁ferrari	-11.9893
▁fertilis	-11.9893
▁fftfft	-11.9893
▁fingernails	-11.9893
▁flapjack	-11.9893
▁flexible	-11.9893
▁folsom	-11.9893
▁frankenstein	-11.9893
▁fraternities	-11.9893
▁freakydeaky	-11.9893
▁gambi	-11.9893
▁gatorade	-11.9893
▁gefilte	-11.9893
▁gershom	-11.9893
▁ghostwriter	-11.9893
▁giorgio	-11.9893
▁glimpse	-11.9893
▁globe	-11.9893
▁gobbling	-11.9893
▁goebbels	-11.9893
▁gottschalk	-11.9893
▁granddaughter	-11.9893
▁grocery	-11.9893
▁guidance	-11.9893
▁haawoo	-11.9893
▁halliburton	-11.9893
▁hannafin	-11.9893
▁hargraves	-11.9893
▁headbanger	-11.9893
▁hemisphere	-11.9893
▁henchmen	-11.9893
▁henderson	-11.9893
▁hendry	-11.9893
▁hideandgoseek	-11.9893
▁hideandseek	-11.9893
▁hilliard	-11.9893
▁hitchhike	-11.9893
▁housewives	-11.9893
▁hurricane	-11.9893
▁ignacio	-11.9893
▁impregnable	-11.9893
▁industry	-11.9893
▁inevitabl	-11.9893
▁infidel	-11.9893
▁ingredient	-11.9893
▁insulator	-11.9893
▁intriguing	-11.9893
▁intuition	-11.9893
▁involvement	-11.9893
▁irreplaceable	-11.9893
▁jennifer	-11.9893
▁jupiter	-11.9893
▁khyan	-11.9893
▁klenstein	-11.9893
▁kryptonite	-11.9893
▁kuekuatsheu	-11.9893
▁lalalalalalala	-11.9893
▁lemasniel	-11.9893
▁lennox	-11.9893
▁leopold	-11.9893
▁lmmediately	-11.9893
▁lobby	-11.9893
▁lollipop	-11.9893
▁lucifer	-11.9893
▁lullaby	-11.9893
▁madagascar	-11.9893
▁manipedi	-11.9893
▁margaritas	-11.9893
▁matisse	-11.9893
▁mauvaise	-11.9893
▁mayonnaise	-11.9893
▁melissa	-11.9893
▁mercenary	-11.9893
▁merchandis	-11.9893
▁mexican	-11.9893
▁mifflin	-11.9893
▁millimeters	-11.9893
▁modified	-11.9893
▁moldova	-11.9893
▁motherfucker	-11.9893
▁motorbike	-11.9893
▁motorcycle	-11.9893
▁narcissis	-11.9893
▁necromancer	-11.9893
▁neglect	-11.9893
▁neighbours	-11.9893
▁nurtur	-11.9893
▁oblige	-11.9893
▁october	-11.9893
▁olympus	-11.9893
▁opportunities	-11.9893
▁orsino	-11.9893
▁pajama	-11.9893
▁pamcake	-11.9893
▁paranoia	-11.9893
▁parfait	-11.9893
▁philistine	-11.9893
▁picturing	-11.9893
▁pigfeet	-11.9893
▁piranha	-11.9893
▁plumb	-11.9893
▁premises	-11.9893
▁preoccupied	-11.9893
▁profitable	-11.9893
▁providence	-11.9893
▁pseudo	-11.9893
▁puncture	-11.9893
▁quinlan	-11.9893
▁radagast	-11.9893
▁raphael	-11.9893
▁recycl	-11.9893
▁redemption	-11.9893
▁refuge	-11.9893
▁registration	-11.9893
▁regroup	-11.9893
▁regulate	-11.9893
▁relentless	-11.9893
▁rencontré	-11.9893
▁rhombus	-11.9893
▁ridicuious	-11.9893
▁rombauer	-11.9893
▁réservation	-11.9893
▁sabotage	-11.9893
▁saintgermain	-11.9893
▁sayonara	-11.9893
▁scavenger	-11.9893
▁schmalenpime	-11.9893
▁schmuck	-11.9893
▁scrabble	-11.9893
▁scrambling	-11.9893
▁scrutiny	-11.9893
▁scuff	-11.9893
▁seizure	-11.9893
▁seldom	-11.9893
▁september	-11.9893
▁shimmer	-11.9893
▁shortcake	-11.9893
▁shrugg	-11.9893
▁sinatra	-11.9893
▁sitacles	-11.9893
▁sixtyfive	-11.9893
▁sloshing	-11.9893
▁smartwatch	-11.9893
▁smartypants	-11.9893
▁spectacle	-11.9893
▁spectator	-11.9893
▁spectrum	-11.9893
▁staircase	-11.9893
▁subroutine	-11.9893
▁sullivan	-11.9893
▁supermodel	-11.9893
▁symptom	-11.9893
▁sécurité	-11.9893
▁sérieux	-11.9893
▁tangerine	-11.9893
▁tethered	-11.9893
▁thatthat	-11.9893
▁tobacco	-11.9893
▁tootsie	-11.9893
▁trampoline	-11.9893
▁transmitting	-11.9893
▁trustworthy	-11.9893
▁tsunami	-11.9893
▁turbulence	-11.9893
▁tuxedo	-11.9893
▁umbrella	-11.9893
▁unacceptable	-11.9893
▁unafraid	-11.9893
▁unemployed	-11.9893
▁unplug	-11.9893
▁uplink	-11.9893
▁usuaiiy	-11.9893
▁valedictor	-11.9893
▁vanquished	-11.9893
▁vendetta	-11.9893
▁veterinarian	-11.9893
▁vibration	-11.9893
▁voyez	-11.9893
▁wheezing	-11.9893
▁wilbur	-11.9893
▁witzleben	-11.9893
▁wurmbrand	-11.9893
▁yeehaw	-11.9893
▁yogurt	-11.9893
▁youknowwh	-11.9893
▁adrenaline	-11.9893
▁carnivore	-11.9893
▁cascade	-11.9893
▁compensate	-11.9893
▁contempt	-11.9893
▁dishonor	-11.9893
▁dispatch	-11.9893
▁griffi	-11.9893
▁instill	-11.9893
▁kappa	-11.9893
▁mystic	-11.9893
▁plunge	-11.9893
▁scatter	-11.9893
▁suffocat	-11.9893
▁vegetati	-11.9893
▁womb	-11.9893
▁accomplished	-11.9893
▁artemis	-11.9893
▁ascend	-11.9893
▁authorities	-11.9893
▁belmont	-11.9893
▁bennett	-11.9893
▁bimbo	-11.9893
▁blackberry	-11.9893
▁blouse	-11.9893
▁breastfeed	-11.9893
▁chaotic	-11.9893
▁chestnut	-11.9893
▁cockpit	-11.9893
▁corrupt	-11.9893
▁dictionary	-11.9893
▁dégage	-11.9893
▁excusezmoi	-11.9893
▁formidable	-11.9893
▁hectic	-11.9893
▁illinois	-11.9893
▁indecisi	-11.9893
▁labonz	-11.9893
▁lydia	-11.9893
▁maggot	-11.9893
▁magnum	-11.9893
▁marietta	-11.9893
▁mischie	-11.9893
▁misplaced	-11.9893
▁oasis	-11.9893
▁orchid	-11.9893
▁oscars	-11.9893
▁paranoid	-11.9893
▁perignon	-11.9893
▁pinewood	-11.9893
▁pivot	-11.9893
▁postpone	-11.9893
▁rebellion	-11.9893
▁scatting	-11.9893
▁snorting	-11.9893
▁stevie	-11.9893
▁stitches	-11.9893
▁syrup	-11.9893
▁teddyfié	-11.9893
▁tekla	-11.9893
▁temperament	-11.9893
▁termination	-11.9893
▁thirtyfive	-11.9893
▁thumper	-11.9893
▁tragic	-11.9893
▁uprising	-11.9893
▁zellman	-11.9893
ediatric	-11.9893
▁aleks	-11.9893
▁amanda	-11.9893
▁applebees	-11.9893
▁bargeman	-11.9893
▁blunt	-11.9893
▁butler	-11.9893
▁colorado	-11.9893
▁combien	-11.9893
▁cyberarts	-11.9893
▁daytoday	-11.9893
▁decorated	-11.9893
▁dowling	-11.9893
▁evaluation	-11.9893
▁evita	-11.9893
▁godzilla	-11.9893
▁henley	-11.9893
▁herefords	-11.9893
▁hulk	-11.9893
▁mothra	-11.9893
▁murdoc	-11.9893
▁ninja	-11.9893
▁offkey	-11.9893
▁pappa	-11.9893
▁pappy	-11.9893
▁passageway	-11.9893
▁pepperoni	-11.9893
▁raylene	-11.9893
▁samurai	-11.9893
▁seoul	-11.9893
▁sexuai	-11.9893
▁spinach	-11.9893
▁trillion	-11.9893
▁tummy	-11.9893
▁turtle	-11.9893
▁valium	-11.9893
▁windmill	-11.9893
precedent	-11.9893
stringers	-11.9893
▁agricultur	-11.9893
▁beheld	-11.9893
▁djinn	-11.9893
▁fossil	-11.9893
▁further	-11.9893
▁juiie	-11.9893
▁lobotom	-11.9893
▁marmara	-11.9893
▁mattress	-11.9893
▁nelson	-11.9893
▁nikk	-11.9893
▁omega	-11.9893
▁plop	-11.9893
▁pouv	-11.9893
▁rejoin	-11.9893
▁smear	-11.9893
▁tinkle	-11.9893
▁update	-11.9893
▁zorg	-11.9893
▁antiqu	-11.9893
▁blob	-11.9893
▁highpowered	-11.9893
▁mobiliz	-11.9893
▁noodle	-11.9893
▁outrage	-11.9893
▁prack	-11.9893
▁shaky	-11.9893
▁bragg	-11.9893
▁capacitor	-11.9893
▁carpenter	-11.9893
▁encas	-11.9893
▁gillman	-11.9893
▁hetero	-11.9893
▁lchaim	-11.9893
▁legacy	-11.9893
▁omni	-11.9893
▁pheno	-11.9893
▁ribbon	-11.9893
▁tulip	-11.9893
▁whupping	-11.9893
ogami	-11.9893
▁afflict	-11.9893
▁chalk	-11.9893
▁stabiliz	-11.9893
▁steroid	-11.9893
▁ferber	-11.9893
▁leandro	-11.9893
▁moreno	-11.9893
▁nbc	-11.9893
▁pareil	-11.9893
▁percussi	-11.9893
▁prodig	-11.9893
▁sundae	-11.9893
▁uncover	-11.9893
▁capacity	-11.9893
▁dispute	-11.9893
▁irina	-11.9893
▁mugged	-11.9893
▁natalie	-11.9893
▁nova	-11.9893
▁rooftops	-11.9893
▁vanessa	-11.9893
▁eliot	-11.9893
▁hassan	-11.9893
▁heavensbee	-11.9893
▁punge	-11.9893
▁carcass	-11.9893
▁highlander	-11.9893
▁jenkins	-11.9893
▁jusqu	-11.9893
▁keller	-11.9893
▁rugged	-11.9893
▁superstar	-11.9893
▁undergraduate	-11.9893
▁unstable	-11.9893
▁gracie	-11.9893
fabric	-11.9893
▁bedpan	-11.9893
▁bueno	-11.9893
▁cozy	-11.9893
▁donuts	-11.9893
▁grandparent	-11.9893
▁occurred	-11.9893
▁sherman	-11.9893
▁spouse	-11.9893
▁visuel	-11.9893
▁cereal	-11.9893
▁entails	-11.9893
▁presumably	-11.9893
▁reroute	-11.9893
pathy	-11.9893
▁panther	-11.9893
▁securing	-11.9893
▁boogers	-11.9893
▁griddle	-11.9893
▁humain	-11.9893
▁stowed	-11.9893
▁wrb	-11.9893
▁distinguished	-11.9893
▁unlocked	-11.9893
▁chaperon	-11.9893
▁jamming	-11.9893
▁recreati	-11.9893
▁seiiing	-11.9893
▁stash	-11.9893
▁coiie	-11.9893
▁jammed	-11.9893
ritis	-11.9893
▁buena	-11.9893
▁drugged	-11.9893
▁fenton	-11.9893
▁detour	-11.9893
▁electromagnetic	-11.9893
▁horace	-11.9893
nvinci	-11.9893
▁deduce	-11.9893
▁poised	-11.9893
▁spiral	-11.9893
▁proposition	-11.9893
▁retourn	-11.9893
▁assessment	-11.9893
▁lxas	-11.9893
▁margin	-11.9893
▁transmission	-11.9893
▁platform	-11.9893
▁années	-11.9893
▁sewed	-11.9893
▁sexiest	-11.9893
▁jentend	-11.9893
lodged	-11.9893
▁erupt	-11.9893
▁pharmacy	-11.9893
▁ransom	-11.9893
▁upfront	-11.9893
▁geneticists	-11.9893
▁harpo	-11.9893
cultural	-11.9893
▁mcdonal	-11.9893
▁angus	-11.9893
▁shiny	-11.9893
▁aurier	-11.9893
▁nedry	-11.9893
▁relations	-11.9893
▁valve	-11.9893
▁liberat	-11.9893
▁irene	-11.9893
▁bleu	-11.9893
▁impose	-11.9893
▁courtesy	-11.9893
▁igor	-11.9893
▁jubil	-11.9893
▁resid	-11.9893
▁chapstick	-11.9893
▁citizenship	-11.9893
▁counterfeit	-11.9893
▁sanctuary	-11.9893
▁lettin	-11.9893
▁reaper	-11.9893
▁superior	-11.9893
▁retina	-11.9893
wraith	-11.9893
▁crater	-11.9893
▁kfed	-11.9893
▁verras	-11.9893
▁quicksand	-11.9893
▁submission	-11.9893
▁vocalizing	-11.9893
▁mezz	-11.9893
▁mingling	-11.9893
▁chiquit	-11.9893
▁jiggl	-11.9893
▁edison	-11.9893
▁presum	-11.9893
▁funky	-11.9893
▁lifestyles	-11.9893
▁avocado	-11.9893
▁taurai	-11.9893
▁drool	-11.9893
▁swiss	-11.9894
▁meltdown	-11.9894
▁redeem	-11.9894
▁parameter	-11.9894
▁peasant	-11.9894
opher	-11.9894
▁copilot	-11.9894
▁homing	-11.9894
▁fondue	-11.9894
▁flapping	-11.9894
enfants	-11.9894
▁ligne	-11.9894
▁livrer	-11.9894
▁homie	-11.9894
▁blitz	-11.9894
▁carnal	-11.9894
▁innovations	-11.9894
▁ignorance	-11.9894
▁volcan	-11.9894
▁trough	-11.9894
▁continuous	-11.9894
▁epilep	-11.9894
▁heyhey	-11.9894
▁midterm	-11.9894
▁fasse	-11.9894
▁resolution	-11.9894
▁tutor	-11.9894
wyn	-11.9894
▁ambi	-11.9894
▁iceskating	-11.9894
▁ppd	-11.9894
strom	-11.9894
▁organizing	-11.9894
▁confidential	-11.9895
▁frown	-11.9895
▁deviation	-11.9895
▁exhibition	-11.9895
▁riddle	-11.9895
▁confusi	-11.9895
▁garlic	-11.9895
▁brink	-11.9895
▁halfnaked	-11.9895
▁excessive	-11.9895
▁jojo	-11.9895
▁fdr	-11.9895
▁dilated	-11.9895
▁discharge	-11.9895
▁fanatic	-11.9895
▁inhabit	-11.9895
▁referee	-11.9895
▁bonfire	-11.9895
▁funnel	-11.9895
▁homeostasis	-11.9895
▁mailbox	-11.9895
▁appare	-11.9895
▁donnie	-11.9895
▁filk	-11.9895
▁pursu	-11.9895
▁stepfather	-11.9895
▁coldblooded	-11.9895
▁psst	-11.9895
▁felon	-11.9895
▁tweet	-11.9895
▁youyou	-11.9895
▁compris	-11.9896
▁rhythmic	-11.9896
▁republican	-11.9896
▁exactement	-11.9896
▁knots	-11.9896
▁kud	-11.9896
aceous	-11.9896
▁combine	-11.9896
▁vapid	-11.9896
▁masterpiece	-11.9896
▁transference	-11.9896
▁wsb	-11.9896
▁biink	-11.9896
▁integrity	-11.9896
▁booze	-11.9896
▁infinit	-11.9896
▁ambu	-11.9897
▁goggles	-11.9897
trophy	-11.9897
▁patriotic	-11.9897
▁monstro	-11.9897
▁hefner	-11.9897
▁enhanc	-11.9897
▁abuse	-11.9897
▁anyeah	-11.9897
▁kickstand	-11.9897
▁indoor	-11.9897
▁lobe	-11.9897
▁hamid	-11.9897
▁envision	-11.9897
▁chinatown	-11.9897
▁clement	-11.9897
▁farmhouse	-11.9898
▁octa	-11.9898
▁sororities	-11.9898
▁jamey	-11.9898
▁labour	-11.9898
▁repay	-11.9898
▁clima	-11.9898
▁kitty	-11.9898
▁scour	-11.9898
▁priority	-11.9898
▁mellow	-11.9898
▁buffet	-11.9898
▁morgu	-11.9898
▁harsh	-11.9898
▁barbara	-11.9898
▁mutters	-11.9898
▁demonstration	-11.9899
▁casualty	-11.9899
dokey	-11.9899
▁puking	-11.9899
zzie	-11.9899
▁danique	-11.9899
▁flap	-11.9899
▁reneg	-11.9899
▁entendu	-11.9899
▁swimmin	-11.9899
▁spiceness	-11.9899
▁trend	-11.9899
▁cellphone	-11.9899
▁outhouse	-11.9899
▁crib	-11.9899
▁giow	-11.9899
▁michi	-11.9899
▁undermin	-11.99
▁orphanage	-11.99
▁chute	-11.99
▁blanc	-11.99
▁argh	-11.99
▁fuii	-11.99
▁raymaker	-11.99
uriel	-11.99
▁haku	-11.99
▁nuys	-11.99
▁obstruction	-11.99
▁radi	-11.99
▁alexand	-11.99
▁sheii	-11.99
▁condom	-11.99
▁handicap	-11.9901
▁deets	-11.9901
▁progressive	-11.9901
▁torment	-11.9901
ujour	-11.9901
▁chronic	-11.9901
▁pause	-11.9901
▁stamp	-11.9901
meister	-11.9901
▁chatting	-11.9902
▁juni	-11.9902
▁petri	-11.9902
ubbo	-11.9902
▁torch	-11.9902
▁foolishness	-11.9902
▁alternat	-11.9902
▁sevenoh	-11.9902
▁bold	-11.9903
▁shrin	-11.9903
gallop	-11.9903
ruster	-11.9903
ronment	-11.9903
▁beets	-11.9903
tigation	-11.9903
▁arse	-11.9903
▁brun	-11.9903
▁patties	-11.9904
▁supervisor	-11.9904
▁organis	-11.9904
▁royalty	-11.9905
▁chiff	-11.9905
▁reentr	-11.9905
▁earlie	-11.9906
▁regardless	-11.9907
▁betcha	-11.9907
▁hemo	-11.9907
▁skinner	-11.9907
▁mutt	-11.9908
▁carbs	-11.9909
▁baii	-11.9909
ssip	-11.9909
▁feat	-11.991
▁guv	-11.991
▁shopper	-11.991
aroo	-11.991
▁amber	-11.991
▁grim	-11.9911
▁cruisin	-11.9912
▁tart	-11.9912
gans	-11.9913
▁inspection	-11.9914
▁injection	-11.9915
▁thadde	-11.9915
chancellor	-11.9918
ilated	-11.992
▁puke	-11.9922
julie	-11.9922
▁lyin	-11.9923
▁muns	-11.9923
▁fiip	-11.9923
lix	-11.9924
icious	-11.9924
▁revolv	-11.9927
▁engi	-11.9927
shaw	-11.9928
▁ferri	-11.9929
▁griev	-11.9931
larice	-11.9931
ancé	-11.9947
▁bottie	-11.9956
dental	-11.9964
▁oreille	-11.9966
ecil	-11.9972
▁buri	-11.9999
vol	-12.0009
building	-12.0023
▁criticiz	-12.0029
▁analyze	-12.0029
▁myr	-12.0032
stead	-12.0032
▁buiid	-12.0052
▁évi	-12.0056
▁zapp	-12.0077
pstick	-12.0078
issin	-12.0085
woogie	-12.009
▁slashe	-12.0127
trace	-12.0133
cru	-12.0135
▁characterize	-12.0145
issy	-12.0154
lico	-12.0172
▁juli	-12.0192
tful	-12.0195
netenth	-12.0218
▁qualif	-12.0251
magnetic	-12.026
ronto	-12.0263
tobe	-12.0265
lagged	-12.0273
▁grabbin	-12.0278
gala	-12.0345
▁edg	-12.0366
▁ferm	-12.0385
alcoholic	-12.0392
olence	-12.0435
posed	-12.0437
arri	-12.0438
▁sci	-12.0443
▁importan	-12.0525
writes	-12.0534
▁journalis	-12.0559
▁strippe	-12.0611
skating	-12.0673
▁fumi	-12.0677
rapper	-12.0685
▁ledge	-12.0693
asty	-12.0735
arles	-12.0766
▁sauv	-12.0808
▁manoeuvre	-12.0879
jori	-12.0944
▁clipp	-12.0945
▁harmoni	-12.1027
déj	-12.1081
▁angi	-12.1085
▁shaki	-12.1092
code	-12.1099
tract	-12.1108
▁assassinate	-12.1128
▁fiber	-12.1139
tendu	-12.1153
ndered	-12.1153
phine	-12.1212
vich	-12.1231
▁travell	-12.1305
dependent	-12.1413
gol	-12.1453
warm	-12.1455
▁aria	-12.1489
precipit	-12.1575
▁fockerize	-12.1763
▁intr	-12.1803
pairmen	-12.1908
▁quelqu	-12.2048
▁supervis	-12.2086
▁improv	-12.2226
▁smok	-12.2319
hippie	-12.2443
▁generat	-12.2453
▁precipi	-12.263
▁congratulat	-12.2644
rgis	-12.268
▁grad	-12.269
affected	-12.2814
▁nutritio	-12.2818
change	-12.3189
publishing	-12.3204
érieu	-12.3271
appreciated	-12.3396
udding	-12.3456
oeuvres	-12.3462
front	-12.3536
▁deducti	-12.3546
elected	-12.3688
▁wastin	-12.3842
oggy	-12.3892
doubted	-12.3958
grams	-12.4108
pelled	-12.4557
hort	-12.4565
writers	-12.4604
▁franc	-12.4616
▁handcuff	-12.4632
▁passenger	-12.464
▁rhode	-12.4647
posts	-12.4656
weler	-12.4665
▁critic	-12.4666
alyzed	-12.4676
event	-12.4726
▁surpris	-12.475
merged	-12.4762
utti	-12.477
▁entend	-12.4797
ception	-12.4807
▁thrust	-12.4818
azzle	-12.4819
▁describ	-12.4827
forged	-12.4831
orientation	-12.4831
▁engag	-12.4832
structure	-12.4832
discovery	-12.4832
limited	-12.4832
maniac	-12.4832
venom	-12.4832
script	-12.4832
educated	-12.4833
experienced	-12.4833
naked	-12.4833
regard	-12.4833
pilot	-12.4833
pleasant	-12.4834
izzy	-12.4834
sexual	-12.4834
hunting	-12.4834
engineer	-12.4835
spoken	-12.4835
qualit	-12.4835
reason	-12.4835
cleaning	-12.4835
quarter	-12.4835
generation	-12.4836
ghost	-12.4836
touched	-12.4836
driver	-12.4836
advance	-12.4836
bridge	-12.4836
purpose	-12.4836
correct	-12.4836
million	-12.4836
drinking	-12.4836
complete	-12.4836
system	-12.4836
finished	-12.4836
personal	-12.4836
enemy	-12.4836
important	-12.4836
sweet	-12.4836
floor	-12.4836
forget	-12.4837
together	-12.4837
daddy	-12.4837
something	-12.4837
death	-12.4837
music	-12.4837
party	-12.4837
▁gurgl	-12.4837
dancing	-12.4837
control	-12.4837
viens	-12.4838
▁frustrat	-12.4838
freak	-12.4839
▁exceed	-12.4839
mission	-12.4839
▁annoy	-12.4839
▁squeak	-12.484
capable	-12.4841
awful	-12.4843
▁disast	-12.4843
cuba	-12.4848
olving	-12.4849
flag	-12.4849
▁chamb	-12.485
▁socia	-12.4853
▁successfu	-12.4859
▁amaze	-12.4859
▁acquire	-12.486
▁determine	-12.486
▁unpredictab	-12.4861
ucci	-12.4863
lified	-12.4864
rivel	-12.4868
esignation	-12.4869
▁possibilit	-12.4871
▁objectiv	-12.4871
▁custod	-12.4871
▁dizz	-12.4871
▁creativ	-12.4872
▁balanc	-12.4873
▁johann	-12.4876
▁presiden	-12.4876
▁vigilan	-12.4877
nterns	-12.4877
▁excellen	-12.4878
▁obstruct	-12.488
▁wonderfu	-12.4882
▁origin	-12.4883
▁hypocri	-12.4884
▁turb	-12.4884
▁dwarv	-12.4884
commissione	-12.4885
▁distincti	-12.4886
▁draggin	-12.4886
▁counci	-12.4886
▁carefu	-12.4887
▁quittin	-12.4887
▁impossib	-12.4888
▁exhibit	-12.4889
▁belgi	-12.489
▁sebasti	-12.489
▁mosco	-12.489
▁deviat	-12.489
ncredible	-12.489
▁differ	-12.489
▁ignoran	-12.489
distinctly	-12.489
▁endorse	-12.4891
arlier	-12.4891
ordinate	-12.4891
▁loneli	-12.4891
atherine	-12.4891
biscuit	-12.4891
▁totai	-12.4891
▁actuai	-12.4891
expliqu	-12.4891
▁surveill	-12.4891
▁ridicul	-12.4892
▁sanctu	-12.4892
nomics	-12.4892
ciating	-12.4892
edication	-12.4892
ö	-13.4893
