<unk>	0
<s>	0
</s>	0
s	-2.99793
e	-3.77014
t	-3.94874
ing	-4.11428
n	-4.28352
d	-4.33616
y	-4.34699
ed	-4.42041
p	-4.51844
er	-4.55156
a	-4.5624
▁	-4.67641
i	-4.78497
▁s	-4.81488
r	-4.83486
m	-4.85846
u	-4.86928
o	-4.90341
▁im	-4.95886
g	-5.01571
in	-5.049
▁know	-5.12033
b	-5.13197
c	-5.14116
▁dont	-5.15167
or	-5.16251
▁go	-5.19895
al	-5.23604
le	-5.27253
▁f	-5.29926
h	-5.31711
on	-5.31758
ar	-5.32109
l	-5.33826
▁get	-5.33998
w	-5.3758
f	-5.37895
k	-5.41298
▁c	-5.43496
▁oh	-5.46093
▁right	-5.47946
ly	-5.50852
▁like	-5.52371
▁youre	-5.54207
▁l	-5.57519
en	-5.59772
▁na	-5.60266
▁come	-5.6033
▁got	-5.60637
▁de	-5.61437
▁yeah	-5.62735
at	-5.62879
it	-5.665
v	-5.66884
an	-5.69127
▁well	-5.69791
▁p	-5.69866
▁one	-5.72085
ic	-5.72451
▁w	-5.7353
▁thats	-5.74737
▁re	-5.76129
ll	-5.77881
▁a	-5.79977
ur	-5.80172
ent	-5.80836
ch	-5.82295
▁us	-5.82998
▁see	-5.83477
▁think	-5.85211
▁man	-5.85695
▁okay	-5.86512
ck	-5.88542
es	-5.90448
▁good	-5.94023
▁want	-5.9471
il	-5.95281
▁be	-5.95536
▁gon	-5.96975
el	-5.98055
▁co	-5.98957
▁look	-5.9929
▁r	-6.01016
re	-6.02407
▁ho	-6.02555
ri	-6.03212
▁ma	-6.0473
▁hey	-6.08581
ve	-6.10618
▁st	-6.11361
▁back	-6.11937
▁time	-6.14916
▁say	-6.16905
▁ill	-6.1746
▁take	-6.1877
ro	-6.19466
▁b	-6.19644
ra	-6.19792
▁need	-6.20114
▁yes	-6.20756
▁k	-6.21228
li	-6.22242
st	-6.2263
ke	-6.23426
ter	-6.23555
▁in	-6.23813
▁would	-6.26624
ir	-6.28114
▁cant	-6.2837
▁hes	-6.28863
am	-6.29594
▁tell	-6.30666
ce	-6.30876
us	-6.31256
▁going	-6.31278
ie	-6.31351
la	-6.35709
et	-6.36185
▁hi	-6.36411
▁th	-6.37567
▁bo	-6.3874
▁pa	-6.39401
▁love	-6.39741
▁he	-6.39887
th	-6.40084
z	-6.40812
▁make	-6.42032
ne	-6.42232
id	-6.43036
▁g	-6.43286
ver	-6.4361
▁could	-6.4446
ate	-6.44919
▁te	-6.45768
ation	-6.45915
▁m	-6.46499
▁e	-6.46578
ion	-6.46596
▁sp	-6.46744
▁mean	-6.47232
▁thank	-6.48348
▁something	-6.48779
▁let	-6.49045
▁way	-6.49978
▁really	-6.50615
om	-6.50762
est	-6.50891
▁bu	-6.52837
lo	-6.5294
un	-6.53769
▁never	-6.53957
▁ta	-6.54866
▁sorry	-6.55125
▁tr	-6.55471
ol	-6.55775
▁con	-6.5784
▁mr	-6.58935
▁little	-6.59581
▁to	-6.60076
ry	-6.60347
j	-6.62237
x	-6.63472
▁god	-6.64107
▁lets	-6.64377
▁car	-6.64525
▁didnt	-6.65166
▁ex	-6.66737
▁whats	-6.67153
▁work	-6.67969
ul	-6.68194
▁please	-6.68554
▁give	-6.69047
▁theres	-6.69997
end	-6.70172
▁lo	-6.70687
▁un	-6.71019
▁wait	-6.71318
▁v	-6.71478
▁day	-6.71638
▁di	-6.71876
▁do	-6.71946
▁po	-6.73619
ow	-6.7551
▁ha	-6.77003
▁sh	-6.77424
ant	-6.77503
▁o	-6.77595
ad	-6.77638
▁mo	-6.77729
▁so	-6.77807
and	-6.78411
▁ba	-6.78625
▁call	-6.78825
ast	-6.79396
de	-6.80254
▁help	-6.80409
▁le	-6.809
▁thing	-6.81055
te	-6.81105
▁da	-6.81897
▁ca	-6.82195
ge	-6.8312
▁two	-6.83658
▁even	-6.83678
ig	-6.83746
▁pro	-6.8391
▁me	-6.84042
▁ive	-6.84294
um	-6.8466
▁said	-6.85186
age	-6.8519
▁sc	-6.85311
▁stop	-6.85545
vi	-6.86485
▁new	-6.86764
▁find	-6.87365
ho	-6.88073
▁sir	-6.88501
▁ch	-6.88588
▁al	-6.88727
ect	-6.88829
ment	-6.8905
▁life	-6.89508
▁miss	-6.9031
▁dr	-6.91342
▁br	-6.91475
ive	-6.91587
ist	-6.91778
▁sure	-6.91834
▁people	-6.92019
▁ra	-6.92643
as	-6.93037
▁first	-6.93384
▁kill	-6.93708
ies	-6.9387
▁great	-6.94307
▁n	-6.94525
im	-6.95193
is	-6.96627
▁wh	-6.96726
▁shes	-6.97279
ug	-6.97464
▁night	-6.98007
▁for	-6.98839
ight	-6.99107
▁much	-6.99111
▁ar	-6.99805
▁jo	-6.99931
▁vi	-7.00558
ot	-7.02414
▁home	-7.02621
▁no	-7.02658
▁still	-7.03018
ty	-7.03854
▁maybe	-7.03988
ac	-7.04105
▁keep	-7.04828
▁mi	-7.04963
▁je	-7.05216
▁uh	-7.05405
me	-7.05532
▁put	-7.05636
▁play	-7.05693
▁cr	-7.0587
ine	-7.06971
ach	-7.07012
able	-7.07213
ff	-7.07633
▁mar	-7.07819
▁an	-7.07822
ard	-7.08347
oo	-7.09302
ud	-7.09517
ci	-7.098
▁feel	-7.10126
▁hell	-7.10156
na	-7.11118
▁guys	-7.11227
▁ti	-7.11301
▁li	-7.11353
▁theyre	-7.12187
▁i	-7.12409
▁name	-7.12746
tion	-7.13042
▁last	-7.13494
▁girl	-7.13756
▁pre	-7.13843
▁h	-7.13925
▁la	-7.14056
ld	-7.14438
▁en	-7.14941
▁id	-7.14967
▁nothing	-7.15641
ill	-7.15656
▁talk	-7.16692
▁must	-7.16709
▁thought	-7.16901
▁ask	-7.17667
ag	-7.17971
▁friend	-7.18145
▁long	-7.18599
co	-7.18617
▁ever	-7.19201
ian	-7.19242
▁hand	-7.19289
▁shit	-7.19304
▁wa	-7.20343
ence	-7.20756
▁anything	-7.21113
ure	-7.21527
▁better	-7.21734
▁du	-7.21857
▁dis	-7.23249
▁dad	-7.23299
▁stay	-7.23404
act	-7.25209
▁ga	-7.25488
▁sa	-7.2562
▁fl	-7.25818
▁care	-7.2675
▁ass	-7.26813
ia	-7.27201
▁old	-7.27507
▁move	-7.27686
ance	-7.28061
▁boy	-7.28371
▁show	-7.28405
▁everything	-7.28627
▁years	-7.29141
▁away	-7.29375
▁always	-7.29935
▁start	-7.30102
▁part	-7.30312
ful	-7.30393
▁ja	-7.30505
▁world	-7.31262
▁leave	-7.31486
▁minute	-7.31929
▁ad	-7.32098
▁gr	-7.32198
▁kid	-7.32215
▁gra	-7.32662
▁guy	-7.33054
▁son	-7.33648
▁baby	-7.3375
▁may	-7.33898
mo	-7.33914
▁believe	-7.33965
▁nice	-7.33991
▁kind	-7.34682
▁z	-7.34763
ak	-7.35323
▁plan	-7.35403
ous	-7.35664
em	-7.36461
▁live	-7.36831
▁ne	-7.37261
ta	-7.37336
▁ok	-7.37392
▁big	-7.37726
▁around	-7.3848
▁pr	-7.39142
▁every	-7.39732
▁fine	-7.40319
▁hear	-7.40624
▁made	-7.41888
▁told	-7.4225
▁three	-7.42573
ut	-7.42702
▁dead	-7.42835
▁wan	-7.43141
▁gu	-7.43493
▁wont	-7.43606
▁em	-7.44513
▁bit	-7.44531
▁things	-7.44582
less	-7.44757
ue	-7.45234
▁real	-7.45365
ph	-7.4545
▁remember	-7.45586
▁listen	-7.45848
▁hello	-7.45884
▁end	-7.45916
op	-7.45996
▁hold	-7.46205
▁place	-7.47141
▁coming	-7.48001
ity	-7.48323
▁die	-7.48389
ling	-7.48541
▁turn	-7.48723
ish	-7.49224
▁youll	-7.49249
▁ri	-7.49915
▁youve	-7.50319
▁door	-7.51328
▁qu	-7.51386
▁came	-7.5139
q	-7.51584
▁open	-7.51951
▁left	-7.51968
po	-7.52123
▁doesnt	-7.5222
▁war	-7.52843
man	-7.53314
▁laugh	-7.53324
ical	-7.53691
ash	-7.54056
▁head	-7.54282
▁mom	-7.54414
▁someone	-7.54439
▁wrong	-7.5444
▁done	-7.54606
▁speak	-7.55007
ath	-7.55222
▁house	-7.55316
▁watch	-7.55867
▁meet	-7.5604
▁woman	-7.56143
▁cre	-7.56281
▁understand	-7.56423
ger	-7.56822
▁cha	-7.57235
ise	-7.57343
▁chi	-7.57965
▁thanks	-7.57993
ress	-7.58754
▁bad	-7.5985
▁inter	-7.60811
▁isnt	-7.61111
▁lot	-7.61629
▁pe	-7.61911
▁chris	-7.6213
▁happen	-7.62601
▁bi	-7.62759
▁hu	-7.62884
▁ge	-7.62895
▁might	-7.62926
▁another	-7.63844
▁course	-7.63846
▁sha	-7.64203
▁eye	-7.64508
▁next	-7.64777
▁close	-7.64795
▁sit	-7.66011
ound	-7.66511
gg	-7.66534
▁win	-7.67123
port	-7.67725
▁app	-7.67737
▁money	-7.69885
▁wanted	-7.70505
▁hard	-7.70855
▁pi	-7.71186
▁mind	-7.71262
▁enough	-7.71861
▁talking	-7.72034
▁week	-7.72533
▁try	-7.72715
ize	-7.728
▁getting	-7.72873
▁happened	-7.72889
▁best	-7.7304
▁today	-7.73206
▁ju	-7.74447
ward	-7.74609
▁bar	-7.74616
▁am	-7.74692
▁ah	-7.75342
▁run	-7.76146
▁found	-7.76858
▁actually	-7.77705
▁ready	-7.77738
▁el	-7.77976
▁power	-7.78084
ca	-7.7836
▁jay	-7.78369
ated	-7.78387
▁fire	-7.78396
▁second	-7.78415
▁sea	-7.79072
▁father	-7.79138
▁room	-7.79149
▁van	-7.79517
▁else	-7.79624
▁late	-7.80099
▁job	-7.80447
▁huh	-7.81163
▁morning	-7.8131
▁walk	-7.81334
▁bring	-7.821
▁met	-7.82429
▁guess	-7.82446
lin	-7.82699
▁men	-7.82714
▁light	-7.82932
▁wasnt	-7.83164
bb	-7.83263
▁whos	-7.83667
▁trying	-7.83938
▁idea	-7.84102
▁looking	-7.84477
▁comp	-7.85123
▁check	-7.85447
▁ik	-7.85693
▁um	-7.85814
▁mother	-7.85818
▁word	-7.86261
▁four	-7.86617
▁knew	-7.86976
▁sign	-7.87007
▁excuse	-7.88143
▁count	-7.88183
▁stand	-7.88498
▁saw	-7.88742
▁break	-7.88937
▁hope	-7.89329
▁dat	-7.90144
▁damn	-7.90562
▁year	-7.90784
▁family	-7.90932
▁tonight	-7.90937
▁far	-7.90966
nder	-7.91336
▁person	-7.91339
▁face	-7.93479
▁op	-7.93614
▁school	-7.94636
▁took	-7.95085
▁lost	-7.95271
▁weve	-7.95527
▁read	-7.95765
▁five	-7.96087
▁together	-7.96327
▁breath	-7.96332
▁question	-7.96755
▁honey	-7.96773
▁whoa	-7.96786
▁aint	-7.97729
▁already	-7.98048
▁change	-7.98492
▁clear	-7.98516
▁shut	-7.98745
▁everybody	-7.98919
▁whole	-7.98945
▁pay	-7.98974
▁save	-7.99245
▁set	-7.99384
▁game	-7.99652
▁problem	-7.99798
▁matter	-8.00274
▁rest	-8.00659
▁john	-8.00704
ition	-8.01001
▁called	-8.01321
▁wouldnt	-8.02183
▁tomorrow	-8.02483
▁without	-8.02938
▁phone	-8.02941
▁cause	-8.03001
▁ago	-8.03029
▁jack	-8.03066
▁happy	-8.03395
▁high	-8.03519
ness	-8.03646
▁dog	-8.03677
▁yet	-8.03934
▁ab	-8.04051
▁music	-8.04343
▁heard	-8.04959
▁chuckles	-8.05242
▁free	-8.05314
▁cut	-8.05464
▁heart	-8.05677
▁daisy	-8.05715
▁pretty	-8.05715
▁alone	-8.05755
▁vo	-8.05886
▁seem	-8.06052
▁beautiful	-8.0665
▁sound	-8.0795
▁they	-8.0798
ious	-8.08068
ook	-8.08077
▁star	-8.08209
▁ya	-8.08628
▁drive	-8.0903
▁wonder	-8.09046
▁fun	-8.09118
▁somebody	-8.09528
▁eat	-8.09905
▁captain	-8.10506
▁air	-8.10554
out	-8.10561
▁fight	-8.10571
▁tw	-8.10794
▁yo	-8.11822
▁drink	-8.12001
▁act	-8.12183
▁black	-8.12211
▁inside	-8.12996
▁ship	-8.13114
equ	-8.13144
▁bra	-8.13282
▁pick	-8.13487
▁sleep	-8.13503
▁ob	-8.1393
▁doctor	-8.1503
▁dream	-8.15045
▁luck	-8.15058
▁safe	-8.15181
▁water	-8.15693
▁office	-8.15714
▁tu	-8.15792
▁ow	-8.16086
▁couldnt	-8.16223
▁stu	-8.16282
▁follow	-8.17108
▁trust	-8.17138
▁point	-8.17163
▁side	-8.17291
▁number	-8.18163
▁mil	-8.18385
▁train	-8.18731
▁since	-8.19271
▁true	-8.19626
▁everyone	-8.19804
▁anyone	-8.20308
▁order	-8.20855
▁blood	-8.21947
▁month	-8.21963
▁stuff	-8.22046
▁welcome	-8.225
▁brother	-8.225
▁whatever	-8.22501
▁wife	-8.22501
▁pass	-8.22512
▁probably	-8.23055
▁mine	-8.2336
▁mu	-8.23401
▁hurt	-8.23661
▁child	-8.23788
▁nobody	-8.24176
▁crazy	-8.24176
▁promise	-8.24179
▁shall	-8.24213
▁een	-8.24635
▁ear	-8.25258
▁serious	-8.2532
▁har	-8.25595
▁worry	-8.25891
▁supposed	-8.26258
▁youd	-8.26563
▁havent	-8.27038
▁chance	-8.27331
▁grow	-8.27355
▁sweet	-8.27615
▁hang	-8.28251
▁line	-8.28547
▁arm	-8.28705
▁wheres	-8.28804
▁wish	-8.28927
▁story	-8.29461
▁out	-8.29725
▁law	-8.3037
▁protect	-8.30582
▁zo	-8.31036
▁drop	-8.31083
▁sighs	-8.31783
▁book	-8.32076
▁city	-8.32911
▁death	-8.33238
▁bye	-8.33264
▁half	-8.33642
▁white	-8.33666
▁exactly	-8.34245
▁human	-8.34985
▁young	-8.355
▁gave	-8.35581
▁grand	-8.35886
▁wow	-8.35894
▁anyway	-8.36131
▁ball	-8.36638
▁business	-8.36767
▁frank	-8.36768
▁shot	-8.37373
▁police	-8.37411
▁children	-8.37416
▁trouble	-8.38053
▁lead	-8.38097
▁sub	-8.38223
▁later	-8.38433
▁bla	-8.3891
▁forget	-8.39371
▁town	-8.39396
▁wear	-8.39519
▁six	-8.40056
▁guard	-8.4026
▁cool	-8.40371
▁pull	-8.40734
▁reason	-8.41354
▁foot	-8.41406
pped	-8.41826
▁lose	-8.41934
▁perfect	-8.42014
▁moment	-8.43316
▁answer	-8.43371
▁touch	-8.43384
▁taking	-8.4342
▁afraid	-8.44055
▁continue	-8.44055
▁wood	-8.44073
▁quite	-8.44079
▁hate	-8.44486
▁favor	-8.44745
way	-8.45368
▁russian	-8.45439
▁earth	-8.45663
▁secret	-8.46843
▁alive	-8.47375
▁dark	-8.47573
▁clean	-8.47591
▁jesus	-8.47598
▁different	-8.48266
▁easy	-8.48283
▁lord	-8.4847
▁attack	-8.48986
▁off	-8.49264
▁mij	-8.49559
▁step	-8.49673
▁almost	-8.49711
▁finish	-8.49719
▁fall	-8.49965
▁full	-8.50071
▁trans	-8.50565
▁though	-8.50736
▁hmm	-8.51943
▁green	-8.51962
▁broke	-8.53432
▁fair	-8.53469
▁sometimes	-8.54172
▁president	-8.54172
▁anymore	-8.55704
▁husband	-8.55705
▁behind	-8.55705
▁learn	-8.5575
▁ski	-8.56415
▁control	-8.56481
▁funny	-8.56509
▁lady	-8.56585
▁key	-8.56923
▁america	-8.57262
▁blow	-8.57275
▁living	-8.57287
▁ride	-8.57292
ball	-8.57353
▁shoot	-8.58081
▁figure	-8.58847
▁catch	-8.58903
▁return	-8.59644
▁voice	-8.60473
▁also	-8.60669
▁truth	-8.61274
▁sick	-8.61442
▁grunts	-8.62082
▁outside	-8.62083
ship	-8.62856
▁dance	-8.62984
▁strong	-8.63742
▁street	-8.63749
▁robert	-8.63771
▁running	-8.63796
▁church	-8.64587
▁queen	-8.6461
▁case	-8.64632
▁rock	-8.64642
▁married	-8.65444
▁throw	-8.65448
▁butt	-8.6554
▁body	-8.65594
▁fell	-8.6587
time	-8.66006
▁anybody	-8.66283
▁ahead	-8.66291
▁cheer	-8.66436
▁entire	-8.67147
▁burn	-8.67296
▁system	-8.68015
▁stupid	-8.68018
▁ros	-8.68253
▁million	-8.68899
▁command	-8.69777
▁either	-8.69778
▁cell	-8.70049
▁destroy	-8.7067
▁niet	-8.70705
▁sister	-8.70742
▁daughter	-8.71571
▁super	-8.71576
▁suit	-8.7172
▁heres	-8.7175
▁important	-8.72482
▁quick	-8.72493
▁chatter	-8.72499
▁road	-8.7251
▁picture	-8.73398
▁expect	-8.73406
▁class	-8.73411
▁gentlemen	-8.74323
▁weapon	-8.74323
▁bella	-8.74414
▁master	-8.74534
▁write	-8.74642
▁leaving	-8.75258
▁small	-8.75261
▁blue	-8.75263
▁seven	-8.75265
▁kiss	-8.75346
▁perhaps	-8.76201
▁island	-8.76202
▁choice	-8.76202
▁strange	-8.76204
▁fool	-8.76259
▁robot	-8.76287
▁dress	-8.76365
▁rule	-8.76551
▁mistake	-8.77154
▁david	-8.77168
▁worth	-8.77175
▁trip	-8.77374
▁indistinct	-8.78115
▁push	-8.78139
▁sex	-8.78284
▁fear	-8.78487
▁couple	-8.79087
▁murder	-8.79087
▁parents	-8.79089
▁food	-8.79125
▁direct	-8.80075
▁complete	-8.81061
▁goddamn	-8.82057
▁front	-8.82061
▁hurry	-8.82063
▁gasps	-8.82071
▁horse	-8.82091
▁under	-8.822
▁english	-8.83067
▁finally	-8.83067
▁ladies	-8.83078
▁park	-8.83163
▁shell	-8.83169
▁special	-8.84087
▁history	-8.84087
▁fix	-8.84126
▁future	-8.8512
▁york	-8.86169
▁honor	-8.86315
▁possible	-8.87212
▁radio	-8.87213
▁goodbye	-8.87216
▁smart	-8.87221
▁slow	-8.87289
▁tried	-8.87346
▁security	-8.88276
▁bernie	-8.88278
▁become	-8.88278
▁women	-8.88291
▁agree	-8.88291
▁ooh	-8.88344
▁paper	-8.88423
▁short	-8.88438
▁gift	-8.89352
▁space	-8.89402
▁kick	-8.89411
▁grunting	-8.90439
▁groans	-8.9044
▁respect	-8.9044
▁spanish	-8.90441
▁moving	-8.90487
▁certain	-8.91538
▁engine	-8.91542
▁peace	-8.91554
▁temp	-8.91652
▁brought	-8.92649
▁somewhere	-8.92649
▁surprise	-8.92649
▁whisper	-8.92649
▁machine	-8.92656
▁yell	-8.92659
▁mmm	-8.92722
▁kidding	-8.92756
▁launch	-8.93775
▁henry	-8.93802
▁relax	-8.94914
▁itll	-8.95027
▁general	-8.96059
▁cross	-8.96089
▁james	-8.96097
▁susan	-8.9611
▁wild	-8.96193
▁rob	-8.97037
▁explain	-8.97221
▁screams	-8.97221
▁knock	-8.97221
▁coffee	-8.97222
▁record	-8.97222
▁imagine	-8.97229
▁company	-8.97235
▁forever	-8.97249
▁weird	-8.98399
▁dinner	-8.98399
▁floor	-8.9846
▁alien	-8.98468
▁accident	-8.99588
▁shouldnt	-8.99588
▁charles	-8.9959
▁rather	-8.99615
▁panting	-8.99648
▁sense	-8.99652
▁professor	-9.00792
▁enjoy	-9.00793
▁bilbo	-9.00793
▁animal	-9.00797
▁decide	-9.0083
▁gandalf	-9.02012
▁apart	-9.02015
▁glad	-9.02055
▁prince	-9.03254
▁absolutely	-9.04496
▁travel	-9.04497
▁surviv	-9.04499
▁window	-9.04503
▁bank	-9.04587
▁terrible	-9.05762
▁others	-9.05763
▁club	-9.05763
▁buddy	-9.05765
▁jim	-9.05773
▁south	-9.0579
▁movie	-9.05822
▁birthday	-9.07044
▁hundred	-9.07044
▁amazing	-9.07045
▁screaming	-9.07045
▁except	-9.07046
▁crowd	-9.07057
▁across	-9.08343
▁service	-9.08343
▁middle	-9.08344
▁charge	-9.0836
▁mouth	-9.08362
▁piece	-9.08374
▁caleb	-9.08377
▁nick	-9.0838
▁michael	-9.10992
▁richard	-9.10994
▁swear	-9.10996
▁straight	-9.10997
▁hazel	-9.10997
▁prison	-9.10998
▁information	-9.12344
▁mountain	-9.12344
▁soldier	-9.12344
▁thousand	-9.12345
▁battle	-9.12346
▁stephen	-9.12347
▁allow	-9.12367
▁truck	-9.12372
▁hospital	-9.13713
▁accept	-9.15102
▁anywhere	-9.15102
▁produce	-9.15103
▁george	-9.15106
▁freak	-9.15111
▁fault	-9.16512
▁college	-9.1794
▁giving	-9.1794
▁consider	-9.17941
▁fantasy	-9.19389
▁tough	-9.19395
▁suggest	-9.20859
▁worried	-9.2086
▁summer	-9.2086
▁north	-9.20883
ified	-9.209
▁screech	-9.22352
▁block	-9.22361
▁language	-9.23867
▁pleasure	-9.23867
▁alright	-9.23875
▁glass	-9.23875
▁impossible	-9.25405
▁zijn	-9.25405
▁definitely	-9.26968
▁greville	-9.26968
▁christmas	-9.26968
