<unk>	0
<s>	0
</s>	0
s	-4.21415
▁dont	-4.53113
▁im	-4.56416
▁know	-4.59422
▁get	-4.78299
▁well	-4.79882
▁go	-4.84931
▁right	-4.93542
▁come	-4.94548
▁like	-4.95413
▁oh	-4.97571
▁got	-5.07124
▁one	-5.08221
▁youre	-5.09799
▁thats	-5.17369
▁yeah	-5.19203
▁good	-5.23538
▁see	-5.26123
▁think	-5.34787
▁want	-5.38581
▁na	-5.40518
▁yes	-5.44044
ing	-5.44808
▁okay	-5.48734
▁ill	-5.52393
▁going	-5.53705
▁back	-5.54888
▁look	-5.54976
▁time	-5.58873
▁	-5.60233
▁hey	-5.61114
▁us	-5.61235
▁gon	-5.62912
▁take	-5.6417
▁would	-5.66053
▁man	-5.66621
▁hes	-5.69233
▁cant	-5.72027
▁way	-5.84355
▁tell	-5.85077
▁could	-5.85882
▁little	-5.88113
▁mr	-5.89121
▁say	-5.90716
ed	-5.91033
▁never	-5.92998
▁lets	-5.93662
▁something	-5.95209
▁really	-5.96603
▁whats	-5.97736
▁need	-5.99907
▁didnt	-5.99944
▁thank	-6.03037
▁let	-6.04038
▁mean	-6.04274
▁make	-6.04575
▁love	-6.06273
▁music	-6.09944
▁ive	-6.10723
▁give	-6.1348
▁please	-6.13814
▁sir	-6.13849
▁two	-6.1458
▁said	-6.18144
▁sorry	-6.1931
▁theres	-6.19329
▁people	-6.20754
▁sure	-6.23727
▁l	-6.24238
▁help	-6.25318
▁much	-6.27168
▁thing	-6.30001
▁uh	-6.31358
▁wait	-6.3276
▁even	-6.37719
d	-6.40389
▁life	-6.41376
▁maybe	-6.41871
▁day	-6.42101
▁better	-6.42526
▁first	-6.43848
▁nothing	-6.46552
▁must	-6.4705
▁keep	-6.49135
y	-6.50016
▁great	-6.51345
▁shes	-6.52211
▁boy	-6.52409
▁ever	-6.52942
▁anything	-6.53088
▁away	-6.53092
▁god	-6.53434
▁call	-6.54896
▁new	-6.55214
▁work	-6.55895
▁find	-6.57156
▁home	-6.58837
▁always	-6.5911
▁theyre	-6.59113
▁night	-6.59294
▁stop	-6.60303
▁long	-6.6196
▁guys	-6.63569
▁talk	-6.63935
▁still	-6.64288
▁around	-6.65107
▁thought	-6.65597
▁old	-6.66273
▁everything	-6.6635
▁put	-6.68082
▁youve	-6.68673
▁made	-6.69124
▁y	-6.6935
▁id	-6.69788
▁dad	-6.69879
▁believe	-6.7116
▁world	-6.71889
▁money	-6.72145
▁last	-6.7416
ly	-6.74525
▁wont	-6.75061
▁things	-6.75906
▁big	-6.75967
▁father	-6.76178
▁youll	-6.76435
▁told	-6.76666
▁hell	-6.76887
▁fine	-6.77738
u	-6.79567
▁name	-6.8009
▁feel	-6.81992
▁years	-6.82523
▁nice	-6.84182
▁course	-6.86625
▁place	-6.86864
▁coming	-6.87416
▁three	-6.88172
▁hello	-6.88207
▁hear	-6.88382
▁remember	-6.88679
▁isnt	-6.88951
▁may	-6.90093
▁hold	-6.90378
▁lot	-6.90481
▁hi	-6.90885
▁doesnt	-6.91065
▁enough	-6.916
▁stay	-6.92228
▁every	-6.92347
▁leave	-6.9265
▁try	-6.93326
▁done	-6.94602
▁morning	-6.95712
▁mom	-6.9572
▁might	-6.96121
▁care	-6.96344
▁huh	-6.96836
▁girl	-6.97424
▁mind	-6.97753
▁listen	-6.97848
▁wrong	-6.98835
▁kind	-7.01103
▁wanted	-7.01639
e	-7.02037
▁left	-7.02063
▁car	-7.02425
▁bad	-7.02882
▁weve	-7.03262
▁getting	-7.04561
▁thanks	-7.04985
▁baby	-7.05906
▁best	-7.06901
▁another	-7.07262
▁matter	-7.07764
▁mother	-7.08072
▁show	-7.08421
▁play	-7.09275
▁ta	-7.09873
▁ready	-7.10218
▁wan	-7.10362
▁hope	-7.10537
▁son	-7.11044
▁understand	-7.11319
▁next	-7.11429
▁came	-7.11708
▁house	-7.12382
▁today	-7.12416
▁else	-7.13415
er	-7.14702
▁move	-7.1557
▁ah	-7.16133
▁door	-7.16801
▁real	-7.1693
▁friend	-7.18425
▁together	-7.21042
▁seen	-7.21273
▁kids	-7.21308
▁talking	-7.21428
▁run	-7.22018
▁live	-7.22027
▁found	-7.22464
▁ask	-7.22954
▁without	-7.23597
▁happened	-7.23735
▁trying	-7.2417
▁idea	-7.24297
▁many	-7.25056
▁beautiful	-7.26476
▁havent	-7.26599
▁went	-7.27364
▁head	-7.27846
▁wouldnt	-7.2818
▁family	-7.28522
▁woman	-7.28914
▁men	-7.28934
▁boys	-7.30052
▁jack	-7.30542
▁start	-7.30796
▁wasnt	-7.30879
▁aint	-7.30881
▁happy	-7.31279
▁mrs	-7.31488
▁excuse	-7.31896
▁miss	-7.32092
▁use	-7.32229
▁says	-7.3268
▁guy	-7.32699
▁bring	-7.33132
▁tonight	-7.33294
▁knew	-7.33294
▁whole	-7.33296
▁town	-7.35628
▁saw	-7.35772
▁yet	-7.3578
▁true	-7.3579
▁looking	-7.35838
▁four	-7.36081
▁hand	-7.36356
▁um	-7.36617
▁friends	-7.37033
▁ok	-7.37039
▁wish	-7.37554
▁turn	-7.38532
▁everybody	-7.38617
▁minute	-7.39057
▁school	-7.39942
▁guess	-7.40182
▁end	-7.40735
▁young	-7.40828
▁job	-7.40829
▁tomorrow	-7.40909
▁dead	-7.41232
▁forget	-7.41781
▁hard	-7.42023
▁ha	-7.42489
▁whoa	-7.4265
▁kill	-7.42787
▁pretty	-7.43132
▁actually	-7.43138
▁someone	-7.43527
▁heard	-7.4387
▁alone	-7.44036
▁lost	-7.44492
▁water	-7.44504
▁sit	-7.44738
▁far	-7.45404
▁dear	-7.45841
▁meet	-7.45851
▁playing	-7.46474
▁gone	-7.46494
▁bit	-7.46704
▁couldnt	-7.46839
▁watch	-7.46973
▁cause	-7.47091
▁horse	-7.47244
▁easy	-7.4726
▁laughing	-7.4737
▁days	-7.48005
▁whos	-7.48999
▁pay	-7.49206
▁already	-7.4963
▁used	-7.50142
▁war	-7.50456
▁youd	-7.51098
▁worry	-7.51129
▁looks	-7.51224
▁girls	-7.52522
▁somebody	-7.52621
▁eat	-7.53185
▁em	-7.53354
▁since	-7.53532
▁dog	-7.53627
▁ago	-7.54043
▁lady	-7.54556
▁damn	-7.54768
▁mine	-7.55641
▁open	-7.56007
▁part	-7.56704
▁kid	-7.5673
▁wife	-7.57616
▁everyone	-7.57632
▁called	-7.57853
▁took	-7.58135
▁room	-7.5831
▁business	-7.58652
▁shall	-7.58656
▁fight	-7.59148
▁read	-7.60151
ve	-7.6027
▁president	-7.60434
▁group	-7.61318
▁second	-7.61524
▁year	-7.61587
▁least	-7.61861
▁side	-7.62088
▁soon	-7.62328
▁change	-7.63011
▁daddy	-7.63509
▁problem	-7.63699
▁moment	-7.63738
▁brother	-7.63747
▁laughs	-7.63932
▁late	-7.64461
▁word	-7.64476
▁wants	-7.64495
▁eyes	-7.64739
▁honey	-7.65165
▁later	-7.6521
▁die	-7.65307
▁saying	-7.65332
▁fire	-7.65833
▁team	-7.66584
▁crazy	-7.66863
▁exactly	-7.66867
▁comes	-7.67169
▁free	-7.673
▁rest	-7.67517
▁captain	-7.68007
▁important	-7.68584
▁heart	-7.6915
▁face	-7.69195
▁party	-7.69335
▁probably	-7.6975
▁number	-7.70099
▁nobody	-7.70101
▁hurt	-7.70251
▁five	-7.70288
▁country	-7.70689
▁wheres	-7.71278
▁chance	-7.71301
▁phone	-7.7131
▁anyway	-7.71887
▁stuff	-7.72126
▁win	-7.7213
▁stand	-7.72706
▁white	-7.73333
▁sighs	-7.73433
▁screaming	-7.74608
▁minutes	-7.74719
▁whatever	-7.75175
▁quite	-7.75215
▁un	-7.75621
▁makes	-7.76056
▁also	-7.76421
▁point	-7.7647
▁wow	-7.77052
▁close	-7.77145
▁week	-7.77398
▁walk	-7.77511
▁ball	-7.77566
▁children	-7.77682
▁taking	-7.77687
▁cut	-7.77721
l	-7.77788
▁anyone	-7.78959
es	-7.79449
▁doctor	-7.79478
▁save	-7.79723
▁fun	-7.79968
▁anybody	-7.80103
▁high	-7.80129
▁hit	-7.80827
▁check	-7.80855
▁arent	-7.80909
▁drink	-7.80995
▁break	-7.80997
▁afraid	-7.81565
▁working	-7.81739
▁ahead	-7.82896
▁welcome	-7.83366
▁along	-7.83567
▁six	-7.83583
▁story	-7.84242
▁married	-7.84261
▁sleep	-7.84264
▁book	-7.84692
▁luck	-7.84773
▁line	-7.84801
▁set	-7.84816
▁times	-7.84842
▁ya	-7.84876
▁heh	-7.84923
▁gun	-7.8626
▁anymore	-7.86296
▁gentlemen	-7.86297
▁hands	-7.8654
▁killed	-7.86709
▁full	-7.86869
▁supposed	-7.86942
▁hmm	-7.86994
▁goes	-7.87219
▁send	-7.87258
▁clear	-7.87459
▁dave	-7.87528
▁ladies	-7.87691
▁mama	-7.87703
▁half	-7.8823
▁nick	-7.88235
r	-7.88338
▁brought	-7.88394
▁though	-7.88442
▁behind	-7.89103
▁either	-7.89103
▁happen	-7.89104
▁different	-7.89664
▁chuckles	-7.89895
▁gave	-7.9054
▁bet	-7.90582
▁thinking	-7.90899
▁dr	-7.91234
▁asked	-7.92523
▁trouble	-7.9259
▁hate	-7.92639
▁light	-7.92722
▁alright	-7.92729
▁dinner	-7.9275
▁bye	-7.93474
▁dan	-7.94137
▁making	-7.94221
▁seems	-7.94349
▁speak	-7.9452
▁shut	-7.94962
▁almost	-7.94965
▁running	-7.95017
▁game	-7.95074
▁deal	-7.95276
▁ooh	-7.95649
▁hurry	-7.95725
▁buy	-7.96033
▁cal	-7.96111
▁speaking	-7.96153
▁worth	-7.96329
▁child	-7.96485
▁cool	-7.96489
▁red	-7.96933
▁andrew	-7.97256
▁perfect	-7.97895
▁truth	-7.98026
▁fact	-7.98136
▁shot	-7.98175
▁lose	-7.98784
▁itll	-7.98813
▁scared	-7.98865
▁lm	-7.98877
▁case	-7.99598
▁news	-8.00001
al	-8.00232
▁waiting	-8.0026
▁george	-8.00393
t	-8.00486
▁ow	-8.01464
▁means	-8.01526
▁king	-8.01568
▁dream	-8.01947
▁follow	-8.02115
▁wonderful	-8.02672
▁pick	-8.0279
▁applause	-8.02812
▁theyll	-8.02829
▁heres	-8.02855
▁france	-8.02995
▁th	-8.03559
▁special	-8.0362
o	-8.0432
n	-8.04793
▁police	-8.05269
▁hot	-8.05292
▁la	-8.05965
▁john	-8.05969
▁air	-8.05994
▁sam	-8.06942
▁inside	-8.06981
▁become	-8.07255
▁funny	-8.07838
▁fault	-8.08702
▁sister	-8.09012
▁met	-8.09165
▁dark	-8.09491
▁alive	-8.09576
▁glad	-8.09595
▁sometimes	-8.09836
▁food	-8.09842
▁able	-8.09846
▁started	-8.10158
▁sort	-8.10469
▁death	-8.10733
▁professor	-8.11328
▁sing	-8.11572
▁human	-8.11686
▁train	-8.11758
▁shoot	-8.12019
▁careful	-8.12163
▁goodbye	-8.12228
▁city	-8.12231
▁power	-8.12668
▁land	-8.12868
▁couple	-8.13122
▁lucy	-8.13126
▁sergeant	-8.14031
▁tried	-8.14048
▁reason	-8.14415
▁safe	-8.14797
▁perhaps	-8.14949
▁aah	-8.14955
▁cheering	-8.15018
▁feeling	-8.15102
▁bed	-8.15606
▁black	-8.15802
▁wed	-8.15833
▁shouldnt	-8.15877
▁touch	-8.15901
▁al	-8.16079
ur	-8.16288
▁lives	-8.16685
▁months	-8.16765
▁leaving	-8.16809
▁poor	-8.16812
▁sarah	-8.16818
▁promise	-8.17078
▁sign	-8.17463
▁sound	-8.17486
▁needs	-8.17679
▁billy	-8.17903
▁office	-8.18099
▁died	-8.18105
▁sounds	-8.1822
▁wind	-8.18311
▁bob	-8.18504
▁hang	-8.18702
▁ringing	-8.18872
▁lord	-8.1912
▁papa	-8.19296
▁gold	-8.19394
▁stupid	-8.19514
▁s	-8.19818
▁hour	-8.20216
▁mad	-8.20567
on	-8.20582
▁write	-8.21045
▁hours	-8.21081
in	-8.21123
▁bell	-8.2127
▁living	-8.21624
▁law	-8.21713
▁knows	-8.223
▁de	-8.22318
▁outside	-8.22549
▁straight	-8.22593
▁front	-8.22612
▁person	-8.23131
▁telling	-8.23153
▁pull	-8.23388
▁answer	-8.23898
a	-8.24107
▁blue	-8.24174
▁trust	-8.24317
▁fast	-8.24497
▁french	-8.2459
est	-8.24729
▁wake	-8.24991
▁hair	-8.24996
▁sweet	-8.25189
i	-8.25193
▁giant	-8.25237
▁blood	-8.25495
▁till	-8.25635
▁dramatic	-8.25639
▁grunting	-8.25649
▁princess	-8.25691
▁lead	-8.25696
▁hows	-8.25705
▁rock	-8.25711
▁question	-8.25818
▁plan	-8.25858
▁beat	-8.2586
▁order	-8.25881
▁body	-8.26674
▁chattering	-8.26817
▁bill	-8.27048
▁others	-8.27734
▁sun	-8.28122
▁husband	-8.28386
▁certain	-8.28646
▁quick	-8.28647
ers	-8.28677
▁small	-8.28682
▁top	-8.28787
▁parents	-8.28862
▁david	-8.28991
▁fall	-8.28998
▁catch	-8.29005
▁uncle	-8.29309
▁coach	-8.29339
▁voice	-8.29437
▁club	-8.29454
▁past	-8.29779
▁wonder	-8.30173
▁woods	-8.30404
▁drop	-8.30507
▁throw	-8.30532
▁secret	-8.3082
▁seven	-8.30908
▁cold	-8.30918
▁strong	-8.31754
▁earth	-8.31864
▁bear	-8.31909
▁henry	-8.3199
▁learn	-8.32386
▁slow	-8.32397
▁master	-8.32687
▁quiet	-8.32969
▁ride	-8.33821
▁drive	-8.34441
ic	-8.3497
▁evening	-8.34985
▁continues	-8.35082
▁road	-8.35117
▁proud	-8.35184
▁maddy	-8.35328
▁g	-8.35352
▁re	-8.35488
▁class	-8.35925
▁join	-8.35991
▁eye	-8.36206
▁lts	-8.36293
▁handle	-8.36312
▁possible	-8.36459
▁rather	-8.3646
▁darling	-8.36461
▁moving	-8.36472
▁women	-8.37298
▁street	-8.3734
▁american	-8.37366
▁suppose	-8.37449
▁hed	-8.37743
nous	-8.37756
▁step	-8.37835
▁ones	-8.37865
▁lie	-8.38312
▁middle	-8.38696
able	-8.38728
▁whoo	-8.38743
▁feet	-8.38777
▁roll	-8.39139
▁ahh	-8.39411
▁radio	-8.39612
▁worked	-8.40443
▁taken	-8.40466
▁crowd	-8.40558
▁fair	-8.40844
▁choice	-8.4086
▁million	-8.40907
▁they	-8.41229
▁omi	-8.4165
▁sense	-8.41897
▁short	-8.41995
▁peter	-8.42144
▁horses	-8.42356
▁gets	-8.42574
▁m	-8.42587
▁weeks	-8.42628
▁known	-8.42646
▁c	-8.4303
▁birds	-8.43233
▁ten	-8.4337
▁fear	-8.4346
▁samurai	-8.43563
▁absolutely	-8.43575
▁finish	-8.44062
▁words	-8.44216
▁serious	-8.4468
▁somewhere	-8.44797
▁forever	-8.44798
▁star	-8.44866
▁longer	-8.45282
▁seem	-8.45282
▁dance	-8.45536
▁entire	-8.45928
▁paris	-8.46025
▁happens	-8.46025
▁wedding	-8.46071
▁ice	-8.46095
▁engine	-8.46159
▁p	-8.46492
▁stick	-8.46516
▁singing	-8.46649
▁york	-8.47282
▁future	-8.47313
▁felt	-8.47325
▁born	-8.47381
▁changed	-8.47702
▁expect	-8.47894
▁sick	-8.48206
▁control	-8.48409
▁boat	-8.4847
▁werent	-8.48595
▁hallie	-8.48608
▁finally	-8.48663
▁j	-8.48817
▁given	-8.48939
▁champ	-8.48967
man	-8.49449
▁piece	-8.49802
▁maam	-8.49895
▁x	-8.49981
▁lucky	-8.50191
▁present	-8.50652
▁turned	-8.50728
▁figure	-8.50921
▁language	-8.5097
▁ed	-8.51106
▁shell	-8.51221
▁grunts	-8.51258
▁yelling	-8.51313
▁miles	-8.51622
▁fix	-8.51766
▁bank	-8.51856
▁sell	-8.52093
▁pa	-8.52308
▁realize	-8.52386
▁village	-8.52407
▁picture	-8.5246
▁sent	-8.52555
▁tough	-8.52559
▁none	-8.52561
▁shit	-8.52593
▁less	-8.52792
▁lunch	-8.53683
▁chief	-8.53718
▁quit	-8.53792
▁english	-8.53875
▁field	-8.5388
▁amazing	-8.53895
▁worse	-8.53895
▁across	-8.53895
▁unless	-8.53923
▁early	-8.53953
▁flowers	-8.54201
▁spend	-8.54831
▁annie	-8.5508
h	-8.55156
▁maria	-8.55263
▁murray	-8.55265
▁coffee	-8.55265
▁lonely	-8.5527
▁aron	-8.55272
▁certainly	-8.55417
▁record	-8.55574
▁return	-8.55866
ful	-8.55884
▁loved	-8.55898
▁carry	-8.56253
▁bo	-8.56256
▁meeting	-8.56385
▁near	-8.56536
▁mountain	-8.56621
▁daughter	-8.56627
▁summer	-8.56647
▁rain	-8.56658
▁dex	-8.56687
▁eh	-8.56691
▁finished	-8.5696
▁hero	-8.57995
▁kiss	-8.58027
▁eight	-8.58042
▁invincible	-8.58062
▁giving	-8.58062
▁lovely	-8.58089
▁busy	-8.58134
ie	-8.58911
▁band	-8.59207
▁america	-8.59423
▁round	-8.59449
▁company	-8.5949
▁buddy	-8.59491
▁botat	-8.59492
▁wild	-8.59514
▁decided	-8.59574
▁state	-8.59579
▁b	-8.59667
▁a	-8.60004
▁shh	-8.60009
▁wear	-8.6031
▁wine	-8.60646
▁brand	-8.60779
▁strange	-8.60895
▁brazil	-8.60929
▁martin	-8.6093
▁jesus	-8.60943
▁glass	-8.60947
▁i	-8.60964
▁mary	-8.60975
▁song	-8.61021
▁calm	-8.61634
▁happening	-8.61812
ies	-8.61985
▁general	-8.62362
▁race	-8.62406
▁kate	-8.62423
▁chirping	-8.62426
▁shouting	-8.62445
▁completely	-8.62474
▁date	-8.62484
▁month	-8.62491
▁plane	-8.625
▁push	-8.62999
▁tea	-8.6304
▁in	-8.63223
ure	-8.63487
▁pal	-8.63718
▁imagine	-8.63728
▁christmas	-8.63903
▁government	-8.63903
▁kept	-8.63903
▁tired	-8.63907
▁saved	-8.64299
▁hearts	-8.64565
▁pass	-8.64636
▁dress	-8.6469
▁fly	-8.65095
▁mess	-8.65105
▁majesty	-8.65418
▁pleasure	-8.65418
▁charlie	-8.65419
▁harry	-8.65419
▁pete	-8.65451
▁cat	-8.65499
▁louise	-8.65501
▁suit	-8.6557
ion	-8.65832
▁meant	-8.65901
▁shoes	-8.65937
▁count	-8.66053
▁teach	-8.66376
▁missed	-8.6644
▁deep	-8.66609
▁played	-8.66698
▁forgive	-8.66906
▁afternoon	-8.66956
▁attention	-8.66956
▁quixote	-8.66956
▁yesterday	-8.66956
▁max	-8.66956
▁birthday	-8.66957
▁floor	-8.66976
▁totally	-8.67001
▁army	-8.67018
▁thousand	-8.67084
▁crying	-8.67218
▁ii	-8.67265
▁trip	-8.67272
▁camp	-8.67938
▁marry	-8.68079
▁dreams	-8.68121
▁explain	-8.68339
▁except	-8.68481
▁terrible	-8.68519
▁kidding	-8.68524
▁west	-8.68567
▁fool	-8.68624
▁simple	-8.68767
▁works	-8.6918
▁needed	-8.69277
▁looked	-8.69909
▁forgot	-8.70104
▁midnight	-8.70106
▁ought	-8.70118
▁mister	-8.70119
▁evil	-8.70128
▁paid	-8.70131
▁sky	-8.70135
▁price	-8.70138
▁cow	-8.70206
▁gasps	-8.70257
ous	-8.70466
▁court	-8.70814
▁act	-8.71082
▁fighting	-8.71409
▁joe	-8.71542
▁frank	-8.71594
▁indistinct	-8.716
▁public	-8.71711
▁impossible	-8.71719
▁kevin	-8.71719
▁tommy	-8.7172
▁marshal	-8.71722
▁hungry	-8.71722
▁surprise	-8.71725
▁upon	-8.71733
▁groans	-8.71802
▁takes	-8.71838
▁tree	-8.71936
▁promised	-8.72007
▁calling	-8.72176
▁pop	-8.72421
▁clean	-8.72582
▁cross	-8.73035
▁mum	-8.73101
▁blow	-8.73217
▁low	-8.73237
▁south	-8.73358
▁caught	-8.73358
▁jay	-8.73398
▁service	-8.73534
▁wall	-8.73548
▁begin	-8.73559
▁anne	-8.73631
▁besides	-8.73656
▁arms	-8.74515
▁names	-8.74831
▁sweetheart	-8.75026
▁normal	-8.75126
▁german	-8.75149
▁difference	-8.75243
▁w	-8.75354
▁base	-8.75506
▁wing	-8.75863
▁report	-8.76124
▁watching	-8.76564
▁respect	-8.76578
▁smart	-8.766
▁ground	-8.76692
▁clouseau	-8.7672
▁whether	-8.7672
▁dangerous	-8.76729
▁moon	-8.76737
▁queen	-8.76939
▁wearing	-8.77227
▁r	-8.77271
▁st	-8.77401
▁lived	-8.77506
▁lt	-8.77811
▁magic	-8.77894
▁christ	-8.78292
▁judge	-8.78296
▁guitar	-8.7838
▁major	-8.78432
▁test	-8.78437
▁anywhere	-8.78444
▁church	-8.78444
▁linh	-8.78445
▁jewish	-8.78446
▁bought	-8.78446
▁fathers	-8.78573
▁saturday	-8.78609
▁interesting	-8.78621
▁doubt	-8.78682
▁area	-8.78743
▁animal	-8.78767
▁hide	-8.78889
▁age	-8.79057
ally	-8.79215
▁cook	-8.79453
▁enjoy	-8.79462
▁metal	-8.79678
▁relax	-8.79912
▁smell	-8.8005
▁foot	-8.80078
▁manolo	-8.80198
▁nowhere	-8.80199
▁hospital	-8.80394
▁mistake	-8.80511
▁grow	-8.81291
▁laugh	-8.81668
▁wolf	-8.81984
▁dying	-8.81985
▁kelly	-8.81989
▁national	-8.82001
▁mouth	-8.82002
▁lf	-8.82036
▁tj	-8.82041
▁joke	-8.82065
▁continue	-8.82212
▁favorite	-8.82212
▁position	-8.82323
▁sad	-8.82487
▁player	-8.82801
▁attack	-8.83479
▁grant	-8.83542
▁super	-8.83553
▁accident	-8.83802
▁lieutenant	-8.83802
▁became	-8.83803
▁uhhuh	-8.83803
▁history	-8.83803
▁thunder	-8.83803
▁milk	-8.83803
▁sonny	-8.8382
▁emma	-8.83836
▁sitting	-8.83839
▁roaring	-8.83862
▁guns	-8.8388
▁missing	-8.83906
▁starting	-8.83937
▁bitch	-8.83992
▁seeing	-8.84068
▁sake	-8.84105
▁folks	-8.84134
▁charge	-8.84147
▁beans	-8.84558
▁listening	-8.84694
ness	-8.84844
▁lay	-8.84932
▁rid	-8.8497
▁walking	-8.85041
▁knock	-8.85297
▁offer	-8.85359
▁truck	-8.85361
▁ernest	-8.85621
▁darryl	-8.85654
▁especially	-8.85654
▁within	-8.85656
▁mmhmm	-8.85657
▁groaning	-8.85683
▁honor	-8.8569
ation	-8.85746
▁seat	-8.85778
▁cup	-8.85842
▁bar	-8.85887
▁machine	-8.8604
▁learned	-8.86115
▁leg	-8.86139
▁letter	-8.86226
▁bag	-8.86273
▁aw	-8.86393
▁following	-8.86639
▁standing	-8.86976
▁legs	-8.87076
▁sight	-8.87348
▁ryan	-8.87541
▁situation	-8.87541
▁worried	-8.87541
▁instead	-8.87541
▁bunch	-8.87546
▁hall	-8.87623
▁board	-8.87623
ll	-8.87643
▁faster	-8.87688
▁shed	-8.87713
▁brave	-8.878
▁ron	-8.87855
▁heaven	-8.87883
▁nose	-8.87993
▁reed	-8.87996
▁soul	-8.88036
▁mm	-8.88494
ry	-8.88592
▁problems	-8.88607
▁search	-8.89032
▁san	-8.89081
▁dogs	-8.89124
or	-8.89215
▁bird	-8.89267
▁strike	-8.89282
▁burn	-8.89429
▁extra	-8.89463
▁twice	-8.89464
▁stuck	-8.89465
▁hans	-8.89465
▁dico	-8.89466
▁sunshine	-8.89468
▁boss	-8.89499
▁per	-8.89527
▁double	-8.89623
▁brooks	-8.89647
▁self	-8.89719
▁asking	-8.89763
▁cost	-8.89803
▁track	-8.89991
▁brothers	-8.90548
▁k	-8.91212
▁taste	-8.91242
▁list	-8.91301
▁green	-8.91363
▁personal	-8.91366
▁witch	-8.91377
▁weird	-8.91389
▁neither	-8.91425
▁beginning	-8.91428
▁forward	-8.9143
▁clothes	-8.91443
▁dirty	-8.9145
▁ass	-8.91498
▁united	-8.91505
▁north	-8.9162
▁jenny	-8.91751
▁prince	-8.91838
▁winter	-8.91854
▁ghost	-8.91945
▁gas	-8.91953
▁movie	-8.91989
▁ho	-8.92041
▁ohh	-8.9206
▁ran	-8.92162
▁cover	-8.92396
▁agree	-8.9264
▁visit	-8.92683
▁honest	-8.93157
▁box	-8.93287
▁football	-8.93328
▁congratulations	-8.93425
▁island	-8.93426
▁everywhere	-8.93428
▁rich	-8.93552
▁practice	-8.93586
▁pain	-8.93631
▁hal	-8.93712
▁bloody	-8.9372
▁simon	-8.93774
▁store	-8.93822
▁window	-8.93994
out	-8.93995
▁teacher	-8.94114
less	-8.94605
▁awful	-8.94674
▁fish	-8.94997
▁germans	-8.95143
▁arm	-8.95206
▁soft	-8.9535
▁grab	-8.95457
▁van	-8.95464
▁jail	-8.95467
▁swear	-8.95468
▁information	-8.95469
▁daniel	-8.95472
▁laughter	-8.95474
▁danny	-8.95475
▁nurse	-8.95475
▁owe	-8.95667
▁fairy	-8.95724
▁colonel	-8.95958
▁d	-8.96039
▁peppers	-8.96137
▁officer	-8.96169
en	-8.96355
▁foreign	-8.9656
▁build	-8.97121
▁tom	-8.97429
▁match	-8.97504
▁upset	-8.97549
▁often	-8.97549
▁rumbling	-8.9755
▁axel	-8.9755
▁main	-8.97571
▁joy	-8.97584
▁interested	-8.97685
▁books	-8.97724
▁greatest	-8.97857
▁message	-8.98212
▁training	-8.98555
▁building	-8.98634
▁warm	-8.99045
▁f	-8.99089
▁using	-8.99168
▁difficult	-8.99496
▁nervous	-8.99523
▁mark	-8.99608
▁dumb	-8.99674
▁claude	-8.99677
▁goddamn	-8.99677
▁nature	-8.99677
▁breakfast	-8.99677
▁worst	-8.99678
▁beauty	-8.99679
▁pants	-8.99684
▁indeed	-8.99691
▁definitely	-8.99693
▁eric	-8.99703
▁tires	-8.99881
▁lll	-8.99898
▁dare	-9.00113
▁flying	-9.00281
▁tight	-9.00293
▁elephant	-9.0034
▁brain	-9.00379
▁battle	-9.00438
▁guard	-9.00441
▁questions	-9.00492
▁staying	-9.00912
▁reach	-9.01056
▁jump	-9.01128
▁study	-9.01427
▁whose	-9.01454
▁faith	-9.01521
▁allow	-9.01596
▁peace	-9.0183
▁revolution	-9.01842
▁admit	-9.01845
▁kitchen	-9.01851
▁sheep	-9.01851
▁chuckling	-9.01852
▁third	-9.01855
▁hank	-9.01857
▁fred	-9.01862
▁sold	-9.01863
▁bobby	-9.01865
▁stopped	-9.01865
▁path	-9.01867
▁madame	-9.01921
▁seriously	-9.02059
▁arrest	-9.02117
▁dollars	-9.02312
▁bones	-9.02384
▁system	-9.02395
▁consider	-9.02453
▁steal	-9.02492
▁talked	-9.02541
▁station	-9.02563
an	-9.02566
▁idiot	-9.02598
▁monster	-9.02604
▁calls	-9.02854
▁spirit	-9.03029
st	-9.0312
▁stars	-9.03193
▁eating	-9.03787
▁broke	-9.03854
▁trail	-9.03973
▁paul	-9.0402
▁states	-9.04043
▁yo	-9.04043
▁duggal	-9.04073
▁hadnt	-9.04073
▁inspector	-9.04073
▁friday	-9.04073
▁derice	-9.04076
▁allyson	-9.04076
▁simply	-9.04082
▁gentleman	-9.0409
▁dean	-9.04121
▁driver	-9.04219
▁t	-9.0451
▁garden	-9.04547
▁final	-9.04598
▁department	-9.04668
▁marriage	-9.04748
▁homer	-9.0478
▁scene	-9.04811
▁sea	-9.04882
▁decision	-9.04888
▁paper	-9.04964
▁wondering	-9.04968
▁protect	-9.05585
▁fell	-9.05767
▁howd	-9.0621
▁awesome	-9.06345
▁jeanclaude	-9.06345
▁jordan	-9.06345
▁mmm	-9.06345
▁angry	-9.06346
▁cheese	-9.06347
▁nine	-9.06354
▁tense	-9.06356
▁frosty	-9.06377
▁writing	-9.06394
▁bother	-9.06397
▁farm	-9.0675
▁choose	-9.07072
▁bottle	-9.07197
▁mothers	-9.0734
▁tapes	-9.07561
▁feels	-9.08013
▁accept	-9.08368
▁destroy	-9.08401
▁appreciate	-9.08479
▁large	-9.08658
▁london	-9.08671
▁vietnamese	-9.08671
▁address	-9.08672
▁abby	-9.08674
▁sanka	-9.08674
▁royal	-9.08676
▁baseball	-9.08677
▁tv	-9.0869
▁throat	-9.08694
▁mountains	-9.08708
▁mayor	-9.08842
▁broken	-9.08922
▁ned	-9.09077
▁hardly	-9.09295
▁blame	-9.09337
re	-9.0944
▁studio	-9.09459
▁medal	-9.09571
▁action	-9.09622
▁rules	-9.0982
▁pray	-9.10151
▁park	-9.10158
▁named	-9.10376
▁hat	-9.10562
▁games	-9.10752
▁bright	-9.10946
▁east	-9.10956
▁bamboo	-9.11052
▁california	-9.11052
▁orchestra	-9.11052
▁boddy	-9.11052
▁sheriff	-9.11052
▁anabel	-9.11052
▁driving	-9.11052
▁hyah	-9.11052
▁willing	-9.11063
▁tall	-9.11072
▁immediately	-9.11087
▁single	-9.1109
▁scoffs	-9.11175
▁quickly	-9.1132
▁pardon	-9.11618
▁belong	-9.11751
▁vote	-9.11821
▁account	-9.11871
▁explosion	-9.1204
▁table	-9.12048
▁snake	-9.12053
▁card	-9.12334
▁couldve	-9.12373
ant	-9.12415
▁where	-9.12443
▁score	-9.131
▁lock	-9.13302
▁e	-9.13325
▁bridge	-9.1342
▁favor	-9.1349
▁college	-9.13491
▁empty	-9.13491
▁pikachu	-9.13491
▁possibly	-9.13491
▁excellent	-9.13491
▁asleep	-9.13492
▁kingdom	-9.13493
▁operation	-9.13495
▁pack	-9.13536
▁film	-9.14067
▁clicks	-9.14189
▁bay	-9.14349
▁horn	-9.14505
▁indian	-9.14521
▁fit	-9.14542
▁student	-9.14557
c	-9.14656
▁gang	-9.1469
▁moved	-9.14709
▁ring	-9.14901
ity	-9.15279
▁animals	-9.15524
▁cry	-9.156
▁louis	-9.15853
▁fresh	-9.15981
▁chocolate	-9.15991
▁joaquin	-9.15991
▁plenty	-9.15991
▁however	-9.15991
▁thudding	-9.15991
▁bread	-9.15991
▁alvin	-9.15994
▁truly	-9.15997
▁mommy	-9.15999
▁space	-9.16007
▁gage	-9.16017
▁whatd	-9.16052
▁stormy	-9.16089
▁kick	-9.16218
▁figured	-9.16323
▁musicians	-9.1634
▁form	-9.16739
▁hotel	-9.16983
▁beer	-9.17026
▁smile	-9.17085
▁hundred	-9.17098
▁key	-9.17124
▁sleeping	-9.17592
▁cute	-9.17798
▁trees	-9.18232
▁notice	-9.18386
▁waste	-9.18466
▁dooyoung	-9.18555
▁strength	-9.18555
▁glauben	-9.18555
▁committee	-9.18556
▁teeth	-9.18556
▁freedom	-9.18558
▁cash	-9.1856
▁thatll	-9.18564
▁rough	-9.18571
▁sean	-9.18613
▁losing	-9.18663
▁rent	-9.1868
▁closer	-9.18715
ive	-9.18804
▁destroyed	-9.18854
▁growing	-9.19176
▁fellas	-9.19285
▁keeping	-9.1964
▁camera	-9.19726
▁donkey	-9.19726
p	-9.19968
▁wood	-9.19995
▁treat	-9.20171
▁wave	-9.20533
g	-9.20716
▁steve	-9.20836
▁jim	-9.20924
▁lights	-9.20983
▁raise	-9.21019
▁russia	-9.21153
▁leo	-9.21176
▁ancient	-9.21187
▁apologize	-9.21187
▁heavy	-9.21187
▁threw	-9.21187
▁upstairs	-9.21187
▁wrote	-9.21187
▁patty	-9.21189
▁wilson	-9.2119
▁planning	-9.21198
▁famous	-9.21199
▁grand	-9.21268
▁whispering	-9.21274
▁gotten	-9.21341
▁holy	-9.21354
us	-9.21524
▁passed	-9.21662
▁expected	-9.21748
▁ruin	-9.22017
▁liked	-9.22356
▁art	-9.23576
▁complete	-9.23588
ment	-9.23622
▁pok	-9.23718
▁computer	-9.23883
▁beyond	-9.23889
▁dartagnan	-9.23889
▁pecos	-9.23889
▁whistling	-9.23889
▁someday	-9.2389
▁copperfield	-9.2389
▁hasnt	-9.2389
▁beach	-9.2389
▁emergency	-9.23892
▁outta	-9.23892
▁humming	-9.23894
▁abra	-9.23897
▁winner	-9.23899
▁announcer	-9.23903
▁incredible	-9.23914
▁lying	-9.23922
▁instrumental	-9.23939
▁highness	-9.23951
▁suddenly	-9.23959
▁breathe	-9.23993
▁tape	-9.24091
▁pre	-9.2412
w	-9.24291
▁boots	-9.24292
▁streets	-9.24527
▁lies	-9.24909
▁opinion	-9.24983
▁bang	-9.25029
▁walked	-9.2506
▁gunshot	-9.25212
ian	-9.2573
▁correct	-9.2645
▁spot	-9.26463
▁prove	-9.2661
▁gentle	-9.26648
▁bullshit	-9.26659
▁innocent	-9.26667
▁jacob	-9.26667
▁junior	-9.26667
▁miep	-9.26667
▁private	-9.26667
▁fantastic	-9.26667
▁ridiculous	-9.26667
▁cancer	-9.2667
▁governor	-9.26671
▁clapping	-9.26672
▁journey	-9.26673
▁steady	-9.26678
▁spread	-9.26684
▁center	-9.267
▁screeching	-9.26746
▁hearing	-9.26796
▁allowed	-9.27015
▁younger	-9.2717
▁lift	-9.27182
▁who	-9.27236
▁riding	-9.27318
▁closed	-9.27424
▁risk	-9.2768
▁force	-9.27902
▁coat	-9.27909
▁amy	-9.27923
▁tower	-9.2797
▁dude	-9.28041
▁h	-9.28198
▁rings	-9.28294
▁gods	-9.28328
▁lion	-9.28404
▁heads	-9.28487
▁hunt	-9.28976
▁loves	-9.29039
▁paying	-9.29211
▁blind	-9.29221
▁bobsled	-9.29332
▁serve	-9.29354
▁courage	-9.29506
▁yellow	-9.29524
▁british	-9.29524
▁lebraque	-9.29524
▁phoenix	-9.29524
▁taught	-9.29524
▁necessary	-9.29524
▁ugh	-9.29525
▁howard	-9.29531
▁weight	-9.29531
▁over	-9.29536
▁obviously	-9.29577
▁style	-9.29584
▁squealing	-9.29594
▁barking	-9.29631
▁nearly	-9.29769
▁lee	-9.29791
▁post	-9.29851
▁perfectly	-9.29965
▁jet	-9.30273
▁feed	-9.30508
▁oil	-9.3055
▁cars	-9.30579
▁dig	-9.30634
▁butt	-9.30679
▁rule	-9.30686
▁decide	-9.30691
▁falling	-9.30696
▁bus	-9.30718
▁neck	-9.308
▁shark	-9.30862
▁fruit	-9.30974
▁breaking	-9.31424
▁awake	-9.31492
▁fill	-9.31593
▁tim	-9.31707
▁discuss	-9.31709
▁crap	-9.31907
▁climb	-9.31981
▁chatter	-9.3205
▁kim	-9.32136
▁loud	-9.32255
nt	-9.32296
▁ranch	-9.32351
▁madam	-9.32383
▁prefer	-9.32463
▁halloween	-9.32466
▁medicine	-9.32466
▁stanley	-9.32466
▁grandpa	-9.32468
▁yep	-9.32469
▁split	-9.32473
▁size	-9.32477
▁switch	-9.32478
▁danger	-9.32489
▁involved	-9.32503
▁zoe	-9.32524
▁hoping	-9.32541
▁lines	-9.3272
▁ash	-9.3273
▁shape	-9.32911
▁locked	-9.33068
▁shame	-9.333
▁finger	-9.33492
▁ears	-9.3357
▁orders	-9.3361
▁experience	-9.33716
▁dads	-9.33726
▁drunk	-9.33794
▁fingers	-9.33887
▁river	-9.33901
▁chicken	-9.34009
▁event	-9.34736
▁trick	-9.35082
▁mention	-9.35263
▁introduce	-9.35305
though	-9.35349
▁hooh	-9.35355
▁russ	-9.35483
▁harris	-9.35492
▁bottom	-9.35496
▁dulcinea	-9.35496
▁kathy	-9.35496
▁suspense	-9.35496
▁zeena	-9.35496
▁justice	-9.35496
▁grandfather	-9.35496
▁several	-9.35497
▁tour	-9.35498
▁ethan	-9.35498
▁bigger	-9.35506
▁off	-9.35513
▁written	-9.35514
▁view	-9.35518
▁male	-9.35525
▁records	-9.35582
▁sighing	-9.3565
▁helping	-9.3567
▁corner	-9.35672
▁er	-9.3593
▁sooner	-9.3594
no	-9.35975
▁knocking	-9.36204
ist	-9.36401
▁picked	-9.36518
▁followed	-9.36524
▁block	-9.3683
▁chair	-9.3692
▁daniella	-9.3694
▁adam	-9.37018
▁apartment	-9.37024
▁lawyer	-9.37148
▁stone	-9.37165
▁keys	-9.37225
▁holding	-9.37364
▁kings	-9.37879
el	-9.37902
▁goin	-9.3792
▁ben	-9.38013
▁pro	-9.38249
▁defeat	-9.38358
▁particular	-9.38502
▁scott	-9.38602
▁aurora	-9.38621
▁enemy	-9.38621
▁zarkorr	-9.38621
▁sweden	-9.38623
▁counselor	-9.38623
▁forgotten	-9.38625
▁security	-9.38628
▁slappy	-9.3863
▁held	-9.38631
▁katy	-9.38637
▁james	-9.3864
▁charles	-9.38641
▁handsome	-9.38645
▁kite	-9.38656
▁received	-9.38704
▁yall	-9.38722
▁planet	-9.38741
▁murderer	-9.38773
▁prepared	-9.38776
te	-9.39264
▁nicky	-9.39298
▁pounds	-9.39433
▁screams	-9.39529
▁bears	-9.39578
▁siren	-9.39613
▁travel	-9.39913
▁murder	-9.39936
▁rainbow	-9.40242
▁con	-9.40273
▁cell	-9.40308
▁garret	-9.40332
▁fellow	-9.40336
▁sunday	-9.40382
▁conversation	-9.40385
▁ticket	-9.40398
▁papers	-9.40654
▁wand	-9.40685
le	-9.40697
▁bless	-9.41161
▁grace	-9.41246
▁showed	-9.41343
▁wreck	-9.41495
▁corn	-9.41662
▁pie	-9.4169
▁natural	-9.41727
▁prison	-9.41743
▁jamaica	-9.41811
▁loose	-9.41836
▁birth	-9.41845
▁gandhi	-9.41845
▁program	-9.41845
▁brilliant	-9.41847
▁england	-9.41847
▁terrific	-9.41847
▁stories	-9.41848
▁sanchez	-9.41848
▁bravo	-9.41848
▁silver	-9.4185
▁eddie	-9.41851
▁flight	-9.41853
▁built	-9.41854
▁energy	-9.41854
▁silly	-9.41866
▁doin	-9.41871
▁meat	-9.41874
▁rise	-9.41879
▁huge	-9.41882
▁tillie	-9.41905
▁arrived	-9.41956
▁paddle	-9.42
▁bringing	-9.42004
ish	-9.4216
▁dressed	-9.42433
▁returned	-9.42488
▁balls	-9.42612
▁lots	-9.42682
▁fired	-9.42853
▁plays	-9.43064
▁remind	-9.43423
▁deserve	-9.43516
mon	-9.43551
▁goal	-9.43561
▁granny	-9.43583
▁starts	-9.43629
▁patient	-9.43707
▁whistle	-9.43715
▁snakes	-9.43789
▁seconds	-9.43892
▁wouldve	-9.44058
▁ko	-9.44321
▁note	-9.44375
▁putt	-9.4447
▁breath	-9.44549
▁cap	-9.44619
▁march	-9.44717
▁suggest	-9.44863
▁create	-9.45011
▁share	-9.45016
▁should	-9.45064
▁beg	-9.4509
▁press	-9.45123
▁superhero	-9.4513
▁stole	-9.45151
▁afford	-9.4518
▁proctor	-9.4518
▁video	-9.4518
▁telephone	-9.4518
▁example	-9.4518
▁military	-9.4518
▁piano	-9.4518
▁somehow	-9.45181
▁whoever	-9.45181
▁kitty	-9.45181
▁local	-9.45181
▁minister	-9.45182
▁whooshing	-9.45183
▁irv	-9.45184
▁apparently	-9.45186
▁fought	-9.4519
▁began	-9.45193
▁coughing	-9.45217
▁tiny	-9.45221
▁loving	-9.45227
▁spell	-9.4523
▁poole	-9.4525
▁slowly	-9.45545
▁realized	-9.45671
▁banging	-9.45705
▁dry	-9.45817
▁fishing	-9.45891
▁seemed	-9.4595
▁ham	-9.46207
▁nobodys	-9.46556
▁hanging	-9.46705
k	-9.46757
▁prepare	-9.46766
▁contact	-9.46941
▁season	-9.47038
▁priest	-9.47068
▁pair	-9.47081
ii	-9.47097
▁buying	-9.47101
▁gift	-9.47155
▁bastard	-9.47169
▁comrade	-9.47184
▁russian	-9.47213
▁bean	-9.47215
son	-9.47258
▁thinks	-9.47398
▁killer	-9.47675
▁speaks	-9.48232
▁contract	-9.48286
▁mount	-9.48356
▁weak	-9.48428
▁recognize	-9.48455
▁turning	-9.48607
▁hm	-9.48612
▁wise	-9.48612
▁stayed	-9.48617
▁attorney	-9.48628
▁farooqi	-9.48628
▁flicka	-9.48628
▁weather	-9.48628
▁responsible	-9.48628
▁staff	-9.48628
▁competition	-9.48628
▁birkin	-9.48629
▁umney	-9.48629
▁honking	-9.48629
▁buttermaker	-9.48629
▁sweetmeat	-9.48629
▁doyle	-9.48629
▁jimmy	-9.48629
▁norman	-9.48629
▁perrin	-9.48629
▁stood	-9.4863
▁kane	-9.48634
▁june	-9.48635
▁memory	-9.48649
▁babe	-9.4865
▁valley	-9.48659
▁guide	-9.48663
▁bridget	-9.48679
▁pure	-9.4869
▁speed	-9.48692
▁manager	-9.48697
▁sled	-9.48706
▁gasping	-9.48732
▁pictures	-9.48852
▁crashing	-9.48894
▁agreed	-9.4892
▁ma	-9.49054
▁o	-9.49108
▁theyd	-9.49122
▁bucks	-9.49416
▁code	-9.49579
▁passing	-9.49627
▁cape	-9.49673
▁older	-9.49959
▁smoke	-9.49986
▁skin	-9.50007
▁giants	-9.50016
▁angel	-9.50612
▁le	-9.50715
▁roger	-9.50726
▁saving	-9.50727
▁lesson	-9.50833
▁prayer	-9.50858
ter	-9.50998
▁due	-9.51106
▁map	-9.51235
▁coast	-9.51723
▁bat	-9.51854
up	-9.51856
▁hook	-9.51995
▁killing	-9.52034
▁escape	-9.52045
▁international	-9.5209
▁lil	-9.52121
▁legal	-9.52139
▁greg	-9.52193
▁advice	-9.522
▁champagne	-9.522
▁downstairs	-9.522
▁jekyll	-9.522
▁kruger	-9.522
▁reckon	-9.522
▁revving	-9.522
▁knife	-9.522
▁anxious	-9.522
▁davy	-9.522
▁pride	-9.522
▁monday	-9.52201
▁washington	-9.52201
▁christine	-9.52206
▁girlfriend	-9.52208
▁electricity	-9.52208
▁jamie	-9.52208
▁holly	-9.52209
▁emily	-9.52218
▁grown	-9.5223
▁excited	-9.52231
▁duty	-9.52234
▁stolen	-9.52235
▁creaking	-9.52255
▁perform	-9.52262
▁gather	-9.5228
▁hiding	-9.52334
▁alarm	-9.52459
▁di	-9.5249
▁letting	-9.52495
▁lately	-9.52975
▁cheers	-9.53134
▁exist	-9.53157
▁add	-9.53171
▁turns	-9.53312
▁wins	-9.53513
▁tie	-9.53741
▁bomb	-9.53979
m	-9.5407
▁bangs	-9.54095
▁robert	-9.5421
▁restaurant	-9.54215
▁legend	-9.54221
▁stomach	-9.54296
▁students	-9.54305
▁owner	-9.54353
▁quarter	-9.54364
▁equal	-9.54375
▁miller	-9.54401
▁noise	-9.5442
▁treasure	-9.54459
▁rose	-9.54574
▁hill	-9.54638
▁adventure	-9.54661
▁nation	-9.54715
ting	-9.54973
▁mistakes	-9.55169
▁reading	-9.55173
▁draw	-9.55245
ling	-9.55343
go	-9.55573
▁nothin	-9.55892
▁dick	-9.55903
▁bfg	-9.55903
▁cardinal	-9.55903
▁andrada	-9.55903
▁desperate	-9.55903
▁giggling	-9.55904
▁prize	-9.55905
▁pokemon	-9.55906
▁university	-9.55906
▁panting	-9.55908
▁therell	-9.55909
▁dust	-9.55909
▁panic	-9.55914
▁roof	-9.55915
▁winning	-9.55918
▁yearold	-9.55924
▁tony	-9.55926
▁deny	-9.55932
▁medical	-9.55932
▁howling	-9.56011
▁beeping	-9.56011
▁union	-9.56063
▁lily	-9.56168
▁kinda	-9.56257
▁ne	-9.56357
▁whip	-9.56369
▁ian	-9.56451
▁towards	-9.56758
▁closes	-9.56779
▁goodness	-9.57017
▁rocks	-9.57367
▁storm	-9.57634
▁pressure	-9.58082
▁powers	-9.58111
▁telegram	-9.58185
▁spider	-9.58186
▁swan	-9.58227
▁defend	-9.58227
▁jean	-9.58298
▁ca	-9.58319
▁signal	-9.58352
▁marks	-9.58445
▁fat	-9.58467
▁ear	-9.58783
▁co	-9.58962
▁hole	-9.58972
▁official	-9.59629
▁ray	-9.59661
▁speech	-9.59701
▁apart	-9.5974
▁popular	-9.59747
▁swim	-9.59748
▁gertrude	-9.5975
▁jacques	-9.5975
▁magazine	-9.5975
▁peggotty	-9.5975
▁purpose	-9.5975
▁research	-9.5975
▁steerforth	-9.5975
▁cahill	-9.5975
▁represent	-9.5975
▁otto	-9.5975
▁dancing	-9.5975
▁sandwich	-9.59751
▁byebye	-9.59752
▁aunt	-9.59752
▁shopping	-9.59754
▁dropped	-9.59756
▁sharp	-9.59757
▁opportunity	-9.59758
▁merry	-9.59759
▁fang	-9.59763
▁noble	-9.59765
▁labor	-9.59771
▁shop	-9.59771
▁extremely	-9.59775
▁unfortunately	-9.5979
▁sweetie	-9.5982
▁scary	-9.59829
▁itd	-9.59829
▁manage	-9.59852
ch	-9.59867
▁invited	-9.59899
▁concerned	-9.59961
▁noticed	-9.60014
ary	-9.60045
▁lips	-9.60121
▁breathing	-9.60251
▁cake	-9.60298
▁no	-9.60444
▁tip	-9.60765
▁ordered	-9.60794
▁members	-9.60811
▁knees	-9.6093
▁selling	-9.6102
▁expecting	-9.61071
▁pleased	-9.612
▁hurts	-9.61328
▁condition	-9.61462
▁nu	-9.6158
▁bro	-9.61771
▁color	-9.61813
▁bull	-9.61961
▁appear	-9.61989
to	-9.62039
▁route	-9.6206
▁michael	-9.62069
▁shower	-9.62174
▁taxi	-9.62202
▁christian	-9.6224
▁pocket	-9.6227
▁br	-9.62382
▁egg	-9.62443
▁movies	-9.62607
▁meaning	-9.6275
▁yard	-9.62752
▁support	-9.62953
age	-9.62959
▁repeat	-9.62979
▁settle	-9.63269
▁pretend	-9.63285
▁screw	-9.63419
▁cream	-9.63629
▁original	-9.63632
▁total	-9.63633
▁spoke	-9.63717
▁europe	-9.63734
▁boyfriend	-9.6375
▁footsteps	-9.6375
▁giuliano	-9.6375
▁japanese	-9.6375
▁maleficent	-9.6375
▁micawber	-9.6375
▁thompson	-9.6375
▁biggest	-9.6375
▁whenever	-9.6375
▁wickfield	-9.6375
▁science	-9.6375
▁theodore	-9.6375
▁buried	-9.6375
▁nope	-9.6375
▁gail	-9.63751
▁investigation	-9.63751
▁crew	-9.63753
▁voiceover	-9.63753
▁steam	-9.63756
▁rare	-9.63756
▁knowledge	-9.63764
▁walter	-9.63766
▁understood	-9.63789
▁plus	-9.63792
▁mere	-9.63813
▁grass	-9.63865
▁nights	-9.63968
▁mission	-9.63976
▁so	-9.64027
▁personally	-9.64059
▁surprised	-9.64174
▁rat	-9.64282
▁n	-9.6429
rs	-9.65022
▁buttons	-9.65102
it	-9.65182
▁caused	-9.65235
▁lessons	-9.65404
▁comrades	-9.65456
▁brings	-9.65621
▁likes	-9.65679
▁interest	-9.65724
▁shooting	-9.65726
▁cop	-9.65831
omber	-9.65852
▁feelings	-9.66102
▁refuse	-9.66177
▁bike	-9.66197
▁credit	-9.66198
▁castle	-9.66234
ized	-9.66326
▁partner	-9.66432
▁drinking	-9.66449
▁creature	-9.66453
▁do	-9.6647
▁shoe	-9.66487
▁rope	-9.66552
▁cave	-9.6656
▁snap	-9.66567
▁robot	-9.66611
▁up	-9.66641
ke	-9.66787
▁letters	-9.66911
▁believed	-9.66951
▁surf	-9.67333
▁project	-9.67499
▁career	-9.67521
screen	-9.67522
▁survive	-9.67741
▁health	-9.67767
tain	-9.67773
▁assure	-9.67775
▁proper	-9.67803
▁india	-9.67881
▁beloved	-9.67916
▁joseph	-9.67916
▁kakamucho	-9.67916
▁meredith	-9.67916
▁monsieur	-9.67916
▁otherwise	-9.67916
▁sancho	-9.67916
▁sheila	-9.67917
▁thornton	-9.67917
▁border	-9.67917
▁constance	-9.67917
▁horrible	-9.67917
▁italian	-9.67918
▁nonsense	-9.67918
▁property	-9.6792
▁pele	-9.67921
▁dummy	-9.67922
▁thou	-9.67922
▁common	-9.67923
▁palace	-9.67924
▁jealous	-9.67925
▁surrender	-9.67926
▁grateful	-9.67926
▁magnet	-9.67964
▁buzzing	-9.68036
▁hire	-9.68049
▁that	-9.68135
▁wet	-9.68137
▁gosh	-9.68157
▁germany	-9.68298
▁pieces	-9.68316
▁county	-9.68335
▁higher	-9.68433
ah	-9.68433
▁jews	-9.68758
▁yay	-9.68905
▁yells	-9.69015
ell	-9.69073
▁you	-9.69309
ance	-9.69601
▁teams	-9.70031
ta	-9.70103
▁sports	-9.70154
▁humans	-9.70484
▁damage	-9.70527
▁button	-9.70551
▁flat	-9.7059
▁champion	-9.70627
▁spring	-9.7066
▁material	-9.70699
▁sugar	-9.707
▁claudia	-9.70726
▁rabbit	-9.70733
▁guards	-9.70771
▁pepper	-9.70836
▁wash	-9.71071
▁plant	-9.7149
▁rush	-9.71502
▁opening	-9.71542
me	-9.71585
▁ex	-9.71627
▁bite	-9.71648
land	-9.71662
ce	-9.7167
▁players	-9.71696
▁focus	-9.71988
▁wire	-9.72093
▁invite	-9.72095
▁gene	-9.72152
▁africa	-9.72218
▁usual	-9.72219
▁among	-9.7225
▁freeze	-9.72262
▁chelsea	-9.72264
▁flag	-9.72264
▁gloria	-9.72264
▁kaguya	-9.72264
▁munchie	-9.72264
▁sioux	-9.72264
▁szalinski	-9.72264
▁velrans	-9.72264
▁whiskey	-9.72264
▁cheryl	-9.72264
▁devito	-9.72264
▁paradise	-9.72264
▁chinook	-9.72264
▁bleating	-9.72264
▁delicious	-9.72265
▁ginny	-9.72265
▁earlier	-9.72265
▁watergate	-9.72266
▁authority	-9.72266
▁holiness	-9.72266
▁yvette	-9.72267
▁gruberman	-9.72267
▁resistance	-9.72267
▁candy	-9.72267
▁spit	-9.72269
▁suspect	-9.72274
▁junk	-9.72274
▁barely	-9.72274
▁crime	-9.72275
▁coke	-9.72275
▁whirring	-9.72275
▁factory	-9.72278
▁firing	-9.72279
▁comfortable	-9.7228
▁familiar	-9.72291
▁splashing	-9.72293
▁wailing	-9.72294
▁laid	-9.723
▁changing	-9.72301
▁eastman	-9.72302
▁recently	-9.7232
▁il	-9.72323
▁noon	-9.72324
▁usually	-9.72384
▁sh	-9.7256
▁stronger	-9.72586
▁sp	-9.7261
▁fianc	-9.72647
▁deepu	-9.72689
▁ruined	-9.72713
▁arrested	-9.72812
▁lower	-9.729
▁chu	-9.72979
▁acting	-9.73458
▁secrets	-9.73694
▁se	-9.73766
▁hon	-9.73815
▁eggs	-9.73862
▁chances	-9.73956
▁plans	-9.7401
▁flame	-9.74068
▁laws	-9.74248
▁pet	-9.74381
▁barn	-9.74398
▁remain	-9.74546
▁mis	-9.74567
is	-9.74624
▁mighty	-9.74689
▁file	-9.74806
▁lo	-9.74882
▁command	-9.74894
▁po	-9.749
▁cards	-9.74952
▁dis	-9.75047
▁mattie	-9.75208
▁pool	-9.7523
▁forest	-9.75302
▁cantrell	-9.75314
▁session	-9.75343
▁sometime	-9.75388
▁meal	-9.75403
▁reporter	-9.75412
▁mile	-9.75438
▁leader	-9.75684
▁earn	-9.75774
▁smells	-9.75928
▁shots	-9.75999
ar	-9.76032
▁ruth	-9.76387
▁deliver	-9.76389
▁blond	-9.76459
you	-9.76474
▁cats	-9.76574
▁advance	-9.76618
▁plain	-9.7667
▁sudden	-9.76692
▁chris	-9.76743
▁da	-9.76798
▁caravan	-9.7681
▁gideon	-9.7681
▁responsibility	-9.7681
▁snow	-9.7681
▁rochelle	-9.7681
▁golf	-9.7681
▁decent	-9.7681
▁clever	-9.7681
▁melba	-9.7681
▁pregnant	-9.76811
▁glory	-9.76811
▁steel	-9.76812
▁onto	-9.76813
▁diana	-9.76814
▁doorbell	-9.76815
▁lenny	-9.76816
▁spent	-9.76816
▁comin	-9.7682
▁hammer	-9.76828
▁oliver	-9.76828
▁reverend	-9.76828
▁ox	-9.7683
▁wide	-9.76832
▁engaged	-9.76837
▁chain	-9.76842
▁macka	-9.76866
▁provide	-9.76866
▁fake	-9.76877
▁level	-9.76891
▁mustard	-9.76907
▁uhoh	-9.76925
▁stage	-9.77079
▁booming	-9.77108
▁depends	-9.77119
▁warning	-9.77149
▁indistinctly	-9.77151
▁chipmunks	-9.77185
▁tied	-9.77275
▁mo	-9.77277
▁grave	-9.77281
▁heading	-9.77319
▁trumpets	-9.77323
▁belonged	-9.77331
▁leaves	-9.77363
▁cares	-9.77366
▁en	-9.77562
▁nuts	-9.77578
▁harder	-9.77641
▁searching	-9.77852
▁americans	-9.77961
▁ls	-9.77996
▁chi	-9.78009
▁blowing	-9.78028
▁pulled	-9.78075
▁for	-9.78094
▁everybodys	-9.78097
▁fort	-9.781
▁teaching	-9.78122
▁dreamed	-9.7838
▁cops	-9.78436
▁basic	-9.7869
▁matters	-9.78771
▁cab	-9.78862
▁request	-9.79203
▁iron	-9.79444
time	-9.79446
▁francis	-9.79488
▁knee	-9.79789
▁sisters	-9.79833
▁expert	-9.79882
▁wagon	-9.79883
▁miracle	-9.79962
▁knight	-9.79963
▁value	-9.79963
▁scare	-9.79983
▁socialist	-9.80039
▁object	-9.80043
▁clock	-9.80057
▁godmother	-9.80076
▁sport	-9.80113
▁payment	-9.80131
▁tracks	-9.80287
▁bags	-9.8047
▁seek	-9.80503
▁gee	-9.80516
▁enter	-9.80541
ihe	-9.80559
▁gives	-9.80689
ring	-9.80726
▁resign	-9.80744
▁avoid	-9.80798
▁shock	-9.80858
eat	-9.81082
ism	-9.81172
▁tail	-9.81182
▁dump	-9.81273
▁challenge	-9.81327
▁v	-9.81347
▁spare	-9.81402
▁mike	-9.81452
▁genius	-9.81571
▁nascimento	-9.81571
▁sacred	-9.81571
▁samadhi	-9.81571
▁audience	-9.81571
▁exciting	-9.81572
▁duchess	-9.81572
▁chiming	-9.81572
▁lousy	-9.81572
▁spanish	-9.81572
▁salary	-9.81572
▁pizza	-9.81573
▁campbell	-9.81573
▁basketball	-9.81574
▁ryker	-9.81574
▁neighborhood	-9.81574
▁hollywood	-9.81575
▁heck	-9.81575
▁supper	-9.81576
▁toilet	-9.81576
▁chapel	-9.81582
▁wallet	-9.81589
▁safety	-9.81591
▁clay	-9.81596
▁regular	-9.816
▁smith	-9.81601
▁trapped	-9.81604
▁proof	-9.81604
▁inner	-9.81605
▁forth	-9.81606
▁thirsty	-9.8162
▁bout	-9.81621
▁bound	-9.81626
▁spoken	-9.8164
▁native	-9.81642
▁bow	-9.81682
▁ator	-9.81683
▁jesse	-9.81684
▁mae	-9.81707
▁glasses	-9.81737
▁assume	-9.81746
▁electric	-9.81767
▁hired	-9.81782
▁fields	-9.81822
▁mentioned	-9.82005
▁cents	-9.82039
▁kicked	-9.82095
▁boats	-9.82115
▁bass	-9.82148
▁jumped	-9.82192
▁burned	-9.82257
▁clearly	-9.82403
▁demands	-9.82467
tic	-9.825
ne	-9.82531
▁ends	-9.82593
▁thuds	-9.82611
▁soldiers	-9.82612
▁hated	-9.83318
▁rolling	-9.83377
▁shows	-9.8347
ee	-9.8363
▁habit	-9.8371
et	-9.83738
▁tickets	-9.83767
▁bells	-9.83808
▁mans	-9.84044
▁concern	-9.84219
▁crack	-9.84286
▁scream	-9.84307
▁market	-9.8448
▁ended	-9.84628
▁fail	-9.84669
▁endless	-9.84683
▁arrive	-9.8488
▁ambassador	-9.84881
▁canterville	-9.84881
▁section	-9.84886
▁election	-9.84973
▁elevator	-9.85005
▁female	-9.85008
▁task	-9.85015
▁baker	-9.85046
▁rambalcochet	-9.85051
▁effort	-9.85051
▁apple	-9.85052
▁sin	-9.85053
▁rooms	-9.85056
▁communist	-9.85063
▁criminal	-9.85075
▁beast	-9.85098
▁fan	-9.85113
▁mate	-9.85126
▁click	-9.85138
▁actor	-9.85141
men	-9.85808
▁surely	-9.85912
▁stock	-9.86038
▁thousands	-9.86181
z	-9.86229
▁cast	-9.86254
▁honour	-9.86257
▁jewel	-9.86267
▁recall	-9.86277
▁poison	-9.86285
▁port	-9.86288
▁rescue	-9.86353
▁sale	-9.8637
▁curse	-9.8639
▁describe	-9.86391
▁release	-9.86399
▁julie	-9.86494
▁boo	-9.86514
▁defense	-9.86568
▁accent	-9.86571
▁attitude	-9.86571
▁bryant	-9.86571
▁elizabeth	-9.86571
▁equipment	-9.86571
▁evidence	-9.86571
▁mexico	-9.86571
▁miranda	-9.86571
▁sobbing	-9.86571
▁terribly	-9.86571
▁milady	-9.86572
▁policy	-9.86572
▁physical	-9.86572
▁croft	-9.86572
▁texas	-9.86572
▁insurance	-9.86572
▁becoming	-9.86572
▁executive	-9.86572
▁fbi	-9.86572
▁miami	-9.86572
▁permission	-9.86572
▁april	-9.86573
▁magnificent	-9.86573
▁romantic	-9.86573
▁bathroom	-9.86574
▁shawn	-9.86576
▁deposit	-9.86579
▁crackling	-9.86579
▁pink	-9.86582
▁ugly	-9.86583
▁edge	-9.86583
▁seltzer	-9.86583
▁hidden	-9.86583
▁goku	-9.86584
▁dawn	-9.86589
▁planned	-9.86593
▁ego	-9.86595
▁china	-9.86596
▁farley	-9.86608
▁cmon	-9.86609
▁fella	-9.86615
▁unto	-9.86627
▁clanging	-9.86628
▁disappointed	-9.86635
▁ernesto	-9.86662
▁ruby	-9.86673
▁umm	-9.86683
▁daughters	-9.86699
led	-9.86705
▁gettin	-9.8672
▁passes	-9.86727
▁beth	-9.86732
▁sandy	-9.86734
▁goldman	-9.86753
▁healthy	-9.86754
▁ate	-9.86824
▁suffering	-9.86941
▁sand	-9.86941
▁troops	-9.86989
▁iii	-9.86991
th	-9.87152
▁details	-9.87218
▁talkin	-9.87241
um	-9.87248
▁carefully	-9.87352
▁pushed	-9.87514
▁doctors	-9.8758
▁millions	-9.87592
▁fixed	-9.87637
▁workers	-9.87723
▁signed	-9.88056
▁trained	-9.88155
▁ally	-9.88555
▁opened	-9.89329
▁reasons	-9.89457
▁ki	-9.89688
▁wheel	-9.899
▁interview	-9.90144
▁western	-9.90154
▁nightmare	-9.90314
▁neighbor	-9.90344
▁dragonball	-9.90371
▁cloud	-9.90385
▁member	-9.90389
▁heavens	-9.90502
▁profession	-9.90507
ul	-9.90522
b	-9.90942
▁led	-9.90967
▁somebodys	-9.91063
▁trap	-9.91102
▁ding	-9.91182
▁freak	-9.91193
▁whereve	-9.91288
▁casey	-9.91295
▁complain	-9.91328
▁sex	-9.91412
▁drum	-9.91415
▁wast	-9.91454
▁butcher	-9.91522
▁firm	-9.91531
▁register	-9.91545
▁leak	-9.9158
▁celebrate	-9.91637
lden	-9.91644
▁pitch	-9.91694
▁current	-9.91711
▁songs	-9.91761
▁somethin	-9.91823
▁richard	-9.91829
▁audition	-9.91835
▁eagle	-9.91835
▁earthquake	-9.91835
▁gfg	-9.91835
▁sutemaru	-9.91835
▁daisy	-9.91835
▁italy	-9.91835
▁patience	-9.91835
▁rumba	-9.91835
▁ashamed	-9.91835
▁presence	-9.91835
▁marvin	-9.91835
▁chandler	-9.91835
▁barbara	-9.91835
▁festival	-9.91836
▁propose	-9.91836
▁susie	-9.91836
▁beef	-9.91836
▁rear	-9.91837
▁bodies	-9.91839
▁society	-9.91839
▁desk	-9.91841
▁aware	-9.91845
▁mercy	-9.91848
▁alien	-9.91849
▁owns	-9.91849
▁lightning	-9.91851
▁complicated	-9.91855
▁mail	-9.91855
▁concludes	-9.91879
▁chimes	-9.9188
▁african	-9.9189
▁moaning	-9.91893
▁ant	-9.91898
▁passion	-9.91911
▁bitter	-9.91921
▁agnes	-9.91928
▁impression	-9.91929
▁growling	-9.91933
▁disappeared	-9.91961
▁eaten	-9.91986
▁trade	-9.92067
▁charming	-9.92086
▁jr	-9.92115
▁softly	-9.92148
▁butter	-9.92192
▁frankly	-9.92232
▁deeply	-9.92253
▁movement	-9.92324
▁joey	-9.92344
▁entirely	-9.92349
by	-9.92376
▁diamonds	-9.92511
▁loss	-9.92558
▁degrees	-9.9259
▁uniforms	-9.9259
▁ways	-9.92691
▁olympics	-9.92762
▁lied	-9.92859
▁jobs	-9.92946
▁shadows	-9.9299
▁professional	-9.9318
▁counting	-9.93364
▁stands	-9.93424
▁magical	-9.9357
▁husbands	-9.93782
▁lookin	-9.93978
▁places	-9.93981
▁beating	-9.94135
▁notes	-9.94186
▁waves	-9.94841
▁youth	-9.94911
ng	-9.94939
▁an	-9.95077
▁explosions	-9.95085
▁suck	-9.95158
▁all	-9.95243
▁yell	-9.95334
▁presidents	-9.95396
▁swing	-9.9541
▁checking	-9.95454
▁pound	-9.95478
▁cheer	-9.95505
▁talent	-9.95545
▁jan	-9.95642
▁individual	-9.95704
na	-9.95777
▁belt	-9.95861
▁desire	-9.95883
▁affair	-9.95902
▁shine	-9.95929
▁agent	-9.95936
▁chip	-9.96004
▁ship	-9.96113
▁pope	-9.96193
▁bon	-9.96362
▁crash	-9.96591
▁walls	-9.96639
▁blows	-9.96648
tion	-9.96822
▁express	-9.97013
▁helped	-9.97088
▁commission	-9.97211
▁shake	-9.97264
▁spin	-9.97293
▁elliot	-9.97329
▁chose	-9.97357
▁progress	-9.97378
▁slip	-9.97389
▁ahearn	-9.9739
▁aramis	-9.9739
▁athos	-9.9739
▁buckingham	-9.9739
▁butler	-9.9739
▁ceremony	-9.9739
▁chakal	-9.9739
▁eventually	-9.9739
▁expedition	-9.9739
▁possibility	-9.9739
▁privilege	-9.9739
▁thief	-9.9739
▁cathy	-9.9739
▁larry	-9.9739
▁sondra	-9.9739
▁expensive	-9.9739
▁tongue	-9.9739
▁slept	-9.9739
▁thrill	-9.9739
▁appointment	-9.97391
▁silence	-9.97391
▁rude	-9.97391
▁trotwood	-9.97391
▁diane	-9.97391
▁eerie	-9.97391
▁garbage	-9.97391
▁hissing	-9.97392
▁congress	-9.97392
▁distance	-9.97393
▁mouse	-9.97393
▁cattle	-9.97394
▁jones	-9.97394
▁rotten	-9.97394
▁evie	-9.97395
▁alice	-9.97396
▁logan	-9.97397
▁grew	-9.97397
▁juan	-9.97401
▁heep	-9.97402
▁oclock	-9.97403
▁schedule	-9.97403
▁viva	-9.97403
▁serum	-9.97403
▁juice	-9.97403
▁balance	-9.97404
▁bible	-9.97405
▁impressive	-9.97407
▁remarkable	-9.97408
▁aboard	-9.97408
▁happiness	-9.9741
▁santa	-9.97415
▁gladys	-9.97415
▁mumbles	-9.97416
▁scooter	-9.97416
▁unlike	-9.97422
▁fold	-9.97422
▁beck	-9.97432
▁circumstances	-9.97437
▁kai	-9.97439
▁babies	-9.9744
▁according	-9.97483
▁statement	-9.97485
▁load	-9.97566
▁commissioner	-9.9757
▁discovered	-9.97586
▁copy	-9.97596
▁remembered	-9.97623
▁doors	-9.97639
▁guts	-9.97649
▁created	-9.97679
▁pap	-9.97692
▁treated	-9.97997
▁wishes	-9.98012
▁can	-9.98033
▁booker	-9.98059
▁someones	-9.98085
▁upb	-9.98171
▁hunting	-9.98255
▁armed	-9.98256
▁bothering	-9.98469
▁touched	-9.99104
▁rhythm	-9.9931
▁collect	-9.99464
▁numbers	-9.99758
▁leading	-9.99864
▁forces	-10.0034
▁picking	-10.0046
▁starr	-10.0052
▁el	-10.0066
ted	-10.0067
▁hah	-10.0095
▁sending	-10.0099
▁range	-10.011
▁warrant	-10.0158
▁illusion	-10.0166
▁experiment	-10.0167
▁salt	-10.0169
▁weekend	-10.0172
▁effect	-10.0174
▁type	-10.0174
▁sally	-10.0181
▁opens	-10.0182
▁devil	-10.0185
▁ideas	-10.0186
▁hu	-10.0205
▁mask	-10.021
▁trainer	-10.0225
▁spark	-10.0228
▁rob	-10.0235
▁suffer	-10.0252
▁fur	-10.0253
board	-10.0278
▁lack	-10.029
▁harm	-10.0293
▁moms	-10.0296
da	-10.0299
▁guarantee	-10.0309
▁illegal	-10.0313
▁branch	-10.0322
▁doc	-10.0323
▁stefan	-10.0324
▁capital	-10.0326
▁darlin	-10.0326
▁airport	-10.0327
▁appetite	-10.0327
▁cackle	-10.0327
▁colbert	-10.0327
▁district	-10.0327
▁garrincha	-10.0327
▁haldeman	-10.0327
▁joshua	-10.0327
▁modern	-10.0327
▁mostly	-10.0327
▁observe	-10.0327
▁political	-10.0327
▁rapunzel	-10.0327
▁suicide	-10.0327
▁territory	-10.0327
▁thursday	-10.0327
▁trunk	-10.0327
▁uriah	-10.0327
▁vesper	-10.0327
▁wisdom	-10.0327
▁apology	-10.0327
▁cheap	-10.0327
▁council	-10.0327
▁stokes	-10.0327
▁jazz	-10.0327
▁olsen	-10.0327
▁someplace	-10.0327
▁remote	-10.0327
▁engelberg	-10.0327
▁bernie	-10.0327
▁destruction	-10.0327
▁marvelous	-10.0327
▁bleeding	-10.0327
▁specific	-10.0327
▁trash	-10.0327
▁virginia	-10.0327
▁pilot	-10.0327
▁hitler	-10.0327
▁banana	-10.0327
▁sherry	-10.0328
▁assistance	-10.0328
▁marco	-10.0328
▁brief	-10.0328
▁francisco	-10.0328
▁sum	-10.0328
▁unique	-10.0328
▁aside	-10.0328
▁beam	-10.0328
▁russell	-10.0329
▁broad	-10.0329
▁math	-10.0329
▁jake	-10.0329
▁johnny	-10.0329
▁gim	-10.033
▁mayday	-10.033
▁robbery	-10.0331
▁toast	-10.0332
▁navy	-10.0332
▁practically	-10.0332
▁giggles	-10.0332
▁guilty	-10.0333
▁background	-10.0333
▁hut	-10.0334
▁chest	-10.0335
▁jane	-10.0335
▁donna	-10.0336
▁chanting	-10.0337
▁director	-10.0337
▁artist	-10.0337
▁aye	-10.0338
▁powerful	-10.0341
▁convinced	-10.0341
▁row	-10.0342
▁fate	-10.0343
▁pity	-10.0343
▁shattering	-10.0344
▁hearne	-10.035
▁hiya	-10.0355
x	-10.0358
▁finest	-10.0363
▁managed	-10.0365
▁wayne	-10.0365
▁raised	-10.0366
▁chase	-10.0367
▁odd	-10.0367
▁bowling	-10.0369
▁pin	-10.0374
▁presents	-10.0382
▁accepted	-10.0398
▁bolsheviks	-10.0403
▁dani	-10.0415
▁glue	-10.0422
▁enjoyed	-10.0422
▁et	-10.0435
▁weapons	-10.0439
▁z	-10.0439
▁steps	-10.0477
▁remove	-10.0501
▁sons	-10.0509
▁bing	-10.0518
beat	-10.0522
▁pi	-10.057
▁me	-10.0576
▁coaching	-10.0577
▁answers	-10.0585
▁ram	-10.0634
▁winds	-10.0643
▁ti	-10.0662
▁thoughts	-10.0683
▁pig	-10.0695
fully	-10.0703
▁out	-10.0715
▁desert	-10.0722
▁knowing	-10.0739
▁shift	-10.0749
▁claim	-10.0766
▁loan	-10.077
▁warn	-10.0776
way	-10.078
▁creep	-10.078
▁ocean	-10.0791
▁grandma	-10.0793
▁souls	-10.0794
▁edward	-10.0796
▁direction	-10.0797
▁guest	-10.0803
▁coward	-10.0803
▁gate	-10.0805
▁toward	-10.0808
se	-10.0808
▁jamaican	-10.0809
▁flower	-10.0815
▁buck	-10.0826
▁bone	-10.0833
dy	-10.0841
▁rider	-10.0848
▁attend	-10.087
▁du	-10.087
▁attempt	-10.0876
what	-10.0878
▁tear	-10.0885
▁fools	-10.0897
▁arrange	-10.0905
ball	-10.0905
▁text	-10.0906
▁blast	-10.091
▁cl	-10.091
throw	-10.0914
▁bowl	-10.0914
▁fi	-10.0927
▁separate	-10.0935
▁obvious	-10.0941
vious	-10.0943
▁potato	-10.0948
▁rate	-10.0948
▁pump	-10.0949
▁social	-10.0951
▁lucia	-10.0952
▁charmeleon	-10.0952
▁fifth	-10.0952
▁jessica	-10.0952
▁lincoln	-10.0952
▁muerte	-10.0952
▁peacock	-10.0952
▁plaza	-10.0952
▁routine	-10.0952
▁shakespeare	-10.0952
▁signature	-10.0952
▁splendid	-10.0952
▁ulysses	-10.0952
▁unusual	-10.0952
▁struck	-10.0952
▁albert	-10.0952
▁century	-10.0952
▁fetch	-10.0952
▁nixon	-10.0952
▁quark	-10.0952
▁holiday	-10.0952
▁excitement	-10.0952
▁mirror	-10.0952
▁couch	-10.0952
▁assignment	-10.0953
▁toby	-10.0953
▁francois	-10.0953
▁oak	-10.0953
▁supply	-10.0953
▁fancy	-10.0953
▁determined	-10.0953
▁hazel	-10.0953
▁tanner	-10.0953
▁performance	-10.0953
▁herman	-10.0953
▁reward	-10.0953
▁easily	-10.0954
▁dora	-10.0954
▁squad	-10.0954
▁quality	-10.0954
▁bride	-10.0954
▁nome	-10.0954
▁failure	-10.0955
▁tax	-10.0955
▁sumo	-10.0956
▁homework	-10.0957
▁chairman	-10.0957
▁mood	-10.0957
▁shining	-10.0957
▁loop	-10.0957
▁mall	-10.0957
▁francs	-10.0958
▁dragon	-10.0958
▁peaceful	-10.0958
▁cliff	-10.0959
▁sore	-10.096
▁sophie	-10.096
▁betting	-10.096
▁outer	-10.096
▁seal	-10.097
▁amen	-10.0974
▁naturally	-10.0976
head	-10.0976
▁joel	-10.0977
▁particularly	-10.0977
▁pot	-10.0979
▁plum	-10.0984
▁kindness	-10.0985
▁served	-10.099
▁earned	-10.0993
▁sat	-10.0994
▁crickets	-10.0995
▁instruments	-10.0995
▁screwed	-10.0996
▁prisoners	-10.1
▁blessed	-10.1007
▁twins	-10.1014
▁likely	-10.1016
▁filled	-10.1016
▁wheeler	-10.1017
▁bath	-10.1017
▁quietly	-10.1023
▁citizens	-10.1024
▁backup	-10.1024
▁traveling	-10.104
▁attacked	-10.1049
as	-10.1066
▁jackie	-10.1095
▁burning	-10.1097
▁tears	-10.1102
▁cleaning	-10.1124
▁points	-10.1124
▁comfort	-10.1128
▁pipe	-10.1135
▁cha	-10.1137
▁recording	-10.1156
▁sa	-10.1167
▁friendly	-10.1174
▁staring	-10.118
sa	-10.1199
▁bust	-10.121
▁learning	-10.1211
▁badly	-10.1212
▁catching	-10.122
▁chop	-10.1223
▁prayers	-10.1224
▁bastards	-10.1226
▁humble	-10.1228
▁runt	-10.1251
▁ar	-10.1258
ezvous	-10.1272
▁events	-10.1284
▁lions	-10.1292
▁gunshots	-10.1294
▁hundreds	-10.1324
▁mon	-10.133
▁indians	-10.1334
▁changes	-10.1336
▁belongs	-10.1344
he	-10.1348
the	-10.1409
▁teachers	-10.1435
▁scratch	-10.1437
▁crow	-10.1453
well	-10.1454
▁ja	-10.1457
▁slipper	-10.1458
▁duran	-10.1458
▁helicopter	-10.1462
▁shirt	-10.1465
▁vehicle	-10.1465
▁ni	-10.1471
▁grade	-10.1472
▁sword	-10.1473
▁shadow	-10.1474
▁thud	-10.1474
▁soldier	-10.1475
▁toy	-10.1482
▁dollar	-10.1483
▁tale	-10.1485
▁stranger	-10.1489
▁writer	-10.1492
▁loser	-10.1511
▁screen	-10.1514
▁wings	-10.1516
▁stops	-10.1538
▁hells	-10.1557
▁sneak	-10.1567
▁fo	-10.157
▁proceed	-10.1573
▁confess	-10.1575
▁boom	-10.1584
▁delay	-10.159
▁delight	-10.1593
▁tune	-10.1602
▁hung	-10.1609
▁republic	-10.1617
▁amanda	-10.1619
▁bethlehem	-10.1619
▁cackling	-10.1619
▁cinderella	-10.1619
▁dogtective	-10.1619
▁enemies	-10.1619
▁extraordinary	-10.1619
▁families	-10.1619
▁lassard	-10.1619
▁lndistinct	-10.1619
▁sigrid	-10.1619
▁struggle	-10.1619
▁wednesday	-10.1619
▁tooth	-10.1619
▁beneath	-10.1619
▁ralph	-10.1619
▁stroke	-10.1619
▁trigger	-10.1619
▁porthos	-10.1619
▁contain	-10.1619
▁patrol	-10.1619
▁susan	-10.1619
▁doug	-10.1619
▁spain	-10.1619
▁swimming	-10.1619
▁blew	-10.1619
▁zorin	-10.1619
▁insane	-10.1619
▁easier	-10.1619
▁inaudible	-10.1619
▁beings	-10.1619
▁humor	-10.162
▁shane	-10.162
▁strawberry	-10.162
▁cox	-10.162
▁intense	-10.162
▁income	-10.162
▁anger	-10.162
▁available	-10.162
▁occupied	-10.162
▁surgery	-10.1621
▁computerized	-10.1621
▁cupboard	-10.1621
▁dropping	-10.1621
▁mummy	-10.1621
▁goodnight	-10.1621
▁regard	-10.1621
▁centre	-10.1622
▁toron	-10.1622
▁phase	-10.1622
▁claire	-10.1623
▁robin	-10.1623
▁halfway	-10.1623
▁secretary	-10.1623
▁clattering	-10.1624
▁arth	-10.1624
▁protection	-10.1624
▁groom	-10.1625
▁brake	-10.1626
▁stein	-10.1627
▁canceled	-10.1629
▁disgusting	-10.163
▁directly	-10.163
▁quot	-10.1631
▁veterans	-10.1634
▁heat	-10.1635
▁cheating	-10.1636
▁latest	-10.1637
▁mansion	-10.1639
▁properly	-10.164
▁crown	-10.164
▁seth	-10.1642
▁down	-10.1643
▁approaching	-10.1644
▁exhales	-10.1645
▁highest	-10.1647
▁warned	-10.1657
▁deed	-10.1658
▁forced	-10.1661
▁howdy	-10.1665
▁aid	-10.1666
▁complaining	-10.1675
▁exclaims	-10.1675
▁defeated	-10.168
▁vegetables	-10.1685
▁ka	-10.1694
▁packed	-10.1696
▁cigarettes	-10.1706
▁covered	-10.1714
▁crossed	-10.1735
▁drinks	-10.1735
▁cleaned	-10.1735
▁worlds	-10.1737
▁cookies	-10.1744
▁hits	-10.1752
▁studying	-10.1757
▁muffle	-10.1768
▁pan	-10.177
▁what	-10.1772
▁boarding	-10.1777
▁guests	-10.1778
▁offering	-10.1781
▁devils	-10.1788
▁cooking	-10.1791
ton	-10.1797
ned	-10.1808
iii	-10.1841
▁nah	-10.1848
▁creatures	-10.1861
▁anti	-10.1883
▁pr	-10.1898
▁throwing	-10.1902
clear	-10.1912
▁checked	-10.1913
id	-10.192
▁conversations	-10.1933
f	-10.1943
▁fe	-10.1964
▁glen	-10.1974
▁signs	-10.198
▁donkeys	-10.2007
im	-10.2008
▁ac	-10.2013
▁flames	-10.2046
▁decisions	-10.207
▁becomes	-10.2097
ey	-10.2107
▁com	-10.2109
▁stores	-10.2123
▁tap	-10.2131
▁solution	-10.2145
▁model	-10.2145
▁journalist	-10.2146
▁wound	-10.2148
▁under	-10.215
▁lamb	-10.2151
▁print	-10.2151
▁clank	-10.2154
▁martini	-10.2159
▁tradition	-10.216
▁benefit	-10.2164
▁character	-10.2164
▁plate	-10.2165
▁sire	-10.2165
ho	-10.2167
▁bars	-10.2169
▁chick	-10.2171
▁u	-10.2171
▁disease	-10.2172
ably	-10.2173
▁charges	-10.2176
▁grandmother	-10.2176
▁neigh	-10.2177
▁mer	-10.218
▁cowboy	-10.2181
▁moron	-10.2182
▁saint	-10.2185
▁jew	-10.2186
▁shoulder	-10.2202
▁reports	-10.2223
▁stretch	-10.2246
▁insult	-10.2249
ro	-10.227
▁interrupt	-10.2279
hi	-10.228
▁page	-10.228
ts	-10.2282
▁direct	-10.2282
▁smack	-10.2286
more	-10.229
born	-10.2295
▁para	-10.2306
▁ahhh	-10.231
▁squeeze	-10.2313
▁dates	-10.2314
▁convince	-10.2316
▁mysterious	-10.232
▁actual	-10.2322
▁ignore	-10.2323
▁foolish	-10.2324
▁witness	-10.2329
▁convention	-10.2331
▁dish	-10.2333
▁charmander	-10.2333
▁disguise	-10.2333
▁manhattan	-10.2333
▁chinese	-10.2333
▁compete	-10.2333
▁discipline	-10.2333
▁gorgeous	-10.2333
▁intelligent	-10.2333
▁mexican	-10.2333
▁piccolo	-10.2333
▁politics	-10.2333
▁reckless	-10.2333
▁religious	-10.2333
▁spenlow	-10.2333
▁tattoo	-10.2333
▁thumb	-10.2333
▁twelve	-10.2333
▁confidence	-10.2333
▁hartounian	-10.2333
▁bulldozer	-10.2333
▁turkey	-10.2333
▁kidnapped	-10.2333
▁central	-10.2333
▁solve	-10.2333
▁including	-10.2333
▁joking	-10.2333
▁bertha	-10.2333
▁rustling	-10.2333
▁abner	-10.2333
▁jimbo	-10.2333
▁carried	-10.2333
▁reputation	-10.2333
▁rudy	-10.2333
▁steinberg	-10.2333
▁ordinary	-10.2333
▁portia	-10.2333
▁positive	-10.2333
▁detective	-10.2334
▁clown	-10.2334
▁bueno	-10.2334
▁strain	-10.2334
▁harsh	-10.2334
▁theme	-10.2334
▁burst	-10.2334
▁response	-10.2335
▁stine	-10.2335
▁fuss	-10.2335
▁trial	-10.2335
▁upper	-10.2335
▁vet	-10.2336
▁brian	-10.2336
▁foul	-10.2336
▁chessy	-10.2336
▁destiny	-10.2336
▁bingo	-10.2337
▁pumpkin	-10.2338
▁potatoes	-10.2339
▁supplies	-10.2339
▁stairs	-10.234
▁yank	-10.2341
▁heartland	-10.2341
▁toro	-10.2342
▁fourth	-10.2344
▁boring	-10.2347
▁darkness	-10.2348
▁lawson	-10.2349
▁dolly	-10.2351
▁iike	-10.2358
▁yup	-10.236
▁coughs	-10.2361
▁delighted	-10.2363
▁squeaking	-10.2365
▁grove	-10.2365
▁busted	-10.2366
▁settled	-10.2366
▁loaded	-10.2369
▁meantime	-10.2371
▁nails	-10.2373
▁failed	-10.2374
▁conduct	-10.2374
▁delivered	-10.2378
▁honestly	-10.2378
▁socks	-10.2384
▁license	-10.2388
▁whoops	-10.2396
▁toes	-10.2399
▁wasted	-10.242
▁armor	-10.2422
▁considered	-10.2424
▁instructions	-10.2427
▁prom	-10.2449
▁whoohoo	-10.2476
▁parker	-10.2477
▁exercise	-10.2482
▁finding	-10.252
j	-10.2535
▁dragonballs	-10.2538
▁frog	-10.2563
▁carrying	-10.257
▁sessions	-10.2571
▁spending	-10.2572
▁occasion	-10.2572
▁clubs	-10.2596
▁showing	-10.2601
▁towns	-10.2608
be	-10.2619
▁cleared	-10.2628
gged	-10.2647
ible	-10.2652
▁fashion	-10.2661
▁whistles	-10.2661
▁reminds	-10.2662
▁faces	-10.2664
ra	-10.2675
▁tells	-10.2679
oh	-10.2692
▁gen	-10.2717
▁unit	-10.2749
ities	-10.2767
just	-10.2802
▁opera	-10.2824
▁ba	-10.2839
▁bump	-10.2844
ow	-10.2912
▁bishop	-10.2914
▁negative	-10.2914
▁development	-10.2915
ty	-10.2915
▁duck	-10.2915
▁soup	-10.2916
▁measure	-10.2932
▁vacation	-10.2933
▁zone	-10.2934
rez	-10.2936
▁tournament	-10.2941
▁lecture	-10.2941
▁monkey	-10.2941
▁tuesday	-10.2946
▁league	-10.295
▁subject	-10.2952
▁option	-10.2955
▁weapon	-10.2957
▁demand	-10.2957
▁customer	-10.2958
▁ike	-10.2959
▁folk	-10.296
▁beside	-10.296
▁term	-10.2963
▁areas	-10.2968
▁runs	-10.2975
▁hunter	-10.2979
▁chap	-10.2982
▁organ	-10.3056
▁skip	-10.3059
▁discover	-10.306
like	-10.3061
▁prevent	-10.3071
▁mix	-10.3075
▁jam	-10.3078
▁saddle	-10.3083
▁sacrifice	-10.3084
▁immediate	-10.3091
▁tempo	-10.31
▁dutch	-10.31
▁gre	-10.31
▁threat	-10.3101
▁cruel	-10.3102
▁concert	-10.3102
▁bunyan	-10.3102
▁ciolino	-10.3102
▁dynamite	-10.3102
▁heavily	-10.3102
▁kerensky	-10.3102
▁oozaru	-10.3102
▁orange	-10.3102
▁phantom	-10.3102
▁revenge	-10.3102
▁senator	-10.3102
▁shelter	-10.3102
▁smythe	-10.3102
▁tumbleweed	-10.3102
▁whimpers	-10.3102
▁essay	-10.3102
▁fouquet	-10.3102
▁morgan	-10.3102
▁disaster	-10.3102
▁fabulous	-10.3102
▁nerve	-10.3102
▁precious	-10.3102
▁urmi	-10.3102
▁eminence	-10.3103
▁instance	-10.3103
▁nelda	-10.3103
▁ginga	-10.3103
▁closing	-10.3103
▁isabella	-10.3103
▁plastic	-10.3103
▁curious	-10.3103
▁existence	-10.3103
▁timmy	-10.3103
▁blaring	-10.3103
▁bruno	-10.3103
▁charity	-10.3103
▁commitment	-10.3103
▁suitcase	-10.3103
▁zoo	-10.3103
▁operator	-10.3103
▁latin	-10.3103
▁psycho	-10.3103
▁admiral	-10.3104
▁fork	-10.3104
▁anna	-10.3104
▁pegasus	-10.3104
▁rifle	-10.3104
reme	-10.3105
▁saul	-10.3105
▁assistant	-10.3105
▁role	-10.3105
▁minor	-10.3105
▁sang	-10.3105
▁divine	-10.3105
▁filthy	-10.3106
▁confused	-10.3106
▁cried	-10.3107
▁revolutionary	-10.3107
▁chosen	-10.3107
▁chin	-10.3107
▁wrap	-10.3107
▁marie	-10.3107
▁inches	-10.3107
▁claus	-10.3108
▁argh	-10.3108
▁sink	-10.3109
▁bedroom	-10.311
▁izzy	-10.311
▁elliott	-10.3111
▁thee	-10.3111
▁intention	-10.3113
▁stopping	-10.3113
▁beaten	-10.3113
▁mack	-10.3117
▁compared	-10.3118
▁agh	-10.3123
▁q	-10.3125
ious	-10.3125
▁woke	-10.3126
▁reality	-10.3128
▁parties	-10.3132
▁successful	-10.3133
▁refused	-10.3136
▁hip	-10.3144
▁mustnt	-10.3147
▁bend	-10.3147
▁aires	-10.3147
▁painting	-10.3149
▁rub	-10.3149
▁blonde	-10.316
ard	-10.3167
▁lab	-10.3169
▁locker	-10.3172
ier	-10.3184
▁brandy	-10.3187
▁lighter	-10.319
▁bothered	-10.32
through	-10.3205
▁gal	-10.321
▁sticks	-10.3216
▁offered	-10.3221
▁knocked	-10.3221
▁slaves	-10.3228
▁yankees	-10.3228
▁faithful	-10.3228
▁bugs	-10.323
▁scar	-10.3231
▁lover	-10.3233
ster	-10.3236
▁sniff	-10.3251
▁roads	-10.3251
▁frogs	-10.3257
▁host	-10.3264
▁jumping	-10.3266
▁toys	-10.3276
▁pace	-10.3285
and	-10.3304
▁thin	-10.3332
▁beard	-10.3344
▁rip	-10.3354
▁understanding	-10.3363
om	-10.3377
▁appears	-10.3398
▁holes	-10.3414
▁paint	-10.3418
▁sweets	-10.3437
▁russians	-10.3446
▁dove	-10.3452
lin	-10.3456
▁pulling	-10.3457
▁sundays	-10.347
▁mol	-10.3489
▁painful	-10.3492
▁non	-10.3493
▁fires	-10.3527
ley	-10.3536
▁stew	-10.3548
ors	-10.3552
▁regret	-10.3558
▁tosh	-10.3561
▁sec	-10.3561
▁moments	-10.3567
▁shoots	-10.3599
▁chat	-10.3619
▁pen	-10.3621
▁carol	-10.3621
▁ted	-10.3631
▁comment	-10.3637
▁officers	-10.3686
▁headed	-10.37
▁costs	-10.3717
▁parts	-10.3724
▁doll	-10.3731
la	-10.3732
▁seats	-10.3736
▁intend	-10.3739
our	-10.3742
▁sigh	-10.3742
▁channel	-10.3748
▁purchase	-10.3748
▁attacks	-10.3758
▁fee	-10.3761
▁museum	-10.3767
▁reservation	-10.3767
▁source	-10.3767
▁punishment	-10.3767
▁grip	-10.3771
▁minds	-10.3777
▁principle	-10.3779
q	-10.3779
▁championship	-10.3779
▁generation	-10.3782
▁barrel	-10.3783
▁height	-10.3787
▁skill	-10.379
▁olympic	-10.379
▁nun	-10.3794
▁judges	-10.3794
▁string	-10.3796
▁herb	-10.3797
▁snor	-10.3798
▁cookie	-10.3798
▁exact	-10.3801
▁grounds	-10.3806
▁farmer	-10.3818
am	-10.3822
tone	-10.3824
▁product	-10.3828
▁surprises	-10.3843
▁sweat	-10.3849
▁blackmail	-10.3849
▁mel	-10.385
▁bev	-10.3863
v	-10.3876
▁troubles	-10.3886
▁drag	-10.3896
good	-10.3898
▁punch	-10.3901
▁twist	-10.3903
▁recover	-10.3907
▁borrow	-10.3908
▁ol	-10.3915
▁receive	-10.3916
house	-10.3921
▁hee	-10.3922
▁emotional	-10.3922
▁twenty	-10.3924
▁pee	-10.3924
mp	-10.3927
▁chill	-10.3929
▁fond	-10.3932
▁establish	-10.3932
▁convent	-10.3933
▁education	-10.3934
▁brown	-10.3934
ants	-10.3934
▁resist	-10.3935
▁basket	-10.3935
▁cease	-10.3936
▁amount	-10.3936
▁ashford	-10.3936
▁ernie	-10.3936
▁escort	-10.3936
▁fitzgerald	-10.3936
▁headquarters	-10.3936
▁inspiration	-10.3936
▁keach	-10.3936
▁lacrique	-10.3936
▁liberty	-10.3936
▁meerut	-10.3936
▁murdstone	-10.3936
▁november	-10.3936
▁phrase	-10.3936
▁practicing	-10.3936
▁recommend	-10.3936
▁retreat	-10.3936
▁runnin	-10.3936
▁scotch	-10.3936
▁similar	-10.3936
▁stephanie	-10.3936
▁whimpering	-10.3936
▁winsiow	-10.3936
▁apologies	-10.3936
▁blenac	-10.3936
▁coincidence	-10.3936
▁muscle	-10.3936
▁stuart	-10.3936
▁wadsworth	-10.3936
▁wilderness	-10.3936
▁conscience	-10.3936
▁boston	-10.3936
▁shrink	-10.3936
▁crail	-10.3936
▁anytime	-10.3936
▁therefore	-10.3936
▁solid	-10.3936
▁unhappy	-10.3936
▁bushwood	-10.3936
▁flesh	-10.3936
▁felicia	-10.3936
▁conference	-10.3936
▁marcus	-10.3936
▁robbie	-10.3936
▁helen	-10.3936
▁inhales	-10.3936
▁hahaha	-10.3936
▁editor	-10.3936
▁florida	-10.3936
▁smiling	-10.3936
▁swiss	-10.3936
▁series	-10.3936
▁civilized	-10.3936
▁urgent	-10.3936
▁consciousness	-10.3936
▁massage	-10.3936
▁purse	-10.3936
▁engagement	-10.3936
▁bacon	-10.3936
▁flock	-10.3936
▁camus	-10.3936
▁argue	-10.3936
▁unbelievable	-10.3936
▁duke	-10.3937
▁persuade	-10.3937
▁poet	-10.3937
▁square	-10.3937
▁genetic	-10.3937
▁precisely	-10.3937
▁ease	-10.3938
▁ouch	-10.3938
▁maxwell	-10.3938
▁dull	-10.3938
▁robertson	-10.3938
▁starving	-10.3938
▁dozen	-10.3939
▁nearby	-10.3939
▁parade	-10.3939
▁surface	-10.394
▁faint	-10.394
▁dug	-10.3941
▁appropriate	-10.3941
▁sensitive	-10.3941
▁santos	-10.3941
▁ability	-10.3941
▁accused	-10.3942
▁batter	-10.3942
▁tapping	-10.3942
▁julien	-10.3942
▁rack	-10.3942
▁link	-10.3943
▁capable	-10.3944
▁suggestion	-10.3945
▁erin	-10.3946
▁chuck	-10.3947
▁tucker	-10.3947
▁fallen	-10.3947
▁violence	-10.3948
▁sc	-10.3948
▁cutting	-10.3949
▁eve	-10.3949
▁crunching	-10.3949
▁hitting	-10.395
▁heroic	-10.3951
▁oughta	-10.3951
▁battery	-10.3951
▁jacket	-10.3953
▁easter	-10.3961
▁bah	-10.3962
▁pastor	-10.3963
▁borrowed	-10.3964
▁officially	-10.3965
▁embarrassing	-10.3965
▁sinners	-10.3968
▁spades	-10.3969
oo	-10.3977
▁commander	-10.398
▁counter	-10.3982
mond	-10.3991
ola	-10.3993
▁sucker	-10.3995
▁payal	-10.3999
▁lance	-10.4001
▁image	-10.4002
▁dinging	-10.4008
▁average	-10.4008
▁banks	-10.401
▁murdered	-10.4011
▁helpless	-10.4022
▁mart	-10.4023
▁documents	-10.4034
▁whispers	-10.4034
▁results	-10.4034
▁thick	-10.4038
▁protected	-10.4042
▁mechanical	-10.4046
▁wi	-10.4056
▁sauce	-10.4062
ung	-10.4065
▁nut	-10.4065
▁seated	-10.4066
▁filling	-10.4066
one	-10.407
▁belly	-10.4078
▁somethings	-10.409
▁twos	-10.4096
▁terms	-10.4099
▁ikes	-10.4104
▁fortunate	-10.4105
▁hunters	-10.4107
▁pages	-10.411
ize	-10.4116
▁abe	-10.4119
co	-10.4133
▁rolls	-10.4138
les	-10.4142
▁attacking	-10.4146
▁testing	-10.4157
▁shines	-10.4165
▁hug	-10.4166
agreement	-10.4167
▁deadly	-10.4177
▁wheels	-10.4179
▁camping	-10.4182
▁beasts	-10.4191
▁actors	-10.4193
▁inform	-10.4225
▁philip	-10.4226
▁leaders	-10.424
▁washed	-10.4267
▁eli	-10.4275
▁phones	-10.4282
ery	-10.4283
▁rogers	-10.4297
at	-10.4309
▁gifts	-10.431
▁patients	-10.4324
▁murders	-10.4339
▁turner	-10.434
eth	-10.4345
ill	-10.435
▁lawyers	-10.4351
▁incident	-10.4351
▁ra	-10.4359
▁mar	-10.4363
ine	-10.4419
▁hoped	-10.4423
▁tramp	-10.4427
▁dealing	-10.4451
ny	-10.4457
▁films	-10.4459
▁whe	-10.4461
▁jo	-10.4479
▁hats	-10.4498
ble	-10.4515
▁mental	-10.4519
▁monsters	-10.4526
▁brains	-10.4539
▁sha	-10.4548
▁punk	-10.4551
▁sorrow	-10.4567
▁driven	-10.4577
▁insist	-10.4595
tle	-10.4625
▁charm	-10.4626
▁fri	-10.4633
off	-10.4646
▁ana	-10.4649
▁period	-10.4657
▁religion	-10.4657
▁symbol	-10.4657
▁jessie	-10.4659
▁limit	-10.4664
▁hoo	-10.4665
▁civilization	-10.4676
▁maiden	-10.4677
▁issue	-10.4678
▁waited	-10.4681
▁explanation	-10.4684
▁mi	-10.4685
▁relationship	-10.4688
▁ninja	-10.4688
▁theater	-10.4688
▁client	-10.469
▁soviet	-10.4693
▁warrior	-10.4693
▁circle	-10.4694
▁servant	-10.4695
▁bug	-10.4696
▁yankee	-10.4698
▁gown	-10.4704
▁pier	-10.4716
▁cakes	-10.4721
ge	-10.4723
▁slave	-10.4724
▁behave	-10.4744
▁worrying	-10.4748
▁wars	-10.4781
▁possess	-10.4783
▁chew	-10.4789
▁success	-10.4792
▁rattl	-10.4796
field	-10.4802
▁rot	-10.4802
▁pour	-10.4804
hood	-10.4808
▁listened	-10.481
▁boot	-10.4813
▁hopeless	-10.4815
▁obey	-10.4817
▁trace	-10.4826
▁sentence	-10.4827
right	-10.4829
▁recent	-10.4833
▁australia	-10.4838
▁pistol	-10.4839
▁virgin	-10.4843
▁lovin	-10.4844
▁sup	-10.4845
▁advantage	-10.4845
▁albrecht	-10.4845
▁arizona	-10.4845
▁armistice	-10.4845
▁brooklyn	-10.4845
▁buffalo	-10.4845
▁celebrating	-10.4845
▁chicago	-10.4845
▁compromise	-10.4845
▁congratulate	-10.4845
▁costello	-10.4845
▁driscoll	-10.4845
▁giuseppe	-10.4845
▁imitating	-10.4845
▁jeez	-10.4845
▁moscow	-10.4845
▁mystery	-10.4845
▁nebraska	-10.4845
▁october	-10.4845
▁ollie	-10.4845
▁passport	-10.4845
▁proposal	-10.4845
▁shogun	-10.4845
▁stubborn	-10.4845
▁sweep	-10.4845
▁trophy	-10.4845
▁vacuum	-10.4845
▁volunteer	-10.4845
▁connolly	-10.4845
▁grogan	-10.4845
▁thisll	-10.4845
▁choking	-10.4845
▁gustav	-10.4845
▁hyde	-10.4845
▁outfit	-10.4845
▁perfume	-10.4845
▁puppy	-10.4845
▁southern	-10.4845
▁afterwards	-10.4845
▁lugash	-10.4845
▁suzanne	-10.4845
▁impact	-10.4845
▁jenkins	-10.4845
▁transmission	-10.4845
▁trask	-10.4845
▁tractor	-10.4845
▁widowmaker	-10.4845
▁outlaw	-10.4845
▁pacific	-10.4845
▁administration	-10.4845
▁clinic	-10.4845
▁pleasant	-10.4845
▁dragged	-10.4845
▁swine	-10.4845
▁delhi	-10.4845
▁mijo	-10.4845
▁miserable	-10.4845
▁panther	-10.4845
▁generous	-10.4845
▁literally	-10.4845
▁sunset	-10.4845
▁temple	-10.4845
▁mmmhmm	-10.4845
▁propaganda	-10.4845
▁transmitter	-10.4845
▁shook	-10.4845
▁gross	-10.4845
▁rising	-10.4845
▁involvement	-10.4845
▁harp	-10.4846
▁assist	-10.4846
▁debbie	-10.4846
▁naughty	-10.4846
▁bait	-10.4846
▁necessarily	-10.4846
▁deputies	-10.4846
▁skies	-10.4846
▁bold	-10.4846
▁alaska	-10.4846
▁gig	-10.4846
▁blade	-10.4846
▁coma	-10.4847
▁alexander	-10.4847
▁mario	-10.4847
▁toss	-10.4847
▁carriage	-10.4847
▁dori	-10.4847
▁refund	-10.4847
▁polite	-10.4847
▁lemon	-10.4847
▁network	-10.4847
▁theory	-10.4847
▁maid	-10.4847
▁dating	-10.4847
▁lndian	-10.4848
▁asshole	-10.4848
▁attractive	-10.4848
▁gregg	-10.4848
▁flies	-10.4848
▁opposed	-10.4848
▁begging	-10.4849
▁appointed	-10.4849
▁opposite	-10.4849
▁invented	-10.4849
▁tribe	-10.4849
▁beal	-10.4849
▁kiddo	-10.4849
▁expression	-10.4849
▁tries	-10.485
▁wore	-10.485
▁personality	-10.485
▁sharing	-10.485
▁amazed	-10.4851
▁rats	-10.4851
▁riddle	-10.4851
▁highway	-10.4851
▁statue	-10.4851
▁gray	-10.4852
▁iook	-10.4852
▁ballet	-10.4853
▁mice	-10.4853
▁dammit	-10.4854
▁title	-10.4855
▁flash	-10.4855
▁andy	-10.4855
▁sobs	-10.4855
▁dial	-10.4856
▁spear	-10.4856
▁masses	-10.4856
▁clue	-10.4856
▁amber	-10.4858
▁hamlet	-10.4858
▁bury	-10.4858
▁adore	-10.4858
▁vow	-10.486
▁identified	-10.486
▁til	-10.486
▁reaction	-10.4861
▁roy	-10.4862
▁committed	-10.4862
▁there	-10.4864
▁crushed	-10.4865
▁embarrassed	-10.4865
▁pit	-10.4866
▁comb	-10.4866
▁patterns	-10.4867
▁lend	-10.4867
▁naked	-10.4867
▁pickup	-10.4868
sensible	-10.4874
▁former	-10.4875
▁heroes	-10.4876
▁useless	-10.4877
▁stake	-10.4879
▁removed	-10.4881
▁arranged	-10.4885
▁flush	-10.4889
ad	-10.4889
▁tricks	-10.489
▁lawn	-10.489
▁porter	-10.4891
▁useful	-10.4893
▁deeper	-10.4895
▁polar	-10.4896
▁escaped	-10.4897
▁lad	-10.4899
▁musketeers	-10.4924
▁eco	-10.4928
▁bid	-10.4929
▁insects	-10.4938
▁grapes	-10.4938
▁acres	-10.4938
▁beeps	-10.4938
▁figures	-10.494
▁gardener	-10.4948
▁bullets	-10.4952
▁stamps	-10.4953
▁pills	-10.4967
▁moral	-10.4972
▁manners	-10.4981
aboom	-10.4986
▁qui	-10.4986
▁issues	-10.4996
▁skills	-10.5009
▁breaks	-10.5012
▁messed	-10.502
▁farmers	-10.5021
▁options	-10.5024
▁units	-10.5034
cy	-10.5038
▁saints	-10.5039
▁aim	-10.504
misunderstanding	-10.5044
▁visiting	-10.5056
▁pigs	-10.5065
▁chips	-10.5093
▁reporting	-10.5094
▁ships	-10.5097
▁clouds	-10.5111
▁drums	-10.5115
▁vi	-10.5115
▁mumbl	-10.512
▁fans	-10.5127
▁whack	-10.5146
▁scares	-10.5146
ade	-10.5154
▁trans	-10.5177
▁cu	-10.5192
▁pockets	-10.5199
▁falls	-10.5203
▁cr	-10.5204
▁joining	-10.522
▁nations	-10.5228
▁usa	-10.5228
▁roses	-10.5229
ical	-10.5258
▁interfere	-10.5269
bs	-10.533
ot	-10.5345
▁dreaming	-10.5375
▁ken	-10.5418
▁unh	-10.543
▁ph	-10.5443
▁be	-10.5467
▁ye	-10.5493
▁idiots	-10.5495
chi	-10.5495
▁messages	-10.5525
▁buildings	-10.5525
▁ad	-10.5532
ebod	-10.5535
▁classic	-10.5551
▁nap	-10.5567
cha	-10.5572
che	-10.5584
▁design	-10.561
▁bla	-10.5613
▁sub	-10.5616
▁asks	-10.5625
ank	-10.5627
▁squeak	-10.5652
▁hypnoray	-10.5657
▁invitation	-10.5657
▁shore	-10.566
▁photograph	-10.5661
▁lick	-10.5661
▁judgment	-10.5676
▁lunatic	-10.5676
▁technique	-10.5676
▁jerk	-10.5676
▁discussion	-10.5682
▁facts	-10.5682
▁principal	-10.5686
▁estate	-10.5686
ial	-10.5686
▁towel	-10.5688
▁structure	-10.569
▁cousin	-10.5693
▁rumor	-10.5693
▁mule	-10.5694
▁jap	-10.5695
▁she	-10.5696
▁degree	-10.5699
▁uniform	-10.5699
ship	-10.5727
▁pops	-10.5729
▁manner	-10.5732
▁authentic	-10.5736
▁rocket	-10.5739
▁needle	-10.5743
▁flu	-10.5755
nce	-10.5766
os	-10.5774
▁rank	-10.5777
▁finds	-10.5779
▁fuck	-10.5787
▁musician	-10.5787
▁draft	-10.5794
▁je	-10.5799
point	-10.5802
▁steer	-10.5804
load	-10.5806
write	-10.5807
▁hates	-10.5808
▁speaker	-10.5808
▁sixth	-10.5812
▁palm	-10.5814
▁gain	-10.5818
▁jess	-10.5823
▁influence	-10.5823
▁heal	-10.5824
▁replace	-10.5824
▁improve	-10.5824
▁haul	-10.5825
▁announce	-10.5827
▁divorce	-10.583
▁matt	-10.5832
▁waters	-10.5833
room	-10.5835
▁incredibl	-10.5836
▁mamma	-10.584
ternal	-10.5842
▁prior	-10.5842
lasting	-10.5843
▁ending	-10.5844
▁mmhm	-10.5844
▁mornin	-10.5844
▁loyal	-10.5844
▁thirty	-10.5845
▁abbott	-10.5845
▁adorable	-10.5845
▁alligator	-10.5845
▁appeal	-10.5845
▁believing	-10.5845
▁briggs	-10.5845
▁bureau	-10.5845
▁buzhardt	-10.5845
▁candidate	-10.5845
▁caribou	-10.5845
▁corporal	-10.5845
▁dobson	-10.5845
▁dolores	-10.5845
▁elixir	-10.5845
▁forfeit	-10.5845
▁iww	-10.5845
▁jotham	-10.5845
▁judging	-10.5845
▁krader	-10.5845
▁liquor	-10.5845
▁lollipop	-10.5845
▁mavericks	-10.5845
▁milkywhite	-10.5845
▁norbert	-10.5845
▁primitive	-10.5845
▁rattlesnake	-10.5845
▁reef	-10.5845
▁relief	-10.5845
▁saknussemm	-10.5845
▁september	-10.5845
▁stadium	-10.5845
▁suspicious	-10.5845
▁telegraph	-10.5845
▁tesla	-10.5845
▁underwear	-10.5845
▁vichy	-10.5845
▁weasel	-10.5845
▁ahmad	-10.5845
▁luggage	-10.5845
▁lupus	-10.5845
▁arguing	-10.5845
▁austria	-10.5845
▁presidency	-10.5845
▁cantata	-10.5845
▁nanna	-10.5845
▁revs	-10.5845
▁banquet	-10.5845
▁stiles	-10.5845
▁vicious	-10.5845
▁lindsey	-10.5845
▁chores	-10.5845
▁gibus	-10.5845
▁graham	-10.5845
▁worries	-10.5845
▁awkward	-10.5845
▁volume	-10.5845
▁brawley	-10.5845
▁radar	-10.5845
▁silent	-10.5845
▁bannock	-10.5845
▁vava	-10.5845
▁community	-10.5845
▁denne	-10.5845
▁combination	-10.5845
▁marva	-10.5845
▁parlor	-10.5845
▁imagination	-10.5845
▁display	-10.5845
▁kayla	-10.5845
▁slipped	-10.5845
▁obtain	-10.5845
▁zito	-10.5845
▁merv	-10.5845
▁copyright	-10.5845
▁begun	-10.5845
▁jungle	-10.5845
▁fever	-10.5846
▁togo	-10.5846
▁identity	-10.5846
▁memories	-10.5846
▁rita	-10.5846
▁francesco	-10.5846
▁bham	-10.5846
▁portland	-10.5846
▁constitution	-10.5846
▁ciao	-10.5846
▁location	-10.5847
▁liar	-10.5847
▁effective	-10.5847
▁worn	-10.5847
▁false	-10.5847
▁descend	-10.5847
▁bonus	-10.5847
▁wrapped	-10.5847
▁connection	-10.5847
▁admitted	-10.5848
▁qualified	-10.5848
▁muttering	-10.5848
▁entry	-10.5848
▁collection	-10.5848
▁cities	-10.5848
▁ashley	-10.5848
▁japan	-10.5848
▁production	-10.5849
▁resignation	-10.5849
▁whining	-10.5849
▁coverup	-10.5849
▁dang	-10.5849
▁surrounded	-10.5849
▁popping	-10.5849
▁drunken	-10.585
▁graduate	-10.585
▁daan	-10.585
▁federa	-10.5851
▁fifty	-10.5851
▁ahem	-10.5851
▁lame	-10.5851
▁dishes	-10.5852
▁pm	-10.5852
▁slide	-10.5852
▁janet	-10.5852
▁threatened	-10.5852
▁package	-10.5852
▁victory	-10.5853
▁friendship	-10.5853
▁scan	-10.5853
▁momma	-10.5855
▁tang	-10.5855
▁fortune	-10.5855
▁backyard	-10.5856
pl	-10.5857
▁subpoenaed	-10.5858
▁frightened	-10.5858
▁complaint	-10.5859
▁angeles	-10.5859
▁captured	-10.5859
▁uhuh	-10.586
▁lane	-10.586
▁arrow	-10.5861
▁chaos	-10.5861
▁fairies	-10.5862
▁stunt	-10.5862
▁hopefully	-10.5862
▁stepped	-10.5863
▁handling	-10.5864
▁stutter	-10.5865
▁lake	-10.5866
▁punished	-10.5866
▁goose	-10.5867
▁pe	-10.5867
▁homesteaders	-10.5869
▁shrieks	-10.5869
▁developed	-10.5871
▁starve	-10.5871
▁wandering	-10.5871
▁coal	-10.5872
▁wiped	-10.5873
▁separated	-10.5873
▁bunk	-10.5873
▁reasonable	-10.5874
▁laser	-10.5875
▁limited	-10.5876
▁spy	-10.588
▁haha	-10.5882
▁crud	-10.5883
▁moors	-10.5883
▁bess	-10.5884
▁goodlooking	-10.5884
▁ty	-10.5887
▁goats	-10.589
some	-10.5893
▁suffered	-10.5894
▁returns	-10.5896
▁sniffing	-10.5902
▁moves	-10.5909
▁knuckles	-10.5916
▁hale	-10.5917
▁makeup	-10.5918
▁added	-10.5925
▁some	-10.5925
▁athletes	-10.5933
tel	-10.5939
io	-10.5946
▁oops	-10.5948
▁shortly	-10.5952
▁sur	-10.5953
▁roars	-10.5965
▁victims	-10.598
▁rd	-10.5985
▁safely	-10.5985
▁blessing	-10.5989
▁visited	-10.5992
ik	-10.5993
▁carl	-10.5995
▁japs	-10.5996
▁helpful	-10.5999
▁los	-10.6003
ied	-10.6003
▁bra	-10.6009
▁youi	-10.6011
▁cooked	-10.6014
ass	-10.6016
▁respected	-10.6018
▁heights	-10.6028
▁speakers	-10.6034
▁praying	-10.6042
▁peters	-10.6063
▁shoulders	-10.6069
its	-10.6079
▁strangers	-10.6082
light	-10.6083
▁spiritual	-10.6086
▁sleepy	-10.6088
▁bi	-10.6098
ix	-10.6107
res	-10.6119
▁wondered	-10.6122
▁agents	-10.6125
▁affairs	-10.6125
ms	-10.613
ana	-10.6137
▁yards	-10.6138
▁dings	-10.614
▁neighbors	-10.6141
▁marrying	-10.6146
▁rang	-10.6157
▁tails	-10.6179
▁remains	-10.6192
▁ideal	-10.6196
ma	-10.6199
▁wo	-10.6202
▁eva	-10.6204
▁fu	-10.6205
ace	-10.6212
▁ropes	-10.6222
▁fore	-10.6227
let	-10.6241
▁conditions	-10.6241
▁crate	-10.6249
ily	-10.6255
▁wipe	-10.6264
▁bombs	-10.6269
▁noises	-10.6271
oui	-10.6295
▁deserves	-10.6321
▁persons	-10.6328
ent	-10.6339
▁si	-10.6363
▁dudes	-10.6403
all	-10.6416
▁reverse	-10.6425
▁promises	-10.6426
▁jeff	-10.6449
▁watched	-10.6492
▁lands	-10.6492
side	-10.6496
▁medals	-10.6519
▁funk	-10.6546
▁fare	-10.6563
ong	-10.6571
▁handed	-10.6588
ate	-10.6589
▁engineer	-10.659
▁placed	-10.6604
ni	-10.6614
▁bum	-10.6632
▁las	-10.6634
▁windows	-10.6636
▁ghosts	-10.6652
▁noses	-10.6688
▁meter	-10.6688
ka	-10.6726
▁rep	-10.6736
▁repair	-10.6737
▁fed	-10.6744
▁ro	-10.6747
▁swell	-10.6762
▁autograph	-10.6769
▁cinema	-10.6769
▁album	-10.6769
▁peak	-10.677
▁extend	-10.677
▁detail	-10.6776
▁cage	-10.6776
▁require	-10.6785
▁celebration	-10.6787
▁swallow	-10.6787
▁radical	-10.6787
▁missile	-10.6789
▁mid	-10.6793
▁jackson	-10.6795
▁target	-10.6795
▁item	-10.6795
▁villain	-10.6795
▁motion	-10.6795
▁aisle	-10.6799
▁cheek	-10.6799
▁photo	-10.68
▁fence	-10.6801
▁temperature	-10.6802
▁argument	-10.6804
▁communication	-10.6804
▁ingredient	-10.6804
▁differences	-10.6805
▁victim	-10.6807
▁cigarette	-10.681
▁instruction	-10.681
▁diamond	-10.681
▁bolshevik	-10.6813
▁pill	-10.6816
▁begins	-10.6822
▁nazi	-10.6833
▁min	-10.6835
ping	-10.6837
▁hood	-10.6866
▁mill	-10.687
▁he	-10.6876
▁disappear	-10.6883
agging	-10.6889
▁triumph	-10.689
▁to	-10.6892
▁suits	-10.6895
▁slam	-10.6895
wood	-10.6905
▁singer	-10.6906
▁comp	-10.691
▁echo	-10.6911
▁cro	-10.6917
ummy	-10.6922
▁drama	-10.6928
▁reserve	-10.6938
▁frost	-10.694
▁compare	-10.6941
▁dirt	-10.6941
▁happi	-10.6944
▁custom	-10.6945
▁rug	-10.6949
▁teenage	-10.6952
▁wicked	-10.6953
corporate	-10.6953
▁journal	-10.6955
▁earl	-10.6956
▁isabel	-10.6956
▁franco	-10.6956
▁gym	-10.6956
▁amsterdam	-10.6956
▁andrea	-10.6956
▁arriving	-10.6956
▁barcelona	-10.6956
▁behavior	-10.6956
▁bounce	-10.6956
▁brenda	-10.6956
▁campaign	-10.6956
▁centuries	-10.6956
▁commercial	-10.6956
▁credentials	-10.6956
▁democracy	-10.6956
▁dictabelt	-10.6956
▁einstein	-10.6956
▁empire	-10.6956
▁entei	-10.6956
▁hallelujah	-10.6956
▁hortense	-10.6956
▁intelligence	-10.6956
▁lettuce	-10.6956
▁library	-10.6956
▁liedholm	-10.6956
▁marilyn	-10.6956
▁melanchol	-10.6956
▁murdoch	-10.6956
▁nicole	-10.6956
▁ogilvie	-10.6956
▁phupho	-10.6956
▁precinct	-10.6956
▁preserve	-10.6956
▁rafael	-10.6956
▁rochefort	-10.6956
▁sarge	-10.6956
▁seppala	-10.6956
▁shabbes	-10.6956
▁smooth	-10.6956
▁snickering	-10.6956
▁stereo	-10.6956
▁television	-10.6956
▁toothpaste	-10.6956
▁traffic	-10.6956
▁wardrobe	-10.6956
▁withdraw	-10.6956
▁xibalba	-10.6956
▁cleon	-10.6956
▁crisis	-10.6956
▁superior	-10.6956
▁dispatch	-10.6956
▁messenger	-10.6956
▁anyhow	-10.6956
▁greek	-10.6956
▁mossop	-10.6956
▁whyd	-10.6956
▁communism	-10.6956
▁senate	-10.6956
▁avenue	-10.6956
▁fridge	-10.6956
▁otis	-10.6956
▁roshi	-10.6956
▁vault	-10.6956
▁madrid	-10.6956
▁dumas	-10.6956
▁winslow	-10.6956
▁fantan	-10.6956
▁moses	-10.6956
▁nigel	-10.6956
▁referring	-10.6956
▁tasty	-10.6956
▁riley	-10.6956
▁chili	-10.6956
▁preston	-10.6956
▁nudge	-10.6956
▁contest	-10.6956
▁narrow	-10.6956
▁butterfree	-10.6956
▁martha	-10.6956
▁reception	-10.6956
▁honks	-10.6956
▁pathetic	-10.6956
▁species	-10.6956
▁survival	-10.6956
▁blaine	-10.6956
▁smoking	-10.6956
▁overcome	-10.6956
▁caprice	-10.6956
▁jip	-10.6956
▁email	-10.6957
▁sinister	-10.6957
▁flood	-10.6957
▁cynical	-10.6957
▁jody	-10.6957
▁pork	-10.6957
▁process	-10.6957
▁meow	-10.6957
▁stunned	-10.6957
▁unknown	-10.6957
▁universe	-10.6957
▁bark	-10.6957
▁newspaper	-10.6957
▁envy	-10.6957
▁trout	-10.6957
▁nasty	-10.6957
▁chopped	-10.6957
▁jose	-10.6957
▁countries	-10.6958
▁alert	-10.6958
▁gunfire	-10.6958
▁ellie	-10.6958
▁independent	-10.6958
▁wool	-10.6958
▁rv	-10.6958
▁chute	-10.6958
▁miguel	-10.6958
▁dj	-10.6958
▁byron	-10.6958
▁essential	-10.6959
▁fascinating	-10.6959
▁sylvia	-10.6959
▁valuable	-10.6959
▁tripped	-10.6959
▁parrot	-10.6959
▁fantasy	-10.6959
▁installment	-10.6959
▁cellar	-10.6959
▁zero	-10.6959
▁colton	-10.6959
▁elton	-10.6959
▁gurgling	-10.6959
▁eclipse	-10.6959
▁twitch	-10.6959
▁obliged	-10.6959
▁richardson	-10.6959
▁jewelry	-10.6959
▁ramen	-10.6959
▁technically	-10.696
▁raising	-10.696
▁slurp	-10.696
▁cure	-10.696
▁treatment	-10.696
▁childhood	-10.6961
▁laundry	-10.6961
▁priority	-10.6961
▁raid	-10.6961
▁studies	-10.6961
▁diesel	-10.6961
▁rode	-10.6961
▁penny	-10.6962
▁glow	-10.6962
▁equality	-10.6962
▁cabin	-10.6962
▁ridge	-10.6962
▁auguste	-10.6962
▁facing	-10.6963
▁stefano	-10.6963
▁margot	-10.6963
▁basement	-10.6963
▁retired	-10.6963
▁lolly	-10.6964
so	-10.6964
▁slightly	-10.6964
▁ticking	-10.6964
▁shrieking	-10.6964
▁rod	-10.6965
▁armen	-10.6965
▁sincerely	-10.6965
▁sail	-10.6966
▁achieved	-10.6967
▁puffer	-10.6968
▁stray	-10.6968
▁inlaws	-10.6969
▁version	-10.6969
▁thumping	-10.6969
▁clothing	-10.6969
▁onion	-10.6969
▁whore	-10.6969
▁humanity	-10.6971
▁stain	-10.6971
per	-10.6971
▁formal	-10.6971
▁ration	-10.6972
▁fist	-10.6972
▁setting	-10.6972
▁robbing	-10.6973
▁straighten	-10.6973
▁smashed	-10.6974
▁thus	-10.6974
▁dime	-10.6975
▁marine	-10.6977
▁bored	-10.6977
▁divorced	-10.6977
▁stream	-10.6978
▁poop	-10.6978
▁mistaken	-10.6979
▁studi	-10.6979
▁stammering	-10.698
▁announced	-10.6981
▁fled	-10.6981
▁forgiven	-10.6982
▁rice	-10.6982
▁organized	-10.6983
▁merchants	-10.6983
▁slim	-10.6986
▁paula	-10.699
▁delivery	-10.6996
▁mixed	-10.6997
▁sting	-10.6997
▁greed	-10.6998
▁denis	-10.6998
▁released	-10.6998
▁fingerprints	-10.7001
▁awaits	-10.7001
▁provided	-10.7002
▁survived	-10.7005
▁classes	-10.7006
▁fucking	-10.7006
▁attempted	-10.7008
▁safer	-10.7008
▁heed	-10.7013
▁growls	-10.7014
▁talented	-10.7015
▁tone	-10.7017
▁athletics	-10.7018
▁sew	-10.702
▁producers	-10.702
▁mainly	-10.7025
▁dearest	-10.7026
▁experienced	-10.7037
▁arrangements	-10.7037
▁appeared	-10.7039
▁robbers	-10.7039
▁shown	-10.7043
▁smaller	-10.7047
▁wel	-10.705
▁nest	-10.7053
▁passengers	-10.7054
▁suggested	-10.7054
▁rebels	-10.7057
que	-10.706
ker	-10.7062
▁christy	-10.7063
▁oi	-10.7072
▁hare	-10.7073
▁fuller	-10.7092
▁continued	-10.7094
▁funds	-10.7097
▁qu	-10.71
ister	-10.7107
▁nazis	-10.7108
▁reached	-10.7109
ai	-10.712
▁sis	-10.7123
▁climbing	-10.7134
▁engines	-10.7146
jo	-10.7148
▁nuns	-10.7163
▁dope	-10.7163
▁acted	-10.7163
▁explained	-10.7171
▁customers	-10.7183
ified	-10.7197
▁worthy	-10.7199
▁swords	-10.7217
▁grades	-10.7217
▁schools	-10.7218
▁losers	-10.7231
▁jamaicans	-10.7235
aii	-10.7236
▁dared	-10.7237
do	-10.7239
▁masks	-10.7251
▁sucks	-10.7273
pping	-10.7296
▁dressing	-10.7307
▁criminals	-10.7308
▁bu	-10.7313
▁pushing	-10.7314
ten	-10.7322
▁kissing	-10.7323
▁fatal	-10.7324
▁godmothers	-10.7326
▁objects	-10.7326
▁landed	-10.7327
▁ants	-10.7332
▁beautifully	-10.7343
▁cantrells	-10.7344
tu	-10.7351
▁fixing	-10.7356
▁wei	-10.7375
ner	-10.7395
▁voices	-10.7396
▁maker	-10.742
rie	-10.744
qui	-10.7442
▁undo	-10.7444
thank	-10.7446
▁beats	-10.7456
▁organize	-10.7478
▁blues	-10.7485
und	-10.7492
▁fighter	-10.7496
gging	-10.75
▁greater	-10.7504
▁menac	-10.7508
ck	-10.7508
▁sor	-10.7511
▁maniac	-10.7513
em	-10.7517
▁wands	-10.7519
▁chickens	-10.7548
▁landing	-10.7551
▁fruits	-10.7566
▁gangs	-10.7584
▁ch	-10.7589
▁approach	-10.7592
down	-10.7597
▁cameras	-10.7644
▁dies	-10.7666
▁hid	-10.7672
▁mic	-10.7677
how	-10.769
▁scores	-10.7695
▁op	-10.7701
▁sides	-10.7701
▁ju	-10.771
ini	-10.7712
▁trains	-10.7712
hony	-10.7713
▁actions	-10.7717
ther	-10.7722
▁bottles	-10.7735
▁wished	-10.7762
▁halt	-10.7776
▁disrupt	-10.7783
▁cue	-10.7791
▁ap	-10.7796
ium	-10.7807
ward	-10.7832
▁fund	-10.7836
▁reds	-10.7837
▁tenni	-10.7845
ky	-10.7851
ca	-10.7852
▁hurting	-10.7879
▁badge	-10.7908
▁resting	-10.791
▁ban	-10.7911
▁machines	-10.7925
ia	-10.7953
ning	-10.7962
▁commit	-10.797
▁stall	-10.7971
▁cases	-10.7979
▁tin	-10.798
▁ann	-10.7994
▁review	-10.8002
▁au	-10.8002
▁tests	-10.8003
▁root	-10.8004
▁result	-10.801
▁trumpet	-10.8013
▁eats	-10.8015
▁roar	-10.8015
▁whisper	-10.8015
▁region	-10.8016
▁longeverne	-10.8019
▁shield	-10.8019
▁fade	-10.8019
lic	-10.8019
▁bas	-10.8021
▁document	-10.8023
▁stamp	-10.8029
yeah	-10.8029
▁lap	-10.8031
▁costume	-10.8037
▁scholarship	-10.8037
▁device	-10.8037
▁employee	-10.8037
▁colour	-10.8039
▁traitor	-10.8045
▁prosecutor	-10.8045
▁jaw	-10.8047
▁curtain	-10.8049
▁politician	-10.8052
▁pu	-10.8054
▁william	-10.8055
▁bullet	-10.8056
▁citizen	-10.806
▁conc	-10.8061
▁services	-10.8063
▁chuckle	-10.8065
▁cock	-10.8067
▁wanting	-10.8076
▁access	-10.8087
▁cable	-10.8087
inky	-10.809
▁lifetime	-10.8093
quot	-10.8113
▁odds	-10.8119
▁explains	-10.8121
▁camps	-10.8123
▁embarrass	-10.8133
▁bets	-10.8136
▁sta	-10.8136
town	-10.8149
▁lean	-10.8151
▁gamb	-10.8153
▁te	-10.8158
▁satisfy	-10.8158
▁grind	-10.8158
▁greet	-10.8159
▁flow	-10.816
▁len	-10.8166
class	-10.8168
▁drown	-10.8173
▁haunt	-10.8178
▁crush	-10.8178
not	-10.8179
wing	-10.8182
▁shove	-10.8185
▁produce	-10.8186
▁mass	-10.8189
▁employ	-10.8193
▁ultimate	-10.8193
▁lit	-10.8195
▁margo	-10.8201
▁rio	-10.8201
▁attract	-10.8203
▁civil	-10.8203
▁bald	-10.8204
▁mitch	-10.8206
▁cigar	-10.8206
▁activity	-10.8206
▁agenda	-10.8206
▁alternative	-10.8206
▁ambulance	-10.8206
▁association	-10.8206
▁auggie	-10.8206
▁brenner	-10.8206
▁brezhnev	-10.8206
▁cheasel	-10.8206
▁clermont	-10.8206
▁communicate	-10.8206
▁corporation	-10.8206
▁couid	-10.8206
▁cunning	-10.8206
▁curiosity	-10.8206
▁democrat	-10.8206
▁despair	-10.8206
▁dinosaur	-10.8206
▁disgrace	-10.8206
▁envelope	-10.8206
▁erroneous	-10.8206
▁exchange	-10.8206
▁financial	-10.8206
▁flirt	-10.8206
▁griba	-10.8206
▁humiliate	-10.8206
▁identify	-10.8206
▁importance	-10.8206
▁industry	-10.8206
▁injury	-10.8206
▁integrity	-10.8206
▁jouvet	-10.8206
▁kansas	-10.8206
▁kikakee	-10.8206
▁kumar	-10.8206
▁kusum	-10.8206
▁liberal	-10.8206
▁macailler	-10.8206
▁motorcycle	-10.8206
▁opponent	-10.8206
▁peculiar	-10.8206
▁pronounce	-10.8206
▁qualify	-10.8206
▁raphael	-10.8206
▁rascal	-10.8206
▁regatta	-10.8206
▁rucio	-10.8206
▁rutherford	-10.8206
▁sausage	-10.8206
▁scotland	-10.8206
▁sloopy	-10.8206
▁soccer	-10.8206
▁subtitle	-10.8206
▁suspicion	-10.8206
▁tedesco	-10.8206
▁tibbett	-10.8206
▁tragedy	-10.8206
▁trullinger	-10.8206
▁tyler	-10.8206
▁undercover	-10.8206
▁unexpected	-10.8206
▁yarmouth	-10.8206
▁colleague	-10.8206
▁excellency	-10.8206
▁gratitude	-10.8206
▁hiram	-10.8206
▁survey	-10.8206
▁tunnel	-10.8206
▁whinnies	-10.8206
▁revoir	-10.8206
▁beware	-10.8206
▁jingling	-10.8206
▁participate	-10.8206
▁thomas	-10.8206
▁division	-10.8206
▁eleven	-10.8206
▁garlic	-10.8206
▁behold	-10.8206
▁chef	-10.8206
▁deuce	-10.8206
▁profound	-10.8206
▁sepp	-10.8206
▁rudi	-10.8206
▁tragic	-10.8206
▁debate	-10.8206
▁veil	-10.8206
▁chemo	-10.8206
▁raft	-10.8206
▁entrance	-10.8206
▁voyage	-10.8206
▁institution	-10.8206
▁perspective	-10.8206
▁bunny	-10.8206
▁errant	-10.8206
▁authorities	-10.8206
▁mudde	-10.8206
▁gallon	-10.8206
▁mclean	-10.8206
▁occupation	-10.8206
▁miffy	-10.8206
▁stiff	-10.8206
▁depressed	-10.8206
▁hurst	-10.8206
▁beckwith	-10.8206
▁wives	-10.8206
▁execution	-10.8206
▁garage	-10.8206
▁andand	-10.8206
▁frozen	-10.8206
▁airplane	-10.8206
▁aaaa	-10.8206
▁roque	-10.8206
▁oath	-10.8206
▁poppa	-10.8206
▁collaboration	-10.8206
▁unfair	-10.8206
▁moose	-10.8206
▁matrix	-10.8206
▁ambition	-10.8206
▁gutting	-10.8206
▁gear	-10.8206
▁hustle	-10.8206
▁hamilton	-10.8206
▁salad	-10.8206
▁worship	-10.8206
▁yoshi	-10.8206
▁hornsby	-10.8206
▁gascon	-10.8207
▁fudge	-10.8207
▁membership	-10.8207
▁population	-10.8207
▁winnie	-10.8207
▁passionate	-10.8207
▁limo	-10.8207
▁invention	-10.8207
▁canada	-10.8207
▁horror	-10.8207
▁fuel	-10.8207
▁clayton	-10.8207
▁jerry	-10.8207
▁prophecy	-10.8207
▁chasing	-10.8207
▁eternal	-10.8208
▁lounge	-10.8208
▁static	-10.8208
▁sammy	-10.8208
▁household	-10.8208
▁patch	-10.8208
▁drove	-10.8208
▁data	-10.8208
▁nora	-10.8208
▁motorist	-10.8208
▁kung	-10.8208
▁sox	-10.8208
▁ladder	-10.8208
▁romeo	-10.8208
▁conductor	-10.8209
▁daily	-10.8209
▁pile	-10.8209
▁burger	-10.8209
▁whatll	-10.8209
▁amein	-10.8209
▁wager	-10.8209
▁inch	-10.8209
▁santosh	-10.8209
▁advise	-10.8209
▁mock	-10.8209
▁classroom	-10.8209
▁dice	-10.8209
▁drought	-10.8209
▁cooperative	-10.821
▁injured	-10.821
▁distraction	-10.821
▁whipping	-10.821
▁maintain	-10.821
▁middleton	-10.8211
▁prime	-10.8211
▁fitting	-10.8211
▁footage	-10.8211
▁elected	-10.8211
▁checkpoint	-10.8211
▁barber	-10.8212
▁passage	-10.8212
▁ballot	-10.8212
▁realistic	-10.8213
▁seventh	-10.8213
▁constantly	-10.8213
▁scottie	-10.8214
▁chamber	-10.8215
▁ndr	-10.8215
▁slamming	-10.8215
▁sulk	-10.8215
▁exhausted	-10.8216
▁exit	-10.8216
▁alto	-10.8216
▁mushrooms	-10.8217
▁survivors	-10.8217
▁dignity	-10.8217
hearted	-10.8217
▁forgiveness	-10.8219
ak	-10.822
▁splinter	-10.8222
▁dining	-10.8225
▁presentation	-10.8226
▁tada	-10.8226
▁required	-10.8226
▁zay	-10.8226
▁spilled	-10.8227
▁solo	-10.8227
▁quote	-10.8228
▁bridger	-10.8228
▁abandoned	-10.8231
▁gies	-10.8232
▁hamster	-10.8233
▁toughest	-10.8233
▁corpse	-10.8233
▁brandon	-10.8234
▁haunted	-10.8234
▁harrison	-10.8235
▁poke	-10.8235
mar	-10.8236
▁matches	-10.8236
▁americas	-10.8236
▁currently	-10.8237
▁consequences	-10.8237
▁boxes	-10.8238
▁impressed	-10.8239
▁silk	-10.8239
hand	-10.824
▁lobster	-10.8242
▁doo	-10.8242
▁internal	-10.8245
▁photographer	-10.8246
▁stinking	-10.8249
▁solar	-10.8249
▁joint	-10.825
▁dancer	-10.8251
▁leaning	-10.8251
▁brighter	-10.8252
▁shy	-10.8252
▁bubbles	-10.8254
▁daytime	-10.8255
sel	-10.8256
▁peasants	-10.8257
▁relations	-10.8257
▁wounded	-10.8258
▁engineering	-10.8259
▁foundation	-10.8261
▁manny	-10.8263
▁slay	-10.8265
▁biker	-10.8266
▁deserted	-10.8266
▁recognized	-10.8275
▁deserved	-10.8277
▁greetings	-10.8277
▁ln	-10.828
▁bandits	-10.828
▁kay	-10.8281
▁scaring	-10.8282
▁shocked	-10.8284
▁entered	-10.8285
▁rick	-10.8288
▁closet	-10.8288
▁proved	-10.829
der	-10.8295
▁errors	-10.8298
▁worms	-10.8301
▁perch	-10.8302
▁spinn	-10.8309
▁capers	-10.8311
▁freaking	-10.8318
▁ufos	-10.8318
▁crooks	-10.8319
▁stan	-10.8327
▁villages	-10.8333
ence	-10.834
youre	-10.8341
▁fairly	-10.8345
▁surfing	-10.8348
▁williams	-10.8359
▁sleeps	-10.8361
▁orderly	-10.8367
▁imagined	-10.8368
▁sets	-10.8368
▁concentrate	-10.8378
▁embrace	-10.8378
▁ay	-10.8387
▁feature	-10.8388
▁whiff	-10.8393
▁jerks	-10.8401
▁robe	-10.8405
▁discussing	-10.841
▁granted	-10.8414
▁laughed	-10.8418
▁circles	-10.8421
▁wil	-10.8421
▁net	-10.8422
▁lads	-10.8425
▁inter	-10.8426
ility	-10.8426
zer	-10.8427
▁products	-10.844
▁ven	-10.8449
▁bee	-10.8457
▁naive	-10.8458
▁subjects	-10.8462
yes	-10.8469
▁closely	-10.8473
▁considering	-10.8474
ado	-10.8486
▁senses	-10.8498
▁hopes	-10.8513
▁ink	-10.8516
▁cowards	-10.8525
▁gates	-10.8525
uh	-10.8531
cart	-10.8536
▁hike	-10.8536
▁vari	-10.8542
uous	-10.8546
▁pins	-10.8548
▁enjoying	-10.8552
ists	-10.8563
▁desires	-10.8566
▁womens	-10.8571
▁statu	-10.8596
▁stink	-10.8597
▁sounded	-10.8611
▁sins	-10.8613
serving	-10.8628
▁returning	-10.8644
▁pools	-10.865
mitted	-10.866
▁expose	-10.866
▁va	-10.8681
▁partners	-10.8692
▁examine	-10.8695
▁interests	-10.8695
▁za	-10.8731
ated	-10.8733
▁encourage	-10.8749
▁hills	-10.8758
▁savings	-10.8777
▁kindly	-10.8778
▁leads	-10.8783
▁fil	-10.8789
rd	-10.8794
sherman	-10.8796
ries	-10.8801
▁bites	-10.8811
▁breaths	-10.8813
▁scor	-10.8838
▁signing	-10.8855
▁foreigner	-10.8856
▁blocks	-10.8863
▁pies	-10.8867
▁careless	-10.8874
▁rapp	-10.889
▁batt	-10.8894
▁li	-10.8897
ora	-10.8911
▁web	-10.8915
nd	-10.8936
▁ting	-10.8943
▁tra	-10.8953
ok	-10.8955
ris	-10.897
▁pose	-10.8972
▁mont	-10.8972
ug	-10.898
▁damned	-10.898
▁courts	-10.8993
▁smiles	-10.9012
ki	-10.9024
▁horns	-10.9034
▁cart	-10.9035
lor	-10.9046
il	-10.9047
▁marri	-10.9048
lot	-10.9051
▁har	-10.9051
line	-10.9055
▁tables	-10.9057
op	-10.906
pped	-10.9067
▁ri	-10.909
his	-10.9104
▁tri	-10.911
gy	-10.9125
ack	-10.914
▁fle	-10.9151
ator	-10.9175
▁continu	-10.918
▁believer	-10.9198
▁wha	-10.9202
lessly	-10.9209
ac	-10.9221
▁playful	-10.9237
▁trot	-10.9271
▁inn	-10.9275
▁triple	-10.929
ver	-10.9293
▁aha	-10.9308
berg	-10.9312
▁knocks	-10.9326
▁fin	-10.934
▁positions	-10.9363
▁jokes	-10.9368
de	-10.9384
izing	-10.942
ought	-10.9423
▁hum	-10.9427
▁bargain	-10.943
▁beep	-10.9435
▁profit	-10.9439
▁bur	-10.9447
▁catholic	-10.9447
▁liquid	-10.9448
▁powder	-10.9448
▁explode	-10.9448
▁vice	-10.945
va	-10.9456
▁quitter	-10.9456
▁gasp	-10.9456
▁label	-10.9458
▁addict	-10.9464
▁cent	-10.9466
▁statistic	-10.9466
▁bullfighter	-10.9466
▁orphan	-10.9469
▁es	-10.947
▁tre	-10.947
▁tshirt	-10.9473
▁expense	-10.9473
▁needing	-10.9476
▁candle	-10.9477
▁orchid	-10.948
▁helmet	-10.948
▁concept	-10.948
▁twit	-10.9481
▁demon	-10.9482
▁knot	-10.9483
▁brook	-10.9485
▁insect	-10.9486
▁grape	-10.9486
▁vegetable	-10.9489
▁herd	-10.949
▁acre	-10.949
▁twin	-10.9491
thered	-10.9492
▁shi	-10.9493
▁wh	-10.9495
▁parent	-10.9496
▁oop	-10.9497
ezmoi	-10.9518
▁cre	-10.9519
▁lip	-10.952
▁caps	-10.9523
for	-10.9531
ol	-10.9532
looking	-10.9545
▁operate	-10.9546
▁hay	-10.9554
▁origin	-10.9554
▁abandon	-10.9556
▁spoil	-10.9559
zy	-10.9559
▁reveal	-10.9559
▁plug	-10.9566
▁counts	-10.958
▁buzz	-10.9583
tial	-10.9583
▁despi	-10.9584
▁drill	-10.9586
▁clamor	-10.9589
▁slap	-10.9589
▁screech	-10.9592
walla	-10.9594
foot	-10.9596
bang	-10.9597
water	-10.9597
crown	-10.9599
▁didi	-10.96
▁polish	-10.96
▁compliment	-10.96
▁distract	-10.9601
ba	-10.9603
mint	-10.9605
▁develop	-10.9605
▁betray	-10.9606
▁punish	-10.9606
▁confirm	-10.9606
▁react	-10.9611
old	-10.9613
relli	-10.9615
▁shatter	-10.9615
▁impress	-10.9616
▁debt	-10.9616
▁howl	-10.9617
▁mu	-10.9618
▁thirst	-10.9619
▁guilt	-10.962
▁practical	-10.9623
▁unfortunate	-10.9623
▁absolute	-10.9623
lapping	-10.9627
▁mistress	-10.9629
▁regime	-10.963
▁lndia	-10.963
▁disagree	-10.9631
▁shoo	-10.9631
arily	-10.9632
▁depart	-10.9632
▁adopt	-10.9633
▁cruisin	-10.9633
▁egypt	-10.9633
▁dentist	-10.9634
▁fema	-10.9634
▁serpent	-10.9634
▁confident	-10.9634
adios	-10.9634
▁bert	-10.9634
▁injun	-10.9634
▁drei	-10.9634
▁euro	-10.9634
▁absurd	-10.9635
▁anniversary	-10.9635
▁apologizing	-10.9635
▁bachelor	-10.9635
▁barbershop	-10.9635
▁bettsbridge	-10.9635
▁bizarre	-10.9635
▁bonacieux	-10.9635
▁bourgeois	-10.9635
▁carlisle	-10.9635
▁cavalry	-10.9635
▁charizard	-10.9635
▁cissy	-10.9635
▁diphtheria	-10.9635
▁diwedi	-10.9635
▁encounter	-10.9635
▁enthusiasm	-10.9635
▁epidemic	-10.9635
▁explosive	-10.9635
▁fragile	-10.9635
▁fuhrer	-10.9635
▁grief	-10.9635
▁griffiths	-10.9635
▁hercule	-10.9635
▁hightower	-10.9635
▁immortal	-10.9635
▁inferior	-10.9635
▁innocence	-10.9635
▁koophuis	-10.9635
▁meanwhile	-10.9635
▁mildred	-10.9635
▁moravietti	-10.9635
▁mutual	-10.9635
▁nanananana	-10.9635
▁ochopee	-10.9635
▁oklahoma	-10.9635
▁outstanding	-10.9635
▁paralympics	-10.9635
▁phiibin	-10.9635
▁piplup	-10.9635
▁platform	-10.9635
▁privacy	-10.9635
▁puppet	-10.9635
▁rafferty	-10.9635
▁rebuild	-10.9635
▁regain	-10.9635
▁registration	-10.9635
▁reynolds	-10.9635
▁satellite	-10.9635
▁sharrief	-10.9635
▁sneffels	-10.9635
▁struggling	-10.9635
▁surviving	-10.9635
▁thieves	-10.9635
▁toothbrush	-10.9635
▁umbrella	-10.9635
▁underneath	-10.9635
▁vatican	-10.9635
▁vodka	-10.9635
▁wheezing	-10.9635
▁zinoviev	-10.9635
▁alfred	-10.9635
▁automobile	-10.9635
▁clerk	-10.9635
▁confusing	-10.9635
▁convenient	-10.9635
▁crystal	-10.9635
▁industrial	-10.9635
▁jeep	-10.9635
▁schroeder	-10.9635
▁solemn	-10.9635
▁fletcher	-10.9635
▁fraud	-10.9635
▁glorious	-10.9635
▁holler	-10.9635
▁method	-10.9635
▁residence	-10.9635
▁snarl	-10.9635
▁vineyard	-10.9635
▁length	-10.9635
▁prune	-10.9635
▁raynor	-10.9635
▁explore	-10.9635
▁reaiiy	-10.9635
▁vivian	-10.9635
▁complex	-10.9635
▁elbow	-10.9635
▁wrath	-10.9635
▁choir	-10.9635
▁jingle	-10.9635
▁upgrade	-10.9635
▁application	-10.9635
▁occurred	-10.9635
▁delmann	-10.9635
▁giddyup	-10.9635
▁macauley	-10.9635
▁inviting	-10.9635
▁levine	-10.9635
▁mazzola	-10.9635
▁offshore	-10.9635
▁therapist	-10.9635
▁scheme	-10.9635
▁physicist	-10.9635
▁concertina	-10.9635
▁maneuvers	-10.9635
▁rendezvous	-10.9635
▁modest	-10.9635
▁underground	-10.9635
▁increase	-10.9635
▁insurrection	-10.9635
▁pow	-10.9635
▁panties	-10.9635
▁steak	-10.9635
▁tutor	-10.9635
▁vital	-10.9635
▁brutal	-10.9635
▁jockey	-10.9635
▁butterfly	-10.9635
▁delicate	-10.9635
▁allergic	-10.9635
▁dialogue	-10.9635
▁stabb	-10.9635
▁psst	-10.9635
▁sunyu	-10.9635
▁sheba	-10.9635
▁approval	-10.9635
▁macho	-10.9635
▁seville	-10.9635
▁gayle	-10.9635
▁thoth	-10.9635
▁institute	-10.9635
▁unpack	-10.9635
▁sleeve	-10.9635
▁edgar	-10.9635
▁romance	-10.9635
▁hatred	-10.9635
▁josh	-10.9635
▁confusion	-10.9635
▁heap	-10.9635
▁depot	-10.9635
▁subway	-10.9635
▁burke	-10.9635
▁feola	-10.9635
▁whatsoever	-10.9635
▁nva	-10.9635
▁venga	-10.9635
▁geologist	-10.9635
▁combat	-10.9635
▁atmosphere	-10.9635
▁festive	-10.9635
▁torn	-10.9635
▁gambling	-10.9635
▁outrageous	-10.9635
▁involve	-10.9635
▁blog	-10.9636
▁anchovies	-10.9636
▁hoover	-10.9636
▁pony	-10.9636
▁archi	-10.9636
▁broadway	-10.9636
▁leonard	-10.9636
▁karr	-10.9636
▁sober	-10.9636
▁construction	-10.9636
▁basis	-10.9636
▁scarce	-10.9636
▁robberies	-10.9636
▁agency	-10.9636
▁bucket	-10.9636
▁buddha	-10.9636
▁sensation	-10.9636
▁bonnie	-10.9636
▁improvement	-10.9636
▁woof	-10.9636
▁anticipated	-10.9636
▁render	-10.9636
▁laztec	-10.9636
▁perky	-10.9636
▁gracious	-10.9636
▁alex	-10.9636
▁tipton	-10.9637
▁trotter	-10.9637
▁slightest	-10.9637
▁blueback	-10.9637
▁plot	-10.9637
▁infield	-10.9638
▁desc	-10.9638
▁diary	-10.9638
▁lenin	-10.9638
▁batteries	-10.9638
▁knit	-10.9638
▁fiddler	-10.9638
▁conquer	-10.9638
▁furniture	-10.9638
▁increasing	-10.9638
▁happiest	-10.9638
▁virtue	-10.9638
▁clacking	-10.9638
▁faust	-10.9638
▁neat	-10.9639
▁crippled	-10.9639
▁declared	-10.9639
▁stennis	-10.9639
▁management	-10.9639
artes	-10.9639
▁rodeo	-10.9639
▁vision	-10.9639
▁brick	-10.9639
▁offense	-10.9639
▁evolved	-10.964
▁lazy	-10.964
▁allen	-10.964
▁teenager	-10.964
▁grenade	-10.964
▁cheerful	-10.964
▁swore	-10.964
▁coupon	-10.9641
▁leadership	-10.9641
▁haig	-10.9641
▁whitewood	-10.9641
▁blondie	-10.9641
▁roast	-10.9641
▁weakness	-10.9641
▁specialty	-10.9642
▁caption	-10.9642
▁grandson	-10.9642
▁valid	-10.9643
▁iet	-10.9643
▁largest	-10.9644
▁selected	-10.9644
▁graci	-10.9645
▁possession	-10.9645
▁wheat	-10.9646
▁machinery	-10.9647
▁inspired	-10.9647
▁racing	-10.9647
▁sadness	-10.9648
▁corbetts	-10.9648
▁delinquents	-10.9648
▁giris	-10.9648
▁province	-10.9648
▁witnesses	-10.9648
▁stump	-10.9649
▁soil	-10.9649
▁fleet	-10.965
▁johnson	-10.965
▁grownup	-10.965
▁doomed	-10.965
▁brownies	-10.9651
▁lang	-10.9651
▁threatening	-10.9652
▁speeches	-10.9654
▁scraping	-10.9654
▁marys	-10.9654
▁hmmm	-10.9654
▁fulfilled	-10.9654
▁crab	-10.9655
▁pokey	-10.9655
▁mimic	-10.9656
▁angela	-10.9657
▁carla	-10.9657
▁freezer	-10.9658
▁cheated	-10.9659
▁drummer	-10.9659
▁englishman	-10.9659
▁sincere	-10.966
▁rage	-10.9661
▁brat	-10.9661
▁pole	-10.9662
▁connected	-10.9662
▁worthless	-10.9663
▁of	-10.9663
▁confirmed	-10.9663
▁distracted	-10.9663
▁revealed	-10.9663
▁lighten	-10.9664
▁armory	-10.9668
▁leon	-10.9668
▁produced	-10.967
▁headaches	-10.9671
if	-10.9672
▁witches	-10.9672
▁dryer	-10.9672
▁bru	-10.9675
▁policeman	-10.9675
▁sling	-10.968
▁sable	-10.9684
▁mikey	-10.9685
▁recovered	-10.9685
▁designer	-10.9687
▁liver	-10.969
▁ford	-10.9692
▁echoing	-10.9694
▁insulted	-10.9695
▁teammates	-10.9695
▁loudly	-10.9699
▁gamble	-10.97
▁steering	-10.9701
▁walla	-10.9702
▁walkin	-10.9702
▁poi	-10.9703
▁planes	-10.9705
▁accountant	-10.9705
▁cole	-10.9706
▁dreamt	-10.9706
▁simone	-10.9709
▁ace	-10.9718
▁shared	-10.9721
kins	-10.9725
▁requested	-10.9727
use	-10.9728
▁pus	-10.9728
▁interrupting	-10.973
▁remained	-10.9731
▁confession	-10.9733
▁focused	-10.9734
▁on	-10.9735
▁gotcha	-10.9736
▁pat	-10.9738
▁cos	-10.9738
▁scratching	-10.9739
▁don	-10.9739
▁filly	-10.974
▁tools	-10.9742
▁brazilians	-10.9742
▁conditioned	-10.9745
▁shifting	-10.9745
eft	-10.9748
▁difficulty	-10.9749
▁nd	-10.9749
▁ab	-10.9754
▁existed	-10.9755
▁honesty	-10.9756
▁bonds	-10.9765
▁squeals	-10.9766
▁pea	-10.9769
▁scored	-10.9778
▁tricked	-10.9778
▁presently	-10.9781
▁distan	-10.9783
▁discussed	-10.9784
▁lifted	-10.979
▁messy	-10.9796
lm	-10.9798
top	-10.9799
▁roots	-10.9818
▁col	-10.9818
▁bd	-10.9836
sion	-10.9836
▁arguments	-10.9837
▁communications	-10.9837
▁ingredients	-10.9837
▁requires	-10.9838
▁swells	-10.9838
▁stripp	-10.984
▁tend	-10.9842
cal	-10.9844
iro	-10.9848
lets	-10.9849
▁houses	-10.9855
▁severe	-10.9857
▁pic	-10.9859
▁controls	-10.986
▁cousins	-10.9861
▁rumors	-10.9861
▁mules	-10.9862
eyed	-10.9862
▁secure	-10.987
▁marker	-10.9873
ise	-10.9873
▁gowns	-10.9885
▁servants	-10.9885
▁soviets	-10.9885
▁warriors	-10.9885
▁relaxed	-10.9886
▁committ	-10.9887
▁limits	-10.989
▁herbs	-10.9909
▁strings	-10.9909
▁gin	-10.9915
▁packing	-10.992
▁graceful	-10.9922
▁bush	-10.9924
▁sniffs	-10.9925
▁aura	-10.9926
▁waitin	-10.9928
▁measures	-10.9935
▁protecting	-10.9944
▁cowboys	-10.9958
▁morons	-10.9958
▁scam	-10.9961
▁straw	-10.9964
▁recorded	-10.9966
▁inquir	-10.9967
▁ga	-10.9968
berries	-10.9977
▁deeds	-10.9982
▁crows	-10.9983
▁recorder	-10.9991
▁choices	-10.9998
▁iim	-11.0002
▁creeps	-11.0006
▁hai	-11.0019
iege	-11.0019
▁effects	-11.0031
▁wa	-11.0031
▁nik	-11.005
▁realm	-11.0053
▁nightmares	-11.008
▁hail	-11.0086
▁sales	-11.0097
oohoo	-11.0098
▁popes	-11.0101
▁awaken	-11.0104
▁apples	-11.0104
▁efforts	-11.0104
▁communists	-11.0104
▁arrives	-11.0105
▁rambalcochets	-11.0108
▁clocks	-11.0129
ga	-11.0134
cre	-11.0136
▁faced	-11.0141
slate	-11.0155
▁tremble	-11.0163
▁gu	-11.0176
tor	-11.0178
▁robots	-11.0202
▁her	-11.022
▁drops	-11.0221
▁christians	-11.0228
▁swans	-11.0252
▁bolt	-11.0253
ax	-11.0253
▁and	-11.0257
▁ir	-11.0274
ons	-11.0275
▁adventures	-11.0276
▁exists	-11.0287
▁angels	-11.0303
▁pursue	-11.0327
▁spe	-11.0328
▁hairs	-11.0333
▁wakes	-11.0333
un	-11.0337
gt	-11.035
den	-11.0351
tte	-11.0358
▁excuses	-11.036
ze	-11.0374
▁fellows	-11.0377
▁cells	-11.0377
▁garrets	-11.0377
▁tame	-11.0397
▁locate	-11.0441
ji	-11.0444
▁papas	-11.0469
▁bora	-11.0489
▁dive	-11.0501
▁now	-11.0538
▁del	-11.0544
▁when	-11.0553
▁kinds	-11.0553
lo	-11.057
▁stepp	-11.0576
▁lease	-11.059
▁ru	-11.0596
▁lu	-11.0614
▁patri	-11.0629
▁accounts	-11.0632
▁votes	-11.0632
▁gl	-11.0633
ay	-11.0646
▁divide	-11.0668
▁toe	-11.0688
pu	-11.074
▁joll	-11.0744
▁elephants	-11.0759
▁aa	-11.0767
▁penetrate	-11.0789
eeh	-11.08
▁bribe	-11.08
▁decorate	-11.08
po	-11.0861
ula	-11.0879
lan	-11.088
▁af	-11.0888
▁cons	-11.0893
sey	-11.0893
▁whoop	-11.0902
▁frances	-11.0905
ue	-11.091
▁dispose	-11.0911
▁rebel	-11.0922
ham	-11.0939
▁trucks	-11.0951
▁offers	-11.0965
gie	-11.0968
▁pres	-11.0968
ha	-11.0981
▁cher	-11.0987
▁grows	-11.1008
itched	-11.1017
back	-11.1017
▁capt	-11.1044
▁oni	-11.1064
▁queens	-11.1072
▁mechanic	-11.1074
▁troop	-11.1076
▁shout	-11.1099
▁float	-11.1101
▁squeal	-11.1106
▁procedure	-11.1114
▁funeral	-11.1114
▁introduction	-11.1115
▁proposition	-11.1115
▁federation	-11.1115
▁indicate	-11.1116
hoohoo	-11.1118
▁crook	-11.1119
▁employer	-11.1126
▁drug	-11.1131
▁pearl	-11.1132
▁decree	-11.1132
▁groper	-11.1132
▁catherine	-11.1133
▁chapter	-11.1134
▁emotion	-11.1135
▁relative	-11.1135
▁tank	-11.1135
▁summon	-11.1135
▁appearance	-11.1135
▁lamp	-11.1137
▁culture	-11.1138
▁european	-11.1138
▁motor	-11.1138
▁kip	-11.1138
▁melon	-11.1139
▁peanut	-11.114
▁mustang	-11.1142
▁roman	-11.1143
▁companion	-11.1145
▁recipe	-11.1145
▁sailor	-11.1149
▁sweater	-11.115
▁ufo	-11.115
▁passenger	-11.1152
▁musketeer	-11.1153
▁athlete	-11.1153
▁exclaim	-11.1155
▁highp	-11.1156
▁chipmunk	-11.1156
▁cam	-11.1159
▁beau	-11.1169
▁uhh	-11.1176
▁tack	-11.1189
▁forrest	-11.1192
nn	-11.12
▁ste	-11.1204
▁tar	-11.1207
ns	-11.1208
▁bond	-11.1209
▁smash	-11.1219
▁domin	-11.1223
▁disturb	-11.1224
▁cheat	-11.123
▁hop	-11.1236
▁pays	-11.1239
cut	-11.1246
mature	-11.1252
▁crawl	-11.1255
away	-11.1257
wei	-11.126
▁connect	-11.1261
piece	-11.1261
chief	-11.1262
guard	-11.1263
called	-11.1263
job	-11.1264
▁instruct	-11.1265
ans	-11.1265
dont	-11.1266
▁stress	-11.1266
▁retard	-11.1266
burn	-11.1268
▁dodge	-11.127
▁accomplish	-11.1271
▁entertain	-11.1271
▁sack	-11.1271
▁todd	-11.1272
▁spill	-11.1275
▁cancel	-11.1277
dog	-11.1278
▁associate	-11.1279
▁refuge	-11.128
▁vanish	-11.128
▁bunt	-11.1281
▁tuck	-11.1281
▁deck	-11.1284
▁rem	-11.1285
▁valle	-11.1287
▁choke	-11.1287
▁realise	-11.1289
▁capture	-11.1289
▁elder	-11.1289
▁extreme	-11.129
▁august	-11.1292
▁holds	-11.1292
▁clair	-11.1292
▁slight	-11.1292
idge	-11.1292
▁cub	-11.1294
▁whizz	-11.1296
ficial	-11.1296
▁flee	-11.1296
▁fox	-11.1297
▁tu	-11.1297
▁fiddle	-11.1297
working	-11.1297
▁deaf	-11.13
▁automatic	-11.13
▁instinct	-11.13
▁posse	-11.13
▁squirt	-11.13
wich	-11.1301
▁forbid	-11.1301
▁abigail	-11.1301
▁abilene	-11.1301
▁absence	-11.1301
▁accomplice	-11.1301
▁acquaintance	-11.1301
▁amnesia	-11.1301
▁antitoxin	-11.1301
▁applie	-11.1301
▁arkansas	-11.1301
▁artillery	-11.1301
▁awhile	-11.1301
▁bermejo	-11.1301
▁bicycle	-11.1301
▁blatz	-11.1301
▁bordeaux	-11.1301
▁breeze	-11.1301
▁britain	-11.1301
▁brito	-11.1301
▁calamity	-11.1301
▁calgary	-11.1301
▁carpenter	-11.1301
▁carpet	-11.1301
▁caviar	-11.1301
▁cecilia	-11.1301
▁challenging	-11.1301
▁chatwal	-11.1301
▁competitive	-11.1301
▁conspiracy	-11.1301
▁crusade	-11.1301
▁cynthia	-11.1301
▁dennis	-11.1301
▁deputy	-11.1301
▁desirable	-11.1301
▁dessert	-11.1301
▁detergent	-11.1301
▁discharge	-11.1301
▁economic	-11.1301
▁edmund	-11.1301
▁ellerbeck	-11.1301
▁enlighten	-11.1301
▁eternity	-11.1301
▁expiration	-11.1301
▁exquisite	-11.1301
▁forgave	-11.1301
▁guidance	-11.1301
▁hooray	-11.1301
▁hydro	-11.1301
▁ibori	-11.1301
▁inevitable	-11.1301
▁injustice	-11.1301
▁ipod	-11.1301
▁juniper	-11.1301
▁ketchum	-11.1301
▁kraler	-11.1301
▁leather	-11.1301
▁majester	-11.1301
▁marijuana	-11.1301
▁maximillius	-11.1301
▁mckay	-11.1301
▁metaphor	-11.1301
▁nephew	-11.1301
▁oldfashioned	-11.1301
▁oxgodby	-11.1301
▁pentagon	-11.1301
▁potential	-11.1301
▁poverty	-11.1301
▁qualities	-11.1301
▁quarrel	-11.1301
▁relevant	-11.1301
▁robbed	-11.1301
▁rupert	-11.1301
▁sabotage	-11.1301
▁satisfied	-11.1301
▁scientific	-11.1301
▁scientist	-11.1301
▁senechal	-11.1301
▁snozzcumber	-11.1301
▁splattering	-11.1301
▁spooky	-11.1301
▁striking	-11.1301
▁truffle	-11.1301
▁vegas	-11.1301
▁wrench	-11.1301
▁zamora	-11.1301
▁anonym	-11.1301
▁erasure	-11.1301
▁exploding	-11.1301
▁marshadow	-11.1301
▁risner	-11.1301
▁sponsor	-11.1301
▁thiago	-11.1301
▁tweet	-11.1301
▁bennet	-11.1301
▁hackett	-11.1301
▁jonas	-11.1301
▁thomkins	-11.1301
▁vibrations	-11.1301
▁yourseif	-11.1301
▁causing	-11.1301
▁economy	-11.1301
▁lucille	-11.1301
▁mickey	-11.1301
▁slogan	-11.1301
▁swift	-11.1301
▁favourite	-11.1301
▁frolic	-11.1301
▁spaniard	-11.1301
▁bernard	-11.1301
▁jubilee	-11.1301
▁packets	-11.1301
▁salmonella	-11.1301
▁hindu	-11.1301
▁refusing	-11.1301
▁token	-11.1301
▁attaboy	-11.1301
▁conflict	-11.1301
▁florence	-11.1301
▁leonhard	-11.1301
▁scum	-11.1301
▁sludge	-11.1301
▁posada	-11.1301
▁tolerate	-11.1301
▁blink	-11.1301
▁broadcast	-11.1301
▁heip	-11.1301
▁jersey	-11.1301
▁manicure	-11.1301
▁persistent	-11.1301
▁wolves	-11.1301
▁content	-11.1301
▁cretan	-11.1301
▁sirica	-11.1301
▁decline	-11.1301
▁creative	-11.1301
▁parole	-11.1301
▁feast	-11.1301
▁necklace	-11.1301
▁slack	-11.1301
▁zoca	-11.1301
▁conclusion	-11.1301
▁diplomatic	-11.1301
▁discreet	-11.1301
▁gallery	-11.1301
▁kidnapping	-11.1301
▁dissent	-11.1301
▁forbidden	-11.1301
▁gauche	-11.1301
▁injuries	-11.1301
▁observing	-11.1301
▁defence	-11.1301
▁herbert	-11.1301
▁freezing	-11.1301
▁translate	-11.1301
▁concentration	-11.1301
▁turd	-11.1301
▁savage	-11.1301
▁waking	-11.1301
▁horai	-11.1301
▁graveyard	-11.1301
▁grim	-11.1301
▁deploy	-11.1302
▁depressing	-11.1302
▁altogether	-11.1302
▁beggar	-11.1302
▁dairy	-11.1302
▁rooster	-11.1302
▁flittin	-11.1302
▁judo	-11.1302
▁shotgun	-11.1302
▁volcano	-11.1302
▁blanket	-11.1302
▁discount	-11.1302
▁ignit	-11.1302
▁razor	-11.1302
▁gutter	-11.1302
▁pension	-11.1302
▁spoon	-11.1302
▁extent	-11.1302
▁salmon	-11.1302
▁phil	-11.1302
▁unconscious	-11.1302
▁caesar	-11.1302
▁panicked	-11.1302
▁representative	-11.1302
▁gavin	-11.1302
▁honeymoon	-11.1302
▁lobby	-11.1302
▁hassle	-11.1302
▁deceive	-11.1302
▁rapid	-11.1302
▁simonsson	-11.1302
▁preferred	-11.1302
▁repay	-11.1302
▁hamburger	-11.1302
▁limb	-11.1302
▁assault	-11.1302
▁remission	-11.1302
▁scrub	-11.1302
▁yonder	-11.1302
▁arise	-11.1302
▁poem	-11.1302
▁finance	-11.1302
▁historical	-11.1302
▁chrissy	-11.1302
▁attic	-11.1302
▁gigant	-11.1302
▁groove	-11.1302
▁whys	-11.1302
▁celeste	-11.1302
▁catastrophe	-11.1302
▁luis	-11.1302
▁trim	-11.1302
▁teii	-11.1302
▁fright	-11.1302
▁hugging	-11.1302
▁rubble	-11.1302
▁klein	-11.1303
▁frequently	-11.1303
▁michelson	-11.1303
▁civilian	-11.1303
▁fireplace	-11.1303
▁eins	-11.1303
▁glove	-11.1303
▁clara	-11.1303
▁transportation	-11.1303
▁actress	-11.1303
▁trom	-11.1303
▁selection	-11.1303
▁equi	-11.1303
▁handwriting	-11.1303
▁fax	-11.1303
▁hooting	-11.1303
▁raph	-11.1303
▁torches	-11.1303
▁loyalty	-11.1303
▁pursuit	-11.1303
▁henri	-11.1304
▁shortcut	-11.1304
▁lumber	-11.1304
▁daba	-11.1304
▁seism	-11.1304
▁affection	-11.1304
▁crank	-11.1304
▁untie	-11.1304
▁heathen	-11.1304
▁obsession	-11.1304
▁sympathy	-11.1304
lain	-11.1304
▁roam	-11.1305
▁dose	-11.1305
▁seder	-11.1305
▁franklin	-11.1305
▁foreman	-11.1305
▁sundown	-11.1305
▁boil	-11.1305
▁estimate	-11.1305
▁enormous	-11.1305
▁knives	-11.1305
▁limp	-11.1305
▁gibber	-11.1305
▁chord	-11.1306
▁bench	-11.1306
▁benton	-11.1306
▁alike	-11.1306
▁rubber	-11.1306
▁applauding	-11.1306
▁cocktail	-11.1306
▁vein	-11.1306
▁wwhat	-11.1306
▁upside	-11.1306
▁tailor	-11.1307
▁crop	-11.1307
▁copper	-11.1307
▁instructor	-11.1307
▁dried	-11.1307
▁tanney	-11.1307
▁roon	-11.1307
▁hound	-11.1308
▁vain	-11.1308
▁typical	-11.1308
▁doggy	-11.1308
▁luckily	-11.1308
▁chivalry	-11.1309
▁transport	-11.1309
▁cody	-11.1309
▁mustache	-11.1309
▁parling	-11.1309
▁summertime	-11.1309
▁budget	-11.1309
▁hup	-11.131
▁copies	-11.131
▁fuzz	-11.131
▁headstone	-11.131
▁lilies	-11.1311
▁aww	-11.1311
▁frenchmen	-11.1311
▁allies	-11.1311
illiard	-11.1312
▁disco	-11.1312
▁dandy	-11.1312
▁gently	-11.1312
▁retain	-11.1312
▁scatter	-11.1313
▁forsake	-11.1313
▁dip	-11.1313
▁guer	-11.1313
▁selfish	-11.1314
▁stance	-11.1314
▁publicity	-11.1314
▁wrestling	-11.1314
▁chittering	-11.1314
▁squash	-11.1314
▁badger	-11.1315
▁invested	-11.1315
▁taxes	-11.1315
▁shaking	-11.1315
▁included	-11.1316
▁owned	-11.1316
▁weep	-11.1317
▁robotics	-11.1317
▁rupees	-11.1317
▁superstars	-11.1317
▁wander	-11.1317
▁taik	-11.1318
▁lloyd	-11.1318
▁invader	-11.1319
▁tender	-11.1319
▁darn	-11.1319
▁idol	-11.1319
▁samson	-11.1319
▁peterson	-11.132
▁nailed	-11.132
▁loaf	-11.132
▁formation	-11.132
▁fry	-11.1322
▁awaiting	-11.1323
▁scent	-11.1323
▁sickness	-11.1323
▁stove	-11.1324
▁pledge	-11.1326
▁travelling	-11.1326
▁eighth	-11.1327
▁legi	-11.1327
▁bud	-11.1328
▁cured	-11.1329
▁pitcher	-11.133
▁instructed	-11.133
▁vanished	-11.1331
▁daylight	-11.1331
▁alley	-11.1331
▁fearful	-11.1332
▁burp	-11.1332
▁replaced	-11.1334
▁pai	-11.1334
▁dwelling	-11.1335
▁betrayed	-11.1336
▁spoiled	-11.1336
▁putey	-11.1338
▁exception	-11.1339
ncy	-11.134
mmel	-11.134
▁forgetting	-11.1341
istic	-11.1344
▁cherr	-11.1344
▁cyclones	-11.1344
▁circus	-11.1345
▁hack	-11.1345
▁lungs	-11.1346
▁restless	-11.1347
agh	-11.1347
▁crawling	-11.1347
▁floating	-11.1348
▁strongest	-11.1348
▁nancy	-11.135
▁fastest	-11.1352
▁whooping	-11.1353
▁guaranteed	-11.1355
▁sexy	-11.1356
▁arrang	-11.1356
▁racial	-11.1359
▁originally	-11.136
▁backyeah	-11.136
▁praise	-11.1361
▁yuma	-11.1361
▁blackmailed	-11.1362
▁intended	-11.1363
▁poker	-11.1364
▁inning	-11.1367
▁mancha	-11.1368
▁oy	-11.1371
▁gymnasts	-11.1371
▁initials	-11.1372
▁shillings	-11.1373
▁exams	-11.1373
▁disappearing	-11.1373
▁printed	-11.1374
▁tourists	-11.1374
card	-11.1375
▁ew	-11.1375
▁your	-11.1378
▁gus	-11.1378
▁legally	-11.1381
▁assured	-11.1383
▁catches	-11.1385
▁wage	-11.1387
cation	-11.1389
▁pouring	-11.139
▁oneil	-11.1395
arctic	-11.1397
▁registered	-11.1399
▁landlords	-11.1401
▁whales	-11.1401
▁rags	-11.1402
ically	-11.1404
▁poisoned	-11.1404
▁cater	-11.1409
▁tons	-11.141
▁hardest	-11.1417
▁proceeding	-11.1423
▁kneel	-11.1428
▁muffins	-11.1429
▁voted	-11.1437
▁dam	-11.1439
▁prophet	-11.1452
▁swinging	-11.1455
▁settler	-11.1457
▁oneill	-11.1458
▁sailors	-11.1458
▁relatives	-11.1459
▁cracking	-11.1468
▁abus	-11.1469
patriotic	-11.1469
▁shocking	-11.1475
uld	-11.1485
▁melt	-11.1485
ole	-11.1486
▁helmets	-11.1486
▁orchids	-11.1486
▁knots	-11.1487
▁twits	-11.1487
▁labels	-11.1487
▁wy	-11.149
ou	-11.1496
▁pushy	-11.1499
▁behav	-11.15
▁stinks	-11.1502
▁admir	-11.1509
▁earthly	-11.1514
▁feelin	-11.1515
▁politicians	-11.1515
▁cocks	-11.1516
▁bees	-11.1517
▁comedy	-11.1517
oming	-11.1518
▁defending	-11.1519
▁adding	-11.153
▁promot	-11.1533
▁sticky	-11.1534
of	-11.1541
▁temperatures	-11.1544
▁photos	-11.1544
▁stings	-11.1545
▁marching	-11.1551
▁rap	-11.156
▁camel	-11.1562
▁mist	-11.1562
▁ranks	-11.157
▁photographs	-11.1574
▁squeaks	-11.1574
▁feeding	-11.1589
eye	-11.1594
▁lifting	-11.1599
▁imim	-11.1609
rice	-11.1611
▁piers	-11.1615
▁purge	-11.1626
▁generations	-11.1631
▁johnston	-11.1634
▁carve	-11.1645
▁fees	-11.1646
her	-11.1653
iest	-11.1657
▁cuddle	-11.1658
▁chaps	-11.1659
▁leagues	-11.166
▁hen	-11.1679
book	-11.1679
▁bel	-11.1688
▁reaching	-11.1691
▁talks	-11.1692
▁mud	-11.1703
▁comic	-11.1706
▁shirts	-11.1718
▁vehicles	-11.1718
▁fa	-11.1719
ions	-11.1724
▁poster	-11.1749
▁loans	-11.1749
▁partly	-11.1756
▁imp	-11.1756
▁duel	-11.1766
▁troubled	-11.1774
▁lind	-11.178
ys	-11.1784
▁riders	-11.1789
▁cuts	-11.1792
▁char	-11.1796
▁sil	-11.1805
▁belts	-11.1811
ripping	-11.1818
▁mutt	-11.1821
▁rome	-11.1821
▁seize	-11.1844
wa	-11.1848
▁ci	-11.186
▁cracks	-11.187
els	-11.1872
stone	-11.1887
▁mayer	-11.1895
▁socialists	-11.1896
vast	-11.1899
▁it	-11.19
▁payments	-11.1901
▁catcher	-11.1903
▁tw	-11.1909
▁evacuate	-11.191
▁walde	-11.1913
▁forests	-11.1925
▁condo	-11.1951
▁stra	-11.1951
▁claudias	-11.1954
▁rabbits	-11.1955
▁damages	-11.1956
▁babys	-11.1959
▁def	-11.1967
iko	-11.1976
▁pudd	-11.1982
▁worker	-11.1985
▁divid	-11.1991
▁investigate	-11.1995
▁barr	-11.2
rian	-11.2023
▁or	-11.2025
rous	-11.2027
▁bulls	-11.2031
▁mam	-11.2035
ncer	-11.204
dex	-11.2042
▁signals	-11.2044
▁is	-11.2056
▁mor	-11.2058
▁equals	-11.2073
▁ward	-11.2074
▁quarters	-11.2075
▁countrys	-11.2075
▁millers	-11.2079
▁ob	-11.2085
lt	-11.2096
▁victor	-11.2104
ments	-11.2138
▁ties	-11.214
▁rocking	-11.2141
▁mend	-11.2142
▁bills	-11.2162
▁pointed	-11.217
▁yous	-11.2172
▁jacks	-11.2195
▁barb	-11.2196
▁ger	-11.2223
kin	-11.2248
▁thinkin	-11.2261
▁pl	-11.2268
ida	-11.227
this	-11.2282
▁rave	-11.2313
▁hangs	-11.2324
bet	-11.2326
▁bil	-11.2339
▁urge	-11.2366
▁waiter	-11.2378
ire	-11.2385
▁breathes	-11.2391
▁sniffl	-11.2405
▁slo	-11.2446
ological	-11.2478
tezvous	-11.2488
▁locks	-11.2498
▁sue	-11.2519
gs	-11.2528
▁blames	-11.2537
ama	-11.2556
▁guessed	-11.2575
ja	-11.2589
maker	-11.2592
▁vern	-11.2603
▁goodman	-11.2604
ental	-11.2604
▁finals	-11.2615
▁stations	-11.2629
▁permit	-11.2636
▁gi	-11.2638
gen	-11.2642
uv	-11.2658
▁battles	-11.266
▁gran	-11.2663
ess	-11.2671
arity	-11.2675
dale	-11.2681
di	-11.2688
▁casual	-11.2743
nza	-11.275
▁kn	-11.2753
▁fog	-11.2755
▁gent	-11.2798
nard	-11.2806
name	-11.2821
han	-11.2821
▁burns	-11.2822
▁ble	-11.2843
new	-11.2845
ada	-11.285
▁misunderstand	-11.2852
▁boards	-11.2857
fortunately	-11.288
▁mines	-11.2881
▁dil	-11.2903
▁sip	-11.2927
nana	-11.2929
but	-11.2945
▁scars	-11.2968
ign	-11.2969
ks	-11.2974
cussion	-11.2982
work	-11.2982
fi	-11.2986
▁doubts	-11.3003
▁we	-11.3005
▁bore	-11.3017
▁transfer	-11.3024
▁admire	-11.3032
▁sens	-11.3044
zi	-11.3045
▁depend	-11.3071
armed	-11.3078
▁mop	-11.309
sha	-11.3098
hole	-11.3102
▁delegate	-11.3115
▁muslim	-11.3115
▁donut	-11.3115
▁instrument	-11.3115
▁scale	-11.3115
▁the	-11.3132
▁sprout	-11.3132
▁novel	-11.3132
▁snack	-11.3132
▁chopper	-11.3134
▁robber	-11.3135
▁transcript	-11.3135
▁tray	-11.314
▁neighbour	-11.314
▁belief	-11.314
▁depth	-11.314
▁capitalist	-11.3143
▁scout	-11.3143
▁saloon	-11.3144
▁turtle	-11.3144
▁article	-11.3145
▁standard	-11.3146
day	-11.3147
▁muffin	-11.3148
▁tool	-11.315
▁error	-11.315
▁worm	-11.3151
▁knuckle	-11.3152
▁cricket	-11.3155
▁arrangement	-11.3155
nen	-11.3157
▁sock	-11.3158
▁jar	-11.316
▁yah	-11.3162
▁drawer	-11.3164
▁brazilian	-11.3164
▁cracker	-11.3169
▁acts	-11.317
▁cows	-11.3171
▁colt	-11.3177
▁how	-11.3177
▁resident	-11.3184
ped	-11.3186
▁stir	-11.3186
▁stable	-11.3191
▁rab	-11.3197
▁strip	-11.3198
▁stomp	-11.3205
▁preach	-11.3206
▁brace	-11.3212
▁prisoner	-11.3212
▁affect	-11.3213
▁tag	-11.3215
▁scalp	-11.3215
▁ale	-11.3217
▁disappoint	-11.3218
▁bb	-11.3219
▁frighten	-11.322
mes	-11.322
▁eg	-11.3224
▁assum	-11.3229
▁caper	-11.3233
▁dinners	-11.3235
war	-11.3238
▁drift	-11.3246
free	-11.3249
▁grasp	-11.325
▁yyou	-11.325
▁info	-11.325
▁biting	-11.3251
▁stammer	-11.3257
▁graves	-11.3257
▁napa	-11.3258
keeper	-11.3258
box	-11.3258
▁zip	-11.3259
view	-11.3261
bolt	-11.3261
stream	-11.3261
▁vocal	-11.3262
level	-11.3263
girl	-11.3263
okay	-11.3263
worth	-11.3264
nothing	-11.3264
door	-11.3264
▁reflect	-11.3265
▁corrupt	-11.3265
case	-11.3265
▁northwest	-11.3266
▁disobey	-11.3266
▁respond	-11.3266
bah	-11.3268
▁hush	-11.3268
person	-11.3268
▁intent	-11.3273
▁fulfill	-11.3273
▁subpoena	-11.3273
mark	-11.3275
▁ohhh	-11.3275
▁unlock	-11.3276
▁nurs	-11.3278
▁acknowledge	-11.3279
▁plea	-11.3281
put	-11.3283
▁torture	-11.3283
▁include	-11.3283
▁inspire	-11.3283
▁approve	-11.3283
▁achieve	-11.3284
▁piss	-11.3284
▁suspend	-11.3285
▁chilli	-11.3287
▁presume	-11.3287
▁strict	-11.3288
▁constant	-11.3289
▁keen	-11.3291
▁moderat	-11.3291
lock	-11.3293
▁rational	-11.3294
▁shave	-11.3294
▁atta	-11.3294
▁hart	-11.3294
hru	-11.3295
▁olive	-11.3295
▁restrain	-11.3297
▁migue	-11.3297
▁peach	-11.3297
▁rabbi	-11.3297
▁continent	-11.3297
▁independen	-11.3298
▁jab	-11.3298
▁dut	-11.3298
▁obsess	-11.3298
▁infant	-11.3298
▁peck	-11.3298
easant	-11.3299
▁script	-11.3299
▁booger	-11.3299
▁tent	-11.3299
ntern	-11.3299
▁log	-11.33
▁deli	-11.33
audible	-11.33
▁raisin	-11.33
▁midge	-11.3301
▁movin	-11.3301
▁dread	-11.3301
▁widow	-11.3301
▁intellect	-11.3301
▁environment	-11.3301
conceivable	-11.3301
responsibilities	-11.3301
▁abilities	-11.3301
▁accountancy	-11.3301
▁activities	-11.3301
▁alcohol	-11.3301
▁amusing	-11.3301
▁approximately	-11.3301
▁aqueduct	-11.3301
▁arrival	-11.3301
▁artifact	-11.3301
▁baboon	-11.3301
▁baltimore	-11.3301
▁behalf	-11.3301
▁benjamin	-11.3301
▁boilermaker	-11.3301
▁bolshevism	-11.3301
▁budapest	-11.3301
▁bureaucrat	-11.3301
▁calendar	-11.3301
▁ceramic	-11.3301
▁cetera	-11.3301
▁champaran	-11.3301
▁columbia	-11.3301
▁comintern	-11.3301
▁contempt	-11.3301
▁contribute	-11.3301
▁convincing	-11.3301
▁curtis	-11.3301
▁czar	-11.3301
▁davenport	-11.3301
▁dedication	-11.3301
▁determination	-11.3301
▁devotion	-11.3301
▁diaval	-11.3301
▁doggone	-11.3301
▁duprez	-11.3301
▁dysfunctional	-11.3301
▁ehrlichman	-11.3301
▁elaborate	-11.3301
▁embassy	-11.3301
▁emptied	-11.3301
▁emptiness	-11.3301
▁enhance	-11.3301
▁esterhaus	-11.3301
▁fackler	-11.3301
▁frobscottle	-11.3301
▁gypsy	-11.3301
▁hulahoop	-11.3301
▁intact	-11.3301
▁israel	-11.3301
▁ithaca	-11.3301
▁jello	-11.3301
▁jerusalem	-11.3301
▁jinnah	-11.3301
▁kashkuh	-11.3301
▁ketchup	-11.3301
▁krispy	-11.3301
▁lanervo	-11.3301
▁langlois	-11.3301
▁liberation	-11.3301
▁literature	-11.3301
▁marvellous	-11.3301
▁matthew	-11.3301
▁mechanism	-11.3301
▁melody	-11.3301
▁mercedes	-11.3301
▁ministry	-11.3301
▁miyatsuko	-11.3301
▁napoleon	-11.3301
▁nonetheless	-11.3301
▁omelet	-11.3301
▁perimeter	-11.3301
▁permanent	-11.3301
▁persecuted	-11.3301
▁picnic	-11.3301
▁pignet	-11.3301
▁porsche	-11.3301
▁possibilities	-11.3301
▁prejudice	-11.3301
▁priscilla	-11.3301
▁psalm	-11.3301
▁reliable	-11.3301
▁resources	-11.3301
▁rocinante	-11.3301
▁rollercoaster	-11.3301
▁salinas	-11.3301
▁scoundrel	-11.3301
▁senior	-11.3301
▁shrunk	-11.3301
▁sidney	-11.3301
▁steroids	-11.3301
▁submarine	-11.3301
▁surveillance	-11.3301
▁switzerland	-11.3301
▁sydney	-11.3301
▁technology	-11.3301
▁thanksgiving	-11.3301
▁thunderclap	-11.3301
▁ultimatum	-11.3301
▁undesirable	-11.3301
▁unemployed	-11.3301
▁vengeance	-11.3301
▁verdun	-11.3301
▁vessel	-11.3301
▁vietnam	-11.3301
▁vitamins	-11.3301
▁vulnerable	-11.3301
▁whigham	-11.3301
▁worthwhile	-11.3301
▁apply	-11.3301
▁asthma	-11.3301
▁bastille	-11.3301
▁decipher	-11.3301
▁harbor	-11.3301
▁hesitate	-11.3301
▁juicy	-11.3301
▁monitor	-11.3301
▁overwhelm	-11.3301
▁prairie	-11.3301
▁protein	-11.3301
▁rachel	-11.3301
▁ranieri	-11.3301
▁slumber	-11.3301
▁abroad	-11.3301
▁buoy	-11.3301
▁cambridge	-11.3301
▁disabled	-11.3301
▁fraina	-11.3301
▁frustrated	-11.3301
▁gunnar	-11.3301
▁shears	-11.3301
▁spectacular	-11.3301
▁exotic	-11.3301
▁myth	-11.3301
▁railink	-11.3301
▁siberia	-11.3301
▁eager	-11.3301
▁electronic	-11.3301
▁chorus	-11.3301
▁starkfield	-11.3301
▁twentyfive	-11.3301
▁alleluia	-11.3301
▁corral	-11.3301
▁equation	-11.3301
▁sagami	-11.3301
▁bulletproof	-11.3301
▁eliminate	-11.3301
▁fractions	-11.3301
▁freight	-11.3301
▁mankind	-11.3301
▁willett	-11.3301
▁grudge	-11.3301
▁buddies	-11.3301
▁hisses	-11.3301
▁intellectual	-11.3301
▁bambi	-11.3301
▁doodle	-11.3301
▁overnight	-11.3301
▁blogger	-11.3301
▁tuition	-11.3301
▁lethal	-11.3301
▁cloak	-11.3301
▁hurried	-11.3301
▁vanessa	-11.3301
▁collins	-11.3301
▁noodles	-11.3301
▁blaming	-11.3301
▁loretta	-11.3301
▁lumi	-11.3301
▁exhibition	-11.3301
▁inspection	-11.3301
▁meditation	-11.3301
▁update	-11.3301
▁crutchfield	-11.3301
▁navigat	-11.3301
▁fanatic	-11.3301
▁girlyman	-11.3301
▁duggi	-11.3301
▁arena	-11.3301
▁elvis	-11.3301
▁incomplete	-11.3301
▁sofa	-11.3301
▁grill	-11.3302
▁online	-11.3302
▁armenti	-11.3302
▁rebuilt	-11.3302
▁roadblock	-11.3302
▁pedal	-11.3302
▁waltz	-11.3302
▁harvey	-11.3302
▁atom	-11.3302
▁fizz	-11.3302
▁seren	-11.3302
▁kiog	-11.3302
▁polls	-11.3302
▁disability	-11.3302
▁quinn	-11.3302
▁candlelight	-11.3302
▁gasoline	-11.3302
▁croak	-11.3302
▁charro	-11.3302
▁garment	-11.3302
▁fritz	-11.3302
▁snails	-11.3302
▁tribute	-11.3302
▁splat	-11.3302
▁significant	-11.3302
▁referee	-11.3302
▁contrary	-11.3302
▁thread	-11.3302
▁beanstalk	-11.3302
▁repent	-11.3302
▁ashore	-11.3302
▁bail	-11.3302
▁rehearsal	-11.3302
▁bugger	-11.3302
▁unlucky	-11.3302
▁unfold	-11.3302
▁weenie	-11.3302
▁duality	-11.3302
▁midfield	-11.3302
▁foolproof	-11.3302
frey	-11.3302
▁babysitter	-11.3302
▁rogue	-11.3302
▁cluck	-11.3302
▁interior	-11.3302
orita	-11.3302
▁subtle	-11.3302
▁plato	-11.3302
vial	-11.3302
▁boredom	-11.3302
▁distinction	-11.3302
▁stool	-11.3302
▁ginger	-11.3302
▁farewell	-11.3302
▁continuum	-11.3302
▁destination	-11.3302
▁webb	-11.3302
▁clap	-11.3302
▁depression	-11.3302
▁merci	-11.3302
▁priorities	-11.3302
▁gentlegirl	-11.3302
▁outfield	-11.3302
▁foam	-11.3302
▁translation	-11.3302
▁cabinet	-11.3302
▁justify	-11.3302
▁shredder	-11.3302
▁slipping	-11.3302
▁mitchell	-11.3302
▁elsewhere	-11.3302
▁karl	-11.3302
▁scarf	-11.3302
▁alpha	-11.3302
▁vroom	-11.3302
▁additional	-11.3302
▁gilman	-11.3302
▁gram	-11.3302
▁scumbag	-11.3302
▁bombay	-11.3303
▁fluke	-11.3303
▁carrot	-11.3303
▁snapping	-11.3303
▁whim	-11.3303
▁furious	-11.3303
▁deliberately	-11.3303
▁evidently	-11.3303
▁utterly	-11.3303
▁tidy	-11.3303
▁alamo	-11.3303
▁nicholai	-11.3303
▁pub	-11.3303
▁yuko	-11.3303
▁corruption	-11.3303
▁groovy	-11.3303
▁reflection	-11.3303
▁crane	-11.3303
▁luciana	-11.3303
▁connie	-11.3303
▁dressmaker	-11.3303
▁hotshot	-11.3303
torious	-11.3303
▁racket	-11.3303
▁therapy	-11.3303
▁geography	-11.3303
▁dreadful	-11.3303
▁automatically	-11.3303
▁isolated	-11.3303
▁psychiatrist	-11.3303
▁dedicated	-11.3303
▁pyramid	-11.3303
▁fourteen	-11.3304
▁tuna	-11.3304
▁angle	-11.3304
▁paranoid	-11.3304
▁gday	-11.3304
▁quench	-11.3304
▁reign	-11.3304
▁everett	-11.3304
▁possessive	-11.3304
▁queue	-11.3304
▁wrist	-11.3304
▁departure	-11.3304
▁soda	-11.3304
▁infanta	-11.3304
▁hence	-11.3304
▁wax	-11.3304
▁saki	-11.3305
▁construct	-11.3305
▁regiment	-11.3305
▁dugout	-11.3305
▁coffin	-11.3305
▁jury	-11.3305
▁hoof	-11.3305
▁royalty	-11.3305
▁vile	-11.3305
▁guild	-11.3305
▁baku	-11.3305
▁erase	-11.3305
▁ramp	-11.3305
▁lump	-11.3306
▁damp	-11.3306
▁domino	-11.3306
▁blitzer	-11.3306
▁cornell	-11.3306
▁kit	-11.3306
handed	-11.3306
▁hazard	-11.3306
▁leaf	-11.3306
▁slaughter	-11.3306
▁harmless	-11.3307
▁fiction	-11.3307
▁terrorist	-11.3307
▁collar	-11.3307
▁housing	-11.3307
▁overwork	-11.3307
▁summerlin	-11.3307
aba	-11.3307
▁daydreaming	-11.3307
▁brass	-11.3307
▁confined	-11.3307
▁devoted	-11.3307
▁disagreement	-11.3308
▁philosophy	-11.3308
▁herring	-11.3308
▁announcement	-11.3308
▁replacement	-11.3308
ripe	-11.3308
▁squish	-11.3308
▁digging	-11.3308
▁lionel	-11.3308
▁amongst	-11.3308
▁colin	-11.3308
▁benson	-11.3309
▁booth	-11.3309
▁bella	-11.3309
▁laval	-11.3309
▁breakdown	-11.3309
▁porc	-11.3309
▁scarlet	-11.3309
▁award	-11.3309
▁dong	-11.331
▁youthful	-11.331
▁haste	-11.331
▁mun	-11.331
▁sharpen	-11.331
▁richter	-11.331
▁secondhand	-11.331
▁eastern	-11.331
▁dak	-11.331
▁takin	-11.3311
▁tempted	-11.3311
▁terry	-11.3311
▁countryside	-11.3311
▁dismissed	-11.3311
▁sustained	-11.3311
▁flattered	-11.3311
▁pulley	-11.3312
▁everyday	-11.3312
▁guardian	-11.3313
▁presidential	-11.3313
▁attached	-11.3313
▁buzzer	-11.3314
▁calf	-11.3314
▁punches	-11.3314
▁barge	-11.3314
▁baking	-11.3314
▁horseback	-11.3314
▁quarterback	-11.3314
▁laud	-11.3315
▁courageous	-11.3315
▁relieved	-11.3315
▁villagers	-11.3315
▁drew	-11.3315
▁lodged	-11.3316
▁mentor	-11.3316
▁reduced	-11.3316
▁craft	-11.3316
▁theatre	-11.3316
▁davi	-11.3317
▁temper	-11.3317
▁bloom	-11.3317
▁whirling	-11.3317
▁happier	-11.3317
▁bootsie	-11.3317
▁carries	-11.3318
▁youse	-11.3318
avai	-11.3318
▁jeri	-11.3318
▁willie	-11.3318
▁rah	-11.3318
▁crust	-11.3318
▁core	-11.3319
▁pierced	-11.3319
▁branches	-11.3319
▁yoohoo	-11.332
▁alter	-11.3321
▁arthritis	-11.3321
▁pamphlets	-11.3321
▁bom	-11.3322
▁ultimately	-11.3323
▁mushers	-11.3323
▁consideration	-11.3324
▁suspenders	-11.3324
▁rally	-11.3324
▁fatherinlaw	-11.3324
▁wade	-11.3324
▁installed	-11.3324
▁halter	-11.3325
historic	-11.3325
▁comply	-11.3326
▁clinking	-11.3327
▁lineup	-11.3328
▁breeding	-11.3328
▁wiser	-11.3328
▁jumpin	-11.333
▁shutting	-11.333
▁unlocked	-11.3331
▁affected	-11.3331
uine	-11.3332
▁mohan	-11.3332
▁superheroes	-11.3334
▁teen	-11.3334
▁taming	-11.3334
▁stash	-11.3336
▁drumm	-11.3337
▁cia	-11.3337
▁disturbed	-11.3337
▁warmup	-11.3338
▁vocaliz	-11.3341
▁assemble	-11.3342
▁chilly	-11.3344
▁issued	-11.3345
▁mac	-11.3346
▁discovery	-11.3347
▁grey	-11.3347
▁ama	-11.3348
▁preacher	-11.3349
▁snorts	-11.3351
▁sacrificed	-11.3352
▁jiggl	-11.3354
▁hoodlums	-11.3355
▁microchips	-11.3355
▁charts	-11.3355
mbles	-11.3356
▁ellis	-11.3356
▁creepy	-11.3358
▁disturbing	-11.3359
▁paw	-11.3359
▁gest	-11.3361
▁healed	-11.3364
▁designed	-11.3365
▁louder	-11.3365
▁gert	-11.3366
▁awakening	-11.3367
fusion	-11.3368
▁ripe	-11.3368
▁clamoring	-11.3369
▁spoiling	-11.3369
▁bobsledder	-11.3371
▁aides	-11.3373
▁despise	-11.3374
▁flo	-11.3377
▁rene	-11.3379
▁shaker	-11.3379
▁ignored	-11.338
▁edit	-11.338
▁cursed	-11.3381
▁described	-11.3382
▁detect	-11.3382
▁hint	-11.3386
▁ross	-11.3387
▁sic	-11.3388
▁tighter	-11.3389
▁motives	-11.339
▁ancestors	-11.339
▁rumbles	-11.339
▁directed	-11.339
▁billion	-11.3391
erson	-11.3392
▁spared	-11.3393
▁flowing	-11.3394
▁uk	-11.3396
▁delayed	-11.3397
▁tying	-11.3399
▁bal	-11.3402
▁ohga	-11.3404
▁nod	-11.3407
▁drawing	-11.3408
▁harmed	-11.3411
▁smarter	-11.3413
▁lid	-11.3414
▁seeds	-11.3416
▁bands	-11.3416
▁ruler	-11.3417
▁twinkl	-11.3418
nky	-11.3421
yle	-11.3421
eating	-11.3424
▁decades	-11.3425
▁adults	-11.3427
▁visitors	-11.3429
▁pun	-11.343
▁recalled	-11.3433
▁dumped	-11.3436
▁spect	-11.3437
▁smacking	-11.3443
▁clark	-11.3446
▁farts	-11.3448
▁skipp	-11.3449
ran	-11.345
loyd	-11.345
▁rushed	-11.345
▁completed	-11.3451
▁sneaking	-11.3453
▁grin	-11.3454
▁comforting	-11.3458
▁vers	-11.3459
▁logs	-11.3459
▁articles	-11.3461
▁turtles	-11.3461
▁saloons	-11.3461
▁stables	-11.3461
▁supported	-11.3464
▁rump	-11.3465
▁blum	-11.3471
uts	-11.3473
▁blamed	-11.3474
ig	-11.3476
▁planted	-11.3477
▁askin	-11.3478
▁mounted	-11.349
▁pitching	-11.3495
▁companions	-11.3495
▁recipes	-11.3497
▁reminded	-11.35
▁greatness	-11.35
▁brow	-11.3506
▁rely	-11.3507
▁traveled	-11.3507
▁bribes	-11.3508
▁tasted	-11.3511
▁blocked	-11.3512
▁avoiding	-11.3517
▁with	-11.3519
▁shorts	-11.3525
▁candles	-11.3532
▁ohoh	-11.3533
▁judged	-11.3538
▁rushing	-11.3539
ansel	-11.3542
▁washing	-11.3548
nges	-11.3548
▁pretending	-11.3559
▁supporting	-11.356
▁repeating	-11.356
▁seeking	-11.3563
aircraft	-11.3565
shing	-11.3566
▁curtains	-11.3568
▁reviews	-11.3569
▁cables	-11.3569
▁gra	-11.3571
▁pav	-11.3574
▁parked	-11.3578
cus	-11.358
▁misses	-11.358
▁marines	-11.3601
▁swo	-11.3603
▁cheeks	-11.3604
▁aisles	-11.3604
▁fences	-11.3604
▁walker	-11.361
nny	-11.3615
▁ado	-11.362
▁judgement	-11.363
▁danced	-11.3633
sical	-11.3634
▁structures	-11.364
▁towels	-11.364
lk	-11.3641
end	-11.3647
▁accord	-11.3649
▁callin	-11.3662
▁det	-11.3664
▁boost	-11.3671
▁singers	-11.3675
▁clients	-11.3676
▁theaters	-11.3676
▁relationships	-11.3676
▁ninjas	-11.3676
ison	-11.3679
oof	-11.3681
▁bestow	-11.3685
▁nicer	-11.3691
▁handled	-11.3699
▁deport	-11.3707
mmy	-11.3708
▁linger	-11.3709
▁principles	-11.3712
▁championships	-11.3712
▁barrels	-11.3712
▁images	-11.3713
▁kicking	-11.3716
▁wedd	-11.3718
▁counted	-11.3734
▁pana	-11.3738
▁suited	-11.3738
▁ori	-11.3746
▁wilt	-11.3747
▁tuesdays	-11.3749
ington	-11.3754
alma	-11.3766
ins	-11.3767
▁occasions	-11.3768
▁kissed	-11.3772
▁mort	-11.3775
▁neighs	-11.3785
▁grandmothers	-11.3785
▁wounds	-11.3786
▁prints	-11.3787
come	-11.3802
▁lis	-11.3808
▁helicopters	-11.3822
▁chops	-11.384
▁writers	-11.3843
rit	-11.3849
▁senseless	-11.385
▁jett	-11.3858
▁directions	-11.3859
▁claims	-11.386
▁edwards	-11.3861
▁quest	-11.3863
▁shifts	-11.3867
▁tov	-11.3872
▁crowds	-11.3887
abri	-11.3893
▁weekends	-11.3896
min	-11.3908
▁lovers	-11.392
aura	-11.3922
play	-11.3928
▁musical	-11.393
▁talents	-11.3934
▁swings	-11.3935
▁mori	-11.3937
una	-11.3955
▁jill	-11.3966
▁trusted	-11.3967
cot	-11.3967
▁answered	-11.3968
▁trainers	-11.3969
▁sayin	-11.3975
▁caseys	-11.3976
▁elevators	-11.4007
▁tasks	-11.4007
▁females	-11.4008
▁concerns	-11.4012
▁mini	-11.4012
▁tellin	-11.4016
▁habits	-11.4017
vin	-11.4023
▁stamped	-11.4024
▁mates	-11.4026
▁menu	-11.403
▁snaps	-11.4033
▁pla	-11.4035
▁mes	-11.4038
▁whine	-11.4046
ski	-11.4047
▁requests	-11.4049
ila	-11.4076
ition	-11.4082
▁banking	-11.4106
▁sugars	-11.4119
▁materials	-11.412
▁plants	-11.4123
sh	-11.4146
▁refuses	-11.4159
▁rides	-11.416
▁bikes	-11.4161
▁finishing	-11.4175
▁tr	-11.4188
▁taxis	-11.4198
▁colors	-11.4199
arrow	-11.4201
▁handy	-11.4207
▁deer	-11.4208
aj	-11.4208
▁horri	-11.4211
▁bros	-11.4213
▁toi	-11.4217
▁suns	-11.4219
▁telegrams	-11.4233
▁spiders	-11.4233
illa	-11.4242
▁medi	-11.4243
▁missy	-11.4249
llen	-11.4255
tan	-11.4269
▁owners	-11.4269
▁animat	-11.4273
▁wee	-11.4283
ddled	-11.4289
ir	-11.4296
▁booked	-11.4302
mal	-11.4305
nto	-11.431
row	-11.4317
▁bats	-11.4324
▁priests	-11.4348
▁pairs	-11.4349
▁violate	-11.4352
▁hears	-11.4365
▁wor	-11.4373
sky	-11.4374
▁wip	-11.438
▁hose	-11.4386
try	-11.4391
▁ver	-11.4399
▁rott	-11.44
▁exc	-11.4417
▁goals	-11.4426
iy	-11.4426
▁pulls	-11.4432
ching	-11.444
lenda	-11.4449
tal	-11.4449
▁sul	-11.4449
rated	-11.445
▁pros	-11.4453
▁sounding	-11.446
▁sl	-11.446
▁stones	-11.4463
ative	-11.4465
▁par	-11.4467
▁nip	-11.4468
ight	-11.4468
▁touching	-11.4475
▁lib	-11.4487
▁keeper	-11.4492
▁killers	-11.45
▁pos	-11.4505
▁mc	-11.4508
▁nicely	-11.4513
bby	-11.4525
rate	-11.4532
ading	-11.4548
▁butts	-11.4552
▁incidental	-11.456
liance	-11.4564
nows	-11.4573
▁rena	-11.4581
▁towers	-11.4582
▁nam	-11.4586
coming	-11.46
▁fer	-11.4626
▁clam	-11.4634
▁ton	-11.4682
ric	-11.4686
▁acquire	-11.4704
▁dent	-11.4709
▁beds	-11.4715
▁stun	-11.4716
▁forms	-11.4745
▁beers	-11.4749
▁recite	-11.4781
pho	-11.4802
lash	-11.4808
ex	-11.4809
▁pardons	-11.4821
▁iit	-11.4829
shed	-11.4841
ress	-11.4844
ddle	-11.4849
▁div	-11.4857
outs	-11.4864
▁ev	-11.4868
▁jul	-11.4872
▁cared	-11.4873
uki	-11.4896
▁expos	-11.4897
▁bothers	-11.4909
▁deaths	-11.4911
▁sings	-11.4926
▁concu	-11.4932
▁scenes	-11.4938
▁seas	-11.494
▁gardens	-11.4941
phony	-11.4945
▁foods	-11.4949
▁fights	-11.4969
▁stac	-11.4972
▁champs	-11.4981
▁transmit	-11.4984
▁mets	-11.4985
▁slice	-11.4986
▁spirits	-11.4987
▁dominate	-11.4987
▁by	-11.5012
▁bent	-11.5027
▁alan	-11.5054
▁eds	-11.5056
ging	-11.5071
▁wav	-11.5078
▁hem	-11.5092
lon	-11.5095
▁distribut	-11.5102
ome	-11.5102
ash	-11.5113
▁su	-11.5131
ach	-11.5138
gi	-11.5145
earing	-11.518
▁greens	-11.5185
▁ins	-11.5202
overall	-11.5219
▁sch	-11.5225
▁sto	-11.5228
tailed	-11.5229
▁washe	-11.5229
ept	-11.5233
▁lays	-11.5246
ette	-11.528
▁remov	-11.5285
▁not	-11.5285
▁ge	-11.5285
mine	-11.5299
▁val	-11.5308
▁honors	-11.5311
mans	-11.5329
▁remark	-11.5334
▁hast	-11.5346
▁sakes	-11.535
▁kara	-11.5356
▁cor	-11.5369
▁lever	-11.5376
ko	-11.5395
▁divin	-11.5466
▁luri	-11.5472
▁lava	-11.5473
▁ai	-11.5477
val	-11.5482
▁lin	-11.5485
ional	-11.5494
▁dine	-11.5503
▁adult	-11.5514
▁sau	-11.5524
▁gum	-11.553
▁author	-11.5536
oni	-11.5542
escent	-11.5549
▁bases	-11.5551
powered	-11.5557
▁editorial	-11.5566
▁clo	-11.557
mate	-11.5574
▁magi	-11.5578
▁wr	-11.5579
▁rag	-11.5579
ice	-11.558
gue	-11.558
tin	-11.5581
▁chant	-11.5582
▁puff	-11.5588
▁swamp	-11.5597
bie	-11.5599
bone	-11.5606
ule	-11.5609
▁airstrip	-11.5615
▁curfew	-11.5615
▁kidnapper	-11.5615
▁frome	-11.5615
▁bl	-11.5616
▁imbecile	-11.5617
▁groan	-11.5617
▁riches	-11.5618
▁burden	-11.5622
▁regional	-11.5623
▁objection	-11.5626
▁runnings	-11.5629
▁callaghan	-11.5632
▁microphone	-11.5632
▁kidney	-11.5633
▁breast	-11.5633
▁bloke	-11.5633
▁kitten	-11.5633
▁aspirin	-11.5633
▁runner	-11.5633
▁requirement	-11.5635
▁receipt	-11.564
▁squirrel	-11.564
▁outdoor	-11.5641
▁cupcake	-11.5641
▁sheet	-11.5642
▁occur	-11.5642
▁surgeon	-11.5642
▁decade	-11.5645
▁landlord	-11.5647
▁robo	-11.5649
▁heel	-11.5651
ggling	-11.5655
▁scoff	-11.5659
pas	-11.5664
▁whale	-11.5664
▁bandit	-11.5665
▁visitor	-11.5666
bra	-11.5667
▁rum	-11.5668
why	-11.5668
▁icon	-11.5669
▁producer	-11.5674
▁hom	-11.5679
▁define	-11.5681
bon	-11.5683
▁terror	-11.5684
▁recreat	-11.5687
▁ignor	-11.5689
▁scr	-11.5692
▁thor	-11.5695
▁athletic	-11.5697
bar	-11.57
▁liz	-11.5705
▁prim	-11.5711
▁flip	-11.5721
▁matin	-11.5731
▁presum	-11.5737
fire	-11.5738
▁writ	-11.5738
ct	-11.574
▁hun	-11.574
▁nail	-11.5742
▁creak	-11.5744
nish	-11.5749
revolutionaries	-11.5752
tive	-11.5752
▁greeting	-11.5752
▁manag	-11.5754
▁peel	-11.5754
boy	-11.5757
▁disgust	-11.5758
oxi	-11.5758
▁kin	-11.5758
four	-11.5759
cream	-11.576
robbing	-11.5761
with	-11.5761
life	-11.5761
donna	-11.5762
violence	-11.5762
count	-11.5763
▁scribble	-11.5763
school	-11.5763
▁dwell	-11.5763
world	-11.5763
minute	-11.5763
wide	-11.5763
emma	-11.5764
yeahyeah	-11.5764
wheel	-11.5764
▁cleaner	-11.5765
style	-11.5765
▁install	-11.5765
▁troubl	-11.5765
band	-11.5765
▁suppos	-11.5765
game	-11.5766
turned	-11.5766
action	-11.5766
▁floors	-11.5768
▁banish	-11.5769
▁succeed	-11.577
think	-11.577
bald	-11.577
fish	-11.5771
fare	-11.5771
▁crunch	-11.5773
▁brush	-11.5773
ano	-11.5773
long	-11.5775
tale	-11.5776
▁doom	-11.5777
▁wink	-11.578
▁grande	-11.578
ven	-11.5781
▁avenge	-11.5781
▁frame	-11.5782
▁seminar	-11.5782
▁engage	-11.5783
▁lodge	-11.5783
▁reduce	-11.5783
▁isa	-11.5784
▁amaze	-11.5784
▁livin	-11.5784
▁styl	-11.5785
▁restore	-11.5787
▁pierce	-11.5787
▁auto	-11.5787
▁snuff	-11.5787
▁memor	-11.579
signor	-11.5791
▁convict	-11.5791
▁zo	-11.5792
▁multipl	-11.5792
▁objective	-11.5793
▁mari	-11.5794
▁hog	-11.5794
urban	-11.5795
▁weigh	-11.5795
▁tomato	-11.5796
▁clan	-11.5796
ffe	-11.5797
scription	-11.5798
▁harv	-11.5798
▁regi	-11.5798
▁academ	-11.5798
ique	-11.5799
ronic	-11.5799
▁anchov	-11.5799
▁labour	-11.5799
▁combust	-11.5799
▁posit	-11.58
tesvous	-11.58
▁outrage	-11.58
▁compass	-11.58
▁smokin	-11.58
▁givin	-11.58
▁visual	-11.5801
▁crutch	-11.5801
▁inhabit	-11.5801
▁skelet	-11.5801
sfrance	-11.5801
▁abalardi	-11.5801
▁accompany	-11.5801
▁accustomed	-11.5801
▁akita	-11.5801
▁algebra	-11.5801
▁analyze	-11.5801
▁anticipation	-11.5801
▁aspect	-11.5801
▁aubergine	-11.5801
▁auvergne	-11.5801
▁baudelaire	-11.5801
▁belfry	-11.5801
▁bergmark	-11.5801
▁beverley	-11.5801
▁blankensoft	-11.5801
▁bouncy	-11.5801
▁bouquet	-11.5801
▁brethren	-11.5801
▁brigade	-11.5801
▁bronze	-11.5801
▁brunette	-11.5801
▁bulbasaur	-11.5801
▁bulma	-11.5801
▁burrito	-11.5801
▁capacity	-11.5801
▁certificate	-11.5801
▁choosing	-11.5801
▁cinnamon	-11.5801
▁clermontferrand	-11.5801
▁cleveland	-11.5801
▁communicating	-11.5801
▁competitor	-11.5801
▁comprendo	-11.5801
▁conceal	-11.5801
▁cottage	-11.5801
▁coyote	-11.5801
▁creativity	-11.5801
▁crosscountry	-11.5801
▁crotononhudson	-11.5801
▁cruise	-11.5801
▁cuckoo	-11.5801
▁custody	-11.5801
▁dandelion	-11.5801
▁deborah	-11.5801
▁demonstration	-11.5801
▁devastation	-11.5801
▁dierdre	-11.5801
▁disney	-11.5801
▁doady	-11.5801
▁duffle	-11.5801
▁dunhill	-11.5801
▁dwarf	-11.5801
▁eccentric	-11.5801
▁esteem	-11.5801
▁etcetera	-11.5801
▁eugene	-11.5801
▁fascinated	-11.5801
▁february	-11.5801
▁felix	-11.5801
▁fierce	-11.5801
▁fifteen	-11.5801
▁flavor	-11.5801
▁fontaine	-11.5801
▁forgiving	-11.5801
▁fountain	-11.5801
▁galatea	-11.5801
▁galaxy	-11.5801
▁geronimo	-11.5801
▁gitundu	-11.5801
▁guinea	-11.5801
▁harbour	-11.5801
▁heavier	-11.5801
▁hebron	-11.5801
▁hialeah	-11.5801
▁hilarious	-11.5801
▁horizon	-11.5801
▁humiliating	-11.5801
▁impatient	-11.5801
▁incessant	-11.5801
▁inconvenience	-11.5801
▁infected	-11.5801
▁ishitsukuri	-11.5801
▁january	-11.5801
▁jennifer	-11.5801
▁judicia	-11.5801
▁judith	-11.5801
▁julius	-11.5801
▁keith	-11.5801
▁kilimanjaro	-11.5801
▁kindergarten	-11.5801
▁latrine	-11.5801
▁leotards	-11.5801
▁limousine	-11.5801
▁loopdeloop	-11.5801
▁lucinda	-11.5801
▁lullaby	-11.5801
▁mahatma	-11.5801
▁manipedi	-11.5801
▁marietherese	-11.5801
▁mastodon	-11.5801
▁mcmillan	-11.5801
▁merchandise	-11.5801
▁moniteur	-11.5801
▁montepetra	-11.5801
▁nelson	-11.5801
▁norwegian	-11.5801
▁observation	-11.5801
▁ostrich	-11.5801
▁pardonnezmoi	-11.5801
▁peggy	-11.5801
▁perdition	-11.5801
▁perverse	-11.5801
▁petrograd	-11.5801
▁pfft	-11.5801
▁pharmacy	-11.5801
▁philadelphia	-11.5801
▁picaroon	-11.5801
▁portrait	-11.5801
▁portray	-11.5801
▁preparing	-11.5801
▁proportion	-11.5801
▁proposing	-11.5801
▁recognise	-11.5801
▁recognition	-11.5801
▁recollect	-11.5801
▁richelieu	-11.5801
▁rookery	-11.5801
▁sarsaparilla	-11.5801
▁scissors	-11.5801
▁seizure	-11.5801
▁semester	-11.5801
▁semifinal	-11.5801
▁singapore	-11.5801
▁snatched	-11.5801
▁soninlaw	-11.5801
▁spaghetti	-11.5801
▁steep	-11.5801
▁superstitious	-11.5801
▁sverre	-11.5801
▁syrup	-11.5801
▁tchan	-11.5801
▁tibbs	-11.5801
▁tokyo	-11.5801
▁tortoise	-11.5801
▁treason	-11.5801
▁tremendous	-11.5801
▁tuberculosis	-11.5801
▁twilight	-11.5801
▁typewriter	-11.5801
▁uncomfortable	-11.5801
▁vaccines	-11.5801
▁vancouver	-11.5801
▁watermelon	-11.5801
▁whitechapel	-11.5801
▁worrell	-11.5801
▁adieu	-11.5801
▁ammo	-11.5801
▁anchor	-11.5801
▁battalion	-11.5801
▁bauru	-11.5801
▁characteristics	-11.5801
▁cruikshan	-11.5801
▁daisies	-11.5801
▁distress	-11.5801
▁dussel	-11.5801
▁fiesta	-11.5801
▁glimmer	-11.5801
▁gobble	-11.5801
▁gossip	-11.5801
▁hendri	-11.5801
▁influenza	-11.5801
▁keller	-11.5801
▁lewis	-11.5801
▁magnifique	-11.5801
▁medallion	-11.5801
▁neglect	-11.5801
▁noisy	-11.5801
▁pigeon	-11.5801
▁promising	-11.5801
▁purity	-11.5801
▁qualifications	-11.5801
▁railroad	-11.5801
▁reappear	-11.5801
▁recruit	-11.5801
▁sedition	-11.5801
▁skate	-11.5801
▁styx	-11.5801
▁transplant	-11.5801
▁treacher	-11.5801
▁velocity	-11.5801
▁whereabouts	-11.5801
▁wouid	-11.5801
▁anyplace	-11.5801
▁cartoon	-11.5801
▁clutch	-11.5801
▁hannaberry	-11.5801
▁kilometers	-11.5801
▁lumberjack	-11.5801
▁monkees	-11.5801
▁personnel	-11.5801
▁pioneer	-11.5801
▁warehouse	-11.5801
▁yacht	-11.5801
▁favour	-11.5801
▁bailiff	-11.5801
▁humiliation	-11.5801
▁impostor	-11.5801
▁ivory	-11.5801
▁parallel	-11.5801
▁summit	-11.5801
▁tranquilizer	-11.5801
▁intercom	-11.5801
▁pavement	-11.5801
▁syne	-11.5801
▁utopia	-11.5801
▁funnel	-11.5801
▁jaunt	-11.5801
▁mourn	-11.5801
▁salami	-11.5801
▁clarinet	-11.5801
▁craving	-11.5801
▁musket	-11.5801
▁parsley	-11.5801
▁pathways	-11.5801
▁antisemitism	-11.5801
▁fabric	-11.5801
▁marbles	-11.5801
▁revolt	-11.5801
▁bosom	-11.5801
▁cuppy	-11.5801
▁disrespect	-11.5801
▁facial	-11.5801
▁granddad	-11.5801
▁jansen	-11.5801
▁josie	-11.5801
▁uphill	-11.5801
▁mmmmmm	-11.5801
▁picketing	-11.5801
▁sunya	-11.5801
▁aaron	-11.5801
▁global	-11.5801
▁hypocrite	-11.5801
▁proclaim	-11.5801
▁segment	-11.5801
▁siggy	-11.5801
▁candlestick	-11.5801
▁testimon	-11.5801
▁impeachment	-11.5801
▁terrified	-11.5801
▁grandchildren	-11.5801
▁whinny	-11.5801
▁amuse	-11.5801
▁braying	-11.5801
▁elegant	-11.5801
▁karrano	-11.5801
▁mellow	-11.5801
▁railway	-11.5801
▁percent	-11.5801
▁plague	-11.5801
▁seadragon	-11.5801
▁arro	-11.5801
▁dreiser	-11.5801
▁interval	-11.5801
▁toots	-11.5801
issi	-11.5801
▁compact	-11.5801
▁extort	-11.5801
▁knack	-11.5801
▁trotsky	-11.5801
▁babysit	-11.5801
▁hooves	-11.5801
▁yelp	-11.5801
▁detention	-11.5801
▁minivan	-11.5801
▁casualties	-11.5801
▁rhyme	-11.5801
▁dusk	-11.5802
▁creek	-11.5802
▁nigger	-11.5802
▁invisible	-11.5802
▁vienna	-11.5802
▁allez	-11.5802
▁visualize	-11.5802
▁inclin	-11.5802
▁twentyfour	-11.5802
▁rumour	-11.5802
▁harold	-11.5802
▁dawson	-11.5802
▁streak	-11.5802
▁vista	-11.5802
▁biological	-11.5802
▁sponge	-11.5802
▁declaration	-11.5802
▁reject	-11.5802
▁resemblance	-11.5802
▁violent	-11.5802
▁precaution	-11.5802
▁criticism	-11.5802
▁endorsement	-11.5802
▁jamison	-11.5802
▁trading	-11.5802
▁phenomena	-11.5802
▁altafini	-11.5802
▁almighty	-11.5802
▁motto	-11.5802
▁parcel	-11.5802
▁trimble	-11.5802
▁baggage	-11.5802
▁daft	-11.5802
▁venture	-11.5802
▁properties	-11.5802
▁dishonour	-11.5802
▁kurtz	-11.5802
▁bailey	-11.5802
▁laddie	-11.5802
▁morocco	-11.5802
▁programmed	-11.5802
▁banjo	-11.5802
▁hamrin	-11.5802
▁medina	-11.5802
▁creating	-11.5802
▁planchet	-11.5802
▁harass	-11.5802
▁pelt	-11.5802
▁vip	-11.5802
▁refrigerator	-11.5802
▁reich	-11.5802
▁witchcraft	-11.5802
▁mailbox	-11.5802
▁stitch	-11.5802
▁panicking	-11.5802
▁prosecution	-11.5802
▁cockroaches	-11.5802
▁bingham	-11.5802
▁garner	-11.5802
▁altar	-11.5802
▁nomine	-11.5802
▁diversity	-11.5802
▁shush	-11.5802
▁downtown	-11.5802
▁oven	-11.5802
▁colby	-11.5802
▁tsk	-11.5802
▁census	-11.5802
kraut	-11.5802
slation	-11.5802
▁lurk	-11.5802
▁flakes	-11.5802
▁disturbance	-11.5802
▁overdone	-11.5802
▁infection	-11.5802
▁mischief	-11.5802
nes	-11.5802
▁organization	-11.5802
▁ripped	-11.5802
▁confrontation	-11.5802
▁whitman	-11.5802
▁download	-11.5802
▁carlos	-11.5802
▁coup	-11.5802
▁stroll	-11.5802
gallant	-11.5802
▁finland	-11.5802
▁tedious	-11.5802
▁exile	-11.5803
▁swat	-11.5803
▁constable	-11.5803
▁hardware	-11.5803
▁temptation	-11.5803
onnie	-11.5803
▁squirtle	-11.5803
▁musi	-11.5803
▁bastion	-11.5803
▁truman	-11.5803
▁marx	-11.5803
▁expectations	-11.5803
▁apologise	-11.5803
▁feedback	-11.5803
▁reference	-11.5803
▁entertainment	-11.5803
▁vase	-11.5803
▁paperwork	-11.5803
▁aior	-11.5803
▁loma	-11.5803
▁dagger	-11.5803
▁kidnap	-11.5803
▁weaver	-11.5803
▁cuff	-11.5803
▁campfire	-11.5803
▁motel	-11.5803
▁sixteen	-11.5803
▁refer	-11.5803
▁infinite	-11.5803
▁lifesav	-11.5803
▁erupt	-11.5803
▁keating	-11.5803
▁stalk	-11.5803
▁streetcar	-11.5803
▁capitol	-11.5803
▁hypothetically	-11.5803
▁depositors	-11.5803
▁nord	-11.5803
▁novice	-11.5803
▁footwork	-11.5803
▁kurt	-11.5803
▁whwhat	-11.5803
▁embarrassment	-11.5804
▁oooh	-11.5804
▁spam	-11.5804
▁grid	-11.5804
▁lime	-11.5804
▁troll	-11.5804
▁loco	-11.5804
▁drury	-11.5804
▁massive	-11.5804
▁nightfall	-11.5804
▁faiy	-11.5804
▁indoor	-11.5804
▁fame	-11.5804
▁factories	-11.5804
▁petty	-11.5804
▁tendency	-11.5804
▁investment	-11.5804
▁cherries	-11.5804
▁yea	-11.5804
▁rash	-11.5804
stand	-11.5804
▁formality	-11.5804
roit	-11.5804
▁dentistry	-11.5804
▁vipers	-11.5804
▁harness	-11.5804
▁pike	-11.5804
▁bombard	-11.5804
▁conservative	-11.5804
▁tickle	-11.5804
▁squawk	-11.5805
▁dorm	-11.5805
▁mugged	-11.5805
▁vb	-11.5805
▁contradiction	-11.5805
▁decay	-11.5805
▁lynch	-11.5805
▁ooo	-11.5805
▁blurry	-11.5805
▁winston	-11.5805
▁tummy	-11.5805
▁memo	-11.5805
▁transferred	-11.5805
▁angrier	-11.5805
▁mush	-11.5805
▁duch	-11.5805
▁edith	-11.5805
▁mortal	-11.5805
▁bluff	-11.5805
▁gruber	-11.5805
▁slash	-11.5805
▁salesman	-11.5806
▁joust	-11.5806
▁amor	-11.5806
▁mileage	-11.5806
▁chipped	-11.5806
▁eleanore	-11.5806
▁puert	-11.5806
▁arouse	-11.5806
▁moonlight	-11.5806
▁nhe	-11.5806
▁profitable	-11.5806
▁enchanted	-11.5806
▁tension	-11.5806
▁westside	-11.5806
▁continental	-11.5806
▁funniest	-11.5806
▁rodent	-11.5806
▁topped	-11.5806
▁arg	-11.5806
▁edition	-11.5806
▁tomatoes	-11.5806
▁vai	-11.5806
▁linda	-11.5806
▁renew	-11.5806
▁troublemaker	-11.5806
▁cornet	-11.5807
▁authorized	-11.5807
▁attendant	-11.5807
▁conscious	-11.5807
▁garb	-11.5807
▁wham	-11.5807
▁leland	-11.5807
▁volt	-11.5807
▁churchill	-11.5807
▁deserving	-11.5807
▁donald	-11.5807
▁heath	-11.5808
kill	-11.5808
▁bellini	-11.5808
▁samba	-11.5808
▁olie	-11.5808
▁blank	-11.5808
▁collective	-11.5808
▁analysis	-11.5808
▁fascist	-11.5808
▁stripes	-11.5808
▁enthusiastic	-11.5808
▁sufficient	-11.5808
▁assembly	-11.5808
▁blush	-11.5808
▁overdo	-11.5808
▁godfather	-11.5808
▁facebook	-11.5809
▁enroll	-11.5809
▁curly	-11.5809
▁furry	-11.5809
▁negotiate	-11.5809
▁coastline	-11.5809
▁queer	-11.5809
▁scaffolding	-11.5809
▁annoying	-11.5809
▁sputtering	-11.5809
▁batch	-11.5809
▁after	-11.5809
▁educated	-11.5809
▁defenseless	-11.5809
▁satch	-11.581
▁verity	-11.581
▁wiggle	-11.581
▁coins	-11.581
▁emiko	-11.581
▁shaky	-11.581
▁migra	-11.581
▁allowance	-11.581
▁yuri	-11.5811
▁sunny	-11.5811
▁playboy	-11.5811
▁dough	-11.5811
▁angu	-11.5811
▁zen	-11.5811
▁luce	-11.5812
▁yuck	-11.5812
▁conviction	-11.5812
▁spum	-11.5812
▁petersen	-11.5812
▁thatthat	-11.5813
▁stomper	-11.5813
▁identifi	-11.5813
▁patel	-11.5813
▁marta	-11.5813
▁wealthy	-11.5813
inos	-11.5814
▁meaningless	-11.5814
▁establishment	-11.5814
▁ballroom	-11.5814
▁mammal	-11.5814
▁sophisticated	-11.5814
▁undressed	-11.5814
▁metro	-11.5815
▁tele	-11.5815
▁rearrange	-11.5815
▁reassuring	-11.5815
▁moderate	-11.5815
▁cries	-11.5815
▁artistic	-11.5816
pine	-11.5816
▁howe	-11.5816
▁hansel	-11.5816
▁buff	-11.5816
▁forge	-11.5817
▁inventor	-11.5817
▁lncineroar	-11.5817
▁elt	-11.5817
▁grease	-11.5817
▁growth	-11.5817
▁frankel	-11.5818
▁bubbling	-11.5818
gant	-11.5818
▁strictly	-11.5818
▁realizing	-11.5818
▁consume	-11.5819
▁ark	-11.5819
tford	-11.5819
▁controlling	-11.5819
▁cord	-11.582
▁booboo	-11.582
▁iine	-11.582
▁pulse	-11.582
gent	-11.582
▁fries	-11.582
▁granddaddy	-11.582
▁shaken	-11.5821
▁agony	-11.5821
▁imposter	-11.5821
▁molar	-11.5821
▁majority	-11.5821
▁hazy	-11.5821
udge	-11.5821
▁elderly	-11.5822
▁mountaineer	-11.5822
▁royce	-11.5822
▁jackass	-11.5822
▁astonishing	-11.5822
▁swarming	-11.5822
▁murmuring	-11.5822
▁surrounding	-11.5822
▁relatively	-11.5822
▁quitting	-11.5822
▁flea	-11.5822
▁australian	-11.5823
▁gam	-11.5823
▁protective	-11.5823
▁launched	-11.5823
▁offended	-11.5823
▁shallow	-11.5824
▁sole	-11.5824
▁monk	-11.5824
▁shant	-11.5825
icle	-11.5825
erial	-11.5825
▁fucker	-11.5825
▁erased	-11.5826
▁plead	-11.5826
▁dah	-11.5826
▁lust	-11.5826
▁lyon	-11.5827
▁crashes	-11.5827
▁wield	-11.5827
▁shivers	-11.5827
▁tides	-11.5827
▁flaws	-11.5827
▁allegations	-11.5827
▁misfits	-11.5827
▁standby	-11.5827
▁waffles	-11.5828
ando	-11.5828
▁invaded	-11.5828
▁losses	-11.5828
▁sprinters	-11.5828
▁activate	-11.5828
▁wider	-11.5829
▁littering	-11.5829
▁yang	-11.5829
▁fireworks	-11.5829
▁active	-11.583
▁itch	-11.583
▁armies	-11.583
li	-11.583
ndler	-11.583
▁drawn	-11.5831
▁choked	-11.5831
▁weaken	-11.5831
▁bushy	-11.5832
▁momentum	-11.5832
▁skull	-11.5832
▁llt	-11.5832
▁riot	-11.5832
esar	-11.5833
▁loosen	-11.5833
▁peeled	-11.5833
▁projection	-11.5834
▁legion	-11.5834
▁cello	-11.5834
▁byr	-11.5834
▁specialist	-11.5834
▁refugees	-11.5835
eek	-11.5835
▁dec	-11.5835
▁els	-11.5836
▁exhausting	-11.5836
acious	-11.5836
▁agreeable	-11.5837
rimet	-11.5837
▁dum	-11.5838
▁collector	-11.5838
▁cutter	-11.5839
▁demo	-11.5839
▁fart	-11.5839
▁manual	-11.584
▁pissed	-11.584
▁scalped	-11.584
▁puke	-11.5841
▁aspire	-11.5841
balone	-11.5841
▁painter	-11.5843
▁leach	-11.5845
▁backwards	-11.5846
▁classify	-11.5848
▁reserved	-11.5848
▁accomplished	-11.5849
▁cupid	-11.5849
▁lone	-11.5851
▁lik	-11.5852
▁buses	-11.5852
▁barry	-11.5852
▁carole	-11.5852
▁foolishly	-11.5852
▁starved	-11.5852
▁july	-11.5853
▁weirdo	-11.5854
▁brad	-11.5855
▁carmen	-11.5857
polit	-11.5857
▁sentenced	-11.5858
▁flippe	-11.5859
▁disappointing	-11.5864
▁preaching	-11.5864
▁stomping	-11.5864
hoe	-11.5866
▁drowned	-11.5867
▁sorrel	-11.5868
▁mold	-11.5868
▁sui	-11.5869
▁spite	-11.5869
▁bully	-11.587
▁thighs	-11.5872
▁marshmallows	-11.5872
▁shepherds	-11.5872
▁phillips	-11.5872
▁creations	-11.5872
▁wails	-11.5872
▁rollin	-11.5873
rmal	-11.5873
▁laces	-11.5873
▁oer	-11.5874
▁turnover	-11.5874
▁extensi	-11.5875
▁cato	-11.5875
▁wither	-11.5877
▁robbins	-11.5879
ove	-11.5883
▁measured	-11.5883
▁primo	-11.5883
▁approached	-11.5883
▁gained	-11.5883
▁dictate	-11.5884
▁tuned	-11.5885
▁pasta	-11.5887
ust	-11.589
▁revealing	-11.5891
▁obeyed	-11.5893
headed	-11.5894
preservation	-11.5894
▁generals	-11.5895
▁shootin	-11.5896
▁teaches	-11.5896
▁bene	-11.5897
▁closest	-11.5898
hoo	-11.59
▁punched	-11.5901
▁bobsledd	-11.5901
▁ines	-11.5904
▁satisfying	-11.5905
▁grinding	-11.5905
▁taller	-11.5905
▁trumpeting	-11.5906
▁confe	-11.5906
▁reviewing	-11.5906
▁figs	-11.5907
▁meets	-11.5908
til	-11.5908
▁tub	-11.5911
stical	-11.5913
▁dealers	-11.5913
▁thorns	-11.5916
▁informed	-11.5917
▁belgians	-11.5918
▁fossils	-11.5918
▁lodgings	-11.5918
▁operatives	-11.5918
▁parathas	-11.5918
▁protestants	-11.5918
▁clangs	-11.5919
▁hesitation	-11.5919
▁swelling	-11.592
▁coordinates	-11.5922
▁feathers	-11.5925
over	-11.5927
▁norther	-11.5928
ush	-11.5932
wind	-11.5932
▁iive	-11.5934
▁correctly	-11.5936
▁loaned	-11.5938
▁claimed	-11.5938
▁adulter	-11.594
▁attended	-11.5943
shes	-11.5945
▁tabs	-11.5946
sexual	-11.5947
▁insisting	-11.5949
▁slugg	-11.5949
brock	-11.5954
ating	-11.5956
▁yelled	-11.5956
▁bile	-11.5957
bat	-11.5958
▁fab	-11.5958
▁blackmailing	-11.5961
▁readers	-11.5961
▁sheets	-11.5965
▁outdoors	-11.5965
▁receipts	-11.5965
▁squirrels	-11.5965
▁cupcakes	-11.5965
▁surgeons	-11.5965
▁occurs	-11.5965
▁icons	-11.5966
▁wick	-11.5968
▁miners	-11.5968
ucky	-11.597
park	-11.597
ettes	-11.5974
▁forrester	-11.5975
tant	-11.5979
▁bankers	-11.598
jojo	-11.598
▁resigned	-11.598
▁treaty	-11.5984
abolic	-11.5986
▁heavenly	-11.5999
▁pointers	-11.6002
▁plas	-11.6003
martial	-11.6005
▁pinch	-11.6007
▁shorter	-11.601
▁braces	-11.601
▁boa	-11.6011
▁sadly	-11.6012
▁beliefs	-11.6012
▁depths	-11.6012
▁neighbours	-11.6012
▁scouts	-11.6012
▁capitalists	-11.6013
fore	-11.6013
▁jars	-11.6015
▁roller	-11.6016
▁repeated	-11.6016
▁attempting	-11.6016
▁spott	-11.6019
▁scrape	-11.6021
▁presumpt	-11.6022
▁stretcher	-11.6024
▁collecting	-11.6027
▁pining	-11.6029
▁lacking	-11.603
▁as	-11.6031
nuff	-11.6043
▁ditch	-11.6047
▁num	-11.6051
▁prey	-11.6051
adde	-11.6052
▁leas	-11.6053
cia	-11.6054
spool	-11.6055
▁badgers	-11.6057
▁hoop	-11.6059
▁mustangs	-11.6059
▁peanuts	-11.6059
▁motors	-11.6059
▁emotions	-11.6059
▁romans	-11.6059
▁ruthless	-11.6065
▁playin	-11.6068
▁stored	-11.607
flex	-11.6071
▁striker	-11.6072
▁cooperat	-11.6074
▁marketing	-11.6076
uisin	-11.608
▁puss	-11.6082
berry	-11.6085
uchen	-11.6099
▁thoughtless	-11.6101
▁blinded	-11.6103
▁swor	-11.6103
▁remaining	-11.6105
wards	-11.6105
▁expenses	-11.6106
▁tshirts	-11.6106
▁herds	-11.6106
▁hums	-11.6106
▁geek	-11.6107
▁profits	-11.6108
antoni	-11.611
ivan	-11.6114
▁tryin	-11.6116
log	-11.6118
▁fins	-11.6118
▁meetings	-11.6121
going	-11.6124
hhh	-11.6125
▁clip	-11.6127
▁weary	-11.6138
▁lifetimes	-11.6154
▁traitors	-11.6154
▁prosecutors	-11.6154
▁jaws	-11.6154
ens	-11.6156
▁clearer	-11.6164
▁prayed	-11.6168
▁carts	-11.6174
▁bind	-11.6175
▁bombing	-11.6175
▁sol	-11.6176
▁geez	-11.6177
▁formed	-11.6177
▁existing	-11.6179
hoots	-11.618
▁coasting	-11.6185
▁jer	-11.6189
▁hoods	-11.6201
▁items	-11.6202
▁targets	-11.6202
▁villains	-11.6202
▁tel	-11.6202
▁gr	-11.6206
sault	-11.6215
▁subs	-11.6219
▁stevens	-11.6226
▁classy	-11.6232
rk	-11.6233
▁dens	-11.6242
▁licks	-11.6243
▁tis	-11.6248
▁principals	-11.625
ert	-11.6253
▁campus	-11.6259
▁raw	-11.626
▁pickle	-11.627
elle	-11.6271
▁honored	-11.6271
percussion	-11.6272
eres	-11.6279
▁coco	-11.628
my	-11.629
▁comments	-11.629
ville	-11.6292
▁keepin	-11.6294
ugged	-11.6294
▁timing	-11.6294
▁calculation	-11.6295
▁explanations	-11.6298
▁charms	-11.6302
sm	-11.6304
ades	-11.6305
ual	-11.631
oke	-11.6313
▁grounded	-11.6316
▁reported	-11.6321
▁site	-11.6333
▁mars	-11.6342
▁nowa	-11.6357
▁jamm	-11.6359
▁just	-11.6361
aki	-11.6361
▁filming	-11.6364
▁locking	-11.6369
here	-11.6373
▁beards	-11.6377
▁skim	-11.6381
uz	-11.6389
▁lectures	-11.6396
▁monkeys	-11.6396
▁tournaments	-11.6396
ification	-11.6401
thing	-11.6409
▁timeout	-11.641
▁yield	-11.6411
evil	-11.6416
leys	-11.643
▁lookout	-11.6434
▁diseases	-11.6444
▁chicks	-11.6445
▁growl	-11.6453
nia	-11.6457
▁din	-11.6464
▁presented	-11.6474
ut	-11.6481
▁slippers	-11.6494
▁durans	-11.6494
▁rubb	-11.6495
did	-11.6509
▁davey	-11.651
mi	-11.6521
▁tales	-11.6528
tha	-11.6535
▁grandmas	-11.6543
▁oceans	-11.6543
▁sighting	-11.6547
▁crowded	-11.6548
▁bonj	-11.6549
ort	-11.6564
sunda	-11.6572
▁experiments	-11.659
▁sallys	-11.6591
▁bubb	-11.6592
▁salts	-11.6592
▁illusions	-11.6593
▁types	-11.6594
▁unite	-11.6598
ye	-11.6601
▁defender	-11.6606
eb	-11.661
▁delete	-11.6628
▁gut	-11.6638
▁accelerat	-11.664
tennis	-11.664
▁ve	-11.6642
▁postpone	-11.6644
▁radios	-11.6654
stil	-11.6655
pee	-11.6655
org	-11.6691
ote	-11.6691
ame	-11.6703
ean	-11.6703
▁fre	-11.6703
ile	-11.6722
▁bann	-11.6736
icon	-11.674
▁elections	-11.6742
▁bakers	-11.6744
▁fails	-11.6744
▁markets	-11.6747
▁shal	-11.6752
amp	-11.6753
▁beauti	-11.6768
ollo	-11.6791
▁knights	-11.6793
▁values	-11.6793
▁miracles	-11.6793
ps	-11.6806
ups	-11.682
▁que	-11.6834
▁matties	-11.685
▁seduc	-11.6853
ath	-11.6858
▁dreamer	-11.6859
▁mus	-11.6864
atch	-11.6864
▁comeback	-11.6866
▁loo	-11.6873
undy	-11.6878
▁ups	-11.6893
▁springs	-11.6895
bre	-11.6896
▁reporters	-11.6897
▁masters	-11.6929
aries	-11.6932
▁maze	-11.6932
▁sticking	-11.6937
▁boing	-11.6938
▁caves	-11.6943
skin	-11.6954
▁sw	-11.696
type	-11.6961
▁sal	-11.6979
jah	-11.6991
▁anyways	-11.6992
▁chatt	-11.6993
▁defi	-11.7001
▁rec	-11.7002
▁ironic	-11.7027
▁rays	-11.7028
elf	-11.7029
mmed	-11.7032
▁jeans	-11.7047
▁og	-11.7052
▁storms	-11.7055
ral	-11.7077
oil	-11.708
▁bearer	-11.7083
ab	-11.7092
▁treasures	-11.7099
▁stomachs	-11.71
ming	-11.711
▁colonia	-11.7125
▁slowing	-11.7127
▁maps	-11.714
sdale	-11.714
ked	-11.714
▁here	-11.716
aise	-11.7165
▁smokes	-11.7167
ats	-11.7183
▁pretti	-11.7201
▁seasons	-11.7206
▁questioning	-11.7224
▁dev	-11.7242
▁cla	-11.7257
▁grannys	-11.7257
yker	-11.7265
▁pate	-11.7269
dom	-11.7273
test	-11.7278
▁notif	-11.7289
▁tit	-11.7294
ret	-11.7305
▁rainbows	-11.731
atory	-11.7322
located	-11.7334
▁genti	-11.7346
lies	-11.7346
▁adams	-11.7362
▁apartments	-11.7364
og	-11.7399
ws	-11.7401
ika	-11.7417
ute	-11.7429
▁experiences	-11.7431
▁sharks	-11.747
▁pac	-11.7474
mber	-11.7475
▁decides	-11.7477
▁digs	-11.7478
ever	-11.7482
▁fili	-11.7484
▁jets	-11.7489
iv	-11.7493
faced	-11.7507
▁clar	-11.7508
ction	-11.7509
addy	-11.7521
▁amys	-11.7523
▁zig	-11.7528
▁lifts	-11.7536
▁coats	-11.7541
▁pursu	-11.7541
▁sca	-11.7542
▁lords	-11.7558
▁kat	-11.7588
sons	-11.7591
▁predict	-11.7597
▁colo	-11.7615
▁offices	-11.7623
▁luc	-11.763
▁ruins	-11.7636
▁hearings	-11.7642
har	-11.7649
air	-11.7673
▁encourag	-11.7677
ane	-11.7703
▁sm	-11.7715
bling	-11.7716
▁unnecessar	-11.7732
ave	-11.7743
▁hotels	-11.7746
▁kicks	-11.7757
metres	-11.7761
ft	-11.7769
▁fits	-11.7801
ina	-11.7802
▁cann	-11.7807
star	-11.7809
self	-11.7813
fying	-11.7817
nies	-11.7823
ots	-11.7827
loo	-11.784
hes	-11.7853
wag	-11.7853
ink	-11.7873
▁studios	-11.7906
act	-11.7909
con	-11.791
▁consen	-11.7916
▁vest	-11.7921
erm	-11.7922
orn	-11.7927
▁mens	-11.7929
▁clearing	-11.7958
▁chooses	-11.7962
dies	-11.7989
▁mal	-11.7993
▁temp	-11.7996
▁vegeta	-11.8006
eased	-11.801
▁marriages	-11.8017
▁operat	-11.8021
▁booking	-11.8025
ull	-11.8026
▁stampede	-11.8041
dia	-11.8045
▁steals	-11.8067
▁accelerate	-11.8072
avell	-11.8078
scribe	-11.8113
ami	-11.8116
▁nipp	-11.8118
rm	-11.8124
▁tam	-11.8125
tory	-11.8134
▁hilt	-11.8142
▁princes	-11.8159
▁blaze	-11.8187
cl	-11.8189
afar	-11.8191
▁gro	-11.8193
nder	-11.8196
umptious	-11.8201
backs	-11.8221
ving	-11.8227
▁lan	-11.8239
▁colonels	-11.8243
eck	-11.8254
stein	-11.8257
▁rape	-11.8269
stop	-11.8282
▁ber	-11.8284
▁ski	-11.8292
▁simons	-11.8301
▁agrees	-11.8307
▁inquire	-11.8327
▁vou	-11.8328
▁infl	-11.8338
ported	-11.834
▁zi	-11.8341
▁woo	-11.8343
▁covers	-11.8349
lit	-11.8357
lore	-11.8358
▁winters	-11.8358
eden	-11.8388
▁invo	-11.8393
davidson	-11.8406
▁mug	-11.844
rish	-11.8449
▁bathe	-11.8452
bard	-11.8453
ones	-11.8455
▁tha	-11.8471
▁unplug	-11.8478
▁travell	-11.8478
▁cho	-11.8482
aw	-11.8484
▁irritat	-11.8502
▁critic	-11.8503
▁unc	-11.8508
▁simpl	-11.8516
▁soi	-11.8523
gne	-11.8523
ger	-11.8526
▁rig	-11.8543
▁bake	-11.8548
car	-11.8552
vis	-11.8561
ulation	-11.8562
▁doi	-11.8573
▁scrap	-11.8579
owed	-11.8581
▁cull	-11.8596
uck	-11.8597
▁dim	-11.8607
moving	-11.862
▁vill	-11.8624
▁bor	-11.8627
▁cano	-11.8632
iana	-11.864
▁bab	-11.8643
izer	-11.8644
▁deb	-11.8648
▁favorites	-11.8649
▁nob	-11.8653
▁nort	-11.8654
king	-11.8655
esh	-11.8655
▁dona	-11.8671
ties	-11.8695
▁hospitals	-11.8707
▁sher	-11.8708
▁arc	-11.871
tam	-11.8714
▁squi	-11.8715
▁mob	-11.8733
▁tug	-11.874
▁cooper	-11.8767
▁saturdays	-11.8767
etic	-11.8772
ache	-11.8776
▁pul	-11.8786
bbles	-11.8789
ob	-11.8796
▁misle	-11.8796
arne	-11.8801
▁collapse	-11.8806
▁amp	-11.8811
bel	-11.8816
▁respects	-11.8817
▁thi	-11.882
▁iti	-11.8835
ocks	-11.8841
itt	-11.8844
▁theys	-11.887
▁een	-11.887
▁var	-11.8878
▁produc	-11.8879
▁threaten	-11.8883
isi	-11.8889
lery	-11.8895
rus	-11.8901
▁tab	-11.8904
▁await	-11.8908
▁terr	-11.8909
▁tan	-11.8912
yl	-11.8913
▁breed	-11.8919
lton	-11.8926
ita	-11.8927
gger	-11.8929
lly	-11.893
▁clang	-11.8933
▁convert	-11.8935
▁rib	-11.8937
▁cough	-11.8947
▁deals	-11.8947
▁behaviour	-11.8949
▁spiral	-11.8949
▁ankle	-11.8949
▁stern	-11.8949
▁zebra	-11.8949
▁enchantment	-11.8949
▁grunt	-11.8951
▁delusion	-11.8951
dance	-11.8952
▁restraint	-11.8956
▁spine	-11.8957
▁mhm	-11.8963
logy	-11.8963
▁eyeball	-11.8966
▁henderson	-11.8966
▁pencil	-11.8966
▁thoroughbred	-11.8966
▁gnome	-11.8966
▁burglar	-11.8966
▁meadow	-11.8966
▁belgian	-11.8974
▁fossil	-11.8974
▁lodging	-11.8974
▁feather	-11.8974
▁paratha	-11.8974
▁protestant	-11.8975
▁operative	-11.8976
▁ancestor	-11.8979
▁rumble	-11.8979
aching	-11.8979
▁exam	-11.898
▁motive	-11.8981
▁shilling	-11.8981
▁initial	-11.8981
▁patron	-11.8985
▁relation	-11.8985
lle	-11.8986
▁fingerprint	-11.8986
▁sinner	-11.8989
▁peasant	-11.899
pend	-11.899
▁spade	-11.899
▁teammate	-11.8991
▁cube	-11.8991
▁tourist	-11.8994
▁coordinate	-11.8995
▁exhale	-11.8995
▁muc	-11.9
▁youngster	-11.9002
odo	-11.9004
rel	-11.9005
▁informer	-11.9006
sta	-11.9012
cher	-11.9012
▁cleans	-11.9013
formed	-11.9019
▁ahha	-11.902
idable	-11.902
acle	-11.9022
ization	-11.9028
▁glas	-11.903
▁stud	-11.9031
▁mil	-11.9034
ural	-11.9038
▁messi	-11.9038
west	-11.9039
two	-11.9044
▁inc	-11.9044
mis	-11.9047
yard	-11.9047
ground	-11.9057
▁exhaust	-11.9059
▁wal	-11.9065
▁von	-11.9069
▁prices	-11.907
mat	-11.907
minded	-11.907
mann	-11.9071
▁rancher	-11.9071
heart	-11.9071
anda	-11.9075
▁nos	-11.9076
mouth	-11.9077
▁illustr	-11.9078
bot	-11.9079
▁mimi	-11.9079
▁terrify	-11.9079
▁spray	-11.9079
▁cloth	-11.9081
bitt	-11.9084
colored	-11.9085
version	-11.9085
bags	-11.9085
▁sophi	-11.9086
▁adjust	-11.9086
▁receiv	-11.9088
front	-11.9088
▁slug	-11.9089
wizard	-11.909
cloth	-11.909
tips	-11.909
▁thump	-11.909
skull	-11.9092
span	-11.9092
▁chirp	-11.9092
paper	-11.9093
▁introduc	-11.9093
loaf	-11.9093
wit	-11.9095
fortune	-11.9095
dammit	-11.9095
mile	-11.9095
consider	-11.9096
dollar	-11.9096
flash	-11.9096
ose	-11.9096
understood	-11.9096
throat	-11.9097
drive	-11.9097
sarah	-11.9097
strong	-11.9097
sweet	-11.9097
tube	-11.9097
married	-11.9097
step	-11.9097
trilo	-11.9098
bob	-11.9098
joel	-11.9099
sick	-11.9099
union	-11.9101
ids	-11.9101
plus	-11.9102
▁invest	-11.9104
ority	-11.9104
▁gaj	-11.9104
placed	-11.9104
▁attain	-11.9106
▁launch	-11.9106
▁offend	-11.9106
bank	-11.9108
▁inherit	-11.9109
▁invade	-11.9109
bound	-11.911
roll	-11.911
estate	-11.9111
cliff	-11.9111
ncineroar	-11.9112
▁intru	-11.9115
▁escap	-11.9115
▁execute	-11.9115
bird	-11.9116
▁clink	-11.9117
▁confuse	-11.9117
▁scoot	-11.9117
▁destin	-11.9118
bir	-11.9118
▁disc	-11.9118
▁chivalr	-11.9119
▁coordinat	-11.9119
lapse	-11.9119
▁virtu	-11.9119
▁exclusive	-11.912
zle	-11.912
fu	-11.9121
▁filth	-11.9121
▁instant	-11.9121
▁chess	-11.9122
▁wond	-11.9122
▁laundr	-11.9122
▁technical	-11.9122
▁virtual	-11.9123
▁walt	-11.9124
timate	-11.9125
▁negotiat	-11.9125
▁numb	-11.9125
▁sant	-11.9127
▁alexand	-11.9128
▁wealth	-11.9128
▁manufacture	-11.9129
▁inject	-11.9129
▁sketch	-11.9129
▁perc	-11.9129
▁roch	-11.913
▁torch	-11.913
▁secre	-11.913
▁stead	-11.913
▁psychiatr	-11.9131
▁sentiment	-11.9131
▁quake	-11.9131
▁sancti	-11.9131
▁michel	-11.9131
seven	-11.9132
▁counsel	-11.9132
▁optimist	-11.9132
▁sarcastic	-11.9133
▁tow	-11.9133
▁physi	-11.9133
▁ordina	-11.9133
▁vulgar	-11.9133
▁leavin	-11.9133
▁irr	-11.9134
▁absolu	-11.9134
▁prob	-11.9134
▁confront	-11.9134
▁occupa	-11.9134
▁matri	-11.9134
▁aaah	-11.9134
▁influen	-11.9134
equently	-11.9134
▁intro	-11.9134
▁fraterni	-11.9135
because	-11.9135
compromising	-11.9135
rescind	-11.9135
▁aborigin	-11.9135
▁acquainted	-11.9135
▁adequate	-11.9135
▁adolf	-11.9135
▁adversary	-11.9135
▁advertising	-11.9135
▁advisor	-11.9135
▁advocate	-11.9135
▁alcatraz	-11.9135
▁alibi	-11.9135
▁allegiance	-11.9135
▁amateur	-11.9135
▁amsucco	-11.9135
▁anglophobia	-11.9135
▁anjou	-11.9135
▁apocalyp	-11.9135
▁apparatus	-11.9135
▁appliance	-11.9135
▁apprentice	-11.9135
▁ashtray	-11.9135
▁atlantic	-11.9135
▁autumn	-11.9135
▁ballerina	-11.9135
▁bartolo	-11.9135
▁biblical	-11.9135
▁bottling	-11.9135
▁boulder	-11.9135
▁briare	-11.9135
▁caliber	-11.9135
▁camouflage	-11.9135
▁carnival	-11.9135
▁cauliflower	-11.9135
▁cemetery	-11.9135
▁ceremoni	-11.9135
▁chafouin	-11.9135
▁chandelier	-11.9135
▁chauffeur	-11.9135
▁cheerleader	-11.9135
▁chemical	-11.9135
▁civic	-11.9135
▁cognac	-11.9135
▁colombia	-11.9135
▁column	-11.9135
▁comfy	-11.9135
▁companies	-11.9135
▁copabanana	-11.9135
▁culprit	-11.9135
▁danaisser	-11.9135
▁defensive	-11.9135
▁delecluze	-11.9135
▁delegation	-11.9135
▁desperation	-11.9135
▁devastating	-11.9135
▁diagram	-11.9135
▁disadvantage	-11.9135
▁discerning	-11.9135
▁discomfort	-11.9135
▁dismount	-11.9135
▁dribbl	-11.9135
▁droite	-11.9135
▁dupont	-11.9135
▁dynamic	-11.9135
▁eggnog	-11.9135
▁engelpuke	-11.9135
▁epic	-11.9135
▁episode	-11.9135
▁eskimo	-11.9135
▁esplandian	-11.9135
▁evaluate	-11.9135
▁expansion	-11.9135
▁exploring	-11.9135
▁fleshlumpeater	-11.9135
▁frankincense	-11.9135
▁frequenc	-11.9135
▁fromage	-11.9135
▁galena	-11.9135
▁generosity	-11.9135
▁ghastly	-11.9135
▁ghetto	-11.9135
▁ghibli	-11.9135
▁girdle	-11.9135
▁gleaming	-11.9135
▁globus	-11.9135
▁grandparents	-11.9135
▁gravity	-11.9135
▁gregorio	-11.9135
▁gummidge	-11.9135
▁hebrides	-11.9135
▁heritage	-11.9135
▁hooroo	-11.9135
▁horace	-11.9135
▁hurrah	-11.9135
▁hurricane	-11.9135
▁hyphenated	-11.9135
▁iawekon	-11.9135
▁identical	-11.9135
▁ifif	-11.9135
▁impassable	-11.9135
▁indictment	-11.9135
▁indisposed	-11.9135
▁iniquity	-11.9135
▁intestines	-11.9135
▁intoxicate	-11.9135
▁irrelevant	-11.9135
▁irresistible	-11.9135
▁jengibre	-11.9135
▁jittery	-11.9135
▁juvenile	-11.9135
▁katheryn	-11.9135
▁kgb	-11.9135
▁kroychzech	-11.9135
▁kugel	-11.9135
▁lecturing	-11.9135
▁lnspector	-11.9135
▁locomotive	-11.9135
▁lombard	-11.9135
▁lorraine	-11.9135
▁luppus	-11.9135
▁magistrate	-11.9135
▁majestic	-11.9135
▁makeawish	-11.9135
▁manuscript	-11.9135
▁matzo	-11.9135
▁melodramatic	-11.9135
▁metapod	-11.9135
▁metatron	-11.9135
▁meticulous	-11.9135
▁milord	-11.9135
▁miniature	-11.9135
▁minimum	-11.9135
▁miriam	-11.9135
▁mishap	-11.9135
▁mitzvah	-11.9135
▁monologue	-11.9135
▁monroe	-11.9135
▁mosquito	-11.9135
▁munkd	-11.9135
▁myriad	-11.9135
▁mythology	-11.9135
▁nazareth	-11.9135
▁negro	-11.9135
▁neutral	-11.9135
▁nitwit	-11.9135
▁nomination	-11.9135
▁nunnery	-11.9135
▁obstruct	-11.9135
▁olafsen	-11.9135
▁olympia	-11.9135
▁opportunist	-11.9135
▁ordained	-11.9135
▁ordeal	-11.9135
▁orthopedic	-11.9135
▁ossuary	-11.9135
▁ostos	-11.9135
▁overseas	-11.9135
▁overslept	-11.9135
▁oxygen	-11.9135
▁pablo	-11.9135
▁paolo	-11.9135
▁parachute	-11.9135
▁paragraph	-11.9135
▁parkinson	-11.9135
▁perpetrator	-11.9135
▁petrocite	-11.9135
▁petrol	-11.9135
▁petronella	-11.9135
▁pharmacist	-11.9135
▁phlebitis	-11.9135
▁phonograph	-11.9135
▁photogenic	-11.9135
▁pianist	-11.9135
▁pirouette	-11.9135
▁pitiful	-11.9135
▁pleiku	-11.9135
▁pluto	-11.9135
▁policies	-11.9135
▁portfolio	-11.9135
▁prestige	-11.9135
▁pupil	-11.9135
▁purchasing	-11.9135
▁quarry	-11.9135
▁reconnaissance	-11.9135
▁rectang	-11.9135
▁reggae	-11.9135
▁reggie	-11.9135
▁regulations	-11.9135
▁renounce	-11.9135
▁replacing	-11.9135
▁resolution	-11.9135
▁resolve	-11.9135
▁resourceful	-11.9135
▁rhode	-11.9135
▁rinse	-11.9135
▁rockefeller	-11.9135
▁rummaging	-11.9135
▁sahib	-11.9135
▁schmucks	-11.9135
▁screwdriver	-11.9135
▁senhora	-11.9135
▁senile	-11.9135
▁shirley	-11.9135
▁shrewd	-11.9135
▁shrimp	-11.9135
▁sinatra	-11.9135
▁sisterinlaw	-11.9135
▁sistersinlaw	-11.9135
▁skoglund	-11.9135
▁slingshots	-11.9135
▁sneeze	-11.9135
▁sneezing	-11.9135
▁snug	-11.9135
▁soggy	-11.9135
▁specimen	-11.9135
▁stebbins	-11.9135
▁suicune	-11.9135
▁supermarket	-11.9135
▁supernova	-11.9135
▁superpowers	-11.9135
▁suspension	-11.9135
▁sykes	-11.9135
▁takahata	-11.9135
▁teresa	-11.9135
▁thevenot	-11.9135
▁thoroughly	-11.9135
▁thriving	-11.9135
▁thunderstorm	-11.9135
▁tobacco	-11.9135
▁topsecret	-11.9135
▁toxic	-11.9135
▁transistor	-11.9135
▁traviata	-11.9135
▁trawler	-11.9135
▁trogglehumper	-11.9135
▁turbo	-11.9135
▁unattainable	-11.9135
▁unforgiving	-11.9135
▁unimportant	-11.9135
▁uninvited	-11.9135
▁unlimited	-11.9135
▁unnatural	-11.9135
▁unpleasant	-11.9135
▁uptight	-11.9135
▁uruguay	-11.9135
▁vampire	-11.9135
▁vargas	-11.9135
▁veggies	-11.9135
▁vintage	-11.9135
▁violin	-11.9135
▁voodoo	-11.9135
▁waistcoat	-11.9135
▁wannabe	-11.9135
▁wazaari	-11.9135
▁whichever	-11.9135
▁windshield	-11.9135
▁yangtze	-11.9135
▁ziegler	-11.9135
▁annihilat	-11.9135
▁archetypal	-11.9135
▁capoeir	-11.9135
▁crypto	-11.9135
▁exploit	-11.9135
▁freemason	-11.9135
▁gospel	-11.9135
▁ldiot	-11.9135
▁maroiyeur	-11.9135
▁rookie	-11.9135
▁substantial	-11.9135
▁surprising	-11.9135
▁aloud	-11.9135
▁anthropo	-11.9135
▁bozo	-11.9135
▁competing	-11.9135
▁crisp	-11.9135
▁cucu	-11.9135
▁depict	-11.9135
▁derailed	-11.9135
▁dvd	-11.9135
▁essence	-11.9135
▁fracture	-11.9135
▁illusory	-11.9135
▁irene	-11.9135
▁marquee	-11.9135
▁pederson	-11.9135
▁predator	-11.9135
▁pvt	-11.9135
▁reluctant	-11.9135
▁secondchance	-11.9135
▁shudder	-11.9135
▁skirt	-11.9135
▁succumb	-11.9135
▁sunrise	-11.9135
▁thawed	-11.9135
▁twinkie	-11.9135
▁tyrant	-11.9135
▁argentin	-11.9135
▁compensat	-11.9135
▁demonstrate	-11.9135
▁doughnut	-11.9135
▁firerat	-11.9135
▁gourmet	-11.9135
▁intimidat	-11.9135
▁jhon	-11.9135
▁mafuba	-11.9135
▁monocle	-11.9135
▁outsmart	-11.9135
▁physics	-11.9135
▁pussycat	-11.9135
▁ravag	-11.9135
▁saxophon	-11.9135
▁sedative	-11.9135
▁slander	-11.9135
▁snappy	-11.9135
▁tuxedo	-11.9135
▁waldorf	-11.9135
▁blizzard	-11.9135
▁douglas	-11.9135
▁heaith	-11.9135
▁hittite	-11.9135
▁kosher	-11.9135
▁radiator	-11.9135
▁sleigh	-11.9135
▁spicy	-11.9135
▁staircase	-11.9135
▁taylor	-11.9135
▁ticktock	-11.9135
▁undeniabl	-11.9135
▁xray	-11.9135
▁bladder	-11.9135
▁cantonese	-11.9135
▁climate	-11.9135
▁grizz	-11.9135
▁hubert	-11.9135
▁impec	-11.9135
▁mordor	-11.9135
▁noticing	-11.9135
▁paleface	-11.9135
▁beverly	-11.9135
▁ecsta	-11.9135
▁feroci	-11.9135
▁proverb	-11.9135
▁rickshaw	-11.9135
▁cyber	-11.9135
▁thistle	-11.9135
▁thrust	-11.9135
▁ballplayer	-11.9135
▁bistro	-11.9135
▁clarify	-11.9135
▁disqualified	-11.9135
▁elude	-11.9135
▁fartface	-11.9135
▁homosexual	-11.9135
▁rectified	-11.9135
▁rhu	-11.9135
▁shucks	-11.9135
▁zoologist	-11.9135
▁breach	-11.9135
▁cradle	-11.9135
▁liverpool	-11.9135
▁relating	-11.9135
ointment	-11.9135
▁errand	-11.9135
▁gallop	-11.9135
▁goddess	-11.9135
▁tombstone	-11.9135
▁torment	-11.9135
▁estce	-11.9135
▁eyelid	-11.9135
▁immanent	-11.9135
▁improving	-11.9135
▁sledders	-11.9135
▁slouch	-11.9135
▁elusive	-11.9135
▁facility	-11.9135
▁hampton	-11.9135
▁oars	-11.9135
▁shenlong	-11.9135
▁uncover	-11.9135
▁orthodox	-11.9135
▁absent	-11.9135
▁demented	-11.9135
▁iisten	-11.9135
▁salvation	-11.9135
▁spectacle	-11.9135
▁delude	-11.9135
▁higgins	-11.9135
▁referred	-11.9135
▁sequel	-11.9135
▁thauma	-11.9135
▁wheelchair	-11.9135
▁beaver	-11.9135
▁encore	-11.9135
▁fortnight	-11.9135
▁janitor	-11.9135
uku	-11.9135
▁extravagance	-11.9135
▁pluck	-11.9135
▁thesis	-11.9135
▁wrongdoing	-11.9135
gallo	-11.9135
▁admission	-11.9135
▁provision	-11.9135
▁relied	-11.9135
▁trench	-11.9135
▁vince	-11.9135
▁courtesy	-11.9135
▁donnel	-11.9135
▁negotiations	-11.9135
▁scrabble	-11.9135
▁slut	-11.9135
▁spaz	-11.9135
▁vocation	-11.9135
▁apron	-11.9135
▁danvers	-11.9135
▁diplomacy	-11.9135
▁bannister	-11.9135
▁carrier	-11.9135
▁ozgood	-11.9135
▁titans	-11.9135
▁triangle	-11.9135
▁lottery	-11.9135
▁monarch	-11.9135
▁throne	-11.9135
▁injunction	-11.9135
▁bellows	-11.9135
▁katrin	-11.9135
▁snotty	-11.9135
▁insight	-11.9135
▁lyric	-11.9135
▁charging	-11.9135
▁flank	-11.9135
▁montoire	-11.9135
▁ornament	-11.9135
▁auction	-11.9135
▁humidity	-11.9135
▁insanity	-11.9135
▁necessity	-11.9135
▁sabin	-11.9135
▁squeezing	-11.9135
▁curveball	-11.9135
▁denver	-11.9135
▁eady	-11.9135
denc	-11.9135
▁bonnet	-11.9135
▁chateau	-11.9135
▁gaulle	-11.9135
▁accurate	-11.9135
▁clough	-11.9135
▁cycle	-11.9135
▁eldest	-11.9135
▁tofu	-11.9135
▁udon	-11.9135
▁airways	-11.9135
▁spokesman	-11.9135
▁selectors	-11.9135
▁graduation	-11.9135
▁artificial	-11.9135
▁denominator	-11.9135
▁machinegun	-11.9135
▁polaroid	-11.9135
▁assassination	-11.9135
▁dummies	-11.9135
▁fiasco	-11.9135
▁indicating	-11.9135
▁venice	-11.9135
▁vionnet	-11.9135
▁compound	-11.9135
▁convertible	-11.9135
▁magique	-11.9135
▁psychology	-11.9135
▁untouch	-11.9135
▁melodic	-11.9135
▁crossword	-11.9135
▁southeast	-11.9135
▁wichita	-11.9135
valent	-11.9135
▁plop	-11.9135
▁blastoise	-11.9135
▁currie	-11.9135
▁groceries	-11.9135
▁bracelet	-11.9135
▁loony	-11.9135
▁wildflower	-11.9135
▁ceasefire	-11.9135
▁jabbeling	-11.9135
▁regal	-11.9135
▁sideways	-11.9135
▁summary	-11.9135
▁wuss	-11.9135
▁wrinkle	-11.9135
▁bruise	-11.9135
▁clergyman	-11.9135
▁manipulat	-11.9135
songwriter	-11.9135
▁cavern	-11.9135
▁tiger	-11.9135
▁lizard	-11.9135
▁smuts	-11.9135
▁eligible	-11.9135
▁jelly	-11.9135
eisure	-11.9135
▁detour	-11.9135
▁vague	-11.9135
▁scribes	-11.9135
▁yeehaw	-11.9135
▁assessment	-11.9135
▁dufour	-11.9135
▁contribution	-11.9135
▁terminal	-11.9135
▁barrier	-11.9135
▁felon	-11.9135
▁aggressive	-11.9135
▁buttonholes	-11.9135
▁relive	-11.9135
▁hippo	-11.9135
▁holland	-11.9135
rodu	-11.9135
▁bouillon	-11.9135
▁flashback	-11.9135
▁witty	-11.9135
▁immunity	-11.9135
▁pirate	-11.9135
▁shaving	-11.9135
▁boundaries	-11.9135
▁oregon	-11.9135
derate	-11.9135
▁humanitarian	-11.9135
▁prop	-11.9135
▁macaro	-11.9135
▁dispute	-11.9135
▁outcome	-11.9135
▁kaiser	-11.9135
▁scold	-11.9135
▁stilton	-11.9135
▁briefcase	-11.9135
▁mugger	-11.9135
▁typhus	-11.9135
▁soap	-11.9135
▁harley	-11.9136
▁squall	-11.9136
▁medium	-11.9136
▁michelle	-11.9136
tween	-11.9136
▁refill	-11.9136
▁scoop	-11.9136
▁ensure	-11.9136
▁vincent	-11.9136
▁logic	-11.9136
▁sanderson	-11.9136
▁retirement	-11.9136
▁confidential	-11.9136
▁fluent	-11.9136
▁orb	-11.9136
▁loft	-11.9136
sthetic	-11.9136
▁mega	-11.9136
▁heartbreaker	-11.9136
▁oink	-11.9136
▁bugging	-11.9136
▁bouncing	-11.9136
▁obligation	-11.9136
▁bowels	-11.9136
▁mumbo	-11.9136
▁seasick	-11.9136
▁compose	-11.9136
▁snapped	-11.9136
▁iife	-11.9136
▁supervisor	-11.9136
▁laurie	-11.9136
▁booze	-11.9136
▁assumption	-11.9136
▁pleasing	-11.9136
▁rasp	-11.9136
▁demoli	-11.9136
▁perez	-11.9136
▁pigler	-11.9136
rinth	-11.9136
▁catholicism	-11.9136
▁savior	-11.9136
▁complication	-11.9136
▁dormant	-11.9136
▁zipper	-11.9136
▁dixie	-11.9136
▁righteous	-11.9136
▁cruella	-11.9136
▁forehead	-11.9136
▁biondi	-11.9136
▁glance	-11.9137
▁luke	-11.9137
▁achievement	-11.9137
▁evian	-11.9137
▁uptown	-11.9137
▁intimate	-11.9137
▁demise	-11.9137
▁denial	-11.9137
▁glovers	-11.9137
▁taters	-11.9137
▁aaahh	-11.9137
▁meade	-11.9137
▁taffy	-11.9137
▁timber	-11.9137
▁trance	-11.9137
▁capitalize	-11.9137
▁selfdestructive	-11.9137
▁antique	-11.9137
▁policewoman	-11.9137
▁manifesto	-11.9137
▁esto	-11.9137
▁singlehanded	-11.9137
▁dependent	-11.9137
▁overdue	-11.9137
▁eww	-11.9137
▁howre	-11.9137
▁kimmy	-11.9137
▁pillar	-11.9137
▁umpire	-11.9137
▁ronnie	-11.9137
▁compassion	-11.9137
▁formula	-11.9137
▁lowlife	-11.9137
▁wib	-11.9137
▁canine	-11.9137
▁compell	-11.9137
▁passover	-11.9137
▁optimistic	-11.9137
▁dye	-11.9137
▁barging	-11.9137
▁duane	-11.9137
▁egyptian	-11.9137
▁catfish	-11.9137
▁upright	-11.9137
▁toto	-11.9137
▁julian	-11.9137
moto	-11.9138
▁gallic	-11.9138
▁spontaneously	-11.9138
▁wildlife	-11.9138
▁shack	-11.9138
▁deputi	-11.9138
▁paddy	-11.9138
▁moneypenny	-11.9138
▁pinball	-11.9138
▁zach	-11.9138
▁potty	-11.9138
▁valor	-11.9138
▁cruising	-11.9138
▁scul	-11.9138
▁brute	-11.9138
▁cens	-11.9138
▁archer	-11.9138
▁ferry	-11.9138
▁generator	-11.9138
▁rye	-11.9138
▁makin	-11.9138
▁preference	-11.9138
▁woodward	-11.9138
▁deafen	-11.9138
▁boast	-11.9138
▁penalty	-11.9138
▁strategy	-11.9138
▁curry	-11.9138
▁sentimental	-11.9138
▁fluffy	-11.9139
▁subver	-11.9139
▁weddin	-11.9139
▁steward	-11.9139
▁harvest	-11.9139
▁cooperation	-11.9139
▁labourers	-11.9139
▁lockwood	-11.9139
▁mixup	-11.9139
▁duties	-11.9139
▁discontinued	-11.9139
▁expired	-11.9139
▁terminated	-11.9139
▁marketts	-11.9139
▁prank	-11.9139
▁cannes	-11.9139
▁conley	-11.9139
▁victories	-11.9139
▁goldfish	-11.9139
▁caleb	-11.9139
▁quaker	-11.9139
▁flourishe	-11.9139
▁harmony	-11.9139
▁adoption	-11.9139
▁headmaster	-11.914
▁stressful	-11.914
▁mongo	-11.914
▁abor	-11.914
▁partlow	-11.914
▁aches	-11.914
▁dickhead	-11.914
▁dunn	-11.914
▁muti	-11.914
▁swedes	-11.914
▁sketches	-11.914
▁admirable	-11.914
▁zoom	-11.914
▁nichola	-11.914
pathy	-11.914
▁allah	-11.914
about	-11.914
▁excess	-11.914
▁leakage	-11.914
▁dumbass	-11.914
▁madison	-11.914
▁minus	-11.914
▁ashton	-11.914
▁balto	-11.9141
▁gratify	-11.9141
▁tore	-11.9141
oces	-11.9141
▁fuse	-11.9141
▁nooo	-11.9141
▁procession	-11.9141
▁sig	-11.9141
▁minority	-11.9141
fia	-11.9141
▁overhead	-11.9141
▁countdown	-11.9141
▁georgie	-11.9141
▁injection	-11.9141
▁hunch	-11.9141
▁hover	-11.9141
▁funnies	-11.9141
▁haircut	-11.9141
▁tangled	-11.9141
▁recon	-11.9141
▁condemned	-11.9142
▁soaked	-11.9142
▁eise	-11.9142
piped	-11.9142
▁cuban	-11.9142
▁moan	-11.9142
▁sociolog	-11.9142
▁shushes	-11.9142
▁yawn	-11.9142
▁brainard	-11.9142
▁onward	-11.9142
▁stinkin	-11.9142
▁imagery	-11.9142
▁shipment	-11.9143
▁colli	-11.9143
centennial	-11.9143
▁cameron	-11.9143
▁immensely	-11.9143
▁progressive	-11.9143
▁oyster	-11.9143
eval	-11.9143
▁rewing	-11.9143
▁notion	-11.9143
▁wallace	-11.9143
▁republican	-11.9143
▁pawn	-11.9143
▁sittin	-11.9143
▁chatbag	-11.9143
▁regardless	-11.9144
▁gull	-11.9144
▁stale	-11.9144
▁squat	-11.9144
▁nickname	-11.9144
▁missionary	-11.9144
▁spitting	-11.9144
▁peaches	-11.9144
▁blah	-11.9144
▁stalin	-11.9144
▁weakling	-11.9144
▁tablets	-11.9144
▁perpetual	-11.9144
▁rehearse	-11.9145
▁tissue	-11.9145
▁distinguish	-11.9145
▁pads	-11.9145
▁twentythree	-11.9145
▁hallway	-11.9145
▁satisfaction	-11.9145
▁glare	-11.9145
▁backpack	-11.9145
▁illiterate	-11.9145
▁circulate	-11.9145
▁dishonesty	-11.9145
▁luxury	-11.9145
▁cannon	-11.9145
▁mineral	-11.9145
hini	-11.9145
▁settlement	-11.9146
▁taunting	-11.9146
▁vomiting	-11.9146
▁squire	-11.9146
▁denied	-11.9146
▁retire	-11.9146
▁yip	-11.9146
▁relieve	-11.9146
▁trio	-11.9146
▁lifeboat	-11.9146
▁utilized	-11.9146
▁charan	-11.9147
▁bullshitter	-11.9147
▁carlson	-11.9147
▁bias	-11.9147
▁evict	-11.9147
▁christianity	-11.9147
▁vamo	-11.9147
▁jung	-11.9147
▁stow	-11.9147
▁annex	-11.9148
▁mainland	-11.9148
▁fag	-11.9148
▁joyce	-11.9148
▁kel	-11.9148
▁instantly	-11.9148
ulous	-11.9148
▁cork	-11.9149
▁greenland	-11.9149
▁chev	-11.9149
uff	-11.9149
▁mmmm	-11.915
▁bushes	-11.915
▁deleting	-11.915
▁bam	-11.915
autolog	-11.915
▁coverage	-11.915
▁considerate	-11.9151
▁intrud	-11.9151
▁fairway	-11.9151
▁digger	-11.9151
▁funni	-11.9151
▁starboard	-11.9151
▁polyt	-11.9151
▁kiii	-11.9152
▁skipper	-11.9152
▁published	-11.9152
▁mba	-11.9152
▁crema	-11.9152
▁educational	-11.9153
▁prof	-11.9153
▁runaway	-11.9154
▁hairball	-11.9154
▁appalled	-11.9154
▁enclos	-11.9154
▁bullock	-11.9154
▁valve	-11.9154
ites	-11.9155
▁blur	-11.9155
rdles	-11.9155
▁mashed	-11.9155
▁glenn	-11.9155
▁verse	-11.9155
▁calva	-11.9156
▁bitten	-11.9156
▁jug	-11.9156
▁farther	-11.9156
▁blackboard	-11.9157
▁shaw	-11.9157
hene	-11.9158
▁burg	-11.9158
▁betty	-11.9158
▁isle	-11.9159
▁fere	-11.9159
▁nuh	-11.9159
▁multiply	-11.9159
▁snuffy	-11.9159
▁divert	-11.9159
▁gren	-11.9159
▁pussy	-11.9159
▁sixty	-11.9159
▁beeper	-11.9159
▁tapped	-11.916
▁freshen	-11.916
▁ahold	-11.916
▁expel	-11.916
▁lug	-11.916
▁enjoyment	-11.916
▁rattle	-11.9161
▁schu	-11.9161
▁hutch	-11.9161
▁ramon	-11.9161
▁imprison	-11.9161
elda	-11.9162
▁jumbo	-11.9162
▁avenged	-11.9162
▁admirer	-11.9162
▁consistent	-11.9162
▁framed	-11.9162
▁lncoming	-11.9162
mary	-11.9162
▁tart	-11.9162
▁balder	-11.9162
▁orion	-11.9163
▁tamer	-11.9163
▁brainless	-11.9163
▁trustee	-11.9164
▁swed	-11.9164
▁brooke	-11.9164
▁snobb	-11.9165
▁sass	-11.9165
▁supporters	-11.9165
▁leaping	-11.9165
▁thrashing	-11.9165
▁ceiling	-11.9165
▁citation	-11.9165
▁kissinger	-11.9166
▁truthfully	-11.9166
▁typing	-11.9166
▁redeem	-11.9166
▁conventional	-11.9166
▁awaited	-11.9167
▁juliet	-11.9167
▁converted	-11.9167
▁mingl	-11.9167
▁leftwing	-11.9167
▁postman	-11.9167
▁nursery	-11.9167
llis	-11.9168
▁freeway	-11.9169
▁satan	-11.9169
amo	-11.917
▁breathin	-11.917
▁kle	-11.9171
▁fulltime	-11.9172
▁freddie	-11.9172
▁rubbed	-11.9172
▁assets	-11.9172
▁daring	-11.9172
▁amigos	-11.9172
▁bulbs	-11.9172
▁diapers	-11.9172
▁flapjacks	-11.9172
▁shoelaces	-11.9172
▁tobacconists	-11.9172
▁xobytes	-11.9172
▁pancakes	-11.9172
▁canvass	-11.9172
▁sprinkles	-11.9172
urse	-11.9173
▁gaps	-11.9173
▁drape	-11.9173
▁sud	-11.9173
fly	-11.9174
▁charmer	-11.9174
▁difficulties	-11.9174
anche	-11.9175
▁ricket	-11.9175
▁viewers	-11.9175
▁pam	-11.9175
▁hotter	-11.9175
▁clearance	-11.9176
▁balloons	-11.9177
▁blackmailer	-11.9177
▁tortured	-11.9177
▁salut	-11.9177
▁amo	-11.9177
virus	-11.9177
▁loner	-11.9178
▁wedge	-11.9178
▁indicated	-11.9178
▁mutters	-11.9178
▁blitz	-11.9179
▁succeeded	-11.9179
▁yyeah	-11.918
▁wizard	-11.918
theists	-11.918
▁gary	-11.918
▁cuba	-11.9181
▁calculating	-11.9181
▁wickedly	-11.9181
▁trips	-11.9182
▁caterpi	-11.9183
then	-11.9183
▁plumber	-11.9183
▁gunter	-11.9184
▁deity	-11.9184
▁commenc	-11.9185
▁fearless	-11.9185
▁adjusting	-11.9185
tails	-11.9185
▁brightest	-11.9185
▁debtor	-11.9186
▁swipe	-11.9186
▁approved	-11.9187
term	-11.9188
▁span	-11.9189
▁understands	-11.9189
▁shorten	-11.9189
▁indiana	-11.9191
▁peer	-11.9192
▁gymnast	-11.9192
▁depended	-11.9192
▁foolin	-11.9193
▁unclean	-11.9193
▁bunty	-11.9193
▁drownd	-11.9194
▁mobiliz	-11.9194
▁sour	-11.9194
▁faded	-11.9194
▁manda	-11.9195
▁poach	-11.9196
▁farce	-11.9197
▁hunger	-11.9198
▁wills	-11.9198
▁jen	-11.9199
▁kur	-11.9199
reen	-11.92
▁baldy	-11.9202
▁narrati	-11.9202
▁spike	-11.9203
▁buster	-11.9203
▁cove	-11.9203
▁pinching	-11.9204
ood	-11.9204
▁entertained	-11.9204
iece	-11.9204
▁jousting	-11.9205
▁crooked	-11.9205
▁brushing	-11.9205
▁jock	-11.9205
▁ignoring	-11.9205
▁thorn	-11.9207
uri	-11.9208
▁shen	-11.9209
▁ashes	-11.9209
▁improved	-11.9209
▁variet	-11.9212
▁brood	-11.9213
soul	-11.9213
manship	-11.9213
ided	-11.9215
▁bullying	-11.9215
▁trifle	-11.9216
▁pushin	-11.9217
▁elements	-11.9217
▁profited	-11.9218
▁parish	-11.9218
▁horseist	-11.9219
▁kissin	-11.9221
▁carryin	-11.9223
dum	-11.9224
▁illegally	-11.9225
▁suss	-11.9227
gestion	-11.9227
chez	-11.9227
▁depending	-11.9228
avoid	-11.9229
▁leaned	-11.9229
▁mable	-11.9229
▁frenchman	-11.923
▁export	-11.923
▁warp	-11.923
▁carton	-11.9232
▁reaches	-11.9232
▁perfection	-11.9232
▁pointless	-11.9233
liness	-11.9234
▁suz	-11.9234
▁seaman	-11.9234
▁suing	-11.9234
ellar	-11.9236
▁godf	-11.9236
▁dock	-11.9236
▁stockings	-11.9238
▁earrings	-11.9238
▁ounces	-11.9238
▁blossoms	-11.9238
▁cheeseburgers	-11.9238
▁millionaires	-11.9238
▁resumes	-11.9238
▁kilos	-11.9238
▁divers	-11.9238
▁manufacturers	-11.9239
uf	-11.9239
▁giraffes	-11.9239
amami	-11.9239
▁puzzles	-11.9241
▁squeezed	-11.9241
▁frontiers	-11.9241
▁samples	-11.9241
▁terroriz	-11.9241
▁headlines	-11.9242
▁cel	-11.9243
▁repaired	-11.9244
▁saddled	-11.9244
▁toil	-11.9245
▁poly	-11.9246
▁drivein	-11.9246
▁banker	-11.9247
▁nickels	-11.9247
▁bigtime	-11.925
izzy	-11.9252
cou	-11.9253
▁mat	-11.9253
three	-11.9254
▁internationale	-11.9254
▁snipp	-11.9254
▁drafted	-11.9255
icu	-11.9255
▁licked	-11.9255
▁fury	-11.9256
nishi	-11.9256
▁bes	-11.9256
▁pullin	-11.9258
▁whi	-11.9259
▁hysterical	-11.926
ermon	-11.926
tat	-11.926
ber	-11.9263
lars	-11.9263
▁hangin	-11.9263
▁capabilit	-11.9263
▁crosses	-11.9264
▁abandoning	-11.9266
lab	-11.9266
epa	-11.9267
▁surfers	-11.9269
▁scrapp	-11.9269
▁armys	-11.9269
▁insisted	-11.927
▁outsiders	-11.9271
▁ze	-11.9272
▁dash	-11.9272
▁dew	-11.9272
▁dresses	-11.9276
▁celebrated	-11.928
▁guitarist	-11.9281
▁teal	-11.9281
▁dispos	-11.9281
▁irony	-11.9282
▁wit	-11.9285
▁craz	-11.9285
▁are	-11.9286
▁fowl	-11.9286
▁patronize	-11.9287
▁resulting	-11.9287
▁rooting	-11.9288
▁chuy	-11.9291
▁weakly	-11.9292
▁prevented	-11.9293
▁disarm	-11.9295
▁recreation	-11.9296
▁boxers	-11.9297
▁rejoice	-11.9297
▁backside	-11.9301
▁stumbl	-11.9301
▁chaser	-11.9302
▁morel	-11.9304
raff	-11.9304
▁shu	-11.9305
▁gnomes	-11.9306
▁hendersons	-11.9306
▁meadows	-11.9306
▁pencils	-11.9306
▁thoroughbreds	-11.9306
▁burglars	-11.9306
▁converts	-11.9306
▁creamy	-11.9307
▁lz	-11.931
shot	-11.9311
▁payoff	-11.9311
▁advanced	-11.9312
▁gohan	-11.9312
▁youngsters	-11.9313
▁damaged	-11.9315
▁cans	-11.9315
▁bling	-11.9317
▁cubes	-11.9317
mmer	-11.9317
▁foundry	-11.9318
▁informers	-11.9319
dle	-11.9322
▁breakin	-11.9323
▁drinkin	-11.9323
▁originat	-11.933
hard	-11.9331
▁challenger	-11.9335
▁coaches	-11.9336
ario	-11.9337
▁trooper	-11.9338
▁standin	-11.934
▁hitch	-11.9341
▁footer	-11.9343
bones	-11.9344
▁gau	-11.9345
mony	-11.9348
▁dealt	-11.9357
▁smoked	-11.9357
▁whwh	-11.9357
▁crashed	-11.9358
▁fitch	-11.9359
sters	-11.9359
antly	-11.9361
▁triumpha	-11.9361
▁harmoni	-11.9364
▁tube	-11.9366
▁butchered	-11.937
▁firmed	-11.937
▁breasts	-11.9374
▁blokes	-11.9374
▁kidneys	-11.9374
▁callaghans	-11.9374
▁kittens	-11.9374
▁microphones	-11.9374
▁submit	-11.9374
▁gaug	-11.9375
▁heels	-11.9375
▁requirements	-11.9375
▁swamps	-11.9375
▁races	-11.938
▁risky	-11.9382
▁honoured	-11.9383
▁pale	-11.9384
▁prod	-11.9388
▁middleman	-11.9391
▁cate	-11.9396
holes	-11.9399
days	-11.9402
dal	-11.9406
▁ruled	-11.9406
▁titani	-11.9409
▁grub	-11.941
▁str	-11.9417
stered	-11.9418
umption	-11.9419
▁slices	-11.9419
▁seam	-11.942
▁tackle	-11.9421
▁sicker	-11.9423
▁touche	-11.9424
▁buttoned	-11.9425
▁introduced	-11.9425
▁turnin	-11.9425
▁did	-11.9428
books	-11.9429
▁parky	-11.9431
mhmm	-11.9431
▁fears	-11.9434
hers	-11.9439
izen	-11.944
tezmoi	-11.944
▁halfgrow	-11.9442
▁standards	-11.9443
▁transcripts	-11.9443
▁novels	-11.9443
▁sprouts	-11.9443
▁snacks	-11.9443
▁drawings	-11.9443
▁choppers	-11.9444
▁texting	-11.945
▁ahhhhhh	-11.945
▁attending	-11.945
▁deserting	-11.9455
▁blasting	-11.9457
still	-11.9459
▁tenant	-11.946
▁supervis	-11.9461
▁crackers	-11.9468
▁slower	-11.9472
▁bog	-11.9477
zag	-11.9478
▁moor	-11.9483
▁whoao	-11.9486
▁hooked	-11.9487
▁appreciated	-11.9494
stick	-11.9494
▁pounding	-11.9495
▁miner	-11.9496
▁permits	-11.9497
▁wart	-11.9498
dan	-11.9498
chest	-11.9502
▁knowhow	-11.9504
quin	-11.9505
▁promet	-11.9507
▁praises	-11.9508
▁leaking	-11.951
▁summons	-11.9513
▁appearances	-11.9513
▁pearls	-11.9513
▁catherines	-11.9513
▁decrees	-11.9513
▁gropers	-11.9513
▁chapters	-11.9513
▁tanks	-11.9513
▁indicates	-11.9514
▁melons	-11.9514
▁floats	-11.9514
▁cultures	-11.9514
ored	-11.9514
▁europeans	-11.9515
▁calmly	-11.9515
▁shouts	-11.9515
dodo	-11.9522
fer	-11.9523
▁ros	-11.9526
▁sweaters	-11.9527
▁practiced	-11.9528
cats	-11.9528
▁bumper	-11.9529
▁casting	-11.9532
▁touches	-11.9532
▁remarkabl	-11.9533
▁merge	-11.9535
▁concerning	-11.9538
▁smelly	-11.9539
▁exp	-11.9546
oohooh	-11.9548
▁resigning	-11.9554
▁kindest	-11.9557
▁dee	-11.9558
conception	-11.9563
mos	-11.9563
▁peas	-11.9564
▁doubled	-11.9566
▁dea	-11.9569
▁sickly	-11.9571
▁milli	-11.9573
▁sits	-11.9579
oise	-11.958
▁atti	-11.9581
▁glo	-11.9583
▁statistics	-11.9583
▁orphans	-11.9583
▁demons	-11.9583
▁bullfighters	-11.9584
▁bargains	-11.9584
hizz	-11.9594
lov	-11.9596
▁stayin	-11.9601
▁watches	-11.9603
▁varn	-11.961
▁dor	-11.9612
▁ard	-11.9617
▁bubble	-11.962
▁commenta	-11.9638
▁boggl	-11.9638
▁proudly	-11.9644
▁conditioning	-11.9645
▁flows	-11.9648
▁strongly	-11.9651
▁reveren	-11.9652
▁maya	-11.9653
▁colours	-11.9654
▁scholarships	-11.9654
▁costumes	-11.9654
▁employees	-11.9654
▁secretly	-11.9654
▁devices	-11.9654
▁fades	-11.9657
▁fightin	-11.9661
▁pardoned	-11.9665
▁joker	-11.9675
▁rede	-11.9675
ggin	-11.968
▁critical	-11.968
▁annies	-11.97
▁versa	-11.9707
offs	-11.9707
▁stu	-11.9712
▁trac	-11.9714
▁indig	-11.972
▁den	-11.9722
▁motions	-11.9724
▁radicals	-11.9725
▁celebrations	-11.9725
▁swallows	-11.9725
▁missiles	-11.9725
▁fr	-11.973
theyll	-11.9735
▁calculat	-11.9736
▁handi	-11.9741
licit	-11.9741
igio	-11.9742
she	-11.9745
▁chiefs	-11.9748
▁copa	-11.9752
uda	-11.9758
caf	-11.9765
▁smi	-11.9766
ille	-11.9767
▁longest	-11.9768
arr	-11.9777
▁lunche	-11.978
▁smite	-11.9786
▁onetime	-11.9788
▁rockets	-11.9793
▁estates	-11.9796
▁judgments	-11.9796
▁lunatics	-11.9796
▁techniques	-11.9796
▁discussions	-11.9799
▁designs	-11.9801
▁py	-11.981
ois	-11.9811
▁workin	-11.9811
▁sparkl	-11.9814
rin	-11.9814
▁listed	-11.9823
ular	-11.9826
hara	-11.9835
▁crumpl	-11.9837
hh	-11.9838
tly	-11.9838
lligan	-11.984
▁trapp	-11.9854
▁pits	-11.986
▁smelled	-11.9868
▁civilizations	-11.9869
▁maidens	-11.9869
▁insists	-11.9874
▁sites	-11.9875
ira	-11.9878
▁languages	-11.9878
▁punks	-11.988
▁tai	-11.9882
gee	-11.9887
▁tramps	-11.9891
ap	-11.9892
ogne	-11.9909
▁insul	-11.9915
we	-11.9923
▁windy	-11.9931
euf	-11.9932
▁dams	-11.9933
ttle	-11.9935
▁hawk	-11.994
▁reservations	-11.9941
▁museums	-11.9941
▁sources	-11.9941
▁punishments	-11.9942
▁intends	-11.9943
cept	-11.9951
eddy	-11.9954
▁scratche	-11.996
▁vaccinat	-11.9964
too	-11.9966
utwi	-11.9974
▁hump	-11.9981
▁facet	-11.9998
lves	-12.0008
▁prospect	-12.0014
▁vacations	-12.0014
▁zones	-12.0016
tton	-12.0017
being	-12.0022
▁fig	-12.0032
▁weekly	-12.004
▁timeless	-12.0049
sand	-12.0053
▁sou	-12.0057
mada	-12.007
ti	-12.0075
▁infam	-12.0077
▁govern	-12.0081
▁plates	-12.0088
▁characters	-12.0088
▁benefits	-12.0088
▁anybodys	-12.0091
iers	-12.0095
iate	-12.0101
▁marking	-12.0105
tty	-12.0109
▁deserter	-12.0113
▁slic	-12.0122
▁header	-12.0127
▁freely	-12.0143
▁screens	-12.0158
▁distinct	-12.0158
▁agreeing	-12.0168
▁sly	-12.0169
▁dances	-12.0174
▁fours	-12.0182
▁rust	-12.0184
▁greening	-12.0191
bio	-12.0206
▁blaz	-12.0207
uve	-12.0208
matic	-12.0213
▁stared	-12.0214
▁illness	-12.0216
ples	-12.0226
iti	-12.0235
▁swap	-12.0282
ri	-12.0293
urs	-12.0295
pe	-12.0303
ates	-12.0311
▁warrants	-12.0312
verne	-12.0344
▁outs	-12.035
▁penetrat	-12.035
▁mak	-12.0364
▁hau	-12.0369
ory	-12.0374
xie	-12.0381
nberg	-12.0381
▁griev	-12.0384
▁individuals	-12.0386
▁welcomed	-12.0398
▁continual	-12.0401
▁trailer	-12.0409
met	-12.0409
opa	-12.0412
▁godda	-12.0414
justin	-12.0416
▁lined	-12.0435
▁interviews	-12.0464
▁westerns	-12.0464
asco	-12.0478
▁warmer	-12.0478
olly	-12.0482
mer	-12.0502
bod	-12.0514
▁eth	-12.0514
ramble	-12.0515
▁sections	-12.0541
▁ambassadors	-12.0541
▁cantervilles	-12.0541
cc	-12.0547
lide	-12.0555
ras	-12.0558
allic	-12.0565
temporary	-12.0566
rage	-12.0572
▁gare	-12.0577
far	-12.0582
▁sympathi	-12.0593
ffling	-12.0598
▁experts	-12.0618
▁wagons	-12.0618
▁rebell	-12.0626
roid	-12.0638
▁trucker	-12.0639
▁repel	-12.0643
▁meals	-12.0675
wig	-12.0682
low	-12.0685
▁commands	-12.0692
sus	-12.0702
▁gow	-12.0709
ella	-12.0725
▁marg	-12.0731
▁pets	-12.074
▁ren	-12.0743
▁hobb	-12.0745
▁practise	-12.0746
▁flats	-12.0775
▁champions	-12.0781
▁criticiz	-12.0782
▁exterminate	-12.0788
ault	-12.0803
ente	-12.0804
▁bona	-12.0804
risco	-12.0806
ape	-12.0824
tolling	-12.083
insured	-12.0833
▁psychologi	-12.0845
▁credits	-12.0855
▁castles	-12.0858
▁jeopardize	-12.0858
▁nes	-12.0867
▁considerabl	-12.0873
▁approache	-12.09
oons	-12.0907
▁cas	-12.0912
bbie	-12.0925
▁verb	-12.0929
▁lawful	-12.0929
▁generate	-12.093
▁hatch	-12.0931
▁routes	-12.0932
▁michaels	-12.0934
gon	-12.0947
▁moun	-12.096
▁combine	-12.0971
▁cy	-12.0979
vid	-12.0996
▁revive	-12.0998
▁compress	-12.0999
▁relate	-12.0999
cci	-12.1006
▁tips	-12.1011
▁pressures	-12.1014
▁moo	-12.1028
▁goodies	-12.1033
sco	-12.1039
▁kisser	-12.1041
▁sav	-12.1042
▁jeffr	-12.1044
▁sle	-12.1049
nch	-12.1051
can	-12.1072
tiers	-12.1083
▁roberts	-12.1089
▁gua	-12.1094
▁restaurants	-12.1095
▁legends	-12.1095
shi	-12.1115
tie	-12.1153
▁dur	-12.1154
▁dem	-12.1154
nflation	-12.1155
▁stirr	-12.1165
▁tease	-12.1168
rillo	-12.1169
▁thems	-12.1175
▁affirm	-12.118
▁revers	-12.1187
diction	-12.1188
▁skins	-12.119
▁occasional	-12.1207
▁media	-12.1239
▁kati	-12.1247
▁contacts	-12.1258
▁prepares	-12.1267
eology	-12.1278
elective	-12.1286
▁tru	-12.1293
▁cra	-12.1296
oads	-12.1298
▁bare	-12.1305
rris	-12.1306
▁select	-12.1325
▁ach	-12.1364
tto	-12.1372
▁humbl	-12.139
prone	-12.1399
▁rac	-12.1404
wling	-12.1408
▁fend	-12.141
cer	-12.1411
art	-12.1424
taking	-12.1428
ranny	-12.1429
omy	-12.1433
▁liter	-12.1443
lake	-12.1447
▁rivers	-12.145
▁travels	-12.1456
▁bens	-12.1466
▁grat	-12.1505
▁daniellas	-12.1508
▁bin	-12.1509
part	-12.151
▁chairs	-12.1511
disa	-12.1511
ient	-12.1523
▁spiritu	-12.1528
aged	-12.1543
▁slapp	-12.1548
edup	-12.1562
done	-12.1569
▁violat	-12.1573
▁bran	-12.1581
▁coff	-12.1582
tra	-12.1589
▁drunks	-12.1594
squ	-12.16
▁accessor	-12.1601
eons	-12.1608
▁choco	-12.1624
▁overs	-12.1627
ple	-12.163
▁des	-12.1672
▁snitch	-12.1678
▁necks	-12.1678
▁feeds	-12.1689
▁classical	-12.1694
▁posts	-12.17
related	-12.1706
▁writes	-12.1707
▁pric	-12.1723
▁swi	-12.1733
▁justifi	-12.174
▁risks	-12.176
lky	-12.177
oid	-12.1786
▁litera	-12.1792
▁reve	-12.1826
▁iess	-12.183
ival	-12.1833
▁opinions	-12.1849
▁organiz	-12.1856
▁appoint	-12.1856
sive	-12.1866
▁parc	-12.1877
mor	-12.1904
ury	-12.1907
▁abdu	-12.1916
ite	-12.1924
sis	-12.1929
mina	-12.1933
▁multi	-12.1935
▁alli	-12.1936
ron	-12.1939
▁investigat	-12.1989
zzi	-12.1992
▁dares	-12.1994
▁cargo	-12.201
aul	-12.2014
clusive	-12.2019
▁fl	-12.2023
▁arts	-12.2033
▁twer	-12.2034
▁conserv	-12.2045
▁philosoph	-12.2052
▁fra	-12.2058
▁ret	-12.2061
▁criticize	-12.207
rious	-12.21
ced	-12.2112
ctual	-12.2121
rousing	-12.2128
▁rel	-12.2146
▁glu	-12.2147
abe	-12.2149
▁gar	-12.2162
rad	-12.2173
▁trembl	-12.2185
▁tights	-12.2193
fa	-12.2199
▁philipp	-12.2206
wee	-12.221
▁apol	-12.2212
▁evacuat	-12.2223
plication	-12.2228
oop	-12.2232
ference	-12.2235
▁bays	-12.2235
▁packs	-12.2241
cker	-12.2257
sley	-12.2263
tile	-12.2268
lip	-12.2281
ip	-12.2289
▁bart	-12.2299
▁dai	-12.2307
▁revolv	-12.2336
▁interfer	-12.2352
▁andr	-12.2357
▁grieve	-12.2372
ctic	-12.2378
rummy	-12.2379
▁tanne	-12.2381
nin	-12.2402
agon	-12.2407
▁partial	-12.2411
illian	-12.2431
▁hash	-12.2439
▁envi	-12.2447
omero	-12.2473
rank	-12.2473
▁function	-12.249
tv	-12.2498
▁pip	-12.2515
ament	-12.2528
leg	-12.2534
▁rad	-12.2551
▁pats	-12.2553
sk	-12.2556
▁departments	-12.2563
▁qua	-12.2581
▁trails	-12.259
anny	-12.2609
nant	-12.2625
overs	-12.2638
poo	-12.2641
▁systems	-12.2654
▁arrests	-12.267
stage	-12.2679
▁dries	-12.2682
▁tres	-12.27
position	-12.2712
▁scrambl	-12.2738
▁barbi	-12.2745
asta	-12.275
iz	-12.2758
etta	-12.2762
▁rebellio	-12.2795
sportsman	-12.2815
▁hideou	-12.2816
ador	-12.2844
mont	-12.2845
red	-12.2855
▁initiat	-12.2859
pr	-12.2861
▁cod	-12.287
rried	-12.2882
▁zap	-12.2905
atic	-12.2915
▁exercis	-12.2922
▁sadde	-12.2934
ety	-12.2936
▁premi	-12.2943
eem	-12.2954
▁deduc	-12.2969
belle	-12.297
azel	-12.2978
lls	-12.2995
▁inv	-12.3008
pid	-12.3013
▁bub	-12.3018
hem	-12.3026
cks	-12.3027
uality	-12.3048
▁practices	-12.3049
ub	-12.3062
tribution	-12.307
ros	-12.3071
▁disp	-12.3095
▁croc	-12.3113
▁jani	-12.3114
bal	-12.3122
▁jennys	-12.3125
▁elementa	-12.3132
▁ano	-12.3141
▁eee	-12.3142
ff	-12.3161
tre	-12.3164
devil	-12.3168
boom	-12.317
aha	-12.3189
igan	-12.3202
mie	-12.3217
tted	-12.3223
▁dol	-12.3232
get	-12.3239
apped	-12.3243
med	-12.3248
aimed	-12.3249
▁selfs	-12.3258
▁sights	-12.3268
▁tase	-12.3284
ough	-12.3287
ith	-12.3288
ories	-12.3304
lad	-12.3315
uzzling	-12.3317
vy	-12.3319
nson	-12.333
meters	-12.3342
rence	-12.3342
craft	-12.336
ci	-12.3367
baden	-12.3378
▁smu	-12.338
goes	-12.3391
▁laur	-12.3393
oline	-12.3404
mption	-12.3405
▁consul	-12.3414
omo	-12.3416
▁patriot	-12.3429
neu	-12.3448
▁cups	-12.3451
pit	-12.3464
ake	-12.3478
▁miser	-12.3486
hour	-12.352
▁tire	-12.3546
▁blu	-12.3552
▁om	-12.3552
oul	-12.3559
pro	-12.3566
aud	-12.3581
oc	-12.3585
brows	-12.3596
▁joan	-12.36
▁iso	-12.3603
tag	-12.3606
ool	-12.3608
osi	-12.3613
starch	-12.3615
rink	-12.3615
umbling	-12.3618
quet	-12.3632
▁surg	-12.3637
oggies	-12.364
▁barre	-12.3647
▁gravel	-12.3655
are	-12.3676
ui	-12.3677
▁ump	-12.3678
mberg	-12.368
▁inde	-12.3681
▁aide	-12.3682
▁dar	-12.3683
▁cm	-12.3687
ldman	-12.3688
flame	-12.3697
▁atroci	-12.3701
▁testif	-12.3711
▁dab	-12.3721
roy	-12.3737
erie	-12.3738
winkle	-12.3743
▁at	-12.3752
▁shap	-12.3753
firm	-12.3753
▁gaze	-12.3759
▁entr	-12.3763
▁drog	-12.3765
gu	-12.3766
cr	-12.3778
▁norm	-12.379
itchy	-12.3792
▁hagg	-12.3801
eater	-12.3803
dad	-12.3819
resses	-12.3822
▁muff	-12.3825
▁stat	-12.383
arch	-12.383
join	-12.3834
▁cri	-12.3842
crates	-12.3843
vit	-12.3845
ele	-12.385
itsu	-12.385
ability	-12.3853
layers	-12.3869
▁mai	-12.3873
ency	-12.3873
▁rejoic	-12.3875
ide	-12.3876
▁barf	-12.3876
bit	-12.3877
gle	-12.3878
▁snoo	-12.3879
▁shak	-12.3884
▁calle	-12.3888
chen	-12.3891
▁accus	-12.3893
burg	-12.3902
itsy	-12.3906
phone	-12.3908
american	-12.3913
▁electri	-12.3915
glades	-12.3915
gler	-12.3919
parag	-12.3921
oding	-12.3926
that	-12.3931
▁lung	-12.3933
▁clog	-12.3935
uch	-12.3935
attered	-12.3936
lasses	-12.3939
▁tee	-12.3939
▁wail	-12.394
▁uhuhuh	-12.3941
▁shriek	-12.3943
▁dictat	-12.3949
▁differ	-12.395
▁accommodation	-12.3951
▁hyena	-12.3951
▁skunk	-12.3951
▁zombie	-12.3951
▁glisten	-12.3951
▁hungarian	-12.3951
▁matron	-12.3951
▁transgression	-12.3951
▁tremor	-12.3951
▁anarchist	-12.3951
▁barbarian	-12.3951
▁circu	-12.3952
▁thrive	-12.3952
▁sprinkler	-12.3953
▁primate	-12.3953
fest	-12.3955
▁protest	-12.3955
▁consist	-12.3955
tail	-12.3964
▁sung	-12.3964
▁cheeseburger	-12.3968
▁resume	-12.3968
▁blossom	-12.3968
▁ounce	-12.3968
▁shade	-12.3968
▁millionaire	-12.3969
▁thug	-12.3969
▁theo	-12.3971
▁giraffe	-12.3972
▁kilo	-12.3973
▁robbin	-12.3974
▁sample	-12.3974
▁marshmallow	-12.3975
▁shepherd	-12.3975
▁phillip	-12.3976
▁manufacturer	-12.3976
▁spik	-12.3976
▁puzzle	-12.3978
▁microchip	-12.398
▁earring	-12.398
▁hoodlum	-12.398
▁thigh	-12.398
▁cyclone	-12.3982
▁puttin	-12.3983
▁creation	-12.3983
pis	-12.3985
irl	-12.3985
▁consequence	-12.3986
▁merchant	-12.3987
▁homesteader	-12.3988
▁pattern	-12.399
▁veteran	-12.399
▁elli	-12.399
▁brag	-12.3991
mut	-12.3991
▁chart	-12.3995
▁pint	-12.3995
▁frontier	-12.3995
▁intern	-12.3998
▁headache	-12.3999
gar	-12.4003
▁corps	-12.4003
▁trifl	-12.4003
ittle	-12.4003
ikes	-12.4003
▁sewer	-12.4004
doz	-12.4005
▁headline	-12.4008
wise	-12.401
vern	-12.4012
▁invent	-12.4014
▁unde	-12.4014
▁assembl	-12.4016
▁other	-12.4017
▁ahhhh	-12.4018
▁grad	-12.4027
hair	-12.4029
▁agin	-12.4029
▁contin	-12.4031
▁via	-12.4033
oph	-12.4033
ree	-12.4033
▁claw	-12.4034
mbled	-12.404
▁scen	-12.4041
win	-12.4044
nick	-12.4049
▁thrash	-12.4051
▁typ	-12.4054
▁bourb	-12.4056
▁splint	-12.4057
ouncing	-12.4058
upp	-12.4058
▁reper	-12.4059
▁surround	-12.406
ologist	-12.4061
▁supple	-12.4063
lum	-12.4064
aris	-12.4065
post	-12.4065
bell	-12.4065
▁nickel	-12.4066
▁flatter	-12.4066
tock	-12.4067
▁youryour	-12.4067
groom	-12.4068
▁squa	-12.4069
▁hmmhmm	-12.4069
father	-12.407
place	-12.4072
ogue	-12.4074
elding	-12.4076
dian	-12.4076
walk	-12.4078
boat	-12.4078
igh	-12.4079
▁oz	-12.4079
▁perceiv	-12.408
▁invad	-12.408
whee	-12.4081
▁esca	-12.4081
▁provinc	-12.4084
▁appreciat	-12.4085
bumps	-12.4085
patriot	-12.4085
acceptable	-12.4085
paralyzed	-12.4085
▁lndu	-12.4086
crow	-12.4086
▁spank	-12.4086
▁smug	-12.4086
sphere	-12.4086
▁leap	-12.4087
▁compar	-12.4087
▁ceil	-12.4087
▁murmur	-12.4087
lift	-12.4087
will	-12.4088
▁doubl	-12.4088
print	-12.4089
▁whirl	-12.4089
barb	-12.409
trooper	-12.409
consistent	-12.409
jumbo	-12.409
writing	-12.409
tub	-12.409
freeze	-12.409
▁chitter	-12.4091
listed	-12.4091
▁swarm	-12.4091
mind	-12.4091
predict	-12.4091
▁astonish	-12.4091
▁clatter	-12.4092
ima	-12.4092
uci	-12.4092
▁attach	-12.4092
booboo	-12.4092
granddaddy	-12.4092
flat	-12.4093
drew	-12.4093
▁experienc	-12.4093
royce	-12.4093
bloom	-12.4093
flowing	-12.4093
planted	-12.4093
round	-12.4093
woman	-12.4093
forsake	-12.4094
▁splash	-12.4094
known	-12.4094
chris	-12.4094
finals	-12.4094
▁measur	-12.4094
wheat	-12.4094
▁hea	-12.4094
recorded	-12.4094
cbs	-12.4095
▁tex	-12.4095
present	-12.4095
celes	-12.4095
experienced	-12.4095
proof	-12.4095
fifty	-12.4095
developed	-12.4095
▁stov	-12.4095
identified	-12.4095
faithful	-12.4096
drops	-12.4096
appropriate	-12.4096
sensitive	-12.4096
drums	-12.4096
bedroom	-12.4096
jacket	-12.4096
gencies	-12.4096
regard	-12.4096
wrap	-12.4096
chamber	-12.4096
filled	-12.4096
fighting	-12.4096
cloud	-12.4096
blast	-12.4096
figure	-12.4096
spoken	-12.4096
electric	-12.4096
hamster	-12.4096
familiar	-12.4096
▁plac	-12.4096
smith	-12.4096
grass	-12.4097
excited	-12.4097
mo	-12.4097
master	-12.4097
statement	-12.4097
written	-12.4097
shock	-12.4097
spread	-12.4097
attack	-12.4097
laugh	-12.4097
broken	-12.4097
thousand	-12.4097
daughter	-12.4097
definitely	-12.4097
control	-12.4097
label	-12.4097
naked	-12.4097
nducted	-12.4097
blood	-12.4097
argh	-12.4097
billy	-12.4097
president	-12.4097
would	-12.4097
brother	-12.4097
people	-12.4097
theyre	-12.4097
space	-12.4097
▁platte	-12.4097
bottle	-12.4097
hello	-12.4097
regular	-12.4097
bull	-12.4098
informed	-12.4098
changing	-12.4098
wait	-12.4098
mash	-12.4098
whoa	-12.4099
▁wrestl	-12.4099
tect	-12.4099
dignity	-12.4099
normal	-12.4099
year	-12.4099
watch	-12.41
base	-12.41
human	-12.41
▁extinguish	-12.41
▁figur	-12.41
▁plumb	-12.41
▁transform	-12.41
▁convey	-12.4101
whoo	-12.4101
sharp	-12.4101
cake	-12.4101
team	-12.4102
pins	-12.4102
coup	-12.4102
▁hol	-12.4102
▁litter	-12.4102
open	-12.4102
wire	-12.4102
around	-12.4103
▁appall	-12.4103
pound	-12.4103
nip	-12.4104
▁sophisticat	-12.4105
brain	-12.4105
agan	-12.4105
▁dismiss	-12.4105
made	-12.4106
▁grabb	-12.4106
▁sustain	-12.4106
▁vol	-12.4106
workers	-12.4107
▁shred	-12.4107
nap	-12.4107
hut	-12.4107
▁tick	-12.4107
neck	-12.4107
shake	-12.4108
german	-12.4108
kick	-12.4109
▁cordon	-12.4109
pick	-12.411
pose	-12.411
▁undress	-12.411
leave	-12.411
mura	-12.4111
▁zin	-12.4111
▁captur	-12.4112
timing	-12.4112
month	-12.4113
▁morn	-12.4113
gow	-12.4114
shell	-12.4114
▁utilize	-12.4115
ppi	-12.4115
▁contemporar	-12.4115
teen	-12.4116
▁slid	-12.4116
allows	-12.4116
ock	-12.4116
▁educate	-12.4116
unn	-12.4116
hold	-12.4116
▁devote	-12.4117
▁injure	-12.4117
▁luxur	-12.4117
▁dishonest	-12.4117
▁oblige	-12.4117
▁qualifie	-12.4117
▁contra	-12.4117
▁excite	-12.4118
▁fantas	-12.4118
cm	-12.4118
errari	-12.4119
wall	-12.4119
▁dignit	-12.4119
uses	-12.412
▁curl	-12.412
▁announc	-12.4121
ari	-12.4121
▁immense	-12.4121
▁commun	-12.4121
▁pictur	-12.4121
wi	-12.4121
▁surfer	-12.4122
▁mango	-12.4122
▁semi	-12.4122
▁slur	-12.4122
▁sprint	-12.4123
▁precise	-12.4123
rify	-12.4123
▁apparent	-12.4123
▁inco	-12.4123
ricks	-12.4123
▁scram	-12.4123
wave	-12.4124
▁exhal	-12.4124
▁georgi	-12.4124
▁histori	-12.4124
▁definite	-12.4124
▁eleanor	-12.4124
care	-12.4124
aflo	-12.4124
▁contend	-12.4125
musics	-12.4125
▁intens	-12.4125
cycl	-12.4125
oftheart	-12.4125
destructi	-12.4126
cola	-12.4126
deck	-12.4126
▁angri	-12.4126
broker	-12.4126
▁contradict	-12.4127
▁manifest	-12.4127
cubat	-12.4127
angela	-12.4128
ports	-12.4128
▁repetiti	-12.4129
illies	-12.4129
▁quarte	-12.4129
▁marsh	-12.4129
wald	-12.413
▁conti	-12.413
▁cynic	-12.413
dump	-12.4131
▁axe	-12.4131
▁pisc	-12.4131
▁weave	-12.4131
▁alph	-12.4131
▁prosecut	-12.4131
rob	-12.4131
▁ninj	-12.4131
▁capito	-12.4131
▁nigh	-12.4131
awk	-12.4131
▁biond	-12.4132
▁tuc	-12.4132
▁propagand	-12.4132
▁adju	-12.4132
jamas	-12.4132
isse	-12.4132
urgeon	-12.4132
▁phenom	-12.4132
again	-12.4132
▁agitat	-12.4133
▁indulge	-12.4133
retched	-12.4133
conspi	-12.4133
atherine	-12.4133
▁collaborat	-12.4133
[...]
