<unk>	0
<s>	0
</s>	0
s	-4.11575
▁im	-4.4586
▁dont	-4.50139
▁know	-4.55303
▁get	-4.73869
▁go	-4.84411
▁right	-4.84435
▁like	-4.88242
▁got	-4.91639
▁come	-4.97957
▁youre	-4.98297
▁yeah	-5.02003
▁oh	-5.06346
▁well	-5.08676
▁one	-5.13772
▁thats	-5.13838
▁na	-5.22347
▁good	-5.3032
▁want	-5.33744
▁see	-5.345
▁okay	-5.39244
▁think	-5.42951
▁hey	-5.48121
▁gon	-5.48202
▁back	-5.50573
▁man	-5.50729
▁going	-5.59355
▁hes	-5.59447
▁look	-5.60929
▁us	-5.62594
▁time	-5.62839
▁yes	-5.6314
▁take	-5.64324
▁ill	-5.69684
▁cant	-5.773
▁tell	-5.79614
▁would	-5.83803
▁say	-5.83895
ing	-5.86891
▁need	-5.87128
▁way	-5.93096
▁could	-5.94702
▁	-5.94707
▁really	-5.94938
▁didnt	-5.9609
▁make	-5.9756
▁l	-5.99309
▁something	-5.99892
▁lets	-6.01929
▁whats	-6.01945
▁never	-6.02675
▁little	-6.03608
▁let	-6.04573
▁mean	-6.08079
▁please	-6.0896
▁sir	-6.09116
▁give	-6.11438
▁theres	-6.12964
▁thank	-6.13567
ed	-6.14727
▁sorry	-6.15834
▁two	-6.17662
▁love	-6.17903
▁ive	-6.1831
▁people	-6.20841
▁mr	-6.21313
▁fucking	-6.22484
▁said	-6.24172
▁thing	-6.28995
▁fuck	-6.31404
▁god	-6.32499
▁uh	-6.33823
▁sure	-6.36089
▁much	-6.36212
▁help	-6.36592
▁shit	-6.37839
▁even	-6.4187
▁theyre	-6.42029
▁find	-6.42792
▁wait	-6.44072
▁stop	-6.45987
▁first	-6.46041
▁put	-6.4643
▁call	-6.46646
▁life	-6.46915
▁day	-6.48365
▁anything	-6.48524
▁guys	-6.49889
▁keep	-6.50223
▁nothing	-6.50695
▁home	-6.53857
▁shes	-6.5465
▁still	-6.54977
▁work	-6.56735
▁money	-6.57948
▁new	-6.58806
▁talk	-6.60438
▁maybe	-6.6044
▁away	-6.60543
▁name	-6.60909
▁great	-6.61572
▁ever	-6.61666
▁night	-6.61715
▁around	-6.65071
d	-6.6532
▁better	-6.66207
▁guy	-6.6721
▁thought	-6.67849
▁always	-6.68576
▁long	-6.69055
y	-6.70274
▁last	-6.72479
▁must	-6.73235
▁stay	-6.74103
▁ta	-6.74438
▁told	-6.75029
▁big	-6.7508
▁hell	-6.75895
▁old	-6.75965
▁leave	-6.76546
▁place	-6.77905
▁everything	-6.78249
▁things	-6.78632
▁years	-6.78943
▁wan	-6.7939
▁youve	-6.79718
▁boy	-6.8065
▁nice	-6.81627
▁id	-6.81642
▁listen	-6.82146
▁three	-6.82569
▁every	-6.83155
▁coming	-6.83606
▁wont	-6.84117
▁hear	-6.84503
▁car	-6.84659
▁feel	-6.84911
▁done	-6.85695
▁youll	-6.86224
▁bad	-6.86335
▁kill	-6.86414
▁move	-6.8806
▁believe	-6.88242
▁made	-6.89563
▁understand	-6.9008
▁doesnt	-6.90507
▁lot	-6.90556
▁hello	-6.90892
▁girl	-6.93023
▁world	-6.93377
▁aint	-6.9347
▁left	-6.9397
▁father	-6.9419
▁dad	-6.9457
▁remember	-6.95283
▁house	-6.95777
▁hold	-6.96606
▁kind	-6.96835
▁dead	-6.97391
▁huh	-6.97487
▁thanks	-6.97716
▁fine	-6.98616
▁baby	-7.00351
▁hi	-7.00725
▁real	-7.00841
▁son	-7.01332
▁enough	-7.01512
▁door	-7.01739
▁music	-7.01932
▁course	-7.0198
▁show	-7.02365
er	-7.02582
▁talking	-7.05096
▁mother	-7.0658
ly	-7.06612
▁friend	-7.07458
▁care	-7.0747
▁wrong	-7.07917
e	-7.08002
▁ready	-7.08148
▁another	-7.08165
▁today	-7.08167
o	-7.08452
▁job	-7.08973
▁family	-7.09611
▁run	-7.09774
▁best	-7.09813
▁isnt	-7.10005
▁might	-7.10378
▁may	-7.10466
▁wanted	-7.10808
▁looking	-7.1202
▁ask	-7.12593
▁getting	-7.12734
▁ok	-7.14326
▁came	-7.14627
▁happened	-7.15141
▁mind	-7.15375
▁found	-7.15631
▁else	-7.16657
▁morning	-7.16911
▁someone	-7.17261
a	-7.17445
▁next	-7.18457
▁men	-7.19185
▁trying	-7.19564
▁try	-7.19877
▁seen	-7.20604
▁open	-7.21063
▁wasnt	-7.2201
▁mom	-7.22447
▁watch	-7.22653
▁head	-7.23996
▁wouldnt	-7.2445
▁ah	-7.25575
▁many	-7.25903
▁woman	-7.2636
▁play	-7.26405
▁phone	-7.26736
▁kid	-7.27232
▁cause	-7.27462
▁tonight	-7.27489
in	-7.27825
▁bring	-7.2818
▁weve	-7.28195
▁um	-7.28454
▁whole	-7.29316
▁room	-7.29721
▁knew	-7.30138
▁guess	-7.3027
▁heard	-7.30754
▁pretty	-7.32014
▁saw	-7.3212
▁meet	-7.32678
▁playing	-7.32942
▁hand	-7.33112
▁went	-7.33179
▁together	-7.33498
▁turn	-7.34696
▁live	-7.35549
▁miss	-7.36083
▁em	-7.36406
▁hard	-7.36676
▁school	-7.37232
▁excuse	-7.38206
▁start	-7.38617
▁gone	-7.38937
▁without	-7.39325
▁took	-7.40008
▁whos	-7.42031
▁five	-7.42318
▁whoa	-7.42548
▁end	-7.42917
▁die	-7.42999
▁saying	-7.43076
▁friends	-7.43187
▁matter	-7.43199
▁everybody	-7.43645
▁bit	-7.43735
▁days	-7.44263
▁problem	-7.45209
▁says	-7.46813
▁use	-7.47044
▁brother	-7.47163
▁yet	-7.47459
▁already	-7.47578
▁happy	-7.47704
▁hope	-7.47976
▁business	-7.48
▁face	-7.48226
▁called	-7.48533
▁lost	-7.48824
▁wife	-7.49365
▁second	-7.4941
▁four	-7.49437
▁shut	-7.49537
▁idea	-7.49754
▁check	-7.50276
▁killed	-7.50843
▁youd	-7.50959
▁used	-7.51316
▁alone	-7.5288
▁havent	-7.53399
▁kids	-7.53452
▁damn	-7.53581
▁fight	-7.53973
▁hit	-7.54479
▁hands	-7.54674
▁tomorrow	-7.55153
▁minute	-7.55315
▁sit	-7.55621
▁easy	-7.55772
▁ass	-7.56007
r	-7.56282
▁crazy	-7.56299
▁gun	-7.56394
▁lm	-7.56473
▁everyone	-7.56675
▁police	-7.57221
▁true	-7.57816
▁anyone	-7.5793
▁fire	-7.58375
▁worry	-7.58885
▁pay	-7.59022
▁nobody	-7.59045
▁city	-7.59562
▁beautiful	-7.5991
t	-7.60334
▁actually	-7.6042
▁case	-7.60661
▁ago	-7.60693
▁looks	-7.6074
▁deal	-7.61231
▁stuff	-7.61611
▁couldnt	-7.62146
▁heart	-7.62347
▁minutes	-7.62459
▁forget	-7.62527
▁cut	-7.63605
▁wheres	-7.64
▁year	-7.64197
▁shot	-7.64373
▁close	-7.64747
▁somebody	-7.64818
▁dog	-7.64971
▁mine	-7.65055
▁since	-7.65175
▁inside	-7.6602
▁probably	-7.66315
▁wants	-7.66469
▁jesus	-7.6721
▁chuckles	-7.67348
▁part	-7.67381
▁eat	-7.68241
▁far	-7.68272
▁read	-7.68904
▁high	-7.68966
n	-7.69955
▁soon	-7.7001
▁water	-7.70205
▁black	-7.70349
▁point	-7.7041
▁later	-7.71103
▁late	-7.71192
▁young	-7.71532
▁game	-7.71557
▁word	-7.71853
▁captain	-7.72292
▁sighs	-7.72649
▁eyes	-7.73096
▁line	-7.73377
▁cool	-7.73615
▁alright	-7.74018
▁chance	-7.74137
▁happen	-7.74368
▁taking	-7.74509
▁hurt	-7.74984
▁stand	-7.75105
▁set	-7.75114
▁story	-7.75149
▁la	-7.75238
▁change	-7.75337
▁power	-7.75438
▁whatever	-7.75632
▁gave	-7.75754
▁boys	-7.76296
▁town	-7.76333
▁working	-7.76692
▁fuckin	-7.77532
▁girls	-7.77652
▁side	-7.77672
▁exactly	-7.77946
▁supposed	-7.78074
▁six	-7.78094
▁welcome	-7.78103
▁drink	-7.78606
▁goes	-7.78882
▁number	-7.78935
▁rest	-7.79017
▁walk	-7.79075
▁death	-7.79447
▁children	-7.80399
▁thinking	-7.80525
▁week	-7.80656
▁laughing	-7.80755
▁anyway	-7.81101
▁though	-7.81273
▁trust	-7.81353
▁wish	-7.81589
es	-7.81981
l	-7.82675
▁john	-7.82686
▁half	-7.82917
▁ahead	-7.83414
▁sleep	-7.83471
▁pick	-7.8357
▁frank	-7.85311
▁making	-7.85922
▁afraid	-7.86812
▁clear	-7.86918
▁white	-7.87009
▁almost	-7.87177
i	-7.8727
▁fun	-7.87402
▁makes	-7.88037
▁shoot	-7.88037
al	-7.88264
▁important	-7.88378
▁behind	-7.88463
▁anybody	-7.88648
▁free	-7.88788
▁bitch	-7.88988
▁grunts	-7.89885
▁lord	-7.90004
▁means	-7.90541
▁truth	-7.90737
▁tony	-7.91288
▁break	-7.91344
▁hate	-7.91418
▁send	-7.91475
▁funny	-7.9166
▁hmm	-7.91952
▁alive	-7.92237
▁red	-7.9237
▁save	-7.92686
▁party	-7.92907
▁also	-7.93005
▁goddamn	-7.93182
▁jack	-7.93442
▁war	-7.93484
▁met	-7.9359
▁trouble	-7.93734
▁least	-7.93787
▁times	-7.94
▁blood	-7.94249
▁light	-7.9427
▁drive	-7.94556
▁waiting	-7.94633
▁different	-7.94679
▁front	-7.94763
▁anymore	-7.94763
▁hurry	-7.94763
▁mrs	-7.94791
▁honey	-7.94962
▁miles	-7.94982
▁shall	-7.95354
▁person	-7.95481
▁outside	-7.95545
▁safe	-7.9581
▁stupid	-7.95941
▁arent	-7.96353
▁ten	-7.96354
▁full	-7.97231
▁dr	-7.97531
▁country	-7.9797
▁ooh	-7.97971
▁ha	-7.98054
▁speak	-7.98514
▁asked	-7.98663
▁hot	-7.98886
▁buy	-7.9894
▁moment	-7.98941
▁quite	-7.99032
▁boss	-7.99569
▁voice	-8.0019
▁started	-8.00202
▁wow	-8.00231
▁couple	-8.01318
▁answer	-8.01602
▁hours	-8.01616
▁question	-8.02221
▁de	-8.02506
▁street	-8.02742
▁tried	-8.03202
▁dear	-8.034
▁continues	-8.03746
▁gentlemen	-8.04049
▁team	-8.04512
▁office	-8.04859
▁top	-8.04943
▁pull	-8.06046
▁air	-8.06152
▁lose	-8.06279
▁lady	-8.06354
▁promise	-8.06395
▁king	-8.06658
▁christmas	-8.07562
▁perfect	-8.07693
▁theyll	-8.07793
▁reason	-8.08306
▁sometimes	-8.0831
▁needs	-8.08464
▁brought	-8.08469
▁bill	-8.09106
▁clean	-8.09149
▁dance	-8.09188
▁ya	-8.09222
▁fast	-8.0924
▁comes	-8.0966
▁food	-8.09837
▁win	-8.09848
▁charlie	-8.1023
▁doctor	-8.10403
▁plan	-8.10939
▁bet	-8.11032
▁body	-8.11454
▁screaming	-8.11503
▁grunting	-8.11944
▁master	-8.11967
▁touch	-8.12087
▁months	-8.12113
▁living	-8.12163
▁itll	-8.12622
▁follow	-8.12797
▁telling	-8.12865
▁laughs	-8.13048
▁along	-8.13328
▁daughter	-8.13724
▁jimmy	-8.14046
▁knows	-8.14255
▁bed	-8.14272
▁catch	-8.14457
▁dude	-8.14988
▁running	-8.15014
▁joe	-8.15448
▁hang	-8.15828
▁heres	-8.15838
▁news	-8.16129
▁million	-8.16512
▁daddy	-8.16612
▁book	-8.16819
▁taken	-8.17274
▁sister	-8.1742
▁henry	-8.17433
▁sick	-8.17439
▁married	-8.17447
▁child	-8.17696
▁hows	-8.18192
g	-8.18272
▁un	-8.18304
▁lts	-8.18869
▁order	-8.18942
▁eye	-8.19156
▁husband	-8.19718
▁died	-8.19761
▁tv	-8.19954
▁control	-8.19988
▁special	-8.20173
▁piece	-8.20228
▁ball	-8.20282
▁york	-8.20375
▁speaking	-8.20804
▁either	-8.2097
▁christ	-8.21032
▁paul	-8.21062
▁ride	-8.2125
▁tom	-8.21315
▁scared	-8.22069
▁luck	-8.22158
c	-8.22599
▁seems	-8.22693
ers	-8.22707
▁sent	-8.22796
▁peter	-8.23165
▁gasps	-8.23197
▁gets	-8.23442
▁bye	-8.24357
▁dinner	-8.2448
▁straight	-8.25397
▁ladies	-8.25424
▁buddy	-8.2569
▁sign	-8.25729
▁slow	-8.26043
▁sound	-8.26097
▁feeling	-8.261
▁serious	-8.26143
▁feet	-8.26233
▁step	-8.26589
est	-8.26625
▁hour	-8.26884
▁th	-8.26897
▁goodbye	-8.2704
▁happens	-8.2753
▁drop	-8.27735
▁lives	-8.27836
▁pass	-8.27874
▁officer	-8.28337
▁fact	-8.28536
▁beat	-8.28568
▁shouldnt	-8.28687
p	-8.28993
▁learn	-8.29871
▁till	-8.29921
▁n	-8.30038
▁sounds	-8.30262
▁hair	-8.30527
▁women	-8.30642
▁parents	-8.31124
▁wake	-8.31494
▁kidding	-8.32358
▁calling	-8.32395
m	-8.3249
▁leaving	-8.32638
▁engine	-8.32738
▁past	-8.32928
▁worth	-8.33086
▁quick	-8.33336
▁sense	-8.3406
▁company	-8.34085
▁cold	-8.34588
▁lie	-8.35393
▁dark	-8.35436
▁quiet	-8.35475
▁weeks	-8.35522
▁human	-8.35527
▁james	-8.35565
▁asking	-8.35612
▁dream	-8.36486
▁throw	-8.3674
▁none	-8.37138
▁gold	-8.37217
▁panting	-8.37352
▁somewhere	-8.37652
▁road	-8.377
▁radio	-8.37755
▁lucky	-8.37795
▁rock	-8.37838
▁become	-8.3827
▁b	-8.38298
▁sweet	-8.38737
▁cop	-8.38879
▁choice	-8.39213
▁ring	-8.39299
▁small	-8.40015
▁eight	-8.4009
▁land	-8.40192
▁moving	-8.40415
▁earth	-8.40419
▁blue	-8.40455
▁strong	-8.40547
▁future	-8.40724
▁horse	-8.40783
▁murder	-8.41233
▁maam	-8.41351
▁table	-8.41452
▁able	-8.41807
▁hed	-8.4185
▁theyve	-8.42297
▁worked	-8.42361
▁write	-8.425
▁evening	-8.42767
▁mike	-8.42811
▁poor	-8.42852
▁calm	-8.42948
▁picture	-8.43031
▁perhaps	-8.43252
▁seven	-8.43258
▁fall	-8.43389
▁boat	-8.43685
ie	-8.43689
▁watching	-8.43861
▁lll	-8.44086
▁e	-8.44402
▁glad	-8.44455
▁forever	-8.44541
▁sam	-8.44589
▁known	-8.44796
▁train	-8.45053
ar	-8.45499
▁fair	-8.45623
▁c	-8.45682
▁michael	-8.45845
▁seem	-8.4596
▁mad	-8.4609
▁finally	-8.46214
▁born	-8.46852
▁groans	-8.47217
▁careful	-8.47443
▁others	-8.47836
▁ones	-8.47875
▁secret	-8.48003
▁sort	-8.48054
▁song	-8.48122
▁questions	-8.48563
▁blow	-8.48611
▁bank	-8.48943
on	-8.48954
▁harry	-8.49187
▁bag	-8.49216
▁fault	-8.49525
▁movie	-8.49714
▁president	-8.49755
▁coffee	-8.49866
▁state	-8.50039
▁detective	-8.50094
▁uncle	-8.50126
▁less	-8.50447
▁wonderful	-8.50593
▁lead	-8.50718
▁meant	-8.51119
▁birthday	-8.51244
▁ground	-8.51257
▁wed	-8.51328
▁yo	-8.51639
▁general	-8.5211
▁race	-8.52131
▁relax	-8.52139
▁enjoy	-8.52146
▁dangerous	-8.52294
▁sun	-8.52301
▁wonder	-8.5238
▁figure	-8.52413
▁floor	-8.52552
▁pain	-8.5262
▁cover	-8.52776
▁bar	-8.52909
▁cheering	-8.53083
▁deep	-8.53185
▁green	-8.53341
▁chief	-8.53345
▁fly	-8.53986
▁looked	-8.54019
h	-8.54174
▁kiss	-8.54245
▁wear	-8.54247
▁possible	-8.54412
▁smart	-8.54657
▁bullshit	-8.54771
▁names	-8.55106
▁cops	-8.55123
▁mouth	-8.55174
▁respect	-8.55217
us	-8.55303
▁return	-8.5531
▁expect	-8.55363
▁hide	-8.55555
▁swear	-8.55854
▁johnny	-8.55863
▁bell	-8.56131
man	-8.56149
or	-8.56362
▁happening	-8.5648
▁motherfucker	-8.56527
▁handle	-8.56683
▁crowd	-8.56756
b	-8.56826
▁stick	-8.56856
▁longer	-8.57149
▁words	-8.5757
▁truck	-8.5765
▁holy	-8.57758
▁machine	-8.58014
▁club	-8.58028
▁needed	-8.58209
▁act	-8.5822
▁finish	-8.58265
▁record	-8.58363
▁felt	-8.58427
▁key	-8.58808
▁roger	-8.5882
▁yall	-8.58828
▁box	-8.59144
ic	-8.59154
▁window	-8.5916
▁message	-8.59162
▁worse	-8.59175
▁law	-8.59189
▁attack	-8.59448
▁english	-8.59531
▁rather	-8.59553
▁doc	-8.59674
▁count	-8.59733
▁building	-8.60087
en	-8.60197
▁short	-8.60375
▁weird	-8.60536
▁hundred	-8.60697
▁except	-8.60991
▁prison	-8.60999
▁crime	-8.61088
▁h	-8.61178
▁cash	-8.61229
▁american	-8.61258
▁near	-8.61272
▁strange	-8.61393
▁turned	-8.61425
▁mmm	-8.61445
▁given	-8.6162
▁works	-8.6185
▁early	-8.61907
▁chatter	-8.6194
▁peace	-8.62214
▁ship	-8.62277
▁mistake	-8.62602
le	-8.62619
▁seat	-8.62934
▁across	-8.63
▁fear	-8.63221
▁french	-8.63261
▁sell	-8.63528
▁ow	-8.63571
▁join	-8.63682
▁aye	-8.63817
▁protect	-8.6403
▁loved	-8.64097
▁spanish	-8.64176
▁foot	-8.64199
▁carl	-8.64317
▁tough	-8.64484
▁present	-8.64735
▁suppose	-8.64849
▁month	-8.65041
▁takes	-8.65055
f	-8.65325
▁broke	-8.65369
▁security	-8.65372
▁hospital	-8.6546
▁brothers	-8.65512
▁private	-8.65678
▁laugh	-8.6568
▁tired	-8.65793
▁mama	-8.66033
▁outta	-8.66174
▁sitting	-8.66595
▁explain	-8.66651
▁busy	-8.66666
▁singing	-8.66797
▁rich	-8.66836
▁quit	-8.66924
▁attention	-8.66978
▁paid	-8.67004
▁da	-8.67091
▁island	-8.67096
▁meeting	-8.67336
▁amazing	-8.67383
▁werent	-8.67383
▁giving	-8.67386
▁terrible	-8.67401
▁date	-8.67814
▁p	-8.68097
▁clothes	-8.68207
▁fish	-8.68477
▁ringing	-8.68572
▁cat	-8.6873
st	-8.68951
▁mark	-8.69064
▁shell	-8.69182
▁anywhere	-8.69441
▁kept	-8.69445
▁unless	-8.69461
▁folks	-8.6967
▁america	-8.69841
▁absolutely	-8.6987
▁surprise	-8.69893
▁report	-8.70251
▁danny	-8.70276
▁history	-8.70279
▁paper	-8.70442
▁honor	-8.70477
▁smell	-8.70524
▁roll	-8.70544
▁g	-8.70568
▁caught	-8.70696
▁round	-8.70893
▁court	-8.70902
▁hotel	-8.71339
▁seconds	-8.71353
▁mary	-8.71398
▁class	-8.7148
▁driving	-8.7197
ll	-8.72334
▁thousand	-8.72358
▁shh	-8.72606
▁saved	-8.72679
▁changed	-8.72741
▁low	-8.73171
▁pleasure	-8.73256
▁que	-8.73378
▁ice	-8.73503
▁lt	-8.73902
▁seeing	-8.74024
▁an	-8.74318
▁asshole	-8.74358
▁cross	-8.7446
▁indistinct	-8.74475
▁missed	-8.74521
▁fat	-8.74823
▁dollars	-8.75121
▁v	-8.75258
▁push	-8.75343
▁pop	-8.75424
▁wild	-8.75482
▁nick	-8.75674
▁north	-8.75864
▁george	-8.75891
▁position	-8.76158
▁tommy	-8.76166
▁south	-8.7624
▁grand	-8.76274
▁afternoon	-8.76325
▁copy	-8.76373
▁dogs	-8.76485
▁offer	-8.76582
▁s	-8.7661
▁forgive	-8.76711
▁david	-8.76771
▁darling	-8.76773
▁totally	-8.76815
ies	-8.76924
▁entire	-8.77135
▁simple	-8.77199
up	-8.77268
▁aah	-8.77535
▁glass	-8.77657
▁major	-8.7766
▁information	-8.77672
▁knock	-8.77878
▁fool	-8.77921
▁arm	-8.77966
▁max	-8.78101
▁screams	-8.78231
▁personal	-8.78565
▁park	-8.78681
▁wall	-8.78766
▁bastard	-8.78886
▁appreciate	-8.78902
▁proud	-8.78943
▁dick	-8.7917
▁wind	-8.79326
▁middle	-8.79492
▁rain	-8.79548
▁broken	-8.79554
▁missing	-8.79738
▁jump	-8.7981
▁grab	-8.79934
▁card	-8.80266
▁imagine	-8.80287
▁worried	-8.80416
▁talked	-8.80441
▁mess	-8.80583
re	-8.80627
u	-8.81025
▁f	-8.81072
▁k	-8.81133
▁jake	-8.8135
▁groaning	-8.81363
▁beer	-8.81439
▁judge	-8.81567
▁force	-8.81576
▁summer	-8.81726
▁star	-8.81835
▁system	-8.82207
▁tires	-8.82554
▁agent	-8.82676
▁j	-8.82732
▁certainly	-8.82844
▁situation	-8.83166
▁cell	-8.83188
▁west	-8.83289
▁single	-8.83294
▁crying	-8.83482
▁carry	-8.83507
▁finished	-8.83512
▁jim	-8.83535
▁owe	-8.83562
▁lawyer	-8.83635
▁shouting	-8.83772
▁r	-8.83922
▁lovely	-8.83963
▁fell	-8.83977
▁mm	-8.84295
▁bob	-8.84308
▁walking	-8.84511
▁normal	-8.84601
▁jail	-8.84688
▁fucked	-8.84865
▁soul	-8.85026
▁ran	-8.85439
▁share	-8.85479
▁hat	-8.85554
▁church	-8.85609
▁hasnt	-8.85656
▁bunch	-8.85661
▁standing	-8.86017
▁favorite	-8.8615
▁forgot	-8.86636
▁doin	-8.86936
▁test	-8.87065
▁dumb	-8.87112
▁lunch	-8.87127
▁rules	-8.87334
▁breathing	-8.87831
▁service	-8.88112
▁group	-8.88119
▁accident	-8.88123
▁definitely	-8.88134
▁killer	-8.88265
▁ho	-8.88297
▁station	-8.88409
▁certain	-8.88537
▁space	-8.88629
▁instead	-8.88634
▁teach	-8.88712
▁steal	-8.88849
▁spend	-8.88862
▁charge	-8.89008
▁sing	-8.89093
▁river	-8.89139
▁flight	-8.8914
▁stole	-8.89601
▁sea	-8.89658
▁kick	-8.8973
ion	-8.89942
▁crew	-8.90033
▁pal	-8.90065
▁yesterday	-8.90156
▁spirit	-8.90173
k	-8.90284
▁age	-8.90345
▁sad	-8.90561
▁bought	-8.9067
▁wedding	-8.90673
▁field	-8.90736
▁target	-8.90929
▁cute	-8.90993
▁realize	-8.9108
▁se	-8.91147
▁killing	-8.9126
▁army	-8.91325
▁plane	-8.91348
▁super	-8.91369
▁uhhuh	-8.91711
▁favor	-8.91747
▁loud	-8.9204
▁public	-8.92173
▁evil	-8.92224
▁dave	-8.92319
▁wayne	-8.92363
▁mmhmm	-8.9237
▁stone	-8.92629
▁hole	-8.92637
▁completely	-8.9281
▁difference	-8.92812
▁queen	-8.93268
▁college	-8.93274
▁joke	-8.93288
▁eh	-8.9339
▁tree	-8.93391
▁starting	-8.93524
▁bridge	-8.93679
▁balls	-8.93792
▁danger	-8.93817
▁burn	-8.93856
▁area	-8.93883
▁suit	-8.93915
▁letter	-8.94026
▁fix	-8.94228
▁list	-8.94269
▁dress	-8.94347
▁st	-8.94378
▁gods	-8.94448
na	-8.945
▁smoke	-8.94566
▁mountain	-8.94588
▁lock	-8.94698
▁breathe	-8.9471
▁seriously	-8.95038
▁shoes	-8.95149
▁upon	-8.95412
▁bus	-8.95456
▁board	-8.95506
▁bear	-8.95528
▁goin	-8.95622
▁contact	-8.95837
▁hero	-8.9591
▁ben	-8.95946
▁hungry	-8.95951
▁reach	-8.95956
▁lights	-8.95962
▁blind	-8.96184
▁bird	-8.96509
▁decided	-8.96558
▁ace	-8.96843
▁scene	-8.97037
to	-8.97347
▁spot	-8.97584
▁yep	-8.97594
▁tea	-8.97707
▁dare	-8.98065
▁gift	-8.98091
▁command	-8.98104
▁cry	-8.98151
▁lying	-8.98152
▁camp	-8.98188
▁fit	-8.98249
▁guns	-8.98282
▁fired	-8.98659
▁department	-8.98696
▁forward	-8.98708
▁honest	-8.99051
▁aunt	-8.99088
▁al	-8.99223
▁nine	-8.99246
▁duke	-8.99261
▁search	-8.99278
▁listening	-8.9944
▁lay	-8.99511
▁driver	-8.99568
▁moved	-8.99748
▁especially	-8.99815
▁locked	-9.00069
▁grow	-9.00089
▁arrest	-9.00172
▁feels	-9.00179
▁holding	-9.00236
▁pants	-9.00412
▁nigger	-9.00556
▁d	-9.00697
▁rat	-9.00816
▁lf	-9.00832
▁professor	-9.00949
▁built	-9.00951
▁sheriff	-9.01139
▁store	-9.0114
▁trip	-9.01406
▁throat	-9.0152
▁mitch	-9.0152
▁bigger	-9.01551
▁fighting	-9.01588
▁arms	-9.01732
less	-9.01743
v	-9.01767
▁named	-9.01789
▁soft	-9.02009
▁beach	-9.02051
▁jordan	-9.02095
▁neither	-9.02095
▁sight	-9.02146
▁quickly	-9.02264
▁price	-9.02296
▁sake	-9.02313
▁re	-9.02887
▁brain	-9.02905
▁agree	-9.03101
▁sex	-9.03152
ve	-9.03171
ment	-9.032
▁london	-9.03254
▁third	-9.03258
▁cost	-9.03278
▁press	-9.03309
▁heaven	-9.03401
▁marry	-9.03563
ness	-9.03579
▁drunk	-9.03823
▁east	-9.03848
▁continue	-9.03943
▁starts	-9.04053
▁idiot	-9.04078
▁apartment	-9.04092
▁corner	-9.04112
▁tight	-9.04333
▁closed	-9.04353
able	-9.04375
▁sweetheart	-9.04428
▁spent	-9.04429
▁stuck	-9.0443
▁lived	-9.04534
▁mission	-9.04568
▁dragon	-9.04686
▁partner	-9.04686
▁guard	-9.04764
▁whose	-9.04855
▁keys	-9.04972
▁bobby	-9.05028
▁track	-9.05064
▁extra	-9.05271
▁doubt	-9.05338
▁bloody	-9.05391
▁liked	-9.05438
▁government	-9.05615
▁laura	-9.05619
▁visit	-9.05697
▁double	-9.05887
▁billy	-9.05935
▁reading	-9.06107
▁within	-9.06216
▁beginning	-9.06217
▁knife	-9.06217
▁mister	-9.06236
▁gas	-9.06553
▁chattering	-9.06647
▁code	-9.0668
▁wearing	-9.06681
▁mate	-9.0682
▁putting	-9.06914
▁ii	-9.07059
▁speaks	-9.07062
▁coach	-9.07131
▁rings	-9.07141
▁waste	-9.07294
▁fathers	-9.07397
▁picked	-9.07535
▁ghost	-9.07725
▁mommy	-9.07745
▁enemy	-9.08031
▁stopped	-9.08068
▁band	-9.08078
▁pack	-9.08119
▁a	-9.08169
▁besides	-9.08312
▁stan	-9.08639
▁neck	-9.0864
▁distance	-9.08652
▁orders	-9.08674
▁dirty	-9.08704
▁legs	-9.08719
▁chicken	-9.08979
z	-9.08998
▁howard	-9.09265
▁shed	-9.09319
▁interested	-9.09412
▁interesting	-9.09461
▁soldier	-9.09602
▁rid	-9.09968
▁ron	-9.10317
▁nothin	-9.10478
▁evidence	-9.10508
▁impossible	-9.10508
▁frodo	-9.10509
▁everywhere	-9.10511
▁problems	-9.10842
▁begin	-9.10933
▁heavy	-9.11141
▁shop	-9.11207
▁speed	-9.11497
▁computer	-9.11514
▁calls	-9.11543
▁magic	-9.11722
▁beyond	-9.1177
▁language	-9.1177
as	-9.11813
▁rule	-9.11872
▁allow	-9.11908
▁ticket	-9.12155
▁destroy	-9.12343
▁congratulations	-9.12412
▁figured	-9.1264
▁animal	-9.12803
out	-9.12804
▁papers	-9.12816
▁camera	-9.12869
▁howd	-9.12924
▁opens	-9.12963
▁warm	-9.13148
▁smile	-9.132
▁prince	-9.13232
▁escape	-9.13564
▁choose	-9.13579
▁excited	-9.13613
▁cooper	-9.13622
▁charles	-9.13694
▁nose	-9.13724
▁papa	-9.1385
▁prove	-9.1395
▁address	-9.14079
▁brown	-9.14327
▁jerry	-9.14343
it	-9.14383
▁sweetie	-9.14401
▁moon	-9.14515
▁map	-9.14608
ity	-9.14885
▁strength	-9.14945
▁innocent	-9.14996
▁upset	-9.14997
▁fbi	-9.14999
an	-9.15181
▁jo	-9.15213
▁losing	-9.1581
▁accept	-9.16088
▁breakfast	-9.16316
▁whatd	-9.16361
▁buzz	-9.16448
▁art	-9.16612
▁hill	-9.16644
▁notice	-9.16663
▁t	-9.16852
▁horn	-9.16977
el	-9.17064
▁princess	-9.17127
▁hall	-9.17408
▁theyd	-9.17662
▁places	-9.17749
▁closes	-9.17818
▁awful	-9.18003
▁tape	-9.18064
▁fresh	-9.1829
▁plus	-9.1833
▁beg	-9.18407
▁cars	-9.18407
▁promised	-9.18722
▁sleeping	-9.18723
▁books	-9.18752
▁weapon	-9.18834
▁girlfriend	-9.18849
▁fellow	-9.18852
▁sergeant	-9.19011
▁pa	-9.19069
▁support	-9.19172
▁cards	-9.19234
▁build	-9.19264
▁greatest	-9.1935
▁staying	-9.19475
▁gang	-9.19548
▁type	-9.19573
▁horses	-9.19611
▁dancing	-9.19701
▁plays	-9.19702
▁bang	-9.20003
▁shooting	-9.20044
▁breath	-9.20179
▁loves	-9.20217
▁marty	-9.20237
▁skin	-9.20315
▁suck	-9.20337
▁heavily	-9.20384
▁lieutenant	-9.20384
▁dying	-9.20386
▁states	-9.20555
▁where	-9.20786
▁bro	-9.209
▁learned	-9.20918
▁season	-9.20953
▁beauty	-9.21079
ling	-9.21151
▁heads	-9.21422
▁stage	-9.21435
▁final	-9.21482
▁bullet	-9.21563
▁shake	-9.21737
▁wrote	-9.21778
▁genius	-9.21778
▁powerful	-9.21807
▁complete	-9.22272
▁brave	-9.22375
▁local	-9.22378
▁pig	-9.22412
te	-9.22437
▁mickey	-9.22485
▁sunday	-9.22491
th	-9.22534
▁dreams	-9.22536
▁played	-9.2255
▁wouldve	-9.22836
▁conversation	-9.23086
▁drugs	-9.23121
ta	-9.23181
▁obviously	-9.23231
is	-9.23535
▁wondering	-9.23755
▁per	-9.23823
▁boom	-9.2386
▁treat	-9.23905
▁enola	-9.23907
▁involved	-9.23925
▁gasping	-9.23987
ch	-9.23999
▁following	-9.2403
▁grace	-9.24375
▁feed	-9.24466
▁leg	-9.24479
▁rose	-9.24498
▁boyfriend	-9.24543
▁worst	-9.24626
▁hiding	-9.24722
▁pocket	-9.24802
▁risk	-9.24861
▁allowed	-9.24864
▁eating	-9.2525
▁dramatic	-9.25347
▁became	-9.2535
▁kitchen	-9.2535
▁stories	-9.2535
▁bruce	-9.25351
▁christian	-9.25371
▁dig	-9.25426
▁male	-9.25698
▁kinda	-9.25771
▁thinks	-9.2589
▁taste	-9.25961
▁gate	-9.26047
▁teeth	-9.26081
▁marta	-9.26089
▁base	-9.26099
▁center	-9.26115
▁match	-9.26115
▁closer	-9.26357
▁turns	-9.26689
▁nervous	-9.26727
▁nigga	-9.26762
▁cake	-9.26798
▁united	-9.26956
▁pro	-9.27296
▁desert	-9.27339
▁ends	-9.27389
▁noise	-9.27516
▁strike	-9.27517
▁bright	-9.27539
▁chair	-9.2754
▁empty	-9.27555
▁amanda	-9.27556
▁emergency	-9.27556
▁hadnt	-9.27556
▁upstairs	-9.27556
▁plenty	-9.27556
▁cream	-9.27557
▁usually	-9.27615
▁helped	-9.27656
▁yelling	-9.27662
▁using	-9.27665
▁maya	-9.27706
▁nicky	-9.27717
ry	-9.27827
▁loose	-9.28111
▁difficult	-9.28176
▁scoffs	-9.28302
▁whether	-9.28302
▁taught	-9.28321
▁battle	-9.2842
▁anna	-9.28532
▁aw	-9.2878
▁post	-9.28848
▁range	-9.29044
▁chuckling	-9.29059
um	-9.2909
▁fill	-9.29327
▁trick	-9.29461
▁cab	-9.2953
▁belong	-9.29585
▁raise	-9.29684
▁whoever	-9.29812
▁justice	-9.29812
▁thatll	-9.29813
▁often	-9.29814
▁laughter	-9.29828
▁lots	-9.29907
▁passed	-9.30396
▁whoo	-9.30444
▁nuts	-9.30453
▁large	-9.30523
▁pulled	-9.30535
▁split	-9.30571
▁famous	-9.30589
im	-9.30709
▁faster	-9.30867
▁flying	-9.31177
▁apart	-9.31334
▁bathroom	-9.31346
▁karen	-9.31347
▁vegas	-9.31399
▁sky	-9.31402
▁sold	-9.31431
▁m	-9.31608
ton	-9.31629
▁aii	-9.31632
▁mar	-9.31785
▁birds	-9.31962
▁wing	-9.31974
▁deserve	-9.32017
▁robin	-9.32071
▁view	-9.3211
▁twice	-9.3212
▁mothers	-9.32281
▁bless	-9.32446
▁bomb	-9.32461
▁breaking	-9.32494
▁van	-9.3256
▁pictures	-9.32714
▁nah	-9.32897
▁immediately	-9.32922
▁whistle	-9.32944
▁action	-9.32981
▁bother	-9.33244
▁showed	-9.33423
▁francis	-9.33681
▁nowhere	-9.33688
▁angry	-9.33689
▁decision	-9.33739
▁criminal	-9.33746
▁weapons	-9.33883
▁surprised	-9.3393
▁account	-9.34021
▁repeat	-9.34195
▁games	-9.34208
▁experience	-9.34351
▁dry	-9.34369
▁tongue	-9.34482
▁spell	-9.34483
▁merry	-9.34484
▁freedom	-9.34486
▁zero	-9.34499
▁doors	-9.34544
▁weekend	-9.34553
▁san	-9.34555
▁main	-9.34583
over	-9.34675
▁hunt	-9.34734
ra	-9.34759
▁bucks	-9.35151
▁ought	-9.35205
▁snow	-9.35266
▁bread	-9.35287
▁credit	-9.35289
▁annie	-9.3532
▁cup	-9.35336
▁drug	-9.35362
▁w	-9.35527
▁ed	-9.35612
▁couldve	-9.35642
rs	-9.35942
▁survive	-9.35959
▁awesome	-9.36079
▁silly	-9.36088
▁stem	-9.36111
▁amen	-9.36133
▁walter	-9.36198
▁le	-9.36298
▁due	-9.36321
▁mum	-9.36335
▁form	-9.36419
▁wine	-9.36665
▁apologize	-9.36765
▁held	-9.36919
▁iike	-9.36927
▁bud	-9.36932
▁alarm	-9.37012
▁level	-9.37047
▁er	-9.37102
ter	-9.37217
▁block	-9.37343
▁huge	-9.37406
▁bringing	-9.37499
▁paris	-9.37676
▁numbers	-9.37697
▁ridiculous	-9.37721
▁note	-9.37742
▁pool	-9.37742
▁softly	-9.37842
▁gotten	-9.37965
▁leader	-9.38056
▁self	-9.38165
▁bite	-9.38186
▁cam	-9.38224
▁fingers	-9.38361
▁release	-9.38423
▁fortune	-9.38547
▁storm	-9.38564
▁announcer	-9.38567
▁richard	-9.38675
▁castle	-9.38697
▁consider	-9.38854
▁travel	-9.38906
▁turning	-9.39013
▁higher	-9.39021
▁jones	-9.39273
▁apollo	-9.39381
▁sobbing	-9.39381
▁chocolate	-9.39388
▁national	-9.39402
▁german	-9.39408
▁gary	-9.39422
▁lve	-9.39746
do	-9.39756
▁points	-9.40002
▁helping	-9.40043
▁blame	-9.40091
▁bottom	-9.40162
▁social	-9.40213
▁program	-9.40214
▁biggest	-9.40221
▁responsible	-9.40221
▁gives	-9.40285
ation	-9.40616
men	-9.40902
▁correct	-9.40967
▁bond	-9.40977
▁fake	-9.41008
▁dope	-9.41129
▁condition	-9.41355
▁lift	-9.41702
▁training	-9.41794
▁monsieur	-9.41923
▁sugar	-9.41923
▁nope	-9.41925
▁kane	-9.41943
▁pete	-9.42057
▁cousin	-9.42117
▁finger	-9.42117
▁animals	-9.42251
▁stars	-9.42257
▁teacher	-9.42265
▁reporter	-9.4229
▁cheers	-9.42299
▁victor	-9.42496
▁interest	-9.42524
▁devil	-9.42716
▁suspect	-9.42775
▁writing	-9.42819
ous	-9.42827
▁golden	-9.42837
▁barking	-9.42855
▁co	-9.42924
▁tour	-9.42964
▁walked	-9.42994
▁russian	-9.43014
▁crash	-9.43117
▁blows	-9.43219
▁si	-9.43424
▁heading	-9.4352
▁total	-9.43576
ha	-9.4363
▁babe	-9.43657
▁simply	-9.43659
▁duty	-9.43666
▁meat	-9.43666
▁ugh	-9.43693
▁hoping	-9.4376
▁path	-9.43914
▁dressed	-9.44028
ma	-9.44256
ia	-9.44279
▁female	-9.44532
▁pardon	-9.44532
▁football	-9.44539
▁truly	-9.44544
▁grandpa	-9.44813
▁planet	-9.44866
▁in	-9.45047
▁color	-9.45065
▁feelings	-9.45153
▁lee	-9.45232
▁admit	-9.45403
▁audience	-9.45417
▁colonel	-9.45418
▁manager	-9.45481
▁joy	-9.45558
▁older	-9.4581
▁remind	-9.45888
▁wolf	-9.46288
▁patrick	-9.4631
▁grey	-9.46317
▁milk	-9.46358
▁tie	-9.46394
▁pray	-9.46539
▁vehicle	-9.46575
▁clicks	-9.4692
▁yi	-9.46983
▁para	-9.47055
▁gettin	-9.47187
▁tim	-9.47196
▁otherwise	-9.47211
▁memory	-9.47213
▁common	-9.47214
▁batman	-9.4723
▁weight	-9.47238
▁film	-9.47241
▁beeping	-9.47315
▁concerned	-9.47356
▁agreed	-9.4741
▁pilot	-9.4749
▁miller	-9.47526
▁regret	-9.4765
▁faith	-9.47831
ian	-9.47864
▁letters	-9.48055
▁pride	-9.4812
▁california	-9.48121
▁forgotten	-9.48125
▁airport	-9.48128
▁lisa	-9.48151
▁request	-9.48196
▁fellas	-9.48285
▁noticed	-9.48295
▁player	-9.48297
▁shame	-9.4834
▁guest	-9.48421
ist	-9.4873
▁acting	-9.48807
▁falling	-9.48915
▁legal	-9.49012
▁defense	-9.49037
▁however	-9.49037
▁kevin	-9.49044
▁gordon	-9.49045
▁paying	-9.49047
▁keeps	-9.49107
▁streets	-9.49115
▁bottle	-9.49356
▁file	-9.49378
▁heat	-9.4958
▁page	-9.49674
by	-9.49724
▁draw	-9.49852
▁keeping	-9.49892
▁maria	-9.49909
co	-9.49924
▁forest	-9.49971
▁handsome	-9.49975
▁row	-9.50017
▁stolen	-9.50046
▁invited	-9.50062
▁contract	-9.50203
▁operation	-9.50258
▁snake	-9.50291
▁purpose	-9.503
▁pressure	-9.50309
▁wet	-9.50363
▁plans	-9.50455
▁mac	-9.50492
▁harm	-9.50694
▁harlan	-9.50764
▁rome	-9.50789
▁trees	-9.50798
▁whirring	-9.50898
▁earlier	-9.50901
▁fancy	-9.50901
▁honestly	-9.51041
▁letting	-9.51119
▁rocky	-9.51278
▁movies	-9.51322
▁lake	-9.51408
▁walt	-9.51618
▁mention	-9.51666
▁harvey	-9.51841
▁thomas	-9.51841
▁shouldve	-9.51843
▁dropped	-9.5185
▁lonely	-9.51856
▁safety	-9.51875
▁project	-9.52009
▁butt	-9.52054
▁italian	-9.52202
▁woods	-9.52252
▁parker	-9.52284
▁signal	-9.52345
▁load	-9.52364
▁everybodys	-9.52449
nt	-9.52489
▁weather	-9.52784
▁marriage	-9.52794
▁cheese	-9.52794
ce	-9.52847
▁pure	-9.53147
▁investigation	-9.53165
ive	-9.53333
▁seemed	-9.5341
▁cap	-9.53475
▁cook	-9.53594
▁martin	-9.53704
▁easier	-9.53755
▁saturday	-9.53755
▁morgan	-9.53757
▁indeed	-9.53768
▁wailing	-9.53773
▁protection	-9.53788
▁nature	-9.5379
▁suddenly	-9.53807
▁carol	-9.53825
▁size	-9.53854
▁hm	-9.53941
▁nearly	-9.53969
▁video	-9.54149
▁sand	-9.54175
▁rise	-9.54178
and	-9.5423
ass	-9.54246
▁mayor	-9.5437
▁lies	-9.54439
▁chris	-9.5446
▁settle	-9.54586
▁spare	-9.54598
▁bat	-9.54602
▁witch	-9.54697
▁grave	-9.54724
▁thunder	-9.54725
▁negative	-9.54726
▁neighborhood	-9.54727
▁property	-9.54732
▁jill	-9.54746
▁coat	-9.54774
▁angel	-9.54797
▁over	-9.54906
▁birdie	-9.54939
▁hearing	-9.54948
▁paint	-9.55023
▁switch	-9.55076
▁tickets	-9.55113
▁relationship	-9.55136
▁kingdom	-9.55142
▁beeps	-9.55348
▁checked	-9.55366
me	-9.55469
▁practice	-9.5558
▁corleone	-9.55706
▁telephone	-9.55706
▁precious	-9.55707
▁inspector	-9.55708
▁liar	-9.55713
▁arrived	-9.55767
▁ear	-9.55953
▁destroyed	-9.56031
▁wheel	-9.56077
▁guards	-9.56267
▁oil	-9.56276
▁witness	-9.56441
▁prepare	-9.56568
▁shape	-9.5658
▁crown	-9.5668
▁excellent	-9.56696
▁toast	-9.56696
▁written	-9.56697
▁asleep	-9.56697
▁desk	-9.56705
ting	-9.56719
▁itd	-9.5673
ty	-9.56766
▁laid	-9.56767
▁shirt	-9.57152
▁winner	-9.57172
▁shoulder	-9.57177
▁add	-9.57202
▁joey	-9.57208
▁everythings	-9.57435
▁prefer	-9.57436
▁tank	-9.57484
▁nobodys	-9.57561
▁spoke	-9.57652
▁somethin	-9.57667
▁ugly	-9.57696
▁television	-9.57697
▁aware	-9.57699
▁spiderman	-9.57718
▁records	-9.57778
▁sue	-9.57844
▁piss	-9.58196
▁shoe	-9.58198
▁bats	-9.58264
▁bike	-9.58271
▁director	-9.58286
▁matters	-9.58392
▁farm	-9.58464
▁louis	-9.58546
▁brand	-9.58574
▁natural	-9.58621
▁flat	-9.58702
▁advice	-9.58706
▁understood	-9.58706
▁afford	-9.58707
▁steady	-9.58716
▁brian	-9.58721
▁pair	-9.58739
▁coughing	-9.5876
▁scary	-9.58795
▁angela	-9.58827
▁bow	-9.58828
▁eu	-9.58832
ne	-9.59074
ro	-9.59169
▁roman	-9.5922
▁union	-9.59254
▁toy	-9.5927
▁murdered	-9.59387
ho	-9.59562
▁port	-9.59658
ful	-9.59723
▁access	-9.59725
▁attorney	-9.59727
▁several	-9.59727
▁insane	-9.59727
▁luke	-9.5973
▁friday	-9.59735
▁medical	-9.59737
▁serve	-9.59749
▁willing	-9.59761
▁bags	-9.59902
▁pounds	-9.59973
▁wash	-9.59977
▁iii	-9.59995
▁el	-9.60001
▁hurts	-9.60016
▁score	-9.60122
▁bath	-9.6018
▁metal	-9.60237
▁i	-9.60238
▁garden	-9.60242
▁patient	-9.60253
▁pretend	-9.60254
▁career	-9.60287
▁rent	-9.60422
▁study	-9.60491
▁hardly	-9.6052
▁yells	-9.6054
▁goodness	-9.60604
▁opening	-9.60684
▁among	-9.60748
▁miami	-9.6076
▁crap	-9.60761
▁mitchell	-9.60762
▁grew	-9.60763
▁remain	-9.60796
et	-9.60952
▁decide	-9.6117
▁suggest	-9.61217
▁monster	-9.61307
▁sean	-9.61531
▁launch	-9.61588
▁est	-9.61605
▁tip	-9.61647
▁believed	-9.61673
▁applause	-9.618
▁rumbling	-9.618
▁fought	-9.618
▁roof	-9.618
▁exhales	-9.61802
▁alex	-9.61803
▁dawn	-9.61803
▁ohh	-9.61835
▁gotham	-9.61979
▁headed	-9.62015
▁sons	-9.62105
▁anne	-9.62144
▁member	-9.62369
▁owner	-9.62385
▁wood	-9.62408
▁lied	-9.62429
▁drinking	-9.62487
▁gosh	-9.62528
▁followed	-9.62733
▁village	-9.62842
▁horrible	-9.62852
▁interview	-9.62852
▁british	-9.62853
▁juice	-9.62853
▁prize	-9.62911
▁stops	-9.6303
▁warning	-9.63075
il	-9.6328
▁sending	-9.63334
▁soldiers	-9.63338
▁knocking	-9.63505
▁shower	-9.63535
▁selling	-9.63604
▁focus	-9.63703
▁usual	-9.63831
▁freeze	-9.6384
▁energy	-9.63916
▁necessary	-9.63916
▁opportunity	-9.63916
▁bodies	-9.6392
▁ears	-9.63925
▁rob	-9.64024
▁cheer	-9.64068
li	-9.64194
▁nights	-9.64312
▁exist	-9.64319
▁discuss	-9.64443
▁champion	-9.64531
▁trial	-9.64547
▁mans	-9.64602
▁shows	-9.64699
▁harder	-9.64761
▁sharp	-9.6481
▁fan	-9.64841
▁rescue	-9.64861
▁recognize	-9.64861
▁ideas	-9.64863
▁swim	-9.6498
▁closing	-9.64992
▁threw	-9.64996
▁guilty	-9.65029
▁ray	-9.65045
▁royal	-9.65066
▁clock	-9.65078
▁smith	-9.65135
▁mi	-9.65167
▁sooner	-9.65604
▁character	-9.65624
▁shadow	-9.6563
▁winning	-9.65648
▁ms	-9.65686
▁ex	-9.65933
▁rough	-9.65995
▁flesh	-9.66078
▁permission	-9.66078
▁deck	-9.66089
▁screw	-9.66163
▁eggs	-9.66166
▁tall	-9.66178
▁prepared	-9.6622
▁earn	-9.66329
▁fate	-9.66579
▁runs	-9.66592
▁officers	-9.66669
▁photo	-9.66742
▁victim	-9.66745
▁rush	-9.66888
ish	-9.66939
▁out	-9.67023
▁dust	-9.67114
▁league	-9.67184
▁passing	-9.67193
▁stairs	-9.67255
▁sisters	-9.67311
▁screeching	-9.67318
▁hanging	-9.67338
am	-9.67391
▁personally	-9.67406
go	-9.67577
▁lookin	-9.67666
▁riding	-9.67675
▁trap	-9.67746
▁eli	-9.67747
▁ways	-9.67764
▁newspaper	-9.67865
▁andy	-9.67877
▁trade	-9.68176
▁wise	-9.68223
▁journey	-9.68288
▁somehow	-9.68288
▁thief	-9.68288
▁whispering	-9.68353
▁amy	-9.68405
w	-9.68423
▁hired	-9.68444
mo	-9.68472
one	-9.685
▁indistinctly	-9.68506
▁ay	-9.68546
▁quietly	-9.6861
▁county	-9.68651
▁con	-9.68652
▁daughters	-9.68675
▁clearly	-9.68809
▁client	-9.69004
▁tower	-9.69022
▁poison	-9.69202
▁chill	-9.69298
▁sale	-9.693
▁cheap	-9.69327
▁pieces	-9.69358
▁fantastic	-9.69412
▁science	-9.69412
▁speech	-9.69412
▁staff	-9.69413
▁jealous	-9.69416
▁comfortable	-9.69418
▁according	-9.6942
▁secretary	-9.6943
▁jackson	-9.69452
▁tiny	-9.69463
time	-9.69885
ur	-9.69893
▁ruin	-9.69955
▁punch	-9.70019
▁picking	-9.7006
▁direct	-9.70102
▁spider	-9.70123
▁meal	-9.70218
▁weak	-9.70297
▁nurse	-9.7031
▁shine	-9.70323
▁scare	-9.70328
▁eve	-9.70488
ou	-9.70532
▁loretta	-9.70548
▁oclock	-9.70548
▁gym	-9.70548
▁daniel	-9.70548
▁ethan	-9.7055
▁onto	-9.70559
▁mercy	-9.7056
▁planning	-9.70563
▁gentleman	-9.70564
▁lucy	-9.70572
▁crack	-9.70656
▁lance	-9.70737
▁bay	-9.70755
ng	-9.70799
▁pot	-9.70817
▁mikey	-9.70992
▁deliver	-9.71056
ant	-9.71067
▁growing	-9.71113
▁heh	-9.71211
▁parking	-9.71247
▁button	-9.71333
▁cast	-9.71377
os	-9.71594
ted	-9.71599
▁irish	-9.7168
▁bravo	-9.71698
▁emperor	-9.71698
▁footsteps	-9.71698
▁suicide	-9.71698
▁chicago	-9.71698
▁gorgeous	-9.71698
▁average	-9.71706
▁exit	-9.71717
▁market	-9.71743
▁grown	-9.71802
▁raised	-9.71894
▁powers	-9.71958
▁talkin	-9.72011
▁forced	-9.72013
▁hug	-9.72151
▁armed	-9.72235
la	-9.7239
off	-9.72474
▁gunshot	-9.725
▁statement	-9.7251
▁en	-9.72519
▁mask	-9.72548
▁boo	-9.72593
▁grant	-9.72681
▁comin	-9.7286
▁linda	-9.72862
▁answers	-9.73022
▁failed	-9.73045
▁dads	-9.7306
▁tail	-9.73122
▁pulling	-9.7316
▁whispers	-9.73234
▁moves	-9.73414
▁lower	-9.73471
▁stayed	-9.73483
▁reports	-9.73595
▁sometime	-9.73686
▁traffic	-9.74034
▁insurance	-9.74037
▁responsibility	-9.74037
▁although	-9.74038
▁grandma	-9.74056
▁eric	-9.74068
les	-9.74178
▁wa	-9.74246
▁clears	-9.74322
▁cares	-9.74409
▁moms	-9.74547
ent	-9.74948
▁dollar	-9.74948
▁spread	-9.74958
▁honour	-9.74991
▁blowing	-9.75016
▁assume	-9.75096
▁dom	-9.75155
▁proper	-9.75159
▁derek	-9.75227
▁houston	-9.75227
▁maurizio	-9.75227
▁possibly	-9.75227
▁square	-9.75227
▁clever	-9.75228
▁yellow	-9.7523
▁whyd	-9.75237
▁unit	-9.75366
▁frankie	-9.7537
sh	-9.75388
▁shots	-9.75563
▁fi	-9.75634
▁los	-9.75662
▁all	-9.7576
▁jean	-9.76089
▁border	-9.76096
▁standard	-9.76106
▁pen	-9.76183
▁borrow	-9.76218
lng	-9.76278
▁flowers	-9.76301
▁invite	-9.76304
▁parts	-9.76386
▁cunt	-9.76434
▁hachi	-9.76434
▁fuel	-9.76443
▁military	-9.76454
▁incredible	-9.76461
▁disgusting	-9.76475
▁dis	-9.76479
▁squealing	-9.76578
▁joel	-9.766
▁burned	-9.76913
▁hook	-9.77049
▁spring	-9.77329
▁am	-9.77336
ine	-9.77353
▁expecting	-9.7737
▁process	-9.77375
▁non	-9.77524
▁regular	-9.77561
▁original	-9.77569
▁wings	-9.77635
▁candy	-9.77647
▁benoit	-9.77652
▁muffled	-9.77652
▁pregnant	-9.77652
▁rachel	-9.77652
▁someday	-9.77652
▁vacation	-9.77652
▁babies	-9.77652
▁mostly	-9.77652
▁funeral	-9.77652
▁hidden	-9.77653
▁vincent	-9.77654
▁cruella	-9.77655
▁lionel	-9.77657
▁emma	-9.77733
▁madame	-9.77738
▁slowly	-9.7804
▁commander	-9.78069
▁scream	-9.78097
▁arrested	-9.7811
▁bust	-9.78297
▁pound	-9.78364
▁knees	-9.78431
▁opinion	-9.78566
▁swing	-9.78677
▁led	-9.78726
▁joint	-9.78731
▁license	-9.78757
▁introduce	-9.78758
▁coast	-9.78792
▁drinks	-9.78807
▁mile	-9.78859
▁twenty	-9.78871
▁example	-9.78886
▁guitar	-9.78886
▁charges	-9.78899
bo	-9.78909
▁approaching	-9.79041
▁finding	-9.79347
▁kicked	-9.79399
▁bearing	-9.79545
▁towards	-9.79732
▁threat	-9.79808
▁march	-9.79825
▁yard	-9.79918
▁ordered	-9.79928
▁murph	-9.80012
▁brilliant	-9.80136
▁downstairs	-9.80136
▁expensive	-9.80136
▁reggie	-9.80136
▁texas	-9.80136
▁england	-9.80136
▁dallas	-9.80136
▁buried	-9.80138
▁martha	-9.80138
▁literally	-9.8014
▁pizza	-9.80142
▁aside	-9.80143
▁pussy	-9.80153
▁familiar	-9.80168
▁proof	-9.8018
▁students	-9.8022
▁created	-9.80256
▁pre	-9.80399
line	-9.80627
▁pan	-9.80888
▁ted	-9.80924
▁robert	-9.80984
▁niggers	-9.81014
▁enter	-9.81038
▁professional	-9.81047
▁prick	-9.81124
▁sword	-9.81132
▁ahh	-9.81135
house	-9.81155
▁value	-9.8127
▁dirt	-9.81281
▁positive	-9.81315
▁meaning	-9.81329
▁event	-9.81354
▁byebye	-9.81402
▁families	-9.81402
▁garbage	-9.81402
▁arthur	-9.81403
▁tyler	-9.81403
▁aj	-9.81403
▁teddy	-9.81405
▁piano	-9.81405
▁sweetwater	-9.81409
▁tense	-9.81445
▁sally	-9.81486
▁abe	-9.81503
▁han	-9.81511
j	-9.81515
▁loser	-9.81523
▁simon	-9.8153
▁pigs	-9.81621
▁sara	-9.81655
▁mentioned	-9.81698
▁seek	-9.81706
▁screwed	-9.81728
you	-9.81828
eat	-9.81844
▁victims	-9.81903
▁jamie	-9.81952
▁jerk	-9.81977
ad	-9.82107
no	-9.82203
▁earl	-9.8223
▁ended	-9.82404
▁casino	-9.82422
▁suitcase	-9.82423
▁cigarette	-9.82436
▁lesson	-9.82513
▁chest	-9.82534
▁silence	-9.82605
▁gross	-9.82667
▁anderton	-9.82684
▁majesty	-9.82684
▁mexico	-9.82684
▁squad	-9.82684
▁basketball	-9.82686
▁apparently	-9.82696
▁cj	-9.82707
▁background	-9.82713
▁tear	-9.82747
▁disappeared	-9.82854
▁x	-9.82862
▁wounded	-9.82873
▁motherfuckers	-9.82887
▁opened	-9.8296
▁deeply	-9.82995
▁freak	-9.83041
▁bastards	-9.83113
ff	-9.83527
▁concern	-9.83537
▁vote	-9.83594
▁dies	-9.83608
▁pie	-9.83612
ga	-9.83613
▁no	-9.83691
▁taxi	-9.83735
▁rocket	-9.83751
▁beast	-9.83753
▁cage	-9.83763
▁winter	-9.83786
▁refuse	-9.83899
▁madam	-9.83924
▁salt	-9.83932
▁chose	-9.83942
▁foreign	-9.83954
▁slip	-9.83977
▁empire	-9.83983
▁giggling	-9.83983
▁junior	-9.83983
▁whimpering	-9.83983
▁ryan	-9.83983
▁hollywood	-9.83983
▁zone	-9.83987
▁alice	-9.83988
▁eddie	-9.83988
▁harley	-9.8399
▁screen	-9.83992
▁darkness	-9.84036
▁ls	-9.84351
▁paulie	-9.84417
▁banging	-9.84511
▁siren	-9.84546
▁depends	-9.84608
▁plant	-9.84793
▁be	-9.84807
▁rats	-9.84865
▁mas	-9.84876
▁details	-9.84998
▁hammer	-9.85299
▁stomach	-9.85299
▁stood	-9.85299
▁kennedy	-9.85299
▁baroness	-9.85299
▁amount	-9.85299
▁abby	-9.85301
ary	-9.85308
▁gucci	-9.85316
▁began	-9.8532
▁honking	-9.85334
▁manage	-9.85461
▁charming	-9.85486
▁watched	-9.85545
▁sirens	-9.8565
▁fella	-9.85678
▁di	-9.8569
age	-9.85871
▁fail	-9.85915
de	-9.85999
ol	-9.86032
▁stealing	-9.86033
▁expected	-9.86073
▁trained	-9.86154
▁hung	-9.86345
▁subject	-9.86418
▁pink	-9.86422
▁bedroom	-9.86422
▁package	-9.86422
▁mei	-9.86495
▁jam	-9.86526
▁climb	-9.86564
▁popular	-9.86632
▁japanese	-9.86632
▁operator	-9.86633
▁downtown	-9.86633
▁medicine	-9.86635
▁alert	-9.86635
▁unbelievable	-9.86638
se	-9.86652
▁barely	-9.86666
▁marion	-9.86677
▁factory	-9.86689
ri	-9.86695
▁lane	-9.86768
he	-9.8683
▁ld	-9.86935
▁sweat	-9.87204
▁lines	-9.87231
▁ate	-9.87348
▁lately	-9.87368
son	-9.87387
id	-9.87553
▁dump	-9.87635
▁proceed	-9.87698
▁mail	-9.87751
▁insist	-9.87776
▁robot	-9.87783
▁miracle	-9.87791
▁knight	-9.87808
▁chain	-9.87843
▁create	-9.87871
vi	-9.87926
▁steve	-9.87932
▁percent	-9.8798
▁exciting	-9.87983
▁grandfather	-9.87983
▁molly	-9.87983
▁assistant	-9.87986
▁foul	-9.8799
ii	-9.88137
ate	-9.88189
▁sucks	-9.88253
▁blessed	-9.88351
▁worlds	-9.88391
be	-9.88435
▁ko	-9.88479
▁deer	-9.88557
▁blast	-9.88589
▁hearts	-9.88704
▁steps	-9.88773
▁returned	-9.88777
▁iron	-9.88817
▁stock	-9.88876
▁treasure	-9.89167
▁saving	-9.89173
▁restaurant	-9.89184
▁jew	-9.89186
▁connection	-9.89191
▁schedule	-9.89221
▁damage	-9.89223
▁secure	-9.89228
▁quarter	-9.89229
▁success	-9.89323
▁brenda	-9.89353
▁knowledge	-9.89353
▁clark	-9.89353
▁sharon	-9.89354
▁appointment	-9.89354
▁midnight	-9.89354
▁gerry	-9.89355
▁changing	-9.89396
▁tax	-9.89399
▁johnson	-9.89406
▁bout	-9.8943
▁richie	-9.89566
▁bullets	-9.89603
ul	-9.89635
▁sin	-9.89885
▁buzzing	-9.89933
▁dent	-9.89994
▁burning	-9.90082
▁brains	-9.90216
▁counting	-9.90374
▁talent	-9.90385
▁dre	-9.90407
▁eagle	-9.90569
▁universe	-9.90569
▁monday	-9.9057
▁shield	-9.90597
▁rick	-9.90614
▁health	-9.90623
▁chase	-9.90689
▁faces	-9.90692
▁rare	-9.9072
▁champagne	-9.90742
▁federal	-9.90742
▁mercedes	-9.90742
▁society	-9.90742
▁chinese	-9.90743
▁garage	-9.90744
▁mmmhmm	-9.90746
▁theater	-9.90747
▁fetch	-9.90751
▁location	-9.90757
▁planned	-9.90759
▁mick	-9.90772
▁style	-9.90777
▁unfortunately	-9.90783
▁recall	-9.90806
▁fallen	-9.90821
ley	-9.90913
▁laser	-9.90925
▁lab	-9.90964
▁loaded	-9.91052
▁tied	-9.91159
▁sat	-9.91238
▁clients	-9.91249
▁perfectly	-9.91274
▁ln	-9.91292
▁cos	-9.91304
▁awake	-9.91377
at	-9.91408
▁toys	-9.91445
▁fighter	-9.91529
▁shouts	-9.91607
▁avoid	-9.9186
▁warn	-9.91897
▁france	-9.92035
▁egg	-9.92112
▁silver	-9.92149
▁ambulance	-9.9215
▁period	-9.9215
▁someplace	-9.9215
▁alpha	-9.92151
▁available	-9.92151
▁impressive	-9.92154
▁blew	-9.92154
▁complicated	-9.92155
▁joking	-9.92157
▁wherever	-9.92159
▁cmon	-9.92159
▁nasty	-9.92165
▁confused	-9.92173
▁emily	-9.92181
▁boring	-9.92183
▁edge	-9.92184
▁belt	-9.92186
▁penny	-9.92194
▁kate	-9.922
▁messages	-9.92218
▁received	-9.9223
▁sexy	-9.92451
▁stronger	-9.92547
▁joni	-9.92609
▁scar	-9.92626
ow	-9.9267
▁den	-9.92686
▁writer	-9.92764
head	-9.92777
▁carrying	-9.92981
tic	-9.93147
▁wound	-9.93263
▁signed	-9.93265
▁student	-9.93484
▁americans	-9.93537
▁ji	-9.93554
▁easily	-9.93579
▁schultz	-9.93579
▁whenever	-9.93579
▁priest	-9.9358
▁puppy	-9.9358
▁basically	-9.93583
▁fifty	-9.93585
▁jazz	-9.93588
▁jewish	-9.93591
▁stephen	-9.93597
▁warden	-9.93629
▁friendly	-9.93645
ai	-9.93769
▁hood	-9.93777
▁solo	-9.93877
▁engines	-9.93936
▁mountains	-9.94339
▁mo	-9.94443
▁leaves	-9.94631
lo	-9.94696
▁guarantee	-9.94795
▁fifth	-9.94814
▁spy	-9.94826
▁twin	-9.94924
▁giant	-9.9493
▁ships	-9.94937
▁cowboy	-9.9494
▁direction	-9.94958
▁players	-9.94959
▁section	-9.95019
▁trash	-9.95028
▁equipment	-9.95028
▁fred	-9.95028
▁gandalf	-9.95028
▁nonsense	-9.95028
▁florida	-9.95028
▁senator	-9.9503
▁saint	-9.9503
▁susan	-9.95033
▁heck	-9.95034
▁surface	-9.95035
▁coke	-9.95041
▁intelligence	-9.95042
▁estate	-9.95045
▁research	-9.95076
▁lester	-9.95077
▁setting	-9.95091
▁bates	-9.95092
▁prisoners	-9.95138
▁pity	-9.95155
▁sandy	-9.95218
▁hire	-9.95277
▁loss	-9.95418
▁units	-9.95443
▁blessing	-9.95455
▁pet	-9.95509
▁filled	-9.95604
▁brings	-9.95755
▁rip	-9.95821
▁shock	-9.96002
▁os	-9.96193
▁claim	-9.96227
▁trigger	-9.9629
▁divorce	-9.96369
▁curse	-9.9637
▁throwing	-9.96389
▁uniform	-9.96437
▁europe	-9.96469
▁rocks	-9.96471
▁wide	-9.96479
▁advantage	-9.96499
▁django	-9.96499
▁enemies	-9.96499
▁ramsey	-9.96499
▁whistling	-9.96499
▁slide	-9.96499
▁plain	-9.96519
▁woke	-9.96529
▁fourth	-9.96612
▁ford	-9.9663
▁stranger	-9.9664
▁beth	-9.96649
▁bleeding	-9.96663
▁fa	-9.9678
▁pissed	-9.96809
▁murderer	-9.96847
▁fairy	-9.97057
land	-9.97122
▁sm	-9.97146
▁drove	-9.97334
▁fu	-9.9735
▁guests	-9.97498
▁model	-9.97652
▁gear	-9.97866
▁fort	-9.97886
▁exact	-9.97904
▁fox	-9.97951
▁express	-9.97953
▁debt	-9.97979
▁claire	-9.97992
▁riley	-9.97994
▁panic	-9.98011
lin	-9.98035
▁pm	-9.98081
▁someones	-9.98137
▁surely	-9.98143
▁jews	-9.98163
▁plate	-9.9821
▁giggles	-9.98262
▁checking	-9.98277
▁carefully	-9.98417
▁walls	-9.98494
▁reached	-9.98578
▁doctors	-9.9879
▁cow	-9.98867
▁files	-9.98994
▁guts	-9.99325
▁reg	-9.99403
▁desperate	-9.99419
▁obvious	-9.99422
▁particular	-9.99427
▁mirror	-9.99446
▁dealing	-9.99459
ey	-9.99464
▁sandwich	-9.99465
▁whore	-9.99484
▁diamond	-9.99499
▁scout	-9.99501
▁including	-9.99507
▁keller	-9.99507
▁fiona	-9.99507
▁orange	-9.99508
▁eventually	-9.99511
▁aboard	-9.99513
▁whatre	-9.99514
▁happiness	-9.99521
▁swimming	-9.99523
▁sarah	-9.99532
▁angeles	-9.99577
▁windows	-9.99586
▁joker	-9.99636
▁cabin	-9.99775
▁yards	-9.99844
▁prisoner	-9.99846
▁based	-9.99852
▁fixed	-10.0011
▁showing	-10.0031
▁suffer	-10.0055
▁woo	-10.006
▁bone	-10.0085
▁seats	-10.009
▁meg	-10.0092
▁official	-10.0098
▁sen	-10.0098
▁aaron	-10.0102
▁campaign	-10.0105
▁lawrence	-10.0105
▁presence	-10.0105
▁competition	-10.0105
▁jeez	-10.0105
▁jacob	-10.0105
▁garfield	-10.0105
▁necklace	-10.0105
▁twelve	-10.0105
▁circle	-10.0105
▁bones	-10.0105
▁role	-10.0106
▁jungle	-10.0107
▁jay	-10.0109
▁odie	-10.011
▁pe	-10.011
▁sonny	-10.0113
▁thousands	-10.0118
▁glasses	-10.0119
▁lawyers	-10.0132
▁ruined	-10.0133
▁mustve	-10.0136
▁bum	-10.0144
▁sec	-10.0179
▁pills	-10.0181
▁degrees	-10.0188
▁route	-10.0197
▁covered	-10.0197
un	-10.0199
▁jane	-10.0208
▁sal	-10.021
▁trace	-10.0232
ance	-10.0249
▁dreaming	-10.0249
▁criminals	-10.025
▁physical	-10.0252
▁sudden	-10.0252
▁explosiveskull	-10.0261
▁mystery	-10.0261
▁terrific	-10.0261
▁whimpers	-10.0261
▁smoking	-10.0261
▁washington	-10.0261
▁diamonds	-10.0262
▁chef	-10.0262
▁ocean	-10.0262
▁motorcycle	-10.0262
▁belongs	-10.0263
▁barry	-10.0265
▁robbery	-10.0266
▁uhoh	-10.0271
▁commissioner	-10.0273
▁humans	-10.0277
▁pleased	-10.0282
▁somebodys	-10.0288
▁thin	-10.0297
▁badly	-10.0304
ny	-10.0307
ut	-10.0307
ee	-10.0313
▁traveling	-10.0313
▁bi	-10.0349
▁bo	-10.0357
way	-10.0358
ier	-10.0364
▁so	-10.037
▁disappear	-10.0373
▁demon	-10.0375
▁chuck	-10.039
▁sports	-10.0398
▁pee	-10.0408
▁badge	-10.0408
oo	-10.0412
▁mood	-10.0413
▁mornin	-10.0417
▁daphne	-10.0419
▁soccer	-10.0419
▁violence	-10.0419
▁boston	-10.0419
▁illegal	-10.0419
▁lynn	-10.0419
▁international	-10.042
▁humming	-10.042
▁aiex	-10.042
▁truman	-10.042
▁governor	-10.042
▁valley	-10.0421
▁soup	-10.0422
▁toilet	-10.0423
▁extremely	-10.0424
▁effort	-10.0424
▁maid	-10.0425
▁services	-10.0426
▁rope	-10.0429
▁highway	-10.0429
ts	-10.0439
▁tears	-10.0452
▁ross	-10.0452
▁joes	-10.0463
▁moments	-10.0468
▁buying	-10.0477
▁assholes	-10.0497
▁bowl	-10.0498
▁spin	-10.05
▁wave	-10.0508
▁attacked	-10.0509
▁tracks	-10.051
▁lips	-10.0511
▁fucker	-10.0525
▁reasons	-10.0526
▁aim	-10.0539
▁sneak	-10.055
▁celebrate	-10.0568
▁guide	-10.0568
▁cave	-10.0569
▁joseph	-10.0578
▁community	-10.0581
▁delicious	-10.0581
▁fruit	-10.0581
▁miguel	-10.0581
▁sheila	-10.0581
▁starving	-10.0581
▁curious	-10.0581
▁theory	-10.0581
▁diana	-10.0581
▁firing	-10.0581
▁rude	-10.0582
▁mason	-10.0584
▁niki	-10.0585
▁trunk	-10.0586
▁anger	-10.0589
▁shy	-10.0589
▁tunnel	-10.0589
▁matt	-10.059
▁remove	-10.0591
▁sighing	-10.0593
▁actor	-10.0597
▁mud	-10.0598
▁mandi	-10.06
▁victory	-10.0604
▁subtitles	-10.0621
▁lo	-10.0641
▁cameras	-10.0643
▁leads	-10.0644
▁sol	-10.0647
▁rate	-10.0651
▁chi	-10.0687
▁rolling	-10.0689
▁chips	-10.0697
▁whip	-10.07
▁kings	-10.071
ci	-10.0724
▁reward	-10.0724
▁intend	-10.0724
▁touched	-10.0728
▁shaw	-10.0728
▁doug	-10.0729
▁exchange	-10.0731
▁desire	-10.0732
▁por	-10.0733
▁adventure	-10.0738
▁becomes	-10.0739
▁bloom	-10.0743
▁courage	-10.0744
▁anthony	-10.0745
▁calvin	-10.0745
▁silent	-10.0745
▁slept	-10.0745
▁weii	-10.0745
▁bunny	-10.0745
▁kenny	-10.0745
▁ward	-10.0745
▁solid	-10.0745
▁motion	-10.0745
▁owns	-10.0746
the	-10.075
▁growling	-10.0751
▁yearold	-10.0752
▁gay	-10.0753
▁donkey	-10.0753
▁hitting	-10.0754
▁adult	-10.0755
▁chuckle	-10.0763
▁hated	-10.0768
▁forth	-10.0771
ism	-10.0775
▁gina	-10.0777
▁crewe	-10.0785
▁cher	-10.0795
▁jobs	-10.0803
▁gum	-10.0814
▁offered	-10.0823
▁hills	-10.0872
pa	-10.0876
▁appears	-10.0884
ba	-10.0884
▁casey	-10.0891
▁teams	-10.0895
ah	-10.0901
▁po	-10.0905
▁phil	-10.0905
▁progress	-10.0911
▁grateful	-10.0911
▁ordinary	-10.0911
▁political	-10.0911
▁shirley	-10.0911
▁entrance	-10.0911
▁kyle	-10.0911
▁wasting	-10.0911
▁racing	-10.0911
▁basic	-10.0912
▁nuclear	-10.0912
▁stallion	-10.0912
▁teii	-10.0912
▁loop	-10.0913
▁destiny	-10.0913
▁title	-10.0913
▁capable	-10.0913
▁data	-10.0917
▁fran	-10.092
▁circumstances	-10.0921
▁gim	-10.0923
▁noodles	-10.0923
▁math	-10.0924
▁duck	-10.0925
▁machines	-10.0926
▁naked	-10.093
ill	-10.0936
ite	-10.0939
▁te	-10.0949
▁thy	-10.0988
▁smash	-10.102
▁material	-10.1025
▁cats	-10.1028
▁ken	-10.1029
▁sail	-10.1042
▁knowing	-10.1044
▁wick	-10.1062
▁hates	-10.107
▁assure	-10.107
▁mental	-10.107
▁ba	-10.1072
▁tells	-10.1077
▁rub	-10.1078
▁lou	-10.1078
▁cuba	-10.1079
▁attitude	-10.1081
▁invisible	-10.1081
▁phoenix	-10.1081
▁revenge	-10.1081
▁distant	-10.1081
▁couch	-10.1081
▁authority	-10.1081
▁brody	-10.1081
▁fever	-10.1082
▁cancer	-10.1082
▁central	-10.1082
▁sammy	-10.1082
▁counselor	-10.1083
▁santa	-10.1083
▁wire	-10.1084
▁sadiel	-10.1084
▁recently	-10.1085
▁issue	-10.1088
▁bury	-10.1093
▁stopping	-10.1094
▁bail	-10.1094
▁device	-10.1094
▁monkey	-10.1098
▁apple	-10.1098
▁jacket	-10.1098
▁boxes	-10.11
▁brad	-10.1104
▁thrown	-10.1107
▁lina	-10.1109
▁busted	-10.1112
ot	-10.1116
x	-10.1117
▁pin	-10.1124
▁neo	-10.1135
▁searching	-10.1166
▁cock	-10.119
ally	-10.1202
em	-10.1204
▁flash	-10.1206
▁mob	-10.1207
▁attempt	-10.1219
▁william	-10.1225
▁scott	-10.1239
▁helen	-10.1241
▁tune	-10.1248
▁birth	-10.1253
▁provide	-10.1253
▁clamoring	-10.1253
▁rudder	-10.1253
▁tewkesbury	-10.1253
▁wonka	-10.1253
▁ransom	-10.1253
▁charley	-10.1253
▁lauda	-10.1253
▁tessa	-10.1254
iy	-10.1254
▁committed	-10.1254
cient	-10.1254
▁century	-10.1254
▁decent	-10.1254
▁combat	-10.1254
▁romantic	-10.1254
▁starboard	-10.1254
▁confession	-10.1255
day	-10.1255
▁colin	-10.1256
ung	-10.1257
▁chirping	-10.1258
▁rancho	-10.126
▁bound	-10.1261
▁spoken	-10.1261
▁cube	-10.1262
▁haha	-10.1264
▁dash	-10.1264
▁virus	-10.1265
▁elevator	-10.127
▁shift	-10.1272
▁text	-10.1272
▁traitor	-10.1274
▁roses	-10.1275
▁lifetime	-10.1277
▁flower	-10.1283
▁odd	-10.1284
▁drawing	-10.1305
▁everyones	-10.1316
▁o	-10.132
▁members	-10.1333
▁jon	-10.1338
▁mal	-10.1352
▁fishing	-10.1372
▁fully	-10.1375
▁mmhm	-10.138
▁separate	-10.1416
▁sentence	-10.1417
▁sport	-10.1424
▁russia	-10.1426
▁challenge	-10.1428
▁cocksucker	-10.1429
▁custody	-10.1429
▁felix	-10.1429
▁morpheus	-10.1429
▁outfit	-10.1429
▁taylor	-10.1429
▁thursday	-10.1429
▁library	-10.1429
▁becoming	-10.1429
▁mallory	-10.1429
▁blaring	-10.1429
▁paolo	-10.1429
▁ginger	-10.1429
▁punk	-10.1429
▁donnie	-10.1429
▁theme	-10.1429
▁gunfire	-10.143
▁upb	-10.1431
▁do	-10.1431
▁slave	-10.1431
▁filthy	-10.1432
▁bull	-10.1437
▁motherfucking	-10.1438
▁woody	-10.145
▁millions	-10.1454
ca	-10.1454
▁grass	-10.1457
▁entirely	-10.1462
▁earned	-10.1467
▁voc	-10.147
▁souls	-10.1482
ious	-10.1502
▁fans	-10.1504
▁exercise	-10.1505
ial	-10.1509
ir	-10.1556
▁u	-10.1571
▁drill	-10.1581
▁smooth	-10.1583
▁tone	-10.1585
▁sub	-10.1586
▁mistakes	-10.159
▁hundreds	-10.1604
▁gentle	-10.1604
▁committee	-10.1607
▁policy	-10.1607
▁soap	-10.1607
▁stephanie	-10.1607
▁foster	-10.1607
▁lewis	-10.1607
▁mouse	-10.1607
▁supper	-10.1607
▁mysterious	-10.1608
▁status	-10.1608
▁jury	-10.1608
▁false	-10.1608
▁beating	-10.1609
▁rice	-10.161
▁loving	-10.1611
▁shining	-10.1612
▁embarrassed	-10.1612
▁rooster	-10.1613
▁passion	-10.1613
▁embarrassing	-10.1614
▁cutting	-10.1616
▁vice	-10.1621
▁explosion	-10.1632
▁tiger	-10.1634
▁bells	-10.1636
▁delivered	-10.164
▁butter	-10.1641
▁finest	-10.1651
▁asses	-10.1686
▁falcone	-10.169
▁andi	-10.1704
▁anti	-10.1709
▁partners	-10.1712
red	-10.1716
▁smells	-10.1718
ka	-10.172
▁collect	-10.173
▁mia	-10.1745
wa	-10.1751
▁nut	-10.1761
▁suits	-10.1764
▁sink	-10.1766
▁firm	-10.1767
▁mount	-10.177
▁lam	-10.1771
▁education	-10.1785
▁likely	-10.1786
▁yah	-10.1789
▁circus	-10.1789
▁igor	-10.1789
▁mitsuha	-10.1789
▁plastic	-10.1789
▁scrooge	-10.1789
▁trevor	-10.1789
▁doyle	-10.1789
▁motel	-10.1789
▁charity	-10.1789
▁thirty	-10.179
▁electricity	-10.179
▁kong	-10.179
▁choir	-10.1791
▁chewie	-10.1791
der	-10.1792
▁du	-10.1794
▁whod	-10.1794
▁friendship	-10.1796
▁appear	-10.1797
▁champ	-10.1798
▁discovered	-10.18
▁directly	-10.1803
▁healthy	-10.1805
▁object	-10.1808
▁pirate	-10.1819
▁prime	-10.1823
▁touching	-10.1824
▁voices	-10.1825
▁wasted	-10.1828
▁considered	-10.1836
▁hits	-10.1837
▁realized	-10.1843
▁manny	-10.1844
▁jet	-10.1855
▁photos	-10.1862
▁defend	-10.1868
▁knocked	-10.1875
▁engineer	-10.1891
▁younger	-10.1892
da	-10.1901
▁su	-10.1903
ring	-10.1916
▁lad	-10.1924
▁boots	-10.1929
▁site	-10.1939
▁junk	-10.1941
▁fund	-10.196
▁cleaned	-10.196
▁ignore	-10.1961
▁nest	-10.1965
▁learning	-10.1974
▁avenue	-10.1974
▁deputy	-10.1974
▁glory	-10.1974
▁jersey	-10.1974
▁shrek	-10.1974
▁soze	-10.1974
▁unusual	-10.1974
▁velma	-10.1974
▁warrant	-10.1974
▁whiskey	-10.1974
▁memories	-10.1974
▁navy	-10.1975
▁ronnie	-10.1975
▁randy	-10.1975
▁steak	-10.1976
▁carried	-10.1978
▁image	-10.198
▁impressed	-10.1986
▁useless	-10.1993
▁former	-10.1994
▁clicking	-10.1997
▁changes	-10.2003
▁artist	-10.2005
▁transfer	-10.2006
▁result	-10.2007
▁vision	-10.2008
▁pattern	-10.2008
▁alien	-10.2009
▁escaped	-10.2012
▁systems	-10.2015
▁cleaning	-10.2016
▁bitches	-10.2018
▁chances	-10.2022
▁lack	-10.2022
▁caused	-10.2026
▁events	-10.2037
▁hunting	-10.2041
▁tars	-10.205
▁songs	-10.2076
▁highly	-10.2079
▁phones	-10.2083
▁bills	-10.2084
▁judgment	-10.2087
ac	-10.2111
▁bid	-10.2112
▁tai	-10.2142
▁finds	-10.2142
▁issues	-10.2144
▁noon	-10.2147
▁cease	-10.2149
▁convince	-10.215
▁narrat	-10.216
▁alley	-10.2161
▁solve	-10.2161
▁flip	-10.2162
▁blanc	-10.2163
▁agatha	-10.2163
▁district	-10.2163
▁frankenstein	-10.2163
▁gerald	-10.2163
▁maggie	-10.2163
▁malcolm	-10.2163
▁patrizia	-10.2163
▁technology	-10.2163
▁underneath	-10.2163
▁reverend	-10.2163
▁lebowski	-10.2163
▁patrol	-10.2163
▁inhales	-10.2163
▁kitty	-10.2163
▁shopping	-10.2164
▁confidence	-10.2165
▁anson	-10.2165
▁houses	-10.2171
▁gates	-10.2181
▁holiday	-10.2197
▁clown	-10.22
▁jackie	-10.2201
▁trusted	-10.2205
▁ye	-10.2214
▁thoughts	-10.2231
que	-10.2233
ize	-10.2235
▁reed	-10.2237
▁banks	-10.2251
▁jan	-10.2257
▁testing	-10.227
▁foi	-10.2287
▁troops	-10.2306
▁suspects	-10.231
▁incident	-10.2316
▁jets	-10.2324
▁las	-10.2333
▁yell	-10.234
▁terribl	-10.2347
▁ren	-10.2351
▁ne	-10.2352
▁fashion	-10.2354
▁transport	-10.2355
▁gray	-10.2355
▁baker	-10.2355
▁grandmother	-10.2355
▁greyhound	-10.2355
▁paddington	-10.2355
▁senior	-10.2355
▁yknow	-10.2355
▁accent	-10.2355
▁behavior	-10.2355
▁authorities	-10.2355
▁routine	-10.2355
▁dozen	-10.2356
▁online	-10.2356
▁shane	-10.2356
▁nephew	-10.2356
▁alan	-10.2362
▁yaya	-10.2363
▁reasonable	-10.2366
▁down	-10.2369
▁minds	-10.2383
▁hon	-10.2385
▁sp	-10.2388
▁rifle	-10.2394
▁loan	-10.2397
▁forces	-10.2402
▁z	-10.2436
▁oi	-10.244
▁cents	-10.2444
▁cha	-10.2448
▁laws	-10.2467
di	-10.249
▁assault	-10.25
▁interrupt	-10.2501
▁gather	-10.2502
▁charm	-10.2502
▁drag	-10.251
▁lean	-10.251
▁print	-10.252
▁lads	-10.2521
▁remembered	-10.2526
▁landing	-10.2531
▁violent	-10.2543
▁creed	-10.2544
▁africa	-10.2545
▁suspensefu	-10.2546
▁cruel	-10.255
▁favour	-10.2551
▁armstrong	-10.2551
▁auction	-10.2551
▁maintain	-10.2551
▁tragedy	-10.2551
▁surrender	-10.2551
▁imagination	-10.2551
▁linnet	-10.2551
▁granny	-10.2551
▁palace	-10.2552
▁allison	-10.2552
▁russell	-10.2552
▁performance	-10.2552
▁shelter	-10.2552
▁radar	-10.2552
▁thick	-10.2552
▁larry	-10.2553
▁norman	-10.2553
▁angle	-10.2553
▁lover	-10.2556
▁halfway	-10.2556
▁chosen	-10.2558
▁psycho	-10.2562
▁detail	-10.2576
▁stands	-10.2582
▁nightmare	-10.2595
▁coughs	-10.2609
▁paula	-10.2612
▁slams	-10.2628
om	-10.2637
▁chop	-10.265
▁terms	-10.2651
▁reported	-10.2651
▁staring	-10.267
▁heavens	-10.2673
▁marks	-10.2683
▁leon	-10.2685
▁riders	-10.2687
▁toss	-10.2702
▁odds	-10.2728
▁emotional	-10.2744
▁cure	-10.2744
▁wrap	-10.2751
▁disaster	-10.2751
▁extraordinary	-10.2751
▁identity	-10.2751
▁siveth	-10.2751
▁skull	-10.2751
▁valuable	-10.2751
▁clementine	-10.2751
▁pepper	-10.2752
▁broadway	-10.2752
▁anita	-10.2752
▁jules	-10.2752
▁aqui	-10.2752
▁doorbell	-10.2753
▁superman	-10.276
▁naturally	-10.2768
▁provided	-10.2771
▁served	-10.278
▁passes	-10.2782
▁movement	-10.2787
▁habit	-10.2798
▁accepted	-10.2816
tion	-10.2831
▁monsters	-10.2847
▁tradition	-10.2859
ized	-10.2859
▁grade	-10.2861
▁teaching	-10.2864
▁carly	-10.2871
▁kissed	-10.2871
▁customers	-10.2891
▁falls	-10.2896
▁youth	-10.2897
▁waited	-10.2903
▁recording	-10.2903
▁crush	-10.2904
▁devils	-10.2907
ions	-10.2913
▁blocks	-10.2928
▁backup	-10.2935
▁actual	-10.2947
▁spirits	-10.295
▁adele	-10.2955
▁lorraine	-10.2955
▁miserable	-10.2955
▁tuesday	-10.2955
▁university	-10.2955
▁counts	-10.2955
▁opposite	-10.2955
▁reputation	-10.2956
▁suzy	-10.2956
▁dodgeball	-10.2956
▁suzanne	-10.2956
▁bernardo	-10.2956
▁yup	-10.2956
▁gustave	-10.2956
▁virgin	-10.2956
▁revving	-10.2956
▁cassie	-10.2956
▁jaden	-10.2957
▁bible	-10.2957
▁mid	-10.2957
▁jeanne	-10.2957
▁reaction	-10.2957
▁soren	-10.2958
▁invented	-10.2962
▁quote	-10.2962
▁engaged	-10.2965
▁bride	-10.2966
▁yea	-10.2968
▁roaring	-10.2972
▁weed	-10.2972
▁trucks	-10.2975
▁troop	-10.2975
▁justin	-10.2978
▁rooms	-10.298
▁sins	-10.298
▁cleared	-10.2987
▁doll	-10.2989
▁arrive	-10.2995
▁flag	-10.2996
▁gaz	-10.3002
▁magazine	-10.3005
▁chick	-10.3006
▁coward	-10.3007
▁source	-10.3008
▁sim	-10.3021
▁pat	-10.3027
▁hack	-10.3042
▁goal	-10.3044
ner	-10.3049
▁mel	-10.3053
▁pushed	-10.3055
▁aid	-10.3059
▁checks	-10.307
▁peoples	-10.3096
▁neighbors	-10.31
▁wipe	-10.3102
▁drivers	-10.3113
▁fra	-10.3115
▁comfort	-10.3134
▁trail	-10.3135
▁abandon	-10.3143
▁dial	-10.3149
▁counter	-10.3153
▁commit	-10.3163
▁despite	-10.3164
▁deuce	-10.3164
▁fifteen	-10.3164
▁kathy	-10.3164
▁modern	-10.3164
▁politics	-10.3164
▁rattling	-10.3164
▁reckon	-10.3164
▁wendy	-10.3164
▁wrist	-10.3164
▁minister	-10.3164
▁sheep	-10.3164
▁sanchez	-10.3164
▁daily	-10.3164
▁toby	-10.3164
▁skinny	-10.3165
▁haku	-10.3165
▁peak	-10.3165
▁series	-10.3166
▁wore	-10.3166
▁tool	-10.3166
▁rug	-10.3167
▁tricks	-10.3167
▁hoover	-10.3168
▁murmuring	-10.3168
▁q	-10.3171
▁russ	-10.3174
▁tests	-10.3177
▁under	-10.3181
▁confirmed	-10.3184
ping	-10.3198
▁experiment	-10.3216
▁clue	-10.3218
▁effect	-10.3219
▁medal	-10.322
▁helicopter	-10.322
▁adam	-10.322
▁affair	-10.322
▁creature	-10.3221
▁pole	-10.3224
▁cooking	-10.3225
▁wha	-10.3227
▁balance	-10.323
▁leo	-10.3238
▁ni	-10.3244
▁dean	-10.3248
sa	-10.3248
▁mass	-10.3249
▁pops	-10.3254
che	-10.3269
▁tent	-10.3283
▁skills	-10.3287
▁gee	-10.3302
▁inform	-10.3303
▁pipe	-10.3309
▁boats	-10.3311
▁squeeze	-10.3321
ship	-10.3329
ina	-10.333
▁flow	-10.3333
▁pit	-10.3338
if	-10.3339
▁leak	-10.3348
▁reveal	-10.3355
▁hut	-10.3356
▁ned	-10.3361
▁describe	-10.3371
▁up	-10.3373
▁amigo	-10.3377
▁detroit	-10.3377
▁envelope	-10.3377
▁generous	-10.3377
▁poirot	-10.3377
▁smiling	-10.3377
▁warehouse	-10.3377
▁kristoff	-10.3377
▁albert	-10.3377
▁alfred	-10.3377
▁edmund	-10.3377
▁pathetic	-10.3377
▁jonah	-10.3377
▁grid	-10.3377
▁elsa	-10.3378
▁chanting	-10.3381
▁darn	-10.3385
▁disappointed	-10.3388
▁trapped	-10.339
▁steph	-10.339
▁connected	-10.3397
▁fed	-10.3398
▁chewing	-10.3402
▁policeman	-10.3409
▁bosses	-10.342
▁chip	-10.3434
▁expert	-10.3435
▁thumb	-10.3436
▁costume	-10.3437
▁terrorist	-10.3437
▁gangster	-10.3438
▁servant	-10.3438
▁treated	-10.344
▁parent	-10.3442
▁spit	-10.3448
▁monte	-10.3454
▁string	-10.3454
side	-10.3458
▁rear	-10.3459
▁begins	-10.3468
▁sire	-10.3478
▁sa	-10.3486
▁spending	-10.3496
▁dragons	-10.3502
▁painting	-10.3502
per	-10.3503
▁clouds	-10.3509
▁fe	-10.351
▁locker	-10.351
▁pushing	-10.3514
▁seal	-10.3528
▁stretch	-10.3529
▁confirm	-10.3544
▁deposit	-10.3544
▁dan	-10.3545
ger	-10.3554
▁screech	-10.3561
ball	-10.3566
▁hatch	-10.357
▁stones	-10.3573
▁dealer	-10.3573
▁whistles	-10.3583
▁sacrifice	-10.3585
▁sexual	-10.3585
▁cruz	-10.3594
▁explanation	-10.3594
▁response	-10.3594
▁stuart	-10.3594
▁farewell	-10.3594
▁underwear	-10.3594
▁lecter	-10.3594
▁choking	-10.3594
▁principal	-10.3594
▁sniffles	-10.3594
▁rotten	-10.3594
▁noble	-10.3594
▁neil	-10.3595
▁liberty	-10.3595
▁frozen	-10.3595
▁benny	-10.3596
▁merely	-10.3596
▁raid	-10.3596
▁weakness	-10.3596
▁impression	-10.3597
▁clay	-10.3599
▁ability	-10.3601
▁frightened	-10.3601
pe	-10.3604
▁media	-10.3607
▁properly	-10.361
va	-10.361
▁thinkin	-10.3613
▁kills	-10.3617
▁mustnt	-10.3622
▁blown	-10.3624
▁ap	-10.3624
▁warned	-10.363
▁swat	-10.3646
▁homeless	-10.365
▁ann	-10.3654
▁net	-10.366
▁neighbor	-10.3661
▁ending	-10.3676
ging	-10.3693
▁thuds	-10.3703
▁wins	-10.3707
mi	-10.3717
▁tara	-10.3724
ville	-10.3729
▁pitch	-10.3729
▁offering	-10.3732
▁pope	-10.3738
▁protecting	-10.3751
▁hurting	-10.3753
▁complain	-10.376
▁scratch	-10.376
▁approach	-10.376
▁cable	-10.3762
▁walks	-10.3762
▁connect	-10.3765
▁ma	-10.3784
▁tag	-10.3791
▁motor	-10.3799
▁alcohol	-10.3814
▁loyal	-10.3815
▁anytime	-10.3816
▁buffalo	-10.3816
▁corporation	-10.3816
▁electronic	-10.3816
▁murray	-10.3816
▁sulley	-10.3816
▁survival	-10.3816
▁organization	-10.3816
▁chaplin	-10.3816
▁surgery	-10.3816
▁sauce	-10.3816
▁failure	-10.3816
▁powder	-10.3817
▁delta	-10.3817
▁salad	-10.3817
▁intelligent	-10.3817
▁automated	-10.3817
▁network	-10.3818
▁task	-10.382
▁soda	-10.3822
▁platt	-10.3822
▁hail	-10.3823
▁retired	-10.3824
▁willy	-10.3824
▁metro	-10.3824
▁ridge	-10.3825
▁shore	-10.3825
▁witnesses	-10.3826
▁hup	-10.3826
▁officially	-10.3829
▁heroes	-10.3833
▁goose	-10.3834
▁fleet	-10.3835
▁fry	-10.3835
▁blonde	-10.3838
▁managed	-10.3838
▁abandoned	-10.3839
▁instructions	-10.3843
▁reality	-10.3849
▁normally	-10.3856
▁click	-10.3861
▁tits	-10.3861
▁limit	-10.3866
▁bars	-10.387
▁toe	-10.3883
▁blade	-10.3888
▁toward	-10.3889
▁customer	-10.3893
▁packed	-10.3894
▁bend	-10.3902
▁ranger	-10.3907
▁mighty	-10.3918
▁singer	-10.3922
▁remains	-10.3924
▁rape	-10.3924
▁crossed	-10.3926
▁secrets	-10.3927
▁musical	-10.3927
▁washed	-10.3943
▁idiots	-10.395
▁nation	-10.3952
▁crawl	-10.397
▁sis	-10.3976
▁tryin	-10.3977
▁creatures	-10.3981
▁tapes	-10.3983
▁chin	-10.3985
▁russians	-10.399
▁twist	-10.4011
▁blues	-10.4012
▁notes	-10.4014
▁confess	-10.402
▁receive	-10.4025
▁prophet	-10.4043
▁almighty	-10.4043
▁keaton	-10.4043
▁paradise	-10.4043
▁reynolds	-10.4043
▁channel	-10.4043
▁sweep	-10.4043
▁conference	-10.4043
▁wives	-10.4043
▁polite	-10.4044
▁rudy	-10.4044
▁steam	-10.4044
▁unknown	-10.4044
▁marcus	-10.4044
▁mummy	-10.4044
▁diary	-10.4045
▁specific	-10.4045
▁therell	-10.4045
▁taki	-10.4045
▁flies	-10.4045
▁cries	-10.4047
▁apply	-10.4047
▁agreement	-10.4048
▁sacred	-10.4048
▁surrounded	-10.4049
▁technically	-10.4049
▁franklin	-10.4049
▁china	-10.4052
▁moral	-10.4056
▁bouc	-10.4058
▁designed	-10.4065
ans	-10.4066
▁mumbles	-10.4067
▁spark	-10.4068
▁lois	-10.4068
▁parties	-10.4068
of	-10.4072
▁settled	-10.4074
▁released	-10.4082
▁rap	-10.4085
▁suffering	-10.4085
▁agents	-10.409
▁to	-10.4091
▁squeal	-10.4092
▁boyle	-10.4096
▁charged	-10.4102
▁rd	-10.4108
▁host	-10.4111
cy	-10.4111
▁op	-10.4117
▁palm	-10.4118
▁mexican	-10.4119
▁fools	-10.4123
▁luce	-10.4136
▁painful	-10.4151
▁tend	-10.4153
▁frankly	-10.4153
▁brakes	-10.4158
▁tris	-10.4165
▁steel	-10.4166
▁joined	-10.4168
ated	-10.4175
▁angels	-10.4175
▁manner	-10.4176
ay	-10.4176
▁signs	-10.4179
▁mix	-10.4182
▁tons	-10.4192
▁lu	-10.4199
▁fires	-10.4199
▁landed	-10.4201
lie	-10.4205
ber	-10.421
▁pace	-10.422
▁breaks	-10.4224
▁sounded	-10.4224
▁respond	-10.4225
ph	-10.4227
▁leading	-10.4231
ied	-10.4233
back	-10.4238
▁brush	-10.4248
▁holes	-10.4257
▁advance	-10.4263
▁current	-10.4267
▁academy	-10.4276
▁behalf	-10.4276
▁desalvo	-10.4276
▁financial	-10.4276
▁honeymoon	-10.4276
▁magnificent	-10.4276
▁monroe	-10.4276
▁sherlock	-10.4276
▁surveillance	-10.4276
▁concert	-10.4276
▁ease	-10.4276
▁turkey	-10.4276
▁kidnapped	-10.4276
▁andrew	-10.4276
▁review	-10.4276
▁zooey	-10.4276
▁brick	-10.4277
▁laundry	-10.4277
▁fence	-10.4277
▁begging	-10.4278
ctor	-10.4278
▁convoy	-10.4279
▁taxes	-10.4283
▁betty	-10.4283
▁whooping	-10.4283
▁homework	-10.4287
▁takin	-10.4289
▁inch	-10.4295
▁kiddo	-10.4296
▁mall	-10.43
▁delivery	-10.4301
▁latest	-10.4303
▁cigarettes	-10.4322
▁demand	-10.4329
▁deeper	-10.4334
▁pile	-10.4343
▁pistol	-10.4355
▁dings	-10.4355
▁nora	-10.4361
▁marine	-10.4363
▁cl	-10.4371
▁the	-10.4372
ni	-10.4373
▁doo	-10.4395
▁tao	-10.4401
ten	-10.4407
▁protected	-10.4407
▁damned	-10.4421
▁greater	-10.4432
▁lively	-10.4461
▁perform	-10.4464
▁chew	-10.4487
▁replace	-10.4501
▁bombs	-10.4502
▁tc	-10.4504
▁fields	-10.4504
▁potential	-10.4505
▁pow	-10.4506
▁recommend	-10.4511
▁somethings	-10.4512
▁complex	-10.4513
▁abigail	-10.4514
▁arguing	-10.4514
▁caesar	-10.4514
▁cassandra	-10.4514
▁rayleen	-10.4514
▁rothstein	-10.4514
▁drain	-10.4514
▁wagon	-10.4514
▁loki	-10.4514
▁bacon	-10.4514
▁leonard	-10.4514
agol	-10.4514
▁testify	-10.4515
▁droid	-10.4515
▁baseball	-10.4515
▁chasing	-10.4515
▁bourne	-10.4516
▁rosie	-10.4516
▁beef	-10.4516
▁francisco	-10.4516
▁temple	-10.4517
▁lightning	-10.4517
▁moron	-10.4518
▁troy	-10.4518
▁precisely	-10.4519
▁tries	-10.4519
▁heroin	-10.4523
▁betrayed	-10.4524
▁halt	-10.4524
▁hop	-10.4526
▁ti	-10.4529
▁native	-10.453
▁labor	-10.453
▁matty	-10.4533
▁nico	-10.4536
▁beep	-10.4537
▁til	-10.4539
▁rage	-10.4539
▁knee	-10.4545
▁bitter	-10.4546
▁mu	-10.455
mp	-10.4567
▁freaking	-10.4567
▁at	-10.4574
▁grunt	-10.4576
▁bucket	-10.46
▁communist	-10.4601
▁muscle	-10.4602
▁wallet	-10.4602
▁mann	-10.4603
▁bug	-10.4612
▁studio	-10.4613
▁usa	-10.4615
▁jumped	-10.4625
▁wheels	-10.4648
tra	-10.465
▁speakers	-10.4654
▁crossing	-10.4669
▁fur	-10.4675
▁ton	-10.4683
▁strip	-10.4708
▁lon	-10.4714
▁cruise	-10.4737
▁husbands	-10.4738
▁pi	-10.4741
through	-10.4754
▁deny	-10.4755
▁understanding	-10.4756
▁plot	-10.4757
▁brooklyn	-10.4758
▁concentrate	-10.4758
▁creasy	-10.4758
▁dwarf	-10.4758
▁extend	-10.4758
▁undercover	-10.4758
▁hoffa	-10.4758
▁basket	-10.4758
▁division	-10.4758
▁argue	-10.4758
▁flew	-10.4758
▁jeff	-10.4758
▁riff	-10.4758
▁internet	-10.4758
▁raju	-10.4759
▁passport	-10.476
▁childhood	-10.476
▁booth	-10.4761
▁josie	-10.4761
qu	-10.4761
▁core	-10.4761
▁kickass	-10.4762
▁thatd	-10.4763
▁fucks	-10.4763
▁curly	-10.4764
▁personality	-10.4764
▁ballet	-10.4764
▁reverse	-10.4765
▁fried	-10.4766
▁choke	-10.4768
▁preacher	-10.4774
▁niggas	-10.4776
▁buck	-10.4788
▁owl	-10.4788
tr	-10.479
▁bur	-10.4791
ada	-10.4794
▁survived	-10.4798
▁corps	-10.4808
king	-10.4809
▁ch	-10.4816
▁safer	-10.4822
▁shout	-10.4827
▁des	-10.4828
kin	-10.4831
ped	-10.4832
▁fighters	-10.4833
▁measure	-10.4833
▁beard	-10.4835
▁pia	-10.4836
▁mam	-10.4838
▁gloves	-10.4846
▁possession	-10.4848
▁escort	-10.4849
▁ju	-10.485
▁von	-10.485
▁comment	-10.4852
▁shotgun	-10.4852
▁villain	-10.4855
▁useful	-10.4859
▁payment	-10.4873
▁tu	-10.4877
▁ghosts	-10.4882
▁design	-10.4888
▁drives	-10.4891
▁ad	-10.4896
▁cloud	-10.4916
ise	-10.4942
▁lions	-10.4943
▁boxing	-10.4944
▁ca	-10.4948
boy	-10.4958
▁pirates	-10.4967
cha	-10.4968
▁lion	-10.4975
▁crow	-10.4978
▁cancel	-10.4986
▁bleed	-10.4986
▁smack	-10.4986
▁sh	-10.499
▁torture	-10.4995
▁stab	-10.4995
▁ultimate	-10.4999
▁permanent	-10.4999
▁scrap	-10.5004
▁permit	-10.5007
▁ashamed	-10.5008
▁hiccup	-10.5008
▁homicide	-10.5008
▁invitation	-10.5008
▁judah	-10.5008
▁messenger	-10.5008
▁mordor	-10.5008
▁purple	-10.5008
▁typical	-10.5008
▁pyle	-10.5008
▁agency	-10.5008
ky	-10.5008
▁beloved	-10.5008
▁oath	-10.5008
▁purse	-10.5008
▁offense	-10.5008
▁trinity	-10.5008
▁spencer	-10.5008
▁resistance	-10.5008
▁practically	-10.501
▁creaking	-10.5011
▁javi	-10.5011
▁josh	-10.5012
▁starling	-10.5013
▁nicole	-10.5016
▁currently	-10.5017
▁bored	-10.5017
▁exclaiming	-10.5018
▁assist	-10.5028
▁louise	-10.503
▁frances	-10.503
▁fights	-10.5036
▁baron	-10.5038
▁growls	-10.5039
io	-10.5057
og	-10.5062
▁bun	-10.5064
▁imagined	-10.5079
▁smaller	-10.508
▁pad	-10.508
▁horns	-10.508
▁ew	-10.508
▁considering	-10.5094
▁boot	-10.5098
▁arab	-10.5103
▁indian	-10.5103
▁profit	-10.5105
▁towel	-10.5107
▁banana	-10.5108
▁needle	-10.5108
▁shark	-10.5108
▁sheets	-10.511
▁cookies	-10.5118
looking	-10.5123
▁parked	-10.5126
▁tracking	-10.5128
▁tips	-10.5128
ax	-10.513
led	-10.5133
▁laying	-10.5136
▁shove	-10.5164
▁gasp	-10.5165
▁manners	-10.5181
▁joining	-10.519
▁nail	-10.5192
▁sayin	-10.5195
▁rider	-10.5197
▁clem	-10.5203
▁kissing	-10.5208
▁spook	-10.5229
▁jokes	-10.5234
▁gi	-10.5235
▁corn	-10.5236
▁scarlet	-10.5259
ois	-10.5262
▁tools	-10.5262
▁answered	-10.5263
▁revolution	-10.5263
▁album	-10.5264
▁anxious	-10.5264
▁conflict	-10.5264
▁fabulous	-10.5264
▁facility	-10.5264
▁hobbes	-10.5264
▁isabella	-10.5264
▁nelson	-10.5264
▁orleans	-10.5264
▁umbrella	-10.5264
▁coincidence	-10.5264
▁territory	-10.5264
▁melody	-10.5264
▁worship	-10.5264
▁fireworks	-10.5264
▁struck	-10.5265
▁raymond	-10.5265
▁suspicious	-10.5265
▁conlon	-10.5265
▁norton	-10.5265
▁lousy	-10.5265
▁oscar	-10.5265
▁poop	-10.5265
▁simba	-10.5265
▁swell	-10.5266
fi	-10.5266
▁selfish	-10.5266
▁fond	-10.5266
▁hayes	-10.5267
▁brooke	-10.5267
▁dropping	-10.5267
▁collection	-10.5268
▁basement	-10.5269
▁ark	-10.5271
▁nathan	-10.5275
▁lit	-10.5275
▁threatened	-10.5277
▁unable	-10.5277
▁particularly	-10.5279
▁bugger	-10.528
▁fredo	-10.5282
▁humor	-10.5283
▁fitz	-10.5299
▁tale	-10.53
lein	-10.5308
▁hum	-10.5317
▁mixed	-10.532
▁off	-10.532
▁revs	-10.5321
▁lala	-10.5337
▁answering	-10.5347
▁belly	-10.5356
▁bothering	-10.5357
▁dodge	-10.5363
bar	-10.5365
▁nerve	-10.537
▁barks	-10.5371
▁chamber	-10.5371
▁shadows	-10.5372
▁option	-10.5372
▁ty	-10.5374
▁fades	-10.5375
▁roars	-10.5381
▁rebel	-10.5386
ge	-10.54
▁zoo	-10.5419
▁wifes	-10.5422
ect	-10.5432
▁nos	-10.5435
▁capital	-10.544
▁fart	-10.5452
▁opera	-10.5473
mos	-10.5478
▁wee	-10.5479
bb	-10.5479
▁va	-10.5487
▁dime	-10.5493
end	-10.5497
just	-10.55
▁resist	-10.5505
▁kinds	-10.5509
▁targets	-10.5512
▁link	-10.5516
▁random	-10.5519
▁unlike	-10.5522
▁violin	-10.5527
▁wouid	-10.5528
▁anderson	-10.5528
▁elizabeth	-10.5528
▁executive	-10.5528
▁greek	-10.5528
▁hannibal	-10.5528
▁holmes	-10.5528
▁pleasant	-10.5528
▁procedure	-10.5528
▁rebecca	-10.5528
▁sanitation	-10.5528
▁kelly	-10.5528
▁travis	-10.5528
▁western	-10.5528
▁harold	-10.5528
▁sensitive	-10.5528
▁construction	-10.5528
▁spoon	-10.5528
▁stiff	-10.5528
▁gravity	-10.5528
▁fridge	-10.5528
▁nancy	-10.5528
▁diane	-10.5528
▁fletcher	-10.5528
▁thieves	-10.5528
▁supply	-10.5529
▁medication	-10.5529
▁formula	-10.5529
▁blah	-10.5529
▁crackling	-10.553
▁orbit	-10.553
▁spotted	-10.5531
▁marshall	-10.5531
▁poker	-10.5531
▁organized	-10.5532
▁auto	-10.5533
▁lap	-10.5536
▁active	-10.5537
like	-10.5538
▁willie	-10.5538
▁worthless	-10.5539
▁cia	-10.554
▁electrical	-10.5541
▁lick	-10.5542
▁there	-10.5547
▁log	-10.5548
▁planes	-10.5557
▁placed	-10.5558
▁eaten	-10.5559
▁kay	-10.556
su	-10.5565
▁williams	-10.5571
▁mil	-10.5575
▁beans	-10.5585
▁my	-10.5593
▁ee	-10.5608
ned	-10.5612
▁gunshots	-10.5613
▁murders	-10.562
ens	-10.5628
▁bump	-10.5628
▁snap	-10.5633
▁chapter	-10.5638
▁stare	-10.5639
▁safely	-10.5643
▁rabbit	-10.5644
ig	-10.5651
▁billion	-10.5653
▁boarding	-10.5667
▁he	-10.5671
▁lip	-10.5677
▁cheat	-10.569
▁nash	-10.5701
ock	-10.5716
▁feds	-10.5723
▁gut	-10.5725
▁returning	-10.5736
▁lands	-10.5752
▁olive	-10.5756
▁bra	-10.5763
▁function	-10.5764
▁nd	-10.5766
▁defeat	-10.5776
▁stress	-10.5777
▁arrange	-10.5784
▁crimes	-10.5784
▁tin	-10.5785
▁waves	-10.5785
▁manual	-10.5789
▁nic	-10.579
▁absolute	-10.579
▁lame	-10.579
▁workers	-10.5794
▁civil	-10.5797
▁eleven	-10.5797
▁cotton	-10.5798
▁appeal	-10.5798
▁awkward	-10.5798
▁balboa	-10.5798
▁bounty	-10.5798
▁breeze	-10.5798
▁hannah	-10.5798
▁influence	-10.5798
▁intense	-10.5798
▁lobster	-10.5798
▁paranoid	-10.5798
▁privacy	-10.5798
▁therefore	-10.5798
▁dennis	-10.5798
▁sunshine	-10.5798
▁constable	-10.5798
▁crisis	-10.5798
▁underground	-10.5798
▁repair	-10.5798
▁knuckles	-10.5798
▁marvelous	-10.5798
▁addition	-10.5798
▁slim	-10.5798
▁dagger	-10.5798
▁burger	-10.5798
▁aircraft	-10.5798
▁colorado	-10.5798
▁slipped	-10.5799
▁scum	-10.5799
▁bailey	-10.5799
▁hahaha	-10.5799
▁multiple	-10.5799
▁commitment	-10.5799
▁ellen	-10.58
▁oui	-10.5801
▁spain	-10.5803
▁thou	-10.5804
▁exhausted	-10.5806
▁chino	-10.5807
ities	-10.581
▁stable	-10.581
▁erase	-10.5811
▁strangers	-10.5815
▁chad	-10.5816
▁convinced	-10.5816
▁erin	-10.5821
▁finn	-10.5834
▁sarge	-10.5834
▁catching	-10.5843
▁stink	-10.5851
▁neat	-10.5852
what	-10.5854
▁rot	-10.5861
ke	-10.5862
▁explosives	-10.5873
▁stays	-10.5877
▁cubs	-10.5878
▁tap	-10.5892
op	-10.5892
▁computers	-10.591
▁tire	-10.5913
▁assignment	-10.5917
▁blanket	-10.5917
▁email	-10.5917
▁chopper	-10.5918
▁award	-10.592
▁convention	-10.5925
▁folk	-10.5927
iest	-10.5928
▁citizens	-10.593
▁socks	-10.5934
▁honored	-10.5937
▁romans	-10.5937
▁yay	-10.594
ron	-10.5944
▁prayer	-10.5947
▁troubles	-10.5959
ud	-10.5962
▁costs	-10.5963
▁messing	-10.5965
▁jumping	-10.5965
▁reporting	-10.5982
▁sheriffs	-10.5982
▁cared	-10.5983
ko	-10.5989
▁inc	-10.5992
ard	-10.6001
▁ze	-10.6019
▁enjoying	-10.602
▁insult	-10.6025
▁tuck	-10.6027
▁heal	-10.6029
▁gain	-10.603
▁commission	-10.6031
ell	-10.604
▁spray	-10.6046
▁accounts	-10.6055
▁whack	-10.6057
▁disguise	-10.6062
▁severe	-10.6062
▁deserves	-10.6066
▁messed	-10.6069
▁tow	-10.607
▁otto	-10.6072
▁council	-10.6074
▁benji	-10.6076
▁display	-10.6076
▁dynamite	-10.6076
▁furniture	-10.6076
▁instance	-10.6076
▁kludd	-10.6076
▁luggage	-10.6076
▁nineveh	-10.6076
▁randall	-10.6076
▁shrink	-10.6076
▁solution	-10.6076
▁headquarters	-10.6076
▁madeleine	-10.6076
▁southern	-10.6076
▁aisle	-10.6076
▁patience	-10.6076
▁robbed	-10.6076
▁alicia	-10.6076
▁distort	-10.6076
▁sauron	-10.6076
▁vault	-10.6076
▁minor	-10.6076
▁patterson	-10.6076
▁praise	-10.6076
▁estella	-10.6076
▁blake	-10.6076
▁burden	-10.6076
▁locksley	-10.6076
▁vader	-10.6076
▁backwards	-10.6076
▁bingo	-10.6076
▁gondor	-10.6076
▁loyalty	-10.6076
▁reese	-10.6077
▁duncan	-10.6077
▁kidnapping	-10.6077
▁beam	-10.6077
▁paperwork	-10.6077
▁fold	-10.6077
▁possibility	-10.6077
▁castro	-10.6079
▁digging	-10.6081
▁wrapped	-10.6081
▁allen	-10.6082
▁hong	-10.6084
▁connie	-10.6084
▁classic	-10.6084
▁moaning	-10.6089
▁ruby	-10.6097
▁sharply	-10.6098
▁forty	-10.6099
▁ricky	-10.6101
▁coco	-10.6107
▁wh	-10.6108
▁slap	-10.6111
▁lungs	-10.6114
▁honks	-10.6116
▁deadly	-10.6117
▁germany	-10.6117
▁era	-10.6123
▁fo	-10.6125
▁pulse	-10.6126
ore	-10.6127
▁granted	-10.6127
▁exclaims	-10.6136
▁chat	-10.6138
▁talks	-10.6159
▁creep	-10.6163
▁timing	-10.6164
▁ar	-10.617
▁cargo	-10.6177
▁swallow	-10.6179
▁cases	-10.6186
▁closet	-10.6189
we	-10.6194
▁occasion	-10.6196
▁mechanic	-10.62
▁lighter	-10.6201
▁championship	-10.6202
▁legend	-10.6202
▁elephant	-10.6202
▁motive	-10.6203
▁requires	-10.6206
ning	-10.6207
▁missile	-10.6209
▁degree	-10.6211
▁sc	-10.6232
▁hunter	-10.6232
▁recorded	-10.6236
▁sharks	-10.6247
▁ol	-10.6252
▁hardin	-10.6261
▁gal	-10.6272
▁interests	-10.6296
▁clowns	-10.6305
▁inter	-10.6305
▁attend	-10.6309
▁pump	-10.6312
▁teachers	-10.6313
ob	-10.6314
▁tigers	-10.6319
eyed	-10.6319
▁roads	-10.6319
▁burns	-10.632
▁rides	-10.6325
▁faint	-10.6328
ora	-10.6329
▁steer	-10.6333
▁queens	-10.6333
▁burst	-10.6334
▁conduct	-10.6335
tt	-10.6343
▁engage	-10.6347
▁brief	-10.6352
▁extreme	-10.6353
▁successful	-10.6354
▁negro	-10.6357
▁peaceful	-10.6358
▁institution	-10.636
▁vietnam	-10.6361
▁atlanta	-10.6361
▁atreides	-10.6361
▁audrey	-10.6361
▁companies	-10.6361
▁disease	-10.6361
▁jennifer	-10.6361
▁maverick	-10.6361
▁oswald	-10.6361
▁profile	-10.6361
▁quinn	-10.6361
▁similar	-10.6361
▁tournament	-10.6361
▁wednesday	-10.6361
▁mycroft	-10.6361
▁wallace	-10.6361
▁clarice	-10.6361
▁glorious	-10.6361
▁naughty	-10.6361
▁freezing	-10.6361
▁salute	-10.6361
▁briefcase	-10.6361
▁phase	-10.6361
▁apology	-10.6362
▁quality	-10.6362
▁polish	-10.6362
▁golf	-10.6362
▁sherman	-10.6362
▁jason	-10.6362
▁attractive	-10.6362
▁signature	-10.6362
▁entertainment	-10.6362
▁overnight	-10.6362
▁jewelry	-10.6362
▁denied	-10.6362
▁foley	-10.6362
▁sunset	-10.6362
▁deaf	-10.6362
▁whatll	-10.6363
▁imperial	-10.6363
▁stream	-10.6363
▁rhythmic	-10.6363
▁dishes	-10.6364
▁fraud	-10.6364
▁retreat	-10.6365
▁glen	-10.6365
▁stroke	-10.6366
▁passage	-10.6367
▁nearby	-10.6367
▁dating	-10.6373
▁hid	-10.6375
▁fl	-10.6379
▁kg	-10.638
▁sets	-10.638
▁casa	-10.6381
▁gig	-10.6382
▁limited	-10.6389
▁riot	-10.6389
▁oughta	-10.6389
▁murphy	-10.639
ito	-10.6392
▁com	-10.6392
▁quarters	-10.6396
▁deserved	-10.641
▁helpful	-10.641
▁drago	-10.6417
▁par	-10.642
▁foundation	-10.6421
▁gap	-10.6423
▁sniffs	-10.6432
▁skip	-10.6433
▁photograph	-10.6436
▁bella	-10.644
▁pretending	-10.6441
▁tri	-10.6446
▁lucas	-10.6447
▁winds	-10.6449
▁demons	-10.6457
▁grounds	-10.6463
▁jewels	-10.6464
▁guardians	-10.6464
▁bets	-10.6471
▁ka	-10.6476
▁of	-10.6482
▁fee	-10.6484
▁watches	-10.6488
ding	-10.6489
▁drops	-10.6495
▁crystal	-10.6495
▁defendant	-10.6496
▁hostage	-10.65
▁mill	-10.6504
▁ey	-10.6512
▁kicking	-10.6522
▁musician	-10.6526
▁vi	-10.653
▁diet	-10.6551
gs	-10.6552
▁nap	-10.6554
▁toes	-10.6563
▁environment	-10.6563
▁grows	-10.6564
▁dancer	-10.6567
▁reminds	-10.657
▁conditions	-10.6593
▁bears	-10.66
hood	-10.6606
▁reporters	-10.6609
field	-10.661
cat	-10.661
▁tellin	-10.661
for	-10.6616
foot	-10.6624
▁rode	-10.6629
▁intercept	-10.6633
▁et	-10.664
po	-10.6641
▁taik	-10.6641
▁urgent	-10.6646
▁branch	-10.6651
▁buildings	-10.6653
▁jerem	-10.6655
▁airplane	-10.6655
▁brandnew	-10.6655
▁catherine	-10.6655
▁clyde	-10.6655
▁dixon	-10.6655
▁fantasy	-10.6655
▁godfather	-10.6655
▁gracias	-10.6655
▁hudson	-10.6655
▁industry	-10.6655
▁satisfied	-10.6655
▁strict	-10.6655
▁uncomfortable	-10.6655
▁swiss	-10.6655
▁dibble	-10.6655
▁parole	-10.6655
▁medium	-10.6655
▁mcfly	-10.6656
▁temporary	-10.6656
▁slice	-10.6656
▁concept	-10.6656
▁grail	-10.6656
▁denver	-10.6656
▁helmet	-10.6656
▁caii	-10.6656
▁purge	-10.6656
▁halloween	-10.6656
▁compton	-10.6656
▁patch	-10.6656
▁makin	-10.6656
▁ruthless	-10.6656
▁transferred	-10.6657
▁maddie	-10.6657
▁porch	-10.6657
▁pension	-10.6658
▁sack	-10.666
▁paso	-10.666
▁aldo	-10.666
▁clattering	-10.666
▁inner	-10.6661
▁african	-10.6665
▁tech	-10.6666
hh	-10.6667
▁clip	-10.6667
▁piper	-10.6668
▁creepy	-10.6668
▁delighted	-10.6668
▁tempo	-10.6675
▁lex	-10.6677
▁marie	-10.6679
▁oops	-10.6681
▁removed	-10.6682
▁kara	-10.6683
▁sticks	-10.6684
▁setup	-10.6684
▁sealed	-10.6686
▁evey	-10.6688
oh	-10.669
▁refused	-10.669
▁wicked	-10.6693
▁knights	-10.6695
▁sobs	-10.67
▁dumped	-10.6702
▁kindness	-10.6704
▁loudly	-10.6705
▁victoria	-10.6706
▁whens	-10.6707
▁sew	-10.6714
ula	-10.6721
▁che	-10.6747
▁represent	-10.6749
▁crashing	-10.6752
▁rec	-10.6754
▁workin	-10.6755
▁bounce	-10.6755
▁skill	-10.6762
▁pr	-10.6767
▁newspapers	-10.677
▁positions	-10.6778
com	-10.6779
▁include	-10.6787
tu	-10.6788
▁equal	-10.679
▁visiting	-10.6797
▁argument	-10.6797
▁cliff	-10.6797
▁reservation	-10.6798
▁guinea	-10.6799
▁wizard	-10.68
▁scientist	-10.6802
▁patients	-10.6802
▁generation	-10.6805
▁suite	-10.6806
▁und	-10.6812
▁mon	-10.6812
ib	-10.682
▁pap	-10.6832
▁conn	-10.6853
ack	-10.6859
▁lend	-10.6865
▁this	-10.6868
▁bla	-10.6872
▁colors	-10.6876
▁hells	-10.688
my	-10.6881
▁broad	-10.6882
▁sticking	-10.6885
▁aha	-10.689
▁prints	-10.6891
▁nate	-10.6896
▁les	-10.69
ei	-10.6901
▁barn	-10.6903
▁document	-10.6907
board	-10.6921
ence	-10.6921
▁choices	-10.6922
▁wreck	-10.6936
▁succeed	-10.6937
▁dive	-10.6938
▁electric	-10.6941
▁ie	-10.6942
▁increase	-10.6945
▁ku	-10.6947
▁unfortunate	-10.695
▁term	-10.6954
▁officials	-10.6957
▁admiral	-10.6958
▁accurate	-10.6958
▁alliance	-10.6958
▁amsterdam	-10.6958
▁anonymous	-10.6958
▁bollocks	-10.6958
▁cackling	-10.6958
▁cortez	-10.6958
▁hyah	-10.6958
▁jakob	-10.6958
▁liquor	-10.6958
▁moscow	-10.6958
▁receipt	-10.6958
▁sinclair	-10.6958
▁swamp	-10.6958
▁tokyo	-10.6958
▁wagner	-10.6958
▁coffin	-10.6958
▁ambush	-10.6959
▁penguin	-10.6959
▁studied	-10.6959
▁whew	-10.6959
▁primary	-10.6959
▁hush	-10.6959
▁enforcement	-10.6959
▁wilson	-10.6959
▁arno	-10.6959
▁biff	-10.6959
▁static	-10.696
▁chaos	-10.696
▁wholl	-10.696
▁jurisdiction	-10.696
▁violation	-10.696
▁script	-10.696
▁harrison	-10.696
▁plantation	-10.6961
▁stepped	-10.6962
▁rex	-10.6962
▁obsessed	-10.6962
▁drew	-10.6962
▁speck	-10.6962
▁vito	-10.6963
▁straighten	-10.6963
▁fuss	-10.6964
▁treatment	-10.6964
▁katie	-10.6965
▁temper	-10.6966
▁cried	-10.6967
▁bait	-10.6968
▁ink	-10.6969
▁ham	-10.697
▁dune	-10.6974
▁yelps	-10.6976
▁sixth	-10.6976
▁internal	-10.6981
▁momma	-10.6983
ya	-10.699
▁zip	-10.6991
▁cheating	-10.6991
▁hoped	-10.6999
▁trailer	-10.7003
▁carson	-10.7003
▁highest	-10.7012
▁shitty	-10.7012
▁senor	-10.7021
▁juan	-10.7027
▁judges	-10.7029
▁orcs	-10.703
▁fellows	-10.7032
▁hardest	-10.7032
▁hans	-10.7052
▁bello	-10.7054
ram	-10.7054
▁sum	-10.7055
▁bolt	-10.7056
lu	-10.7058
▁ru	-10.7058
fully	-10.708
▁packing	-10.7101
▁pays	-10.7111
▁symbol	-10.7111
▁or	-10.7112
▁sausage	-10.7113
▁sock	-10.7113
▁thud	-10.7118
▁brake	-10.712
car	-10.713
▁scam	-10.7136
▁shown	-10.7138
▁pill	-10.7142
▁enjoyed	-10.7147
▁ac	-10.7149
▁ram	-10.715
ver	-10.7151
▁peg	-10.7157
▁familys	-10.7169
▁promises	-10.7174
▁dates	-10.7177
▁vehicles	-10.7178
▁pens	-10.72
▁presents	-10.7209
▁ra	-10.7217
ical	-10.7232
▁ir	-10.7233
wood	-10.7237
▁bargain	-10.7242
▁admire	-10.7249
▁armor	-10.7252
▁roy	-10.7256
fucking	-10.7257
▁actions	-10.7258
▁immediate	-10.7262
▁ages	-10.7263
▁recent	-10.7264
▁motherfuckin	-10.7269
▁roulet	-10.727
▁marian	-10.727
▁ter	-10.7271
▁rigg	-10.7271
▁essential	-10.7271
▁destruction	-10.7271
▁dignity	-10.7271
▁global	-10.7271
▁kahndaq	-10.7271
▁kansas	-10.7271
▁mafia	-10.7271
▁manhattan	-10.7271
▁perimeter	-10.7271
▁ralph	-10.7271
▁snoring	-10.7271
▁sophie	-10.7271
▁struggling	-10.7271
▁sullivan	-10.7271
▁sunrise	-10.7271
▁theft	-10.7271
▁stubborn	-10.7271
▁darius	-10.7271
▁exclusive	-10.7271
▁investigating	-10.7271
▁relations	-10.7271
▁telegram	-10.7271
▁popcorn	-10.7271
▁leather	-10.7271
▁humble	-10.7271
▁destination	-10.7271
▁bronx	-10.7271
▁pierce	-10.7272
▁latin	-10.7272
▁existence	-10.7272
▁punishment	-10.7272
▁edward	-10.7272
▁patty	-10.7272
▁youse	-10.7273
▁version	-10.7273
▁parade	-10.7273
▁owned	-10.7273
▁celebrating	-10.7273
▁cabinet	-10.7274
▁jedi	-10.7274
▁structure	-10.7274
▁altitude	-10.7274
▁potatoes	-10.7275
▁jesse	-10.7275
▁foolish	-10.7275
▁riddler	-10.7277
▁european	-10.7277
▁hallway	-10.7278
▁stations	-10.7278
▁hola	-10.7279
▁groups	-10.7279
▁verbal	-10.7279
▁squeaking	-10.728
▁bush	-10.728
▁shire	-10.728
▁bench	-10.7282
▁serving	-10.7283
▁resources	-10.7284
ak	-10.7285
▁discussion	-10.7285
▁related	-10.7286
▁twins	-10.7289
▁lila	-10.7291
ward	-10.7291
▁wanting	-10.7291
▁daddys	-10.7292
▁shawn	-10.7293
▁skirt	-10.7293
▁quest	-10.7294
▁cursed	-10.7299
▁divorced	-10.7299
▁burnt	-10.7302
▁stinking	-10.7304
▁stake	-10.7311
▁whoops	-10.7319
▁lessons	-10.7335
▁meantime	-10.7336
▁driven	-10.7345
▁stu	-10.7346
▁painted	-10.7346
▁wishes	-10.7348
▁gil	-10.735
rt	-10.7352
▁prom	-10.7352
ble	-10.7372
▁waters	-10.7374
▁nicely	-10.738
▁comp	-10.738
▁searched	-10.7392
▁clan	-10.7396
▁cr	-10.7396
▁depend	-10.7408
▁exists	-10.7409
▁spoil	-10.7411
▁hips	-10.7416
▁article	-10.7432
▁struggle	-10.7432
▁faggot	-10.7432
▁marked	-10.7435
▁web	-10.7435
▁benefit	-10.7435
▁soviet	-10.7435
za	-10.7436
▁worm	-10.7437
▁citizen	-10.7438
▁missiles	-10.7446
▁timeout	-10.745
▁vow	-10.7451
▁makeup	-10.7452
▁dancers	-10.7452
▁nails	-10.7467
▁mende	-10.7469
▁mis	-10.747
tes	-10.7483
den	-10.7491
▁mist	-10.7493
work	-10.7506
▁arrives	-10.7511
▁cousins	-10.7522
▁on	-10.7522
ag	-10.7528
▁geez	-10.7546
▁forms	-10.7554
book	-10.7556
ns	-10.7559
▁register	-10.7573
ery	-10.7576
dy	-10.7585
▁riva	-10.7586
▁impress	-10.7592
▁eject	-10.7592
▁prevent	-10.7592
▁trent	-10.7592
▁contest	-10.7593
▁horror	-10.7594
▁aragorn	-10.7594
▁behave	-10.7594
▁bernstein	-10.7594
▁beverly	-10.7594
▁crawford	-10.7594
▁description	-10.7594
▁fountain	-10.7594
▁gambling	-10.7594
▁globo	-10.7594
▁harvard	-10.7594
▁horizon	-10.7594
▁iittie	-10.7594
▁nixon	-10.7594
▁protocol	-10.7594
▁psychiatrist	-10.7594
▁sionis	-10.7594
▁skywalker	-10.7594
▁stewart	-10.7594
▁gently	-10.7594
▁facing	-10.7594
▁groove	-10.7594
▁stallworth	-10.7594
▁enormous	-10.7594
▁worries	-10.7594
▁davis	-10.7594
▁civilization	-10.7594
▁eerie	-10.7594
▁alexander	-10.7594
▁curtis	-10.7594
▁wiii	-10.7594
▁candie	-10.7594
▁batteries	-10.7594
▁olaf	-10.7594
▁injured	-10.7594
▁basis	-10.7594
▁grimm	-10.7594
▁winston	-10.7595
▁subway	-10.7595
▁collar	-10.7595
▁axel	-10.7596
▁bonus	-10.7596
▁lifeguard	-10.7596
▁feelin	-10.7596
▁skies	-10.7597
▁virginie	-10.7597
▁donna	-10.7597
▁hesitate	-10.7598
▁elves	-10.7599
▁dentist	-10.7599
▁livin	-10.7599
▁inches	-10.7599
▁publicity	-10.76
▁determined	-10.7603
▁captured	-10.7603
▁appropriate	-10.7603
▁seventh	-10.7604
▁waitress	-10.7604
▁vain	-10.7604
▁ticking	-10.7605
▁ahem	-10.7607
▁doobi	-10.7609
▁rv	-10.7609
▁replaced	-10.7613
▁consequences	-10.7617
▁quid	-10.7619
▁highness	-10.762
▁classes	-10.7626
▁whys	-10.7627
▁mistaken	-10.7632
▁waiter	-10.7635
▁asks	-10.7638
▁suffered	-10.7639
▁pita	-10.7639
▁entered	-10.7649
▁persons	-10.7654
bi	-10.7656
uck	-10.7663
▁dock	-10.7664
hand	-10.7669
▁dicky	-10.7682
arious	-10.7683
▁losers	-10.7684
▁gotcha	-10.7689
▁flavor	-10.7692
▁questioning	-10.7697
▁je	-10.77
ado	-10.77
▁bombing	-10.7712
▁hiya	-10.7721
▁ke	-10.7728
▁vern	-10.7739
jo	-10.7755
▁require	-10.7759
▁yu	-10.7764
▁commercial	-10.7766
▁statue	-10.7768
▁relative	-10.7768
nc	-10.7769
▁bobble	-10.7769
▁beside	-10.7773
▁butcher	-10.7777
▁stinks	-10.7779
▁lookout	-10.7782
▁asset	-10.7784
▁jamies	-10.7791
▁farmer	-10.7799
▁operations	-10.7807
▁cart	-10.782
▁dreamed	-10.7827
▁soo	-10.7838
▁ser	-10.784
con	-10.7841
▁herb	-10.7847
gue	-10.7856
▁results	-10.7867
▁drown	-10.7877
▁mines	-10.7891
▁cent	-10.7893
can	-10.7894
▁monitor	-10.7898
▁flood	-10.7898
box	-10.7902
▁draft	-10.7904
▁approve	-10.7914
▁technical	-10.7918
▁journal	-10.7924
▁adrian	-10.7926
room	-10.7926
▁protest	-10.7926
▁confident	-10.7927
▁torn	-10.7927
▁arrival	-10.7927
▁believing	-10.7927
▁ceiling	-10.7927
▁defence	-10.7927
▁eudoria	-10.7927
▁guidance	-10.7927
▁happily	-10.7927
▁horace	-10.7927
▁marmalade	-10.7927
▁precinct	-10.7927
▁precrime	-10.7927
▁preparing	-10.7927
▁taehun	-10.7927
▁tremendous	-10.7927
▁vaughn	-10.7927
▁astro	-10.7927
▁beneath	-10.7927
▁bureau	-10.7927
▁mistress	-10.7927
▁totoro	-10.7927
▁jenny	-10.7927
▁scumbag	-10.7927
▁zoobi	-10.7927
▁eastern	-10.7927
▁jung	-10.7927
▁election	-10.7927
▁barnier	-10.7927
▁festival	-10.7927
▁assistance	-10.7927
▁upper	-10.7928
▁species	-10.7928
▁pierre	-10.7928
▁waking	-10.7928
▁sixteen	-10.7928
▁unique	-10.7928
▁massive	-10.7928
▁elliott	-10.7928
▁soil	-10.7928
▁surgeon	-10.7929
▁leeds	-10.7929
▁sector	-10.7929
▁rookie	-10.7929
▁romance	-10.793
▁barber	-10.793
▁error	-10.793
▁pub	-10.793
▁nba	-10.7932
▁thirsty	-10.7933
▁craft	-10.7934
▁grabbed	-10.7934
▁assigned	-10.7934
▁region	-10.7935
▁pacific	-10.7935
▁dna	-10.7935
▁dover	-10.7937
▁ciao	-10.7938
▁brat	-10.7942
▁ri	-10.795
▁lovers	-10.7951
▁wounds	-10.7952
▁echoing	-10.7953
▁photographer	-10.7957
▁factor	-10.7959
▁bare	-10.7961
▁fingerprints	-10.7962
▁sang	-10.7962
▁ph	-10.7966
▁tomb	-10.7967
▁supplies	-10.7967
▁bent	-10.7968
▁talented	-10.7979
▁insisted	-10.798
▁tube	-10.7981
▁cells	-10.7986
▁baggins	-10.7987
▁howdy	-10.7993
▁completed	-10.7993
▁gu	-10.7993
▁focused	-10.7995
▁tan	-10.7997
ps	-10.7999
ab	-10.8
▁merci	-10.8004
▁listened	-10.8015
▁deals	-10.8015
▁hobbits	-10.8017
▁rumors	-10.8021
▁es	-10.8021
▁tab	-10.8024
ls	-10.8024
mm	-10.8027
▁lapd	-10.8028
▁puts	-10.804
▁knocks	-10.8042
▁aaah	-10.8045
▁sting	-10.8048
port	-10.8053
▁wade	-10.8059
▁feeding	-10.806
▁hairy	-10.8077
▁roar	-10.809
ler	-10.8091
▁paw	-10.8092
▁scan	-10.8093
ja	-10.8096
▁cor	-10.8104
▁museum	-10.8111
▁howl	-10.8114
▁intention	-10.8115
▁kin	-10.8127
▁options	-10.8129
uc	-10.8137
▁sch	-10.8141
▁coin	-10.8142
▁drawer	-10.8145
▁bottles	-10.8152
▁tales	-10.8166
▁lin	-10.8169
ire	-10.8169
tter	-10.8171
▁fr	-10.8173
▁gifts	-10.8183
▁finishing	-10.8186
az	-10.8188
▁august	-10.8194
▁israel	-10.82
▁contacts	-10.8204
▁discover	-10.8208
fe	-10.8225
called	-10.8236
▁tunnels	-10.8253
▁obey	-10.8258
▁barrie	-10.8258
▁guilt	-10.8258
▁seize	-10.8261
▁independent	-10.8263
▁prior	-10.8264
▁speaker	-10.8264
right	-10.8265
▁profession	-10.8267
▁peculiar	-10.8271
▁brutal	-10.8271
▁bilbo	-10.8272
▁bishop	-10.8272
▁conspiracy	-10.8272
▁divine	-10.8272
▁einstein	-10.8272
▁lincoln	-10.8272
▁lunatic	-10.8272
▁residence	-10.8272
▁strickland	-10.8272
▁vengeance	-10.8272
▁chancellor	-10.8272
▁muttering	-10.8272
▁application	-10.8272
▁aslan	-10.8272
▁stabbed	-10.8272
▁straw	-10.8272
▁ventura	-10.8272
▁corrie	-10.8272
▁bubba	-10.8272
▁leap	-10.8272
▁celebration	-10.8272
▁judy	-10.8272
▁willow	-10.8272
▁laurie	-10.8272
▁scotch	-10.8272
▁piease	-10.8272
▁vital	-10.8272
▁ripped	-10.8272
▁unhappy	-10.8272
▁investment	-10.8273
▁bracelet	-10.8273
▁noah	-10.8273
▁ga	-10.8273
▁cherry	-10.8274
▁begun	-10.8274
▁culture	-10.8275
▁brass	-10.8275
▁marla	-10.8276
▁carrier	-10.8276
▁fries	-10.8277
▁hitler	-10.8278
▁mack	-10.828
▁retarded	-10.8283
▁greedy	-10.8283
▁accused	-10.8284
▁thee	-10.8285
▁pale	-10.8286
▁cue	-10.8286
▁witches	-10.8287
▁mustard	-10.8287
▁liesl	-10.8287
▁arranged	-10.8288
cl	-10.8289
▁cal	-10.8289
▁mint	-10.829
▁diego	-10.8291
▁rig	-10.8291
▁clothing	-10.8292
▁mc	-10.8294
▁beaten	-10.8295
ons	-10.8298
▁chimes	-10.8302
▁sadie	-10.8303
▁gr	-10.8307
▁lara	-10.8308
▁introduced	-10.8309
▁goodnight	-10.8317
▁coma	-10.8319
▁billboards	-10.8319
▁keyser	-10.8325
▁shutter	-10.8326
▁bron	-10.8331
hi	-10.8337
▁qui	-10.8344
ries	-10.8345
two	-10.835
▁colored	-10.8356
▁girlfriends	-10.8356
▁smarter	-10.8358
▁pu	-10.8383
▁methods	-10.8386
▁zoom	-10.8404
▁beats	-10.841
▁treating	-10.841
▁worthy	-10.8432
▁wig	-10.8437
▁y	-10.846
▁tribe	-10.847
▁matthew	-10.847
▁barrel	-10.8471
▁circuit	-10.8474
▁rebels	-10.848
▁corpse	-10.8482
▁uma	-10.8485
▁hopes	-10.8486
▁and	-10.8487
▁gar	-10.8489
▁whale	-10.8496
▁comic	-10.8496
▁pages	-10.8503
ade	-10.8505
▁not	-10.8507
▁nazi	-10.8509
▁sucker	-10.8517
▁here	-10.8518
▁bon	-10.8531
ure	-10.8548
▁mara	-10.8552
down	-10.8561
▁aliens	-10.8564
▁germans	-10.8567
▁dispatch	-10.8574
▁slaves	-10.8582
ux	-10.8587
▁eazy	-10.8588
▁echo	-10.8598
school	-10.8603
maker	-10.8603
▁flush	-10.8607
▁delay	-10.861
▁purchase	-10.8615
▁graduate	-10.8616
▁incredibl	-10.862
▁potato	-10.8625
▁ruth	-10.8629
▁advisor	-10.8629
▁aggressive	-10.8629
▁canyon	-10.8629
▁inaudible	-10.8629
▁jessica	-10.8629
▁juvenile	-10.8629
▁klaus	-10.8629
▁lobby	-10.8629
▁marsellus	-10.8629
▁mtumbie	-10.8629
▁rainbow	-10.8629
▁stevie	-10.8629
▁session	-10.8629
▁throne	-10.8629
▁chalk	-10.8629
▁arriving	-10.8629
▁mustache	-10.8629
▁silk	-10.8629
▁brace	-10.8629
▁misery	-10.8629
▁woah	-10.8629
▁burke	-10.8629
▁pumpkin	-10.8629
▁dragonfly	-10.8629
▁transmission	-10.8629
▁fade	-10.8629
▁pursuit	-10.8629
▁vibe	-10.863
▁specifically	-10.863
▁booze	-10.863
▁clara	-10.863
▁rising	-10.863
▁toad	-10.863
▁operating	-10.863
▁massage	-10.863
▁june	-10.863
▁classified	-10.863
▁ouch	-10.863
▁lockdown	-10.863
▁atlantic	-10.863
▁haircut	-10.863
▁production	-10.863
▁scent	-10.8631
▁hutch	-10.8631
▁racket	-10.8631
▁accountant	-10.8631
▁sunny	-10.8633
▁alike	-10.8634
▁fax	-10.8635
▁kit	-10.8635
▁dante	-10.8636
▁limo	-10.8637
▁mobile	-10.8637
▁peterson	-10.8638
▁uhuh	-10.8638
▁nu	-10.8638
▁bowers	-10.8639
▁mona	-10.8642
▁coal	-10.8645
▁thumping	-10.8646
▁bert	-10.8646
▁mayday	-10.8647
▁haul	-10.8648
▁advanced	-10.8649
▁trapp	-10.8651
▁floating	-10.8655
▁moses	-10.8661
▁goddamned	-10.8662
▁informed	-10.8665
▁shave	-10.8666
▁ranch	-10.8676
▁ele	-10.8683
▁carter	-10.8687
▁trooper	-10.8687
▁beasts	-10.8694
▁scaring	-10.87
▁jr	-10.8701
▁haller	-10.8708
▁types	-10.8711
ame	-10.8712
▁emotions	-10.8712
▁coordinates	-10.8715
ex	-10.8717
▁owes	-10.8726
▁louder	-10.873
▁organ	-10.8731
▁belonged	-10.8731
▁worker	-10.8732
▁homes	-10.8733
▁quicker	-10.874
let	-10.8741
▁ins	-10.8742
▁cigar	-10.875
▁shovel	-10.8752
▁passengers	-10.8753
▁chen	-10.8758
▁sales	-10.877
▁sucking	-10.8777
▁ou	-10.8778
▁what	-10.8787
▁cali	-10.8816
▁hah	-10.8819
▁compete	-10.8823
▁associate	-10.8825
▁individual	-10.8832
▁rosa	-10.8834
her	-10.8835
▁naive	-10.8837
▁plug	-10.8837
eth	-10.8838
▁satellite	-10.8839
▁sniper	-10.8839
all	-10.8843
▁height	-10.8844
▁closely	-10.8844
▁spa	-10.8844
▁mmmm	-10.8849
▁cookie	-10.8852
tre	-10.8857
▁pd	-10.8858
▁gene	-10.8862
ors	-10.8863
▁pulls	-10.8869
▁sends	-10.887
▁trips	-10.8872
▁blades	-10.8881
▁guessing	-10.8882
▁millers	-10.8887
▁temp	-10.8893
▁operate	-10.8912
▁hip	-10.8919
▁sides	-10.8922
fuck	-10.8938
▁condo	-10.8941
▁nada	-10.8944
▁dee	-10.8953
▁cocks	-10.8959
free	-10.8964
▁ducks	-10.8968
▁iook	-10.8971
seven	-10.8973
▁thrill	-10.8978
▁wax	-10.898
▁announce	-10.8985
▁divide	-10.8986
▁advise	-10.8986
▁coop	-10.8988
▁frame	-10.899
▁handed	-10.8993
▁superhero	-10.8995
▁ellis	-10.8995
▁orchestra	-10.8995
▁counsel	-10.8995
▁actress	-10.8996
▁rhythm	-10.8997
▁grocer	-10.8998
▁tragic	-10.8999
▁douche	-10.8999
▁jelly	-10.8999
▁apologies	-10.8999
▁arrakis	-10.8999
▁astrid	-10.8999
▁bartender	-10.8999
▁darrin	-10.8999
▁dewald	-10.8999
▁essence	-10.8999
▁gertrude	-10.8999
▁gracie	-10.8999
▁lieberman	-10.8999
▁mathilda	-10.8999
▁receiving	-10.8999
▁relief	-10.8999
▁saruman	-10.8999
▁strategy	-10.8999
▁supreme	-10.8999
▁amateur	-10.8999
▁gossip	-10.8999
▁stratton	-10.8999
▁clerk	-10.8999
▁capacity	-10.8999
▁daesu	-10.8999
▁spiritual	-10.8999
▁naomi	-10.8999
▁oconnor	-10.8999
▁feature	-10.8999
▁drank	-10.8999
▁zach	-10.8999
▁rogue	-10.8999
▁buddies	-10.9
▁religion	-10.9
▁occurred	-10.9
▁adorable	-10.9
▁salvation	-10.9
▁puff	-10.9
▁beak	-10.9
▁ladder	-10.9
▁shaking	-10.9
▁ratchett	-10.9
▁tej	-10.9
▁dominic	-10.9001
▁drama	-10.9001
▁engagement	-10.9001
▁sven	-10.9001
▁mav	-10.9001
▁vicious	-10.9001
▁jeanine	-10.9002
▁scouts	-10.9002
▁management	-10.9003
▁betsie	-10.9003
▁ent	-10.9003
▁sober	-10.9003
▁tore	-10.9003
▁controlled	-10.9003
▁todd	-10.9004
▁whining	-10.9004
▁nothings	-10.9004
▁dimitri	-10.9005
▁opal	-10.9005
▁classical	-10.9006
▁stunt	-10.9007
▁inspired	-10.9007
▁wolves	-10.9008
▁tailor	-10.9009
▁puke	-10.9009
▁chap	-10.901
▁haunted	-10.901
▁hugh	-10.9012
▁ego	-10.9012
▁located	-10.9013
▁spice	-10.9014
▁trousers	-10.9014
▁uniforms	-10.9015
▁matches	-10.9021
▁bald	-10.9021
▁tender	-10.9021
▁instrumenta	-10.9024
▁registered	-10.9024
▁hellno	-10.9032
▁pickup	-10.9033
▁triple	-10.9037
▁shields	-10.9039
▁boil	-10.9045
▁it	-10.9048
▁rely	-10.9056
▁raped	-10.9056
▁knots	-10.9056
▁collecting	-10.9058
▁businessman	-10.9058
▁hutu	-10.9061
▁survivors	-10.9074
▁proved	-10.9075
▁shortly	-10.9085
▁taro	-10.9085
▁jingles	-10.9086
▁greetings	-10.9086
▁letty	-10.9091
▁ab	-10.9094
▁races	-10.9103
▁figures	-10.9105
▁sore	-10.9115
▁hoo	-10.9118
br	-10.912
gi	-10.9126
▁fist	-10.9134
ven	-10.9144
bs	-10.9148
▁jar	-10.9156
▁pine	-10.9163
▁sigh	-10.9177
▁goat	-10.9187
▁you	-10.9188
▁shoulders	-10.9206
▁bee	-10.9208
▁robber	-10.9212
▁bark	-10.9216
▁au	-10.9217
▁reference	-10.9223
▁superior	-10.9223
▁prayers	-10.9224
▁pencil	-10.9224
▁orphan	-10.9227
▁employee	-10.9227
▁sheet	-10.9228
▁wondered	-10.923
▁complaint	-10.9234
▁mer	-10.9243
▁me	-10.9252
▁fuckers	-10.9257
▁herd	-10.9267
▁schools	-10.9277
▁mamas	-10.9288
gen	-10.929
▁tables	-10.929
▁lords	-10.9298
▁dip	-10.9303
night	-10.9307
▁mor	-10.9308
▁comet	-10.9312
star	-10.9314
▁ec	-10.9317
▁believes	-10.9325
▁disappoint	-10.9332
▁disturb	-10.9333
▁maker	-10.9344
▁blond	-10.9344
▁wires	-10.9346
▁herr	-10.9357
▁ditch	-10.9358
▁pour	-10.9358
▁produce	-10.9365
▁float	-10.9365
ford	-10.9369
▁fleur	-10.9371
▁wealth	-10.9371
▁childs	-10.9372
▁wander	-10.9374
▁constant	-10.9375
▁greed	-10.9376
▁luis	-10.9378
▁medic	-10.9378
▁whoohoo	-10.9381
▁julie	-10.9381
▁movin	-10.9383
▁tooth	-10.9383
▁kurt	-10.9383
▁afterwards	-10.9384
▁approval	-10.9384
▁april	-10.9384
▁blackmail	-10.9384
▁boogie	-10.9384
▁centuries	-10.9384
▁couid	-10.9384
▁december	-10.9384
▁embrace	-10.9384
▁fremen	-10.9384
▁froggy	-10.9384
▁ikioi	-10.9384
▁johanna	-10.9384
▁kelani	-10.9384
▁knives	-10.9384
▁leprechaun	-10.9384
▁mortgage	-10.9384
▁oxygen	-10.9384
▁purrbles	-10.9384
▁stammers	-10.9384
▁wisdom	-10.9384
▁reckless	-10.9384
▁jolly	-10.9384
▁anchor	-10.9384
▁ernie	-10.9384
▁sylvia	-10.9384
▁religious	-10.9384
▁scholarship	-10.9384
▁darien	-10.9384
▁meteorite	-10.9384
▁martinez	-10.9384
▁rohan	-10.9384
▁cheque	-10.9384
▁tutsi	-10.9384
▁entry	-10.9385
▁indy	-10.9385
▁elaine	-10.9385
▁omar	-10.9385
▁salary	-10.9385
▁terry	-10.9385
▁curtain	-10.9385
▁jaw	-10.9386
▁tuna	-10.9386
▁centre	-10.9386
▁lightyear	-10.9387
▁chess	-10.9387
▁cities	-10.9387
▁elton	-10.9387
▁roth	-10.9387
▁identified	-10.9388
▁dedicated	-10.9388
▁xu	-10.9388
▁angeline	-10.939
▁mable	-10.939
▁tango	-10.9391
▁lifeboat	-10.9392
▁expression	-10.9394
▁dismissed	-10.9397
▁developed	-10.9398
burg	-10.9398
▁madness	-10.9398
▁tide	-10.9402
▁iim	-10.9404
▁mansion	-10.9407
▁thus	-10.9413
▁cured	-10.9415
▁tastes	-10.9419
▁pond	-10.9421
▁gathered	-10.9427
▁cooperate	-10.9433
▁bb	-10.9434
▁kindly	-10.9443
▁zed	-10.9444
▁lawn	-10.9447
▁aa	-10.9448
▁nailed	-10.945
▁catches	-10.9453
ik	-10.9455
▁poisoned	-10.9458
▁shocking	-10.9459
▁closest	-10.9463
▁climbing	-10.9467
▁jad	-10.9468
▁honesty	-10.9472
ana	-10.9472
▁threats	-10.9474
ney	-10.9487
▁wally	-10.9493
but	-10.9497
▁dicks	-10.9499
▁bass	-10.9499
▁hank	-10.9504
▁faithful	-10.951
▁li	-10.9513
▁product	-10.9516
▁trans	-10.952
▁warriors	-10.9524
▁misses	-10.9534
▁ahhh	-10.9548
▁tested	-10.9553
▁nazis	-10.9556
ating	-10.9557
▁sid	-10.9565
pla	-10.957
▁gin	-10.9575
▁wars	-10.9579
low	-10.9585
▁meters	-10.9586
▁bikes	-10.9589
▁explained	-10.9591
▁dressing	-10.9593
▁laughed	-10.9593
▁cheek	-10.9611
ppy	-10.962
▁rehearsal	-10.9621
▁blank	-10.9622
▁length	-10.9625
▁indians	-10.9625
▁relaxed	-10.9625
▁maneuver	-10.9625
▁exam	-10.9625
▁instinct	-10.9626
▁enterprise	-10.9626
▁devon	-10.9627
▁kray	-10.9627
▁rumble	-10.9627
und	-10.9628
▁element	-10.9628
▁flame	-10.9629
▁val	-10.963
▁root	-10.9635
▁visitor	-10.9639
hole	-10.9643
▁slam	-10.9644
aw	-10.9648
▁hee	-10.9659
▁strings	-10.9669
ible	-10.9677
▁tub	-10.9681
away	-10.9682
▁covering	-10.9701
▁pointing	-10.9703
▁rep	-10.9705
▁funds	-10.9718
ister	-10.9723
▁beers	-10.9747
▁jos	-10.9757
▁leaders	-10.9757
three	-10.9757
▁cuts	-10.9758
around	-10.9761
ator	-10.9767
▁bribe	-10.977
load	-10.9771
▁creative	-10.9775
▁gabriel	-10.9776
▁remote	-10.9776
berg	-10.9777
▁dimitr	-10.9778
▁gam	-10.9783
▁cannon	-10.9783
▁widow	-10.9784
▁amelia	-10.9784
▁autograph	-10.9784
▁becca	-10.9784
▁burchard	-10.9784
▁carriage	-10.9784
▁clifton	-10.9784
▁dolores	-10.9784
▁echelon	-10.9784
▁endurance	-10.9784
▁galaxy	-10.9784
▁genuine	-10.9784
▁grief	-10.9784
▁griffith	-10.9784
▁identify	-10.9784
▁itomori	-10.9784
▁meanwhile	-10.9784
▁montoya	-10.9784
▁peggy	-10.9784
▁rosebud	-10.9784
▁shakespeare	-10.9784
▁tatiana	-10.9784
▁tenneray	-10.9784
▁wilhelm	-10.9784
▁xray	-10.9784
▁chloe	-10.9784
▁descend	-10.9784
▁fbl	-10.9784
▁ninth	-10.9784
▁tamra	-10.9784
▁violet	-10.9784
▁zasa	-10.9784
▁october	-10.9784
▁pedro	-10.9784
▁roast	-10.9784
▁coisa	-10.9784
▁impact	-10.9784
▁matrix	-10.9784
▁narrow	-10.9784
▁trauma	-10.9784
▁warren	-10.9784
▁picnic	-10.9784
▁lottery	-10.9784
▁courtesy	-10.9784
▁turkish	-10.9784
▁verify	-10.9784
▁beware	-10.9784
▁mildred	-10.9784
▁binky	-10.9784
▁minimum	-10.9784
▁pacino	-10.9784
▁kiii	-10.9784
▁incoming	-10.9784
▁righteous	-10.9784
▁solomon	-10.9784
▁spacecraft	-10.9784
▁muito	-10.9784
▁proposition	-10.9784
▁serial	-10.9784
▁flare	-10.9784
▁blaze	-10.9784
▁creation	-10.9785
▁vamos	-10.9785
▁harbor	-10.9785
▁kali	-10.9785
▁overboard	-10.9785
▁wildhorn	-10.9785
▁personnel	-10.9785
▁dragged	-10.9785
▁senate	-10.9785
▁klan	-10.9785
▁beings	-10.9785
▁sentimental	-10.9786
▁delicate	-10.9786
nine	-10.9786
▁motes	-10.9786
▁groom	-10.9786
▁karl	-10.9786
▁raw	-10.9786
▁poem	-10.9786
▁leaf	-10.9787
▁ferry	-10.9788
▁dj	-10.9788
▁leia	-10.9788
▁scarf	-10.9789
▁appetite	-10.9789
▁amon	-10.9789
▁giuseppe	-10.9791
▁chargers	-10.9792
▁fork	-10.9792
▁becky	-10.9793
▁elected	-10.9793
▁bunker	-10.9795
▁fascinating	-10.9795
▁annoying	-10.9796
▁adopted	-10.9797
▁shipment	-10.9797
▁clanging	-10.9799
▁campus	-10.9799
▁como	-10.9799
▁claims	-10.9801
▁norm	-10.9802
▁forgetting	-10.9804
▁tortured	-10.9805
▁copies	-10.9806
▁jc	-10.9807
▁shutting	-10.9807
▁drowned	-10.981
▁lily	-10.9816
▁sua	-10.9816
▁goanna	-10.9816
▁dana	-10.9819
▁poke	-10.9819
▁clatters	-10.982
ker	-10.9821
▁dish	-10.9822
▁shoo	-10.9822
▁endless	-10.9827
▁talents	-10.9827
▁hump	-10.9828
▁dang	-10.9842
how	-10.9843
▁conversations	-10.9845
▁defending	-10.9846
▁mina	-10.9848
bre	-10.9854
▁sneaking	-10.9855
ran	-10.9867
▁bem	-10.9871
▁switched	-10.9873
▁unto	-10.9873
ory	-10.9878
▁crashed	-10.9885
▁instruments	-10.989
▁blocked	-10.989
▁springs	-10.989
▁carries	-10.989
▁ohio	-10.9891
▁remaining	-10.9895
▁posted	-10.99
▁banker	-10.9901
▁loading	-10.9905
top	-10.9917
▁mag	-10.9918
▁drums	-10.993
▁buster	-10.993
▁holds	-10.9935
▁rumbles	-10.9943
▁elements	-10.9943
fa	-10.9949
▁mop	-10.9955
▁killers	-10.9956
▁differently	-10.9964
las	-10.9967
▁cows	-10.9969
▁intentions	-10.9969
▁eva	-10.9979
tch	-10.9998
▁reaching	-10.9998
▁ian	-11
▁ro	-11.0001
▁hostages	-11.0002
▁menu	-11.0004
▁trains	-11.0025
▁custom	-11.0028
▁surprises	-11.0035
▁raining	-11.0036
ters	-11.0037
▁thug	-11.004
▁villains	-11.0041
▁costello	-11.0042
▁thread	-11.0042
▁compliment	-11.0042
▁bodyguard	-11.0042
▁stamp	-11.0043
▁resident	-11.0043
▁item	-11.0044
▁sailor	-11.0047
▁fortunate	-11.005
▁snakes	-11.0052
▁marines	-11.0055
▁terror	-11.006
▁limits	-11.0068
▁nun	-11.0075
▁affairs	-11.0087
▁spots	-11.0092
▁tem	-11.0121
▁cleaner	-11.0121
ative	-11.0135
▁recover	-11.0138
face	-11.0155
▁monkeys	-11.0159
▁dealers	-11.016
▁flee	-11.0166
▁disrespect	-11.0181
phone	-11.0183
▁throws	-11.0183
▁fame	-11.019
▁sittin	-11.0198
▁runnin	-11.0198
▁disagree	-11.0199
▁weep	-11.0199
▁occur	-11.02
▁alabama	-11.0201
▁apprentice	-11.0201
▁arizona	-11.0201
▁bicycle	-11.0201
▁ceremony	-11.0201
▁cleveland	-11.0201
▁cricket	-11.0201
▁eternal	-11.0201
▁eternity	-11.0201
▁frederick	-11.0201
▁juicy	-11.0201
▁lopez	-11.0201
▁narcotics	-11.0201
▁nottingham	-11.0201
▁november	-11.0201
▁pellet	-11.0201
▁population	-11.0201
▁probiem	-11.0201
▁quarrel	-11.0201
▁saiwing	-11.0201
▁santiago	-11.0201
▁september	-11.0201
▁sequence	-11.0201
▁shouid	-11.0201
▁switzerland	-11.0201
▁terrified	-11.0201
▁tobias	-11.0201
▁vacuum	-11.0201
▁verdict	-11.0201
▁witwer	-11.0201
▁wolken	-11.0201
▁howre	-11.0201
▁maroni	-11.0201
▁yacht	-11.0201
▁eighteen	-11.0201
▁montana	-11.0201
▁perkins	-11.0201
▁creating	-11.0201
▁stacy	-11.0201
▁activity	-11.0201
▁lizard	-11.0201
▁milady	-11.0201
▁observation	-11.0201
▁behold	-11.0201
▁donald	-11.0201
▁janice	-11.0201
▁selina	-11.0201
▁sharing	-11.0201
▁leslie	-11.0201
▁spock	-11.0201
▁typing	-11.0201
▁delightful	-11.0201
▁susu	-11.0201
▁racist	-11.0201
▁ponies	-11.0201
▁shade	-11.0201
▁japan	-11.0201
▁mush	-11.0201
▁elwood	-11.0201
▁griffin	-11.0201
▁messala	-11.0202
▁toid	-11.0202
▁templeton	-11.0202
▁saburo	-11.0202
▁morrie	-11.0202
▁leland	-11.0203
▁communicate	-11.0203
▁farhan	-11.0204
▁dough	-11.0206
▁footage	-11.0206
▁solar	-11.0207
▁jimmie	-11.0207
▁kim	-11.021
▁peregrine	-11.021
▁dreadful	-11.0213
▁tapping	-11.0213
▁regan	-11.0213
▁od	-11.0214
▁july	-11.0215
▁heroic	-11.0217
▁required	-11.0217
▁challenger	-11.0219
▁abuse	-11.022
▁sickness	-11.0221
▁drawn	-11.0221
made	-11.0222
▁barrier	-11.0224
▁spoiled	-11.0229
▁diner	-11.0229
▁proven	-11.0232
▁dresses	-11.0235
▁meter	-11.0235
▁handling	-11.0241
▁damaged	-11.0243
▁elvis	-11.0249
▁elf	-11.0251
▁addy	-11.0255
▁murderers	-11.0255
nd	-11.0257
▁robots	-11.0259
▁chains	-11.0259
pro	-11.0259
▁engineering	-11.0266
ue	-11.0267
▁ag	-11.0267
wi	-11.0267
▁sailing	-11.0271
▁falcon	-11.0273
▁jin	-11.0276
▁politicians	-11.0292
row	-11.0295
▁br	-11.0298
▁helps	-11.0299
▁fuse	-11.03
ix	-11.0308
▁bothered	-11.0316
ev	-11.032
pi	-11.0321
▁ash	-11.0322
je	-11.0323
▁wil	-11.0332
▁visited	-11.0353
▁noses	-11.0359
▁filling	-11.036
▁ja	-11.0361
▁uses	-11.0371
▁achieve	-11.0377
▁dot	-11.0378
oon	-11.0384
▁initial	-11.0392
lan	-11.0393
ham	-11.0394
▁observe	-11.0405
▁ver	-11.0413
▁rolled	-11.0417
▁assassin	-11.042
▁ana	-11.0421
▁fixing	-11.0429
▁mit	-11.0436
more	-11.0441
▁ohhh	-11.0445
sse	-11.0446
▁acted	-11.0447
▁weigh	-11.0448
pping	-11.0457
▁bugs	-11.0462
▁flu	-11.0465
rate	-11.0468
▁fore	-11.0472
ette	-11.0473
▁snack	-11.0474
▁appearance	-11.0476
▁kilo	-11.0477
▁communication	-11.0478
▁sample	-11.0478
▁arrow	-11.0479
▁warrior	-11.0479
▁glove	-11.048
▁content	-11.048
▁marshal	-11.0481
▁jewel	-11.0482
▁stores	-11.0484
vel	-11.0485
▁guardian	-11.0485
▁drone	-11.0488
▁drum	-11.05
▁explaining	-11.05
▁islands	-11.0506
ane	-11.0517
▁fits	-11.0523
▁sources	-11.0524
▁neb	-11.0537
net	-11.0543
tro	-11.0554
▁travels	-11.0559
▁sweets	-11.0566
▁nicer	-11.0567
▁seventeen	-11.0589
town	-11.0592
▁threaten	-11.06
water	-11.0602
mark	-11.0602
▁attract	-11.0606
▁greet	-11.0607
four	-11.0611
▁slaughter	-11.0612
▁breach	-11.0613
▁retire	-11.0621
▁explode	-11.0622
▁execute	-11.0622
▁capture	-11.0623
ki	-11.0623
▁previous	-11.0626
▁heii	-11.0628
▁tomato	-11.0633
▁reflect	-11.0634
▁activate	-11.0634
▁sorrow	-11.0635
▁stereo	-11.0635
▁susie	-11.0635
▁anyhow	-11.0635
▁aronoff	-11.0635
▁broomhilda	-11.0635
▁cadillac	-11.0635
▁caravan	-11.0635
▁chemical	-11.0635
▁chihiro	-11.0635
▁darlene	-11.0635
▁escalante	-11.0635
▁ghetto	-11.0635
▁hanratty	-11.0635
▁koskov	-11.0635
▁lelaina	-11.0635
▁maretto	-11.0635
▁philadelphia	-11.0635
▁pippin	-11.0635
▁proposal	-11.0635
▁quilok	-11.0635
▁reliable	-11.0635
▁rendezvous	-11.0635
▁saturn	-11.0635
▁snatch	-11.0635
▁swift	-11.0635
▁timothy	-11.0635
▁unexpected	-11.0635
▁absurd	-11.0635
▁byron	-11.0635
▁causing	-11.0635
▁jasper	-11.0635
▁pancakes	-11.0635
▁carmine	-11.0635
▁narnia	-11.0635
▁ogre	-11.0635
▁gordie	-11.0635
▁puerto	-11.0635
▁assuming	-11.0635
▁collins	-11.0635
▁rascal	-11.0635
▁departure	-11.0635
▁canada	-11.0635
▁duties	-11.0635
▁grip	-11.0636
▁holland	-11.0636
▁remarkable	-11.0636
▁thudding	-11.0636
▁doris	-11.0636
▁editor	-11.0636
▁cecil	-11.0636
▁maze	-11.0636
▁upside	-11.0636
▁meow	-11.0636
▁contrary	-11.0636
▁pillow	-11.0636
▁wong	-11.0637
▁worn	-11.0637
▁hmph	-11.0637
▁razor	-11.0637
▁oak	-11.0637
▁virginia	-11.0637
▁obliged	-11.0637
▁combined	-11.0637
▁ammo	-11.0637
▁budget	-11.0638
▁countries	-11.0638
▁wales	-11.0638
▁xian	-11.0638
▁greg	-11.0638
▁wheat	-11.0638
▁lazy	-11.0638
▁heist	-11.0638
▁daisy	-11.0638
▁chapman	-11.0639
▁modest	-11.0639
▁ensure	-11.064
▁caine	-11.0641
▁midget	-11.0642
▁minus	-11.0643
▁clanking	-11.0644
▁hopefully	-11.0646
▁deland	-11.0646
▁snowman	-11.0646
▁clearance	-11.0646
▁scattered	-11.0646
ang	-11.0647
▁oooh	-11.0647
▁hissing	-11.0647
▁exposed	-11.0648
▁cameron	-11.0648
▁betting	-11.0649
▁attached	-11.0649
▁ancestors	-11.0653
▁included	-11.0654
▁mocking	-11.0658
pan	-11.0658
▁hose	-11.0661
▁everyday	-11.0664
▁breed	-11.0665
▁larger	-11.0666
▁wandering	-11.0667
▁julian	-11.0671
▁guaranteed	-11.0675
▁label	-11.0678
▁legally	-11.068
▁hopeless	-11.068
▁prey	-11.0688
▁rescued	-11.0689
▁stonea	-11.0701
▁returns	-11.0702
▁oliver	-11.0705
▁queenan	-11.0705
▁har	-11.0705
▁handy	-11.0708
▁youi	-11.0708
▁touches	-11.0715
▁junkie	-11.0716
▁bowling	-11.0718
▁plants	-11.0719
▁sosa	-11.0723
▁moe	-11.0726
wing	-11.0734
▁hustle	-11.0734
▁marching	-11.0736
▁cape	-11.074
▁loosen	-11.0752
▁shared	-11.0755
▁suggesting	-11.0757
▁expenses	-11.0759
▁cu	-11.0759
▁candles	-11.0766
▁ai	-11.0771
▁ob	-11.0776
▁praying	-11.0777
act	-11.0781
▁iet	-11.0785
ide	-11.0786
▁carlos	-11.0789
▁tracked	-11.0796
pen	-11.0796
long	-11.0804
ste	-11.0806
jah	-11.0807
▁handled	-11.0809
▁orphans	-11.0815
▁seeking	-11.0826
▁coins	-11.0839
▁jacks	-11.0843
▁importantly	-11.0845
▁fooled	-11.0846
▁gen	-11.0855
▁farmers	-11.0857
ala	-11.0857
▁serves	-11.0861
lock	-11.0873
▁plague	-11.0877
▁hay	-11.0881
▁doubts	-11.0881
ile	-11.0894
▁consul	-11.0895
▁illness	-11.0898
▁hawk	-11.0902
ook	-11.091
▁butts	-11.0911
▁signals	-11.0912
▁mp	-11.0922
▁muscles	-11.0923
▁bobblehead	-11.0928
▁papi	-11.0929
▁peanut	-11.0931
▁demands	-11.0931
▁lemon	-11.0932
▁producer	-11.0933
▁passenger	-11.0933
▁arrangement	-11.0935
▁dimension	-11.0937
▁penn	-11.0942
▁rangers	-11.0952
▁ge	-11.0953
▁explains	-11.0959
▁gangsters	-11.0959
▁mau	-11.0981
▁tate	-11.0983
▁towns	-11.0988
▁il	-11.0999
▁ali	-11.1002
▁surf	-11.1004
▁controls	-11.1006
cho	-11.101
▁io	-11.1025
ye	-11.1032
▁corrupt	-11.104
point	-11.1045
▁arch	-11.1046
▁splash	-11.1056
▁rack	-11.106
pitched	-11.1062
▁broadcast	-11.1062
tempo	-11.1063
level	-11.1065
▁negotiate	-11.1076
▁update	-11.1076
▁propose	-11.1077
▁expose	-11.1077
▁evacuate	-11.1077
onnie	-11.1079
▁precise	-11.1081
▁india	-11.1084
▁abort	-11.1089
▁scheme	-11.1089
well	-11.1089
▁disgrace	-11.1089
▁submit	-11.1089
▁vince	-11.109
▁concrete	-11.109
▁dolphin	-11.109
▁eboshi	-11.109
▁embassy	-11.109
▁fragile	-11.109
▁jerusalem	-11.109
▁laurel	-11.109
▁legitimate	-11.109
▁michigan	-11.109
▁mutual	-11.109
▁ofelia	-11.109
▁possibilities	-11.109
▁promising	-11.109
▁radiation	-11.109
▁ritual	-11.109
▁somewhat	-11.109
▁spectacular	-11.109
▁throttle	-11.109
▁toretto	-11.109
▁unfair	-11.109
▁wardrobe	-11.109
▁annual	-11.109
▁gummer	-11.109
▁isso	-11.109
▁teresa	-11.109
▁bloodshy	-11.109
▁stomp	-11.109
▁hildi	-11.109
▁heip	-11.109
▁carpet	-11.109
▁sicily	-11.109
▁norcut	-11.109
▁ominous	-11.109
▁bronze	-11.109
▁cattle	-11.109
▁magnet	-11.109
▁penalty	-11.109
▁argh	-11.109
▁outstanding	-11.109
▁outrageous	-11.109
▁panties	-11.109
▁sought	-11.109
▁civilized	-11.109
▁blair	-11.109
▁necessarily	-11.1091
▁moose	-11.1091
▁dove	-11.1091
▁reset	-11.1091
▁chapel	-11.1091
▁priority	-11.1091
▁psst	-11.1091
▁attic	-11.1091
▁adoption	-11.1091
▁superstar	-11.1091
▁column	-11.1092
▁myth	-11.1092
▁crab	-11.1093
▁cockroaches	-11.1093
▁invention	-11.1093
▁marley	-11.1093
▁therapy	-11.1093
▁barron	-11.1093
▁mj	-11.1093
▁heir	-11.1093
▁aww	-11.1094
▁strangled	-11.1095
▁lamar	-11.1095
▁mert	-11.1096
▁raft	-11.1097
▁slightly	-11.1097
are	-11.1097
▁pony	-11.1097
▁giles	-11.1098
unar	-11.1098
▁logan	-11.1098
▁nsa	-11.1099
lam	-11.11
▁receiver	-11.11
▁plates	-11.1102
▁established	-11.1106
▁vanished	-11.1106
▁punches	-11.1107
wn	-11.1108
▁vitamins	-11.1108
▁compared	-11.1109
▁magical	-11.1109
▁clubs	-11.111
▁sixty	-11.111
▁sniffing	-11.1111
▁teenager	-11.1111
▁ange	-11.1112
▁geek	-11.1114
▁creaks	-11.1116
▁tolling	-11.1118
▁scotty	-11.1124
▁separated	-11.1124
▁pawn	-11.1125
▁issued	-11.1125
▁assured	-11.1126
▁dame	-11.1127
▁solved	-11.1128
▁drowning	-11.1129
▁lyrics	-11.113
▁shares	-11.1136
▁rash	-11.114
▁memo	-11.1148
▁singin	-11.115
▁hooked	-11.1172
▁borrowed	-11.1172
▁dome	-11.1174
▁finals	-11.1175
▁astronauts	-11.1175
ind	-11.1178
▁discussed	-11.1183
▁vers	-11.1189
▁swords	-11.119
▁grin	-11.1195
▁requested	-11.1199
▁feathers	-11.1199
▁ani	-11.1201
▁generally	-11.1205
lic	-11.1206
bra	-11.1212
▁floors	-11.1212
▁bookies	-11.1213
▁jeans	-11.1217
▁studying	-11.1218
ught	-11.123
ea	-11.1232
▁masks	-11.1241
hr	-11.1246
▁redhead	-11.1247
▁arrangements	-11.1249
▁ding	-11.1249
▁spiders	-11.1255
▁samples	-11.1257
ins	-11.1272
ando	-11.1274
▁employees	-11.1279
▁lifes	-11.1283
▁ally	-11.1283
res	-11.1284
ov	-11.1292
▁ere	-11.1292
▁champions	-11.1293
▁gala	-11.13
▁wink	-11.1302
▁ideal	-11.1312
▁scores	-11.1321
▁scientists	-11.1332
▁bin	-11.1332
val	-11.1335
▁who	-11.1338
▁rod	-11.134
▁creeps	-11.1346
cc	-11.1347
▁spine	-11.1351
ets	-11.138
▁toll	-11.1384
▁indicate	-11.1384
▁whisper	-11.1384
▁sakes	-11.139
▁loses	-11.1398
▁headache	-11.1406
▁hollow	-11.1408
▁resume	-11.1409
▁balloon	-11.1409
▁civilian	-11.1409
▁method	-11.1409
▁nations	-11.1417
▁tr	-11.1419
▁stack	-11.1419
▁laps	-11.1421
▁mustang	-11.1423
▁servants	-11.1429
ico	-11.1441
▁attacking	-11.1444
▁flo	-11.1446
▁str	-11.1455
izing	-11.1459
▁visual	-11.1461
ck	-11.1464
lon	-11.1465
▁sha	-11.1478
▁clap	-11.1483
headed	-11.1486
▁slick	-11.1497
▁marker	-11.1503
▁sco	-11.1505
▁uns	-11.1509
▁invest	-11.151
ew	-11.1512
▁punish	-11.1512
▁apples	-11.152
▁uhh	-11.1521
▁carlo	-11.1528
▁adults	-11.1535
▁decisions	-11.1535
▁conquer	-11.1539
girl	-11.154
▁refresh	-11.1543
▁encounter	-11.1544
▁delight	-11.1547
tail	-11.1549
▁involve	-11.1552
▁should	-11.1553
▁ox	-11.1556
▁blend	-11.1557
▁instant	-11.1557
▁endure	-11.156
▁mortal	-11.1565
▁kidnap	-11.1565
▁starve	-11.1565
▁transform	-11.1565
ology	-11.1565
▁volt	-11.1566
▁plum	-11.1566
▁automatic	-11.1566
▁barbara	-11.1566
▁beacon	-11.1566
▁brigitta	-11.1566
▁catholic	-11.1566
▁celebrity	-11.1566
▁concentration	-11.1566
▁corporal	-11.1566
▁deceased	-11.1566
▁dinosaur	-11.1566
▁dorothy	-11.1566
▁dwayne	-11.1566
▁ferrari	-11.1566
▁goldfarb	-11.1566
▁gracious	-11.1566
▁heartbeat	-11.1566
▁ignition	-11.1566
▁injury	-11.1566
▁jubal	-11.1566
▁lloyd	-11.1566
▁marilyn	-11.1566
▁maximum	-11.1566
▁mcallister	-11.1566
▁nikki	-11.1566
▁oldfashioned	-11.1566
▁override	-11.1566
▁puppies	-11.1566
▁robbie	-11.1566
▁rufus	-11.1566
▁samurai	-11.1566
▁shepherd	-11.1566
▁spectators	-11.1566
▁thanksgiving	-11.1566
▁thompson	-11.1566
▁vodka	-11.1566
▁whinnies	-11.1566
▁willoughby	-11.1566
▁berlin	-11.1566
▁flint	-11.1566
▁hallelu	-11.1566
▁kimsey	-11.1566
▁laeddis	-11.1566
▁relay	-11.1566
▁scandal	-11.1566
▁mandrake	-11.1566
▁replica	-11.1566
▁vessel	-11.1566
▁interrogation	-11.1566
▁bonjour	-11.1566
▁aspirin	-11.1566
▁doughnut	-11.1566
▁lukas	-11.1566
▁hawaii	-11.1566
▁plaza	-11.1566
▁importance	-11.1566
▁compound	-11.1566
▁alibi	-11.1566
▁lounge	-11.1566
▁tracy	-11.1566
▁twentyfive	-11.1566
▁bogey	-11.1566
▁flashlight	-11.1566
▁fortress	-11.1566
▁nunca	-11.1566
▁overcome	-11.1566
▁curve	-11.1566
▁feast	-11.1566
▁income	-11.1567
▁akim	-11.1567
▁crane	-11.1567
▁stirling	-11.1567
▁philosophy	-11.1567
▁jarmo	-11.1567
▁robbing	-11.1567
▁innit	-11.1567
▁groot	-11.1567
▁hostile	-11.1567
▁regardless	-11.1567
▁ripper	-11.1567
▁dwell	-11.1567
▁announcement	-11.1568
▁sponsor	-11.1568
▁effective	-11.1568
▁iove	-11.1568
▁favourite	-11.1568
▁marina	-11.1568
▁marvin	-11.1569
▁popped	-11.1569
▁salesman	-11.157
▁shipping	-11.157
▁narrator	-11.1571
▁popping	-11.1571
▁household	-11.1571
▁vida	-11.1571
▁minton	-11.1571
▁jammed	-11.1572
▁scottie	-11.1572
▁distraction	-11.1572
▁dumbass	-11.1574
▁depressed	-11.1574
▁stalker	-11.1574
▁growth	-11.1574
▁cole	-11.1575
▁hospitality	-11.1579
▁debts	-11.1581
▁worrying	-11.1581
▁snarling	-11.1582
▁guessed	-11.1582
▁indiana	-11.1582
▁after	-11.1583
▁pork	-11.1584
▁humanity	-11.1584
▁tenma	-11.1584
▁rubber	-11.1584
▁portal	-11.1584
▁moo	-11.1585
▁orl	-11.1585
kill	-11.1586
▁cane	-11.1588
▁dc	-11.1588
▁cosmo	-11.1589
▁karate	-11.1589
▁cuban	-11.1589
▁disturbed	-11.1593
▁booty	-11.1593
ign	-11.1594
▁silencer	-11.1596
▁directions	-11.1597
gram	-11.1598
▁qua	-11.1604
▁cheated	-11.1605
▁virg	-11.1605
▁critical	-11.1606
▁bender	-11.1607
▁cloth	-11.1611
▁meets	-11.1611
▁dudes	-11.1612
▁taiking	-11.1613
zo	-11.1614
▁rosen	-11.1614
rk	-11.1615
▁hint	-11.1617
▁mais	-11.1618
▁badass	-11.1623
▁relics	-11.1624
stone	-11.1625
▁unh	-11.1626
▁lamb	-11.1626
▁if	-11.1628
▁taco	-11.163
▁suge	-11.1632
▁carrots	-11.1632
▁ela	-11.1633
▁mule	-11.1634
▁gathering	-11.1637
▁experienced	-11.1646
▁risky	-11.165
▁concerns	-11.1655
▁sweating	-11.1669
▁ci	-11.1671
▁abu	-11.1677
▁rey	-11.1686
fo	-11.1687
▁cracking	-11.1689
▁screwing	-11.1693
▁yum	-11.1695
▁washing	-11.1701
▁cons	-11.1703
▁switching	-11.1708
▁stacks	-11.1725
▁sw	-11.1726
▁oid	-11.1729
list	-11.173
▁buttons	-11.1734
▁arrows	-11.1741
▁ruins	-11.1742
▁nod	-11.1744
▁dos	-11.1745
▁residents	-11.1749
▁sung	-11.1753
▁gifted	-11.1755
▁flap	-11.1759
mon	-11.1767
▁heights	-11.1772
▁liver	-11.1777
▁lightly	-11.1782
▁ic	-11.179
ks	-11.1792
▁sabe	-11.1794
▁gus	-11.1796
▁mat	-11.1796
mu	-11.1799
▁claws	-11.1806
▁app	-11.1808
▁stuffed	-11.181
wise	-11.1814
▁smelled	-11.1816
▁codes	-11.1822
▁hmmm	-11.1823
▁ven	-11.1849
▁rabbits	-11.1852
▁extract	-11.1852
▁recruit	-11.1853
▁respected	-11.1858
▁chambers	-11.1859
▁pip	-11.1868
▁turnin	-11.1874
▁tattoo	-11.1881
▁tomorrows	-11.1888
▁troubled	-11.1896
▁squeals	-11.1899
▁novel	-11.1903
▁accomplice	-11.1903
▁griswald	-11.1903
▁technique	-11.1903
▁breast	-11.1905
▁conclusion	-11.1907
▁temperature	-11.1907
▁inmate	-11.1908
▁onion	-11.1909
▁preserve	-11.1917
ahhh	-11.192
▁bu	-11.1921
▁commands	-11.1931
▁meetings	-11.1931
ded	-11.1934
▁qu	-11.1941
ever	-11.1942
▁grades	-11.1946
tor	-11.1957
▁georg	-11.1965
▁exception	-11.1968
▁peel	-11.1972
▁fears	-11.1982
▁areas	-11.1993
▁bridges	-11.1993
▁leto	-11.1998
▁distract	-11.2008
▁lined	-11.2014
▁bothers	-11.2036
mouth	-11.2039
▁betray	-11.2041
year	-11.2041
▁install	-11.2041
▁teenage	-11.2043
▁reform	-11.2044
▁crook	-11.2045
good	-11.2045
▁butch	-11.2049
▁ropes	-11.2049
some	-11.2051
▁teth	-11.2053
▁robe	-11.2056
▁armour	-11.2058
▁alma	-11.206
bag	-11.206
▁caf	-11.2061
ified	-11.2063
▁thrust	-11.2063
▁heave	-11.2065
▁loca	-11.2065
▁forbid	-11.2066
▁abroad	-11.2066
▁activities	-11.2066
▁affirmative	-11.2066
▁alodor	-11.2066
▁beckett	-11.2066
▁biscuit	-11.2066
▁caution	-11.2066
▁chandler	-11.2066
▁combination	-11.2066
▁conscience	-11.2066
▁corliss	-11.2066
▁creek	-11.2066
▁exotic	-11.2066
▁fierce	-11.2066
▁finnegan	-11.2066
▁garnett	-11.2066
▁godmother	-11.2066
▁hurricane	-11.2066
▁january	-11.2066
▁jefferson	-11.2066
▁mcmanus	-11.2066
▁promotion	-11.2066
▁ramona	-11.2066
▁recipe	-11.2066
▁reserve	-11.2066
▁slut	-11.2066
▁snitch	-11.2066
▁sollozzo	-11.2066
▁storage	-11.2066
▁talbot	-11.2066
▁treason	-11.2066
▁tribune	-11.2066
▁tyrone	-11.2066
▁vatican	-11.2066
▁vinnie	-11.2066
▁vocalizing	-11.2066
▁volume	-11.2066
▁vulnerable	-11.2066
▁welfare	-11.2066
▁knicks	-11.2066
▁bobbie	-11.2066
▁crust	-11.2066
▁carlotta	-11.2066
▁epps	-11.2066
▁thatcher	-11.2066
▁shuttle	-11.2066
▁whitney	-11.2066
▁columbia	-11.2066
▁fisk	-11.2066
▁jacqueline	-11.2066
▁tuddy	-11.2066
▁scotland	-11.2066
▁isto	-11.2066
▁railroad	-11.2066
▁dizzy	-11.2066
▁upgrade	-11.2066
▁stray	-11.2066
▁vienna	-11.2066
▁alternative	-11.2066
▁mischa	-11.2066
▁sissy	-11.2066
▁canary	-11.2066
▁temptation	-11.2067
▁welsh	-11.2067
▁grill	-11.2067
▁mellie	-11.2067
▁nickname	-11.2067
▁freddie	-11.2067
▁ilse	-11.2067
▁development	-11.2067
▁chatur	-11.2067
▁pronounce	-11.2067
▁eliza	-11.2067
▁demonstration	-11.2067
▁certificate	-11.2067
▁shortcut	-11.2068
▁hound	-11.2068
▁mutters	-11.2068
▁tramp	-11.2068
▁watergate	-11.2068
▁groceries	-11.2068
▁reactor	-11.2068
▁overhead	-11.2069
▁trophy	-11.2069
▁continental	-11.207
▁venture	-11.207
▁detector	-11.207
▁accidentally	-11.207
▁hatred	-11.207
▁ashes	-11.2071
▁rusty	-11.2072
▁ounce	-11.2072
▁yoda	-11.2072
▁ninety	-11.2072
▁imitate	-11.2073
▁sway	-11.2073
cap	-11.2074
▁instrumental	-11.2075
▁amongst	-11.2075
▁hansen	-11.2075
▁protective	-11.2076
▁heiio	-11.2076
▁presentation	-11.2077
▁depressing	-11.2077
▁commie	-11.2077
▁payback	-11.2077
▁flattered	-11.2078
▁shallow	-11.2079
▁acts	-11.208
▁forgiveness	-11.208
▁hideout	-11.2082
▁dining	-11.2082
▁advised	-11.2084
▁funky	-11.2084
▁detected	-11.2084
▁possessed	-11.2085
▁jive	-11.2086
▁celtics	-11.2087
▁operational	-11.2087
▁parttime	-11.2087
▁layla	-11.2088
▁approved	-11.2088
▁objection	-11.2088
▁straining	-11.2089
▁barker	-11.2092
▁potion	-11.2093
▁illusion	-11.2095
▁noises	-11.2096
▁gram	-11.2097
▁wit	-11.2097
ara	-11.2097
▁buzzes	-11.2099
▁disturbing	-11.2103
▁bane	-11.2104
▁insulted	-11.2105
ked	-11.2113
▁lighten	-11.2114
▁pinky	-11.2115
▁revealed	-11.2117
▁noone	-11.2125
▁plank	-11.2127
▁boobs	-11.2128
▁restaurants	-11.2129
▁dearest	-11.213
▁crawling	-11.213
▁chester	-11.2135
▁cuffs	-11.2136
▁tops	-11.2136
▁designer	-11.2136
▁dea	-11.214
▁wage	-11.2146
▁climbed	-11.2148
▁dreamt	-11.2154
▁gorilla	-11.2159
▁ribs	-11.2159
▁wears	-11.216
▁deb	-11.2161
▁cracked	-11.2162
▁freaks	-11.2165
▁reel	-11.2165
▁walker	-11.2172
▁suggested	-11.2172
▁flora	-11.218
▁swinging	-11.2184
▁continued	-11.2185
▁carn	-11.2189
▁reminded	-11.219
▁overlook	-11.2195
▁lid	-11.2198
▁cello	-11.2205
▁auntie	-11.222
▁sucked	-11.2225
▁tot	-11.2232
▁shack	-11.2233
▁resumes	-11.2234
▁facts	-11.2243
▁pint	-11.2255
▁prop	-11.2255
▁eats	-11.2261
cal	-11.2267
▁walkin	-11.2271
fire	-11.2281
our	-11.2292
ick	-11.2295
▁owners	-11.2306
▁chickens	-11.2308
▁suckers	-11.2312
▁marrying	-11.2318
▁havin	-11.2329
▁claw	-11.2337
▁cho	-11.235
lm	-11.2351
▁rolls	-11.2363
▁snaps	-11.2366
▁bam	-11.237
▁bananas	-11.2383
gh	-11.2389
▁melt	-11.2391
▁payments	-11.2392
lies	-11.2394
▁prices	-11.2395
▁af	-11.24
▁cough	-11.241
▁disco	-11.2412
▁resting	-11.2413
▁mexicans	-11.2416
▁doom	-11.2417
▁pai	-11.242
▁discipline	-11.2421
▁riddle	-11.2423
ido	-11.2425
▁pilots	-11.2428
▁donation	-11.243
▁cocktail	-11.2432
▁audition	-11.2432
▁fontaine	-11.2432
▁belief	-11.2433
▁bubble	-11.2433
▁savage	-11.2434
▁frog	-11.2435
▁candle	-11.2435
▁helicopters	-11.245
▁goodman	-11.2451
▁cub	-11.2455
▁fabric	-11.2457
▁georgi	-11.2458
▁caller	-11.2464
▁mini	-11.2484
gging	-11.2489
ably	-11.2492
thats	-11.2493
▁chart	-11.2495
▁richards	-11.2503
▁fog	-11.2529
▁multi	-11.2539
▁spill	-11.2543
▁ut	-11.2548
ress	-11.2553
life	-11.2564
▁clink	-11.2564
woman	-11.2565
bird	-11.2565
▁jab	-11.2566
minute	-11.2567
▁shorts	-11.2572
▁vouch	-11.2575
▁luca	-11.2577
▁caves	-11.2577
win	-11.2577
▁untie	-11.2579
▁attacks	-11.2579
▁define	-11.2579
▁locate	-11.2581
▁slight	-11.2583
▁convenient	-11.2583
▁declare	-11.2583
▁keen	-11.2586
▁react	-11.2587
▁restore	-11.2588
▁marsh	-11.2588
▁sensation	-11.2588
▁congress	-11.259
▁spends	-11.259
▁confront	-11.259
▁banner	-11.2591
▁sings	-11.2591
▁circles	-11.2592
▁meteor	-11.2592
ologist	-11.2592
▁serge	-11.2592
▁compartment	-11.2592
▁airborne	-11.2592
▁altogether	-11.2592
▁ambassador	-11.2592
▁arendelle	-11.2592
▁bachelor	-11.2592
▁beethoven	-11.2592
▁bernadette	-11.2592
▁carpenter	-11.2592
▁clutch	-11.2592
▁cocaine	-11.2592
▁cypher	-11.2592
▁despair	-11.2592
▁distress	-11.2592
▁dracone	-11.2592
▁dwight	-11.2592
▁facial	-11.2592
▁grabelski	-11.2592
▁greece	-11.2592
▁hamilton	-11.2592
▁harvest	-11.2592
▁heavyweight	-11.2592
▁jonathan	-11.2592
▁lecture	-11.2592
▁legacy	-11.2592
▁madagin	-11.2592
▁mademoiselle	-11.2592
▁memorial	-11.2592
▁messiah	-11.2592
▁oracle	-11.2592
▁parallel	-11.2592
▁pittsburgh	-11.2592
▁platform	-11.2592
▁preparation	-11.2592
▁recognise	-11.2592
▁rehearse	-11.2592
▁ribbon	-11.2592
▁romilly	-11.2592
▁schraeder	-11.2592
▁semester	-11.2592
▁shrimp	-11.2592
▁significant	-11.2592
▁stammering	-11.2592
▁strangways	-11.2592
▁survey	-11.2592
▁sworn	-11.2592
▁tobacco	-11.2592
▁wlll	-11.2592
▁eager	-11.2592
▁veteran	-11.2592
▁evelyn	-11.2592
▁italy	-11.2592
▁pigeon	-11.2592
▁roommate	-11.2592
▁terminal	-11.2592
▁corporate	-11.2592
▁neighbourhood	-11.2592
▁bullseye	-11.2592
▁syd	-11.2592
▁butler	-11.2592
▁dummy	-11.2592
▁hunch	-11.2592
▁swap	-11.2592
▁whereabouts	-11.2592
▁antonio	-11.2592
▁gallery	-11.2593
▁clinic	-11.2593
▁donny	-11.2593
▁inviting	-11.2593
▁celia	-11.2593
▁geneva	-11.2593
▁mattress	-11.2593
▁pablo	-11.2593
▁serena	-11.2593
▁oven	-11.2593
▁yuck	-11.2593
▁refrigerator	-11.2593
▁miniboss	-11.2593
▁nerd	-11.2593
▁spinning	-11.2593
▁seattle	-11.2593
▁stella	-11.2593
▁woolf	-11.2593
▁edith	-11.2593
▁landlord	-11.2593
▁approximately	-11.2594
▁reign	-11.2594
▁achievement	-11.2594
▁tension	-11.2594
▁membership	-11.2594
▁toothless	-11.2594
▁arse	-11.2594
▁audio	-11.2594
▁finch	-11.2594
▁bloke	-11.2594
▁vagina	-11.2594
▁expectations	-11.2594
too	-11.2594
▁accuse	-11.2594
▁shrieking	-11.2595
▁ramos	-11.2595
▁kemo	-11.2595
▁blondie	-11.2595
▁dickens	-11.2596
▁madden	-11.2596
▁robinson	-11.2596
▁governess	-11.2596
▁dong	-11.2597
▁lifestyle	-11.2598
▁holly	-11.2598
▁banished	-11.2599
▁spies	-11.2599
▁grandson	-11.2599
▁squawking	-11.2599
▁drax	-11.26
▁harmless	-11.26
▁bold	-11.26
▁attraction	-11.2601
▁acceptable	-11.2602
▁eliminated	-11.2603
▁lime	-11.2604
▁convicted	-11.2606
▁postman	-11.2606
▁acid	-11.2607
its	-11.2607
▁executed	-11.2608
▁recovery	-11.2608
▁sita	-11.2608
▁tourist	-11.2609
▁wealthy	-11.261
▁refer	-11.261
▁accomplished	-11.2613
▁gruber	-11.2614
▁lago	-11.2614
▁comb	-11.2614
▁furious	-11.2615
▁asha	-11.2617
zi	-11.2621
▁clinking	-11.2621
rah	-11.2623
▁madman	-11.2624
▁creedy	-11.2627
▁freeway	-11.2629
▁threatening	-11.2629
▁wrecked	-11.263
▁protector	-11.2631
▁senses	-11.2631
▁cocky	-11.2632
▁condom	-11.2632
▁louisa	-11.2634
▁sar	-11.2635
▁moody	-11.2635
▁fled	-11.2635
▁logical	-11.2635
▁showtime	-11.2636
▁suggestion	-11.2636
▁howling	-11.2637
▁performed	-11.2641
▁narc	-11.2641
▁twisted	-11.2643
▁voted	-11.2647
▁waltz	-11.2647
▁healing	-11.2647
▁mach	-11.2649
▁oni	-11.2654
▁appeared	-11.2656
▁loot	-11.2657
▁attempted	-11.2659
▁connections	-11.266
▁smashed	-11.2661
▁southeast	-11.2661
▁intended	-11.2663
▁claimed	-11.2671
▁breaker	-11.2673
▁heavenly	-11.2673
strade	-11.2673
ify	-11.2676
▁filed	-11.2677
she	-11.268
olo	-11.2681
▁tricky	-11.2682
▁sadly	-11.2684
▁youngest	-11.2684
▁shooter	-11.269
▁citys	-11.269
lapping	-11.2691
▁planted	-11.2695
gged	-11.2697
▁existed	-11.2701
▁goodlooking	-11.2701
▁napkin	-11.2702
▁rented	-11.2706
▁proceeding	-11.2707
▁ban	-11.2711
▁wished	-11.2717
▁pounding	-11.2717
▁comedy	-11.272
▁bio	-11.2721
▁kneel	-11.2722
▁spreading	-11.2722
▁lone	-11.2722
▁stoned	-11.2728
wo	-11.2731
▁sow	-11.2736
rie	-11.2742
▁principles	-11.2744
▁pode	-11.2745
▁massacre	-11.2766
▁uncles	-11.2779
▁accounting	-11.2787
▁cooler	-11.2795
▁risking	-11.2806
▁childrens	-11.2806
▁flames	-11.2806
▁exceptional	-11.2809
▁abs	-11.281
▁weirdo	-11.281
band	-11.282
ice	-11.282
ese	-11.2833
eck	-11.2836
old	-11.2837
▁pos	-11.2848
▁wo	-11.2849
▁callin	-11.2853
▁worms	-11.2857
▁documents	-11.287
och	-11.2873
▁mates	-11.2876
▁winners	-11.2887
▁rag	-11.2898
ude	-11.2904
▁corners	-11.2913
▁pursue	-11.2913
▁americas	-11.2921
▁coup	-11.2924
▁beautifully	-11.2934
▁affect	-11.296
▁await	-11.2961
nce	-11.2979
▁expense	-11.2991
▁tis	-11.2992
▁explosive	-11.2992
▁principle	-11.2992
▁rumor	-11.2993
▁eyeball	-11.2997
ium	-11.2997
▁layer	-11.3005
▁martini	-11.3008
▁mug	-11.3017
▁shite	-11.3023
▁nightmares	-11.3024
▁ree	-11.3026
▁bind	-11.3026
▁bonds	-11.3037
▁rem	-11.3043
▁esta	-11.3066
▁beck	-11.3078
▁can	-11.3095
▁blink	-11.3095
class	-11.3108
▁bake	-11.3115
walk	-11.3116
▁lau	-11.3117
▁boxer	-11.312
▁possess	-11.312
suit	-11.3121
john	-11.3122
▁mock	-11.3122
pound	-11.3122
▁offend	-11.3124
▁accomplish	-11.3125
▁sustain	-11.3126
▁efforts	-11.313
▁feei	-11.3134
▁champs	-11.3136
▁thorough	-11.3139
▁trainer	-11.3139
▁determine	-11.3145
▁adapt	-11.3145
▁givin	-11.3145
▁tickle	-11.3145
▁immortal	-11.3147
▁commence	-11.3147
▁questioned	-11.3147
▁egypt	-11.3147
▁knox	-11.3148
▁yank	-11.3148
▁abnegation	-11.3148
▁acquaintance	-11.3148
▁algaib	-11.3148
▁baltimore	-11.3148
▁barzini	-11.3148
▁bathtub	-11.3148
▁belfort	-11.3148
▁calculus	-11.3148
▁candidate	-11.3148
▁cataleya	-11.3148
▁clarence	-11.3148
▁clumsy	-11.3148
▁compassion	-11.3148
▁cynthia	-11.3148
▁dauntless	-11.3148
▁davies	-11.3148
▁discount	-11.3148
▁emmett	-11.3148
▁gesture	-11.3148
▁happier	-11.3148
▁immunity	-11.3148
▁inspiration	-11.3148
▁kopernick	-11.3148
▁lesbian	-11.3148
▁lucille	-11.3148
▁mabel	-11.3148
▁macready	-11.3148
▁ministry	-11.3148
▁newscaster	-11.3148
▁ninja	-11.3148
▁nowadays	-11.3148
▁octopus	-11.3148
▁parliament	-11.3148
▁piranha	-11.3148
▁practicing	-11.3148
▁ranchhoddas	-11.3148
▁reunion	-11.3148
▁rizzo	-11.3148
▁samantha	-11.3148
▁sicilian	-11.3148
▁supervisor	-11.3148
▁waternoose	-11.3148
▁wazowski	-11.3148
▁yubaba	-11.3148
▁accompany	-11.3148
▁arnold	-11.3148
▁bueno	-11.3148
▁cabbage	-11.3148
▁chariot	-11.3148
▁flank	-11.3148
▁forfeit	-11.3148
▁grazie	-11.3148
▁nevertheless	-11.3148
▁niece	-11.3148
▁visible	-11.3148
▁buddha	-11.3148
▁fungus	-11.3148
▁whatsoever	-11.3148
▁illinois	-11.3148
▁schmuck	-11.3148
▁northern	-11.3148
▁gollum	-11.3148
▁attaboy	-11.3148
▁bleach	-11.3148
▁kirk	-11.3148
▁shelf	-11.3148
▁underworld	-11.3148
▁strapped	-11.3148
▁gregory	-11.3148
▁anniversary	-11.3148
▁poiice	-11.3148
▁vietnamese	-11.3148
▁rubbish	-11.3148
▁matata	-11.3148
▁tissue	-11.3148
▁prank	-11.3148
▁excitement	-11.3148
▁saddle	-11.3148
▁flawless	-11.3148
▁northeast	-11.3148
▁spud	-11.3149
▁atmosphere	-11.3149
▁chug	-11.3149
▁orphanage	-11.3149
▁ramey	-11.3149
▁perez	-11.3149
▁renner	-11.3149
▁fading	-11.3149
▁depression	-11.3149
▁establishment	-11.3149
▁reaiiy	-11.3149
▁hazen	-11.3149
▁studies	-11.3149
▁inspection	-11.3149
▁kurtz	-11.315
▁piace	-11.315
ization	-11.315
yard	-11.315
▁confirmation	-11.315
▁candyland	-11.315
▁percentage	-11.315
▁contribution	-11.315
▁lockwood	-11.315
▁itch	-11.3151
▁finance	-11.3151
▁mansfield	-11.3151
▁luckily	-11.3151
▁congressman	-11.3151
▁replacement	-11.3151
▁farther	-11.3151
▁valve	-11.3151
▁heather	-11.3152
▁hakuna	-11.3152
▁slug	-11.3152
▁iong	-11.3152
▁programmed	-11.3153
▁splitting	-11.3153
▁shuddering	-11.3154
▁mayhem	-11.3154
ox	-11.3154
▁buckle	-11.3154
▁copper	-11.3155
▁cooperation	-11.3155
▁unger	-11.3156
▁distinguished	-11.3156
▁charly	-11.3156
▁monk	-11.3156
▁dug	-11.3157
▁lauren	-11.3157
▁spike	-11.3158
▁wooden	-11.3159
▁mice	-11.3159
▁luisa	-11.3159
▁cellul	-11.316
▁intel	-11.316
▁christine	-11.3161
▁estava	-11.3161
▁applauding	-11.3162
▁scrub	-11.3162
▁chairman	-11.3163
▁dopeman	-11.3163
▁nwa	-11.3165
▁deke	-11.3165
▁jokers	-11.3166
▁produced	-11.3167
▁eron	-11.3168
▁poet	-11.3169
▁trio	-11.3171
▁slowing	-11.3174
▁slay	-11.3177
▁neighbours	-11.318
▁tangiers	-11.318
▁ira	-11.318
▁fuckedup	-11.3181
▁cowboys	-11.3184
▁liz	-11.3187
▁ignored	-11.3188
▁pouring	-11.319
▁backyard	-11.319
▁cakes	-11.319
▁restless	-11.3191
▁swallowed	-11.3191
▁freezer	-11.3193
▁traced	-11.3196
ano	-11.32
▁chased	-11.3203
ong	-11.3204
▁bottomly	-11.3207
▁dunk	-11.3211
▁precogs	-11.3216
▁rewarded	-11.3223
bound	-11.3224
▁interrupting	-11.3231
▁dim	-11.3239
▁pastor	-11.3246
▁punched	-11.3256
▁reminder	-11.3262
▁added	-11.3272
▁greatness	-11.3283
▁masters	-11.3285
▁belle	-11.3285
rum	-11.3298
▁generals	-11.3299
▁discussing	-11.33
▁manning	-11.3303
▁sweater	-11.3304
▁cans	-11.3311
▁zap	-11.3311
grade	-11.3314
ight	-11.3328
▁proves	-11.335
▁items	-11.3364
▁scares	-11.3368
▁visitors	-11.3375
▁vent	-11.3379
▁valet	-11.3386
light	-11.3404
fu	-11.3414
▁oneil	-11.3414
lar	-11.342
▁decides	-11.3426
▁waitin	-11.3448
▁represents	-11.3448
▁supposedly	-11.3449
▁del	-11.345
ily	-11.345
▁pol	-11.3452
thorn	-11.3453
▁tanks	-11.3459
nia	-11.3462
▁rounds	-11.3465
▁counted	-11.3475
▁kat	-11.3478
oli	-11.348
▁danced	-11.3481
▁apartments	-11.3488
▁nerves	-11.3493
rio	-11.3497
▁das	-11.3498
ways	-11.351
▁med	-11.3511
▁res	-11.3513
▁volunteer	-11.3525
▁radios	-11.3531
▁instrument	-11.3532
▁playin	-11.354
▁ripe	-11.3545
oden	-11.3546
▁seu	-11.3547
▁regard	-11.3548
ui	-11.3557
▁aria	-11.3571
▁grenade	-11.3573
ugh	-11.3573
▁companion	-11.3574
▁rebound	-11.3574
▁coyote	-11.3576
▁hobbit	-11.3577
▁effects	-11.3577
▁clues	-11.3577
▁experiments	-11.3577
horn	-11.3597
▁mode	-11.3604
▁loans	-11.3613
▁hooker	-11.3618
▁develop	-11.3638
ura	-11.3642
hot	-11.3643
▁images	-11.3645
▁bunk	-11.3658
▁moan	-11.3659
lia	-11.366
▁preach	-11.3669
▁traitors	-11.3671
▁luc	-11.3674
q	-11.3675
itz	-11.3678
▁slot	-11.3681
▁favors	-11.3683
▁employ	-11.3683
▁vanish	-11.3685
▁pla	-11.3686
▁sync	-11.3686
▁poll	-11.3686
▁beds	-11.3691
▁bree	-11.3702
tan	-11.3703
▁deploy	-11.3705
▁detect	-11.3708
▁thump	-11.3708
keep	-11.371
▁kicks	-11.3712
▁establish	-11.3713
▁fulfill	-11.3714
▁stash	-11.3715
▁spic	-11.3715
▁grease	-11.3715
▁disappears	-11.372
▁encourage	-11.3721
▁collapse	-11.3722
▁persuade	-11.3722
▁cripple	-11.3723
au	-11.3723
▁burglar	-11.3723
▁inspire	-11.3723
▁hysterical	-11.3727
▁historical	-11.373
▁gordo	-11.3731
▁hangs	-11.3732
▁nightclub	-11.3734
▁admission	-11.3736
▁appreciation	-11.3736
▁arashikage	-11.3736
▁ashitaka	-11.3736
▁barbecue	-11.3736
▁baxter	-11.3736
▁billionaire	-11.3736
▁bracket	-11.3736
▁caviar	-11.3736
▁clarity	-11.3736
▁courier	-11.3736
▁crucifixion	-11.3736
▁dwarves	-11.3736
▁ffynnon	-11.3736
▁grumpy	-11.3736
▁havana	-11.3736
▁hobby	-11.3736
▁hockey	-11.3736
▁injuries	-11.3736
▁institute	-11.3736
▁janusz	-11.3736
▁joshua	-11.3736
▁ketchup	-11.3736
▁kullimon	-11.3736
▁lardass	-11.3736
▁leparq	-11.3736
▁llewelyn	-11.3736
▁lorelei	-11.3736
▁louisiana	-11.3736
▁ludwig	-11.3736
▁marquis	-11.3736
▁melanie	-11.3736
▁mercury	-11.3736
▁offensive	-11.3736
▁olivia	-11.3736
▁parlor	-11.3736
▁peopie	-11.3736
▁physics	-11.3736
▁prospect	-11.3736
▁sardaukar	-11.3736
▁substance	-11.3736
▁tattaglia	-11.3736
▁theatre	-11.3736
▁tshirt	-11.3736
▁unnecessary	-11.3736
▁yourseif	-11.3736
▁alvin	-11.3736
▁beaver	-11.3736
▁pervert	-11.3736
▁veins	-11.3736
▁canvas	-11.3736
▁shivering	-11.3736
▁dumpster	-11.3736
▁solitary	-11.3736
▁steward	-11.3736
▁loneliness	-11.3736
▁nazg	-11.3736
▁blaming	-11.3736
▁cloak	-11.3736
▁disorder	-11.3736
▁lethal	-11.3736
▁forbidden	-11.3736
▁inheritance	-11.3736
▁ducard	-11.3736
▁gamora	-11.3737
▁bruno	-11.3737
▁colette	-11.3737
▁penis	-11.3737
▁rustling	-11.3737
▁charging	-11.3737
▁debate	-11.3737
▁panicked	-11.3737
▁confidential	-11.3737
▁hazel	-11.3737
▁inbound	-11.3737
▁obsession	-11.3737
▁satisfaction	-11.3737
▁boris	-11.3737
▁freddy	-11.3737
▁cobra	-11.3737
▁legendary	-11.3737
▁employment	-11.3737
▁merciful	-11.3737
▁massey	-11.3738
▁franco	-11.3738
▁ellie	-11.3738
▁payroll	-11.3738
▁iife	-11.3738
▁amber	-11.3738
▁inn	-11.3739
▁shook	-11.3739
▁depot	-11.3739
▁stroll	-11.3739
▁exley	-11.3739
▁petty	-11.3739
▁yessir	-11.3739
▁augustus	-11.374
▁cairo	-11.374
▁tackle	-11.374
▁stag	-11.374
▁vigilante	-11.374
▁affection	-11.374
▁hardware	-11.374
▁pushkin	-11.374
▁phrase	-11.374
▁vast	-11.374
▁ballister	-11.374
▁mourning	-11.3741
▁adog	-11.3741
uk	-11.3741
▁touchdown	-11.3741
▁exceed	-11.3741
▁camelot	-11.3742
▁digger	-11.3742
▁conners	-11.3742
▁redford	-11.3742
▁waving	-11.3742
door	-11.3742
▁dora	-11.3743
▁shelley	-11.3743
▁avi	-11.3743
▁gutter	-11.3744
▁battery	-11.3744
▁alongside	-11.3745
▁patches	-11.3745
▁soar	-11.3745
▁princeton	-11.3745
▁dino	-11.3747
▁barish	-11.3747
▁condemned	-11.3747
▁tray	-11.3749
▁priceless	-11.3749
▁driveway	-11.375
▁intro	-11.3751
▁shrieks	-11.3751
▁plead	-11.3751
▁kent	-11.3752
▁kenta	-11.3752
▁daylight	-11.3752
▁rejected	-11.3753
▁sandwiches	-11.3753
▁specialty	-11.3753
▁achieved	-11.3754
▁tighten	-11.3755
▁collector	-11.3756
▁volunteered	-11.3758
▁palmer	-11.3759
▁rank	-11.3761
▁fhe	-11.3762
▁crooked	-11.3762
▁linger	-11.3762
▁mankind	-11.3764
▁stripper	-11.3767
▁employer	-11.3767
▁recovered	-11.3767
▁announced	-11.3769
▁boost	-11.3769
▁punished	-11.3769
▁elders	-11.377
▁funk	-11.3771
▁cord	-11.3772
▁shootout	-11.3773
▁vai	-11.3782
▁scars	-11.3782
▁deadline	-11.3783
▁min	-11.3785
cake	-11.38
▁roberto	-11.3802
▁stripes	-11.3803
▁assumed	-11.3803
▁risks	-11.3804
▁brooks	-11.3806
▁collected	-11.3808
▁tru	-11.3808
▁artie	-11.3808
▁performing	-11.3808
▁boyfriends	-11.3809
▁demanding	-11.3809
▁complaining	-11.3814
▁dialing	-11.3819
▁shocked	-11.3825
▁seth	-11.3826
▁keeper	-11.3829
▁mars	-11.3832
▁freaked	-11.3837
▁campo	-11.3837
▁funding	-11.3838
▁caring	-11.3839
▁shitting	-11.3841
▁horny	-11.385
▁posters	-11.3851
▁breaths	-11.3855
▁lace	-11.3856
▁cres	-11.3858
▁dayton	-11.3862
dis	-11.3873
▁entering	-11.3873
▁char	-11.3875
▁ruler	-11.388
▁lifted	-11.389
ach	-11.389
ku	-11.3893
▁ranks	-11.3896
▁fairly	-11.3898
▁messy	-11.3901
▁tra	-11.3904
▁comm	-11.3904
▁dared	-11.3906
▁crop	-11.3907
▁borders	-11.3907
▁ringo	-11.3908
▁anyways	-11.3915
▁her	-11.3923
▁takeoff	-11.3929
▁cla	-11.393
▁mustangs	-11.3935
▁bas	-11.3942
▁detectives	-11.3944
▁georgia	-11.3945
▁corp	-11.3948
▁brit	-11.3951
▁lure	-11.3956
▁smiles	-11.396
▁prep	-11.396
▁bal	-11.3961
sis	-11.3963
▁thankful	-11.397
cut	-11.3973
▁instincts	-11.3975
uch	-11.3981
▁characters	-11.3992
▁vet	-11.3996
▁lighting	-11.4
key	-11.4004
▁barrels	-11.4005
▁circuits	-11.4005
▁sk	-11.401
▁painter	-11.4014
range	-11.4043
▁courts	-11.4047
ich	-11.4047
▁cav	-11.4057
▁dinners	-11.4062
▁photographs	-11.4065
▁clearing	-11.4068
▁presented	-11.4068
▁misunderstand	-11.4076
▁ladys	-11.4078
▁colon	-11.4087
▁rises	-11.4095
▁mille	-11.4113
rang	-11.4114
▁fooling	-11.4122
▁ao	-11.4124
▁purposes	-11.4131
▁carla	-11.414
▁via	-11.4143
▁fro	-11.4149
▁regrets	-11.4166
▁ofthe	-11.417
▁sniff	-11.4175
▁manuel	-11.4176
pie	-11.4183
▁terrorists	-11.4183
▁ima	-11.4195
▁nor	-11.4198
▁divergent	-11.4199
▁turtle	-11.42
▁puzzle	-11.42
▁athlete	-11.4201
▁intruder	-11.4201
▁connor	-11.4202
▁bruise	-11.4203
▁marble	-11.4203
▁antique	-11.4203
▁gook	-11.4205
▁pockets	-11.4205
▁subtitle	-11.4206
▁shoots	-11.4207
▁feather	-11.4211
▁grownup	-11.4211
▁bandit	-11.4214
▁nickel	-11.4215
▁ties	-11.4222
han	-11.4237
use	-11.4242
▁locks	-11.425
▁patterns	-11.4252
▁artists	-11.4254
arm	-11.4254
▁vic	-11.4255
▁fri	-11.4258
▁prim	-11.4258
▁ret	-11.4277
▁arc	-11.4279
▁fal	-11.4285
▁mums	-11.4286
▁int	-11.4288
▁privilege	-11.429
dra	-11.4291
▁slack	-11.4292
this	-11.4296
▁jac	-11.4301
▁entertain	-11.4308
▁strain	-11.431
▁frighten	-11.4312
▁plac	-11.432
▁vomit	-11.4331
▁snoop	-11.4331
▁drift	-11.4332
▁flirt	-11.4332
▁disconnect	-11.4338
▁colour	-11.4339
▁dismiss	-11.434
▁ski	-11.434
maid	-11.4342
▁intern	-11.4346
▁improve	-11.4346
▁pledge	-11.4347
▁investigate	-11.4347
▁underestimate	-11.4347
ris	-11.4348
▁arabia	-11.4352
▁carbon	-11.4353
▁korea	-11.4354
▁gamble	-11.4355
▁torch	-11.4357
▁stitch	-11.4357
ulein	-11.4358
▁margaret	-11.436
▁stern	-11.436
▁triumph	-11.436
▁yyou	-11.4361
▁scholar	-11.4361
▁architect	-11.4361
ctical	-11.4361
▁allergic	-11.4361
▁applied	-11.4361
▁arbogast	-11.4361
▁autopsy	-11.4361
▁autumn	-11.4361
▁blossom	-11.4361
▁bourbon	-11.4361
▁cafeteria	-11.4361
▁cavalier	-11.4361
▁charlotte	-11.4361
▁cipher	-11.4361
▁convincing	-11.4361
▁corridor	-11.4361
▁covenant	-11.4361
▁curfew	-11.4361
▁damascus	-11.4361
▁deceive	-11.4361
▁dessert	-11.4361
▁detonator	-11.4361
▁dufresne	-11.4361
▁earthquake	-11.4361
▁ebenezer	-11.4361
▁exhusband	-11.4361
▁extension	-11.4361
▁fenster	-11.4361
▁fiji	-11.4361
▁gibson	-11.4361
▁gurney	-11.4361
▁innovative	-11.4361
▁invasion	-11.4361
▁investigator	-11.4361
▁knauer	-11.4361
▁malfunction	-11.4361
▁marvellous	-11.4361
▁mcqueen	-11.4361
▁merrily	-11.4361
▁module	-11.4361
▁opponent	-11.4361
▁overseas	-11.4361
▁owimoweh	-11.4361
▁penthouse	-11.4361
▁perfume	-11.4361
▁premature	-11.4361
▁quarantine	-11.4361
▁sahib	-11.4361
▁scenario	-11.4361
▁schooi	-11.4361
▁splendid	-11.4361
▁starvation	-11.4361
▁submarine	-11.4361
▁sweeney	-11.4361
▁tequila	-11.4361
▁torpedo	-11.4361
▁twilight	-11.4361
▁wangdu	-11.4361
▁wladek	-11.4361
▁crunch	-11.4361
▁envy	-11.4361
▁garcin	-11.4361
▁immune	-11.4361
▁occupation	-11.4361
▁ocp	-11.4361
▁vlad	-11.4361
▁caretaker	-11.4361
▁pennsylvania	-11.4361
▁presume	-11.4361
▁horde	-11.4361
▁cardinal	-11.4361
▁unacceptable	-11.4361
▁sponge	-11.4361
▁brittle	-11.4361
▁gordy	-11.4361
▁nanny	-11.4361
▁skunk	-11.4361
▁friedrich	-11.4361
▁database	-11.4361
▁blush	-11.4361
▁marijuana	-11.4361
▁brewery	-11.4361
▁tuition	-11.4361
▁venice	-11.4361
▁craig	-11.4361
▁viggo	-11.4361
▁rodney	-11.4361
▁roach	-11.4361
▁urine	-11.4361
▁abagnale	-11.4361
▁tingle	-11.4361
▁evacuation	-11.4361
▁patsey	-11.4361
▁swore	-11.4361
▁flourish	-11.4361
▁jeweller	-11.4362
▁definition	-11.4362
▁prosecution	-11.4362
▁dutch	-11.4362
▁depth	-11.4362
▁equation	-11.4362
▁liking	-11.4362
▁expedition	-11.4362
▁steep	-11.4362
▁chacon	-11.4362
▁poppy	-11.4362
▁sofa	-11.4362
▁pimp	-11.4362
▁roland	-11.4362
▁hector	-11.4362
▁administration	-11.4362
▁tolan	-11.4362
▁garw	-11.4362
▁documentary	-11.4362
▁flipped	-11.4362
▁sketch	-11.4362
▁raising	-11.4362
▁cloudland	-11.4362
▁attendant	-11.4362
▁scoop	-11.4362
▁turf	-11.4362
▁forehead	-11.4362
▁tractor	-11.4362
▁esther	-11.4363
▁injection	-11.4363
▁owlets	-11.4363
▁utter	-11.4363
▁muse	-11.4363
▁cec	-11.4363
▁diaz	-11.4363
▁elderly	-11.4363
▁committing	-11.4363
▁inquirer	-11.4363
▁rejection	-11.4363
▁cherish	-11.4364
▁fourteen	-11.4364
▁joob	-11.4364
▁lamont	-11.4364
▁playground	-11.4364
▁alter	-11.4364
▁maintenance	-11.4364
▁transportation	-11.4364
▁fleck	-11.4364
▁portland	-11.4364
▁slightest	-11.4364
▁tyto	-11.4364
▁courtroom	-11.4364
▁instructed	-11.4365
▁partnership	-11.4365
▁chump	-11.4365
▁february	-11.4366
▁devo	-11.4366
▁continuing	-11.4366
▁sidewalk	-11.4366
▁scooter	-11.4366
▁teasing	-11.4366
▁dice	-11.4367
▁tomatoes	-11.4367
▁qualified	-11.4368
▁vibrating	-11.4368
▁waist	-11.4368
▁carved	-11.4368
▁meaningless	-11.4368
▁shiny	-11.4369
▁tapped	-11.4369
▁colt	-11.4369
▁elite	-11.437
▁windsor	-11.437
▁branches	-11.437
▁mentor	-11.4371
▁taint	-11.4372
▁dried	-11.4372
▁archery	-11.4373
▁interfere	-11.4374
▁dube	-11.4375
▁constantly	-11.4376
▁snickers	-11.4377
▁sip	-11.4377
▁startled	-11.4378
▁poe	-11.4378
▁skipper	-11.4378
▁bedtime	-11.4378
▁alas	-11.4379
▁jock	-11.438
▁honorable	-11.438
▁equally	-11.438
▁harper	-11.4381
▁stalling	-11.4381
▁summoned	-11.4381
▁unlikely	-11.4382
▁respectable	-11.4383
▁barge	-11.4383
▁gale	-11.4384
▁nein	-11.4384
▁compare	-11.4384
▁graduated	-11.4385
▁bore	-11.4385
▁hornet	-11.4386
▁regulations	-11.4387
▁clamp	-11.4388
▁crater	-11.4389
▁rapid	-11.4389
▁switches	-11.4389
▁cellar	-11.4391
▁dickhead	-11.4392
▁freakin	-11.4393
▁signing	-11.4394
▁strikes	-11.4395
▁minions	-11.4398
▁thrilled	-11.4398
▁teamsters	-11.4398
▁agora	-11.44
▁handful	-11.4403
▁hustler	-11.4406
▁stinker	-11.4407
▁vargas	-11.4408
▁cheaper	-11.4412
▁kite	-11.4412
▁youyou	-11.4413
▁described	-11.4414
▁hicks	-11.4414
ola	-11.4414
▁lining	-11.442
▁irony	-11.4421
▁soc	-11.4422
▁steering	-11.4425
▁secured	-11.4432
▁sole	-11.4435
thered	-11.4436
▁romeo	-11.4439
▁responding	-11.444
▁brandy	-11.444
▁flowing	-11.4448
▁miracles	-11.4453
▁pier	-11.4459
▁christal	-11.446
▁agh	-11.4463
▁flyn	-11.4467
▁difficulty	-11.447
empre	-11.4471
▁missus	-11.4482
iological	-11.4484
ani	-11.4485
▁seasons	-11.4488
▁winters	-11.4488
▁lando	-11.4489
▁cheerleaders	-11.4491
▁neighs	-11.4491
▁lotion	-11.4492
▁casinos	-11.4493
▁suitcases	-11.4493
▁deeds	-11.4502
▁witnessed	-11.4502
ility	-11.4503
▁hunger	-11.4505
spel	-11.4505
▁wonders	-11.4508
▁vegetables	-11.4512
▁smoked	-11.452
▁grownups	-11.4522
▁suspected	-11.4522
▁bandits	-11.4524
read	-11.4539
▁tar	-11.4541
▁mak	-11.4541
▁awaits	-11.4542
▁seein	-11.4549
▁gag	-11.4554
▁helpless	-11.4563
▁inmates	-11.4564
▁realm	-11.4573
▁civilians	-11.4574
▁slower	-11.4575
▁haste	-11.4583
▁hoot	-11.4588
▁hacker	-11.4592
▁dated	-11.4594
▁contents	-11.4595
▁weighs	-11.4596
▁biting	-11.4597
▁ming	-11.4598
six	-11.4601
▁tut	-11.4604
▁offers	-11.4605
eave	-11.4609
▁traps	-11.4616
▁amor	-11.4616
▁enterprises	-11.4617
haz	-11.4617
▁hen	-11.4621
▁sorts	-11.4622
▁cd	-11.4623
▁sho	-11.4631
▁individuals	-11.4637
eau	-11.4641
cus	-11.4643
▁toots	-11.4648
▁destroying	-11.4653
born	-11.4655
inch	-11.4662
shit	-11.4678
▁scale	-11.4684
▁sausages	-11.469
▁mills	-11.4699
▁nana	-11.4705
ines	-11.4716
▁bri	-11.4721
▁feared	-11.4721
▁homey	-11.4723
cia	-11.4734
▁claus	-11.4736
▁forge	-11.4759
▁shells	-11.4764
ations	-11.4766
▁taps	-11.4767
▁grounded	-11.4767
▁lamp	-11.4769
▁comments	-11.4774
aid	-11.4774
▁shotguns	-11.4776
▁trusting	-11.4777
▁pressures	-11.4785
▁coordinate	-11.4795
ists	-11.4803
▁fianc	-11.4814
▁watchin	-11.4825
▁joan	-11.4842
▁peek	-11.4842
▁pipes	-11.4851
▁cowards	-11.4859
▁chicks	-11.4859
▁carrie	-11.4863
▁maniac	-11.4865
▁suspicion	-11.4867
▁orc	-11.4867
▁ambition	-11.4867
▁emotion	-11.4867
▁fugitive	-11.4867
▁phillip	-11.4868
▁vegetable	-11.4869
▁troll	-11.4869
▁jingle	-11.4871
▁tyre	-11.4873
▁elses	-11.4876
▁curl	-11.4883
▁disse	-11.4884
▁turner	-11.4892
▁dorm	-11.4913
▁greeting	-11.4915
bur	-11.492
▁ros	-11.4937
▁roller	-11.4938
▁alarms	-11.4944
▁prisons	-11.4961
▁psych	-11.4963
indo	-11.4964
▁vip	-11.4966
▁porn	-11.4971
▁paste	-11.4975
▁unlock	-11.498
▁reai	-11.4982
▁author	-11.4983
▁gran	-11.4988
piece	-11.499
place	-11.5001
▁actors	-11.5002
▁invent	-11.5002
making	-11.5004
▁adopt	-11.5004
▁summon	-11.5007
▁retard	-11.5007
▁spank	-11.5009
ama	-11.5012
▁riches	-11.5012
▁refuge	-11.5015
▁filth	-11.5016
▁numb	-11.5019
▁traces	-11.5021
▁austria	-11.5022
▁cockroach	-11.5024
▁rog	-11.5025
▁trim	-11.5025
▁reception	-11.5026
▁intent	-11.5027
▁abbey	-11.5028
▁advertising	-11.5028
▁australia	-11.5028
▁awhile	-11.5028
▁barnaby	-11.5028
▁belfast	-11.5028
▁brotherinlaw	-11.5028
▁buttercup	-11.5028
▁bypass	-11.5028
▁carlisle	-11.5028
▁cavalry	-11.5028
▁cemetery	-11.5028
▁christopher	-11.5028
▁climate	-11.5028
▁collignon	-11.5028
▁confusing	-11.5028
▁cottage	-11.5028
▁crimson	-11.5028
▁dauphin	-11.5028
▁doorknob	-11.5028
▁dowry	-11.5028
▁dungeon	-11.5028
▁enhance	-11.5028
▁eskimo	-11.5028
▁expired	-11.5028
▁forecast	-11.5028
▁gretl	-11.5028
▁hasnat	-11.5028
▁hercule	-11.5028
▁huddle	-11.5028
▁indulge	-11.5028
▁isildur	-11.5028
▁judging	-11.5028
▁judicia	-11.5028
▁jupiter	-11.5028
▁kwame	-11.5028
▁llorona	-11.5028
▁luxury	-11.5028
▁meatloaf	-11.5028
▁melissa	-11.5028
▁microwave	-11.5028
▁moustafa	-11.5028
▁obstacle	-11.5028
▁ofrenda	-11.5028
▁okkoto	-11.5028
▁participate	-11.5028
▁precaution	-11.5028
▁prophecy	-11.5028
▁prostitute	-11.5028
▁rodolfo	-11.5028
▁rodriguez	-11.5028
▁satsuki	-11.5028
▁shinyoung	-11.5028
▁stiii	-11.5028
▁stilgar	-11.5028
▁stockbroker	-11.5028
▁subtle	-11.5028
▁sufficient	-11.5028
▁sybok	-11.5028
▁sympathy	-11.5028
▁terrifying	-11.5028
▁tirith	-11.5028
▁translation	-11.5028
▁unpredictable	-11.5028
▁variety	-11.5028
▁vulcan	-11.5028
▁wachootoo	-11.5028
voodoo	-11.5028
▁hooray	-11.5028
▁phony	-11.5028
▁puddle	-11.5028
▁sushi	-11.5028
▁woohoo	-11.5028
▁goodwill	-11.5028
▁infected	-11.5028
▁spear	-11.5028
▁millionaire	-11.5028
▁tolerate	-11.5028
▁backstage	-11.5028
▁iisten	-11.5028
▁bloodshed	-11.5028
▁hottest	-11.5028
▁transaction	-11.5028
▁bundle	-11.5028
▁landscape	-11.5028
▁casualties	-11.5028
▁resort	-11.5028
▁interior	-11.5028
▁slurping	-11.5028
▁garrad	-11.5028
▁francs	-11.5028
▁orlando	-11.5028
▁scramble	-11.5028
▁baldwin	-11.5028
▁dripping	-11.5028
▁jeong	-11.5028
▁absence	-11.5028
▁loony	-11.5028
▁quando	-11.5028
▁compensation	-11.5028
▁keltus	-11.5028
▁opium	-11.5028
▁poopsie	-11.5028
▁representative	-11.5028
▁zeena	-11.5028
▁industrial	-11.5028
▁patron	-11.5028
▁flea	-11.5028
▁nitro	-11.5028
▁consistent	-11.5028
▁genetic	-11.5028
▁referee	-11.5028
▁whwhat	-11.5028
▁automatically	-11.5028
▁outrun	-11.5028
▁upright	-11.5028
▁lulu	-11.5028
▁motto	-11.5028
▁terrorism	-11.5029
▁tanner	-11.5029
▁ahoy	-11.5029
▁krest	-11.5029
▁organism	-11.5029
▁mature	-11.5029
▁piggy	-11.5029
▁swish	-11.5029
▁descent	-11.5029
▁deliberately	-11.5029
▁roam	-11.5029
▁morse	-11.5029
▁poetry	-11.5029
▁azul	-11.5029
▁moonlight	-11.5029
▁rogas	-11.5029
▁occupied	-11.5029
▁dragging	-11.5029
▁chopped	-11.5029
▁revolutionary	-11.5029
▁shep	-11.5029
▁filter	-11.5029
▁cruising	-11.5029
▁snot	-11.5029
▁psychotic	-11.503
▁retirement	-11.503
▁pals	-11.503
▁reflection	-11.503
▁whim	-11.503
▁exhibition	-11.503
▁ignorant	-11.503
▁cartel	-11.503
▁fisherman	-11.503
▁sunlight	-11.503
▁elsewhere	-11.503
▁jayson	-11.503
▁handwriting	-11.503
▁instructor	-11.5031
▁ernesto	-11.5031
▁recognition	-11.5031
▁terrain	-11.5031
▁omice	-11.5031
▁stir	-11.5031
▁hotshot	-11.5031
▁quill	-11.5032
▁auf	-11.5032
▁exile	-11.5032
▁gps	-11.5032
▁huntley	-11.5032
▁authorized	-11.5032
▁kgb	-11.5032
▁stitches	-11.5032
▁franz	-11.5032
▁tack	-11.5032
▁frequency	-11.5033
▁loco	-11.5033
▁serk	-11.5033
▁starship	-11.5033
▁wi	-11.5033
▁hence	-11.5033
▁suspended	-11.5033
▁humiliated	-11.5034
▁disabled	-11.5034
▁ivan	-11.5035
▁bien	-11.5036
▁recommendation	-11.5036
▁journalist	-11.5036
▁micro	-11.5036
▁settlement	-11.5036
▁nightfall	-11.5037
▁sour	-11.5037
▁published	-11.5039
▁aka	-11.5039
▁patriot	-11.5039
▁snorting	-11.5039
▁kidney	-11.504
▁charter	-11.504
▁richardson	-11.504
▁asian	-11.5041
▁whores	-11.5041
▁stealth	-11.5041
▁colony	-11.5041
▁slavery	-11.5042
▁inherited	-11.5042
▁moss	-11.5043
▁shushing	-11.5043
▁reply	-11.5043
▁flown	-11.5043
▁formation	-11.5043
▁wolfie	-11.5045
▁bl	-11.5046
▁jackass	-11.5056
▁runner	-11.5058
▁spite	-11.5058
▁intr	-11.506
▁ce	-11.506
▁regarding	-11.5061
▁attracted	-11.5062
▁bein	-11.5064
▁philly	-11.5064
▁physically	-11.5066
▁lair	-11.5067
▁fury	-11.5068
▁portion	-11.5069
▁om	-11.5071
▁shaken	-11.5074
▁specialist	-11.5074
▁originally	-11.5077
▁insects	-11.5078
▁helena	-11.5079
▁smartest	-11.5079
▁iooking	-11.508
▁healed	-11.5081
▁ang	-11.5084
▁sweetest	-11.5088
▁dispatcher	-11.5089
▁snorts	-11.5089
burn	-11.5089
▁purely	-11.5091
▁depending	-11.5091
▁docking	-11.5093
▁scheduled	-11.5094
▁archer	-11.5098
▁correctly	-11.5099
▁pinch	-11.5105
▁kisses	-11.511
▁teammates	-11.5111
▁simpler	-11.5112
▁johns	-11.5115
▁contra	-11.5116
▁hardy	-11.512
▁hangman	-11.5121
▁estimate	-11.5122
▁warmer	-11.5124
▁rev	-11.5127
▁leaning	-11.5128
▁mightve	-11.5128
▁slo	-11.5129
coat	-11.5131
▁squeaks	-11.5134
▁ape	-11.5136
▁strap	-11.5138
liness	-11.5138
zy	-11.5147
▁votes	-11.516
▁summers	-11.5164
▁colleagues	-11.5167
▁ruled	-11.5172
ino	-11.5177
▁pricks	-11.5181
▁mhm	-11.5181
▁professionals	-11.5181
don	-11.5182
▁gru	-11.5185
▁that	-11.5186
▁tearing	-11.5186
▁fasten	-11.5188
▁sei	-11.519
▁proto	-11.5194
▁cooked	-11.5195
nows	-11.5196
▁bog	-11.5201
kes	-11.5211
▁moans	-11.5212
▁hunted	-11.5215
part	-11.5217
▁eyeballs	-11.5223
▁turd	-11.5224
▁cp	-11.5227
▁appreciated	-11.5228
▁savages	-11.5234
▁christie	-11.5241
▁neednt	-11.5245
▁taped	-11.525
▁hollows	-11.5256
▁dar	-11.5257
▁lemons	-11.5267
▁formal	-11.5283
eye	-11.5286
▁pressed	-11.5286
▁pointed	-11.5288
ord	-11.5289
▁compliments	-11.529
▁sailors	-11.5291
heads	-11.5296
▁cove	-11.5297
gon	-11.5304
▁blinded	-11.5305
▁products	-11.5305
▁una	-11.5313
▁pra	-11.5326
shot	-11.5331
▁eatin	-11.534
misunderstanding	-11.5342
▁speeding	-11.5343
▁yii	-11.5344
▁blo	-11.5351
▁tro	-11.5352
run	-11.5361
▁demo	-11.5368
unk	-11.5376
uous	-11.5384
▁diver	-11.5387
▁includes	-11.5392
▁camper	-11.5393
▁for	-11.5393
▁marys	-11.5395
▁musicians	-11.5403
▁shirts	-11.541
▁cum	-11.5413
▁abba	-11.5421
▁fees	-11.5422
▁awards	-11.5425
▁seated	-11.5427
▁cora	-11.544
▁logs	-11.5441
▁defi	-11.5442
▁italians	-11.5465
▁gel	-11.5465
▁designs	-11.5466
▁rad	-11.5467
▁pod	-11.547
▁fam	-11.5484
▁peters	-11.5485
cent	-11.5489
was	-11.5498
▁requests	-11.5511
▁films	-11.5516
rry	-11.5524
▁metall	-11.553
▁accelerate	-11.5536
▁costumes	-11.5539
▁mimic	-11.5542
ison	-11.5544
▁hospitals	-11.555
▁adams	-11.555
did	-11.5553
▁exclaim	-11.5558
mond	-11.5563
▁paths	-11.5564
▁kar	-11.5571
▁tours	-11.5575
▁rattlesnake	-11.558
▁ankle	-11.558
▁pikey	-11.558
▁elbow	-11.5581
wan	-11.5582
▁conviction	-11.5582
▁sinner	-11.5583
▁pearl	-11.5584
▁politician	-11.5585
▁bean	-11.5593
▁rifles	-11.5596
▁airline	-11.5602
ida	-11.5604
▁hike	-11.561
ika	-11.5612
▁arr	-11.5612
urg	-11.5616
hu	-11.5617
▁hu	-11.562
lux	-11.5621
ria	-11.5621
yearold	-11.5635
▁queer	-11.5645
▁bel	-11.5648
▁ref	-11.565
eater	-11.5656
▁ant	-11.5672
▁ki	-11.5679
▁vil	-11.5679
▁we	-11.5688
izz	-11.5689
▁soak	-11.5691
▁embarrass	-11.5692
▁gall	-11.5694
▁careless	-11.57
▁decorat	-11.5708
▁glow	-11.5716
yeah	-11.5717
▁adjust	-11.5719
▁exhaust	-11.5721
▁haunt	-11.5721
coco	-11.5722
home	-11.5723
▁familia	-11.5724
▁badges	-11.5724
▁resolve	-11.5728
▁sights	-11.5728
▁acknowledge	-11.5729
▁thirst	-11.573
most	-11.5732
▁krypto	-11.5735
▁villa	-11.5736
▁hyper	-11.5736
▁historic	-11.5738
▁harris	-11.5738
▁deflect	-11.5741
iness	-11.5741
▁casual	-11.5741
▁avenge	-11.5741
▁infant	-11.5742
▁philip	-11.5742
▁excess	-11.5742
▁distinct	-11.5742
▁fiddle	-11.5742
▁globe	-11.5742
▁morphine	-11.5742
▁profound	-11.5742
▁antarctic	-11.5742
▁arwen	-11.5742
▁bacall	-11.5742
▁buchanan	-11.5742
▁budapest	-11.5742
▁cicero	-11.5742
▁condolences	-11.5742
▁contradict	-11.5742
▁copilot	-11.5742
▁crusade	-11.5742
▁cuckoo	-11.5742
▁democracy	-11.5742
▁dialogue	-11.5742
▁dylan	-11.5742
▁elaborate	-11.5742
▁eleanor	-11.5742
▁episode	-11.5742
▁exorcism	-11.5742
▁facilities	-11.5742
▁fanfare	-11.5742
▁fiction	-11.5742
▁glitch	-11.5742
▁gravy	-11.5742
▁hebrew	-11.5742
▁humiliating	-11.5742
▁ignoring	-11.5742
▁improvise	-11.5742
▁intergang	-11.5742
▁intimate	-11.5742
▁jamboree	-11.5742
▁klingon	-11.5742
▁limousine	-11.5742
▁maximus	-11.5742
▁medieval	-11.5742
▁melancholy	-11.5742
▁mousetrap	-11.5742
▁muffin	-11.5742
▁nevada	-11.5742
▁oklahoma	-11.5742
▁ongoing	-11.5742
▁pentagon	-11.5742
▁pentangeli	-11.5742
▁perspective	-11.5742
▁pessoa	-11.5742
▁poverty	-11.5742
▁prairie	-11.5742
▁premises	-11.5742
▁probation	-11.5742
▁puppet	-11.5742
▁randazzo	-11.5742
▁reconsider	-11.5742
▁recycl	-11.5742
▁scorpion	-11.5742
▁separation	-11.5742
▁shakusky	-11.5742
▁soninlaw	-11.5742
▁sonofabitch	-11.5742
▁spaghetti	-11.5742
▁strawberries	-11.5742
▁swedish	-11.5742
▁telegraph	-11.5742
▁thermal	-11.5742
▁veronica	-11.5742
▁vlog	-11.5742
▁wachati	-11.5742
▁wheelchair	-11.5742
▁whichever	-11.5742
▁whitaker	-11.5742
▁wiedersehen	-11.5742
▁buena	-11.5742
▁checkmate	-11.5742
▁debbie	-11.5742
▁nylon	-11.5742
▁oink	-11.5742
▁otterbourne	-11.5742
▁skelet	-11.5742
▁sliding	-11.5742
▁sperm	-11.5742
▁altar	-11.5742
▁elevate	-11.5742
▁innocence	-11.5742
▁parsons	-11.5742
▁tammie	-11.5742
▁amusing	-11.5742
▁carolyn	-11.5742
▁courtesan	-11.5742
▁optimistic	-11.5742
▁lansky	-11.5742
▁backpack	-11.5742
▁hamster	-11.5742
▁iast	-11.5742
▁swimmer	-11.5742
▁aspect	-11.5742
▁harbour	-11.5742
▁prototype	-11.5742
▁voight	-11.5742
▁jigsaw	-11.5742
▁radius	-11.5742
▁simpkins	-11.5742
▁florence	-11.5742
▁vivi	-11.5742
▁housing	-11.5742
▁sheik	-11.5742
▁psychological	-11.5742
▁sloppy	-11.5742
▁parcher	-11.5742
▁holler	-11.5742
▁trading	-11.5742
▁alguma	-11.5742
▁blares	-11.5743
▁referring	-11.5743
▁rewind	-11.5743
▁vague	-11.5743
▁shred	-11.5743
▁repay	-11.5743
▁chemistry	-11.5743
▁townsend	-11.5743
▁prosecutor	-11.5743
▁begged	-11.5743
▁absent	-11.5743
▁gagging	-11.5743
▁chute	-11.5743
▁insert	-11.5743
▁enoch	-11.5743
▁iq	-11.5743
▁curb	-11.5743
▁amuse	-11.5743
▁rizzio	-11.5743
▁mailbox	-11.5743
▁sniffling	-11.5743
▁chorus	-11.5743
▁twentytwo	-11.5743
▁babysitter	-11.5743
▁gamma	-11.5743
▁bruv	-11.5743
▁improvement	-11.5743
▁redeem	-11.5744
▁transferring	-11.5744
▁underway	-11.5744
▁aight	-11.5744
▁tasty	-11.5744
▁rotting	-11.5744
▁fiber	-11.5744
▁brute	-11.5744
▁harness	-11.5744
▁viva	-11.5744
▁phu	-11.5744
▁bradley	-11.5744
▁hatchet	-11.5744
▁gimli	-11.5745
▁oof	-11.5745
▁retro	-11.5745
▁dunno	-11.5745
▁fluffy	-11.5745
▁landmark	-11.5746
▁countdown	-11.5746
▁brock	-11.5746
▁rico	-11.5746
▁khan	-11.5747
▁kettle	-11.5747
▁judean	-11.5747
▁allowance	-11.5747
▁educated	-11.5747
▁jamis	-11.5748
▁stanley	-11.5748
▁dragonhead	-11.5748
▁fuzzy	-11.5749
▁satan	-11.5749
▁guardsmen	-11.5749
▁eise	-11.5749
▁rally	-11.5749
▁amity	-11.5749
▁semi	-11.5749
▁paddle	-11.5749
▁relieved	-11.575
▁magician	-11.5751
▁rj	-11.5751
▁pause	-11.5751
▁courthouse	-11.5752
▁pj	-11.5752
▁peril	-11.5752
▁gem	-11.5754
▁chow	-11.5754
▁marco	-11.5754
▁amazed	-11.5754
▁mamma	-11.5755
▁legit	-11.5755
▁facebook	-11.5755
▁samson	-11.5756
▁realise	-11.5756
▁acquired	-11.5759
▁skid	-11.5759
▁wretched	-11.5759
▁dental	-11.5763
▁declared	-11.5766
▁divided	-11.5768
▁discovery	-11.5769
▁explorer	-11.577
dale	-11.5773
▁recruited	-11.5774
▁disrespectful	-11.5776
▁slimy	-11.5776
▁col	-11.5777
far	-11.5777
▁mild	-11.5778
▁crashes	-11.5778
▁activated	-11.578
▁mining	-11.578
ati	-11.5782
▁trotters	-11.5784
▁elle	-11.5785
▁your	-11.5786
▁stain	-11.5786
▁blessings	-11.5792
▁weeping	-11.5793
▁jabba	-11.5793
▁hag	-11.5794
▁skilled	-11.5795
▁panthers	-11.5796
▁wiped	-11.5796
▁goldie	-11.5796
▁tracey	-11.5802
▁yithe	-11.5803
▁taller	-11.5803
▁mutt	-11.5803
▁teaches	-11.5805
ert	-11.5806
▁crocodiles	-11.5808
▁shatters	-11.5808
▁vase	-11.5808
▁rang	-11.5812
▁homeland	-11.5817
▁hats	-11.5823
▁printed	-11.5823
▁assaulted	-11.5824
▁respects	-11.5824
▁uk	-11.5828
▁mouths	-11.583
rid	-11.5832
▁recognized	-11.5837
▁morg	-11.5837
▁scored	-11.5838
▁squirrels	-11.5844
ski	-11.5846
dest	-11.5848
▁situations	-11.5859
▁blamed	-11.5859
▁mul	-11.586
▁subjects	-11.5861
▁attempting	-11.5865
▁mathematics	-11.5866
▁iot	-11.5878
▁readers	-11.588
▁decades	-11.588
▁heels	-11.588
▁badger	-11.5881
▁fangs	-11.5881
▁burp	-11.5881
yer	-11.5889
▁spying	-11.5889
▁placement	-11.589
▁errol	-11.5892
▁crawler	-11.5895
▁cutter	-11.5902
▁rum	-11.5902
▁adore	-11.5907
▁moth	-11.5907
▁builds	-11.5908
▁shorter	-11.5917
umb	-11.5919
▁gags	-11.5921
▁verse	-11.5924
▁bruises	-11.5928
▁antiques	-11.5928
▁gallo	-11.593
▁bru	-11.5932
▁penetrate	-11.5935
▁halls	-11.5942
▁charlies	-11.5948
▁gardening	-11.5949
▁judged	-11.5952
▁pissing	-11.5954
ult	-11.5957
▁signor	-11.5959
▁arts	-11.5959
▁flyer	-11.596
▁pas	-11.5966
▁gonga	-11.5971
▁camel	-11.5972
here	-11.5973
▁mala	-11.5974
▁reno	-11.5975
▁temperatures	-11.5976
eight	-11.5981
▁maps	-11.5986
mans	-11.5988
▁yorker	-11.5992
▁sticky	-11.5999
get	-11.6005
▁glue	-11.6009
▁meals	-11.6012
▁assassins	-11.6014
▁git	-11.6014
▁linen	-11.6014
▁sr	-11.6015
▁lib	-11.6017
▁shootin	-11.6021
▁stamps	-11.6023
▁bodyguards	-11.6025
▁andys	-11.6036
▁sur	-11.604
▁contacted	-11.6041
▁robbers	-11.6049
▁screws	-11.605
▁complaints	-11.605
▁fuckup	-11.6052
▁winnings	-11.606
▁trials	-11.6071
▁info	-11.6076
other	-11.6082
path	-11.6084
▁sup	-11.6087
▁oz	-11.6093
▁emt	-11.6096
▁traditional	-11.6097
▁bobbles	-11.6097
▁webs	-11.6108
▁benefits	-11.611
▁soviets	-11.611
lla	-11.6115
▁gardens	-11.6116
▁symbols	-11.6121
paid	-11.6123
hard	-11.6124
ami	-11.6132
▁ado	-11.6149
▁rim	-11.6157
▁samuel	-11.6161
▁emails	-11.617
▁choppers	-11.6171
▁lasted	-11.6171
cept	-11.6178
▁inf	-11.6204
▁towels	-11.6207
▁profits	-11.6207
▁arabs	-11.6207
▁mayors	-11.6208
▁sap	-11.6213
▁communists	-11.6231
▁glu	-11.6233
air	-11.6241
nal	-11.6284
tis	-11.629
▁contain	-11.6291
▁ave	-11.6291
ju	-11.6299
▁slum	-11.63
▁pits	-11.6305
▁tre	-11.6311
abie	-11.6316
▁neigh	-11.6323
▁fig	-11.6329
uv	-11.6341
bit	-11.6342
▁sleeve	-11.6348
▁olympic	-11.635
▁colleague	-11.6353
▁cheerleader	-11.6353
▁todo	-11.6354
▁survivor	-11.6355
▁couples	-11.6355
faced	-11.6358
▁vera	-11.6362
▁owed	-11.6369
▁goals	-11.6376
▁visions	-11.6379
ius	-11.638
▁objects	-11.6392
ancho	-11.6401
▁explosions	-11.6404
▁ps	-11.6406
▁captains	-11.6406
▁mic	-11.6406
ttle	-11.6407
▁porqu	-11.6409
▁differences	-11.6413
▁tones	-11.642
▁bookie	-11.6425
▁flick	-11.6429
▁shifts	-11.6429
ove	-11.643
eur	-11.6434
▁tel	-11.6438
▁dart	-11.6446
▁hunts	-11.6447
▁holdin	-11.6449
▁depart	-11.6463
▁tick	-11.6468
▁tit	-11.6472
▁predict	-11.6477
istic	-11.6477
ability	-11.6477
print	-11.6481
▁examine	-11.6481
▁disgust	-11.6483
scope	-11.6484
dressed	-11.6485
second	-11.6487
▁reject	-11.6487
state	-11.6487
▁expand	-11.6489
▁cri	-11.649
▁addict	-11.6491
▁dread	-11.6494
▁grit	-11.6496
▁retrieve	-11.6497
▁decline	-11.6498
▁amaze	-11.6498
▁confuse	-11.6499
▁rio	-11.6499
▁promote	-11.6499
▁frost	-11.6502
▁judea	-11.6506
▁republic	-11.6506
▁bret	-11.6507
▁surge	-11.6507
▁withdraw	-11.6507
▁loaf	-11.6508
▁grove	-11.6509
▁debora	-11.651
▁evolution	-11.6511
▁domestic	-11.6511
▁hydro	-11.6511
greatgrandfather	-11.6511
▁absorb	-11.6511
▁aerial	-11.6511
▁alessandra	-11.6511
▁bieber	-11.6511
▁blimey	-11.6511
▁boulevard	-11.6511
▁bouquet	-11.6511
▁chitty	-11.6511
▁cognac	-11.6511
▁competitive	-11.6511
▁congratulate	-11.6511
▁consigliere	-11.6511
▁contingency	-11.6511
▁cratchit	-11.6511
▁cunning	-11.6511
▁curiosity	-11.6511
▁defensive	-11.6511
▁discreet	-11.6511
▁execution	-11.6511
▁exquisite	-11.6511
▁ezra	-11.6511
▁faramir	-11.6511
▁felicia	-11.6511
▁felipe	-11.6511
▁fragment	-11.6511
▁frequent	-11.6511
▁gretel	-11.6511
▁gylfie	-11.6511
▁heritage	-11.6511
▁hubbard	-11.6511
▁imbecile	-11.6511
▁intellectual	-11.6511
▁involving	-11.6511
▁isengard	-11.6511
▁jefferies	-11.6511
▁katherine	-11.6511
▁kowalski	-11.6511
▁lyze	-11.6511
▁mackenzie	-11.6511
▁mclaren	-11.6511
▁meditation	-11.6511
▁meredith	-11.6511
▁miranda	-11.6511
▁mufasa	-11.6511
▁nuisance	-11.6511
▁oasis	-11.6511
▁pakistan	-11.6511
▁psychiatric	-11.6511
▁raccoon	-11.6511
▁rebellion	-11.6511
▁scorch	-11.6511
▁shazam	-11.6511
▁shelby	-11.6511
▁shrubbery	-11.6511
▁subpoena	-11.6511
▁sutler	-11.6511
▁symphony	-11.6511
▁taihoi	-11.6511
▁talvez	-11.6511
▁tennessee	-11.6511
▁tirzah	-11.6511
▁torrance	-11.6511
▁unemployed	-11.6511
▁vegetarian	-11.6511
▁veruca	-11.6511
▁watson	-11.6511
▁weasel	-11.6511
▁wheezing	-11.6511
▁decree	-11.6511
▁humbly	-11.6511
▁karras	-11.6511
▁komay	-11.6511
▁kumar	-11.6511
▁reinforcements	-11.6511
▁sensible	-11.6511
▁torment	-11.6511
▁cackle	-11.6511
▁candor	-11.6511
▁cayman	-11.6511
▁cinderella	-11.6511
▁dvd	-11.6511
▁ironworks	-11.6511
▁kynes	-11.6511
▁natalie	-11.6511
▁wilderness	-11.6511
▁heinrich	-11.6511
▁judas	-11.6511
▁seminar	-11.6511
▁tatsi	-11.6511
▁manifest	-11.6511
▁spades	-11.6511
▁toothbrush	-11.6511
▁zhang	-11.6511
▁oyster	-11.6511
▁heap	-11.6511
▁hyman	-11.6511
▁infirmary	-11.6511
▁introduction	-11.6511
▁lainie	-11.6511
▁ragsdale	-11.6511
▁welcoming	-11.6511
▁valerie	-11.6511
▁regain	-11.6511
▁heartache	-11.6511
▁stunning	-11.6511
▁monica	-11.6511
▁microphone	-11.6512
▁heavier	-11.6512
▁unstable	-11.6512
▁hungarian	-11.6512
▁aiways	-11.6512
▁willard	-11.6512
▁shrine	-11.6512
▁skateboard	-11.6512
▁interstate	-11.6512
▁radical	-11.6512
▁insight	-11.6512
▁chunk	-11.6512
▁interference	-11.6512
▁lemonade	-11.6512
▁upstate	-11.6512
▁baywatch	-11.6512
▁pupil	-11.6512
▁kenzie	-11.6512
▁scram	-11.6512
▁morgue	-11.6512
▁gallant	-11.6512
▁smitty	-11.6512
▁gourd	-11.6512
▁solando	-11.6512
▁providence	-11.6512
▁saloon	-11.6512
▁zipper	-11.6512
▁arielle	-11.6512
▁software	-11.6512
▁indio	-11.6512
▁graveyard	-11.6512
▁whiskers	-11.6512
▁fudge	-11.6512
▁truce	-11.6512
▁blindfold	-11.6513
▁drool	-11.6513
▁burial	-11.6513
▁killin	-11.6513
▁whipped	-11.6513
▁captive	-11.6513
▁slash	-11.6513
▁granddad	-11.6513
▁receptionist	-11.6513
▁arson	-11.6513
▁delusional	-11.6513
▁foam	-11.6513
▁eww	-11.6513
▁ritz	-11.6513
▁deborah	-11.6513
▁jonny	-11.6513
▁lionesses	-11.6513
▁timmy	-11.6513
▁notebook	-11.6513
▁lalala	-11.6513
▁undone	-11.6513
▁informant	-11.6514
▁simulation	-11.6514
▁permitted	-11.6514
▁denial	-11.6514
▁token	-11.6514
▁punt	-11.6514
▁corruption	-11.6514
▁hol	-11.6514
▁madison	-11.6514
▁faun	-11.6514
▁marge	-11.6514
▁ethic	-11.6514
▁rodent	-11.6514
▁minority	-11.6514
▁literature	-11.6514
▁leadership	-11.6515
▁preferred	-11.6515
▁lease	-11.6515
▁jackpot	-11.6515
▁strangler	-11.6515
▁beau	-11.6515
▁isolated	-11.6515
▁sheer	-11.6515
▁jerkoff	-11.6515
▁fellowship	-11.6515
▁skate	-11.6515
▁organic	-11.6516
▁marx	-11.6516
▁celeste	-11.6516
▁devoted	-11.6516
▁royalty	-11.6517
▁consist	-11.6517
▁grain	-11.6517
▁tipped	-11.6517
ridge	-11.6517
▁accidents	-11.6518
▁austrian	-11.6518
▁urge	-11.6518
▁alcoholic	-11.6518
▁bash	-11.6518
▁sincerely	-11.6519
▁felony	-11.652
▁goofy	-11.652
▁giri	-11.6522
▁juliet	-11.6522
▁rapidly	-11.6522
▁bushes	-11.6522
▁choi	-11.6522
▁rail	-11.6524
▁shattering	-11.6524
▁fatty	-11.6525
boat	-11.6527
▁wedge	-11.6527
▁brotherhood	-11.6527
▁ifyou	-11.6528
▁invaded	-11.6528
▁lacey	-11.6528
▁cutler	-11.6529
▁suspense	-11.6531
▁ghostbusters	-11.6531
▁machinery	-11.6533
▁deed	-11.6533
▁lust	-11.6533
▁contained	-11.6533
▁maple	-11.6534
▁stud	-11.6534
ming	-11.6535
▁exploded	-11.6535
▁hunk	-11.6535
▁gunner	-11.6536
▁unloading	-11.6536
▁wel	-11.6536
▁hiram	-11.6537
▁surrounding	-11.6538
▁grinding	-11.6538
▁farley	-11.6539
▁scope	-11.6539
▁employed	-11.654
▁superb	-11.6541
▁cone	-11.6541
▁rental	-11.6542
▁levin	-11.6542
▁offended	-11.6542
▁baked	-11.6542
▁tina	-11.6543
▁remo	-11.6543
▁models	-11.6543
▁yella	-11.6545
▁photography	-11.6546
▁shithole	-11.6546
▁seized	-11.6547
▁flirting	-11.6547
▁erased	-11.6551
▁sounding	-11.6552
pot	-11.6553
▁daring	-11.6553
▁hiring	-11.6553
ification	-11.6555
▁provisions	-11.6557
▁melting	-11.6557
▁eta	-11.6557
▁desperately	-11.6558
▁crate	-11.6561
▁eighth	-11.6561
▁rarely	-11.6562
▁policemen	-11.6562
▁dia	-11.6563
▁emerge	-11.6564
▁headline	-11.6564
▁lvan	-11.6566
▁armored	-11.6566
ddy	-11.6567
▁boiling	-11.657
▁sentenced	-11.6572
▁wired	-11.6574
▁defeated	-11.6575
▁yale	-11.6576
▁clang	-11.6576
▁gigant	-11.6581
▁taff	-11.6582
▁wheeler	-11.6584
▁landers	-11.6586
▁confessed	-11.6587
▁representing	-11.6588
▁audit	-11.6588
▁handles	-11.6588
▁baptist	-11.6592
▁damp	-11.6594
hig	-11.6594
▁valued	-11.6595
▁mainly	-11.66
▁booster	-11.66
▁yelled	-11.6601
talk	-11.6604
vasive	-11.6605
▁smithy	-11.6606
▁footprints	-11.6608
▁euros	-11.6609
▁cryin	-11.6609
▁mmmmmm	-11.661
ves	-11.6611
▁connecting	-11.6615
▁spec	-11.6617
▁helms	-11.6621
about	-11.6622
rent	-11.6626
pre	-11.6631
▁geezer	-11.6632
▁andre	-11.6633
▁trumpets	-11.6635
▁evans	-11.6635
▁sites	-11.6635
▁visa	-11.6637
ural	-11.6637
▁fails	-11.6641
▁compet	-11.6643
▁hitch	-11.6645
▁cocking	-11.6646
▁pyramids	-11.6647
▁rattles	-11.6648
▁treaty	-11.6653
▁gown	-11.6654
▁stat	-11.6659
▁rin	-11.666
▁boos	-11.666
▁cages	-11.6662
▁runway	-11.6665
▁bangs	-11.6665
▁explore	-11.6667
▁smiley	-11.667
▁fuji	-11.667
▁hue	-11.6671
▁covers	-11.6672
position	-11.6677
▁mes	-11.6678
edup	-11.6681
▁gangs	-11.6681
come	-11.6691
card	-11.6694
▁phillips	-11.67
▁tempt	-11.6706
▁prayed	-11.6706
cam	-11.671
▁turtles	-11.6715
hen	-11.6717
▁lesser	-11.6722
▁polo	-11.6724
▁ae	-11.6726
▁formed	-11.6726
▁joints	-11.6726
uh	-11.6727
▁volunteers	-11.6727
lid	-11.6728
onde	-11.673
▁rainy	-11.6734
▁hangin	-11.6737
▁tame	-11.6741
▁standards	-11.6742
▁deserted	-11.6748
▁poss	-11.6751
▁riddles	-11.6752
▁classy	-11.6753
ato	-11.6754
▁umm	-11.6756
▁colder	-11.6758
▁vou	-11.676
▁oft	-11.6763
▁conclusions	-11.6765
iz	-11.6767
▁shuffle	-11.677
▁partys	-11.6773
gun	-11.6774
▁presidents	-11.6776
ties	-11.6778
take	-11.6785
iu	-11.6785
▁womans	-11.6788
▁dimensions	-11.6791
▁peanuts	-11.6791
ub	-11.6793
▁mmmmm	-11.6797
poli	-11.6798
▁weary	-11.6799
▁conc	-11.68
▁kilos	-11.6803
▁pum	-11.6809
▁unite	-11.6816
ric	-11.6817
▁costellos	-11.6817
▁pickle	-11.6819
▁towers	-11.6825
▁fin	-11.6825
ante	-11.6829
▁cheeks	-11.6831
▁authentic	-11.6831
date	-11.6833
smic	-11.6837
loo	-11.6837
▁boarded	-11.6837
ima	-11.684
▁clam	-11.6841
▁server	-11.6849
▁consult	-11.6851
▁meu	-11.6855
pita	-11.6855
that	-11.6868
▁hind	-11.6869
▁matthews	-11.687
ettes	-11.6881
▁relatives	-11.6896
▁statues	-11.6896
▁assets	-11.6906
uld	-11.6908
▁pressing	-11.6912
▁pros	-11.6929
▁hom	-11.693
▁cutie	-11.6936
▁wizards	-11.6936
nte	-11.6938
▁directors	-11.6938
rian	-11.6941
▁hotels	-11.6943
▁prefers	-11.6947
▁locking	-11.6948
itt	-11.6954
ath	-11.6982
▁shithead	-11.6989
▁hunters	-11.6996
▁seas	-11.7011
▁fora	-11.7014
▁layeeodl	-11.7016
chy	-11.7021
▁sunk	-11.7022
▁boll	-11.7026
ez	-11.7027
▁clo	-11.7033
▁owls	-11.7038
▁brid	-11.7045
egie	-11.7046
table	-11.7053
▁ops	-11.7081
▁secondly	-11.7082
▁kik	-11.7088
▁cre	-11.7102
rad	-11.7108
▁experts	-11.7109
▁paintings	-11.711
▁ak	-11.712
▁medals	-11.7122
▁hoop	-11.7127
▁tur	-11.713
nico	-11.7135
▁sta	-11.7138
▁skippe	-11.7145
▁habits	-11.7149
ello	-11.715
▁rational	-11.7151
▁sells	-11.7152
pho	-11.7162
▁recorder	-11.7163
▁capt	-11.7166
▁rotate	-11.7168
▁liquid	-11.7179
▁virtue	-11.718
▁gringo	-11.7181
▁vulture	-11.7183
▁fluid	-11.7185
▁decade	-11.7185
▁conductor	-11.7186
▁astronaut	-11.7187
▁holidays	-11.7189
▁giggle	-11.719
▁panel	-11.719
▁smokes	-11.7194
▁heel	-11.7198
▁ration	-11.7198
▁fag	-11.7199
▁digit	-11.72
▁tease	-11.7218
▁vat	-11.7222
▁faction	-11.7223
▁mega	-11.7224
▁bites	-11.7237
▁levels	-11.7241
▁bulls	-11.7243
▁fang	-11.7251
▁cracker	-11.7252
▁smit	-11.7255
▁mesm	-11.7256
▁picks	-11.7261
▁traveler	-11.7276
▁eg	-11.7277
▁weekends	-11.728
ella	-11.7281
rod	-11.7285
▁excuses	-11.7287
power	-11.7287
▁engineers	-11.7288
zie	-11.7291
▁surround	-11.7295
▁pon	-11.7305
worth	-11.7305
hem	-11.7308
▁dose	-11.731
▁snarl	-11.7316
▁roost	-11.7317
proof	-11.7318
knock	-11.7318
bank	-11.7318
control	-11.7318
▁jai	-11.732
▁convict	-11.7321
▁squash	-11.7322
▁hijack	-11.7322
▁conceal	-11.7323
▁download	-11.7323
▁scatter	-11.7323
▁attach	-11.7324
▁sic	-11.7324
▁rib	-11.7329
▁compromise	-11.7331
▁govern	-11.7335
▁stoke	-11.7336
▁whee	-11.7338
▁eliminate	-11.7338
▁leavin	-11.7339
▁orient	-11.7341
▁kiddin	-11.7343
▁ugli	-11.7343
▁restrain	-11.7344
▁pluto	-11.7345
▁merchant	-11.7345
▁aldrin	-11.7345
▁allomere	-11.7345
▁altobello	-11.7345
▁asap	-11.7345
▁association	-11.7345
▁boromir	-11.7345
▁caribbean	-11.7345
▁chanchad	-11.7345
▁chauffeur	-11.7345
▁choochoo	-11.7345
▁chubby	-11.7345
▁confusion	-11.7345
▁cycle	-11.7345
▁deciding	-11.7345
▁degenerate	-11.7345
▁depois	-11.7345
▁dilemma	-11.7345
▁dimple	-11.7345
▁drugstore	-11.7345
▁eccentric	-11.7345
▁eugene	-11.7345
▁everlasting	-11.7345
▁fattuh	-11.7345
▁federation	-11.7345
▁feminine	-11.7345
▁fundraiser	-11.7345
▁garrison	-11.7345
▁grammar	-11.7345
▁greasy	-11.7345
▁groovy	-11.7345
▁gulf	-11.7345
▁gunnison	-11.7345
▁gypsy	-11.7345
▁handshake	-11.7345
▁hockney	-11.7345
▁holtzmann	-11.7345
▁immobiliare	-11.7345
▁inevitable	-11.7345
▁integrity	-11.7345
▁jukebox	-11.7345
▁jumpathon	-11.7345
▁kalloor	-11.7345
▁macneil	-11.7345
▁mandatory	-11.7345
▁marquess	-11.7345
▁mechanism	-11.7345
▁metaphor	-11.7345
▁midwest	-11.7345
▁mumbling	-11.7345
▁nielson	-11.7345
▁norwegian	-11.7345
▁onlooker	-11.7345
▁pamela	-11.7345
▁pembry	-11.7345
▁portrait	-11.7345
▁poulain	-11.7345
▁prescription	-11.7345
▁probability	-11.7345
▁province	-11.7345
▁pumbaa	-11.7345
▁ramirez	-11.7345
▁rasputin	-11.7345
▁reboot	-11.7345
▁reginald	-11.7345
▁registration	-11.7345
▁rewrite	-11.7345
▁saikwong	-11.7345
▁salvage	-11.7345
▁sanctuary	-11.7345
▁scissors	-11.7345
▁scoundrel	-11.7345
▁simpson	-11.7345
▁snuck	-11.7345
▁sputtering	-11.7345
▁suspension	-11.7345
▁tactics	-11.7345
▁therapist	-11.7345
▁thunderclap	-11.7345
▁tiffany	-11.7345
▁tribute	-11.7345
▁trixie	-11.7345
▁vandeweghe	-11.7345
▁velocity	-11.7345
▁wiseguys	-11.7345
▁youtube	-11.7345
▁zazu	-11.7345
▁zsasz	-11.7345
▁cradle	-11.7345
▁dewey	-11.7345
▁fingernails	-11.7345
▁forcing	-11.7345
▁gratitude	-11.7345
▁housekeeper	-11.7345
▁margie	-11.7345
▁quentin	-11.7345
▁suburb	-11.7345
▁unarmed	-11.7345
▁zeller	-11.7345
▁casper	-11.7345
▁daft	-11.7345
▁yield	-11.7345
▁settling	-11.7345
▁germs	-11.7345
▁sully	-11.7345
▁conclude	-11.7345
▁democrat	-11.7345
▁fertilizer	-11.7345
▁kingpin	-11.7345
▁leiter	-11.7345
▁arrius	-11.7345
▁numero	-11.7345
▁expelled	-11.7345
▁legolas	-11.7345
▁reptile	-11.7345
▁stunned	-11.7345
▁hiphop	-11.7345
▁strawberry	-11.7345
▁behaving	-11.7345
▁whinny	-11.7345
▁blunt	-11.7345
▁reeves	-11.7345
▁durden	-11.7345
▁exwife	-11.7345
▁hydrogen	-11.7345
▁proving	-11.7345
▁liability	-11.7345
▁cirk	-11.7345
▁lonesome	-11.7345
▁tennis	-11.7345
▁prevision	-11.7345
▁underdog	-11.7345
▁meyer	-11.7345
▁pilate	-11.7345
▁guido	-11.7345
▁charities	-11.7345
▁distribution	-11.7345
▁elster	-11.7345
▁renata	-11.7345
▁bums	-11.7345
▁thems	-11.7345
▁uboat	-11.7345
▁columbus	-11.7345
▁commend	-11.7345
▁greta	-11.7345
▁irresponsible	-11.7345
▁pearson	-11.7345
▁middleearth	-11.7345
▁outpost	-11.7345
▁transit	-11.7345
▁hourglass	-11.7345
▁lancelot	-11.7345
▁smother	-11.7345
▁revelation	-11.7345
▁annika	-11.7345
▁concur	-11.7345
▁underwater	-11.7345
▁trend	-11.7345
▁kitten	-11.7345
▁jaime	-11.7345
▁mellow	-11.7345
▁toxic	-11.7345
▁comedian	-11.7346
▁tarde	-11.7346
▁campbell	-11.7346
▁jeep	-11.7346
▁programming	-11.7346
▁postcard	-11.7346
▁dork	-11.7346
▁bamba	-11.7346
▁harassment	-11.7346
▁infantry	-11.7346
▁transmitter	-11.7346
▁sophisticated	-11.7346
▁vivian	-11.7346
▁password	-11.7346
▁ashore	-11.7346
▁mold	-11.7346
▁cement	-11.7346
▁casing	-11.7346
▁daughtry	-11.7346
▁testimony	-11.7346
▁leftovers	-11.7346
▁scully	-11.7346
▁blueberry	-11.7346
▁paralyzed	-11.7346
▁cluck	-11.7346
▁volcano	-11.7347
▁spotlight	-11.7347
▁quarterback	-11.7347
▁diplomatic	-11.7347
▁cuz	-11.7347
▁teens	-11.7347
ainda	-11.7347
▁disappearance	-11.7347
▁abortion	-11.7347
▁tuco	-11.7347
▁mosquitoes	-11.7347
▁reef	-11.7347
▁battlefield	-11.7347
▁beachport	-11.7348
▁timber	-11.7348
▁marsha	-11.7348
▁transition	-11.7348
▁kobe	-11.7348
▁litter	-11.7348
▁multiply	-11.7348
▁disposal	-11.7348
▁blackjack	-11.7349
▁grimes	-11.7349
▁fazer	-11.7349
▁malkin	-11.7349
▁conta	-11.7349
▁posts	-11.735
▁belgian	-11.735
▁meaningful	-11.735
▁fashionable	-11.735
▁chronicle	-11.735
▁moria	-11.735
▁nude	-11.735
▁muthafucka	-11.7351
▁councilman	-11.7351
▁renew	-11.7351
▁entre	-11.7352
▁surprisingly	-11.7352
▁tarla	-11.7352
▁hydra	-11.7353
▁dull	-11.7353
▁gauge	-11.7353
▁latch	-11.7354
▁controller	-11.7354
▁weeknd	-11.7354
▁lsnt	-11.7354
▁milano	-11.7354
▁korean	-11.7354
▁batch	-11.7354
▁consumed	-11.7355
▁ellison	-11.7355
▁shattered	-11.7355
▁honky	-11.7356
▁cozy	-11.7356
▁stepping	-11.7357
▁stanton	-11.7358
▁promoted	-11.7359
▁decoration	-11.736
▁experimental	-11.7361
▁ascen	-11.7361
▁omni	-11.7362
▁baking	-11.7363
▁selected	-11.7363
▁salon	-11.7363
▁encouraged	-11.7364
▁ceo	-11.7365
▁rival	-11.7365
▁berry	-11.7366
▁sadness	-11.7366
▁piaying	-11.7366
▁majority	-11.7366
▁pajamas	-11.7366
ewer	-11.7367
join	-11.7367
▁addicted	-11.7368
▁convers	-11.737
▁freshman	-11.737
▁fulltime	-11.7372
▁drunken	-11.7372
▁bumper	-11.7375
▁oo	-11.7376
▁departing	-11.7376
▁armies	-11.7377
▁rf	-11.7378
▁malt	-11.7378
▁maiden	-11.7379
▁cori	-11.7379
▁spilled	-11.738
▁baii	-11.738
▁doomed	-11.738
▁weaken	-11.7382
▁epic	-11.7384
▁entertaining	-11.7384
▁frightening	-11.7384
▁fishman	-11.7386
▁wiser	-11.7387
▁gail	-11.7389
▁fairies	-11.7389
▁bucky	-11.7389
▁lever	-11.7389
▁brandt	-11.739
▁mentally	-11.739
▁criticize	-11.739
▁jen	-11.7391
▁corey	-11.7391
▁betsy	-11.7392
▁tinker	-11.7394
▁kilometers	-11.7395
aiiy	-11.7396
▁fable	-11.7397
▁mend	-11.7397
▁pets	-11.74
▁boiler	-11.74
▁grind	-11.7403
▁giants	-11.7405
▁follows	-11.7406
▁guarantees	-11.7406
▁peri	-11.7407
▁represented	-11.7408
▁beaches	-11.7409
nium	-11.741
▁georgie	-11.7412
▁tucked	-11.7413
▁warner	-11.7416
▁pointless	-11.7416
▁wah	-11.7416
▁bumped	-11.7416
tha	-11.7417
▁just	-11.7418
▁flooding	-11.7419
▁monitoring	-11.7419
▁canceled	-11.742
▁celebrated	-11.7422
▁roadblocks	-11.7422
▁topic	-11.7422
▁hangar	-11.7424
god	-11.7425
▁slaver	-11.7429
▁complained	-11.743
matic	-11.7431
▁passionate	-11.7432
five	-11.7434
▁insulting	-11.7435
▁guan	-11.7437
▁crushed	-11.7437
▁tart	-11.7438
▁bigtime	-11.7438
▁rita	-11.744
▁critic	-11.7441
▁morte	-11.7448
▁nervously	-11.7449
▁tally	-11.7453
hair	-11.7454
▁icon	-11.7456
▁scratching	-11.7458
▁savings	-11.746
not	-11.7461
▁leaking	-11.7462
▁stocks	-11.7462
▁practiced	-11.7463
▁excitedly	-11.7464
▁cartoons	-11.7464
▁comforting	-11.7465
▁jonesy	-11.7478
▁donuts	-11.7479
▁mushrooms	-11.7479
▁stutters	-11.7479
▁flashing	-11.749
▁boars	-11.7494
dan	-11.7497
▁screamed	-11.7498
▁este	-11.7502
▁racers	-11.7502
▁newton	-11.7505
▁tasted	-11.7505
▁org	-11.751
▁janie	-11.7513
fold	-11.7514
▁taxis	-11.7521
▁todos	-11.7522
▁smiled	-11.7525
▁salts	-11.7526
▁remained	-11.7528
▁crackers	-11.7529
▁ura	-11.7535
izer	-11.7536
▁der	-11.7545
▁tyres	-11.7549
▁trolls	-11.755
▁rein	-11.7552
▁dispos	-11.7556
▁ras	-11.7558
▁camels	-11.7559
▁cater	-11.7563
▁parks	-11.7563
▁socs	-11.7564
▁marbles	-11.7564
▁gooks	-11.7564
▁delivering	-11.7565
ency	-11.7579
▁lce	-11.7588
▁armand	-11.7588
▁will	-11.7594
▁tricked	-11.7596
▁buyers	-11.7598
▁beliefs	-11.7607
▁bubbles	-11.7607
elda	-11.7611
▁buzzer	-11.7626
iving	-11.7628
▁reminding	-11.7628
ken	-11.7628
▁headaches	-11.7636
▁destroyer	-11.7637
dom	-11.7638
▁buyin	-11.7638
ata	-11.7646
gua	-11.7649
ava	-11.7652
▁breakin	-11.766
▁wool	-11.7664
▁communications	-11.7664
▁repeating	-11.7665
▁tommys	-11.7667
▁dealt	-11.767
▁beston	-11.7673
wee	-11.7685
▁bridget	-11.7686
▁dazzle	-11.7687
▁roots	-11.7691
▁maneuvers	-11.7691
▁lv	-11.7697
▁cot	-11.77
▁plea	-11.7703
ique	-11.7704
nuff	-11.7706
▁pencils	-11.7707
▁superiors	-11.7708
▁ble	-11.7711
▁immigrant	-11.772
▁organs	-11.7723
▁spi	-11.7729
▁dam	-11.7736
▁whales	-11.7738
▁allowing	-11.7746
▁herbs	-11.7763
▁butchers	-11.777
iously	-11.7772
hold	-11.7772
▁mow	-11.7774
▁drawers	-11.7777
▁princes	-11.7778
▁rever	-11.778
▁mommys	-11.7782
tech	-11.7788
▁irs	-11.7789
itsit	-11.7794
▁buns	-11.7799
▁generations	-11.7808
ike	-11.781
kind	-11.7812
▁cron	-11.7813
▁elephants	-11.7837
▁motives	-11.7837
▁tracker	-11.7843
▁dem	-11.7851
▁assignments	-11.7852
▁blankets	-11.7852
▁demonstrate	-11.7859
▁kingdoms	-11.786
▁did	-11.7861
▁fol	-11.7864
▁cain	-11.7868
▁crowded	-11.7872
▁videos	-11.7874
▁wasp	-11.7895
stand	-11.7897
▁opt	-11.7899
▁ringer	-11.7899
▁cooks	-11.79
lud	-11.7926
▁ola	-11.7952
▁freed	-11.7982
▁sleepy	-11.7988
▁thumbs	-11.7996
▁seals	-11.7996
▁spits	-11.8002
▁sincere	-11.8005
▁gardener	-11.8012
sized	-11.8025
▁magazines	-11.8027
▁provid	-11.8027
▁flags	-11.8038
bol	-11.8058
▁mouthing	-11.8058
▁rattle	-11.8059
ndo	-11.8077
▁translate	-11.8078
▁lass	-11.8083
▁vampire	-11.8089
cher	-11.8089
▁harkonnen	-11.809
▁negotiation	-11.809
▁comrade	-11.8092
▁generator	-11.8092
▁thrombey	-11.8092
▁boar	-11.8093
▁rhyme	-11.8093
▁viking	-11.8093
▁yankee	-11.8093
▁pyramid	-11.8094
▁mathematic	-11.8097
isser	-11.8107
▁chang	-11.811
▁castles	-11.8117
speed	-11.8121
▁sewer	-11.8123
▁booked	-11.8136
▁lim	-11.816
ept	-11.8161
iva	-11.8162
fly	-11.8163
▁freight	-11.817
▁sails	-11.8178
▁julia	-11.8178
▁elect	-11.8181
▁cra	-11.8184
▁imagina	-11.8185
▁annoy	-11.8202
▁adventures	-11.8204
▁unload	-11.8208
▁crank	-11.8211
▁sprinkle	-11.8216
▁sau	-11.8217
cott	-11.8217
▁rogers	-11.822
▁flatter	-11.8221
form	-11.8223
master	-11.8223
▁choos	-11.8226
▁chirp	-11.8226
people	-11.8227
▁stall	-11.8228
horse	-11.8229
pants	-11.8229
▁resign	-11.823
▁wretch	-11.8232
▁reduce	-11.824
▁generate	-11.8241
▁assign	-11.8242
▁midge	-11.8242
▁grim	-11.8242
▁retain	-11.8244
▁brew	-11.8245
▁apparent	-11.8245
▁puss	-11.8247
tive	-11.8247
▁motorcycles	-11.8248
▁oceans	-11.8248
track	-11.8249
▁origin	-11.8249
▁sentiment	-11.825
▁dancin	-11.8251
▁puttin	-11.8252
▁michel	-11.8252
▁she	-11.8252
▁batter	-11.8253
▁pilgrim	-11.8253
▁kev	-11.8254
▁alternat	-11.8254
▁resent	-11.8254
▁pretzel	-11.8254
▁singular	-11.8254
responsibilities	-11.8254
▁albino	-11.8254
▁aldridge	-11.8254
▁allegiance	-11.8254
▁anticruise	-11.8254
▁arrogant	-11.8254
▁artificial	-11.8254
▁artillery	-11.8254
▁asylum	-11.8254
▁azazel	-11.8254
▁baggage	-11.8254
▁bankrupt	-11.8254
▁barnacle	-11.8254
▁barricade	-11.8254
▁benedict	-11.8254
▁bertrand	-11.8254
▁brunette	-11.8254
▁calcifer	-11.8254
▁cappuccino	-11.8254
▁carnival	-11.8254
▁catastrophe	-11.8254
▁centimeter	-11.8254
▁chakobsa	-11.8254
▁chamaco	-11.8254
▁chastity	-11.8254
▁chimney	-11.8254
▁chrissake	-11.8254
▁convenience	-11.8254
▁crease	-11.8254
▁crossbow	-11.8254
▁crotch	-11.8254
▁dammit	-11.8254
▁deception	-11.8254
▁detention	-11.8254
▁dictionary	-11.8254
▁disqualified	-11.8254
▁eglantine	-11.8254
▁elegant	-11.8254
▁ellingboe	-11.8254
▁eversmann	-11.8254
▁excellency	-11.8254
▁extortion	-11.8254
▁fanucci	-11.8254
▁feihung	-11.8254
▁fixerupper	-11.8254
▁foretold	-11.8254
▁fracture	-11.8254
▁galahad	-11.8254
▁glitter	-11.8254
▁goddaughter	-11.8254
▁graduation	-11.8254
▁gregoire	-11.8254
▁gypsies	-11.8254
▁hamburger	-11.8254
▁handkerchief	-11.8254
▁happiest	-11.8254
▁hidetora	-11.8254
▁hypocrite	-11.8254
▁identical	-11.8254
▁impatient	-11.8254
▁inspiring	-11.8254
▁invincible	-11.8254
▁ishmael	-11.8254
▁janitor	-11.8254
▁kassar	-11.8254
▁kentucky	-11.8254
▁kindergarten	-11.8254
▁kobayashi	-11.8254
▁krupke	-11.8254
▁leisure	-11.8254
▁lydia	-11.8254
▁marseille	-11.8254
▁massachusetts	-11.8254
▁mcpherson	-11.8254
▁miiiion	-11.8254
▁militia	-11.8254
▁millimeter	-11.8254
▁mississippi	-11.8254
▁miyamizu	-11.8254
▁mulgrut	-11.8254
▁nazareth	-11.8254
▁neglect	-11.8254
▁notorious	-11.8254
▁orgocorp	-11.8254
▁overthrow	-11.8254
▁paramedic	-11.8254
▁parasites	-11.8254
▁phenomenon	-11.8254
▁platinum	-11.8254
▁prothero	-11.8254
▁reindeer	-11.8254
▁reopen	-11.8254
▁rocco	-11.8254
▁rolfe	-11.8254
▁scagnetti	-11.8254
▁selden	-11.8254
▁shaft	-11.8254
▁shawshank	-11.8254
▁shikaka	-11.8254
▁sibling	-11.8254
▁significance	-11.8254
▁skank	-11.8254
▁slippery	-11.8254
▁specimen	-11.8254
▁spleen	-11.8254
▁squirt	-11.8254
▁stadium	-11.8254
▁substitute	-11.8254
▁superficial	-11.8254
▁suribachi	-11.8254
▁ticktock	-11.8254
▁tumnus	-11.8254
▁twombly	-11.8254
▁ungrateful	-11.8254
▁unpleasant	-11.8254
▁urban	-11.8254
▁videotape	-11.8254
▁vinegar	-11.8254
▁wendell	-11.8254
▁xanadu	-11.8254
▁zoran	-11.8254
▁dmv	-11.8254
▁fidel	-11.8254
▁herald	-11.8254
▁hilarious	-11.8254
▁jeffrey	-11.8254
▁peacekeeper	-11.8254
▁stimulat	-11.8254
▁vermin	-11.8254
▁noisy	-11.8254
▁tarzan	-11.8254
▁beiieve	-11.8254
▁fulton	-11.8254
▁irregular	-11.8254
▁mobilize	-11.8254
▁porsche	-11.8254
▁begbie	-11.8254
▁patricia	-11.8254
▁jingling	-11.8254
▁fringe	-11.8254
▁lucifer	-11.8254
▁stewardess	-11.8254
▁beauties	-11.8254
▁demany	-11.8254
▁dietrich	-11.8254
▁inquiry	-11.8254
▁oakmont	-11.8254
▁streak	-11.8254
▁fuchs	-11.8254
▁imprisoned	-11.8254
▁mineral	-11.8254
▁iraq	-11.8254
▁automobile	-11.8254
▁tusk	-11.8254
▁speculat	-11.8254
▁lipstick	-11.8254
▁intact	-11.8254
▁analysis	-11.8254
▁bleating	-11.8254
▁pedal	-11.8254
▁intervene	-11.8254
▁muslim	-11.8254
▁cbts	-11.8254
▁douchebag	-11.8254
▁frustration	-11.8254
▁escalat	-11.8254
▁notify	-11.8254
▁wimp	-11.8254
▁britons	-11.8254
▁heirloom	-11.8254
▁abide	-11.8254
▁petition	-11.8254
▁sermon	-11.8254
▁granville	-11.8254
▁monstrous	-11.8254
▁psychopath	-11.8254
▁impeccable	-11.8254
▁yummy	-11.8254
▁banned	-11.8254
▁nebula	-11.8254
▁website	-11.8254
▁riker	-11.8254
▁abduction	-11.8254
▁warsaw	-11.8254
▁laptop	-11.8254
▁evolutionary	-11.8254
▁whatwhat	-11.8254
▁adios	-11.8254
▁harass	-11.8254
▁allez	-11.8255
▁upload	-11.8255
▁resurrection	-11.8255
▁pluck	-11.8255
▁stump	-11.8255
▁libby	-11.8255
▁cohen	-11.8255
▁jinx	-11.8255
▁labour	-11.8255
▁clipping	-11.8255
▁dandy	-11.8255
▁gloria	-11.8255
▁thatthat	-11.8255
▁apologise	-11.8255
▁consent	-11.8255
▁lump	-11.8255
utical	-11.8255
▁diving	-11.8255
▁humiliation	-11.8255
▁resignation	-11.8255
▁overwhelming	-11.8255
▁safeguard	-11.8255
▁gents	-11.8255
▁bummer	-11.8255
▁dependent	-11.8256
▁workshop	-11.8256
▁michelle	-11.8256
▁entitled	-11.8256
▁intersection	-11.8256
▁tread	-11.8256
▁cult	-11.8256
▁infection	-11.8256
▁bugging	-11.8256
▁cooperating	-11.8256
▁stew	-11.8256
▁poking	-11.8256
▁psychic	-11.8256
▁rolex	-11.8256
▁cupboard	-11.8257
▁correctional	-11.8257
▁lowlife	-11.8257
▁wingfield	-11.8257
▁disappointment	-11.8257
▁ownership	-11.8257
▁keel	-11.8257
▁ruling	-11.8257
▁wwhat	-11.8257
▁colombian	-11.8257
▁flapping	-11.8257
▁iowa	-11.8257
▁carolina	-11.8257
▁rosato	-11.8257
▁lobo	-11.8257
▁flux	-11.8258
▁objective	-11.8258
▁drip	-11.8258
▁poland	-11.8258
▁paycheck	-11.8258
▁occasional	-11.8258
▁masterpiece	-11.8258
▁profitable	-11.8258
▁morality	-11.8258
▁dominat	-11.8258
▁rockwell	-11.8259
imir	-11.8259
▁adjourned	-11.8259
▁mennick	-11.8259
▁damon	-11.826
▁klein	-11.826
▁jiro	-11.826
▁mainland	-11.826
▁donate	-11.826
▁spaceship	-11.826
▁hex	-11.826
▁mixup	-11.826
▁hanover	-11.8261
▁pillar	-11.8261
▁sod	-11.8261
▁wireless	-11.8261
▁arabic	-11.8261
▁twitch	-11.8262
▁swan	-11.8262
▁partially	-11.8262
▁joyce	-11.8262
▁ache	-11.8263
▁liege	-11.8263
▁perish	-11.8263
▁caption	-11.8264
▁guano	-11.8264
▁hallowe	-11.8264
▁fills	-11.8264
▁edit	-11.8265
▁paddy	-11.8265
▁realistic	-11.8265
▁ledger	-11.8265
▁duh	-11.8266
▁initiated	-11.8266
▁digest	-11.8266
▁fitting	-11.8266
▁caroline	-11.8266
▁paulina	-11.8267
▁gettys	-11.8267
▁bravery	-11.8267
▁tidy	-11.8267
▁homecoming	-11.8268
▁compromised	-11.8268
▁breakthrough	-11.8268
▁warmth	-11.8269
▁peck	-11.8269
▁violated	-11.8269
▁countryside	-11.827
▁haif	-11.8271
▁scalp	-11.8271
▁consumer	-11.8271
▁consideration	-11.8271
▁quitting	-11.8272
▁previously	-11.8273
▁woodsman	-11.8274
▁donated	-11.8275
▁melon	-11.8275
▁seventy	-11.8276
▁suitable	-11.8276
▁timon	-11.8277
▁humvees	-11.8277
▁filing	-11.8278
▁rossi	-11.8278
▁brownies	-11.8278
▁appointed	-11.8279
shire	-11.828
▁babysit	-11.828
▁heartbreaker	-11.8281
▁icy	-11.8282
▁decorated	-11.8282
▁acho	-11.8282
▁gaze	-11.8283
▁merit	-11.8283
▁examiner	-11.8286
gawa	-11.8287
▁permanently	-11.8287
▁popup	-11.8288
▁recess	-11.8288
▁vu	-11.8289
▁neighing	-11.8289
▁phd	-11.8291
▁soaked	-11.8291
▁pisses	-11.8294
▁installed	-11.8295
▁bah	-11.8295
▁iate	-11.8296
▁violently	-11.8296
▁encountered	-11.8297
▁invested	-11.8297
youre	-11.8298
▁preaching	-11.83
▁battles	-11.83
▁developing	-11.83
▁standby	-11.83
▁premiere	-11.8301
▁traveller	-11.8301
▁pam	-11.8301
▁baton	-11.8302
▁axe	-11.8303
▁cocoa	-11.8304
working	-11.8307
▁electro	-11.8307
▁recruiting	-11.8309
liest	-11.8309
▁jap	-11.831
▁pry	-11.8317
▁shiv	-11.8321
▁succeeded	-11.8322
▁duell	-11.8322
▁bully	-11.8323
▁blackout	-11.8323
▁firearms	-11.8324
▁greasers	-11.8325
▁challenged	-11.8326
▁weakly	-11.8328
▁whacked	-11.8328
▁strengthen	-11.8329
▁reaches	-11.8329
▁desired	-11.8331
▁lbs	-11.8332
▁tink	-11.8332
▁linked	-11.8333
▁cruiser	-11.8336
▁guided	-11.8339
▁measurements	-11.8339
▁kidnapper	-11.8341
▁crosses	-11.8348
▁lineup	-11.835
▁when	-11.8351
bbed	-11.8352
▁fishes	-11.8353
▁hacked	-11.8354
▁stockings	-11.8355
▁ador	-11.836
▁cling	-11.8361
▁licensed	-11.8363
▁dusty	-11.8365
▁tada	-11.8366
▁tid	-11.8366
▁gro	-11.8368
▁hyp	-11.837
▁projection	-11.8371
▁surfer	-11.8371
▁treats	-11.8374
▁lax	-11.8374
▁testament	-11.838
▁confirming	-11.8381
▁heller	-11.8381
canned	-11.8385
▁bom	-11.8387
▁refugees	-11.8392
▁woe	-11.8395
▁triggered	-11.8396
▁tighter	-11.84
pper	-11.8403
▁faked	-11.8405
▁legions	-11.8406
oid	-11.841
▁packages	-11.8412
▁bedrooms	-11.8412
iki	-11.8416
▁rhymes	-11.8417
▁aiming	-11.8426
aiss	-11.8427
▁peeing	-11.843
▁nasa	-11.8431
▁fluids	-11.8433
▁anton	-11.8435
▁arty	-11.844
▁din	-11.8464
▁travelers	-11.8465
▁martyr	-11.8467
▁tougher	-11.8472
▁ants	-11.8476
▁fugitives	-11.848
▁dodger	-11.849
▁jumper	-11.8491
▁prec	-11.8493
▁booing	-11.8493
▁mod	-11.8493
bang	-11.8502
▁opinions	-11.8502
▁outra	-11.8505
▁squeez	-11.8505
▁traveled	-11.8511
▁coyotes	-11.8511
▁gladly	-11.8516
▁poorly	-11.8521
▁jd	-11.8526
▁strongly	-11.8527
▁notices	-11.8531
▁dur	-11.8534
ere	-11.8534
▁lotus	-11.854
▁defender	-11.854
dollar	-11.8541
nder	-11.8542
▁fontaines	-11.8543
▁frogs	-11.8543
▁dooms	-11.8543
▁rolly	-11.8545
▁ironic	-11.8551
▁delro	-11.8562
▁pais	-11.8563
▁balloons	-11.8574
▁statements	-11.8578
who	-11.8581
▁bonding	-11.8582
▁beta	-11.8593
glin	-11.8594
▁blocking	-11.8594
▁cracks	-11.8599
▁chooses	-11.8603
▁tang	-11.8603
▁guarded	-11.8609
▁thugs	-11.8621
▁threads	-11.8621
▁customs	-11.8622
▁cope	-11.8626
▁exams	-11.8636
▁devons	-11.8638
▁dodg	-11.8646
▁vin	-11.8646
anna	-11.8656
▁chaps	-11.8661
▁oy	-11.8664
▁comics	-11.8683
▁tribes	-11.8685
▁samuels	-11.8687
rine	-11.8688
▁mere	-11.8691
minded	-11.8693
▁suited	-11.8694
▁paws	-11.8701
▁corpses	-11.8701
▁joely	-11.8708
tte	-11.8716
▁tubes	-11.8717
▁guarding	-11.8727
▁rents	-11.8731
▁tilt	-11.874
▁ups	-11.8742
▁don	-11.8744
mba	-11.8749
▁fightin	-11.8761
▁shhh	-11.8762
▁camping	-11.8764
▁sla	-11.8764
▁guineas	-11.8764
▁equals	-11.8765
were	-11.8768
▁toot	-11.8773
▁unions	-11.8773
▁ger	-11.878
lot	-11.8796
▁legends	-11.8796
▁provoke	-11.8805
▁wham	-11.8816
▁relationships	-11.8822
▁bumps	-11.8827
▁suppos	-11.8844
▁av	-11.8844
▁startin	-11.8846
▁ax	-11.8846
▁fatal	-11.8853
▁missin	-11.8864
▁gio	-11.8864
▁minh	-11.8865
fing	-11.8868
▁projects	-11.8871
▁escorts	-11.8876
▁ferri	-11.888
▁bub	-11.8888
▁buckets	-11.8893
▁greatly	-11.8895
▁wallets	-11.8896
▁draws	-11.8898
achi	-11.8899
▁pistols	-11.8909
▁tee	-11.8912
▁ada	-11.892
▁tanker	-11.8929
▁doe	-11.8938
▁hal	-11.8949
▁franky	-11.8953
▁esc	-11.8957
▁camps	-11.8972
from	-11.8974
dog	-11.8978
gt	-11.8982
mber	-11.8984
▁pats	-11.899
▁contribute	-11.8992
van	-11.8993
▁poles	-11.8996
▁dolls	-11.9007
▁planets	-11.9007
▁elm	-11.9013
▁sou	-11.9015
▁knot	-11.902
mhmm	-11.9024
▁chops	-11.9028
▁mont	-11.9031
illo	-11.9033
▁mattered	-11.9044
▁showers	-11.9045
▁squeak	-11.9053
▁incidents	-11.906
▁stutter	-11.9065
▁disc	-11.9065
▁relaxing	-11.9067
▁groan	-11.9073
▁careers	-11.9077
▁nurs	-11.9084
▁cala	-11.9089
▁hippie	-11.9089
▁errand	-11.909
▁diaper	-11.9091
▁wrapping	-11.9091
▁peasant	-11.9092
▁mushroom	-11.9094
▁donut	-11.9094
▁trumpet	-11.9095
▁holder	-11.9095
▁container	-11.9101
▁logo	-11.9107
▁legion	-11.9113
▁andis	-11.912
ander	-11.9122
sell	-11.9124
▁evan	-11.9126
▁aca	-11.9128
gli	-11.9135
▁challenges	-11.9137
▁devia	-11.9137
ware	-11.914
▁flop	-11.9144
onic	-11.9145
▁sob	-11.9145
▁pins	-11.9164
▁beni	-11.9172
▁compar	-11.9181
▁postpone	-11.9184
name	-11.9185
▁describ	-11.9196
▁donkeys	-11.9201
erman	-11.9213
▁trunks	-11.9217
fall	-11.9218
▁meth	-11.9218
▁poster	-11.9222
▁fascinat	-11.9225
american	-11.9226
shaped	-11.9227
with	-11.9227
world	-11.9227
quarter	-11.9227
▁convert	-11.9228
change	-11.9228
▁disrupt	-11.9228
shore	-11.9229
thank	-11.923
▁select	-11.923
type	-11.9231
▁inherit	-11.9232
hour	-11.9233
▁maids	-11.9234
▁enforce	-11.9235
interest	-11.9235
▁limp	-11.9239
▁sacr	-11.9239
▁initiate	-11.924
▁google	-11.9241
▁rabbi	-11.9242
▁brag	-11.9242
▁differ	-11.9242
▁rwanda	-11.9242
▁increasing	-11.9245
▁surprising	-11.9245
▁practical	-11.9245
▁somali	-11.9246
▁harsh	-11.9246
▁quo	-11.9246
▁sos	-11.9248
▁inspect	-11.9249
▁froze	-11.9249
believable	-11.9251
▁drivin	-11.9251
▁chasin	-11.9252
▁lovin	-11.9252
▁defect	-11.9252
▁enlighten	-11.9252
▁racer	-11.9253
▁hazard	-11.9253
▁mario	-11.9253
▁scientific	-11.9253
▁cyber	-11.9253
martial	-11.9253
▁commod	-11.9254
▁regime	-11.9254
▁acquainted	-11.9254
▁adequate	-11.9254
▁alejandro	-11.9254
▁ammunition	-11.9254
▁amulet	-11.9254
▁analyze	-11.9254
▁anneclaire	-11.9254
▁assumption	-11.9254
▁asteroid	-11.9254
▁austin	-11.9254
▁baptized	-11.9254
▁battalion	-11.9254
▁bazooka	-11.9254
▁benjamin	-11.9254
▁bizarre	-11.9254
▁bostock	-11.9254
▁brautigan	-11.9254
▁burgess	-11.9254
▁burrito	-11.9254
▁cabrera	-11.9254
▁cactus	-11.9254
▁caitlin	-11.9254
▁calendar	-11.9254
▁cannibal	-11.9254
▁catherlne	-11.9254
▁cautious	-11.9254
▁cereal	-11.9254
▁cheerleading	-11.9254
▁chitchat	-11.9254
▁circling	-11.9254
▁comanche	-11.9254
▁commerce	-11.9254
▁diagusta	-11.9254
▁dictate	-11.9254
▁dictator	-11.9254
▁dmitri	-11.9254
▁doodoo	-11.9254
▁drapes	-11.9254
▁ecstasy	-11.9254
▁efficient	-11.9254
▁eivira	-11.9254
▁enthusiasm	-11.9254
▁epidemic	-11.9254
▁erudite	-11.9254
▁espresso	-11.9254
▁eternium	-11.9254
▁exploding	-11.9254
▁ferguson	-11.9254
▁fernando	-11.9254
▁frustrating	-11.9254
▁gargantua	-11.9254
▁geiier	-11.9254
▁gestapo	-11.9254
▁gizzard	-11.9254
▁guillermo	-11.9254
▁gunpowder	-11.9254
▁gurgling	-11.9254
▁guru	-11.9254
▁havoc	-11.9254
▁hehheh	-11.9254
▁indestructible	-11.9254
▁infrared	-11.9254
▁injustice	-11.9254
▁input	-11.9254
▁intrusion	-11.9254
▁isabelle	-11.9254
▁jalape	-11.9254
▁jedediah	-11.9254
▁judith	-11.9254
▁kalaman	-11.9254
▁kananga	-11.9254
▁kuribayashi	-11.9254
▁lacrosse	-11.9254
▁laszlo	-11.9254
▁lorenzo	-11.9254
▁lundegaard	-11.9254
▁maguire	-11.9254
▁maureen	-11.9254
▁mercenary	-11.9254
▁mervyn	-11.9254
▁mierzwiak	-11.9254
▁migraine	-11.9254
▁millennium	-11.9254
▁montreal	-11.9254
▁mozart	-11.9254
▁muertos	-11.9254
▁nemyt	-11.9254
▁nicholas	-11.9254
▁nobel	-11.9254
▁obiwan	-11.9254
▁obnoxious	-11.9254
▁offspring	-11.9254
▁organisation	-11.9254
▁outbreak	-11.9254
▁overdue	-11.9254
▁overheard	-11.9254
▁parlour	-11.9254
▁parrot	-11.9254
▁paxian	-11.9254
▁pineapple	-11.9254
▁platoon	-11.9254
▁plung	-11.9254
▁primitive	-11.9254
▁qzone	-11.9254
▁rastogi	-11.9254
▁rehearsing	-11.9254
▁relentless	-11.9254
▁remorse	-11.9254
▁rivendell	-11.9254
▁roxanne	-11.9254
▁screenplay	-11.9254
▁solemn	-11.9254
▁stardestroyer	-11.9254
▁strategic	-11.9254
▁striking	-11.9254
▁technician	-11.9254
▁tumbling	-11.9254
▁unbearable	-11.9254
▁unemployment	-11.9254
▁unidentified	-11.9254
▁unmask	-11.9254
▁vallelonga	-11.9254
▁vanilla	-11.9254
▁whiff	-11.9254
▁windshield	-11.9254
▁womb	-11.9254
▁worthwhile	-11.9254
▁yeehaw	-11.9254
▁agenda	-11.9254
▁athens	-11.9254
▁berries	-11.9254
▁caleb	-11.9254
▁cinque	-11.9254
▁daydream	-11.9254
▁edgar	-11.9254
▁fischer	-11.9254
▁inflict	-11.9254
▁knob	-11.9254
▁leash	-11.9254
▁lynch	-11.9254
▁morehouse	-11.9254
▁orrin	-11.9254
▁rehabilitat	-11.9254
▁retches	-11.9254
▁rugrat	-11.9254
▁squish	-11.9254
▁subdue	-11.9254
▁tweak	-11.9254
▁bulb	-11.9254
▁cheesy	-11.9254
▁esteemed	-11.9254
▁irena	-11.9254
▁irene	-11.9254
▁jesper	-11.9254
▁portuguese	-11.9254
▁smidge	-11.9254
▁harmony	-11.9254
▁teefs	-11.9254
▁thrive	-11.9254
▁bosom	-11.9254
▁caramel	-11.9254
▁floyd	-11.9254
▁marmee	-11.9254
▁shears	-11.9254
▁wiggle	-11.9254
▁brower	-11.9254
▁ravage	-11.9254
▁housekeeping	-11.9254
▁tiptoe	-11.9254
▁transparent	-11.9254
▁prodig	-11.9254
▁drugged	-11.9254
▁barbie	-11.9254
▁collines	-11.9254
▁diversion	-11.9254
▁menacing	-11.9254
▁munch	-11.9254
▁ferocious	-11.9254
▁advertise	-11.9254
▁nuhuh	-11.9254
▁inclined	-11.9254
▁rebuilt	-11.9254
▁brainerd	-11.9254
▁claudia	-11.9254
▁qualities	-11.9254
▁tumble	-11.9254
▁grond	-11.9254
▁oars	-11.9254
▁slit	-11.9254
▁repeatedly	-11.9254
▁renown	-11.9254
▁flake	-11.9254
▁kryptonite	-11.9254
▁deathbed	-11.9254
▁gerber	-11.9254
▁arsehole	-11.9254
▁commandments	-11.9254
▁mcq	-11.9254
▁supermarket	-11.9254
▁tendency	-11.9254
▁imitating	-11.9254
▁alvarez	-11.9254
▁uphold	-11.9254
▁resync	-11.9254
▁stifl	-11.9254
▁darcy	-11.9254
▁wesley	-11.9254
cou	-11.9254
▁campsite	-11.9254
▁wormhole	-11.9254
▁motivation	-11.9254
▁devotion	-11.9254
▁hunchback	-11.9254
▁tristan	-11.9254
▁stirred	-11.9254
▁bulldog	-11.9254
▁tappan	-11.9254
▁ponyboy	-11.9254
▁junkyard	-11.9254
▁figuring	-11.9254
▁huff	-11.9254
▁leverage	-11.9255
▁patter	-11.9255
jack	-11.9255
▁onboard	-11.9255
▁supervision	-11.9255
▁buffet	-11.9255
▁panama	-11.9255
▁colson	-11.9255
▁harlem	-11.9255
▁wept	-11.9255
▁coz	-11.9255
▁oana	-11.9255
▁consciousness	-11.9255
▁slapped	-11.9255
▁hmong	-11.9255
▁gazzo	-11.9255
▁selection	-11.9255
▁furball	-11.9255
▁cupcake	-11.9255
▁kiel	-11.9255
▁bragging	-11.9255
ort	-11.9255
▁radioactive	-11.9255
▁hassle	-11.9255
nsuk	-11.9255
▁amusement	-11.9255
▁pinned	-11.9255
▁embarrassment	-11.9256
▁pappa	-11.9256
▁apiece	-11.9256
▁flipping	-11.9256
▁iaw	-11.9256
▁flashback	-11.9256
▁quint	-11.9256
▁mijo	-11.9256
▁declaration	-11.9256
▁redneck	-11.9256
▁tasha	-11.9256
▁jangl	-11.9256
▁fiend	-11.9256
▁andand	-11.9256
▁vez	-11.9256
▁hull	-11.9256
▁edition	-11.9256
▁trenches	-11.9256
▁snuff	-11.9256
▁gwen	-11.9256
▁cornish	-11.9256
▁slipping	-11.9256
▁titus	-11.9257
▁braid	-11.9257
▁collier	-11.9257
▁representation	-11.9257
▁ripping	-11.9257
▁equin	-11.9257
▁allenby	-11.9257
▁nascar	-11.9257
▁tsk	-11.9257
▁funnel	-11.9257
▁reload	-11.9257
▁denny	-11.9257
▁burnham	-11.9257
▁crucified	-11.9257
▁lawsuit	-11.9257
▁acquire	-11.9258
▁whoop	-11.9258
▁ludes	-11.9258
▁myra	-11.9258
▁chores	-11.9258
▁sheeran	-11.9258
▁syria	-11.9258
▁carryall	-11.9258
▁spaceport	-11.9258
▁goddess	-11.9258
▁polar	-11.9258
▁waterfall	-11.9258
▁withdrawal	-11.9259
▁sizzling	-11.926
▁recon	-11.926
▁belongings	-11.926
▁terminated	-11.926
▁firepower	-11.926
▁rory	-11.926
▁keyboard	-11.926
▁overtime	-11.9261
▁aarons	-11.9261
▁barney	-11.9261
▁slain	-11.9261
▁outro	-11.9261
▁leech	-11.9262
▁probe	-11.9262
▁somalia	-11.9262
▁fireplace	-11.9262
▁collider	-11.9262
▁romero	-11.9262
▁lilly	-11.9262
▁interrogate	-11.9262
▁dun	-11.9263
▁dodd	-11.9263
▁nursery	-11.9263
▁acha	-11.9263
▁flock	-11.9264
▁poochy	-11.9264
▁breakdown	-11.9265
▁stow	-11.9265
▁lakers	-11.9265
▁occasionally	-11.9265
▁stationary	-11.9265
▁jj	-11.9266
▁sasha	-11.9266
▁dyer	-11.9267
▁rowan	-11.9267
▁jimbo	-11.9267
▁revolver	-11.9267
▁redfoot	-11.9267
▁wager	-11.9268
▁diplomat	-11.9268
▁ciass	-11.9268
▁cashier	-11.9268
hine	-11.9269
▁hagen	-11.9269
▁feat	-11.9269
▁conserv	-11.9269
▁considerable	-11.9269
▁negroes	-11.9269
▁intimidated	-11.927
▁sac	-11.927
▁rumi	-11.927
▁awesomeness	-11.927
▁coverage	-11.927
▁dally	-11.9271
▁flynn	-11.9271
▁nipple	-11.9271
▁examined	-11.9272
▁clapping	-11.9273
▁scenery	-11.9273
▁quack	-11.9273
▁stalking	-11.9274
▁mailman	-11.9274
▁improved	-11.9276
▁whooshing	-11.9277
▁grabb	-11.9277
▁crippled	-11.9277
▁resigned	-11.9278
ther	-11.928
▁bitten	-11.928
▁pear	-11.928
▁restored	-11.928
▁concealed	-11.928
▁chink	-11.9283
▁archie	-11.9283
▁twobit	-11.9283
▁starved	-11.9283
▁departed	-11.9283
▁pose	-11.9283
▁proposed	-11.9284
▁gallon	-11.9284
▁rates	-11.9287
▁abused	-11.9288
▁successfully	-11.9288
securities	-11.9288
▁hometown	-11.929
▁harp	-11.9292
▁stashed	-11.9292
▁partial	-11.9292
▁emir	-11.9292
▁peacefully	-11.9293
▁purchased	-11.9293
▁sustained	-11.9295
▁mirrors	-11.9295
▁doublecross	-11.9296
▁vest	-11.9296
▁hyenas	-11.9297
▁distracted	-11.9299
bil	-11.93
▁pursued	-11.93
▁cous	-11.9301
▁corrupted	-11.9304
▁dine	-11.9307
▁raging	-11.9309
▁payne	-11.931
coming	-11.931
▁measured	-11.931
▁dumbest	-11.9312
▁stupidity	-11.9313
▁ricans	-11.9314
▁accusations	-11.9314
▁shudders	-11.9314
▁gras	-11.9318
ider	-11.932
▁splashing	-11.932
▁perfection	-11.932
▁nickys	-11.9321
▁addresses	-11.9324
▁bakery	-11.9326
▁rigged	-11.9327
▁grad	-11.9331
▁handcuffs	-11.9331
▁organize	-11.9332
▁intercepted	-11.9332
▁dougie	-11.9333
▁fainted	-11.9334
▁they	-11.9338
▁buses	-11.9338
▁nono	-11.934
▁investors	-11.9349
▁gamblers	-11.935
▁sage	-11.9357
▁niner	-11.9357
▁hare	-11.9358
▁triplet	-11.9358
▁freaky	-11.9358
▁whirl	-11.9359
▁pumping	-11.9361
▁gould	-11.9363
▁valentines	-11.9366
▁lepers	-11.9366
▁scraping	-11.9375
slav	-11.9377
▁traded	-11.9381
▁eyebrows	-11.9383
▁predators	-11.9383
▁scanners	-11.9383
▁whines	-11.9386
▁finale	-11.9386
▁bene	-11.9388
▁stillson	-11.9388
▁funded	-11.9388
aries	-11.9395
▁stayin	-11.9396
ose	-11.9396
▁ordering	-11.9397
▁spared	-11.9401
▁whirs	-11.9401
▁tran	-11.9402
ester	-11.9404
▁chuckie	-11.9404
dies	-11.9406
▁harland	-11.9407
▁hogs	-11.9408
▁killa	-11.9417
▁peas	-11.9417
▁locals	-11.9422
▁bearer	-11.9431
▁meis	-11.9431
▁wearin	-11.9435
▁comrades	-11.9435
▁generators	-11.9435
▁thrombeys	-11.9435
▁vikings	-11.9435
▁yankees	-11.9435
▁translates	-11.9435
breaking	-11.944
▁thankyou	-11.9443
▁sewers	-11.9445
itat	-11.9449
▁vultures	-11.9453
▁rollin	-11.9455
▁flyin	-11.9459
olera	-11.9463
▁slate	-11.9464
▁olympics	-11.947
wait	-11.947
▁rockets	-11.947
▁israeli	-11.9471
▁contains	-11.9471
▁avoiding	-11.9472
▁dal	-11.9475
▁desculpe	-11.9478
▁foe	-11.9478
▁cheerful	-11.9483
▁sinners	-11.9486
▁fare	-11.9487
▁elbows	-11.9487
▁airlines	-11.9488
▁pearls	-11.9488
▁convictions	-11.9488
▁duff	-11.9491
▁roberts	-11.9492
▁angelo	-11.9492
tory	-11.9502
▁harmed	-11.9503
▁curls	-11.9505
▁ambitions	-11.9505
▁suspicions	-11.9505
▁elis	-11.9505
hill	-11.9506
▁nickels	-11.9522
▁punching	-11.9526
▁broads	-11.9528
▁starters	-11.9531
ition	-11.9534
tonic	-11.9534
▁shin	-11.9535
▁rushing	-11.9535
▁regards	-11.9541
▁ramp	-11.9543
offe	-11.9552
▁buyer	-11.9556
▁binds	-11.9557
▁affects	-11.9558
▁hiss	-11.9561
▁raci	-11.9561
ravi	-11.9563
▁sweeter	-11.9567
▁fixin	-11.9567
etic	-11.9569
▁charts	-11.9574
▁cocktails	-11.9575
▁dil	-11.9577
huh	-11.9579
▁darker	-11.9579
▁environmental	-11.9586
▁quiz	-11.959
▁dodo	-11.9591
▁breasts	-11.9592
▁onions	-11.9594
bone	-11.9595
▁filming	-11.9595
▁ple	-11.96
▁lambs	-11.9606
▁capitalist	-11.9607
▁warmed	-11.9618
ather	-11.9621
▁businesses	-11.9626
▁nathe	-11.9626
▁wad	-11.9633
▁snacks	-11.9645
▁appearances	-11.9645
▁nurses	-11.9645
▁drones	-11.9645
acc	-11.9648
▁initials	-11.9648
▁pursu	-11.965
▁dots	-11.9654
lord	-11.9654
▁stevens	-11.9657
▁grapes	-11.9659
▁sleepin	-11.9661
▁amid	-11.9664
case	-11.9668
lap	-11.9671
atomic	-11.9672
▁blanks	-11.968
▁krays	-11.968
▁honk	-11.9689
rice	-11.9706
▁stated	-11.9707
▁standin	-11.9709
▁som	-11.971
▁invade	-11.9711
▁satellites	-11.9716
▁associates	-11.9716
▁uv	-11.9717
▁stationed	-11.972
▁pea	-11.9722
▁clocks	-11.9724
▁rout	-11.9729
dad	-11.9732
▁bees	-11.9734
▁aqu	-11.9737
▁warming	-11.9744
▁steele	-11.976
▁commercials	-11.9769
▁wes	-11.977
▁pati	-11.9786
hmm	-11.9791
▁christy	-11.9801
▁ale	-11.9804
rock	-11.9812
▁reservations	-11.9822
▁farming	-11.9823
iate	-11.984
▁crystals	-11.984
▁defendants	-11.984
▁tir	-11.9844
▁quant	-11.9845
▁lookit	-11.985
▁ante	-11.9853
▁championships	-11.9857
▁targeting	-11.986
▁exc	-11.9864
▁blaster	-11.9866
nha	-11.9888
▁theo	-11.9892
▁sizes	-11.9907
lets	-11.991
took	-11.9912
▁investigations	-11.992
▁pained	-11.9928
▁mash	-11.993
▁measures	-11.9948
▁bros	-11.9948
gate	-11.9948
▁farts	-11.9953
tima	-11.9961
▁studios	-11.9964
▁contracts	-11.9964
▁seism	-11.9965
set	-11.9971
▁cigars	-11.9982
▁baba	-11.9988
▁paces	-11.9997
hyde	-12.0004
thing	-12.0008
▁howe	-12.0008
▁relocat	-12.0013
stein	-12.0023
▁deposits	-12.003
▁cables	-12.0034
▁vile	-12.0034
hin	-12.005
▁aro	-12.0054
▁dale	-12.0066
▁carro	-12.008
▁singers	-12.0086
▁aids	-12.0088
▁whir	-12.0094
ght	-12.0099
aki	-12.0104
▁stumble	-12.0104
mont	-12.0111
gent	-12.0117
▁sham	-12.012
▁benz	-12.014
your	-12.015
▁caper	-12.0168
▁hog	-12.0169
▁lang	-12.0174
▁greatgreatgrand	-12.0178
▁esp	-12.0184
▁illustr	-12.02
▁alligator	-12.02
▁coconut	-12.02
▁economic	-12.0201
▁souvenir	-12.0202
▁sensor	-12.0204
▁helm	-12.0205
▁squirrel	-12.0206
▁cartoon	-12.0206
▁spur	-12.0207
▁cuff	-12.0208
▁checker	-12.0211
▁carrot	-12.0213
▁assess	-12.0218
▁refugee	-12.0219
▁billboard	-12.0221
root	-12.0237
tak	-12.0239
▁texts	-12.0241
aves	-12.0251
▁elevators	-12.0254
▁uni	-12.0256
▁attempts	-12.026
▁devices	-12.0272
city	-12.0282
▁carat	-12.0283
post	-12.0284
▁writ	-12.0292
stick	-12.0292
▁logic	-12.0293
bell	-12.0294
▁jackets	-12.0295
gro	-12.0297
▁uhuhuh	-12.0299
▁gunfight	-12.0303
▁premier	-12.0307
▁reap	-12.0311
▁peregrin	-12.0312
▁announc	-12.0315
▁consume	-12.033
▁hors	-12.0331
▁are	-12.0332
omis	-12.0335
▁qualify	-12.0335
▁bluff	-12.0335
related	-12.0335
▁applaud	-12.0336
view	-12.0337
writer	-12.0337
front	-12.0338
term	-12.0338
wheel	-12.0338
white	-12.0339
course	-12.0339
forward	-12.034
know	-12.034
berry	-12.0341
known	-12.0341
▁toilets	-12.0341
▁endanger	-12.0341
baii	-12.0342
▁obtain	-12.0342
▁detain	-12.0342
▁disobey	-12.0342
▁condemn	-12.0343
▁iv	-12.0346
wall	-12.0346
▁diploma	-12.0346
▁strangle	-12.0346
▁moods	-12.0348
[...]
