<unk>	0
<s>	0
</s>	0
s	-3.00144
ing	-4.2165
ed	-4.5185
d	-4.62586
y	-4.67663
n	-4.75545
e	-4.79399
▁im	-4.88706
t	-4.92917
a	-4.96258
▁know	-4.9853
▁dont	-4.98872
er	-4.99362
▁go	-5.116
▁get	-5.1721
▁oh	-5.20861
r	-5.21917
u	-5.24143
▁like	-5.24977
▁well	-5.25275
p	-5.25544
o	-5.26311
g	-5.27888
▁come	-5.28971
▁right	-5.36415
in	-5.37645
c	-5.41668
le	-5.45757
▁one	-5.47268
i	-5.49842
▁youre	-5.50136
▁got	-5.50766
b	-5.50963
l	-5.5645
▁see	-5.57582
▁thats	-5.5968
ly	-5.59833
▁good	-5.62777
▁want	-5.66789
▁yeah	-5.67876
▁na	-5.71343
▁think	-5.73858
al	-5.75667
k	-5.75736
▁look	-5.77469
h	-5.80114
▁	-5.81553
w	-5.81961
m	-5.81985
▁yes	-5.83057
or	-5.85348
re	-5.8569
▁time	-5.86223
▁l	-5.86497
▁back	-5.87843
▁s	-5.89312
f	-5.9084
▁take	-5.91421
▁man	-5.92695
▁us	-5.93575
▁ill	-5.96308
▁re	-5.9758
▁okay	-5.98493
▁going	-6.00252
an	-6.05
▁say	-6.06198
▁hey	-6.09402
▁would	-6.09633
▁cant	-6.10837
▁tell	-6.13153
▁gon	-6.13492
v	-6.13502
▁hes	-6.13772
ar	-6.14732
es	-6.17238
en	-6.17629
▁make	-6.18527
▁de	-6.1925
it	-6.21175
▁way	-6.22239
▁love	-6.22554
il	-6.24198
▁little	-6.24924
▁mean	-6.25297
▁need	-6.25808
▁could	-6.26079
st	-6.26707
▁really	-6.27676
ch	-6.28316
th	-6.30124
▁never	-6.3137
ck	-6.31551
on	-6.34943
la	-6.38146
▁mr	-6.38245
▁let	-6.39179
ve	-6.39392
▁something	-6.40112
▁give	-6.41054
▁in	-6.4193
▁lets	-6.42771
ri	-6.43758
▁whats	-6.44941
ie	-6.45424
▁c	-6.47572
ic	-6.47583
▁didnt	-6.48573
▁f	-6.49187
▁thank	-6.4966
▁g	-6.50218
ra	-6.53038
▁ive	-6.53252
ion	-6.53359
ent	-6.53551
▁ha	-6.53722
▁even	-6.53839
ce	-6.54542
at	-6.55574
▁please	-6.55613
li	-6.56012
▁help	-6.5606
▁theres	-6.56201
ne	-6.56742
▁two	-6.5675
▁sure	-6.57207
▁o	-6.58122
▁ta	-6.58345
ur	-6.59016
ll	-6.59473
te	-6.61087
▁a	-6.61111
▁people	-6.61319
▁la	-6.62233
▁ma	-6.62518
ke	-6.63648
▁uh	-6.64196
▁p	-6.64393
▁sir	-6.64718
▁new	-6.65663
el	-6.6587
▁e	-6.65942
▁day	-6.66023
▁sorry	-6.66529
▁music	-6.67263
ter	-6.6731
sh	-6.68069
▁work	-6.68101
▁said	-6.68474
▁hi	-6.68527
x	-6.68886
▁much	-6.69006
▁thing	-6.69268
z	-6.69999
ro	-6.70258
▁must	-6.70857
▁wait	-6.70869
▁po	-6.71623
et	-6.71898
▁k	-6.73306
ation	-6.74403
▁find	-6.7444
▁first	-6.75429
▁car	-6.7556
▁call	-6.75928
▁ro	-6.76184
lo	-6.76381
▁home	-6.77762
▁life	-6.78201
▁great	-6.78325
▁bo	-6.78559
se	-6.7877
de	-6.78983
▁god	-6.80517
▁cr	-6.81303
▁co	-6.82128
▁long	-6.82674
▁w	-6.82694
▁ho	-6.827
▁th	-6.83049
na	-6.8388
ate	-6.84054
▁keep	-6.84879
▁t	-6.86085
id	-6.863
us	-6.86379
▁stop	-6.87432
▁bu	-6.87449
ol	-6.87654
▁shes	-6.88274
▁better	-6.89046
▁con	-6.89093
▁away	-6.89126
▁night	-6.89191
▁ba	-6.89387
▁put	-6.89552
▁theyre	-6.90106
▁big	-6.90567
▁still	-6.90628
▁nothing	-6.91667
▁ever	-6.92073
ers	-6.92385
me	-6.93172
ir	-6.9382
▁boy	-6.93964
▁talk	-6.9435
un	-6.94547
oo	-6.9457
▁miss	-6.94845
▁y	-6.95001
▁maybe	-6.95106
▁he	-6.95342
▁old	-6.95912
▁anything	-6.96442
▁di	-6.97047
▁always	-6.98367
▁thought	-6.99194
▁du	-6.99781
▁sp	-6.99968
ge	-7.00282
▁un	-7.00415
▁mi	-7.00627
▁name	-7.00629
um	-7.00842
▁show	-7.01105
▁world	-7.01134
▁id	-7.01535
▁be	-7.01649
▁an	-7.02163
▁to	-7.02478
ta	-7.02605
ma	-7.03368
ment	-7.03879
▁lo	-7.04024
▁mo	-7.04709
mp	-7.04807
▁pa	-7.05357
▁place	-7.05549
▁believe	-7.05605
▁ra	-7.05656
▁youll	-7.05792
ies	-7.0598
▁stay	-7.06011
ist	-7.06178
▁no	-7.07005
▁feel	-7.07117
▁br	-7.07466
▁around	-7.0789
▁sh	-7.0818
▁wont	-7.08413
▁ca	-7.08753
ow	-7.08809
▁things	-7.09036
▁cha	-7.09164
ty	-7.09178
▁leave	-7.09344
▁everything	-7.09875
age	-7.11279
▁last	-7.11672
▁live	-7.1195
▁dr	-7.12122
▁told	-7.12295
am	-7.13035
▁do	-7.13234
▁lot	-7.13617
▁youve	-7.13738
▁father	-7.1381
▁hear	-7.14383
ant	-7.14772
▁made	-7.14923
▁da	-7.15365
▁nice	-7.15439
▁st	-7.15726
▁every	-7.15891
▁kind	-7.15956
▁pro	-7.16176
▁listen	-7.1689
ul	-7.17084
pp	-7.17192
▁cl	-7.17264
ff	-7.17347
▁guys	-7.17979
ine	-7.1925
▁fine	-7.20126
▁years	-7.20188
▁may	-7.20277
is	-7.20868
▁al	-7.20919
pe	-7.21239
ha	-7.21299
▁three	-7.21549
co	-7.21657
▁dad	-7.21939
▁i	-7.21992
▁girl	-7.22588
▁remember	-7.23146
ver	-7.23448
ard	-7.23629
▁b	-7.23678
ian	-7.23714
▁play	-7.23983
▁money	-7.24778
ia	-7.24826
▁li	-7.24962
▁mother	-7.25118
▁coming	-7.25263
▁hell	-7.25688
im	-7.26108
▁hello	-7.27147
ct	-7.27156
▁gra	-7.2761
▁care	-7.27765
▁course	-7.28323
▁em	-7.28948
ell	-7.29181
▁men	-7.29182
▁enough	-7.29547
man	-7.29832
▁real	-7.29917
▁fl	-7.301
▁huh	-7.30156
ad	-7.30418
▁hold	-7.3055
ut	-7.30585
▁ar	-7.30623
▁se	-7.30638
he	-7.30665
▁turn	-7.30766
ling	-7.30903
ting	-7.30976
▁sa	-7.31012
▁head	-7.31153
▁son	-7.31227
▁hand	-7.31271
▁move	-7.31649
est	-7.31777
ure	-7.3189
▁ask	-7.32737
▁doesnt	-7.32741
▁might	-7.33112
▁try	-7.337
ry	-7.33755
▁te	-7.34054
▁so	-7.34259
▁ru	-7.34867
▁ah	-7.34885
▁mom	-7.34887
ity	-7.35631
vi	-7.35681
▁start	-7.3649
▁isnt	-7.37057
▁win	-7.37392
▁bad	-7.37498
▁mar	-7.37542
as	-7.37629
to	-7.37646
▁thanks	-7.37918
▁left	-7.38066
▁mind	-7.38157
▁wan	-7.38254
▁another	-7.38454
▁best	-7.38535
▁ok	-7.3862
ance	-7.38728
son	-7.39156
ive	-7.39386
tter	-7.3975
▁ja	-7.39767
▁came	-7.39784
▁friend	-7.39983
ny	-7.40178
▁pre	-7.40655
▁m	-7.40705
▁done	-7.40883
▁ad	-7.40985
▁wi	-7.413
j	-7.41515
▁pi	-7.41628
▁far	-7.42054
▁dis	-7.42176
op	-7.42238
mb	-7.42419
▁bar	-7.42434
tch	-7.4268
▁ready	-7.42977
▁me	-7.43105
▁le	-7.43194
▁today	-7.43851
▁house	-7.43973
▁baby	-7.43995
▁hard	-7.44036
▁understand	-7.45267
▁wrong	-7.45772
▁meet	-7.45831
mo	-7.4596
able	-7.45981
▁hope	-7.46213
▁eat	-7.46539
tion	-7.47157
▁che	-7.47485
▁run	-7.47852
▁watch	-7.4804
▁open	-7.48253
nt	-7.48509
▁next	-7.48769
▁getting	-7.4913
▁weve	-7.49221
▁together	-7.49993
▁je	-7.50199
▁door	-7.50327
ts	-7.50618
▁mu	-7.51111
▁j	-7.51233
▁vi	-7.51794
▁morning	-7.52041
▁wanted	-7.5232
▁woman	-7.5285
▁dog	-7.52997
ful	-7.53031
▁close	-7.5314
▁ne	-7.53232
▁family	-7.5385
▁kill	-7.53859
▁else	-7.53955
▁fa	-7.54362
▁happen	-7.54501
tt	-7.54503
▁idea	-7.54955
ress	-7.55551
dy	-7.55651
▁bring	-7.55858
▁sc	-7.55863
▁end	-7.55914
▁guy	-7.57149
▁heart	-7.57192
▁young	-7.57294
ger	-7.57723
ca	-7.57776
▁su	-7.5781
mm	-7.57868
ee	-7.57955
tic	-7.58224
▁word	-7.58441
▁found	-7.58461
▁beautiful	-7.5853
▁gr	-7.58544
▁without	-7.59107
▁part	-7.59112
▁war	-7.59385
▁water	-7.59516
▁many	-7.59602
▁someone	-7.59881
▁ya	-7.60434
om	-7.60851
mi	-7.61073
ence	-7.61094
▁bit	-7.61341
ber	-7.61781
▁ti	-7.61828
▁sha	-7.61965
▁sound	-7.62002
▁whole	-7.62243
▁change	-7.62343
da	-7.62405
be	-7.62525
▁chi	-7.62791
▁stand	-7.63012
▁happened	-7.63129
end	-7.63205
▁guess	-7.63351
▁dream	-7.64047
▁trying	-7.64216
▁talking	-7.64665
▁saw	-7.65073
▁seen	-7.65259
▁ex	-7.65274
▁pretty	-7.65373
▁room	-7.65582
▁whoa	-7.65787
▁z	-7.65822
▁tra	-7.66036
▁school	-7.66299
▁matter	-7.66481
ig	-7.665
▁ga	-7.66868
▁star	-7.66964
▁walk	-7.6724
▁aint	-7.67246
▁sit	-7.67446
▁wa	-7.6762
▁pu	-7.67726
ti	-7.68422
if	-7.68575
▁alone	-7.68756
▁plan	-7.68827
▁tomorrow	-7.69029
▁jo	-7.69096
▁high	-7.6974
ot	-7.7006
ip	-7.70136
▁job	-7.70277
no	-7.70377
up	-7.70457
▁brother	-7.70963
▁went	-7.71389
▁looking	-7.71761
▁playing	-7.71797
▁wouldnt	-7.72148
ise	-7.7236
und	-7.72603
▁happy	-7.72828
mon	-7.72897
▁knew	-7.73048
▁week	-7.73382
▁tonight	-7.73491
▁heard	-7.73509
▁ass	-7.73687
▁use	-7.737
▁light	-7.73943
▁soon	-7.74005
▁die	-7.74202
▁fun	-7.74434
▁whos	-7.74542
ton	-7.74717
▁excuse	-7.74948
▁en	-7.75024
▁sea	-7.75375
▁worry	-7.75629
▁dear	-7.75671
▁yet	-7.75697
per	-7.75958
▁king	-7.76148
▁laughing	-7.76291
▁d	-7.76509
▁sta	-7.7655
ho	-7.76816
▁face	-7.77088
ous	-7.77642
▁hu	-7.77788
ness	-7.7795
▁horse	-7.78048
▁dead	-7.78159
▁minute	-7.78324
▁fire	-7.78524
▁late	-7.78716
▁year	-7.78823
▁pr	-7.79086
▁everybody	-7.79099
▁ri	-7.79364
▁pay	-7.7942
▁wh	-7.79613
▁wasnt	-7.79693
ill	-7.79806
▁everyone	-7.79863
▁kids	-7.79916
▁um	-7.80143
▁fight	-7.80167
po	-7.80472
▁kid	-7.80585
▁lost	-7.81599
▁since	-7.81971
▁problem	-7.82207
▁cut	-7.82607
▁ab	-7.82629
▁true	-7.82796
▁sw	-7.82895
▁gu	-7.83188
▁cause	-7.83457
▁pe	-7.83622
go	-7.83981
▁four	-7.84178
▁havent	-7.84295
▁friends	-7.84872
▁second	-7.84915
▁wish	-7.85098
▁read	-7.85332
▁grow	-7.85396
▁sleep	-7.85416
▁str	-7.85529
▁v	-7.85604
ak	-7.85896
▁actually	-7.85918
▁forget	-7.86044
▁cu	-7.86352
and	-7.86446
ated	-7.86493
▁already	-7.87186
▁ju	-7.87208
▁r	-7.87262
cy	-7.8814
di	-7.88227
▁drink	-7.88416
▁fe	-7.88698
▁ring	-7.88796
▁christmas	-7.88993
▁youd	-7.89402
▁check	-7.89517
ner	-7.89884
▁air	-7.89888
ah	-7.90156
▁couldnt	-7.90353
▁easy	-7.90564
▁per	-7.90594
▁rest	-7.90749
▁free	-7.91151
▁pass	-7.91157
▁used	-7.91282
▁called	-7.91393
▁took	-7.91441
▁ow	-7.91654
▁hit	-7.91958
▁girls	-7.92207
▁met	-7.92227
▁act	-7.92382
▁follow	-7.92427
der	-7.92603
▁ka	-7.92617
▁mine	-7.93166
▁clear	-7.93381
▁set	-7.93956
▁gone	-7.9396
▁days	-7.94025
▁hurt	-7.9406
ue	-7.94295
ize	-7.95099
bo	-7.95126
▁sun	-7.9515
▁book	-7.95582
▁pick	-7.96425
▁ac	-7.96442
▁damn	-7.96692
▁comp	-7.96694
▁shall	-7.96795
▁we	-7.97183
▁arm	-7.97501
▁order	-7.97704
▁tu	-7.97906
ction	-7.97934
ary	-7.98267
▁town	-7.98393
▁exp	-7.98425
ick	-7.98437
▁eyes	-7.98471
ite	-7.98617
▁el	-7.98664
▁rock	-7.98981
▁stuff	-7.99018
▁ago	-7.99137
rr	-7.99144
ang	-7.99293
▁promise	-7.99391
ish	-7.99436
ping	-7.99526
▁sweet	-7.99969
▁sign	-8.00557
ug	-8.00666
▁break	-8.00988
▁later	-8.01009
que	-8.01032
ink	-8.01179
▁moment	-8.01217
va	-8.01268
for	-8.01292
▁number	-8.01428
▁anyone	-8.02019
▁n	-8.02026
▁chance	-8.02172
▁laughs	-8.02296
▁speak	-8.02332
▁san	-8.0274
▁fly	-8.02895
▁business	-8.0291
▁fuck	-8.0354
▁hurry	-8.03812
▁learn	-8.03815
do	-8.0397
che	-8.04189
▁sing	-8.04217
▁also	-8.04477
▁fast	-8.04962
by	-8.05069
nie	-8.05339
▁black	-8.05474
▁crazy	-8.05482
▁fi	-8.05555
▁trouble	-8.05636
▁bear	-8.05659
▁doctor	-8.0579
our	-8.06073
▁bet	-8.06286
▁sl	-8.06383
▁point	-8.06739
▁five	-8.06766
▁perfect	-8.07183
▁question	-8.07183
▁gun	-8.07183
▁count	-8.07439
▁save	-8.07455
▁nobody	-8.07495
▁sighs	-8.07508
▁bye	-8.07672
▁team	-8.07831
▁step	-8.07849
▁ten	-8.07916
▁children	-8.08441
▁game	-8.08768
▁side	-8.09233
▁honey	-8.09235
▁si	-8.09327
▁shit	-8.09338
ten	-8.09433
▁power	-8.09563
fe	-8.09859
▁full	-8.0991
▁land	-8.10031
▁cor	-8.10084
ley	-8.10138
▁lady	-8.1015
▁city	-8.10217
▁ball	-8.10273
▁case	-8.10848
▁wife	-8.10897
▁afraid	-8.10996
▁lead	-8.11007
▁boys	-8.11061
▁fall	-8.11217
▁wonder	-8.11592
hi	-8.1176
▁important	-8.11809
▁somebody	-8.11972
▁bird	-8.11979
▁line	-8.12
less	-8.12099
▁app	-8.12357
▁comm	-8.12457
▁story	-8.12475
▁train	-8.12568
▁jack	-8.12717
▁sister	-8.12978
▁dance	-8.13054
▁half	-8.1346
▁teach	-8.1379
▁lord	-8.14
▁quite	-8.1449
▁different	-8.14791
▁arent	-8.14801
tor	-8.14849
▁probably	-8.15129
▁leg	-8.15132
▁taking	-8.15153
igh	-8.15165
▁sal	-8.15246
▁ph	-8.15589
▁har	-8.16192
▁va	-8.16606
▁fo	-8.16617
lt	-8.1681
▁cool	-8.16915
▁john	-8.17007
▁chuckles	-8.17175
▁phone	-8.17209
▁saying	-8.17716
▁deal	-8.17967
▁fact	-8.18228
ba	-8.18344
▁safe	-8.18516
▁shut	-8.1867
▁bed	-8.18724
▁least	-8.18917
▁country	-8.18992
ical	-8.1912
▁wow	-8.19247
▁exactly	-8.1944
▁qu	-8.1945
▁whatever	-8.19616
▁ni	-8.20109
▁welcome	-8.20147
▁hang	-8.20173
ally	-8.20276
▁anyway	-8.20325
▁inside	-8.20425
▁continue	-8.20502
▁wheres	-8.20946
▁lm	-8.21064
▁hoo	-8.21121
▁mama	-8.21159
▁catch	-8.21213
▁gi	-8.2124
▁captain	-8.21397
▁child	-8.214
▁drive	-8.21503
▁ear	-8.21778
ble	-8.21874
▁hate	-8.22265
▁mon	-8.22362
▁pull	-8.22409
▁shoot	-8.2249
▁interest	-8.22527
ook	-8.22584
▁almost	-8.22663
ust	-8.22846
▁am	-8.22873
▁stu	-8.22886
▁special	-8.23027
▁along	-8.23213
▁touch	-8.23214
▁making	-8.23417
em	-8.23585
▁the	-8.23857
ii	-8.23987
▁pat	-8.24222
▁hands	-8.24367
ating	-8.24447
▁ran	-8.25307
▁goes	-8.25479
▁gold	-8.25487
▁vo	-8.261
▁food	-8.26381
▁shot	-8.26555
▁whi	-8.26699
▁beat	-8.26861
▁seem	-8.26861
▁hmm	-8.2713
▁blood	-8.27131
▁bi	-8.27268
▁waiting	-8.27269
▁supposed	-8.27338
▁christ	-8.2742
out	-8.27778
▁working	-8.28032
▁ski	-8.28145
▁reason	-8.28283
zz	-8.28598
▁thinking	-8.28861
▁human	-8.28877
ial	-8.29023
io	-8.29104
▁ahead	-8.29246
▁gave	-8.2938
▁can	-8.29418
▁answer	-8.30025
▁person	-8.30196
▁daddy	-8.30209
▁send	-8.30219
▁dress	-8.30367
▁ooh	-8.30415
▁record	-8.30417
▁brought	-8.30418
▁figure	-8.30812
▁feeling	-8.3093
▁minutes	-8.30931
▁princess	-8.31001
▁finish	-8.3101
▁wall	-8.31023
▁six	-8.31174
▁women	-8.31406
▁voice	-8.31408
▁law	-8.3141
▁earth	-8.31411
▁wonderful	-8.31471
one	-8.31479
▁wear	-8.31708
▁secret	-8.31803
▁white	-8.31901
▁expect	-8.32004
▁dinner	-8.32004
▁bell	-8.32188
old	-8.32197
ack	-8.32226
▁trust	-8.32542
▁sam	-8.32582
▁death	-8.32618
tin	-8.32623
▁started	-8.32893
▁speaking	-8.32986
▁cho	-8.32995
▁serious	-8.33009
▁become	-8.33413
▁mad	-8.33542
▁blow	-8.33699
▁fan	-8.33724
▁mer	-8.33759
▁at	-8.33792
▁asked	-8.33792
▁boo	-8.33904
▁though	-8.34172
iv	-8.34469
▁stupid	-8.34635
▁return	-8.3484
▁animal	-8.34841
▁strong	-8.34847
▁tri	-8.35011
▁crowd	-8.35283
▁goodbye	-8.35463
▁tree	-8.35496
▁state	-8.35621
▁lose	-8.35804
▁luck	-8.36179
▁anymore	-8.36498
ious	-8.36713
▁party	-8.36823
▁gentlemen	-8.36917
▁daughter	-8.37127
▁drop	-8.37395
▁strange	-8.37613
▁uncle	-8.37767
▁dark	-8.37979
time	-8.38006
q	-8.38026
all	-8.38234
▁bla	-8.38303
▁fish	-8.38401
▁glad	-8.38416
▁gen	-8.38582
▁boat	-8.388
▁cold	-8.38922
▁seems	-8.39155
▁bl	-8.39329
▁char	-8.3949
▁anybody	-8.39683
▁aw	-8.39691
wa	-8.39937
▁top	-8.40081
▁fair	-8.40154
act	-8.40169
▁cop	-8.40356
▁sort	-8.40393
▁cur	-8.40562
▁class	-8.40571
▁buy	-8.40648
▁au	-8.40762
▁funny	-8.40901
▁ladies	-8.40993
▁mark	-8.41238
ven	-8.41471
▁behind	-8.41644
art	-8.41745
▁theyll	-8.41866
ron	-8.42097
▁ride	-8.42138
land	-8.42332
▁red	-8.42483
▁heres	-8.42798
▁song	-8.43207
▁president	-8.4342
▁frank	-8.43422
▁throw	-8.43424
▁picture	-8.43644
▁write	-8.43687
▁hot	-8.4373
▁pop	-8.43784
▁killed	-8.44106
▁truth	-8.44437
▁either	-8.44546
▁pen	-8.44684
▁cat	-8.44805
rie	-8.45523
▁less	-8.45566
▁fool	-8.45615
▁deep	-8.4575
▁sometimes	-8.45914
▁plane	-8.45946
way	-8.4595
▁max	-8.45992
▁front	-8.46146
▁breath	-8.46375
▁perhaps	-8.46605
▁park	-8.46617
qui	-8.4698
▁married	-8.47075
▁hair	-8.47076
▁hours	-8.47484
▁whoo	-8.47495
port	-8.47601
▁fuckin	-8.47749
▁over	-8.48041
▁col	-8.48163
▁able	-8.48165
▁poor	-8.48297
▁near	-8.48803
▁running	-8.48979
▁million	-8.49183
▁small	-8.49184
▁past	-8.49309
▁surprise	-8.49419
▁kiss	-8.49448
▁gasps	-8.4966
▁feet	-8.49681
▁foot	-8.50465
▁grand	-8.50985
▁mountain	-8.5134
▁short	-8.51378
▁body	-8.51434
▁careful	-8.51531
▁sent	-8.51547
▁clean	-8.52086
▁screaming	-8.52598
▁straight	-8.53051
▁control	-8.53052
▁quiet	-8.53054
▁cheering	-8.5308
▁broke	-8.53303
▁street	-8.53303
▁rid	-8.53356
ough	-8.53356
▁cap	-8.53545
▁ship	-8.53549
▁super	-8.5369
▁bill	-8.5373
▁present	-8.53819
ition	-8.53872
▁itll	-8.54051
▁build	-8.54304
▁outside	-8.54308
▁doll	-8.54523
▁alive	-8.54533
▁movie	-8.55057
▁months	-8.55094
▁worth	-8.55299
▁angel	-8.55323
▁report	-8.55573
▁scared	-8.55584
▁bob	-8.55593
▁pig	-8.55709
▁living	-8.55819
▁or	-8.55878
▁tried	-8.55898
▁police	-8.56057
▁film	-8.56069
▁american	-8.5612
▁ii	-8.56145
▁hy	-8.56353
▁slow	-8.56458
▁burn	-8.56612
▁master	-8.56876
▁couple	-8.57078
▁join	-8.57155
▁guard	-8.57237
▁nu	-8.57399
lin	-8.57536
▁professor	-8.57592
▁rat	-8.57801
▁husband	-8.58109
▁prince	-8.5838
ator	-8.58451
▁wake	-8.58706
▁wind	-8.59231
▁camp	-8.59282
▁roll	-8.59508
▁group	-8.59943
▁mmm	-8.60025
▁visit	-8.60239
▁lie	-8.60573
▁quick	-8.60685
▁form	-8.60767
▁out	-8.60856
▁val	-8.60915
▁cook	-8.61009
con	-8.61084
ship	-8.61105
▁pan	-8.61188
▁hour	-8.61337
▁office	-8.61542
▁sick	-8.61649
▁rule	-8.61731
▁gar	-8.61763
▁till	-8.6192
ade	-8.62134
▁allow	-8.62352
ball	-8.62499
▁jesus	-8.62641
▁wed	-8.6294
▁bra	-8.63368
▁forgot	-8.63437
▁blue	-8.635
▁maam	-8.63505
▁heaven	-8.63712
▁er	-8.63908
▁age	-8.63922
▁leaving	-8.63986
▁pray	-8.6401
▁ed	-8.64147
▁somewhere	-8.64261
▁alright	-8.64303
▁marry	-8.64521
▁shouldnt	-8.64537
▁mor	-8.64676
▁attack	-8.64815
▁agree	-8.64818
▁beg	-8.65066
ather	-8.65607
▁band	-8.65619
▁sense	-8.65949
▁lucky	-8.6605
▁cover	-8.66115
▁grunting	-8.66211
▁aah	-8.66252
▁lovely	-8.66312
▁race	-8.66386
light	-8.66418
▁possible	-8.66775
▁seven	-8.66877
ez	-8.66991
▁eye	-8.67106
▁born	-8.67397
▁bee	-8.67779
▁knock	-8.67914
▁ice	-8.67953
com	-8.68358
▁her	-8.68626
▁sell	-8.68643
▁church	-8.68776
▁boss	-8.69835
▁wild	-8.70278
▁trans	-8.70347
▁test	-8.70539
▁bank	-8.70542
▁push	-8.70638
▁majesty	-8.71111
▁reach	-8.71135
side	-8.71197
▁fucking	-8.7138
▁stick	-8.71603
▁buddy	-8.71708
▁key	-8.71779
▁amazing	-8.72001
▁jean	-8.72244
▁belong	-8.72599
▁piece	-8.72606
▁finally	-8.72837
▁yo	-8.72839
▁mess	-8.7317
▁charlie	-8.73204
▁magic	-8.73289
▁med	-8.73435
▁fix	-8.73468
▁realize	-8.73653
▁pack	-8.74026
▁parents	-8.7411
▁trip	-8.74115
▁inter	-8.74151
▁bull	-8.74255
▁fear	-8.74361
▁radio	-8.74417
▁command	-8.745
▁offer	-8.75033
ically	-8.75183
▁road	-8.75236
▁language	-8.75644
▁forever	-8.75644
▁peace	-8.75646
▁warm	-8.75677
▁pet	-8.75765
▁entire	-8.75954
▁lock	-8.76
▁felt	-8.76054
▁smell	-8.76581
▁shoe	-8.77032
▁suppose	-8.7717
▁hero	-8.77217
gra	-8.77434
▁enjoy	-8.77831
▁letter	-8.78238
▁personal	-8.78364
▁paper	-8.78436
▁indistinct	-8.78465
▁mary	-8.78484
▁low	-8.78543
▁fort	-8.7875
▁hide	-8.78791
▁york	-8.78791
▁giving	-8.78793
▁explain	-8.79105
▁darling	-8.79106
▁evil	-8.7911
▁snow	-8.79439
▁grunts	-8.79746
▁swear	-8.7975
▁moving	-8.79764
▁dan	-8.79789
ative	-8.79822
▁engine	-8.80069
▁wood	-8.80085
▁round	-8.80087
▁shell	-8.80147
▁hunt	-8.80353
▁protect	-8.8042
▁rather	-8.80449
▁singing	-8.80985
▁spend	-8.81018
▁theyve	-8.81045
▁treat	-8.81066
▁peter	-8.81208
▁sex	-8.81296
▁summer	-8.8137
▁fault	-8.81372
▁general	-8.81377
▁lts	-8.8151
▁tom	-8.81814
▁clothes	-8.82025
cious	-8.82144
▁date	-8.82424
▁none	-8.82454
▁ash	-8.82534
▁river	-8.82571
▁hall	-8.82596
▁others	-8.82689
▁tro	-8.82693
▁proud	-8.83047
▁pain	-8.83603
▁spirit	-8.83688
▁ground	-8.83688
▁simple	-8.84023
▁lunch	-8.84364
▁cross	-8.84372
▁bag	-8.84682
▁english	-8.84697
▁honor	-8.84717
▁across	-8.85036
▁prison	-8.85378
▁finger	-8.85643
▁forgive	-8.85717
▁eight	-8.85733
▁except	-8.85744
▁hows	-8.8583
▁soft	-8.86084
▁papa	-8.86172
▁box	-8.86335
▁sad	-8.8636
▁george	-8.86403
▁post	-8.86471
▁rain	-8.86548
▁ahh	-8.86605
▁fra	-8.8661
board	-8.86878
▁court	-8.87117
ities	-8.87418
▁west	-8.87734
down	-8.87735
▁choice	-8.87795
▁force	-8.87802
▁certain	-8.88111
▁early	-8.88182
▁tru	-8.8848
▁smart	-8.88492
▁german	-8.88848
▁mouth	-8.8885
▁miles	-8.88992
▁mike	-8.89023
▁jump	-8.89095
▁scream	-8.89141
▁french	-8.89196
▁direct	-8.89404
▁green	-8.89567
▁billy	-8.89814
▁imagine	-8.89907
▁scar	-8.90045
▁shh	-8.90103
▁carry	-8.90169
▁south	-8.90272
▁monster	-8.90281
▁middle	-8.9033
ease	-8.9056
▁glass	-8.90627
▁lll	-8.90645
line	-8.91111
▁swim	-8.91266
▁paint	-8.91547
▁terr	-8.91739
▁sub	-8.9185
▁arrive	-8.92073
▁bright	-8.92497
▁rich	-8.92729
▁ap	-8.92762
▁barking	-8.92821
▁consider	-8.93169
room	-8.93311
▁bang	-8.93402
▁attention	-8.93536
▁thousand	-8.93536
▁mistake	-8.93536
▁soul	-8.93565
▁brand	-8.93818
▁brain	-8.94224
▁future	-8.94279
▁moon	-8.9438
▁suit	-8.94549
▁coffee	-8.94652
▁honest	-8.94659
▁chief	-8.9466
▁travel	-8.94671
▁kidding	-8.94697
▁madam	-8.9492
▁joe	-8.94967
▁tired	-8.95068
▁luc	-8.95193
▁fill	-8.95223
▁certainly	-8.95432
▁hungry	-8.95437
▁board	-8.95593
▁bitch	-8.957
▁taste	-8.95745
▁north	-8.95788
▁trick	-8.96105
▁destroy	-8.96158
▁groans	-8.96159
▁robb	-8.96289
▁idiot	-8.96544
▁queen	-8.96545
▁charge	-8.96555
▁begin	-8.96804
▁track	-8.96806
▁dangerous	-8.9695
▁ber	-8.97634
▁camera	-8.97648
▁absolutely	-8.97688
▁hundred	-8.97688
▁laugh	-8.97807
▁window	-8.97842
▁up	-8.98282
▁buck	-8.98358
▁relax	-8.98466
▁search	-8.98857
▁stone	-8.99165
▁para	-8.99214
▁tough	-8.99412
▁ver	-8.99458
▁pleasure	-8.99633
▁throat	-9.00029
▁yesterday	-9.00422
▁horn	-9.00524
▁store	-9.00597
▁kick	-9.00798
▁company	-9.00827
▁tv	-9.00963
▁field	-9.01033
▁folks	-9.01218
▁david	-9.01223
▁bomb	-9.01362
▁santa	-9.01566
▁busy	-9.02016
▁respect	-9.02019
ism	-9.02057
▁highness	-9.02178
▁cost	-9.02337
▁judge	-9.02427
▁sarah	-9.02428
▁notice	-9.02593
▁base	-9.02697
▁sudden	-9.02828
▁shouting	-9.0283
▁royal	-9.02861
▁table	-9.03289
▁caught	-9.03308
▁quit	-9.03351
▁chu	-9.04014
ible	-9.04019
▁kept	-9.04052
▁smile	-9.04059
▁harry	-9.04228
▁america	-9.04358
▁paul	-9.04694
▁fella	-9.04745
▁worse	-9.04882
▁werent	-9.04889
▁unless	-9.05119
▁matt	-9.05155
▁flight	-9.05509
▁under	-9.05662
▁murder	-9.0571
▁fit	-9.06101
aft	-9.06102
▁decided	-9.06205
▁tour	-9.06384
▁island	-9.06555
▁ought	-9.06567
▁quickly	-9.06724
▁station	-9.0675
▁narrator	-9.06969
▁terrible	-9.06983
▁double	-9.07819
▁steal	-9.07848
▁worried	-9.08245
▁mum	-9.08307
▁machine	-9.08676
▁appear	-9.08679
▁club	-9.08689
▁accept	-9.08699
▁suck	-9.09064
▁brave	-9.09107
▁garden	-9.09114
▁usual	-9.09217
▁proper	-9.09444
▁afternoon	-9.09538
▁groaning	-9.09539
▁history	-9.09539
▁elvis	-9.0955
▁where	-9.09676
▁prepare	-9.10413
▁student	-9.10414
▁apart	-9.10442
▁spot	-9.10482
▁flowers	-9.10958
▁cock	-9.1124
▁officer	-9.11285
▁calm	-9.11323
▁serve	-9.11392
▁obvious	-9.11732
▁tim	-9.11738
▁mel	-9.11864
▁bless	-9.11973
▁mm	-9.12047
▁hospital	-9.12176
▁sky	-9.12252
▁month	-9.12557
▁crash	-9.12637
▁completely	-9.12892
▁instead	-9.13071
▁scott	-9.13078
▁grandpa	-9.13096
▁share	-9.13173
▁laughter	-9.13218
▁click	-9.13357
▁applause	-9.13521
▁pin	-9.13628
▁area	-9.13661
▁paris	-9.13669
▁rose	-9.13757
▁dick	-9.13778
▁france	-9.1398
▁tight	-9.13981
▁position	-9.13985
▁impossible	-9.14428
▁loud	-9.14506
▁doubt	-9.14885
▁lonely	-9.14892
▁stole	-9.15003
▁crow	-9.15176
▁bother	-9.15358
▁wedding	-9.1537
▁you	-9.15511
▁major	-9.15807
▁mister	-9.15874
▁greatest	-9.16108
▁anywhere	-9.16267
▁draw	-9.16285
▁sail	-9.16582
▁exist	-9.16654
well	-9.16707
▁color	-9.16913
▁port	-9.16953
▁create	-9.16971
▁prove	-9.17092
▁forward	-9.172
▁tape	-9.17215
▁spell	-9.17286
▁vou	-9.17732
▁hotel	-9.1798
▁circ	-9.1815
▁fell	-9.18179
▁cake	-9.18268
▁deliver	-9.18617
▁faith	-9.18622
▁dancing	-9.18625
▁gift	-9.18629
▁system	-9.19091
▁brown	-9.19098
▁final	-9.19718
▁aunt	-9.19727
right	-9.19881
▁especially	-9.2005
▁perform	-9.20051
▁besides	-9.20058
▁upon	-9.2028
▁truck	-9.20292
▁service	-9.20533
▁tigger	-9.20535
▁spring	-9.20606
▁shop	-9.20656
▁announce	-9.21019
▁beginning	-9.21035
▁talent	-9.21035
▁study	-9.21184
▁crack	-9.21328
▁chuckling	-9.21507
▁ghost	-9.21509
▁weird	-9.21512
▁robert	-9.2152
▁cough	-9.21821
▁sergeant	-9.21997
▁village	-9.21998
▁self	-9.22024
▁awful	-9.22122
▁hum	-9.22149
▁third	-9.225
▁alex	-9.22505
▁honk	-9.22519
▁difficult	-9.22985
▁college	-9.22985
work	-9.23223
▁chicken	-9.23484
▁message	-9.23621
▁totally	-9.23984
▁forest	-9.23989
ddle	-9.24145
▁public	-9.24485
▁soldier	-9.24485
▁became	-9.24485
▁danny	-9.24598
▁buzz	-9.24758
▁waste	-9.24861
▁large	-9.25234
▁difference	-9.25497
▁nervous	-9.25497
▁storm	-9.25507
▁floor	-9.25516
▁joke	-9.26301
▁fresh	-9.26527
▁invite	-9.26533
▁hank	-9.26561
▁raise	-9.26779
▁everywhere	-9.27036
▁whistle	-9.2704
▁henry	-9.27042
▁arrest	-9.27044
▁speed	-9.27154
▁coach	-9.27569
▁outta	-9.27754
▁concern	-9.28075
▁indeed	-9.28097
▁suggest	-9.28598
▁colonel	-9.28599
▁marriage	-9.28599
▁thunder	-9.28603
▁collect	-9.2867
▁merry	-9.28794
▁bottom	-9.29125
▁extra	-9.2913
▁escape	-9.29654
▁richard	-9.29762
▁situation	-9.30189
▁space	-9.30196
▁remain	-9.30197
▁panting	-9.30379
▁nine	-9.30651
▁remind	-9.30721
▁wrote	-9.30723
▁decision	-9.31258
▁discover	-9.31258
▁indian	-9.31273
▁chris	-9.31501
▁flow	-9.31735
▁sweetheart	-9.31799
▁screw	-9.31804
▁sight	-9.31808
▁nature	-9.31818
▁howd	-9.31898
hood	-9.32131
▁support	-9.32343
▁milk	-9.32358
▁settle	-9.32362
what	-9.32366
▁favorite	-9.32377
▁silly	-9.32388
▁east	-9.32427
field	-9.32602
▁definitely	-9.32888
▁ticket	-9.3344
▁screech	-9.3399
▁smoke	-9.33995
▁hasnt	-9.34041
▁danger	-9.34054
▁drag	-9.34072
▁charles	-9.34102
▁direction	-9.34223
▁within	-9.34552
▁health	-9.34552
▁climb	-9.34554
▁admit	-9.34556
▁martin	-9.34783
▁bastard	-9.35107
▁practice	-9.35666
▁private	-9.35666
▁partner	-9.35949
▁inspector	-9.36231
▁neither	-9.36231
▁fred	-9.36413
▁creature	-9.368
▁natural	-9.36801
▁skate	-9.36826
▁taught	-9.3687
▁security	-9.37371
▁champion	-9.37372
▁often	-9.37373
▁battle	-9.37374
ified	-9.37407
▁accident	-9.37946
▁mmhmm	-9.37946
▁bridge	-9.38531
▁risk	-9.38605
▁government	-9.39105
▁uhhuh	-9.39105
▁heavy	-9.39105
▁dirty	-9.39111
▁wolf	-9.39112
▁account	-9.3969
▁comfort	-9.3969
▁success	-9.3969
▁beyond	-9.3969
▁drunk	-9.39694
▁experience	-9.40278
▁price	-9.403
▁correct	-9.40314
▁favor	-9.40836
▁design	-9.40871
▁daisy	-9.40878
▁shark	-9.40887
▁fellow	-9.40974
▁slip	-9.41294
▁dramatic	-9.41465
▁brazil	-9.41466
▁famous	-9.41467
▁choose	-9.4147
▁aye	-9.41597
▁neighbor	-9.42064
▁sniff	-9.42064
▁discuss	-9.42064
▁deserve	-9.42066
▁contact	-9.42069
▁national	-9.42073
▁gasping	-9.42078
▁depend	-9.42673
▁normal	-9.43273
▁bought	-9.43274
▁among	-9.4328
▁agent	-9.4343
▁breakfast	-9.43882
▁london	-9.43883
▁luna	-9.43933
▁twice	-9.44496
▁block	-9.445
▁ocean	-9.44502
▁spoke	-9.44507
▁steve	-9.44598
▁incredibl	-9.45113
▁kitchen	-9.45113
▁teeth	-9.4513
▁canyon	-9.45144
▁weather	-9.4519
▁africa	-9.45734
▁excellent	-9.45734
▁yogi	-9.45739
minous	-9.45767
▁crew	-9.45785
▁stopped	-9.45821
cept	-9.46301
▁asleep	-9.46359
▁devil	-9.46377
▁scene	-9.46403
▁complete	-9.46615
▁whether	-9.46988
▁pardon	-9.4699
ology	-9.46991
▁driving	-9.46992
▁receive	-9.46992
▁benny	-9.46996
▁foreign	-9.47621
▁strength	-9.47621
▁knee	-9.47806
▁immediately	-9.48258
▁empty	-9.48264
▁cheese	-9.48283
▁built	-9.48285
▁dying	-9.48377
▁bible	-9.48476
▁congratulations	-9.48899
▁information	-9.48899
▁strike	-9.48905
▁castle	-9.48909
▁sheep	-9.49548
▁egg	-9.49592
▁survive	-9.50193
▁upset	-9.50206
▁bunch	-9.50221
▁appreciate	-9.50847
▁plenty	-9.50847
▁native	-9.50953
house	-9.51367
▁awesome	-9.51505
▁elephant	-9.51505
▁weapon	-9.51505
▁civil	-9.51507
▁member	-9.51513
▁worst	-9.51515
▁repeat	-9.51524
▁operation	-9.51556
▁james	-9.51558
▁birthday	-9.52167
▁beauty	-9.52167
▁grandfather	-9.52167
▁smith	-9.52171
▁snake	-9.52174
▁crime	-9.52194
▁england	-9.52834
▁condition	-9.52837
▁beast	-9.5286
▁suffer	-9.53509
▁pretend	-9.53511
▁audience	-9.54181
▁patient	-9.54184
▁claim	-9.54188
▁blind	-9.54198
▁type	-9.542
▁invent	-9.54279
▁ridiculous	-9.54861
▁product	-9.54864
▁video	-9.54865
▁squeal	-9.54865
▁cinderella	-9.55546
▁restaurant	-9.55546
▁minister	-9.55546
▁arrange	-9.55547
▁tires	-9.55659
▁lieutenant	-9.56235
▁toward	-9.56239
▁squeak	-9.5693
▁author	-9.56932
▁term	-9.56995
▁approach	-9.57629
▁organ	-9.57633
▁excited	-9.58333
▁whispers	-9.58334
▁sunday	-9.58336
▁ugh	-9.58338
▁angry	-9.58339
▁cousin	-9.58348
▁goddamn	-9.59043
▁biggest	-9.59051
▁connect	-9.59261
▁recognize	-9.59757
▁tradition	-9.59758
▁daniel	-9.59765
▁wheel	-9.59767
▁awake	-9.59772
▁inaudible	-9.60476
▁custom	-9.60477
▁silver	-9.60484
▁invest	-9.60491
▁view	-9.60499
▁slave	-9.60512
▁disappear	-9.61201
▁introduce	-9.61201
▁sheriff	-9.61201
▁gadget	-9.61201
▁guitar	-9.61204
▁tommy	-9.61214
▁theyd	-9.61239
▁saint	-9.61265
▁snap	-9.61317
▁fantastic	-9.61931
▁psych	-9.61933
▁thatll	-9.61934
▁refuse	-9.61937
▁lift	-9.62022
▁particular	-9.62666
▁handsome	-9.62675
▁journey	-9.63407
▁happiness	-9.64153
▁writing	-9.64156
▁kingdom	-9.64157
▁monkey	-9.64158
▁chirping	-9.64907
▁computer	-9.64912
▁roof	-9.64931
▁crap	-9.6504
▁opera	-9.65445
▁europe	-9.65663
▁jungle	-9.65663
▁contract	-9.65663
▁heidi	-9.65675
▁hadnt	-9.65676
▁claw	-9.657
▁department	-9.66426
▁project	-9.66426
▁memory	-9.66426
▁desert	-9.6645
▁challenge	-9.67195
▁spanish	-9.67196
▁simply	-9.67197
▁style	-9.67263
▁friday	-9.6797
▁weight	-9.67972
▁level	-9.6798
▁threat	-9.67991
▁punch	-9.67996
▁alice	-9.67998
▁hung	-9.68038
▁elect	-9.68202
▁adventure	-9.68752
▁nonsense	-9.68752
▁russian	-9.68754
▁necessary	-9.69539
▁target	-9.69539
▁united	-9.69578
▁somehow	-9.70333
▁upstairs	-9.70333
ograph	-9.70333
▁asshole	-9.70334
▁program	-9.70338
▁contest	-9.70347
▁prefer	-9.70362
▁trumpet	-9.71133
▁cloud	-9.71133
▁victor	-9.71136
▁studio	-9.71161
▁michel	-9.71227
▁disappoint	-9.71939
▁crystal	-9.71939
▁explosion	-9.71939
▁melinda	-9.7194
▁female	-9.71942
▁detective	-9.72752
▁miracle	-9.72752
▁rescue	-9.72754
▁whale	-9.72877
▁score	-9.73348
▁decide	-9.7342
▁boyfriend	-9.73572
▁conversation	-9.73572
▁competition	-9.73572
▁spread	-9.73576
▁detail	-9.73579
▁balto	-9.73582
▁larry	-9.73595
▁mommy	-9.73609
▁julie	-9.73677
▁celebrate	-9.74398
▁saturday	-9.74398
▁opinion	-9.74398
▁freak	-9.74401
▁sword	-9.74418
▁cornelius	-9.75232
▁photo	-9.75235
▁ugly	-9.75239
▁distance	-9.75239
▁alarm	-9.7524
▁laura	-9.75318
ville	-9.75719
▁embarrass	-9.76072
▁emergency	-9.76072
▁whistling	-9.76073
▁written	-9.76919
▁request	-9.76923
▁jenny	-9.76926
▁humming	-9.76933
▁cigarette	-9.77774
▁giggling	-9.77774
▁opportunity	-9.77774
▁gunshot	-9.77775
▁romantic	-9.77775
▁rainbow	-9.77775
▁develop	-9.78636
▁however	-9.78636
▁official	-9.78636
▁orchestra	-9.78636
▁responsible	-9.78636
▁rabbit	-9.78636
▁scoffs	-9.78637
▁jacob	-9.7864
▁release	-9.78645
▁sharp	-9.78721
▁according	-9.79506
▁relationship	-9.79506
▁unfortunate	-9.79506
▁afford	-9.79506
▁bullshit	-9.79507
▁focus	-9.79509
▁wrap	-9.79673
aught	-9.8008
▁ancient	-9.80383
▁equal	-9.80383
▁separate	-9.80383
▁bravo	-9.80387
▁claus	-9.80423
▁girlfriend	-9.81268
▁midnight	-9.81268
▁purpose	-9.81268
▁convince	-9.81268
▁steady	-9.81268
▁chinese	-9.8127
▁freedom	-9.81272
▁electric	-9.81282
▁pilot	-9.81287
▁treasure	-9.82161
▁enemy	-9.82163
▁require	-9.82166
▁spark	-9.82173
▁disturb	-9.83062
▁although	-9.83062
▁emperor	-9.83064
▁kelly	-9.83086
▁apologize	-9.83971
▁nowhere	-9.83971
▁horrible	-9.83971
▁sobbing	-9.83971
▁morgan	-9.83975
▁stories	-9.83977
▁wagon	-9.83982
▁shirt	-9.83986
▁kidnap	-9.84029
▁instrument	-9.84888
▁example	-9.84888
▁possibly	-9.84888
▁suspect	-9.84888
▁twenty	-9.84888
▁priest	-9.84905
▁provide	-9.84924
▁someday	-9.85814
▁rotten	-9.85822
▁limit	-9.85838
▁effect	-9.86749
▁shouldve	-9.86749
▁effort	-9.86749
▁emotion	-9.86754
▁defend	-9.86754
▁instruct	-9.87692
▁whenever	-9.87692
▁andrea	-9.87693
▁bathroom	-9.87693
▁courage	-9.87695
▁complain	-9.87698
▁punish	-9.88648
▁issue	-9.88649
▁switch	-9.8865
▁louis	-9.88728
▁hercules	-9.89606
▁akita	-9.89606
▁quarter	-9.89609
▁occu	-9.89611
▁object	-9.90577
▁subject	-9.90577
▁virgin	-9.90577
▁regret	-9.90578
▁jealous	-9.90578
▁vacation	-9.9058
▁document	-9.91557
▁original	-9.91557
▁knife	-9.91557
▁community	-9.91558
▁fruit	-9.91558
▁character	-9.91558
▁steele	-9.91562
▁divorce	-9.92547
▁regular	-9.92547
▁creaking	-9.92548
▁jordan	-9.92548
▁rumbling	-9.92548
▁social	-9.92549
▁degree	-9.9255
▁stanley	-9.92551
▁nurse	-9.92556
▁annabel	-9.93547
▁holiday	-9.93547
▁matilda	-9.93547
▁telephone	-9.93547
▁exciting	-9.93548
▁whispering	-9.93548
▁intense	-9.93549
▁speech	-9.9355
▁kitty	-9.93552
▁innocent	-9.94557
▁engage	-9.94561
▁avoid	-9.95578
▁brilliant	-9.95578
▁evidence	-9.95578
▁extreme	-9.95578
▁square	-9.95578
▁goodnight	-9.95578
▁junior	-9.95578
▁pumpkin	-9.95578
▁andrew	-9.95578
▁attract	-9.95578
▁claire	-9.95578
▁medicine	-9.95578
▁knowledge	-9.95579
▁advice	-9.95579
▁greek	-9.9558
▁isabel	-9.96609
▁japanese	-9.96609
▁understood	-9.96609
▁capture	-9.96613
▁pepper	-9.96622
▁desire	-9.96638
▁hollywood	-9.97651
▁republic	-9.97651
▁william	-9.97651
▁century	-9.97651
▁diamond	-9.97651
