<unk>	0
<s>	0
</s>	0
s	-4.20146
▁oh	-4.6984
▁dont	-4.71127
▁im	-4.72238
▁well	-4.7393
▁get	-4.89296
▁go	-4.92414
▁know	-4.94289
▁come	-4.96364
▁right	-5.02015
▁like	-5.05494
▁one	-5.19964
▁	-5.21502
▁got	-5.22588
▁yes	-5.24888
▁youre	-5.25003
▁thats	-5.26034
▁see	-5.26888
ing	-5.32693
▁us	-5.41858
▁good	-5.43216
▁ill	-5.48285
▁think	-5.58495
▁back	-5.59026
▁look	-5.59434
▁time	-5.63081
▁cant	-5.64659
▁want	-5.67774
▁na	-5.69226
▁going	-5.69742
▁yeah	-5.71323
▁hes	-5.73165
▁take	-5.74702
ed	-5.75112
▁never	-5.7522
▁way	-5.78472
▁hey	-5.82228
▁sir	-5.82306
▁say	-5.85407
▁little	-5.85514
▁man	-5.86331
▁would	-5.93176
▁let	-5.93551
▁could	-5.94094
▁tell	-5.94405
▁gon	-5.95722
▁love	-5.97641
▁whats	-5.98762
▁make	-6.00164
▁ive	-6.00879
▁theres	-6.08907
▁must	-6.09536
d	-6.10545
▁give	-6.14963
▁lets	-6.15501
▁thank	-6.16928
▁didnt	-6.20177
▁l	-6.22953
▁said	-6.23594
▁help	-6.23698
▁please	-6.23823
▁mean	-6.2521
▁wait	-6.25321
▁mr	-6.25353
▁away	-6.26649
▁boy	-6.27069
▁something	-6.28735
▁day	-6.29
▁two	-6.29035
▁really	-6.30022
▁theyre	-6.30514
▁find	-6.30592
▁sure	-6.31772
▁much	-6.31855
y	-6.32117
▁need	-6.32637
▁stop	-6.34193
▁home	-6.40851
▁keep	-6.41116
▁better	-6.41453
▁chance	-6.41969
▁old	-6.43315
▁people	-6.45643
▁okay	-6.46001
▁long	-6.47148
▁wont	-6.47255
▁anything	-6.49801
ly	-6.50233
▁sorry	-6.51411
▁life	-6.51412
▁first	-6.51416
▁youll	-6.52406
▁around	-6.5475
▁thing	-6.54921
▁place	-6.55005
▁even	-6.56776
▁great	-6.57104
▁night	-6.57226
e	-6.57394
▁aint	-6.57537
▁put	-6.5854
▁uh	-6.59218
▁nothing	-6.59248
▁shes	-6.59361
▁ever	-6.63491
▁lot	-6.63853
▁still	-6.64328
▁stay	-6.66825
▁hear	-6.68538
▁miss	-6.68892
▁name	-6.7064
▁leave	-6.71395
▁world	-6.7181
▁isnt	-6.72868
▁work	-6.73042
▁things	-6.73334
▁new	-6.73348
▁everything	-6.73448
er	-6.74196
▁talk	-6.75006
▁big	-6.75215
▁every	-6.7548
▁ah	-6.76158
▁enough	-6.76587
▁always	-6.76587
▁girl	-6.77117
▁may	-6.78293
▁course	-6.78315
▁id	-6.79131
▁last	-6.79803
▁men	-6.80821
▁youve	-6.81335
▁maybe	-6.81346
▁run	-6.82
▁thought	-6.83126
▁coming	-6.83675
▁three	-6.85426
▁huh	-6.8668
▁show	-6.86849
▁mother	-6.87968
▁call	-6.89747
▁dear	-6.91849
▁made	-6.92156
▁em	-6.92994
▁believe	-6.93466
▁ta	-6.93564
▁nice	-6.93788
▁hold	-6.94568
▁ha	-6.94954
▁god	-6.98432
▁left	-6.99988
▁told	-7.00257
▁bad	-7.01838
▁done	-7.01948
▁fine	-7.02719
▁music	-7.02874
▁kind	-7.04113
▁seen	-7.04862
▁another	-7.05144
▁weve	-7.0517
▁father	-7.05208
▁without	-7.05706
▁mind	-7.06116
▁doesnt	-7.0627
▁might	-7.06282
▁live	-7.07233
▁remember	-7.07918
▁understand	-7.08285
▁try	-7.08812
▁friend	-7.09095
▁care	-7.09938
▁house	-7.10457
▁hope	-7.11264
▁guys	-7.12548
▁pretty	-7.12718
▁feel	-7.13007
▁hurry	-7.13334
▁hello	-7.14007
▁listen	-7.14543
t	-7.14638
▁heard	-7.14949
▁best	-7.15109
▁young	-7.15618
▁found	-7.15784
▁gone	-7.15887
▁prince	-7.16056
▁today	-7.16412
▁many	-7.16486
▁came	-7.16571
▁shadow	-7.1667
▁years	-7.16933
▁king	-7.17693
▁ask	-7.18319
▁john	-7.18929
▁play	-7.18947
▁uncle	-7.19193
▁matter	-7.20457
▁true	-7.20919
▁days	-7.21012
▁water	-7.216
▁wrong	-7.2203
▁next	-7.2287
▁whole	-7.22889
▁wouldnt	-7.22984
▁ready	-7.22997
▁heart	-7.23822
▁morning	-7.24224
▁son	-7.24489
▁friends	-7.24854
▁shall	-7.24881
▁bring	-7.24885
es	-7.25306
▁turn	-7.2589
▁everybody	-7.26298
▁mine	-7.26603
▁bang	-7.26656
▁george	-7.26976
▁far	-7.26986
▁move	-7.27017
▁watch	-7.27066
▁minute	-7.27965
▁happened	-7.28519
▁hell	-7.29779
▁town	-7.31297
▁laughing	-7.31343
▁wanted	-7.31759
▁whoa	-7.31831
▁word	-7.32406
▁someone	-7.32706
▁else	-7.33911
▁knew	-7.3419
▁along	-7.34193
▁yet	-7.34287
▁head	-7.34574
▁ya	-7.35339
▁chitty	-7.36464
▁sassy	-7.36472
▁dog	-7.36969
▁goodbye	-7.37258
▁hand	-7.37424
▁land	-7.37509
▁eat	-7.37985
▁havent	-7.38008
▁everyone	-7.38082
▁nobody	-7.38794
▁whos	-7.38823
▁boys	-7.39034
▁worry	-7.39128
▁soon	-7.39486
▁children	-7.39578
▁cat	-7.39648
▁dead	-7.39667
▁fire	-7.39875
▁family	-7.4037
▁open	-7.40966
▁captain	-7.41172
▁river	-7.41705
▁jamie	-7.41996
▁pig	-7.42126
▁sun	-7.42395
▁thanks	-7.42562
▁alone	-7.42802
▁sea	-7.43446
▁start	-7.4371
▁use	-7.44344
▁lost	-7.44523
▁stand	-7.44617
▁money	-7.45271
▁lady	-7.45323
n	-7.45448
▁idea	-7.45768
▁general	-7.46111
▁de	-7.46147
▁real	-7.46496
▁trouble	-7.46816
▁car	-7.47362
▁job	-7.47591
▁beautiful	-7.47685
a	-7.48357
▁room	-7.48551
▁war	-7.48988
▁city	-7.49575
▁getting	-7.49798
▁waiting	-7.49963
▁lord	-7.50382
▁face	-7.50843
▁animals	-7.50847
▁wish	-7.50867
▁together	-7.51308
▁forget	-7.51402
▁trying	-7.51864
▁tomorrow	-7.52198
▁professor	-7.52199
▁guess	-7.52859
▁afraid	-7.53098
▁papa	-7.53139
▁bit	-7.53425
▁aye	-7.54091
▁die	-7.54339
▁door	-7.55729
▁took	-7.55876
▁mrs	-7.56022
▁kill	-7.56082
▁rest	-7.56365
▁talking	-7.56782
▁since	-7.56804
▁woman	-7.56812
▁side	-7.56876
▁eyes	-7.57305
▁end	-7.57629
▁hard	-7.57663
▁earth	-7.5773
▁couldnt	-7.57885
▁part	-7.58441
▁wasnt	-7.58681
▁happy	-7.58684
▁horse	-7.58686
▁poor	-7.58694
▁went	-7.58719
▁youd	-7.597
▁high	-7.60059
▁meet	-7.60162
▁cause	-7.60348
▁dance	-7.61017
▁already	-7.61594
▁doctor	-7.61595
▁knows	-7.61823
▁used	-7.62175
▁wan	-7.62326
▁kid	-7.62349
▁wonderful	-7.62455
▁feet	-7.62624
▁saw	-7.62632
al	-7.62961
▁madam	-7.63141
▁says	-7.63986
▁looking	-7.64478
▁song	-7.64489
▁mama	-7.6453
▁glad	-7.646
▁brer	-7.64624
▁set	-7.64685
st	-7.65287
▁light	-7.65456
▁four	-7.65536
▁full	-7.6568
▁gold	-7.65714
▁sit	-7.66134
▁excuse	-7.66644
▁t	-7.67158
▁airport	-7.67622
▁tonight	-7.67689
▁food	-7.67722
▁hi	-7.67794
▁late	-7.6798
▁magic	-7.68404
▁looks	-7.68611
▁hmm	-7.68685
▁easy	-7.68796
▁follow	-7.69074
▁free	-7.69115
▁hot	-7.69767
▁somebody	-7.69803
▁fun	-7.70369
▁ago	-7.70964
▁dream	-7.71138
▁un	-7.71481
r	-7.71635
▁ahead	-7.71978
▁chatters	-7.72018
▁quite	-7.72079
o	-7.72554
▁girls	-7.72628
▁nemo	-7.73095
▁joe	-7.73212
▁change	-7.73896
▁theyll	-7.74198
▁master	-7.74231
▁plan	-7.74957
▁sarah	-7.75362
▁till	-7.75495
▁la	-7.75532
▁close	-7.75869
▁makes	-7.75875
est	-7.76135
▁arent	-7.76471
▁s	-7.77062
▁business	-7.77584
▁welcome	-7.77643
▁ice	-7.77913
▁catch	-7.78646
▁daddy	-7.78833
in	-7.78904
▁dad	-7.79097
▁clear	-7.79205
▁happen	-7.79252
▁c	-7.79301
▁fly	-7.79918
▁brought	-7.79923
▁party	-7.80189
▁fight	-7.80585
▁promise	-7.80884
▁pull	-7.81009
g	-7.81111
▁air	-7.81362
▁ok	-7.82131
▁luther	-7.82317
▁inside	-7.82319
▁means	-7.82685
▁called	-7.82991
▁comes	-7.8344
▁sing	-7.83493
▁moment	-7.83567
▁daughter	-7.83794
▁sweet	-7.83885
▁baby	-7.84779
▁ooh	-7.84784
▁gave	-7.84791
▁learn	-7.84928
▁cut	-7.85027
▁hit	-7.85065
▁kiss	-7.85443
▁pick	-7.85461
▁wants	-7.85465
▁goes	-7.86013
▁hang	-7.86391
▁ow	-7.86519
▁speak	-7.86689
▁sleep	-7.86764
▁castle	-7.87293
▁heres	-7.87334
▁send	-7.87591
▁dat	-7.879
▁though	-7.88281
▁hurt	-7.88377
▁future	-7.88569
▁probably	-7.88569
▁gentlemen	-7.88571
▁peter	-7.8866
▁year	-7.88821
▁ho	-7.89389
▁sara	-7.89813
wheres	-7.89826
▁behind	-7.89866
▁alive	-7.8988
▁ride	-7.89952
▁wow	-7.90035
▁rock	-7.90067
▁voice	-7.90067
▁fast	-7.90481
▁seems	-7.90754
▁sound	-7.90789
or	-7.91152
▁anyway	-7.91182
▁almost	-7.91183
▁exactly	-7.91185
▁taking	-7.91299
▁walk	-7.91897
▁times	-7.92436
▁grunts	-7.92551
▁saying	-7.9268
▁anyone	-7.92758
▁important	-7.9387
▁least	-7.94001
▁fair	-7.9498
▁safe	-7.94984
▁stupid	-7.95108
▁save	-7.95112
▁wed	-7.95228
▁ladies	-7.95246
▁cinderella	-7.95496
▁wind	-7.95524
▁a	-7.96334
▁read	-7.96458
▁wilbur	-7.96625
i	-7.96685
▁later	-7.96802
▁five	-7.96909
▁b	-7.97189
▁laughs	-7.97212
▁minutes	-7.97435
▁pip	-7.97446
▁break	-7.97786
▁trust	-7.978
▁second	-7.98337
▁goin	-7.99004
▁drink	-7.99016
▁luck	-7.99408
▁rosie	-7.99466
▁death	-7.99469
▁mom	-7.99688
▁attack	-8.00316
▁met	-8.00341
▁smell	-8.00482
▁perfect	-8.00774
▁anywhere	-8.00912
▁actually	-8.00929
▁crazy	-8.00945
▁kids	-8.01134
▁sheriff	-8.01247
▁chisum	-8.01249
▁lm	-8.01592
▁six	-8.02482
▁ones	-8.02596
▁short	-8.02964
▁hands	-8.02969
▁words	-8.0311
▁step	-8.03703
▁damn	-8.03757
▁perhaps	-8.03874
▁child	-8.03975
▁point	-8.04033
▁horses	-8.04067
▁guy	-8.04294
▁thou	-8.04506
▁pay	-8.05034
▁quiet	-8.05274
▁lucky	-8.05651
▁country	-8.05824
▁army	-8.05844
▁shot	-8.05984
▁special	-8.06089
▁wonder	-8.06389
▁fall	-8.06703
▁working	-8.0683
▁itll	-8.06933
▁sent	-8.07158
▁message	-8.0736
▁hate	-8.07539
▁fish	-8.07614
▁shine	-8.07697
▁playing	-8.07814
▁buy	-8.08075
▁lewis	-8.08489
▁wife	-8.0854
▁charles	-8.08552
▁shut	-8.08734
▁dogs	-8.09131
▁da	-8.09414
h	-8.09749
▁strange	-8.10027
▁billy	-8.10111
▁mary	-8.10271
▁colonel	-8.10537
▁boat	-8.10581
▁th	-8.11272
▁princess	-8.1155
▁also	-8.11689
▁chanticleer	-8.11691
▁remus	-8.11704
▁blue	-8.11717
▁bye	-8.1199
▁p	-8.12006
▁killed	-8.12109
▁train	-8.12262
▁wake	-8.12263
▁truth	-8.12899
▁sort	-8.13271
▁delilah	-8.13329
▁rainbow	-8.13329
▁barking	-8.13384
▁answer	-8.13583
▁re	-8.13731
▁human	-8.13797
▁reason	-8.13851
▁number	-8.14035
▁lovely	-8.14272
▁thinking	-8.14638
▁be	-8.14861
▁funny	-8.15008
▁screaming	-8.15086
▁sometimes	-8.15087
▁anna	-8.15136
▁w	-8.15217
able	-8.15325
▁bed	-8.16685
▁kingdom	-8.16691
▁sign	-8.16705
▁quickly	-8.16792
▁none	-8.16803
▁top	-8.16851
ers	-8.17075
▁bird	-8.17206
▁flying	-8.17222
▁question	-8.17287
▁fact	-8.17356
▁hair	-8.17383
▁white	-8.1769
ion	-8.17811
▁yo	-8.17897
▁lead	-8.18008
▁seem	-8.18075
▁half	-8.18214
▁feeling	-8.18318
▁fool	-8.18414
▁north	-8.18454
▁gasps	-8.18534
▁mark	-8.1863
l	-8.18638
▁game	-8.19072
▁ball	-8.1917
▁control	-8.19856
▁win	-8.19858
▁lives	-8.19943
▁grow	-8.20167
▁honey	-8.20173
▁leaving	-8.20199
▁sky	-8.20216
▁thee	-8.20339
▁shell	-8.20431
▁line	-8.20434
▁rabbit	-8.20819
▁f	-8.21553
▁small	-8.21831
▁fault	-8.21955
▁push	-8.2197
▁georgie	-8.21992
▁cold	-8.22048
▁supposed	-8.22207
▁thy	-8.22391
▁dr	-8.22425
▁singing	-8.2247
▁problem	-8.22636
▁heaven	-8.22669
▁rose	-8.22761
▁hat	-8.22814
on	-8.22846
▁black	-8.22848
▁red	-8.22849
ies	-8.23286
▁stuff	-8.23523
▁royal	-8.23771
▁anybody	-8.23772
▁rather	-8.2378
▁married	-8.23781
▁silly	-8.23783
▁upon	-8.23815
▁moving	-8.23824
▁scared	-8.23905
▁making	-8.23929
▁lose	-8.24031
▁drive	-8.24351
▁where	-8.25222
▁quick	-8.25354
▁suppose	-8.25366
▁radio	-8.25627
▁forward	-8.25646
▁exclaims	-8.25666
▁miles	-8.25859
▁week	-8.26369
▁ten	-8.27407
▁expect	-8.2744
▁christmas	-8.27511
▁majesty	-8.27512
▁fix	-8.27535
▁whatever	-8.27541
▁dreams	-8.2755
▁secret	-8.28283
▁cats	-8.28312
▁tree	-8.28439
▁straight	-8.28634
▁humans	-8.28932
▁brave	-8.29095
▁fell	-8.29379
▁sanada	-8.29432
▁sergeant	-8.29433
▁theyve	-8.29436
▁davy	-8.29437
▁caught	-8.29438
▁story	-8.29476
▁dinner	-8.29481
▁steady	-8.29482
▁certainly	-8.29514
▁folks	-8.29518
▁school	-8.29765
▁ship	-8.30083
▁machine	-8.302
▁asked	-8.30223
▁fellow	-8.30278
▁foot	-8.30394
▁bear	-8.30552
▁hill	-8.30798
▁tight	-8.30916
▁telling	-8.31243
▁calm	-8.31403
▁either	-8.31418
▁carry	-8.31473
▁write	-8.3148
▁throw	-8.3169
▁pardon	-8.32211
▁bet	-8.32259
▁born	-8.32679
▁rain	-8.32691
c	-8.32859
▁g	-8.32986
▁explain	-8.33134
▁caleb	-8.33392
▁terrible	-8.33395
▁indeed	-8.33396
▁running	-8.33467
▁se	-8.33508
▁become	-8.33605
▁hide	-8.34962
▁south	-8.35416
▁murder	-8.35425
▁sodom	-8.35428
▁koki	-8.35432
▁henry	-8.35433
▁front	-8.35487
▁return	-8.35659
▁low	-8.36057
▁law	-8.3625
▁st	-8.36307
▁orders	-8.36474
▁van	-8.36556
▁hour	-8.36584
▁touch	-8.36652
▁rat	-8.36784
▁eye	-8.37302
▁wild	-8.374
▁different	-8.3741
▁shh	-8.37415
▁company	-8.37519
▁truly	-8.3755
▁kitty	-8.37558
▁kim	-8.37581
▁evening	-8.37641
▁cool	-8.37644
▁di	-8.37725
▁started	-8.38149
▁mmm	-8.38197
▁moon	-8.38263
le	-8.38277
▁tail	-8.38768
▁in	-8.38825
▁ran	-8.38965
▁edmond	-8.39644
▁near	-8.39791
▁check	-8.39797
en	-8.3986
ve	-8.39868
▁able	-8.39964
▁mission	-8.40103
▁longer	-8.40393
▁garden	-8.40535
▁present	-8.40699
▁power	-8.4076
▁sense	-8.40915
▁weeks	-8.40939
▁band	-8.41455
▁mad	-8.41696
▁join	-8.41706
▁couple	-8.41818
▁shouldnt	-8.41819
▁known	-8.42422
▁escape	-8.42511
▁m	-8.42545
▁outside	-8.42599
▁deal	-8.42616
▁clean	-8.42779
▁trumpet	-8.42898
▁blow	-8.42922
▁sad	-8.43555
▁destroy	-8.43568
▁reach	-8.43793
▁careful	-8.43975
▁jacob	-8.44038
▁across	-8.44045
▁arrived	-8.44149
▁d	-8.44249
▁order	-8.44492
▁body	-8.44499
▁bell	-8.44665
▁turned	-8.44865
▁husband	-8.45154
▁hours	-8.45224
▁sho	-8.45503
▁book	-8.45628
▁um	-8.45852
▁looked	-8.45925
▁lots	-8.46002
▁thomas	-8.46311
▁conrad	-8.46312
▁anymore	-8.46312
▁somewhere	-8.46316
▁sighs	-8.46506
▁birdie	-8.46623
▁eh	-8.46751
▁died	-8.47374
▁weather	-8.47379
▁road	-8.47423
▁mountain	-8.47506
▁animal	-8.47559
ness	-8.47904
▁bridge	-8.48424
▁spirit	-8.48452
▁needs	-8.48473
▁amazing	-8.48508
▁gets	-8.48516
▁romeo	-8.48645
▁star	-8.48678
▁tea	-8.48798
▁green	-8.48817
▁gun	-8.48928
ment	-8.48989
▁drop	-8.49107
▁count	-8.49205
▁mayor	-8.49234
▁speaking	-8.49322
▁field	-8.49347
▁months	-8.49636
▁lts	-8.4978
▁brother	-8.4989
▁sister	-8.49895
▁act	-8.5012
ar	-8.50143
▁jump	-8.50201
▁takes	-8.50268
▁lay	-8.50351
▁slow	-8.50424
▁doc	-8.50565
an	-8.5069
▁worth	-8.50901
▁taken	-8.50903
▁trip	-8.5091
▁dark	-8.50991
▁riley	-8.51021
▁gaia	-8.51023
▁women	-8.51025
▁maam	-8.51031
▁grunting	-8.51039
▁journey	-8.51116
▁chuckles	-8.51147
▁farm	-8.51197
▁smart	-8.51208
▁faster	-8.51223
▁ought	-8.51258
▁hed	-8.5133
▁promised	-8.51547
ic	-8.52111
▁chicken	-8.52316
▁pole	-8.52457
▁news	-8.52518
▁less	-8.52609
▁dress	-8.52786
▁sounds	-8.53073
▁beat	-8.53265
▁enemy	-8.53455
▁others	-8.53514
▁finally	-8.53533
▁changed	-8.54037
▁past	-8.54119
▁awful	-8.54365
▁surprise	-8.54406
▁delight	-8.54511
▁sell	-8.54637
▁battle	-8.54806
ful	-8.54831
▁bike	-8.54969
▁blood	-8.55105
▁force	-8.55229
▁pass	-8.5549
ting	-8.55579
▁strong	-8.55908
▁happens	-8.55909
▁rooster	-8.55957
▁neither	-8.55957
▁forever	-8.55962
▁hungry	-8.55963
▁smith	-8.55963
▁stuck	-8.55966
▁clothes	-8.55984
▁johnny	-8.55987
▁sick	-8.56034
▁cover	-8.56141
▁round	-8.56413
▁cross	-8.56611
▁wear	-8.5707
ity	-8.57295
▁island	-8.5737
▁language	-8.57373
▁salt	-8.57611
▁cow	-8.57731
▁stick	-8.58244
▁outta	-8.58524
▁possible	-8.58541
▁queen	-8.58546
▁patch	-8.58566
▁dangerous	-8.58571
▁tom	-8.58573
▁camp	-8.58647
▁case	-8.588
▁figure	-8.59555
▁dare	-8.59711
▁flip	-8.59869
▁darling	-8.59972
▁piece	-8.60018
▁month	-8.60088
▁protect	-8.60323
ll	-8.60377
▁jack	-8.60797
▁deep	-8.61034
▁certain	-8.61081
▁werent	-8.61152
▁wickens	-8.61153
▁grandpa	-8.61153
▁chef	-8.61154
▁murphy	-8.61156
▁hasnt	-8.6116
▁absolutely	-8.61171
▁rhythm	-8.61184
▁unless	-8.61244
▁early	-8.61249
▁lived	-8.6236
ous	-8.62405
▁danger	-8.62621
▁loves	-8.62652
▁group	-8.62687
▁ma	-8.6316
▁fox	-8.63428
▁peace	-8.63481
▁bright	-8.63675
▁boss	-8.63712
▁lock	-8.63743
▁serious	-8.63746
▁beauty	-8.63853
▁pleasure	-8.63855
▁patou	-8.63857
▁monkey	-8.6386
▁shani	-8.63862
▁tough	-8.63873
▁swim	-8.63893
▁mike	-8.63926
▁rule	-8.6401
▁her	-8.64081
▁o	-8.6471
▁ground	-8.65227
▁spring	-8.65322
▁contact	-8.65355
▁valley	-8.65356
▁key	-8.65429
▁street	-8.65486
▁airplane	-8.65497
▁herd	-8.6573
▁dis	-8.6573
▁shake	-8.65746
▁offer	-8.6605
▁nuys	-8.66623
▁harbor	-8.6663
▁matthew	-8.66631
▁excellent	-8.66633
▁worse	-8.66646
▁lucy	-8.66655
▁laugh	-8.67367
▁happening	-8.67536
▁fighting	-8.67573
▁fear	-8.68154
▁trees	-8.68177
▁difference	-8.68254
▁bank	-8.68287
▁pigeon	-8.68346
▁pa	-8.68843
▁map	-8.68963
▁imagine	-8.69239
▁aleu	-8.69487
▁valiant	-8.69488
▁lunch	-8.69488
▁attention	-8.69489
▁grandfather	-8.69491
▁tib	-8.69503
▁tried	-8.69536
▁haru	-8.6959
▁cheering	-8.69622
▁travel	-8.6966
us	-8.69681
▁table	-8.70027
▁ring	-8.70172
▁elephants	-8.70338
zo	-8.70928
▁mistake	-8.71045
▁teach	-8.71071
▁belong	-8.71306
▁path	-8.71378
▁visit	-8.71523
▁letter	-8.71531
▁birds	-8.71898
th	-8.71966
▁lt	-8.72114
▁meant	-8.722
▁loose	-8.72227
▁paul	-8.72262
▁clouseau	-8.72429
▁monsieur	-8.72429
▁charlotte	-8.72429
▁tired	-8.72532
▁living	-8.72657
▁park	-8.72794
▁flowers	-8.73571
▁taste	-8.73608
▁grab	-8.73872
▁gee	-8.74054
▁worked	-8.74219
▁nightmare	-8.7425
▁president	-8.74267
▁picture	-8.74302
▁nose	-8.74385
▁barn	-8.74432
▁co	-8.74546
et	-8.7455
▁build	-8.751
▁simmons	-8.7545
▁choice	-8.7545
▁lieutenant	-8.75459
▁gentleman	-8.7546
▁dig	-8.75516
▁bout	-8.7553
less	-8.75571
▁saved	-8.76045
▁creatures	-8.76106
▁knock	-8.76547
m	-8.7663
▁sight	-8.76851
▁brothers	-8.76912
▁command	-8.76916
▁person	-8.77004
▁given	-8.77364
▁flower	-8.77471
▁gift	-8.77539
▁charge	-8.77621
re	-8.77871
▁marry	-8.78205
▁prepare	-8.78368
▁grand	-8.78394
▁form	-8.78421
▁crowd	-8.78556
▁instead	-8.78575
▁somehow	-8.78575
▁proud	-8.78576
▁mommy	-8.78582
▁bottom	-8.78633
▁judge	-8.78642
▁aircraft	-8.78644
▁ringo	-8.7868
▁evil	-8.78686
▁albert	-8.78706
▁color	-8.78758
▁finished	-8.78795
▁cup	-8.78809
▁hebrews	-8.78853
▁rich	-8.79083
▁hole	-8.79149
▁realize	-8.79171
▁fort	-8.79646
▁aw	-8.79741
▁spot	-8.80059
ry	-8.80129
▁e	-8.80172
f	-8.80492
▁chief	-8.80572
▁throat	-8.80591
p	-8.80592
▁hundred	-8.80725
▁fella	-8.80883
▁names	-8.81031
▁ii	-8.81171
▁sweets	-8.81459
▁spend	-8.8148
▁honor	-8.81516
▁agree	-8.81545
▁shoot	-8.81658
▁except	-8.81775
▁odette	-8.81801
▁universe	-8.81801
▁service	-8.81801
▁alec	-8.81802
▁inspector	-8.81803
▁oliver	-8.81804
▁jomo	-8.8181
▁immediately	-8.81817
▁laughter	-8.81835
▁english	-8.81925
▁steal	-8.82234
▁french	-8.82521
man	-8.82913
▁bother	-8.83069
▁missed	-8.83927
▁idiot	-8.8396
▁ticket	-8.83989
▁soul	-8.84147
▁desert	-8.84431
▁enjoy	-8.84499
▁pink	-8.84935
▁mo	-8.84951
▁storm	-8.85042
▁ol	-8.85086
▁isabelle	-8.85134
▁quit	-8.85153
▁supper	-8.85155
▁kept	-8.85178
▁baron	-8.85198
▁leg	-8.85231
▁broken	-8.85253
▁winter	-8.85289
▁beg	-8.85314
▁aah	-8.85329
▁airports	-8.85348
▁giving	-8.85383
▁fresh	-8.85422
▁simple	-8.85532
▁fat	-8.85958
▁wall	-8.85962
▁savages	-8.8609
▁lll	-8.86148
▁lads	-8.86264
utti	-8.86479
▁lve	-8.86513
▁lookin	-8.8671
ary	-8.87233
▁nah	-8.87243
▁cry	-8.87246
▁tor	-8.87384
▁mouth	-8.87386
▁fit	-8.87647
▁wid	-8.88036
▁treat	-8.88201
▁share	-8.8827
▁toy	-8.8849
▁gather	-8.88532
▁capsule	-8.88582
▁jeremy	-8.88582
▁japanese	-8.88583
▁coffee	-8.88585
▁murky	-8.88587
▁within	-8.88593
▁tower	-8.88609
▁built	-8.88634
▁paris	-8.88637
▁highness	-8.88638
▁spell	-8.8864
▁hans	-8.88893
mighty	-8.8892
▁piglet	-8.89059
▁slaves	-8.89308
▁ed	-8.89425
▁walking	-8.89645
▁marian	-8.89651
ordinary	-8.89928
▁planes	-8.90158
ance	-8.90395
ive	-8.90468
▁thunder	-8.9071
▁jes	-8.90762
▁success	-8.90819
▁swear	-8.90865
▁shed	-8.90935
▁respect	-8.90976
▁commander	-8.91073
▁leader	-8.91172
▁phone	-8.91258
▁american	-8.91283
▁bless	-8.91543
▁search	-8.91691
▁n	-8.91813
▁raise	-8.91925
▁nothin	-8.92073
▁foreign	-8.92118
▁pocahontas	-8.92154
▁piano	-8.92154
▁hooray	-8.92154
▁delicious	-8.92155
▁forgot	-8.92157
▁littlefoot	-8.92175
▁comin	-8.92184
▁kidding	-8.92193
▁size	-8.92232
▁nearly	-8.92328
▁lie	-8.92402
▁seal	-8.92407
▁court	-8.92455
▁dumb	-8.92461
▁fill	-8.92672
▁dar	-8.92741
▁notes	-8.92827
▁picked	-8.92839
▁space	-8.92846
▁woods	-8.93037
go	-8.93315
up	-8.93542
▁runt	-8.93679
▁no	-8.93719
▁art	-8.94169
▁engine	-8.9448
▁bag	-8.94495
▁village	-8.94646
▁works	-8.94742
▁guest	-8.94759
▁beast	-8.94809
▁state	-8.95024
▁cute	-8.95508
▁center	-8.95611
k	-8.95644
▁loud	-8.95737
▁doubt	-8.95739
▁trick	-8.95794
▁plane	-8.95815
▁pepper	-8.95858
▁london	-8.95858
▁whether	-8.95859
▁petrie	-8.95859
▁middle	-8.9586
▁wolf	-8.95862
▁duty	-8.95862
▁spike	-8.95863
▁heavy	-8.95867
▁potts	-8.95868
▁handsome	-8.95884
▁police	-8.95901
▁witch	-8.9591
▁truck	-8.95912
▁james	-8.9592
▁mister	-8.95929
▁single	-8.95954
▁final	-8.95959
▁hows	-8.95969
▁decided	-8.95991
▁forest	-8.96031
▁pray	-8.96054
▁stage	-8.96076
▁h	-8.96223
ation	-8.96342
▁seven	-8.96383
▁nick	-8.96915
▁aha	-8.97136
▁sh	-8.97418
▁loved	-8.97561
▁report	-8.97751
ce	-8.9815
▁blunden	-8.98375
▁large	-8.98515
nt	-8.98523
▁elephant	-8.98565
▁pie	-8.98993
▁pat	-8.99205
▁organ	-8.99345
▁duke	-8.99495
▁accept	-8.99517
▁america	-8.99554
▁broke	-8.99568
rs	-8.99568
▁entire	-8.99588
▁livin	-8.99642
▁afternoon	-8.99704
▁aviation	-8.99704
▁estella	-8.99704
▁derek	-8.99704
▁monk	-8.99714
▁nope	-8.99717
▁favorite	-8.99719
▁admit	-8.99721
▁upset	-8.99735
▁forgive	-8.99752
▁alright	-8.99775
▁gasping	-8.99795
▁shouting	-8.99804
▁interesting	-8.99903
▁strike	-8.99933
▁besides	-9.00046
▁crown	-9.00249
▁record	-9.00445
▁gods	-9.00494
▁warm	-9.00524
▁arms	-9.00613
▁falling	-9.00624
▁glass	-9.00886
▁fellas	-9.01089
▁airplanes	-9.0131
▁ba	-9.01431
▁asking	-9.01982
▁treasure	-9.02487
▁savage	-9.02567
▁thousand	-9.0261
▁officer	-9.02614
▁guard	-9.0265
▁dramati	-9.03311
▁roll	-9.03329
▁le	-9.03604
▁exciting	-9.03704
▁expedition	-9.03704
▁heggs	-9.03704
▁stories	-9.03708
▁empty	-9.0371
▁milk	-9.03722
▁shinn	-9.03728
▁film	-9.0373
▁impossible	-9.03732
▁cera	-9.03733
▁guide	-9.03773
▁completely	-9.03778
▁worried	-9.0379
▁distance	-9.03794
▁teeth	-9.03795
▁growls	-9.03847
▁team	-9.03887
▁interested	-9.03911
▁cream	-9.0392
▁pet	-9.04183
▁hm	-9.04191
▁wearing	-9.04249
▁shoes	-9.04476
▁age	-9.04477
▁j	-9.04712
▁closed	-9.04738
▁stars	-9.0481
▁soldiers	-9.04811
▁cap	-9.04871
▁states	-9.04919
ie	-9.04997
▁out	-9.05346
▁starting	-9.05609
▁busy	-9.05635
over	-9.05764
▁ahh	-9.06217
▁breath	-9.06374
▁yesterday	-9.06642
▁havisham	-9.06679
▁soldier	-9.06731
▁bella	-9.06864
▁race	-9.06899
▁sake	-9.07049
▁fr	-9.07414
▁bob	-9.07531
▁norm	-9.07557
w	-9.07558
▁honest	-9.07593
▁ye	-9.07721
▁prison	-9.07759
third	-9.07768
▁brilliant	-9.0787
▁science	-9.0787
▁sullivan	-9.0787
▁francisco	-9.0787
▁marvelous	-9.07873
▁bremen	-9.07873
▁hilili	-9.07874
▁information	-9.07874
▁angry	-9.07874
▁harold	-9.07875
▁alex	-9.07875
▁lonely	-9.07877
▁fancy	-9.07882
▁felt	-9.07886
▁everywhere	-9.07912
▁written	-9.07941
▁dying	-9.07955
▁box	-9.07973
▁dirty	-9.08014
▁mice	-9.08039
▁doin	-9.08059
▁prove	-9.08105
▁cash	-9.08119
▁crack	-9.08191
▁sally	-9.08219
▁allowed	-9.08311
▁places	-9.08323
▁class	-9.08532
▁lili	-9.08585
b	-9.08702
▁continues	-9.08787
▁lad	-9.09016
▁legs	-9.09244
▁soft	-9.09458
ant	-9.09691
▁uhhuh	-9.0979
▁thin	-9.09885
▁mountains	-9.09955
▁talked	-9.10402
▁questions	-9.10688
▁lines	-9.10746
▁william	-9.1087
u	-9.10929
▁direction	-9.1096
▁monster	-9.1099
▁summer	-9.11027
▁action	-9.11134
▁mate	-9.11275
came	-9.11676
▁tale	-9.117
▁crysta	-9.11715
▁allow	-9.12047
▁beach	-9.12065
▁load	-9.12071
▁familiar	-9.12218
▁strength	-9.12218
▁zelda	-9.12218
▁ocean	-9.12218
▁zebra	-9.12218
▁thief	-9.12219
▁breakfast	-9.12219
▁lupo	-9.12219
▁boris	-9.12222
▁territory	-9.12223
▁excited	-9.12226
▁humming	-9.12226
▁bunch	-9.12231
▁antarctica	-9.12233
▁muta	-9.1224
▁aboard	-9.12267
▁spider	-9.1227
▁hugo	-9.12286
▁bigger	-9.12301
▁sitting	-9.12312
▁wet	-9.12366
▁speed	-9.1238
▁joy	-9.12576
▁i	-9.12607
▁greatest	-9.12657
▁harm	-9.12682
um	-9.12742
▁corner	-9.12749
▁dry	-9.12982
▁nine	-9.13375
▁nava	-9.13727
▁pl	-9.13943
▁whoo	-9.13999
▁bite	-9.14084
ter	-9.14274
▁crow	-9.14311
▁landing	-9.14478
▁eating	-9.14591
▁git	-9.14653
▁so	-9.14808
▁indian	-9.1555
▁miracle	-9.15555
▁diamond	-9.15558
▁plays	-9.1557
▁hotel	-9.15592
▁santa	-9.15609
▁smile	-9.15758
▁joke	-9.15766
▁ways	-9.16135
▁pin	-9.16149
▁needed	-9.16203
▁toot	-9.16383
▁missing	-9.16495
▁bath	-9.16564
▁handle	-9.16669
▁hyah	-9.16764
▁wrote	-9.16764
▁property	-9.16768
▁among	-9.16768
▁prize	-9.16768
▁history	-9.16769
▁whoever	-9.16774
▁sheep	-9.16781
▁taught	-9.16788
▁floor	-9.16795
▁simply	-9.168
▁dancing	-9.16804
▁prudy	-9.16804
▁jail	-9.16813
▁grass	-9.16832
▁twice	-9.16852
▁paid	-9.16854
▁buddy	-9.16864
▁doris	-9.16892
▁gang	-9.16899
▁parents	-9.16902
▁mount	-9.16934
▁tar	-9.17073
▁movie	-9.17105
▁deserve	-9.17116
▁plain	-9.17184
▁passed	-9.17239
▁nurse	-9.17472
▁sincere	-9.17585
▁raining	-9.17642
▁survive	-9.17704
▁enter	-9.17712
▁calls	-9.17966
▁breaking	-9.17984
▁wa	-9.18129
▁ends	-9.18282
▁defend	-9.18328
▁board	-9.18408
▁ca	-9.18454
▁k	-9.18539
▁belongs	-9.18546
▁con	-9.18659
▁area	-9.18662
out	-9.18789
▁wha	-9.18845
▁watching	-9.19225
▁ships	-9.19455
▁roses	-9.19649
▁sword	-9.20205
▁major	-9.20227
▁skin	-9.20288
▁noise	-9.20323
▁calling	-9.20361
▁west	-9.20367
ng	-9.20411
▁pup	-9.20436
▁begin	-9.20439
▁position	-9.20476
▁devil	-9.20501
▁helping	-9.20555
▁do	-9.21069
te	-9.21212
▁relax	-9.21215
▁disappear	-9.21242
▁waste	-9.21381
▁express	-9.21405
▁whoohoo	-9.21495
▁chocolate	-9.21525
▁crockett	-9.21525
▁ieyasu	-9.21525
▁osaka	-9.21525
▁unusual	-9.21525
▁upstairs	-9.21525
▁speech	-9.21526
▁subject	-9.21526
▁mexico	-9.21526
▁someday	-9.21527
▁ridiculous	-9.21527
▁glory	-9.21527
▁especially	-9.21528
▁birthday	-9.21529
▁fleet	-9.21533
▁horrible	-9.21537
▁definitely	-9.21539
▁mouse	-9.21546
▁willie	-9.21547
▁jake	-9.2155
▁square	-9.21551
▁thatll	-9.21554
▁famous	-9.21565
▁smoke	-9.21602
▁christ	-9.21602
▁france	-9.21616
▁yep	-9.21626
▁fink	-9.21657
▁fail	-9.21662
▁ahhh	-9.21672
▁price	-9.21685
▁lena	-9.21706
▁uhoh	-9.21758
▁sub	-9.21804
▁pete	-9.21813
▁recognize	-9.21843
▁warning	-9.21856
▁bread	-9.21878
▁crying	-9.22038
▁bones	-9.22139
▁snow	-9.22154
▁sooner	-9.22204
▁wings	-9.2232
▁screams	-9.22338
▁learned	-9.22486
▁al	-9.22494
▁mothers	-9.22716
▁bars	-9.22781
▁hut	-9.22875
▁crows	-9.22881
▁breathe	-9.22916
▁sleeping	-9.22958
it	-9.23352
ty	-9.23546
▁what	-9.23706
▁sisters	-9.23866
▁bow	-9.24185
ne	-9.24207
▁cook	-9.24285
▁li	-9.24298
▁test	-9.24353
▁brings	-9.24464
▁ot	-9.24683
▁worlds	-9.24713
▁leaves	-9.24914
▁ding	-9.25081
▁german	-9.25111
▁favor	-9.25118
▁crew	-9.25315
na	-9.25342
▁ghost	-9.25371
▁whistle	-9.25446
▁fur	-9.25456
▁paper	-9.25503
▁stranger	-9.25718
▁mess	-9.25743
▁singer	-9.25757
▁gate	-9.25838
▁double	-9.26205
▁ne	-9.26205
▁introduce	-9.26261
▁pleasant	-9.26402
▁sudden	-9.26411
▁stole	-9.26412
▁somethin	-9.26446
ally	-9.26451
▁ra	-9.26472
▁faith	-9.26524
▁audience	-9.26525
▁daisuke	-9.26525
▁fathoms	-9.26525
▁kitchen	-9.26525
▁scrumptious	-9.26525
▁thieves	-9.26525
▁tunstall	-9.26525
▁picnic	-9.26526
▁broomstick	-9.26527
▁library	-9.26531
▁beginning	-9.26535
▁governor	-9.26536
▁dropped	-9.26561
▁fern	-9.26571
▁finish	-9.26589
▁camera	-9.26602
▁sunday	-9.26608
▁gettin	-9.26634
▁golden	-9.26691
▁howdy	-9.26702
▁behave	-9.2672
▁keyes	-9.26755
▁corn	-9.26775
▁accident	-9.26781
▁choose	-9.2679
▁rogers	-9.26798
▁saint	-9.26905
▁feed	-9.26975
▁musical	-9.26988
▁lights	-9.27027
▁bo	-9.27241
▁ti	-9.2794
▁r	-9.28163
▁mar	-9.2832
▁pipe	-9.28341
▁older	-9.28444
▁sharp	-9.28663
▁seed	-9.28721
▁guns	-9.28803
▁standing	-9.28883
da	-9.29015
▁ted	-9.29454
▁per	-9.29728
▁seeing	-9.29745
▁separate	-9.29745
▁gal	-9.29772
▁stayed	-9.29799
▁claim	-9.29812
▁named	-9.30146
▁east	-9.30241
▁continue	-9.30335
▁serve	-9.30445
▁pocket	-9.30578
▁creature	-9.30648
▁remain	-9.30658
to	-9.30904
age	-9.31175
▁feather	-9.31262
▁arm	-9.3132
▁clan	-9.31326
▁camel	-9.31391
▁rid	-9.31478
▁arrive	-9.31553
▁contest	-9.31641
▁caractacus	-9.31789
▁mccartney	-9.31789
▁project	-9.31789
▁bertie	-9.31789
▁farewell	-9.31789
▁cannon	-9.3179
▁hannah	-9.3179
▁government	-9.31791
▁applause	-9.31791
▁saizo	-9.31791
▁coosh	-9.31793
▁balto	-9.31794
▁iowa	-9.31796
▁juliet	-9.31797
▁wood	-9.31811
▁calf	-9.31813
▁wherever	-9.31814
▁harry	-9.31827
▁groans	-9.31834
▁ahem	-9.31914
▁fruit	-9.31928
▁navy	-9.31933
▁firing	-9.31968
▁nowhere	-9.31998
▁support	-9.32038
▁blessed	-9.32159
▁closer	-9.32161
▁prefer	-9.32216
▁lying	-9.3222
lf	-9.32264
▁surprised	-9.32365
▁hardly	-9.32415
▁mustnt	-9.32574
▁san	-9.32605
▁rare	-9.329
▁eggs	-9.32906
▁he	-9.3297
▁keeping	-9.32972
▁couldve	-9.33215
▁reports	-9.33416
ch	-9.3348
▁collect	-9.33516
▁bend	-9.33545
▁following	-9.33678
▁settle	-9.33878
▁played	-9.33881
▁den	-9.33939
▁surely	-9.34
▁meeting	-9.34054
▁heading	-9.34454
eth	-9.34659
▁draw	-9.34782
▁sin	-9.34958
▁scare	-9.35572
▁blame	-9.3568
▁duck	-9.35882
▁target	-9.36073
▁mermaid	-9.36128
▁seconds	-9.3613
▁egg	-9.36233
▁season	-9.36357
▁track	-9.36573
▁flood	-9.36714
▁seat	-9.36716
▁rush	-9.36791
lida	-9.36826
▁dats	-9.36857
▁staying	-9.37083
▁humble	-9.37092
▁carriage	-9.37344
▁emergency	-9.37344
▁emperor	-9.37344
▁hawaii	-9.37344
▁invasion	-9.37344
▁lindenbrook	-9.37344
▁opinion	-9.37344
▁polynesia	-9.37344
▁australia	-9.37344
▁channel	-9.37344
▁silence	-9.37344
▁british	-9.37344
▁midnight	-9.37344
▁kibble	-9.37346
▁secure	-9.37346
▁sunshine	-9.37346
▁shouldve	-9.37347
▁freedom	-9.37347
▁weird	-9.37348
▁comfortable	-9.37355
▁instrumental	-9.37357
▁dolittle	-9.37358
▁jones	-9.37371
▁thick	-9.37378
▁invention	-9.37392
▁blind	-9.37402
▁often	-9.37405
▁snail	-9.37408
▁nasty	-9.37414
▁stopped	-9.37416
▁mud	-9.37495
▁chips	-9.37507
▁hiding	-9.37526
▁goodwin	-9.37544
▁edge	-9.37545
▁fortune	-9.37563
▁note	-9.37578
▁invited	-9.37584
▁mi	-9.37652
▁cake	-9.37658
▁coast	-9.37673
▁dust	-9.37738
▁grown	-9.37792
▁filled	-9.37794
▁sand	-9.3783
▁goose	-9.37832
▁swing	-9.37852
▁burn	-9.37962
▁pleased	-9.38022
▁traveling	-9.3804
ashcan	-9.38105
▁dressed	-9.38136
▁fairy	-9.3818
▁date	-9.3827
▁due	-9.38335
▁assume	-9.3859
▁indians	-9.38806
is	-9.38846
▁usual	-9.39285
▁drum	-9.39329
▁pump	-9.39473
▁pain	-9.39581
▁books	-9.39996
enty	-9.40001
▁climb	-9.40019
▁tune	-9.40101
▁buzz	-9.40109
▁blows	-9.40232
▁caw	-9.40338
▁weak	-9.40596
▁turns	-9.40829
▁listening	-9.40903
▁fools	-9.41057
▁en	-9.41113
▁extra	-9.41408
▁holding	-9.41645
▁heh	-9.4178
▁slip	-9.41815
▁super	-9.41884
▁jehovah	-9.41944
▁belt	-9.41976
▁nerve	-9.41989
▁servant	-9.42081
▁lem	-9.42085
▁window	-9.42134
▁prisoner	-9.42212
▁slipper	-9.4223
▁rocks	-9.42267
▁rope	-9.42493
▁slave	-9.42497
▁hunt	-9.42516
▁meow	-9.42683
▁tall	-9.42746
▁drown	-9.42756
▁fathers	-9.42779
▁heads	-9.42947
▁intend	-9.42962
▁howd	-9.43046
▁office	-9.43091
▁complete	-9.43218
▁atahuallpa	-9.43227
▁genius	-9.43227
▁goetaborg	-9.43227
▁request	-9.43227
▁reynardo	-9.43227
▁saturday	-9.43227
▁slumberland	-9.43227
▁vaslov	-9.43227
▁whistling	-9.43227
▁winthrop	-9.43227
▁forbidden	-9.43227
▁bonney	-9.43227
▁opportunity	-9.43227
▁community	-9.43228
▁sceptre	-9.43228
▁fievel	-9.43228
▁jenna	-9.43228
▁tongue	-9.43228
▁radar	-9.43229
▁ollie	-9.43229
▁panting	-9.4323
▁delta	-9.4323
▁spread	-9.43232
▁drunk	-9.43232
▁flew	-9.43233
▁cheep	-9.43233
▁tommy	-9.43235
▁grew	-9.43263
▁weaver	-9.43265
▁common	-9.43265
▁bought	-9.4327
▁safety	-9.4327
▁july	-9.43274
▁inca	-9.43283
▁pack	-9.43297
▁theyd	-9.43298
▁tony	-9.43309
▁neck	-9.4331
▁mention	-9.43312
▁worst	-9.43324
▁suit	-9.43358
▁chosen	-9.43359
▁press	-9.43384
▁stolen	-9.43389
▁indiana	-9.43405
▁huge	-9.4342
▁tv	-9.43443
▁pity	-9.43478
▁receive	-9.4355
▁meat	-9.43596
▁perfectly	-9.43696
▁log	-9.43731
▁clouds	-9.43887
▁store	-9.43934
▁mutt	-9.4394
▁eight	-9.44378
▁feathers	-9.44543
▁dreamed	-9.44618
▁lips	-9.44924
▁walls	-9.44953
▁patient	-9.45299
▁starts	-9.45419
▁pigs	-9.45481
▁flat	-9.45528
▁moved	-9.456
▁rules	-9.45609
▁match	-9.45682
▁rings	-9.45797
▁consider	-9.45811
▁aunt	-9.45882
▁forces	-9.45891
▁v	-9.45975
▁thinkin	-9.46021
holy	-9.46047
▁keeps	-9.4613
▁post	-9.46266
▁warn	-9.46368
▁everythings	-9.46936
▁unite	-9.46957
▁heavens	-9.46997
ta	-9.47076
▁sail	-9.47563
▁lift	-9.47821
▁yup	-9.4795
land	-9.48242
▁tent	-9.48258
▁female	-9.48295
son	-9.48296
▁regret	-9.48299
▁cousin	-9.483
▁depend	-9.48307
▁web	-9.48316
▁finger	-9.48331
▁tear	-9.4856
▁maw	-9.48595
▁meal	-9.48693
▁marc	-9.48827
▁tie	-9.49159
▁pol	-9.4917
▁difficult	-9.49224
▁brain	-9.49464
▁congratulations	-9.49477
▁fourfendered	-9.49477
▁halliwell	-9.49477
▁splendid	-9.49477
▁stomach	-9.49477
▁nonsense	-9.49477
▁africa	-9.49477
▁spectra	-9.49477
▁pearl	-9.49478
▁zipadeedoda	-9.49478
▁templeton	-9.49478
▁sugar	-9.49478
▁according	-9.49478
▁fabulous	-9.49478
▁zipadeeay	-9.49479
▁easily	-9.49481
▁asleep	-9.49481
▁private	-9.49482
▁pressure	-9.49483
▁pizza	-9.49483
▁dawn	-9.49486
▁easier	-9.49488
▁japan	-9.49488
▁zak	-9.49489
▁clever	-9.4949
▁spain	-9.49491
▁onto	-9.49491
▁york	-9.49491
▁mm	-9.49499
▁mercy	-9.49505
▁bugsy	-9.49507
▁cheese	-9.49511
▁cop	-9.49516
▁colin	-9.49517
▁appreciate	-9.49518
▁sophie	-9.49536
▁incredible	-9.49562
▁jacques	-9.4958
▁tunnel	-9.49585
▁basket	-9.49589
▁hilo	-9.49639
▁burned	-9.49733
▁boots	-9.49858
▁troops	-9.49898
▁gentle	-9.49904
▁sold	-9.49987
▁over	-9.50054
▁clearly	-9.5007
▁view	-9.50129
▁pure	-9.50163
▁shooting	-9.50241
▁spare	-9.50296
▁towards	-9.50494
▁locked	-9.50514
▁jet	-9.50535
▁seemed	-9.50566
▁kick	-9.50574
▁attacked	-9.50583
▁drums	-9.50644
▁expecting	-9.50751
▁aim	-9.50798
▁training	-9.50913
time	-9.50967
▁likes	-9.51394
▁wire	-9.51395
▁wide	-9.51529
▁hundreds	-9.51769
▁pigeons	-9.52067
▁fo	-9.52145
▁ohh	-9.52244
dy	-9.52299
ble	-9.52343
▁dey	-9.52427
▁si	-9.52649
ually	-9.52806
▁turning	-9.5299
ling	-9.52993
▁rats	-9.53312
ay	-9.53531
board	-9.53657
▁lies	-9.53779
ro	-9.53955
▁remind	-9.5455
▁exist	-9.54558
▁talent	-9.54665
▁magi	-9.54764
▁million	-9.54929
▁wagon	-9.54961
▁hall	-9.5499
▁brake	-9.55021
▁apple	-9.55116
as	-9.55138
▁hurts	-9.55193
▁stone	-9.55368
▁moos	-9.5541
▁horn	-9.55433
▁speaks	-9.5555
▁los	-9.55661
▁building	-9.55673
ate	-9.55676
▁bri	-9.55718
▁notice	-9.5588
▁hoo	-9.55919
▁helped	-9.55936
▁particular	-9.56022
▁suggest	-9.56118
▁bamboo	-9.56143
▁conversation	-9.56143
▁equipment	-9.56143
▁innocent	-9.56143
▁liszt	-9.56143
▁sasuke	-9.56143
▁shipoopi	-9.56143
▁stanislav	-9.56143
▁starlite	-9.56143
▁stubbins	-9.56143
▁maggie	-9.56143
▁paradise	-9.56143
▁turkey	-9.56143
▁cholena	-9.56144
▁tokugawa	-9.56144
▁credit	-9.56144
▁purpose	-9.56144
▁situation	-9.56144
▁memory	-9.56144
▁librarian	-9.56144
▁permission	-9.56145
▁edison	-9.56145
▁andrew	-9.56145
▁depth	-9.56146
▁oclock	-9.56146
▁alert	-9.56146
▁whenever	-9.56146
▁courage	-9.56147
▁robinson	-9.56149
▁excellency	-9.5615
▁roof	-9.56156
▁admiral	-9.56162
▁magnificent	-9.56168
▁local	-9.56169
▁fantastic	-9.56171
▁nature	-9.56186
▁clint	-9.56188
▁staff	-9.56207
▁coughing	-9.56212
▁began	-9.56227
▁wilt	-9.56233
▁goldie	-9.56233
▁batty	-9.56238
yond	-9.56242
▁system	-9.56257
▁trapped	-9.56262
ically	-9.56286
▁charming	-9.563
▁yelling	-9.56316
▁weekend	-9.56323
▁bound	-9.5634
▁bull	-9.56345
ine	-9.56351
▁flies	-9.56356
▁growling	-9.56374
▁page	-9.56389
▁hoping	-9.56472
▁club	-9.56474
▁mick	-9.56481
▁songs	-9.56614
▁lions	-9.56662
▁noticed	-9.56665
▁uniforms	-9.56671
▁com	-9.5671
▁foolish	-9.5671
▁squeals	-9.56758
▁tryin	-9.56768
▁gray	-9.5685
▁coat	-9.56866
▁lately	-9.56899
▁ordered	-9.56907
▁pounds	-9.57017
▁po	-9.5702
▁fixed	-9.57036
▁rode	-9.57088
▁hush	-9.57236
▁mis	-9.57272
▁loser	-9.57443
▁tells	-9.5762
se	-9.5779
▁paying	-9.57805
▁reading	-9.57994
national	-9.58327
▁wine	-9.58342
▁correct	-9.58343
▁jess	-9.58412
▁lo	-9.5853
▁ear	-9.58537
▁wing	-9.58581
▁witness	-9.58643
▁can	-9.58761
rudy	-9.58913
▁bigge	-9.59022
▁pieces	-9.59159
▁pee	-9.59373
way	-9.59383
▁fe	-9.59462
▁bar	-9.59535
ted	-9.59877
▁hearts	-9.60898
▁scream	-9.61287
▁adventure	-9.61597
▁fl	-9.61707
▁mans	-9.61815
led	-9.61854
ning	-9.61887
▁montague	-9.61887
▁lamp	-9.61995
▁port	-9.62021
▁knight	-9.62081
▁condition	-9.62127
▁toward	-9.62141
▁department	-9.62148
▁station	-9.62226
▁flight	-9.62381
el	-9.62403
▁grave	-9.62483
▁rise	-9.62493
men	-9.62555
▁interest	-9.62683
▁awake	-9.62739
▁deliver	-9.62747
ver	-9.62887
▁switch	-9.62921
rian	-9.62947
▁repeat	-9.62963
▁release	-9.63014
▁rescue	-9.63033
▁mix	-9.63042
▁tricks	-9.63072
▁coach	-9.63133
▁pro	-9.63166
▁march	-9.63171
▁zum	-9.63207
▁masters	-9.63223
▁hung	-9.63246
▁solid	-9.63255
▁slight	-9.63262
▁apologize	-9.63286
▁icarus	-9.63286
▁langdon	-9.63286
▁military	-9.63286
▁enthusiast	-9.63286
▁bureau	-9.63286
▁sallie	-9.63287
▁however	-9.63287
▁kirby	-9.63287
▁sharptooth	-9.63287
▁martha	-9.63288
▁mmmhmm	-9.63288
▁befo	-9.63289
▁rotten	-9.63289
▁cruel	-9.63289
▁martin	-9.63289
▁toast	-9.6329
▁mysterious	-9.63291
▁possibly	-9.63291
▁garage	-9.63292
▁ginny	-9.63293
▁grub	-9.63294
▁mmhmm	-9.63297
▁bravo	-9.633
▁neighing	-9.633
▁cattle	-9.63302
▁raven	-9.63302
▁merry	-9.63303
▁ugly	-9.63305
▁mistress	-9.63306
▁pork	-9.63314
▁therell	-9.63325
▁chair	-9.63329
▁molly	-9.63333
▁krys	-9.63335
▁frontier	-9.63341
▁obviously	-9.63341
▁squad	-9.63343
▁pride	-9.63348
▁emotional	-9.63354
▁thirsty	-9.6337
▁ashore	-9.63372
▁orin	-9.63378
▁director	-9.63393
▁regard	-9.63402
▁brite	-9.63407
▁floating	-9.63418
▁chattering	-9.63419
▁alma	-9.63446
▁natural	-9.63446
▁saving	-9.63455
gary	-9.63477
▁manners	-9.63517
▁rude	-9.63546
▁seriously	-9.63594
▁squawks	-9.63602
▁quarters	-9.63613
▁bus	-9.6364
▁miley	-9.63651
▁create	-9.63664
▁sonar	-9.63667
▁chase	-9.63741
▁hunting	-9.63837
▁me	-9.63852
▁pool	-9.6387
▁personal	-9.63887
▁fade	-9.63971
▁prepared	-9.64008
▁members	-9.64106
▁rds	-9.6411
▁higher	-9.64112
▁crossed	-9.64114
▁main	-9.64235
ton	-9.64344
▁mood	-9.64421
▁conditions	-9.6446
▁dam	-9.64516
oh	-9.64529
▁fingers	-9.6471
▁bearing	-9.64889
▁yard	-9.64928
▁papers	-9.64975
▁fi	-9.6498
▁wouldve	-9.65317
▁torpedo	-9.65559
▁ideas	-9.65585
▁pets	-9.65598
▁stands	-9.65658
▁americans	-9.65679
▁tickets	-9.65844
▁admire	-9.66141
▁ears	-9.66256
▁keys	-9.66354
our	-9.66463
▁wander	-9.66473
▁killing	-9.66598
▁opening	-9.66735
▁spirits	-9.66861
▁bells	-9.66944
▁fields	-9.67029
▁bowl	-9.67072
me	-9.67286
▁seas	-9.67475
▁bu	-9.67828
▁lava	-9.68021
▁moo	-9.68059
▁y	-9.68227
▁feelings	-9.6834
z	-9.68346
▁shove	-9.68394
▁sam	-9.68579
▁chap	-9.68804
▁pen	-9.6881
▁fuck	-9.68916
▁cheer	-9.69031
ent	-9.69175
▁maid	-9.6924
▁ln	-9.69268
▁feels	-9.6941
▁minister	-9.69582
▁lil	-9.69586
▁appear	-9.6959
▁propose	-9.69667
▁wheel	-9.69668
▁blanket	-9.69727
▁partner	-9.69742
▁concert	-9.69765
▁bride	-9.69808
▁danby	-9.69815
▁broom	-9.69822
▁trap	-9.69951
red	-9.69965
▁runway	-9.7
▁shop	-9.70054
▁je	-9.70176
▁lover	-9.703
▁daughters	-9.70361
ot	-9.70404
▁ni	-9.70415
ual	-9.70416
lma	-9.70421
▁planet	-9.70436
▁dive	-9.70535
▁nest	-9.70539
▁avoid	-9.70694
▁spoke	-9.70842
▁regular	-9.70862
▁design	-9.70875
▁fa	-9.7096
▁direct	-9.70974
▁extreme	-9.70978
▁blanky	-9.70978
▁caribou	-9.70978
▁cuckoo	-9.70978
▁disgusting	-9.70978
▁ildith	-9.70978
▁maximilian	-9.70978
▁morpheus	-9.70978
▁puddleby	-9.70978
▁satellite	-9.70978
▁security	-9.70978
▁surrender	-9.70978
▁escort	-9.70979
▁spanish	-9.70979
▁vineyard	-9.70979
▁yukimura	-9.70979
▁marriage	-9.70979
▁jemima	-9.70979
▁presence	-9.70979
▁college	-9.70979
▁valuable	-9.70979
▁houston	-9.70979
▁baseball	-9.7098
▁normandy	-9.7098
▁excitement	-9.7098
▁explosion	-9.7098
▁bottle	-9.70981
▁puppy	-9.70982
▁jerry	-9.70984
▁carried	-9.70985
▁praise	-9.70985
▁route	-9.70985
▁guilty	-9.70988
▁yellow	-9.70991
▁croak	-9.70995
▁collar	-9.70996
▁remarkable	-9.71004
▁victory	-9.71004
▁humor	-9.71006
▁whew	-9.71009
▁cellar	-9.71011
▁gib	-9.71019
▁robbery	-9.71019
▁refuse	-9.71022
ard	-9.71031
▁exclaiming	-9.71039
▁typical	-9.71047
▁soup	-9.71052
▁changing	-9.71055
▁attend	-9.71067
▁iron	-9.71068
▁fetch	-9.71077
▁jem	-9.71084
▁planned	-9.7109
▁happiness	-9.71092
▁cutting	-9.71113
▁sonny	-9.71122
▁drift	-9.71125
▁player	-9.71128
▁arrow	-9.71129
▁helamites	-9.7113
▁willing	-9.71142
▁posh	-9.71154
▁suddenly	-9.71157
▁ruined	-9.71166
▁heck	-9.71173
▁file	-9.71189
▁wedding	-9.71211
▁shape	-9.71219
▁approaching	-9.71244
▁gotten	-9.71266
tan	-9.7128
▁ridge	-9.71286
▁ouch	-9.71337
▁type	-9.71405
▁instruments	-9.71422
▁yall	-9.71444
▁sodomites	-9.715
▁range	-9.71506
▁degrees	-9.71685
▁nation	-9.71703
▁non	-9.71738
▁girlfriend	-9.71806
▁scientists	-9.71967
▁expected	-9.72033
▁talkin	-9.72178
▁shows	-9.72271
▁dean	-9.72557
▁wash	-9.72586
head	-9.72663
▁growing	-9.72707
▁ghosts	-9.72807
▁begins	-9.72926
▁pal	-9.73072
▁guards	-9.73207
▁led	-9.73221
▁base	-9.73386
▁guests	-9.73405
ny	-9.73452
▁landed	-9.73503
ical	-9.73544
▁opened	-9.736
▁tank	-9.73644
▁holes	-9.73825
▁zip	-9.73933
herefore	-9.73979
▁pictures	-9.74026
▁frog	-9.74147
▁wise	-9.74237
▁ex	-9.74291
▁streets	-9.74302
ts	-9.74525
▁ate	-9.74598
▁deed	-9.74715
▁seek	-9.74991
▁bon	-9.75042
▁trumpets	-9.75148
▁bringing	-9.75346
x	-9.75424
ra	-9.75925
il	-9.76005
▁problems	-9.76082
▁games	-9.7622
▁matters	-9.76535
▁falls	-9.76916
sh	-9.76956
▁uhuh	-9.76972
cy	-9.77249
▁smells	-9.77314
line	-9.77723
▁mere	-9.77785
▁angel	-9.7798
▁coward	-9.78005
▁saknussem	-9.78056
▁obstacle	-9.78057
▁russian	-9.78247
▁homer	-9.78316
▁pound	-9.78325
▁insist	-9.78576
▁teacher	-9.78606
▁champion	-9.78757
▁thinks	-9.7878
▁grace	-9.78874
▁study	-9.78927
▁reward	-9.79008
▁reckon	-9.79051
▁concern	-9.79064
▁scar	-9.79078
▁suffer	-9.79082
▁jealous	-9.79088
▁faint	-9.79165
▁silent	-9.79184
▁fan	-9.79187
▁hearing	-9.79242
▁india	-9.79285
▁ancient	-9.79312
▁cockadoo	-9.79312
▁coggins	-9.79312
▁enemies	-9.79312
▁frozen	-9.79312
▁gertrude	-9.79312
▁guarantee	-9.79312
▁kocoum	-9.79312
▁lcarus	-9.79312
▁mcmurdo	-9.79312
▁nervous	-9.79312
▁ouessant	-9.79312
▁teenchy	-9.79312
▁tuesday	-9.79312
▁whiskey	-9.79312
▁buffalo	-9.79312
▁cotton	-9.79312
▁naughty	-9.79312
▁niju	-9.79312
▁snipes	-9.79312
▁underground	-9.79312
▁precious	-9.79312
▁salesman	-9.79313
▁invitation	-9.79313
▁ashamed	-9.79313
▁account	-9.79313
▁curious	-9.79313
▁giddyup	-9.79313
▁unique	-9.79313
▁scotland	-9.79314
▁madison	-9.79315
▁grandmother	-9.79316
▁vacation	-9.79316
▁argh	-9.79316
▁beef	-9.79322
▁doggy	-9.79323
▁maleb	-9.79324
▁apparently	-9.79327
▁bullet	-9.79327
▁giant	-9.79334
▁viking	-9.79334
▁filthy	-9.7934
▁inventor	-9.7934
▁throne	-9.79349
▁spent	-9.79359
▁havin	-9.79362
▁winning	-9.79364
▁church	-9.79366
▁peterson	-9.79374
▁cities	-9.79383
ddya	-9.79391
▁squat	-9.79397
▁gutsy	-9.79405
▁becoming	-9.79422
▁closing	-9.79444
▁knife	-9.79451
▁charlie	-9.79453
▁shirt	-9.79458
▁frightened	-9.79464
▁byebye	-9.79469
▁texas	-9.79471
▁noon	-9.79479
▁personally	-9.79488
▁abby	-9.79495
▁tiny	-9.79525
▁trace	-9.79538
▁goob	-9.79583
▁weight	-9.79593
▁ohio	-9.79601
▁practice	-9.79627
▁ballet	-9.79637
▁clock	-9.79638
▁warriors	-9.79676
▁oughta	-9.79727
▁slowly	-9.79735
▁pair	-9.79915
▁cooking	-9.79933
▁butt	-9.79936
▁nuts	-9.79956
▁pinky	-9.79961
▁dollars	-9.7998
▁bass	-9.79997
▁trade	-9.80041
▁anger	-9.80068
▁lake	-9.8008
▁boyfriend	-9.80116
▁cares	-9.80176
▁under	-9.8022
▁searching	-9.80224
▁figured	-9.80227
▁county	-9.8027
▁enjoying	-9.80289
▁destroyed	-9.80294
▁oldest	-9.80341
▁harder	-9.80371
▁weapons	-9.8039
▁reached	-9.80462
▁discuss	-9.80527
▁spy	-9.80559
▁danbys	-9.80593
▁beating	-9.80595
▁perform	-9.80608
▁goodness	-9.80649
▁fred	-9.80768
▁shame	-9.80915
▁servants	-9.80995
ors	-9.81178
one	-9.81272
▁hero	-9.81468
▁troubles	-9.8187
▁su	-9.81956
▁arts	-9.81986
les	-9.82118
▁rent	-9.82164
▁finding	-9.82245
▁rivers	-9.82423
▁seeds	-9.82458
▁dreaming	-9.82524
▁automatic	-9.82564
▁pe	-9.82605
ier	-9.82633
▁pot	-9.82743
▁paint	-9.8289
▁commit	-9.8318
▁gas	-9.83563
▁fu	-9.83834
ace	-9.83874
ade	-9.84407
▁fellows	-9.84469
▁argue	-9.84494
▁boom	-9.84854
▁knowing	-9.84904
▁flag	-9.8509
▁sue	-9.85387
▁to	-9.85421
▁jo	-9.86124
▁somethings	-9.86352
▁pi	-9.86528
▁winds	-9.86615
▁decide	-9.86818
▁trail	-9.86821
▁up	-9.87067
▁voyage	-9.87097
▁block	-9.87144
▁capulet	-9.87146
▁circle	-9.87209
▁pilot	-9.87217
▁weapon	-9.87235
▁scientist	-9.87239
▁signal	-9.87281
▁shoulder	-9.87308
▁minds	-9.87351
im	-9.8737
▁tu	-9.87377
▁wound	-9.87421
▁health	-9.87508
▁member	-9.87577
▁tol	-9.87647
▁mile	-9.87667
▁unit	-9.87702
▁babe	-9.87845
▁am	-9.87914
▁nights	-9.87977
▁crash	-9.88188
▁mask	-9.882
▁address	-9.88265
▁bomb	-9.88274
▁invite	-9.88281
▁stubborn	-9.88381
▁public	-9.88386
▁loyal	-9.88393
▁brown	-9.88394
▁risk	-9.88394
▁bone	-9.88396
▁cheyenne	-9.88403
▁circus	-9.88403
▁corporal	-9.88403
▁council	-9.88403
▁garrett	-9.88403
▁lawrence	-9.88403
▁leyasu	-9.88403
▁maestro	-9.88403
▁mcsween	-9.88403
▁messenger	-9.88403
▁traffic	-9.88403
▁withdraw	-9.88403
▁attila	-9.88403
▁confidence	-9.88403
▁felix	-9.88403
▁grateful	-9.88403
▁montana	-9.88403
▁afford	-9.88403
▁beneath	-9.88403
▁doshy	-9.88403
▁terrific	-9.88404
▁garbage	-9.88404
▁silver	-9.88404
▁jungle	-9.88405
▁retreat	-9.88405
▁hideyori	-9.88405
▁washington	-9.88406
▁several	-9.88406
▁chuckling	-9.88406
▁jenny	-9.88409
▁peepers	-9.8841
▁monday	-9.88411
▁forgotten	-9.88411
▁disaster	-9.88411
▁crime	-9.88412
▁friday	-9.88414
▁attractive	-9.88414
▁biddy	-9.88415
▁precisely	-9.88419
▁earlier	-9.88419
▁margot	-9.88419
▁palace	-9.88422
▁groaning	-9.88429
▁sunset	-9.8843
▁louis	-9.88439
▁stood	-9.88441
▁pour	-9.88444
▁rudder	-9.88445
▁fought	-9.88448
▁worthless	-9.88453
▁cheap	-9.88455
▁flank	-9.8846
▁powerful	-9.88465
▁yeller	-9.88466
▁trom	-9.88466
▁darkness	-9.88469
▁grapes	-9.88472
▁habit	-9.88472
▁unfortunately	-9.88474
▁secretary	-9.88474
▁ashes	-9.88504
▁ruin	-9.88508
▁responsible	-9.88521
▁advantage	-9.88522
▁hunger	-9.88547
▁dozen	-9.88549
▁toaster	-9.88549
▁jesus	-9.88563
▁honking	-9.88579
▁brand	-9.88599
▁suspect	-9.88607
▁reservation	-9.88611
▁useless	-9.88634
▁honestly	-9.8866
▁yuki	-9.8868
▁estimate	-9.88691
▁level	-9.88694
▁hup	-9.88714
▁plus	-9.88714
▁discovered	-9.88722
▁bold	-9.88725
▁plans	-9.88756
▁ducky	-9.88758
▁gotcha	-9.88766
▁penny	-9.88827
▁worrie	-9.88831
▁aaah	-9.8884
▁frank	-9.88853
▁failed	-9.88859
▁thus	-9.88893
▁beans	-9.88918
▁onethird	-9.8893
▁bum	-9.88994
▁bein	-9.89005
▁carriers	-9.8913
▁rough	-9.89143
▁raised	-9.89144
▁owls	-9.8919
id	-9.89218
▁offered	-9.89241
▁cose	-9.89283
▁barks	-9.89369
▁stealing	-9.89475
▁liar	-9.89496
▁shoe	-9.89533
▁murdered	-9.89573
▁escaped	-9.89609
▁cab	-9.89823
▁cheers	-9.8986
▁lamps	-9.89927
▁blowing	-9.90022
ma	-9.90075
▁ke	-9.90102
▁fate	-9.90124
▁par	-9.90141
▁cornet	-9.90144
▁owe	-9.90172
▁meows	-9.90197
▁brains	-9.90261
▁symbol	-9.90493
▁foe	-9.90548
▁wh	-9.90565
ley	-9.90719
▁pop	-9.90794
▁ru	-9.90915
▁wo	-9.90995
lo	-9.91009
▁thousands	-9.91157
▁tales	-9.91167
▁wave	-9.91262
▁shy	-9.91348
▁seals	-9.91352
▁twenty	-9.91509
▁idiots	-9.91724
▁hath	-9.91886
▁madame	-9.92146
▁runs	-9.92219
▁satisfact	-9.9231
be	-9.92329
dnt	-9.9236
ial	-9.92429
▁blast	-9.92643
▁languages	-9.92731
▁chickens	-9.92951
▁nob	-9.93103
▁presents	-9.93444
house	-9.93537
▁ugh	-9.93802
▁complain	-9.93968
ell	-9.94232
▁male	-9.94332
▁ignore	-9.94571
ah	-9.94607
▁row	-9.94661
▁spit	-9.94686
▁bur	-9.94725
▁hu	-9.94772
▁gr	-9.95031
▁shoo	-9.9547
▁ew	-9.95609
ey	-9.95684
and	-9.95764
▁snap	-9.95916
john	-9.95954
▁u	-9.95999
▁tend	-9.96234
▁hopes	-9.96359
▁demand	-9.96508
▁ga	-9.96821
▁crook	-9.9693
▁submarine	-9.96981
▁imagination	-9.96986
▁alarm	-9.9699
▁plant	-9.96991
▁sweetheart	-9.96996
▁iceberg	-9.97095
▁bastard	-9.97144
▁snake	-9.97186
ied	-9.97189
▁gunshot	-9.9722
▁acorn	-9.97224
▁tribe	-9.97274
▁cloud	-9.97303
▁odd	-9.97311
▁drag	-9.97423
▁lesson	-9.97432
▁shore	-9.97564
ily	-9.97683
▁operation	-9.97707
▁paw	-9.97716
five	-9.97729
▁heat	-9.97858
▁melt	-9.98082
▁yuk	-9.98101
▁arrest	-9.98124
▁limit	-9.98138
▁spoil	-9.98148
▁loft	-9.98199
▁proper	-9.98308
▁develop	-9.98354
▁movin	-9.98368
▁anders	-9.9839
▁advice	-9.98403
▁august	-9.98403
▁burgomaster	-9.98403
▁catherine	-9.98403
▁continent	-9.98403
▁effort	-9.98403
▁headquarters	-9.98403
▁hidalgo	-9.98403
▁katherine	-9.98403
▁marguerite	-9.98403
▁mcafee	-9.98403
▁mcewen	-9.98403
▁melchior	-9.98403
▁natalie	-9.98403
▁pacific	-9.98403
▁pirates	-9.98403
▁ralph	-9.98403
▁saemonnosuke	-9.98403
▁england	-9.98403
▁paratroopers	-9.98403
▁wisdom	-9.98403
▁example	-9.98403
▁holiday	-9.98403
▁underwear	-9.98403
▁fifteen	-9.98403
▁wizard	-9.98403
▁virginia	-9.98403
▁magwitch	-9.98403
▁elders	-9.98404
▁patience	-9.98404
▁bicycle	-9.98404
▁jazamapajama	-9.98405
▁official	-9.98405
▁prophets	-9.98405
▁recommend	-9.98406
▁gracious	-9.98407
▁milord	-9.98408
▁medlock	-9.98408
▁obey	-9.98408
▁lousy	-9.98409
▁terribly	-9.98409
▁patrol	-9.98409
▁authority	-9.9841
▁jewel	-9.98411
▁miserable	-9.98411
▁basically	-9.98418
▁estate	-9.98418
▁haircut	-9.98419
▁birdsong	-9.98419
▁captured	-9.98419
▁apart	-9.9842
▁model	-9.9842
▁motor	-9.98421
▁poison	-9.98421
▁digging	-9.98421
▁capital	-9.98421
▁blew	-9.98423
▁shears	-9.98427
▁pupil	-9.98431
▁responsibility	-9.98432
▁chanting	-9.98437
▁branch	-9.98438
▁bedroom	-9.9844
▁current	-9.9844
▁starboard	-9.98441
▁involved	-9.98447
▁outfit	-9.9845
▁pitch	-9.98453
▁rising	-9.98453
▁totally	-9.98458
▁ginger	-9.98463
▁extend	-9.98464
▁aside	-9.98469
▁passion	-9.98472
▁decent	-9.98472
▁roast	-9.98483
▁beeping	-9.98486
▁friendship	-9.98493
▁halfway	-9.98499
▁begging	-9.98508
▁jim	-9.98509
▁mocker	-9.98512
▁firm	-9.98514
▁dancer	-9.98536
▁stock	-9.9854
▁lemon	-9.9854
▁directly	-9.98548
▁confused	-9.98551
ee	-9.98557
▁underneath	-9.98565
▁scene	-9.98567
▁spoken	-9.9859
▁loop	-9.98598
hrer	-9.98599
▁useful	-9.98618
▁juice	-9.9862
▁invented	-9.98623
▁changes	-9.9865
▁softly	-9.98666
▁writing	-9.98668
▁sniffing	-9.98676
▁concerned	-9.98705
▁managed	-9.98708
▁squealing	-9.98712
▁kindness	-9.9872
▁emma	-9.98723
▁speck	-9.98729
▁justice	-9.98769
▁lifes	-9.98775
▁critters	-9.98846
▁falcons	-9.98846
▁laid	-9.98859
▁add	-9.98931
▁held	-9.99012
▁students	-9.99094
▁yankee	-9.99095
▁flooding	-9.991
▁lab	-9.99121
▁undo	-9.99155
▁suh	-9.99167
▁thrown	-9.99172
▁headin	-9.99178
▁steer	-9.99191
▁laughin	-9.99241
▁agreed	-9.99272
▁injuns	-9.99336
▁celebrate	-9.99385
▁riding	-9.99408
▁delighted	-9.99421
▁eaten	-9.99526
▁workers	-9.99536
▁covered	-9.99576
▁lessons	-9.99607
▁returned	-9.99694
▁bitch	-9.99754
▁golly	-9.99769
▁herr	-9.99774
▁gear	-9.99812
▁russians	-9.99845
▁tied	-9.99913
op	-9.99917
▁print	-9.99981
▁damned	-10.0016
▁dee	-10.0022
▁reminds	-10.0023
nya	-10.0025
▁peaceful	-10.0034
▁tears	-10.0038
▁walked	-10.0042
▁hah	-10.0051
▁pulled	-10.0051
▁badly	-10.0057
just	-10.0061
▁clam	-10.0063
▁furs	-10.007
▁serves	-10.0071
▁followed	-10.0091
▁bits	-10.0095
▁pm	-10.0099
▁mail	-10.0111
▁hee	-10.0114
▁attacking	-10.0118
▁bump	-10.0122
▁list	-10.0125
do	-10.0154
at	-10.0157
▁speaker	-10.0162
▁learning	-10.0164
▁sounding	-10.0179
▁ham	-10.0194
▁doo	-10.0207
▁suck	-10.0217
▁boo	-10.0217
▁bows	-10.0217
▁kin	-10.0231
ities	-10.025
▁hay	-10.0252
like	-10.0261
▁letters	-10.027
▁herds	-10.0281
▁ge	-10.0282
▁hatch	-10.0287
▁cows	-10.0293
▁islands	-10.032
▁bare	-10.0335
▁jam	-10.0338
▁beats	-10.0338
▁ja	-10.0355
▁za	-10.0359
▁aid	-10.0371
▁approach	-10.0373
▁nut	-10.0386
ropoli	-10.0397
▁showed	-10.0409
▁numbers	-10.047
▁liked	-10.0474
ill	-10.0508
air	-10.0515
▁lov	-10.0516
▁woo	-10.0528
▁vo	-10.0535
▁mono	-10.0552
▁cave	-10.0558
▁grows	-10.0574
▁reasons	-10.0582
▁boats	-10.0617
tter	-10.063
▁messages	-10.0632
▁the	-10.0634
ship	-10.0636
▁ro	-10.064
▁steps	-10.0642
▁slop	-10.0644
▁sat	-10.066
stly	-10.0675
▁hates	-10.0682
▁bark	-10.0696
▁rear	-10.0705
▁wit	-10.0712
fully	-10.0732
he	-10.0739
ur	-10.081
▁fence	-10.0819
▁ass	-10.0826
▁traitor	-10.0828
▁shift	-10.0833
ern	-10.0833
▁pajama	-10.0834
▁button	-10.0835
em	-10.0835
▁sailor	-10.0839
ia	-10.0843
▁sweat	-10.0859
▁plate	-10.0862
▁scale	-10.0869
▁cos	-10.0877
▁ch	-10.0879
day	-10.0883
▁wholl	-10.0885
ache	-10.0903
▁waited	-10.0908
title	-10.0908
▁sneak	-10.0913
▁saddle	-10.092
▁invent	-10.0921
▁counter	-10.0929
▁punch	-10.0931
▁baker	-10.0933
▁russia	-10.0936
▁sp	-10.0939
▁volcano	-10.0939
▁palm	-10.0941
▁faithful	-10.0942
▁mornin	-10.0944
▁cigar	-10.0951
▁scientific	-10.0951
▁bargain	-10.0951
▁california	-10.0951
▁champagne	-10.0951
▁compeyson	-10.0951
▁intelligence	-10.0951
▁jabadu	-10.0951
▁otherwise	-10.0951
▁permanent	-10.0951
▁pizarro	-10.0951
▁reputation	-10.0951
▁rockadoodle	-10.0951
▁rothbart	-10.0951
▁stockholm	-10.0951
▁weimar	-10.0951
▁orleans	-10.0951
▁vanessa	-10.0951
▁paisley	-10.0951
▁december	-10.0951
▁rachel	-10.0951
▁beckett	-10.0952
▁confusion	-10.0952
▁giggling	-10.0952
▁jimmy	-10.0952
▁closure	-10.0952
▁burden	-10.0952
▁accordion	-10.0952
▁portia	-10.0952
▁university	-10.0952
▁attic	-10.0952
▁stuey	-10.0952
▁importance	-10.0952
▁powder	-10.0952
▁birth	-10.0952
▁kelly	-10.0952
▁hidden	-10.0952
▁pumpkin	-10.0952
▁solene	-10.0952
▁fireworks	-10.0952
▁lawyer	-10.0953
▁unc	-10.0953
▁dawg	-10.0953
▁paroo	-10.0953
▁unknown	-10.0953
▁hunch	-10.0953
▁extraordinary	-10.0954
▁juan	-10.0955
▁recently	-10.0955
▁muffin	-10.0955
ile	-10.0955
▁creation	-10.0955
▁swamp	-10.0955
▁inland	-10.0956
▁mature	-10.0956
▁surrounded	-10.0956
▁eagle	-10.0957
▁bill	-10.0957
▁trunk	-10.0957
▁crust	-10.0958
▁starving	-10.0958
▁dragged	-10.0958
▁section	-10.0958
▁factory	-10.0959
▁tinkles	-10.096
▁stretch	-10.096
▁rumbling	-10.0961
▁shout	-10.0962
▁madness	-10.0962
▁properly	-10.0964
▁obliged	-10.0964
▁strict	-10.0965
▁self	-10.0965
▁otto	-10.0965
▁heroes	-10.0965
▁relieved	-10.0967
▁cowardly	-10.0967
▁pierre	-10.0969
▁telephone	-10.0969
▁lair	-10.097
▁naturally	-10.097
▁whimpering	-10.097
▁positive	-10.0971
▁crush	-10.0971
▁profession	-10.0972
▁beak	-10.0974
▁boring	-10.0974
▁allen	-10.0975
▁haha	-10.0979
▁sex	-10.0985
▁entirely	-10.0986
▁ancestors	-10.0987
▁designed	-10.0988
▁sink	-10.0988
▁appeared	-10.0988
▁busted	-10.0991
▁indistinct	-10.0991
▁sinking	-10.0991
▁necessary	-10.0994
▁tora	-10.0996
▁rescued	-10.0997
▁trailer	-10.1002
▁bounce	-10.1003
▁poet	-10.1005
▁stream	-10.1005
▁worn	-10.1006
▁bando	-10.1007
▁maine	-10.1008
▁terms	-10.1012
▁dresses	-10.1016
▁served	-10.1016
▁irish	-10.1021
▁chat	-10.1027
▁disturb	-10.1027
▁susan	-10.1029
▁penguins	-10.1029
▁yells	-10.1034
▁stable	-10.1037
▁sport	-10.1039
▁mamas	-10.1041
▁sour	-10.1044
▁bid	-10.1052
▁actual	-10.1053
▁operat	-10.1059
▁cards	-10.1062
the	-10.1063
▁dies	-10.1064
▁balance	-10.1078
old	-10.1087
▁wounds	-10.1088
▁hopeless	-10.1095
▁score	-10.1102
▁cheat	-10.111
▁host	-10.1114
▁angels	-10.1114
▁tro	-10.1118
▁appears	-10.1121
▁tide	-10.1122
▁ringing	-10.1124
▁teachers	-10.1125
▁signed	-10.1127
▁passing	-10.113
▁dang	-10.1135
▁doors	-10.1146
lan	-10.1146
▁cleaning	-10.1152
▁hose	-10.1158
▁code	-10.1162
▁interrupt	-10.1168
▁merci	-10.1183
▁bust	-10.1184
▁prisoners	-10.1192
ho	-10.1194
un	-10.1202
fish	-10.1215
▁waitin	-10.1221
▁germans	-10.1226
▁friendly	-10.1229
motion	-10.1242
▁pond	-10.1247
▁wondering	-10.1254
▁cost	-10.1257
▁jobs	-10.1263
▁drinking	-10.127
▁chances	-10.1278
▁guessed	-10.1282
▁inter	-10.1292
▁hurting	-10.1298
chasing	-10.1308
▁wick	-10.1311
▁event	-10.1319
fe	-10.1323
ap	-10.1328
▁hog	-10.1338
▁spots	-10.136
▁ise	-10.1366
▁explode	-10.1382
▁distan	-10.1387
▁charges	-10.1388
▁opens	-10.139
▁noses	-10.1398
▁hom	-10.1427
▁bl	-10.1433
▁headed	-10.1435
▁banks	-10.144
▁chill	-10.1448
▁hop	-10.1459
▁princes	-10.1461
▁pre	-10.1462
ck	-10.1472
▁ohho	-10.1477
▁chuch	-10.148
▁driv	-10.152
▁sire	-10.1532
ding	-10.1539
▁sack	-10.1588
no	-10.1593
▁bands	-10.16
bed	-10.1609
▁career	-10.1637
▁ad	-10.1663
ite	-10.1667
▁we	-10.1672
▁chi	-10.1694
▁experience	-10.1719
▁rabbits	-10.1727
▁ole	-10.1735
▁lean	-10.1762
▁hug	-10.1769
night	-10.1771
ow	-10.1827
▁hal	-10.1838
▁marks	-10.184
ev	-10.1851
sy	-10.1852
▁lick	-10.1854
brain	-10.1856
la	-10.187
▁stir	-10.1872
▁br	-10.1874
▁spin	-10.1881
▁gim	-10.1891
arne	-10.1893
hood	-10.1923
ated	-10.1928
feather	-10.1947
▁yoohoo	-10.1961
▁pu	-10.197
▁gar	-10.1989
▁flyer	-10.1991
nd	-10.2004
▁southern	-10.2005
▁sore	-10.2007
▁voices	-10.2013
▁inform	-10.2041
▁squeal	-10.2046
birds	-10.206
▁lack	-10.206
▁whale	-10.2072
▁principle	-10.2075
▁longneck	-10.2075
▁rumor	-10.2081
▁exercise	-10.2082
▁sum	-10.2083
▁wee	-10.2084
▁winner	-10.2085
▁degree	-10.2085
▁hebrew	-10.2086
▁injun	-10.2086
▁beside	-10.2091
▁cheek	-10.2094
▁sees	-10.2105
well	-10.2116
▁betray	-10.2154
▁sta	-10.2155
▁bored	-10.216
▁cell	-10.2168
▁attempt	-10.2173
▁borrow	-10.2174
▁advance	-10.2174
▁adopt	-10.2175
nny	-10.2183
▁dirt	-10.2185
▁medic	-10.2191
▁frighten	-10.2192
▁cam	-10.2192
ze	-10.2193
▁discover	-10.2196
▁fantas	-10.2196
▁issue	-10.2197
▁civil	-10.2199
▁comfort	-10.2199
▁langu	-10.22
▁basic	-10.2201
▁cavalry	-10.2201
▁convinced	-10.2201
▁cornelius	-10.2201
▁cottage	-10.2201
▁explanation	-10.2201
▁ferraday	-10.2201
▁kelsey	-10.2201
▁kuramoto	-10.2201
▁lincoln	-10.2201
▁meanwhile	-10.2201
▁miraculous	-10.2201
▁population	-10.2201
▁restaurant	-10.2201
▁roosevelt	-10.2201
▁sobbing	-10.2201
▁thalberg	-10.2201
▁thirty	-10.2201
▁violent	-10.2201
▁awesome	-10.2201
▁dickon	-10.2201
▁kneedeep	-10.2201
▁memories	-10.2201
▁observe	-10.2201
▁proceed	-10.2201
▁sausage	-10.2201
▁rennes	-10.2201
▁throttle	-10.2201
▁beloved	-10.2201
▁combination	-10.2201
▁division	-10.2201
▁antoine	-10.2201
▁volunteer	-10.2201
▁attitude	-10.2201
▁saloon	-10.2201
▁exchange	-10.2201
▁instance	-10.2201
▁surface	-10.2201
▁eager	-10.2201
▁deleon	-10.2202
▁vedor	-10.2202
▁committee	-10.2202
▁envy	-10.2202
▁shuah	-10.2202
▁romantic	-10.2202
▁dithering	-10.2202
▁altogether	-10.2202
▁turtle	-10.2202
▁arrival	-10.2202
▁resort	-10.2202
▁creek	-10.2202
▁camille	-10.2202
▁carnival	-10.2202
▁porch	-10.2202
▁thumb	-10.2202
▁babies	-10.2202
▁evans	-10.2202
▁password	-10.2202
▁morton	-10.2202
▁drool	-10.2202
▁style	-10.2202
▁festival	-10.2202
▁formula	-10.2203
▁species	-10.2203
▁spaceship	-10.2203
▁balloon	-10.2203
▁luxury	-10.2203
▁helmet	-10.2203
▁panic	-10.2203
▁failure	-10.2203
▁pattern	-10.2203
▁onboard	-10.2203
▁onx	-10.2203
▁cliff	-10.2204
▁rival	-10.2204
▁calver	-10.2204
▁civilian	-10.2204
▁notches	-10.2204
▁unbelievable	-10.2205
▁crater	-10.2205
▁devoted	-10.2205
▁chirp	-10.2205
▁gomorrah	-10.2205
▁desk	-10.2206
▁insane	-10.2206
▁hiya	-10.2206
▁rehearsal	-10.2206
▁marshall	-10.2207
▁pitts	-10.2207
▁tucker	-10.2207
▁polish	-10.2208
▁virtue	-10.2208
▁atta	-10.2208
▁iceland	-10.2209
▁whispering	-10.221
▁arguing	-10.221
▁makin	-10.221
▁accomplished	-10.221
▁wax	-10.221
▁tamar	-10.221
▁repay	-10.2211
▁tempy	-10.2211
▁cabin	-10.2211
▁heathens	-10.2211
▁toto	-10.2211
▁lordship	-10.2211
▁vain	-10.2211
▁disappointed	-10.2212
▁snarling	-10.2212
▁protection	-10.2212
▁legend	-10.2214
▁task	-10.2217
▁bubber	-10.2218
▁gratitude	-10.2218
▁tasty	-10.2219
▁abandoned	-10.222
▁angeles	-10.2221
▁embarrassing	-10.2222
▁stink	-10.2223
▁feast	-10.2223
▁malo	-10.2224
▁reality	-10.2226
ened	-10.2226
▁manage	-10.2227
▁steak	-10.2231
▁recover	-10.2232
▁grant	-10.2232
▁snorts	-10.2234
▁scary	-10.2235
▁drawn	-10.2237
▁chain	-10.224
▁static	-10.224
▁sank	-10.224
▁entry	-10.224
▁chores	-10.2241
▁larger	-10.2241
▁buck	-10.2241
▁loudly	-10.2241
▁giggles	-10.2242
▁market	-10.2242
▁weeds	-10.2243
▁sneaking	-10.2245
▁oops	-10.2245
▁roar	-10.2246
▁youth	-10.2246
▁eve	-10.2246
▁mori	-10.2246
▁dish	-10.2247
▁setting	-10.2249
▁swallow	-10.225
▁lifetime	-10.2254
▁china	-10.2255
▁hostile	-10.2256
▁dune	-10.2259
▁forth	-10.2263
maker	-10.2263
tic	-10.2267
▁that	-10.2269
▁settled	-10.227
▁helpless	-10.2273
▁fighters	-10.2277
▁hangar	-10.228
▁madly	-10.228
▁carefully	-10.2281
▁ranch	-10.2284
ped	-10.229
▁lend	-10.2292
▁value	-10.2292
▁buzzing	-10.2296
oohooh	-10.23
▁hunter	-10.2303
▁enjoyed	-10.2303
▁instant	-10.2315
▁zero	-10.2327
▁breathing	-10.2327
▁title	-10.233
▁sides	-10.2332
▁chart	-10.2333
▁paws	-10.2336
▁pajamas	-10.2336
▁rein	-10.2339
▁believes	-10.2346
▁acorns	-10.2353
▁cleaned	-10.2353
▁operations	-10.2354
▁tribes	-10.2354
▁gunshots	-10.2354
▁worthy	-10.236
▁blessing	-10.237
▁pushed	-10.2378
▁preserve	-10.2382
▁frogs	-10.2387
▁chaps	-10.2388
▁concentrate	-10.2408
▁ab	-10.2409
▁stations	-10.2414
▁dears	-10.2417
▁motion	-10.2418
▁dealing	-10.2419
through	-10.2426
ure	-10.243
▁tam	-10.2432
▁cher	-10.2433
▁dressing	-10.2434
▁bred	-10.244
▁depends	-10.2448
▁females	-10.245
▁stare	-10.2456
▁owner	-10.2463
▁tracks	-10.2473
aby	-10.2477
▁brat	-10.2483
▁seasons	-10.2484
▁remains	-10.2487
hi	-10.2501
where	-10.2512
▁whistles	-10.2512
▁homes	-10.2514
▁dearly	-10.2516
▁lace	-10.2525
▁pups	-10.2538
▁gosh	-10.254
▁santas	-10.2543
▁moose	-10.2549
▁smelling	-10.2553
▁who	-10.2565
ize	-10.2575
▁handy	-10.2585
▁officers	-10.2597
▁object	-10.2597
▁beasts	-10.2612
▁equal	-10.2621
▁tw	-10.2637
ery	-10.2657
ens	-10.2687
▁gifts	-10.2688
▁ray	-10.2694
ber	-10.2695
▁card	-10.2699
▁mob	-10.2704
▁pace	-10.271
▁qui	-10.2718
▁lied	-10.2728
▁pic	-10.2739
▁fears	-10.2749
▁gi	-10.2749
▁bat	-10.2821
▁stops	-10.2821
▁sal	-10.2821
ease	-10.2831
▁ease	-10.2843
alalalala	-10.2854
you	-10.2856
▁worrying	-10.2859
ung	-10.2886
▁stur	-10.29
os	-10.2917
tion	-10.2927
ake	-10.2928
▁powers	-10.2935
▁tails	-10.294
ned	-10.296
ff	-10.2963
▁flatter	-10.2968
▁moves	-10.2995
▁ar	-10.3006
▁bears	-10.3022
▁secrets	-10.3025
lin	-10.3027
v	-10.3053
▁te	-10.3056
▁facts	-10.3095
ps	-10.3112
ions	-10.3117
▁tra	-10.312
▁for	-10.3126
gged	-10.3136
▁kings	-10.3137
▁stays	-10.314
▁operate	-10.3144
king	-10.3146
▁mum	-10.3155
▁mu	-10.3177
chola	-10.3197
▁ay	-10.3207
▁robe	-10.3221
let	-10.3249
▁oft	-10.3253
▁ri	-10.3262
den	-10.3272
▁tru	-10.3292
▁tellin	-10.3292
▁bug	-10.3296
roll	-10.3303
arbles	-10.3332
ians	-10.3336
▁fed	-10.3369
▁sigh	-10.3371
▁tour	-10.3382
▁forty	-10.3387
mouth	-10.3407
ul	-10.3435
▁picks	-10.3441
▁contra	-10.3462
▁mill	-10.3465
▁sniff	-10.3465
cha	-10.3467
▁squeak	-10.3469
▁alas	-10.3471
▁fame	-10.3474
room	-10.3477
▁border	-10.3485
▁christian	-10.3487
ther	-10.3487
▁plug	-10.3491
▁character	-10.3498
▁blacksmith	-10.3498
▁dial	-10.3501
▁alien	-10.3501
▁carl	-10.3504
▁butter	-10.3506
▁zone	-10.3507
▁engineer	-10.3508
▁ob	-10.3508
▁batt	-10.3509
▁lump	-10.3513
▁uniform	-10.3513
▁dollar	-10.3515
▁priest	-10.3517
▁lass	-10.3524
▁grain	-10.353
▁carrier	-10.3535
nce	-10.3559
off	-10.3563
▁charm	-10.3572
▁fore	-10.3578
▁resign	-10.3589
▁cope	-10.3598
▁schedule	-10.3601
▁wealth	-10.3606
▁amen	-10.3608
▁classic	-10.3609
▁endure	-10.3609
▁unfortunate	-10.3618
▁obvious	-10.3619
▁vegeta	-10.3619
▁absolute	-10.3619
▁dem	-10.3622
▁torture	-10.3623
▁junk	-10.3625
▁sa	-10.3626
▁transit	-10.3629
reeglise	-10.363
▁benefactor	-10.363
▁cheechee	-10.363
▁communicate	-10.363
▁curiosity	-10.363
▁disguise	-10.363
▁earthquake	-10.363
▁environment	-10.363
▁eulalie	-10.363
▁goblins	-10.363
▁halfbreed	-10.363
▁hexxus	-10.363
▁kulinda	-10.363
▁matriarch	-10.363
▁mirror	-10.363
▁mousekewitz	-10.363
▁mystery	-10.363
▁nephew	-10.363
▁nomura	-10.363
▁okavango	-10.363
▁represent	-10.363
▁scuttlebutt	-10.363
▁venture	-10.363
▁wednesday	-10.363
▁zebedee	-10.363
▁delicate	-10.363
▁diggety	-10.363
▁nodeen	-10.363
▁ragwort	-10.363
▁girliegirl	-10.363
▁guitar	-10.363
▁initial	-10.363
▁sixteen	-10.363
▁fanfare	-10.363
▁knowledge	-10.363
▁razor	-10.363
▁disagree	-10.363
▁bonnet	-10.363
▁jaggers	-10.363
▁stumble	-10.363
▁temperature	-10.363
▁evidence	-10.363
▁zaral	-10.363
▁comanche	-10.363
▁utah	-10.363
▁colours	-10.363
▁maxwell	-10.363
▁quarrel	-10.363
▁someplace	-10.363
▁empire	-10.363
▁dishyer	-10.363
▁neighborhood	-10.363
▁chemistry	-10.363
▁wittles	-10.363
▁kitten	-10.363
▁david	-10.363
▁available	-10.363
▁cheerio	-10.363
▁motorcar	-10.363
▁period	-10.363
▁pebble	-10.363
▁appointment	-10.363
▁berthalet	-10.363
▁invisible	-10.363
▁honour	-10.363
▁behalf	-10.363
▁chutn	-10.363
▁bicker	-10.363
▁riker	-10.363
▁heaveho	-10.3631
▁icecream	-10.3631
▁reveal	-10.3631
▁jonas	-10.3631
▁shelter	-10.3631
▁herbert	-10.3631
▁stroke	-10.3631
▁quack	-10.3631
▁dummies	-10.3631
▁percy	-10.3631
▁source	-10.3631
▁echo	-10.3631
▁rubber	-10.3632
▁doorbell	-10.3632
▁buried	-10.3632
▁moonlight	-10.3632
▁society	-10.3632
▁auxiliary	-10.3632
▁doggone	-10.3632
▁betore	-10.3632
▁guardhouse	-10.3632
▁bodies	-10.3632
▁nearby	-10.3632
▁panel	-10.3633
▁disease	-10.3633
▁undoubtedly	-10.3633
▁performance	-10.3633
▁poodle	-10.3633
▁depart	-10.3633
▁confound	-10.3633
▁fuel	-10.3633
▁deputy	-10.3634
▁superman	-10.3634
▁stew	-10.3635
▁flyby	-10.3635
▁exit	-10.3635
▁normal	-10.3635
▁endless	-10.3635
▁wrapped	-10.3635
▁sentence	-10.3636
▁torment	-10.3636
▁passage	-10.3636
gative	-10.3636
▁caution	-10.3637
▁treatment	-10.3637
▁sandwiches	-10.3637
▁trial	-10.3637
▁smash	-10.3637
▁alongside	-10.3638
▁candy	-10.3638
▁woke	-10.3639
▁lighthouse	-10.3639
▁vulgaria	-10.3639
▁acoming	-10.364
▁boot	-10.364
▁greedy	-10.3641
▁tsar	-10.3641
▁surrounding	-10.3642
▁nursing	-10.3642
▁confess	-10.3643
▁ambush	-10.3643
▁beings	-10.3643
▁sharing	-10.3644
▁scrap	-10.3644
▁trickle	-10.3644
▁alley	-10.3644
▁rifle	-10.3645
▁bitter	-10.3645
▁itd	-10.3645
▁why	-10.3645
▁click	-10.3645
▁earned	-10.3646
▁scent	-10.3647
▁improve	-10.3647
▁tender	-10.3648
▁machinery	-10.3648
▁whatll	-10.3648
tail	-10.3651
▁adore	-10.3652
▁backwards	-10.3652
▁takin	-10.3653
▁worship	-10.3654
▁bolt	-10.3655
▁dug	-10.3655
▁badge	-10.3656
▁taller	-10.3656
▁parade	-10.3656
▁puff	-10.3657
▁century	-10.3657
▁yawns	-10.3658
▁steele	-10.3658
▁battleships	-10.3659
▁comrades	-10.3659
▁dread	-10.3659
▁adopted	-10.366
▁tries	-10.3662
▁spoiled	-10.3668
▁expression	-10.3668
▁oil	-10.3668
▁outer	-10.367
▁morrow	-10.3673
▁brush	-10.3674
▁tool	-10.3677
▁allies	-10.3677
▁lollipops	-10.3677
▁split	-10.3681
▁diversion	-10.3682
▁rib	-10.3683
▁pouring	-10.3683
▁photograph	-10.3683
▁lofty	-10.3683
alion	-10.3685
zy	-10.3685
▁satisfied	-10.3685
▁tires	-10.3688
▁heir	-10.3688
▁metal	-10.3689
eyed	-10.369
▁dec	-10.3692
▁pants	-10.3695
▁cigarette	-10.3695
▁citizens	-10.3696
▁bandits	-10.3697
▁created	-10.3697
▁sew	-10.37
▁upper	-10.3702
▁musicians	-10.3703
▁artist	-10.3707
▁rushed	-10.3708
▁marching	-10.3709
▁berry	-10.371
▁generations	-10.3714
ign	-10.3717
▁brace	-10.3717
▁stray	-10.3718
▁daylight	-10.3719
▁peck	-10.3722
▁dash	-10.3724
▁sailing	-10.3726
▁godet	-10.3727
▁feathered	-10.3728
▁til	-10.3728
▁wasted	-10.373
▁hail	-10.3731
▁climbing	-10.3732
▁blown	-10.3733
▁feeding	-10.3734
▁dearest	-10.3741
▁bleat	-10.375
▁loaded	-10.3751
▁priests	-10.3751
▁sniffs	-10.3754
▁sweater	-10.3757
▁tango	-10.3761
▁toes	-10.3761
▁mae	-10.3772
▁fifty	-10.3772
▁freak	-10.3772
▁tip	-10.3773
▁sc	-10.3773
▁moan	-10.3775
▁sailors	-10.3789
skate	-10.379
▁treating	-10.3792
▁scott	-10.3793
▁pluck	-10.3796
▁tube	-10.3797
▁twin	-10.3807
▁crooks	-10.3807
▁ideal	-10.3816
▁pilots	-10.3826
▁circles	-10.3826
doodle	-10.3831
▁plow	-10.3836
▁lu	-10.3838
▁drama	-10.3838
omp	-10.3842
▁driver	-10.3843
▁studio	-10.3856
▁sticking	-10.3867
▁delay	-10.3873
▁wool	-10.3875
▁wondered	-10.3895
▁suits	-10.39
▁glow	-10.3906
▁yippee	-10.3914
▁cousins	-10.3916
▁regrets	-10.3916
▁net	-10.3919
▁patients	-10.3919
▁detect	-10.392
mo	-10.3922
▁sounded	-10.3936
▁windows	-10.3939
▁gum	-10.3967
▁tone	-10.397
▁camels	-10.3976
▁gamble	-10.4011
▁rub	-10.4012
wa	-10.4015
▁role	-10.4015
▁pointing	-10.4021
ge	-10.4025
▁thud	-10.4039
▁wast	-10.4067
▁swords	-10.4085
right	-10.4109
▁clearing	-10.4124
▁ended	-10.4129
▁cord	-10.4139
▁wal	-10.4144
ired	-10.4161
▁taxi	-10.4198
ism	-10.4206
ville	-10.4218
▁bay	-10.4225
▁au	-10.423
ington	-10.4246
▁cosm	-10.4248
de	-10.4257
▁wanting	-10.4274
▁fired	-10.4274
tomi	-10.4298
ana	-10.4307
▁loss	-10.4328
▁legal	-10.4339
▁hehe	-10.434
▁op	-10.4342
▁dangers	-10.4342
▁dot	-10.4361
▁sar	-10.4381
▁dove	-10.4382
co	-10.4385
▁sticks	-10.4392
▁desp	-10.4399
▁thre	-10.4421
▁permit	-10.4433
▁husbands	-10.444
▁ben	-10.4468
atter	-10.4472
▁vision	-10.4496
▁gl	-10.4505
▁sings	-10.4517
▁mel	-10.453
her	-10.4546
▁mass	-10.4568
▁tin	-10.4572
▁cent	-10.4633
▁snatch	-10.4662
▁lettin	-10.4678
▁intro	-10.4727
work	-10.476
looking	-10.4764
▁cha	-10.4802
ac	-10.4809
bo	-10.4815
▁desire	-10.4838
elve	-10.4855
▁when	-10.4865
▁inn	-10.4887
daughter	-10.491
▁challenge	-10.494
away	-10.494
hole	-10.4977
ds	-10.4993
ded	-10.5
▁troop	-10.5019
oring	-10.5021
▁sol	-10.5035
▁du	-10.5054
field	-10.5067
▁temper	-10.5074
rous	-10.5078
▁steam	-10.5084
▁tub	-10.5087
▁hol	-10.5092
▁pit	-10.5093
▁ace	-10.5108
hand	-10.5124
▁jumpin	-10.5125
▁pri	-10.5129
▁robin	-10.513
▁gasp	-10.5136
▁goto	-10.5141
zero	-10.5143
yard	-10.5148
li	-10.5148
▁squadron	-10.5153
▁jacks	-10.5153
▁device	-10.5153
▁average	-10.5153
▁medal	-10.5155
▁bubble	-10.5162
▁assistant	-10.5165
▁yell	-10.5166
▁instruction	-10.5167
▁decision	-10.517
▁defense	-10.5172
▁tiger	-10.5172
▁compliment	-10.5173
▁passenger	-10.5173
▁villain	-10.5174
▁native	-10.5174
▁down	-10.5175
▁neighbor	-10.5175
▁penguin	-10.5178
▁student	-10.5179
▁sodomite	-10.5183
▁belief	-10.5194
▁knee	-10.5198
shoot	-10.5208
▁trash	-10.5211
▁quarter	-10.5219
▁uhhh	-10.5219
▁riches	-10.5222
▁prayer	-10.5224
▁mist	-10.523
▁sale	-10.5247
▁flo	-10.5257
▁cr	-10.5266
▁describe	-10.5267
▁connect	-10.5268
▁fee	-10.5269
▁organize	-10.527
▁abandon	-10.5271
▁defeat	-10.5271
▁juic	-10.5271
▁tri	-10.5276
▁compare	-10.5277
▁solve	-10.5279
▁europe	-10.5279
▁thirst	-10.528
sa	-10.5283
▁fortunate	-10.5284
ri	-10.5286
▁chew	-10.5289
▁confuse	-10.529
▁leavin	-10.5293
ka	-10.5293
arctic	-10.5296
▁anniversary	-10.5297
▁apprentice	-10.5297
▁benedict	-10.5297
▁bomburst	-10.5297
▁bonjour	-10.5297
▁bourbon	-10.5297
▁braithwaite	-10.5297
▁cavalier	-10.5297
▁circumstances	-10.5297
▁crocodile	-10.5297
▁description	-10.5297
▁destruction	-10.5297
▁edinburgh	-10.5297
▁forswear	-10.5297
▁gullywhumper	-10.5297
▁gunpowder	-10.5297
▁hehheh	-10.5297
▁hehhehheh	-10.5297
▁jacquot	-10.5297
▁jinpachi	-10.5297
▁kalahari	-10.5297
▁kamanosuke	-10.5297
▁keelboat	-10.5297
▁kugutsu	-10.5297
▁laboratory	-10.5297
▁langley	-10.5297
▁lugleg	-10.5297
▁mcgillicuddy	-10.5297
▁natchez	-10.5297
▁necessarily	-10.5297
▁omaha	-10.5297
▁peculiar	-10.5297
▁pianist	-10.5297
▁rupert	-10.5297
▁sabotage	-10.5297
▁samurai	-10.5297
▁scoundrel	-10.5297
▁senior	-10.5297
▁siberia	-10.5297
▁technical	-10.5297
▁tokyo	-10.5297
▁tremaine	-10.5297
▁ungrateful	-10.5297
▁airborne	-10.5297
▁casino	-10.5297
▁chicago	-10.5297
▁chorus	-10.5297
▁dungeon	-10.5297
▁families	-10.5297
▁hotaru	-10.5297
▁rhyme	-10.5297
▁rosalie	-10.5297
▁catnip	-10.5297
▁extinct	-10.5297
▁fisherman	-10.5297
▁goodfornothing	-10.5297
▁niece	-10.5297
▁smooth	-10.5297
▁vermin	-10.5297
▁anyhow	-10.5297
▁memorize	-10.5297
▁pecos	-10.5297
▁central	-10.5297
▁refuge	-10.5297
▁parrot	-10.5297
▁ability	-10.5297
▁embrace	-10.5297
▁reinforcements	-10.5297
▁phew	-10.5297
▁specimen	-10.5297
▁whitlow	-10.5297
▁apology	-10.5297
▁sledge	-10.5297
▁scoop	-10.5297
▁hmph	-10.5297
▁autograph	-10.5297
▁dismount	-10.5297
▁succeed	-10.5297
▁wretch	-10.5297
▁although	-10.5297
▁anytime	-10.5297
▁agency	-10.5297
▁intruder	-10.5297
▁kilometers	-10.5297
▁toilet	-10.5297
▁expert	-10.5297
▁material	-10.5297
▁funeral	-10.5297
▁reject	-10.5297
▁debt	-10.5297
▁coincidence	-10.5297
▁wilson	-10.5297
▁transformation	-10.5297
▁wolves	-10.5297
▁annoy	-10.5297
▁dixie	-10.5297
▁industry	-10.5297
▁batteries	-10.5297
▁repent	-10.5297
▁departure	-10.5297
▁kidnap	-10.5297
▁unhappy	-10.5297
▁compass	-10.5297
▁urgent	-10.5297
▁breeze	-10.5298
▁international	-10.5298
▁bulldoze	-10.5298
▁meeko	-10.5298
▁charity	-10.5298
▁granddad	-10.5298
▁drumming	-10.5298
▁behavior	-10.5298
▁kidnapped	-10.5298
▁flounder	-10.5298
▁tragic	-10.5298
▁punishment	-10.5298
▁silk	-10.5298
▁vital	-10.5298
▁meakin	-10.5298
▁resistance	-10.5298
▁fraidy	-10.5298
burgh	-10.5298
▁happier	-10.5299
▁banished	-10.5299
▁jelly	-10.5299
▁desperate	-10.5299
▁yuck	-10.5299
▁smokehouse	-10.5299
▁sorrow	-10.5299
▁yahoo	-10.5299
▁resist	-10.5299
▁ahahh	-10.5299
▁guhguhguhguhguh	-10.5299
▁assure	-10.5299
▁smoking	-10.53
▁avery	-10.53
▁spitting	-10.53
▁yonder	-10.5301
▁richard	-10.5301
▁wootchi	-10.5301
ando	-10.5301
▁recall	-10.5301
▁function	-10.5301
▁whoosh	-10.5301
▁knots	-10.5301
▁weakness	-10.5302
▁godmother	-10.5302
▁behold	-10.5302
▁afore	-10.5302
▁committed	-10.5302
▁theory	-10.5302
▁surprising	-10.5302
▁increase	-10.5302
▁subway	-10.5303
▁potatoes	-10.5303
▁brady	-10.5303
▁purse	-10.5303
▁detective	-10.5303
▁affection	-10.5303
▁runthrough	-10.5303
▁furry	-10.5305
▁begun	-10.5305
▁spooky	-10.5305
▁widow	-10.5305
▁swine	-10.5305
▁chess	-10.5305
▁stirred	-10.5305
▁cried	-10.5305
▁woof	-10.5305
▁tr	-10.5305
▁wipe	-10.5305
▁protest	-10.5306
▁evident	-10.5307
▁anderson	-10.5307
▁production	-10.5307
▁modest	-10.5308
▁lennon	-10.5308
▁commission	-10.5308
▁laddie	-10.5309
▁soil	-10.5309
▁stairs	-10.5309
▁formation	-10.531
▁crossroads	-10.531
▁leggo	-10.531
▁bible	-10.531
▁puppets	-10.531
▁divine	-10.531
▁pledge	-10.5311
▁sixty	-10.5311
▁taint	-10.5311
▁maude	-10.5311
▁overall	-10.5312
▁consideration	-10.5312
▁newby	-10.5313
▁slime	-10.5314
▁temple	-10.5315
▁broadcasting	-10.5315
▁engaged	-10.5315
▁peaches	-10.5315
▁shiny	-10.5315
misunderstanding	-10.5317
▁scattered	-10.5318
▁bozo	-10.5318
▁stopping	-10.5318
iest	-10.5319
▁oats	-10.5319
▁lisa	-10.5319
▁keen	-10.5319
▁straining	-10.532
▁remove	-10.5323
▁dolly	-10.5323
▁research	-10.5323
▁mag	-10.5323
▁wreck	-10.5324
▁blo	-10.5325
▁mansion	-10.5326
▁insult	-10.5327
▁improved	-10.5328
▁removed	-10.5328
▁wearin	-10.533
▁maiden	-10.533
▁fever	-10.533
▁shillings	-10.5331
▁neutrinos	-10.5331
▁owns	-10.5333
▁awaits	-10.5333
▁conductor	-10.5333
▁deck	-10.5333
▁advanced	-10.5333
▁gno	-10.5335
▁shining	-10.5336
▁gents	-10.5336
▁honk	-10.534
▁fallen	-10.534
▁flash	-10.5342
▁grade	-10.5342
▁wounded	-10.5343
▁brew	-10.5349
▁modern	-10.5349
▁alike	-10.535
▁reckoned	-10.5351
▁beaches	-10.5352
▁sighing	-10.5352
▁profit	-10.5353
▁torpedoes	-10.5354
▁prepar	-10.5356
▁cargo	-10.5357
what	-10.5362
▁explorer	-10.5363
▁refused	-10.5363
▁roots	-10.5366
ski	-10.5366
▁chased	-10.5367
▁pr	-10.5371
▁suffering	-10.5371
ring	-10.5372
▁hip	-10.5375
▁cast	-10.5377
ave	-10.5382
ler	-10.5386
▁ohhh	-10.5387
▁associate	-10.5387
▁electric	-10.5391
▁redha	-10.5393
▁armed	-10.5395
▁cracked	-10.5397
▁communications	-10.5398
▁experiments	-10.5398
▁heap	-10.54
▁sucker	-10.5406
▁stormy	-10.5411
▁proof	-10.5413
▁raid	-10.5414
▁knees	-10.5416
▁accepted	-10.5419
▁neighbors	-10.542
▁tada	-10.5422
▁reported	-10.5422
▁peek	-10.5423
▁treated	-10.5426
▁divers	-10.5428
▁stored	-10.5437
▁plann	-10.5438
▁quietly	-10.5438
▁messing	-10.5442
▁hook	-10.5446
▁cells	-10.5447
▁spear	-10.5451
▁safely	-10.5453
▁cheeks	-10.5453
▁feared	-10.5453
▁vast	-10.5455
▁pale	-10.5455
▁cheerful	-10.546
▁rumors	-10.5464
▁walker	-10.5465
some	-10.5472
▁lame	-10.5472
▁rolling	-10.5473
▁shred	-10.5474
▁sang	-10.5475
▁steel	-10.5476
rank	-10.5477
▁missus	-10.5478
▁laughed	-10.548
ence	-10.5484
▁rip	-10.5484
▁axe	-10.5489
▁historic	-10.5491
▁odds	-10.5493
▁drawing	-10.5495
▁corpse	-10.55
▁instruct	-10.5503
▁bothering	-10.5506
▁bombs	-10.5507
▁belly	-10.551
▁yah	-10.5512
▁pops	-10.5516
▁checked	-10.5517
▁lighter	-10.5519
▁touched	-10.5526
▁shoulders	-10.5531
▁explained	-10.5532
ina	-10.5533
▁squ	-10.5537
▁gain	-10.5548
▁stuffed	-10.5557
▁imitate	-10.5559
▁cowards	-10.556
▁rises	-10.5562
▁shops	-10.5564
▁crossing	-10.5564
▁lance	-10.5571
▁swell	-10.5577
▁dong	-10.5582
▁answered	-10.5583
▁stake	-10.5584
▁fans	-10.5587
▁meals	-10.5592
▁fri	-10.5592
▁flights	-10.5594
▁plum	-10.5596
▁hears	-10.5617
▁apples	-10.562
▁sw	-10.5623
▁eighty	-10.5627
▁min	-10.5633
▁minor	-10.5635
▁transmit	-10.5638
▁incident	-10.5638
▁mon	-10.5644
▁younger	-10.5662
tain	-10.5667
chi	-10.5678
bs	-10.5682
▁pisto	-10.5687
▁cleared	-10.5689
▁earn	-10.5696
ores	-10.5698
ore	-10.5701
arian	-10.5705
▁heal	-10.5717
▁jean	-10.5722
▁gates	-10.5729
▁areas	-10.5733
▁sunk	-10.5741
▁devils	-10.5745
▁seats	-10.5753
▁cleaner	-10.5757
▁strangers	-10.5758
▁hound	-10.5761
▁jokes	-10.5763
▁manor	-10.5771
▁mor	-10.5778
▁sha	-10.5781
▁distress	-10.5789
▁murderer	-10.5797
▁summers	-10.58
▁sez	-10.5801
▁social	-10.5815
▁havishams	-10.5821
▁includ	-10.5821
roy	-10.5831
▁micro	-10.5838
sons	-10.5839
▁cl	-10.5842
olar	-10.5852
▁kissing	-10.5868
▁caused	-10.5869
down	-10.588
▁moor	-10.5891
▁bake	-10.5931
▁successful	-10.5964
▁hated	-10.5964
que	-10.5977
▁watched	-10.5982
omi	-10.5989
ible	-10.6004
▁replace	-10.6004
▁cars	-10.6005
ai	-10.6006
▁rob	-10.602
skin	-10.6021
▁hills	-10.6043
back	-10.6044
▁boil	-10.6057
▁fry	-10.6084
cal	-10.6098
▁groups	-10.6106
▁finds	-10.6108
▁render	-10.6109
by	-10.6116
▁buzze	-10.6121
▁remembered	-10.6122
▁bra	-10.6123
▁bald	-10.6131
ca	-10.6135
▁ki	-10.6208
ized	-10.6209
gy	-10.6213
▁bud	-10.622
inner	-10.624
▁dock	-10.6245
▁bel	-10.6248
zing	-10.6259
▁wel	-10.6273
▁unlock	-10.6278
▁she	-10.6291
▁yous	-10.6301
▁link	-10.6311
▁banging	-10.6319
▁not	-10.6321
ull	-10.6325
untie	-10.6343
kin	-10.6345
▁va	-10.6348
▁eats	-10.6354
ove	-10.6367
bert	-10.6375
▁by	-10.6392
▁dump	-10.6396
nows	-10.6403
▁believed	-10.6421
▁vers	-10.6466
losing	-10.6499
▁yank	-10.6511
▁shovel	-10.6521
▁x	-10.6553
▁tax	-10.6553
▁understanding	-10.6572
▁gene	-10.6577
▁signs	-10.6582
▁mat	-10.659
▁hairs	-10.6603
▁para	-10.6625
▁declare	-10.6636
▁select	-10.6638
ished	-10.6686
ying	-10.6699
▁wester	-10.6705
fied	-10.6712
of	-10.674
▁shines	-10.675
tabe	-10.675
▁ump	-10.677
▁yea	-10.6772
boy	-10.6773
▁gu	-10.6783
▁chisums	-10.6797
my	-10.6804
▁flap	-10.6809
▁pips	-10.6811
ns	-10.6812
ator	-10.6831
got	-10.6899
ster	-10.6918
bird	-10.6944
ok	-10.6966
ative	-10.7001
water	-10.7003
eeze	-10.7004
▁peri	-10.7012
▁gut	-10.702
claim	-10.7023
rl	-10.7027
▁kn	-10.7028
▁pest	-10.703
▁peer	-10.7034
talking	-10.7042
▁logic	-10.7051
▁diet	-10.7057
▁rig	-10.706
▁author	-10.7064
▁bod	-10.7075
score	-10.7084
come	-10.7087
▁corps	-10.709
▁tact	-10.7096
▁coo	-10.7097
▁oui	-10.7098
ooo	-10.7104
▁cu	-10.7123
▁float	-10.7133
mon	-10.7144
▁orphan	-10.7152
▁expense	-10.7153
▁carrot	-10.7154
▁carpet	-10.7156
▁reserve	-10.7156
▁bucket	-10.7157
▁suggestion	-10.7159
▁newspaper	-10.7164
▁photo	-10.7166
▁occasion	-10.717
▁instrument	-10.717
▁helicopter	-10.7173
▁rascal	-10.7173
▁tab	-10.7173
▁experiment	-10.7175
▁communication	-10.7175
▁connection	-10.7175
▁generation	-10.7177
▁sometime	-10.7178
▁roger	-10.7181
▁chuckle	-10.7182
▁detail	-10.7184
▁isle	-10.7185
▁term	-10.7185
▁slide	-10.7187
▁imp	-10.722
wise	-10.7225
▁height	-10.7229
▁flow	-10.723
▁embarrass	-10.7237
▁contract	-10.7238
▁breaks	-10.724
▁custom	-10.7243
▁rehears	-10.7247
▁bloom	-10.7248
▁promises	-10.7254
▁pretend	-10.7256
▁retrieve	-10.7264
▁billi	-10.7265
▁consent	-10.7266
▁punish	-10.7268
▁scatter	-10.7272
▁relieve	-10.7275
▁gardener	-10.7275
▁curse	-10.7276
▁roun	-10.7278
▁chanti	-10.7279
▁damage	-10.7281
▁lenno	-10.7284
▁descend	-10.7284
▁farmer	-10.7285
semble	-10.7285
▁immediate	-10.7285
▁total	-10.7287
▁rod	-10.7289
ess	-10.729
▁darlin	-10.729
▁announce	-10.7291
▁dancin	-10.7292
▁twist	-10.7292
▁practicin	-10.7292
▁attract	-10.7294
▁inferior	-10.7297
▁adequate	-10.7297
▁ambassador	-10.7297
▁anvil	-10.7297
▁apologies	-10.7297
▁astronaut	-10.7297
▁audio	-10.7297
▁berlioz	-10.7297
▁blasphem	-10.7297
▁britannia	-10.7297
▁chickasaw	-10.7297
▁conservatory	-10.7297
▁corridor	-10.7297
▁credentials	-10.7297
▁cyril	-10.7297
▁dirigible	-10.7297
▁djilas	-10.7297
▁downstairs	-10.7297
▁effect	-10.7297
▁emporium	-10.7297
▁encouraging	-10.7297
▁envelope	-10.7297
▁expensive	-10.7297
▁ferngully	-10.7297
▁fuchida	-10.7297
▁gargery	-10.7297
▁gracias	-10.7297
▁gubgub	-10.7297
▁hyenas	-10.7297
▁hypnotized	-10.7297
▁ishmael	-10.7297
▁jehovanh	-10.7297
▁kansas	-10.7297
▁katsunaga	-10.7297
▁lazarus	-10.7297
▁license	-10.7297
▁manhattan	-10.7297
▁marcellus	-10.7297
▁ocarina	-10.7297
▁orchestra	-10.7297
▁pharisee	-10.7297
▁pipsqueak	-10.7297
▁privilege	-10.7297
▁qualifications	-10.7297
▁qualified	-10.7297
▁quetzamal	-10.7297
▁religion	-10.7297
▁rendezvous	-10.7297
▁selfdefence	-10.7297
▁shawnee	-10.7297
▁substitute	-10.7297
▁supreme	-10.7297
▁technique	-10.7297
▁temporarily	-10.7297
▁vehicle	-10.7297
▁victim	-10.7297
▁video	-10.7297
▁wheaton	-10.7297
▁yeehoo	-10.7297
▁yooeeyooeeyooee	-10.7297
▁zelozelos	-10.7297
▁abraham	-10.7297
▁canopy	-10.7297
▁complex	-10.7297
▁confedera	-10.7297
▁corvier	-10.7297
▁counsel	-10.7297
▁encounter	-10.7297
▁enlist	-10.7297
▁flanagan	-10.7297
▁mcatee	-10.7297
▁november	-10.7297
▁postpone	-10.7297
▁tremendous	-10.7297
▁clarinet	-10.7297
▁hollywood	-10.7297
▁remote	-10.7297
▁kaiai	-10.7297
▁moscow	-10.7297
▁porridge	-10.7297
▁rosaline	-10.7297
▁peanut	-10.7297
▁solution	-10.7297
▁bellowes	-10.7297
▁distinguished	-10.7297
▁murray	-10.7297
▁ribbon	-10.7297
▁previous	-10.7297
▁scanner	-10.7297
▁screenplay	-10.7297
▁tradition	-10.7297
▁consult	-10.7297
▁arnold	-10.7297
▁lonesome	-10.7297
▁ransom	-10.7297
▁yacht	-10.7297
▁pathetic	-10.7297
▁sustain	-10.7297
▁swift	-10.7297
▁intercept	-10.7297
▁parlor	-10.7297
▁alligator	-10.7297
▁relief	-10.7297
▁wilkes	-10.7297
▁philip	-10.7297
▁flesh	-10.7297
▁waltz	-10.7297
▁revolution	-10.7297
▁vocali	-10.7297
▁yosef	-10.7297
greatgreat	-10.7297
▁popular	-10.7297
▁relationship	-10.7297
▁somewhat	-10.7297
▁spectacle	-10.7297
▁electronic	-10.7297
▁competition	-10.7297
▁lebec	-10.7297
▁colorado	-10.7297
▁beeves	-10.7297
▁hidetada	-10.7297
▁sacred	-10.7297
▁savior	-10.7297
▁flashlight	-10.7297
▁carolyne	-10.7297
▁revenge	-10.7297
▁impact	-10.7297
▁generous	-10.7297
▁abort	-10.7297
▁stokey	-10.7297
▁columbus	-10.7297
▁sunrise	-10.7297
▁leveller	-10.7297
▁program	-10.7297
▁monitor	-10.7297
▁nuclear	-10.7297
▁mildred	-10.7297
▁offense	-10.7297
▁selfish	-10.7297
▁snuff	-10.7297
▁snack	-10.7297
▁false	-10.7297
▁karate	-10.7297
▁upside	-10.7297
▁trills	-10.7297
▁investigation	-10.7297
▁lucille	-10.7297
▁existence	-10.7297
▁scalp	-10.7297
▁hurray	-10.7297
▁acquaint	-10.7297
▁happily	-10.7297
▁millard	-10.7297
▁britain	-10.7298
▁bratton	-10.7298
▁heavily	-10.7298
▁blaring	-10.7298
▁install	-10.7298
▁gaspard	-10.7298
▁bassoon	-10.7298
▁guardian	-10.7298
▁atlanta	-10.7298
▁formality	-10.7298
▁hospitality	-10.7298
▁slaughter	-10.7298
▁tavern	-10.7298
▁whizzer	-10.7298
▁trigger	-10.7298
▁location	-10.7298
▁vents	-10.7298
▁motto	-10.7298
▁jerk	-10.7298
▁minuet	-10.7298
▁launch	-10.7298
▁mainland	-10.7298
▁sensation	-10.7298
▁weems	-10.7298
▁smiling	-10.7298
▁combat	-10.7298
▁gloom	-10.7298
▁juzo	-10.7298
▁righteousness	-10.7298
▁greet	-10.7298
▁reception	-10.7299
▁beauties	-10.7299
▁chump	-10.7299
▁loyalty	-10.7299
▁genda	-10.7299
▁limb	-10.7299
▁threesies	-10.7299
▁survival	-10.7299
▁icelandic	-10.7299
▁expectations	-10.7299
▁childish	-10.73
▁toby	-10.73
▁courthouse	-10.73
▁italy	-10.73
▁straw	-10.7301
▁lurky	-10.7301
▁overcome	-10.7301
▁clanking	-10.7301
▁denied	-10.7301
▁astonishing	-10.7302
▁twosies	-10.7302
▁cricket	-10.7302
▁yapping	-10.7302
▁beggar	-10.7302
▁cootchi	-10.7302
▁sarge	-10.7302
▁pasture	-10.7302
▁exploring	-10.7303
▁troublemaker	-10.7303
▁cluck	-10.7303
▁settlement	-10.7303
▁shopping	-10.7303
▁misha	-10.7304
▁possibility	-10.7304
▁luckily	-10.7304
▁bacon	-10.7304
▁woodland	-10.7305
▁brief	-10.7305
▁sleeve	-10.7305
▁booby	-10.7305
▁libra	-10.7306
▁established	-10.7306
▁pistol	-10.7306
▁politics	-10.7306
gal	-10.7306
▁seize	-10.7307
▁statement	-10.7307
▁entertaining	-10.7307
▁blink	-10.7307
▁development	-10.7307
▁pinch	-10.7307
▁atlanti	-10.7308
▁solo	-10.7308
▁parry	-10.7308
cian	-10.7309
▁maneuvering	-10.7311
▁backstage	-10.7311
▁howling	-10.7312
▁summons	-10.7312
▁billows	-10.7313
▁guineas	-10.7313
▁footsteps	-10.7313
▁trombones	-10.7313
▁shiver	-10.7313
▁doggies	-10.7313
▁jip	-10.7314
▁rome	-10.7315
▁required	-10.7316
▁commerce	-10.7317
▁struck	-10.7317
▁fireball	-10.7318
▁appeal	-10.7319
▁rejoice	-10.7319
ist	-10.7319
▁stove	-10.7319
▁basis	-10.7319
commanderinchief	-10.7319
▁birdbrain	-10.732
▁skies	-10.732
▁captive	-10.732
▁travelers	-10.7322
▁haste	-10.7322
▁dried	-10.7322
▁selected	-10.7322
▁slept	-10.7323
▁frankly	-10.7323
▁haul	-10.7323
▁mortar	-10.7323
▁craft	-10.7324
▁punished	-10.7324
▁grandma	-10.7324
▁labor	-10.7324
▁whimper	-10.7325
▁damaged	-10.7326
▁sons	-10.7326
▁provided	-10.7326
▁shaking	-10.7326
▁suicide	-10.7326
▁coins	-10.7329
▁righteous	-10.7329
▁margaret	-10.7329
▁squawking	-10.733
▁fashion	-10.733
▁mixer	-10.7331
▁slightly	-10.7331
▁solved	-10.7333
▁chest	-10.7335
▁brute	-10.7335
▁particularly	-10.7336
▁punk	-10.7336
▁weigh	-10.7336
▁impressed	-10.7337
▁scheduled	-10.7338
▁sixth	-10.7338
▁packages	-10.734
▁affect	-10.734
lasting	-10.7341
▁bait	-10.7342
▁ram	-10.7342
▁ladder	-10.7342
▁rally	-10.7342
▁grey	-10.7342
▁printed	-10.7343
oever	-10.7343
▁disturbed	-10.7343
umblechook	-10.7344
ink	-10.7345
▁hired	-10.7346
▁crumbs	-10.7347
▁raw	-10.7347
▁heels	-10.7347
▁blush	-10.7349
▁whee	-10.7351
▁airline	-10.7351
▁shark	-10.7351
▁parties	-10.7353
▁jealousy	-10.7354
▁clark	-10.7354
▁squeaking	-10.7354
▁ignor	-10.7356
▁rockin	-10.7357
▁fake	-10.7362
ously	-10.7363
▁qu	-10.7363
▁organized	-10.7364
▁dude	-10.7364
▁overlook	-10.7364
▁washed	-10.7366
▁intentions	-10.7367
▁reporter	-10.7369
▁ivor	-10.7369
▁moth	-10.7369
▁riders	-10.7371
▁aft	-10.7371
▁difficulty	-10.7374
▁nu	-10.738
▁toad	-10.7381
▁inf	-10.7381
▁fourth	-10.7384
▁existed	-10.7384
▁virtuos	-10.7387
▁transfer	-10.7389
▁armor	-10.7391
▁hull	-10.7393
▁sailed	-10.7393
▁deeply	-10.7395
▁wiped	-10.7396
▁sadly	-10.7397
mortal	-10.7397
▁studying	-10.7399
▁milt	-10.7399
▁flooded	-10.74
▁rot	-10.7404
▁warned	-10.7404
uh	-10.7405
▁hollow	-10.7406
▁gre	-10.7408
▁commenc	-10.7412
▁threat	-10.7415
▁trespasser	-10.7415
▁chicks	-10.7417
▁sak	-10.742
▁rascals	-10.7422
▁helicopters	-10.7422
▁connections	-10.7423
▁occasions	-10.7423
▁tooth	-10.7426
▁clatter	-10.7426
▁mush	-10.7427
▁youngest	-10.7428
▁tearing	-10.7429
▁slower	-10.7431
ering	-10.7436
▁packing	-10.7437
▁goodnight	-10.744
▁touches	-10.744
▁subsid	-10.7446
▁smaller	-10.7447
▁drowning	-10.7447
▁passengers	-10.745
▁compliments	-10.745
▁caro	-10.745
▁farmers	-10.7451
▁gathered	-10.7452
ological	-10.7453
▁standard	-10.7454
▁impress	-10.7455
▁shaft	-10.7459
▁prayers	-10.7466
▁slice	-10.7466
▁informed	-10.7468
vive	-10.7469
▁squeaks	-10.7475
▁honored	-10.7476
▁scratch	-10.7476
▁gen	-10.7477
▁grav	-10.748
▁crowded	-10.7484
▁brook	-10.7487
▁exercises	-10.7506
▁feelin	-10.7518
▁imagined	-10.7529
▁units	-10.7529
▁reporting	-10.7532
▁traitors	-10.7533
▁buttons	-10.7533
▁reign	-10.755
▁joined	-10.7552
▁oye	-10.7552
aunt	-10.7554
▁snakes	-10.7559
duran	-10.7559
▁fourteen	-10.7569
▁invade	-10.7574
▁ross	-10.7574
▁waves	-10.7575
▁marrying	-10.7576
▁ant	-10.7576
side	-10.7581
healthy	-10.7581
▁bash	-10.7587
▁blocks	-10.7588
▁teaching	-10.7591
▁visiting	-10.7597
▁whoops	-10.7602
▁longing	-10.7607
▁dancers	-10.7611
▁tap	-10.7623
▁pals	-10.7625
▁workin	-10.7633
▁concerts	-10.764
ide	-10.7641
▁sweep	-10.7646
▁freeze	-10.7646
▁interfere	-10.7654
logical	-10.7656
▁cable	-10.7659
▁charle	-10.7664
▁cel	-10.7665
▁stayin	-10.7669
▁goal	-10.7674
▁shock	-10.7675
▁traps	-10.7678
▁counting	-10.769
tempered	-10.7693
▁wagons	-10.7694
▁sleepy	-10.7694
▁millions	-10.77
▁translate	-10.7702
eight	-10.7704
▁trusted	-10.7717
▁impatient	-10.7726
scope	-10.7729
▁visitor	-10.7731
spinning	-10.7732
▁ain	-10.7735
▁severe	-10.7738
▁feature	-10.7745
▁throwing	-10.7747
▁ann	-10.7758
▁vi	-10.7768
ou	-10.7771
▁kissed	-10.7773
wing	-10.7776
▁mermaids	-10.7782
tains	-10.7787
▁staring	-10.7787
▁wag	-10.7788
▁hanged	-10.7791
▁lion	-10.7805
▁pockets	-10.7809
▁rail	-10.7816
hhh	-10.7818
▁tim	-10.7822
ets	-10.7824
▁urn	-10.783
born	-10.7832
▁measure	-10.7833
▁acknowledge	-10.7854
▁noises	-10.7863
▁positions	-10.7864
▁dave	-10.7869
▁matt	-10.7883
lock	-10.7888
▁miracles	-10.7893
▁diamonds	-10.7893
▁outrun	-10.7894
▁singers	-10.7896
use	-10.7898
ranny	-10.7908
▁dan	-10.7916
▁actions	-10.7923
ench	-10.7932
▁sakes	-10.7939
▁ripe	-10.794
▁there	-10.7941
low	-10.7947
▁overhea	-10.795
yes	-10.7961
▁bags	-10.7961
▁era	-10.7966
▁records	-10.7978
ency	-10.7982
▁rooms	-10.7993
▁laund	-10.7996
▁kir	-10.7999
▁swor	-10.8005
▁toll	-10.8008
▁souls	-10.8009
▁bre	-10.8015
▁toys	-10.8018
lic	-10.8024
aint	-10.8039
▁engines	-10.8047
mine	-10.8055
qu	-10.8056
▁er	-10.8058
wed	-10.8064
▁appli	-10.807
ice	-10.8071
▁guts	-10.8071
▁commanders	-10.8089
▁likely	-10.8093
▁penn	-10.8102
▁etern	-10.812
▁bind	-10.8142
▁mmmm	-10.8167
▁advertise	-10.8169
▁heave	-10.8182
▁presidents	-10.8199
▁rightly	-10.82
ais	-10.8217
▁faced	-10.8218
▁sets	-10.8224
▁starve	-10.8241
▁arrange	-10.8258
▁mutter	-10.8262
▁lefty	-10.8268
▁listened	-10.8293
ction	-10.8307
▁tickle	-10.8309
▁ape	-10.8316
▁heed	-10.8327
pines	-10.8337
og	-10.8338
we	-10.8366
▁gra	-10.837
tch	-10.8376
ball	-10.8383
uous	-10.8388
▁rate	-10.8398
iness	-10.8407
oyot	-10.8419
ss	-10.8428
▁gul	-10.8445
oka	-10.8466
▁vote	-10.8479
ummy	-10.8482
▁sole	-10.8483
▁ending	-10.8494
▁ton	-10.8511
▁prof	-10.8515
▁lou	-10.8525
▁awar	-10.8527
▁soci	-10.8539
ody	-10.8547
▁gardens	-10.8569
ten	-10.8596
port	-10.861
tious	-10.8633
▁cla	-10.8634
▁returns	-10.8636
▁sap	-10.8639
▁eventual	-10.8643
▁bro	-10.8654
cat	-10.8668
om	-10.8669
mate	-10.8689
▁narr	-10.8705
▁machines	-10.8709
▁portla	-10.8712
▁easter	-10.8716
ldo	-10.8728
▁waters	-10.873
▁uncles	-10.8766
▁all	-10.8807
▁bobb	-10.8809
▁automat	-10.8819
▁inch	-10.8825
▁animat	-10.8844
▁tha	-10.8845
▁hav	-10.8853
▁lit	-10.8863
ads	-10.8868
lash	-10.8884
▁luc	-10.8893
awa	-10.8893
heres	-10.8895
▁thine	-10.8895
car	-10.8929
nch	-10.8946
▁answers	-10.8954
od	-10.8961
nty	-10.8962
ties	-10.8965
▁wakes	-10.9001
most	-10.9004
can	-10.9006
▁practical	-10.9016
▁medi	-10.9017
shed	-10.9028
elle	-10.9039
stream	-10.9056
▁utter	-10.9085
▁prospect	-10.9087
▁companions	-10.9097
▁lid	-10.9114
▁lovin	-10.9122
int	-10.9135
lly	-10.9136
yoshi	-10.9141
▁sheriffs	-10.9165
▁ka	-10.9166
ig	-10.917
tany	-10.919
eaten	-10.9196
colo	-10.9203
ose	-10.9204
▁trans	-10.9208
urier	-10.9219
▁showing	-10.9222
▁kinds	-10.9235
▁this	-10.9252
▁stark	-10.926
▁losin	-10.927
▁cinderellas	-10.928
▁leak	-10.9283
how	-10.9286
cent	-10.9291
▁mac	-10.9297
▁distinct	-10.9305
▁woah	-10.9307
▁el	-10.9308
new	-10.9309
ked	-10.9317
▁ther	-10.9325
shes	-10.9326
▁siren	-10.9331
gram	-10.9358
▁emb	-10.9361
▁swan	-10.9367
▁wonders	-10.9368
ire	-10.939
▁ninety	-10.939
j	-10.9399
place	-10.9403
bourg	-10.942
sley	-10.9435
▁vac	-10.9437
oy	-10.944
▁walks	-10.9447
hut	-10.9459
ilities	-10.9478
wick	-10.9492
win	-10.9493
nk	-10.9504
mois	-10.9515
▁spark	-10.9517
▁with	-10.952
▁and	-10.9531
ti	-10.9534
ki	-10.9535
mental	-10.9537
▁disgrace	-10.9539
▁here	-10.9541
ga	-10.9542
rely	-10.9542
▁nic	-10.9543
rious	-10.9547
fall	-10.9551
▁glob	-10.9552
▁chick	-10.9558
tial	-10.9562
brook	-10.9564
free	-10.9569
oo	-10.9575
stern	-10.9582
▁mus	-10.9589
sion	-10.959
choo	-10.9591
pool	-10.9599
va	-10.9601
▁dispos	-10.9602
point	-10.9616
▁ple	-10.9618
zi	-10.962
▁dodge	-10.9621
▁chatter	-10.9623
blood	-10.9632
▁squawk	-10.9635
bye	-10.9648
▁banana	-10.9653
▁dinosaur	-10.9664
▁recruit	-10.9664
proof	-10.9665
antic	-10.9665
▁criminal	-10.9666
▁barrel	-10.9667
▁donkey	-10.9668
ni	-10.9668
▁suitcase	-10.967
▁mushroom	-10.967
▁blade	-10.967
▁hangin	-10.9672
▁willow	-10.9672
▁holds	-10.9674
▁lisp	-10.9675
▁falcon	-10.9678
▁critter	-10.9678
▁customer	-10.9678
ating	-10.9678
▁warrior	-10.9679
▁citizen	-10.9679
▁flame	-10.9682
▁din	-10.9682
▁slav	-10.9683
headed	-10.9685
▁musician	-10.9688
▁trim	-10.9697
▁bandit	-10.9703
▁woohoo	-10.9704
▁ami	-10.972
▁doll	-10.972
▁acre	-10.9724
pri	-10.9727
▁cub	-10.9734
▁creep	-10.9741
▁root	-10.9744
rica	-10.9749
bbling	-10.9749
▁crawl	-10.975
▁rocket	-10.9752
▁rattle	-10.9754
▁harvest	-10.9755
▁screech	-10.9755
udder	-10.9756
▁creat	-10.9758
▁incredibl	-10.9759
▁fift	-10.9759
▁engage	-10.9761
ification	-10.9761
gue	-10.9762
▁cripple	-10.9763
cz	-10.9763
▁aroun	-10.9767
▁despise	-10.9769
▁folk	-10.977
ew	-10.9771
more	-10.9773
▁disappoint	-10.9774
▁strain	-10.9781
▁sandwich	-10.9784
▁conduct	-10.9785
▁phil	-10.9785
▁string	-10.9789
▁gomorra	-10.9789
▁geez	-10.979
▁anticipate	-10.9792
▁kiddin	-10.9793
▁stead	-10.9795
▁achieve	-10.9795
▁hospital	-10.9795
▁sittin	-10.9795
▁marvel	-10.9795
aaaah	-10.9795
▁har	-10.9796
structure	-10.9797
▁activities	-10.9797
▁activity	-10.9797
▁amidships	-10.9797
▁assignment	-10.9797
▁awkward	-10.9797
▁blossom	-10.9797
▁bopaloo	-10.9797
▁claverton	-10.9797
▁clutterbuck	-10.9797
▁conclusion	-10.9797
▁congratulate	-10.9797
▁conquer	-10.9797
▁convenient	-10.9797
▁domestic	-10.9797
▁dorado	-10.9797
▁duchess	-10.9797
▁dunkirk	-10.9797
▁dynamite	-10.9797
▁eliminate	-10.9797
▁elwyn	-10.9797
▁energy	-10.9797
▁enormous	-10.9797
▁exclusive	-10.9797
▁eyewitness	-10.9797
▁fairfax	-10.9797
▁furnace	-10.9797
▁ghastly	-10.9797
▁heritage	-10.9797
▁honolulu	-10.9797
▁hurricane	-10.9797
▁inaudible	-10.9797
▁indefinitely	-10.9797
▁innocence	-10.9797
▁instinct	-10.9797
▁intelligent	-10.9797
▁juarez	-10.9797
▁magazine	-10.9797
▁mcbrusque	-10.9797
▁merrylegs	-10.9797
▁michael	-10.9797
▁misunderstood	-10.9797
▁morichika	-10.9797
▁nowadays	-10.9797
▁oklahoma	-10.9797
▁ominous	-10.9797
▁outnumbered	-10.9797
▁pheasant	-10.9797
▁pluskat	-10.9797
▁pushmipullyu	-10.9797
▁ratcliffe	-10.9797
▁salvation	-10.9797
▁schrader	-10.9797
▁sebastian	-10.9797
▁sekigahara	-10.9797
▁shackleton	-10.9797
▁shakespeare	-10.9797
▁skeleton	-10.9797
▁spectacular	-10.9797
▁sublime	-10.9797
▁titanic	-10.9797
▁treacherous	-10.9797
▁twobyfour	-10.9797
▁unexpected	-10.9797
▁ursula	-10.9797
▁vacuum	-10.9797
▁vagabond	-10.9797
▁violence	-10.9797
▁worthwhile	-10.9797
▁yagoobian	-10.9797
▁zaneeta	-10.9797
▁zurich	-10.9797
▁atmosphere	-10.9797
▁automobile	-10.9797
▁caliber	-10.9797
▁dixon	-10.9797
▁entrance	-10.9797
▁error	-10.9797
▁favour	-10.9797
▁incantation	-10.9797
▁inherit	-10.9797
▁learjet	-10.9797
▁scaredycat	-10.9797
▁scoffs	-10.9797
▁tsuge	-10.9797
▁tybalt	-10.9797
dikadik	-10.9797
▁accurate	-10.9797
▁cocoa	-10.9797
▁grandparents	-10.9797
▁influence	-10.9797
▁jersey	-10.9797
▁yassum	-10.9797
▁process	-10.9797
▁academi	-10.9797
▁crisis	-10.9797
▁inhabitants	-10.9797
▁noisy	-10.9797
▁notorious	-10.9797
▁popcorn	-10.9797
▁shawl	-10.9797
▁whirring	-10.9797
▁accompany	-10.9797
▁supplies	-10.9797
▁verona	-10.9797
▁cheeseburger	-10.9797
▁doughnut	-10.9797
▁siege	-10.9797
▁wingspan	-10.9797
▁chestnut	-10.9797
▁destiny	-10.9797
▁occupied	-10.9797
▁patriot	-10.9797
▁specifically	-10.9797
▁wrath	-10.9797
▁anxious	-10.9797
▁downriver	-10.9797
▁jeanbob	-10.9797
▁latimer	-10.9797
▁anyplace	-10.9797
▁bonbon	-10.9797
▁constable	-10.9797
▁insect	-10.9797
▁interior	-10.9797
▁ravine	-10.9797
▁strawberry	-10.9797
▁valpa	-10.9797
▁gasket	-10.9797
▁occupation	-10.9797
▁salesmen	-10.9797
▁redeem	-10.9797
▁meself	-10.9797
▁glitter	-10.9797
▁sheila	-10.9797
▁tomato	-10.9797
▁mutiny	-10.9797
▁mallard	-10.9797
▁puppies	-10.9797
▁upriver	-10.9797
▁addition	-10.9797
▁vienna	-10.9797
▁crunch	-10.9797
▁chickama	-10.9797
▁convictions	-10.9797
▁residence	-10.9797
▁beetle	-10.9797
▁chaplain	-10.9797
▁indoors	-10.9797
▁annihilation	-10.9797
▁caesar	-10.9797
▁pioneer	-10.9797
▁persever	-10.9797
▁creaking	-10.9797
▁wiggins	-10.9797
▁glorious	-10.9797
▁pesky	-10.9797
▁gnaw	-10.9797
▁compromise	-10.9797
▁mixture	-10.9797
▁shrine	-10.9797
▁interference	-10.9797
▁element	-10.9797
▁necklace	-10.9797
▁torches	-10.9797
▁salute	-10.9797
▁beware	-10.9797
▁perilous	-10.9797
▁vicar	-10.9797
▁churchyard	-10.9797
▁tubby	-10.9798
▁elevation	-10.9798
▁belloni	-10.9798
▁appetite	-10.9798
▁adrian	-10.9798
▁canada	-10.9798
▁bubba	-10.9798
▁bliss	-10.9798
▁pappy	-10.9798
▁arthur	-10.9798
▁trembling	-10.9798
▁barren	-10.9798
▁output	-10.9798
▁hippo	-10.9798
▁dinah	-10.9798
▁prodigy	-10.9798
▁spores	-10.9798
▁theater	-10.9798
▁curb	-10.9798
▁endanger	-10.9798
▁gruel	-10.9798
▁heeyaw	-10.9798
▁floodwater	-10.9798
▁amount	-10.9798
▁strategy	-10.9798
▁transport	-10.9798
▁reverse	-10.9798
▁navigator	-10.9798
▁fiddle	-10.9798
▁gym	-10.9799
▁totem	-10.9799
▁occasionally	-10.9799
▁defenseless	-10.9799
▁thrust	-10.9799
▁magma	-10.9799
▁conceal	-10.9799
▁favers	-10.9799
▁bertha	-10.9799
▁yeeha	-10.9799
▁warrant	-10.9799
▁argument	-10.9799
▁shotgun	-10.9799
▁ayah	-10.9799
▁stiff	-10.9799
▁curtain	-10.9799
▁sample	-10.9799
▁token	-10.9799
▁whipped	-10.9799
▁stepmother	-10.9799
▁fatso	-10.9799
▁horizon	-10.98
▁skunk	-10.98
▁injured	-10.98
▁lenape	-10.98
▁pulp	-10.98
▁detonat	-10.98
▁supply	-10.98
▁superior	-10.98
▁swimming	-10.98
▁tourist	-10.98
▁raspberry	-10.98
▁elegant	-10.98
orita	-10.98
▁homesick	-10.98
▁harsh	-10.98
▁hesitate	-10.9801
kwood	-10.9801
▁spunk	-10.9801
▁altered	-10.9801
▁brownie	-10.9801
▁overdo	-10.9801
▁doomed	-10.9801
▁motherinlaw	-10.9801
▁dripping	-10.9801
▁sacrificed	-10.9801
▁related	-10.9802
▁fragran	-10.9802
▁discre	-10.9802
harde	-10.9802
▁pronounce	-10.9803
▁duckling	-10.9803
▁craven	-10.9803
▁sync	-10.9803
▁appearance	-10.9803
▁meatball	-10.9803
▁inviting	-10.9803
▁chatting	-10.9803
▁scenery	-10.9803
▁slurping	-10.9803
▁viva	-10.9803
▁hooooo	-10.9803
▁terrifying	-10.9803
▁frustrated	-10.9803
▁phony	-10.9803
elope	-10.9804
▁shrieking	-10.9804
▁heartbreak	-10.9804
▁announcement	-10.9804
▁quest	-10.9804
▁industries	-10.9805
▁parading	-10.9805
▁muddy	-10.9805
▁benefit	-10.9805
▁tonit	-10.9805
▁blender	-10.9805
otamus	-10.9806
▁comb	-10.9806
▁stepping	-10.9806
▁sunlight	-10.9806
▁survey	-10.9806
▁socks	-10.9806
▁cozy	-10.9806
▁buc	-10.9806
▁ap	-10.9807
▁barney	-10.9807
▁content	-10.9807
▁junkman	-10.9807
▁robot	-10.9808
▁facility	-10.9808
▁puffin	-10.9808
▁valve	-10.9808
▁exhausted	-10.9809
▁neglected	-10.9809
▁confirmed	-10.9809
▁exposed	-10.9809
▁appointed	-10.9809
▁colorful	-10.9809
▁philly	-10.9809
▁firstclass	-10.981
▁tummy	-10.981
▁billion	-10.981
▁acquired	-10.981
▁dislike	-10.9812
acious	-10.9812
▁oink	-10.9812
▁humiliat	-10.9813
▁yikes	-10.9814
▁whip	-10.9814
▁neva	-10.9814
▁galloping	-10.9814
▁cough	-10.9814
▁haunted	-10.9815
▁greg	-10.9815
▁milo	-10.9815
▁probe	-10.9815
▁yearning	-10.9816
▁chanties	-10.9816
▁taxes	-10.9816
▁bulk	-10.9816
▁mouthful	-10.9816
▁transformed	-10.9816
▁cramp	-10.9817
▁yodo	-10.9817
▁pony	-10.9817
▁hardship	-10.9817
▁whiskers	-10.9817
▁minerals	-10.9817
▁candles	-10.9817
▁panzers	-10.9818
▁hypocrites	-10.9818
▁amaryllis	-10.9818
▁glitterbots	-10.9818
▁creepy	-10.9818
▁baptized	-10.9818
uine	-10.9818
▁rebel	-10.9818
▁awa	-10.9818
erial	-10.9818
▁ahoy	-10.9818
▁hideous	-10.9821
▁hometown	-10.9821
▁misery	-10.9822
▁flown	-10.9822
▁shinin	-10.9823
▁slick	-10.9823
▁comment	-10.9823
▁kiddo	-10.9824
▁freight	-10.9824
▁european	-10.9824
▁shelf	-10.9825
▁dough	-10.9825
▁rug	-10.9825
▁hansen	-10.9825
▁crisp	-10.9825
▁physical	-10.9826
▁battery	-10.9826
▁grinding	-10.9826
▁airfield	-10.9826
▁vet	-10.9826
▁ketch	-10.9827
▁ac	-10.9828
▁embarrassed	-10.9829
▁cookies	-10.9829
▁volcanoes	-10.983
▁faithfully	-10.983
▁abel	-10.983
▁clara	-10.983
▁polite	-10.983
▁produced	-10.9831
▁markings	-10.9831
▁quote	-10.9831
▁sunny	-10.9832
▁contempt	-10.9832
▁cursed	-10.9833
▁photography	-10.9833
▁plaster	-10.9833
▁miser	-10.9834
▁abso	-10.9835
▁stinky	-10.9835
▁circuit	-10.9835
▁invest	-10.9835
▁stagg	-10.9835
▁bravery	-10.9836
▁petitioner	-10.9836
▁restless	-10.9837
▁dull	-10.9837
▁replaced	-10.9838
▁screeching	-10.9838
▁scouts	-10.9838
▁remark	-10.9838
▁guin	-10.9839
brin	-10.9839
▁sass	-10.9839
▁practicing	-10.984
▁status	-10.9841
▁bumpy	-10.9841
▁regularly	-10.9841
▁forsaken	-10.9841
▁yelp	-10.9841
▁housing	-10.9841
▁greed	-10.9843
▁suis	-10.9843
▁resent	-10.9843
▁loch	-10.9843
▁granted	-10.9845
▁anti	-10.9845
▁dishes	-10.9845
▁screw	-10.9845
▁flags	-10.9849
▁access	-10.9849
▁pretending	-10.985
▁carla	-10.985
gallant	-10.985
▁investor	-10.9851
▁stamps	-10.9852
▁documents	-10.9853
▁backyard	-10.9854
▁pecking	-10.9855
▁jury	-10.9856
▁contain	-10.986
ldren	-10.986
▁fuse	-10.986
▁destroyers	-10.9861
▁chos	-10.9862
anza	-10.9864
▁deli	-10.9869
town	-10.9869
▁cared	-10.9871
▁cutters	-10.9872
▁diego	-10.9872
▁negotiat	-10.9873
▁engineering	-10.9877
▁fainted	-10.9877
▁frost	-10.9878
▁contestant	-10.9878
vet	-10.9878
ren	-10.9879
▁campus	-10.9879
▁filler	-10.9881
▁collapse	-10.9883
▁chow	-10.9883
▁warmer	-10.9883
▁roaring	-10.9884
▁lampy	-10.9884
▁ike	-10.9886
▁eatable	-10.9887
▁rio	-10.9888
▁zuckermans	-10.9889
▁calculations	-10.9889
▁groom	-10.989
▁doubter	-10.989
▁directed	-10.9892
▁jaw	-10.9893
▁don	-10.9894
▁frame	-10.9896
▁threehorns	-10.9896
hopper	-10.9896
▁witches	-10.9899
▁indicate	-10.99
▁strik	-10.9901
▁worms	-10.9902
arilla	-10.9903
▁sandy	-10.9903
▁delivered	-10.9903
▁amaze	-10.9906
▁parker	-10.9906
▁limited	-10.9907
▁cautio	-10.991
▁painting	-10.9911
▁crashing	-10.9912
▁released	-10.9915
▁bean	-10.9918
▁highland	-10.9918
▁brightly	-10.9919
▁complaining	-10.992
▁warden	-10.9922
▁intended	-10.9923
▁packed	-10.9924
▁willows	-10.9924
▁suitcases	-10.9925
▁mushrooms	-10.9925
▁singin	-10.9928
▁dna	-10.9928
▁rockets	-10.9929
▁dolls	-10.9931
▁connected	-10.9932
▁walkin	-10.9932
▁proven	-10.9933
▁civilized	-10.9934
▁import	-10.9936
▁heights	-10.9936
sburg	-10.9937
▁leaf	-10.9939
▁fightin	-10.994
▁dreamers	-10.9941
ad	-10.9941
drew	-10.9942
▁brit	-10.9943
▁magician	-10.9952
▁retire	-10.9952
▁switching	-10.9954
▁details	-10.9956
▁nicky	-10.9958
▁hint	-10.9958
▁dukey	-10.9963
▁photos	-10.9967
▁drill	-10.997
hugging	-10.9974
▁introduced	-10.9975
▁mightnt	-10.9975
ans	-10.9977
▁collecting	-10.9979
▁option	-10.998
▁compose	-10.9982
▁cloth	-10.9983
▁blam	-10.9985
▁golf	-10.9987
▁rolled	-10.9987
▁poop	-10.999
▁thankful	-10.9991
▁villains	-10.9996
▁natives	-10.9996
▁tigers	-10.9996
ums	-10.9998
▁decisions	-10.9998
gh	-10.9999
▁rushing	-11.0006
skirt	-11.0009
▁grains	-11.0012
▁pauly	-11.0014
▁sealed	-11.0014
▁gig	-11.0017
▁foul	-11.0018
owed	-11.0019
▁highway	-11.002
lt	-11.0023
▁active	-11.0026
oda	-11.0026
▁ju	-11.0028
▁burning	-11.0029
▁spook	-11.003
▁zones	-11.0034
▁tooting	-11.0037
▁foxy	-11.0039
▁missile	-11.0042
pp	-11.0045
▁knocked	-11.0046
▁strand	-11.005
▁muff	-11.0051
▁exaggerate	-11.0051
▁chuck	-11.006
▁notion	-11.0062
▁engineers	-11.0064
▁winners	-11.0068
▁playin	-11.0071
▁principles	-11.0071
▁longnecks	-11.0071
▁stripe	-11.0079
▁keyed	-11.008
▁braz	-11.0086
▁amo	-11.0086
▁realm	-11.009
▁pans	-11.009
▁ditch	-11.0091
▁lune	-11.0091
▁spits	-11.0094
▁jon	-11.0097
▁scamp	-11.0097
▁globe	-11.0101
▁kit	-11.0105
▁needle	-11.0106
▁types	-11.0106
▁chin	-11.0107
ass	-11.0109
▁cock	-11.0118
▁braves	-11.0127
stop	-11.0128
▁buster	-11.0133
▁chl	-11.0141
▁mason	-11.0144
▁bastards	-11.0144
▁lightly	-11.0145
▁morph	-11.0146
▁spending	-11.0146
tly	-11.0155
onny	-11.0156
rid	-11.0157
▁morse	-11.0158
▁cart	-11.0164
▁predict	-11.0171
▁capulets	-11.0181
light	-11.0185
▁callin	-11.0187
▁off	-11.0196
▁beep	-11.0201
▁offering	-11.0208
▁fuss	-11.021
▁bullets	-11.0211
▁decides	-11.0217
▁obstacles	-11.0218
▁saknussems	-11.0218
▁provide	-11.0221
▁hid	-11.0223
▁ls	-11.0224
former	-11.0229
▁substan	-11.0234
▁brooms	-11.0242
▁sneeze	-11.0242
▁brides	-11.0244
▁protecting	-11.0245
▁dances	-11.0248
unning	-11.0252
▁blankets	-11.0254
▁partners	-11.0255
med	-11.0255
▁thoughts	-11.0263
▁mock	-11.0266
▁stall	-11.0269
aki	-11.0269
▁runways	-11.0272
▁opener	-11.0272
▁pine	-11.0272
▁plumb	-11.0279
▁planets	-11.0288
▁article	-11.029
▁goats	-11.0294
▁realise	-11.0294
▁slowing	-11.0295
▁shal	-11.0306
▁spine	-11.0308
oked	-11.0314
▁brakes	-11.0315
▁lookie	-11.0321
▁submi	-11.0321
▁talents	-11.0329
dor	-11.0332
▁bond	-11.0335
▁damp	-11.0343
ut	-11.0346
▁lambs	-11.0358
▁indi	-11.0358
▁touching	-11.0366
▁babysitt	-11.0369
mar	-11.0379
▁approve	-11.0379
nito	-11.0382
▁roman	-11.0382
▁aunts	-11.0382
▁struggle	-11.0397
▁nerves	-11.0398
▁harmoni	-11.0399
▁prior	-11.04
even	-11.0407
suit	-11.0409
▁haunt	-11.0422
pin	-11.0424
▁events	-11.0425
▁sav	-11.0426
productive	-11.0428
▁sept	-11.0439
▁stab	-11.0447
▁ducks	-11.0449
▁hitch	-11.0449
▁finer	-11.0454
▁drain	-11.0457
▁intrigue	-11.0458
phone	-11.0464
body	-11.0471
▁deny	-11.048
ham	-11.0491
▁lust	-11.0494
▁origin	-11.0494
▁declar	-11.0499
▁nicely	-11.0501
ian	-11.0503
▁crews	-11.0507
▁purr	-11.0516
ox	-11.0516
▁mur	-11.0516
▁fishing	-11.052
res	-11.0527
nap	-11.0528
▁twentyfi	-11.0535
▁identi	-11.0537
▁unworth	-11.054
viet	-11.0541
▁faces	-11.0544
sized	-11.0544
▁buying	-11.0545
▁companion	-11.0548
nies	-11.0553
hh	-11.0556
▁str	-11.0573
ang	-11.0575
▁hotels	-11.0576
▁ere	-11.0581
▁parts	-11.0583
lves	-11.0584
▁pad	-11.0589
mour	-11.0594
▁pins	-11.0596
▁smiles	-11.06
ough	-11.0606
▁howl	-11.0618
▁monsters	-11.062
▁clang	-11.0621
▁domin	-11.0627
▁truthful	-11.0635
oof	-11.0643
sters	-11.0656
▁yesterdays	-11.0657
▁subs	-11.0661
▁gall	-11.0663
▁holder	-11.0678
rig	-11.0681
course	-11.0681
▁cage	-11.0688
mp	-11.0691
▁treasures	-11.0699
▁frightful	-11.07
umber	-11.0709
▁chil	-11.0719
▁squire	-11.0721
▁critic	-11.0727
top	-11.0743
snicker	-11.0751
ecker	-11.0754
bit	-11.0757
▁villages	-11.0763
ak	-11.0764
▁drawer	-11.0766
▁soak	-11.0766
ments	-11.0786
▁fielder	-11.0796
▁exaggerat	-11.0805
▁meaning	-11.0809
▁gin	-11.081
eer	-11.0811
▁sights	-11.0818
▁caus	-11.0821
ander	-11.0825
▁ignoran	-11.0827
▁af	-11.0827
▁mouths	-11.0834
▁nicer	-11.0835
▁obstruct	-11.0835
ger	-11.0844
▁gidda	-11.0846
▁complaint	-11.0858
▁squir	-11.0874
ings	-11.088
▁ohoh	-11.0887
inch	-11.0904
▁prim	-11.0904
▁lop	-11.0919
wind	-11.092
▁elses	-11.0922
▁ants	-11.0926
▁fires	-11.094
▁intr	-11.0948
▁oak	-11.0951
▁sump	-11.0963
▁forms	-11.0972
ddy	-11.0975
▁nightmares	-11.0987
▁lea	-11.0989
▁persons	-11.1002
▁kar	-11.1011
▁throats	-11.1012
▁shakes	-11.1014
▁gag	-11.102
▁mistakes	-11.1047
▁mall	-11.1052
▁bloods	-11.1059
ke	-11.1059
▁despi	-11.1063
▁scr	-11.107
ping	-11.1074
▁grounds	-11.1075
▁steep	-11.1094
▁shatter	-11.1102
gs	-11.1115
key	-11.1123
▁irre	-11.1128
amond	-11.1136
▁recorder	-11.1139
ono	-11.114
▁fli	-11.1146
epid	-11.1147
▁ages	-11.1151
▁colli	-11.1156
▁darlings	-11.1166
stone	-11.1176
▁an	-11.1178
▁on	-11.1185
▁hum	-11.1186
act	-11.1201
▁slippe	-11.1205
▁bikes	-11.1209
▁advise	-11.1218
▁barbe	-11.1221
state	-11.1223
▁ban	-11.1231
ork	-11.1239
ini	-11.1243
ila	-11.1245
▁grin	-11.1255
▁whi	-11.1271
▁jumps	-11.1282
▁await	-11.1309
ontext	-11.1312
twas	-11.1332
ward	-11.1338
ious	-11.1344
▁idle	-11.1344
duction	-11.1358
endor	-11.1374
▁organis	-11.138
▁rever	-11.1381
ving	-11.1384
▁deputi	-11.1391
oni	-11.1397
▁shave	-11.1398
▁drops	-11.1405
▁hence	-11.1406
sive	-11.1409
▁senses	-11.1425
mel	-11.143
▁advis	-11.1436
▁gram	-11.1436
▁poles	-11.1438
oodle	-11.1489
▁checks	-11.1489
zed	-11.1491
dios	-11.1493
▁tops	-11.151
ole	-11.1515
▁nail	-11.1523
▁grabb	-11.1524
▁verse	-11.1528
▁dragg	-11.153
▁murders	-11.1533
▁breach	-11.1565
▁counts	-11.1576
ons	-11.158
hold	-11.1608
tie	-11.1615
ages	-11.162
▁shadows	-11.1622
▁jun	-11.1644
igan	-11.165
▁satisf	-11.1652
▁as	-11.1656
take	-11.1669
▁snor	-11.1678
ora	-11.169
ner	-11.1693
▁rena	-11.1698
lante	-11.17
▁throws	-11.1701
sque	-11.1709
▁orient	-11.1711
io	-11.1715
▁sis	-11.1719
▁uhh	-11.172
read	-11.1725
mber	-11.1736
▁forge	-11.1765
▁ahha	-11.1797
proposals	-11.1811
▁snore	-11.1822
rd	-11.1824
▁concept	-11.1833
▁hen	-11.1881
▁hopeful	-11.1897
tting	-11.1909
long	-11.191
▁accuse	-11.1924
▁lip	-11.1942
uction	-11.1943
sent	-11.1948
▁pan	-11.1948
pose	-11.1958
pen	-11.1964
rove	-11.1978
▁ag	-11.1994
good	-11.1998
▁stress	-11.201
ack	-11.2018
ick	-11.2037
▁bin	-11.2039
tually	-11.2045
ations	-11.2048
edient	-11.2058
vers	-11.2064
▁demonstrate	-11.2067
▁yur	-11.2077
rk	-11.2084
▁countrys	-11.2087
sed	-11.21
▁uns	-11.2117
mail	-11.2121
▁replie	-11.2124
lassie	-11.2126
am	-11.2129
▁pow	-11.2136
hound	-11.2142
▁armys	-11.2151
▁pea	-11.2154
all	-11.2159
ex	-11.2172
nh	-11.218
di	-11.2182
▁horr	-11.2183
tar	-11.2189
ath	-11.2198
hanging	-11.2207
uary	-11.2221
▁image	-11.2222
eros	-11.2228
▁dia	-11.2249
ming	-11.2272
insula	-11.2285
▁spose	-11.2295
▁sto	-11.2315
▁experienc	-11.2321
▁twink	-11.2322
cane	-11.2332
▁cape	-11.2338
ari	-11.2354
sta	-11.2361
▁shots	-11.2367
ppe	-11.2376
▁barb	-11.2393
lley	-11.2396
urs	-11.2415
au	-11.2417
aying	-11.2418
wait	-11.2443
▁facilit	-11.2446
lower	-11.2461
alia	-11.2464
▁bal	-11.2501
▁owners	-11.2508
hair	-11.2508
ue	-11.251
stand	-11.2545
▁eee	-11.2557
▁identif	-11.2559
▁aqu	-11.2572
▁ve	-11.2587
▁skip	-11.2588
▁vie	-11.2615
rov	-11.2616
▁sor	-11.2616
ere	-11.2627
▁pon	-11.2633
ever	-11.2636
▁fer	-11.2638
▁divide	-11.2656
lon	-11.2656
▁eva	-11.2658
▁temp	-11.2664
▁conv	-11.2692
bles	-11.2693
name	-11.2709
wood	-11.2721
▁clip	-11.2724
hearted	-11.2729
▁goner	-11.2756
▁shi	-11.2765
▁mines	-11.277
▁employ	-11.2773
▁harpe	-11.2777
com	-11.2788
bony	-11.2792
jazama	-11.2792
cut	-11.2798
why	-11.2801
bang	-11.2812
eat	-11.2819
▁exp	-11.2822
tz	-11.2841
nish	-11.2843
▁bla	-11.2847
▁vip	-11.2855
active	-11.2868
▁daddys	-11.2872
beat	-11.2873
green	-11.2876
▁mini	-11.2881
▁strip	-11.2881
class	-11.2882
movie	-11.2888
bike	-11.2889
▁slam	-11.2892
bread	-11.2897
▁del	-11.2899
informed	-11.2902
▁it	-11.2902
called	-11.2904
decisive	-11.2913
type	-11.2914
hal	-11.2919
coast	-11.2923
ingo	-11.2926
driver	-11.2933
ordan	-11.2935
ike	-11.2935
faced	-11.2938
pack	-11.294
break	-11.2943
▁require	-11.2945
made	-11.2947
handed	-11.295
gun	-11.295
ancho	-11.2951
power	-11.2952
itable	-11.2953
leaf	-11.2954
known	-11.2967
▁pleas	-11.2967
ants	-11.2967
ooow	-11.297
scale	-11.2979
ik	-11.298
▁convict	-11.2981
tions	-11.2984
▁beethoven	-11.2984
▁colleague	-11.2984
▁kangaroo	-11.2984
▁seagull	-11.2984
▁chemical	-11.2984
▁leopard	-11.2985
▁outlaw	-11.2985
lion	-11.2985
▁muscle	-11.2986
nder	-11.2988
▁bounc	-11.2988
berry	-11.2988
▁outdoor	-11.2989
▁playmate	-11.2995
▁cobb	-11.2997
▁result	-11.2998
▁particle	-11.2998
▁forfeit	-11.2998
▁chamber	-11.2999
▁chip	-11.2999
▁canine	-11.3
▁arrangement	-11.3
▁mammal	-11.3
▁zuckerman	-11.3003
▁calculation	-11.3004
▁rev	-11.3005
▁grownup	-11.3007
▁intention	-11.3007
▁threehorn	-11.3008
hark	-11.3008
▁lollipop	-11.3009
▁ancestor	-11.301
▁giggle	-11.3014
wow	-11.3014
▁rumble	-11.3017
coup	-11.302
▁whiz	-11.302
▁tire	-11.3021
▁sheet	-11.3021
▁chore	-11.3024
hu	-11.3026
▁deer	-11.3027
▁core	-11.3031
▁poi	-11.3033
▁appro	-11.3033
▁des	-11.3041
tale	-11.3042
▁manager	-11.3044
ries	-11.3053
▁puttin	-11.3054
cine	-11.3056
▁reduc	-11.3056
▁refresh	-11.3056
▁anticipat	-11.3057
▁clum	-11.3061
god	-11.3062
▁conscious	-11.3062
▁mule	-11.3066
unting	-11.3066
ats	-11.3067
ppen	-11.3068
aged	-11.3072
▁parent	-11.3072
▁chum	-11.3075
▁movement	-11.3087
▁corrupt	-11.3088
▁broadcast	-11.3091
▁rejoic	-11.3092
▁magn	-11.3093
▁commerc	-11.3094
▁bruise	-11.3096
▁hast	-11.31
▁baptize	-11.3101
▁encourage	-11.3101
▁judg	-11.3101
▁transform	-11.3103
▁solicit	-11.3104
▁accomplish	-11.3104
rade	-11.3106
▁vulgar	-11.3107
▁threaten	-11.3107
lous	-11.3108
▁determine	-11.3109
ootchi	-11.3111
▁manner	-11.3113
▁garde	-11.3113
▁attach	-11.3114
civilized	-11.3114
▁grind	-11.3114
▁marshal	-11.3115
actic	-11.3115
▁numb	-11.3116
▁maria	-11.3117
▁mechanical	-11.3117
▁potato	-11.3117
▁butcher	-11.3117
bus	-11.312
▁bleed	-11.3121
nard	-11.3123
▁blend	-11.3124
▁original	-11.3125
▁recent	-11.3125
▁mmhm	-11.3125
corporate	-11.3127
quisit	-11.3128
▁solemn	-11.3128
▁triumph	-11.3128
▁possess	-11.3128
▁nooo	-11.3129
▁forbid	-11.313
▁radi	-11.313
▁sleigh	-11.313
andahalf	-11.313
convenience	-11.313
visibility	-11.313
▁abrupt	-11.313
▁advancing	-11.313
▁album	-11.313
▁awhile	-11.313
▁balzac	-11.313
▁bathtub	-11.313
▁beguiling	-11.313
▁biochemist	-11.313
▁bloodthirsty	-11.313
▁burglar	-11.313
▁buttermilk	-11.313
▁calendar	-11.313
▁circumference	-11.313
▁civilization	-11.313
▁cognac	-11.313
▁conclude	-11.313
▁convincing	-11.313
▁cyanide	-11.313
▁cyrus	-11.313
▁disrupt	-11.313
▁divorce	-11.313
▁eccentric	-11.313
▁einstein	-11.313
▁eisenhower	-11.313
▁entitled	-11.313
▁grumpy	-11.313
▁hallelujah	-11.313
▁handkerchief	-11.313
▁impeccable	-11.313
▁ingenious	-11.313
▁jabbering	-11.313
▁jehoshaphat	-11.313
▁jerusalem	-11.313
▁kudoyama	-11.313
▁kurusu	-11.313
▁landscape	-11.313
▁landslide	-11.313
▁lindbergh	-11.313
▁linguist	-11.313
▁magistrate	-11.313
▁marshmallow	-11.313
▁merchandise	-11.313
▁mississipp	-11.313
▁misslethwaite	-11.313
▁mochizuki	-11.313
▁mototsugu	-11.313
▁nocturnal	-11.313
▁noggin	-11.313
▁optimistic	-11.313
▁parachute	-11.313
▁participate	-11.313
▁pemsel	-11.313
▁penalty	-11.313
▁pestilence	-11.313
▁phenomenal	-11.313
▁phillips	-11.313
▁pneumatic	-11.313
▁predators	-11.313
▁presumptuous	-11.313
▁pukowski	-11.313
▁purchase	-11.313
▁republic	-11.313
▁resource	-11.313
▁revoir	-11.313
▁reykjavik	-11.313
▁rundstedt	-11.313
▁satishouse	-11.313
▁scartaris	-11.313
▁scrawny	-11.313
▁sentimental	-11.313
▁shepherd	-11.313
▁shrift	-11.313
▁situated	-11.313
▁skydancer	-11.313
▁sycamore	-11.313
▁symphony	-11.313
▁temporary	-11.313
▁toffelmier	-11.313
▁tournament	-11.313
▁unpopular	-11.313
▁upperworlders	-11.313
▁varmints	-11.313
▁vulnerable	-11.313
▁wampum	-11.313
▁woooah	-11.313
▁yamamoto	-11.313
▁zenkuro	-11.313
▁zulu	-11.313
▁bazaar	-11.313
▁econom	-11.313
▁education	-11.313
▁mechanism	-11.313
▁merchant	-11.313
▁recreation	-11.313
▁resolve	-11.313
▁sympath	-11.313
▁barracks	-11.313
▁beckman	-11.313
▁dawdle	-11.313
▁deposit	-11.313
▁dimension	-11.313
▁fertilizer	-11.313
▁grenade	-11.313
▁leonard	-11.313
▁mciver	-11.313
▁napoleon	-11.313
▁nellie	-11.313
▁offshore	-11.313
▁precaution	-11.313
▁rosebud	-11.313
▁sicily	-11.313
▁staircase	-11.313
▁terror	-11.313
▁autopsy	-11.313
▁centimes	-11.313
▁clarify	-11.313
▁debate	-11.313
▁dresden	-11.313
▁enlighten	-11.313
▁length	-11.313
▁observation	-11.313
▁presume	-11.313
▁pullaook	-11.313
▁tolerable	-11.313
▁cabaret	-11.313
▁dingdong	-11.313
▁fleabag	-11.313
▁grief	-11.313
▁kilyar	-11.313
▁maniacal	-11.313
▁provision	-11.313
▁rubbish	-11.313
▁shrimp	-11.313
▁abomination	-11.313
▁casualties	-11.313
▁cinnamon	-11.313
▁mackerel	-11.313
▁vessel	-11.313
▁allerg	-11.313
▁chivalr	-11.313
▁salvage	-11.313
▁ireland	-11.313
▁opposite	-11.313
▁ruthless	-11.313
▁stacey	-11.313
▁abroad	-11.313
▁adorable	-11.313
▁conference	-11.313
▁luggage	-11.313
▁understood	-11.313
▁almaelou	-11.313
▁consolation	-11.313
▁costigan	-11.313
▁peasant	-11.313
▁eliza	-11.313
▁chubby	-11.313
▁harrington	-11.313
▁interview	-11.313
▁mayhem	-11.313
▁toodleoo	-11.313
▁ceiling	-11.313
▁grotty	-11.313
▁melvin	-11.313
▁frittering	-11.313
▁museum	-11.313
▁blonde	-11.313
▁exclamation	-11.313
▁nimble	-11.313
▁residents	-11.313
▁violate	-11.313
▁mattress	-11.313
▁method	-11.313
▁kirsty	-11.313
gghh	-11.313
▁anonym	-11.313
▁sensible	-11.313
▁subordinates	-11.313
▁wolverine	-11.313
▁costume	-11.313
▁absolve	-11.313
▁inscription	-11.313
▁sermon	-11.313
▁fissure	-11.313
▁otfice	-11.313
▁transmission	-11.313
▁bagpipes	-11.313
▁conscience	-11.313
▁bundle	-11.313
▁orgy	-11.313
▁editor	-11.313
▁overreact	-11.313
▁solomon	-11.313
▁unarmed	-11.313
▁venice	-11.313
▁gregory	-11.313
▁ruckus	-11.313
▁thyself	-11.313
▁perpetu	-11.313
▁dickens	-11.313
▁lifesaver	-11.313
▁wardroom	-11.313
▁courtesy	-11.313
▁overseas	-11.313
▁regroup	-11.313
▁response	-11.313
▁notify	-11.313
▁outrage	-11.313
▁flavor	-11.313
destined	-11.313
▁herald	-11.313
▁baboon	-11.313
▁promote	-11.313
▁assistance	-11.313
▁brigadier	-11.313
▁caretaker	-11.313
▁injuries	-11.313
▁reverend	-11.313
▁ribbit	-11.313
▁gesture	-11.313
▁hideandseek	-11.313
▁devotion	-11.313
▁ejection	-11.313
▁toothache	-11.313
▁orbit	-11.313
▁tramp	-11.313
▁gossip	-11.3131
▁crowbar	-11.3131
▁reference	-11.3131
▁eighteen	-11.3131
▁injection	-11.3131
▁reflection	-11.3131
▁tranquilizers	-11.3131
▁onstage	-11.3131
▁bounty	-11.3131
▁canadian	-11.3131
▁gentlewoman	-11.3131
▁visor	-11.3131
▁montez	-11.3131
▁alliance	-11.3131
▁confirmation	-11.3131
▁workshop	-11.3131
▁maintain	-11.3131
▁empress	-11.3131
▁choir	-11.3131
▁britches	-11.3131
▁facial	-11.3131
▁protein	-11.3131
▁randolph	-11.3131
▁trampled	-11.3131
▁twothirds	-11.3131
▁canyon	-11.3131
▁vigor	-11.3131
▁definite	-11.3131
▁dissolv	-11.3131
ulsion	-11.3131
▁classified	-11.3131
▁hovering	-11.3131
▁nicole	-11.3131
▁acute	-11.3131
▁vault	-11.3131
▁reliable	-11.3131
▁virtuous	-11.3131
▁carbolic	-11.3131
▁quaint	-11.3131
▁vista	-11.3131
▁fiddling	-11.3131
▁repul	-11.3131
▁thirtyfive	-11.3131
▁halfwit	-11.3131
▁league	-11.3131
▁nibble	-11.3131
▁accent	-11.3131
▁underwater	-11.3132
▁bulb	-11.3132
▁misfortune	-11.3132
▁loaf	-11.3132
▁approval	-11.3132
▁jocko	-11.3132
▁tolerate	-11.3132
▁livestock	-11.3132
▁pudding	-11.3132
▁ninth	-11.3132
▁radiant	-11.3132
▁turf	-11.3132
▁refreshment	-11.3132
▁harley	-11.3132
▁hahahahaha	-11.3132
▁duties	-11.3132
▁pucker	-11.3132
▁drummer	-11.3132
▁inventco	-11.3132
▁transferred	-11.3132
▁promotion	-11.3132
▁judgment	-11.3132
▁adjust	-11.3132
▁footbridge	-11.3132
▁hahaha	-11.3132
▁newcomer	-11.3132
▁midst	-11.3132
▁possession	-11.3132
▁consequence	-11.3132
▁winston	-11.3132
▁flirt	-11.3132
▁obsessed	-11.3132
▁oyster	-11.3133
▁achievement	-11.3133
▁songwriter	-11.3133
▁racket	-11.3133
ritis	-11.3133
▁redhanded	-11.3133
▁karen	-11.3133
▁ankle	-11.3133
▁margin	-11.3133
▁trenches	-11.3133
▁grits	-11.3133
▁laura	-11.3133
▁reflexes	-11.3133
▁ultimately	-11.3133
▁dispatch	-11.3133
cumen	-11.3133
▁loony	-11.3133
▁woodwork	-11.3133
▁bawn	-11.3134
▁throng	-11.3134
▁liberty	-11.3134
▁mineowners	-11.3134
▁glance	-11.3134
▁swimmer	-11.3134
▁bizarre	-11.3134
▁simon	-11.3134
▁soninlaw	-11.3134
▁kiev	-11.3134
▁inclin	-11.3134
▁luncheon	-11.3134
▁erupt	-11.3135
▁whwhat	-11.3135
▁dignity	-11.3135
▁lurvy	-11.3135
▁stacked	-11.3135
▁polecat	-11.3135
▁shazama	-11.3135
pani	-11.3135
▁leadership	-11.3135
▁mumbling	-11.3135
▁slap	-11.3135
▁shortcut	-11.3135
▁housekeeper	-11.3135
▁confession	-11.3136
▁invaders	-11.3136
▁muru	-11.3136
▁chute	-11.3136
▁abetting	-11.3136
▁chapel	-11.3136
▁mcc	-11.3136
▁ounce	-11.3136
▁disturbance	-11.3136
▁atlantic	-11.3136
▁outset	-11.3137
▁slack	-11.3137
▁prettiest	-11.3137
quisition	-11.3137
▁arriving	-11.3137
▁mayfair	-11.3137
▁skinny	-11.3137
▁fuzzy	-11.3137
▁supposing	-11.3137
▁permitted	-11.3137
▁psst	-11.3137
▁unlikely	-11.3138
▁benning	-11.3138
▁breast	-11.3138
▁rin	-11.3138
▁underway	-11.3138
▁pooch	-11.3138
▁youyou	-11.3138
▁overtime	-11.3138
▁ferry	-11.3139
▁hungary	-11.3139
▁mammy	-11.3139
▁fluh	-11.3139
▁pidge	-11.3139
▁depot	-11.3139
▁hallway	-11.3139
▁myth	-11.3139
▁reinforce	-11.3139
▁decoration	-11.314
▁disperse	-11.314
▁jingle	-11.314
zmo	-11.314
▁slim	-11.314
▁leather	-11.314
ruly	-11.314
▁kilo	-11.314
▁container	-11.314
▁wimp	-11.314
▁spout	-11.314
▁engagement	-11.3141
▁timid	-11.3141
▁waitress	-11.3141
▁meadow	-11.3141
▁abys	-11.3141
▁medicine	-11.3141
xic	-11.3142
▁carries	-11.3142
▁straightaway	-11.3142
▁hooter	-11.3143
▁improvis	-11.3143
ckle	-11.3143
▁gently	-11.3143
▁hightail	-11.3143
▁fibber	-11.3143
▁entertained	-11.3143
▁gopher	-11.3143
▁teeny	-11.3143
▁thrive	-11.3143
▁bias	-11.3143
▁railway	-11.3143
▁molded	-11.3144
▁classroom	-11.3144
▁alfred	-11.3144
▁hoist	-11.3144
▁harmony	-11.3144
▁naja	-11.3145
▁originally	-11.3145
▁regal	-11.3145
▁scorn	-11.3145
▁roubles	-11.3145
▁renny	-11.3146
▁lazy	-11.3146
▁bunion	-11.3146
▁barge	-11.3146
▁patie	-11.3146
▁gambling	-11.3146
▁talktalk	-11.3146
▁banner	-11.3147
▁proportioned	-11.3147
▁betrayal	-11.3147
▁mumblechook	-11.3147
▁item	-11.3147
▁pulse	-11.3147
▁stoppin	-11.3147
▁choosing	-11.3147
▁lizzy	-11.3148
▁tucked	-11.3148
▁smack	-11.3149
▁buff	-11.3149
▁goldminin	-11.3149
ree	-11.3149
▁moses	-11.3149
▁armies	-11.3149
▁sinned	-11.3149
▁knick	-11.3149
▁towel	-11.3149
▁confident	-11.3149
▁potion	-11.3151
▁lovat	-11.3151
▁nursery	-11.3151
▁idiotic	-11.3151
▁barf	-11.3152
▁background	-11.3152
▁crops	-11.3152
▁tsk	-11.3152
rizon	-11.3152
▁shaved	-11.3152
▁kneel	-11.3153
▁broad	-11.3153
▁unno	-11.3153
▁attached	-11.3154
▁flea	-11.3154
▁wonderland	-11.3154
▁vince	-11.3154
▁banker	-11.3154
▁showoff	-11.3155
▁robber	-11.3155
▁outdo	-11.3155
▁seesaw	-11.3155
▁hatred	-11.3155
▁marcus	-11.3156
shire	-11.3156
▁solicitor	-11.3156
▁retract	-11.3156
▁poking	-11.3157
▁hammering	-11.3157
▁fitting	-11.3157
▁steven	-11.3157
▁onward	-11.3157
▁elm	-11.3158
▁vegetable	-11.3158
▁threatened	-11.3158
▁batch	-11.3159
▁spotted	-11.3159
▁whatcha	-11.3159
▁cherish	-11.316
▁fortunately	-11.316
▁kidney	-11.316
▁relatives	-11.316
▁troubadours	-11.316
▁bushwhackers	-11.316
▁peru	-11.3161
▁shooin	-11.3161
▁negotiations	-11.3161
▁appliances	-11.3161
▁assembled	-11.3161
▁fiends	-11.3161
▁growl	-11.3161
▁agony	-11.3162
▁teenagers	-11.3162
▁shrieks	-11.3162
▁region	-11.3162
▁farther	-11.3163
▁handcuffs	-11.3163
▁dispens	-11.3163
▁herbs	-11.3163
▁bitterly	-11.3163
▁trout	-11.3163
▁studies	-11.3164
▁honorable	-11.3164
▁miller	-11.3164
▁horseback	-11.3164
▁cloak	-11.3165
▁hopin	-11.3165
▁scull	-11.3166
▁huntin	-11.3166
▁determined	-11.3167
▁hirom	-11.3168
▁lef	-11.3169
▁phd	-11.3169
▁warnin	-11.3169
▁foreigners	-11.317
▁anon	-11.317
▁antarctic	-11.317
▁crafty	-11.317
▁soloed	-11.3171
▁lamb	-11.3171
▁muck	-11.3171
▁lmeratazam	-11.3172
▁hopelessly	-11.3173
▁construction	-11.3173
▁raft	-11.3174
saynwittgenstein	-11.3174
▁despised	-11.3174
▁moral	-11.3175
▁wond	-11.3175
▁emery	-11.3175
▁hauled	-11.3176
▁infra	-11.3176
ador	-11.3177
▁runnin	-11.3178
▁footprint	-11.3178
▁contractor	-11.3178
▁bloke	-11.3179
ierce	-11.3179
secute	-11.3179
▁sober	-11.3179
▁bushes	-11.318
▁attire	-11.318
▁sweetie	-11.318
▁sensitive	-11.3181
▁amazed	-11.3181
▁urged	-11.3181
▁faintly	-11.3181
▁indo	-11.3182
▁plot	-11.3182
▁dumped	-11.3183
▁idol	-11.3183
▁spies	-11.3185
yearold	-11.3185
▁focus	-11.3186
▁shin	-11.3186
▁chose	-11.3187
▁distressed	-11.3188
▁silently	-11.3189
▁crawling	-11.3189
▁harvesting	-11.319
▁weeping	-11.319
▁literally	-11.319
▁exceptions	-11.3191
▁mild	-11.3192
▁distract	-11.3192
▁baking	-11.3193
▁capt	-11.3194
▁marie	-11.3194
▁formal	-11.3194
▁bawd	-11.3195
▁wealthy	-11.3196
▁perfection	-11.3197
▁perjur	-11.3197
▁discovery	-11.3197
▁slid	-11.3197
▁tense	-11.3197
▁hicks	-11.3198
▁rack	-11.32
▁skills	-11.3202
▁assemble	-11.3203
▁refreshing	-11.3204
▁wooow	-11.3204
▁poem	-11.3204
▁takeoff	-11.3206
▁foundation	-11.3206
▁strat	-11.3206
▁rehearsing	-11.3207
▁shootin	-11.3207
▁burps	-11.3207
▁reminder	-11.3208
▁factor	-11.3209
▁joking	-11.3209
▁frey	-11.3209
▁zuma	-11.321
▁cruise	-11.3211
▁industri	-11.3211
▁billie	-11.3212
▁propellers	-11.3212
▁crank	-11.3212
▁greetings	-11.3212
▁bakery	-11.3214
▁suspense	-11.3214
▁risky	-11.3214
▁commandos	-11.3214
▁grasp	-11.3215
▁borrowed	-11.3215
▁punched	-11.3216
▁attempted	-11.3216
▁heel	-11.3216
▁francs	-11.3216
▁eddie	-11.3216
▁zag	-11.3216
▁worm	-11.3216
▁chewing	-11.3217
▁fog	-11.3219
▁examin	-11.322
ks	-11.322
▁screen	-11.3221
▁gulls	-11.3222
▁moat	-11.3223
ui	-11.3223
▁morales	-11.3223
sufficient	-11.3225
▁pleasantly	-11.323
▁abuse	-11.323
▁knob	-11.3231
▁brag	-11.3234
▁approached	-11.3236
▁spoon	-11.3238
iv	-11.3238
▁arrested	-11.3239
▁brigad	-11.3239
▁crooked	-11.324
▁resigning	-11.3241
▁ani	-11.3241
▁wuh	-11.3244
▁frown	-11.3244
▁blowin	-11.3245
▁woooow	-11.3245
▁stammer	-11.3245
▁rash	-11.3247
▁gorge	-11.3247
▁mules	-11.3248
▁veter	-11.325
▁troup	-11.325
▁halt	-11.3252
▁hothead	-11.3254
▁trend	-11.3255
▁aff	-11.3258
▁prospects	-11.3259
▁eider	-11.3259
▁cubs	-11.3259
▁betraying	-11.3259
▁insisted	-11.326
▁rumbles	-11.3261
▁hei	-11.3263
▁chambers	-11.3263
▁mammals	-11.3264
▁results	-11.3264
▁particles	-11.3264
▁forfeits	-11.3265
▁grownups	-11.3265
▁arrangements	-11.3265
▁defeated	-11.3265
▁blocked	-11.3265
▁louder	-11.3266
▁managers	-11.3271
▁shield	-11.3272
▁weeee	-11.3272
▁avoided	-11.3273
octo	-11.3273
▁kite	-11.3278
berries	-11.3279
▁possibilit	-11.3279
▁ox	-11.3284
▁imply	-11.3284
▁clay	-11.3284
▁typesett	-11.3288
▁southeast	-11.3288
▁foolin	-11.329
▁melting	-11.3291
▁coke	-11.3292
▁lighten	-11.3292
▁acres	-11.3292
▁talented	-11.3296
tically	-11.3298
▁flames	-11.3299
egal	-11.3299
▁shooter	-11.33
▁reminded	-11.3302
▁conc	-11.3305
▁provides	-11.3307
▁sneezes	-11.3308
etting	-11.3308
▁rice	-11.3308
▁rattles	-11.3311
▁tata	-11.3313
▁barrels	-11.3314
cul	-11.3314
▁springer	-11.3315
▁blades	-11.3315
▁donkeys	-11.3315
▁drinkin	-11.3317
▁recruits	-11.3318
▁criminals	-11.3318
▁dinosaurs	-11.3318
▁boredom	-11.3319
▁pounding	-11.332
▁germany	-11.332
▁hisse	-11.3323
▁customers	-11.3323
▁hash	-11.3326
▁naked	-11.3327
oble	-11.3328
titude	-11.3333
▁sleepin	-11.3337
▁stronger	-11.3338
ompbomp	-11.334
▁conform	-11.3341
▁roam	-11.3342
▁fester	-11.3343
▁nor	-11.3344
▁snarl	-11.3346
▁dim	-11.3348
southeast	-11.335
▁eminen	-11.3351
▁owl	-11.3352
▁eu	-11.3353
▁honesty	-11.3359
▁coil	-11.3361
▁disappeared	-11.3362
▁shhh	-11.3362
▁mistaken	-11.3363
▁tele	-11.3364
▁measures	-11.3365
▁riot	-11.3365
▁eco	-11.3369
▁meantime	-11.337
▁newspapers	-11.3371
▁blamed	-11.3373
▁mead	-11.3373
▁messed	-11.3374
▁slides	-11.3376
tua	-11.3377
▁doves	-11.3378
▁continued	-11.3382
▁tricky	-11.3383
▁wilder	-11.3383
rew	-11.3384
▁champions	-11.3386
▁dammi	-11.3388
ters	-11.3392
enchanted	-11.3393
▁lode	-11.3394
▁vasca	-11.3395
surance	-11.3396
▁dwell	-11.3399
▁exceptional	-11.3403
▁disinterest	-11.3403
▁whin	-11.3405
▁passes	-11.3407
▁declares	-11.3409
▁hmmm	-11.3411
ault	-11.3413
synchro	-11.3416
▁beliefs	-11.3417
po	-11.3417
▁awaken	-11.3419
▁makeup	-11.3421
▁raines	-11.3421
rooney	-11.3421
▁assistants	-11.3423
mal	-11.3424
▁instructions	-11.3424
daisy	-11.3425
▁photographs	-11.3427
fusion	-11.3428
▁fighter	-11.3431
hol	-11.3432
▁glasses	-11.3432
▁defenses	-11.3434
▁dismiss	-11.3438
oc	-11.3439
▁uncover	-11.3439
tou	-11.344
▁flows	-11.3443
▁standin	-11.3448
▁swi	-11.345
hines	-11.345
ium	-11.3455
▁handled	-11.3456
aye	-11.3457
▁payment	-11.3457
agging	-11.3461
▁bothered	-11.3463
▁finishing	-11.3465
▁rapid	-11.3465
oxy	-11.3469
▁aliens	-11.3471
▁unsu	-11.3471
▁fled	-11.3473
▁viper	-11.3474
▁oblige	-11.3478
▁blacksmiths	-11.3478
▁characters	-11.3478
ez	-11.348
ahara	-11.348
▁scots	-11.3482
ep	-11.3484
▁lumps	-11.3485
▁shit	-11.3488
▁shorter	-11.3489
▁inning	-11.349
▁che	-11.3492
▁fairly	-11.3493
▁produce	-11.3497
▁seaman	-11.35
▁bumps	-11.35
▁snapp	-11.3501
▁sticky	-11.3505
▁gua	-11.3505
▁stupidly	-11.3506
▁tours	-11.3515
urgeo	-11.3516
▁scan	-11.3526
▁hips	-11.3526
ended	-11.3527
▁zoo	-11.3528
gara	-11.3534
ury	-11.3538
▁plates	-11.3541
easy	-11.3541
▁or	-11.3549
don	-11.3552
ooby	-11.3558
▁compete	-11.3558
nic	-11.356
▁wooooah	-11.3561
▁backs	-11.3562
▁askin	-11.3562
▁fanci	-11.3563
▁amig	-11.3565
iiii	-11.357
▁leap	-11.3573
ica	-11.358
▁mold	-11.3583
nuck	-11.3584
end	-11.359
weed	-11.3591
rb	-11.3592
▁crystal	-11.3592
▁ji	-11.3596
shi	-11.3597
matsu	-11.3602
▁react	-11.3604
▁sighting	-11.3606
tangled	-11.361
▁dew	-11.3613
▁jud	-11.3615
▁wight	-11.3618
ov	-11.3618
▁kisses	-11.3619
▁masks	-11.3621
▁safer	-11.3624
lubber	-11.363
▁icebergs	-11.3637
▁rank	-11.3642
bled	-11.3655
cast	-11.3656
▁aspect	-11.3658
▁shores	-11.3662
▁holdin	-11.3665
rais	-11.3671
▁bums	-11.3675
▁forming	-11.3675
▁fig	-11.3688
▁nests	-11.3688
▁voyages	-11.369
▁tweed	-11.3692
▁vern	-11.3693
▁tweet	-11.3697
▁your	-11.37
▁flock	-11.3703
per	-11.3705
▁snort	-11.371
▁colon	-11.3712
▁pranc	-11.3713
▁clar	-11.3724
▁beautifully	-11.3735
imer	-11.3737
▁trooper	-11.3738
▁knocking	-11.3738
▁trails	-11.3743
▁stan	-11.3746
▁princessy	-11.3747
▁liking	-11.3752
▁wor	-11.3763
kins	-11.3764
get	-11.3765
imeter	-11.3767
▁culture	-11.3768
▁files	-11.3775
ffel	-11.378
ran	-11.378
▁ruse	-11.3785
ario	-11.3791
▁closes	-11.3795
▁auto	-11.3804
▁pill	-11.3814
▁knights	-11.3816
▁wishes	-11.3817
▁bria	-11.3817
▁rag	-11.3819
▁constant	-11.3826
▁kate	-11.3829
▁talks	-11.3832
▁requit	-11.3832
▁ev	-11.3838
▁tai	-11.3845
▁beam	-11.3846
peak	-11.3858
▁deem	-11.3859
▁trespass	-11.386
▁dro	-11.3861
▁cass	-11.3863
cation	-11.3866
▁crumb	-11.3867
coming	-11.3871
citation	-11.3872
▁mend	-11.3877
▁convent	-11.3896
▁brrrr	-11.3896
▁cain	-11.3901
▁vamp	-11.3906
▁foram	-11.3908
▁marrie	-11.3914
▁buildings	-11.3916
▁exists	-11.392
▁ordering	-11.3926
▁owes	-11.3927
utob	-11.393
▁rhin	-11.3935
▁ropes	-11.3937
▁prey	-11.3937
els	-11.3951
▁prun	-11.3954
▁poke	-11.3958
▁cho	-11.3967
▁returning	-11.3969
▁puke	-11.3974
▁tents	-11.3978
▁tests	-11.3979
aski	-11.3984
▁signor	-11.3988
▁lily	-11.3992
▁slippers	-11.4
▁referr	-11.4002
▁sails	-11.4004
▁jehovahs	-11.4008
▁schooling	-11.4009
▁derb	-11.4018
▁players	-11.4021
▁painful	-11.4021
▁twinkl	-11.4024
jacket	-11.4027
▁stones	-11.4037
▁oppose	-11.4043
▁nem	-11.4048
▁pains	-11.4049
▁fright	-11.405
▁epi	-11.4053
▁keepin	-11.4054
▁targets	-11.4063
aw	-11.407
eached	-11.4071
▁bulldo	-11.4071
ymore	-11.4082
wield	-11.4086
aught	-11.4094
▁pla	-11.4103
wee	-11.4109
rich	-11.4126
▁youse	-11.4134
sible	-11.4135
▁portion	-11.4135
▁confine	-11.4137
execute	-11.4139
ines	-11.4146
▁skins	-11.4148
uttering	-11.4151
▁trimm	-11.4154
stitut	-11.4157
▁blong	-11.4158
▁fooling	-11.4159
▁rim	-11.416
ssen	-11.42
▁spr	-11.4209
ife	-11.4209
▁clink	-11.4219
ank	-11.4219
hyd	-11.4221
▁loathe	-11.4226
▁kinder	-11.4229
▁braw	-11.423
▁seventy	-11.4231
▁ver	-11.4234
aaaa	-11.4238
asis	-11.4239
▁needing	-11.424
▁huff	-11.4241
hour	-11.4262
sighted	-11.4269
kask	-11.4274
▁worker	-11.4277
▁alt	-11.4279
ved	-11.4287
ime	-11.4296
yama	-11.4303
▁replies	-11.4303
▁las	-11.4314
▁riddle	-11.4325
igs	-11.4327
▁sne	-11.433
▁directions	-11.4337
pril	-11.4339
▁horri	-11.4346
▁nee	-11.4368
▁races	-11.4372
▁bees	-11.4378
row	-11.4384
rie	-11.4385
▁keeper	-11.4409
ounds	-11.4413
ud	-11.4417
ba	-11.4418
▁bellas	-11.4429
affe	-11.4446
ug	-11.4451
▁contribute	-11.4464
ested	-11.4477
▁fray	-11.4497
▁tape	-11.4498
nine	-11.4499
▁virtual	-11.4503
▁tel	-11.4505
▁ugli	-11.4534
▁danced	-11.4546
▁tore	-11.4557
ha	-11.4588
izzy	-11.4589
▁ce	-11.459
▁sayin	-11.4591
▁admir	-11.46
▁respects	-11.4601
▁dab	-11.461
renal	-11.463
▁wi	-11.4631
ates	-11.4634
▁weep	-11.4658
▁lug	-11.466
ushi	-11.4662
▁pipes	-11.4662
▁phones	-11.4666
eneva	-11.4666
▁divin	-11.4671
ched	-11.4672
ept	-11.4687
sel	-11.4689
ock	-11.4706
▁dun	-11.4722
era	-11.4727
▁tickl	-11.4746
▁chiefs	-11.4758
ory	-11.4761
apa	-11.4784
▁gull	-11.4784
ya	-11.4791
▁rous	-11.4814
▁ste	-11.4822
▁vl	-11.4826
ered	-11.4827
chik	-11.4829
▁toe	-11.4834
meter	-11.4835
▁unde	-11.4836
sty	-11.4844
ight	-11.4844
ratic	-11.4849
rn	-11.4862
▁sticker	-11.4865
mes	-11.4869
▁tac	-11.487
ugged	-11.4873
▁begg	-11.4881
▁les	-11.4887
▁misses	-11.4898
pic	-11.4903
wer	-11.491
▁dah	-11.491
▁sur	-11.4919
▁luce	-11.4929
▁iii	-11.493
▁maps	-11.4934
locked	-11.4939
stray	-11.495
▁bras	-11.4951
▁drivin	-11.4959
fal	-11.4964
▁visi	-11.4974
sap	-11.4975
▁ade	-11.4976
pt	-11.4982
▁differences	-11.4982
▁carlo	-11.4986
▁dece	-11.4995
ven	-11.4997
taka	-11.5
▁tun	-11.5006
▁springs	-11.5008
pping	-11.5013
▁decod	-11.5016
lar	-11.5019
▁recit	-11.5026
nous	-11.5028
iers	-11.5032
▁claw	-11.5048
▁ret	-11.5051
▁dub	-11.5059
sm	-11.506
ys	-11.5074
▁borne	-11.5089
incomp	-11.5096
▁carve	-11.5101
▁climber	-11.5107
ception	-11.5111
▁salts	-11.5116
ls	-11.5117
settling	-11.5137
▁dumplin	-11.514
hyster	-11.514
cious	-11.5147
▁div	-11.5164
▁appreciati	-11.5165
ially	-11.5178
▁trop	-11.5181
▁cockadoodledo	-11.5185
mer	-11.5206
▁texa	-11.5207
▁laws	-11.5215
▁bets	-11.5218
cycle	-11.522
▁kis	-11.5222
oooow	-11.5224
ternity	-11.5235
▁ward	-11.5243
▁outs	-11.5257
▁whites	-11.526
▁spa	-11.5272
oes	-11.5275
▁minded	-11.5302
fa	-11.5303
▁dares	-11.5308
lyn	-11.5311
▁expan	-11.5317
▁minu	-11.5327
ol	-11.5344
▁dropp	-11.5358
ins	-11.5368
uddle	-11.5378
▁surprises	-11.5395
nded	-11.5399
actual	-11.54
ware	-11.5406
▁stri	-11.5407
aid	-11.5407
▁liver	-11.5413
▁escala	-11.5414
asso	-11.542
alian	-11.5424
lve	-11.5426
▁fascinate	-11.5428
inches	-11.5428
▁vel	-11.5446
▁desires	-11.5448
ish	-11.5463
▁roads	-11.5471
tribution	-11.5489
tul	-11.5495
▁oi	-11.5537
▁pope	-11.554
▁sparkle	-11.5551
ms	-11.5556
ct	-11.556
six	-11.5566
ember	-11.557
tian	-11.5574
▁rep	-11.5575
▁foots	-11.558
ince	-11.5585
▁hon	-11.5601
▁cand	-11.5604
▁capab	-11.5611
▁ww	-11.5614
▁poster	-11.5617
correctly	-11.5618
lifting	-11.5618
▁sparkl	-11.5625
▁swo	-11.5645
▁ze	-11.5646
raging	-11.565
ybody	-11.5688
set	-11.5709
ld	-11.5709
▁ser	-11.5716
▁infect	-11.572
▁stro	-11.5722
tin	-11.5734
▁overtur	-11.5749
ht	-11.5752
▁haaa	-11.5756
ology	-11.5767
▁pardons	-11.5771
spiration	-11.5774
▁bubububu	-11.579
▁refine	-11.5791
▁primar	-11.58
poster	-11.5812
▁exhibit	-11.5815
▁acts	-11.5816
ash	-11.582
▁cod	-11.5821
rita	-11.5823
▁som	-11.5828
pped	-11.5845
iously	-11.5868
inned	-11.5872
bbed	-11.5877
ami	-11.5886
yer	-11.5892
▁demonstrat	-11.5896
▁z	-11.5905
▁accus	-11.5909
obby	-11.5919
ston	-11.5925
▁ax	-11.5941
anc	-11.5946
▁il	-11.5949
▁sm	-11.5959
ited	-11.5959
ome	-11.5988
itty	-11.5989
▁considerat	-11.5991
▁sos	-11.6013
▁now	-11.6023
▁commo	-11.604
gen	-11.6049
tory	-11.6052
▁vow	-11.6066
tio	-11.6081
ound	-11.6097
lovers	-11.61
ude	-11.6108
▁understands	-11.6114
▁stor	-11.6147
ouch	-11.6164
▁shells	-11.6165
ooooo	-11.6197
▁wah	-11.6201
▁alli	-11.6203
ologist	-11.6208
oooooo	-11.6214
▁allie	-11.6214
▁cue	-11.6215
▁raisin	-11.6233
▁scur	-11.6243
▁offe	-11.6243
stle	-11.6266
nel	-11.6285
▁tan	-11.6294
▁explod	-11.6302
▁grr	-11.6309
▁inspire	-11.6317
hail	-11.6318
▁spe	-11.6319
▁mona	-11.632
look	-11.6349
oul	-11.6349
malay	-11.6352
▁measur	-11.6362
▁cor	-11.637
tches	-11.6372
▁clo	-11.6373
▁cur	-11.638
▁balls	-11.6383
ntact	-11.6384
eddy	-11.6386
▁flu	-11.6389
ists	-11.6395
uri	-11.6395
eaves	-11.6404
hang	-11.6405
▁gla	-11.6406
▁microp	-11.6412
▁colonels	-11.6428
su	-11.6441
▁include	-11.6456
▁lau	-11.646
▁dominan	-11.6467
onta	-11.647
bble	-11.6474
are	-11.6482
▁perch	-11.6499
▁lun	-11.6501
lux	-11.6545
sts	-11.6554
usu	-11.6561
lets	-11.6566
▁pil	-11.658
imulate	-11.6585
▁bush	-11.6592
▁cro	-11.6597
zz	-11.6601
snt	-11.6618
▁cra	-11.6621
pe	-11.6629
▁sl	-11.6635
iches	-11.6636
▁fol	-11.664
▁ties	-11.6641
will	-11.6648
ural	-11.6663
▁depress	-11.6673
ified	-11.6734
▁bac	-11.6738
der	-11.6759
▁itch	-11.676
con	-11.6762
rdon	-11.6773
▁viv	-11.6783
hit	-11.6785
rightfully	-11.6792
huh	-11.6804
mbe	-11.6811
ong	-11.6819
▁assum	-11.6825
die	-11.6831
ale	-11.6834
▁pumpin	-11.6838
iary	-11.6843
fire	-11.6846
dl	-11.6857
eating	-11.6868
enna	-11.6882
▁gem	-11.6884
▁desir	-11.6887
▁surviv	-11.6901
▁scot	-11.6902
▁www	-11.6903
oth	-11.6912
▁provid	-11.6916
lch	-11.6917
controll	-11.6919
mmine	-11.6936
eans	-11.6939
test	-11.6944
ip	-11.6959
▁ind	-11.6979
anna	-11.698
▁railroad	-11.6985
ging	-11.7004
feit	-11.7033
▁oblig	-11.7035
lum	-11.705
tell	-11.705
▁aide	-11.7051
▁nin	-11.7071
rel	-11.7073
▁thi	-11.7121
▁tighten	-11.7125
▁premier	-11.7137
oooo	-11.7138
▁cav	-11.7145
uc	-11.7146
▁ko	-11.7173
▁overt	-11.7175
ru	-11.7193
two	-11.7195
▁hoot	-11.7206
▁kek	-11.7208
chev	-11.7216
▁cond	-11.7226
▁gand	-11.7229
▁digit	-11.723
▁typ	-11.724
pot	-11.7241
▁riddl	-11.7243
ker	-11.7249
ral	-11.7253
▁mal	-11.7254
▁wicke	-11.726
▁mut	-11.7267
table	-11.7273
▁mea	-11.7281
▁cran	-11.7294
▁paste	-11.7301
asco	-11.7303
▁fla	-11.7309
ethe	-11.7319
ading	-11.7323
anything	-11.7332
▁marg	-11.7335
maze	-11.7344
▁site	-11.7346
▁span	-11.7347
▁tripl	-11.7351
call	-11.7352
▁rott	-11.7355
rt	-11.7389
tation	-11.7392
lie	-11.7393
ope	-11.7398
▁dumm	-11.7398
life	-11.7403
▁arti	-11.7403
▁produc	-11.7411
▁vari	-11.7424
ft	-11.7427
three	-11.7441
urns	-11.7449
ckers	-11.7452
▁killer	-11.7471
▁moms	-11.7484
phoni	-11.7484
▁sleeps	-11.7487
gging	-11.7502
▁tink	-11.7509
keeper	-11.752
ticking	-11.752
▁earl	-11.7531
▁mc	-11.7554
heart	-11.7564
▁quar	-11.7584
▁salam	-11.7598
uffy	-11.7615
▁scratchin	-11.763
▁bas	-11.7634
▁nit	-11.7635
erefore	-11.7659
ata	-11.7661
open	-11.7676
▁grip	-11.7681
ucer	-11.7688
▁sni	-11.7691
tiful	-11.7697
chunk	-11.77
ute	-11.7702
▁refer	-11.7704
mile	-11.7706
draft	-11.771
meters	-11.7715
chrome	-11.7718
▁philosoph	-11.772
west	-11.7725
▁sti	-11.7727
▁revol	-11.7728
kind	-11.7728
nfection	-11.7737
horse	-11.7738
lene	-11.7738
pad	-11.774
plane	-11.774
spects	-11.7742
asa	-11.7755
hall	-11.7755
▁simpl	-11.7761
hoohoohoo	-11.7765
uma	-11.7765
▁stirr	-11.777
ima	-11.7771
▁persua	-11.7775
nia	-11.7776
▁simp	-11.7779
ptions	-11.7781
foot	-11.7794
coat	-11.7808
▁curr	-11.7812
upper	-11.7817
worth	-11.7819
▁bee	-11.7819
damn	-11.7822
oooooh	-11.7827
▁straighten	-11.7833
bridge	-11.7833
aded	-11.7833
▁wewe	-11.7835
los	-11.7836
uga	-11.7839
journey	-11.7841
ular	-11.7841
rope	-11.7841
lili	-11.7842
book	-11.7844
for	-11.7846
four	-11.7847
making	-11.7848
ggler	-11.7852
historic	-11.7858
gel	-11.7858
predictable	-11.7861
ars	-11.7863
▁of	-11.7863
moor	-11.7866
shaft	-11.7866
killer	-11.7867
kes	-11.7868
american	-11.7871
lling	-11.7876
▁slope	-11.7884
burn	-11.7889
bob	-11.7889
oatskin	-11.789
bag	-11.7891
natural	-11.7891
glasses	-11.7894
due	-11.7896
strip	-11.7897
tooth	-11.7897
▁bi	-11.7898
necessary	-11.7899
noticed	-11.79
▁squa	-11.7901
satisfied	-11.7902
penny	-11.7903
strong	-11.7908
folk	-11.7909
albert	-11.7911
akin	-11.7911
pants	-11.7912
yyyy	-11.7913
justice	-11.7913
lovin	-11.7913
lights	-11.7914
range	-11.7916
▁grunt	-11.7917
significan	-11.7918
connected	-11.792
cage	-11.792
hes	-11.7921
front	-11.7926
china	-11.7929
horn	-11.7931
wide	-11.7931
friendly	-11.7932
▁deci	-11.7934
lick	-11.7936
storm	-11.7936
▁whisper	-11.7937
ohhoh	-11.7939
▁exclaim	-11.7939
▁maneuver	-11.7939
estimate	-11.7939
lust	-11.7943
▁bunk	-11.7945
▁chu	-11.7945
shake	-11.7947
path	-11.795
▁prop	-11.795
owners	-11.7954
rufus	-11.7961
▁fights	-11.7961
▁ref	-11.7964
rung	-11.7965
throats	-11.7966
▁clap	-11.7966
charge	-11.7967
holder	-11.7967
inversi	-11.7972
working	-11.7976
inted	-11.7977
▁demon	-11.7979
▁adult	-11.7984
trip	-11.7985
screen	-11.7985
▁biscuit	-11.7985
▁pilgrim	-11.7985
▁affair	-11.7986
▁doorstep	-11.7987
▁sprout	-11.7987
▁relation	-11.7988
▁resume	-11.7988
▁explore	-11.7989
▁escap	-11.7993
▁crate	-11.7994
▁propeller	-11.7998
assemble	-11.7999
▁marble	-11.8003
▁document	-11.8003
level	-11.8008
▁stu	-11.8008
▁neutrino	-11.8008
▁flint	-11.8008
▁helamite	-11.8011
nize	-11.8011
defeated	-11.8011
▁comrade	-11.8012
▁shilling	-11.8013
▁profess	-11.8014
wash	-11.8015
▁stamp	-11.8016
▁package	-11.8017
mans	-11.802
▁battleship	-11.8021
minded	-11.8023
▁complet	-11.8025
smile	-11.8026
▁jacque	-11.8027
▁burp	-11.8029
living	-11.8031
ways	-11.8031
▁yawn	-11.8033
▁runner	-11.8034
entry	-11.8035
▁lone	-11.8038
oney	-11.8038
▁ambitio	-11.8038
ushing	-11.8039
icho	-11.804
plus	-11.8041
vested	-11.805
▁statu	-11.8056
▁surround	-11.8057
▁agent	-11.8057
▁product	-11.8058
cow	-11.806
▁petition	-11.8064
▁morale	-11.8065
▁voic	-11.8066
▁skill	-11.8066
▁ultimat	-11.8068
▁scout	-11.8068
olly	-11.807
▁spu	-11.8071
ature	-11.8074
▁clearance	-11.8075
ail	-11.8076
▁bragg	-11.8079
▁chris	-11.808
▁entertain	-11.8082
▁recogni	-11.8084
▁decipher	-11.8085
▁ahhhhh	-11.8088
▁cruis	-11.8089
▁hammer	-11.8092
boys	-11.8094
▁eas	-11.8096
▁register	-11.8099
▁gallop	-11.8099
▁serv	-11.81
▁appoint	-11.8102
▁confirm	-11.8103
▁exhaust	-11.8103
▁neglect	-11.8103
▁involve	-11.8103
▁establish	-11.8104
sticks	-11.8104
▁acquire	-11.8105
kids	-11.8106
▁jer	-11.8106
woods	-11.8107
▁magnificen	-11.8107
emia	-11.8107
izza	-11.8107
▁teenage	-11.8109
▁victor	-11.8109
▁expos	-11.8112
▁villa	-11.8112
▁responsibilit	-11.8112
▁austria	-11.8112
▁graduate	-11.8113
obab	-11.8113
▁filth	-11.8114
▁suns	-11.8115
inlaw	-11.8115
▁greeting	-11.8115
aahhh	-11.8117
▁centur	-11.8117
▁proportion	-11.8117
ford	-11.8118
▁undoubted	-11.8118
▁precise	-11.8119
▁apparent	-11.8119
▁exact	-11.8122
▁convert	-11.8122
ingly	-11.8123
▁acomin	-11.8123
▁corp	-11.8124
cessor	-11.8125
▁crimin	-11.8125
ormula	-11.8125
▁festiv	-11.8125
▁navigat	-11.8126
runk	-11.8126
▁applau	-11.8128
▁extraordina	-11.8128
imerakazam	-11.8128
▁investigat	-11.8128
▁elevat	-11.8128
▁arrogan	-11.8128
▁inspect	-11.8128
azamapajama	-11.8129
dolph	-11.8129
▁cruci	-11.8129
▁heeya	-11.8129
▁tuck	-11.8129
istics	-11.813
sequence	-11.813
▁virgin	-11.813
▁phrase	-11.813
osphere	-11.813
ficial	-11.813
pajapajapshazama	-11.813
▁accelerati	-11.813
▁aggravati	-11.813
▁fivequebecsie	-11.813
▁journal	-11.813
▁meshug	-11.813
▁schwarz	-11.813
comprehen	-11.813
newfoundlander	-11.813
▁abolish	-11.813
▁aboveaverage	-11.813
▁adjourned	-11.813
▁akagi	-11.813
▁ambula	-11.813
▁apologizing	-11.813
▁approximate	-11.813
▁archeologist	-11.813
▁astaroth	-11.813
▁atmospherics	-11.813
▁authentic	-11.813
▁avenue	-11.813
▁aviator	-11.813
▁azaleas	-11.813
▁banjo	-11.813
▁barbershop	-11.813
▁battlewagons	-11.813
▁benevolence	-11.813
▁benevolent	-11.813
▁benvolio	-11.813
▁birdzilla	-11.813
▁bristol	-11.813
▁brunette	-11.813
▁bullfrog	-11.813
▁certificate	-11.813
▁challenging	-11.813
▁cheetah	-11.813
▁chimpanzee	-11.813
▁cirque	-11.813
▁claustrophobi	-11.813
▁cockroach	-11.813
▁complication	-11.813
▁concierge	-11.813
▁conflict	-11.813
▁conquest	-11.813
▁corresponden	-11.813
▁courtmartial	-11.813
▁cultivat	-11.813
▁dagoult	-11.813
▁debris	-11.813
▁delgado	-11.813
▁delsarte	-11.813
▁dictate	-11.813
▁dimitri	-11.813
▁diploma	-11.813
▁domyoji	-11.813
▁dwarf	-11.813
▁enchilada	-11.813
▁enraptured	-11.813
▁errands	-11.813
▁ethnology	-11.813
▁eureka	-11.813
▁faretheewell	-11.813
▁flimflam	-11.813
▁frazzle	-11.813
▁furniture	-11.813
▁furthermore	-11.813
▁gasoline	-11.813
▁gibberish	-11.813
▁gleamed	-11.813
▁glendarach	-11.813
▁gracie	-11.813
▁grizzly	-11.813
▁gymnasium	-11.813
▁harunaga	-11.813
▁headmistress	-11.813
▁idolatry	-11.813
▁immaterial	-11.813
▁impertinen	-11.813
▁impresario	-11.813
▁individuals	-11.813
▁indubitably	-11.813
▁inevitable	-11.813
▁initiate	-11.813
▁inquire	-11.813
▁inquiries	-11.813
▁intermittent	-11.813
▁interpol	-11.813
▁intervention	-11.813
▁istanbul	-11.813
▁jeopardiz	-11.813
▁jettison	-11.813
▁juarista	-11.813
▁kaminsky	-11.813
▁kentner	-11.813
▁kentucky	-11.813
▁ladiesinwaiting	-11.813
▁lasagna	-11.813
▁lecture	-11.813
▁legitimate	-11.813
▁lllinois	-11.813
▁locomotive	-11.813
▁luftwaffe	-11.813
▁lumberyard	-11.813
▁manifestation	-11.813
▁marquis	-11.813
▁massawomecks	-11.813
▁mcbane	-11.813
▁mclntosh	-11.813
▁mebbe	-11.813
▁mercenaries	-11.813
▁mexican	-11.813
▁mislaid	-11.813
▁mistreated	-11.813
▁mitgang	-11.813
▁monolith	-11.813
▁mortgage	-11.813
▁neighbour	-11.813
▁newsflash	-11.813
▁novelty	-11.813
▁obliterate	-11.813
▁occurrence	-11.813
▁orangutan	-11.813
▁organization	-11.813
▁ostrovsky	-11.813
▁outmaneuver	-11.813
▁overflow	-11.813
▁pantaloni	-11.813
▁parachutist	-11.813
▁pencil	-11.813
▁permanency	-11.813
▁petunia	-11.813
▁phenomenon	-11.813
▁philadelphia	-11.813
▁portugal	-11.813
▁potiniere	-11.813
▁prefect	-11.813
▁premium	-11.813
▁pseudopod	-11.813
▁quadruped	-11.813
▁rajah	-11.813
▁recipe	-11.813
▁religious	-11.813
▁reluctant	-11.813
▁reuben	-11.813
▁revitalize	-11.813
▁ripples	-11.813
▁rokuro	-11.813
▁samaritan	-11.813
▁sauerkraut	-11.813
▁sevenleague	-11.813
▁shapiro	-11.813
▁skirmish	-11.813
▁sosuke	-11.813
▁speculation	-11.813
▁spontaneous	-11.813
▁sprinkles	-11.813
▁stagecoach	-11.813
▁stowaways	-11.813
▁stylish	-11.813
▁sulpitius	-11.813
▁superintendent	-11.813
▁superstition	-11.813
▁suspicious	-11.813
▁switzerland	-11.813
▁syndicate	-11.813
▁tajima	-11.813
▁television	-11.813
▁tenshun	-11.813
▁thisthis	-11.813
▁thunderclap	-11.813
▁torpex	-11.813
▁tortoise	-11.813
▁turbine	-11.813
▁turmoil	-11.813
▁twiddlydee	-11.813
▁vicinity	-11.813
▁violation	-11.813
▁vixen	-11.813
▁voulezvous	-11.813
▁walkietalkie	-11.813
▁wardrobe	-11.813
▁watanabe	-11.813
▁wexmire	-11.813
▁wheelchair	-11.813
▁willerstein	-11.813
▁aerodynamic	-11.813
▁amelia	-11.813
onetwentyfour	-11.813
▁agricultur	-11.813
▁apprehen	-11.813
▁arrrgh	-11.813
▁beseech	-11.813
▁bishop	-11.813
▁dillydally	-11.813
▁disobey	-11.813
▁emerald	-11.813
▁ensnare	-11.813
▁formidable	-11.813
▁generosity	-11.813
▁intensif	-11.813
▁myselt	-11.813
▁necessit	-11.813
▁ornament	-11.813
▁overwhelm	-11.813
▁phantasmagori	-11.813
▁poverty	-11.813
▁pterodid	-11.813
▁pygm	-11.813
▁redfern	-11.813
▁rojas	-11.813
▁shipwreck	-11.813
▁stimson	-11.813
▁temperament	-11.813
▁tennessee	-11.813
▁terminal	-11.813
▁unfasten	-11.813
▁volcanologists	-11.813
▁communicating	-11.813
▁composing	-11.813
▁conspiracy	-11.813
▁democra	-11.813
▁detached	-11.813
▁dubois	-11.813
▁evolve	-11.813
▁excitable	-11.813
▁moisture	-11.813
▁platform	-11.813
▁prevent	-11.813
▁redmanor	-11.813
▁routine	-11.813
▁taranto	-11.813
▁turnpike	-11.813
▁winchester	-11.813
cometumble	-11.813
recracker	-11.813
▁arduous	-11.813
▁condemn	-11.813
▁oblivio	-11.813
▁waaaoooo	-11.813
laborat	-11.813
▁gourmet	-11.813
▁adulterous	-11.813
▁domain	-11.813
▁educate	-11.813
▁erique	-11.813
▁impartial	-11.813
▁massacre	-11.813
▁mortimer	-11.813
▁reckless	-11.813
▁stymie	-11.813
▁thorough	-11.813
▁unicorn	-11.813
▁verify	-11.813
▁alibi	-11.813
▁billboards	-11.813
▁fluids	-11.813
▁gurgl	-11.813
▁lunatic	-11.813
▁reconnect	-11.813
▁splendor	-11.813
▁beckon	-11.813
▁fabricati	-11.813
▁hereabouts	-11.813
▁preacher	-11.813
▁quelea	-11.813
▁column	-11.813
▁psychological	-11.813
▁joseph	-11.813
▁appalling	-11.813
▁consists	-11.813
▁magnitude	-11.813
▁peacock	-11.813
▁dehydrat	-11.813
▁puppeteer	-11.813
▁violin	-11.813
▁chloe	-11.813
▁cocoon	-11.813
▁computer	-11.813
▁integr	-11.813
▁kramer	-11.813
▁phraseology	-11.813
▁lickety	-11.813
▁missouri	-11.813
▁renaud	-11.813
▁tendril	-11.813
▁valentin	-11.813
▁vassal	-11.813
▁viceroy	-11.813
▁caramel	-11.813
▁millionaire	-11.813
▁sanitation	-11.813
▁agility	-11.813
▁chimney	-11.813
▁haydn	-11.813
▁helium	-11.813
▁excess	-11.813
▁rustling	-11.813
▁straddle	-11.813
▁thicklipped	-11.813
▁cloister	-11.813
▁impostor	-11.813
▁sleighbell	-11.813
▁garrison	-11.813
▁blindfold	-11.813
▁chinese	-11.813
▁compensat	-11.813
▁snowmobile	-11.813
▁sunburned	-11.813
ranium	-11.813
▁zackly	-11.813
▁gauge	-11.813
▁quality	-11.813
▁reseda	-11.813
▁sprawl	-11.813
iculous	-11.813
▁lisnin	-11.813
▁clyde	-11.813
▁santiano	-11.813
▁tyler	-11.813
▁slobs	-11.813
▁berlin	-11.813
▁guppy	-11.813
▁vapor	-11.813
▁stunned	-11.813
▁iota	-11.813
▁mymy	-11.813
▁wrist	-11.813
▁alternat	-11.813
▁jacey	-11.813
▁scholar	-11.813
▁bangalore	-11.813
▁gyup	-11.813
▁famished	-11.813
▁tyranny	-11.813
▁oldtimer	-11.813
▁downwind	-11.813
▁procure	-11.813
▁ronan	-11.813
▁sheesh	-11.813
▁burnford	-11.813
▁junction	-11.813
▁victoria	-11.813
▁backbone	-11.813
▁grafter	-11.813
▁halloa	-11.813
▁doubledeal	-11.813
▁nobility	-11.813
▁midday	-11.813
▁nakoma	-11.813
acular	-11.813
▁loneliness	-11.813
▁occurred	-11.813
▁uberta	-11.813
▁bosom	-11.813
▁flatboat	-11.813
▁honeymoon	-11.813
▁hyper	-11.813
▁monument	-11.813
▁purchasing	-11.813
▁washburn	-11.813
▁jasper	-11.813
▁plastic	-11.813
▁compadre	-11.8131
▁vicious	-11.8131
▁nursin	-11.8131
▁isolation	-11.8131
▁supervis	-11.8131
▁disoriented	-11.8131
▁amputat	-11.8131
▁analyze	-11.8131
▁district	-11.8131
▁insolen	-11.8131
▁molting	-11.8131
▁prizewinn	-11.8131
▁prompt	-11.8131
▁encampment	-11.8131
▁independence	-11.8131
▁unstable	-11.8131
▁coronation	-11.8131
▁significance	-11.8131
▁belker	-11.8131
▁expire	-11.8131
▁toybox	-11.8131
▁upsidedown	-11.8131
▁cynic	-11.8131
▁inflate	-11.8131
▁gallows	-11.8131
▁superstar	-11.8131
▁circulation	-11.8131
▁biplanes	-11.8131
▁complicated	-11.8131
▁drugs	-11.8131
▁whereabouts	-11.8131
▁network	-11.8131
▁offcourse	-11.8131
▁prosperity	-11.8131
▁dunno	-11.8131
▁outgrow	-11.8131
▁proposition	-11.8131
▁vir	-11.8131
wawawaw	-11.8131
▁continuum	-11.8131
▁upward	-11.8131
▁daisies	-11.8131
▁majesties	-11.8131
▁midway	-11.8131
▁rabid	-11.8131
▁curls	-11.8131
▁revolutionize	-11.8131
▁summerjob	-11.8131
▁fragment	-11.8131
▁glug	-11.8131
▁nuthin	-11.8131
▁zealand	-11.8131
▁galax	-11.8131
▁grudge	-11.8131
▁supernatural	-11.8131
▁paulette	-11.8131
opher	-11.8131
▁eyeballs	-11.8131
▁romania	-11.8131
valent	-11.8131
▁candlestick	-11.8131
▁schul	-11.8131
▁bodyguard	-11.8131
▁intent	-11.8131
▁shrink	-11.8131
▁birt	-11.8131
▁snook	-11.8131
▁husky	-11.8131
▁steeples	-11.8131
▁random	-11.8131
▁entertainment	-11.8131
▁nutshell	-11.8131
▁thunderstorm	-11.8132
▁sherman	-11.8132
▁pelts	-11.8132
▁variable	-11.8132
▁rampant	-11.8132
▁musket	-11.8132
▁translation	-11.8132
▁mercury	-11.8132
▁elite	-11.8132
▁pollut	-11.8132
▁ritual	-11.8132
▁twentyfour	-11.8132
▁discord	-11.8132
▁ebb	-11.8132
▁brewery	-11.8132
▁grumble	-11.8132
▁blueprints	-11.8132
▁vanilla	-11.8132
▁benji	-11.8132
▁formalities	-11.8132
▁winnie	-11.8132
▁jamison	-11.8132
▁straightforward	-11.8132
▁arrogance	-11.8132
▁refuel	-11.8132
▁terrain	-11.8132
▁reyn	-11.8132
▁kimerakazam	-11.8132
▁percent	-11.8132
▁franz	-11.8132
▁vibrat	-11.8132
▁tansy	-11.8132
▁flume	-11.8132
▁ninetyfive	-11.8132
▁uphold	-11.8132
▁exceed	-11.8132
▁hawkeye	-11.8132
▁brotherinlaw	-11.8132
▁nevada	-11.8132
▁sisterinlaw	-11.8132
▁whwhwh	-11.8132
▁frequen	-11.8132
▁flipfl	-11.8133
▁display	-11.8133
▁hardware	-11.8133
▁asia	-11.8133
▁beggin	-11.8133
▁nantes	-11.8133
▁fourthousand	-11.8133
▁precede	-11.8133
▁offence	-11.8133
▁emerge	-11.8133
▁fizz	-11.8133
▁stripped	-11.8133
▁solemnity	-11.8133
▁triumphant	-11.8133
▁puzzle	-11.8133
▁rabble	-11.8133
lseye	-11.8133
▁inferno	-11.8133
▁hostess	-11.8133
▁sunpu	-11.8133
▁banco	-11.8133
▁shimmy	-11.8133
▁tiresome	-11.8133
▁preference	-11.8133
▁tampa	-11.8133
▁squash	-11.8133
maturity	-11.8133
▁ayuh	-11.8133
▁fattest	-11.8133
▁humbly	-11.8133
▁vegetation	-11.8133
▁execution	-11.8134
▁vouch	-11.8134
▁persist	-11.8134
▁elated	-11.8134
▁converse	-11.8134
▁trustworthy	-11.8134
▁checkbook	-11.8134
▁candidate	-11.8134
▁russell	-11.8134
▁rubio	-11.8134
▁sherry	-11.8134
▁flute	-11.8134
▁cornfield	-11.8134
▁hoax	-11.8134
▁wrestl	-11.8134
▁gussy	-11.8134
▁kinsman	-11.8134
▁serum	-11.8135
▁animation	-11.8135
▁investment	-11.8135
▁braggart	-11.8135
▁notch	-11.8135
▁hardtack	-11.8135
▁yuma	-11.8135
▁ammo	-11.8135
▁sloppy	-11.8135
▁jeering	-11.8135
▁wowwee	-11.8135
▁buckskin	-11.8135
▁outtalk	-11.8135
▁cancer	-11.8135
▁tutor	-11.8135
▁rector	-11.8135
▁yarns	-11.8135
▁strut	-11.8135
▁stationery	-11.8135
▁physicist	-11.8135
▁crucial	-11.8136
▁libel	-11.8136
▁meaningless	-11.8136
nderson	-11.8136
▁grindstone	-11.8136
▁wavin	-11.8136
▁passionately	-11.8136
▁sixtyfive	-11.8136
▁decoy	-11.8136
equipped	-11.8136
▁undressed	-11.8136
▁furious	-11.8136
▁shortsighted	-11.8136
▁bombard	-11.8136
▁receding	-11.8136
▁toggle	-11.8136
▁electricity	-11.8136
▁seemingly	-11.8136
▁stalin	-11.8136
▁distort	-11.8136
▁technology	-11.8136
▁nithe	-11.8136
static	-11.8137
▁sweetmaking	-11.8137
▁inhal	-11.8137
▁unshot	-11.8137
▁yummy	-11.8137
▁hesitation	-11.8137
▁ajob	-11.8137
▁overnight	-11.8138
▁snag	-11.8138
▁esteem	-11.8138
▁poult	-11.8138
▁stepsister	-11.8138
▁playground	-11.8138
▁tremble	-11.8138
▁curts	-11.8138
▁input	-11.8138
▁gooey	-11.8138
▁davis	-11.8138
▁dorm	-11.8138
▁battlefield	-11.8139
▁grimm	-11.8139
rigue	-11.8139
▁cruisers	-11.8139
▁capacit	-11.8139
▁bumble	-11.8139
▁equi	-11.8139
▁dedicated	-11.8139
▁chaos	-11.814
▁testimony	-11.814
▁zeal	-11.814
ette	-11.814
udent	-11.814
▁foreman	-11.814
▁petain	-11.814
▁batman	-11.814
▁activated	-11.814
▁bunny	-11.814
▁latitude	-11.814
▁cozie	-11.814
▁skipped	-11.814
▁respectfully	-11.814
▁settin	-11.814
▁homage	-11.814
▁starlight	-11.814
▁pregnant	-11.814
▁crawlin	-11.814
▁bombie	-11.8141
▁dyin	-11.8141
aguchi	-11.8141
▁mourning	-11.8141
▁parkley	-11.8141
▁entrusted	-11.8141
bomp	-11.8141
▁holler	-11.8141
▁moping	-11.8141
▁gross	-11.8142
▁transition	-11.8142
▁wireless	-11.8142
▁located	-11.8142
▁befriend	-11.8142
▁anchored	-11.8142
▁multipl	-11.8142
▁client	-11.8142
▁glyn	-11.8142
▁bloomin	-11.8142
▁crab	-11.8142
▁pastime	-11.8142
▁specialized	-11.8142
▁incorporated	-11.8142
▁dismay	-11.8142
▁publicity	-11.8142
▁revel	-11.8143
▁mercu	-11.8143
▁mixup	-11.8143
anhour	-11.8143
▁boodleb	-11.8143
▁instructor	-11.8143
▁piggy	-11.8143
▁betcha	-11.8144
▁tempest	-11.8144
▁roster	-11.8144
ably	-11.8144
▁refill	-11.8145
▁stubbornness	-11.8145
▁angelic	-11.8145
▁tardy	-11.8145
▁clown	-11.8145
nnia	-11.8145
▁trouser	-11.8146
▁fiev	-11.8146
▁orange	-11.8146
▁improving	-11.8146
▁swirl	-11.8146
▁enable	-11.8146
▁waterproof	-11.8146
▁govern	-11.8146
▁petit	-11.8147
▁gunfight	-11.8147
▁glue	-11.8147
▁abominable	-11.8147
▁meddle	-11.8147
▁detector	-11.8147
▁ballast	-11.8147
▁priva	-11.8147
▁bailed	-11.8147
▁ramp	-11.8147
▁amused	-11.8147
▁realistic	-11.8147
▁frostbite	-11.8147
▁uncomfortable	-11.8147
▁fulfill	-11.8147
▁cinder	-11.8147
▁beva	-11.8147
▁ragged	-11.8148
▁daresay	-11.8148
▁austrian	-11.8148
▁surpasse	-11.8148
▁macke	-11.8148
vius	-11.8148
▁shellfish	-11.8148
▁alice	-11.8148
▁guardsman	-11.8148
▁arise	-11.8149
▁hidin	-11.8149
▁finance	-11.8149
▁requirement	-11.8149
▁stewart	-11.8149
▁hawk	-11.815
▁yoursel	-11.815
▁batter	-11.8151
▁miniaturize	-11.8151
held	-11.8151
▁peach	-11.8151
▁bottomland	-11.8151
▁turnip	-11.8151
▁sundown	-11.8152
▁droopi	-11.8152
▁pleading	-11.8152
▁countryside	-11.8152
▁keyboard	-11.8152
▁sinful	-11.8152
▁scrambled	-11.8152
▁furball	-11.8152
▁shattered	-11.8153
▁dj	-11.8153
▁grandson	-11.8153
▁fascinating	-11.8153
▁communist	-11.8153
endous	-11.8153
▁controller	-11.8153
▁tiring	-11.8154
▁devastated	-11.8154
▁mechanically	-11.8154
▁arose	-11.8154
▁lovesick	-11.8154
▁bombers	-11.8155
▁scold	-11.8155
▁tailor	-11.8155
▁obligation	-11.8155
▁seduce	-11.8155
▁poacher	-11.8155
▁antar	-11.8155
▁thrilling	-11.8156
rences	-11.8156
▁zipadee	-11.8156
itated	-11.8157
▁composer	-11.8157
▁mimic	-11.8157
▁sanct	-11.8157
▁exploit	-11.8157
plin	-11.8157
▁beau	-11.8157
▁inkling	-11.8157
nkets	-11.8157
▁wellii	-11.8158
▁halter	-11.8158
▁deaf	-11.8159
▁rangers	-11.8159
▁difficulties	-11.8159
▁almighty	-11.8159
▁manufacturing	-11.816
▁enabled	-11.816
▁ringleader	-11.816
▁flamingo	-11.816
▁carving	-11.816
▁tasteless	-11.8161
▁quilt	-11.8161
▁measurement	-11.8161
▁registered	-11.8161
▁converted	-11.8161
▁bayou	-11.8162
▁wrapp	-11.8163
▁stunt	-11.8163
▁celebrating	-11.8163
▁richter	-11.8163
▁geezer	-11.8163
▁reply	-11.8163
▁whining	-11.8164
▁lester	-11.8164
brow	-11.8164
▁jap	-11.8164
▁amiss	-11.8165
▁capri	-11.8165
▁descendant	-11.8165
▁bugged	-11.8166
▁vice	-11.8166
▁battered	-11.8167
▁steve	-11.8167
▁showdown	-11.8167
▁forcing	-11.8168
▁giddy	-11.8168
▁promising	-11.8168
▁skull	-11.8168
▁catfish	-11.8168
▁copies	-11.8169
▁cornflower	-11.8169
▁eber	-11.8169
shuffle	-11.8169
▁soap	-11.817
nikov	-11.817
▁prolong	-11.817
▁odor	-11.817
iff	-11.817
▁seaside	-11.817
▁yessum	-11.817
▁reachin	-11.8171
▁producer	-11.8171
▁helm	-11.8172
▁solidor	-11.8173
▁nightfall	-11.8173
ooee	-11.8173
▁bluff	-11.8173
▁horsy	-11.8174
▁household	-11.8174
▁mitt	-11.8174
▁graduated	-11.8175
▁lieb	-11.8175
ieving	-11.8175
ummin	-11.8175
▁amends	-11.8176
▁tagging	-11.8177
▁beachhead	-11.8177
▁deciphering	-11.8177
▁warmth	-11.8177
▁boatmen	-11.8177
etical	-11.8177
▁electrician	-11.8177
▁encouraged	-11.8179
▁monty	-11.8179
▁ledge	-11.8179
▁reaction	-11.8179
▁sinners	-11.8179
▁roarer	-11.8179
▁butchered	-11.818
▁confidential	-11.818
▁marines	-11.818
▁scorch	-11.818
▁pursui	-11.8181
▁devise	-11.8181
▁bricks	-11.8181
▁polic	-11.8181
▁deepness	-11.8181
▁awakened	-11.8181
▁widower	-11.8181
▁violets	-11.8182
▁logistics	-11.8182
▁barber	-11.8183
▁ingrates	-11.8183
itude	-11.8183
▁pillows	-11.8183
▁bedtime	-11.8183
▁nevermore	-11.8183
▁narrow	-11.8184
▁insignias	-11.8184
▁llamas	-11.8184
▁humph	-11.8184
▁knuckles	-11.8184
▁aztecs	-11.8184
▁salutations	-11.8184
▁cushions	-11.8184
▁cymbals	-11.8184
▁warthogs	-11.8184
▁mathematics	-11.8184
▁prototypes	-11.8184
▁proprietors	-11.8184
▁representatives	-11.8184
▁ruffians	-11.8184
▁waterfalls	-11.8184
▁gliders	-11.8185
▁scor	-11.8185
▁saxo	-11.8185
▁bruised	-11.8185
▁perf	-11.8186
▁dragons	-11.8186
▁bestowed	-11.8187
▁givin	-11.8187
▁screamin	-11.8187
▁bragging	-11.8188
▁spill	-11.8189
pulate	-11.8189
▁perp	-11.8189
▁endlessly	-11.8191
▁pomp	-11.8192
▁cellul	-11.8192
▁greek	-11.8193
▁thrill	-11.8193
mission	-11.8193
azama	-11.8194
▁dignif	-11.8194
▁wherefore	-11.8194
tery	-11.8194
▁supplement	-11.8195
▁nay	-11.8195
▁capito	-11.8195
▁theor	-11.8196
▁gunner	-11.8196
stones	-11.8197
▁mik	-11.8198
shod	-11.8198
explic	-11.8198
jump	-11.8198
alities	-11.8198
gener	-11.8199
bago	-11.82
▁braid	-11.8201
▁coldness	-11.8201
▁chimp	-11.8201
▁cries	-11.8202
▁tarry	-11.8202
▁risers	-11.8202
▁madman	-11.8202
▁cured	-11.8203
▁gully	-11.8203
nez	-11.8203
veling	-11.8204
▁gained	-11.8205
▁drownin	-11.8205
▁pointless	-11.8205
▁palmers	-11.8205
▁bleeding	-11.8205
▁anew	-11.8206
▁muttering	-11.8206
▁whup	-11.8206
liness	-11.8207
▁pickup	-11.8207
▁crippled	-11.8208
▁pronounced	-11.8208
▁jose	-11.8208
chiev	-11.8208
▁copper	-11.8208
sounding	-11.821
▁shocked	-11.8211
▁dodo	-11.8211
tsushi	-11.8211
▁reconn	-11.8212
▁grabbing	-11.8212
▁unlike	-11.8212
iot	-11.8213
▁twisted	-11.8213
▁latin	-11.8213
▁bien	-11.8213
▁nailed	-11.8215
▁cookin	-11.8215
▁coron	-11.8216
▁willy	-11.8218
▁lobby	-11.8218
▁satin	-11.822
▁successor	-11.822
▁consented	-11.8222
▁ambition	-11.8223
▁punctual	-11.8223
▁setto	-11.8224
▁contracted	-11.8225
rench	-11.8225
▁retrieved	-11.8225
▁ridin	-11.8226
▁reb	-11.8226
▁communi	-11.8226
▁followup	-11.8226
▁wrecked	-11.8227
▁chained	-11.8227
▁rivi	-11.8228
▁indicated	-11.8229
▁seekers	-11.8229
▁blehbleh	-11.8229
▁calculat	-11.8229
▁alpha	-11.8229
▁creeping	-11.8231
▁digest	-11.8232
▁dispose	-11.8233
▁brutal	-11.8233
▁shroud	-11.8233
▁plague	-11.8233
▁parallel	-11.8234
▁kra	-11.8234
▁ritz	-11.8234
▁frequency	-11.8234
▁believing	-11.8235
▁pep	-11.8235
▁nugget	-11.8236
▁talon	-11.8237
▁tsch	-11.8238
pension	-11.8238
▁serene	-11.8239
cens	-11.8239
▁yech	-11.824
▁lemming	-11.824
▁plucked	-11.8241
▁riff	-11.8241
▁lovelies	-11.8242
consciousness	-11.8242
▁hoho	-11.8243
▁repair	-11.8244
▁celebrati	-11.8245
visible	-11.8245
▁laser	-11.8246
wards	-11.8246
rida	-11.8246
▁carol	-11.8247
▁reform	-11.8247
▁objection	-11.8248
▁twig	-11.8249
▁blazes	-11.825
▁exalt	-11.825
ctable	-11.825
▁tainted	-11.8251
ridden	-11.8252
▁agin	-11.8252
▁lyric	-11.8252
▁commando	-11.8254
▁whore	-11.8255
▁charmed	-11.8256
▁feline	-11.8256
▁rebs	-11.8256
▁bli	-11.8257
▁after	-11.8258
ooooh	-11.8258
▁decorat	-11.8258
▁conceive	-11.8258
▁whatre	-11.8259
▁lurk	-11.826
▁anticipated	-11.826
▁crawled	-11.8261
▁leaps	-11.8265
▁described	-11.8266
scotch	-11.8267
▁flints	-11.8268
position	-11.8268
▁dashed	-11.8269
▁feng	-11.8269
▁agents	-11.8269
▁unbea	-11.827
ashi	-11.8271
▁coaches	-11.8272
forgiv	-11.8272
▁blooming	-11.8273
hereafter	-11.8273
ssy	-11.8273
▁resumes	-11.8274
▁peril	-11.8274
▁relations	-11.8274
▁shouted	-11.8276
▁sprouts	-11.8277
▁affairs	-11.8277
▁doorsteps	-11.8277
▁biscuits	-11.8277
▁pilgrims	-11.8277
▁volcani	-11.8277
▁clearances	-11.8278
▁runners	-11.8278
▁adults	-11.8279
opping	-11.8279
▁dagger	-11.828
▁gir	-11.828
▁dumping	-11.828
▁insulting	-11.8281
▁tortured	-11.8282
▁maneuvers	-11.8283
▁rapids	-11.8285
▁endured	-11.8285
▁whispers	-11.8286
▁curve	-11.8289
▁crates	-11.8289
quat	-11.8289
▁chop	-11.829
▁pail	-11.829
▁tailors	-11.8293
▁hick	-11.8293
▁added	-11.8294
▁heartless	-11.8296
adow	-11.8297
▁hankerin	-11.83
migration	-11.8301
▁yeow	-11.8301
papa	-11.8303
▁squall	-11.8303
▁whim	-11.8303
erbo	-11.8304
▁taut	-11.8309
▁beatin	-11.8309
▁outwit	-11.8309
▁luke	-11.8313
▁bitte	-11.8313
▁stickin	-11.8314
▁laird	-11.8315
▁fund	-11.8316
▁vine	-11.8319
▁kaya	-11.8319
▁famously	-11.8322
▁angle	-11.8323
▁wedd	-11.8323
▁sandal	-11.8326
▁marbles	-11.8326
▁midget	-11.8326
▁saddled	-11.8326
▁normally	-11.8327
gestion	-11.8329
thwart	-11.8329
▁dratt	-11.833
▁machi	-11.8334
rouser	-11.8334
▁boob	-11.8334
▁philosopher	-11.8335
▁aa	-11.8337
fusa	-11.8338
ndown	-11.8339
▁pac	-11.834
▁discussed	-11.8341
ask	-11.8342
▁bona	-11.8343
▁craz	-11.8343
▁dante	-11.8344
hela	-11.8345
▁addressed	-11.8345
▁philosophi	-11.8347
▁complained	-11.8348
bearer	-11.8348
mated	-11.8349
▁specialist	-11.835
▁sheets	-11.8351
thouse	-11.8351
gives	-11.8352
▁rollo	-11.8353
▁bunker	-11.8355
hhuh	-11.8356
▁reasonable	-11.8357
▁sought	-11.8359
▁cobble	-11.8362
▁mille	-11.8364
▁pounded	-11.8364
▁misty	-11.8364
▁rewarded	-11.8366
▁mixt	-11.8369
▁delivery	-11.8369
▁muscles	-11.8369
▁follows	-11.837
▁canines	-11.837
▁leopards	-11.8372
▁mystif	-11.8372
▁chemicals	-11.8372
▁seagulls	-11.8372
▁kangaroos	-11.8372
▁outlaws	-11.8372
▁beethovens	-11.8372
▁colleagues	-11.8372
▁tound	-11.8372
▁outdoors	-11.8373
phics	-11.8375
put	-11.8377
▁convicts	-11.8377
▁playmates	-11.8377
▁expectin	-11.8379
▁teen	-11.838
▁motive	-11.8382
▁este	-11.8382
llen	-11.8384
couraged	-11.8385
than	-11.8388
▁defens	-11.8388
▁movements	-11.8392
▁thoughtful	-11.8393
▁requires	-11.8393
dust	-11.8394
▁remov	-11.8394
▁plank	-11.8403
▁foresee	-11.8408
▁wags	-11.8408
▁brad	-11.8409
▁disclose	-11.841
ipher	-11.841
▁predictable	-11.8411
▁glori	-11.8412
▁prospero	-11.8412
rude	-11.8413
▁pap	-11.8417
▁repeated	-11.8417
hed	-11.8418
ely	-11.8418
tti	-11.8419
▁everytime	-11.842
▁ceme	-11.8425
▁spir	-11.8427
▁verses	-11.8427
▁yield	-11.8427
▁demanding	-11.8427
▁lisps	-11.8428
fer	-11.8432
▁strings	-11.8433
▁jug	-11.8434
▁bore	-11.8434
▁shallow	-11.8436
▁et	-11.8438
▁screamed	-11.8439
▁snare	-11.8445
▁decid	-11.8449
▁tingle	-11.8453
▁bankers	-11.8456
▁squirm	-11.8457
▁thru	-11.8458
wipe	-11.8458
▁lords	-11.8459
▁storekeep	-11.8459
▁ahold	-11.8459
▁leftover	-11.8465
▁bananas	-11.8467
▁pish	-11.8469
▁catchin	-11.8469
umbling	-11.8471
▁brighter	-11.8472
▁abo	-11.8474
▁vib	-11.8474
▁sch	-11.8478
▁cultural	-11.8481
▁insisting	-11.8483
▁scheme	-11.8485
wiped	-11.8485
▁cour	-11.8486
▁hire	-11.8486
graceful	-11.8486
huhuh	-11.8486
ometer	-11.8488
▁sac	-11.8489
▁planted	-11.8489
witch	-11.849
▁caps	-11.8494
▁decisive	-11.8494
▁hoars	-11.8495
▁harnes	-11.8497
▁shrive	-11.8498
▁regi	-11.85
▁wooooooo	-11.85
▁lind	-11.8501
▁fancie	-11.8501
▁climat	-11.8502
▁wern	-11.8502
▁bosses	-11.8508
▁flyin	-11.8509
say	-11.851
▁seaplane	-11.8512
▁acqui	-11.8513
▁fra	-11.8515
rrowed	-11.8518
▁heron	-11.8522
▁wig	-11.8524
pedia	-11.8524
▁payday	-11.8526
▁amazingly	-11.8526
▁madams	-11.8526
▁customs	-11.8527
▁isles	-11.8528
▁cowell	-11.8531
▁happenin	-11.8532
▁dip	-11.8532
▁insan	-11.8533
▁darker	-11.8536
▁freezes	-11.8537
▁sel	-11.8537
iter	-11.8542
▁rap	-11.8543
flight	-11.8543
egacy	-11.8544
▁burst	-11.8545
▁revolv	-11.8549
▁reserves	-11.8551
▁relaxed	-11.8552
▁washing	-11.8553
▁carrots	-11.8559
▁expenses	-11.856
▁carpets	-11.8562
stumped	-11.8563
▁orphans	-11.8563
▁doubled	-11.8563
▁vig	-11.8564
▁wedde	-11.8565
▁buckets	-11.8566
rested	-11.8566
▁suggestions	-11.8568
▁differently	-11.8571
terminated	-11.8579
▁restrain	-11.8581
▁lew	-11.8581
▁otf	-11.8582
calib	-11.8585
geon	-11.8585
▁urge	-11.8586
vin	-11.8594
whoohoohoo	-11.8596
▁dese	-11.8598
▁zion	-11.8598
▁rh	-11.8599
▁draft	-11.86
▁mater	-11.86
ir	-11.8602
scar	-11.8602
ison	-11.8603
ecu	-11.8605
▁cologne	-11.8608
▁helpful	-11.8609
▁floats	-11.861
hase	-11.8613
▁sandba	-11.8618
master	-11.8623
tted	-11.8624
▁catastrophe	-11.8625
▁cal	-11.8634
mage	-11.8634
aaah	-11.8637
▁enclos	-11.8638
version	-11.864
▁hopper	-11.8641
▁recorded	-11.8643
▁crowed	-11.8653
aching	-11.8654
cely	-11.8654
▁medals	-11.8657
▁averages	-11.8658
▁devices	-11.8658
▁squadrons	-11.866
▁eaters	-11.8661
▁marce	-11.8662
▁balm	-11.8665
diction	-11.8667
▁dodger	-11.867
▁bugs	-11.867
▁bubbles	-11.867
▁buds	-11.8673
oops	-11.8674
▁ash	-11.8676
▁loosey	-11.8676
arn	-11.8678
▁gardeners	-11.868
▁kinsm	-11.8682
▁arab	-11.8684
▁bugle	-11.8685
▁prodigi	-11.8686
▁indicat	-11.869
▁challenges	-11.8693
tops	-11.8695
▁devou	-11.8695
▁quicker	-11.8697
ugh	-11.8704
▁puffs	-11.8708
gerin	-11.871
▁stinks	-11.8711
rail	-11.8711
pair	-11.8715
▁arth	-11.8719
▁shortly	-11.8724
▁pier	-11.8726
eye	-11.8726
▁scope	-11.8727
▁summar	-11.8731
▁tast	-11.8731
▁goods	-11.8732
▁employe	-11.8741
▁disgraceful	-11.8741
▁oooooh	-11.8742
eepers	-11.8743
loo	-11.8744
bay	-11.8745
spidey	-11.8747
▁showers	-11.8749
bu	-11.8755
▁candi	-11.8759
▁christians	-11.8761
▁worryin	-11.8765
▁chees	-11.877
▁borders	-11.8772
icide	-11.8777
sign	-11.8777
▁weave	-11.8783
▁corr	-11.8783
istre	-11.8785
jell	-11.8785
▁bucks	-11.8787
▁centered	-11.8789
ean	-11.8791
▁liberti	-11.8792
▁pul	-11.8793
▁princesses	-11.8795
pagan	-11.8801
lev	-11.8806
▁clump	-11.8807
ob	-11.8811
▁tee	-11.8814
inister	-11.8817
▁lawn	-11.8819
adam	-11.8824
▁diver	-11.8825
▁mos	-11.8829
▁num	-11.8834
avenger	-11.8836
▁issues	-11.8837
tacles	-11.8839
uper	-11.884
here	-11.8852
▁casts	-11.8854
▁whales	-11.8855
apt	-11.8858
▁grounded	-11.886
solate	-11.8861
▁abs	-11.8862
▁dela	-11.8865
▁ske	-11.8865
feed	-11.8867
▁shared	-11.8873
▁carts	-11.8874
mped	-11.8878
▁sou	-11.8883
rose	-11.8891
▁you	-11.8891
commend	-11.8894
▁dreamer	-11.8894
▁kno	-11.8895
▁shifts	-11.8896
▁bugg	-11.8902
cake	-11.8902
▁challenger	-11.8902
▁halfa	-11.8905
▁tack	-11.8914
lutter	-11.892
▁chim	-11.8931
▁fences	-11.8932
▁steamer	-11.8933
▁turnin	-11.8936
▁smarty	-11.8937
if	-11.8941
▁assassinati	-11.8941
▁scales	-11.8941
▁closely	-11.8945
cept	-11.8947
▁dots	-11.895
▁slops	-11.8958
▁crane	-11.8958
▁cure	-11.8961
vier	-11.8962
uis	-11.8967
▁que	-11.897
▁embar	-11.897
▁correction	-11.8975
▁doom	-11.8975
sha	-11.8975
▁motivat	-11.8981
ves	-11.8982
rated	-11.8988
▁rebuil	-11.8995
▁skinni	-11.8995
▁sums	-11.8997
▁linen	-11.8998
mur	-11.8999
▁catcher	-11.9005
▁scall	-11.9006
▁rega	-11.9007
bee	-11.9013
icht	-11.9015
▁tag	-11.9018
▁bubbl	-11.902
sund	-11.9021
ama	-11.9023
stack	-11.9029
▁bridget	-11.9031
▁trib	-11.9035
▁liner	-11.9037
bubut	-11.9039
▁sorta	-11.9045
▁alarms	-11.9046
▁poss	-11.9048
▁hallowe	-11.9048
▁submarines	-11.9048
▁sweethearts	-11.9048
▁imaginations	-11.9048
▁mouthing	-11.9054
▁demands	-11.9054
met	-11.9061
▁mein	-11.9061
▁strategi	-11.9073
tine	-11.9075
seven	-11.9082
▁unload	-11.9084
tight	-11.9088
▁fad	-11.9089
▁wonderfully	-11.9095
▁aces	-11.9095
dressed	-11.9098
▁brie	-11.9101
nie	-11.9104
▁alaba	-11.911
▁grande	-11.9116
▁carav	-11.9119
▁moi	-11.9135
▁signals	-11.914
▁flier	-11.914
▁booms	-11.9141
val	-11.9142
sting	-11.9143
▁bea	-11.9144
ppressed	-11.9145
▁fac	-11.9149
▁southerner	-11.9154
▁stroll	-11.9157
mm	-11.9159
▁ci	-11.9168
its	-11.917
▁anto	-11.9175
color	-11.9178
gu	-11.9178
tha	-11.9178
show	-11.9181
▁resid	-11.9183
eeeee	-11.9185
▁covet	-11.9188
▁paddle	-11.9193
session	-11.9193
▁coin	-11.9194
upon	-11.9197
ately	-11.9197
▁math	-11.9199
ident	-11.9201
famous	-11.9202
▁award	-11.9204
▁graves	-11.9208
▁treac	-11.9208
▁divid	-11.9211
ney	-11.9215
▁aqua	-11.9215
▁territori	-11.9222
▁pois	-11.9223
idential	-11.9229
▁premiere	-11.9229
▁fam	-11.9234
▁nap	-11.9241
ruled	-11.9243
hola	-11.9248
▁cocka	-11.9253
linger	-11.9254
▁ilk	-11.9256
▁jule	-11.926
illes	-11.9262
▁protector	-11.9267
▁stra	-11.928
▁fraterni	-11.928
ume	-11.9287
ully	-11.9293
borg	-11.9294
pical	-11.9297
▁proposes	-11.9302
▁stretcher	-11.9305
posed	-11.9316
▁mas	-11.9317
▁swans	-11.9319
des	-11.932
operation	-11.9327
▁scen	-11.9334
▁wheels	-11.9334
▁ministers	-11.934
shui	-11.9352
utters	-11.9356
▁fie	-11.9358
▁are	-11.9368
adder	-11.9373
watts	-11.9374
▁hie	-11.9375
gedy	-11.9379
rfeit	-11.9386
ron	-11.9388
ella	-11.9388
▁ou	-11.9392
▁digital	-11.9398
▁missin	-11.9399
▁medica	-11.9406
lands	-11.9424
own	-11.9429
▁ins	-11.9434
▁wiggle	-11.9434
▁montagues	-11.9436
▁starv	-11.9446
▁eater	-11.9449
thers	-11.9454
▁bestow	-11.9457
▁fishin	-11.9459
▁predica	-11.947
umps	-11.9475
▁cops	-11.9477
lasses	-11.9483
▁finelookin	-11.949
▁posts	-11.9493
ada	-11.9497
ludge	-11.9499
▁insul	-11.9501
cating	-11.9509
▁windy	-11.9516
▁pont	-11.9518
▁mer	-11.9519
▁hearin	-11.953
lemen	-11.9541
▁contr	-11.9544
▁mooning	-11.9545
emo	-11.9561
twitter	-11.9561
▁hostil	-11.9572
▁calve	-11.9578
dom	-11.958
▁falled	-11.9592
nson	-11.9593
imps	-11.9596
cuse	-11.9599
▁checking	-11.9599
▁feat	-11.9601
rums	-11.9616
bellie	-11.9617
apping	-11.9617
▁controll	-11.9618
▁baba	-11.9621
▁combine	-11.9624
▁lands	-11.9633
▁garb	-11.9642
▁did	-11.9646
ours	-11.9669
▁perish	-11.9675
▁custo	-11.9687
uttered	-11.9687
▁halls	-11.97
▁terri	-11.9701
▁motheri	-11.9703
▁salar	-11.9713
▁orner	-11.973
▁wither	-11.975
rect	-11.9761
▁cre	-11.9768
wave	-11.9769
tons	-11.9771
xo	-11.9774
tro	-11.9782
▁belts	-11.9782
▁conver	-11.9783
arrow	-11.9804
▁boomer	-11.9806
▁weed	-11.9813
▁mast	-11.9818
ripped	-11.9819
▁berth	-11.982
▁clue	-11.9822
quette	-11.9823
▁ink	-11.983
evil	-11.9845
ust	-11.9848
pound	-11.9853
shells	-11.9865
ona	-11.9865
▁perver	-11.987
▁construct	-11.9873
worm	-11.9876
netic	-11.9891
▁blames	-11.9895
oooh	-11.9901
▁shelling	-11.9902
walla	-11.9907
sso	-11.9913
berg	-11.9913
lax	-11.9917
▁grim	-11.9927
▁them	-11.9931
▁lite	-11.9939
▁tally	-11.9945
parte	-11.9957
▁recon	-11.996
nts	-11.9965
rse	-11.9968
▁conserv	-11.9969
lies	-11.9971
reservation	-11.998
▁lined	-11.9983
▁thump	-11.9987
▁mab	-11.9988
ssel	-11.9991
ammy	-12.0005
cogni	-12.001
▁hats	-12.0026
sis	-12.0027
▁majors	-12.0052
▁inc	-12.0058
▁hahahaha	-12.0069
phy	-12.007
sco	-12.0072
▁ports	-12.0078
▁rav	-12.0087
▁demo	-12.0099
ilize	-12.0104
▁purp	-12.0111
▁butterfl	-12.0114
▁simulat	-12.0115
hay	-12.0124
▁adventurer	-12.013
oid	-12.0133
nation	-12.0141
▁pos	-12.0156
arms	-12.0166
patiently	-12.0167
▁prec	-12.0175
▁crave	-12.0176
▁tic	-12.0181
▁ros	-12.0182
▁freed	-12.0184
avor	-12.0186
▁earlie	-12.0187
▁favors	-12.0188
eologist	-12.0189
lapping	-12.0191
▁specifica	-12.0198
ova	-12.02
sto	-12.0202
orn	-12.0216
ogged	-12.0227
log	-12.0238
ook	-12.0243
tonic	-12.0244
▁yag	-12.0245
eze	-12.0248
▁thr	-12.0275
▁extrac	-12.028
oing	-12.0287
▁learnt	-12.0292
▁scrawl	-12.0292
rative	-12.0297
dies	-12.0302
oon	-12.031
▁lever	-12.0319
▁ado	-12.0324
diary	-12.0333
▁generat	-12.0335
▁cana	-12.0341
▁oppos	-12.0354
▁strangle	-12.0379
buscad	-12.0379
▁unstr	-12.039
sterin	-12.0391
▁introduc	-12.0396
ishing	-12.0397
▁twi	-12.0409
ows	-12.0417
▁newly	-12.0421
▁williams	-12.0429
▁persi	-12.0436
sierra	-12.0439
▁loo	-12.0447
roth	-12.0451
bre	-12.0452
▁por	-12.0458
ritz	-12.046
padre	-12.0468
▁dori	-12.0488
tterson	-12.0489
▁hurr	-12.0489
▁namely	-12.0491
▁scares	-12.0525
▁tow	-12.0543
▁submissi	-12.0556
cer	-12.058
aze	-12.0584
▁urse	-12.0586
▁cas	-12.059
▁blundens	-12.0609
▁isolate	-12.0614
hamp	-12.0617
▁glas	-12.0619
▁hating	-12.0619
▁disc	-12.0638
▁gotch	-12.0656
dh	-12.0662
awnin	-12.0665
ndered	-12.0667
▁wished	-12.0667
▁bru	-12.0673
father	-12.0677
reaches	-12.0685
horns	-12.0697
▁shor	-12.0721
▁proposal	-12.0733
▁val	-12.0739
▁ku	-12.0747
▁hood	-12.0749
▁chippe	-12.0751
iii	-12.0753
▁frustrati	-12.0753
itching	-12.0756
▁fran	-12.0767
du	-12.0773
▁cia	-12.0778
▁trave	-12.0779
angled	-12.078
▁blaze	-12.0789
▁swears	-12.079
▁snatche	-12.0792
omy	-12.0793
▁hydra	-12.0798
▁deserts	-12.0812
ane	-12.0825
join	-12.0842
▁actor	-12.0843
ph	-12.0844
yo	-12.0858
▁reassur	-12.0859
cted	-12.0867
ays	-12.0873
usion	-12.0876
▁slu	-12.0888
▁barns	-12.0899
mic	-12.0908
riend	-12.091
hrush	-12.0918
itch	-12.0918
assy	-12.0921
▁leaders	-12.0922
nev	-12.0945
▁faa	-12.0962
▁offen	-12.0977
rent	-12.0989
▁smit	-12.0989
▁ski	-12.0992
ect	-12.0993
▁harve	-12.1
ision	-12.1016
inancially	-12.1028
▁trem	-12.1028
dic	-12.103
hooks	-12.1045
▁defin	-12.1046
tible	-12.1048
oohoohoo	-12.1054
kok	-12.1059
▁poo	-12.1065
nnie	-12.107
going	-12.1088
▁persuade	-12.1089
▁cups	-12.111
cco	-12.1125
▁sla	-12.1125
▁forgi	-12.1127
union	-12.1127
ives	-12.1133
▁sauc	-12.1137
iko	-12.1146
▁steals	-12.1147
▁sow	-12.1158
rap	-12.1165
▁yy	-12.1182
▁sphere	-12.1198
▁wrinkle	-12.1202
elin	-12.121
tes	-12.1211
mble	-12.1212
rock	-12.1222
▁rais	-12.1222
wife	-12.1229
celle	-12.1236
ending	-12.124
void	-12.1264
▁watered	-12.1273
▁zipade	-12.1282
▁paths	-12.129
und	-12.1299
▁bothers	-12.1301
▁fab	-12.1313
▁knocks	-12.1317
ood	-12.134
gues	-12.1352
▁cou	-12.1355
▁biz	-12.1383
▁scat	-12.1397
▁ang	-12.1408
▁belle	-12.1455
▁hy	-12.146
▁clogg	-12.1469
arch	-12.1471
ira	-12.148
▁sof	-12.1484
▁twe	-12.1492
▁socia	-12.1497
alva	-12.1499
pache	-12.1499
▁swoo	-12.1513
▁und	-12.1514
▁undertak	-12.1526
vy	-12.1534
eno	-12.1541
▁lala	-12.1545
▁ache	-12.1548
far	-12.1558
abe	-12.1576
▁commands	-12.1582
▁valleys	-12.1587
olo	-12.1588
ather	-12.1593
▁contacts	-12.1594
▁nominat	-12.1597
▁helen	-12.1608
avis	-12.161
▁yon	-12.1612
▁battles	-12.1633
▁bun	-12.1637
sunder	-12.1646
▁handed	-12.1656
mac	-12.1676
tray	-12.1684
▁ostr	-12.1695
▁wedge	-12.1708
▁whoaoh	-12.1717
ermit	-12.1745
eces	-12.1749
poo	-12.1752
ecks	-12.1762
kra	-12.1765
duct	-12.1777
▁rounds	-12.178
any	-12.1801
▁easie	-12.1818
sions	-12.1818
▁flips	-12.1852
sey	-12.1857
tler	-12.1862
▁acro	-12.1865
▁flattere	-12.1868
▁hencefor	-12.1868
▁gali	-12.1888
archi	-12.1889
▁manufacture	-12.1891
▁invi	-12.1898
▁ala	-12.19
▁puss	-12.1911
▁explosives	-12.1931
claims	-12.1941
▁ital	-12.1954
▁ep	-12.1964
▁deja	-12.1975
▁wastin	-12.1991
▁delights	-12.1994
aging	-12.2013
▁cuff	-12.2017
jane	-12.2022
▁manufactur	-12.2052
▁rd	-12.2056
▁explosive	-12.2056
▁trips	-12.206
fs	-12.2066
▁figures	-12.2074
▁bushe	-12.2088
▁robb	-12.2104
rison	-12.2106
ooge	-12.2114
▁budd	-12.2119
oge	-12.2125
▁waiter	-12.2126
stock	-12.2127
ement	-12.2129
mpressed	-12.2139
▁uhhhh	-12.2141
▁stave	-12.2144
▁cru	-12.2146
▁sey	-12.2148
▁mari	-12.2149
ility	-12.2153
ega	-12.2153
rait	-12.2154
▁wring	-12.2158
▁inv	-12.2189
aft	-12.2196
▁col	-12.2198
ades	-12.2202
cued	-12.2207
cooked	-12.2208
asta	-12.2221
▁appreciat	-12.2245
▁anima	-12.2258
tyfive	-12.227
done	-12.2278
ailing	-12.2299
dal	-12.2312
▁happie	-12.2325
▁geolog	-12.2329
▁swe	-12.2342
▁weathers	-12.2362
cks	-12.2384
ddle	-12.2397
ond	-12.24
gers	-12.2415
▁jur	-12.2436
▁litt	-12.2453
rth	-12.2465
cking	-12.2474
utz	-12.2483
ged	-12.2484
mi	-12.2487
aaa	-12.2499
cuffs	-12.25
rging	-12.251
tel	-12.2514
gle	-12.252
ois	-12.2529
▁unh	-12.2541
▁quo	-12.2547
inity	-12.2554
writing	-12.2556
media	-12.2571
azing	-12.2582
▁fre	-12.2602
oving	-12.2609
▁ble	-12.2623
coli	-12.2624
▁harri	-12.2626
▁rating	-12.2626
▁coll	-12.2635
ces	-12.2645
ague	-12.2653
▁horrib	-12.2662
▁deals	-12.2694
tze	-12.2699
▁decode	-12.2718
spel	-12.2726
▁prot	-12.2734
▁grove	-12.2736
ush	-12.2747
▁dai	-12.2752
tual	-12.2761
▁my	-12.2763
anned	-12.2765
▁woooo	-12.2781
ased	-12.2784
▁pry	-12.2791
▁jest	-12.2792
▁escapes	-12.2805
▁whol	-12.2809
experienced	-12.2817
▁zipad	-12.2834
load	-12.2836
tynine	-12.2844
▁bes	-12.2844
▁shad	-12.2854
▁cont	-12.2868
▁trott	-12.2876
▁profi	-12.2883
▁arrang	-12.2888
▁hare	-12.2908
nails	-12.2915
▁rea	-12.2946
mala	-12.2946
alling	-12.297
▁mira	-12.2972
▁tex	-12.298
ris	-12.2982
▁inde	-12.2984
aps	-12.2984
▁whe	-12.2992
▁kat	-12.2993
▁wrinkl	-12.3011
ods	-12.3024
cher	-12.3029
spirited	-12.3033
▁pimpl	-12.3036
▁preserv	-12.3041
cee	-12.3043
nned	-12.3049
▁tinancial	-12.3055
▁rambl	-12.3079
hoop	-12.3091
▁barri	-12.3093
▁oneeye	-12.3103
sss	-12.3106
aaaaa	-12.3112
▁tre	-12.3127
▁schools	-12.3132
arm	-12.3138
nter	-12.3144
▁rely	-12.3145
sing	-12.3146
ngs	-12.3148
hel	-12.3149
tenth	-12.3168
▁advertis	-12.3203
erin	-12.3207
▁wat	-12.3213
nn	-12.3218
art	-12.3226
ert	-12.3228
cade	-12.3243
▁hea	-12.325
fuls	-12.3254
omo	-12.3267
▁heath	-12.3271
▁rab	-12.3278
▁seein	-12.3289
▁lasted	-12.3304
rge	-12.3304
▁bog	-12.3315
iful	-12.3318
ooh	-12.3326
▁reassure	-12.3331
▁blaz	-12.3336
▁wears	-12.3338
hm	-12.3339
ggies	-12.3341
▁bandy	-12.3363
icent	-12.3377
edded	-12.3386
ort	-12.3388
▁hydr	-12.3392
▁ordinar	-12.3408
▁trav	-12.3425
▁uni	-12.345
bel	-12.345
▁frustrat	-12.3452
oming	-12.3465
▁zipp	-12.3465
▁outsider	-12.3467
▁celebr	-12.3468
sville	-12.3477
ndering	-12.3487
▁tactic	-12.3524
ara	-12.3524
nant	-12.3544
ittle	-12.356
▁persuad	-12.3571
obably	-12.3578
ango	-12.3585
icked	-12.3611
▁remit	-12.3611
▁res	-12.3623
opped	-12.364
cken	-12.3642
▁lark	-12.3647
▁overlap	-12.3663
▁hind	-12.3678
▁smite	-12.368
trap	-12.3683
rings	-12.3684
▁snug	-12.3686
fore	-12.3702
▁expects	-12.3714
▁busi	-12.373
▁dinn	-12.3735
nished	-12.374
▁warr	-12.3742
eland	-12.3754
nna	-12.3755
▁demonstrati	-12.3759
dam	-12.3762
dity	-12.3764
used	-12.3782
▁definit	-12.3789
cel	-12.3793
▁helper	-12.3796
▁rust	-12.3807
urse	-12.3811
itting	-12.3814
hone	-12.3815
▁es	-12.3827
▁remembering	-12.383
▁bumblin	-12.384
lop	-12.3842
logue	-12.3843
not	-12.3846
arvey	-12.3854
▁app	-12.3882
▁imagin	-12.3884
unt	-12.391
card	-12.3911
▁moron	-12.394
▁rains	-12.395
▁missy	-12.3977
▁lett	-12.399
▁mes	-12.4018
rney	-12.4019
▁patron	-12.4025
▁eighth	-12.4026
rdy	-12.4028
▁collecti	-12.4029
▁wes	-12.4045
▁rul	-12.4045
▁repl	-12.4058
scr	-12.4066
▁depr	-12.4074
ondo	-12.4077
cure	-12.4078
ei	-12.4095
oiled	-12.4107
▁injur	-12.4107
categor	-12.4108
avish	-12.412
▁irr	-12.4127
▁spar	-12.4169
▁goody	-12.4204
ssage	-12.4215
kov	-12.4217
▁pret	-12.4218
oles	-12.4222
wall	-12.4247
▁inspir	-12.4259
▁cot	-12.4264
ote	-12.4269
cra	-12.4279
worthy	-12.4287
por	-12.4298
nning	-12.43
▁gam	-12.4302
▁han	-12.4302
▁softi	-12.4311
identif	-12.4312
hn	-12.4314
nds	-12.4315
▁prep	-12.4324
pla	-12.4337
▁interlo	-12.4338
▁studi	-12.4345
stored	-12.4362
cked	-12.4369
bl	-12.4371
uts	-12.4389
▁comme	-12.4411
waves	-12.4423
mates	-12.4428
nying	-12.4435
lot	-12.4437
hopping	-12.4442
▁trains	-12.4443
▁yay	-12.4455
mute	-12.4458
cia	-12.4462
sie	-12.4497
▁inco	-12.4502
▁giv	-12.4505
▁loath	-12.4513
ierra	-12.4519
dog	-12.4526
▁critici	-12.4544
las	-12.4551
▁platte	-12.4558
▁blaste	-12.4567
stage	-12.4572
bell	-12.4573
uce	-12.4574
pies	-12.4585
oking	-12.4585
▁shade	-12.4595
nations	-12.46
▁char	-12.4619
▁watt	-12.4625
van	-12.4634
custome	-12.4636
dock	-12.4643
ener	-12.4644
oku	-12.4649
▁points	-12.4669
▁pur	-12.4688
▁acknowledg	-12.4694
kie	-12.4694
mond	-12.47
kull	-12.4708
illa	-12.471
yd	-12.473
oquette	-12.4731
case	-12.4737
▁clu	-12.4741
tively	-12.4748
moth	-12.4754
shot	-12.4757
▁bor	-12.4763
▁toffe	-12.4772
see	-12.4784
▁layer	-12.4836
▁snorin	-12.4849
llies	-12.4861
think	-12.4866
uff	-12.489
▁gaz	-12.4909
eek	-12.4912
▁shov	-12.4916
▁tak	-12.4919
▁intrigu	-12.4929
▁concei	-12.4941
▁trainer	-12.4946
▁orne	-12.4967
ssive	-12.4971
▁unfor	-12.4979
hattering	-12.5004
▁rage	-12.5011
amin	-12.5019
▁symbolic	-12.503
▁trot	-12.504
using	-12.506
edged	-12.506
▁derange	-12.5069
cats	-12.507
oll	-12.5079
▁whitt	-12.5083
tending	-12.5117
▁electri	-12.5124
▁paras	-12.5166
▁infa	-12.5174
unch	-12.5175
▁highl	-12.5186
text	-12.5193
▁struggl	-12.5203
mmy	-12.5207
▁hugh	-12.5214
ipping	-12.5215
▁flapp	-12.5222
llo	-12.5225
▁heroic	-12.5225
ros	-12.5227
▁cooperat	-12.5235
ayed	-12.5237
▁annu	-12.524
▁caring	-12.5246
▁harmon	-12.5248
olaid	-12.5253
▁sneez	-12.5273
eptic	-12.5283
oose	-12.5284
little	-12.5291
etter	-12.5299
fine	-12.5308
late	-12.5308
ferred	-12.5314
▁babysit	-12.5317
▁conve	-12.5329
▁restor	-12.5332
▁unm	-12.5341
ddling	-12.5356
reached	-12.5357
imp	-12.5368
▁territ	-12.5378
▁bagg	-12.5391
owls	-12.5406
▁pas	-12.5423
entered	-12.5423
▁depresse	-12.5441
▁oas	-12.5441
▁gran	-12.5442
mmm	-12.545
▁yippeee	-12.5474
artur	-12.5482
▁infam	-12.5482
jury	-12.5486
▁anyones	-12.5495
als	-12.55
▁dope	-12.5502
arma	-12.551
▁translat	-12.5518
eff	-12.5521
found	-12.5521
▁balt	-12.5528
ister	-12.5543
▁sle	-12.5544
▁beard	-12.5547
opper	-12.5549
▁cer	-12.5556
▁wanta	-12.5571
fel	-12.5579
rable	-12.5582
▁blu	-12.5587
upe	-12.5589
lit	-12.5594
vant	-12.5608
oud	-12.5614
eed	-12.5627
would	-12.5627
▁ut	-12.563
▁approv	-12.5635
prints	-12.5644
fried	-12.5674
gest	-12.5683
▁urg	-12.5687
teous	-12.5688
lucky	-12.5703
▁mario	-12.5722
loaded	-12.5726
lena	-12.5726
cell	-12.5728
▁aaaaaaaaa	-12.5729
▁nurs	-12.5738
▁rom	-12.5739
ese	-12.5744
ture	-12.5745
dding	-12.5746
eck	-12.575
▁tangl	-12.5753
kata	-12.5764
ea	-12.5765
eeee	-12.5766
nob	-12.577
▁cater	-12.5774
yu	-12.5779
▁interfer	-12.5782
gon	-12.5805
oe	-12.5817
ith	-12.5828
▁underst	-12.5842
cara	-12.5856
▁concentrat	-12.5857
ectified	-12.5859
cant	-12.586
pics	-12.5866
wi	-12.5867
bei	-12.5881
▁explo	-12.5887
▁sippin	-12.5888
▁nos	-12.589
sterous	-12.59
▁spi	-12.5905
aire	-12.5929
▁anim	-12.5933
ttle	-12.5943
stic	-12.5947
rate	-12.5948
ively	-12.5951
addled	-12.5981
▁wins	-12.5981
sand	-12.5984
cup	-12.6008
▁alab	-12.6011
pit	-12.6015
▁imitat	-12.602
▁swa	-12.6021
ark	-12.6028
ain	-12.6037
heel	-12.6044
▁bumpe	-12.6055
▁tot	-12.6059
iller	-12.6063
uhhh	-12.6066
rite	-12.6076
theres	-12.6087
ional	-12.6092
▁cons	-12.6103
▁sins	-12.6105
▁compa	-12.6116
rking	-12.6132
▁admi	-12.6155
generate	-12.6165
▁kee	-12.6171
clad	-12.619
flies	-12.6203
ify	-12.6204
ocked	-12.6204
ast	-12.6208
love	-12.621
▁wis	-12.6215
mmed	-12.6218
▁chuc	-12.6239
eel	-12.6243
▁tresh	-12.6251
help	-12.6255
alled	-12.6267
erately	-12.6273
▁fus	-12.6278
todo	-12.6287
irs	-12.629
mping	-12.6296
teenth	-12.6297
▁assassin	-12.63
nicker	-12.6301
rive	-12.6313
sure	-12.6314
eaver	-12.6315
rkins	-12.6318
sack	-12.6327
rub	-12.6329
edge	-12.6335
▁fro	-12.6338
▁troubl	-12.6339
▁invad	-12.6347
ano	-12.6348
blo	-12.6351
ards	-12.6379
much	-12.6382
bby	-12.6388
▁var	-12.6389
ef	-12.639
▁tart	-12.6394
fold	-12.6395
ought	-12.6398
inest	-12.64
vel	-12.6401
tarts	-12.6416
▁separat	-12.6417
mam	-12.6421
wler	-12.6421
▁cle	-12.6442
▁figur	-12.6465
tta	-12.649
ear	-12.6504
▁rave	-12.6504
oooahh	-12.6517
▁at	-12.6518
find	-12.6524
wnin	-12.6524
▁compet	-12.653
▁ruf	-12.6532
asty	-12.6539
uku	-12.6541
nvention	-12.6559
cite	-12.6561
▁issu	-12.6564
oopsie	-12.6583
moni	-12.6588
first	-12.6588
gie	-12.6601
▁pris	-12.6607
cho	-12.6608
youll	-12.6612
arrier	-12.6622
around	-12.6625
eath	-12.6635
rrier	-12.6644
▁drib	-12.6648
raged	-12.6649
ctor	-12.6654
▁chargin	-12.6665
lay	-12.6667
ruff	-12.6676
▁southsouth	-12.6677
locks	-12.668
▁mete	-12.6686
ori	-12.6713
utter	-12.6717
▁horsera	-12.6722
lists	-12.6725
uffle	-12.6733
▁balanc	-12.6735
kers	-12.6746
rier	-12.6753
▁colo	-12.6766
rama	-12.6767
utty	-12.6771
▁posi	-12.6771
reak	-12.6772
▁avenge	-12.6779
▁tempt	-12.6782
▁disturbin	-12.6791
listen	-12.6794
mind	-12.6796
dence	-12.6803
placement	-12.6805
sert	-12.6808
rary	-12.6812
▁lam	-12.6817
rangler	-12.6836
world	-12.6842
live	-12.686
▁sli	-12.6869
lore	-12.6874
ishness	-12.69
law	-12.69
▁impressi	-12.6906
drop	-12.6916
loat	-12.6919
maybe	-12.693
planes	-12.6941
pers	-12.6941
▁exception	-12.6953
▁catastroph	-12.696
▁frag	-12.6964
girl	-12.6976
een	-12.6982
wful	-12.6986
iable	-12.6986
liable	-12.6987
▁freaks	-12.6995
▁heavie	-12.6996
lac	-12.6997
gr	-12.6998
▁cologn	-12.7
atsu	-12.7
astern	-12.7
spite	-12.7002
▁ec	-12.7003
friend	-12.7014
stles	-12.7015
word	-12.7016
youre	-12.7023
ult	-12.7027
onic	-12.7031
git	-12.7035
itted	-12.7039
▁regulat	-12.704
▁mid	-12.7042
▁prov	-12.7049
dez	-12.7052
▁ness	-12.7053
tures	-12.7069
ahhh	-12.7071
▁deserv	-12.7071
▁terminate	-12.7071
tters	-12.7088
ammed	-12.7094
▁enchant	-12.7098
▁mental	-12.7104
icy	-12.7106
asked	-12.7107
lva	-12.7107
▁strap	-12.7108
opu	-12.711
▁noooooooo	-12.7111
▁cove	-12.7111
▁basi	-12.7119
ja	-12.7121
mu	-12.7131
▁roo	-12.7133
weve	-12.7138
bubb	-12.7145
pretty	-12.7168
▁sen	-12.7169
▁opportun	-12.7173
mpty	-12.7178
bar	-12.7181
▁ber	-12.7182
gan	-12.7188
▁acqu	-12.7191
eh	-12.7209
troopers	-12.721
sweet	-12.7216
▁recogniz	-12.7225
today	-12.7226
cle	-12.7228
everybody	-12.7234
nana	-12.7236
shadow	-12.7239
▁tat	-12.7239
lessness	-12.7243
omme	-12.7248
▁amaz	-12.7249
min	-12.7253
bound	-12.7259
wan	-12.7264
ouse	-12.7271
▁stump	-12.7273
kill	-12.7275
igned	-12.7278
▁schem	-12.7282
watch	-12.7293
▁summ	-12.7296
face	-12.7309
rr	-12.7324
racking	-12.7327
▁instruc	-12.7329
hello	-12.7335
▁associat	-12.7341
▁spl	-12.735
rash	-12.7376
cycl	-12.7378
▁solit	-12.738
▁insi	-12.7392
▁pullin	-12.7396
pole	-12.7404
iva	-12.7405
ncy	-12.7407
rod	-12.7408
giving	-12.7411
ides	-12.7411
▁aster	-12.7414
▁spinnin	-12.7416
fly	-12.7417
▁ali	-12.7428
tra	-12.7431
ocket	-12.7433
wanted	-12.7439
▁prosper	-12.744
fi	-12.7452
▁pala	-12.7454
woman	-12.7454
▁cigarett	-12.7462
▁nai	-12.7465
leader	-12.7465
▁repri	-12.7469
▁homin	-12.747
left	-12.7474
nald	-12.7477
uffl	-12.748
▁lin	-12.7482
hilo	-12.7484
▁adventur	-12.7486
igh	-12.7497
▁paine	-12.7498
▁boa	-12.7499
mmer	-12.7504
marks	-12.7512
ckling	-12.7515
theyll	-12.7518
▁stinkin	-12.7521
sin	-12.7521
▁refus	-12.7522
forth	-12.7525
pect	-12.7526
itles	-12.753
▁graph	-12.7531
ohhh	-12.7534
food	-12.754
▁accu	-12.7547
clink	-12.7548
iversity	-12.7551
walk	-12.7552
▁clin	-12.7552
wuzz	-12.7552
▁choos	-12.7554
ridge	-12.7556
▁follower	-12.7557
plain	-12.7558
tech	-12.7565
▁disp	-12.7567
▁charl	-12.757
lost	-12.7581
rou	-12.7586
ethi	-12.7589
stst	-12.7589
rambling	-12.7597
pid	-12.76
dress	-12.76
rilla	-12.7614
▁franc	-12.7614
attack	-12.7616
feet	-12.7616
udge	-12.7617
pip	-12.762
ibution	-12.762
crazy	-12.7622
ground	-12.7625
osity	-12.7627
but	-12.7628
oct	-12.7633
mmunit	-12.7633
ewpoint	-12.7639
child	-12.7639
princess	-12.764
wake	-12.7642
▁collaps	-12.7643
laying	-12.7645
ambling	-12.7646
▁tavor	-12.7647
best	-12.7649
ohoh	-12.7649
aval	-12.7649
▁appl	-12.7651
sen	-12.7652
▁lat	-12.7655
flowers	-12.7656
▁teller	-12.7658
form	-12.7658
fair	-12.7662
▁indige	-12.7678
▁wreckin	-12.7679
took	-12.7683
eezo	-12.7683
nut	-12.7686
human	-12.769
idgets	-12.7696
▁soph	-12.7698
wins	-12.7699
▁trac	-12.7701
▁whimp	-12.7704
when	-12.771
▁daybrea	-12.7712
▁colle	-12.7716
week	-12.7718
steady	-12.7718
garden	-12.7719
minate	-12.7723
▁pushin	-12.7734
hush	-12.7735
filled	-12.7737
write	-12.7738
fact	-12.7738
balt	-12.7741
▁gainin	-12.7741
animal	-12.7748
kitty	-12.7748
biz	-12.7752
▁volcan	-12.7753
clang	-12.7756
died	-12.7761
▁hoppin	-12.7762
different	-12.7768
▁fea	-12.7769
craft	-12.7769
minent	-12.7772
touch	-12.7773
whatever	-12.7778
▁strangl	-12.7778
month	-12.7779
fresh	-12.7781
protect	-12.7782
aircraft	-12.7782
▁exam	-12.7783
bottom	-12.7783
hundred	-12.7785
mayor	-12.7786
bop	-12.7788
drive	-12.7789
finished	-12.7791
constru	-12.7792
▁princ	-12.7795
appliance	-12.7797
shazam	-12.7797
▁glowin	-12.7798
slaves	-12.7802
entati	-12.7803
rode	-12.7807
clock	-12.781
distance	-12.781
udy	-12.7816
accept	-12.7817
equal	-12.782
respect	-12.782
fighting	-12.7821
paper	-12.7821
guard	-12.7824
sharp	-12.7826
spoon	-12.7828
asting	-12.7828
dirty	-12.7828
large	-12.7829
breath	-12.7829
rra	-12.783
argue	-12.7832
ax	-12.7832
buddy	-12.7834
dinner	-12.7834
twice	-12.7836
whistle	-12.7836
cue	-12.7838
▁diss	-12.784
fruit	-12.7841
▁dodg	-12.7843
▁counte	-12.7844
favor	-12.7845
box	-12.7845
boat	-12.7848
▁tortur	-12.7849
▁harden	-12.7851
crow	-12.7852
doris	-12.7852
chosen	-12.7852
olin	-12.7853
basket	-12.7854
bush	-12.7856
tunnel	-12.7858
screw	-12.7859
growling	-12.7859
trapped	-12.786
bomb	-12.7861
club	-12.7863
system	-12.7863
cla	-12.7863
nail	-12.7864
fort	-12.7864
tastin	-12.7864
wart	-12.7865
nugget	-12.7865
buster	-12.7865
normally	-12.7865
rhythm	-12.7866
twenty	-12.7867
paul	-12.7868
aaaaaaa	-12.7868
mulate	-12.7868
constant	-12.7868
frequency	-12.7869
parallel	-12.7869
abul	-12.7869
thousand	-12.787
charlie	-12.787
knife	-12.7871
wrinkle	-12.7871
shroud	-12.7872
▁clipp	-12.7872
dark	-12.7873
calculat	-12.7873
teacher	-12.7874
plum	-12.7876
brush	-12.7876
byebye	-12.7876
reasonable	-12.7876
positive	-12.7877
teeth	-12.7877
address	-12.7877
profit	-12.7877
consider	-12.7877
design	-12.7878
▁cycl	-12.7878
underneath	-12.7878
shirt	-12.7879
hart	-12.7879
wedding	-12.7879
telephone	-12.788
alpha	-12.788
split	-12.788
blehbleh	-12.7881
literally	-12.7882
joking	-12.7882
balance	-12.7882
jet	-12.7883
push	-12.7884
dozen	-12.7885
regard	-12.7885
conductor	-12.7886
butt	-12.7886
discovered	-12.7887
view	-12.7887
cruise	-12.7887
woooow	-12.7888
repair	-12.7889
centered	-12.7889
walking	-12.7889
margaret	-12.789
forsaken	-12.789
drift	-12.7891
brigad	-12.7891
lookin	-12.7891
belief	-12.7892
campus	-12.7892
invited	-12.7892
webs	-12.7892
fashion	-12.7893
pierre	-12.7893
knocking	-12.7894
research	-12.7894
righteous	-12.7894
apple	-12.7894
century	-12.7895
tracks	-12.7896
▁punctu	-12.7896
lofty	-12.7896
trails	-12.7897
dressing	-12.7899
happiness	-12.7899
speaker	-12.79
chuck	-12.79
maiden	-12.79
williams	-12.79
pronounce	-12.79
starting	-12.7901
block	-12.7902
organized	-12.7902
space	-12.7905
za	-12.7906
erator	-12.7908
ags	-12.7908
banks	-12.7909
cutters	-12.791
circuit	-12.791
ninety	-12.7911
shield	-12.7911
posh	-12.7912
meeting	-12.7912
▁tyin	-12.7912
vo	-12.7912
suicide	-12.7913
steak	-12.7913
talkin	-12.7915
uhhhh	-12.7915
navy	-12.7915
beans	-12.7915
grow	-12.7917
limited	-12.7917
maid	-12.7918
ahah	-12.792
knee	-12.7922
crossed	-12.7923
smarty	-12.7924
confident	-12.7925
gratitude	-12.7925
advantage	-12.7925
▁crackin	-12.7926
▁contemp	-12.7926
spect	-12.7928
responsible	-12.7928
lines	-12.7929
mistak	-12.7929
pipes	-12.7929
▁syn	-12.7929
alized	-12.793
season	-12.793
weight	-12.7933
fourth	-12.7933
antarctic	-12.7933
▁petrol	-12.7934
swim	-12.7935
clark	-12.7937
lemming	-12.7937
tack	-12.7938
carrier	-12.7938
▁artis	-12.7939
slept	-12.794
adventure	-12.794
proven	-12.7943
naked	-12.7943
whoa	-12.7944
runnin	-12.7945
turnin	-12.7946
▁jj	-12.7947
ynwittgenstein	-12.7948
gra	-12.795
▁wil	-12.795
market	-12.795
dreaming	-12.7954
lmeratazam	-12.7956
miley	-12.7956
shoulder	-12.7957
▁shriek	-12.7957
construction	-12.7957
sensitive	-12.7958
confuse	-12.7959
planted	-12.7961
vely	-12.7962
forty	-12.7965
eless	-12.7969
moral	-12.797
▁groan	-12.797
ita	-12.7971
▁troub	-12.7972
speed	-12.7976
▁supple	-12.7978
▁scru	-12.7978
wooow	-12.7979
hill	-12.7984
joke	-12.7985
▁captiv	-12.7987
christ	-12.7987
willing	-12.7988
haul	-12.7988
chew	-12.7988
hop	-12.7989
hide	-12.799
▁proprietor	-12.7992
▁prototype	-12.7992
▁mathematic	-12.7992
▁cymbal	-12.7993
▁warthog	-12.7993
▁aztec	-12.7993
▁cushion	-12.7993
▁salutation	-12.7993
beam	-12.7993
▁ruffian	-12.7993
▁knuckle	-12.7993
seals	-12.7994
▁insignia	-12.7994
rifle	-12.7995
▁llama	-12.7995
▁representative	-12.7995
▁forg	-12.7996
parent	-12.7996
crisp	-12.7996
mitsus	-12.7998
decorate	-12.7998
lov	-12.7998
kaya	-12.7999
▁violet	-12.7999
shelf	-12.7999
▁ingrate	-12.8
q	-12.8
▁logistic	-12.8
▁atten	-12.8001
roaring	-12.8002
guide	-12.8003
▁bushwhacker	-12.8004
▁troubadour	-12.8004
▁remu	-12.8005
▁relative	-12.8005
▁handcuff	-12.8006
▁dram	-12.8006
▁glitterbot	-12.8009
▁amarylli	-12.8009
▁pillow	-12.8009
▁panzer	-12.8009
dispens	-12.801
▁shhhhh	-12.8011
▁trombone	-12.8011
continu	-12.8011
▁whisker	-12.8012
▁glider	-12.8012
▁puppet	-12.8012
▁hypocrite	-12.8012
▁crossroad	-12.8014
▁footstep	-12.8015
▁guinea	-12.8017
▁doggie	-12.8018
▁heathen	-12.8019
pher	-12.8019
▁aaa	-12.802
▁candle	-12.8021
▁shhhhhh	-12.8022
burning	-12.8024
▁negotiation	-12.8025
▁summon	-12.8026
church	-12.8026
matt	-12.8027
▁nigh	-12.8031
▁grape	-12.8032
sse	-12.8032
commissione	-12.8033
▁bustin	-12.8035
tor	-12.8036
puss	-12.8036
▁secre	-12.8036
match	-12.8036
float	-12.8036
page	-12.8038
▁mineral	-12.804
▁devastat	-12.8042
▁emotion	-12.8044
▁hel	-12.8045
▁tinkle	-12.8048
appro	-12.8049
shinin	-12.805
allen	-12.8053
▁teenager	-12.8054
▁flaming	-12.8056
rrow	-12.8057
perate	-12.8059
was	-12.8059
▁describ	-12.8059
▁rescu	-12.806
▁graduat	-12.8061
▁determin	-12.8062
▁politic	-12.8063
▁treasur	-12.8065
arted	-12.8065
spending	-12.8066
listening	-12.8066
▁releas	-12.8066
▁nobod	-12.8068
▁waterfall	-12.8068
scrap	-12.8068
▁billow	-12.8072
▁alfre	-12.8073
▁wrap	-12.8073
sniff	-12.8074
▁exercis	-12.8076
▁iv	-12.8077
▁willi	-12.8077
manner	-12.8077
▁yaaa	-12.8078
gration	-12.8079
crease	-12.8079
▁fibb	-12.808
▁occu	-12.808
bald	-12.808
▁ahahah	-12.8081
▁benefi	-12.8084
omething	-12.8086
▁uncomfortabl	-12.8086
▁abominabl	-12.8087
▁frostbit	-12.8088
stration	-12.8088
▁reinforc	-12.809
▁cookie	-12.809
▁impossibl	-12.8091
tada	-12.8091
▁unbelievabl	-12.8091
pour	-12.8091
▁boun	-12.8092
▁sensitiv	-12.8092
▁sentenc	-12.8092
▁disinte	-12.8093
▁slurp	-12.8093
acre	-12.8093
▁recei	-12.8093
▁marine	-12.8093
▁cert	-12.8094
▁astonish	-12.8094
zum	-12.8097
▁rabbi	-12.8098
▁bibl	-12.8098
imagin	-12.8099
▁excite	-12.81
▁murph	-12.81
bozo	-12.8101
▁multi	-12.8101
▁locate	-12.8102
▁sacrifice	-12.8102
▁pregnan	-12.8103
▁terrif	-12.8104
▁scro	-12.8104
▁activat	-12.8105
worms	-12.8105
▁entrust	-12.8105
hguhguhguh	-12.8106
▁testimon	-12.8106
polite	-12.8106
quote	-12.8107
▁incorporate	-12.8109
▁toj	-12.8109
▁guhguhg	-12.8109
▁raspberr	-12.8109
uperior	-12.8109
▁julie	-12.8109
▁auxiliar	-12.811
▁luxur	-12.811
▁fuzz	-12.811
▁dispers	-12.811
▁guilt	-12.811
▁lout	-12.8111
iggle	-12.8111
uncheon	-12.8112
▁achin	-12.8113
▁fenc	-12.8114
▁capture	-12.8114
▁anythin	-12.8114
▁technolog	-12.8114
▁bumbumbum	-12.8114
▁trailin	-12.8114
▁citize	-12.8115
▁bizarr	-12.8115
▁drippin	-12.8116
▁forsake	-12.8116
▁beauti	-12.8116
▁brick	-12.8116
▁majest	-12.8116
▁reflex	-12.8117
lver	-12.8118
▁anchor	-12.8118
▁elegan	-12.8118
▁glide	-12.8118
tiny	-12.8119
yyy	-12.8119
▁accordi	-12.812
listened	-12.8121
opened	-12.8121
▁russel	-12.8121
▁servan	-12.8122
▁practi	-12.8122
▁consequen	-12.8122
▁bububu	-12.8122
▁tremblin	-12.8122
venge	-12.8123
▁unqu	-12.8123
▁carniv	-12.8123
▁mechanic	-12.8123
uzzle	-12.8123
elamites	-12.8124
▁appeti	-12.8124
ascinating	-12.8124
▁scram	-12.8124
scribed	-12.8125
ortunate	-12.8125
▁they	-12.8125
▁diggin	-12.8125
sistance	-12.8126
▁behavio	-12.8126
incidence	-12.8126
evolution	-12.8126
▁terrify	-12.8126
ummies	-12.8126
▁hypocri	-12.8126
▁availab	-12.8127
xactly	-12.8127
▁guhgu	-12.8127
▁mamma	-12.8127
allelu	-12.8127
▁princip	-12.8127
▁columb	-12.8127
▁nucle	-12.8127
▁tranquilize	-12.8127
kilometer	-12.8128
▁circulat	-12.8128
▁spittin	-12.8128
▁annihilat	-12.8128
▁chemist	-12.8128
nappin	-12.8128
▁independen	-12.8128
bolic	-12.8128
ographed	-12.8128
▁crop	-12.8128
▁ridicul	-12.8128
▁smokin	-12.8129
▁publi	-12.8129
▁conscien	-12.8129
▁magnifi	-12.8129
andseek	-12.8129
nscription	-12.8129
▁tokuga	-12.8129
ordinates	-12.8129
turbed	-12.8129
▁encamp	-12.8129
iddlin	-12.8129
nounce	-12.8129
▁craw	-12.8129
clamation	-12.8129
circl	-12.8129
bicycl	-12.813
▁austral	-12.813
distinguish	-12.813
licious	-12.813
▁infern	-12.813
▁inhabit	-12.813
▁circums	-12.813
▁respon	-12.813
dynamic	-12.813
ickyicky	-12.813
ovelyovely	-12.813
currence	-12.813
lezvous	-12.813
nosuke	-12.813
ography	-12.813
pajapshaza	-12.813
phobia	-12.813
▁yooeeyooee	-12.813
bbbbbbbb	-12.813
ccccc	-12.813
dahdahdah	-12.813
yiyiyiyi	-12.813
▁bbbbb	-12.813
▁bumbum	-12.813
▁chanticl	-12.813
hurhur	-12.813
fffff	-12.813
upbup	-12.813
qualif	-12.813
▁neutr	-12.813
▁saknus	-12.813
piracy	-12.813
haahaa	-12.813
uoso	-12.813
uirre	-12.813
lapse	-12.813
rrrrrrr	-12.813
▁dragon	-12.813
gators	-12.813
probabl	-12.813
dadada	-12.813
script	-12.813
hohoho	-12.813
▁guhguhguhguh	-12.813
▁glenda	-12.813
trician	-12.813
▁wolver	-12.813
populat	-12.8131
karat	-12.8131
tinguishe	-12.8131
ollyolly	-12.8131
lloping	-12.8131
bat	-12.8131
uggled	-12.8131
▁benj	-12.8131
▁santia	-12.8131
▁prophe	-12.8131
hahahahahaha	-12.8132
▁zipadeedo	-12.8132
▁lalala	-12.8132
▁psych	-12.8132
▁bapti	-12.8132
urban	-12.8132
▁should	-12.8132
▁assist	-12.8132
areareare	-12.8132
snip	-12.8132
▁yooee	-12.8132
aches	-12.8132
cq	-12.8133
imura	-12.8133
ahua	-12.8133
▁terra	-12.8133
▁analy	-12.8133
hur	-12.8133
▁fiend	-12.8133
▁tyran	-12.8133
▁presid	-12.8133
ragement	-12.8134
▁cinna	-12.8134
▁competit	-12.8134
rigger	-12.8134
partments	-12.8134
▁volunt	-12.8134
▁gamblin	-12.8134
▁differ	-12.8134
▁eject	-12.8134
▁maxim	-12.8134
▁confid	-12.8134
aaaaaoooo	-12.8135
speaks	-12.8135
▁occur	-12.8135
▁francis	-12.8135
amura	-12.8136
▁crick	-12.8136
▁whinin	-12.8136
▁sunbur	-12.8136
nova	-12.8136
nahna	-12.8136
▁astron	-12.8137
▁casual	-12.8137
▁loneli	-12.8137
▁constr	-12.8137
▁hesitat	-12.8137
▁continu	-12.8137
bath	-12.8137
ferent	-12.8138
mpered	-12.8138
plicated	-12.8139
▁swam	-12.8139
ggles	-12.8139
▁devote	-12.8139
▁hallelu	-12.8139
▁mysteri	-12.8139
mboli	-12.8139
▁dignit	-12.8139
▁croco	-12.814
▁sku	-12.814
▁fertili	-12.814
wherewhere	-12.814
reworks	-12.814
honest	-12.8141
finite	-12.8141
▁promisin	-12.8142
livered	-12.8142
▁quad	-12.8143
xious	-12.8143
▁yike	-12.8143
itzer	-12.8144
tuation	-12.8144
zzard	-12.8144
▁zeb	-12.8144
▁hor	-12.8145
ortune	-12.8145
aaaaaaaaaaaaaaaa	-12.8145
bumbumbum	-12.8146
psided	-12.8146
▁toggl	-12.8146
tenci	-12.8146
▁pidg	-12.8147
monious	-12.8148
▁transpo	-12.8148
▁braggin	-12.8148
abouts	-12.8148
lutely	-12.8148
▁arguin	-12.8149
▁passionate	-12.8149
mises	-12.815
▁mourn	-12.815
▁scramble	-12.815
hidi	-12.815
▁starvin	-12.8151
▁scul	-12.8151
▁relate	-12.8151
tribute	-12.8152
▁stag	-12.8152
sket	-12.8152
eaders	-12.8152
▁andre	-12.8153
ilian	-12.8153
▁seiz	-12.8153
▁broth	-12.8153
▁unles	-12.8154
▁societ	-12.8154
fait	-12.8154
year	-12.8155
nesia	-12.8155
▁cri	-12.8156
cuss	-12.8156
▁reinv	-12.8156
rrito	-12.8157
▁quadr	-12.8157
▁acco	-12.8157
growin	-12.8157
vail	-12.8157
▁devastate	-12.8157
elected	-12.8158
ractive	-12.8158
ixie	-12.8158
culty	-12.8159
▁weddin	-12.816
▁clutter	-12.8161
▁aero	-12.8161
▁abett	-12.8162
▁disast	-12.8162
▁simm	-12.8163
erminate	-12.8163
wuh	-12.8164
prise	-12.8164
vious	-12.8164
▁clothe	-12.8165
▁rubb	-12.8165
▁favorit	-12.8166
sessed	-12.8166
▁candid	-12.8167
ctf	-12.817
versary	-12.817
hbor	-12.817
dance	-12.8171
▁volu	-12.8171
erci	-12.8172
ckett	-12.8172
▁uber	-12.8172
eparation	-12.8173
urping	-12.8173
zard	-12.8173
ple	-12.8173
▁cuttin	-12.8173
▁wadi	-12.8175
odil	-12.8175
▁civi	-12.8175
▁miniatur	-12.8177
ishment	-12.8177
terior	-12.8177
bouts	-12.8178
▁surve	-12.8178
▁vul	-12.8178
▁fraid	-12.8178
▁jesu	-12.8178
▁tastin	-12.8178
ornothing	-12.8179
▁occup	-12.8179
▁trench	-12.8179
gates	-12.818
traps	-12.818
sucker	-12.818
▁meek	-12.818
diot	-12.8184
amanos	-12.8185
adero	-12.8186
▁greetin	-12.8186
▁nako	-12.8187
▁flee	-12.8188
▁reliev	-12.8189
▁stair	-12.8189
▁sym	-12.8189
xico	-12.8189
ritt	-12.819
▁transm	-12.819
▁fros	-12.8191
▁dispa	-12.8191
▁crock	-12.8192
ogical	-12.8192
fused	-12.8193
▁tal	-12.8194
▁appo	-12.8194
ower	-12.8194
▁accom	-12.8195
hooh	-12.8195
quent	-12.8195
axon	-12.8195
▁jingl	-12.8196
▁spun	-12.8196
rades	-12.8198
▁cleve	-12.8198
nagan	-12.8198
india	-12.8198
nezer	-12.8198
ifying	-12.8199
▁scept	-12.8202
leaders	-12.8203
yesyes	-12.8204
ci	-12.8204
▁expose	-12.8204
▁def	-12.8205
lerate	-12.8205
▁aggr	-12.8206
ibut	-12.8207
mania	-12.8207
manded	-12.8208
▁claus	-12.8208
▁pretties	-12.8208
toget	-12.8208
▁behal	-12.821
▁orch	-12.821
▁succ	-12.821
raig	-12.821
▁atm	-12.821
▁noooo	-12.8211
tak	-12.8212
▁medicin	-12.8212
ahahahah	-12.8214
▁prede	-12.8216
dition	-12.8216
fired	-12.8216
eaters	-12.8217
▁toodle	-12.8219
orship	-12.8219
wort	-12.8219
▁jab	-12.822
▁memo	-12.822
omeone	-12.8221
▁decor	-12.8222
claimin	-12.8222
glo	-12.8222
▁yellin	-12.8223
shaking	-12.8224
eflect	-12.8225
▁how	-12.8227
njun	-12.8228
▁recu	-12.8229
▁inscr	-12.823
▁havi	-12.823
pleased	-12.8231
▁boodl	-12.8233
▁cosmo	-12.8233
ketch	-12.8234
▁sniffin	-12.8235
golly	-12.8235
ilized	-12.8237
ussn	-12.8238
▁scam	-12.824
▁anywh	-12.8241
▁musk	-12.8244
uarte	-12.8246
ophone	-12.8246
dat	-12.8247
▁worl	-12.8248
▁zi	-12.825
▁herb	-12.8251
▁dwel	-12.8252
metic	-12.8252
▁q	-12.8254
▁ahaha	-12.8254
staff	-12.8254
sweets	-12.8255
fra	-12.8257
▁palmer	-12.8257
▁alter	-12.8257
▁mou	-12.8259
▁aimin	-12.8259
▁readin	-12.8262
pions	-12.8266
annah	-12.8267
anche	-12.8268
▁shack	-12.8269
threef	-12.827
beas	-12.8273
▁volc	-12.8274
▁chic	-12.8275
▁toil	-12.8275
ashion	-12.8277
▁shel	-12.8277
▁ultimate	-12.8277
unite	-12.8277
▁scrambl	-12.8278
uble	-12.8278
trot	-12.8279
▁samu	-12.8281
▁backward	-12.8281
hhhhhhhhhhhh	-12.8281
tsugu	-12.8283
▁det	-12.8284
▁sociali	-12.8284
▁trackin	-12.8286
atical	-12.8287
▁vu	-12.8287
link	-12.8288
▁sinner	-12.8288
▁kry	-12.8291
▁remarkabl	-12.8292
rruption	-12.8293
▁swall	-12.8295
rked	-12.8296
ppy	-12.8297
tical	-12.8297
▁peep	-12.8297
picks	-12.8299
hero	-12.8299
▁kam	-12.8299
nator	-12.8302
igue	-12.8304
ularly	-12.8305
vi	-12.8305
▁comma	-12.8306
usa	-12.8307
cam	-12.8309
▁nov	-12.831
riding	-12.8311
▁bakin	-12.8312
▁bask	-12.8313
nesty	-12.8315
▁jock	-12.8315
drops	-12.8319
▁keel	-12.8319
logged	-12.832
▁rouble	-12.832
eau	-12.832
▁jac	-12.8321
▁refu	-12.8322
▁prom	-12.8323
uckle	-12.8323
hemi	-12.8324
erature	-12.8325
nnel	-12.8326
▁kami	-12.8327
acus	-12.8327
▁hahah	-12.8327
▁jew	-12.8329
▁welcom	-12.833
▁areare	-12.833
▁delig	-12.833
mick	-12.8333
poly	-12.8334
holding	-12.8336
illy	-12.8336
close	-12.8338
feathered	-12.8339
▁suspens	-12.8339
isle	-12.8341
tort	-12.8343
fare	-12.8344
▁electro	-12.8346
▁olive	-12.8347
poles	-12.835
ounded	-12.835
▁appliance	-12.8351
unds	-12.8351
rawlin	-12.8354
bred	-12.8356
▁fascinat	-12.8357
entious	-12.8358
crosse	-12.8359
ocol	-12.8359
fetch	-12.8363
ovsky	-12.8364
standing	-12.8365
▁hopi	-12.8366
gian	-12.8367
▁caroly	-12.8367
▁cutter	-12.8372
rham	-12.8377
eblo	-12.8378
▁brig	-12.8378
▁gro	-12.838
dious	-12.838
▁amid	-12.8382
itary	-12.8382
jun	-12.8389
rien	-12.8391
▁monte	-12.8392
written	-12.8392
ussy	-12.8394
▁teet	-12.8396
cre	-12.84
shoes	-12.8402
▁max	-12.8403
iron	-12.8404
prop	-12.8405
▁mort	-12.8405
▁lv	-12.8406
▁bough	-12.8406
tractor	-12.8409
▁goodfor	-12.841
▁climbin	-12.8411
▁loadin	-12.8412
awing	-12.8415
plicate	-12.8415
▁overco	-12.8416
kova	-12.8417
▁muf	-12.8421
rella	-12.8424
▁prettie	-12.8425
▁reside	-12.8426
▁salu	-12.8428
huggin	-12.8428
▁buzzin	-12.843
▁sophi	-12.8432
▁griz	-12.8434
wine	-12.8435
eyey	-12.8435
itched	-12.8439
queen	-12.8442
▁stup	-12.8443
▁intell	-12.8445
▁amuse	-12.8446
▁cad	-12.8448
▁norman	-12.8448
outs	-12.8452
bec	-12.8453
ado	-12.8456
throws	-12.8457
chow	-12.8457
▁shazam	-12.8459
▁meter	-12.8459
▁cava	-12.846
nock	-12.8461
▁carryin	-12.8462
gov	-12.8466
▁shsh	-12.8473
ovan	-12.8477
▁actin	-12.8478
▁certifi	-12.8479
▁bran	-12.848
▁constru	-12.8482
dish	-12.8482
isha	-12.8485
suspect	-12.8485
tubbo	-12.8486
creased	-12.8487
▁excellenc	-12.8487
metro	-12.8488
itall	-12.8489
ller	-12.849
▁comf	-12.849
▁cameo	-12.8491
▁degr	-12.8492
sport	-12.8493
▁riser	-12.8494
wered	-12.8496
▁messin	-12.8497
▁tame	-12.8498
dilly	-12.8502
gar	-12.8503
▁germ	-12.8505
bon	-12.8506
umil	-12.8507
▁incom	-12.8507
▁atla	-12.851
▁hun	-12.851
cin	-12.851
▁neigh	-12.8511
▁laug	-12.8512
▁oct	-12.8519
▁ott	-12.8524
racle	-12.8529
▁leadin	-12.8531
berty	-12.8534
dians	-12.8535
washing	-12.8535
▁winne	-12.8535
firmati	-12.854
unges	-12.8542
▁coff	-12.8543
nking	-12.8545
▁rollin	-12.8546
kami	-12.8549
▁dime	-12.855
▁lis	-12.855
dar	-12.8551
▁esc	-12.8552
▁pickin	-12.8553
▁manif	-12.8553
owing	-12.8553
▁flan	-12.8554
▁coop	-12.8555
▁crav	-12.8557
store	-12.8557
burger	-12.856
otic	-12.8565
busted	-12.8571
fty	-12.8571
ngham	-12.8576
educt	-12.8579
▁hub	-12.858
▁searchin	-12.8581
bak	-12.8582
▁moder	-12.8582
▁drat	-12.8582
▁schr	-12.8587
abby	-12.8591
▁ancho	-12.8596
af	-12.8596
ffri	-12.8597
▁whizz	-12.86
erries	-12.8601
▁saf	-12.8602
tied	-12.8607
yea	-12.861
fingers	-12.8611
▁condu	-12.8612
rdan	-12.8612
▁stealin	-12.8616
vies	-12.8618
itte	-12.862
cable	-12.862
quet	-12.8621
▁demons	-12.8627
▁mode	-12.863
▁dedicat	-12.863
▁mont	-12.8632
▁mic	-12.8639
▁amend	-12.8639
▁seeker	-12.864
▁soc	-12.8643
▁bail	-12.8643
oooooooooo	-12.8647
mmuni	-12.8647
keepers	-12.8647
leas	-12.8655
turn	-12.8656
ohh	-12.8659
▁kok	-12.8661
▁oop	-12.8661
cellul	-12.8663
▁aut	-12.8664
dash	-12.8668
root	-12.8669
egar	-12.867
aisle	-12.8671
ewh	-12.8671
ucker	-12.8673
idney	-12.8674
lond	-12.8675
▁ahhhh	-12.8676
▁some	-12.8676
guar	-12.8678
avorite	-12.8679
▁reno	-12.8681
▁tur	-12.8681
tilize	-12.8682
▁resi	-12.8687
▁significan	-12.8688
▁wooh	-12.869
hip	-12.8695
winds	-12.8697
had	-12.8702
▁chole	-12.8707
iffs	-12.8708
[...]
