<unk>	0
<s>	0
</s>	0
▁im	-4.29021
s	-4.29217
▁dont	-4.37822
▁know	-4.4198
▁get	-4.61891
▁yeah	-4.6383
▁right	-4.70795
▁like	-4.76249
▁got	-4.78912
▁go	-4.79151
▁youre	-4.85927
▁oh	-4.85963
▁come	-4.87615
▁okay	-4.97392
▁na	-5.02215
▁thats	-5.0795
▁well	-5.1394
▁want	-5.20635
▁think	-5.26479
▁gon	-5.26514
▁one	-5.27578
▁hey	-5.30381
▁good	-5.33194
▁see	-5.37884
▁man	-5.39843
▁going	-5.46169
▁look	-5.49475
▁back	-5.52745
▁fuck	-5.5353
▁take	-5.59556
▁fucking	-5.64029
▁shit	-5.65344
▁ill	-5.65567
▁hes	-5.69272
ing	-5.71307
▁time	-5.72103
▁really	-5.72989
▁yes	-5.7411
▁us	-5.7415
▁l	-5.74933
▁cant	-5.75619
▁tell	-5.78003
▁say	-5.79205
▁whats	-5.82263
▁need	-5.8702
▁didnt	-5.87703
▁something	-5.8853
▁sorry	-5.89867
▁lets	-5.91967
▁god	-5.92938
▁mean	-5.93209
▁would	-5.93702
▁please	-5.9416
▁way	-5.98641
▁love	-6.01419
▁thank	-6.02832
▁could	-6.0401
▁make	-6.04294
▁little	-6.05303
ed	-6.0642
▁let	-6.09242
▁give	-6.10383
▁people	-6.11976
▁never	-6.14878
▁theres	-6.16566
▁two	-6.17061
▁thing	-6.21959
▁ive	-6.24408
▁	-6.25245
▁said	-6.25709
▁sure	-6.26678
▁shes	-6.2818
▁guys	-6.28896
▁uh	-6.29241
▁call	-6.33565
▁much	-6.33727
d	-6.34759
▁wait	-6.34816
▁help	-6.35078
▁maybe	-6.39088
▁theyre	-6.39088
▁talk	-6.39802
▁put	-6.41438
▁guy	-6.42868
▁even	-6.43222
▁stop	-6.4323
▁great	-6.43656
▁hi	-6.44606
▁anything	-6.47708
▁day	-6.48694
▁hello	-6.49872
▁home	-6.50271
▁hell	-6.50545
▁still	-6.51214
▁nice	-6.53469
▁first	-6.53737
▁work	-6.54334
▁night	-6.56209
▁name	-6.57519
▁around	-6.58636
▁find	-6.58965
▁nothing	-6.59029
▁ta	-6.5958
y	-6.5978
▁keep	-6.60608
▁life	-6.60656
▁wan	-6.60799
▁thought	-6.6188
▁better	-6.62215
▁car	-6.62381
▁big	-6.66262
▁money	-6.66647
▁sir	-6.67179
▁away	-6.69595
▁new	-6.69983
▁ever	-6.704
▁feel	-6.7078
▁told	-6.70908
▁hear	-6.72632
▁girl	-6.73663
▁kind	-6.73827
▁everything	-6.74177
▁lot	-6.75266
▁believe	-6.75594
▁coming	-6.7656
▁hold	-6.76834
▁listen	-6.76958
▁move	-6.77321
▁talking	-6.77628
▁baby	-6.778
▁last	-6.7835
▁things	-6.79219
▁stay	-6.79481
▁long	-6.79695
▁leave	-6.80214
▁house	-6.80672
▁real	-6.81913
▁always	-6.82108
▁bad	-6.82623
▁phone	-6.83637
▁thanks	-6.83703
▁huh	-6.84031
▁kill	-6.84041
▁three	-6.85108
▁youve	-6.86433
▁doesnt	-6.86876
▁mr	-6.88509
ly	-6.88873
▁fine	-6.89064
▁place	-6.89355
▁woman	-6.89805
▁wont	-6.91185
▁id	-6.92185
▁years	-6.92379
▁door	-6.9275
▁happened	-6.94586
▁boy	-6.94928
▁remember	-6.94965
▁every	-6.95367
▁wanted	-6.97257
▁getting	-6.97952
▁made	-6.99416
e	-6.99812
▁care	-7.00836
▁must	-7.01729
▁um	-7.03
▁ass	-7.03463
▁else	-7.03854
▁old	-7.04192
▁show	-7.04386
▁aint	-7.06157
▁understand	-7.06234
▁open	-7.06755
▁youll	-7.06969
▁trying	-7.07553
▁wrong	-7.07785
▁bitch	-7.08288
▁ok	-7.08346
▁might	-7.08609
▁enough	-7.09163
▁done	-7.10282
▁someone	-7.10402
▁tonight	-7.10841
▁try	-7.11057
▁shut	-7.11939
▁friend	-7.12579
▁room	-7.13017
▁cause	-7.13233
▁son	-7.13595
▁meet	-7.13959
▁another	-7.13993
▁dude	-7.14771
▁dead	-7.15345
▁mom	-7.15642
▁isnt	-7.15755
er	-7.1594
▁lm	-7.16114
▁left	-7.1621
▁ask	-7.17212
▁next	-7.17247
▁looking	-7.17487
▁guess	-7.17556
▁saying	-7.18543
▁play	-7.19231
▁world	-7.19324
▁pretty	-7.19375
▁actually	-7.1938
▁black	-7.20284
▁today	-7.20303
▁dad	-7.20303
▁music	-7.21334
▁course	-7.21865
▁whole	-7.2218
▁jesus	-7.22495
▁excuse	-7.22497
▁mind	-7.23993
▁damn	-7.24183
▁watch	-7.24455
▁run	-7.25748
▁wasnt	-7.26374
▁best	-7.28697
▁wouldnt	-7.28731
▁ready	-7.29812
▁fuckin	-7.29872
▁seen	-7.30058
▁saw	-7.30068
▁second	-7.30484
▁kids	-7.3054
▁hard	-7.30551
▁head	-7.306
▁mother	-7.30832
▁job	-7.31213
▁together	-7.31443
▁crazy	-7.32488
▁heard	-7.32806
▁friends	-7.35155
▁check	-7.35965
▁bit	-7.3602
▁honey	-7.36054
▁came	-7.3638
▁father	-7.36718
▁start	-7.3673
▁somebody	-7.37515
▁may	-7.37777
▁face	-7.38096
▁went	-7.38255
▁minute	-7.39209
▁live	-7.39217
▁whos	-7.39394
▁everybody	-7.39588
▁die	-7.39986
▁called	-7.41178
▁five	-7.4124
▁end	-7.4135
▁kid	-7.41479
▁turn	-7.41585
▁weve	-7.42036
▁hit	-7.42119
▁happy	-7.42423
▁found	-7.42976
▁police	-7.43181
▁alone	-7.432
▁jake	-7.43435
▁probably	-7.43981
▁used	-7.44605
▁men	-7.45022
▁cool	-7.45137
▁morning	-7.45173
▁many	-7.4542
▁problem	-7.45872
▁school	-7.45897
▁knew	-7.46367
▁wife	-7.46695
▁stuff	-7.47021
▁havent	-7.47175
▁anyway	-7.47516
▁matter	-7.47522
▁four	-7.47581
▁bring	-7.47605
▁drink	-7.48812
▁hand	-7.48841
▁white	-7.49069
▁hope	-7.50025
▁minutes	-7.50248
▁hot	-7.50283
▁easy	-7.50476
▁supposed	-7.50927
▁says	-7.5094
▁days	-7.51114
▁use	-7.51157
▁frank	-7.51193
▁goddamn	-7.51317
▁playing	-7.51341
▁wow	-7.51742
▁sit	-7.52438
▁close	-7.5253
▁family	-7.53026
▁whatever	-7.53453
▁yet	-7.53456
▁young	-7.53771
▁later	-7.53917
▁brother	-7.54331
▁wheres	-7.55014
▁ha	-7.55342
▁killed	-7.56103
▁tomorrow	-7.56126
▁looks	-7.56163
▁ago	-7.56528
▁water	-7.5659
▁sex	-7.56834
▁forget	-7.56915
▁youd	-7.56985
▁number	-7.5701
▁deal	-7.57065
▁ah	-7.57946
▁wants	-7.58376
▁fire	-7.59121
▁hurt	-7.59436
a	-7.59845
▁eat	-7.59961
▁em	-7.59971
▁business	-7.6106
▁without	-7.61548
▁took	-7.62017
▁gone	-7.622
▁beautiful	-7.62489
▁whoa	-7.62493
▁everyone	-7.62626
▁gun	-7.62686
es	-7.63081
n	-7.63113
▁cut	-7.63269
▁already	-7.63439
▁couldnt	-7.63469
▁pay	-7.63698
▁idea	-7.64011
▁person	-7.6498
▁inside	-7.65368
▁true	-7.66355
▁point	-7.66917
▁read	-7.67142
▁nobody	-7.67527
al	-7.67881
▁dick	-7.67913
▁la	-7.68097
▁working	-7.70369
▁screaming	-7.70398
▁line	-7.70557
▁set	-7.7063
▁high	-7.70641
▁safe	-7.70727
▁pick	-7.71067
▁miss	-7.71267
▁anyone	-7.71383
▁eyes	-7.71439
▁bye	-7.71969
▁sleep	-7.72212
▁six	-7.72593
▁though	-7.72903
▁happen	-7.73202
▁story	-7.73475
▁movie	-7.73765
▁girls	-7.73811
▁anybody	-7.74001
▁shot	-7.74305
▁since	-7.74534
▁children	-7.74537
▁power	-7.7483
▁hands	-7.75146
▁taking	-7.75627
▁jack	-7.75729
▁part	-7.75735
o	-7.75781
▁far	-7.76007
▁paul	-7.76074
▁yo	-7.76589
▁late	-7.76603
▁sonny	-7.76696
▁word	-7.77032
▁fun	-7.77158
▁worry	-7.77236
▁shoot	-7.77661
▁lost	-7.77797
ll	-7.78062
▁funny	-7.78898
▁making	-7.78899
▁outside	-7.79453
▁walk	-7.79644
▁christ	-7.79916
▁un	-7.80556
▁thinking	-7.80718
▁mine	-7.81275
▁town	-7.81561
▁daddy	-7.82729
▁women	-7.82872
▁exactly	-7.8288
▁telling	-7.83065
▁asshole	-7.83913
▁met	-7.84528
▁half	-7.84567
▁couple	-7.84626
▁stand	-7.84742
▁laughing	-7.84753
▁sometimes	-7.8484
▁week	-7.85103
▁motherfucker	-7.85709
▁hours	-7.86125
t	-7.86258
▁city	-7.86308
▁hate	-7.86778
▁drive	-7.86811
▁street	-7.86922
▁anymore	-7.87014
▁heart	-7.87375
▁fight	-7.87766
▁change	-7.87973
▁year	-7.8816
▁makes	-7.88343
▁different	-7.89963
▁john	-7.90002
▁sweet	-7.90054
▁welcome	-7.90083
▁hang	-7.90272
▁started	-7.90473
▁goes	-7.90609
▁sam	-7.91213
▁serious	-7.91234
▁arent	-7.91336
▁soon	-7.91894
▁lts	-7.92052
▁side	-7.92074
▁sighs	-7.92166
▁game	-7.92583
▁kidding	-7.92609
▁boys	-7.92844
▁question	-7.93235
▁body	-7.93252
▁free	-7.9369
▁party	-7.93694
▁rest	-7.94219
▁york	-7.94222
▁break	-7.94409
▁charlie	-7.94536
▁wish	-7.94734
▁also	-7.95195
▁alive	-7.95206
▁dr	-7.95228
▁times	-7.95247
▁bed	-7.95324
▁special	-7.95658
▁fucked	-7.95762
▁gave	-7.96518
▁dog	-7.96672
▁dave	-7.97193
▁husband	-7.97216
▁important	-7.97749
▁mitch	-7.9785
▁dinner	-7.97853
▁sounds	-7.98464
▁married	-7.98533
▁answer	-7.98652
▁sound	-7.9891
▁afraid	-7.99209
▁hows	-7.99209
▁death	-7.99251
▁c	-7.99713
▁asked	-7.99728
▁ahead	-7.99897
▁months	-8.00434
▁almost	-8.00584
▁aah	-8.00588
▁blood	-8.01144
▁laughs	-8.01176
▁scared	-8.01307
▁trust	-8.01807
▁mike	-8.01845
▁food	-8.01977
▁child	-8.0198
▁air	-8.01982
▁sick	-8.02484
▁front	-8.03391
▁wake	-8.03459
▁touch	-8.03461
▁tv	-8.04116
▁truth	-8.04812
▁bobby	-8.04939
▁cold	-8.05477
▁feeling	-8.05478
▁heres	-8.05617
▁trouble	-8.05731
▁bro	-8.05786
▁stupid	-8.06269
▁sister	-8.06439
▁straight	-8.07001
▁behind	-8.07018
▁dance	-8.07722
est	-8.08177
▁speak	-8.08269
▁bullshit	-8.08495
▁happening	-8.08964
▁clear	-8.09317
▁hmm	-8.09995
▁reason	-8.10213
▁chance	-8.10214
▁weird	-8.1073
▁perfect	-8.10757
▁case	-8.10851
▁k	-8.10911
▁hair	-8.11392
▁running	-8.11548
▁lady	-8.11573
▁country	-8.12324
▁means	-8.12826
in	-8.13211
▁th	-8.13281
▁buy	-8.1351
▁annie	-8.1389
▁bet	-8.14016
▁parents	-8.14018
▁continues	-8.14374
▁chuckles	-8.14818
▁daniel	-8.14931
▁voice	-8.14965
▁send	-8.15154
▁taken	-8.15308
▁holy	-8.1555
▁g	-8.1563
r	-8.15689
▁ten	-8.15829
▁waiting	-8.15854
▁news	-8.16176
▁either	-8.16287
▁grunting	-8.1631
▁dream	-8.16766
▁moving	-8.17103
▁lie	-8.17163
▁meeting	-8.17488
▁glad	-8.17892
▁buddy	-8.17922
▁war	-8.17924
▁lives	-8.18298
▁calling	-8.18326
▁light	-8.18678
▁promise	-8.18914
▁team	-8.19103
▁radio	-8.19195
▁order	-8.1925
▁ooh	-8.19578
▁grunts	-8.19674
▁piece	-8.19961
▁full	-8.20176
▁pull	-8.20223
▁save	-8.20258
i	-8.20333
▁ladies	-8.20423
▁tried	-8.20432
▁least	-8.20433
▁sal	-8.20753
▁ya	-8.20855
▁mrs	-8.21031
▁totally	-8.21298
▁hour	-8.21686
▁officer	-8.21697
▁shouldnt	-8.22122
▁coffee	-8.22122
▁gets	-8.22569
▁book	-8.23015
▁comes	-8.23386
▁song	-8.23441
▁fact	-8.24992
▁moment	-8.2516
▁cop	-8.25828
▁mmm	-8.25942
▁top	-8.26149
▁red	-8.26191
▁uncle	-8.26506
▁mouth	-8.26619
▁sense	-8.2695
▁hurry	-8.27409
▁lucky	-8.27531
▁plan	-8.27627
▁clean	-8.27775
▁seven	-8.27898
l	-8.28156
▁brought	-8.28319
▁gay	-8.2833
▁shh	-8.28354
▁lord	-8.29084
▁joe	-8.29139
▁watching	-8.29244
▁theyll	-8.29254
▁lose	-8.30173
▁ringing	-8.30339
▁catch	-8.30628
▁relax	-8.31096
▁sent	-8.31113
▁happens	-8.31532
▁peter	-8.3166
▁quiet	-8.31835
▁calm	-8.32043
▁weeks	-8.32219
▁seems	-8.32262
▁ron	-8.32492
▁george	-8.32992
▁mmhmm	-8.32995
▁fat	-8.33624
▁ride	-8.33754
▁s	-8.34206
▁follow	-8.34321
▁human	-8.34547
▁careful	-8.34855
▁asking	-8.35005
▁super	-8.35337
▁drop	-8.35508
▁ice	-8.35513
▁sort	-8.3553
▁america	-8.35664
▁dark	-8.35898
▁alright	-8.35905
▁murder	-8.35972
▁it	-8.36535
▁bar	-8.36553
▁office	-8.36861
▁somewhere	-8.36895
▁seriously	-8.37056
▁beat	-8.37216
▁screams	-8.37221
▁cops	-8.37354
▁floor	-8.37532
▁million	-8.37571
▁living	-8.37897
▁along	-8.37901
▁seeing	-8.38368
st	-8.38456
▁f	-8.38601
▁fast	-8.38832
▁mommy	-8.38909
▁died	-8.39436
▁step	-8.39593
▁knows	-8.39953
▁yall	-8.39974
▁sign	-8.40014
▁crying	-8.40086
▁throw	-8.40577
▁control	-8.40617
▁daughter	-8.40674
▁luck	-8.40857
▁middle	-8.40957
▁groans	-8.41032
▁worked	-8.41394
▁wear	-8.41487
▁wall	-8.41578
▁doctor	-8.41728
▁road	-8.41768
▁table	-8.42156
▁lan	-8.42357
▁picture	-8.42817
▁re	-8.43233
▁pain	-8.43384
▁class	-8.43528
▁b	-8.44045
▁leaving	-8.44115
▁security	-8.44115
▁paid	-8.44133
▁figure	-8.44743
▁nigga	-8.44956
ic	-8.4516
▁finally	-8.4525
▁seem	-8.45751
▁wind	-8.45812
▁captain	-8.46277
▁ray	-8.46301
▁able	-8.46442
▁record	-8.46584
▁bag	-8.46767
▁learn	-8.46796
h	-8.47127
▁card	-8.4717
▁date	-8.4735
▁needs	-8.4787
▁lll	-8.47979
▁smart	-8.48359
▁gasps	-8.48751
▁longer	-8.48904
▁kiss	-8.4897
▁cover	-8.4904
▁company	-8.49612
▁felt	-8.49612
▁favorite	-8.49612
▁balls	-8.49724
or	-8.49856
▁doin	-8.50628
▁theyve	-8.50757
▁none	-8.50785
▁american	-8.50865
▁carl	-8.51096
▁blow	-8.51353
▁detective	-8.51627
▁names	-8.51643
▁cash	-8.51893
▁hotel	-8.52858
▁cell	-8.52878
▁deep	-8.5288
on	-8.53374
▁wonder	-8.53637
▁ow	-8.53646
▁message	-8.54082
▁eye	-8.54136
▁ball	-8.54156
▁broke	-8.54193
▁amazing	-8.54236
▁alice	-8.54237
▁sitting	-8.54255
▁kick	-8.54643
▁stu	-8.54702
▁cute	-8.54944
▁i	-8.55158
▁mad	-8.55214
▁maam	-8.55427
▁outta	-8.55427
▁seat	-8.56312
▁small	-8.56551
▁singing	-8.56855
▁lt	-8.56989
▁rock	-8.57457
ers	-8.57507
▁fix	-8.57621
▁werent	-8.5785
▁become	-8.57851
▁absolutely	-8.57852
▁born	-8.57859
▁roger	-8.57861
ies	-8.5798
c	-8.58075
▁knock	-8.58528
▁swear	-8.58696
▁loved	-8.58914
▁past	-8.59026
▁e	-8.59029
▁christmas	-8.59085
▁dear	-8.59189
▁chattering	-8.59209
ion	-8.5986
▁spend	-8.59966
▁boss	-8.60215
▁key	-8.60264
▁others	-8.6036
▁quite	-8.60419
▁christian	-8.61512
▁blue	-8.61542
▁brothers	-8.61567
▁box	-8.61574
▁birthday	-8.61601
▁da	-8.61819
less	-8.62125
ve	-8.62298
▁known	-8.6232
▁feels	-8.62617
▁strong	-8.62767
▁slow	-8.62779
▁situation	-8.62883
▁single	-8.6292
▁lovely	-8.62984
▁bloody	-8.63134
▁ones	-8.63135
▁ran	-8.63771
▁ground	-8.63946
▁mm	-8.64174
▁completely	-8.64218
▁eight	-8.64327
▁speaking	-8.64753
▁arm	-8.65018
▁space	-8.65284
▁worth	-8.65329
▁except	-8.65413
▁beach	-8.6544
▁major	-8.65495
▁across	-8.65497
▁boat	-8.65499
▁gentlemen	-8.65499
▁awesome	-8.65499
▁jerry	-8.65499
▁sim	-8.65805
▁less	-8.659
▁killing	-8.66077
man	-8.66267
▁law	-8.66347
▁bill	-8.66691
▁kept	-8.66831
▁goodbye	-8.66831
▁lying	-8.66866
▁takes	-8.66881
▁looked	-8.66889
▁st	-8.67105
▁wearing	-8.67253
▁king	-8.67501
▁explain	-8.67588
▁quick	-8.67998
▁prison	-8.681
▁mistake	-8.68134
▁choice	-8.68186
▁secret	-8.68198
▁keys	-8.68231
▁victor	-8.68281
▁stick	-8.68662
▁breathe	-8.69171
▁fish	-8.69211
▁hole	-8.6923
▁fall	-8.69254
▁shall	-8.69549
▁worse	-8.69552
▁proud	-8.69552
▁driving	-8.69553
▁beer	-8.69601
▁wed	-8.69687
▁building	-8.69691
able	-8.69962
▁eli	-8.70308
▁enjoy	-8.70348
▁tight	-8.70787
▁accident	-8.70904
▁court	-8.70938
▁college	-8.70942
▁definitely	-8.70944
▁clothes	-8.70945
▁agent	-8.7101
▁girlfriend	-8.71011
▁killer	-8.71519
▁standing	-8.71721
▁strange	-8.72315
▁quit	-8.72318
▁doc	-8.72338
▁forgot	-8.72349
▁fault	-8.7235
▁sweetheart	-8.72353
▁henry	-8.72426
▁bastard	-8.72454
▁in	-8.72741
▁star	-8.72872
▁words	-8.72879
▁surprise	-8.73635
us	-8.73645
▁rich	-8.7365
▁attention	-8.73778
▁uhhuh	-8.73778
▁english	-8.7378
▁crowd	-8.73792
▁lawyer	-8.73901
▁smell	-8.73904
▁p	-8.74089
▁ship	-8.74091
▁dumb	-8.7415
▁trip	-8.74224
▁dre	-8.74257
▁join	-8.7456
▁upstairs	-8.75227
▁yep	-8.75229
▁history	-8.75231
▁wonderful	-8.75254
▁tara	-8.7529
▁band	-8.75821
▁handle	-8.75984
▁finish	-8.7612
▁suck	-8.76309
▁needed	-8.76381
▁share	-8.76522
▁david	-8.76698
▁till	-8.76705
▁test	-8.76727
▁hed	-8.76839
▁gold	-8.77042
▁attack	-8.77599
▁act	-8.7763
▁bus	-8.77693
▁film	-8.77711
▁smoke	-8.7788
▁win	-8.77917
▁fair	-8.78053
▁possible	-8.7819
▁south	-8.7819
▁pants	-8.78193
▁feet	-8.78195
▁earth	-8.78198
▁june	-8.78198
▁groaning	-8.78219
▁babe	-8.7825
▁finished	-8.78425
▁breath	-8.78687
ass	-8.78755
▁system	-8.79038
▁laugh	-8.79298
▁sell	-8.79529
▁realize	-8.79562
▁short	-8.79573
lng	-8.79575
▁bank	-8.79628
▁support	-8.79691
▁congratulations	-8.79705
▁sergeant	-8.79706
▁donnie	-8.79793
▁yelling	-8.79809
▁joke	-8.79879
▁shoes	-8.79962
▁knocking	-8.8011
▁gods	-8.80392
▁report	-8.80791
▁lay	-8.80943
▁de	-8.81232
▁panting	-8.81245
▁mookie	-8.81249
▁grab	-8.81353
▁truck	-8.81413
▁club	-8.81445
▁evening	-8.81664
▁state	-8.81728
▁fit	-8.81924
▁t	-8.82184
m	-8.82232
▁n	-8.82299
▁appreciate	-8.82619
▁respect	-8.82662
▁goin	-8.82796
▁north	-8.82804
▁dying	-8.82808
▁bought	-8.8281
▁language	-8.82942
▁scene	-8.82945
▁yesterday	-8.82977
▁ryan	-8.82991
▁favor	-8.83013
▁hundred	-8.83056
▁er	-8.83101
▁a	-8.83213
ment	-8.83743
▁turned	-8.83749
▁seconds	-8.84019
▁honest	-8.84163
▁glass	-8.84356
▁colonel	-8.84394
▁giving	-8.84394
▁bathroom	-8.84394
▁island	-8.84395
▁jail	-8.84396
▁hungry	-8.844
▁questions	-8.84427
▁early	-8.84433
▁gasping	-8.84488
▁computer	-8.84661
▁breathing	-8.84739
▁age	-8.8491
▁listening	-8.85396
▁lock	-8.85476
▁horse	-8.85804
▁near	-8.85867
▁anywhere	-8.86007
▁perhaps	-8.86007
▁worried	-8.86007
▁bunch	-8.86013
▁poor	-8.86014
▁pussy	-8.86031
▁eh	-8.86035
k	-8.86204
▁department	-8.86233
▁ho	-8.86257
▁alarm	-8.86271
▁video	-8.86276
▁nah	-8.8698
▁count	-8.87105
an	-8.87332
▁works	-8.87573
▁witch	-8.87596
▁suit	-8.87619
▁forever	-8.87646
▁tough	-8.87646
▁foot	-8.87655
▁stuck	-8.87662
▁stopped	-8.87673
▁station	-8.87957
▁partner	-8.8798
▁month	-8.88012
▁ii	-8.88202
▁sun	-8.88278
▁mess	-8.88554
▁pass	-8.88759
up	-8.89069
▁jump	-8.8908
▁fresh	-8.89174
▁neck	-8.89249
▁eric	-8.89268
▁riley	-8.8932
▁information	-8.89324
▁lucas	-8.89326
▁tired	-8.89353
▁personal	-8.89362
▁hide	-8.89402
▁busy	-8.89465
▁hospital	-8.89544
▁wouldve	-8.89668
▁r	-8.90832
▁howd	-8.90864
▁general	-8.90897
▁smile	-8.90983
▁bob	-8.90983
▁candy	-8.91007
▁wrote	-8.91008
▁private	-8.91009
▁jimmy	-8.91009
▁cube	-8.91021
▁ex	-8.91148
▁pop	-8.91326
▁fear	-8.91362
▁pizza	-8.91362
▁window	-8.91412
▁ring	-8.91424
▁rings	-8.92318
▁burn	-8.92489
▁block	-8.92558
▁fly	-8.92589
▁green	-8.92723
▁evidence	-8.92732
▁brenda	-8.92732
▁unless	-8.92789
▁sean	-8.9281
▁billy	-8.92908
▁wedding	-8.93032
▁relationship	-8.93145
▁conversation	-8.93208
ie	-8.93663
▁walking	-8.93748
▁kinda	-8.94014
▁nine	-8.94069
▁sing	-8.94305
▁drunk	-8.9449
▁whatd	-8.94511
▁whoo	-8.94518
▁interesting	-8.94743
▁weekend	-8.94911
▁action	-8.94947
▁camera	-8.94962
▁simple	-8.95346
▁legs	-8.95415
▁train	-8.95526
▁missing	-8.95614
▁dress	-8.95615
▁ms	-8.95695
▁pal	-8.95744
▁roll	-8.96005
▁certain	-8.96169
▁camp	-8.96225
▁hasnt	-8.96272
▁rather	-8.96273
▁darling	-8.96274
▁lunch	-8.96279
▁metal	-8.9643
▁problems	-8.96692
▁machine	-8.96696
▁pleasure	-8.96707
▁meant	-8.97099
▁fucker	-8.97316
▁park	-8.97443
▁calls	-8.97579
▁agree	-8.97875
▁final	-8.97901
▁nick	-8.97972
▁beyond	-8.9809
▁phillip	-8.9809
▁russell	-8.9809
▁code	-8.98095
▁shell	-8.98099
▁sandie	-8.98101
▁lead	-8.98167
▁kate	-8.98275
▁folks	-8.98298
▁force	-8.98439
▁double	-8.9846
▁dollars	-8.98547
▁talked	-8.99292
▁mum	-8.99403
▁loud	-8.99779
▁dangerous	-8.9983
▁jones	-8.99839
▁lynn	-8.99841
▁eloise	-8.99942
▁london	-8.99942
▁howard	-8.99945
▁third	-8.99948
▁forward	-8.99948
▁throat	-8.99948
▁cream	-8.9995
▁sweetie	-8.9998
▁named	-9.00115
▁steal	-9.00121
▁owe	-9.00181
▁locked	-9.00207
▁saved	-9.00337
▁acting	-9.00351
▁write	-9.00374
▁tape	-9.00379
▁whose	-9.0041
▁sake	-9.00478
▁position	-9.00483
▁guard	-9.00484
▁movies	-9.0079
▁al	-9.00897
▁normal	-9.01725
▁florida	-9.01829
▁instead	-9.01829
▁summer	-9.01829
▁neighborhood	-9.01829
▁knife	-9.01862
▁wine	-9.02219
▁fighting	-9.02855
▁crash	-9.0308
▁return	-9.03151
ness	-9.034
▁carry	-9.03532
▁plane	-9.03743
▁upset	-9.03746
▁spot	-9.03746
▁california	-9.03752
▁caught	-9.03752
▁nowhere	-9.03752
▁putting	-9.03827
▁shouting	-9.03865
▁tires	-9.04101
▁miles	-9.04103
te	-9.04215
▁group	-9.04257
▁weapon	-9.04391
▁rules	-9.0458
▁missed	-9.0462
▁lights	-9.04864
▁push	-9.05121
▁teach	-9.05283
▁moved	-9.05457
▁list	-9.05641
▁heavy	-9.05712
▁terrible	-9.05713
▁pregnant	-9.05713
▁credit	-9.05715
▁lonely	-9.05723
le	-9.05724
▁creaking	-9.05729
▁excited	-9.05734
ce	-9.0579
▁grand	-9.05896
▁engine	-9.05954
▁dare	-9.06088
▁changed	-9.06292
▁beth	-9.06434
▁lived	-9.06647
▁starts	-9.06784
▁reading	-9.07024
▁arrest	-9.07089
▁visit	-9.07351
▁starting	-9.07504
▁board	-9.07607
▁fell	-9.07675
▁they	-9.07692
▁chief	-9.07712
▁loretta	-9.07712
▁church	-9.07712
▁government	-9.07713
▁trevor	-9.07713
▁spent	-9.07713
▁inhales	-9.07753
▁sandy	-9.07758
▁race	-9.078
▁nicole	-9.07867
▁color	-9.07916
▁command	-9.08134
▁sea	-9.08218
ive	-9.08282
▁level	-9.08294
▁boyfriend	-9.08352
▁shirt	-9.08352
▁paper	-9.08434
▁lve	-9.08937
▁honor	-9.09205
▁taste	-9.09551
▁imagine	-9.09565
▁waste	-9.09572
▁adrian	-9.09747
▁abigail	-9.09753
▁kitchen	-9.09753
▁sarge	-9.09753
▁president	-9.09753
▁protect	-9.09754
▁west	-9.09759
▁johnny	-9.09764
▁mama	-9.09765
▁kane	-9.09784
▁jay	-9.09799
▁walter	-9.09807
▁cock	-9.09861
▁offer	-9.09907
▁present	-9.10053
▁type	-9.10092
▁drugs	-9.10131
▁horn	-9.10311
▁land	-9.10352
▁sexy	-9.10382
▁round	-9.1044
▁corner	-9.10519
▁birds	-9.10649
▁given	-9.10741
▁shooting	-9.10985
▁rid	-9.11121
▁expect	-9.1125
▁played	-9.11304
▁cry	-9.11538
▁entire	-9.11732
▁eddie	-9.11837
▁terrance	-9.11837
▁beginning	-9.11838
▁fbi	-9.11839
▁choose	-9.11841
▁beauty	-9.11844
▁yaya	-9.11854
▁barry	-9.11863
▁director	-9.11863
▁extra	-9.11872
▁dirty	-9.11892
▁army	-9.12055
▁banging	-9.12088
▁grow	-9.12205
▁d	-9.12381
▁continue	-9.12468
▁richard	-9.12651
▁closed	-9.12708
▁art	-9.12811
▁liked	-9.12885
▁shower	-9.1321
▁pack	-9.13389
▁sad	-9.1346
▁m	-9.13464
ation	-9.1375
ist	-9.13787
▁low	-9.13912
▁afternoon	-9.13964
▁jeff	-9.13964
▁address	-9.13965
▁lori	-9.13967
▁freedom	-9.13969
▁castle	-9.1397
▁huge	-9.14007
▁base	-9.14043
▁honestly	-9.14103
▁lance	-9.14106
▁meg	-9.14623
▁difference	-9.14677
▁local	-9.14688
▁moms	-9.14728
▁soul	-9.14792
▁thousand	-9.14812
▁hanging	-9.15097
en	-9.15495
▁boyd	-9.15549
▁press	-9.15902
▁ed	-9.15994
▁whether	-9.16138
▁crew	-9.1614
▁within	-9.16141
▁counselor	-9.16145
▁booth	-9.16147
▁everywhere	-9.16148
▁bell	-9.16182
▁james	-9.16246
▁shed	-9.16325
▁loves	-9.16331
▁hall	-9.16334
▁paula	-9.16398
▁shop	-9.16423
▁doors	-9.1684
▁apartment	-9.16944
▁east	-9.16959
▁idiot	-9.17
▁crime	-9.17029
▁drug	-9.1744
▁holding	-9.17526
▁bomb	-9.17619
▁hat	-9.17752
▁punch	-9.17758
▁guns	-9.17775
▁mark	-9.18065
▁blame	-9.18175
▁cross	-9.18252
▁built	-9.1836
▁lieutenant	-9.1836
▁themistokles	-9.1836
▁future	-9.18361
▁sydney	-9.18361
▁klara	-9.18361
▁heavily	-9.18364
▁memory	-9.18365
▁jamie	-9.18368
▁river	-9.18372
▁thatll	-9.18379
▁gaz	-9.18387
▁bigger	-9.18422
▁chad	-9.18453
▁broken	-9.18457
▁where	-9.1853
▁jean	-9.18563
▁gives	-9.18576
▁interest	-9.18627
▁talkin	-9.18808
▁charge	-9.19076
▁decision	-9.19229
▁bottle	-9.19298
▁finger	-9.19316
▁picked	-9.19366
▁tom	-9.19373
▁eating	-9.19976
▁piss	-9.20009
▁skin	-9.20025
▁reach	-9.20046
▁crap	-9.20087
out	-9.20139
▁j	-9.20296
▁numbers	-9.20393
▁nervous	-9.2052
▁peace	-9.20624
▁asleep	-9.20633
▁malorie	-9.20633
▁rachel	-9.20633
▁professor	-9.20636
▁janet	-9.20642
▁danny	-9.20653
▁obviously	-9.20691
▁judge	-9.20911
▁copy	-9.21007
▁cheers	-9.21023
▁couldve	-9.21073
▁stone	-9.21289
▁wa	-9.21408
▁los	-9.21427
▁turns	-9.21483
▁guest	-9.21521
▁desalvo	-9.21531
▁mary	-9.21537
▁ghost	-9.21625
▁ben	-9.2252
ry	-9.22625
▁difficult	-9.22798
▁leon	-9.22822
▁warm	-9.22886
▁india	-9.22903
▁doubt	-9.22959
▁worst	-9.22959
▁area	-9.22959
▁hollywood	-9.22959
▁colin	-9.22966
▁apologize	-9.22966
▁wild	-9.22968
▁ought	-9.22985
▁involved	-9.23015
▁cheering	-9.23057
▁deeply	-9.23166
▁nuts	-9.23608
▁books	-9.23699
▁hero	-9.23974
▁staying	-9.24338
▁richards	-9.24421
▁sucks	-9.25062
▁soft	-9.25144
▁mostly	-9.2534
▁neither	-9.2534
▁willie	-9.2534
▁milton	-9.2534
▁zooey	-9.2534
▁french	-9.2534
▁investigation	-9.25341
▁samantha	-9.25342
▁wendy	-9.25345
▁sobbing	-9.25347
▁airport	-9.25347
▁bodies	-9.25354
▁usually	-9.25393
▁tits	-9.25455
▁decided	-9.25481
▁mayor	-9.25568
▁text	-9.25867
▁seemed	-9.25878
▁account	-9.26071
▁following	-9.26158
▁deserve	-9.26243
▁marriage	-9.26315
▁operation	-9.26393
▁tree	-9.26433
▁dig	-9.26719
▁notice	-9.27604
▁milk	-9.27611
▁suppose	-9.27612
▁nothin	-9.27769
▁ridiculous	-9.27779
▁aiex	-9.27779
▁rush	-9.2778
▁chuckling	-9.27781
▁cheese	-9.27781
▁larry	-9.27781
▁gerald	-9.27783
▁plus	-9.27784
▁emergency	-9.27787
▁hoping	-9.27937
▁wise	-9.28048
▁figured	-9.28198
▁plays	-9.28265
▁learned	-9.28298
▁jon	-9.28419
▁rain	-9.28577
▁chick	-9.28771
▁cup	-9.28796
ne	-9.28849
▁dreams	-9.29272
ful	-9.29277
▁sleeping	-9.29343
▁heat	-9.29601
▁hunt	-9.29607
▁cook	-9.29654
▁repeat	-9.29659
▁leg	-9.29744
▁bottom	-9.30173
▁arms	-9.30271
▁battle	-9.30278
▁elliot	-9.30279
▁wailing	-9.30279
▁max	-9.30279
▁walsh	-9.30279
▁marvin	-9.3028
▁taught	-9.30281
▁marcus	-9.30282
▁upon	-9.30286
▁distance	-9.30287
▁guilty	-9.30318
▁angeles	-9.30327
▁writing	-9.30328
▁besides	-9.3033
▁closer	-9.30454
▁records	-9.30762
▁beeps	-9.30869
▁experience	-9.31288
▁request	-9.3138
▁service	-9.3149
▁gas	-9.31863
▁speaks	-9.32175
▁accept	-9.32228
▁drinking	-9.32308
▁kat	-9.32401
▁screw	-9.32613
▁zo	-9.32702
▁post	-9.32771
▁doug	-9.32819
▁extreme	-9.32843
▁thomas	-9.32843
▁hadnt	-9.32843
▁nikki	-9.32843
▁angry	-9.32845
▁royal	-9.32847
▁manager	-9.3286
▁van	-9.32882
▁sky	-9.32893
▁laid	-9.329
▁screeching	-9.32941
▁nic	-9.32942
▁bass	-9.33094
▁bucks	-9.33137
▁higher	-9.33236
▁older	-9.33608
▁w	-9.33887
▁restaurant	-9.34044
▁duke	-9.34046
▁iii	-9.34093
▁fan	-9.34094
▁rent	-9.34109
▁driver	-9.34227
▁ended	-9.34415
▁paying	-9.34637
▁turning	-9.35082
▁brown	-9.35091
▁spread	-9.35131
▁raise	-9.35312
▁twenty	-9.35463
▁split	-9.35469
▁downstairs	-9.35474
▁ralph	-9.35474
▁television	-9.35474
▁nose	-9.35482
▁cameron	-9.35483
▁stories	-9.35484
▁laser	-9.35531
▁warning	-9.35593
▁self	-9.35602
▁certainly	-9.35627
▁bigge	-9.35686
▁surprised	-9.35802
el	-9.35919
▁prove	-9.35964
▁bother	-9.3604
▁promised	-9.36046
▁over	-9.36088
▁pa	-9.36538
▁risk	-9.36561
th	-9.36567
▁keeps	-9.36606
▁angel	-9.36734
▁using	-9.36843
▁begin	-9.36851
▁mate	-9.36859
▁cat	-9.36919
▁orders	-9.36985
um	-9.37174
▁mothers	-9.37477
▁treat	-9.37545
▁rap	-9.37639
▁hurts	-9.37695
▁lift	-9.37808
▁v	-9.38034
▁famous	-9.3806
▁genius	-9.38116
▁plenty	-9.38177
▁suzanne	-9.38177
▁whistling	-9.38177
▁esther	-9.38177
▁jonathan	-9.38177
▁kelly	-9.38177
▁tongue	-9.38177
▁vegas	-9.38178
▁evil	-9.38178
▁large	-9.3818
▁theater	-9.3818
▁rumbling	-9.3818
▁lisa	-9.38181
▁thunder	-9.38186
▁teeth	-9.38192
▁note	-9.38211
▁tony	-9.38214
▁joy	-9.38283
▁nora	-9.38438
▁interested	-9.38457
▁sa	-9.38471
▁realized	-9.38597
▁ears	-9.38763
▁pam	-9.38887
▁yells	-9.38928
▁store	-9.39225
▁gift	-9.39305
▁bang	-9.39342
▁load	-9.39366
▁mindy	-9.39369
▁chair	-9.39486
▁chocolate	-9.39612
▁nigger	-9.39635
ch	-9.39703
ous	-9.39954
p	-9.40098
▁hearing	-9.40113
▁dogs	-9.40267
▁ls	-9.40597
▁loose	-9.40815
▁total	-9.40853
▁toast	-9.4086
▁bust	-9.40863
▁cindy	-9.40955
▁fantastic	-9.40955
▁michael	-9.40955
▁often	-9.40955
▁hannibal	-9.40955
▁blind	-9.40955
▁twice	-9.40956
▁basically	-9.40956
▁brian	-9.40956
▁lainey	-9.40958
▁joking	-9.40961
▁flight	-9.40962
▁lake	-9.40977
▁immediately	-9.40994
▁games	-9.41061
▁richie	-9.41206
▁butt	-9.41281
▁streets	-9.4139
▁dis	-9.4147
▁allow	-9.41715
▁wondering	-9.41745
▁el	-9.41893
g	-9.41909
▁contact	-9.42077
▁belong	-9.42218
▁niggers	-9.42297
▁elevator	-9.42347
▁breaking	-9.42397
▁belt	-9.42401
▁heaven	-9.42432
▁field	-9.42472
▁student	-9.42484
▁hunter	-9.4252
▁den	-9.43273
▁chris	-9.43506
▁hobbes	-9.43635
▁forgive	-9.43735
▁sheriff	-9.43812
▁mckenna	-9.43812
▁aaron	-9.43812
▁ellie	-9.43813
▁dancing	-9.43813
▁downtown	-9.43813
▁whatre	-9.43814
▁bailey	-9.43816
▁rare	-9.43818
▁claire	-9.43822
▁safety	-9.43851
▁sold	-9.43864
▁stage	-9.43881
▁imran	-9.43927
u	-9.43974
▁quickly	-9.44032
▁pissed	-9.44105
▁pictures	-9.44504
▁rat	-9.44514
▁swing	-9.45002
▁sexual	-9.45058
▁bird	-9.45129
▁spoke	-9.4514
▁jet	-9.45296
▁officers	-9.45369
▁lines	-9.45395
▁remain	-9.45407
▁russian	-9.45428
▁letter	-9.45541
▁jo	-9.45557
▁there	-9.45717
▁nurse	-9.45935
▁player	-9.46188
ate	-9.46222
▁witness	-9.46405
▁stars	-9.46546
▁escape	-9.46567
▁survive	-9.46574
▁match	-9.46713
ized	-9.46731
▁especially	-9.46753
▁footsteps	-9.46753
▁shouldve	-9.46753
▁willing	-9.46753
▁boring	-9.46754
▁woke	-9.46754
▁aware	-9.46757
▁exhales	-9.46757
▁cancer	-9.46759
▁batman	-9.4676
▁mexico	-9.46763
▁laura	-9.46765
▁rusty	-9.46773
▁whispering	-9.46798
▁concerned	-9.46867
▁moaning	-9.46868
▁ahh	-9.46879
▁lf	-9.47021
ley	-9.47027
▁drinks	-9.47158
▁losing	-9.47179
im	-9.47203
▁dry	-9.47367
▁murdered	-9.47453
▁co	-9.47598
▁devil	-9.47774
ity	-9.47846
x	-9.47883
▁ends	-9.47885
▁cos	-9.4796
▁animals	-9.48052
▁remind	-9.48123
▁helping	-9.48158
▁italian	-9.48238
▁mo	-9.48258
▁harold	-9.48312
▁weather	-9.48375
▁spirit	-9.48378
▁suspect	-9.48448
▁animal	-9.48464
▁brain	-9.48485
▁fingers	-9.48495
▁gate	-9.48497
▁places	-9.4858
▁le	-9.48664
▁site	-9.48726
▁thinks	-9.49263
▁se	-9.49498
▁ships	-9.49524
▁mention	-9.49596
▁decide	-9.49613
▁sharp	-9.49674
▁stole	-9.49735
▁hm	-9.4977
▁greg	-9.49782
▁dallas	-9.49783
▁jules	-9.49784
▁babies	-9.49784
▁stallworth	-9.49784
▁kevin	-9.49784
▁nope	-9.49784
▁apparently	-9.49785
▁program	-9.49785
▁screen	-9.49787
▁bedroom	-9.49793
▁castor	-9.49799
▁disgusting	-9.49809
▁scary	-9.4981
▁coughing	-9.4983
▁hiding	-9.49868
▁motherfucking	-9.49884
▁aw	-9.49915
▁beeping	-9.49974
▁whispers	-9.49986
▁mende	-9.50027
▁rule	-9.50149
▁opening	-9.5043
▁assholes	-9.50469
▁closet	-9.50651
▁walked	-9.51054
▁lots	-9.51105
▁kim	-9.51274
▁search	-9.51287
▁professional	-9.51314
▁jew	-9.51541
▁soldier	-9.51585
▁actor	-9.51621
ah	-9.52201
▁feelings	-9.52333
z	-9.52397
▁coach	-9.52548
▁pretend	-9.5257
▁pot	-9.526
▁keeping	-9.52636
▁tip	-9.52819
▁chest	-9.5283
▁sandwich	-9.52855
▁impossible	-9.52908
▁sinclair	-9.52908
▁nathan	-9.52909
▁midnight	-9.52909
▁spanish	-9.52909
▁stuart	-9.52911
▁gotten	-9.52911
▁threw	-9.52913
▁ugly	-9.52913
▁grace	-9.52916
▁dropped	-9.52916
▁ugh	-9.52934
▁coat	-9.52938
▁center	-9.52951
▁clay	-9.52952
▁awful	-9.53026
▁growing	-9.53403
▁fathers	-9.53491
re	-9.53588
▁tad	-9.53926
as	-9.54108
ant	-9.5417
▁plans	-9.54319
▁trick	-9.54462
▁bun	-9.5456
▁cocksucker	-9.54663
▁price	-9.54677
▁whore	-9.54707
▁pilot	-9.54745
▁role	-9.54751
▁mask	-9.54767
▁victim	-9.54793
w	-9.54799
▁states	-9.54846
▁roof	-9.55038
▁watched	-9.55201
to	-9.5521
▁heads	-9.55316
▁pray	-9.55383
▁wash	-9.55451
▁sweat	-9.55455
▁consider	-9.55507
▁magic	-9.55562
▁bless	-9.55589
▁marry	-9.55781
▁chatter	-9.55811
▁lou	-9.55923
▁sudden	-9.56031
▁h	-9.56036
▁main	-9.56045
▁ash	-9.56106
▁dope	-9.56118
▁gorgeous	-9.56134
▁friday	-9.56134
▁monday	-9.56134
▁terrific	-9.56136
▁jason	-9.56136
▁compton	-9.56136
▁rough	-9.56137
▁earlier	-9.56138
▁familiar	-9.56138
▁meat	-9.56139
▁comfortable	-9.56141
▁unbelievable	-9.56141
▁invited	-9.56236
▁letting	-9.56331
▁bath	-9.56333
▁reached	-9.56466
▁knees	-9.56554
▁pee	-9.5661
▁motherfuckers	-9.56738
▁lied	-9.57074
▁rob	-9.57077
▁track	-9.57165
ng	-9.57252
▁travel	-9.57326
id	-9.57546
▁sight	-9.57647
▁san	-9.57706
▁national	-9.57881
▁virgin	-9.57911
▁desk	-9.57923
▁ca	-9.5795
▁pocket	-9.57994
▁jacket	-9.58066
▁season	-9.58084
▁greek	-9.58095
▁apple	-9.58127
▁ticket	-9.5814
▁weapons	-9.58372
▁sh	-9.58476
▁ideas	-9.58479
▁reasons	-9.58495
▁opens	-9.58542
ish	-9.58618
▁bringing	-9.5881
▁beg	-9.58833
▁fill	-9.58865
▁speed	-9.59145
▁study	-9.59183
▁focus	-9.59226
▁purge	-9.59241
▁recognize	-9.59273
▁feed	-9.59291
▁louis	-9.59314
▁weak	-9.59333
▁hook	-9.59367
▁became	-9.59468
▁literally	-9.59468
▁military	-9.59468
▁otherwise	-9.59468
▁insane	-9.59468
▁boston	-9.59468
▁advice	-9.59468
▁grew	-9.59468
▁whoever	-9.59469
▁papa	-9.59471
▁actress	-9.59472
▁social	-9.59475
▁nasty	-9.59479
▁swimming	-9.59486
▁standard	-9.59488
▁onto	-9.59495
▁ghostface	-9.59501
▁pete	-9.59533
▁interviewer	-9.59541
▁rape	-9.5957
▁witches	-9.59575
▁frankie	-9.59575
▁nature	-9.59586
▁grade	-9.59616
▁coughs	-9.59672
▁zone	-9.59895
▁burning	-9.60113
▁male	-9.60165
▁pulled	-9.60401
▁cars	-9.60416
▁fool	-9.60903
▁exist	-9.61253
▁pressure	-9.61292
▁market	-9.61453
▁criminal	-9.61555
▁target	-9.61556
▁chicken	-9.61585
▁client	-9.6159
▁photo	-9.61592
▁ohh	-9.61854
head	-9.62015
▁cost	-9.62135
age	-9.62243
▁hung	-9.62644
▁robert	-9.62647
▁dump	-9.62679
▁matt	-9.62727
▁dimitr	-9.62759
▁sue	-9.62761
▁foreign	-9.62889
▁prince	-9.62892
▁butter	-9.62908
▁somethin	-9.6291
▁empty	-9.62916
▁gunfire	-9.62916
▁gym	-9.62916
▁punjabi	-9.62916
▁responsibility	-9.62916
▁webber	-9.62916
▁horrible	-9.62916
▁flesh	-9.62916
▁sixpack	-9.62917
▁rude	-9.62918
▁priest	-9.6292
▁football	-9.62924
▁heh	-9.62926
▁pool	-9.62928
▁wet	-9.6293
▁comin	-9.62932
▁medical	-9.62937
▁andy	-9.62939
▁incredible	-9.62962
▁stairs	-9.63034
▁union	-9.63115
▁pink	-9.63196
▁dressed	-9.63383
▁armed	-9.63536
ian	-9.63579
▁bitches	-9.63583
▁bags	-9.63595
▁hon	-9.63724
▁sirens	-9.64118
▁pre	-9.64197
f	-9.64245
▁fired	-9.64288
▁freak	-9.64293
▁pie	-9.64324
▁non	-9.64334
one	-9.64364
▁brains	-9.64449
▁bear	-9.64449
▁build	-9.64596
▁interview	-9.64659
▁contract	-9.64941
▁strike	-9.64946
▁foley	-9.65016
▁nobodys	-9.65076
▁master	-9.65082
▁queen	-9.65083
▁cigarette	-9.65156
▁sometime	-9.65179
▁papers	-9.6521
▁pro	-9.6577
▁crack	-9.65788
▁career	-9.65857
▁tea	-9.66022
▁weed	-9.66122
▁complete	-9.66205
▁introduce	-9.66262
▁divorce	-9.66329
▁madam	-9.66404
▁freeze	-9.66428
▁gettin	-9.6648
▁abdullah	-9.66487
▁distant	-9.66487
▁felicia	-9.66487
▁suicide	-9.66487
▁couch	-9.66487
▁afford	-9.66488
▁kenny	-9.66488
▁curious	-9.66489
▁shame	-9.66489
▁poem	-9.6649
▁mmmhmm	-9.6649
▁access	-9.6649
▁liar	-9.66492
▁mourning	-9.66494
▁network	-9.66495
▁truly	-9.66495
▁danger	-9.66497
▁santa	-9.66501
▁mister	-9.66504
▁jewish	-9.66504
▁pair	-9.66507
▁machinery	-9.66508
▁piper	-9.66536
▁recently	-9.66538
▁suddenly	-9.66602
▁arrived	-9.66609
▁josh	-9.6668
▁mission	-9.66685
▁hired	-9.66736
ty	-9.66758
▁hart	-9.66759
nt	-9.66892
▁closes	-9.67115
▁spit	-9.67176
▁snow	-9.67503
▁schedule	-9.67516
▁units	-9.67559
men	-9.67866
▁clients	-9.6788
▁everybodys	-9.68069
▁steve	-9.68436
▁talent	-9.68476
▁project	-9.68484
▁someones	-9.68544
▁charges	-9.68624
▁out	-9.68693
is	-9.68723
▁fruit	-9.68725
▁shake	-9.68774
▁admit	-9.68823
▁checked	-9.68827
▁claim	-9.68858
▁chain	-9.68861
▁direct	-9.69351
▁per	-9.69475
▁march	-9.6978
▁si	-9.69785
▁bare	-9.69832
▁grant	-9.70014
▁secure	-9.70021
▁release	-9.70071
▁swim	-9.70104
▁chill	-9.70134
▁trent	-9.70172
▁knox	-9.70189
▁audience	-9.70191
▁expensive	-9.70191
▁giggling	-9.70191
▁oclock	-9.70191
▁wolken	-9.70191
▁wyatt	-9.70191
▁canada	-9.70191
▁mallory	-9.70191
▁whenever	-9.70192
▁yellow	-9.70195
▁nola	-9.70195
▁slept	-9.70195
▁unfortunately	-9.70197
▁opportunity	-9.70204
▁collins	-9.70219
▁scoffs	-9.70219
▁protection	-9.70224
▁duty	-9.70224
▁gale	-9.7026
▁received	-9.70275
▁madame	-9.70292
▁federa	-9.70317
▁disappeared	-9.70365
▁due	-9.70523
▁clearly	-9.70709
▁americans	-9.70763
▁rolling	-9.70886
by	-9.70912
▁mikey	-9.70932
▁cards	-9.71043
▁score	-9.71342
▁fellas	-9.71402
▁bow	-9.71514
▁stops	-9.72042
▁regular	-9.72375
▁sunday	-9.72495
▁issue	-9.72535
▁view	-9.72625
▁tap	-9.72663
▁matthew	-9.72671
▁shoulder	-9.72695
▁teacher	-9.72817
▁u	-9.7305
▁deliver	-9.73263
▁jam	-9.733
▁switch	-9.7338
▁enter	-9.73661
▁borrow	-9.73789
▁natural	-9.73933
▁correct	-9.7397
▁apart	-9.74026
▁although	-9.74037
▁enemy	-9.74037
▁exciting	-9.74037
▁including	-9.74037
▁pardon	-9.74037
▁period	-9.74037
▁understood	-9.74037
▁axel	-9.74038
▁public	-9.74038
▁norton	-9.74038
▁percent	-9.74038
▁pu	-9.74039
▁breakfast	-9.74041
▁crush	-9.74041
▁central	-9.74042
▁license	-9.74042
▁mistress	-9.74042
▁according	-9.74044
▁beast	-9.74045
▁naked	-9.74046
▁saving	-9.74048
▁laughter	-9.74051
▁panic	-9.74053
▁katie	-9.74062
▁basement	-9.74064
▁chanting	-9.7407
▁pino	-9.741
▁embarrassed	-9.74133
▁joni	-9.7415
▁cab	-9.74165
▁martin	-9.74245
▁image	-9.74255
king	-9.74258
▁allowed	-9.74357
way	-9.74398
▁lower	-9.74407
▁je	-9.74422
▁hire	-9.74434
▁cells	-9.74522
▁burned	-9.74562
▁lately	-9.74786
▁flying	-9.74788
it	-9.74852
▁falling	-9.74983
▁mans	-9.75004
▁bud	-9.75109
▁touched	-9.75321
▁murders	-9.75334
▁no	-9.75336
▁trace	-9.75442
▁classic	-9.75501
▁pulling	-9.75584
▁scream	-9.75996
rs	-9.76215
▁serve	-9.7639
▁prick	-9.7649
▁chas	-9.76521
▁slap	-9.76532
▁monster	-9.76555
▁bridge	-9.76569
▁picking	-9.76574
▁vehicle	-9.76606
▁punk	-9.76631
▁tank	-9.76643
▁weight	-9.76651
▁mountain	-9.76654
▁spell	-9.7666
▁page	-9.76952
▁siren	-9.76986
▁meal	-9.7711
▁tu	-9.77208
▁rigg	-9.77208
▁shows	-9.77332
▁discuss	-9.77346
▁pen	-9.77388
▁shock	-9.77439
▁opened	-9.77441
▁collect	-9.77697
▁process	-9.77719
▁bush	-9.77859
▁cast	-9.77911
▁obvious	-9.77935
▁bright	-9.77938
▁legal	-9.78006
▁tour	-9.78035
▁artemisia	-9.78037
▁easier	-9.78037
▁maretto	-9.78037
▁mirror	-9.78037
▁schultz	-9.78037
▁silver	-9.78037
▁closing	-9.78038
▁community	-9.78038
▁piano	-9.78038
▁torment	-9.78038
▁excellent	-9.7804
▁common	-9.78041
▁kitty	-9.78041
▁albert	-9.78042
▁alert	-9.78042
▁omar	-9.78043
▁innocent	-9.78043
▁fanny	-9.78044
▁society	-9.78046
▁logan	-9.78052
▁howling	-9.78072
▁daisy	-9.78079
▁embarrassing	-9.7818
▁wounded	-9.78225
▁juice	-9.78306
▁united	-9.78308
▁noticed	-9.78338
ia	-9.78339
▁faster	-9.78353
▁agreed	-9.78435
▁sally	-9.78556
▁towards	-9.78558
▁passed	-9.78608
▁gosh	-9.78614
▁itd	-9.78694
▁selling	-9.78925
▁dickie	-9.7899
▁goodness	-9.79083
▁cap	-9.79085
▁fi	-9.79538
▁con	-9.79654
▁tickets	-9.7966
▁tips	-9.79735
▁sending	-9.79736
▁o	-9.79801
▁rub	-9.801
▁accounts	-9.80282
▁model	-9.80495
▁dicks	-9.80513
▁ld	-9.80616
▁di	-9.80624
▁file	-9.80668
▁du	-9.80705
▁nights	-9.80717
▁felix	-9.80727
▁amanda	-9.80728
▁sigh	-9.80772
▁character	-9.80837
▁citizen	-9.8087
▁joint	-9.8091
▁fella	-9.8099
▁pin	-9.81045
▁dealing	-9.81085
▁tells	-9.8139
▁asses	-9.81571
▁beck	-9.81577
▁smells	-9.81837
▁confirm	-9.81968
▁practice	-9.82013
▁fort	-9.82054
▁physical	-9.82093
▁indistinct	-9.821
▁all	-9.82128
▁penis	-9.82156
▁champagne	-9.82204
▁museum	-9.82204
▁necessary	-9.82204
▁ocean	-9.82204
▁patterson	-9.82204
▁speech	-9.82204
▁whimpering	-9.82204
▁aisle	-9.82204
▁muffled	-9.82204
▁somehow	-9.82204
▁toilet	-9.82205
▁appointment	-9.82205
▁ruth	-9.82205
▁jeez	-9.82205
▁thirty	-9.82209
▁baseball	-9.82211
▁randy	-9.82214
▁accountant	-9.82217
▁flash	-9.82218
▁changing	-9.82225
▁pure	-9.82234
▁assume	-9.82235
▁whyd	-9.82235
▁rex	-9.82237
▁button	-9.82244
▁yearold	-9.82244
▁christine	-9.82244
▁sword	-9.82248
▁fred	-9.82265
▁carlos	-9.82281
▁impressed	-9.82288
▁miller	-9.823
ure	-9.82349
▁shy	-9.8238
▁hells	-9.82597
▁tryin	-9.82621
ier	-9.82936
▁ways	-9.82945
▁lee	-9.83077
▁details	-9.83092
▁harder	-9.83176
▁who	-9.83747
▁photos	-9.83833
▁soldiers	-9.84013
▁students	-9.84186
▁ba	-9.84444
▁paint	-9.84534
▁pieces	-9.84605
▁click	-9.84883
▁vacation	-9.85003
▁grandma	-9.85123
▁moon	-9.85168
▁bullet	-9.85178
▁cave	-9.85194
ey	-9.85198
▁sucker	-9.85424
▁meaning	-9.85586
▁shape	-9.85758
▁showed	-9.85991
▁checking	-9.86142
▁bite	-9.86143
▁strength	-9.86415
▁cheap	-9.86458
▁bills	-9.86466
▁aunt	-9.86471
▁corn	-9.86483
▁virus	-9.86497
▁porn	-9.8652
▁chuck	-9.86536
▁eve	-9.86539
▁sugar	-9.86551
▁clamoring	-9.86552
▁colqhoun	-9.86552
▁female	-9.86552
▁firm	-9.86552
▁greece	-9.86552
▁irene	-9.86552
▁pamela	-9.86552
▁perimeter	-9.86552
▁thursday	-9.86552
▁umbrella	-9.86552
▁vaughn	-9.86552
▁violence	-9.86552
▁chicago	-9.86552
▁telephone	-9.86552
▁among	-9.86552
▁mischa	-9.86553
▁planning	-9.86553
▁bacon	-9.86554
▁brett	-9.86555
▁property	-9.86556
▁fake	-9.86556
▁fancy	-9.86557
▁staff	-9.86557
▁square	-9.86558
▁gentleman	-9.86564
▁ripley	-9.86564
▁treatment	-9.86576
▁held	-9.86583
▁announcer	-9.86589
▁pace	-9.86594
▁connection	-9.86595
▁betty	-9.86597
▁powerful	-9.8663
▁indistinctly	-9.8666
▁glasses	-9.86697
▁inter	-9.86708
▁tied	-9.86729
▁whistle	-9.86751
▁destroyed	-9.86775
▁dial	-9.86784
▁screwed	-9.86951
▁offered	-9.87052
▁so	-9.87091
▁depends	-9.87129
▁attacked	-9.87245
▁knocked	-9.87391
▁kicked	-9.87422
▁speakers	-9.87424
▁niggas	-9.87519
▁testing	-9.87545
▁rip	-9.87638
▁blowing	-9.87837
▁lads	-9.87858
b	-9.87996
▁issues	-9.88084
▁dee	-9.88185
at	-9.88572
▁unit	-9.88634
▁loss	-9.89065
▁guests	-9.89112
▁form	-9.89306
ter	-9.89366
▁gin	-9.89451
▁size	-9.89584
▁storm	-9.89655
▁stomach	-9.89659
▁moron	-9.89661
▁rose	-9.89687
▁owner	-9.89707
▁monkey	-9.89714
▁noise	-9.89732
▁pig	-9.89769
ting	-9.89829
▁helped	-9.89908
▁tall	-9.90003
▁windows	-9.90023
tll	-9.90111
tan	-9.90298
▁pi	-9.90491
▁lies	-9.90504
▁eazy	-9.90583
son	-9.90754
▁destroy	-9.90763
▁amen	-9.90846
▁bail	-9.90848
▁ne	-9.90861
▁finding	-9.90874
▁prepare	-9.90934
▁farm	-9.91058
▁sneak	-9.9107
▁zahra	-9.91094
▁applause	-9.91097
▁detroit	-9.91097
▁fantasy	-9.91097
▁grethe	-9.91097
▁league	-9.91097
▁murphy	-9.91097
▁nelson	-9.91097
▁cocaine	-9.91097
▁dewald	-9.91097
▁kumar	-9.91098
▁cowboy	-9.91098
▁vito	-9.91099
▁coast	-9.91099
▁online	-9.911
▁cunt	-9.91101
▁douche	-9.91101
▁wherever	-9.91102
▁awake	-9.91102
▁harry	-9.91102
▁squad	-9.91102
▁stood	-9.91103
▁twelve	-9.91103
▁blew	-9.91104
▁kyle	-9.91104
▁section	-9.91104
▁confused	-9.9111
▁hindi	-9.91113
▁purse	-9.91116
▁boom	-9.91119
▁exit	-9.91123
▁hank	-9.91124
▁smoking	-9.91126
▁subt	-9.91132
▁statement	-9.91146
▁berry	-9.91155
▁wire	-9.91185
▁gary	-9.91187
▁amy	-9.91363
▁silence	-9.91433
▁maria	-9.9144
▁mentioned	-9.91451
▁shitty	-9.91555
▁traveling	-9.91572
▁parking	-9.91949
ted	-9.91991
▁bi	-9.91996
▁harm	-9.921
▁sale	-9.92162
▁showing	-9.92239
▁woo	-9.9235
▁hardly	-9.92512
▁clicks	-9.92515
ism	-9.92598
▁tellin	-9.92854
▁tapes	-9.9292
▁nut	-9.92935
▁flip	-9.93084
▁brave	-9.93167
▁shots	-9.93176
▁tend	-9.93383
ton	-9.9339
▁lookin	-9.93465
▁simpl	-9.93551
▁hug	-9.93749
▁ruin	-9.93837
▁thousands	-9.93969
▁yell	-9.94179
▁condition	-9.94289
▁headed	-9.94297
▁vagina	-9.94311
▁sausage	-9.94426
▁clue	-9.94439
▁neb	-9.94451
▁forces	-9.94486
▁gunshot	-9.94503
▁member	-9.94514
▁neighbor	-9.94514
▁broad	-9.9452
▁patient	-9.94528
▁pound	-9.94529
▁everyones	-9.94589
▁coop	-9.94676
▁an	-9.94991
▁wood	-9.94998
▁bands	-9.95348
▁runs	-9.95465
▁bastards	-9.95506
▁assault	-9.95599
▁oil	-9.95717
▁smith	-9.95725
▁original	-9.95768
▁rick	-9.9578
▁chose	-9.95812
▁faith	-9.9585
▁trap	-9.95855
▁anniversary	-9.95859
▁attorney	-9.95859
▁brilliant	-9.95859
▁lincoln	-9.95859
▁byebye	-9.95859
▁ferrigno	-9.95859
▁freddie	-9.95859
▁instrument	-9.95859
▁funeral	-9.95859
▁wasting	-9.95859
▁pollux	-9.9586
▁doris	-9.9586
▁romantic	-9.9586
▁series	-9.9586
▁racist	-9.9586
▁gail	-9.9586
▁motel	-9.95861
▁reese	-9.95861
▁impressive	-9.95864
▁coco	-9.95865
▁becoming	-9.95865
▁halloween	-9.95866
▁responsible	-9.95872
▁ruthless	-9.9588
▁satan	-9.95881
▁troy	-9.95888
▁vision	-9.9589
▁quinn	-9.95895
▁humor	-9.95897
▁row	-9.95899
▁distorted	-9.95899
▁chosen	-9.95909
line	-9.95912
▁echoing	-9.95916
▁robin	-9.95918
▁slide	-9.9592
▁narrat	-9.95982
▁failed	-9.96003
▁approaching	-9.9603
▁boyle	-9.96098
▁prepared	-9.96103
▁blast	-9.96122
▁dam	-9.96138
▁lover	-9.9614
ge	-9.96171
▁personally	-9.96196
▁filled	-9.96213
you	-9.96218
▁en	-9.96263
▁busted	-9.96281
▁that	-9.9629
ize	-9.96395
ary	-9.96452
▁lips	-9.965
ar	-9.96519
▁dads	-9.96524
▁carrying	-9.96699
▁fixed	-9.96792
▁slaves	-9.96813
▁covered	-9.96933
▁moves	-9.97028
▁pounds	-9.97217
▁kissing	-9.97311
▁mob	-9.97323
▁citizens	-9.9741
▁beating	-9.97493
▁stan	-9.97542
▁cigarettes	-9.97673
land	-9.97712
il	-9.97753
▁parts	-9.97886
▁hated	-9.9789
▁buying	-9.97935
▁klan	-9.98
▁sals	-9.98514
▁add	-9.98664
do	-9.98843
▁disappear	-9.9887
time	-9.99092
▁li	-9.99187
▁wound	-9.99187
▁tear	-9.99195
▁bull	-9.99205
▁attitude	-9.99309
▁advantage	-9.99381
▁device	-9.99383
▁jobs	-9.99405
os	-9.99465
▁product	-9.9947
▁cameras	-9.99547
▁grown	-9.99551
▁signal	-9.99677
▁reporter	-9.99759
▁hills	-10.0009
▁tuck	-10.0062
▁heading	-10.0066
▁spare	-10.0066
▁jealous	-10.007
▁dirt	-10.0073
▁desperate	-10.0074
▁illegal	-10.0075
▁particular	-10.0075
▁earn	-10.0078
▁smooth	-10.0084
▁mass	-10.0085
▁arguing	-10.0086
▁dessert	-10.0086
▁equipment	-10.0086
▁families	-10.0086
▁invisible	-10.0086
▁research	-10.0086
▁universe	-10.0086
▁arjun	-10.0086
▁barbara	-10.0086
▁commercial	-10.0086
▁someday	-10.0086
▁jessica	-10.0086
▁miami	-10.0086
▁resident	-10.0086
▁jennie	-10.0086
▁generous	-10.0086
▁interlinked	-10.0086
▁pathetic	-10.0086
▁tommy	-10.0086
▁tasty	-10.0086
▁cherry	-10.0086
▁several	-10.0086
▁climb	-10.0086
▁stink	-10.0086
▁stevie	-10.0086
▁avoid	-10.0087
▁stress	-10.0087
▁commitment	-10.0087
▁asian	-10.0087
▁assistant	-10.0087
▁mobile	-10.0087
▁negative	-10.0087
▁borat	-10.0087
▁growling	-10.0087
▁pride	-10.0087
▁written	-10.0088
▁secretary	-10.0088
▁dopeman	-10.0089
▁proof	-10.0089
▁indeed	-10.0089
▁birth	-10.009
▁johnson	-10.0091
▁laughlng	-10.0091
▁honking	-10.0091
▁uhoh	-10.0092
▁stolen	-10.0094
▁gina	-10.0101
▁bleeding	-10.0109
▁charles	-10.0111
▁lad	-10.0122
▁raised	-10.0128
▁pills	-10.0131
▁flowers	-10.0147
▁pushed	-10.0147
▁be	-10.0149
▁blows	-10.016
ove	-10.0173
ow	-10.0187
▁messing	-10.0189
▁lap	-10.0193
▁waves	-10.0201
▁ding	-10.0218
▁spending	-10.0223
▁ordered	-10.023
▁ate	-10.0241
ble	-10.0261
▁monsters	-10.0275
▁map	-10.0289
▁sons	-10.0297
▁actors	-10.0306
tic	-10.0328
▁hop	-10.034
▁players	-10.0353
▁wheel	-10.0366
▁ghosts	-10.0382
▁diet	-10.0384
▁jerk	-10.0411
▁stock	-10.0424
▁mal	-10.0425
▁represent	-10.0427
board	-10.0441
▁arrive	-10.0446
▁fart	-10.0447
▁ln	-10.0454
▁kershaw	-10.0457
▁ipad	-10.0457
▁tail	-10.0465
▁review	-10.0469
▁winter	-10.047
▁tunnel	-10.0472
▁stalker	-10.0473
▁cousin	-10.0474
▁hill	-10.0479
▁sub	-10.0481
▁dollar	-10.0482
▁exercise	-10.0486
▁sisters	-10.0496
▁nation	-10.0502
▁horses	-10.0512
et	-10.0534
ga	-10.0538
▁believed	-10.0558
▁ditch	-10.0563
▁lawyers	-10.0567
▁fed	-10.0597
▁walt	-10.0597
▁official	-10.0602
▁phil	-10.0604
ee	-10.0611
▁susan	-10.0612
▁ambulance	-10.0612
▁available	-10.0612
▁fountain	-10.0612
▁kenneth	-10.0612
▁miserable	-10.0612
▁peggy	-10.0612
▁raglan	-10.0612
▁science	-10.0612
▁taylor	-10.0612
▁toffler	-10.0612
▁justice	-10.0612
▁steak	-10.0612
▁faint	-10.0612
▁register	-10.0612
▁jarmo	-10.0612
▁ethan	-10.0612
▁chalk	-10.0612
▁lounge	-10.0612
▁merry	-10.0612
▁internet	-10.0612
▁combat	-10.0612
▁intelligence	-10.0612
▁diana	-10.0612
▁suge	-10.0612
▁honour	-10.0612
▁eventually	-10.0613
▁serrano	-10.0613
▁neil	-10.0613
▁freezing	-10.0613
▁crackling	-10.0613
▁lewis	-10.0613
▁positive	-10.0613
▁sentence	-10.0613
▁custody	-10.0613
▁cartman	-10.0614
▁chopper	-10.0614
▁joyce	-10.0614
▁trial	-10.0614
▁hallway	-10.0615
▁deck	-10.0615
▁vibe	-10.0616
▁style	-10.0619
▁aye	-10.062
▁tone	-10.062
▁shine	-10.0621
▁highway	-10.0622
▁auntie	-10.0623
▁former	-10.0624
▁locate	-10.0624
▁fourth	-10.0624
▁dust	-10.0626
▁clattering	-10.0628
▁buzzing	-10.0628
▁vc	-10.0628
▁dating	-10.0629
▁softly	-10.0636
▁entirely	-10.0639
▁deny	-10.065
▁clicking	-10.0654
▁commander	-10.0654
▁county	-10.0658
▁seats	-10.0662
▁degrees	-10.0667
▁stayed	-10.0679
▁sooner	-10.0679
▁changes	-10.0687
▁describe	-10.0689
▁worlds	-10.0701
▁brings	-10.0703
▁springs	-10.0704
▁bored	-10.0713
▁training	-10.0714
▁pipe	-10.0725
▁hol	-10.0731
▁sports	-10.0733
▁doctors	-10.0753
▁eggs	-10.0756
▁walls	-10.0756
▁daughters	-10.0761
▁patients	-10.0762
▁signs	-10.0765
▁throwing	-10.0788
▁cleaning	-10.0812
ical	-10.0813
▁suspects	-10.0851
▁reminds	-10.0852
▁dies	-10.0861
go	-10.0916
▁audition	-10.0977
▁settle	-10.1
▁shout	-10.1003
▁bum	-10.1004
▁gasp	-10.1006
▁leads	-10.1009
▁flow	-10.1011
▁material	-10.1013
▁purpose	-10.1013
▁shift	-10.1018
▁winner	-10.1021
▁yard	-10.1024
▁snake	-10.1026
▁pe	-10.1026
▁garden	-10.1028
▁adam	-10.1029
▁cake	-10.103
▁plate	-10.1031
erial	-10.1038
ur	-10.1051
▁bond	-10.1053
▁beep	-10.1062
▁prisoner	-10.1066
ts	-10.1075
▁insist	-10.1101
▁mix	-10.1102
▁answers	-10.1124
itles	-10.1126
▁bra	-10.1127
▁design	-10.1134
▁whack	-10.1144
▁erase	-10.1149
▁invite	-10.115
looking	-10.1152
▁brand	-10.1156
▁traffic	-10.1165
▁album	-10.1168
▁alonzo	-10.1168
▁anthony	-10.1168
▁celebrate	-10.1168
▁griffith	-10.1168
▁kindergarten	-10.1168
▁maintenance	-10.1168
▁mcquarry	-10.1168
▁offense	-10.1168
▁progress	-10.1168
▁saturday	-10.1168
▁sensitive	-10.1168
▁stephanie	-10.1168
▁tenenbaum	-10.1168
▁thief	-10.1168
▁lugo	-10.1168
▁houssam	-10.1168
▁example	-10.1168
▁suzy	-10.1168
▁mathew	-10.1168
▁ammo	-10.1168
▁bruno	-10.1168
▁hidden	-10.1168
▁pillow	-10.1168
▁sobs	-10.1168
▁behavior	-10.1168
▁firing	-10.1168
▁serena	-10.1168
▁colorado	-10.1168
▁cmon	-10.1168
▁amount	-10.1168
▁fought	-10.1168
▁buried	-10.1168
▁estate	-10.1169
▁digging	-10.1169
▁fries	-10.1169
▁anger	-10.1169
▁tito	-10.1169
▁obsessed	-10.117
▁zero	-10.117
▁dice	-10.117
▁broadway	-10.117
▁tiny	-10.1171
▁handsome	-10.1171
▁marty	-10.1171
▁fallen	-10.1172
▁launch	-10.1174
▁darkness	-10.1175
▁whooping	-10.1179
▁advance	-10.118
▁host	-10.1184
▁convinced	-10.1186
▁hatcher	-10.1188
▁wing	-10.1189
▁created	-10.1189
▁jesse	-10.119
v	-10.1197
▁divorced	-10.1199
▁drown	-10.1204
▁nearly	-10.1205
▁movement	-10.121
▁te	-10.121
▁chips	-10.1211
▁jonesy	-10.1211
▁rocks	-10.1212
▁slowly	-10.1214
▁fuckers	-10.1216
▁louder	-10.1217
▁sniffs	-10.122
▁forced	-10.1224
▁victory	-10.1226
▁quietly	-10.1231
▁arrested	-10.1235
▁raped	-10.1247
▁wipe	-10.1264
▁do	-10.1272
▁loser	-10.1278
▁wit	-10.128
▁highly	-10.1285
▁reporting	-10.1292
▁bones	-10.1292
ma	-10.1304
▁enjoying	-10.1306
▁gi	-10.1306
▁backup	-10.1307
▁hits	-10.1382
▁ku	-10.1392
▁wh	-10.1432
▁faces	-10.144
ern	-10.1443
▁cha	-10.1472
▁chicks	-10.1476
ii	-10.1501
▁bottles	-10.1508
▁hay	-10.1511
se	-10.1529
▁photograph	-10.1571
▁app	-10.1579
co	-10.1588
▁clark	-10.1599
▁scare	-10.16
▁adult	-10.1601
▁limit	-10.1601
▁saint	-10.1601
▁wave	-10.1604
▁subject	-10.1608
▁coward	-10.1609
▁diamond	-10.1612
▁artist	-10.1615
▁explosion	-10.1616
▁blindfold	-10.1616
no	-10.1617
▁odd	-10.162
▁cloud	-10.162
▁canadian	-10.1621
▁sport	-10.1624
▁indian	-10.1627
▁prize	-10.1632
▁wha	-10.1642
▁ted	-10.1649
▁va	-10.1658
▁phones	-10.166
▁plant	-10.1678
▁poison	-10.1696
▁suffer	-10.1698
▁que	-10.1699
▁cares	-10.1701
▁develop	-10.1702
▁entertain	-10.1715
▁gather	-10.1717
▁recommend	-10.1724
▁smack	-10.1726
▁rom	-10.1726
house	-10.1728
▁ren	-10.1733
▁concern	-10.1733
▁rescue	-10.174
▁doll	-10.1745
▁object	-10.1753
▁express	-10.1753
▁crawl	-10.1754
▁gentle	-10.1754
▁mmhm	-10.1755
▁success	-10.1756
▁chinese	-10.1756
▁exclaims	-10.1756
▁fashion	-10.1756
▁helicopter	-10.1756
▁however	-10.1756
▁hurricane	-10.1756
▁jocasta	-10.1756
▁reich	-10.1756
▁senior	-10.1756
▁stirling	-10.1756
▁tequila	-10.1756
▁faggot	-10.1756
▁jersey	-10.1756
▁terry	-10.1756
▁turkey	-10.1756
▁warrant	-10.1756
▁undercover	-10.1756
▁garbage	-10.1756
▁smiling	-10.1756
▁trash	-10.1756
▁constant	-10.1756
▁waitress	-10.1756
▁memories	-10.1756
▁basic	-10.1756
▁deaf	-10.1756
▁orphanage	-10.1756
▁starving	-10.1756
▁amber	-10.1756
▁chef	-10.1757
▁random	-10.1757
▁junior	-10.1757
▁broadcast	-10.1757
▁comment	-10.1757
▁energy	-10.1757
▁prefer	-10.1757
▁giant	-10.1757
▁motherfuckin	-10.1758
▁shopping	-10.1758
▁silly	-10.1758
▁magnet	-10.1758
▁began	-10.1759
▁eden	-10.176
▁habit	-10.176
▁golden	-10.1761
▁taxi	-10.1762
▁cutting	-10.1763
▁hitting	-10.1765
▁core	-10.1765
▁mood	-10.1767
▁fifty	-10.1769
na	-10.177
▁billion	-10.1773
▁leaves	-10.1775
▁parties	-10.1778
▁cheating	-10.1779
▁sand	-10.178
▁goodnight	-10.1782
▁giggles	-10.1785
▁doer	-10.1788
▁finest	-10.1822
▁this	-10.1826
▁julie	-10.1846
▁joey	-10.1849
▁socks	-10.1851
▁expecting	-10.1853
▁riding	-10.1854
▁matters	-10.1862
▁fucks	-10.1879
▁shouts	-10.1901
▁staring	-10.1901
▁prisoners	-10.1909
▁hip	-10.1918
▁woods	-10.1926
ling	-10.1933
▁cali	-10.1966
ny	-10.199
▁dime	-10.1994
iest	-10.2025
and	-10.2031
▁letters	-10.2043
▁chase	-10.2051
▁salt	-10.2053
▁notes	-10.2055
ol	-10.2062
▁songs	-10.2072
▁gene	-10.2077
▁checks	-10.2087
ent	-10.2092
end	-10.2096
▁patrol	-10.2122
▁ending	-10.2133
▁points	-10.2141
▁suggest	-10.216
▁creep	-10.2177
▁sat	-10.2186
▁ear	-10.2186
▁ma	-10.2197
▁doo	-10.2201
▁attempt	-10.2226
▁pistol	-10.2226
▁location	-10.2227
ox	-10.223
▁tuesday	-10.2233
▁coke	-10.2234
▁salad	-10.2237
▁y	-10.2239
▁option	-10.2241
▁tool	-10.2241
▁magazine	-10.2242
▁bone	-10.2243
▁gang	-10.2244
▁desert	-10.2249
▁detail	-10.2249
▁edge	-10.225
▁suits	-10.2254
ator	-10.2263
▁ages	-10.2268
▁ad	-10.2275
▁sink	-10.2282
▁funk	-10.2307
▁connect	-10.2312
ball	-10.2337
▁mail	-10.235
ship	-10.2352
▁interrupt	-10.2355
▁guarantee	-10.2361
▁vanish	-10.2361
▁damage	-10.2363
off	-10.2363
▁convince	-10.2363
back	-10.2364
▁health	-10.2367
▁proper	-10.2371
▁emotional	-10.2371
▁slight	-10.2372
▁cobb	-10.2373
▁alcohol	-10.2379
▁kilo	-10.2379
▁badge	-10.2379
▁april	-10.2381
▁boycott	-10.2381
▁clitoris	-10.2381
▁dispatch	-10.2381
▁dwight	-10.2381
▁dylan	-10.2381
▁eriksson	-10.2381
▁exclaiming	-10.2381
▁explanation	-10.2381
▁fabulous	-10.2381
▁kirby	-10.2381
▁laundry	-10.2381
▁moretti	-10.2381
▁regret	-10.2381
▁squeal	-10.2381
▁village	-10.2381
▁voight	-10.2381
▁whirring	-10.2381
▁xerxes	-10.2381
▁avenue	-10.2381
▁confidence	-10.2381
▁unusual	-10.2381
▁gloria	-10.2381
▁meserve	-10.2381
▁quality	-10.2381
▁attractive	-10.2381
▁kwame	-10.2381
▁silent	-10.2381
▁delicious	-10.2381
▁fifteen	-10.2381
▁martha	-10.2381
▁cruel	-10.2381
▁hallelujah	-10.2381
▁permission	-10.2381
▁wallace	-10.2381
▁tennis	-10.2381
▁uncomfortable	-10.2381
▁soda	-10.2381
▁washington	-10.2382
▁thud	-10.2382
▁native	-10.2382
▁unknown	-10.2382
▁diane	-10.2382
▁theory	-10.2382
▁authority	-10.2382
▁ashamed	-10.2382
▁joseph	-10.2382
▁attracted	-10.2382
▁insurance	-10.2382
▁lobster	-10.2382
▁cleaves	-10.2382
▁attica	-10.2383
▁slater	-10.2383
▁dropping	-10.2383
▁rise	-10.2384
▁bread	-10.2384
▁charly	-10.2385
▁lifestyle	-10.2385
▁uhuh	-10.2386
▁route	-10.2389
▁loving	-10.2389
▁dean	-10.2391
▁mustard	-10.2393
▁leona	-10.2395
▁barking	-10.2395
▁nancy	-10.2397
▁diaz	-10.2398
▁tax	-10.24
▁campers	-10.2402
▁timing	-10.2402
▁disks	-10.2403
▁killers	-10.2405
▁queer	-10.241
▁pr	-10.2412
▁lawn	-10.2412
▁managed	-10.2413
ance	-10.2415
▁suffering	-10.2417
▁x	-10.2418
▁bike	-10.242
▁survived	-10.2421
▁considered	-10.2428
▁event	-10.243
▁manage	-10.2444
▁mul	-10.2444
▁ay	-10.2446
▁burgers	-10.2456
▁kit	-10.2461
ze	-10.2463
▁williams	-10.2473
▁gig	-10.2477
▁reported	-10.2479
▁terms	-10.2482
▁watches	-10.2487
▁whip	-10.2491
▁planet	-10.2493
▁hearts	-10.2495
▁trade	-10.2498
▁hates	-10.2505
▁passing	-10.2511
▁cart	-10.2512
▁me	-10.2515
▁understanding	-10.253
▁followed	-10.2538
▁peoples	-10.2542
▁fift	-10.2543
▁members	-10.2561
▁neighbors	-10.2561
▁kicking	-10.2564
▁cara	-10.2571
▁dudes	-10.26
▁shoulders	-10.2606
▁ch	-10.2635
▁victims	-10.265
▁sin	-10.266
▁rats	-10.2677
▁hu	-10.268
▁bo	-10.269
▁bout	-10.2715
▁ere	-10.2745
▁teams	-10.2761
▁bells	-10.2778
ina	-10.2832
▁pays	-10.2849
▁fl	-10.2851
▁organization	-10.2892
▁outfit	-10.2893
▁gear	-10.2893
▁tie	-10.2893
▁cal	-10.2897
▁mechanic	-10.2899
▁chapter	-10.2901
▁path	-10.2903
▁grandmother	-10.2904
▁quarter	-10.2904
▁producer	-10.2905
▁treasure	-10.2908
▁persian	-10.2908
▁direction	-10.2909
▁award	-10.2911
▁hostage	-10.2914
▁slave	-10.2923
▁taco	-10.2926
▁environment	-10.2942
▁systems	-10.2961
▁transfer	-10.2968
▁draw	-10.2983
▁steel	-10.2991
the	-10.2996
▁rod	-10.2999
▁sch	-10.3003
▁leo	-10.3011
▁respond	-10.3023
▁flag	-10.3025
▁lame	-10.3026
▁hatch	-10.3028
▁usual	-10.3037
▁actual	-10.3038
▁exact	-10.3038
ised	-10.3039
▁russia	-10.3043
▁jer	-10.3044
▁europe	-10.3046
▁slip	-10.3047
▁attend	-10.3047
▁afterwards	-10.3048
▁background	-10.3048
▁barcelona	-10.3048
▁boitano	-10.3048
▁butterfly	-10.3048
▁defense	-10.3048
▁fellcla	-10.3048
▁happiness	-10.3048
▁honeymoon	-10.3048
▁hudson	-10.3048
▁jericho	-10.3048
▁kennedy	-10.3048
▁lambert	-10.3048
▁leonidas	-10.3048
▁lorraine	-10.3048
▁mcbride	-10.3048
▁mercury	-10.3048
▁presence	-10.3048
▁tatiana	-10.3048
▁rattling	-10.3048
▁donkey	-10.3048
▁bureau	-10.3048
▁clarence	-10.3048
▁costume	-10.3048
▁disease	-10.3048
▁marissa	-10.3048
▁routine	-10.3048
▁psychiatrist	-10.3048
▁stammers	-10.3048
▁trigger	-10.3048
▁crisis	-10.3048
▁darius	-10.3048
▁misery	-10.3048
▁corporation	-10.3048
▁sheila	-10.3048
▁texas	-10.3048
▁survival	-10.3048
▁medicine	-10.3048
▁hailey	-10.3048
▁grabbed	-10.3048
▁soap	-10.3048
▁ripped	-10.3048
▁profile	-10.3048
▁supply	-10.3048
▁hansel	-10.3049
▁cujo	-10.3049
▁cease	-10.3049
▁aside	-10.3049
▁stuntman	-10.3049
ping	-10.305
▁mayday	-10.305
▁minor	-10.305
▁therapy	-10.305
▁doorbell	-10.3051
▁technically	-10.3051
▁soup	-10.3052
▁nein	-10.3052
▁godfather	-10.3052
▁forth	-10.3053
▁forest	-10.3053
▁ellis	-10.3054
▁painful	-10.3054
▁begging	-10.3055
▁intense	-10.3055
▁knowledge	-10.3057
▁bound	-10.3058
▁practical	-10.3059
▁healthy	-10.3063
▁fuckedup	-10.3063
▁discovered	-10.3064
▁lab	-10.3066
▁setup	-10.3067
▁reality	-10.3074
▁impression	-10.3076
▁boxes	-10.3076
▁parker	-10.3078
▁ruined	-10.3082
▁meantime	-10.3085
▁confirmed	-10.3087
▁stronger	-10.309
▁che	-10.31
▁smiley	-10.3104
▁accepted	-10.3111
ra	-10.3115
ddam	-10.3115
ke	-10.3116
▁nathe	-10.3118
▁provide	-10.3124
▁survivors	-10.3128
▁wide	-10.313
▁trained	-10.314
▁ey	-10.3144
▁jumped	-10.3146
▁boots	-10.3146
▁appears	-10.3147
▁ic	-10.315
▁spin	-10.3152
▁guts	-10.3154
▁slams	-10.3157
▁val	-10.3157
▁hostages	-10.3184
▁feds	-10.3223
▁strip	-10.3227
▁anti	-10.3234
▁pigs	-10.3251
▁steps	-10.3251
ri	-10.326
▁bullets	-10.326
▁you	-10.3262
am	-10.3286
▁murderer	-10.3306
sh	-10.331
ot	-10.3311
▁powers	-10.3349
▁ci	-10.336
▁dan	-10.3371
▁touching	-10.3377
me	-10.3392
▁buns	-10.3411
ta	-10.3413
▁net	-10.3419
ious	-10.3421
▁ram	-10.3451
ally	-10.3455
▁z	-10.3458
▁crimes	-10.3471
▁homeless	-10.3473
▁thin	-10.3478
▁alien	-10.3529
red	-10.3559
ily	-10.3561
fucking	-10.3584
▁waited	-10.3586
ps	-10.3589
ap	-10.3595
ney	-10.3605
▁procedure	-10.3607
▁blanket	-10.3607
▁shack	-10.3607
▁clock	-10.3609
▁po	-10.3611
▁tire	-10.3613
▁rope	-10.3614
▁hoo	-10.3617
▁clown	-10.362
▁string	-10.3621
▁donna	-10.3623
▁nightmare	-10.3624
▁gum	-10.3625
▁slut	-10.3631
▁tube	-10.3633
▁mile	-10.3634
▁writer	-10.364
▁hundreds	-10.3645
▁hood	-10.3648
▁golf	-10.3656
ade	-10.3662
ro	-10.3663
▁ra	-10.3663
ner	-10.3669
▁med	-10.3713
▁proceed	-10.3719
▁bleed	-10.3725
▁defend	-10.3726
▁hump	-10.3727
▁bon	-10.373
▁blank	-10.3731
▁bury	-10.3732
▁falls	-10.3736
▁wel	-10.3741
▁value	-10.3743
▁solve	-10.3743
gawa	-10.3749
▁warn	-10.375
▁ultimate	-10.375
▁dealer	-10.3751
▁separate	-10.3752
▁immediate	-10.3752
▁recent	-10.3753
▁incredibl	-10.3753
▁peach	-10.3756
▁pump	-10.3757
▁sec	-10.3758
▁flour	-10.3761
▁aggressive	-10.3762
▁dejesus	-10.3762
▁easily	-10.3762
▁false	-10.3762
▁grief	-10.3762
▁janice	-10.3762
▁jefferson	-10.3762
▁kazakhstan	-10.3762
▁mardukas	-10.3762
▁messenger	-10.3762
▁mystic	-10.3762
▁plastic	-10.3762
▁possibly	-10.3762
▁precinct	-10.3762
▁resort	-10.3762
▁sacrifice	-10.3762
▁shannon	-10.3762
▁suribachi	-10.3762
▁uplink	-10.3762
▁vodka	-10.3762
▁wouid	-10.3762
▁elaine	-10.3762
▁evelyn	-10.3762
▁complicated	-10.3762
▁someplace	-10.3762
▁baldwin	-10.3762
▁grave	-10.3762
▁resist	-10.3762
▁weiss	-10.3762
▁humming	-10.3762
▁basketball	-10.3762
▁journey	-10.3762
▁blaring	-10.3762
▁aight	-10.3762
▁backwards	-10.3762
▁garage	-10.3762
▁edward	-10.3763
▁paperwork	-10.3763
▁library	-10.3763
▁solid	-10.3763
▁beef	-10.3763
▁athens	-10.3763
▁appropriate	-10.3763
▁torn	-10.3763
▁strangler	-10.3763
▁violent	-10.3763
▁rookie	-10.3763
▁gross	-10.3763
▁wore	-10.3763
▁confession	-10.3763
▁rabbit	-10.3763
▁fence	-10.3763
▁childhood	-10.3763
▁lamb	-10.3764
▁apology	-10.3764
▁caine	-10.3764
▁nina	-10.3764
▁yup	-10.3764
▁up	-10.3764
▁choking	-10.3764
▁rifle	-10.3764
▁version	-10.3764
▁dna	-10.3764
▁lousy	-10.3765
▁gain	-10.3765
▁drag	-10.3766
▁alley	-10.3766
▁iike	-10.3766
▁butcher	-10.3768
▁retreat	-10.3768
▁charlies	-10.3768
▁carried	-10.3769
▁loan	-10.3769
▁jackson	-10.377
▁breaks	-10.377
▁friendship	-10.3772
▁deadline	-10.3774
▁holly	-10.3777
▁wallet	-10.3778
▁abandoned	-10.3779
▁adopted	-10.3779
▁under	-10.3784
▁jade	-10.3787
▁hiya	-10.3787
▁to	-10.3792
▁bottomly	-10.3793
▁reward	-10.3795
▁freaking	-10.3832
▁texted	-10.3834
▁carter	-10.3839
▁packed	-10.3844
▁carefully	-10.3845
▁expected	-10.3846
▁hunting	-10.3861
▁creatures	-10.3868
▁toys	-10.3869
▁uhh	-10.3889
▁ninety	-10.3891
▁workin	-10.3894
▁grounded	-10.3897
▁ima	-10.3904
▁counting	-10.3914
▁when	-10.3924
▁ar	-10.3928
▁canadians	-10.3929
▁indians	-10.393
▁bonds	-10.394
▁bounc	-10.3968
▁worker	-10.3988
▁torture	-10.4
▁chin	-10.401
▁trusted	-10.4013
▁fate	-10.4018
▁bars	-10.4031
▁ignore	-10.4032
▁chains	-10.4032
▁friendly	-10.4037
▁on	-10.4057
▁bat	-10.406
ial	-10.4063
▁dreaming	-10.4071
ai	-10.4079
▁carol	-10.4094
▁remains	-10.4104
▁russians	-10.4104
▁bee	-10.4105
▁media	-10.4116
io	-10.413
▁puts	-10.4174
ger	-10.4194
▁robb	-10.4199
▁chop	-10.4235
▁fe	-10.4235
▁voices	-10.4252
ky	-10.4262
la	-10.4262
▁hack	-10.4264
ik	-10.4269
▁brit	-10.4306
▁relationships	-10.4343
▁blocks	-10.4346
▁ana	-10.4353
▁kills	-10.4356
▁parent	-10.4368
▁cheer	-10.4375
▁envelope	-10.4377
▁pepper	-10.4377
▁roommate	-10.4389
▁archer	-10.439
▁concept	-10.4391
▁email	-10.4397
▁min	-10.4397
▁chuckle	-10.4403
▁shoe	-10.4404
▁spring	-10.441
▁cancel	-10.4416
▁cow	-10.4447
com	-10.4457
▁stretch	-10.4458
▁nail	-10.4466
ine	-10.4468
▁fail	-10.4472
▁speaker	-10.4482
▁girlfriends	-10.4494
▁palm	-10.45
▁jess	-10.4503
▁receive	-10.4503
▁stunt	-10.4504
dy	-10.4506
▁intend	-10.4506
beat	-10.4513
▁curse	-10.4514
▁jill	-10.4517
▁iron	-10.4518
▁create	-10.4519
▁inform	-10.452
▁jim	-10.4524
▁alex	-10.4526
▁potato	-10.4527
▁cure	-10.4528
▁establish	-10.453
▁stab	-10.453
▁multiple	-10.4531
▁ethel	-10.4531
▁anytime	-10.4531
▁beverly	-10.4531
▁campaign	-10.4531
▁candice	-10.4531
▁cynthia	-10.4531
▁depressed	-10.4531
▁enemies	-10.4531
▁fraternity	-10.4531
▁implosion	-10.4531
▁monitor	-10.4531
▁mosely	-10.4531
▁pattern	-10.4531
▁rachael	-10.4531
▁sabrina	-10.4531
▁wolf	-10.4531
▁worries	-10.4531
▁wreck	-10.4531
▁zhang	-10.4531
▁guitar	-10.4531
▁lecter	-10.4531
▁alpha	-10.4531
▁chandler	-10.4531
▁mumbles	-10.4531
▁operator	-10.4531
▁bartender	-10.4531
▁accent	-10.4531
▁perkins	-10.4531
▁pirate	-10.4531
▁thick	-10.4531
▁oak	-10.4531
▁palace	-10.4531
▁psychic	-10.4531
▁wrap	-10.4531
▁border	-10.4532
▁wyler	-10.4532
▁hahaha	-10.4532
▁sober	-10.4532
▁harper	-10.4532
▁personnel	-10.4532
▁denise	-10.4532
▁university	-10.4532
▁flare	-10.4532
▁capture	-10.4532
▁injured	-10.4532
▁mutual	-10.4532
▁intention	-10.4532
▁leather	-10.4532
▁abby	-10.4532
▁agency	-10.4532
▁swat	-10.4532
▁margot	-10.4532
▁toss	-10.4533
▁connie	-10.4533
▁facility	-10.4533
▁shrink	-10.4533
▁sammy	-10.4533
▁spain	-10.4533
▁robbery	-10.4533
▁drill	-10.4534
▁planned	-10.4534
▁cries	-10.4534
▁plug	-10.4534
▁fag	-10.4534
▁trans	-10.4534
▁quote	-10.4535
▁gray	-10.4535
▁vera	-10.4536
▁bruise	-10.4536
▁convention	-10.4537
▁jelly	-10.4537
▁grass	-10.4537
▁china	-10.4537
▁compare	-10.4541
▁copper	-10.4541
▁retired	-10.4542
▁taj	-10.4543
▁recall	-10.4544
▁possession	-10.4545
▁witnesses	-10.4545
▁grimes	-10.4546
▁moral	-10.4548
▁spoken	-10.4548
through	-10.4548
▁tina	-10.4548
▁mutters	-10.4549
▁circumstances	-10.4559
▁stillson	-10.4561
▁connected	-10.4561
▁keyes	-10.4565
▁boner	-10.4567
▁served	-10.4567
▁whys	-10.4569
▁thrown	-10.457
▁pleased	-10.4578
▁customers	-10.4582
▁freaked	-10.4584
▁arty	-10.4584
▁horny	-10.4585
▁dumped	-10.4585
▁deeper	-10.4586
▁hooked	-10.4587
▁civilians	-10.4591
▁pm	-10.4601
▁wasted	-10.4602
▁shorty	-10.4605
bit	-10.461
▁pet	-10.4621
▁mars	-10.4621
▁damon	-10.4638
▁sings	-10.4641
▁messed	-10.4645
▁cents	-10.4647
▁pissing	-10.465
▁offering	-10.4662
▁wifes	-10.4682
ville	-10.4686
▁goat	-10.4687
▁flat	-10.4688
▁sins	-10.4695
▁recorded	-10.4705
▁signed	-10.4719
▁singer	-10.4725
▁cr	-10.4726
▁ye	-10.4727
▁events	-10.4727
▁mmmm	-10.4733
▁waiter	-10.4742
▁broads	-10.4759
▁lefty	-10.476
▁chat	-10.4763
▁bowl	-10.4772
▁sc	-10.4779
▁hal	-10.479
▁stare	-10.4792
▁pages	-10.4803
▁images	-10.4813
▁claims	-10.4823
▁tub	-10.485
▁robe	-10.4852
▁apples	-10.4857
▁ab	-10.4863
▁wo	-10.4901
▁snap	-10.4907
▁belongs	-10.4914
▁begins	-10.4936
▁mates	-10.4941
▁ro	-10.499
▁he	-10.499
▁stones	-10.5005
▁promises	-10.5011
▁ce	-10.5022
▁bel	-10.5028
▁thinkin	-10.5053
▁pos	-10.5076
▁musical	-10.5078
▁lves	-10.5083
▁rate	-10.5103
▁lo	-10.5105
▁cases	-10.5122
ified	-10.5129
▁ban	-10.513
▁gut	-10.5156
▁slam	-10.5163
▁pops	-10.5174
▁fires	-10.5185
▁partners	-10.5196
▁moan	-10.52
▁medic	-10.5206
▁psycho	-10.5209
▁leprechaun	-10.5209
▁studio	-10.5209
▁assignment	-10.521
▁fellow	-10.5211
▁effect	-10.5213
▁compliment	-10.5216
▁sock	-10.5223
▁muscle	-10.5223
▁lesbian	-10.5226
▁term	-10.5226
▁ml	-10.5226
▁robot	-10.5229
▁print	-10.5235
▁pan	-10.5235
▁drum	-10.524
▁lesson	-10.524
▁tune	-10.5245
▁reports	-10.5247
▁stranger	-10.5248
▁port	-10.5254
▁leader	-10.526
▁pitch	-10.5295
▁colored	-10.5311
ette	-10.5311
anc	-10.5312
▁har	-10.532
▁cheat	-10.532
▁mis	-10.5322
▁screech	-10.5325
▁sweep	-10.5326
▁wig	-10.5329
▁log	-10.5333
▁pour	-10.5333
light	-10.5333
▁twist	-10.5341
▁tickle	-10.5343
▁negotiate	-10.5343
school	-10.5344
▁advise	-10.5345
▁guilt	-10.5351
▁bay	-10.5353
▁successful	-10.5355
▁mental	-10.5358
▁boog	-10.5358
▁erotic	-10.5358
▁sparta	-10.5359
▁helen	-10.536
▁julia	-10.536
▁olive	-10.5362
▁runnin	-10.5364
▁livin	-10.5364
▁religious	-10.5365
▁uniform	-10.5365
▁benicio	-10.5365
▁brooklyn	-10.5365
▁debbie	-10.5365
▁devon	-10.5365
▁eversmann	-10.5365
▁garrison	-10.5365
▁gretel	-10.5365
▁homicide	-10.5365
▁lydia	-10.5365
▁maggie	-10.5365
▁ocp	-10.5365
▁orleans	-10.5365
▁pagoda	-10.5365
▁parlor	-10.5365
▁privacy	-10.5365
▁purple	-10.5365
▁razor	-10.5365
▁redneck	-10.5365
▁rendezvous	-10.5365
▁ruiz	-10.5365
▁satellite	-10.5365
▁schraeder	-10.5365
▁sobvechik	-10.5365
▁stammering	-10.5365
▁surrender	-10.5365
▁voodoo	-10.5365
▁sullivan	-10.5365
▁sheep	-10.5365
▁dialogue	-10.5365
▁slick	-10.5365
▁scumbag	-10.5365
▁whimpers	-10.5365
▁patrice	-10.5365
▁dublin	-10.5365
▁hockey	-10.5365
▁reception	-10.5365
▁stabbed	-10.5365
▁transmission	-10.5365
▁leroy	-10.5365
▁nickname	-10.5365
▁adventure	-10.5365
▁grateful	-10.5365
▁pumpkin	-10.5365
▁update	-10.5365
▁dennis	-10.5365
▁jury	-10.5365
▁steady	-10.5365
▁drake	-10.5365
▁mickey	-10.5365
▁bugger	-10.5365
▁grandpa	-10.5365
▁birack	-10.5365
▁nwa	-10.5365
▁deckard	-10.5365
▁inaudible	-10.5365
▁heather	-10.5365
▁fbl	-10.5365
▁harsh	-10.5365
▁intruder	-10.5365
▁pause	-10.5365
▁british	-10.5365
▁status	-10.5365
▁sector	-10.5365
▁skull	-10.5365
▁fleet	-10.5366
▁subway	-10.5366
▁century	-10.5366
▁vault	-10.5366
▁miracle	-10.5366
▁sharing	-10.5366
▁rice	-10.5366
▁delta	-10.5366
▁warren	-10.5366
▁neat	-10.5366
▁stephen	-10.5366
▁radiation	-10.5366
▁vocalizing	-10.5366
▁bingo	-10.5366
▁owns	-10.5367
▁upper	-10.5367
▁anika	-10.5367
▁identity	-10.5368
▁thumping	-10.5368
▁footage	-10.5368
▁abu	-10.5368
▁balloon	-10.5369
▁tries	-10.5369
▁expression	-10.537
▁personality	-10.537
▁scott	-10.537
▁sailor	-10.537
▁politics	-10.5371
▁critical	-10.5372
▁published	-10.5373
▁cor	-10.5373
▁fry	-10.5373
▁currently	-10.5373
▁luv	-10.5374
▁bose	-10.5375
▁toll	-10.5376
iy	-10.5378
▁murmuring	-10.5378
▁sandwiches	-10.5379
▁emily	-10.538
▁haunted	-10.538
▁superman	-10.538
▁clothing	-10.5381
▁heroes	-10.5383
▁eaten	-10.5386
▁lifetime	-10.539
▁canceled	-10.5391
▁tada	-10.5392
▁assure	-10.5393
▁becky	-10.5393
▁bully	-10.5394
▁brief	-10.5394
▁troops	-10.5395
▁photographer	-10.5395
▁charming	-10.5396
▁of	-10.5401
▁mixed	-10.5401
▁arch	-10.5405
▁normally	-10.5413
▁marsh	-10.5416
▁shocked	-10.5417
cy	-10.5419
▁granted	-10.542
▁smaller	-10.5422
▁armor	-10.5439
▁fades	-10.5443
▁fairy	-10.5446
▁honored	-10.5463
▁balance	-10.5464
▁landed	-10.5466
▁electric	-10.547
▁toes	-10.5473
▁lit	-10.5481
▁sniffl	-10.5485
▁holidays	-10.549
▁rot	-10.5501
▁cia	-10.5502
▁moans	-10.5503
▁anyways	-10.5506
▁guide	-10.5507
▁tab	-10.551
▁visiting	-10.5512
▁teaching	-10.5515
▁fully	-10.5518
▁leading	-10.5525
op	-10.5551
▁stands	-10.5551
▁laying	-10.5559
▁sol	-10.5564
▁sucking	-10.5565
▁plants	-10.5566
▁pub	-10.5586
ens	-10.5592
▁smash	-10.56
▁reporters	-10.5612
▁ski	-10.5618
▁mill	-10.5625
▁covering	-10.5629
▁cleared	-10.5641
▁trainer	-10.5649
▁cur	-10.5665
▁sales	-10.5673
▁fa	-10.5677
▁latin	-10.5693
ped	-10.5694
▁vote	-10.5695
▁rooms	-10.5697
aii	-10.5704
▁mc	-10.572
▁ja	-10.5787
▁eva	-10.5809
▁angels	-10.581
▁services	-10.5831
ber	-10.5841
▁am	-10.5845
▁trees	-10.5856
▁deserves	-10.5856
ile	-10.5859
▁com	-10.5874
▁souls	-10.5917
▁horns	-10.5943
ster	-10.5979
▁guards	-10.6003
▁simon	-10.6003
▁popular	-10.602
▁hurting	-10.6022
▁damned	-10.6023
▁toy	-10.6043
da	-10.6081
▁seek	-10.61
▁appear	-10.6112
▁brick	-10.6118
▁amateur	-10.6132
▁scientist	-10.6132
▁blade	-10.6132
▁threat	-10.6133
▁piranha	-10.6134
▁slice	-10.6134
▁package	-10.6135
▁cent	-10.6135
▁twin	-10.6136
▁trunk	-10.6137
▁holiday	-10.6138
▁creature	-10.6139
▁william	-10.6139
▁gl	-10.6149
side	-10.6172
▁cooper	-10.6174
ations	-10.618
▁homey	-10.6186
▁vic	-10.6189
▁charm	-10.6211
▁embarrass	-10.6217
▁agents	-10.623
down	-10.6233
ds	-10.6234
▁perform	-10.6236
▁husbands	-10.6237
▁approach	-10.6238
some	-10.6242
▁mush	-10.6243
▁skate	-10.6245
water	-10.6247
▁spoil	-10.6248
▁prime	-10.6251
▁garci	-10.6251
▁boot	-10.6252
▁reveal	-10.6252
free	-10.6253
▁remove	-10.6254
▁refuse	-10.6255
▁engage	-10.6255
▁kings	-10.6262
▁steam	-10.6265
▁complain	-10.6267
▁harris	-10.6268
▁buggin	-10.6273
▁makin	-10.6273
▁confident	-10.6273
▁expert	-10.6273
▁junk	-10.6274
▁experiment	-10.6274
▁similar	-10.6274
▁academy	-10.6274
▁associate	-10.6274
▁awkward	-10.6274
▁azamat	-10.6274
▁cecil	-10.6274
▁fugazy	-10.6274
▁furniture	-10.6274
▁hoffman	-10.6274
▁howre	-10.6274
▁industry	-10.6274
▁infirmary	-10.6274
▁inspector	-10.6274
▁klaven	-10.6274
▁kuribayashi	-10.6274
▁liquid	-10.6274
▁moltisanti	-10.6274
▁muslim	-10.6274
▁nielson	-10.6274
▁phase	-10.6274
▁possibilities	-10.6274
▁possibility	-10.6274
▁prevent	-10.6274
▁protocol	-10.6274
▁shepard	-10.6274
▁shotgun	-10.6274
▁soho	-10.6274
▁symptoms	-10.6274
▁underneath	-10.6274
▁appeal	-10.6274
▁enforcement	-10.6274
▁observe	-10.6274
▁orchestra	-10.6274
▁sequence	-10.6274
▁automatic	-10.6274
▁chirp	-10.6274
▁dolores	-10.6274
▁michigan	-10.6274
▁temperature	-10.6274
▁milano	-10.6274
▁method	-10.6274
▁wendell	-10.6274
▁woodsboro	-10.6274
▁violation	-10.6274
▁bishop	-10.6274
▁grill	-10.6274
▁orange	-10.6274
▁revelle	-10.6274
▁snack	-10.6274
▁tappan	-10.6274
▁underwear	-10.6274
▁doodoo	-10.6274
▁inappropriate	-10.6274
▁novel	-10.6274
▁eleven	-10.6274
▁reverse	-10.6274
▁tanner	-10.6274
▁clever	-10.6274
▁michelle	-10.6274
▁strapped	-10.6274
▁jungle	-10.6274
▁script	-10.6274
▁incident	-10.6274
▁political	-10.6274
▁construction	-10.6274
▁donny	-10.6274
▁description	-10.6274
▁entry	-10.6274
▁weii	-10.6274
▁whew	-10.6274
▁gracie	-10.6274
▁gregory	-10.6274
▁babysitter	-10.6274
▁organism	-10.6274
▁height	-10.6274
▁fond	-10.6274
▁evie	-10.6274
lsey	-10.6274
▁mumbling	-10.6274
▁carveth	-10.6274
▁gorgo	-10.6274
▁denver	-10.6274
▁morton	-10.6274
responsibilities	-10.6275
▁soil	-10.6275
▁pork	-10.6275
▁sarah	-10.6275
▁anxious	-10.6275
▁education	-10.6275
▁kris	-10.6275
▁medication	-10.6275
▁international	-10.6275
▁massage	-10.6275
▁passport	-10.6275
▁duck	-10.6275
▁laughlin	-10.6275
▁reaction	-10.6275
▁investment	-10.6275
▁titty	-10.6275
▁culture	-10.6275
▁boogie	-10.6275
▁pepe	-10.6275
▁cooperation	-10.6275
▁institution	-10.6275
▁glue	-10.6275
▁strictly	-10.6275
▁ease	-10.6275
▁robbie	-10.6275
▁cuz	-10.6275
▁frozen	-10.6275
▁luggage	-10.6275
▁kong	-10.6275
▁legend	-10.6275
▁cities	-10.6275
▁ferry	-10.6276
▁policy	-10.6276
▁debt	-10.6276
▁selfish	-10.6276
▁scent	-10.6276
▁jenny	-10.6276
▁parade	-10.6276
▁shave	-10.6276
▁brotherhood	-10.6277
▁snoop	-10.6277
cient	-10.6277
▁broom	-10.6277
▁bowman	-10.6278
▁negroes	-10.6278
▁motion	-10.6279
▁boats	-10.6279
▁winning	-10.6279
▁restraint	-10.6279
▁lucy	-10.6279
▁backyard	-10.628
▁trapped	-10.628
illa	-10.628
▁bleats	-10.628
▁coma	-10.628
▁response	-10.628
▁brakes	-10.6281
▁bam	-10.6281
▁fireball	-10.6281
berg	-10.6282
▁plain	-10.6282
▁medal	-10.6282
▁flies	-10.6282
▁yella	-10.6284
▁cassie	-10.6285
▁filthy	-10.6285
▁brutal	-10.6285
▁dem	-10.6288
▁thoughts	-10.6288
▁sixth	-10.629
▁sickness	-10.6291
▁reasonable	-10.6296
▁brandy	-10.6297
▁cargo	-10.6298
▁roaring	-10.6299
▁gru	-10.63
▁bent	-10.63
tion	-10.6301
▁bunker	-10.6302
▁humvees	-10.6307
▁supplies	-10.6307
▁suggested	-10.631
▁suite	-10.631
▁blown	-10.6317
▁chimes	-10.632
▁counter	-10.632
▁melt	-10.632
▁bl	-10.6321
▁latest	-10.6321
▁spartans	-10.6333
▁gags	-10.6334
▁palmer	-10.6334
▁talented	-10.6335
▁gotcha	-10.6341
▁distract	-10.6342
▁las	-10.6344
▁deserved	-10.6346
▁terrorists	-10.6346
▁coins	-10.6346
▁nicky	-10.6348
▁bothered	-10.6358
▁gloves	-10.6358
▁loaded	-10.6359
▁aids	-10.6365
▁crossed	-10.6374
▁loading	-10.6391
de	-10.6398
ned	-10.6399
▁cooking	-10.6403
▁ace	-10.6403
▁fund	-10.6411
▁funds	-10.6418
▁packing	-10.6426
▁yay	-10.6427
▁shove	-10.6427
▁strangers	-10.643
▁landing	-10.6432
▁concentrate	-10.6432
▁aa	-10.6433
▁enjoyed	-10.6438
▁younger	-10.6451
ham	-10.6463
▁safely	-10.6472
▁dates	-10.6476
▁deed	-10.648
▁odds	-10.6491
▁photographs	-10.6492
▁circle	-10.6504
▁her	-10.6516
▁daddys	-10.652
▁theo	-10.6531
ably	-10.657
▁files	-10.6586
▁millions	-10.6589
▁ri	-10.6601
▁alis	-10.6612
▁walker	-10.6614
▁lovers	-10.6615
▁sayin	-10.664
▁fo	-10.6643
▁targets	-10.6652
▁fools	-10.6654
ell	-10.6674
▁jews	-10.6692
▁gates	-10.6706
▁mar	-10.6714
▁bio	-10.6724
▁pla	-10.6727
▁badly	-10.676
▁experiences	-10.6789
▁sets	-10.6811
▁mac	-10.6814
ard	-10.6831
▁depend	-10.6842
▁ge	-10.6851
▁lip	-10.6861
malcolm	-10.6864
▁boo	-10.6868
ha	-10.6876
▁comfort	-10.6902
j	-10.6909
▁caused	-10.691
▁corners	-10.6915
oo	-10.6941
▁noon	-10.6948
ax	-10.6952
▁sakes	-10.6979
▁sp	-10.6983
▁ber	-10.6995
▁actions	-10.7022
▁fears	-10.7048
▁egg	-10.7054
▁knee	-10.7063
▁pat	-10.7068
▁placed	-10.7073
▁ac	-10.7073
▁houses	-10.709
▁bump	-10.7095
▁locks	-10.7096
▁computers	-10.71
▁gar	-10.7101
▁current	-10.7115
▁german	-10.7118
▁mexican	-10.7118
▁root	-10.712
▁brownie	-10.7123
▁effort	-10.7125
▁grandfather	-10.7126
▁clang	-10.7126
▁stripper	-10.7128
▁thumb	-10.7132
▁channel	-10.7133
▁newspaper	-10.7134
▁document	-10.7134
▁knight	-10.7135
▁opinion	-10.7135
▁lean	-10.7135
▁wrist	-10.7137
res	-10.7139
▁demon	-10.7141
▁toward	-10.7141
▁hooker	-10.7143
fuck	-10.7152
imately	-10.7153
▁bug	-10.7155
port	-10.7162
cat	-10.7163
▁ton	-10.7179
called	-10.7181
▁require	-10.7182
▁adopt	-10.7207
▁bree	-10.7213
▁ul	-10.7224
▁disrespect	-10.7232
▁tim	-10.7234
▁aim	-10.7237
book	-10.7239
▁commission	-10.7241
erto	-10.7245
▁defeat	-10.7246
▁mount	-10.7247
▁retard	-10.7248
▁abandon	-10.725
▁drain	-10.7251
▁discover	-10.7251
▁dodge	-10.7251
▁sticks	-10.7252
▁hypnoti	-10.7253
▁frame	-10.7254
ability	-10.7255
▁challenge	-10.7256
ular	-10.7257
two	-10.7257
star	-10.726
▁mario	-10.7267
▁negro	-10.7268
▁mast	-10.7269
▁commit	-10.727
▁mook	-10.7271
▁transport	-10.7273
▁iris	-10.7273
▁courage	-10.7273
▁cuba	-10.7273
▁lalala	-10.7274
▁aurora	-10.7274
▁azazel	-10.7274
▁barbecue	-10.7274
▁bonnet	-10.7274
▁brandnew	-10.7274
▁bribe	-10.7274
▁buzzsaw	-10.7274
▁cannon	-10.7274
▁celebrating	-10.7274
▁defensive	-10.7274
▁dorfler	-10.7274
▁espresso	-10.7274
▁headquarters	-10.7274
▁horror	-10.7274
▁individual	-10.7274
▁lobby	-10.7274
▁mercedes	-10.7274
▁namaste	-10.7274
▁oberoi	-10.7274
▁olympia	-10.7274
▁opposite	-10.7274
▁patience	-10.7274
▁pleasant	-10.7274
▁pritchard	-10.7274
▁purchase	-10.7274
▁quarantine	-10.7274
▁raheem	-10.7274
▁shelf	-10.7274
▁sixteen	-10.7274
▁soprano	-10.7274
▁submarine	-10.7274
▁suspense	-10.7274
▁taguchi	-10.7274
▁talbot	-10.7274
▁teresa	-10.7274
▁unarmed	-10.7274
▁unavailable	-10.7274
▁explosiveskull	-10.7274
▁forgotten	-10.7274
▁grogan	-10.7274
▁instance	-10.7274
▁lunatic	-10.7274
▁mystery	-10.7274
▁sunshine	-10.7274
▁martelli	-10.7274
▁clinic	-10.7274
▁scotch	-10.7274
▁kryptonite	-10.7274
▁bernie	-10.7274
▁jazz	-10.7274
▁kidnapped	-10.7274
▁skullfucker	-10.7274
▁execution	-10.7274
▁precious	-10.7274
▁assuming	-10.7274
▁catholic	-10.7274
▁therapist	-10.7274
▁imagination	-10.7274
▁panties	-10.7274
▁argue	-10.7274
▁susie	-10.7274
▁exchange	-10.7274
▁after	-10.7274
▁supper	-10.7274
▁charity	-10.7274
▁diarrhea	-10.7274
▁chug	-10.7274
▁element	-10.7274
▁foolish	-10.7274
▁rashid	-10.7274
▁appro	-10.7274
▁clive	-10.7274
▁phoebe	-10.7274
▁blog	-10.7274
▁motive	-10.7274
▁reverend	-10.7274
▁jojo	-10.7274
▁coincidence	-10.7274
▁haircut	-10.7274
▁arsehole	-10.7274
▁tragedy	-10.7274
▁twombly	-10.7274
▁fantasies	-10.7274
▁puke	-10.7275
▁beings	-10.7275
▁lockwood	-10.7275
▁dragged	-10.7275
▁bryan	-10.7275
▁jinx	-10.7275
▁surveillance	-10.7275
▁temporary	-10.7275
▁brogan	-10.7275
▁plague	-10.7275
▁arabic	-10.7275
shoulda	-10.7275
▁allah	-10.7276
▁limp	-10.7276
▁virginity	-10.7276
▁bible	-10.7276
▁alike	-10.7276
▁doggy	-10.7276
▁lease	-10.7276
▁anyho	-10.7277
▁dedicated	-10.7277
▁bravo	-10.7277
▁independent	-10.7277
▁maxine	-10.7277
▁maxim	-10.7277
▁headache	-10.7277
▁controlled	-10.7277
▁hopefully	-10.7278
▁nino	-10.7278
▁transferred	-10.7278
▁irish	-10.7278
▁exclusive	-10.7278
▁muttering	-10.7279
▁jane	-10.728
▁delay	-10.728
▁gently	-10.728
▁label	-10.728
▁fried	-10.7281
▁skies	-10.7281
▁crown	-10.7281
▁takin	-10.7282
▁fingerprints	-10.7282
▁chew	-10.7282
▁inner	-10.7283
▁maid	-10.7285
▁hayes	-10.7286
▁setting	-10.7286
▁flush	-10.7287
▁discussion	-10.7288
▁tweet	-10.7288
▁yale	-10.7289
▁polly	-10.7289
▁brad	-10.729
▁quid	-10.7291
▁properly	-10.7292
▁addicted	-10.7293
▁scaring	-10.7294
▁officially	-10.7294
▁angela	-10.7295
▁particularly	-10.7296
▁intimate	-10.7296
▁abuse	-10.7297
▁freezer	-10.7297
▁stopping	-10.7298
▁paulie	-10.73
▁mid	-10.7303
▁boyz	-10.7306
▁passes	-10.7308
▁lyrics	-10.731
▁honks	-10.731
▁warmer	-10.7311
▁navy	-10.7311
▁performing	-10.7311
▁delivery	-10.7312
▁designed	-10.7318
▁leak	-10.7323
▁blues	-10.7324
ue	-10.7324
▁chambers	-10.7325
▁explosives	-10.7325
▁stud	-10.7326
▁drawing	-10.7326
▁loosen	-10.7335
▁graduat	-10.7335
▁stoney	-10.7338
▁billboards	-10.734
▁beston	-10.7341
▁les	-10.7346
▁shortly	-10.7347
▁structure	-10.7362
▁shitting	-10.7365
▁beans	-10.7368
▁hike	-10.7368
aw	-10.7374
▁studying	-10.7381
▁considering	-10.7384
▁cally	-10.7385
▁rangers	-10.7385
▁marked	-10.739
▁evans	-10.7398
▁whoohoo	-10.7401
los	-10.7405
▁shared	-10.7405
▁smoked	-10.7407
▁rd	-10.7408
▁wrists	-10.7413
▁demons	-10.7413
▁needle	-10.7416
▁locker	-10.7421
▁texting	-10.7423
▁despi	-10.7426
▁trunks	-10.7427
▁makeup	-10.743
▁prints	-10.7445
▁protecting	-10.7449
ki	-10.7449
va	-10.7452
▁bombs	-10.7455
ula	-10.7455
▁pushing	-10.7457
▁chops	-10.7459
ite	-10.7459
▁listened	-10.7459
▁par	-10.746
ph	-10.7463
▁stealing	-10.7466
▁announce	-10.7475
▁shown	-10.7479
▁gee	-10.7489
▁wondered	-10.749
▁bla	-10.7508
ang	-10.7509
▁compassion	-10.7528
▁fishing	-10.7538
▁sticking	-10.7539
▁explaining	-10.7542
ise	-10.7556
▁products	-10.756
▁tears	-10.7563
nder	-10.7567
▁gunshots	-10.7575
▁rep	-10.7575
▁noises	-10.759
ba	-10.7598
ni	-10.7599
lin	-10.7606
esy	-10.7606
▁walks	-10.762
▁characters	-10.762
▁models	-10.7621
em	-10.764
▁matthews	-10.765
▁answered	-10.765
▁scores	-10.7658
▁sophi	-10.7673
▁qui	-10.7684
▁sis	-10.7688
▁chickens	-10.7694
▁criminals	-10.7694
▁tricks	-10.7726
▁examine	-10.7729
▁int	-10.7733
▁fu	-10.7739
▁jacked	-10.775
llis	-10.7765
als	-10.7766
▁mud	-10.7773
per	-10.7788
▁din	-10.7791
▁chocolates	-10.7802
▁su	-10.7803
▁facts	-10.7818
▁curl	-10.7826
uck	-10.7845
ions	-10.7873
▁greater	-10.7876
ac	-10.7887
ver	-10.7896
ca	-10.7908
gging	-10.7921
▁chi	-10.7922
▁mel	-10.7932
▁idiots	-10.7936
pt	-10.7947
za	-10.7947
gb	-10.7955
▁mi	-10.7967
▁colors	-10.8001
rated	-10.801
▁passion	-10.8034
den	-10.8034
▁cuts	-10.8065
▁bub	-10.8067
▁col	-10.8072
▁chances	-10.8077
▁camps	-10.8095
wo	-10.8132
ery	-10.8162
▁oi	-10.8183
four	-10.8192
▁sail	-10.8212
▁sides	-10.8219
▁grunt	-10.8223
▁specific	-10.8229
▁bride	-10.823
▁genetic	-10.8232
▁elton	-10.8232
▁rubber	-10.8233
▁cereal	-10.8237
▁sheet	-10.8237
▁marine	-10.8237
▁buck	-10.8238
▁result	-10.824
▁signature	-10.8241
▁session	-10.8241
▁demand	-10.8241
▁riot	-10.8241
▁nerve	-10.8243
▁source	-10.8247
▁skill	-10.8247
▁breast	-10.8248
▁survivor	-10.825
▁collar	-10.8251
▁folk	-10.8253
▁burger	-10.8254
▁evan	-10.8256
▁sweater	-10.8258
▁toe	-10.8266
▁acts	-10.8269
▁flower	-10.8274
▁chor	-10.8276
izing	-10.8283
night	-10.8294
▁minds	-10.8304
▁vent	-10.8305
ever	-10.8307
▁ny	-10.8314
▁graduate	-10.8314
▁ko	-10.832
▁henrys	-10.8322
▁lick	-10.8326
▁buzz	-10.8334
▁reckon	-10.8342
▁studie	-10.8345
▁scratch	-10.8348
▁clatter	-10.8352
▁confess	-10.8359
▁spy	-10.8361
▁spray	-10.8362
▁squeeze	-10.8364
minute	-10.8364
▁propose	-10.8367
▁distinct	-10.8369
▁secrets	-10.8369
▁mistakes	-10.837
▁prisons	-10.8371
▁brush	-10.8371
▁filth	-10.8371
▁potential	-10.8373
tv	-10.8373
▁ann	-10.8379
▁africa	-10.8379
▁colombia	-10.8379
▁abort	-10.8379
▁champ	-10.8381
▁impress	-10.8381
sistance	-10.8382
▁poet	-10.8382
▁convict	-10.8383
▁civil	-10.8383
▁zip	-10.8385
▁andre	-10.8385
▁affirmative	-10.8385
▁agnes	-10.8385
▁alicia	-10.8385
▁alliance	-10.8385
▁amsterdam	-10.8385
▁athenian	-10.8385
▁atlanta	-10.8385
▁cinque	-10.8385
▁cleveland	-10.8385
▁dammit	-10.8385
▁depressing	-10.8385
▁disorder	-10.8385
▁enormous	-10.8385
▁exhausted	-10.8385
▁franchise	-10.8385
▁frankenstein	-10.8385
▁hilarious	-10.8385
▁hiphop	-10.8385
▁identified	-10.8385
▁intelligent	-10.8385
▁inviting	-10.8385
▁kosher	-10.8385
▁mccormick	-10.8385
▁narcotics	-10.8385
▁occult	-10.8385
▁phyllis	-10.8385
▁remote	-10.8385
▁scissors	-10.8385
▁shield	-10.8385
▁starstruck	-10.8385
▁sylvia	-10.8385
▁syndrome	-10.8385
▁thanksgiving	-10.8385
▁tokyo	-10.8385
▁torsten	-10.8385
▁underground	-10.8385
▁volume	-10.8385
▁wednesday	-10.8385
▁wisconsin	-10.8385
▁davis	-10.8385
▁dorn	-10.8385
▁evacuate	-10.8385
▁flirt	-10.8385
▁kerry	-10.8385
▁luis	-10.8385
▁naughty	-10.8385
▁patrick	-10.8385
▁tampon	-10.8385
▁douglas	-10.8385
▁intimacy	-10.8385
▁cruise	-10.8385
▁grip	-10.8385
▁joadson	-10.8385
▁jukebox	-10.8385
▁snatch	-10.8385
▁convenient	-10.8385
▁lenore	-10.8385
▁mysterious	-10.8385
▁sapper	-10.8385
▁alibi	-10.8385
▁surface	-10.8385
▁untie	-10.8385
sili	-10.8385
▁sperm	-10.8385
▁camilla	-10.8385
▁pilar	-10.8385
▁drummer	-10.8385
▁selena	-10.8385
▁conscious	-10.8385
▁polite	-10.8385
▁fridge	-10.8385
▁lavash	-10.8385
▁lemonade	-10.8385
▁tevin	-10.8385
▁francisco	-10.8385
▁whiskey	-10.8385
▁kirsch	-10.8385
▁tiger	-10.8385
▁division	-10.8385
▁loneliness	-10.8385
▁adorable	-10.8385
▁argh	-10.8385
▁hippie	-10.8385
▁obsession	-10.8385
▁mabel	-10.8385
▁suze	-10.8385
▁booze	-10.8385
▁buff	-10.8385
▁display	-10.8385
▁dawn	-10.8385
▁hostile	-10.8385
▁stream	-10.8385
▁chickenshit	-10.8385
▁destruction	-10.8385
▁reflection	-10.8385
▁newscast	-10.8385
▁population	-10.8385
▁traitor	-10.8385
▁blend	-10.8385
▁poker	-10.8385
▁excitement	-10.8386
▁johan	-10.8386
▁shane	-10.8386
▁membership	-10.8386
▁donation	-10.8386
▁creative	-10.8386
▁stiff	-10.8386
▁hobby	-10.8386
▁task	-10.8386
▁sasha	-10.8386
▁motherinlaw	-10.8386
▁dozen	-10.8386
▁pluto	-10.8386
▁sauce	-10.8386
▁technology	-10.8386
▁teasing	-10.8386
▁blanc	-10.8386
▁nig	-10.8386
▁sacred	-10.8386
▁threatened	-10.8386
tq	-10.8386
▁organic	-10.8386
▁empire	-10.8387
▁clapping	-10.8387
▁lockdown	-10.8387
▁cornish	-10.8387
▁terribly	-10.8387
▁static	-10.8387
▁cafe	-10.8387
▁liking	-10.8387
▁edition	-10.8387
▁gypsy	-10.8387
▁priority	-10.8387
▁auto	-10.8387
▁obey	-10.8387
▁stepped	-10.8388
▁region	-10.8388
▁motor	-10.8388
▁stalking	-10.8388
▁blah	-10.8388
▁barber	-10.8388
▁bonus	-10.8388
▁muthafucka	-10.8388
▁reiner	-10.8388
▁aboard	-10.8388
▁darn	-10.8389
▁threatening	-10.8389
▁fur	-10.8389
▁committed	-10.8389
▁budget	-10.8389
▁stepping	-10.8389
▁goofy	-10.8389
▁tess	-10.8389
▁wax	-10.8389
▁nearby	-10.8389
▁ballet	-10.8389
▁fuel	-10.839
▁buzzes	-10.839
▁paso	-10.839
▁clap	-10.8391
▁hugh	-10.8391
▁jive	-10.8391
▁collection	-10.8392
▁serving	-10.8392
▁strangled	-10.8392
▁rita	-10.8393
▁skinny	-10.8393
▁infected	-10.8393
▁vern	-10.8394
▁pile	-10.8394
▁haha	-10.8394
▁tout	-10.8394
▁decent	-10.8395
▁typing	-10.8396
▁range	-10.8396
▁meanwhile	-10.8396
▁specialty	-10.8396
▁regard	-10.8397
▁campus	-10.8398
▁disappointed	-10.8398
▁diego	-10.8399
▁cage	-10.8399
▁sum	-10.8399
▁related	-10.84
▁thee	-10.84
▁stoner	-10.84
▁dickhead	-10.8401
▁bah	-10.8402
▁weeping	-10.8403
▁punished	-10.8403
▁mall	-10.8404
▁marsha	-10.8405
▁sl	-10.8406
▁engaged	-10.8408
▁grind	-10.8408
▁veins	-10.841
▁paris	-10.841
▁menu	-10.8411
▁flagg	-10.8412
▁rapist	-10.8412
▁off	-10.8415
▁dent	-10.8419
▁killian	-10.842
▁settled	-10.8423
▁ruby	-10.8426
▁hicks	-10.8426
atricia	-10.8428
▁tide	-10.8428
▁sexually	-10.8428
▁assist	-10.8431
▁rage	-10.8432
▁whacked	-10.8435
▁snarls	-10.8442
▁cured	-10.8443
▁pinch	-10.8444
▁translates	-10.8444
eth	-10.8447
▁extend	-10.845
▁crawling	-10.8452
▁pope	-10.8452
▁quicker	-10.8455
▁dots	-10.8455
▁released	-10.8457
▁switched	-10.8458
▁barks	-10.8458
▁tag	-10.846
▁by	-10.8461
▁kindness	-10.8461
lux	-10.8462
▁manner	-10.8465
▁tearing	-10.8465
▁badass	-10.8469
▁focused	-10.847
▁blessed	-10.8472
▁forty	-10.8474
▁paintings	-10.8475
▁reminded	-10.8479
▁prayers	-10.8483
▁cel	-10.8487
▁honesty	-10.849
▁finds	-10.8491
▁candles	-10.8491
▁grenades	-10.8491
▁runners	-10.8492
▁cheeks	-10.8492
▁communicate	-10.8492
▁capital	-10.8492
▁wi	-10.8496
▁speeding	-10.8505
▁feeding	-10.8505
▁tracking	-10.8507
▁creepy	-10.8508
▁shithead	-10.851
▁wayne	-10.8512
▁smiled	-10.8512
▁shutter	-10.8516
▁eazye	-10.8516
ka	-10.8524
▁collars	-10.8524
▁guessing	-10.8527
▁tomas	-10.853
▁hiss	-10.8531
▁returned	-10.8532
▁spreading	-10.8538
jo	-10.8539
▁lion	-10.8539
▁parked	-10.8541
gen	-10.8541
▁title	-10.8542
▁rolled	-10.8543
▁messages	-10.8543
sam	-10.8547
▁nd	-10.8568
ius	-10.8572
▁crashing	-10.8596
▁ni	-10.8605
▁nightmares	-10.8607
▁tubes	-10.8615
▁unite	-10.8621
▁awards	-10.8624
led	-10.8627
▁turner	-10.8635
ural	-10.8637
▁minu	-10.864
▁creeps	-10.8642
▁hut	-10.8646
▁salts	-10.8649
▁jackass	-10.8657
▁clouds	-10.8657
lock	-10.8665
▁shifts	-10.8674
▁plates	-10.8674
ad	-10.8681
he	-10.869
▁spa	-10.8697
▁disappears	-10.8709
▁booked	-10.8716
gh	-10.8769
▁behave	-10.8772
▁suckers	-10.8775
▁deposit	-10.8784
ack	-10.882
▁teachers	-10.8821
der	-10.8827
pped	-10.8828
▁gran	-10.8834
ors	-10.8836
▁contracts	-10.8842
▁prep	-10.8844
▁masters	-10.8845
▁what	-10.8845
cha	-10.8851
▁greeks	-10.8876
▁br	-10.888
▁tracks	-10.888
▁bats	-10.8897
▁ki	-10.8918
▁lane	-10.8927
▁hee	-10.8927
▁elia	-10.8937
▁ur	-10.8955
▁q	-10.8971
▁helpful	-10.9008
fare	-10.9025
gi	-10.903
▁tomb	-10.903
inch	-10.9043
▁homes	-10.9058
▁latte	-10.9062
▁pulls	-10.9086
hem	-10.9089
▁bounce	-10.9094
ara	-10.9102
▁clip	-10.9112
▁laisse	-10.9113
▁pale	-10.9122
▁ver	-10.9141
▁wars	-10.9145
▁ai	-10.9148
▁bend	-10.915
▁grows	-10.9167
▁cocks	-10.9183
▁offers	-10.919
▁imperi	-10.9202
▁nicely	-10.921
▁dia	-10.925
▁ali	-10.9252
▁nap	-10.9262
▁positions	-10.9271
▁ph	-10.9271
▁steals	-10.9273
▁mic	-10.9307
▁occur	-10.9314
▁inn	-10.932
▁tut	-10.9342
eta	-10.935
▁dat	-10.9367
tas	-10.9371
corn	-10.9372
▁et	-10.9389
hole	-10.9428
▁affect	-10.946
▁journal	-10.9461
▁district	-10.9463
▁creek	-10.9463
▁clubs	-10.9463
▁fortune	-10.9465
▁trailer	-10.9469
▁volunteer	-10.9479
▁average	-10.9479
▁pledge	-10.9482
▁rapid	-10.9483
▁banks	-10.9485
▁production	-10.9486
▁affair	-10.9486
▁reservation	-10.9491
▁peanut	-10.9493
▁for	-10.9494
▁pimp	-10.9496
▁equal	-10.9497
▁degree	-10.9501
▁films	-10.9505
▁ranger	-10.951
▁poop	-10.9513
que	-10.9515
▁cracker	-10.9524
▁dancer	-10.9542
▁therese	-10.9568
▁haunt	-10.9569
▁whistles	-10.9575
stand	-10.9583
▁boil	-10.9583
five	-10.9591
town	-10.9597
▁toot	-10.9598
▁squeak	-10.9599
▁roar	-10.9602
▁succeed	-10.9605
▁bunk	-10.9606
▁vouch	-10.9607
▁depart	-10.9608
▁fold	-10.9608
▁flood	-10.961
like	-10.961
▁addict	-10.961
▁carve	-10.9611
▁produce	-10.9612
▁recover	-10.9612
holland	-10.9613
box	-10.9614
mona	-10.9615
door	-10.9619
▁financial	-10.9621
▁familys	-10.9623
▁remembered	-10.9624
▁dais	-10.9629
▁tomato	-10.963
▁heii	-10.9631
▁glen	-10.9634
▁emil	-10.9634
▁permit	-10.9634
▁choir	-10.9635
▁visual	-10.9635
▁abernathy	-10.9635
▁airplane	-10.9635
▁amistad	-10.9635
▁arizona	-10.9635
▁augsburg	-10.9635
▁august	-10.9635
▁bannerman	-10.9635
▁becca	-10.9635
▁biscuit	-10.9635
▁cahill	-10.9635
▁carmichael	-10.9635
▁catherine	-10.9635
▁celebrities	-10.9635
▁celebrity	-10.9635
▁cheetah	-10.9635
▁chemical	-10.9635
▁complex	-10.9635
▁configuration	-10.9635
▁conflict	-10.9635
▁congrats	-10.9635
▁convoy	-10.9635
▁council	-10.9635
▁daedalus	-10.9635
▁dahdah	-10.9635
▁deception	-10.9635
▁destination	-10.9635
▁disconnect	-10.9635
▁eclipse	-10.9635
▁elderly	-10.9635
▁elephant	-10.9635
▁enlighten	-10.9635
▁galentine	-10.9635
▁ghetto	-10.9635
▁gordon	-10.9635
▁hazmat	-10.9635
▁influence	-10.9635
▁janitor	-10.9635
▁jigsaw	-10.9635
▁loomis	-10.9635
▁maintain	-10.9635
▁mckinley	-10.9635
▁militia	-10.9635
▁moscone	-10.9635
▁muskavich	-10.9635
▁pencil	-10.9635
▁physics	-10.9635
▁porsche	-10.9635
▁prahba	-10.9635
▁prank	-10.9635
▁purging	-10.9635
▁raleigh	-10.9635
▁rhodes	-10.9635
▁rican	-10.9635
▁sargnt	-10.9635
▁schoolteacher	-10.9635
▁stadium	-10.9635
▁storage	-10.9635
▁struecker	-10.9635
▁struggling	-10.9635
▁veronica	-10.9635
▁wealth	-10.9635
▁wizard	-10.9635
▁wolcott	-10.9635
▁conference	-10.9635
▁dvd	-10.9635
▁entrance	-10.9635
▁panicked	-10.9635
▁reilly	-10.9635
▁ulcer	-10.9635
▁warehouse	-10.9635
▁joshua	-10.9635
▁marijuana	-10.9635
▁trafficante	-10.9635
▁wisdom	-10.9635
▁clich	-10.9635
▁columbia	-10.9635
▁favour	-10.9635
▁clerk	-10.9635
▁instant	-10.9635
▁maniac	-10.9635
▁sunset	-10.9635
▁hummus	-10.9635
▁mamma	-10.9635
▁psychopath	-10.9635
▁lonzo	-10.9635
▁combination	-10.9635
▁dodd	-10.9635
▁accurate	-10.9635
▁beloved	-10.9635
▁conduct	-10.9635
▁tanya	-10.9635
▁frustration	-10.9635
▁protein	-10.9635
▁covey	-10.9635
▁chiming	-10.9635
▁benefit	-10.9635
▁supermarket	-10.9635
▁divine	-10.9635
▁boundaries	-10.9635
▁fetch	-10.9635
▁liddy	-10.9635
▁asap	-10.9635
▁repair	-10.9635
▁notary	-10.9635
▁england	-10.9635
▁arrow	-10.9635
▁gerry	-10.9635
▁mackey	-10.9635
▁annette	-10.9635
▁terminal	-10.9635
▁documentary	-10.9635
▁groceries	-10.9635
▁surgery	-10.9635
▁oj	-10.9635
▁glory	-10.9636
▁hush	-10.9636
▁rail	-10.9636
▁disappointment	-10.9636
▁acid	-10.9636
▁cried	-10.9636
▁unhappy	-10.9636
▁grid	-10.9636
▁geez	-10.9636
▁electricity	-10.9636
▁japan	-10.9636
▁morality	-10.9636
▁unique	-10.9636
▁donor	-10.9636
▁transportation	-10.9636
▁debra	-10.9636
▁tadder	-10.9636
▁immun	-10.9636
▁cycle	-10.9636
▁solution	-10.9636
▁raw	-10.9636
▁youth	-10.9636
▁deactivated	-10.9637
▁flank	-10.9637
▁appetite	-10.9637
▁wrapped	-10.9637
▁blackburn	-10.9637
▁cork	-10.9637
▁foul	-10.9637
▁skipper	-10.9637
▁shore	-10.9638
▁dug	-10.9638
▁sunny	-10.9638
▁bunny	-10.9638
▁classified	-10.9638
▁arise	-10.9638
▁bait	-10.9639
▁mailman	-10.9639
▁july	-10.9639
▁perry	-10.9639
▁rainbow	-10.9639
▁tripping	-10.9639
▁alter	-10.9639
▁sack	-10.9639
▁jonah	-10.9639
▁faithful	-10.9639
▁uli	-10.9639
▁lecture	-10.9639
▁champion	-10.9639
▁strawberry	-10.964
▁suspended	-10.964
▁surrounded	-10.964
▁dishes	-10.964
▁firewood	-10.964
▁boise	-10.964
▁whale	-10.964
▁fitting	-10.964
▁tracy	-10.9641
▁whatll	-10.9641
▁mustache	-10.9641
▁tower	-10.9641
▁korean	-10.9642
▁barton	-10.9642
▁clinking	-10.9642
▁romance	-10.9642
▁mature	-10.9643
▁ahhh	-10.9643
▁lala	-10.9643
▁included	-10.9643
▁condo	-10.9644
▁battery	-10.9644
ylli	-10.9644
▁commissioner	-10.9645
▁scrap	-10.9645
▁steroids	-10.9645
▁bench	-10.9645
mond	-10.9645
▁expired	-10.9646
▁taxes	-10.9646
▁wicked	-10.9646
▁mice	-10.9646
▁shining	-10.9646
▁trem	-10.9647
▁invented	-10.9648
▁homework	-10.9649
▁privileged	-10.9649
▁hound	-10.9649
▁comic	-10.9649
▁thrilled	-10.9649
▁benedict	-10.9649
▁ross	-10.965
▁shushing	-10.9651
▁annoying	-10.9651
cero	-10.9651
▁shaking	-10.9652
▁gunmen	-10.9653
▁examiner	-10.9653
▁worthless	-10.9654
▁stack	-10.9656
▁filles	-10.9656
▁bind	-10.9657
▁tender	-10.9657
▁iim	-10.9658
▁thi	-10.9658
▁daylight	-10.966
▁confessed	-10.9662
▁grits	-10.9663
▁ture	-10.9664
▁raid	-10.9666
▁sore	-10.9667
▁taik	-10.9667
▁cuse	-10.9667
▁burnt	-10.9667
▁standup	-10.9668
▁jackie	-10.9668
▁ringo	-10.9669
▁ville	-10.9671
▁bagel	-10.9674
▁bumper	-10.9675
▁provided	-10.9676
bs	-10.9681
▁beatles	-10.9683
▁brass	-10.9683
▁unh	-10.9685
▁factor	-10.9685
▁lapd	-10.9686
▁drawer	-10.9689
▁pouring	-10.969
▁carson	-10.9695
▁useless	-10.9696
▁traditional	-10.9702
▁completed	-10.9705
▁fee	-10.9706
▁finale	-10.9707
▁aes	-10.9709
away	-10.971
▁poisoning	-10.9711
▁cole	-10.9713
▁weirdo	-10.9713
▁secured	-10.9713
▁involve	-10.9715
ckle	-10.9717
▁delivered	-10.9718
▁escaped	-10.9718
▁donuts	-10.9719
▁rumors	-10.9719
ists	-10.9728
▁drinkin	-10.9729
ington	-10.9733
▁washed	-10.9735
▁boobs	-10.9735
▁yankees	-10.9738
▁searched	-10.9739
▁hunger	-10.9739
▁mata	-10.9739
▁howdy	-10.9747
▁steele	-10.9748
▁belonged	-10.9748
▁driven	-10.9752
▁casting	-10.9753
▁triple	-10.9754
▁watchin	-10.9756
▁spiders	-10.9757
▁marching	-10.9758
▁cracking	-10.9763
ns	-10.9769
▁slit	-10.9771
▁compromise	-10.9773
▁toi	-10.9776
▁cher	-10.9778
▁breasts	-10.9794
▁sources	-10.9794
▁ke	-10.9795
ez	-10.9795
bone	-10.9796
▁bothering	-10.9807
▁treating	-10.981
▁goal	-10.981
▁opinions	-10.9813
▁tons	-10.9814
let	-10.982
ill	-10.9828
▁threats	-10.9832
▁twins	-10.9832
ave	-10.9839
▁drums	-10.9849
▁lesbians	-10.9851
▁importantly	-10.9851
▁effects	-10.9851
▁the	-10.9851
▁lessons	-10.9853
▁acted	-10.9853
▁gal	-10.9858
▁banker	-10.9866
▁rec	-10.9868
▁asks	-10.9876
his	-10.9879
misunderstanding	-10.9892
ff	-10.99
▁tacos	-10.9908
▁iv	-10.9908
▁kissed	-10.9926
ea	-10.9927
▁magazines	-10.9927
tara	-10.9931
ay	-10.9939
▁roads	-10.9942
▁joining	-10.9957
▁adams	-10.9965
▁hips	-10.9968
▁cu	-10.9975
▁jj	-10.9983
▁cousins	-10.9984
wood	-10.9988
use	-10.9992
▁cleaned	-10.9995
▁aid	-11.0023
ads	-11.0026
▁dreamed	-11.0038
▁monkeys	-11.0042
nd	-11.0053
our	-11.0084
▁spells	-11.01
▁mountains	-11.01
▁bridges	-11.0101
▁jud	-11.0101
her	-11.0104
ummy	-11.012
▁wanting	-11.0138
▁costs	-11.0176
ms	-11.0179
▁booking	-11.0179
▁joi	-11.0184
etic	-11.0198
▁peters	-11.0207
▁arab	-11.0207
▁masks	-11.0215
▁roles	-11.0217
▁as	-11.0223
▁dorm	-11.0225
▁au	-11.0236
vious	-11.0243
▁flu	-11.0286
▁op	-11.0291
▁fields	-11.0294
▁heavens	-11.0294
▁pointed	-11.0306
▁hunters	-11.0308
▁bangs	-11.0314
▁gifts	-11.0316
well	-11.033
ike	-11.0336
tina	-11.035
▁bolt	-11.0352
lly	-11.0366
▁drivers	-11.0369
▁ru	-11.0369
▁revolution	-11.0374
▁texts	-11.0416
ls	-11.0418
ler	-11.0419
▁trad	-11.0429
▁she	-11.0476
ew	-11.0478
▁link	-11.0495
om	-11.0501
▁breaker	-11.0505
tricia	-11.0508
ward	-11.0511
▁imp	-11.0536
ets	-11.0545
ologist	-11.0554
▁hem	-11.0556
▁chap	-11.0556
▁bets	-11.0587
▁engines	-11.0596
▁mon	-11.0599
▁pointing	-11.0604
ring	-11.0621
unk	-11.0634
▁showers	-11.0645
▁ham	-11.0664
▁sniff	-11.0678
▁organ	-11.0711
▁weekends	-11.0712
ado	-11.0717
▁nam	-11.072
boy	-11.0737
▁pizzas	-11.0752
▁ak	-11.0753
▁dar	-11.076
▁jan	-11.0777
▁stations	-11.0795
▁tent	-11.0796
▁videos	-11.0813
▁terror	-11.0821
▁mini	-11.0833
yo	-11.0848
bo	-11.0849
▁custom	-11.0881
▁por	-11.0883
▁founding	-11.0884
▁opera	-11.0885
▁squawk	-11.0892
▁electronic	-11.0892
▁observation	-11.0892
▁panel	-11.0893
▁column	-11.0894
▁relative	-11.0894
▁jokes	-11.0894
▁snor	-11.0894
ul	-11.0896
▁sells	-11.0897
▁delusion	-11.0903
▁homosexual	-11.0907
▁struggle	-11.0908
▁cheek	-11.0908
▁toad	-11.0908
▁breaths	-11.0912
▁pill	-11.0914
▁passenger	-11.0915
▁illusion	-11.0915
▁motorcycle	-11.0918
▁banana	-11.0919
▁digit	-11.092
▁legit	-11.0921
▁shadow	-11.0923
▁suggestion	-11.0923
▁towel	-11.0924
▁earl	-11.0925
▁candle	-11.0925
▁grenade	-11.0925
▁spider	-11.0927
▁scale	-11.0929
▁urge	-11.0932
so	-11.0938
▁slash	-11.0938
▁runner	-11.0941
rish	-11.0949
▁here	-11.0955
▁fade	-11.096
▁roller	-11.0963
▁rag	-11.0976
▁ohhh	-11.0979
▁bean	-11.0985
work	-11.0986
▁glove	-11.0989
more	-11.0992
▁activate	-11.0995
mo	-11.0997
▁ol	-11.1009
▁heal	-11.101
▁stall	-11.1011
▁contain	-11.1018
▁led	-11.1019
nson	-11.102
▁overreact	-11.1021
▁fuss	-11.1025
val	-11.1026
▁steer	-11.1028
▁motherfuck	-11.1028
▁caus	-11.1032
▁inf	-11.1032
▁flaw	-11.1034
▁coo	-11.1035
▁weigh	-11.1035
bra	-11.1035
class	-11.1035
fall	-11.1037
field	-11.1037
heart	-11.1039
pin	-11.1039
▁spill	-11.1041
▁relieve	-11.1041
husband	-11.1043
type	-11.1043
▁sw	-11.1044
▁punish	-11.1044
che	-11.1044
▁retire	-11.1044
▁relate	-11.1045
▁beers	-11.1046
▁residenc	-11.1047
▁hen	-11.1048
stone	-11.105
▁anonymous	-11.1051
▁bert	-11.1052
▁hysterical	-11.1053
▁arse	-11.1056
▁australia	-11.1058
▁stitch	-11.1058
▁profession	-11.1058
▁sensation	-11.1058
▁choices	-11.1058
▁cleanse	-11.1059
▁patch	-11.1059
▁teenage	-11.106
▁straighten	-11.106
▁counsel	-11.1061
▁audit	-11.1061
▁marath	-11.1062
▁absurd	-11.1063
▁accomplice	-11.1063
▁aggression	-11.1063
▁akiko	-11.1063
▁algeria	-11.1063
▁allergic	-11.1063
▁analysis	-11.1063
▁artificial	-11.1063
▁authentic	-11.1063
▁autograph	-11.1063
▁autopsy	-11.1063
▁beezel	-11.1063
▁bueno	-11.1063
▁caitlin	-11.1063
▁canaris	-11.1063
▁carpenter	-11.1063
▁cheerleader	-11.1063
▁chisso	-11.1063
▁chrissake	-11.1063
▁circus	-11.1063
▁coffin	-11.1063
▁cognac	-11.1063
▁corporal	-11.1063
▁deceased	-11.1063
▁disagree	-11.1063
▁donovan	-11.1063
▁dynamo	-11.1063
▁educate	-11.1063
▁escaping	-11.1063
▁evacuation	-11.1063
▁georgie	-11.1063
▁glorious	-11.1063
▁guinea	-11.1063
▁halifax	-11.1063
▁harrigan	-11.1063
▁ibabe	-11.1063
▁karma	-11.1063
▁kashani	-11.1063
▁knives	-11.1063
▁libby	-11.1063
▁liquor	-11.1063
▁medivac	-11.1063
▁montgomery	-11.1063
▁muhammad	-11.1063
▁mutilate	-11.1063
▁nightclub	-11.1063
▁october	-11.1063
▁oldfashioned	-11.1063
▁pancakes	-11.1063
▁picnic	-11.1063
▁pineapple	-11.1063
▁pizzeria	-11.1063
▁platform	-11.1063
▁receiving	-11.1063
▁rejoice	-11.1063
▁religion	-11.1063
▁reschedule	-11.1063
▁revenge	-11.1063
▁ritual	-11.1063
▁savannah	-11.1063
▁scully	-11.1063
▁shrieks	-11.1063
▁shrimp	-11.1063
▁sidney	-11.1063
▁skeleton	-11.1063
▁smother	-11.1063
▁somafree	-11.1063
▁stepmother	-11.1063
▁tambourine	-11.1063
▁tennessee	-11.1063
▁terrifying	-11.1063
▁territory	-11.1063
▁tragic	-11.1063
▁tunnei	-11.1063
▁vietnam	-11.1063
▁architect	-11.1063
▁arnold	-11.1063
▁bronx	-11.1063
▁hirawa	-11.1063
▁japanese	-11.1063
▁jurisdiction	-11.1063
▁mumbai	-11.1063
▁pervert	-11.1063
hehheh	-11.1063
▁carpet	-11.1063
▁disabled	-11.1063
▁encounter	-11.1063
▁escort	-11.1063
▁isolation	-11.1063
▁liberation	-11.1063
▁shatters	-11.1063
▁worm	-11.1063
▁yacht	-11.1063
▁corrupt	-11.1063
▁swamp	-11.1063
▁voil	-11.1063
▁database	-11.1063
▁economy	-11.1063
▁amnesia	-11.1063
▁praise	-11.1063
▁vibrating	-11.1063
▁hayashi	-11.1063
▁microwave	-11.1063
▁shudders	-11.1063
▁impact	-11.1063
▁replicant	-11.1063
▁automated	-11.1063
▁twitter	-11.1063
▁competitive	-11.1063
▁dilip	-11.1063
▁onstage	-11.1063
▁sorina	-11.1063
▁sorrow	-11.1063
▁brooks	-11.1063
▁pappa	-11.1063
▁flint	-11.1063
▁necklace	-11.1063
▁species	-11.1063
▁strung	-11.1063
▁esu	-11.1063
▁petition	-11.1063
▁outlaws	-11.1064
▁wright	-11.1064
▁bookmark	-11.1064
▁wives	-11.1064
▁scholarship	-11.1064
▁niece	-11.1064
▁collier	-11.1064
▁donald	-11.1064
▁lalalala	-11.1064
▁specifically	-11.1064
▁chopped	-11.1064
▁pond	-11.1064
▁underwater	-11.1064
▁puppy	-11.1064
▁employee	-11.1064
▁rosewood	-11.1064
▁sanderson	-11.1064
▁slang	-11.1064
▁engl	-11.1064
▁shanna	-11.1064
▁wesker	-11.1064
▁galway	-11.1064
▁forehead	-11.1064
▁grape	-11.1064
▁sync	-11.1064
▁rico	-11.1064
▁assistance	-11.1064
▁hootch	-11.1064
▁satisfied	-11.1064
▁overall	-11.1064
▁mmmmmm	-11.1064
▁theft	-11.1064
▁pony	-11.1064
▁basis	-11.1064
▁herb	-11.1064
▁psychotic	-11.1064
▁roland	-11.1064
▁groove	-11.1064
▁salvation	-11.1064
▁amish	-11.1064
▁cornell	-11.1064
▁orphan	-11.1065
▁unintelligibly	-11.1065
▁reborn	-11.1065
▁labour	-11.1065
▁courageous	-11.1065
▁define	-11.1065
▁mercy	-11.1065
▁necessarily	-11.1065
▁detector	-11.1065
▁retirement	-11.1065
▁slipped	-11.1065
▁baked	-11.1065
▁barrel	-11.1065
▁injection	-11.1065
▁isolated	-11.1065
▁accused	-11.1065
▁happier	-11.1065
▁denial	-11.1065
▁valley	-11.1065
▁precise	-11.1065
▁splashing	-11.1065
▁fraud	-11.1065
▁crystal	-11.1065
▁smuggling	-11.1065
▁dj	-11.1065
▁reference	-11.1065
▁amaze	-11.1065
▁coleman	-11.1065
▁marathon	-11.1065
▁halfhour	-11.1065
▁addiction	-11.1066
▁negotiation	-11.1066
▁strategy	-11.1066
▁telescope	-11.1066
▁disco	-11.1066
▁hatred	-11.1066
▁rash	-11.1066
▁stanley	-11.1066
▁performance	-11.1066
▁raymond	-11.1066
▁jessie	-11.1066
▁disaster	-11.1066
▁popped	-11.1066
▁vow	-11.1066
▁squash	-11.1066
▁angie	-11.1066
▁communist	-11.1066
▁trish	-11.1066
▁holster	-11.1066
▁western	-11.1066
▁romeo	-11.1066
▁publicity	-11.1066
▁edit	-11.1067
▁hangover	-11.1067
▁prom	-11.1067
▁aww	-11.1067
▁hotshot	-11.1067
▁dentist	-11.1067
▁accidentally	-11.1067
▁glock	-11.1067
▁caity	-11.1067
▁spear	-11.1068
▁slavery	-11.1068
▁sour	-11.1068
▁windsor	-11.1068
▁fame	-11.1068
▁drama	-11.1068
▁organized	-11.1069
▁fever	-11.1069
▁tita	-11.1069
▁roldy	-11.1069
▁frightened	-11.1069
▁maiden	-11.1069
▁rig	-11.1069
▁haul	-11.1069
▁debate	-11.107
▁challenger	-11.107
▁metres	-11.107
▁everyday	-11.107
▁mangled	-11.1071
▁spark	-11.1071
▁permanently	-11.1071
▁ciao	-11.1071
▁reg	-11.1071
▁ceo	-11.1071
▁deline	-11.1072
▁harrison	-11.1073
▁breach	-11.1073
▁divided	-11.1073
▁starve	-11.1074
▁creat	-11.1074
▁capable	-11.1075
▁beds	-11.1075
▁tapping	-11.1075
▁server	-11.1075
▁curtains	-11.1075
▁agreement	-11.1076
▁silk	-11.1076
▁dish	-11.1077
▁peterson	-11.1077
▁restricted	-11.1078
▁perish	-11.1079
▁baker	-11.1079
▁recommendation	-11.108
▁beaten	-11.1081
▁okla	-11.1081
▁investigating	-11.1082
▁streaking	-11.1082
▁wheezing	-11.1082
▁bucky	-11.1082
▁penises	-11.1083
▁receiver	-11.1083
▁rapper	-11.1084
▁floating	-11.1084
▁switches	-11.1085
▁possessed	-11.1085
▁zoom	-11.1086
▁sealed	-11.1086
▁hype	-11.1086
▁lamp	-11.1087
▁kay	-11.1088
▁rational	-11.1088
▁wanda	-11.1089
▁ashes	-11.109
▁solo	-11.109
▁holland	-11.109
▁rais	-11.1091
dall	-11.1091
▁jilly	-11.1091
▁recovered	-11.1094
ters	-11.1094
▁shutting	-11.1095
▁inch	-11.1096
▁ability	-11.1096
▁bubbles	-11.1097
▁ew	-11.1097
▁originally	-11.1098
▁useful	-11.11
▁taser	-11.11
▁mustnt	-11.1103
▁ford	-11.1104
▁yah	-11.1105
▁naturally	-11.1106
▁twisted	-11.1107
▁pier	-11.1107
▁ricky	-11.1109
▁oral	-11.111
od	-11.1112
▁erased	-11.1114
▁licking	-11.1115
▁offender	-11.1117
▁sharply	-11.1118
▁beliefs	-11.1118
di	-11.1118
▁creaks	-11.1118
▁warned	-11.112
▁expectations	-11.112
test	-11.1121
bath	-11.1122
▁lack	-11.1124
▁mansion	-11.1126
▁cookies	-11.113
▁pit	-11.1131
▁tricky	-11.1132
▁planted	-11.1135
▁standin	-11.114
▁playlng	-11.1145
▁uni	-11.1151
▁loudly	-11.1154
▁safer	-11.1158
▁lungs	-11.1161
▁wes	-11.1162
▁fore	-11.1164
▁amend	-11.1165
▁highest	-11.1166
▁prey	-11.1168
▁existed	-11.1173
▁wu	-11.1184
▁active	-11.1184
▁proved	-11.1186
▁belly	-11.1186
▁whoops	-11.1187
wing	-11.1188
▁beard	-11.1188
▁stoned	-11.1189
ence	-11.1189
▁modeling	-11.1192
▁bur	-11.1193
▁blamed	-11.1193
▁hopes	-11.1193
bound	-11.1193
▁coolest	-11.1194
▁chasing	-11.1199
▁stain	-11.1203
ama	-11.1204
▁imagined	-11.1204
▁ip	-11.1205
▁shadows	-11.1205
▁towels	-11.1205
▁continued	-11.1208
▁pav	-11.1209
▁posted	-11.121
lew	-11.1216
▁peeing	-11.1226
▁sticky	-11.1227
▁rocky	-11.1246
▁protected	-11.1247
▁studies	-11.1247
▁sails	-11.125
▁coordinate	-11.1254
▁sophie	-11.1255
▁browning	-11.1267
vard	-11.1267
ons	-11.1268
▁documents	-11.1271
▁newspapers	-11.1271
▁germans	-11.1272
▁bugs	-11.1276
▁raining	-11.128
▁blocked	-11.1281
▁whi	-11.1286
▁ple	-11.1291
▁slices	-11.1293
▁piranhas	-11.1293
un	-11.13
▁sucked	-11.132
ids	-11.1336
▁concepts	-11.1338
▁lasted	-11.1346
▁thy	-11.1348
▁citys	-11.1354
▁schools	-11.136
▁dated	-11.1365
▁sew	-11.1367
▁logic	-11.1376
▁persians	-11.1382
▁treasures	-11.1382
▁cra	-11.1386
▁casual	-11.1398
▁gangs	-11.1401
▁tools	-11.1404
▁options	-11.1405
itter	-11.1409
▁mayer	-11.1411
▁waitin	-11.1412
▁poo	-11.1417
▁forge	-11.1417
▁explosions	-11.1427
▁blindfolds	-11.1427
▁tables	-11.1432
▁finishing	-11.1433
▁ward	-11.1437
▁figures	-11.1463
▁admir	-11.1467
▁tunnels	-11.1471
▁stalkers	-11.1472
▁wheels	-11.1477
▁sleepy	-11.1498
▁dd	-11.1499
▁google	-11.1504
▁patriot	-11.151
▁clues	-11.1516
pers	-11.1522
ium	-11.1531
gged	-11.1533
▁forms	-11.1539
innit	-11.1543
▁caves	-11.1561
▁learning	-11.1562
▁recording	-11.1562
▁workers	-11.1569
anna	-11.1574
ita	-11.1586
ano	-11.1593
▁tanks	-11.1605
▁beats	-11.1613
▁nate	-11.1626
▁catching	-11.1652
gate	-11.1668
▁humans	-11.167
▁seize	-11.1672
▁wink	-11.1674
▁bears	-11.1686
▁employ	-11.169
ants	-11.1698
▁lighting	-11.1727
▁pilots	-11.1743
ide	-11.1747
▁clearing	-11.1796
▁sevens	-11.1815
▁bou	-11.1829
▁mouths	-11.185
▁butts	-11.1855
▁peep	-11.1881
▁choke	-11.1884
grade	-11.1912
ane	-11.1913
▁resting	-11.1922
▁or	-11.1925
▁tri	-11.1928
▁scr	-11.1929
▁vi	-11.1941
▁dea	-11.1954
▁def	-11.1968
▁operations	-11.1973
▁marie	-11.1983
tch	-11.202
dick	-11.2026
▁premiere	-11.2099
▁hollow	-11.2109
▁meetings	-11.211
▁extract	-11.2119
▁elses	-11.2125
▁presents	-11.2141
ig	-11.2144
▁persons	-11.2164
lon	-11.2182
▁ken	-11.2227
gue	-11.2231
read	-11.2248
▁dip	-11.226
ify	-11.2266
what	-11.2273
▁ga	-11.2278
kin	-11.2287
tta	-11.2291
ker	-11.2296
▁pleasures	-11.2303
▁machines	-11.2303
▁rolls	-11.2311
▁just	-11.2326
▁sos	-11.2337
ella	-11.2344
ins	-11.2348
ged	-11.2353
▁nurs	-11.2358
▁burns	-11.2359
▁rocket	-11.2363
▁babys	-11.2371
rous	-11.2374
ub	-11.238
▁bore	-11.2416
▁bin	-11.2423
ore	-11.2427
▁explore	-11.2429
rk	-11.243
ded	-11.2434
▁counts	-11.2436
▁alarms	-11.2446
▁ir	-11.2447
ology	-11.2458
▁poll	-11.2459
▁plot	-11.2491
▁favors	-11.2494
▁vest	-11.2502
covered	-11.2502
gae	-11.2525
▁tr	-11.2536
▁react	-11.254
icated	-11.2546
▁dl	-11.2551
▁soak	-11.2553
▁fugitive	-11.2559
▁desire	-11.2559
▁article	-11.2559
▁aspirin	-11.256
▁homo	-11.256
▁nephew	-11.2561
▁objection	-11.2564
▁obli	-11.2565
▁whoop	-11.2566
▁groan	-11.2566
▁troll	-11.2567
▁function	-11.2569
▁judgment	-11.257
faced	-11.2572
▁servant	-11.2575
▁sniper	-11.2575
▁length	-11.2575
▁skank	-11.2575
▁closest	-11.2575
▁jamaican	-11.2577
▁wins	-11.2578
▁corpse	-11.2581
▁orgasm	-11.2582
▁rehearsal	-11.2582
▁yelp	-11.2582
▁tests	-11.2582
▁tactic	-11.2585
▁colleague	-11.2586
▁sara	-11.2586
▁down	-11.2589
▁yankee	-11.2591
▁terrorist	-11.2595
▁civilian	-11.2596
▁visitor	-11.2601
▁chip	-11.2608
▁sk	-11.2617
▁coin	-11.2618
han	-11.2622
ible	-11.2624
ag	-11.2625
cal	-11.2629
▁refer	-11.2633
▁prayer	-11.2638
▁tradition	-11.2639
tes	-11.2651
ban	-11.2651
pot	-11.2656
▁scar	-11.2657
▁wee	-11.2666
▁writ	-11.2668
nce	-11.2669
room	-11.268
▁trail	-11.2683
▁stat	-11.2693
▁cloth	-11.2694
girl	-11.2699
ya	-11.27
▁malfunction	-11.27
ency	-11.2701
▁attach	-11.2704
job	-11.2705
made	-11.2709
hood	-11.2709
foot	-11.2709
▁arrange	-11.2709
▁sur	-11.271
berry	-11.2711
▁transmitt	-11.2711
fore	-11.2712
▁intens	-11.2712
▁buildings	-11.2713
▁approve	-11.2714
▁invest	-11.2714
▁gent	-11.2714
▁puss	-11.2715
▁cripple	-11.2716
▁replace	-11.2716
▁virginia	-11.2716
jay	-11.2717
▁surprising	-11.2718
▁rog	-11.2718
▁iook	-11.272
▁alternat	-11.272
▁mutt	-11.272
▁fran	-11.272
▁korea	-11.2721
ford	-11.2721
▁weave	-11.2722
▁kink	-11.2722
▁restrain	-11.2723
▁maze	-11.2724
▁luther	-11.2725
▁branch	-11.2725
▁exhibit	-11.2727
▁rave	-11.2727
▁origin	-11.2727
▁rang	-11.2728
▁jun	-11.2728
▁comb	-11.2728
▁trauma	-11.2729
oh	-11.273
▁hum	-11.273
▁aramaic	-11.273
▁arbor	-11.273
▁ammunition	-11.273
▁argument	-11.273
▁association	-11.273
▁athlete	-11.273
▁auction	-11.273
▁azupep	-11.273
▁bakersfield	-11.273
▁believing	-11.273
▁benigna	-11.273
▁bigelow	-11.273
▁bikini	-11.273
▁biltmore	-11.273
▁bourbon	-11.273
▁buffalo	-11.273
▁butterscotch	-11.273
▁cadillac	-11.273
▁calogero	-11.273
▁canyon	-11.273
▁category	-11.273
▁celebration	-11.273
▁corsetti	-11.273
▁couid	-11.273
▁dejeune	-11.273
▁delicate	-11.273
▁destiny	-11.273
▁diligence	-11.273
▁dixie	-11.273
▁essay	-11.273
▁eternity	-11.273
▁eugen	-11.273
▁extraordinary	-11.273
▁finsecker	-11.273
▁forensic	-11.273
▁fundraiser	-11.273
▁giraffe	-11.273
▁gracias	-11.273
▁heinemann	-11.273
▁hulk	-11.273
▁hussein	-11.273
▁illinois	-11.273
▁jazeristan	-11.273
▁jennifer	-11.273
▁jiang	-11.273
▁jordan	-11.273
▁jupiter	-11.273
▁katherine	-11.273
▁ketchup	-11.273
▁kirsten	-11.273
▁lauderdale	-11.273
▁lorenzo	-11.273
▁meredith	-11.273
▁metropoli	-11.273
▁meurice	-11.273
▁monsieur	-11.273
▁moscow	-11.273
▁ninja	-11.273
▁ninth	-11.273
▁november	-11.273
▁nowadays	-11.273
▁penthouse	-11.273
▁prelim	-11.273
▁principle	-11.273
▁psychoplasmics	-11.273
▁regulations	-11.273
▁remorse	-11.273
▁retro	-11.273
▁rhythm	-11.273
▁rumspringa	-11.273
▁sagdiyev	-11.273
▁screwdriver	-11.273
▁sheffield	-11.273
▁sheldon	-11.273
▁shuddering	-11.273
▁slesers	-11.273
▁smelt	-11.273
▁soviet	-11.273
▁striking	-11.273
▁swedish	-11.273
▁symbol	-11.273
▁taniwha	-11.273
▁thompson	-11.273
▁ucla	-11.273
▁vatican	-11.273
▁vegetarian	-11.273
▁voicemail	-11.273
▁volleyball	-11.273
▁windigo	-11.273
▁collapse	-11.273
▁farewell	-11.273
▁gossip	-11.273
▁interfer	-11.273
▁panther	-11.273
▁prosecut	-11.273
▁raspberry	-11.273
▁sherman	-11.273
▁sponsor	-11.273
▁uncuff	-11.273
▁unleash	-11.273
▁automobile	-11.273
▁dreadfully	-11.273
▁heritage	-11.273
▁smear	-11.273
▁democracy	-11.273
▁discount	-11.273
▁conspiracy	-11.273
▁devote	-11.273
▁koushik	-11.273
▁sheehy	-11.273
▁stewardess	-11.273
▁microphone	-11.273
▁nassar	-11.273
▁senor	-11.273
▁whining	-11.273
friggin	-11.273
▁meteor	-11.273
▁offworld	-11.273
▁omelet	-11.273
▁application	-11.273
▁durant	-11.273
▁piease	-11.273
▁website	-11.273
▁capacity	-11.273
▁ceiling	-11.273
▁erections	-11.273
▁kemp	-11.273
▁waldman	-11.273
partment	-11.273
▁blunt	-11.273
▁macarthur	-11.273
▁solving	-11.273
▁adachi	-11.273
▁arriving	-11.273
▁britain	-11.273
▁chuff	-11.273
▁craig	-11.273
▁nishi	-11.273
▁ordinary	-11.273
▁interference	-11.273
▁promotion	-11.273
▁garlic	-11.273
▁contagious	-11.273
▁outstanding	-11.273
▁urban	-11.273
▁nawal	-11.273
▁competition	-11.273
▁inherit	-11.273
▁kinney	-11.273
▁kidnapping	-11.273
▁tsk	-11.273
▁italy	-11.273
▁absent	-11.273
▁burden	-11.273
▁syd	-11.273
▁jeep	-11.273
▁executive	-11.273
▁mungo	-11.273
▁manaker	-11.273
▁puzzle	-11.273
▁pulse	-11.273
▁roast	-11.273
▁serge	-11.273
▁generation	-11.273
▁orbit	-11.273
▁blanche	-11.273
▁psychological	-11.273
▁swanson	-11.273
▁abdi	-11.273
▁hector	-11.273
▁mkay	-11.273
▁frickin	-11.273
▁hawk	-11.273
▁temper	-11.273
▁baltimore	-11.273
▁unfair	-11.273
▁merger	-11.273
▁addition	-11.273
▁corpus	-11.273
▁foster	-11.273
▁brew	-11.273
▁buddies	-11.2731
▁clipping	-11.2731
▁mafia	-11.2731
▁freakshow	-11.2731
▁marcy	-11.2731
levant	-11.2731
▁dupea	-11.2731
▁terrorism	-11.2731
▁scarf	-11.2731
▁upside	-11.2731
▁franny	-11.2731
▁breeze	-11.2731
▁gender	-11.2731
▁contest	-11.2731
come	-11.2731
▁medium	-11.2731
▁consumer	-11.2731
▁detonation	-11.2731
▁kroy	-11.2731
▁jewelry	-11.2731
▁quota	-11.2731
▁hbo	-11.2731
▁homosexuality	-11.2731
▁planko	-11.2731
▁atmosphere	-11.2731
▁sidewalk	-11.2731
▁puff	-11.2731
▁butthole	-11.2731
▁paui	-11.2731
▁koo	-11.2731
▁teii	-11.2731
▁viral	-11.2731
▁thirsty	-11.2731
▁timothy	-11.2731
▁frost	-11.2731
▁trenches	-11.2731
▁huey	-11.2732
▁dummy	-11.2732
ifies	-11.2732
▁growls	-11.2732
▁obtain	-11.2732
▁vanilla	-11.2732
▁wildcat	-11.2732
▁libert	-11.2732
▁aidan	-11.2732
▁inspired	-11.2732
▁paranoid	-11.2732
▁rea	-11.2732
▁pussies	-11.2732
▁underestimated	-11.2732
▁mouse	-11.2732
▁blowjob	-11.2732
▁france	-11.2732
▁wagon	-11.2732
▁draft	-11.2732
▁bondage	-11.2732
▁muss	-11.2732
▁whwhat	-11.2732
uzi	-11.2732
▁resolution	-11.2732
▁combined	-11.2733
▁mira	-11.2733
▁delete	-11.2733
▁payroll	-11.2733
▁dripping	-11.2733
▁scum	-11.2733
▁righteous	-11.2733
▁stokely	-11.2733
▁graduation	-11.2733
▁tension	-11.2733
▁jaw	-11.2733
▁havin	-11.2733
▁eighteen	-11.2733
▁strap	-11.2733
▁buke	-11.2733
▁frustrating	-11.2734
▁shivering	-11.2734
▁wrestling	-11.2734
▁shipp	-11.2734
▁journalist	-11.2734
▁development	-11.2734
▁harbor	-11.2734
▁baseline	-11.2734
▁accomplished	-11.2735
▁cabinet	-11.2735
▁angle	-11.2735
▁abbie	-11.2735
▁tooth	-11.2735
▁santo	-11.2735
▁upsetting	-11.2735
▁burst	-11.2736
▁newark	-11.2736
▁sensational	-11.2736
▁aidid	-11.2736
▁jour	-11.2736
▁rehab	-11.2736
▁gangster	-11.2736
▁alcoholic	-11.2736
▁inches	-11.2737
▁investigator	-11.2737
▁fusses	-11.2737
▁zoo	-11.2737
▁ridge	-11.2737
▁guardian	-11.2737
xter	-11.2737
▁internal	-11.2737
▁penny	-11.2737
▁tomatoes	-11.2738
▁harmless	-11.2738
▁remarkable	-11.2738
▁peaceful	-11.2738
▁initial	-11.2738
▁jeanne	-11.2738
▁honky	-11.2738
▁donate	-11.2738
▁severe	-11.2739
▁slapping	-11.2739
rence	-11.2739
▁continuing	-11.2739
▁princess	-11.274
▁whooshing	-11.274
▁container	-11.274
▁sadness	-11.2741
▁moss	-11.2741
▁ahem	-11.2741
eyed	-11.2741
▁spotted	-11.2741
▁helena	-11.2741
▁sadie	-11.2742
▁facebook	-11.2742
▁crispy	-11.2742
▁fax	-11.2742
tech	-11.2742
▁acceptable	-11.2742
▁potatoes	-11.2743
▁buckley	-11.2743
▁airline	-11.2743
▁plantation	-11.2743
▁intern	-11.2743
▁vulnerab	-11.2744
▁jude	-11.2744
▁bullshitting	-11.2744
▁utter	-11.2744
▁alan	-11.2745
▁math	-11.2745
▁feature	-11.2746
▁tow	-11.2746
▁prayin	-11.2746
▁genus	-11.2746
▁mina	-11.2746
▁yaah	-11.2747
▁todd	-11.2748
▁studer	-11.2748
▁painting	-11.2748
▁executed	-11.2748
▁cabin	-11.2748
▁ofthe	-11.2749
▁bridget	-11.2749
▁halfway	-11.275
▁enterprise	-11.275
▁nickel	-11.275
▁hose	-11.275
▁chen	-11.275
▁arranged	-11.2751
▁hola	-11.2752
▁rode	-11.2753
▁ticking	-11.2753
▁mentally	-11.2753
▁pole	-11.2754
▁factory	-11.2754
▁wander	-11.2755
▁anal	-11.2755
▁lighten	-11.2755
▁tapped	-11.2756
▁designer	-11.2757
▁rear	-11.2758
▁spank	-11.2759
▁revving	-11.2759
▁mona	-11.276
▁jangl	-11.276
▁effective	-11.276
▁replaced	-11.276
▁slightly	-11.2761
▁emotionally	-11.2761
▁matches	-11.2764
▁runway	-11.2765
ding	-11.2766
▁shaved	-11.2766
▁taro	-11.2767
▁proven	-11.2767
▁inventor	-11.2768
▁musician	-11.2769
▁resumes	-11.277
▁relations	-11.277
▁communications	-11.277
▁crickets	-11.277
▁dolphins	-11.277
▁rhymes	-11.277
▁tooheys	-11.277
▁vibrates	-11.277
▁oops	-11.277
▁cling	-11.277
▁refugees	-11.2771
▁fussing	-11.2772
▁nazis	-11.2772
▁raisins	-11.2772
▁noble	-11.2772
▁commissioned	-11.2773
▁flames	-11.2773
sex	-11.2774
▁sniffing	-11.2774
cc	-11.2776
▁perfection	-11.2776
▁shiny	-11.2776
▁physically	-11.2777
▁revealed	-11.2777
▁blink	-11.2778
▁squeaking	-11.2778
▁pooping	-11.2779
▁nest	-11.278
▁legally	-11.2782
▁crashes	-11.2783
▁contribute	-11.2784
▁gel	-11.2784
▁louise	-11.2785
▁directly	-11.2786
▁damaged	-11.2786
▁cater	-11.2787
▁nailed	-11.2788
year	-11.2789
▁il	-11.2794
▁frogs	-11.2795
▁era	-11.2796
▁wiped	-11.2796
▁claws	-11.2797
developed	-11.2797
▁breed	-11.28
▁cds	-11.28
▁seal	-11.28
▁pointless	-11.2802
▁lew	-11.2804
▁freaky	-11.2805
▁fist	-11.2805
▁suffered	-11.2805
▁pacific	-11.2808
▁dimitri	-11.2811
▁parenting	-11.2812
▁der	-11.2817
▁humping	-11.2817
▁tucked	-11.2818
▁unload	-11.2818
▁issued	-11.2819
dom	-11.282
▁expenses	-11.2822
▁classes	-11.2825
▁bailed	-11.2828
pd	-11.2829
iber	-11.2831
▁sinking	-11.2832
▁swor	-11.2834
▁scan	-11.2835
▁chicky	-11.2837
▁discussed	-11.2841
vo	-11.2842
▁allie	-11.2843
▁drowning	-11.2844
▁borrowed	-11.2846
▁samples	-11.2848
▁euros	-11.2848
▁olympics	-11.2848
▁warriors	-11.2848
▁decades	-11.2848
▁generally	-11.2848
▁stocking	-11.2851
▁jerking	-11.2853
▁ka	-11.2854
▁earning	-11.2855
▁alexand	-11.2857
date	-11.2861
▁prayed	-11.2869
▁scoot	-11.2873
▁touches	-11.2873
▁boob	-11.2875
erra	-11.2884
▁vice	-11.2885
▁dialing	-11.289
▁yule	-11.2894
▁tighten	-11.2897
ought	-11.2898
▁snowing	-11.2903
▁playin	-11.2908
▁repeated	-11.291
▁hunted	-11.291
▁filling	-11.2922
▁gals	-11.2923
▁rely	-11.2924
▁peanuts	-11.2926
▁rapids	-11.2928
▁hangs	-11.2935
▁punched	-11.2936
▁pressed	-11.2937
▁searching	-11.2937
▁finn	-11.2942
▁ideal	-11.2943
▁crackers	-11.2944
▁swinging	-11.295
▁nerves	-11.2953
▁appreciated	-11.2961
▁pasta	-11.2963
▁requires	-11.2978
▁noons	-11.2978
▁handled	-11.2978
▁pl	-11.2979
▁knights	-11.2979
▁channels	-11.2979
▁thumbs	-11.2979
▁bumps	-11.2981
tal	-11.2982
▁classy	-11.2983
eight	-11.2996
lm	-11.2997
▁amateurs	-11.3006
▁scientists	-11.3006
▁packages	-11.3006
▁blades	-11.3006
▁funky	-11.3006
▁counted	-11.3006
▁massacre	-11.3008
ctor	-11.3022
▁punching	-11.3023
▁laughed	-11.3029
▁muscles	-11.3032
▁mu	-11.3038
▁jar	-11.3051
▁magical	-11.3052
▁leaders	-11.3053
▁emails	-11.3059
aries	-11.307
▁traveler	-11.3071
▁pol	-11.308
▁clowns	-11.3086
▁hoods	-11.3086
▁scam	-11.3088
▁strings	-11.3088
▁loo	-11.3096
over	-11.3097
▁pd	-11.3097
ture	-11.3102
lab	-11.3104
▁blocking	-11.3104
ast	-11.3107
▁directions	-11.3114
▁janu	-11.3121
▁del	-11.3121
shit	-11.3128
▁patholog	-11.3136
gger	-11.3137
part	-11.3151
▁coloni	-11.3151
▁callin	-11.3153
lish	-11.3162
▁nicer	-11.3164
▁ned	-11.3168
▁scares	-11.3173
lne	-11.3173
▁dealers	-11.3174
▁reed	-11.3184
▁winds	-11.319
▁cakes	-11.3193
▁cons	-11.3198
▁batter	-11.3202
ren	-11.3205
▁tale	-11.3207
▁closely	-11.3209
▁frankly	-11.3216
▁mole	-11.3219
▁christy	-11.3219
po	-11.3229
▁farts	-11.324
hi	-11.3245
▁ap	-11.3261
▁nebs	-11.3274
▁owners	-11.3299
mi	-11.3305
▁moons	-11.3329
vy	-11.3344
ingle	-11.3353
yler	-11.3369
▁meals	-11.3379
bend	-11.3382
▁punks	-11.3383
▁weights	-11.3383
▁premier	-11.3408
▁views	-11.3408
▁rebel	-11.3414
▁upgrade	-11.3417
▁deadly	-11.3433
▁lone	-11.3444
bell	-11.3457
▁til	-11.346
ying	-11.3464
▁mouthing	-11.3466
▁queens	-11.3468
▁coron	-11.3484
▁cre	-11.3486
▁pressures	-11.3494
ex	-11.3496
ied	-11.3499
if	-11.3517
▁seasons	-11.352
▁ordering	-11.3524
▁ari	-11.3534
▁rides	-11.3539
▁technical	-11.3552
ron	-11.3557
▁mur	-11.3557
▁chil	-11.3591
ties	-11.3593
▁spirits	-11.3603
▁weathers	-11.3603
▁sho	-11.3614
▁spl	-11.3617
▁shi	-11.3664
▁mag	-11.3672
▁rotte	-11.3679
▁gen	-11.368
▁hoped	-11.3689
▁ull	-11.3689
▁kno	-11.3699
▁cats	-11.37
▁reds	-11.3707
▁grad	-11.3717
ache	-11.3725
▁hopeless	-11.374
ming	-11.3774
ppy	-11.3861
▁circl	-11.3902
hen	-11.3908
▁decisions	-11.3912
▁ignor	-11.3928
▁marks	-11.393
▁rum	-11.3939
▁mot	-11.3959
▁easter	-11.3961
una	-11.3977
▁determine	-11.399
▁sixty	-11.4015
▁rounds	-11.4024
ative	-11.404
ities	-11.4051
▁shirts	-11.4055
▁boyfriends	-11.4061
my	-11.4071
▁crav	-11.4081
▁comp	-11.4099
ov	-11.4114
all	-11.4117
position	-11.412
fan	-11.4122
▁stays	-11.414
aking	-11.4143
ration	-11.4152
nine	-11.4158
▁conc	-11.4194
▁bas	-11.4213
hit	-11.4242
ition	-11.4245
▁trains	-11.4247
▁planes	-11.425
li	-11.425
▁owes	-11.4275
▁strok	-11.4307
east	-11.4309
hopping	-11.433
▁eats	-11.4358
▁gag	-11.4359
▁bobbys	-11.4394
▁hos	-11.4397
dre	-11.4397
▁kd	-11.4407
ening	-11.4417
▁deli	-11.4426
▁nod	-11.4443
▁waters	-11.4462
▁skip	-11.4464
car	-11.4476
▁fits	-11.4489
tte	-11.4491
▁trucks	-11.4492
▁tro	-11.4495
▁tomorrows	-11.4497
▁cl	-11.4501
▁with	-11.4507
▁yi	-11.4508
▁eighth	-11.451
▁believes	-11.4515
▁cla	-11.4517
▁jewel	-11.4518
umbled	-11.4518
mission	-11.4538
▁whisper	-11.4539
▁involv	-11.4543
bel	-11.4554
▁scholar	-11.4558
▁violin	-11.4559
▁superior	-11.4559
▁shaft	-11.4559
▁tropic	-11.4559
▁anderson	-11.456
▁ounce	-11.4562
itched	-11.4562
▁teenager	-11.4563
▁atlanti	-11.4564
▁cough	-11.4566
▁emotion	-11.457
▁margarita	-11.4575
▁oscar	-11.4575
▁bracelet	-11.4575
▁submissive	-11.4575
▁nor	-11.4575
▁arrangement	-11.4577
▁narrow	-11.4577
icle	-11.4578
▁shark	-11.4582
▁bucket	-11.4583
ttle	-11.4583
▁african	-11.4585
▁nipple	-11.4586
▁await	-11.4586
▁cuff	-11.4587
▁coon	-11.4587
▁colombian	-11.4588
▁euro	-11.4588
▁olympic	-11.4588
▁sample	-11.4588
▁warrior	-11.4588
▁decade	-11.4589
▁australian	-11.4589
▁lave	-11.4591
▁donut	-11.4592
▁complaint	-11.4592
▁rumor	-11.4594
▁bark	-11.4594
▁decline	-11.46
▁billboard	-11.4601
▁customer	-11.4607
▁spartan	-11.4607
▁tin	-11.4608
▁deaths	-11.4612
itation	-11.4616
rl	-11.4621
▁offend	-11.4623
▁cable	-11.4628
▁payment	-11.4631
ench	-11.464
face	-11.4646
▁contribut	-11.4653
▁lung	-11.4657
▁unlock	-11.4665
▁releas	-11.4668
▁bru	-11.467
jack	-11.4671
▁strain	-11.4672
urp	-11.4679
for	-11.4685
tre	-11.4687
▁tolera	-11.469
▁loc	-11.4691
worth	-11.4691
▁tempt	-11.4694
▁revv	-11.4695
▁murmur	-11.4696
▁polish	-11.4701
where	-11.4702
▁peek	-11.4703
▁glow	-11.4703
run	-11.4703
▁disappoint	-11.4704
guard	-11.4705
phone	-11.4705
▁thrill	-11.4706
▁explode	-11.4707
▁increase	-11.4707
play	-11.4707
style	-11.4708
self	-11.4708
regard	-11.4708
ofthe	-11.4709
pipe	-11.4709
launch	-11.4709
ghostface	-11.4709
yearold	-11.4709
three	-11.4709
horse	-11.4709
mindy	-11.4709
death	-11.471
yeah	-11.471
wide	-11.471
piece	-11.471
▁excite	-11.4711
bag	-11.4711
life	-11.4711
▁execute	-11.4712
▁expire	-11.4713
▁crank	-11.4713
▁tan	-11.4713
▁greed	-11.4715
▁crisp	-11.4716
▁twink	-11.4716
▁previous	-11.4718
▁permanent	-11.4719
cock	-11.472
dog	-11.4721
▁claus	-11.4721
▁para	-11.4722
ut	-11.4723
▁fox	-11.4724
▁toke	-11.4726
▁unlike	-11.4726
▁attic	-11.4726
mhmm	-11.4727
▁beau	-11.4727
▁deput	-11.4728
nanana	-11.4728
▁verbal	-11.4729
▁beginnin	-11.4729
▁sittin	-11.4729
▁unconscious	-11.4729
▁caution	-11.4729
▁protest	-11.473
▁hazard	-11.473
▁almighty	-11.473
▁amarillo	-11.473
▁annual	-11.473
▁anuj	-11.473
▁applied	-11.473
▁arrival	-11.473
▁bachelor	-11.473
▁battalion	-11.473
▁behold	-11.473
▁beneath	-11.473
▁beneficial	-11.473
▁benjamin	-11.473
▁bounty	-11.473
▁brennan	-11.473
▁candidate	-11.473
▁civilization	-11.473
▁conquer	-11.473
▁conscience	-11.473
▁convincing	-11.473
▁corridor	-11.473
▁counterfeit	-11.473
▁crooked	-11.473
▁cruisin	-11.473
▁dawg	-11.473
▁deliberate	-11.473
▁deranged	-11.473
▁devaney	-11.473
▁dictionary	-11.473
▁dildo	-11.473
▁disadvantage	-11.473
▁discharge	-11.473
▁doogie	-11.473
▁dysentery	-11.473
▁eagle	-11.473
▁eldad	-11.473
▁embrace	-11.473
▁emperor	-11.473
▁errands	-11.473
▁exgirlfriend	-11.473
▁exposure	-11.473
▁exquisite	-11.473
▁fascinating	-11.473
▁feather	-11.473
▁fulfill	-11.473
▁galaxy	-11.473
▁gauge	-11.473
▁georgia	-11.473
▁giovanni	-11.473
▁goddammit	-11.473
▁hanako	-11.473
▁happily	-11.473
▁hebrew	-11.473
▁heidi	-11.473
▁henessey	-11.473
▁heterosexual	-11.473
▁hitchhiker	-11.473
▁horribly	-11.473
▁kempeitai	-11.473
▁knickers	-11.473
▁limousine	-11.473
▁louisiana	-11.473
▁mainframe	-11.473
▁mainstream	-11.473
▁marauder	-11.473
▁marilyn	-11.473
▁marwan	-11.473
▁massachusetts	-11.473
▁masturbate	-11.473
▁mcknight	-11.473
▁mclaughlin	-11.473
▁mcnamara	-11.473
▁monroe	-11.473
▁mordecai	-11.473
▁morris	-11.473
▁obscur	-11.473
▁octopus	-11.473
▁offensive	-11.473
▁oleary	-11.473
▁paralyzed	-11.473
▁parasite	-11.473
▁password	-11.473
▁penitentiary	-11.473
▁perspective	-11.473
▁philosophy	-11.473
▁physicist	-11.473
▁playground	-11.473
▁plumbing	-11.473
▁pretzel	-11.473
▁proximity	-11.473
▁puppet	-11.473
▁qualities	-11.473
▁rabies	-11.473
▁rehearsing	-11.473
▁reinforcements	-11.473
▁reputation	-11.473
▁revelation	-11.473
▁rosenbaum	-11.473
▁russborough	-11.473
▁sacrificing	-11.473
▁sadistic	-11.473
▁saigo	-11.473
▁selwyn	-11.473
▁semester	-11.473
▁sentimental	-11.473
▁shakespeare	-11.473
▁shimizu	-11.473
▁sliding	-11.473
▁soccer	-11.473
▁sociopath	-11.473
▁spakowsky	-11.473
▁stateoftheart	-11.473
▁strahm	-11.473
▁suicidal	-11.473
▁sunglasses	-11.473
▁suzie	-11.473
▁sylvester	-11.473
▁tantrum	-11.473
▁treacherous	-11.473
▁tulyakbay	-11.473
▁ulysses	-11.473
▁uncertain	-11.473
▁underpants	-11.473
▁unexpected	-11.473
▁unfinished	-11.473
▁urinal	-11.473
▁vampire	-11.473
▁vengeance	-11.473
▁verdict	-11.473
▁violet	-11.473
▁windshield	-11.473
▁zombie	-11.473
▁accelerat	-11.473
▁acoustic	-11.473
▁asthma	-11.473
▁bandana	-11.473
▁doyle	-11.473
▁dudley	-11.473
▁ethnic	-11.473
▁eyewitness	-11.473
▁identify	-11.473
▁jasper	-11.473
▁kevlar	-11.473
▁leahy	-11.473
▁maddox	-11.473
▁riends	-11.473
▁technique	-11.473
▁vibrator	-11.473
▁wilderness	-11.473
▁yabe	-11.473
▁authorities	-11.473
▁directress	-11.473
▁flemming	-11.473
▁kesher	-11.473
▁langley	-11.473
▁mousetrap	-11.473
▁resync	-11.473
▁stabilize	-11.473
▁stomp	-11.473
▁thugs	-11.473
▁whatsoever	-11.473
▁abnormal	-11.473
▁dyke	-11.473
▁frown	-11.473
▁reihi	-11.473
▁tiffany	-11.473
▁bernard	-11.473
▁bureaucracy	-11.473
▁gretta	-11.473
▁prophecy	-11.473
▁tyree	-11.473
▁brunch	-11.473
▁dresden	-11.473
▁manifest	-11.473
▁bicycle	-11.473
▁drank	-11.473
▁neigh	-11.473
▁cloak	-11.473
▁snagged	-11.473
▁widow	-11.473
▁gordy	-11.473
▁helmet	-11.473
▁shuttle	-11.473
▁advisor	-11.473
▁attaboy	-11.473
▁fyi	-11.473
▁minimum	-11.473
▁holabird	-11.473
▁integrity	-11.473
▁vivid	-11.473
▁bald	-11.473
▁noodle	-11.473
▁authorization	-11.473
▁briefcase	-11.473
▁subzero	-11.473
▁oxygen	-11.473
▁forbid	-11.473
▁strand	-11.473
▁analyst	-11.473
▁delhi	-11.473
▁exwife	-11.473
▁foxhole	-11.473
▁parole	-11.473
▁hunch	-11.473
▁wilson	-11.473
▁ahooh	-11.473
▁bouchard	-11.473
▁institute	-11.473
ashima	-11.473
▁dye	-11.473
▁mantle	-11.473
▁operative	-11.473
▁outbreak	-11.473
▁relief	-11.473
▁bloom	-11.473
▁claustrophobic	-11.473
▁confusing	-11.473
▁gilligan	-11.473
▁typical	-11.473
▁tomica	-11.473
▁immortal	-11.473
▁radiant	-11.473
▁veni	-11.473
▁injury	-11.473
▁cheeseburger	-11.473
▁lemon	-11.473
▁contrary	-11.473
▁twat	-11.473
▁zipper	-11.473
▁chocolatier	-11.473
▁casket	-11.473
▁upstate	-11.473
▁oven	-11.473
▁representative	-11.473
▁vchip	-11.473
▁cautionary	-11.473
▁elegant	-11.4731
▁raul	-11.4731
▁slippers	-11.4731
▁douchebag	-11.4731
▁envy	-11.4731
▁bilo	-11.4731
▁gangsta	-11.4731
▁suspicious	-11.4731
▁ouch	-11.4731
▁traumatic	-11.4731
▁chainsaw	-11.4731
▁appreciation	-11.4731
▁compound	-11.4731
▁edgar	-11.4731
▁mailbox	-11.4731
▁olga	-11.4731
▁toolbox	-11.4731
▁bandari	-11.4731
▁drape	-11.4731
▁vogu	-11.4731
▁duties	-11.4731
▁cult	-11.4731
▁trend	-11.4731
▁marketplace	-11.4731
▁trance	-11.4731
▁paddle	-11.4731
▁winston	-11.4731
▁pistone	-11.4731
▁polar	-11.4731
▁antique	-11.4731
▁flunk	-11.4731
▁comedian	-11.4731
▁mami	-11.4731
▁britney	-11.4731
▁nix	-11.4731
▁etheline	-11.4731
▁salami	-11.4731
▁incoming	-11.4731
▁perez	-11.4731
▁blake	-11.4731
▁stoker	-11.4731
▁elementary	-11.4731
▁moose	-11.4731
▁bruce	-11.4731
▁rising	-11.4731
▁harlem	-11.4731
▁awhile	-11.4731
▁reject	-11.4731
▁error	-11.4731
▁mornin	-11.4731
▁landscape	-11.4731
▁welove	-11.4731
▁definition	-11.4731
▁shuffle	-11.4731
▁supervisor	-11.4731
▁bridgewater	-11.4731
▁portia	-11.4731
▁irre	-11.4732
▁surro	-11.4732
▁dunno	-11.4732
▁coffeecake	-11.4732
▁registration	-11.4732
▁dalton	-11.4732
itts	-11.4732
▁marx	-11.4732
▁consult	-11.4732
▁knoxville	-11.4732
▁ceremony	-11.4732
▁okeydokey	-11.4732
▁wordsworth	-11.4732
▁psst	-11.4732
▁roadblock	-11.4732
▁interrogation	-11.4732
▁sustain	-11.4732
▁hoak	-11.4732
▁dragging	-11.4732
▁juicy	-11.4732
▁maui	-11.4732
▁skinnies	-11.4732
▁poetry	-11.4732
▁batteries	-11.4732
▁nixon	-11.4732
▁horseshit	-11.4732
▁occupied	-11.4732
▁cartoon	-11.4732
▁replay	-11.4732
▁consciousness	-11.4732
▁wwen	-11.4732
▁inbound	-11.4732
▁stutter	-11.4732
▁porch	-11.4733
▁trafficking	-11.4733
▁ballroom	-11.4733
▁napkin	-11.4733
▁notch	-11.4733
▁vig	-11.4733
▁prun	-11.4733
▁fork	-11.4733
▁strait	-11.4733
▁thou	-11.4733
▁essential	-11.4733
▁weakness	-11.4733
▁pedro	-11.4733
▁apply	-11.4733
▁valuable	-11.4733
▁activity	-11.4733
▁scout	-11.4733
▁feast	-11.4733
▁heip	-11.4733
▁skating	-11.4733
▁basket	-11.4733
front	-11.4733
▁announcement	-11.4733
▁nonsense	-11.4733
▁recipe	-11.4733
▁rebound	-11.4733
▁globe	-11.4734
▁stake	-11.4734
▁abra	-11.4734
▁benny	-11.4734
▁keen	-11.4734
▁creation	-11.4734
▁carolina	-11.4734
▁russo	-11.4734
▁roman	-11.4734
▁establishment	-11.4734
▁montes	-11.4734
▁babysitting	-11.4734
▁cocksucking	-11.4734
▁objective	-11.4735
▁heartache	-11.4735
▁jac	-11.4735
▁excessive	-11.4735
▁restroom	-11.4735
▁stash	-11.4735
▁tonic	-11.4735
▁equity	-11.4735
▁fuzzy	-11.4735
▁anson	-11.4735
▁vesper	-11.4735
▁cans	-11.4735
▁operate	-11.4735
place	-11.4735
▁management	-11.4735
▁terra	-11.4736
▁resistance	-11.4736
▁vital	-11.4736
▁markos	-11.4736
▁ante	-11.4736
▁manny	-11.4736
▁overhead	-11.4736
▁grindr	-11.4736
▁gall	-11.4736
▁popil	-11.4736
▁grudge	-11.4736
▁pta	-11.4736
▁warped	-11.4737
▁molly	-11.4737
▁labor	-11.4737
▁info	-11.4737
▁eyeball	-11.4737
▁jammed	-11.4737
▁juliana	-11.4738
▁tittie	-11.4738
▁reckless	-11.4738
▁phrase	-11.4738
▁flexible	-11.4738
▁blonde	-11.4738
▁carmine	-11.4738
▁graphic	-11.4738
▁cj	-11.4738
▁oliver	-11.4738
▁stitches	-11.4738
▁dramatic	-11.4738
▁dismissed	-11.4739
▁injected	-11.4739
▁richter	-11.4739
▁fluid	-11.4739
▁frisk	-11.4739
▁passage	-11.474
▁growth	-11.474
▁dub	-11.4741
▁abortion	-11.4741
▁conviction	-11.4741
▁valve	-11.4741
▁reai	-11.4741
▁halt	-11.4742
▁episode	-11.4742
▁sponge	-11.4742
▁ont	-11.4742
▁moist	-11.4742
▁worldclass	-11.4742
▁collector	-11.4742
▁cuban	-11.4742
▁february	-11.4743
▁firewater	-11.4743
▁unclear	-11.4744
▁jell	-11.4744
▁betrayed	-11.4744
▁improvise	-11.4744
enne	-11.4744
▁coverage	-11.4744
▁eliminated	-11.4745
▁jima	-11.4745
▁assign	-11.4746
▁buzzer	-11.4746
▁mechanical	-11.4746
▁hysterically	-11.4746
▁lois	-11.4747
▁spook	-11.4747
▁mia	-11.4747
▁nibbles	-11.4748
▁politicians	-11.4748
▁pup	-11.4749
▁megan	-11.4749
▁insulted	-11.475
▁glo	-11.475
▁drawn	-11.4751
▁relay	-11.4751
▁parttime	-11.4751
▁heroic	-11.4751
▁implant	-11.4751
▁mute	-11.4751
▁tenant	-11.4752
▁elite	-11.4752
▁handling	-11.4753
▁formal	-11.4753
▁approved	-11.4754
▁porno	-11.4754
▁anne	-11.4754
▁doom	-11.4754
▁weston	-11.4755
▁whispered	-11.4756
▁grim	-11.4756
▁zap	-11.4757
▁poly	-11.4757
cell	-11.4757
▁pager	-11.4757
▁hometown	-11.4758
day	-11.4758
▁loop	-11.4758
▁kia	-11.4758
▁losses	-11.4758
▁playback	-11.4759
▁tech	-11.4759
▁successfully	-11.4759
▁forgetting	-11.476
▁hotter	-11.476
▁balti	-11.476
seven	-11.476
ata	-11.4762
most	-11.4763
▁charger	-11.4763
▁verse	-11.4763
▁detect	-11.4764
▁tuber	-11.4764
▁rome	-11.4764
▁contractor	-11.4764
▁mint	-11.4764
▁consideration	-11.4765
▁produced	-11.4765
▁casing	-11.4766
▁ants	-11.4766
▁tempting	-11.4766
▁spilled	-11.4766
▁straining	-11.4767
▁weep	-11.4767
▁pity	-11.4768
▁verif	-11.4769
▁highp	-11.4771
▁framed	-11.4771
▁dot	-11.4771
▁burp	-11.4771
▁irony	-11.4771
▁flooded	-11.4772
▁rental	-11.4773
▁fuckface	-11.4774
▁vet	-11.4775
▁removed	-11.4775
▁refused	-11.4775
▁tur	-11.4777
▁breeding	-11.4777
▁nearest	-11.4777
▁starin	-11.4777
▁gooks	-11.4778
▁illegally	-11.4779
▁mastermind	-11.4779
▁bollocks	-11.4779
▁savages	-11.4779
▁surge	-11.4779
▁advised	-11.478
▁transmitter	-11.4781
▁pitts	-11.4782
▁stalling	-11.4782
▁healing	-11.4782
▁hull	-11.4783
▁drained	-11.4784
▁bumped	-11.4785
▁shifty	-11.4789
▁dusty	-11.4791
▁reminder	-11.4792
▁bigtime	-11.4793
▁cheated	-11.4795
▁pickup	-11.4795
▁kara	-11.4796
▁theme	-11.4797
▁smithy	-11.4798
py	-11.4799
▁intended	-11.4801
▁rescued	-11.4801
▁homeland	-11.4803
▁daytime	-11.4804
▁gu	-11.4805
▁ti	-11.4805
rain	-11.4808
▁clams	-11.4811
▁ankles	-11.4811
▁vegetables	-11.4811
▁occasions	-11.4812
▁responded	-11.4812
escent	-11.4813
▁tourists	-11.4813
▁troopers	-11.4813
▁conserv	-11.4814
chad	-11.4817
▁beak	-11.4817
peller	-11.4818
▁cello	-11.4819
▁crafts	-11.4819
take	-11.4819
▁camels	-11.4822
▁recommended	-11.4823
▁poisoned	-11.4823
▁screamers	-11.4823
▁insisted	-11.4829
▁fled	-11.4829
▁failing	-11.4831
▁posters	-11.4831
esca	-11.4831
▁importan	-11.4831
▁coal	-11.4832
▁hint	-11.4835
▁hangin	-11.4838
▁defending	-11.4838
▁charts	-11.4839
▁policeman	-11.4839
▁nervously	-11.4839
six	-11.4839
▁marg	-11.4842
▁campbells	-11.4844
▁hamburgers	-11.4844
▁kisses	-11.4845
▁bid	-11.4849
▁sling	-11.485
dead	-11.4852
▁risky	-11.4853
▁dialed	-11.4856
▁lend	-11.486
▁katy	-11.486
min	-11.486
▁benz	-11.4862
▁processed	-11.4868
▁checkers	-11.4869
▁screamed	-11.487
▁berk	-11.487
▁painted	-11.4871
▁payin	-11.4871
▁gardening	-11.4872
▁auditioning	-11.4873
▁mick	-11.4873
▁mist	-11.4873
▁awaits	-11.4876
▁nipples	-11.4876
▁cuffs	-11.4879
▁representing	-11.4881
▁cracked	-11.4886
▁stored	-11.4886
ory	-11.4891
iff	-11.4892
▁and	-11.4892
▁fooled	-11.4893
▁shade	-11.4897
bi	-11.4902
ev	-11.4903
cub	-11.4903
▁farting	-11.4905
▁niner	-11.4908
▁reacts	-11.4909
▁colleagues	-11.4909
▁scars	-11.4912
▁christians	-11.4914
▁rad	-11.4914
▁spic	-11.4919
anda	-11.492
▁shocking	-11.4928
▁messy	-11.493
▁rim	-11.493
▁ree	-11.4931
▁dearly	-11.4932
▁slamm	-11.4933
▁entering	-11.4936
▁switching	-11.4936
▁smoker	-11.4941
▁bananas	-11.4942
▁legitimate	-11.4942
▁suggestions	-11.4943
▁starr	-11.4951
oon	-11.4955
▁bearing	-11.4955
▁askin	-11.4956
its	-11.4965
▁divers	-11.4967
▁equals	-11.4974
▁reservations	-11.4975
▁marrying	-11.4977
▁washing	-11.4977
▁blessing	-11.4977
▁sweating	-11.4978
▁comedy	-11.4982
▁coaching	-11.4985
▁pretending	-11.4985
▁colder	-11.4992
nsion	-11.5005
▁infiltrat	-11.5005
▁sessions	-11.5008
▁demands	-11.5008
▁results	-11.5008
▁signatures	-11.5008
▁skills	-11.501
▁boarded	-11.501
state	-11.5011
▁riots	-11.5021
nk	-11.5022
▁consol	-11.5023
▁imitate	-11.5025
▁blo	-11.5027
uk	-11.5029
▁orderly	-11.5032
▁accepting	-11.5043
▁spaced	-11.506
▁stayin	-11.5061
▁wally	-11.5068
▁circles	-11.5071
iaga	-11.5073
eau	-11.5082
▁reaching	-11.5088
▁feelin	-11.5092
▁linen	-11.512
▁engineer	-11.5123
▁joined	-11.5123
▁participate	-11.5128
show	-11.5133
ix	-11.5134
▁cows	-11.5137
▁amp	-11.5138
▁nails	-11.5143
▁listing	-11.5143
▁intervene	-11.5144
▁roommates	-11.5145
shot	-11.5147
▁returning	-11.5151
▁explained	-11.5154
▁hel	-11.5162
▁casey	-11.517
▁peel	-11.5171
▁stroke	-11.5172
▁drives	-11.5173
▁donnas	-11.5173
habi	-11.5178
▁camping	-11.5181
▁writers	-11.5184
lic	-11.5185
▁not	-11.5205
ological	-11.5205
▁grandmothers	-11.5207
▁mechanics	-11.5207
▁quarters	-11.5208
▁producers	-11.5208
▁seated	-11.5209
hili	-11.521
inary	-11.5214
mer	-11.5222
stein	-11.5229
▁wiggl	-11.5231
▁planets	-11.5239
▁edges	-11.524
▁isa	-11.5251
yes	-11.5258
▁carrie	-11.5261
▁diamonds	-11.5274
▁attacking	-11.5275
van	-11.5276
▁apps	-11.5276
▁artists	-11.5276
▁ties	-11.5281
▁ads	-11.5284
▁bran	-11.5286
ode	-11.529
ak	-11.5297
▁snakes	-11.5308
ame	-11.5317
oca	-11.5318
paid	-11.5319
eek	-11.5324
▁nasa	-11.5331
▁maps	-11.5336
▁reviews	-11.5342
▁hid	-11.5343
▁winters	-11.5345
rai	-11.5348
▁af	-11.5351
▁wounds	-11.5377
▁growns	-11.5379
▁signals	-11.5381
▁hy	-11.5399
▁sausages	-11.541
▁wal	-11.5413
ife	-11.5414
▁kam	-11.5415
▁ruins	-11.5415
▁roses	-11.5444
▁stomachs	-11.5444
▁morons	-11.5447
rent	-11.5454
▁controls	-11.5467
ride	-11.5472
lton	-11.5473
▁grandmas	-11.5478
▁mines	-11.5482
▁getz	-11.5503
▁winding	-11.5505
maker	-11.5514
▁aca	-11.5516
▁pens	-11.5516
iological	-11.5527
▁signing	-11.5533
▁vehicles	-11.5547
▁serves	-11.5549
▁invad	-11.555
iev	-11.5551
lated	-11.5559
▁fans	-11.5562
▁traces	-11.5563
▁floors	-11.5569
▁dispose	-11.5585
▁bows	-11.5603
▁ty	-11.5604
▁stro	-11.5612
▁shoots	-11.5615
▁res	-11.5622
▁sorts	-11.5624
sis	-11.5633
ound	-11.5635
▁syri	-11.5646
▁drops	-11.5651
tense	-11.5676
▁degenera	-11.5679
nium	-11.569
▁exists	-11.5691
▁cam	-11.5698
▁cas	-11.571
▁lol	-11.5714
▁jackets	-11.5728
▁inc	-11.573
ouse	-11.5738
▁tyran	-11.574
▁pas	-11.5742
▁sab	-11.5751
▁prices	-11.5756
▁whores	-11.5757
aged	-11.5757
ose	-11.5767
▁und	-11.5798
▁luc	-11.5806
▁scor	-11.5809
▁notif	-11.5815
▁vari	-11.5816
stra	-11.5829
▁intimidate	-11.5834
▁tops	-11.5835
▁tedd	-11.5837
▁mun	-11.5839
▁steven	-11.5839
▁bites	-11.5853
▁understands	-11.5857
writer	-11.588
▁yorker	-11.5885
oga	-11.5887
▁dana	-11.5893
▁cleans	-11.5895
horn	-11.5895
▁sleeps	-11.5898
▁contacts	-11.59
▁nooo	-11.5911
▁senses	-11.5925
rt	-11.5935
▁picks	-11.5951
▁moments	-11.5989
▁restaurants	-11.6003
▁dukes	-11.6003
▁partying	-11.6054
ust	-11.6058
ulet	-11.6061
heroin	-11.6064
▁char	-11.609
▁digs	-11.6104
arm	-11.6105
ud	-11.6109
cent	-11.6114
▁recap	-11.6116
▁admire	-11.6141
▁nell	-11.6143
▁exam	-11.6169
▁desalvos	-11.6183
ung	-11.6191
ir	-11.6231
▁mart	-11.6239
▁apartments	-11.6255
far	-11.6258
lo	-11.6264
▁sled	-11.6301
▁nothings	-11.6311
gs	-11.632
▁ref	-11.6334
udge	-11.6338
rate	-11.6346
▁lands	-11.6383
▁daniels	-11.6386
▁za	-11.6389
▁dribble	-11.6397
ect	-11.6407
▁ev	-11.6409
ves	-11.6443
▁pod	-11.6461
▁manual	-11.6461
▁sn	-11.6464
ou	-11.6469
oul	-11.6471
iii	-11.6488
▁om	-11.651
gal	-11.6514
▁pag	-11.6528
just	-11.6545
hard	-11.6556
▁writes	-11.6562
▁pubes	-11.6565
▁dei	-11.6576
ug	-11.6576
▁yu	-11.6576
ink	-11.6621
▁mug	-11.6623
met	-11.6669
fit	-11.6673
▁conversations	-11.6682
aging	-11.6706
mb	-11.6711
▁prov	-11.6717
▁troubles	-11.6745
▁smiles	-11.6746
uc	-11.6748
▁bing	-11.6748
ire	-11.675
▁mod	-11.6767
▁hoot	-11.6774
ification	-11.6779
shaped	-11.6781
eater	-11.6784
▁bu	-11.6806
mar	-11.6806
ray	-11.6806
les	-11.6807
▁imitat	-11.6813
ean	-11.6822
▁mort	-11.6839
▁deals	-11.6849
▁departments	-11.685
ncy	-11.6893
sky	-11.6898
ong	-11.6903
▁ze	-11.6903
▁ele	-11.6909
▁ragged	-11.6915
▁ryans	-11.6926
▁yesterdays	-11.6927
mus	-11.6937
gan	-11.6937
▁judg	-11.6937
rine	-11.6938
ero	-11.6939
nie	-11.6958
▁predict	-11.6964
air	-11.6967
nge	-11.6978
▁ins	-11.7
nny	-11.7005
▁arc	-11.7008
▁float	-11.7024
ulation	-11.7024
art	-11.703
▁lees	-11.7042
▁tit	-11.7059
▁maneuver	-11.7059
▁phantom	-11.7059
▁souvenir	-11.7059
▁cramp	-11.7059
▁andrew	-11.7061
▁barn	-11.7062
▁nerd	-11.7064
▁whim	-11.7066
▁von	-11.7067
▁lv	-11.7067
▁grownup	-11.7068
▁ego	-11.707
print	-11.7074
▁bisexual	-11.7075
▁caxton	-11.7075
▁anchor	-11.7075
▁concert	-11.7075
▁translate	-11.7077
tor	-11.7078
▁teen	-11.7082
▁circuit	-11.7082
▁economic	-11.7082
▁consequence	-11.7082
▁cougar	-11.7086
▁charle	-11.7087
▁campbell	-11.7088
▁hamburger	-11.7088
▁expense	-11.7089
lasting	-11.7091
▁snarl	-11.7092
▁explosive	-11.7093
▁jeopard	-11.7093
▁chamber	-11.7093
lia	-11.7094
▁chime	-11.7095
▁giggle	-11.7096
▁content	-11.7098
▁boi	-11.71
minded	-11.7109
yl	-11.711
▁hail	-11.7116
bed	-11.7117
ugh	-11.7128
ider	-11.7136
ility	-11.7137
▁flop	-11.7139
▁sup	-11.7143
ora	-11.7147
▁invent	-11.7147
▁why	-11.715
▁publish	-11.7156
nut	-11.7158
▁advanc	-11.7159
▁tid	-11.7163
▁surprises	-11.7167
▁hammer	-11.7168
but	-11.7169
▁annoy	-11.7169
▁spi	-11.7173
kill	-11.7174
▁tex	-11.7178
▁spoo	-11.7178
▁investigat	-11.7183
tit	-11.7186
rock	-11.719
▁tick	-11.7193
▁greet	-11.7193
▁tweak	-11.7193
▁crunch	-11.7193
quie	-11.7194
▁morn	-11.7194
boat	-11.7195
▁streak	-11.7195
▁unfold	-11.7196
▁prepar	-11.7197
▁wheez	-11.7197
▁echo	-11.7197
▁swell	-11.7198
▁adjust	-11.7199
mara	-11.7199
▁stamp	-11.72
while	-11.72
▁bein	-11.7201
q	-11.7201
▁chocolat	-11.7203
▁possess	-11.7203
▁recruit	-11.7204
▁insult	-11.7205
▁restrict	-11.7206
▁slaughter	-11.7206
▁distort	-11.7207
▁wick	-11.7207
block	-11.7207
born	-11.7208
privileged	-11.7208
bird	-11.7209
▁acknowledge	-11.7209
half	-11.7209
birth	-11.7209
storm	-11.7209
uh	-11.7209
fif	-11.7209
▁strangle	-11.7209
duty	-11.7209
bury	-11.7209
mouth	-11.7209
second	-11.7209
chuckles	-11.7209
married	-11.7209
perish	-11.721
▁promote	-11.7211
▁eliminate	-11.7211
▁pronounce	-11.7212
kara	-11.7213
▁achieve	-11.7213
hand	-11.7213
danny	-11.7214
making	-11.7215
glass	-11.7215
▁shush	-11.7216
quinn	-11.7216
▁surf	-11.7217
▁include	-11.7217
▁deedee	-11.7217
▁blond	-11.7219
▁buckle	-11.7219
▁rug	-11.722
▁ugli	-11.722
player	-11.722
▁numb	-11.7221
road	-11.7221
▁clair	-11.7221
▁anticipat	-11.7221
fold	-11.7222
▁cleav	-11.7225
worthy	-11.7225
sale	-11.7225
▁flam	-11.7225
▁froze	-11.7225
▁metallic	-11.7226
believable	-11.7226
▁torch	-11.7228
▁nitro	-11.7228
▁oppress	-11.7228
ujo	-11.7228
▁disgrace	-11.7229
▁beautif	-11.7229
▁kidnap	-11.7229
ndsay	-11.7229
▁darlin	-11.7229
▁francis	-11.723
▁movin	-11.723
▁oxy	-11.723
▁jheri	-11.723
chemistry	-11.723
contamination	-11.723
nostromo	-11.723
significant	-11.723
▁acquainted	-11.723
▁alabama	-11.723
▁allergies	-11.723
▁alligator	-11.723
▁amazon	-11.723
▁ancestors	-11.723
▁anwar	-11.723
▁apocalyp	-11.723
▁ashtray	-11.723
▁balcony	-11.723
▁barricade	-11.723
▁bathtub	-11.723
▁beheadings	-11.723
▁berenson	-11.723
▁berserk	-11.723
▁binoculars	-11.723
▁biohazard	-11.723
▁blackmail	-11.723
▁booyah	-11.723
▁borgens	-11.723
▁buggy	-11.723
▁bypass	-11.723
▁capabilities	-11.723
▁chronic	-11.723
▁circumcised	-11.723
▁connecticut	-11.723
▁consistency	-11.723
▁convenience	-11.723
▁curiosity	-11.723
▁cynical	-11.723
▁danieiie	-11.723
▁deformed	-11.723
▁descend	-11.723
▁desirable	-11.723
▁destined	-11.723
▁dilemma	-11.723
▁discipline	-11.723
▁disguise	-11.723
▁ditomasso	-11.723
▁dominique	-11.723
▁doorknob	-11.723
▁dorky	-11.723
▁drydock	-11.723
▁dumbdumb	-11.723
▁dynami	-11.723
▁eunuch	-11.723
▁extent	-11.723
▁eyebrow	-11.723
▁fascinate	-11.723
▁fracture	-11.723
▁fragile	-11.723
▁fresno	-11.723
▁fulbright	-11.723
▁futile	-11.723
▁gauze	-11.723
▁giddyap	-11.723
▁giuseppina	-11.723
▁glasgow	-11.723
▁gordetsky	-11.723
▁gratitude	-11.723
▁griga	-11.723
▁gulf	-11.723
▁gunshofl	-11.723
▁hairdresser	-11.723
▁handgun	-11.723
▁hannah	-11.723
▁havana	-11.723
▁hemorrh	-11.723
▁hendricksson	-11.723
▁herpes	-11.723
▁identification	-11.723
▁imagining	-11.723
▁impala	-11.723
▁inflation	-11.723
▁infrared	-11.723
▁insubordination	-11.723
▁invitation	-11.723
▁japonaise	-11.723
▁kinkabe	-11.723
▁kramer	-11.723
▁leviathan	-11.723
▁lindsey	-11.723
▁lloyd	-11.723
▁lnternet	-11.723
▁luxury	-11.723
▁majestic	-11.723
▁majesty	-11.723
▁malibu	-11.723
▁malkina	-11.723
▁malmsteen	-11.723
▁mammy	-11.723
▁marvelous	-11.723
▁mascot	-11.723
▁mcgarrick	-11.723
▁mechanism	-11.723
▁meddows	-11.723
▁mellow	-11.723
▁migraine	-11.723
▁mistletoe	-11.723
▁monstrous	-11.723
▁montana	-11.723
▁morgue	-11.723
▁mormon	-11.723
▁mothballs	-11.723
▁mulvaney	-11.723
▁mussolini	-11.723
▁navigate	-11.723
▁nuclear	-11.723
▁okidoki	-11.723
▁oracle	-11.723
▁overwhelmed	-11.723
▁parrot	-11.723
▁pennsylvania	-11.723
▁perceive	-11.723
▁pfc	-11.723
▁pharmac	-11.723
▁philadelphia	-11.723
▁philanthropist	-11.723
▁pingpong	-11.723
▁pneumonia	-11.723
▁poiice	-11.723
▁poltergeist	-11.723
▁prestig	-11.723
▁principal	-11.723
▁producing	-11.723
▁prohibit	-11.723
▁racetrack	-11.723
▁resource	-11.723
▁retail	-11.723
▁rodrigo	-11.723
▁roosevelt	-11.723
▁roscoe	-11.723
▁saarne	-11.723
▁scalp	-11.723
▁seafood	-11.723
▁shelves	-11.723
▁shepherd	-11.723
▁shirley	-11.723
▁sicilian	-11.723
▁slauson	-11.723
▁slippery	-11.723
▁spectacular	-11.723
▁stoop	-11.723
▁stubborn	-11.723
▁tannoy	-11.723
▁tarzan	-11.723
▁temple	-11.723
▁testimony	-11.723
▁thorough	-11.723
▁throuple	-11.723
▁toucan	-11.723
▁travers	-11.723
▁trioceanic	-11.723
▁trudeau	-11.723
▁tshirt	-11.723
▁valentine	-11.723
▁verdegast	-11.723
▁vicinity	-11.723
▁vocabulary	-11.723
▁wagner	-11.723
▁wanjidon	-11.723
▁whatnot	-11.723
▁wheelchair	-11.723
▁wolves	-11.723
▁wrath	-11.723
▁wyoming	-11.723
▁youporn	-11.723
▁yurek	-11.723
▁zinc	-11.723
▁appetiz	-11.723
▁attaglia	-11.723
▁bozo	-11.723
▁bronze	-11.723
▁coupon	-11.723
▁crowbar	-11.723
▁emphasi	-11.723
▁godawful	-11.723
▁impulse	-11.723
▁mullins	-11.723
▁noisy	-11.723
▁piggy	-11.723
▁precaution	-11.723
▁reboot	-11.723
▁scrotum	-11.723
▁serpent	-11.723
▁synchroni	-11.723
▁tranquilizer	-11.723
▁universal	-11.723
efficient	-11.723
hyperventilating	-11.723
▁activities	-11.723
▁berynium	-11.723
▁centimeter	-11.723
▁declare	-11.723
▁fourteen	-11.723
▁grease	-11.723
▁hiatus	-11.723
▁instagram	-11.723
▁licence	-11.723
▁minamata	-11.723
▁predator	-11.723
▁reassess	-11.723
▁unholy	-11.723
▁sumbitch	-11.723
▁barten	-11.723
▁hesitate	-11.723
▁identical	-11.723
▁lantern	-11.723
▁momund	-11.723
▁provincetown	-11.723
▁provoke	-11.723
▁slurring	-11.723
▁struck	-11.723
▁analyze	-11.723
▁greasy	-11.723
▁mommies	-11.723
▁podcast	-11.723
▁rowlands	-11.723
▁silicon	-11.723
▁abolition	-11.723
▁bullseye	-11.723
▁emerson	-11.723
▁equations	-11.723
▁genuine	-11.723
ankh	-11.723
▁censorship	-11.723
▁doughnut	-11.723
▁gibson	-11.723
▁jupe	-11.723
▁rosie	-11.723
rteen	-11.723
▁brenner	-11.723
▁flattered	-11.723
▁wails	-11.723
▁adversary	-11.723
▁charlotte	-11.723
▁cubits	-11.723
▁gueros	-11.723
▁mimic	-11.723
▁partygoer	-11.723
▁concuss	-11.723
▁alaska	-11.723
▁birkin	-11.723
▁griev	-11.723
▁knucklehead	-11.723
▁okubo	-11.723
▁profound	-11.723
▁prostitute	-11.723
▁yikes	-11.723
▁suburb	-11.723
▁hanni	-11.723
▁masturbating	-11.723
▁transaction	-11.723
▁fireworks	-11.723
▁melody	-11.723
▁paradise	-11.723
▁trembling	-11.723
▁indigenous	-11.723
▁regain	-11.723
▁dominat	-11.723
▁frail	-11.723
▁advising	-11.723
▁lomper	-11.723
▁sinatra	-11.723
▁crip	-11.723
▁superset	-11.723
▁dietrich	-11.723
▁dipshit	-11.723
▁doroth	-11.723
▁derringer	-11.723
▁millionaire	-11.723
▁darren	-11.723
▁expelled	-11.723
▁scorpio	-11.723
▁webster	-11.723
▁wilkins	-11.723
▁laptop	-11.723
▁pushups	-11.723
▁piace	-11.723
▁unpatriotic	-11.723
▁argent	-11.723
▁timmy	-11.723
▁entitled	-11.723
▁kidneys	-11.723
parallel	-11.723
▁calvin	-11.723
▁choosing	-11.723
▁eternal	-11.723
▁heck	-11.723
▁shakily	-11.723
▁wages	-11.723
▁aboot	-11.723
▁lethal	-11.723
▁lovebirds	-11.723
▁editorial	-11.723
▁bodybuilders	-11.723
▁taime	-11.723
▁climate	-11.723
▁expend	-11.723
▁ireland	-11.723
▁barrier	-11.723
▁concentration	-11.723
▁initiative	-11.723
▁backseat	-11.723
▁intercept	-11.723
▁hanley	-11.723
▁lenin	-11.723
▁quiche	-11.723
▁prompt	-11.723
▁approval	-11.723
▁dewey	-11.723
▁hinges	-11.723
▁yawn	-11.723
▁colour	-11.723
▁insert	-11.723
▁surfboard	-11.723
▁cavalry	-11.723
▁preservation	-11.723
▁seasick	-11.723
▁hustler	-11.723
▁behalf	-11.7231
▁boardwalk	-11.7231
▁guam	-11.7231
▁lindsay	-11.7231
▁salute	-11.7231
▁coven	-11.7231
▁drift	-11.7231
▁hurl	-11.7231
▁radiologist	-11.7231
▁tadpole	-11.7231
▁vibration	-11.7231
▁programmed	-11.7231
▁trinity	-11.7231
▁junct	-11.7231
▁lightning	-11.7231
▁assassinate	-11.7231
▁urns	-11.7231
▁consent	-11.7231
▁ribs	-11.7231
▁offside	-11.7231
▁grey	-11.7231
▁bowels	-11.7231
▁interstate	-11.7231
▁trumpet	-11.7231
▁witchcraft	-11.7231
▁expertise	-11.7231
▁harassment	-11.7231
▁prophet	-11.7231
▁vagine	-11.7231
▁vicki	-11.7231
▁grabbing	-11.7231
▁kanu	-11.7231
▁measurement	-11.7231
▁unemployed	-11.7231
reign	-11.7231
▁incontinent	-11.7231
▁riba	-11.7231
▁patron	-11.7231
▁truce	-11.7231
▁software	-11.7231
iglia	-11.7231
▁plumber	-11.7231
▁stonewall	-11.7231
▁compete	-11.7231
▁hayward	-11.7231
▁heels	-11.7231
▁shattering	-11.7231
▁apb	-11.7231
▁vague	-11.7231
▁nostalgia	-11.7231
▁quant	-11.7231
▁renew	-11.7231
▁thethe	-11.7231
▁thudding	-11.7231
▁decorative	-11.7231
▁farther	-11.7231
▁dispens	-11.7231
▁disarm	-11.7231
▁hyah	-11.7231
▁legacy	-11.7231
▁cinder	-11.7231
▁grammy	-11.7231
▁oooh	-11.7231
▁scorch	-11.7231
ultan	-11.7231
▁joanne	-11.7231
▁merci	-11.7231
▁shawna	-11.7231
▁chico	-11.7231
▁countries	-11.7231
▁commencement	-11.7231
▁operating	-11.7231
▁freelance	-11.7231
▁limo	-11.7231
▁shortcut	-11.7231
▁unpack	-11.7231
▁vicious	-11.7231
▁journalism	-11.7231
▁bandaid	-11.7231
▁lucious	-11.7231
▁westray	-11.7231
▁handicap	-11.7231
▁urgent	-11.7231
▁humid	-11.7231
▁babysit	-11.7231
▁christopher	-11.7231
▁goggles	-11.7231
▁dibs	-11.7231
▁reaiiy	-11.7231
▁forcefully	-11.7231
▁lapham	-11.7231
▁muffin	-11.7231
▁existence	-11.7231
▁infection	-11.7231
▁chiii	-11.7232
▁tribe	-11.7232
▁proportion	-11.7232
▁seattle	-11.7232
▁happie	-11.7232
▁decorator	-11.7232
▁karate	-11.7232
▁styl	-11.7232
▁pelvis	-11.7232
▁slipping	-11.7232
▁attraction	-11.7232
ft	-11.7232
▁flashlight	-11.7232
▁selection	-11.7232
▁oppression	-11.7232
▁poof	-11.7232
▁jerkoff	-11.7232
▁failure	-11.7232
▁farsi	-11.7232
▁festival	-11.7232
▁arson	-11.7232
▁goldstein	-11.7232
▁alias	-11.7232
▁tray	-11.7232
▁psychologist	-11.7232
▁begun	-11.7232
▁kiloton	-11.7232
▁trippin	-11.7232
eith	-11.7232
▁derogatory	-11.7232
▁frequency	-11.7232
▁monopoly	-11.7232
▁rlc	-11.7232
▁patel	-11.7233
▁alteration	-11.7233
▁brotherinlaw	-11.7233
▁minister	-11.7233
nguin	-11.7233
handed	-11.7233
▁unreal	-11.7233
siren	-11.7233
▁beanie	-11.7233
▁bouch	-11.7233
▁admirable	-11.7233
▁toby	-11.7233
▁chaos	-11.7233
▁disney	-11.7233
▁humiliation	-11.7233
▁income	-11.7233
▁yoko	-11.7233
▁rumble	-11.7233
▁whyg	-11.7233
▁withers	-11.7233
▁quad	-11.7233
▁stanton	-11.7233
▁gif	-11.7233
▁tread	-11.7233
▁apc	-11.7233
▁assembled	-11.7233
▁hustled	-11.7233
▁bugging	-11.7233
▁shred	-11.7233
▁retardation	-11.7233
▁sympathy	-11.7233
elvis	-11.7233
▁minority	-11.7233
▁aargh	-11.7234
▁crotch	-11.7234
▁flavor	-11.7234
▁miriam	-11.7234
▁salvage	-11.7234
▁satisfy	-11.7234
▁villain	-11.7234
▁assumption	-11.7234
▁indoor	-11.7234
▁heavier	-11.7234
▁wack	-11.7234
▁thong	-11.7234
▁editor	-11.7234
▁gab	-11.7234
▁mmmmm	-11.7234
▁hidin	-11.7234
▁thigh	-11.7234
▁holloway	-11.7234
▁posse	-11.7234
▁ruck	-11.7234
▁uncie	-11.7234
▁robinson	-11.7234
▁halen	-11.7234
▁junkie	-11.7234
▁lining	-11.7234
▁herald	-11.7234
▁princeton	-11.7234
▁steward	-11.7234
▁cuddle	-11.7235
▁ratings	-11.7235
▁heartbreaker	-11.7235
▁friendlies	-11.7235
▁kiii	-11.7235
▁mayflower	-11.7235
▁bodyguard	-11.7235
▁disposal	-11.7235
▁vu	-11.7235
▁upped	-11.7235
▁khan	-11.7235
▁willy	-11.7235
▁hardware	-11.7236
ssette	-11.7236
▁unison	-11.7236
▁bluffing	-11.7236
▁vomiting	-11.7236
▁promising	-11.7236
▁ivan	-11.7236
▁everett	-11.7236
▁salesman	-11.7236
artar	-11.7236
biograph	-11.7236
▁replacement	-11.7237
▁respectfully	-11.7237
▁luke	-11.7237
▁peasant	-11.7237
▁heke	-11.7237
▁mack	-11.7237
▁postga	-11.7237
▁token	-11.7237
▁warfare	-11.7237
▁rally	-11.7237
▁casa	-11.7237
▁spoon	-11.7237
▁rolex	-11.7237
▁popping	-11.7237
▁weaknesses	-11.7237
▁pasa	-11.7237
▁betrayal	-11.7237
▁monk	-11.7238
▁colada	-11.7238
▁royalty	-11.7238
▁combo	-11.7238
▁rodman	-11.7238
▁rayette	-11.7238
▁settlement	-11.7238
▁anticipate	-11.7239
▁cooperate	-11.7239
▁truthfully	-11.7239
▁stern	-11.7239
▁pact	-11.7239
▁branches	-11.7239
fft	-11.7239
▁robble	-11.7239
▁whoaoh	-11.7239
teria	-11.7239
brid	-11.7239
▁plotz	-11.724
▁shelley	-11.724
▁lyon	-11.724
▁handjob	-11.724
▁particle	-11.724
▁melon	-11.724
▁absorb	-11.724
▁heiio	-11.724
▁lottery	-11.724
▁batch	-11.724
▁slant	-11.724
▁hedge	-11.724
▁spicer	-11.7241
▁pension	-11.7241
▁trophy	-11.7241
▁anus	-11.7241
▁devastated	-11.7241
▁installed	-11.7241
nstein	-11.7241
▁chopin	-11.7241
▁backpack	-11.7241
brained	-11.7242
▁yearbook	-11.7242
▁warmth	-11.7242
▁squirt	-11.7242
▁lava	-11.7242
▁breakdown	-11.7242
▁hitler	-11.7242
▁denny	-11.7242
▁dang	-11.7243
▁tailor	-11.7243
▁awareness	-11.7243
▁pillar	-11.7243
▁forgiveness	-11.7243
▁leftover	-11.7244
▁clause	-11.7244
▁mave	-11.7244
▁waist	-11.7244
▁breakthrough	-11.7244
▁hospitality	-11.7244
▁vast	-11.7244
▁employer	-11.7244
▁designated	-11.7245
▁unlikely	-11.7245
▁contribution	-11.7245
▁lighthouse	-11.7245
▁ssh	-11.7245
▁disturbed	-11.7245
▁jeopardy	-11.7245
▁lifeboat	-11.7245
▁clearance	-11.7246
▁tidy	-11.7246
▁slurping	-11.7246
▁surrounding	-11.7246
▁disturbing	-11.7246
▁qualified	-11.7247
▁playboy	-11.7247
▁racing	-11.7247
▁initiated	-11.7247
▁snorting	-11.7247
▁dante	-11.7247
▁trenton	-11.7247
meditate	-11.7247
▁protective	-11.7248
▁jeanie	-11.7248
▁salary	-11.7248
▁delighted	-11.7249
oni	-11.7249
▁perv	-11.7249
▁accommodate	-11.7249
▁gesture	-11.7249
▁nelly	-11.725
▁greedy	-11.725
▁admitted	-11.725
donna	-11.725
▁humiliated	-11.725
▁tilt	-11.725
▁bulletin	-11.725
▁twinky	-11.7251
▁diving	-11.7251
▁grove	-11.7252
▁bertra	-11.7253
▁data	-11.7253
▁dinosaurs	-11.7254
▁veterans	-11.7254
▁impersonati	-11.7254
▁rattles	-11.7254
▁whereabouts	-11.7254
▁payoff	-11.7254
▁payback	-11.7254
▁glitch	-11.7254
▁frontier	-11.7254
▁drew	-11.7255
▁fitness	-11.7255
▁quest	-11.7255
wept	-11.7255
yify	-11.7256
▁gunner	-11.7256
▁recruited	-11.7256
▁annoyed	-11.7256
▁jap	-11.7256
▁mocking	-11.7256
▁clank	-11.7257
▁pint	-11.7257
▁lockup	-11.7257
▁emma	-11.7258
▁pronounced	-11.7258
▁snaps	-11.7258
▁humanity	-11.7259
▁joan	-11.726
▁achieved	-11.7261
▁stretcher	-11.7261
▁acquire	-11.7261
▁shovel	-11.7262
rloin	-11.7263
▁imply	-11.7263
▁dau	-11.7263
▁cong	-11.7263
▁homeboy	-11.7263
coat	-11.7264
▁hardball	-11.7264
▁gurgl	-11.7264
▁strained	-11.7265
▁dere	-11.7266
▁cath	-11.7267
▁crunching	-11.7267
▁greeting	-11.7267
▁tweaking	-11.7267
▁hammering	-11.7267
▁betting	-11.7269
▁tying	-11.7269
▁jock	-11.727
▁shipped	-11.727
▁handcuff	-11.727
▁unto	-11.7271
▁jr	-11.7271
▁bushes	-11.7271
▁hiring	-11.7271
▁soaked	-11.7271
▁kickass	-11.7272
▁violate	-11.7273
▁missis	-11.7273
▁lars	-11.7275
▁stable	-11.7276
▁madman	-11.7277
▁glowing	-11.7278
▁weighed	-11.7278
▁ella	-11.7279
▁doe	-11.7279
▁processor	-11.7279
▁singin	-11.728
▁corps	-11.728
▁specialist	-11.728
▁pic	-11.7281
▁publisher	-11.7281
▁rack	-11.7282
▁anna	-11.7282
▁preach	-11.7283
▁bandit	-11.7283
▁correction	-11.7283
▁departed	-11.7286
▁endure	-11.7287
okay	-11.7287
▁iooking	-11.7288
omy	-11.7288
▁shootout	-11.7289
omin	-11.729
fers	-11.729
▁proposed	-11.7291
▁clash	-11.7291
▁tanker	-11.7292
▁sweetness	-11.7292
▁wein	-11.7292
▁ave	-11.7293
hine	-11.7293
▁hobo	-11.7294
▁dah	-11.7294
▁tissues	-11.7295
▁mathematics	-11.7295
▁beams	-11.7295
▁peeping	-11.7296
anor	-11.7296
▁inmates	-11.7296
▁copies	-11.7297
▁cooing	-11.7297
▁garcia	-11.7297
▁followers	-11.7298
▁exceptional	-11.7299
▁retarded	-11.73
▁likewise	-11.7301
▁steamers	-11.7302
▁synthe	-11.7302
▁robbers	-11.7303
▁aha	-11.7304
▁washer	-11.7306
▁dolly	-11.7307
▁distracted	-11.7307
▁spoiled	-11.7308
▁appeared	-11.7309
▁cleansed	-11.7309
▁folding	-11.7309
▁spite	-11.7314
▁shak	-11.7315
▁regularly	-11.7315
▁wearin	-11.7315
▁cutie	-11.7316
▁shithole	-11.7317
▁these	-11.7317
▁sams	-11.7317
▁separated	-11.7318
▁guaranteed	-11.7318
▁foundation	-11.7319
▁dewa	-11.7319
▁sailing	-11.7321
▁armo	-11.7321
rum	-11.7322
▁dresses	-11.7323
▁skater	-11.7323
▁scratching	-11.7324
▁cursed	-11.7327
▁nanny	-11.7329
▁pumped	-11.733
istan	-11.733
▁mea	-11.7332
▁missus	-11.7334
▁pullin	-11.7336
▁cambers	-11.7337
▁rattlesnakes	-11.7337
▁cigars	-11.7337
▁crayons	-11.7338
▁hadas	-11.7338
▁revs	-11.7338
▁elbows	-11.7338
▁condoms	-11.7338
▁onions	-11.7338
▁blackout	-11.7339
rified	-11.7342
▁meters	-11.7344
▁interrupted	-11.7345
▁deserted	-11.7347
▁select	-11.7347
▁lag	-11.7347
▁badger	-11.7348
▁beaches	-11.7356
▁matty	-11.7356
▁qu	-11.7357
▁trimm	-11.7359
▁stretching	-11.7363
ison	-11.7365
▁chilly	-11.7366
▁practiced	-11.7369
▁lite	-11.7371
▁developing	-11.7373
dialing	-11.7374
▁bois	-11.7375
▁mope	-11.7375
▁filed	-11.7375
▁cougars	-11.738
▁circuits	-11.738
▁consequences	-11.738
▁economics	-11.738
hour	-11.7381
▁assaulted	-11.7382
▁raft	-11.7383
owning	-11.7385
fully	-11.7387
▁formed	-11.7392
she	-11.7394
▁rein	-11.7394
▁pitcher	-11.7396
▁shopper	-11.7396
▁sputter	-11.7396
▁kin	-11.7396
▁recognized	-11.7403
▁dangerously	-11.7407
ryan	-11.7408
▁ape	-11.7412
▁fisher	-11.7414
▁starters	-11.7416
▁shoo	-11.7419
▁spr	-11.742
▁heed	-11.7421
▁sharks	-11.7423
▁australians	-11.7424
▁buckets	-11.7424
▁hardon	-11.7424
▁complaints	-11.7425
▁jewels	-11.7426
▁directed	-11.7432
▁indicat	-11.7433
▁contracted	-11.7437
▁disappearing	-11.744
▁killings	-11.7443
ames	-11.7445
mes	-11.7451
▁twi	-11.7452
▁indicate	-11.7454
▁smarter	-11.7454
▁realm	-11.7456
kins	-11.746
▁gents	-11.7461
▁turnin	-11.7464
▁experienced	-11.7464
▁tactics	-11.7464
▁levin	-11.7465
▁stella	-11.7465
▁hums	-11.7466
▁yelps	-11.7467
▁saras	-11.7467
▁orgasms	-11.7467
▁rehearsals	-11.7467
▁narcissist	-11.7469
▁visitors	-11.747
▁anthe	-11.7472
sug	-11.7477
▁boon	-11.7478
uper	-11.7483
passionate	-11.7483
▁charged	-11.7486
▁wishes	-11.7487
acy	-11.749
▁marit	-11.7493
▁oblig	-11.7494
▁chart	-11.7495
attering	-11.7495
▁my	-11.7496
▁catcher	-11.7498
culo	-11.7501
▁madly	-11.7509
▁mau	-11.7509
▁scales	-11.751
▁chore	-11.751
▁passengers	-11.751
▁illusions	-11.751
▁digits	-11.7511
▁motorcycles	-11.7511
▁recit	-11.7515
▁peas	-11.7518
▁luci	-11.7519
▁lotion	-11.7524
▁cooked	-11.7527
▁dreamer	-11.7538
▁lighter	-11.7538
▁farmer	-11.7539
▁kas	-11.7539
▁dink	-11.754
▁warmed	-11.755
rv	-11.7553
▁sighting	-11.7553
▁affairs	-11.7554
▁johns	-11.7555
▁ohio	-11.7556
▁berg	-11.7557
▁colorful	-11.7558
▁drugg	-11.7559
▁praying	-11.7559
appointed	-11.7562
▁becker	-11.7562
▁onetime	-11.7564
▁conv	-11.7574
inson	-11.7574
▁cope	-11.7577
▁pursue	-11.758
▁dancers	-11.7581
▁tease	-11.7585
▁lac	-11.7585
▁ruler	-11.7587
thing	-11.7588
▁presented	-11.7591
▁intro	-11.7595
▁gem	-11.7596
▁cereals	-11.7597
▁marines	-11.7598
▁sheets	-11.7598
▁birdie	-11.7599
mon	-11.762
ened	-11.7625
▁nuke	-11.7625
▁clangs	-11.7641
▁efforts	-11.7641
▁grandfathers	-11.7641
▁currents	-11.7642
▁strippers	-11.7644
▁killin	-11.7649
▁repeating	-11.7656
▁curs	-11.7657
ating	-11.7666
▁accounting	-11.7671
▁environmental	-11.7675
▁tam	-11.7685
▁exp	-11.7689
▁merit	-11.7692
save	-11.77
▁crossing	-11.7704
▁ec	-11.7706
▁bombing	-11.771
▁gambl	-11.7713
▁cami	-11.7723
▁fights	-11.7725
▁kicks	-11.7727
▁compliments	-11.773
ago	-11.7731
▁tunes	-11.7732
▁filmed	-11.7733
quette	-11.7736
▁arou	-11.7737
lito	-11.7741
▁lor	-11.7743
▁suited	-11.7747
ena	-11.7749
▁mytholog	-11.7759
▁differently	-11.7773
ole	-11.7773
decent	-11.7775
▁leftys	-11.7775
▁archers	-11.7782
▁swis	-11.7794
▁comets	-11.7797
▁hotels	-11.7798
▁mont	-11.7803
ille	-11.7803
traction	-11.781
▁hairy	-11.7812
▁meds	-11.7816
▁gums	-11.7817
▁ropes	-11.7819
▁ob	-11.7822
win	-11.7826
▁nu	-11.7827
▁bees	-11.7829
otic	-11.7842
▁doz	-11.7844
was	-11.7851
▁abs	-11.786
▁chapters	-11.7864
▁prob	-11.7874
▁rile	-11.7882
tomic	-11.7882
▁gr	-11.7889
▁locking	-11.7901
▁hassle	-11.7907
▁tuesdays	-11.7909
▁cokes	-11.7909
▁ky	-11.7915
▁salads	-11.7915
▁das	-11.7922
boards	-11.7933
▁cavit	-11.7948
▁prizes	-11.7952
▁subjects	-11.7954
▁cowards	-11.7954
▁stra	-11.7954
▁filming	-11.7954
done	-11.797
▁kare	-11.7976
ski	-11.7979
▁flows	-11.7998
▁winners	-11.7999
▁yyou	-11.8001
▁settles	-11.8001
▁estimate	-11.8009
▁trac	-11.8013
ely	-11.8024
ino	-11.8029
▁exercises	-11.8044
▁arrives	-11.8046
▁represents	-11.8047
▁jerks	-11.8048
lope	-11.8052
wiii	-11.8058
▁damp	-11.807
▁rank	-11.8071
▁scramble	-11.8075
hei	-11.8075
of	-11.8076
▁layer	-11.8089
▁advantages	-11.809
▁devices	-11.809
▁bulls	-11.8091
aze	-11.8097
▁towns	-11.8101
awn	-11.8106
▁sla	-11.8125
whipping	-11.8125
ettes	-11.8125
▁skinn	-11.8126
▁nations	-11.8129
▁conditions	-11.8131
▁cum	-11.8141
loo	-11.815
▁moo	-11.8153
ntact	-11.8158
▁did	-11.8164
▁deer	-11.8173
hhh	-11.8176
▁sticker	-11.8177
bbed	-11.8178
▁storms	-11.8181
▁yea	-11.8186
iel	-11.8201
gee	-11.8226
▁buttfuck	-11.823
yass	-11.8231
shes	-11.8249
tched	-11.8261
pping	-11.8264
▁begg	-11.8266
▁stripp	-11.8272
▁felixs	-11.8274
▁amandas	-11.8274
▁caps	-11.8281
▁travell	-11.8282
▁assess	-11.8288
ways	-11.829
lea	-11.8309
oir	-11.831
utter	-11.8316
▁calculat	-11.8335
▁buds	-11.8341
▁stac	-11.8342
loa	-11.8342
▁gram	-11.8359
▁handy	-11.8366
▁whitey	-11.8366
quel	-11.8369
▁stuffy	-11.8374
orc	-11.8383
▁resu	-11.8385
▁blea	-11.8389
▁rame	-11.8394
▁fruits	-11.8414
▁projects	-11.8417
▁talents	-11.8417
▁jakey	-11.8418
audible	-11.8434
▁marker	-11.8437
▁cd	-11.8439
ato	-11.8451
nuck	-11.8454
ichi	-11.8457
▁foleys	-11.8462
▁freaks	-11.8465
▁interviews	-11.8466
vers	-11.8466
tra	-11.8471
▁tagg	-11.8494
uter	-11.8498
▁markets	-11.8511
logical	-11.8523
mmed	-11.8527
vi	-11.8528
▁puta	-11.8539
▁pockets	-11.8556
▁cleaner	-11.8575
▁pies	-11.8577
amen	-11.858
▁ger	-11.8582
▁wherea	-11.8585
vin	-11.8586
burg	-11.8596
▁pai	-11.8596
▁abo	-11.8604
▁cocksuckers	-11.8605
chi	-11.8608
▁mode	-11.8617
sters	-11.8624
dunk	-11.8627
▁sha	-11.8648
oli	-11.8653
▁professionals	-11.8654
▁pul	-11.8661
hoo	-11.8662
▁cle	-11.8665
uv	-11.8698
▁harolds	-11.87
pie	-11.8711
nob	-11.8739
▁swings	-11.8746
▁nurses	-11.875
lot	-11.8756
▁rewrite	-11.8762
▁ps	-11.8765
umin	-11.8765
▁kan	-11.8769
doo	-11.8772
itis	-11.8785
▁elevators	-11.8795
▁belts	-11.8797
▁allows	-11.882
ooooo	-11.8831
▁encourage	-11.8835
een	-11.8842
▁chairs	-11.8845
▁deca	-11.8846
▁spokes	-11.8852
▁rever	-11.8862
▁medi	-11.8874
ated	-11.8877
▁sounding	-11.8885
roll	-11.8889
▁risks	-11.8892
rel	-11.8897
▁answering	-11.8902
bl	-11.8909
▁stripe	-11.8923
▁skid	-11.8927
▁ou	-11.8931
wer	-11.8955
▁supervis	-11.8968
▁rul	-11.897
▁wishing	-11.8981
▁mild	-11.8984
▁requests	-11.8991
▁rubb	-11.8994
▁fif	-11.8996
▁hog	-11.8997
▁diar	-11.9022
pa	-11.9024
▁rains	-11.9041
▁arteri	-11.9067
obe	-11.9073
lessly	-11.9079
▁marriages	-11.909
gua	-11.9098
fus	-11.9114
azy	-11.9119
cation	-11.9153
▁corr	-11.9163
tions	-11.9163
fucker	-11.9181
vision	-11.9188
▁marys	-11.9188
ipping	-11.9199
▁calculate	-11.9203
▁crumb	-11.9219
▁talker	-11.9223
arch	-11.9226
▁handed	-11.9227
▁esc	-11.9231
ath	-11.9231
▁ani	-11.9252
▁interests	-11.9257
des	-11.9268
▁invade	-11.9284
▁reads	-11.9295
▁determin	-11.9305
▁founded	-11.932
▁locals	-11.9339
▁differences	-11.9341
sanity	-11.9354
gg	-11.9359
hol	-11.9366
els	-11.9379
gage	-11.9385
▁defi	-11.9387
▁behav	-11.9393
▁judi	-11.9422
▁protects	-11.9459
uz	-11.946
tine	-11.9463
▁vario	-11.9463
serving	-11.9463
▁adi	-11.9469
▁unfi	-11.9481
▁levels	-11.9492
▁commands	-11.9499
lum	-11.9565
assed	-11.9568
lash	-11.9574
ffe	-11.9587
rative	-11.9589
▁groups	-11.9595
act	-11.9615
▁ell	-11.9619
▁but	-11.9632
▁inde	-11.9632
▁fin	-11.9675
lenc	-11.9687
▁sadd	-11.9694
▁mums	-11.9702
▁laur	-11.9758
sha	-11.9762
▁epi	-11.9769
any	-11.9783
hot	-11.9785
sion	-11.9794
ttie	-11.98
mous	-11.9806
▁sm	-11.9814
row	-11.9826
sas	-11.9827
atch	-11.9828
aha	-11.9834
▁misunderstand	-11.9836
▁sti	-11.9864
▁myth	-11.9872
▁jen	-11.9879
▁pals	-11.9895
asses	-11.9898
▁weddings	-11.9909
▁cub	-11.9912
avil	-11.9915
pit	-11.9927
▁bod	-11.9929
tery	-11.9931
ab	-11.9947
▁sca	-11.9958
ja	-11.9972
▁juli	-11.9984
bron	-11.9995
▁bagg	-12.0004
▁guessed	-12.0004
hea	-12.0006
▁hospitals	-12.0016
actic	-12.0024
tention	-12.003
wad	-12.0037
▁shorts	-12.0044
▁plea	-12.0078
▁pip	-12.0092
▁blur	-12.0092
▁pursu	-12.0095
ember	-12.0102
▁appoint	-12.0117
▁ocul	-12.0122
▁fri	-12.0123
▁shag	-12.0128
▁impose	-12.0164
hin	-12.0178
▁scoo	-12.0178
▁tum	-12.0187
icu	-12.0189
▁forg	-12.019
▁wakes	-12.0194
▁watcher	-12.0194
bling	-12.0197
▁trusts	-12.0207
▁capitali	-12.0211
hoe	-12.0215
▁respects	-12.0218
▁languages	-12.023
▁scenes	-12.0234
pression	-12.0239
▁typ	-12.0241
▁zon	-12.026
umbling	-12.0274
uous	-12.0282
ient	-12.0285
▁grabs	-12.0286
▁troubl	-12.0286
▁tai	-12.0294
mption	-12.0297
▁mer	-12.0299
▁fla	-12.0306
adder	-12.0313
quin	-12.0315
▁alexa	-12.0323
erin	-12.0326
▁ll	-12.0328
▁virtu	-12.0338
▁donnies	-12.0339
▁sucka	-12.0345
▁is	-12.0348
▁unde	-12.0351
izzi	-12.0356
▁raf	-12.0358
ware	-12.0367
american	-12.0373
bug	-12.0376
wall	-12.0378
▁betray	-12.0383
angel	-12.0386
▁creak	-12.0392
▁supplie	-12.0392
▁gardner	-12.0393
▁homie	-12.0393
▁premonition	-12.0393
▁rpg	-12.0393
▁exclalm	-12.0393
▁precede	-12.0393
▁patio	-12.0394
▁suitcase	-12.0394
▁marble	-12.0395
▁centre	-12.0397
▁improvement	-12.0399
▁whine	-12.04
▁honk	-12.04
erm	-12.0401
▁shin	-12.0401
▁brace	-12.0402
rus	-12.0404
▁dragon	-12.0406
horizo	-12.0406
▁bb	-12.0407
▁rust	-12.0408
▁cocktail	-12.0409
▁sardine	-12.0409
▁trump	-12.0409
ique	-12.0409
▁conclusion	-12.0409
▁straw	-12.041
▁slack	-12.041
▁babes	-12.0411
▁occasion	-12.0411
▁profit	-12.0413
▁surgeon	-12.0413
▁paramedic	-12.0414
▁sac	-12.0415
▁elbow	-12.0416
▁rattlesnake	-12.0416
▁cigar	-12.0416
▁crayon	-12.0417
▁camber	-12.0417
▁troop	-12.0417
▁lov	-12.0419
▁ankle	-12.042
▁vegetable	-12.042
▁condom	-12.0422
▁rev	-12.0425
▁claw	-12.0425
▁topping	-12.0426
▁onion	-12.0426
▁lyric	-12.0427
▁humvee	-12.0427
▁frog	-12.0428
▁circumstance	-12.0428
▁trooper	-12.0429
▁belief	-12.0429
▁tourist	-12.0431
▁clam	-12.0432
▁craft	-12.0434
▁stair	-12.0434
scrib	-12.0434
▁dock	-12.0437
▁bea	-12.0442
▁hada	-12.0443
▁cookie	-12.0447
▁expectation	-12.0447
wise	-12.0447
about	-12.0448
▁hick	-12.0451
▁disk	-12.0451
▁redeem	-12.0456
dios	-12.0461
▁dew	-12.0468
▁sil	-12.0469
▁surg	-12.0476
gar	-12.0477
▁beatle	-12.0479
lookin	-12.0479
▁electr	-12.048
ety	-12.0482
stage	-12.0487
cie	-12.0489
▁fre	-12.049
omi	-12.0491
▁confi	-12.0496
talk	-12.0497
lushing	-12.0498
▁devi	-12.05
ables	-12.05
▁premed	-12.0503
lam	-12.0505
table	-12.0507
▁screamer	-12.0509
▁trim	-12.051
father	-12.0514
person	-12.0515
▁divorc	-12.0517
▁cassi	-12.0519
friends	-12.052
del	-12.0521
blo	-12.0522
▁translat	-12.0522
▁reserv	-12.0523
onne	-12.0523
ain	-12.0525
▁figur	-12.0526
▁secur	-12.0527
▁nob	-12.0528
▁replac	-12.0529
thats	-12.0529
coming	-12.0529
▁mock	-12.0529
grad	-12.0529
▁howl	-12.053
▁critic	-12.053
▁disgust	-12.0531
▁suppos	-12.0531
▁crow	-12.0533
make	-12.0534
▁plac	-12.0534
flower	-12.0535
▁vag	-12.0535
▁butch	-12.0535
burn	-12.0535
▁detain	-12.0535
riots	-12.0535
ream	-12.0535
▁valid	-12.0535
nett	-12.0536
▁heap	-12.0536
comprehensi	-12.0536
carat	-12.0537
partial	-12.0537
ality	-12.0537
▁micro	-12.0537
▁infect	-12.0538
▁mach	-12.0538
▁joc	-12.0539
view	-12.054
▁jame	-12.054
possessed	-12.054
woman	-12.054
issue	-12.054
february	-12.0541
wear	-12.0541
fast	-12.0541
winding	-12.0541
safe	-12.0542
drops	-12.0542
point	-12.0542
tube	-12.0542
rescue	-12.0542
grown	-12.0542
shift	-12.0542
public	-12.0542
season	-12.0542
chester	-12.0543
whispers	-12.0543
interest	-12.0543
proof	-12.0543
▁expose	-12.0543
movie	-12.0543
behind	-12.0543
important	-12.0543
izer	-12.0543
excuse	-12.0543
master	-12.0543
guns	-12.0543
crowd	-12.0543
course	-12.0543
mature	-12.0543
information	-12.0543
lift	-12.0543
running	-12.0544
flies	-12.0544
today	-12.0544
mont	-12.0544
▁delight	-12.0545
share	-12.0545
bodies	-12.0545
arth	-12.0546
cake	-12.0546
▁bash	-12.0546
nail	-12.0547
teeth	-12.0547
▁trapp	-12.0548
▁romania	-12.0548
▁troph	-12.0548
▁strawberr	-12.0549
▁whisk	-12.0549
▁opportunit	-12.055
body	-12.055
▁designate	-12.055
▁biblical	-12.055
▁spiritual	-12.055
▁felon	-12.055
plain	-12.055
winning	-12.055
fish	-12.0551
▁muthafuck	-12.0551
metal	-12.0551
▁retract	-12.0552
▁ofher	-12.0552
▁grac	-12.0553
good	-12.0553
▁definite	-12.0553
chip	-12.0553
▁rold	-12.0553
aware	-12.0554
▁humbl	-12.0554
▁excess	-12.0555
▁premi	-12.0555
along	-12.0555
▁colum	-12.0555
▁ohohoh	-12.0555
stitution	-12.0556
▁iong	-12.0558
▁jamaica	-12.0558
ject	-12.0558
▁exhal	-12.0558
▁cubic	-12.0559
▁shou	-12.056
▁merch	-12.056
▁detonat	-12.056
▁trivia	-12.056
math	-12.056
dolph	-12.0561
▁definiti	-12.0561
▁salwa	-12.0561
▁destruct	-12.0561
▁grocer	-12.0561
▁poster	-12.0561
errano	-12.0562
▁kurt	-12.0562
▁commence	-12.0562
riving	-12.0562
bros	-12.0562
▁grabbin	-12.0562
▁drivin	-12.0562
▁assassin	-12.0562
▁veg	-12.0563
▁dyin	-12.0563
tribute	-12.0563
stract	-12.0563
▁puttin	-12.0563
omotion	-12.0563
▁reflect	-12.0563
▁terrifi	-12.0563
▁krypton	-12.0563
antha	-12.0563
juven	-12.0563
▁stereo	-12.0563
▁anchov	-12.0563
▁indiscrimina	-12.0563
oglob	-12.0563
sensual	-12.0563
template	-12.0563
▁abscam	-12.0563
▁ackwell	-12.0563
▁aegean	-12.0563
▁ajmal	-12.0563
▁align	-12.0563
▁ambassador	-12.0563
▁amerikkka	-12.0563
▁anarchy	-12.0563
▁anello	-12.0563
▁annihilation	-12.0563
▁antarctica	-12.0563
▁ararat	-12.0563
▁areuh	-12.0563
▁arrogant	-12.0563
▁artaphernes	-12.0563
▁audio	-12.0563
▁autumn	-12.0563
▁avocado	-12.0563
▁bannion	-12.0563
▁barboza	-12.0563
▁barcode	-12.0563
▁baywatch	-12.0563
▁bedstuy	-12.0563
▁beiieve	-12.0563
▁beverage	-12.0563
▁bizarre	-12.0563
▁blizzard	-12.0563
▁bolero	-12.0563
▁bonfire	-12.0563
▁boomshakalaka	-12.0563
▁brazil	-12.0563
▁brezhnev	-12.0563
▁bribing	-12.0563
▁brilliance	-12.0563
▁broflovski	-12.0563
▁brunette	-12.0563
▁budweiser	-12.0563
▁burrito	-12.0563
▁catalogue	-12.0563
▁caviar	-12.0563
▁chameleon	-12.0563
▁chariot	-12.0563
▁cheddar	-12.0563
▁chuckllng	-12.0563
▁cinnamon	-12.0563
▁circumstantial	-12.0563
▁civilisation	-12.0563
▁claiborne	-12.0563
▁clunking	-12.0563
▁coglin	-12.0563
▁collette	-12.0563
▁cologne	-12.0563
▁compelling	-12.0563
▁compensate	-12.0563
▁component	-12.0563
▁composure	-12.0563
▁concrete	-12.0563
▁condescend	-12.0563
▁condiments	-12.0563
▁congratulate	-12.0563
▁context	-12.0563
▁corroborate	-12.0563
▁credibility	-12.0563
▁cryobank	-12.0563
▁curfew	-12.0563
▁ddojsioc	-12.0563
▁deceiving	-12.0563
▁dementia	-12.0563
▁demerius	-12.0563
▁dempsey	-12.0563
▁depict	-12.0563
▁deployed	-12.0563
▁diaboli	-12.0563
▁diligent	-12.0563
▁dingdong	-12.0563
▁disbarred	-12.0563
▁discreet	-12.0563
▁discretion	-12.0563
▁dungeon	-12.0563
▁dysfunction	-12.0563
▁easiest	-12.0563
▁egypt	-12.0563
▁elizabeth	-12.0563
▁eminence	-12.0563
▁emporium	-12.0563
▁encryption	-12.0563
▁enhance	-12.0563
▁enrique	-12.0563
▁enthusiasm	-12.0563
▁enunciat	-12.0563
▁epileptic	-12.0563
▁epitaph	-12.0563
▁evolution	-12.0563
▁exhausting	-12.0563
▁exhumed	-12.0563
▁famished	-12.0563
▁faucet	-12.0563
▁fervent	-12.0563
▁fingertip	-12.0563
▁firefighter	-12.0563
▁firepower	-12.0563
▁frenzy	-12.0563
▁freysa	-12.0563
▁fujita	-12.0563
▁furnace	-12.0563
▁gabriel	-12.0563
▁gaelic	-12.0563
▁gallivanting	-12.0563
▁gasoline	-12.0563
▁gazebo	-12.0563
▁genevieve	-12.0563
▁grasp	-12.0563
▁gretzky	-12.0563
▁guacamole	-12.0563
▁guilford	-12.0563
▁guillermo	-12.0563
▁guinness	-12.0563
▁hardcore	-12.0563
▁harrell	-12.0563
▁heirloom	-12.0563
▁highpriced	-12.0563
▁historian	-12.0563
▁homicidal	-12.0563
▁housewives	-12.0563
▁ibm	-12.0563
▁ichimaru	-12.0563
▁impeccable	-12.0563
▁imprison	-12.0563
▁infidel	-12.0563
▁insatiable	-12.0563
▁inspection	-12.0563
▁inspiration	-12.0563
▁intrusion	-12.0563
▁jihad	-12.0563
▁kangaroo	-12.0563
▁kashiwara	-12.0563
▁kenosha	-12.0563
▁kolnas	-12.0563
▁kristofferson	-12.0563
▁kyushi	-12.0563
▁laboratory	-12.0563
▁lactose	-12.0563
▁lasagna	-12.0563
▁ludmilla	-12.0563
▁maccready	-12.0563
▁macneil	-12.0563
▁manipulator	-12.0563
▁margaret	-12.0563
▁mcbrayer	-12.0563
▁mccarran	-12.0563
▁mclean	-12.0563
▁mecca	-12.0563
▁miguel	-12.0563
▁misunderstood	-12.0563
▁mitzvah	-12.0563
▁motivation	-12.0563
▁motoyama	-12.0563
▁mozart	-12.0563
▁mwah	-12.0563
▁neanderthal	-12.0563
▁neighbourhood	-12.0563
▁nevada	-12.0563
▁nightgown	-12.0563
▁nitrate	-12.0563
▁nonbinary	-12.0563
▁nugget	-12.0563
▁obstruct	-12.0563
▁oconnor	-12.0563
▁offshore	-12.0563
▁oklahoma	-12.0563
▁oksana	-12.0563
▁omega	-12.0563
▁onlooker	-12.0563
▁orrin	-12.0563
▁ostrich	-12.0563
▁outlook	-12.0563
▁overhaul	-12.0563
▁overseas	-12.0563
▁overwhelming	-12.0563
▁pakistan	-12.0563
▁paolo	-12.0563
▁parameters	-12.0563
▁participant	-12.0563
▁pasadena	-12.0563
▁pendejo	-12.0563
▁perpetrator	-12.0563
▁philosopher	-12.0563
▁phoenix	-12.0563
▁polaroid	-12.0563
▁pookie	-12.0563
▁portuguese	-12.0563
▁prada	-12.0563
▁prehistoric	-12.0563
▁prevail	-12.0563
▁probiem	-12.0563
▁procreation	-12.0563
▁qualify	-12.0563
▁receipt	-12.0563
▁recoil	-12.0563
▁reliable	-12.0563
▁rocco	-12.0563
▁rugrats	-12.0563
▁sacramento	-12.0563
▁salvador	-12.0563
▁scallions	-12.0563
▁schlotzskys	-12.0563
▁schmid	-12.0563
▁schumacher	-12.0563
▁seizure	-12.0563
▁selfdefen	-12.0563
▁selfsufficient	-12.0563
▁shattered	-12.0563
▁shrieking	-12.0563
▁simultaneously	-12.0563
▁sizzling	-12.0563
▁skeptic	-12.0563
▁smarly	-12.0563
▁snitch	-12.0563
▁sofa	-12.0563
▁solemn	-12.0563
▁spencer	-12.0563
▁spontaneous	-12.0563
▁starbucks	-12.0563
▁substance	-12.0563
▁sufficient	-12.0563
▁summat	-12.0563
▁sundeck	-12.0563
▁sunrise	-12.0563
▁superpower	-12.0563
▁sweatshirt	-12.0563
▁tachyon	-12.0563
▁temporarily	-12.0563
▁testosterone	-12.0563
▁thieves	-12.0563
▁thornton	-12.0563
▁threequarter	-12.0563
▁topsecret	-12.0563
▁tortoise	-12.0563
▁trajectory	-12.0563
▁transcend	-12.0563
▁transylvania	-12.0563
▁twentie	-12.0563
▁ultraviolet	-12.0563
▁unacceptable	-12.0563
▁ungrateful	-12.0563
▁unheard	-12.0563
▁unicef	-12.0563
▁unimaginable	-12.0563
▁unnoticed	-12.0563
▁unpleasant	-12.0563
▁unrelated	-12.0563
▁unstoppable	-12.0563
▁vasquez	-12.0563
▁viagra	-12.0563
▁visiontext	-12.0563
▁whitman	-12.0563
▁whywhy	-12.0563
▁wilki	-12.0563
▁willful	-12.0563
▁winnebago	-12.0563
▁yoohoo	-12.0563
▁yourseif	-12.0563
▁zellweger	-12.0563
▁administer	-12.0563
▁apprehend	-12.0563
▁austin	-12.0563
▁beetle	-12.0563
▁cluster	-12.0563
▁coeur	-12.0563
▁condemn	-12.0563
▁default	-12.0563
▁disobey	-12.0563
▁emancipat	-12.0563
▁entrust	-12.0563
▁florist	-12.0563
▁fossil	-12.0563
▁kazakh	-12.0563
▁lizard	-12.0563
▁monument	-12.0563
▁neglig	-12.0563
▁relent	-12.0563
▁reload	-12.0563
▁repuls	-12.0563
▁seatbelt	-12.0563
▁shelter	-12.0563
▁southwest	-12.0563
▁territori	-12.0563
▁transform	-12.0563
▁trespass	-12.0563
▁tuxedo	-12.0563
centric	-12.0563
▁arsenal	-12.0563
▁baboon	-12.0563
▁belches	-12.0563
▁brainwashed	-12.0563
▁bulb	-12.0563
▁conform	-12.0563
▁empower	-12.0563
▁exclude	-12.0563
▁faggy	-12.0563
▁gazzo	-12.0563
▁gulp	-12.0563
▁iisten	-12.0563
▁lbj	-12.0563
▁robocop	-12.0563
▁senate	-12.0563
▁seventeen	-12.0563
▁sherry	-12.0563
▁swoll	-12.0563
▁symphoni	-12.0563
▁thermo	-12.0563
▁toledo	-12.0563
▁valerie	-12.0563
▁vietnamese	-12.0563
▁wedgie	-12.0563
▁advocat	-12.0563
▁clyde	-12.0563
▁coyote	-12.0563
▁dairy	-12.0563
▁decoy	-12.0563
▁eager	-12.0563
▁grandparents	-12.0563
▁hastings	-12.0563
▁jeffrey	-12.0563
▁linebacker	-12.0563
▁obnoxious	-12.0563
▁piana	-12.0563
▁sabotag	-12.0563
▁whadda	-12.0563
▁wiener	-12.0563
▁worn	-12.0563
▁wretch	-12.0563
▁yorkshire	-12.0563
anguish	-12.0563
▁brooke	-12.0563
▁crawford	-12.0563
▁falcon	-12.0563
▁fierce	-12.0563
▁forcing	-12.0563
▁gravit	-12.0563
▁gymnasium	-12.0563
▁literature	-12.0563
▁madrid	-12.0563
▁revoke	-12.0563
▁supple	-12.0563
▁tattoo	-12.0563
▁toothpick	-12.0563
▁borough	-12.0563
▁ecstasy	-12.0563
▁energizer	-12.0563
▁facial	-12.0563
▁frequent	-12.0563
▁mattress	-12.0563
▁squirrel	-12.0563
▁swift	-12.0563
▁wardrobe	-12.0563
ddad	-12.0563
portrait	-12.0563
▁carbon	-12.0563
▁cosign	-12.0563
▁croatia	-12.0563
▁eggplant	-12.0563
▁kudos	-12.0563
▁minibar	-12.0563
▁sensor	-12.0563
▁videotape	-12.0563
▁evict	-12.0563
▁greyhound	-12.0563
▁pelle	-12.0563
▁ahold	-12.0563
▁chump	-12.0563
▁colonics	-12.0563
▁commissary	-12.0563
▁crossfire	-12.0563
▁estonia	-12.0563
▁ficus	-12.0563
▁presume	-12.0563
▁staircase	-12.0563
▁steep	-12.0563
▁biggie	-12.0563
▁financing	-12.0563
▁shitload	-12.0563
▁xander	-12.0563
hisname	-12.0563
▁iraq	-12.0563
▁ooooh	-12.0563
▁forecast	-12.0563
▁lackett	-12.0563
▁peckerwood	-12.0563
▁shoelace	-12.0563
▁yknow	-12.0563
▁cyb	-12.0563
▁items	-12.0563
▁obligated	-12.0563
▁penetrat	-12.0563
▁pleurera	-12.0563
▁scotland	-12.0563
▁voyeurism	-12.0563
▁casino	-12.0563
▁collating	-12.0563
▁liberating	-12.0563
▁silvi	-12.0563
▁distress	-12.0563
▁geometr	-12.0563
▁oneonone	-12.0563
▁carrot	-12.0563
▁clarity	-12.0563
▁cnn	-12.0563
▁lipstick	-12.0563
▁quadrant	-12.0563
▁shaqu	-12.0563
▁alphabet	-12.0563
▁bankrupt	-12.0563
▁communities	-12.0563
▁worshippers	-12.0563
mphatic	-12.0563
▁morphis	-12.0563
▁prowl	-12.0563
hohoho	-12.0563
▁anomal	-12.0563
▁morganville	-12.0563
▁satisfact	-12.0563
▁sushi	-12.0563
▁homophobi	-12.0564
▁memorial	-12.0564
▁settling	-12.0564
▁millennium	-12.0564
▁ongoing	-12.0564
▁solomon	-12.0564
▁whinnies	-12.0564
▁dispute	-12.0564
▁garnish	-12.0564
▁grubby	-12.0564
▁werdijan	-12.0564
▁abdomin	-12.0564
▁jennings	-12.0564
▁nuys	-12.0564
▁ruski	-12.0564
▁apologise	-12.0564
▁assertations	-12.0564
▁theories	-12.0564
▁visible	-12.0564
▁cornbread	-12.0564
▁inadequate	-12.0564
▁avant	-12.0564
▁foreplay	-12.0564
▁houston	-12.0564
▁kosc	-12.0564
▁mashed	-12.0564
▁paws	-12.0564
▁offhand	-12.0564
▁spinning	-12.0564
▁cottage	-12.0564
▁filter	-12.0564
▁neutralize	-12.0564
▁savior	-12.0564
▁sphin	-12.0564
gahertz	-12.0564
▁karl	-12.0564
▁refill	-12.0564
▁triangle	-12.0564
▁uptight	-12.0564
▁racism	-12.0564
▁summon	-12.0564
▁clockwise	-12.0564
▁gracious	-12.0564
▁insecure	-12.0564
▁rosa	-12.0564
▁sarcasm	-12.0564
▁flashdance	-12.0564
▁glamorous	-12.0564
▁scarface	-12.0564
▁slob	-12.0564
▁hawaii	-12.0564
▁jiggl	-12.0564
▁twitch	-12.0564
▁abroad	-12.0564
▁altar	-12.0564
▁bongos	-12.0564
▁limb	-12.0564
▁portray	-12.0564
▁hillbillies	-12.0564
▁nuns	-12.0564
▁scarlet	-12.0564
▁brink	-12.0564
▁likin	-12.0564
▁spouse	-12.0564
tflix	-12.0564
▁companies	-12.0564
▁administration	-12.0564
▁cissy	-12.0564
▁cyr	-12.0564
▁depth	-12.0564
▁extension	-12.0564
▁pillbox	-12.0564
▁syrup	-12.0564
▁unemployment	-12.0564
▁blaming	-12.0564
▁coarse	-12.0564
▁resemblance	-12.0564
▁rudi	-12.0564
▁babbling	-12.0564
▁coddling	-12.0564
▁ganglia	-12.0564
vinci	-12.0564
▁clump	-12.0564
▁dcs	-12.0564
▁hydrant	-12.0564
▁phew	-12.0564
▁spectrum	-12.0564
▁dumont	-12.0564
▁linguist	-12.0564
▁manipulati	-12.0564
▁modern	-12.0564
▁urinat	-12.0564
▁milkshake	-12.0564
▁glitter	-12.0564
▁pursuit	-12.0564
▁recreation	-12.0564
▁vessel	-12.0564
▁finland	-12.0564
▁papi	-12.0564
▁admission	-12.0564
▁racket	-12.0564
▁milf	-12.0564
▁scrapbook	-12.0564
▁snuff	-12.0564
▁willis	-12.0564
▁coconut	-12.0564
monos	-12.0564
▁abide	-12.0564
▁andand	-12.0564
▁dictat	-12.0564
▁radioactivity	-12.0564
▁tyson	-12.0564
▁bullhorn	-12.0564
▁enrich	-12.0564
▁suki	-12.0564
adoodle	-12.0564
▁asda	-12.0564
▁mousse	-12.0564
▁pretti	-12.0564
▁tango	-12.0564
▁lodge	-12.0564
▁regroup	-12.0564
▁boast	-12.0564
▁clockwork	-12.0564
▁renford	-12.0564
▁mediator	-12.0564
▁afro	-12.0564
▁junco	-12.0564
elain	-12.0564
▁bulge	-12.0564
▁delightful	-12.0564
▁bonnie	-12.0564
▁finite	-12.0564
▁ambitious	-12.0564
▁courtyard	-12.0564
▁historical	-12.0564
▁jomon	-12.0564
▁zimmerman	-12.0565
▁swine	-12.0565
▁xbox	-12.0565
▁flanne	-12.0565
▁criteria	-12.0565
▁oof	-12.0565
▁bugged	-12.0565
▁schizophrenic	-12.0565
▁retches	-12.0565
▁rogue	-12.0565
▁nadia	-12.0565
▁spike	-12.0565
▁turf	-12.0565
▁accessory	-12.0565
▁derby	-12.0565
▁sequel	-12.0565
▁sissy	-12.0565
▁disrupti	-12.0565
▁roleplay	-12.0565
▁diabetic	-12.0565
▁consultant	-12.0565
▁boris	-12.0565
▁removing	-12.0565
▁reunion	-12.0565
minent	-12.0565
▁election	-12.0565
▁snot	-12.0565
▁hungover	-12.0565
▁queso	-12.0565
▁steadi	-12.0565
▁lagoon	-12.0565
▁crossways	-12.0565
▁dojo	-12.0565
▁pedal	-12.0565
▁lebel	-12.0565
▁breachway	-12.0565
▁lindus	-12.0565
▁permitted	-12.0565
▁snapping	-12.0565
▁yuck	-12.0565
▁contestant	-12.0565
raping	-12.0565
▁guff	-12.0565
▁juan	-12.0565
▁industrial	-12.0565
▁mappy	-12.0565
▁insur	-12.0565
▁smeet	-12.0565
▁retainer	-12.0565
▁fangs	-12.0565
▁choo	-12.0565
▁whirs	-12.0565
▁tich	-12.0565
▁blondie	-12.0565
▁nosy	-12.0565
▁glee	-12.0565
▁jiff	-12.0565
▁vacate	-12.0565
▁formality	-12.0565
▁venture	-12.0565
▁outdoor	-12.0566
▁calder	-12.0566
▁denied	-12.0566
▁rival	-12.0566
▁giri	-12.0566
▁birdbath	-12.0566
▁bertram	-12.0566
▁aircraft	-12.0566
▁kurth	-12.0566
minar	-12.0566
▁capisce	-12.0566
▁inevitable	-12.0566
▁slime	-12.0566
▁michi	-12.0566
▁margie	-12.0566
▁siding	-12.0566
▁welsh	-12.0566
▁unconsciousness	-12.0566
▁lush	-12.0566
▁kingston	-12.0566
▁apologies	-12.0566
▁twinkie	-12.0566
▁lyin	-12.0566
▁eminent	-12.0566
▁which	-12.0566
▁battlefield	-12.0566
▁nudge	-12.0566
▁aero	-12.0566
▁housekeeper	-12.0566
▁housekeeping	-12.0566
burgh	-12.0566
▁variable	-12.0566
▁plating	-12.0566
▁banned	-12.0566
▁nacho	-12.0566
▁bookcase	-12.0566
▁dumbsky	-12.0566
openha	-12.0566
▁renee	-12.0566
▁poppin	-12.0566
▁glance	-12.0566
▁personalities	-12.0566
▁hunk	-12.0567
▁stride	-12.0567
▁northeast	-12.0567
itory	-12.0567
▁sulli	-12.0567
▁clute	-12.0567
oggy	-12.0567
▁kleiner	-12.0567
▁baggage	-12.0567
▁buren	-12.0567
giver	-12.0567
▁poppy	-12.0567
▁monogamy	-12.0567
▁brutality	-12.0567
▁simulation	-12.0567
▁attachment	-12.0567
▁crane	-12.0567
▁lime	-12.0567
▁depot	-12.0567
▁susanna	-12.0567
▁farmhouse	-12.0567
▁ciose	-12.0567
▁feminist	-12.0567
▁greenstone	-12.0567
▁pea	-12.0567
mates	-12.0567
▁flourish	-12.0567
▁rotate	-12.0567
▁overstate	-12.0567
▁cellphone	-12.0567
▁rawness	-12.0568
▁leanne	-12.0568
▁stockton	-12.0568
▁valet	-12.0568
▁econ	-12.0568
▁lindem	-12.0568
idden	-12.0568
▁containment	-12.0568
ifty	-12.0568
▁janie	-12.0568
▁deceived	-12.0568
▁upto	-12.0568
▁boobies	-12.0568
▁kilometre	-12.0568
▁premise	-12.0568
▁facing	-12.0568
▁opposed	-12.0568
▁attendant	-12.0568
▁hickey	-12.0568
▁feedback	-12.0568
▁understa	-12.0568
▁vince	-12.0568
▁techno	-12.0568
▁meatball	-12.0568
▁merchant	-12.0568
▁foreman	-12.0569
▁theore	-12.0569
▁worship	-12.0569
▁electro	-12.0569
▁colony	-12.0569
▁enchant	-12.0569
▁anxiety	-12.0569
▁fiction	-12.0569
▁manhattan	-12.0569
▁nourishment	-12.0569
▁sleeve	-12.0569
▁closure	-12.0569
▁oza	-12.0569
▁dooley	-12.0569
▁classroom	-12.0569
▁scatter	-12.0569
▁cris	-12.0569
▁wong	-12.0569
▁didi	-12.0569
▁selfishness	-12.0569
▁porc	-12.0569
▁rapping	-12.0569
▁accosted	-12.0569
zaki	-12.0569
▁cartel	-12.0569
▁archive	-12.0569
▁scrub	-12.0569
▁missionary	-12.0569
▁precedent	-12.0569
▁passbook	-12.057
▁brevi	-12.057
▁deduction	-12.057
atian	-12.057
▁mainland	-12.057
▁theatre	-12.057
▁dominan	-12.057
▁eff	-12.057
▁incidentally	-12.057
▁hassler	-12.0571
▁increasingly	-12.0571
▁occupation	-12.0571
▁justin	-12.0571
diac	-12.0571
▁waxman	-12.0571
city	-12.0571
▁urine	-12.0571
▁uphold	-12.0571
▁curb	-12.0571
▁flee	-12.0571
▁metallica	-12.0572
neau	-12.0572
▁mortal	-12.0572
▁quivering	-12.0572
▁erik	-12.0572
▁invigorating	-12.0572
▁retching	-12.0572
▁leap	-12.0572
▁recon	-12.0572
▁boilin	-12.0572
▁proto	-12.0573
▁hazy	-12.0573
▁downst	-12.0573
▁representation	-12.0573
▁canc	-12.0573
▁european	-12.0573
▁splitting	-12.0573
▁burglary	-12.0573
▁cutlery	-12.0573
▁hallowe	-12.0573
▁decorat	-12.0573
▁itches	-12.0573
▁abc	-12.0573
itous	-12.0573
▁airfield	-12.0573
▁fuse	-12.0573
▁presumpt	-12.0573
▁bravery	-12.0574
▁bj	-12.0574
▁bertin	-12.0574
▁landline	-12.0574
▁pow	-12.0574
▁spices	-12.0574
▁evolved	-12.0574
▁seduced	-12.0574
▁jarr	-12.0574
arily	-12.0574
▁rodeo	-12.0574
▁dried	-12.0574
▁secondhand	-12.0574
▁indicator	-12.0574
▁kung	-12.0575
▁cour	-12.0575
▁tipped	-12.0575
zh	-12.0575
▁cement	-12.0575
▁modest	-12.0575
▁steppin	-12.0575
▁authorized	-12.0575
aday	-12.0575
▁functional	-12.0575
▁carmelo	-12.0575
▁intellectual	-12.0575
▁twentyone	-12.0575
▁humble	-12.0575
▁alienating	-12.0575
▁semen	-12.0575
▁buzzi	-12.0576
▁publicist	-12.0576
theless	-12.0576
▁evidently	-12.0576
▁lothar	-12.0576
▁courthouse	-12.0576
▁variation	-12.0576
▁restored	-12.0576
▁katz	-12.0576
▁slab	-12.0576
▁evo	-12.0576
▁spooner	-12.0576
▁thang	-12.0577
▁strive	-12.0577
▁chatting	-12.0577
▁thatthat	-12.0578
▁bir	-12.0578
▁clipper	-12.0578
istine	-12.0578
amala	-12.0578
▁aleck	-12.0578
▁enable	-12.0579
▁evac	-12.0579
▁boost	-12.0579
▁outof	-12.0579
▁waterfall	-12.0579
▁greenway	-12.0579
▁astronom	-12.0579
▁felony	-12.0579
▁grandkid	-12.0579
lays	-12.058
▁whisky	-12.058
▁calculation	-12.058
usse	-12.058
▁formation	-12.058
▁conceived	-12.058
▁reformed	-12.058
▁smushed	-12.058
▁spade	-12.058
▁mangle	-12.058
▁solar	-12.058
▁apo	-12.058
▁mitchell	-12.058
▁ensure	-12.058
▁perk	-12.0581
▁bode	-12.0581
▁mazel	-12.0581
▁jaywalk	-12.0581
▁bedside	-12.0581
▁quitting	-12.0582
▁kike	-12.0582
turn	-12.0582
▁pyr	-12.0583
atlng	-12.0584
▁instructor	-12.0584
▁boop	-12.0584
veil	-12.0584
▁splatter	-12.0585
▁psyched	-12.0585
▁dose	-12.0586
▁trin	-12.0586
mated	-12.0586
sible	-12.0586
▁comply	-12.0586
▁escala	-12.0586
▁dislodg	-12.0586
▁exposed	-12.0586
▁barge	-12.0586
▁roo	-12.0586
▁differential	-12.0586
▁monty	-12.0586
▁flushes	-12.0586
▁amusing	-12.0587
▁harassing	-12.0587
▁thrusting	-12.0587
▁frightening	-12.0587
▁stem	-12.0587
▁alternate	-12.0587
▁via	-12.0587
▁presentation	-12.0587
▁caii	-12.0588
▁viewers	-12.0588
▁metro	-12.0588
▁runaway	-12.0588
talking	-12.0588
▁wonderf	-12.0589
▁fulltime	-12.0589
▁maim	-12.0589
▁surprisingly	-12.059
▁bogot	-12.059
▁hup	-12.059
▁sitdown	-12.059
▁retracted	-12.059
▁bashed	-12.0591
perse	-12.0591
▁vip	-12.0591
▁mitt	-12.0591
▁pitches	-12.0592
▁ranch	-12.0592
▁earnest	-12.0592
▁foxy	-12.0592
▁ravel	-12.0592
tur	-12.0592
▁promoted	-12.0592
band	-12.0592
▁dropby	-12.0592
▁atta	-12.0593
▁booga	-12.0593
▁bethie	-12.0593
▁owned	-12.0594
▁investor	-12.0594
▁anonymously	-12.0594
▁rubin	-12.0595
▁mog	-12.0595
▁screamin	-12.0595
▁chant	-12.0595
▁swan	-12.0596
▁peaches	-12.0596
▁sung	-12.0596
▁setback	-12.0596
▁badasses	-12.0597
▁malt	-12.0597
▁warden	-12.0597
▁kissel	-12.0598
▁appearances	-12.0598
▁astrophysics	-12.0598
▁brochures	-12.0598
▁chippendales	-12.0598
▁citystates	-12.0598
▁pajamas	-12.0598
▁bulldogs	-12.0598
▁moths	-12.0598
▁mortars	-12.0598
▁instructions	-12.0598
▁germs	-12.0598
▁kidnappers	-12.0598
▁vh	-12.0598
▁crabs	-12.0599
▁pinto	-12.0599
▁kinky	-12.0599
▁flaps	-12.0599
▁dampen	-12.0599
▁reduce	-12.06
▁slaughtered	-12.0601
▁dough	-12.0602
▁seance	-12.0602
▁reserved	-12.0603
▁potentially	-12.0604
▁demo	-12.0605
▁reel	-12.0606
▁porter	-12.0606
▁atoms	-12.0607
▁childish	-12.0607
ggl	-12.0608
▁suba	-12.0608
▁fum	-12.0609
▁ceme	-12.0609
pede	-12.0609
forsaken	-12.061
▁residency	-12.061
▁landers	-12.061
zing	-12.0611
▁masses	-12.0612
▁amped	-12.0612
▁standby	-12.0612
▁fearless	-12.0613
▁sympathize	-12.0613
▁peeled	-12.0613
▁penal	-12.0614
▁drone	-12.0615
▁surfing	-12.0617
▁swelling	-12.0617
▁unfolding	-12.0617
▁viruses	-12.0618
▁turd	-12.0618
▁sexier	-12.0619
▁betsy	-12.0619
▁enjoyable	-12.0619
▁singh	-12.0619
▁cutter	-12.0619
▁xer	-12.062
▁nightnight	-12.0621
▁attached	-12.0623
▁deadend	-12.0623
▁kath	-12.0624
▁germany	-12.0625
▁cellmate	-12.0625
▁mere	-12.0626
▁marcha	-12.0626
▁showoff	-12.0627
▁readyline	-12.0627
▁headline	-12.0627
tical	-12.0627
▁ultimately	-12.0628
▁secondary	-12.0629
▁engineering	-12.063
▁followup	-12.063
stock	-12.0631
children	-12.0632
▁inquir	-12.0632
▁macher	-12.0632
▁pilla	-12.0632
gt	-12.0632
▁doggie	-12.0632
▁compose	-12.0632
▁applying	-12.0633
▁louisa	-12.0633
▁hitter	-12.0633
▁squeezed	-12.0634
▁healed	-12.0634
▁sanction	-12.0635
▁rollin	-12.0635
working	-12.0636
▁intestine	-12.0637
▁burnin	-12.0637
nows	-12.0638
▁ignoring	-12.0638
▁straightened	-12.0638
grant	-12.064
▁peeking	-12.0641
mpy	-12.0642
▁oid	-12.0642
▁notion	-12.0642
▁roy	-12.0642
▁hypnotize	-12.0644
▁managing	-12.0645
▁don	-12.0645
▁stimulat	-12.0648
▁trailing	-12.0648
dite	-12.0649
credible	-12.0649
▁scoop	-12.0649
▁twofour	-12.0649
▁affected	-12.065
▁geniuses	-12.0652
▁personne	-12.0652
▁enforc	-12.0653
▁dodger	-12.0655
▁brushed	-12.0655
▁sprayed	-12.0655
▁licked	-12.0655
▁caper	-12.0655
▁projection	-12.0656
▁desperately	-12.0657
▁fallin	-12.0657
▁accidents	-12.0658
▁paninis	-12.0658
▁ducts	-12.0658
▁magicians	-12.0658
▁amigos	-12.0658
▁carats	-12.0659
▁snorts	-12.066
▁refu	-12.066
▁hornet	-12.0662
▁fath	-12.0662
▁steering	-12.0664
▁icy	-12.0664
▁tights	-12.0665
▁indie	-12.0667
▁hoover	-12.0667
▁hangup	-12.0667
▁rya	-12.0667
▁some	-12.0669
▁wat	-12.067
▁defeated	-12.0672
▁mounted	-12.0672
▁welcom	-12.0673
▁solved	-12.0675
▁approached	-12.0677
▁valued	-12.0677
▁perp	-12.0677
▁scraping	-12.0679
ooting	-12.068
▁goof	-12.0683
▁assets	-12.0685
▁flapp	-12.0687
▁jeweler	-12.0687
▁potion	-12.0687
▁jealousy	-12.0688
▁tha	-12.0689
equins	-12.0689
true	-12.0693
▁org	-12.0694
▁hiv	-12.0696
▁pry	-12.0696
▁nighttime	-12.0696
▁stretched	-12.0699
▁suing	-12.0701
▁maine	-12.0701
tight	-12.0704
▁hind	-12.0704
▁weakly	-12.0706
arthur	-12.0706
rose	-12.0706
▁corny	-12.0709
▁soy	-12.071
▁samu	-12.071
▁aiming	-12.071
eat	-12.0711
▁assert	-12.0711
▁kimb	-12.0714
▁softer	-12.0714
▁joel	-12.0715
▁aquar	-12.0716
▁projector	-12.0716
▁mara	-12.072
▁slacks	-12.072
▁paramedics	-12.072
▁profits	-12.072
▁sardines	-12.072
▁straws	-12.072
▁trumps	-12.072
▁toppings	-12.072
▁conclusions	-12.072
▁cocktails	-12.0721
▁surgeons	-12.0721
▁betrays	-12.0721
winces	-12.0721
▁seis	-12.0722
▁exception	-12.0724
▁distracting	-12.0724
▁peddl	-12.0724
▁suppress	-12.0725
erald	-12.0728
cut	-12.0728
▁vanished	-12.0731
onto	-12.0732
▁skiing	-12.0735
▁gunman	-12.0735
▁chassi	-12.0739
▁businessman	-12.0739
▁oily	-12.074
▁famously	-12.074
▁sweeping	-12.0741
▁fireman	-12.0742
▁flick	-12.0743
▁spared	-12.0743
ninenine	-12.0743
▁photographed	-12.0745
▁visa	-12.0749
▁ranks	-12.0751
▁prop	-12.0752
pole	-12.0753
bod	-12.0756
▁capric	-12.0758
▁wisely	-12.0759
▁gems	-12.0759
▁rustl	-12.0759
▁flopp	-12.0759
▁ira	-12.076
▁sits	-12.0765
▁trou	-12.0768
▁camel	-12.0773
▁ito	-12.0777
▁anchors	-12.0783
▁bisexuals	-12.0783
▁caxtons	-12.0783
▁concerts	-12.0783
▁ohoh	-12.0784
▁teens	-12.0785
▁lovin	-12.0786
case	-12.0789
inos	-12.0792
▁lax	-12.0792
▁presently	-12.0797
▁lynne	-12.0801
▁shorter	-12.0802
▁connecting	-12.0805
▁putz	-12.0805
▁suggesting	-12.0808
▁introduc	-12.0811
▁farted	-12.0813
ephi	-12.0813
▁missin	-12.0817
▁gathering	-12.082
ardo	-12.083
▁dashi	-12.0831
▁dole	-12.0835
ota	-12.0837
▁difficulty	-12.0837
▁ord	-12.084
▁boned	-12.0841
▁bracelets	-12.0846
▁margaritas	-12.0846
▁oscars	-12.0846
▁submissives	-12.0846
▁arrangements	-12.0846
▁mannys	-12.0847
▁emotions	-12.0847
▁colombians	-12.0847
▁africans	-12.0847
▁skips	-12.0851
▁tootin	-12.0854
▁workout	-12.0862
▁interviewed	-12.0868
▁mai	-12.0869
rites	-12.087
▁mat	-12.0871
▁referr	-12.0878
intuitive	-12.0881
▁sewer	-12.0882
▁pad	-12.0883
▁technicals	-12.0884
nica	-12.0886
ok	-12.089
pro	-12.0898
▁slasher	-12.0898
▁freshen	-12.09
▁tricked	-12.0901
cept	-12.0902
▁const	-12.0906
holes	-12.0906
peak	-12.0907
▁earlie	-12.091
▁lengths	-12.091
▁servants	-12.091
▁skanks	-12.091
▁snipers	-12.091
▁functions	-12.091
▁judgments	-12.091
▁jamaicans	-12.091
▁swa	-12.0914
wa	-12.0917
▁pri	-12.0919
▁corpses	-12.0919
▁startin	-12.0923
song	-12.0924
▁rockets	-12.0926
ving	-12.0926
etta	-12.093
▁insulat	-12.093
olly	-12.0936
upand	-12.0943
▁flak	-12.0945
▁headin	-12.0946
▁discussing	-12.0948
▁gifted	-12.0958
etera	-12.0962
▁delivering	-12.0964
▁treated	-12.0964
▁halfa	-12.0968
▁redo	-12.0969
▁mango	-12.0971
▁urges	-12.0971
▁coordinates	-12.0971
amas	-12.0974
▁struggles	-12.0974
▁homosexuals	-12.0974
▁toads	-12.0975
▁tasted	-12.0977
▁snore	-12.0977
vonne	-12.0981
▁sinker	-12.0985
▁directing	-12.0987
▁innovati	-12.0989
▁tru	-12.0999
▁meth	-12.1009
▁gand	-12.1011
▁fooling	-12.1017
▁comics	-12.1027
▁cancell	-12.1027
▁fizz	-12.1031
▁affects	-12.1033
▁gus	-12.1036
decipher	-12.1037
base	-12.1037
▁pimps	-12.1038
▁averages	-12.1039
▁volunteers	-12.1039
▁pledges	-12.104
▁productions	-12.1041
tarian	-12.105
ude	-12.1053
▁lattes	-12.1057
▁showin	-12.1063
▁fortunate	-12.1064
▁alp	-12.1065
▁mil	-12.107
ffle	-12.1079
▁bossy	-12.1083
▁lind	-12.1085
▁worthy	-12.1094
▁genetics	-12.1104
▁eltons	-12.1104
▁specifics	-12.1104
▁brides	-12.1106
▁jig	-12.1106
▁rubbers	-12.1107
▁laver	-12.1107
kes	-12.1116
▁allowing	-12.1116
tly	-12.1127
▁marl	-12.1133
▁sweaters	-12.1134
▁conne	-12.1134
▁crashed	-12.1136
▁lifting	-12.114
▁jd	-12.1153
▁tor	-12.116
▁skipp	-12.116
ans	-12.1164
▁plott	-12.1164
vocati	-12.1166
▁leans	-12.1168
▁mexicans	-12.1169
▁roots	-12.1169
▁stated	-12.1175
▁sedati	-12.1175
▁sames	-12.1193
▁weary	-12.1194
▁hookers	-12.1199
▁tre	-12.1202
ines	-12.1202
▁brownies	-12.1203
▁louie	-12.1211
▁keeg	-12.1231
▁hive	-12.1232
▁bricks	-12.1235
▁finer	-12.1235
▁shooter	-12.1241
▁mills	-12.1249
ratio	-12.1249
did	-12.1256
▁lions	-12.1258
uate	-12.1262
▁respected	-12.1274
▁lordy	-12.128
▁votes	-12.128
slam	-12.1282
▁lid	-12.1295
▁fellows	-12.1301
▁assignments	-12.1301
▁leprechauns	-12.1301
▁coloreds	-12.1301
▁psychos	-12.1301
▁medics	-12.1302
▁studios	-12.1303
▁longest	-12.1304
lute	-12.1316
hua	-12.1325
▁lce	-12.1329
mine	-12.1331
nchez	-12.1333
▁pans	-12.1343
▁tracker	-12.1347
▁arresting	-12.1357
▁mason	-12.1362
▁envelopes	-12.1367
▁peppers	-12.1367
▁ang	-12.1374
▁clement	-12.1382
nick	-12.139
domin	-12.1392
▁sluts	-12.1397
▁geno	-12.1397
▁fumble	-12.14
▁aliens	-12.1418
▁bos	-12.1419
▁teller	-12.1422
▁magnu	-12.1423
they	-12.143
▁epic	-12.1432
▁clocks	-12.1433
▁shacks	-12.1434
▁procedures	-12.1434
▁blankets	-12.1435
har	-12.1445
▁dressing	-12.1457
▁hai	-12.1459
▁crescen	-12.1464
fil	-12.1467
pe	-12.1471
▁swap	-12.1477
▁rocked	-12.1481
this	-12.1486
luck	-12.1495
▁outfits	-12.1502
▁organizations	-12.1502
▁leos	-12.1502
▁gears	-12.1505
▁cis	-12.1519
nda	-12.1521
▁mari	-12.1529
▁detectives	-12.1531
▁justju	-12.154
▁bras	-12.1543
ria	-12.1561
▁pistols	-12.1569
▁attempts	-12.1569
▁locations	-12.157
▁genes	-12.1573
▁suggests	-12.1575
▁trades	-12.1586
▁we	-12.1592
liz	-12.1606
▁buster	-12.1606
med	-12.1608
loving	-12.1614
ptions	-12.1628
▁ste	-12.1635
▁saints	-12.1636
▁adults	-12.1637
▁clarks	-12.1637
▁endings	-12.1643
▁limits	-12.1643
anette	-12.1656
▁wings	-12.1661
▁sicko	-12.1662
inger	-12.1662
anquet	-12.1676
ister	-12.1677
tended	-12.1681
ually	-12.169
xx	-12.1699
▁yards	-12.1705
▁materials	-12.1706
▁purposes	-12.1706
▁bums	-12.1708
▁auditions	-12.1711
ko	-12.1713
▁bubb	-12.1721
cle	-12.1723
lwa	-12.1731
immer	-12.1736
▁crazie	-12.1752
▁grin	-12.1772
who	-12.1773
▁kershaws	-12.1775
▁ipads	-12.1776
▁hote	-12.1776
iva	-12.1776
owned	-12.1779
▁stocks	-12.178
▁cockroach	-12.1788
ipped	-12.1814
▁tails	-12.1819
▁vam	-12.1836
▁attitudes	-12.1844
hubby	-12.1855
hero	-12.187
▁gan	-12.1879
▁swearing	-12.1888
▁crave	-12.1896
avi	-12.1901
ark	-12.1905
▁vaginas	-12.1914
marley	-12.1918
kof	-12.1918
▁inci	-12.1933
▁recreate	-12.1936
ssy	-12.1937
nies	-12.1937
dle	-12.194
bach	-12.1953
▁marti	-12.1956
▁blaze	-12.1962
▁freed	-12.1976
nit	-12.1978
hooters	-12.198
▁stus	-12.1983
▁sizes	-12.1987
oma	-12.1987
▁roofie	-12.1993
▁owed	-12.203
▁shapes	-12.2033
▁vacations	-12.2055
real	-12.207
▁admitt	-12.2088
ip	-12.2093
▁caress	-12.2107
▁pins	-12.2108
▁pose	-12.211
terior	-12.2115
crate	-12.2121
ux	-12.2122
▁joints	-12.214
ndo	-12.2144
jure	-12.2155
▁tutu	-12.2156
ween	-12.2179
▁cared	-12.219
tto	-12.219
▁pricks	-12.2198
gri	-12.2209
eye	-12.2221
ades	-12.2236
▁seeming	-12.2254
ards	-12.2256
▁naive	-12.2261
▁sundays	-12.227
▁divide	-12.2271
▁regulars	-12.2272
mp	-12.2272
▁vel	-12.228
▁laisser	-12.2295
tty	-12.2296
▁fel	-12.2299
▁elm	-12.23
▁batt	-12.2308
zzle	-12.2308
breaking	-12.2317
▁regress	-12.233
▁cooperat	-12.2338
▁distribut	-12.2346
▁shakes	-12.2349
▁pervers	-12.2369
we	-12.2371
ep	-12.238
▁parad	-12.2401
dis	-12.2402
▁strikes	-12.2408
▁builds	-12.2415
bul	-12.2417
ries	-12.2431
spen	-12.2434
▁crock	-12.2474
ash	-12.2518
luc	-12.2532
▁vot	-12.2541
▁chu	-12.2545
▁grades	-12.2548
▁desks	-12.2563
▁virgins	-12.2564
▁sights	-12.2566
▁nationals	-12.2568
lipped	-12.258
wel	-12.2582
qu	-12.2591
▁dec	-12.2601
gle	-12.2611
shi	-12.2628
itting	-12.264
hunt	-12.2641
▁encourag	-12.2649
▁pees	-12.2653
ady	-12.2662
eating	-12.2666
▁wwe	-12.2673
max	-12.2747
▁unc	-12.2753
▁soph	-12.2787
▁italians	-12.2797
ody	-12.2801
▁jos	-12.2801
utin	-12.2814
bu	-12.2818
▁crocke	-12.2842
▁dim	-12.2854
have	-12.286
pee	-12.2865
top	-12.2872
ick	-12.2883
key	-12.2888
▁sta	-12.2893
▁ero	-12.2895
▁intimidat	-12.2896
▁snappe	-12.2899
sized	-12.2918
ubby	-12.2927
ck	-12.2929
quet	-12.2964
▁budg	-12.2966
ran	-12.3003
▁penn	-12.3019
posed	-12.302
aid	-12.3031
▁stores	-12.3034
zen	-12.3044
agging	-12.307
ock	-12.3073
plicate	-12.3075
▁corra	-12.3077
▁examin	-12.3083
bian	-12.3102
atra	-12.3108
▁bothers	-12.3117
nthe	-12.3131
▁ribb	-12.314
▁ax	-12.3141
▁arabia	-12.3164
▁rents	-12.3198
agged	-12.3202
▁mono	-12.3202
dig	-12.3207
atic	-12.3209
nish	-12.3212
▁degener	-12.3215
▁flipp	-12.3216
hle	-12.3248
isha	-12.3258
▁bret	-12.3262
▁dispos	-12.3284
store	-12.3289
zed	-12.3291
▁brav	-12.3295
▁cups	-12.3321
▁lous	-12.3342
▁communi	-12.3373
see	-12.3381
▁pac	-12.3393
fe	-12.3393
▁twee	-12.3406
▁att	-12.3421
ddy	-12.3427
bender	-12.3433
▁tou	-12.3435
▁manufacture	-12.3436
emia	-12.3457
lies	-12.3465
▁vene	-12.3469
▁seein	-12.3504
▁sor	-12.3525
▁hoho	-12.3526
▁det	-12.3529
ando	-12.3539
sland	-12.3559
tec	-12.3587
blets	-12.3595
▁keg	-12.3611
▁sole	-12.3618
▁undo	-12.3627
char	-12.3633
ement	-12.3647
eena	-12.3655
onald	-12.3681
roaches	-12.3702
▁alt	-12.3705
etting	-12.3728
▁ju	-12.3738
▁abe	-12.3796
mper	-12.3812
▁est	-12.3833
alist	-12.3837
▁congress	-12.3841
▁vs	-12.3859
ears	-12.3862
fic	-12.3866
▁scrambl	-12.387
tr	-12.388
tton	-12.3899
▁insi	-12.3903
▁at	-12.3927
▁jug	-12.393
lar	-12.3933
fer	-12.3939
housing	-12.3951
▁clan	-12.3951
mashup	-12.3951
▁kf	-12.3961
▁ug	-12.3972
▁hydr	-12.3973
▁anton	-12.3993
estimated	-12.3996
rawn	-12.3998
▁hym	-12.3999
youre	-12.4007
eodor	-12.4008
▁clo	-12.401
arts	-12.4018
▁crop	-12.4037
lect	-12.4065
▁diploma	-12.4096
iver	-12.4113
nichols	-12.4117
adiator	-12.4124
▁unnecessar	-12.4124
tera	-12.4125
bility	-12.4125
nnies	-12.414
▁mega	-12.4179
bri	-12.4181
llah	-12.4208
▁magnifi	-12.4211
erberg	-12.4222
ight	-12.4237
sequent	-12.4249
elier	-12.4254
▁alg	-12.4261
ustered	-12.4262
mu	-12.4317
▁shad	-12.433
hu	-12.4342
▁robo	-12.435
▁clemen	-12.4361
▁announc	-12.4366
pol	-12.4375
lier	-12.4376
▁crazies	-12.4388
ois	-12.4392
▁slu	-12.4395
▁etc	-12.443
loud	-12.4457
mming	-12.4474
int	-12.4476
▁tende	-12.4478
▁moi	-12.4481
torious	-12.4495
how	-12.4516
breathers	-12.4536
▁gamble	-12.4545
ci	-12.4574
▁guid	-12.4576
▁regime	-12.4585
▁victoria	-12.4596
▁allur	-12.4603
▁shov	-12.4605
▁rampa	-12.4609
▁fam	-12.4617
▁yum	-12.4623
▁realise	-12.4651
mad	-12.4692
arian	-12.4693
▁provid	-12.4693
wewe	-12.4709
▁scrape	-12.4714
erlin	-12.4727
ani	-12.4728
list	-12.4734
▁console	-12.4757
uddy	-12.4761
▁div	-12.4773
▁obscen	-12.4773
▁nip	-12.4798
dale	-12.4806
tell	-12.4811
oohoohoo	-12.4818
tti	-12.4823
ura	-12.4825
▁tutor	-12.4826
cipher	-12.4835
▁radi	-12.4857
dressed	-12.4862
▁equit	-12.4863
rinkle	-12.4867
ari	-12.4892
▁propos	-12.4895
ively	-12.4907
erior	-12.4908
ndi	-12.4909
▁cov	-12.4915
tested	-12.4918
▁purif	-12.4919
anned	-12.4927
marked	-12.4927
wage	-12.4928
vine	-12.4932
ear	-12.4938
lox	-12.4941
ett	-12.4943
abas	-12.4944
▁fro	-12.4945
▁prima	-12.4989
ulating	-12.499
route	-12.499
▁ei	-12.4992
roscopic	-12.5002
stains	-12.5007
kers	-12.5014
izzy	-12.5021
ovich	-12.5025
▁ov	-12.5035
▁tw	-12.5046
▁wank	-12.5048
con	-12.5054
▁allo	-12.5057
egade	-12.5059
ola	-12.5063
dar	-12.5063
zy	-12.5063
cum	-12.5065
▁scari	-12.5074
▁cul	-12.5081
hall	-12.5088
▁pec	-12.5117
nsel	-12.5131
tein	-12.5134
▁shu	-12.5134
▁gil	-12.5137
cita	-12.5144
▁dismantl	-12.5146
▁bog	-12.5153
▁contin	-12.5154
▁caf	-12.5156
perative	-12.5165
▁stew	-12.5174
meter	-12.5179
▁raisin	-12.5179
ried	-12.5179
▁rac	-12.5184
vation	-12.5185
▁comprehen	-12.5204
ecora	-12.5205
even	-12.5212
▁mcc	-12.5224
hey	-12.5224
loaded	-12.5233
hat	-12.5234
fo	-12.5235
licking	-12.5252
mr	-12.5253
span	-12.5254
niner	-12.5274
trane	-12.5276
▁aspir	-12.5282
▁vol	-12.5291
loved	-12.5296
ppies	-12.531
▁nom	-12.5313
flake	-12.5314
▁erect	-12.5319
▁bathe	-12.5319
▁bac	-12.532
nzo	-12.5325
▁certifi	-12.5328
signed	-12.5331
aut	-12.5332
home	-12.534
ntry	-12.5341
ddling	-12.5347
eft	-12.5349
roth	-12.5352
▁sprinkle	-12.536
lios	-12.5361
force	-12.5361
craft	-12.5362
perfect	-12.5363
mate	-12.5366
here	-12.5376
▁itch	-12.5376
tories	-12.5382
▁indi	-12.5384
▁gro	-12.5393
press	-12.5393
▁tack	-12.5393
▁athletic	-12.5395
▁epidemic	-12.5395
▁fragment	-12.5395
▁obstacle	-12.5395
▁postcard	-12.5395
▁snicker	-12.5395
▁throne	-12.5395
▁preset	-12.5395
▁snort	-12.5395
▁misfit	-12.5395
▁accomplishment	-12.5395
▁academic	-12.5395
▁platter	-12.5396
▁bloke	-12.5396
quent	-12.5396
▁mutation	-12.5398
▁preparation	-12.5398
▁canal	-12.5398
▁supreme	-12.5399
▁snlff	-12.54
▁beli	-12.54
elli	-12.54
▁riddle	-12.5401
▁syn	-12.5401
▁psych	-12.5402
▁cornf	-12.5404
▁reek	-12.5405
▁measure	-12.5405
▁scanner	-12.5406
ooks	-12.5407
▁playlist	-12.5408
▁depriv	-12.5409
▁panini	-12.541
▁amigo	-12.5412
tock	-12.5412
▁mathematic	-12.5417
▁inmate	-12.5419
▁tissue	-12.542
▁bollock	-12.5421
▁savage	-12.5421
▁corp	-12.5422
▁cricket	-12.5423
▁rhyme	-12.5423
▁toohey	-12.5423
▁dolphin	-12.5423
▁nazi	-12.5424
▁vibrate	-12.5424
▁magician	-12.5426
laborate	-12.5426
▁vein	-12.5428
rained	-12.5428
▁grit	-12.5428
▁oop	-12.543
▁bubble	-12.5431
▁relation	-12.5433
▁other	-12.5434
▁proc	-12.5434
▁communication	-12.5434
▁inhale	-12.5435
▁mutter	-12.5435
▁refugee	-12.5435
▁preco	-12.5436
▁duct	-12.5436
▁beside	-12.5438
▁armi	-12.5439
rest	-12.5441
▁smok	-12.5441
▁pitt	-12.5442
▁baggin	-12.5443
▁deb	-12.5449
▁hob	-12.5451
▁hou	-12.5452
▁beam	-12.5452
▁flame	-12.5453
▁separat	-12.5455
arse	-12.5455
▁pacifi	-12.5456
▁gird	-12.5458
iness	-12.5462
burger	-12.5466
▁resume	-12.5469
▁pari	-12.5472
▁arth	-12.5473
▁bett	-12.5475
▁challeng	-12.5476
▁cue	-12.5481
▁cont	-12.5482
▁steamer	-12.5484
kay	-12.5486
fuckin	-12.5486
break	-12.5487
▁robber	-12.5489
▁deter	-12.5489
tron	-12.5491
treating	-12.5493
▁disturb	-12.5496
think	-12.55
▁frighten	-12.5501
action	-12.5502
▁surround	-12.5503
▁cai	-12.5503
stick	-12.5505
▁chang	-12.5507
▁inva	-12.5507
mone	-12.5507
▁improv	-12.551
▁respons	-12.5511
union	-12.5513
tomy	-12.5514
unders	-12.5515
▁negotiat	-12.5516
▁philip	-12.5517
arve	-12.5517
▁humiliat	-12.5519
▁dogg	-12.5519
▁mule	-12.552
scope	-12.552
▁them	-12.552
▁wis	-12.5522
tional	-12.5522
▁appreciat	-12.5522
▁apolog	-12.5522
fy	-12.5522
▁peelin	-12.5523
entional	-12.5523
▁experienc	-12.5523
▁plow	-12.5523
▁launder	-12.5524
cast	-12.5524
▁holler	-12.5524
bows	-12.5524
fight	-12.5524
walker	-12.5524
ection	-12.5525
▁cockblock	-12.5525
▁thrust	-12.5525
walk	-12.5527
▁achiev	-12.5527
▁vul	-12.5527
▁span	-12.5529
▁clink	-12.553
▁beave	-12.5532
duct	-12.5533
▁invalid	-12.5534
brain	-12.5534
mulate	-12.5535
▁inject	-12.5535
beam	-12.5535
shop	-12.5535
▁install	-12.5536
▁smush	-12.5537
▁conceiv	-12.5537
▁reform	-12.5537
knuckles	-12.5537
▁devastat	-12.5538
▁squir	-12.5538
stool	-12.5538
▁harass	-12.5538
▁obsess	-12.5538
▁dismiss	-12.5538
range	-12.5539
rape	-12.5539
aleck	-12.5539
▁suspend	-12.5539
right	-12.5539
claim	-12.554
absorb	-12.554
▁polic	-12.554
cream	-12.5541
boop	-12.5541
moving	-12.5541
▁rehearse	-12.5541
▁electrocute	-12.5541
phrase	-12.5541
flexible	-12.5541
child	-12.5541
known	-12.5541
glow	-12.5541
remarkable	-12.5541
spotted	-12.5541
clap	-12.5541
▁conno	-12.5541
wick	-12.5541
dramatic	-12.5542
secured	-12.5542
black	-12.5542
brush	-12.5542
budget	-12.5542
convict	-12.5542
christ	-12.5542
outof	-12.5542
spray	-12.5542
curl	-12.5542
vice	-12.5542
calling	-12.5542
sucker	-12.5542
grass	-12.5542
spoken	-12.5542
plug	-12.5542
moral	-12.5542
therapy	-12.5542
balance	-12.5542
baker	-12.5542
broadway	-12.5542
convinced	-12.5542
snake	-12.5542
anika	-12.5542
written	-12.5543
reveal	-12.5543
prepared	-12.5543
capable	-12.5543
virgin	-12.5543
bears	-12.5543
world	-12.5543
crime	-12.5543
weapons	-12.5543
distance	-12.5543
excited	-12.5543
knife	-12.5543
third	-12.5543
smith	-12.5543
daniel	-12.5543
knock	-12.5543
record	-12.5543
help	-12.5543
together	-12.5543
dancin	-12.5543
gasps	-12.5543
ocate	-12.5543
filled	-12.5543
poop	-12.5543
cold	-12.5543
beeping	-12.5543
white	-12.5543
thunder	-12.5543
anything	-12.5543
strong	-12.5543
pussy	-12.5543
lord	-12.5543
palm	-12.5543
iveness	-12.5543
forward	-12.5543
screaming	-12.5544
parent	-12.5544
voice	-12.5544
▁intellect	-12.5544
▁strang	-12.5544
▁snoo	-12.5544
rifle	-12.5544
morning	-12.5544
▁independen	-12.5544
mexico	-12.5544
shake	-12.5545
gray	-12.5545
▁measur	-12.5545
▁privilege	-12.5545
meet	-12.5545
▁sancti	-12.5545
▁confuse	-12.5546
▁dedicate	-12.5546
▁sketch	-12.5546
▁squint	-12.5546
▁heavi	-12.5546
funk	-12.5546
harmed	-12.5546
ladas	-12.5546
path	-12.5546
▁whoosh	-12.5547
cards	-12.5547
▁refuge	-12.5547
prises	-12.5547
▁organize	-12.5547
▁burglar	-12.5547
pressure	-12.5548
kick	-12.5548
river	-12.5548
change	-12.5548
▁carmel	-12.5549
protect	-12.5549
salad	-12.5549
pile	-12.5549
zero	-12.5549
itude	-12.5549
▁gyps	-12.5549
▁interact	-12.5549
month	-12.555
▁facilit	-12.555
▁energ	-12.555
▁custod	-12.555
▁emergenc	-12.555
▁societ	-12.555
teller	-12.555
moment	-12.5551
▁memor	-12.5551
big	-12.5551
hered	-12.5551
theres	-12.5551
▁increasing	-12.5551
▁mediocr	-12.5551
▁terrib	-12.5552
▁fuzz	-12.5552
▁evident	-12.5552
▁instruct	-12.5552
inlaw	-12.5552
▁shiv	-12.5552
▁theatr	-12.5552
▁stoke	-12.5553
personal	-12.5553
pregna	-12.5553
▁strict	-12.5553
▁quart	-12.5553
▁cuddl	-12.5553
▁unfortunate	-12.5553
ehy	-12.5553
▁absolute	-12.5553
▁nonsens	-12.5553
▁initiate	-12.5553
▁recip	-12.5553
▁telescop	-12.5554
▁freight	-12.5554
▁appetit	-12.5554
quest	-12.5554
▁responsibl	-12.5554
▁sever	-12.5554
team	-12.5554
pher	-12.5555
illi	-12.5555
obin	-12.5555
[...]
