<unk>	0
<s>	0
</s>	0
s	-3.84242
▁im	-4.76949
▁oh	-4.7755
▁dont	-4.79221
▁know	-4.81772
▁well	-4.81939
▁like	-4.8984
▁get	-4.92504
▁go	-5.01329
▁come	-5.0251
▁right	-5.02965
ing	-5.09872
▁one	-5.13217
▁thats	-5.15163
▁got	-5.18898
▁see	-5.2542
▁youre	-5.30422
▁good	-5.34233
ed	-5.43067
▁think	-5.45772
▁time	-5.47409
▁yeah	-5.48328
▁us	-5.51016
▁back	-5.5481
▁yes	-5.57445
▁want	-5.57491
▁going	-5.59647
▁look	-5.64963
▁na	-5.66372
▁hey	-5.69566
▁would	-5.71625
▁hes	-5.72275
▁ill	-5.74537
▁little	-5.77353
▁take	-5.7826
▁say	-5.79761
▁way	-5.80879
▁really	-5.81795
▁could	-5.82687
▁gon	-5.87042
▁tell	-5.88241
▁cant	-5.88613
▁man	-5.95643
▁	-5.97518
d	-5.98379
▁never	-6.00694
y	-6.03863
▁make	-6.07242
▁need	-6.07582
▁whats	-6.08884
▁okay	-6.09927
▁something	-6.1081
▁mean	-6.1227
ly	-6.12521
▁uh	-6.14798
▁people	-6.16285
▁thank	-6.16908
▁lets	-6.1701
▁love	-6.17047
▁day	-6.1931
▁didnt	-6.20352
▁ive	-6.20376
▁sure	-6.20602
▁theres	-6.22167
▁let	-6.2306
▁said	-6.23326
▁find	-6.25372
▁two	-6.26138
▁first	-6.26912
▁help	-6.32575
▁thing	-6.33483
▁theyre	-6.33653
▁music	-6.33928
▁much	-6.35911
▁mr	-6.36198
▁must	-6.36718
▁give	-6.39639
▁wait	-6.4188
▁please	-6.42134
▁great	-6.42946
▁home	-6.46165
▁even	-6.47019
▁work	-6.47647
▁new	-6.49221
▁boy	-6.49622
▁ever	-6.52082
▁family	-6.52304
▁still	-6.52305
▁life	-6.52973
▁better	-6.5298
e	-6.53143
▁thought	-6.54706
▁years	-6.56822
▁big	-6.57472
▁place	-6.57756
▁things	-6.5794
▁away	-6.59633
▁sir	-6.59825
▁long	-6.60902
▁name	-6.61831
▁believe	-6.61934
▁youll	-6.62561
▁old	-6.63198
▁always	-6.63308
▁keep	-6.65083
▁put	-6.65183
▁around	-6.65202
▁sorry	-6.65203
▁anything	-6.68309
▁guys	-6.6966
▁maybe	-6.709
er	-6.73605
▁kind	-6.74396
▁stop	-6.7463
▁best	-6.74855
▁world	-6.74957
▁wont	-6.75675
▁l	-6.76073
▁youve	-6.77389
▁father	-6.78469
▁night	-6.78498
▁id	-6.78787
▁everything	-6.80905
▁feel	-6.80946
▁lot	-6.81159
▁stay	-6.83029
▁remember	-6.83176
▁last	-6.83636
▁three	-6.85482
▁nothing	-6.85483
a	-6.8601
▁call	-6.86238
▁listen	-6.86762
▁made	-6.87398
▁hello	-6.87899
▁shes	-6.88533
▁every	-6.88666
▁huh	-6.89307
▁whoa	-6.89314
▁hear	-6.90264
▁may	-6.92086
▁playing	-6.93788
▁might	-6.94042
▁ha	-6.94095
▁talk	-6.94312
▁care	-6.94588
▁told	-6.94805
▁hi	-6.95095
▁course	-6.95838
▁coming	-6.9588
▁black	-6.96461
▁another	-6.9688
▁nice	-6.97116
▁came	-6.97473
▁god	-6.97678
▁left	-6.97936
▁frank	-6.98089
▁enough	-7.00081
▁ta	-7.00294
▁school	-7.00297
▁weve	-7.01171
▁done	-7.01174
▁ah	-7.0121
▁together	-7.0172
▁today	-7.0172
▁isnt	-7.02829
▁mind	-7.05092
▁ok	-7.05239
▁show	-7.05296
▁fine	-7.06921
▁many	-7.06948
▁miss	-7.07014
▁getting	-7.07548
▁seen	-7.07722
al	-7.07813
▁try	-7.07899
▁play	-7.08098
▁idea	-7.08262
▁money	-7.08561
▁doesnt	-7.09152
▁looking	-7.09908
▁found	-7.12115
▁ready	-7.12324
▁run	-7.12598
▁hard	-7.12647
r	-7.12649
▁morning	-7.12781
▁bad	-7.14486
▁thanks	-7.14992
▁live	-7.15205
▁kids	-7.15566
▁dog	-7.15786
▁city	-7.15914
▁real	-7.17617
▁lost	-7.17834
▁water	-7.17842
▁leave	-7.19095
es	-7.20707
in	-7.20835
▁wrong	-7.22463
▁next	-7.22464
▁wouldnt	-7.22538
▁tonight	-7.23828
▁word	-7.23865
▁hope	-7.24284
▁friends	-7.2583
▁hoo	-7.26162
▁friend	-7.26474
▁sea	-7.26854
▁bring	-7.2687
▁high	-7.27158
▁narrator	-7.27325
▁someone	-7.27325
▁tomorrow	-7.27326
▁saw	-7.27334
▁men	-7.27341
▁daisy	-7.28042
▁else	-7.28044
▁laughing	-7.28191
▁house	-7.28778
▁understand	-7.28813
▁mom	-7.28887
▁hold	-7.29104
▁clear	-7.29255
o	-7.29262
▁melinda	-7.29483
▁wanted	-7.29696
▁dad	-7.29711
▁pretty	-7.30216
▁days	-7.30466
▁start	-7.30852
▁without	-7.30948
▁matter	-7.31171
▁also	-7.3169
▁whole	-7.31692
▁trying	-7.33965
▁bit	-7.34013
▁eat	-7.34295
▁heard	-7.34338
▁grandpa	-7.34711
▁room	-7.34726
▁minute	-7.34983
▁guess	-7.34991
▁sighs	-7.35519
▁meet	-7.35646
▁ya	-7.36795
▁girl	-7.3817
▁job	-7.38187
▁dear	-7.38368
▁happy	-7.3862
en	-7.39048
▁church	-7.39328
▁hell	-7.39341
▁ask	-7.39495
t	-7.39574
▁mother	-7.39815
▁went	-7.40225
▁mary	-7.41066
▁talking	-7.41174
▁tigger	-7.41457
▁young	-7.41718
▁children	-7.41856
▁easy	-7.41866
▁part	-7.42624
▁knew	-7.42681
▁mrs	-7.42731
▁looks	-7.42818
▁catch	-7.42866
▁doctor	-7.43154
▁bear	-7.43216
▁open	-7.43546
▁fish	-7.43686
▁happened	-7.43746
▁everybody	-7.44008
▁far	-7.44064
▁cause	-7.44101
▁wan	-7.44263
▁guy	-7.44862
▁um	-7.45051
▁alone	-7.45202
▁watch	-7.45852
▁shall	-7.46058
▁heidi	-7.46918
▁whos	-7.47033
▁th	-7.47453
▁used	-7.47597
▁em	-7.47687
▁yet	-7.47798
▁goodbye	-7.48667
est	-7.48829
▁called	-7.49485
▁aint	-7.49556
▁youd	-7.49565
▁worry	-7.49802
▁turn	-7.49935
▁fun	-7.50409
▁everyone	-7.50447
▁door	-7.5112
▁country	-7.51351
▁move	-7.52709
▁end	-7.52817
▁couldnt	-7.54189
▁read	-7.55114
▁late	-7.55662
▁havent	-7.55974
▁use	-7.56191
▁year	-7.5654
▁actually	-7.56938
▁later	-7.57009
▁beautiful	-7.57628
▁problem	-7.5778
▁son	-7.57791
▁five	-7.57901
▁sit	-7.58585
▁un	-7.58706
n	-7.59448
▁hand	-7.59526
▁took	-7.5984
▁ago	-7.59852
▁true	-7.60165
▁wish	-7.60263
▁team	-7.6078
▁rest	-7.60864
▁ship	-7.60892
▁set	-7.61901
▁heart	-7.62187
▁four	-7.62961
▁close	-7.63651
▁wasnt	-7.6386
▁sleep	-7.63861
▁head	-7.64814
▁brought	-7.64892
▁wow	-7.64895
▁order	-7.65263
▁car	-7.65322
▁win	-7.65663
▁important	-7.65692
▁already	-7.65933
▁says	-7.66154
▁stand	-7.66433
▁soon	-7.66874
▁afraid	-7.66985
▁benny	-7.66987
▁different	-7.68051
h	-7.68538
▁almost	-7.69125
▁since	-7.69125
▁daddy	-7.69139
▁wants	-7.69294
▁hit	-7.6933
▁dr	-7.70014
▁anyway	-7.70211
▁stuff	-7.70212
▁making	-7.70218
▁wonder	-7.70683
▁uncle	-7.7131
▁wonderful	-7.71321
▁baby	-7.71323
▁john	-7.71325
▁king	-7.71693
l	-7.71912
▁laughs	-7.72113
▁story	-7.72423
▁free	-7.72603
▁lord	-7.72604
▁crowd	-7.73101
▁chance	-7.73756
▁excuse	-7.74682
▁quite	-7.74723
▁full	-7.74898
▁bible	-7.74913
▁gone	-7.75779
▁anyone	-7.75831
▁hurt	-7.76594
▁deal	-7.76596
▁saying	-7.76604
i	-7.76716
▁trouble	-7.76718
▁hurry	-7.76994
▁case	-7.77301
▁dream	-7.77396
▁check	-7.77702
▁exactly	-7.782
▁annabel	-7.78477
▁face	-7.79297
▁least	-7.7936
▁grandfather	-7.79361
▁arent	-7.79362
▁goes	-7.79432
▁asked	-7.80003
▁m	-7.80136
▁eyes	-7.80426
▁along	-7.80566
▁amazing	-7.80584
▁change	-7.80688
▁chuckles	-7.80857
▁animals	-7.81417
▁nobody	-7.81787
▁welcome	-7.81967
▁ooh	-7.83022
▁top	-7.83032
▁town	-7.83446
▁fight	-7.83665
▁special	-7.83924
▁forget	-7.83952
▁tischendorf	-7.84269
▁honey	-7.84271
▁rome	-7.84271
▁joy	-7.8431
▁makes	-7.84673
▁kill	-7.85608
▁re	-7.85811
st	-7.86173
▁times	-7.86358
▁luck	-7.86475
▁history	-7.86817
▁jason	-7.86819
▁light	-7.87158
▁brother	-7.87374
▁wheres	-7.87485
c	-7.87863
▁perfect	-7.89173
▁glad	-7.89184
▁break	-7.89362
▁evil	-7.89433
▁child	-7.89444
▁seem	-7.89729
▁means	-7.90062
▁plan	-7.90494
▁thinking	-7.90974
▁party	-7.91152
▁second	-7.9141
▁point	-7.91418
▁running	-7.92117
▁inside	-7.9212
▁taking	-7.92133
▁dusty	-7.92157
▁walk	-7.92347
▁horse	-7.92811
▁pull	-7.92864
▁gamble	-7.93486
▁mine	-7.93515
▁rat	-7.9408
▁tiggers	-7.94164
▁kid	-7.94222
▁ivy	-7.94875
▁send	-7.94879
▁dead	-7.94886
▁boss	-7.9489
▁able	-7.95153
▁hmm	-7.96189
▁words	-7.96221
▁theyll	-7.96284
▁business	-7.96286
▁lady	-7.96308
▁b	-7.96399
▁pick	-7.96524
▁learn	-7.96658
▁cat	-7.96861
able	-7.96963
▁white	-7.97054
▁side	-7.97212
▁america	-7.9765
▁whatever	-7.97713
▁christmas	-7.97714
▁woman	-7.97714
▁probably	-7.97716
▁hands	-7.97812
▁power	-7.98512
▁race	-7.98524
▁book	-7.98567
▁war	-7.98749
▁fast	-7.98852
▁sweet	-7.99077
▁dinner	-7.99166
▁sounds	-7.99281
▁moment	-8.00042
▁number	-8.00048
▁stranger	-8.00056
▁working	-8.00434
▁supposed	-8.00531
▁feet	-8.0064
▁gold	-8.00742
▁lead	-8.00753
▁rock	-8.01288
▁started	-8.01504
▁become	-8.01564
▁minutes	-8.01596
▁marc	-8.02106
▁half	-8.02108
▁george	-8.02125
▁perhaps	-8.02125
▁bye	-8.0213
▁west	-8.02394
ve	-8.02404
▁red	-8.02848
▁seems	-8.02933
▁reason	-8.03038
▁human	-8.03091
▁truth	-8.03624
▁possible	-8.0364
▁gave	-8.03643
▁field	-8.03667
▁gasps	-8.03786
▁question	-8.0414
▁andy	-8.04677
ion	-8.0497
▁mama	-8.0518
▁sort	-8.05192
▁happen	-8.05199
▁news	-8.05431
▁hang	-8.06038
▁bet	-8.06432
▁david	-8.06743
▁balto	-8.06743
▁ahead	-8.06744
▁funny	-8.06747
▁comes	-8.06903
▁cool	-8.07662
▁a	-8.07792
▁fact	-8.07867
▁peter	-8.07959
▁small	-8.08202
▁professor	-8.08329
▁molly	-8.08344
▁air	-8.0835
▁g	-8.0837
▁boys	-8.08549
▁follow	-8.08848
▁person	-8.09314
▁robert	-8.09486
▁office	-8.09827
▁donald	-8.09941
▁song	-8.09988
▁wed	-8.10216
▁christian	-8.11099
▁tree	-8.1117
▁game	-8.11171
▁drive	-8.11515
▁past	-8.11565
▁wild	-8.11576
▁sense	-8.1158
▁alice	-8.11582
▁tony	-8.11595
▁early	-8.11676
▁finally	-8.11685
▁cheering	-8.11753
▁land	-8.1225
▁s	-8.12446
▁pay	-8.12606
▁greek	-8.12794
▁line	-8.12816
▁waiting	-8.13227
▁control	-8.13239
▁behind	-8.13247
▁either	-8.13247
▁simonides	-8.13247
▁tentrees	-8.13247
▁crazy	-8.13253
▁hound	-8.13255
▁though	-8.13273
or	-8.13358
▁pre	-8.13379
▁drink	-8.14239
▁earth	-8.1452
▁american	-8.14531
▁near	-8.14723
▁sun	-8.14894
▁anymore	-8.14942
▁d	-8.15781
▁hours	-8.15823
▁promise	-8.15986
▁el	-8.16057
▁jack	-8.16211
▁be	-8.16286
▁save	-8.16416
▁deep	-8.16457
▁gods	-8.16464
▁beat	-8.16609
▁anybody	-8.16666
▁wake	-8.16668
▁food	-8.16669
▁hot	-8.16717
▁birds	-8.16748
▁c	-8.17462
▁die	-8.17792
▁de	-8.17924
ies	-8.17997
▁somebody	-8.18069
▁safe	-8.1813
▁t	-8.18404
▁brazil	-8.18406
▁alright	-8.18422
▁mark	-8.19502
ous	-8.19656
▁present	-8.1994
▁fire	-8.2001
▁met	-8.20046
▁simple	-8.20117
▁mountains	-8.20156
▁theyve	-8.20206
▁lunch	-8.20208
▁poor	-8.20213
▁pete	-8.20407
▁f	-8.20548
▁speak	-8.20995
▁ahh	-8.21398
▁secret	-8.21497
▁lose	-8.21575
▁ball	-8.21763
▁letter	-8.21831
▁cornelius	-8.22024
▁couple	-8.22024
▁yesterday	-8.22024
▁swim	-8.22026
▁outside	-8.22026
▁babar	-8.22028
▁lauren	-8.22029
▁hide	-8.2204
▁sunk	-8.22048
▁in	-8.22971
▁fly	-8.23482
▁catholic	-8.23659
▁manuscript	-8.23681
▁gentlemen	-8.23877
▁joshua	-8.23879
▁forever	-8.2388
▁wide	-8.23888
▁cold	-8.23938
▁star	-8.24186
▁sound	-8.2483
▁known	-8.25524
▁ocean	-8.2557
▁act	-8.25642
▁alfred	-8.25763
▁somewhere	-8.25763
▁post	-8.25851
▁p	-8.2661
ic	-8.26807
▁ow	-8.271
▁fear	-8.27219
▁ride	-8.27654
▁major	-8.27681
▁damn	-8.27686
▁front	-8.27699
▁wind	-8.27807
▁needs	-8.28044
▁cubs	-8.28313
▁bird	-8.28482
▁trust	-8.29215
▁meeting	-8.29216
▁bill	-8.29381
▁heres	-8.295
▁smell	-8.29562
▁brave	-8.29657
▁alive	-8.29664
▁parents	-8.29752
▁lives	-8.30072
▁bee	-8.30133
▁cut	-8.30223
▁teach	-8.3072
us	-8.31099
▁system	-8.31541
▁million	-8.31582
▁denny	-8.31588
▁master	-8.31609
▁mmm	-8.31628
▁pope	-8.31644
▁daughter	-8.31647
▁lodge	-8.31647
▁women	-8.31647
▁aussie	-8.31648
m	-8.31652
▁james	-8.3166
▁sometimes	-8.31852
▁pain	-8.32197
▁return	-8.3249
▁bed	-8.32681
▁aunt	-8.32897
▁ground	-8.33635
▁sam	-8.33687
▁boris	-8.33688
▁fault	-8.33688
▁tried	-8.33688
▁wrote	-8.33691
▁rather	-8.33693
▁goodman	-8.34071
▁trip	-8.35116
f	-8.35304
▁visit	-8.35305
▁quick	-8.35419
▁evening	-8.35541
▁living	-8.35776
▁sell	-8.35824
▁mountain	-8.35832
▁certainly	-8.35908
ll	-8.35965
▁spelling	-8.3617
ness	-8.36462
▁date	-8.36751
ity	-8.37596
▁faith	-8.37887
▁husband	-8.37899
▁itll	-8.37899
▁england	-8.37899
▁round	-8.379
▁century	-8.37902
▁chip	-8.37936
▁sister	-8.37983
▁week	-8.37998
▁plane	-8.38398
▁feeling	-8.38659
▁al	-8.38687
▁dance	-8.39616
▁six	-8.3979
▁strong	-8.39954
▁papi	-8.40015
▁ellen	-8.40073
▁especially	-8.40075
▁monty	-8.40084
▁aah	-8.40091
▁eight	-8.40093
ers	-8.4016
▁dude	-8.4017
▁shell	-8.40202
▁ho	-8.40505
ation	-8.40649
▁step	-8.40651
▁taken	-8.40808
▁killed	-8.40832
▁pass	-8.41115
▁strange	-8.41971
▁quiet	-8.4204
▁weeks	-8.42188
▁across	-8.42295
▁clifford	-8.42295
▁napoleon	-8.42295
▁london	-8.42295
▁shut	-8.42305
▁absolutely	-8.42312
▁shouting	-8.42425
▁shh	-8.42697
▁lucky	-8.42719
▁speaking	-8.43052
▁wear	-8.44012
▁explain	-8.44091
▁buzz	-8.44435
▁eye	-8.44452
▁north	-8.44567
▁caesar	-8.44567
▁callahan	-8.44567
▁married	-8.44567
▁community	-8.44568
▁taught	-8.44568
▁maam	-8.44568
▁nathan	-8.44571
▁blue	-8.44592
▁so	-8.44627
▁ice	-8.4465
▁drop	-8.44655
an	-8.44685
▁voice	-8.4477
▁band	-8.4483
▁till	-8.44992
▁tim	-8.45658
g	-8.46235
▁ten	-8.46296
▁latin	-8.46595
▁answer	-8.46672
▁stick	-8.46774
▁dark	-8.46872
▁prefontaine	-8.46893
▁worried	-8.46893
▁choice	-8.46897
▁wife	-8.46897
▁clothes	-8.469
▁imagine	-8.46903
▁piece	-8.46912
▁doubt	-8.46913
▁co	-8.47016
▁less	-8.47101
▁scared	-8.47104
▁street	-8.47119
▁law	-8.47167
ry	-8.4733
▁knows	-8.47522
▁happens	-8.47644
▁humans	-8.47712
▁ba	-8.47961
▁train	-8.48046
▁york	-8.48407
ie	-8.48615
on	-8.4872
▁suppose	-8.49023
▁join	-8.49195
▁ones	-8.49237
▁forgot	-8.49271
▁ancient	-8.49274
▁proud	-8.49275
▁middle	-8.49278
▁death	-8.49285
▁joe	-8.49332
▁steele	-8.49379
▁smile	-8.49446
▁president	-8.49553
▁teacher	-8.49558
▁tail	-8.49622
▁monster	-8.49636
▁loves	-8.50092
▁hows	-8.50465
w	-8.5048
▁film	-8.5064
▁expect	-8.50648
▁meow	-8.51081
▁careful	-8.5154
▁write	-8.51656
▁jesus	-8.51713
▁shouldnt	-8.51717
▁none	-8.51742
▁surprise	-8.51769
▁lm	-8.51855
▁hat	-8.51857
▁hate	-8.52044
▁shark	-8.52125
▁state	-8.52133
▁gun	-8.52281
▁building	-8.52463
▁worked	-8.52562
▁goats	-8.52889
▁reach	-8.53119
▁smart	-8.5408
▁straight	-8.54132
▁forgive	-8.54159
▁codex	-8.54214
▁leaving	-8.54214
▁south	-8.54216
▁moving	-8.5422
▁la	-8.54376
▁warm	-8.54396
▁mo	-8.54557
▁trail	-8.54595
▁spirit	-8.54673
▁sick	-8.54819
▁lots	-8.55362
▁brothers	-8.55681
▁record	-8.5585
▁climb	-8.56096
▁whe	-8.56166
▁e	-8.56508
▁brown	-8.56777
▁piccolo	-8.56777
▁future	-8.56777
▁grumpy	-8.56781
▁fair	-8.56781
▁laughter	-8.56785
▁bottom	-8.5679
▁hair	-8.568
▁looked	-8.56901
▁warren	-8.56905
▁completely	-8.56941
man	-8.57003
▁saved	-8.57158
▁window	-8.57266
▁learned	-8.57573
▁chris	-8.5802
▁miles	-8.58192
▁girls	-8.58248
el	-8.5872
▁carry	-8.5884
▁enjoy	-8.58947
▁states	-8.58959
▁class	-8.59023
▁bounce	-8.59131
u	-8.59329
▁seven	-8.59396
▁danger	-8.59408
▁crystal	-8.59409
▁anywhere	-8.59409
▁kept	-8.59412
▁ladies	-8.59414
▁bout	-8.59424
▁mei	-8.59436
▁takes	-8.59445
▁rich	-8.59448
▁others	-8.59494
▁faster	-8.59627
▁college	-8.59847
▁given	-8.59906
▁begin	-8.60016
▁sing	-8.60218
▁longer	-8.60276
ting	-8.6053
▁turned	-8.60708
▁christ	-8.60713
▁buy	-8.61058
ance	-8.61121
▁named	-8.61362
▁played	-8.6139
ther	-8.61447
▁w	-8.61837
▁lovely	-8.61909
▁court	-8.621
▁blood	-8.62111
▁breeze	-8.62111
▁charlotte	-8.62111
▁captain	-8.62112
▁giving	-8.62113
▁larry	-8.62115
▁regan	-8.62116
▁milk	-8.62117
▁born	-8.62127
▁steve	-8.62142
▁uhoh	-8.62171
▁lifetime	-8.62191
▁barking	-8.62242
▁interesting	-8.62325
▁shot	-8.62723
▁crew	-8.62737
▁questions	-8.6303
▁experience	-8.63051
▁grow	-8.63463
▁finish	-8.6358
▁tad	-8.63604
▁mum	-8.63608
▁throw	-8.6418
▁martin	-8.64343
▁count	-8.64384
came	-8.64622
▁roman	-8.64808
▁english	-8.64889
▁biggest	-8.64889
▁foot	-8.64889
▁walter	-8.64891
▁mason	-8.64891
▁pinto	-8.64891
▁definitely	-8.64893
▁body	-8.64893
▁darling	-8.64893
▁terrible	-8.64912
▁ought	-8.64922
▁blow	-8.64952
▁sad	-8.64952
le	-8.64976
▁decided	-8.65041
▁laugh	-8.65067
▁ben	-8.65336
▁pups	-8.65456
▁protestant	-8.65517
▁singing	-8.65531
▁seeing	-8.65669
▁flying	-8.6583
▁sign	-8.66736
▁study	-8.67131
ive	-8.67268
▁phone	-8.67449
▁slow	-8.67522
▁serious	-8.67523
▁lie	-8.67714
▁dakota	-8.67746
▁theyd	-8.67746
▁jenna	-8.67747
▁company	-8.67751
▁steal	-8.67752
▁tv	-8.67757
▁grace	-8.67757
▁plethora	-8.67758
▁chief	-8.67766
▁laney	-8.67773
re	-8.67841
▁lee	-8.67873
▁st	-8.68151
▁ja	-8.68263
et	-8.68269
▁orchestra	-8.68413
▁picture	-8.68593
▁animal	-8.6862
▁build	-8.69934
▁kiss	-8.69983
▁pat	-8.70028
▁monsters	-8.70241
▁large	-8.70568
▁fell	-8.70583
▁china	-8.70669
▁built	-8.70687
▁sinaiticus	-8.70687
▁beginning	-8.70688
▁princess	-8.70693
▁board	-8.7072
▁proof	-8.70726
▁cape	-8.70758
digger	-8.71085
▁monkeys	-8.71351
▁republican	-8.7162
▁ohh	-8.71716
▁leader	-8.71798
▁r	-8.71798
nt	-8.73031
▁starting	-8.73188
▁short	-8.73594
te	-8.73684
▁except	-8.73685
▁somehow	-8.73718
▁weird	-8.73718
▁kyle	-8.73718
▁klara	-8.73719
▁forward	-8.73724
▁busy	-8.73872
▁woody	-8.7388
▁besides	-8.73946
ar	-8.74004
as	-8.74085
▁dogs	-8.74303
▁changed	-8.74369
▁huge	-8.7452
▁calling	-8.74569
less	-8.74804
▁telling	-8.74868
▁months	-8.75055
is	-8.75113
ist	-8.75157
k	-8.76072
▁rid	-8.76081
▁green	-8.76271
ally	-8.76326
▁camp	-8.76397
▁difficult	-8.76538
▁square	-8.76565
▁realize	-8.76609
b	-8.76653
▁papa	-8.76663
▁among	-8.76801
▁example	-8.76843
▁general	-8.76843
▁police	-8.76843
▁caught	-8.76843
▁fifi	-8.76844
▁folks	-8.76844
▁uhhuh	-8.76865
▁harry	-8.76865
▁incredible	-8.76869
▁winter	-8.76873
▁dangerous	-8.76876
▁nature	-8.76887
▁unless	-8.76896
▁movement	-8.76898
▁position	-8.76909
▁moon	-8.76944
▁charge	-8.76969
▁claire	-8.77009
▁interested	-8.77021
▁sounder	-8.77042
▁spell	-8.77075
▁belong	-8.77479
▁mad	-8.77485
ton	-8.78087
▁age	-8.78186
p	-8.78258
▁continues	-8.78374
▁fighting	-8.78397
▁destroy	-8.78969
▁gets	-8.79378
▁accept	-8.79619
▁main	-8.79942
▁box	-8.80007
▁tough	-8.80007
▁super	-8.80028
▁vatican	-8.80042
▁grandma	-8.80068
▁speech	-8.80069
▁ollie	-8.80069
▁spend	-8.80069
▁government	-8.80071
▁famous	-8.80074
▁needed	-8.8008
▁single	-8.8009
▁indeed	-8.80091
▁groaning	-8.801
▁chatter	-8.80111
▁ran	-8.8013
▁grunting	-8.803
▁mission	-8.80319
▁fall	-8.8059
▁respect	-8.80592
▁musketeers	-8.80803
▁ape	-8.81281
▁soul	-8.81305
▁keys	-8.81845
▁touch	-8.82244
▁hed	-8.82433
▁pray	-8.82625
▁trick	-8.8282
▁guns	-8.82838
▁shoot	-8.82871
▁certain	-8.83168
▁entire	-8.83174
▁low	-8.83217
▁personal	-8.83316
▁drummin	-8.83379
▁royal	-8.83393
▁crash	-8.83402
▁extreme	-8.83402
▁morgan	-8.83402
▁muriel	-8.83402
▁sheriff	-8.83402
▁difference	-8.83402
▁roger	-8.83402
▁spot	-8.83405
▁space	-8.83406
▁brandon	-8.83408
▁began	-8.83409
▁smoke	-8.83411
▁loose	-8.83419
▁silly	-8.83428
▁gasping	-8.835
▁copy	-8.83613
▁coughing	-8.83624
ant	-8.83628
▁billy	-8.83821
▁greatest	-8.84036
▁meant	-8.84376
▁figure	-8.8442
▁fool	-8.84565
▁fella	-8.84879
▁jesuits	-8.85023
▁k	-8.85061
▁tru	-8.85656
▁pack	-8.85727
▁agree	-8.85853
up	-8.85864
▁starts	-8.85972
▁mess	-8.8598
▁lt	-8.86032
ne	-8.86276
▁support	-8.86342
▁complete	-8.86381
▁final	-8.86487
▁worth	-8.86593
▁common	-8.86704
▁dumb	-8.86721
▁bell	-8.86777
▁finn	-8.86845
▁language	-8.8685
▁warwick	-8.8685
▁weather	-8.86851
▁pool	-8.86852
▁teeth	-8.86852
▁buddy	-8.86852
▁tummy	-8.86854
▁favorite	-8.86854
▁stuck	-8.86854
▁bright	-8.86857
▁cash	-8.86861
▁quint	-8.86861
▁normal	-8.86865
▁view	-8.86865
▁upon	-8.86866
▁national	-8.86888
▁grand	-8.86932
▁andrews	-8.86964
▁per	-8.87516
▁rain	-8.87613
▁died	-8.87646
▁yay	-8.87937
▁prove	-8.88004
▁mistake	-8.88134
▁clue	-8.88272
▁rats	-8.88539
▁seconds	-8.88683
▁form	-8.89169
▁favor	-8.89501
▁dress	-8.89899
▁russ	-8.90398
▁elizabeth	-8.90422
▁grover	-8.90422
▁within	-8.90422
▁sail	-8.90422
▁surface	-8.90422
▁bob	-8.90426
▁teddy	-8.90426
▁speed	-8.90426
▁road	-8.90427
▁hungry	-8.90429
▁mickey	-8.9043
▁marry	-8.90433
▁johnson	-8.90437
▁sky	-8.90448
▁everywhere	-8.90449
▁energy	-8.9045
▁bower	-8.90457
▁mm	-8.9048
▁comin	-8.90483
▁mir	-8.90487
▁gale	-8.90504
▁tired	-8.90512
▁lotso	-8.90534
▁track	-8.90653
▁quickly	-8.90812
▁expected	-8.91074
▁protect	-8.9179
▁lived	-8.91895
▁toy	-8.9212
▁horses	-8.9224
▁rings	-8.92328
▁bother	-8.92954
▁believed	-8.92996
▁fix	-8.93021
▁test	-8.93072
▁offer	-8.93087
▁missed	-8.93191
▁pal	-8.93303
▁glow	-8.93509
▁talked	-8.9355
▁using	-8.93644
▁notice	-8.93866
▁tight	-8.93891
▁madam	-8.93977
▁magic	-8.94026
go	-8.94047
▁champ	-8.94093
▁abigail	-8.94125
▁beyond	-8.94125
▁snow	-8.94126
▁rosa	-8.94126
▁rover	-8.94126
▁opportunity	-8.94127
▁worse	-8.94127
▁cherie	-8.94127
▁wolf	-8.94141
▁united	-8.94175
▁fan	-8.94202
▁hoping	-8.94332
▁planet	-8.94354
▁americana	-8.94368
▁hooting	-8.94399
▁bar	-8.94544
▁aw	-8.94588
▁mars	-8.95028
▁cook	-8.95033
▁roll	-8.95041
▁h	-8.95399
▁vote	-8.95522
▁mile	-8.95674
ment	-8.95753
▁wall	-8.95848
▁key	-8.95909
▁indian	-8.96322
▁clean	-8.96641
▁hall	-8.96914
▁pip	-8.97159
▁yo	-8.97448
▁tuck	-8.97511
▁loud	-8.97653
▁chase	-8.97715
▁honest	-8.97754
▁hero	-8.97864
▁glass	-8.97888
▁breakfast	-8.97971
▁charlene	-8.97971
▁chinese	-8.97971
▁choose	-8.97971
▁geranium	-8.97971
▁humphrey	-8.97971
▁instead	-8.97971
▁jeanpaul	-8.97971
▁radio	-8.97972
▁ugh	-8.97972
▁cuzco	-8.97972
▁paul	-8.97973
▁worst	-8.97975
▁driving	-8.97977
▁clara	-8.9798
▁flight	-8.97995
▁roof	-8.97997
▁jake	-8.98019
▁goofy	-8.98022
▁scary	-8.98062
▁yall	-8.98088
▁ships	-8.98153
▁petal	-8.98209
▁realized	-8.98299
▁letters	-8.98483
▁finished	-8.98592
▁where	-8.987
▁bro	-8.98733
▁pro	-8.99024
▁cop	-8.99024
▁wagon	-8.99678
▁project	-8.99822
▁table	-8.99822
▁cost	-8.99846
▁ghost	-8.99858
▁hour	-8.99916
ial	-9.00024
▁ring	-9.00166
▁attack	-9.00794
▁jump	-9.00835
▁roo	-9.01397
▁honor	-9.01514
▁search	-9.01544
ian	-9.01638
▁false	-9.01685
▁correct	-9.01691
▁fore	-9.01701
▁dis	-9.01715
▁stupid	-9.01723
▁quit	-9.01805
▁maj	-9.01925
▁bridge	-9.01952
▁awesome	-9.01971
▁isabella	-9.01971
▁journey	-9.01971
▁knowledge	-9.01971
▁missouri	-9.01971
▁reformation	-9.01971
▁wednesday	-9.01971
▁announce	-9.01972
▁reef	-9.01972
▁third	-9.01972
▁gift	-9.01972
▁trumpeting	-9.01972
▁hasnt	-9.01974
▁coffee	-9.01975
▁mister	-9.01976
▁percy	-9.01983
▁racist	-9.01984
▁brian	-9.01986
▁panting	-9.0201
▁dirty	-9.02059
▁nose	-9.02065
▁eh	-9.02069
▁usually	-9.02104
▁circus	-9.02104
▁highness	-9.02108
▁obviously	-9.02122
▁rare	-9.02139
▁pot	-9.02316
▁crying	-9.02362
▁promised	-9.02574
ce	-9.02895
▁goodness	-9.02911
▁flowers	-9.02981
▁awful	-9.03012
▁command	-9.03045
▁ted	-9.03204
▁teaching	-9.03227
▁cute	-9.03302
▁how	-9.03402
▁opens	-9.03705
▁practice	-9.0384
▁boat	-9.03842
▁flavor	-9.03934
▁priest	-9.03951
▁spring	-9.03986
▁area	-9.04003
▁n	-9.0412
ra	-9.0438
ia	-9.04522
▁dreams	-9.05027
▁repeat	-9.05648
▁allow	-9.05681
▁grab	-9.05822
▁explore	-9.05826
▁text	-9.0586
▁nervous	-9.0589
ta	-9.05968
▁europe	-9.06088
▁impossible	-9.06138
▁ronnie	-9.06138
▁puppies	-9.06139
▁fantastic	-9.06139
▁smoking	-9.06139
▁spent	-9.0614
▁address	-9.06141
▁kidding	-9.06143
▁written	-9.06145
▁stole	-9.06145
▁pooh	-9.06147
▁information	-9.06148
▁mmhmm	-9.06149
▁theory	-9.06165
▁bigger	-9.06174
▁guilty	-9.06175
▁store	-9.06176
▁howd	-9.06258
▁over	-9.06307
▁loved	-9.06476
il	-9.06531
▁bomb	-9.06744
▁fred	-9.06757
ch	-9.06837
▁je	-9.07048
th	-9.07071
▁calls	-9.07075
▁wine	-9.0732
▁friendly	-9.07479
▁happening	-9.07826
▁remain	-9.07843
▁taste	-9.07899
▁plays	-9.0795
▁continue	-9.08142
▁tape	-9.08216
▁message	-9.08256
▁forest	-9.08302
▁level	-9.0831
▁jesuit	-9.084
age	-9.08546
though	-9.08964
▁goat	-9.09033
▁watching	-9.09213
▁worlds	-9.09221
um	-9.09321
da	-9.09373
ism	-9.09496
▁scholars	-9.09708
▁civil	-9.09969
tail	-9.10182
▁share	-9.10192
▁escape	-9.10228
▁whoo	-9.10484
▁cricket	-9.10486
▁education	-9.10486
▁excellent	-9.10486
▁arthur	-9.10486
▁chicago	-9.10487
▁theme	-9.10487
▁michelle	-9.10489
▁plenty	-9.10492
▁sunday	-9.10493
▁felt	-9.10494
▁madrat	-9.10495
▁yep	-9.10497
▁size	-9.10502
▁shape	-9.10506
▁ken	-9.10517
▁sent	-9.10526
▁hotel	-9.10534
▁broken	-9.10535
▁sight	-9.10558
▁betsy	-9.1057
lloween	-9.10637
▁growling	-9.10674
▁j	-9.10723
▁feed	-9.10765
▁figured	-9.10847
▁lay	-9.10952
▁nearly	-9.11067
▁fur	-9.11092
▁ringing	-9.1117
▁whose	-9.11261
it	-9.11284
ent	-9.11371
▁wh	-9.11617
▁en	-9.12342
▁bears	-9.12403
▁ii	-9.12403
▁miracle	-9.12785
▁truck	-9.12821
▁partner	-9.12858
▁village	-9.12878
▁park	-9.12968
▁z	-9.13007
▁sub	-9.13078
▁reading	-9.13416
ty	-9.13515
ful	-9.13881
cy	-9.13892
▁asking	-9.13901
ish	-9.14321
▁mate	-9.14621
▁wood	-9.14812
▁public	-9.1495
▁swing	-9.14961
▁fresh	-9.15011
▁price	-9.15015
▁peace	-9.15018
▁cardinal	-9.15031
▁dorothy	-9.15031
▁idiot	-9.15031
▁stinky	-9.15031
▁sweetheart	-9.15031
▁unique	-9.15031
▁often	-9.15032
▁chuckling	-9.15032
▁shame	-9.15033
▁carnival	-9.15034
▁cave	-9.15047
▁fellow	-9.15048
▁chicken	-9.15054
▁pastor	-9.15115
▁willing	-9.15125
▁farm	-9.15174
▁screaming	-9.15426
▁manuscripts	-9.15518
▁holy	-9.15522
▁runt	-9.15525
▁dete	-9.15635
▁heat	-9.15659
▁shoes	-9.15975
▁games	-9.16199
▁ko	-9.16377
▁under	-9.16502
▁tradition	-9.16538
▁sand	-9.16817
at	-9.17411
▁service	-9.1749
▁up	-9.17494
▁plans	-9.17562
▁brazilian	-9.17579
▁river	-9.17608
▁movie	-9.17646
▁democrat	-9.17668
▁scripture	-9.17673
▁paper	-9.17699
▁month	-9.17717
▁jim	-9.17859
ee	-9.182
▁bus	-9.18521
▁out	-9.18706
▁cover	-9.18745
▁pa	-9.18918
▁sharks	-9.18986
▁holding	-9.19011
▁soft	-9.19257
▁v	-9.19496
▁excited	-9.19539
▁decide	-9.19541
▁handle	-9.19583
▁travel	-9.19785
▁birth	-9.1979
▁cleveland	-9.19793
▁competition	-9.19793
▁edgar	-9.19793
▁kitchen	-9.19793
▁liquor	-9.19793
▁neither	-9.19793
▁scientific	-9.19793
▁steady	-9.19793
▁thunder	-9.19793
▁violet	-9.19793
▁winslow	-9.19793
▁wolves	-9.19793
▁yummies	-9.19793
▁contest	-9.19793
▁washington	-9.19793
▁stannis	-9.19794
▁attention	-9.19794
▁werent	-9.19795
▁danny	-9.19796
▁pardon	-9.19802
▁pair	-9.19803
▁summer	-9.19805
▁claude	-9.19814
▁lois	-9.19815
▁double	-9.19824
▁season	-9.19831
▁murmuring	-9.19839
▁amen	-9.19855
▁tia	-9.19891
▁army	-9.19957
▁dare	-9.20095
▁passed	-9.20762
▁growing	-9.20868
▁henr	-9.20881
▁tall	-9.20993
▁closed	-9.21025
▁ideas	-9.2185
▁talent	-9.21996
to	-9.22076
▁force	-9.22389
▁grandmother	-9.22486
▁she	-9.22518
▁station	-9.22537
▁chiru	-9.22603
▁machine	-9.22626
▁hundred	-9.22687
▁scotty	-9.22696
ical	-9.22714
▁fellas	-9.22811
▁nine	-9.22964
▁wet	-9.22991
▁mu	-9.23529
▁si	-9.23938
time	-9.24018
ey	-9.243
▁push	-9.24331
▁color	-9.24374
lden	-9.24417
▁goin	-9.24469
▁pet	-9.24487
▁joke	-9.24489
▁list	-9.24535
▁congratulations	-9.24793
▁dawn	-9.24793
▁deserve	-9.24793
▁gorgeous	-9.24793
▁heck	-9.24793
▁lincoln	-9.24793
▁research	-9.24793
▁squadron	-9.24793
▁telephone	-9.24793
▁voiceover	-9.24793
▁giggles	-9.24794
▁indistinct	-9.24794
▁bouncy	-9.24795
▁claudette	-9.24795
▁france	-9.24795
▁angry	-9.248
▁operation	-9.24801
▁jimmie	-9.24812
ts	-9.24813
▁bought	-9.24827
▁amount	-9.24829
▁blame	-9.24839
▁emily	-9.24856
▁immediately	-9.24856
▁gosh	-9.2489
▁statue	-9.24934
▁gotten	-9.25021
▁tom	-9.25027
▁created	-9.2511
▁works	-9.25153
▁allowed	-9.25328
▁problems	-9.25369
▁grade	-9.255
▁signed	-9.25576
▁fingers	-9.25617
▁perfectly	-9.25662
land	-9.25713
▁sniff	-9.25777
▁wings	-9.25832
▁filming	-9.26089
▁trees	-9.26094
▁names	-9.26435
▁owe	-9.26516
▁report	-9.26588
▁democrats	-9.27052
ary	-9.27059
▁walking	-9.27127
▁parts	-9.2715
▁scare	-9.27563
▁indians	-9.27598
out	-9.27619
▁heaven	-9.27651
▁toys	-9.27717
▁religion	-9.27842
▁generation	-9.27844
▁knee	-9.27887
li	-9.28029
▁lion	-9.28302
▁pictures	-9.28497
▁con	-9.28532
dern	-9.2867
▁liked	-9.29006
▁discuss	-9.29585
id	-9.29677
▁tea	-9.2979
▁there	-9.29867
▁survive	-9.29921
▁mouth	-9.30042
▁afternoon	-9.30056
▁cheese	-9.30056
▁previous	-9.30056
▁science	-9.30056
▁sesemann	-9.30056
▁throat	-9.30056
▁chirp	-9.30057
▁pedro	-9.30057
▁queen	-9.30057
▁giggling	-9.30057
▁racism	-9.30057
▁rabbit	-9.30057
▁oscar	-9.30057
▁monday	-9.30057
▁empty	-9.30058
▁grew	-9.30058
▁brilliant	-9.30059
▁slavery	-9.30061
▁football	-9.30063
▁viren	-9.30063
▁jones	-9.30063
▁simply	-9.30064
▁tj	-9.30066
▁kate	-9.30072
▁saucer	-9.30079
▁rottenmeier	-9.30099
▁carder	-9.30147
▁quito	-9.30151
▁sitting	-9.30162
▁necessary	-9.30177
by	-9.30178
▁hypnotized	-9.30189
▁according	-9.30207
▁groans	-9.30234
▁arrived	-9.3028
▁missing	-9.30341
▁officer	-9.30444
▁closer	-9.30484
▁surprised	-9.30618
▁chicks	-9.30694
▁deeply	-9.30754
▁elephants	-9.30809
ought	-9.31237
▁bones	-9.31416
▁ways	-9.31429
▁wearing	-9.31515
▁older	-9.31804
ual	-9.32061
▁pandas	-9.32089
▁ears	-9.32131
▁i	-9.32239
▁east	-9.32287
▁books	-9.32336
▁learning	-9.32413
▁pe	-9.32849
▁experiment	-9.33358
▁storm	-9.33368
▁ear	-9.33407
▁bernier	-9.33419
▁group	-9.33419
▁rule	-9.33429
▁bag	-9.33452
▁lap	-9.33458
▁dan	-9.33468
▁member	-9.33469
▁gate	-9.33494
▁panda	-9.33512
▁breath	-9.33907
▁hunt	-9.34472
▁bringing	-9.34841
▁waste	-9.34928
▁art	-9.34993
z	-9.35082
▁marvelous	-9.35334
warren	-9.35337
▁successful	-9.35369
▁mi	-9.35383
▁sisters	-9.35393
light	-9.35482
▁match	-9.35516
▁broke	-9.35569
▁character	-9.35609
▁bdawg	-9.35612
▁hollywood	-9.35612
▁possibly	-9.35612
▁relax	-9.35612
▁thomas	-9.35612
▁someday	-9.35612
▁defend	-9.35613
▁joseph	-9.35613
▁rumbling	-9.35613
▁edward	-9.35613
▁fleece	-9.35613
▁jojo	-9.35613
▁rosy	-9.35613
▁evidence	-9.35614
▁testament	-9.35614
▁border	-9.35615
▁upset	-9.35618
▁kitty	-9.35618
▁puppy	-9.3562
▁row	-9.35621
▁swimming	-9.35625
▁winning	-9.35644
▁stopped	-9.35653
▁suddenly	-9.3567
▁mis	-9.357
▁tiny	-9.35709
▁kent	-9.35716
▁butter	-9.35727
▁type	-9.3573
▁grown	-9.3573
▁cheer	-9.3576
▁rise	-9.35782
▁hiding	-9.35851
▁smells	-9.35865
▁bang	-9.3587
▁lily	-9.35886
▁putting	-9.35899
▁discovered	-9.35959
▁seriously	-9.36055
▁rent	-9.36245
▁ab	-9.36285
▁gee	-9.3642
▁sayers	-9.36538
▁cast	-9.36568
▁higher	-9.36584
▁tao	-9.36907
ma	-9.37711
ence	-9.37746
▁rocks	-9.37801
▁can	-9.37832
▁da	-9.37991
▁hundreds	-9.38013
▁places	-9.38519
▁treat	-9.38671
▁lies	-9.38855
ble	-9.38937
▁leg	-9.39031
▁account	-9.39218
▁bank	-9.39246
▁souls	-9.39256
▁horn	-9.39304
▁elsa	-9.3934
▁thousand	-9.3938
▁republicans	-9.39632
ily	-9.39847
▁o	-9.4004
▁knock	-9.40371
▁hole	-9.40678
▁particular	-9.41267
▁obvious	-9.41272
▁create	-9.41335
▁accident	-9.41476
▁extra	-9.41491
▁flat	-9.41491
▁asleep	-9.41494
▁boatwright	-9.41494
▁decision	-9.41494
▁happiness	-9.41494
▁hospital	-9.41494
▁mexico	-9.41494
▁mystery	-9.41494
▁oclock	-9.41494
▁pocahontas	-9.41494
▁politics	-9.41494
▁sardines	-9.41494
▁remote	-9.41494
▁duncan	-9.41495
▁lulu	-9.41495
▁obama	-9.41495
▁honour	-9.41496
▁charley	-9.41496
▁savage	-9.41496
▁trump	-9.41498
▁russell	-9.41499
▁sake	-9.41501
▁wherever	-9.41503
▁fortune	-9.41504
▁margo	-9.41504
▁samba	-9.41506
▁universe	-9.41508
▁outta	-9.4151
▁aldo	-9.41516
▁rescue	-9.41519
▁tour	-9.4152
▁safety	-9.41531
▁button	-9.41539
▁goodnight	-9.4154
▁held	-9.41548
▁involved	-9.4155
▁cake	-9.41576
▁note	-9.41581
▁sweetie	-9.41581
▁cliff	-9.41588
▁path	-9.41604
▁howling	-9.41621
▁action	-9.41658
▁signal	-9.41673
▁totally	-9.41692
▁filled	-9.41725
▁hm	-9.41741
▁bare	-9.41814
▁battle	-9.41876
▁recorder	-9.41935
se	-9.42274
▁di	-9.42313
▁destroyed	-9.42323
▁students	-9.42472
▁conditions	-9.42473
▁jar	-9.42585
▁suit	-9.42726
▁ends	-9.42802
▁followed	-9.43171
▁moved	-9.43204
▁walked	-9.43474
▁hills	-9.4352
▁ac	-9.43552
▁cap	-9.44074
▁papers	-9.44181
▁pata	-9.44601
sis	-9.44628
▁ruin	-9.44858
ine	-9.4491
▁wondering	-9.44945
▁ash	-9.45011
▁consider	-9.45063
▁add	-9.45157
▁standing	-9.45162
▁original	-9.45274
▁traitor	-9.45325
▁governor	-9.45328
▁rope	-9.45354
▁appreciate	-9.45452
▁floor	-9.45487
▁guest	-9.45621
▁hill	-9.45927
▁showed	-9.46256
▁cub	-9.4633
▁cross	-9.46352
ge	-9.46712
▁screech	-9.4701
▁adopt	-9.47292
▁crow	-9.47402
▁cry	-9.47428
▁bo	-9.47462
never	-9.47582
▁prison	-9.47597
▁origin	-9.47641
▁spoke	-9.47688
▁shake	-9.47696
▁gang	-9.47744
▁yellow	-9.47744
▁afford	-9.47744
▁audience	-9.47744
▁bacteria	-9.47744
▁brief	-9.47744
▁desmond	-9.47744
▁expert	-9.47744
▁heavy	-9.47744
▁pelias	-9.47744
▁sebastian	-9.47744
▁whimpering	-9.47744
▁horrible	-9.47744
▁bravo	-9.47745
▁europa	-9.47745
▁jenny	-9.47745
▁mash	-9.47745
▁oooh	-9.47745
▁concert	-9.47746
▁humming	-9.47746
▁commence	-9.47747
▁virginia	-9.47747
▁denise	-9.47747
▁trunk	-9.47748
▁onto	-9.47748
▁toward	-9.47748
▁zeus	-9.47749
▁nonsense	-9.4775
▁gather	-9.47752
▁doorbell	-9.47754
▁trade	-9.47755
▁alba	-9.47755
▁university	-9.47756
▁duty	-9.47762
▁chain	-9.4777
▁sword	-9.47771
▁shit	-9.47773
▁meat	-9.47774
▁style	-9.47774
▁lake	-9.47774
▁winner	-9.47778
▁blast	-9.4778
▁russian	-9.4779
▁destiny	-9.47794
▁lola	-9.47797
▁thumper	-9.47801
▁hatch	-9.47803
▁dancing	-9.47804
▁distance	-9.47814
▁market	-9.4782
▁locker	-9.47852
▁bam	-9.47857
▁provided	-9.4787
▁draw	-9.47882
▁deny	-9.47882
▁swan	-9.47986
▁settled	-9.4801
▁woods	-9.48015
▁rolfe	-9.48054
▁clicks	-9.48093
▁calvin	-9.48185
▁seat	-9.48296
▁neck	-9.48365
▁artist	-9.48446
▁freak	-9.48515
▁neat	-9.48674
▁gas	-9.48711
ier	-9.48737
▁paws	-9.48927
ate	-9.48959
▁helping	-9.48991
▁cro	-9.49093
▁creatures	-9.49345
▁doors	-9.4939
iest	-9.4947
ons	-9.49564
▁screams	-9.49635
▁pure	-9.49706
▁cor	-9.49725
▁andys	-9.49943
ever	-9.49983
▁thousands	-9.50046
▁legs	-9.50056
▁following	-9.50247
▁numbers	-9.50355
▁killing	-9.50912
▁fathers	-9.51126
▁points	-9.51169
▁cow	-9.51183
▁suggest	-9.51397
▁guide	-9.51504
▁meaning	-9.52142
▁opinion	-9.52152
▁writing	-9.52209
▁camera	-9.52235
▁garden	-9.5224
▁belief	-9.52244
▁crane	-9.52276
▁brain	-9.52334
ern	-9.5237
▁fit	-9.52502
▁blows	-9.52621
▁who	-9.52829
▁depend	-9.52833
▁eating	-9.53062
▁approach	-9.53146
do	-9.53262
▁pleased	-9.53368
▁ye	-9.5337
well	-9.53739
▁shin	-9.53741
▁bleat	-9.53779
▁ex	-9.53813
▁engine	-9.53837
▁settle	-9.54065
▁wins	-9.54086
▁cream	-9.54099
▁prepare	-9.54147
▁total	-9.54188
▁natural	-9.54191
▁breathe	-9.54282
▁butt	-9.54286
▁coach	-9.54325
▁strength	-9.5434
▁serve	-9.54343
▁base	-9.5438
▁celeste	-9.54409
▁sugar	-9.5441
▁advice	-9.54411
▁caballeros	-9.54411
▁centuries	-9.54411
▁environment	-9.54411
▁medicine	-9.54411
▁mount	-9.54411
▁museum	-9.54411
▁piglet	-9.54411
▁progress	-9.54411
▁staff	-9.54411
▁tardone	-9.54411
▁thanksgiving	-9.54411
▁buddies	-9.54411
▁lonely	-9.54411
▁snake	-9.54411
▁charlie	-9.54411
▁purpose	-9.54411
▁society	-9.54411
▁montana	-9.54411
▁molecul	-9.54411
▁influence	-9.54412
▁material	-9.54412
▁religious	-9.54412
▁clever	-9.54412
▁garcia	-9.54412
▁genuine	-9.54413
blime	-9.54413
▁insist	-9.54414
▁accent	-9.54414
▁barbie	-9.54416
▁brent	-9.54416
▁chasing	-9.54417
▁authority	-9.54417
▁louis	-9.54418
▁twice	-9.54418
▁mike	-9.54419
▁performance	-9.54419
▁gregory	-9.54421
▁nope	-9.54422
▁rebecca	-9.54422
▁plain	-9.54424
▁romantic	-9.54427
▁jail	-9.54439
▁grateful	-9.54441
▁risk	-9.54442
▁fox	-9.54442
▁toss	-9.54443
▁calm	-9.54445
▁mail	-9.54448
▁mommy	-9.54448
▁awaken	-9.54466
▁european	-9.54493
▁christianity	-9.54521
▁pine	-9.54532
▁healthy	-9.54555
▁rough	-9.54581
▁germany	-9.54627
▁fat	-9.54628
▁fastest	-9.54686
▁usual	-9.54702
▁claimed	-9.54739
line	-9.54739
inkling	-9.54761
▁yelling	-9.54786
▁commander	-9.5487
▁noticed	-9.54887
▁va	-9.5489
▁furlings	-9.54933
▁slaves	-9.54936
▁val	-9.54999
he	-9.55053
▁legal	-9.55114
▁carefully	-9.55122
▁catholics	-9.55185
▁led	-9.55197
▁direct	-9.55506
▁terms	-9.55527
▁aha	-9.55759
▁couldve	-9.55823
▁returned	-9.55915
▁paint	-9.55926
▁dry	-9.56064
▁do	-9.56135
▁tells	-9.56156
▁arms	-9.56421
▁brains	-9.56576
rom	-9.57063
▁feels	-9.57163
rat	-9.5741
▁cr	-9.57779
▁no	-9.57791
▁trap	-9.57792
▁shows	-9.57863
▁kick	-9.58068
▁ghosts	-9.58086
▁se	-9.58217
la	-9.58428
▁helped	-9.58507
tom	-9.58524
▁lock	-9.58605
▁crack	-9.58652
▁scream	-9.58815
▁challenge	-9.58852
▁corner	-9.58999
▁belongs	-9.59017
▁arm	-9.59034
▁duck	-9.59053
om	-9.59066
▁changes	-9.59295
▁statement	-9.59332
▁effort	-9.594
▁lesson	-9.59426
▁historic	-9.59441
▁male	-9.59488
▁aim	-9.59519
▁sh	-9.60001
▁blacks	-9.60008
▁heh	-9.60025
▁discover	-9.60185
▁iron	-9.60735
ling	-9.60834
way	-9.60909
▁deliver	-9.61003
▁india	-9.61073
▁desire	-9.61255
▁mush	-9.61266
fare	-9.61267
▁regular	-9.61294
▁private	-9.61317
▁mud	-9.61368
▁judge	-9.61386
▁wash	-9.61404
▁apart	-9.6153
▁object	-9.61534
▁loyal	-9.61544
agne	-9.61548
▁admit	-9.61553
▁guitar	-9.61554
▁applause	-9.61554
▁bleep	-9.61554
▁british	-9.61554
▁clemons	-9.61554
▁enemy	-9.61554
▁goonches	-9.61554
▁ignore	-9.61554
▁including	-9.61554
▁norwood	-9.61554
▁oregon	-9.61554
▁political	-9.61554
▁rosita	-9.61554
▁saturday	-9.61554
▁sidewalks	-9.61554
▁treasure	-9.61554
▁valerie	-9.61554
▁credit	-9.61554
▁miserable	-9.61554
▁local	-9.61554
▁rudi	-9.61554
▁charlon	-9.61555
▁hudson	-9.61555
▁pride	-9.61557
▁gena	-9.61557
▁witness	-9.61559
▁pearl	-9.61559
▁specific	-9.6156
▁bunch	-9.6156
inkle	-9.61561
▁booga	-9.61563
▁process	-9.61565
▁disappear	-9.61565
▁forgotten	-9.61566
▁birthday	-9.6157
▁precious	-9.6157
▁chloe	-9.61572
▁mule	-9.6158
▁doc	-9.61586
▁suggestion	-9.6159
▁planned	-9.61591
▁swell	-9.616
▁chef	-9.61608
▁slight	-9.6161
▁valley	-9.61626
▁lying	-9.61635
▁fourth	-9.61643
▁scoffs	-9.61644
▁silky	-9.61654
▁gary	-9.6167
▁letha	-9.61708
▁setting	-9.61711
▁halloween	-9.6172
▁culture	-9.61726
cha	-9.61771
▁beeping	-9.61778
▁invited	-9.61782
▁oops	-9.61788
▁bust	-9.61794
▁tw	-9.61822
▁honestly	-9.61982
▁mid	-9.62006
▁locked	-9.62015
▁whispering	-9.62088
▁tie	-9.62265
▁hook	-9.62267
▁churches	-9.62307
work	-9.62404
▁shed	-9.62404
▁dressed	-9.62469
▁root	-9.62471
▁meters	-9.62574
▁spellers	-9.62653
▁pic	-9.6275
▁fired	-9.62847
▁press	-9.62875
▁prisoners	-9.62947
▁indi	-9.63137
ber	-9.63179
▁boom	-9.63206
▁lately	-9.63385
▁ad	-9.63414
▁wave	-9.63514
▁picked	-9.63896
▁guests	-9.64049
▁log	-9.64234
▁cheers	-9.64297
ign	-9.64451
▁receive	-9.64505
▁leading	-9.64679
▁scriptures	-9.64861
▁et	-9.6495
ke	-9.65371
▁opened	-9.6553
▁opera	-9.65539
▁cops	-9.65606
▁walls	-9.65677
▁burn	-9.66076
▁interest	-9.6608
ors	-9.66367
▁woo	-9.66517
▁document	-9.666
▁exist	-9.66672
▁german	-9.66736
▁remind	-9.66878
▁trial	-9.66923
▁pig	-9.66954
▁noise	-9.67034
▁devil	-9.67101
▁whistle	-9.67115
▁opening	-9.67137
ight	-9.67493
v	-9.67684
▁spirits	-9.67818
the	-9.67901
▁moms	-9.67903
▁fl	-9.67982
▁pressure	-9.68116
▁worship	-9.68139
▁dig	-9.68165
▁answers	-9.68345
tic	-9.68413
▁bands	-9.6848
▁focus	-9.68758
▁blind	-9.68791
▁shells	-9.68815
▁rolf	-9.68864
score	-9.68967
▁capture	-9.68986
▁proper	-9.68995
▁heads	-9.69058
▁sharp	-9.69062
▁mar	-9.69156
▁dust	-9.69161
▁ronald	-9.69165
▁bouncin	-9.69224
▁alexander	-9.69246
▁brookhaven	-9.69246
▁cathedral	-9.69246
▁celebration	-9.69246
▁communities	-9.69246
▁cowboy	-9.69246
▁erasmus	-9.69246
▁expedition	-9.69246
▁footsteps	-9.69246
▁gospel	-9.69246
▁jealous	-9.69246
▁library	-9.69246
▁praise	-9.69246
▁reformers	-9.69246
▁regret	-9.69246
▁stratton	-9.69246
▁vineyard	-9.69246
▁vulgate	-9.69246
▁easily	-9.69246
▁omar	-9.69246
▁rude	-9.69246
▁silver	-9.69246
▁club	-9.69246
▁courage	-9.69246
▁expensive	-9.69246
▁gently	-9.69246
▁senor	-9.69247
▁sunnyside	-9.69247
▁ridiculous	-9.69248
▁loving	-9.69248
▁cleo	-9.69248
▁situation	-9.69248
▁giant	-9.69248
▁branch	-9.69249
▁adjust	-9.69249
▁social	-9.6925
▁island	-9.6925
▁psst	-9.6925
▁delicious	-9.6925
▁divine	-9.6925
▁criticism	-9.6925
▁carbonation	-9.69253
▁thatll	-9.69253
▁turkey	-9.69253
▁boring	-9.69254
▁hort	-9.69256
▁enemies	-9.69256
▁biblical	-9.69259
▁forbidden	-9.69259
▁fleet	-9.6926
▁extraordinary	-9.69262
▁fuck	-9.69262
▁sample	-9.69281
▁lift	-9.69283
▁freedom	-9.69289
▁kingdom	-9.6929
▁democratic	-9.6929
▁dave	-9.69293
▁structure	-9.69293
▁catholicism	-9.69296
▁powerful	-9.69308
▁african	-9.69309
▁champion	-9.69312
▁convinced	-9.6932
▁lope	-9.69333
▁stage	-9.69338
▁score	-9.69348
▁largest	-9.69357
▁cup	-9.69373
▁professional	-9.69383
▁grass	-9.69431
▁toothy	-9.69454
▁dennys	-9.69483
▁details	-9.69511
▁discovery	-9.69516
▁fame	-9.69518
▁stronger	-9.69691
▁po	-9.69756
pata	-9.69758
▁chased	-9.69784
▁bees	-9.69989
▁stars	-9.70134
▁hunting	-9.70136
▁files	-9.70209
ley	-9.70248
▁talkin	-9.70355
▁presents	-9.70449
▁goal	-9.70453
▁scholar	-9.70661
dom	-9.70676
▁nuts	-9.70724
▁shooting	-9.70744
▁particles	-9.70899
▁blowing	-9.71018
▁carrying	-9.71141
▁deed	-9.71309
eath	-9.71417
▁whistles	-9.71424
▁turns	-9.71456
▁staying	-9.72014
▁rules	-9.72303
▁pets	-9.72553
▁everybodys	-9.72591
▁capital	-9.72604
▁due	-9.72679
▁gr	-9.72694
▁self	-9.74058
ut	-9.7437
ah	-9.74374
med	-9.74609
▁pi	-9.74682
led	-9.74769
ise	-9.75069
▁subject	-9.75148
▁arrive	-9.75154
▁luther	-9.7516
▁chair	-9.75274
▁pilot	-9.75295
▁meal	-9.75347
▁feather	-9.7538
▁crab	-9.75382
▁dawg	-9.75398
▁newspaper	-9.754
▁guard	-9.75421
▁amigo	-9.75427
▁cloud	-9.75438
▁creature	-9.75463
▁chuckle	-9.75518
▁nation	-9.75539
▁bone	-9.7557
▁vi	-9.75584
▁flower	-9.75609
▁what	-9.75661
▁begins	-9.75683
oohoo	-9.75693
ack	-9.75922
▁maid	-9.75954
rectly	-9.7612
ow	-9.76268
▁kings	-9.7627
▁skin	-9.76667
▁hiya	-9.76783
ur	-9.76848
▁whisper	-9.76957
▁grunt	-9.76985
▁request	-9.77066
▁represent	-9.77085
ancing	-9.77126
▁enter	-9.77172
que	-9.77177
▁pretend	-9.77231
▁compete	-9.7725
▁orders	-9.77262
hypnoti	-9.77266
▁bull	-9.77318
▁exact	-9.77363
▁par	-9.7739
mal	-9.77426
▁victor	-9.77459
▁punch	-9.77483
▁gentle	-9.77556
▁council	-9.77559
▁protest	-9.77576
▁succeed	-9.77579
▁acastus	-9.7758
▁budderball	-9.7758
▁chocolate	-9.7758
▁conflict	-9.7758
▁fraulein	-9.7758
▁gammoudi	-9.7758
▁glurp	-9.7758
▁hercules	-9.7758
▁inaudible	-9.7758
▁inquisition	-9.7758
▁knife	-9.7758
▁lemonade	-9.7758
▁nonenglish	-9.7758
▁program	-9.7758
▁quinceanera	-9.7758
▁rufus	-9.7758
▁salvatore	-9.7758
▁schmauss	-9.7758
▁shackelford	-9.7758
▁tunnel	-9.7758
▁turtle	-9.7758
▁diablo	-9.7758
▁seaweed	-9.7758
▁squawk	-9.7758
▁sweep	-9.7758
▁otherwise	-9.7758
▁lhc	-9.7758
▁relationship	-9.7758
▁mostly	-9.7758
▁auburn	-9.7758
▁french	-9.7758
▁harrison	-9.77581
▁memory	-9.77581
▁edge	-9.77581
▁terrific	-9.77581
▁rotten	-9.77582
▁memories	-9.77584
▁nowhere	-9.77584
▁attic	-9.77585
▁assistant	-9.77585
▁saving	-9.77586
▁eddie	-9.77587
▁product	-9.77587
▁babies	-9.7759
▁easier	-9.7759
▁craft	-9.77591
▁security	-9.77592
▁emergency	-9.77592
▁period	-9.77593
▁weekend	-9.77595
▁however	-9.77596
▁signature	-9.77597
▁conversation	-9.77599
▁rush	-9.77603
▁curry	-9.77604
▁wiggle	-9.77605
▁version	-9.77617
▁scene	-9.77617
▁inspector	-9.77617
▁dove	-9.77622
▁shore	-9.77622
▁hup	-9.77626
▁bowerman	-9.77627
▁constantine	-9.77634
▁award	-9.77641
▁smith	-9.77642
▁bored	-9.77645
▁gala	-9.7765
▁bath	-9.77654
▁exciting	-9.77663
▁curly	-9.77683
▁paid	-9.77684
▁dollart	-9.77707
▁wise	-9.77724
▁shoulder	-9.77781
▁swi	-9.77812
▁parties	-9.77893
▁aaah	-9.77915
▁madame	-9.77934
▁sled	-9.78
▁published	-9.78054
▁warn	-9.78093
▁ma	-9.78195
▁le	-9.78223
▁treated	-9.7824
▁burning	-9.78279
▁plant	-9.78435
▁chabots	-9.78622
▁li	-9.78689
▁boots	-9.78817
▁ch	-9.78849
▁cooking	-9.79015
▁glowing	-9.79036
os	-9.79057
▁kel	-9.79134
▁becom	-9.79153
▁weapons	-9.79192
▁praying	-9.79205
▁publish	-9.79236
▁pounds	-9.79393
▁behave	-9.79478
▁studying	-9.79481
▁embrace	-9.79484
▁counting	-9.79518
▁claims	-9.79568
▁coughs	-9.79591
▁guards	-9.79765
▁hearing	-9.7981
▁expecting	-9.79823
▁exists	-9.7997
▁roberts	-9.80047
▁males	-9.80187
▁depends	-9.80323
▁notes	-9.80705
▁crown	-9.80767
▁badly	-9.80774
▁inter	-9.80797
▁uhh	-9.80809
▁ding	-9.81014
▁hanging	-9.81101
im	-9.81272
▁forces	-9.81324
▁doctors	-9.81389
▁title	-9.81395
▁parks	-9.81668
▁hay	-9.81784
▁magnet	-9.81835
▁rip	-9.81893
▁bombs	-9.81945
▁mothers	-9.82104
▁du	-9.82538
▁bi	-9.82549
ho	-9.82756
▁col	-9.82991
▁keeping	-9.83
co	-9.83018
▁tip	-9.8315
▁er	-9.83154
▁cooke	-9.83384
▁ages	-9.83449
▁fail	-9.83768
▁cough	-9.83928
▁x	-9.83968
▁fi	-9.83982
▁claim	-9.84163
op	-9.84231
▁pineapple	-9.84237
▁costume	-9.84238
▁rose	-9.84261
▁target	-9.84361
▁equal	-9.84372
▁lawyer	-9.84406
▁chap	-9.84431
▁adventure	-9.84469
▁olympic	-9.84475
▁customer	-9.84498
▁sewer	-9.84528
▁yard	-9.84533
▁cage	-9.8455
▁musketeer	-9.84582
▁quarter	-9.84586
▁monkey	-9.84591
▁circle	-9.85053
▁flow	-9.8518
▁page	-9.85229
ver	-9.85278
▁bless	-9.85674
▁mass	-9.85845
▁lo	-9.85866
▁spread	-9.85953
▁launch	-9.85955
▁heal	-9.86083
▁stands	-9.86102
▁clair	-9.86175
▁attempt	-9.8618
▁wound	-9.86182
▁disappoint	-9.86205
▁intend	-9.86207
▁mix	-9.86237
▁steel	-9.86263
▁constant	-9.86296
▁disturb	-9.8631
▁harm	-9.86311
▁argue	-9.86372
▁mention	-9.86399
▁should	-9.86433
▁arrange	-9.86439
▁tooth	-9.86444
▁recognize	-9.86448
▁raise	-9.86458
▁threat	-9.86554
▁chose	-9.86618
▁alcohol	-9.86644
▁nothin	-9.86647
▁somethin	-9.86648
▁inform	-9.86657
▁mmmmmmmm	-9.8667
▁absurd	-9.8667
▁adorable	-9.8667
▁beauty	-9.8667
▁california	-9.8667
▁central	-9.8667
▁clamoring	-9.8667
▁companion	-9.8667
▁contact	-9.8667
▁dubovsky	-9.8667
▁elliot	-9.8667
▁genius	-9.8667
▁gertrude	-9.8667
▁intelligence	-9.8667
▁jeanmarc	-9.8667
▁lachman	-9.8667
▁lawrence	-9.8667
▁mcgirk	-9.8667
▁munroe	-9.8667
▁peanut	-9.8667
▁produce	-9.8667
▁silence	-9.8667
▁stewart	-9.8667
▁threw	-9.8667
▁twenty	-9.8667
▁vault	-9.8667
▁wharf	-9.8667
▁whimpers	-9.8667
▁byebye	-9.86671
▁thief	-9.86671
▁studied	-9.86671
▁stunned	-9.86671
▁bishop	-9.86671
▁trash	-9.86671
▁unhappy	-9.86671
▁yoyo	-9.86671
▁hylas	-9.86671
▁stingray	-9.86671
▁aloe	-9.86671
▁compare	-9.86671
▁buried	-9.86671
▁sermon	-9.86671
▁shade	-9.86672
▁cavalry	-9.86672
▁fascinating	-9.86672
▁therefore	-9.86672
▁friday	-9.86672
▁split	-9.86672
▁spanish	-9.86672
▁africanamerican	-9.86672
▁intention	-9.86672
▁itd	-9.86672
▁exclaim	-9.86672
▁academic	-9.86673
▁planning	-9.86673
▁source	-9.86673
▁katie	-9.86673
▁cities	-9.86675
▁task	-9.86676
▁warlock	-9.86676
▁kiki	-9.86677
▁airport	-9.86678
▁santa	-9.86682
▁ike	-9.86683
▁property	-9.86684
▁deck	-9.86684
▁confident	-9.86686
▁valuable	-9.86686
▁supply	-9.86686
▁popular	-9.86687
▁sammy	-9.86689
▁marshal	-9.86691
▁gentleman	-9.86692
▁sacr	-9.86699
▁dope	-9.86701
▁aside	-9.86701
▁howard	-9.86704
▁understood	-9.86712
▁forth	-9.86722
▁responsible	-9.86722
▁mall	-9.86724
▁determined	-9.86734
▁western	-9.86737
▁panic	-9.86738
▁cell	-9.86745
▁vaticanus	-9.86747
▁tickle	-9.86756
▁uhuh	-9.86769
▁candy	-9.86771
▁hopefully	-9.86785
▁practically	-9.8679
▁jespah	-9.86793
▁passion	-9.86812
▁wipe	-9.8682
▁ability	-9.86821
▁stone	-9.86831
▁gay	-9.86847
▁thrown	-9.8686
▁magical	-9.86889
▁whale	-9.86905
▁owl	-9.86906
▁sola	-9.86913
▁declared	-9.86942
▁counter	-9.86957
▁captured	-9.86984
▁millions	-9.86988
▁colchis	-9.86988
▁union	-9.86991
▁former	-9.86998
▁oughta	-9.87033
▁concerned	-9.87038
▁raised	-9.87073
▁softly	-9.87118
▁disappointed	-9.87124
▁leaves	-9.87164
▁squeaking	-9.87183
aaah	-9.87212
▁goya	-9.87216
▁closet	-9.87288
▁entirely	-9.87313
▁based	-9.87315
▁cu	-9.87403
▁eternal	-9.87465
▁subt	-9.8747
▁com	-9.87491
▁colored	-9.87512
▁ne	-9.87567
▁covered	-9.87609
▁communicate	-9.87637
back	-9.87697
lham	-9.87702
▁breathing	-9.87742
▁ay	-9.87754
▁sooner	-9.8778
▁era	-9.87944
▁accepted	-9.8799
▁secrets	-9.88012
▁searching	-9.8815
▁ln	-9.88157
▁sins	-9.88248
▁tub	-9.88649
▁vents	-9.88653
▁spare	-9.88769
▁sl	-9.88927
▁introduce	-9.89006
▁plants	-9.8907
▁clouds	-9.89074
ard	-9.89135
▁historical	-9.89498
▁listening	-9.89555
▁hated	-9.89559
▁peters	-9.89682
▁jo	-9.8976
fully	-9.90186
▁drinking	-9.90257
irring	-9.90334
▁heavens	-9.90567
▁all	-9.90743
alo	-9.90777
ious	-9.9088
▁nights	-9.91007
▁waited	-9.911
▁breaking	-9.91243
▁to	-9.91401
▁lookin	-9.91594
▁areas	-9.91619
ung	-9.91914
▁mutt	-9.92033
inner	-9.92798
▁falls	-9.92943
▁remove	-9.93158
▁needles	-9.93178
our	-9.93603
▁snap	-9.93641
▁block	-9.93775
▁fo	-9.9384
▁pound	-9.93889
▁pop	-9.93913
ging	-9.93929
ha	-9.94083
▁crime	-9.94236
▁center	-9.94387
▁strike	-9.94412
▁particle	-9.94538
▁impression	-9.94561
▁shoe	-9.9457
▁pup	-9.94615
▁closes	-9.9472
ring	-9.94819
▁brings	-9.94873
▁fort	-9.95046
▁tear	-9.95074
▁shop	-9.9519
▁understanding	-9.95233
▁fate	-9.95281
▁confirm	-9.95367
▁til	-9.95631
▁scar	-9.95754
▁zoo	-9.95775
ward	-9.95845
▁bound	-9.95896
▁vent	-9.95953
hand	-9.95983
▁cam	-9.96073
▁shout	-9.96096
▁roast	-9.96104
▁arrest	-9.96195
▁switch	-9.96205
house	-9.96272
▁thin	-9.9629
▁grant	-9.96297
▁distiller	-9.96359
▁propose	-9.96386
▁require	-9.96403
itles	-9.96415
▁scott	-9.96434
▁symbol	-9.96438
▁pronounce	-9.96456
▁physical	-9.96475
▁luk	-9.96495
▁tire	-9.96536
▁africa	-9.96586
▁ski	-9.96601
▁feelings	-9.96649
▁paris	-9.9665
▁dramatic	-9.96654
▁basket	-9.96667
▁preach	-9.96667
▁admiralty	-9.9667
▁behavior	-9.9667
▁cetera	-9.9667
▁daphne	-9.9667
▁definition	-9.9667
▁divorce	-9.9667
▁innocent	-9.9667
▁institute	-9.9667
▁intelligent	-9.9667
▁lightyear	-9.9667
▁mysterious	-9.9667
▁pleasure	-9.9667
▁portuguese	-9.9667
▁recess	-9.9667
▁screen	-9.9667
▁shrimp	-9.9667
▁syracuse	-9.9667
▁tanino	-9.9667
▁vacation	-9.9667
▁wealth	-9.9667
▁wreck	-9.9667
▁wrenn	-9.9667
▁zelda	-9.9667
▁bradshaw	-9.96671
▁complain	-9.96671
▁hidden	-9.96671
▁hydro	-9.96671
▁mercy	-9.96671
▁nigger	-9.96671
▁empire	-9.96671
▁tongue	-9.96671
▁wheedle	-9.96671
▁oxygen	-9.96671
▁sandwich	-9.96671
▁basic	-9.96671
▁doggy	-9.96671
▁hadnt	-9.96671
▁alert	-9.96672
▁autograph	-9.96672
▁plateau	-9.96672
▁reverend	-9.96672
▁permission	-9.96672
▁merry	-9.96672
▁sarge	-9.96672
▁charles	-9.96672
▁poison	-9.96673
▁simon	-9.96673
▁rye	-9.96674
▁glorious	-9.96676
▁noble	-9.96676
▁clock	-9.96677
▁verat	-9.96678
▁kibble	-9.96679
▁aware	-9.9668
▁carlos	-9.9668
▁gutter	-9.96682
▁fake	-9.96683
▁aboard	-9.96683
▁expose	-9.96683
▁appearance	-9.96684
▁families	-9.96684
▁dropped	-9.96684
▁apply	-9.96685
▁sold	-9.96687
▁eagle	-9.96687
▁underground	-9.96687
▁firm	-9.96688
▁max	-9.96688
▁yup	-9.96689
▁basically	-9.96689
▁beg	-9.96691
▁sentence	-9.96692
▁plus	-9.96697
▁grandmama	-9.96698
▁laurat	-9.96699
▁alcoholic	-9.96699
▁connection	-9.967
▁foolish	-9.96704
▁muk	-9.96705
▁johnny	-9.96706
▁darn	-9.96707
hales	-9.96718
▁bait	-9.9672
▁dying	-9.96723
▁wander	-9.96725
▁sacrifice	-9.96726
▁apologize	-9.96728
▁engaged	-9.96737
▁weight	-9.96743
▁forgery	-9.96747
▁ridge	-9.9675
▁media	-9.96759
▁darkness	-9.9678
▁data	-9.96787
▁bow	-9.96789
▁hung	-9.96797
▁tune	-9.96804
▁dish	-9.96813
▁rejected	-9.96838
▁refused	-9.96842
▁billion	-9.96847
▁mental	-9.96873
▁sock	-9.96907
▁carbonated	-9.96909
▁larger	-9.96964
▁bot	-9.97018
▁guts	-9.97021
▁masters	-9.97025
▁issue	-9.97032
▁shy	-9.97044
▁particularly	-9.97069
▁prepared	-9.97075
▁shorter	-9.97093
▁honking	-9.97107
▁latest	-9.97135
▁stake	-9.97166
▁dial	-9.97175
▁charming	-9.97241
▁elements	-9.97251
▁served	-9.97262
▁existed	-9.97279
na	-9.97299
▁mustnt	-9.9731
▁adopted	-9.97413
▁pretending	-9.97438
em	-9.97632
▁bleating	-9.97642
▁schedule	-9.9782
pher	-9.97912
▁twa	-9.97914
ably	-9.97933
▁cigarettes	-9.97944
▁coins	-9.97964
▁wing	-9.98
▁eggs	-9.98176
▁monks	-9.98176
▁runners	-9.98194
▁shine	-9.98201
▁speaks	-9.98211
ancy	-9.9833
▁y	-9.98335
▁barks	-9.98418
▁limits	-9.98433
▁tricks	-9.98503
▁reached	-9.98582
eth	-9.98629
▁mae	-9.98643
▁joined	-9.98719
▁image	-9.98875
▁kissing	-9.98929
▁americans	-9.99085
▁pages	-9.99098
▁quarters	-9.99115
▁sever	-9.99269
▁amigos	-9.99342
▁damage	-9.99453
▁interests	-9.99604
▁moo	-9.99716
▁efforts	-9.99811
▁clearly	-10.0003
▁cranes	-10.0006
▁caused	-10.0019
▁para	-10.0035
oh	-10.0045
▁finding	-10.006
▁landing	-10.0072
▁members	-10.0075
▁theo	-10.0076
▁machines	-10.0123
▁tro	-10.0129
▁tap	-10.0134
▁movies	-10.0146
rs	-10.0224
ated	-10.0232
▁as	-10.0259
▁wa	-10.0264
ping	-10.0278
▁ti	-10.0289
ted	-10.0291
▁pants	-10.0295
▁heading	-10.0321
▁apes	-10.0363
▁ri	-10.039
crowned	-10.0397
ize	-10.0402
tri	-10.0429
▁yell	-10.044
owned	-10.0442
▁au	-10.0448
▁stretch	-10.045
▁san	-10.0453
ev	-10.0461
▁ir	-10.0465
▁scout	-10.0478
▁placed	-10.0479
▁counts	-10.0487
▁drug	-10.0538
▁bowl	-10.054
▁anti	-10.0543
▁dollar	-10.0543
▁turk	-10.0544
▁sink	-10.0548
▁direction	-10.0551
▁doctrine	-10.0555
▁odd	-10.0558
▁ticket	-10.0559
▁weapon	-10.0564
ite	-10.0564
▁paw	-10.0565
▁nut	-10.0567
men	-10.0584
▁bat	-10.0586
▁prisoner	-10.0588
▁pr	-10.0594
▁driver	-10.0594
▁ca	-10.0604
▁grumbl	-10.0607
▁skip	-10.0607
gie	-10.0636
▁hearts	-10.0641
▁laws	-10.0653
▁hop	-10.0658
ope	-10.0664
▁concern	-10.0665
▁fill	-10.0672
ide	-10.0675
▁voices	-10.0677
▁dec	-10.0696
▁delight	-10.0711
▁herr	-10.0712
▁charm	-10.0716
▁squeak	-10.072
▁chew	-10.0722
▁dudes	-10.0725
▁accomplish	-10.0731
▁desert	-10.0733
▁dir	-10.0737
water	-10.0737
▁gain	-10.0738
off	-10.0739
▁los	-10.0741
▁crush	-10.0741
od	-10.0742
▁sneak	-10.0744
▁stayed	-10.075
▁brand	-10.075
▁separate	-10.075
▁guarantee	-10.0751
▁carbonate	-10.0752
rough	-10.0752
▁hypnotize	-10.0753
▁necessar	-10.0754
▁handsome	-10.0754
▁health	-10.0755
▁assume	-10.0755
▁thick	-10.0759
▁dirt	-10.076
▁electric	-10.0766
▁sweat	-10.0767
▁trans	-10.0769
▁heave	-10.0772
▁express	-10.0773
▁mmhm	-10.0776
▁success	-10.0776
▁connect	-10.0777
▁victim	-10.0778
▁distract	-10.0778
▁current	-10.0778
▁percent	-10.0778
▁affair	-10.0778
▁aircraft	-10.0778
▁appalled	-10.0778
▁attend	-10.0778
▁avoid	-10.0778
▁catherine	-10.0778
▁choir	-10.0778
▁comrade	-10.0778
▁congratulate	-10.0778
▁fierce	-10.0778
▁identify	-10.0778
▁jenkins	-10.0778
▁kirby	-10.0778
▁langham	-10.0778
▁macdonald	-10.0778
▁magrue	-10.0778
▁marriage	-10.0778
▁meadow	-10.0778
▁michael	-10.0778
▁monastery	-10.0778
▁shelter	-10.0778
▁similar	-10.0778
▁squeeze	-10.0778
▁territory	-10.0778
▁treason	-10.0778
▁tregelles	-10.0778
▁trigger	-10.0778
▁vehicle	-10.0778
▁yield	-10.0778
▁blew	-10.0778
▁donation	-10.0778
▁flew	-10.0778
▁jerk	-10.0778
▁drove	-10.0778
▁minus	-10.0778
▁cheap	-10.0778
▁essential	-10.0778
▁majesty	-10.0778
▁collision	-10.0778
▁disaster	-10.0778
▁parenthood	-10.0778
▁cattle	-10.0778
▁gallery	-10.0778
▁stroke	-10.0778
▁pills	-10.0778
▁conclusion	-10.0778
▁promot	-10.0778
▁screwnose	-10.0778
▁foul	-10.0778
▁orphanage	-10.0778
▁population	-10.0778
▁mixture	-10.0778
▁collar	-10.0778
▁failure	-10.0778
▁pablo	-10.0779
▁plague	-10.0779
▁rubber	-10.0779
▁intense	-10.0779
▁woke	-10.0779
▁literally	-10.0779
▁mmmhmm	-10.0779
▁noblerat	-10.0779
▁june	-10.0779
▁begun	-10.0779
▁comfortable	-10.0779
▁speedball	-10.0779
ffled	-10.0779
▁dummy	-10.078
▁apparently	-10.078
▁thessaly	-10.078
▁beach	-10.078
▁twixel	-10.078
▁repair	-10.078
▁collection	-10.078
▁role	-10.0781
▁hooray	-10.0781
▁freddie	-10.0781
▁contain	-10.0781
▁reaction	-10.0781
▁tank	-10.0782
▁detector	-10.0782
▁location	-10.0783
▁spunky	-10.0783
▁josh	-10.0783
▁reward	-10.0783
▁earlier	-10.0783
▁bread	-10.0783
▁woof	-10.0783
▁protestantism	-10.0783
▁patch	-10.0784
▁presence	-10.0784
▁coward	-10.0784
▁phil	-10.0784
▁chosen	-10.0785
▁surrounded	-10.0786
▁ouch	-10.0787
▁castle	-10.0787
▁justice	-10.0788
▁clark	-10.0788
▁secretary	-10.0789
▁rah	-10.079
▁down	-10.0796
▁frightened	-10.0797
▁bond	-10.0797
▁jesse	-10.0798
▁standard	-10.0798
▁weak	-10.0799
▁replaced	-10.0802
▁await	-10.0803
▁nest	-10.0803
▁napa	-10.0804
▁march	-10.0806
▁hopeless	-10.0807
▁mood	-10.0809
▁sets	-10.0814
▁designed	-10.0815
▁naturally	-10.0818
▁murdered	-10.0818
▁he	-10.0819
▁deserted	-10.0824
▁meantime	-10.0832
▁blessed	-10.0835
▁metal	-10.0837
▁wo	-10.0839
▁losing	-10.0843
les	-10.0852
▁escaped	-10.0852
▁armed	-10.0853
▁considered	-10.0862
▁warning	-10.0866
▁lower	-10.0867
▁slowly	-10.0872
▁sean	-10.0876
side	-10.0885
▁critics	-10.0896
▁oceans	-10.0898
▁cate	-10.0904
▁jumped	-10.0911
▁offered	-10.0922
▁fixed	-10.0922
▁puzzle	-10.0923
com	-10.0929
▁wast	-10.0933
dy	-10.0944
ned	-10.0945
▁skullners	-10.0948
▁lu	-10.0967
▁soldiers	-10.0974
der	-10.0974
▁rolling	-10.0976
▁amor	-10.0979
weak	-10.0982
ative	-10.0995
▁filmed	-10.0999
ot	-10.1004
▁falling	-10.1005
▁ass	-10.1022
▁jos	-10.1043
▁yards	-10.105
vi	-10.1064
▁mai	-10.1085
▁fe	-10.1103
▁documents	-10.1107
▁preserve	-10.1111
▁flip	-10.1117
son	-10.1144
fa	-10.1146
red	-10.1147
▁u	-10.1159
▁staring	-10.1182
ius	-10.1196
▁barn	-10.1197
▁elsas	-10.1211
no	-10.1212
▁hiss	-10.1222
▁reasons	-10.1223
my	-10.1239
▁earl	-10.1258
▁becomes	-10.1258
ans	-10.1263
ak	-10.1293
▁den	-10.1295
▁powers	-10.13
▁for	-10.1329
▁pulling	-10.1334
▁ram	-10.1338
▁cats	-10.1343
▁villages	-10.1345
x	-10.137
remi	-10.1376
▁mighty	-10.1381
ir	-10.1413
▁watched	-10.1418
▁dreaming	-10.1428
▁jobs	-10.1435
un	-10.1438
▁votes	-10.1454
ory	-10.1479
ept	-10.1482
▁player	-10.1505
▁clues	-10.1506
▁rains	-10.151
▁accus	-10.1541
▁gra	-10.1592
▁tr	-10.1594
▁mat	-10.1595
▁franks	-10.1607
berry	-10.1649
▁inc	-10.1679
tion	-10.1681
▁coo	-10.1698
▁cases	-10.1714
ming	-10.1757
▁bark	-10.1758
▁limit	-10.1763
ations	-10.1779
▁uniform	-10.1784
▁chances	-10.1787
▁fa	-10.1795
▁chemical	-10.1795
▁debate	-10.1795
▁benefit	-10.1797
▁term	-10.1799
▁rand	-10.18
▁trace	-10.18
▁drum	-10.18
▁map	-10.1801
▁temperature	-10.1801
ya	-10.1803
▁condition	-10.1803
▁saint	-10.1809
▁creak	-10.181
▁soldier	-10.1812
▁student	-10.1817
▁finger	-10.182
▁manner	-10.1831
▁hum	-10.1849
▁hug	-10.1854
be	-10.1856
ship	-10.1858
▁hu	-10.187
▁wheel	-10.1873
▁youth	-10.1875
▁hates	-10.1878
▁rate	-10.1885
▁sin	-10.1888
▁pee	-10.1905
▁killer	-10.1918
▁arch	-10.1933
▁dive	-10.1936
▁commission	-10.1938
▁alarm	-10.195
▁demand	-10.196
▁pour	-10.1961
looking	-10.1963
▁borrow	-10.1972
▁citizen	-10.1978
▁murder	-10.1983
▁shoo	-10.199
like	-10.1992
▁melt	-10.1995
fire	-10.1999
what	-10.1999
▁tax	-10.2
john	-10.2
▁release	-10.2002
beat	-10.2002
▁provide	-10.2003
▁peaceful	-10.2003
▁remembered	-10.2004
▁official	-10.2005
▁invite	-10.2007
furt	-10.2009
▁sal	-10.2011
▁potato	-10.2019
▁inspect	-10.2023
▁raci	-10.2024
▁interrupt	-10.2024
▁confess	-10.2025
▁locat	-10.2025
▁clarinet	-10.2026
▁pentecostal	-10.2027
▁tibet	-10.2028
▁legend	-10.2028
▁respond	-10.2028
▁supremac	-10.2028
▁antitoxin	-10.2028
▁appointment	-10.2028
▁available	-10.2028
▁bannister	-10.2028
▁bargain	-10.2028
▁bubbly	-10.2028
▁coincidence	-10.2028
▁condemned	-10.2028
▁confidence	-10.2028
▁crabtree	-10.2028
▁deputy	-10.2028
▁dictionary	-10.2028
▁equipment	-10.2028
▁eventually	-10.2028
▁exhausted	-10.2028
▁geko	-10.2028
▁gunshot	-10.2028
▁hecate	-10.2028
▁japanese	-10.2028
▁joffrey	-10.2028
▁jupiter	-10.2028
▁kardong	-10.2028
▁liquid	-10.2028
▁lonesome	-10.2028
▁maggie	-10.2028
▁monsieur	-10.2028
▁munich	-10.2028
▁nephew	-10.2028
▁nyima	-10.2028
▁paradise	-10.2028
▁pizza	-10.2028
▁ralph	-10.2028
▁shawn	-10.2028
▁smash	-10.2028
▁sunshine	-10.2028
▁superhero	-10.2028
▁swallow	-10.2028
▁temple	-10.2028
▁tobin	-10.2028
▁unknown	-10.2028
▁upstairs	-10.2028
▁virgil	-10.2028
▁wescott	-10.2028
▁annoy	-10.2028
▁phenomenal	-10.2028
▁piano	-10.2028
▁prevent	-10.2028
▁prior	-10.2028
▁swimmies	-10.2028
▁tower	-10.2028
▁wicked	-10.2028
▁harmony	-10.2028
▁snub	-10.2028
▁coast	-10.2028
▁desperate	-10.2028
▁complex	-10.2028
▁oxford	-10.2028
▁illegal	-10.2028
▁natty	-10.2028
▁telegraph	-10.2028
▁someplace	-10.2028
▁spook	-10.2028
▁committee	-10.2028
▁delicate	-10.2028
▁reputation	-10.2028
▁stood	-10.2028
▁sobbing	-10.2028
▁transport	-10.2028
▁conservation	-10.2028
▁melod	-10.2028
▁eohippus	-10.2028
▁smack	-10.2028
▁anytime	-10.2028
▁corrections	-10.2028
▁glory	-10.2028
▁nuru	-10.2028
▁communication	-10.2028
▁resist	-10.2029
▁rache	-10.2029
▁caution	-10.2029
▁leap	-10.2029
▁tbone	-10.2029
▁baseball	-10.2029
▁assure	-10.2029
▁trapped	-10.2029
▁raid	-10.2029
▁radar	-10.2029
▁amazon	-10.2029
▁centre	-10.2029
▁lips	-10.2029
▁oui	-10.2029
▁preston	-10.2029
▁relay	-10.2029
▁chop	-10.2029
▁insane	-10.2029
▁height	-10.2029
▁underwater	-10.2029
▁noah	-10.2029
▁department	-10.203
▁remark	-10.203
▁stress	-10.203
▁neil	-10.203
▁heavily	-10.203
▁corral	-10.203
▁wildlife	-10.203
▁nome	-10.203
▁development	-10.203
▁opposed	-10.203
▁acquired	-10.203
▁pasture	-10.203
▁petition	-10.203
▁throne	-10.203
▁swear	-10.203
▁beam	-10.203
▁string	-10.2031
▁whoopdedooper	-10.2031
▁liar	-10.2031
▁palden	-10.2031
▁slide	-10.2031
▁species	-10.2031
▁zip	-10.2031
▁beak	-10.2031
▁slurp	-10.2032
▁model	-10.2032
▁pink	-10.2032
▁alike	-10.2032
▁rio	-10.2032
▁hank	-10.2032
▁dozen	-10.2032
▁mick	-10.2033
▁exercise	-10.2033
▁grave	-10.2033
▁apartment	-10.2033
▁cabin	-10.2033
▁medal	-10.2033
▁laid	-10.2033
▁happier	-10.2034
▁halfway	-10.2035
▁anna	-10.2035
▁parish	-10.2036
▁tango	-10.2036
▁skies	-10.2037
▁wire	-10.2038
▁winni	-10.2038
▁bouncing	-10.2038
▁drier	-10.2038
▁grain	-10.2038
▁friendship	-10.2039
▁off	-10.2039
▁unfortunately	-10.2039
▁twist	-10.2039
▁dishes	-10.2039
▁protection	-10.204
▁coat	-10.2041
▁echoing	-10.2041
▁jessie	-10.2041
▁haha	-10.2042
▁active	-10.2042
▁doin	-10.2042
▁sec	-10.2044
▁stock	-10.2045
▁exhales	-10.2046
▁hut	-10.2046
▁gravity	-10.2047
▁dolly	-10.2048
▁sighing	-10.205
▁ob	-10.2051
▁jr	-10.2054
▁buster	-10.2054
▁vow	-10.2055
ition	-10.2055
▁glasses	-10.2057
▁snor	-10.2058
▁ray	-10.2058
rian	-10.2059
▁guaranteed	-10.2059
▁believers	-10.2059
▁abandoned	-10.2062
▁revealed	-10.2062
▁required	-10.2062
▁congress	-10.2064
▁sucker	-10.2065
▁victory	-10.2067
▁arranged	-10.2069
▁core	-10.2073
▁bully	-10.2075
▁bump	-10.2075
▁quest	-10.2078
▁emotional	-10.2079
▁foundation	-10.208
▁gained	-10.208
▁beth	-10.2084
▁oy	-10.2087
▁mixed	-10.2093
▁gettin	-10.2094
uel	-10.2097
▁hoot	-10.2098
▁neuros	-10.2102
▁snapp	-10.2106
▁burned	-10.2107
▁shirt	-10.211
▁washed	-10.2111
▁mac	-10.2112
▁why	-10.2112
▁tent	-10.2121
▁crossed	-10.2124
▁agreed	-10.2129
▁cents	-10.2131
▁aye	-10.2133
▁tied	-10.2133
▁rented	-10.2134
▁swam	-10.2136
▁ser	-10.214
▁wishes	-10.2141
▁tale	-10.2141
▁cracking	-10.2148
▁dancer	-10.2155
▁bend	-10.2158
▁shown	-10.2161
▁screeching	-10.2162
where	-10.2163
▁ske	-10.2195
▁gal	-10.2195
▁sons	-10.2198
ter	-10.2199
▁toes	-10.2203
▁safely	-10.2204
ol	-10.2211
ress	-10.2217
▁females	-10.2222
▁individuals	-10.2222
ip	-10.2227
ux	-10.224
▁marks	-10.2252
▁offering	-10.2258
▁dollars	-10.2282
▁trained	-10.2287
dys	-10.231
▁hip	-10.2313
▁bite	-10.2315
ile	-10.2315
ng	-10.2319
▁moves	-10.2322
▁visited	-10.2323
nose	-10.2332
▁sites	-10.2334
▁trusted	-10.2341
▁sewers	-10.2343
▁dawgs	-10.2372
▁newspapers	-10.2372
▁pan	-10.2376
▁meowing	-10.238
▁fac	-10.2385
ore	-10.2389
ca	-10.239
▁training	-10.239
▁hera	-10.2406
▁passing	-10.2417
▁iii	-10.2439
▁facts	-10.2451
▁pin	-10.2461
▁beliefs	-10.2463
ten	-10.2477
▁seats	-10.2507
▁remov	-10.2515
▁br	-10.2515
me	-10.2517
ork	-10.2533
ny	-10.2539
▁dreamed	-10.2555
▁checked	-10.2556
▁knees	-10.2584
▁lions	-10.2586
king	-10.2595
ome	-10.2613
▁ordered	-10.2626
▁sat	-10.2634
▁headed	-10.2634
yes	-10.2637
▁sel	-10.2692
ists	-10.2701
▁remains	-10.271
von	-10.2719
rry	-10.2749
▁su	-10.2752
▁rhythm	-10.2754
▁ga	-10.2761
▁dealing	-10.2777
za	-10.2798
ible	-10.2837
▁tracks	-10.2842
▁card	-10.2847
▁schools	-10.2852
▁tin	-10.2876
ro	-10.2885
ational	-10.2892
▁rag	-10.2911
ens	-10.2918
▁examine	-10.293
ner	-10.2934
and	-10.3036
▁leaders	-10.3045
vast	-10.3053
▁signs	-10.3064
gg	-10.3082
▁an	-10.3084
▁deals	-10.3099
▁hurts	-10.3101
tin	-10.3102
ez	-10.3105
▁crews	-10.312
▁owners	-10.3138
▁talks	-10.3143
▁windows	-10.3177
▁you	-10.318
oses	-10.3182
▁appear	-10.3183
▁bla	-10.3184
▁slam	-10.3185
mber	-10.3211
▁pocket	-10.3211
▁girlfriend	-10.3213
▁institution	-10.3213
▁minister	-10.3213
▁error	-10.3214
▁detective	-10.3225
▁dat	-10.3225
▁submersible	-10.323
▁william	-10.323
▁despi	-10.3232
▁coon	-10.3236
▁degree	-10.3237
▁tu	-10.3237
▁female	-10.3238
▁individual	-10.3238
▁skullner	-10.324
▁director	-10.324
▁monk	-10.3242
▁boot	-10.3242
▁egg	-10.3243
ba	-10.3246
▁elephant	-10.3246
▁runner	-10.3249
▁pol	-10.3301
▁speller	-10.3304
▁rub	-10.3315
▁dime	-10.3328
▁hats	-10.3334
▁qua	-10.3347
▁wrap	-10.3349
▁te	-10.3355
ger	-10.3363
▁prefer	-10.3364
▁junk	-10.3365
▁rot	-10.3368
▁bloom	-10.3369
▁cares	-10.3377
field	-10.3385
▁perform	-10.3385
▁access	-10.3389
▁musical	-10.3394
▁honk	-10.3396
ball	-10.3408
▁angel	-10.341
▁crap	-10.3411
▁design	-10.3411
▁reserve	-10.3413
▁suck	-10.3418
place	-10.3425
▁moonshine	-10.3426
▁wel	-10.3429
called	-10.3431
▁chips	-10.3432
▁bou	-10.3435
▁unlike	-10.3437
▁bum	-10.3443
▁rottenmei	-10.3445
▁awake	-10.3445
▁dang	-10.3449
▁confession	-10.3451
▁doug	-10.3451
▁replace	-10.3452
▁contract	-10.3453
away	-10.3453
ordinary	-10.3456
solati	-10.3456
▁straw	-10.3457
minent	-10.3457
▁loopdeloop	-10.3457
▁anglican	-10.3457
▁april	-10.3457
▁argument	-10.3457
▁atlanta	-10.3457
▁average	-10.3457
▁background	-10.3457
▁baratheon	-10.3457
▁bonnie	-10.3457
▁bullseye	-10.3457
▁burrito	-10.3457
▁cabotinage	-10.3457
▁candidate	-10.3457
▁challenging	-10.3457
▁cheek	-10.3457
▁chihuahua	-10.3457
▁client	-10.3457
▁destruction	-10.3457
▁donkey	-10.3457
▁downstairs	-10.3457
▁drift	-10.3457
▁eeyore	-10.3457
▁fabulous	-10.3457
▁fernfield	-10.3457
▁furnace	-10.3457
▁gauchito	-10.3457
▁genevieve	-10.3457
▁genya	-10.3457
▁hammond	-10.3457
▁herbs	-10.3457
▁international	-10.3457
▁jellybelly	-10.3457
▁jungle	-10.3457
▁kallinikos	-10.3457
▁lamb	-10.3457
▁lecture	-10.3457
▁liberty	-10.3457
▁matthew	-10.3457
▁peculiar	-10.3457
▁plumpingham	-10.3457
▁pluto	-10.3457
▁practising	-10.3457
▁reboux	-10.3457
▁register	-10.3457
▁repetiteur	-10.3457
▁responsibility	-10.3457
▁rubbish	-10.3457
▁schoepp	-10.3457
▁scoop	-10.3457
▁serengeti	-10.3457
▁sphinx	-10.3457
▁squirrel	-10.3457
▁struggling	-10.3457
▁surgery	-10.3457
▁suspicious	-10.3457
▁tremendous	-10.3457
▁ultimate	-10.3457
▁verdict	-10.3457
▁whistling	-10.3457
▁worries	-10.3457
▁applied	-10.3457
▁article	-10.3457
▁conrad	-10.3457
▁flesh	-10.3457
▁headache	-10.3457
▁iove	-10.3457
▁liberal	-10.3457
▁nevertheless	-10.3457
▁toast	-10.3457
▁flag	-10.3457
▁kevin	-10.3457
▁microphone	-10.3457
▁medea	-10.3457
▁proceed	-10.3457
▁symp	-10.3457
▁goddess	-10.3457
▁interpret	-10.3457
▁italy	-10.3457
▁minorities	-10.3457
▁carried	-10.3457
▁electronic	-10.3457
▁option	-10.3457
▁scramble	-10.3457
▁higgins	-10.3457
▁lucille	-10.3457
▁mumbles	-10.3457
▁scotch	-10.3457
▁proposition	-10.3457
▁generous	-10.3457
▁policy	-10.3457
▁resign	-10.3457
▁doomed	-10.3457
▁dixie	-10.3457
▁column	-10.3457
▁whining	-10.3457
▁herd	-10.3457
▁salsa	-10.3457
▁jolly	-10.3457
▁spray	-10.3457
▁fetch	-10.3457
▁radiation	-10.3457
▁overnight	-10.3457
▁arrangements	-10.3457
▁frozen	-10.3457
▁slipped	-10.3457
▁quince	-10.3457
▁grief	-10.3457
▁pony	-10.3458
▁revision	-10.3458
▁stray	-10.3458
▁chat	-10.3458
▁closing	-10.3458
▁cherries	-10.3458
▁review	-10.3458
▁whoooa	-10.3458
▁aliooper	-10.3458
▁potential	-10.3458
▁admitted	-10.3458
▁touchdown	-10.3458
▁initial	-10.3458
▁regardless	-10.3458
▁hyah	-10.3458
▁olive	-10.3458
▁classroom	-10.3458
▁starving	-10.3458
▁rowdy	-10.3458
▁outrageous	-10.3458
▁declare	-10.3458
▁attitude	-10.3458
▁dirk	-10.3458
▁existence	-10.3459
▁chamber	-10.3459
▁reliable	-10.3459
▁firewood	-10.3459
▁leadership	-10.3459
▁labor	-10.3459
▁sundown	-10.3459
▁juice	-10.3459
▁buff	-10.346
▁funding	-10.346
▁massive	-10.346
▁rack	-10.346
▁microbes	-10.346
▁technology	-10.346
▁sara	-10.346
▁nasty	-10.346
▁committed	-10.3461
▁minority	-10.3461
▁doggone	-10.3461
▁drill	-10.3462
▁moore	-10.3462
▁mirage	-10.3462
▁alien	-10.3462
▁exception	-10.3463
▁portal	-10.3463
▁stream	-10.3464
▁shift	-10.3464
▁angeles	-10.3465
▁changing	-10.3465
▁passage	-10.3465
leton	-10.3465
▁funds	-10.3466
▁bitter	-10.3466
▁faithful	-10.3468
▁anger	-10.3468
▁sickle	-10.3468
▁fu	-10.3468
▁transform	-10.3469
▁senator	-10.3469
▁jc	-10.3471
▁ahem	-10.3471
▁trickortreating	-10.3472
▁jam	-10.3474
▁drowning	-10.3474
▁publication	-10.3475
▁stopping	-10.3475
▁acre	-10.3475
▁pump	-10.3475
▁gear	-10.3476
▁supplies	-10.3476
▁rocket	-10.3479
▁lack	-10.3479
▁managed	-10.348
▁fold	-10.3481
▁convert	-10.3481
▁threatened	-10.3482
▁whee	-10.3483
▁officially	-10.3484
▁spit	-10.3484
▁playtime	-10.3484
uck	-10.3485
▁blown	-10.3488
▁defeated	-10.3489
▁shocked	-10.3489
▁earned	-10.349
▁site	-10.3494
▁bah	-10.3495
▁oven	-10.3496
▁suffered	-10.3496
▁developed	-10.3496
▁grounds	-10.3497
ps	-10.3499
▁cheat	-10.3501
▁sealed	-10.3503
▁angle	-10.3503
▁instruments	-10.3509
▁taxi	-10.351
▁noon	-10.351
▁returns	-10.3512
▁impressed	-10.3513
▁challenged	-10.3514
▁fir	-10.3517
▁originally	-10.3518
▁musher	-10.352
▁goose	-10.3525
▁systems	-10.3531
▁growl	-10.3531
▁intended	-10.3532
▁manual	-10.3533
▁popes	-10.354
▁mussels	-10.3544
▁documented	-10.3548
▁shower	-10.3549
▁pounding	-10.3553
▁kicked	-10.3556
▁bay	-10.3559
▁jewel	-10.356
▁healing	-10.3562
▁blessing	-10.3563
ghi	-10.3566
▁event	-10.3572
▁cock	-10.3578
▁cousins	-10.3578
▁smaller	-10.3579
▁personally	-10.358
▁reported	-10.3593
▁discovering	-10.3593
▁twi	-10.3595
pe	-10.3596
▁winds	-10.3598
▁drawing	-10.3611
val	-10.3612
▁considering	-10.3613
ongo	-10.3619
▁musicians	-10.3625
ose	-10.3631
ether	-10.3637
▁tucker	-10.3642
▁kit	-10.3643
▁non	-10.3644
▁rube	-10.3645
▁values	-10.3647
▁scientists	-10.3647
▁dragons	-10.3648
ri	-10.3653
▁allie	-10.3657
▁packed	-10.3663
▁seek	-10.3667
▁degrees	-10.3682
▁pole	-10.3696
▁cards	-10.3702
▁fatal	-10.3705
▁manor	-10.3713
▁cleaning	-10.3715
▁saints	-10.3717
▁manners	-10.3717
▁enjoyed	-10.3727
▁cas	-10.3731
▁measure	-10.3732
▁recorded	-10.3734
voya	-10.3751
▁tickets	-10.3752
pped	-10.3755
▁odds	-10.3755
▁corn	-10.3755
▁tears	-10.3788
▁owner	-10.3789
▁ward	-10.379
▁traditional	-10.3801
cious	-10.3811
▁cages	-10.3822
▁adventures	-10.3822
▁olympics	-10.3822
▁customers	-10.3823
▁brag	-10.3832
ja	-10.3849
▁now	-10.3855
▁dies	-10.3855
▁feathers	-10.3858
▁crabs	-10.3858
▁reaching	-10.386
▁arrives	-10.3862
▁yearn	-10.3871
▁devils	-10.3893
▁fed	-10.391
▁corners	-10.3918
▁magneti	-10.3929
ata	-10.393
▁ducks	-10.393
▁hike	-10.3931
▁lessons	-10.3934
j	-10.3936
atto	-10.3937
▁gardens	-10.3964
▁bets	-10.3966
▁benj	-10.3984
▁ge	-10.3986
▁cann	-10.3992
▁cans	-10.4026
▁horns	-10.4035
▁ar	-10.4063
▁curse	-10.4064
▁gates	-10.4071
▁berniers	-10.4071
▁groups	-10.4071
▁cooling	-10.4097
▁leads	-10.4103
▁moments	-10.4123
▁hoped	-10.4138
▁chirus	-10.4143
▁picking	-10.4175
▁rivers	-10.4179
am	-10.4185
▁traditions	-10.4188
▁sides	-10.4191
▁fen	-10.4198
▁stops	-10.4201
▁partners	-10.4215
▁levels	-10.4251
▁asks	-10.4259
▁ham	-10.4266
▁stripe	-10.4268
▁career	-10.427
▁priests	-10.4287
▁hid	-10.4313
ns	-10.4316
▁sex	-10.4327
end	-10.4338
▁abe	-10.434
▁knowing	-10.4355
▁sails	-10.441
▁litera	-10.4418
▁lights	-10.4421
di	-10.4424
▁forgett	-10.444
tzer	-10.4443
ola	-10.4446
▁exc	-10.4451
▁eats	-10.4474
▁figures	-10.4474
▁gin	-10.4483
reign	-10.4498
atali	-10.4531
▁van	-10.4531
▁bon	-10.4536
ki	-10.4545
ological	-10.4547
▁rep	-10.4547
▁am	-10.4554
ppy	-10.4563
▁prov	-10.4566
▁ve	-10.4586
ach	-10.4593
▁matters	-10.4596
▁turning	-10.4615
▁worrying	-10.4624
▁bas	-10.4625
rie	-10.4634
▁faces	-10.4652
ped	-10.4656
▁annabels	-10.4665
▁spa	-10.4682
▁pt	-10.4686
you	-10.4692
▁flora	-10.4701
▁lou	-10.4704
pt	-10.4705
▁grows	-10.4716
▁shots	-10.4728
ler	-10.4743
▁freeze	-10.4745
ue	-10.4764
▁sings	-10.4769
▁bibles	-10.4769
lo	-10.477
head	-10.4788
▁sta	-10.4797
▁stan	-10.4825
▁addition	-10.4841
she	-10.4841
▁patient	-10.485
ked	-10.4863
▁profit	-10.4879
▁defense	-10.4883
▁file	-10.4887
old	-10.4888
▁restaurant	-10.489
▁method	-10.489
▁nerve	-10.489
▁beast	-10.489
▁historian	-10.489
▁include	-10.4892
▁swa	-10.4894
▁hackamaw	-10.4896
▁bottle	-10.4896
▁photo	-10.4897
▁holiday	-10.49
▁flame	-10.4902
▁scientist	-10.4903
▁dragon	-10.4904
▁chick	-10.4905
▁value	-10.4906
▁advanc	-10.4907
▁cigarette	-10.4908
▁chabot	-10.4909
▁presidents	-10.4916
▁sale	-10.4921
▁bean	-10.4928
▁bake	-10.4933
▁toe	-10.4934
ka	-10.4946
▁streets	-10.4954
gen	-10.4963
▁prayer	-10.4964
▁coin	-10.4966
▁mon	-10.4967
▁fond	-10.4967
▁sinai	-10.4969
▁hopes	-10.4977
▁the	-10.5
▁develop	-10.5003
▁suffer	-10.5005
▁reveal	-10.5013
▁gl	-10.5019
▁cult	-10.5024
▁spin	-10.5025
▁cancel	-10.5027
▁rang	-10.5034
sion	-10.5038
▁meter	-10.5046
▁steps	-10.5057
▁ang	-10.506
▁grasp	-10.5067
▁breach	-10.5067
scope	-10.5068
▁collect	-10.5071
▁suspect	-10.5072
▁abandon	-10.5078
▁scratch	-10.508
just	-10.5082
hood	-10.5084
def	-10.509
▁medica	-10.509
▁increase	-10.5091
powder	-10.5091
▁minds	-10.5093
▁acknowledge	-10.5093
▁deceive	-10.5094
yearold	-10.5094
▁print	-10.5094
▁celebrate	-10.5095
ability	-10.5095
▁describe	-10.5095
▁brush	-10.5095
cliff	-10.5095
white	-10.5096
▁chill	-10.5096
master	-10.5097
▁solve	-10.5097
▁gravit	-10.5098
▁fift	-10.5098
▁precise	-10.5099
▁silk	-10.51
▁practical	-10.5101
▁immediate	-10.5101
▁doll	-10.5103
▁operate	-10.5106
▁terribl	-10.5109
easy	-10.5112
▁actual	-10.5112
▁mystic	-10.5114
▁constitution	-10.5115
▁tex	-10.5118
▁blaze	-10.5119
▁jig	-10.5121
▁marvel	-10.5121
▁sixteen	-10.5122
stone	-10.5122
▁habit	-10.5123
▁respons	-10.5123
▁yahoo	-10.5123
▁telepath	-10.5123
▁aeetes	-10.5123
▁anthony	-10.5123
▁appaloosa	-10.5123
▁aquacade	-10.5123
▁argonauts	-10.5123
▁ashamed	-10.5123
▁barricade	-10.5123
▁boyfriend	-10.5123
▁campaign	-10.5123
▁carroll	-10.5123
▁centaur	-10.5123
▁chimney	-10.5123
▁chittering	-10.5123
▁complicated	-10.5123
▁concannon	-10.5123
▁conclude	-10.5123
▁cortez	-10.5123
▁depth	-10.5123
▁dudley	-10.5123
▁emperor	-10.5123
▁enormous	-10.5123
▁escort	-10.5123
▁explanation	-10.5123
▁explode	-10.5123
▁exploration	-10.5123
▁florida	-10.5123
▁francisco	-10.5123
▁fruitcake	-10.5123
▁gablegobble	-10.5123
▁gwangi	-10.5123
▁hebrew	-10.5123
▁helsinki	-10.5123
▁hermes	-10.5123
▁insult	-10.5123
▁jackpot	-10.5123
▁kennedy	-10.5123
▁ladida	-10.5123
▁landscape	-10.5123
▁license	-10.5123
▁logorrhea	-10.5123
▁maintenance	-10.5123
▁manahateen	-10.5123
▁migration	-10.5123
▁opposite	-10.5123
▁paisley	-10.5123
▁pheasant	-10.5123
▁phillip	-10.5123
▁phineas	-10.5123
▁primate	-10.5123
▁profile	-10.5123
▁recruit	-10.5123
▁reincarnation	-10.5123
▁revenge	-10.5123
▁salvation	-10.5123
▁shaff	-10.5123
▁silent	-10.5123
▁skate	-10.5123
▁stereo	-10.5123
▁stomach	-10.5123
▁stride	-10.5123
▁struck	-10.5123
▁television	-10.5123
▁thieves	-10.5123
▁toilet	-10.5123
▁tribe	-10.5123
▁tuesday	-10.5123
▁volvo	-10.5123
▁whiskey	-10.5123
▁yippee	-10.5123
▁anchor	-10.5123
▁applaud	-10.5123
▁austin	-10.5123
▁darjeel	-10.5123
▁domestic	-10.5123
▁identity	-10.5123
▁lease	-10.5123
▁mirror	-10.5123
▁purchase	-10.5123
▁stories	-10.5123
▁theater	-10.5123
▁wolfsbottom	-10.5123
▁crust	-10.5123
▁resume	-10.5123
▁primar	-10.5123
▁voyage	-10.5123
▁prediction	-10.5123
▁addict	-10.5123
▁banquet	-10.5123
▁garbage	-10.5123
▁susie	-10.5123
▁rehab	-10.5123
▁giddap	-10.5123
▁skills	-10.5123
▁spectacular	-10.5123
▁gibbons	-10.5123
▁margar	-10.5123
▁perkins	-10.5123
▁rookie	-10.5123
▁aristo	-10.5124
▁barbarian	-10.5124
▁splendid	-10.5124
▁morris	-10.5124
▁favourite	-10.5124
▁yelp	-10.5124
▁carries	-10.5124
▁accurate	-10.5124
▁salmon	-10.5124
▁saloon	-10.5124
▁denham	-10.5124
▁gratitude	-10.5124
▁chalk	-10.5124
▁inquiry	-10.5124
▁urgent	-10.5124
▁adios	-10.5124
▁golf	-10.5124
▁negro	-10.5124
▁freckles	-10.5124
▁tempt	-10.5124
▁curious	-10.5124
▁sansa	-10.5124
▁desk	-10.5124
▁glide	-10.5124
▁oath	-10.5124
▁corporat	-10.5124
▁device	-10.5124
▁select	-10.5124
▁federal	-10.5124
▁caramba	-10.5124
▁blair	-10.5124
▁punish	-10.5124
▁hmph	-10.5124
▁ambition	-10.5124
▁crisis	-10.5124
▁vision	-10.5124
▁foam	-10.5124
▁hind	-10.5124
▁palomar	-10.5124
▁scour	-10.5124
▁drunk	-10.5124
▁imagination	-10.5124
▁broad	-10.5124
▁vicious	-10.5124
▁pep	-10.5124
▁chapter	-10.5124
▁zach	-10.5125
▁effective	-10.5125
▁dick	-10.5125
▁bucket	-10.5125
▁morton	-10.5125
▁forgeries	-10.5125
▁stove	-10.5125
▁agnes	-10.5125
▁contribution	-10.5125
▁witch	-10.5125
▁volume	-10.5125
▁mere	-10.5125
▁ripped	-10.5125
▁chopper	-10.5125
▁ju	-10.5125
▁dickie	-10.5126
▁pooch	-10.5126
▁testimony	-10.5126
▁gene	-10.5126
▁attraction	-10.5126
▁election	-10.5126
▁daily	-10.5126
▁evolution	-10.5126
▁happily	-10.5126
▁magnificent	-10.5126
▁bodies	-10.5127
▁plate	-10.5127
▁ladder	-10.5127
▁oil	-10.5127
▁joan	-10.5128
▁apostle	-10.5128
▁importance	-10.5128
▁apple	-10.5128
rney	-10.5128
▁villain	-10.5129
▁steer	-10.5129
▁happie	-10.5129
▁survival	-10.5129
▁significant	-10.513
▁theological	-10.513
▁pace	-10.513
▁ugly	-10.5131
▁yum	-10.5131
▁satan	-10.5131
▁ranch	-10.5131
▁carson	-10.5131
▁cern	-10.5131
▁bolder	-10.5132
▁footage	-10.5132
▁masterson	-10.5132
▁homicide	-10.5132
▁salt	-10.5132
▁relative	-10.5133
▁funnies	-10.5133
▁but	-10.5133
▁demon	-10.5133
▁sunlight	-10.5133
▁aww	-10.5134
▁educated	-10.5134
▁tut	-10.5134
▁vip	-10.5134
▁creepy	-10.5135
▁strawberry	-10.5136
▁heroic	-10.5136
▁agent	-10.5137
▁beings	-10.5138
▁git	-10.5139
▁recently	-10.5139
▁overflow	-10.5139
▁spoken	-10.514
▁slinky	-10.514
▁lean	-10.514
▁stack	-10.5141
▁advised	-10.5141
▁halt	-10.5141
▁cove	-10.5141
▁link	-10.5143
▁established	-10.5145
▁useful	-10.5146
▁scale	-10.5146
▁july	-10.5146
▁sneeze	-10.5146
▁peasants	-10.5146
▁amongst	-10.5148
▁pit	-10.5149
tre	-10.5152
▁norw	-10.5153
ick	-10.5154
▁solved	-10.5154
▁corny	-10.5154
usion	-10.5155
▁hyp	-10.5157
▁useless	-10.5157
▁wholl	-10.5158
▁inch	-10.5159
▁yearold	-10.5159
▁fallen	-10.516
▁brutal	-10.5161
▁roam	-10.5161
▁corrupted	-10.5162
▁cried	-10.5162
▁pitch	-10.5162
▁minim	-10.5163
▁heroes	-10.5163
▁distribut	-10.5167
▁reasonable	-10.5168
▁chor	-10.5169
▁fuel	-10.5169
▁collected	-10.517
▁hail	-10.5171
▁babe	-10.5172
▁pity	-10.5177
▁inspired	-10.5177
och	-10.5177
▁sha	-10.5181
▁privately	-10.5182
ately	-10.5183
▁cultur	-10.5184
▁assumed	-10.5187
▁revealing	-10.5189
▁manage	-10.5192
▁citizens	-10.5192
▁heeya	-10.5195
▁reality	-10.5195
▁flyin	-10.5196
▁accomplished	-10.5196
▁helpful	-10.52
▁bein	-10.5203
▁switched	-10.5205
▁granted	-10.5205
▁recognized	-10.5205
▁pale	-10.5207
▁moral	-10.5214
▁failed	-10.5215
day	-10.5215
▁sports	-10.5217
▁forced	-10.5222
▁teams	-10.5224
bridge	-10.5225
▁drains	-10.5227
▁yawns	-10.5227
▁principles	-10.5227
▁ancestors	-10.5227
▁kindness	-10.5233
▁ni	-10.5243
▁ruined	-10.5259
▁knocked	-10.5266
▁tools	-10.5269
▁neighbors	-10.5269
▁candles	-10.5269
▁bush	-10.527
▁hugg	-10.5276
limpses	-10.5286
▁lad	-10.5292
oc	-10.5293
▁approaching	-10.5299
▁suggesting	-10.5301
▁pie	-10.5309
▁painting	-10.531
▁struggles	-10.5311
▁bounced	-10.5311
▁strangely	-10.5317
▁remained	-10.532
▁partal	-10.5321
▁knocking	-10.5323
▁honored	-10.5334
▁tend	-10.5342
▁holidays	-10.5352
▁flames	-10.5353
▁sailed	-10.5358
▁sales	-10.5362
▁heresy	-10.5363
▁flash	-10.5363
▁bel	-10.5383
dde	-10.5393
▁appears	-10.5395
▁directors	-10.5395
ab	-10.5409
▁kar	-10.5424
▁feelin	-10.5429
▁creaks	-10.5432
▁wheels	-10.5433
▁fixing	-10.5445
ven	-10.5454
▁burg	-10.546
▁events	-10.5466
▁agreeing	-10.5468
▁doctrines	-10.5478
▁runs	-10.5488
▁somebodys	-10.5491
▁destroying	-10.5494
▁seize	-10.5501
▁harder	-10.5506
car	-10.5514
▁magnets	-10.5533
▁pho	-10.5533
▁freez	-10.5535
▁incom	-10.5549
▁fare	-10.5552
▁throwing	-10.5555
rt	-10.5555
▁forg	-10.556
▁waitin	-10.5578
▁tang	-10.5601
▁ph	-10.5606
ically	-10.5607
▁fri	-10.5615
▁joining	-10.5629
istic	-10.5632
lt	-10.5642
▁landed	-10.5644
▁openly	-10.5645
▁christians	-10.565
▁steph	-10.5651
▁ther	-10.5652
▁burns	-10.5652
lon	-10.5681
▁sli	-10.5733
ix	-10.5779
▁bur	-10.5785
▁accounts	-10.5819
▁cha	-10.5827
hhh	-10.584
▁laps	-10.5865
▁and	-10.5868
fish	-10.5887
ram	-10.5902
▁generations	-10.5905
▁religions	-10.5905
▁painful	-10.5911
ira	-10.5932
▁strangers	-10.5932
▁not	-10.5933
▁scottys	-10.5948
▁races	-10.5966
▁wrapp	-10.5989
lar	-10.5994
▁organize	-10.5996
room	-10.6014
▁trucks	-10.6035
▁mal	-10.6079
▁ended	-10.6081
▁flavors	-10.6123
▁concentrate	-10.6129
▁commands	-10.6132
ure	-10.6139
ft	-10.6142
▁costs	-10.6166
cu	-10.6173
oo	-10.6193
down	-10.6203
▁organ	-10.6212
▁mode	-10.6233
ric	-10.6318
▁leo	-10.634
more	-10.6341
▁justi	-10.6377
▁ann	-10.6411
ery	-10.6415
hi	-10.6428
ap	-10.6438
uff	-10.647
▁inspir	-10.6479
nthrop	-10.6492
▁keeper	-10.6493
▁voca	-10.6494
▁is	-10.6495
▁port	-10.6499
ett	-10.65
▁graci	-10.6521
comin	-10.6521
ini	-10.6545
gged	-10.6545
▁dads	-10.6546
▁ending	-10.6586
pit	-10.6601
tro	-10.6608
▁crop	-10.6632
ella	-10.6677
▁ag	-10.6685
▁fianc	-10.669
pa	-10.6695
▁worker	-10.6715
voy	-10.6719
▁div	-10.6722
▁distan	-10.6722
▁formal	-10.6759
▁fre	-10.6765
ros	-10.6769
▁records	-10.6772
▁lords	-10.6784
▁whi	-10.6788
▁trails	-10.6796
▁pen	-10.6798
▁regard	-10.6846
▁surprises	-10.6847
rate	-10.685
▁gasp	-10.686
▁critic	-10.6861
▁cab	-10.6865
▁tick	-10.6866
▁struggle	-10.6867
outs	-10.687
▁horizon	-10.689
▁conservative	-10.689
▁compliment	-10.6891
iff	-10.6895
▁translation	-10.6897
▁toot	-10.6915
▁sometime	-10.6916
lk	-10.694
▁boo	-10.6941
▁patrol	-10.6943
▁sa	-10.6973
▁qui	-10.6986
▁musician	-10.7008
▁med	-10.701
▁smooth	-10.7031
▁stir	-10.7039
▁elect	-10.704
▁rail	-10.7046
▁surf	-10.7046
▁vers	-10.7048
▁continu	-10.705
▁embarrass	-10.7052
▁entertain	-10.7054
▁typ	-10.7055
cer	-10.7061
▁accord	-10.7062
▁display	-10.7068
take	-10.7071
boo	-10.7072
▁interview	-10.7072
▁dump	-10.7076
▁corrupt	-10.7077
▁defeat	-10.7077
▁shock	-10.7077
▁hee	-10.708
handed	-10.7082
▁sack	-10.7083
▁impress	-10.7085
▁investigate	-10.7091
rock	-10.7091
wood	-10.7092
amin	-10.7093
act	-10.7093
▁achieve	-10.7094
standing	-10.7095
▁positive	-10.7095
ound	-10.7095
jespah	-10.7095
▁instant	-10.7096
▁needle	-10.7096
proof	-10.7096
half	-10.7097
forest	-10.7097
▁permanent	-10.7097
saw	-10.7098
bra	-10.7098
book	-10.7099
▁elder	-10.7101
▁sudden	-10.7101
town	-10.7102
▁admire	-10.7103
dog	-10.7104
▁thump	-10.7104
dest	-10.7106
▁translate	-10.7108
▁temper	-10.7108
▁incredibl	-10.7109
▁robber	-10.7109
wise	-10.711
▁steep	-10.7112
▁tort	-10.7112
▁if	-10.7113
▁earn	-10.7116
▁goof	-10.7116
▁nik	-10.7117
▁sem	-10.7118
▁attract	-10.7118
▁psych	-10.7118
▁prince	-10.7119
▁sue	-10.712
▁technical	-10.712
▁minor	-10.7121
▁reci	-10.7122
▁contra	-10.7122
kind	-10.7122
▁drama	-10.7123
cycle	-10.7123
▁blend	-10.7123
inlaw	-10.7123
misunderstanding	-10.7123
urban	-10.7123
▁abbot	-10.7123
▁altogether	-10.7123
▁arguing	-10.7123
▁armada	-10.7123
▁atlas	-10.7123
▁atmosphere	-10.7123
▁bartleby	-10.7123
▁beverage	-10.7123
▁blackberries	-10.7123
▁bosworth	-10.7123
▁britain	-10.7123
▁bronze	-10.7123
▁cellphone	-10.7123
▁circumstances	-10.7123
▁citywide	-10.7123
▁clergy	-10.7123
▁clumsy	-10.7123
▁collapse	-10.7123
▁colombo	-10.7123
▁colorado	-10.7123
▁constantinople	-10.7123
▁convincing	-10.7123
▁counsel	-10.7123
▁darwin	-10.7123
▁descend	-10.7123
▁diamond	-10.7123
▁dillyaye	-10.7123
▁disgust	-10.7123
▁district	-10.7123
▁dolphin	-10.7123
▁ecosystem	-10.7123
▁endanger	-10.7123
▁evilfinder	-10.7123
▁exploring	-10.7123
▁explosion	-10.7123
▁explosive	-10.7123
▁financial	-10.7123
▁float	-10.7123
▁gannon	-10.7123
▁garrison	-10.7123
▁geneva	-10.7123
▁griffin	-10.7123
▁gypsy	-10.7123
▁haircut	-10.7123
▁hallelujah	-10.7123
▁henderson	-10.7123
▁hiccup	-10.7123
▁immigrants	-10.7123
▁immigration	-10.7123
▁increasing	-10.7123
▁independent	-10.7123
▁jahhuahua	-10.7123
▁kurek	-10.7123
▁legislation	-10.7123
▁limousine	-10.7123
▁lungwort	-10.7123
▁mademoiselle	-10.7123
▁mammal	-10.7123
▁mandemus	-10.7123
▁manhattan	-10.7123
▁mcguirk	-10.7123
▁minnie	-10.7123
▁monitor	-10.7123
▁navarro	-10.7123
▁nelson	-10.7123
▁nock	-10.7123
▁obstacle	-10.7123
▁opponent	-10.7123
▁orgyen	-10.7123
▁parliament	-10.7123
▁pencil	-10.7123
▁persuade	-10.7123
▁philosophy	-10.7123
▁picnic	-10.7123
▁piranha	-10.7123
▁platform	-10.7123
▁porcupines	-10.7123
▁poverty	-10.7123
▁procedure	-10.7123
▁rehears	-10.7123
▁relief	-10.7123
▁riccardo	-10.7123
▁satisfied	-10.7123
▁savior	-10.7123
▁scriptura	-10.7123
▁scroll	-10.7123
▁shivering	-10.7123
▁stagecoach	-10.7123
▁surrender	-10.7123
▁traffic	-10.7123
▁unafraid	-10.7123
▁unpleasant	-10.7123
▁vaatinen	-10.7123
▁wainwhisle	-10.7123
▁whiskers	-10.7123
▁zagorsky	-10.7123
▁advantage	-10.7123
▁amateur	-10.7123
▁blond	-10.7123
▁colonial	-10.7123
▁draft	-10.7123
▁drummer	-10.7123
▁grilled	-10.7123
▁gulp	-10.7123
▁impact	-10.7123
▁internet	-10.7123
▁iq	-10.7123
▁italian	-10.7123
▁jethro	-10.7123
▁latimer	-10.7123
▁manichean	-10.7123
▁mechanic	-10.7123
▁phew	-10.7123
▁route	-10.7123
▁shelf	-10.7123
▁siege	-10.7123
▁sushi	-10.7123
▁toothache	-10.7123
▁unusual	-10.7123
▁warrior	-10.7123
▁aframe	-10.7123
▁beck	-10.7123
▁eisen	-10.7123
▁marina	-10.7123
▁merit	-10.7123
▁solid	-10.7123
▁carpet	-10.7123
▁corolla	-10.7123
▁excitement	-10.7123
▁opportunities	-10.7123
ffert	-10.7123
▁disagree	-10.7123
▁dispos	-10.7123
▁loaded	-10.7123
▁salad	-10.7123
▁doris	-10.7123
▁gambling	-10.7123
▁idaho	-10.7123
▁investigating	-10.7123
▁mendez	-10.7123
▁braces	-10.7123
▁clown	-10.7123
▁hellebore	-10.7123
▁preparation	-10.7123
▁spurgeon	-10.7123
▁countries	-10.7123
▁herma	-10.7123
▁broadcast	-10.7123
▁mask	-10.7123
incident	-10.7124
▁analog	-10.7124
▁supervis	-10.7124
▁clink	-10.7124
▁pastime	-10.7124
▁rapid	-10.7124
▁fifteen	-10.7124
▁mortal	-10.7124
▁affirmative	-10.7124
▁daycare	-10.7124
▁midnight	-10.7124
▁primo	-10.7124
▁stamp	-10.7124
▁stanford	-10.7124
▁hockey	-10.7124
▁expelled	-10.7124
▁quality	-10.7124
▁dreadful	-10.7124
▁possibilities	-10.7124
▁trustees	-10.7124
▁military	-10.7124
▁willard	-10.7124
▁andand	-10.7124
▁humiliation	-10.7124
▁secure	-10.7124
▁universities	-10.7124
▁willow	-10.7124
▁producing	-10.7124
etcher	-10.7124
▁lightning	-10.7124
▁clancy	-10.7124
▁finland	-10.7124
▁fluid	-10.7124
▁spill	-10.7124
▁hippo	-10.7124
▁maga	-10.7124
▁tiger	-10.7124
▁lisa	-10.7124
▁ahoy	-10.7124
▁basketball	-10.7124
▁economic	-10.7124
▁racing	-10.7124
▁celebrating	-10.7124
▁concentration	-10.7124
▁patron	-10.7124
▁deception	-10.7124
▁joking	-10.7124
▁cropping	-10.7124
▁hahaha	-10.7124
▁priestess	-10.7124
▁bulk	-10.7124
▁proclaim	-10.7124
▁ease	-10.7124
▁quote	-10.7124
▁flock	-10.7124
▁razor	-10.7124
▁shopping	-10.7124
▁colour	-10.7125
▁infection	-10.7125
▁saddle	-10.7125
▁web	-10.7125
▁cruel	-10.7125
▁mumbling	-10.7125
▁achievement	-10.7125
▁altitude	-10.7125
▁mouse	-10.7125
▁rebuild	-10.7125
▁delay	-10.7125
▁lowlife	-10.7125
▁venture	-10.7125
▁duke	-10.7125
▁poop	-10.7125
▁lamp	-10.7125
▁peak	-10.7125
▁impressive	-10.7125
▁abortion	-10.7125
▁assist	-10.7125
▁flatter	-10.7125
▁bribe	-10.7125
▁judgment	-10.7125
▁pierce	-10.7125
▁tackle	-10.7125
▁edition	-10.7126
▁nun	-10.7126
iggle	-10.7126
▁behold	-10.7126
▁begging	-10.7126
▁statehood	-10.7126
▁lava	-10.7126
▁convention	-10.7126
▁furious	-10.7126
▁flush	-10.7126
▁react	-10.7126
▁cannon	-10.7126
▁scrap	-10.7126
▁depression	-10.7126
▁rattle	-10.7126
▁luxury	-10.7127
▁paperwork	-10.7127
▁inject	-10.7127
▁rising	-10.7127
▁patience	-10.7127
▁conquer	-10.7127
▁discipline	-10.7127
▁jazz	-10.7127
▁nuclear	-10.7127
▁orbit	-10.7127
▁bonjour	-10.7127
▁stall	-10.7127
▁augustine	-10.7127
▁thud	-10.7128
▁familiar	-10.7128
▁violence	-10.7128
▁lori	-10.7128
▁batch	-10.7128
▁cri	-10.7128
▁os	-10.7128
▁archers	-10.7128
▁series	-10.7129
▁notion	-10.7129
▁councilman	-10.7129
▁neg	-10.7129
▁dropping	-10.7129
▁attached	-10.7129
▁dull	-10.713
▁agh	-10.713
▁expression	-10.713
▁operator	-10.713
tify	-10.713
▁peep	-10.713
▁exit	-10.7131
▁fuss	-10.7131
▁sowell	-10.7131
▁jackson	-10.7131
lusive	-10.7131
▁fork	-10.7131
▁marine	-10.7132
▁visitors	-10.7132
▁employment	-10.7132
▁giddy	-10.7132
▁eric	-10.7132
▁recovery	-10.7132
▁halas	-10.7133
▁slip	-10.7133
▁rex	-10.7133
▁gim	-10.7133
▁after	-10.7134
▁allowance	-10.7134
▁painters	-10.7135
▁constitutional	-10.7135
pects	-10.7135
▁obey	-10.7135
▁julie	-10.7136
▁riot	-10.7136
▁madman	-10.7138
▁devoted	-10.7139
▁higg	-10.7139
▁drumming	-10.7139
▁luckily	-10.714
▁acquainted	-10.714
▁invented	-10.714
▁lair	-10.714
▁eve	-10.714
▁whew	-10.7141
▁pepper	-10.7141
▁electrical	-10.7141
▁civilian	-10.7141
▁cries	-10.7142
lessness	-10.7142
tique	-10.7142
▁tag	-10.7144
▁privileged	-10.7146
▁burnt	-10.7146
▁roaring	-10.7146
▁kay	-10.7147
▁lab	-10.7147
▁jacket	-10.7148
▁slope	-10.7148
loo	-10.7149
▁taco	-10.715
▁jackie	-10.7152
▁bastards	-10.7152
▁bodyguards	-10.7152
▁bubbles	-10.7152
▁rhinos	-10.7152
▁precisely	-10.7153
▁divide	-10.7153
▁bury	-10.7154
▁aau	-10.7155
onna	-10.7155
▁cease	-10.7157
▁just	-10.7158
▁disco	-10.716
▁esp	-10.7163
▁native	-10.7163
▁glimpse	-10.7164
▁optimistic	-10.7164
▁laser	-10.7165
▁hitting	-10.7166
▁weed	-10.7169
folk	-10.7169
▁proven	-10.7171
roque	-10.7171
life	-10.7171
▁dumped	-10.7171
▁elected	-10.7172
▁regarded	-10.7172
ometer	-10.7172
▁brandy	-10.7173
▁import	-10.7174
▁physically	-10.7174
▁hire	-10.7175
▁whooshing	-10.7176
▁released	-10.7176
▁separated	-10.7176
▁cable	-10.7177
▁dealers	-10.7177
▁por	-10.7178
▁boxes	-10.7182
her	-10.7184
▁properly	-10.7191
▁approv	-10.7192
▁overlook	-10.7194
▁appeared	-10.7194
▁beep	-10.72
▁instructions	-10.7202
▁habitats	-10.7202
▁patterns	-10.7202
▁bun	-10.7204
▁hint	-10.7206
▁pod	-10.7219
▁code	-10.722
eral	-10.7222
▁souffle	-10.7225
esta	-10.7228
▁vet	-10.7229
▁mentioned	-10.7235
▁range	-10.7238
▁hens	-10.7243
▁judged	-10.7244
▁entered	-10.7246
▁pur	-10.7246
▁herring	-10.725
▁bugs	-10.7253
▁pirates	-10.7253
▁scouting	-10.7253
▁argos	-10.7253
right	-10.7254
gs	-10.7257
▁contractors	-10.7258
▁quicker	-10.7261
▁howdy	-10.7264
▁jet	-10.7265
▁newman	-10.7267
▁seal	-10.7267
▁venting	-10.7267
▁cornered	-10.727
▁survived	-10.7276
▁howls	-10.728
▁lookout	-10.7286
ana	-10.7286
▁ce	-10.7292
▁cod	-10.7298
yca	-10.7298
▁worthy	-10.7301
▁mol	-10.7303
▁circuits	-10.7304
▁effects	-10.7304
▁results	-10.7305
▁cal	-10.7307
▁dent	-10.7309
▁seeking	-10.7312
▁sailor	-10.7314
▁squared	-10.732
▁belly	-10.7323
tial	-10.7325
▁completed	-10.7328
▁pushed	-10.7332
rico	-10.7335
imp	-10.7343
▁cater	-10.7344
▁nicer	-10.7351
air	-10.7352
▁toots	-10.7355
▁translations	-10.7356
▁crossing	-10.7357
▁regards	-10.7357
▁sticky	-10.7373
ac	-10.7375
▁creat	-10.738
▁loser	-10.7383
▁verse	-10.7398
▁backup	-10.7402
▁hackamaws	-10.7408
▁photos	-10.7408
▁bottles	-10.7408
▁mustve	-10.7409
▁danced	-10.7409
bed	-10.741
dorf	-10.7411
▁beans	-10.7414
ga	-10.7414
▁secretly	-10.7418
▁prayers	-10.7425
believable	-10.7426
▁buyer	-10.7427
▁supported	-10.743
▁singer	-10.7431
▁covering	-10.7433
▁angels	-10.7436
▁scrub	-10.7439
▁graduate	-10.7444
▁aa	-10.7446
▁comm	-10.745
▁belonged	-10.7457
ipper	-10.7457
▁submersibles	-10.746
▁williams	-10.746
▁slams	-10.7462
▁grumble	-10.7465
▁lied	-10.7481
juan	-10.7509
▁temperatures	-10.7513
▁diva	-10.752
▁ado	-10.7522
▁blar	-10.7524
▁testing	-10.7525
▁bothering	-10.7525
curb	-10.7529
▁clo	-10.7529
▁ore	-10.7534
yah	-10.7535
lgia	-10.7537
▁raining	-10.7545
▁yells	-10.757
▁touching	-10.7571
ico	-10.7582
▁explained	-10.7594
▁serv	-10.7598
▁observe	-10.7607
▁issues	-10.7609
▁alls	-10.7615
▁impressions	-10.7618
▁strikes	-10.7619
▁stirr	-10.762
▁pops	-10.7626
tive	-10.7629
kin	-10.763
▁pipe	-10.7631
▁observ	-10.7646
▁importantly	-10.7647
ay	-10.7647
▁nurse	-10.7658
▁circles	-10.7663
▁troubled	-10.7664
▁lawyers	-10.7671
▁ion	-10.7671
▁relate	-10.7674
▁baths	-10.7676
▁feared	-10.7681
▁earths	-10.7691
▁sire	-10.7697
▁mayer	-10.7713
▁vin	-10.7717
ford	-10.772
▁meals	-10.7724
▁nations	-10.7727
▁handy	-10.7729
▁greeks	-10.774
lity	-10.7749
inch	-10.7753
ich	-10.7767
oof	-10.7771
▁timing	-10.7777
▁germans	-10.7779
▁noises	-10.7785
aro	-10.7793
uh	-10.7821
ication	-10.7825
▁statements	-10.7833
isle	-10.7835
▁cracks	-10.7835
▁bb	-10.785
sters	-10.7856
▁lous	-10.786
ob	-10.7868
▁settles	-10.7874
▁on	-10.7883
▁opinions	-10.7885
▁cows	-10.7887
bby	-10.7899
▁nah	-10.7907
▁lick	-10.7925
▁sounding	-10.7927
ester	-10.7931
▁floors	-10.7939
late	-10.7944
▁suits	-10.7948
▁holes	-10.7987
▁banks	-10.7993
▁appreciat	-10.7995
ill	-10.7995
▁abs	-10.8013
au	-10.8017
▁fli	-10.8018
▁brom	-10.8036
▁chil	-10.8043
▁storms	-10.8047
▁experiments	-10.8048
▁bags	-10.8048
lines	-10.8049
▁wi	-10.8062
berg	-10.8069
▁mor	-10.8084
one	-10.8103
▁pil	-10.813
▁ashe	-10.8151
ax	-10.8164
▁nicely	-10.8187
▁brazilians	-10.8215
▁net	-10.8235
nn	-10.8261
▁miracles	-10.8268
▁kno	-10.8276
▁inf	-10.8294
▁hydra	-10.8297
▁las	-10.8323
▁messages	-10.8323
▁kn	-10.8327
▁texts	-10.8335
ians	-10.8365
tch	-10.8371
▁springs	-10.8379
▁fans	-10.8385
▁vari	-10.8406
▁projects	-10.8433
ified	-10.8445
lin	-10.8455
▁rapper	-10.8465
set	-10.8477
etting	-10.8486
nel	-10.8499
▁earlie	-10.8522
▁finds	-10.8523
lic	-10.853
▁luc	-10.8533
▁bars	-10.8556
▁ra	-10.8629
ments	-10.8658
ines	-10.8672
▁humb	-10.8673
romance	-10.8673
orn	-10.8677
▁pile	-10.8688
ell	-10.8705
▁towns	-10.8728
▁blu	-10.8762
▁rum	-10.8781
▁carve	-10.8789
res	-10.8789
▁eligib	-10.8815
▁gran	-10.8823
ole	-10.8826
ali	-10.8847
▁holds	-10.8871
▁forge	-10.8876
▁vo	-10.8879
▁severa	-10.8902
▁ol	-10.8924
▁bathro	-10.8962
ink	-10.897
hold	-10.8987
xi	-10.8991
▁fishing	-10.9003
▁protestants	-10.9005
▁activit	-10.9011
arm	-10.9021
ep	-10.9027
▁suite	-10.903
mp	-10.9037
▁ver	-10.904
▁catching	-10.9047
▁nap	-10.9053
▁experiences	-10.9054
nfold	-10.9059
dine	-10.906
ology	-10.9075
▁alma	-10.9127
coming	-10.9143
pter	-10.9154
ark	-10.9208
mat	-10.9215
▁lala	-10.9222
▁buck	-10.9223
▁graduat	-10.9227
rus	-10.9239
▁biting	-10.924
tal	-10.926
ium	-10.9269
▁emotion	-10.9271
▁welcom	-10.9277
▁mega	-10.9281
con	-10.9293
ison	-10.9311
▁author	-10.9323
▁result	-10.9344
▁prep	-10.9345
▁privilege	-10.9351
▁barr	-10.937
try	-10.9375
▁curtain	-10.9379
▁item	-10.9379
▁gorilla	-10.9379
▁snack	-10.9379
ster	-10.9382
▁youngster	-10.9387
▁ka	-10.9392
▁effect	-10.9394
▁adult	-10.9395
▁whoop	-10.9396
▁circuit	-10.9397
▁neighbor	-10.94
▁tool	-10.9401
▁candle	-10.9402
▁plot	-10.9403
▁cousin	-10.9408
▁factor	-10.9409
▁rever	-10.9413
▁slave	-10.9413
▁furling	-10.9416
▁here	-10.9419
pilla	-10.9423
▁beside	-10.9423
▁that	-10.9451
shirts	-10.9452
lous	-10.9452
▁cent	-10.9455
▁classic	-10.9455
▁mmmmmmmmmm	-10.9457
mitt	-10.947
▁strap	-10.9474
ized	-10.9483
▁surviv	-10.9491
▁wears	-10.9496
▁kidnap	-10.9498
pal	-10.9501
▁shi	-10.9505
ica	-10.951
bearing	-10.9521
▁oo	-10.9521
▁slap	-10.9526
▁caps	-10.9537
cephal	-10.9538
▁spr	-10.9539
form	-10.9541
illy	-10.9542
vinist	-10.9546
▁ton	-10.9548
▁appeal	-10.9552
▁quack	-10.9555
▁splash	-10.9555
▁whoosh	-10.9558
rents	-10.9559
lashing	-10.9561
oon	-10.9563
▁crawl	-10.9564
▁possess	-10.9564
▁scr	-10.9566
cken	-10.9567
▁encounter	-10.9567
▁knight	-10.9569
▁puff	-10.9571
▁reject	-10.9575
▁frighten	-10.9578
erous	-10.9578
▁speaker	-10.9584
retched	-10.9584
board	-10.9592
▁disadvantage	-10.9594
wear	-10.9594
front	-10.9595
distance	-10.9596
ice	-10.9596
▁advise	-10.9596
rig	-10.9596
paid	-10.9597
▁semi	-10.9597
bound	-10.9597
jake	-10.9597
▁convince	-10.9598
▁involve	-10.9598
think	-10.9598
▁nail	-10.9598
▁slink	-10.9599
two	-10.9599
▁recent	-10.96
▁unfortunate	-10.96
face	-10.9601
▁guilt	-10.9603
gone	-10.9603
▁sur	-10.9604
▁fue	-10.9604
▁uncon	-10.9606
▁entranc	-10.9606
▁nois	-10.9608
▁infinit	-10.9608
▁absolute	-10.9609
▁weigh	-10.9611
▁toro	-10.9612
▁detect	-10.9612
▁threaten	-10.9612
ook	-10.9613
▁sauce	-10.9613
▁demo	-10.9614
▁region	-10.9614
▁athlet	-10.9614
racking	-10.9617
▁bold	-10.9617
▁sew	-10.9618
▁budge	-10.9618
▁egypt	-10.9618
▁govern	-10.9618
▁august	-10.9618
▁carbon	-10.962
while	-10.962
▁outrage	-10.962
▁depart	-10.9621
raham	-10.9621
▁mornin	-10.9621
graph	-10.9621
▁lane	-10.9622
▁convent	-10.9622
▁virgin	-10.9622
uction	-10.9622
▁gig	-10.9622
▁cruci	-10.9622
▁spectac	-10.9623
cension	-10.9623
▁academy	-10.9623
▁administration	-10.9623
▁advocat	-10.9623
▁albigenses	-10.9623
▁alternative	-10.9623
▁amsterdam	-10.9623
▁ankle	-10.9623
▁antelope	-10.9623
▁antichrist	-10.9623
▁antimatter	-10.9623
▁archbishop	-10.9623
▁athos	-10.9623
▁autumn	-10.9623
▁babysitter	-10.9623
▁bankrupt	-10.9623
▁bathtub	-10.9623
▁beacon	-10.9623
▁bilney	-10.9623
▁biscuit	-10.9623
▁blasphemy	-10.9623
▁briseis	-10.9623
▁buddha	-10.9623
▁capturing	-10.9623
▁clavecin	-10.9623
▁columb	-10.9623
▁commissar	-10.9623
▁condemnation	-10.9623
▁confusion	-10.9623
▁consequence	-10.9623
▁conviction	-10.9623
▁correspond	-10.9623
▁creek	-10.9623
▁criminal	-10.9623
▁dawson	-10.9623
▁dddear	-10.9623
▁decretals	-10.9623
▁dessert	-10.9623
▁devotion	-10.9623
▁diploma	-10.9623
▁discredit	-10.9623
▁donny	-10.9623
▁ecclesiastical	-10.9623
▁encourag	-10.9623
▁eugene	-10.9623
▁euphemus	-10.9623
▁extrasensory	-10.9623
▁eyebright	-10.9623
▁fantasy	-10.9623
▁fraction	-10.9623
▁fruit	-10.9623
▁gaucho	-10.9623
▁generosity	-10.9623
▁georgie	-10.9623
▁gilbert	-10.9623
▁gloomy	-10.9623
▁gradually	-10.9623
▁gramophone	-10.9623
▁granddaughter	-10.9623
▁habeas	-10.9623
▁heritage	-10.9623
▁hybrid	-10.9623
▁ignorant	-10.9623
▁janeiro	-10.9623
▁javelin	-10.9623
▁kemble	-10.9623
▁legwarmers	-10.9623
▁lurking	-10.9623
▁maintain	-10.9623
▁marquez	-10.9623
▁mattock	-10.9623
▁methadone	-10.9623
▁mexican	-10.9623
▁mezzofanti	-10.9623
▁monopoly	-10.9623
▁montague	-10.9623
▁moorepark	-10.9623
▁mozart	-10.9623
▁murph	-10.9623
▁narrative	-10.9623
▁odyssey	-10.9623
▁offscreen	-10.9623
▁opposition	-10.9623
▁outfit	-10.9623
▁overthrow	-10.9623
▁pandemonium	-10.9623
▁parrot	-10.9623
▁patrick	-10.9623
▁pepito	-10.9623
▁persecuted	-10.9623
▁persecution	-10.9623
▁peyrere	-10.9623
▁phalerus	-10.9623
▁photosynthesis	-10.9623
▁practise	-10.9623
▁prejudice	-10.9623
▁prevail	-10.9623
▁pufferfish	-10.9623
▁radioactive	-10.9623
▁rationalism	-10.9623
▁reckon	-10.9623
▁redeemer	-10.9623
▁ribbon	-10.9623
▁scalpel	-10.9623
▁scoot	-10.9623
▁scripps	-10.9623
▁sediment	-10.9623
▁spacecraft	-10.9623
▁stadium	-10.9623
▁strategy	-10.9623
▁stubbins	-10.9623
▁stubborn	-10.9623
▁stupendous	-10.9623
▁suffrage	-10.9623
▁supreme	-10.9623
▁terrene	-10.9623
▁terrifying	-10.9623
▁thirty	-10.9623
▁thread	-10.9623
▁thursday	-10.9623
▁trimmings	-10.9623
▁unfair	-10.9623
▁unlimited	-10.9623
▁unreasonable	-10.9623
▁uttama	-10.9623
▁vandete	-10.9623
▁volunteer	-10.9623
▁waltz	-10.9623
▁watherstone	-10.9623
▁wyckoff	-10.9623
▁yourseif	-10.9623
▁zephir	-10.9623
▁agenda	-10.9623
▁alexandr	-10.9623
▁blip	-10.9623
▁bogey	-10.9623
▁cathar	-10.9623
▁martian	-10.9623
▁nupur	-10.9623
▁overdose	-10.9623
▁paddy	-10.9623
▁pleasant	-10.9623
▁pledge	-10.9623
▁preparing	-10.9623
▁propagand	-10.9623
▁providing	-10.9623
▁ritual	-10.9623
▁torment	-10.9623
▁variety	-10.9623
▁vessel	-10.9623
hower	-10.9623
▁automatic	-10.9623
▁brakes	-10.9623
▁colony	-10.9623
▁diabolical	-10.9623
▁goblin	-10.9623
▁occasion	-10.9623
▁laborator	-10.9623
▁butterfly	-10.9623
▁cavern	-10.9623
▁distilling	-10.9623
ibald	-10.9623
▁email	-10.9623
▁feast	-10.9623
▁refresh	-10.9623
▁superior	-10.9623
▁suppress	-10.9623
▁forcing	-10.9623
▁inerran	-10.9623
▁loneli	-10.9623
▁brooklyn	-10.9623
▁leather	-10.9623
▁overcome	-10.9623
▁raspberry	-10.9623
▁practicing	-10.9623
▁rodney	-10.9623
▁authorities	-10.9623
▁drew	-10.9623
▁jockey	-10.9623
▁maniac	-10.9623
▁strangle	-10.9623
▁anato	-10.9623
▁merce	-10.9624
▁eliminate	-10.9624
onym	-10.9624
▁apoc	-10.9624
▁dinosaur	-10.9624
▁expulsion	-10.9624
▁stems	-10.9624
▁canalligator	-10.9624
▁snuck	-10.9624
▁boston	-10.9624
▁conference	-10.9624
ooooh	-10.9624
▁patti	-10.9624
▁portrait	-10.9624
▁lullabee	-10.9624
▁employee	-10.9624
▁multipl	-10.9624
▁cathy	-10.9624
▁amusing	-10.9624
▁extract	-10.9624
▁stammering	-10.9624
leash	-10.9624
▁neighborhood	-10.9624
▁giddyap	-10.9624
▁didier	-10.9624
▁exterior	-10.9624
▁occurred	-10.9624
▁solution	-10.9624
▁investigation	-10.9624
▁savoy	-10.9624
▁recreat	-10.9624
▁clarence	-10.9624
▁sensation	-10.9624
▁granny	-10.9624
▁pollack	-10.9624
▁determination	-10.9624
▁pregnan	-10.9624
▁wives	-10.9624
zig	-10.9624
▁banns	-10.9624
▁disguise	-10.9624
▁arrow	-10.9624
▁tsk	-10.9624
▁properties	-10.9624
▁jackass	-10.9624
▁pinata	-10.9624
rizzl	-10.9624
▁keg	-10.9624
▁parade	-10.9624
▁nodd	-10.9624
▁tweet	-10.9624
▁bernardis	-10.9624
▁cadet	-10.9624
▁dollhouse	-10.9624
▁slipping	-10.9624
▁outof	-10.9624
▁physicist	-10.9624
▁wiley	-10.9624
▁holland	-10.9624
▁grape	-10.9624
▁perception	-10.9624
▁mushroom	-10.9624
▁weep	-10.9624
▁greetings	-10.9624
▁philip	-10.9624
▁congregation	-10.9624
▁allez	-10.9624
▁establishment	-10.9624
▁stripedy	-10.9624
▁jelly	-10.9625
▁heir	-10.9625
▁sinned	-10.9625
▁garage	-10.9625
▁nooo	-10.9625
▁allergic	-10.9625
▁rodrigo	-10.9625
▁hom	-10.9625
▁pagan	-10.9625
▁chaos	-10.9625
▁argh	-10.9625
▁championship	-10.9625
▁liking	-10.9625
drick	-10.9625
▁paintball	-10.9625
▁infernal	-10.9625
▁snob	-10.9625
function	-10.9625
▁skipping	-10.9625
▁misery	-10.9625
▁ripping	-10.9625
▁tasty	-10.9625
▁entertainment	-10.9625
▁surgeon	-10.9625
▁mmmmmm	-10.9625
▁accelerator	-10.9625
▁cancer	-10.9626
▁ponder	-10.9626
▁oak	-10.9626
▁waking	-10.9626
▁description	-10.9626
▁apologies	-10.9626
▁couch	-10.9626
▁dragged	-10.9626
▁maxim	-10.9626
▁digging	-10.9626
▁concept	-10.9626
▁unorthodox	-10.9626
▁unlock	-10.9626
▁auto	-10.9626
▁appetite	-10.9626
▁orange	-10.9626
ters	-10.9626
▁voting	-10.9626
▁pentecostalism	-10.9626
▁balloon	-10.9626
▁computer	-10.9626
▁teenager	-10.9626
▁props	-10.9626
▁decent	-10.9626
▁chow	-10.9626
▁investment	-10.9626
▁ashley	-10.9627
▁renew	-10.9627
▁abv	-10.9627
▁contrary	-10.9627
▁soap	-10.9627
▁spaceship	-10.9627
▁vetry	-10.9627
▁undermine	-10.9627
▁possession	-10.9627
▁pupil	-10.9627
▁awhile	-10.9627
▁psychic	-10.9627
▁laur	-10.9627
▁whwhat	-10.9627
▁wedding	-10.9627
▁sunset	-10.9627
▁thoroughly	-10.9627
▁fraud	-10.9627
▁continuous	-10.9627
▁brutality	-10.9627
▁archive	-10.9628
▁courtship	-10.9628
▁temporary	-10.9628
▁disappointment	-10.9628
▁bike	-10.9628
ancho	-10.9628
▁enchanted	-10.9628
▁loyalty	-10.9628
soph	-10.9628
▁tension	-10.9628
▁footprint	-10.9628
▁rape	-10.9628
▁laura	-10.9628
▁conscious	-10.9628
▁length	-10.9628
▁sensitive	-10.9628
▁litter	-10.9629
▁asset	-10.9629
▁lemon	-10.9629
▁portion	-10.9629
▁talos	-10.9629
▁trop	-10.9629
▁fusion	-10.9629
▁comment	-10.9629
▁worn	-10.9629
▁geese	-10.963
▁flaw	-10.963
habo	-10.963
▁motion	-10.963
▁equi	-10.963
▁beza	-10.963
▁recogniz	-10.963
▁num	-10.963
▁robin	-10.963
▁moose	-10.9631
▁elite	-10.9631
▁robes	-10.9631
▁marshes	-10.9632
▁household	-10.9632
▁whim	-10.9632
▁constantin	-10.9632
▁accidentally	-10.9632
▁athletes	-10.9632
▁tide	-10.9632
▁bobby	-10.9633
▁regional	-10.9633
▁papacy	-10.9633
ernie	-10.9634
▁nick	-10.9634
▁magician	-10.9634
▁package	-10.9634
▁escaping	-10.9634
nu	-10.9634
▁wailing	-10.9634
ensure	-10.9634
▁humiliating	-10.9634
▁revolting	-10.9634
▁dice	-10.9634
▁decoy	-10.9635
▁consideration	-10.9635
▁pom	-10.9635
▁spoon	-10.9635
▁flaky	-10.9635
▁ceremony	-10.9635
▁heel	-10.9635
▁photography	-10.9635
▁kra	-10.9636
▁discoveries	-10.9636
▁wheat	-10.9636
▁claw	-10.9637
▁identified	-10.9637
stock	-10.9637
▁controlling	-10.9637
▁zero	-10.9637
▁civilization	-10.9637
▁guardian	-10.9637
▁seventh	-10.9638
▁lire	-10.9638
▁inches	-10.9638
▁insur	-10.9638
▁basis	-10.9638
eerie	-10.9639
▁backbone	-10.9639
▁bedtime	-10.9639
▁fulfill	-10.9639
▁eee	-10.964
▁blazer	-10.964
▁infinite	-10.964
▁leak	-10.964
▁gap	-10.964
▁mig	-10.964
▁eyesight	-10.964
▁kiddo	-10.9641
idal	-10.9641
▁owns	-10.9641
▁seni	-10.9641
card	-10.9641
▁everyday	-10.9642
▁burst	-10.9642
▁spotted	-10.9642
▁flown	-10.9642
▁sober	-10.9642
▁stepped	-10.9642
▁aid	-10.9643
ideo	-10.9643
▁offense	-10.9643
▁hija	-10.9643
▁merger	-10.9643
▁fee	-10.9643
▁soup	-10.9643
▁formation	-10.9644
▁symbio	-10.9644
▁shaved	-10.9644
▁doggie	-10.9644
etu	-10.9645
▁ares	-10.9645
▁chest	-10.9645
▁toll	-10.9646
▁carter	-10.9646
▁digest	-10.9646
▁dominated	-10.9647
▁recovered	-10.9647
▁hel	-10.9647
▁tray	-10.9648
▁tame	-10.9648
▁mona	-10.9649
▁penny	-10.9649
▁plantation	-10.9649
▁curt	-10.965
▁spy	-10.965
▁refuse	-10.9651
▁lend	-10.9651
▁screw	-10.9651
▁loan	-10.9651
▁schoolhouse	-10.9651
▁approve	-10.9652
▁triple	-10.9652
renade	-10.9652
▁grin	-10.9652
▁strengthen	-10.9653
▁recovering	-10.9653
▁scribe	-10.9654
▁reli	-10.9655
▁caus	-10.9655
▁of	-10.9656
▁groomer	-10.9656
▁dedicated	-10.9657
▁agreement	-10.9658
▁ranger	-10.9659
▁factory	-10.9659
▁powerless	-10.9659
▁crossexamin	-10.966
▁achieved	-10.966
math	-10.9661
▁rhodes	-10.9661
▁stairs	-10.9661
▁elevators	-10.9662
▁presum	-10.9664
▁rad	-10.9664
▁suitable	-10.9664
▁halfman	-10.9664
▁rear	-10.9664
▁fifty	-10.9666
▁dar	-10.9667
▁celebrated	-10.9668
▁soc	-10.9669
▁conce	-10.9669
▁nasa	-10.9671
▁reminder	-10.9672
▁humanity	-10.9672
▁clattering	-10.9673
▁straining	-10.9673
▁math	-10.9673
▁translated	-10.9673
▁nailed	-10.9674
las	-10.9674
loy	-10.9675
▁bitch	-10.9676
▁yowl	-10.9676
▁bail	-10.9677
▁toughest	-10.9679
▁sharpen	-10.9682
▁golly	-10.9685
▁angela	-10.9685
▁hon	-10.9688
▁oer	-10.969
▁cloth	-10.969
▁clothing	-10.9691
▁mill	-10.9692
▁quacking	-10.9692
▁splashing	-10.9692
▁slo	-10.9693
▁dresses	-10.9694
▁vamo	-10.9695
▁questionable	-10.9696
ture	-10.9698
▁tata	-10.97
▁perfection	-10.9701
▁proposed	-10.9701
▁typical	-10.9705
▁cane	-10.9705
▁brass	-10.9706
▁backfield	-10.9707
▁whine	-10.9707
▁booing	-10.971
▁ranks	-10.971
▁plume	-10.9711
rest	-10.9711
▁entertaining	-10.9712
▁receiver	-10.9713
▁moan	-10.9715
▁classes	-10.9719
▁righthanded	-10.9721
▁prize	-10.9722
▁jews	-10.9725
▁hypnoti	-10.9725
▁kittens	-10.9727
▁tactics	-10.9727
▁lannisters	-10.9727
▁muscles	-10.9727
▁critters	-10.9727
▁ea	-10.973
▁limited	-10.973
▁arrg	-10.9732
▁buzzes	-10.9735
▁seam	-10.9736
▁writers	-10.9736
▁coolest	-10.9738
▁crushed	-10.9743
mental	-10.9745
▁frankie	-10.9746
▁sweetest	-10.9749
▁successfully	-10.9749
mont	-10.975
sel	-10.9752
▁drinkin	-10.9754
▁arrested	-10.9757
▁tone	-10.9757
ille	-10.9757
▁confirmed	-10.9757
▁poke	-10.9759
▁founders	-10.976
stop	-10.9763
▁quin	-10.9767
▁simpler	-10.9769
▁attempted	-10.9771
▁publisher	-10.9773
▁smarter	-10.9774
▁demanding	-10.9776
▁trainer	-10.9783
▁represented	-10.9785
▁walkin	-10.9787
▁shak	-10.9788
▁homeless	-10.9789
▁concerning	-10.979
▁nervously	-10.9791
▁filling	-10.9791
mmmmmmmmmmm	-10.9793
▁warned	-10.9794
▁squeals	-10.9794
▁decades	-10.9794
▁bullets	-10.9794
▁jud	-10.9795
▁lure	-10.9797
▁stupidly	-10.9798
inning	-10.9798
▁focused	-10.9799
▁blinded	-10.9799
▁league	-10.9799
▁troops	-10.98
▁dealt	-10.9801
▁delightful	-10.9802
▁exp	-10.9803
▁wage	-10.9807
▁probe	-10.981
▁tightly	-10.9812
▁tasted	-10.9813
▁cleaners	-10.9814
▁will	-10.9829
▁harming	-10.983
▁indicat	-10.9831
▁voted	-10.9837
resent	-10.9837
▁cabo	-10.9851
▁whipp	-10.9852
▁il	-10.9854
▁drag	-10.9856
▁ban	-10.9857
▁grabb	-10.9857
▁whoops	-10.9862
▁adults	-10.9862
▁rebelli	-10.9865
▁kan	-10.9868
▁nails	-10.9868
▁difficulty	-10.9869
▁continued	-10.9875
▁lovers	-10.9876
▁miler	-10.988
▁ideal	-10.9881
ooze	-10.9889
▁talented	-10.9904
▁char	-10.9906
▁lin	-10.9906
▁civiliz	-10.9907
▁rais	-10.9921
upper	-10.9927
▁conservatives	-10.9931
▁horizons	-10.9931
▁compliments	-10.9931
▁me	-10.9931
ex	-10.9939
▁wy	-10.9943
▁repeated	-10.9957
ific	-10.9957
▁cur	-10.9971
▁attacked	-10.9973
▁includes	-10.9996
▁verm	-10.9999
▁reporting	-10.9999
▁nerves	-11
▁beasts	-11
▁methods	-11
▁restaurants	-11
▁historians	-11
▁workout	-11.0001
eh	-11.0011
▁acts	-11.0012
date	-11.0014
ame	-11.0018
▁camper	-11.0025
▁messed	-11.0029
▁liver	-11.0036
▁formed	-11.0045
▁touched	-11.0046
▁desp	-11.005
there	-11.0057
▁detectives	-11.0069
fi	-11.0079
▁limb	-11.0083
▁younger	-11.0094
nch	-11.011
▁jumping	-11.0115
▁attacking	-11.0115
hen	-11.0122
▁counted	-11.0126
▁longest	-11.0131
▁traces	-11.0134
▁classical	-11.0138
▁chemicals	-11.0139
▁debates	-11.0139
▁benefits	-11.0139
▁maps	-11.014
viet	-11.0142
▁rocky	-11.0148
▁balls	-11.0152
▁gar	-11.0163
▁gladly	-11.017
▁rotat	-11.0174
▁forming	-11.0181
wh	-11.0183
▁drugs	-11.0188
▁packing	-11.0197
rank	-11.0203
▁loses	-11.0204
▁directions	-11.0209
▁turks	-11.0209
▁loss	-11.021
▁scouts	-11.0213
aaa	-11.0222
▁err	-11.0227
▁gall	-11.0228
▁answered	-11.0235
mo	-11.0237
ties	-11.0256
ummy	-11.0275
▁endur	-11.0282
▁centers	-11.0283
▁blocks	-11.0283
▁mutts	-11.0289
▁skippe	-11.0307
urr	-11.0308
▁marker	-11.0312
▁negotiat	-11.0318
▁pun	-11.032
▁rates	-11.0327
▁jacks	-11.0329
▁sting	-11.0344
▁promises	-11.0345
▁equals	-11.0347
▁targets	-11.0351
▁buying	-11.037
avi	-11.0373
alter	-11.0396
ohs	-11.0403
▁climbing	-11.0403
▁pilots	-11.0422
▁chairs	-11.0422
▁pl	-11.0435
omin	-11.0436
taker	-11.0438
ita	-11.0451
▁thy	-11.0469
▁pursue	-11.0474
▁pigs	-11.0492
▁reminds	-11.0494
hes	-11.0495
throp	-11.0495
▁trials	-11.0497
▁tyr	-11.05
rous	-11.0504
▁lines	-11.0543
▁spo	-11.0544
▁adams	-11.0556
▁questioned	-11.0564
▁kicks	-11.0575
▁strip	-11.0593
▁persons	-11.0596
▁beer	-11.0603
ney	-11.0607
▁bab	-11.0612
▁returning	-11.0614
allel	-11.0634
▁fits	-11.0634
▁writings	-11.0638
▁cameras	-11.0639
▁suggests	-11.0644
uz	-11.0652
eeding	-11.0667
▁pu	-11.0672
▁sau	-11.0701
▁vile	-11.0705
▁feature	-11.0713
▁originals	-11.0714
▁ache	-11.0733
▁pos	-11.0746
▁rob	-11.0778
▁treats	-11.079
tant	-11.0793
▁lively	-11.0795
▁paying	-11.0853
▁eu	-11.0869
bc	-11.087
▁ro	-11.088
▁construct	-11.0881
pp	-11.0888
▁liter	-11.0899
rice	-11.0924
▁hood	-11.093
▁crowded	-11.0935
▁reports	-11.0945
ren	-11.0956
▁scares	-11.0963
▁operat	-11.0971
▁grandmothers	-11.1006
▁stare	-11.101
▁stations	-11.101
▁talents	-11.1012
dial	-11.1026
▁holl	-11.1043
▁textu	-11.1045
▁eb	-11.1046
▁del	-11.1053
▁ups	-11.1061
▁services	-11.1081
hopper	-11.1098
▁whites	-11.1101
▁scheme	-11.1106
▁heats	-11.1107
rien	-11.112
huh	-11.1122
▁statu	-11.1122
▁wished	-11.1126
ied	-11.1128
antic	-11.1131
gent	-11.1185
▁sp	-11.1203
onies	-11.1214
zin	-11.122
▁revive	-11.1231
▁forests	-11.1232
ud	-11.1235
▁tastes	-11.1236
ray	-11.1241
▁dans	-11.1241
▁unit	-11.1249
▁howl	-11.1273
▁pres	-11.1307
▁practices	-11.1308
▁boats	-11.1317
▁medi	-11.1335
▁specialize	-11.1355
▁dia	-11.1358
ville	-11.1362
▁tables	-11.1383
▁wagons	-11.1384
nary	-11.1406
▁hurting	-11.1417
hili	-11.1427
nstruction	-11.1432
▁undo	-11.1436
▁rolls	-11.1448
▁breaks	-11.145
arza	-11.1462
▁dina	-11.1475
ul	-11.1477
tto	-11.1478
▁sparkl	-11.1484
mon	-11.1532
icit	-11.1593
▁amo	-11.1594
▁guessed	-11.1598
▁mistakes	-11.1616
▁rem	-11.1617
▁thinkin	-11.1619
ooch	-11.1623
ants	-11.1627
we	-11.1633
▁manipulat	-11.1639
lu	-11.1663
▁wit	-11.1685
▁viv	-11.1687
▁fools	-11.1692
▁hiphop	-11.1698
▁reduc	-11.171
▁hhe	-11.1716
▁ast	-11.1733
uro	-11.1748
izzy	-11.1771
▁adam	-11.179
lit	-11.1795
uties	-11.1795
quit	-11.1799
arious	-11.1826
nis	-11.185
▁spells	-11.1862
▁pursu	-11.188
▁sum	-11.1885
can	-11.1892
iate	-11.1894
rita	-11.1895
▁umm	-11.1922
mmering	-11.1924
your	-11.1949
ving	-11.1964
oa	-11.1968
▁introduc	-11.1971
ffy	-11.1985
per	-11.2001
hu	-11.2023
hole	-11.2028
▁we	-11.2083
▁orchestras	-11.2089
▁easter	-11.2094
▁sniffl	-11.2131
ios	-11.2137
▁combine	-11.216
▁prospect	-11.2184
pha	-11.2186
lant	-11.2195
▁severe	-11.2209
hip	-11.2215
dia	-11.2217
▁ahhh	-11.2225
eli	-11.2225
logy	-11.2247
ounciest	-11.228
▁wav	-11.2317
ont	-11.2331
▁colleges	-11.2334
▁flu	-11.234
▁fin	-11.2384
▁swab	-11.2393
▁permit	-11.2398
▁resid	-11.2424
▁wester	-11.2445
long	-11.2452
sky	-11.2464
tta	-11.2471
▁revolution	-11.2472
tte	-11.2476
dito	-11.2479
ament	-11.2481
▁goner	-11.254
ham	-11.2567
illa	-11.2571
▁ach	-11.2573
tz	-11.2574
▁buildings	-11.2581
skier	-11.2582
▁worm	-11.2587
icker	-11.2601
heated	-11.2604
▁hun	-11.2609
ppe	-11.2618
bell	-11.2619
icy	-11.2626
titude	-11.2634
phon	-11.2635
▁sigh	-11.2642
hard	-11.2648
▁ali	-11.2648
▁comfort	-11.2659
▁tails	-11.2666
▁troop	-11.2666
▁logic	-11.2675
▁creep	-11.2687
▁tra	-11.2688
▁associat	-11.2694
▁claus	-11.2695
vin	-11.2698
▁custom	-11.2699
of	-11.2704
rill	-11.2706
▁coordinate	-11.2713
▁ingredient	-11.2713
▁penguin	-11.2713
▁peso	-11.2714
ware	-11.2715
▁combination	-11.2715
▁marble	-11.2718
▁ze	-11.2722
▁fra	-11.2722
olar	-11.2724
▁decade	-11.2724
▁squeal	-11.2724
▁bug	-11.2725
▁micro	-11.2728
▁sheet	-11.2729
▁pirate	-11.2731
▁bullet	-11.2733
▁principle	-11.2734
▁yawn	-11.2734
▁quo	-11.2735
▁drain	-11.2736
▁ancestor	-11.2736
▁argo	-11.2737
▁mussel	-11.2737
▁contractor	-11.2739
owed	-11.2743
▁neuro	-11.2744
▁poll	-11.2744
▁element	-11.2745
▁click	-11.2746
▁discus	-11.2748
met	-11.2748
▁sticks	-11.2751
▁parent	-11.2763
▁sport	-11.2767
minary	-11.2771
bit	-11.2777
▁perm	-11.2779
▁souffl	-11.2785
▁glob	-11.2796
▁ques	-11.2804
iev	-11.2805
▁believ	-11.2818
port	-11.2822
▁invit	-11.2827
▁drops	-11.283
▁plum	-11.2836
▁declar	-11.2841
▁groom	-11.2847
noid	-11.285
▁ink	-11.2852
▁mil	-11.2864
▁cleaner	-11.2864
cover	-11.2868
love	-11.2871
▁strain	-11.2873
vat	-11.2874
▁neo	-11.2882
▁complet	-11.2882
dinari	-11.2883
▁poach	-11.2884
▁whwh	-11.2885
ular	-11.2889
▁clatter	-11.2889
flowing	-11.289
▁admir	-11.289
▁profession	-11.2893
▁amaz	-11.2894
▁invest	-11.2896
▁depress	-11.2898
▁assum	-11.2899
▁whip	-11.29
▁betray	-11.2905
▁jess	-11.2907
▁hack	-11.2908
▁establish	-11.2909
hmm	-11.2909
▁tearin	-11.2917
riving	-11.292
nk	-11.292
brook	-11.2921
tempo	-11.2921
bud	-11.2923
▁ohhh	-11.2923
qua	-11.2923
fall	-11.2924
skull	-11.2924
sponsor	-11.2924
▁advisor	-11.2926
mark	-11.2926
suitable	-11.2926
claim	-11.2926
idge	-11.2926
▁donate	-11.2927
bach	-11.2928
mighty	-11.2928
pronounce	-11.2928
joy	-11.2929
▁define	-11.2929
legal	-11.2929
justice	-11.2929
american	-11.2929
smith	-11.2929
▁devote	-11.2929
amount	-11.2929
point	-11.2929
record	-11.2929
charge	-11.2929
box	-11.2929
break	-11.2929
foot	-11.293
sometimes	-11.293
class	-11.293
play	-11.293
chief	-11.293
lord	-11.293
piece	-11.293
made	-11.293
thats	-11.293
▁destin	-11.293
▁determine	-11.2931
▁strawberr	-11.2931
frank	-11.2933
band	-11.2934
pip	-11.2935
boom	-11.2935
hall	-11.2937
▁shave	-11.2937
ouch	-11.2937
▁bul	-11.2938
▁arriv	-11.2939
jah	-11.2939
▁pul	-11.294
▁tract	-11.2941
four	-11.2941
kiss	-11.2942
▁hull	-11.2942
aint	-11.2942
▁condo	-11.2942
tox	-11.2942
brain	-11.2944
free	-11.2944
name	-11.2944
▁numb	-11.2945
eph	-11.2946
▁sinkin	-11.2946
stick	-11.2946
race	-11.2948
new	-11.2948
stack	-11.2949
▁apost	-11.2949
▁profess	-11.295
oodles	-11.2952
ollow	-11.2953
ountain	-11.2953
▁reflect	-11.2953
▁equat	-11.2953
▁sang	-11.2953
▁renovat	-11.2953
store	-11.2953
▁abort	-11.2953
▁suspend	-11.2953
▁elevat	-11.2953
zzle	-11.2954
nta	-11.2954
▁republic	-11.2954
▁significan	-11.2954
ruce	-11.2955
▁darlin	-11.2955
▁blank	-11.2955
▁compli	-11.2955
▁chuck	-11.2955
▁eviden	-11.2956
▁michel	-11.2956
ulge	-11.2956
▁violen	-11.2956
rifle	-11.2956
▁analy	-11.2956
▁harri	-11.2956
▁encycl	-11.2957
▁quetza	-11.2957
▁archaeolog	-11.2957
appropriate	-11.2957
nsylvania	-11.2957
rogatory	-11.2957
▁abolish	-11.2957
▁accommodations	-11.2957
▁adventurous	-11.2957
▁aggressive	-11.2957
▁alternate	-11.2957
▁amulet	-11.2957
▁anglocatholic	-11.2957
▁anxiety	-11.2957
▁appalling	-11.2957
▁arnie	-11.2957
▁assault	-11.2957
▁astronaut	-11.2957
▁avenge	-11.2957
▁aztec	-11.2957
▁behaviour	-11.2957
▁berries	-11.2957
▁blanchard	-11.2957
▁bleakman	-11.2957
▁blossom	-11.2957
▁blowtorch	-11.2957
▁botanical	-11.2957
▁boulder	-11.2957
▁cafeteria	-11.2957
▁carpenter	-11.2957
▁cautious	-11.2957
▁charisma	-11.2957
▁chemist	-11.2957
▁chunky	-11.2957
▁clarabelle	-11.2957
▁commitment	-11.2957
▁comparison	-11.2957
▁competitive	-11.2957
▁competitor	-11.2957
▁complications	-11.2957
▁condolences	-11.2957
▁confused	-11.2957
▁confusing	-11.2957
▁conscience	-11.2957
▁controversy	-11.2957
▁craig	-11.2957
▁crikey	-11.2957
▁crocodil	-11.2957
▁culprit	-11.2957
▁dapplewood	-11.2957
▁dawdl	-11.2957
▁delaware	-11.2957
▁dellinger	-11.2957
▁demonstration	-11.2957
▁destructive	-11.2957
▁detroit	-11.2957
▁disrespect	-11.2957
▁doofus	-11.2957
▁dummies	-11.2957
▁eccl	-11.2957
▁edwina	-11.2957
▁enchanting	-11.2957
▁entwine	-11.2957
▁envelope	-11.2957
▁estimate	-11.2957
▁evacuate	-11.2957
▁executed	-11.2957
▁exploit	-11.2957
▁exposure	-11.2957
▁exquisite	-11.2957
▁extinct	-11.2957
▁feminine	-11.2957
▁foretold	-11.2957
▁formidable	-11.2957
▁frankendude	-11.2957
▁frederick	-11.2957
▁glasgow	-11.2957
▁gleam	-11.2957
▁greece	-11.2957
▁groovy	-11.2957
▁gypsies	-11.2957
▁handkerchief	-11.2957
▁harvard	-11.2957
▁heirloom	-11.2957
▁hilarious	-11.2957
▁hippie	-11.2957
▁homestead	-11.2957
▁hufford	-11.2957
▁hurray	-11.2957
▁hysteria	-11.2957
▁implication	-11.2957
▁imprisoned	-11.2957
▁infallible	-11.2957
▁inhabit	-11.2957
▁insects	-11.2957
▁invincible	-11.2957
▁irritable	-11.2957
▁jennings	-11.2957
▁jersey	-11.2957
▁jerusalem	-11.2957
▁junction	-11.2957
▁kendall	-11.2957
▁kkk	-11.2957
▁lansdowne	-11.2957
▁laundry	-11.2957
▁lieutenant	-11.2957
▁liverpool	-11.2957
▁magnificence	-11.2957
▁mahwah	-11.2957
▁mcarthur	-11.2957
▁mechanism	-11.2957
▁merci	-11.2957
▁millicent	-11.2957
▁monolith	-11.2957
▁moscow	-11.2957
▁murdoch	-11.2957
▁murray	-11.2957
▁neglected	-11.2957
▁nowadays	-11.2957
▁nugget	-11.2957
▁olympus	-11.2957
▁orleans	-11.2957
▁ornery	-11.2957
▁outnumber	-11.2957
▁parchments	-11.2957
▁picasso	-11.2957
▁pistols	-11.2957
▁playground	-11.2957
▁plunge	-11.2957
▁policies	-11.2957
▁postponed	-11.2957
▁predecessor	-11.2957
▁prime	-11.2957
▁principal	-11.2957
▁privacy	-11.2957
▁quadropole	-11.2957
▁rakerat	-11.2957
▁rascal	-11.2957
▁rataxes	-11.2957
▁recall	-11.2957
▁relocat	-11.2957
▁rhubarb	-11.2957
▁routine	-11.2957
▁sagalevitch	-11.2957
▁salvador	-11.2957
▁samantha	-11.2957
▁satisfy	-11.2957
▁scarecrow	-11.2957
▁scaredycat	-11.2957
▁scatter	-11.2957
▁scavenger	-11.2957
▁sentimental	-11.2957
▁september	-11.2957
▁shovel	-11.2957
▁slowpoke	-11.2957
▁slumber	-11.2957
▁smear	-11.2957
▁snuggle	-11.2957
▁societies	-11.2957
▁solicitor	-11.2957
▁sombrero	-11.2957
▁southampton	-11.2957
▁spike	-11.2957
▁strict	-11.2957
▁studio	-11.2957
▁stylish	-11.2957
▁submarine	-11.2957
▁superduper	-11.2957
▁superintendent	-11.2957
▁tarnation	-11.2957
▁telegram	-11.2957
▁territorial	-11.2957
▁terror	-11.2957
▁toucan	-11.2957
▁triumph	-11.2957
▁turbinado	-11.2957
▁tuxedo	-11.2957
▁tyndale	-11.2957
▁ultimatum	-11.2957
▁unexpected	-11.2957
▁untied	-11.2957
▁utilize	-11.2957
▁velvet	-11.2957
▁vertical	-11.2957
▁vitamin	-11.2957
▁vulture	-11.2957
▁withstand	-11.2957
▁yokomoto	-11.2957
▁commodore	-11.2957
▁contend	-11.2957
▁ethnic	-11.2957
▁examination	-11.2957
▁exterminate	-11.2957
▁popcorn	-11.2957
▁referr	-11.2957
▁axle	-11.2957
▁bunker	-11.2957
▁emphatic	-11.2957
▁flood	-11.2957
▁gramps	-11.2957
▁hazard	-11.2957
▁kathy	-11.2957
▁legacy	-11.2957
▁oohoohooh	-11.2957
▁plastic	-11.2957
▁replied	-11.2957
▁sacraments	-11.2957
▁soothe	-11.2957
▁strum	-11.2957
▁ufo	-11.2957
▁brrr	-11.2957
▁carousel	-11.2957
▁clientele	-11.2957
▁cramp	-11.2957
▁daniel	-11.2957
▁expense	-11.2957
▁humanoid	-11.2957
▁lenny	-11.2957
▁lenore	-11.2957
▁margin	-11.2957
▁orient	-11.2957
▁physics	-11.2957
▁senate	-11.2957
▁serape	-11.2957
tazz	-11.2957
▁anyhow	-11.2957
▁assumption	-11.2957
▁denounc	-11.2957
▁discourag	-11.2957
▁ferment	-11.2957
▁flippers	-11.2957
▁itit	-11.2957
▁possum	-11.2957
▁hagar	-11.2957
▁nigga	-11.2957
▁omg	-11.2957
▁padre	-11.2957
▁surprising	-11.2957
▁diversity	-11.2957
▁dorm	-11.2957
▁energizing	-11.2957
▁engagement	-11.2957
▁festivities	-11.2957
▁immense	-11.2957
▁session	-11.2957
▁harbo	-11.2957
▁balance	-11.2957
▁stinks	-11.2957
▁sulf	-11.2957
▁trio	-11.2957
▁precision	-11.2957
▁channel	-11.2957
▁exhausting	-11.2957
▁motives	-11.2957
▁wrinkl	-11.2957
▁patriot	-11.2957
▁snicker	-11.2957
▁visual	-11.2957
adour	-11.2957
▁monument	-11.2957
▁fisherman	-11.2957
▁myth	-11.2957
▁linebacker	-11.2957
▁wizard	-11.2957
▁chateau	-11.2957
▁lorath	-11.2957
▁wrestl	-11.2957
▁sincerely	-11.2957
▁susan	-11.2957
▁trimmed	-11.2957
▁wardrobe	-11.2957
▁fireballs	-11.2957
▁sputter	-11.2957
▁aaron	-11.2957
▁consent	-11.2957
▁greet	-11.2957
▁rustl	-11.2957
▁ryan	-11.2957
▁sequence	-11.2957
▁spears	-11.2957
▁cherone	-11.2957
▁intimate	-11.2957
▁movin	-11.2957
▁rash	-11.2957
▁tramp	-11.2957
▁peemai	-11.2957
▁gross	-11.2957
▁hyuh	-11.2957
▁mineral	-11.2957
▁stash	-11.2957
▁clam	-11.2957
▁pulpit	-11.2957
▁mobiliz	-11.2957
▁terrace	-11.2957
▁hush	-11.2957
▁riddle	-11.2957
▁subversive	-11.2957
▁allseeing	-11.2957
▁clav	-11.2957
▁clip	-11.2957
▁vanilla	-11.2957
▁percussion	-11.2957
▁shillings	-11.2957
▁metallurgist	-11.2957
▁onboard	-11.2957
▁vague	-11.2957
▁sequel	-11.2957
▁backyard	-11.2957
▁arrowhead	-11.2957
▁toad	-11.2957
▁inheritance	-11.2957
▁hysterical	-11.2957
▁pluck	-11.2957
▁retir	-11.2957
▁emptiness	-11.2957
▁statesmanship	-11.2957
taneous	-11.2957
▁cowgirl	-11.2957
▁division	-11.2957
▁improvise	-11.2957
▁breathtaking	-11.2957
▁jaws	-11.2957
▁dioxid	-11.2957
▁laptop	-11.2957
▁brink	-11.2957
▁syr	-11.2957
▁analyze	-11.2957
▁sketch	-11.2957
▁posada	-11.2958
▁affection	-11.2958
▁riftia	-11.2958
▁batter	-11.2958
▁compensation	-11.2958
▁prosecution	-11.2958
▁stags	-11.2958
▁axe	-11.2958
▁ltaly	-11.2958
▁algeria	-11.2958
▁plow	-11.2958
▁receptus	-11.2958
▁kanga	-11.2958
▁barbara	-11.2958
▁brick	-11.2958
▁arose	-11.2958
▁spade	-11.2958
▁piggy	-11.2958
▁celesteville	-11.2958
▁hmmph	-11.2958
▁townsend	-11.2958
▁breck	-11.2958
▁heap	-11.2958
▁chanting	-11.2958
▁grinning	-11.2958
▁onward	-11.2958
▁sizzle	-11.2958
▁juggl	-11.2958
▁youjohn	-11.2958
▁survivors	-11.2958
▁barrier	-11.2958
mph	-11.2958
▁vibra	-11.2958
▁conversion	-11.2958
▁ferret	-11.2958
▁estate	-11.2958
▁were	-11.2958
▁bleed	-11.2958
▁braid	-11.2958
▁lumber	-11.2958
▁xgs	-11.2958
▁distractible	-11.2958
▁designated	-11.2958
▁fluff	-11.2958
▁bingo	-11.2958
▁rugged	-11.2958
▁whinn	-11.2958
▁damp	-11.2958
▁flap	-11.2958
▁tuna	-11.2958
▁rumble	-11.2958
gate	-11.2958
▁section	-11.2958
▁mmmmm	-11.2958
▁verily	-11.2958
▁gangsters	-11.2958
▁northwest	-11.2958
▁humph	-11.2958
▁helm	-11.2958
▁stew	-11.2958
▁paddle	-11.2958
▁online	-11.2958
▁manaus	-11.2958
▁iole	-11.2958
nevitabl	-11.2959
▁motor	-11.2959
▁toxic	-11.2959
▁banana	-11.2959
▁terrain	-11.2959
▁viand	-11.2959
shield	-11.2959
▁brim	-11.2959
▁rodent	-11.2959
▁jeep	-11.2959
▁bugle	-11.2959
▁harpies	-11.2959
▁blanket	-11.2959
▁phenomeno	-11.2959
▁organization	-11.2959
▁atta	-11.2959
▁waldenses	-11.2959
▁assertion	-11.2959
▁cooperation	-11.2959
▁rupe	-11.2959
▁invention	-11.2959
▁eww	-11.2959
▁obligation	-11.2959
ertia	-11.2959
▁illitera	-11.2959
loved	-11.2959
▁destination	-11.2959
▁uncomfortable	-11.2959
iastic	-11.2959
▁popping	-11.2959
osaur	-11.296
▁barrel	-11.296
▁hym	-11.296
▁whoooo	-11.296
▁iconic	-11.296
▁offence	-11.296
▁ginger	-11.296
▁instance	-11.296
▁genu	-11.296
▁lobo	-11.296
▁priesthood	-11.296
▁daca	-11.296
▁vicar	-11.296
▁loco	-11.296
▁parley	-11.296
▁legendary	-11.296
▁motto	-11.296
▁recite	-11.296
▁clop	-11.296
▁pomp	-11.296
▁hick	-11.296
▁attractive	-11.296
▁whatcha	-11.296
lizing	-11.296
▁sworn	-11.296
▁gigant	-11.296
▁exchange	-11.296
▁unfold	-11.2961
▁concur	-11.2961
▁theatre	-11.2961
▁goldmine	-11.2961
▁homeschool	-11.2961
▁mmmwh	-11.2961
▁hopping	-11.2961
▁leone	-11.2961
▁despise	-11.2961
▁neigh	-11.2961
▁youse	-11.2961
▁upside	-11.2962
▁rega	-11.2962
▁drank	-11.2962
▁torn	-11.2962
▁tele	-11.2962
▁ashore	-11.2962
▁sill	-11.2962
▁wax	-11.2962
▁rejection	-11.2962
▁feedback	-11.2962
▁magnetism	-11.2962
▁clarinetist	-11.2962
▁documentary	-11.2962
▁mosquitoes	-11.2962
▁fuse	-11.2962
▁massage	-11.2962
▁frequently	-11.2962
▁suv	-11.2963
cumen	-11.2963
▁eminent	-11.2963
▁judg	-11.2963
▁supper	-11.2963
▁label	-11.2963
▁conspiracy	-11.2963
▁deploy	-11.2963
▁purgatory	-11.2963
▁thirsty	-11.2963
▁kab	-11.2963
▁thrill	-11.2963
▁whack	-11.2963
▁symbolism	-11.2963
▁fashion	-11.2964
▁frog	-11.2964
▁stabilize	-11.2964
▁trophy	-11.2964
▁interven	-11.2964
▁onion	-11.2964
▁dramatically	-11.2964
▁dependent	-11.2964
stess	-11.2964
▁egyptian	-11.2964
▁nico	-11.2964
▁tutor	-11.2964
▁icon	-11.2965
▁certifi	-11.2965
▁creation	-11.2965
formed	-11.2965
▁cameron	-11.2965
▁courthouse	-11.2965
▁gday	-11.2965
▁hallway	-11.2965
▁affirm	-11.2965
▁plankton	-11.2965
▁subtle	-11.2965
▁dora	-11.2965
▁clobber	-11.2965
▁darnel	-11.2965
▁whatre	-11.2966
▁hatred	-11.2966
▁childhood	-11.2966
▁density	-11.2967
▁dios	-11.2967
▁sid	-11.2967
▁humor	-11.2967
▁wiseman	-11.2967
▁barons	-11.2967
▁budget	-11.2967
▁perish	-11.2967
▁stow	-11.2967
▁teasing	-11.2968
▁objective	-11.2968
▁interruption	-11.2968
▁espn	-11.2968
eight	-11.2968
▁dismissed	-11.2968
▁ordained	-11.2968
▁planetary	-11.2968
▁enco	-11.2968
who	-11.2969
▁hotter	-11.2969
▁brainwash	-11.2969
omination	-11.2969
▁buddhist	-11.2969
▁chapm	-11.2969
▁pork	-11.2969
▁titan	-11.2969
▁whatll	-11.2969
▁loung	-11.2969
▁cameraman	-11.297
▁mast	-11.297
chef	-11.297
▁bouncers	-11.2971
▁finnish	-11.2971
▁relic	-11.2971
▁calculate	-11.2971
rotte	-11.2972
▁pause	-11.2972
▁sanger	-11.2972
▁kidnapping	-11.2972
▁fortunately	-11.2972
▁takin	-11.2973
▁bluffing	-11.2973
▁overwhelming	-11.2973
▁scoffing	-11.2973
onai	-11.2973
anall	-11.2973
▁peril	-11.2973
▁celebrity	-11.2974
▁sonny	-11.2974
▁prowl	-11.2975
▁activated	-11.2975
▁qualified	-11.2975
▁purged	-11.2975
▁extend	-11.2975
stage	-11.2975
▁phar	-11.2975
▁bore	-11.2975
▁restored	-11.2975
▁plead	-11.2976
▁hodg	-11.2976
▁freshman	-11.2976
▁phrase	-11.2976
▁secondrate	-11.2977
▁civilis	-11.2977
▁descent	-11.2978
▁perk	-11.2978
▁mystical	-11.2978
▁pawn	-11.2978
▁condor	-11.2978
▁whooper	-11.2979
▁fever	-11.298
▁vary	-11.298
▁publicity	-11.298
▁fran	-11.298
▁gallon	-11.298
▁zeal	-11.298
▁entrance	-11.2981
▁lester	-11.2981
▁frontrunner	-11.2981
▁soda	-11.2981
▁skit	-11.2981
▁confessional	-11.2982
▁churchmen	-11.2982
▁fence	-11.2983
orious	-11.2983
▁mung	-11.2983
▁stroll	-11.2983
avor	-11.2983
▁potatoes	-11.2985
▁doodley	-11.2985
▁utter	-11.2985
venue	-11.2985
▁tweed	-11.2985
▁duh	-11.2986
▁creed	-11.2986
▁doodle	-11.2986
▁donated	-11.2987
▁petit	-11.2988
▁straightened	-11.2988
▁offended	-11.2988
▁shattered	-11.2988
▁betty	-11.2988
▁confine	-11.2989
▁skull	-11.2989
▁virtu	-11.2989
▁jeopardiz	-11.2989
▁sponsor	-11.2989
mine	-11.2989
▁hiking	-11.299
▁truthfully	-11.299
▁hometown	-11.299
▁ew	-11.299
▁personality	-11.2991
thic	-11.2991
▁supporters	-11.2991
▁apolog	-11.2991
▁brad	-11.2992
opy	-11.2992
▁treatment	-11.2993
▁sixth	-11.2993
▁performer	-11.2993
▁mob	-11.2993
▁shae	-11.2993
▁marsh	-11.2994
▁occupation	-11.2995
▁disa	-11.2995
▁bellies	-11.2995
▁sunup	-11.2996
▁pave	-11.2996
▁ronaldo	-11.2997
▁rooster	-11.2998
▁disadvantaged	-11.2998
▁chart	-11.2999
▁conditioner	-11.2999
▁ren	-11.2999
▁difficulties	-11.2999
bel	-11.3
▁frustrating	-11.3
▁plumbing	-11.3001
▁shattering	-11.3001
▁cutting	-11.3001
naps	-11.3001
▁petu	-11.3001
▁hog	-11.3002
▁permanently	-11.3003
▁agreeable	-11.3003
▁sweater	-11.3004
▁pickup	-11.3004
▁manager	-11.3004
▁sm	-11.3004
ainty	-11.3005
▁jamaica	-11.3005
▁imper	-11.3005
scription	-11.3005
▁sob	-11.3005
▁evolved	-11.3007
▁robbery	-11.3007
▁bigot	-11.3008
▁handicapp	-11.3008
olp	-11.3008
▁gill	-11.3009
▁depressed	-11.301
▁coaches	-11.3011
▁mmmm	-11.3011
▁approaches	-11.3011
▁soak	-11.3011
▁dungeons	-11.3012
▁earthquakes	-11.3012
▁astrobiologists	-11.3012
▁restrictions	-11.3012
▁majority	-11.3012
▁nee	-11.3013
▁winch	-11.3013
ucky	-11.3013
▁tailor	-11.3013
▁maria	-11.3014
▁screeches	-11.3015
wis	-11.3015
▁yea	-11.3015
▁stable	-11.3016
▁trooper	-11.3017
▁brushy	-11.3019
▁brat	-11.3019
▁mel	-11.3019
▁canal	-11.3021
apy	-11.3022
ronto	-11.3022
▁acknowledged	-11.3022
▁thumb	-11.3024
▁unlikely	-11.3024
▁deceived	-11.3024
▁cones	-11.3024
▁heresies	-11.3025
ember	-11.3026
▁conn	-11.3026
▁filed	-11.3027
▁mathematical	-11.3027
▁hideous	-11.3027
▁powder	-11.3028
▁inviting	-11.3028
▁dw	-11.3028
▁grooming	-11.3029
▁poaching	-11.3029
▁resulted	-11.303
▁comforting	-11.303
star	-11.3031
▁followers	-11.3032
izer	-11.3032
▁sonar	-11.3033
▁described	-11.3034
▁tube	-11.3036
mann	-11.304
▁scor	-11.3045
▁dining	-11.3048
▁sacked	-11.3049
▁interviewed	-11.3049
▁goofed	-11.3049
citation	-11.3054
▁hired	-11.3056
▁appealing	-11.3057
▁jean	-11.3057
▁ste	-11.3059
▁admired	-11.3062
▁whooping	-11.3062
xy	-11.3063
▁microb	-11.3064
▁sniffer	-11.3064
▁kooka	-11.3065
▁writ	-11.3067
▁fried	-11.3067
▁jah	-11.3067
▁suspected	-11.3069
▁unre	-11.3072
atl	-11.3073
▁heater	-11.3075
▁electro	-11.3076
▁licking	-11.3076
▁jen	-11.3081
▁pronounced	-11.3081
▁argued	-11.3082
▁forger	-11.3082
▁kisses	-11.3082
▁wag	-11.3084
▁embarrassing	-11.3085
▁operated	-11.3087
▁pessimistic	-11.3089
▁reference	-11.309
▁def	-11.3091
▁payment	-11.3092
▁diving	-11.3093
▁hallow	-11.3094
▁hud	-11.3095
▁regularly	-11.3096
▁industr	-11.3098
▁edit	-11.3098
▁louder	-11.31
▁din	-11.3101
▁roller	-11.3101
▁squir	-11.3106
▁scra	-11.3106
▁buds	-11.3107
▁grownups	-11.3108
▁martyrs	-11.3108
▁prophets	-11.3108
▁cocktails	-11.3108
▁heretics	-11.3108
▁pancakes	-11.3108
▁accelerates	-11.311
▁photographs	-11.311
▁hose	-11.311
▁bellow	-11.311
▁melted	-11.3111
▁pry	-11.3115
▁suffering	-11.3115
▁developing	-11.3115
▁adore	-11.3116
▁caban	-11.3118
▁desired	-11.3118
▁fishies	-11.3118
▁preachers	-11.3118
▁globe	-11.3121
▁dea	-11.3123
▁taw	-11.3126
▁passes	-11.3126
▁starters	-11.3126
utter	-11.3127
▁sitter	-11.3131
▁makers	-11.3131
▁accessor	-11.3132
▁yelled	-11.3135
dales	-11.3139
▁reverse	-11.3144
▁coal	-11.3151
▁finale	-11.3154
▁ven	-11.3159
▁facilit	-11.3161
▁malt	-11.3163
▁rescued	-11.3166
▁cancell	-11.3171
▁wounded	-11.3172
▁safer	-11.3172
ough	-11.3172
▁pouring	-11.3179
▁maine	-11.3182
spective	-11.3185
▁occur	-11.3193
▁requested	-11.3194
yn	-11.3198
usa	-11.3201
ctual	-11.3204
▁hy	-11.3204
▁coordinates	-11.3206
▁ingredients	-11.3206
▁marbles	-11.3206
▁penguins	-11.3206
▁customs	-11.3207
▁sheets	-11.3207
▁pesos	-11.3207
▁schm	-11.3207
▁combinations	-11.3207
▁creeps	-11.3207
▁engineer	-11.3215
▁hitch	-11.3219
▁permits	-11.3221
▁worms	-11.3224
▁specialist	-11.3226
▁shared	-11.3228
▁wea	-11.3228
▁handled	-11.3232
▁delivered	-11.3235
▁helpless	-11.3235
▁inspire	-11.3239
fu	-11.3246
minated	-11.3246
▁sirens	-11.3252
▁disturbing	-11.3257
▁approached	-11.3258
▁launching	-11.326
▁spreading	-11.326
▁contribut	-11.326
▁quarr	-11.3264
▁dared	-11.3275
▁plott	-11.3279
▁advance	-11.3281
▁headline	-11.3282
▁messy	-11.3282
arted	-11.3282
▁yah	-11.3282
▁vern	-11.3292
▁flowing	-11.3296
▁snacks	-11.3307
▁items	-11.3307
▁gorillas	-11.3307
▁curtains	-11.3307
▁privileges	-11.3308
▁emotions	-11.3311
▁textus	-11.3313
▁bucks	-11.3313
▁youngsters	-11.3319
tics	-11.3324
▁factors	-11.3327
▁fasten	-11.3336
▁tons	-11.3339
sses	-11.3344
▁nb	-11.3353
▁crate	-11.3357
▁kicking	-11.3357
▁busting	-11.3361
▁listed	-11.3362
▁speakers	-11.3369
▁hunter	-11.337
▁phoned	-11.3375
▁grie	-11.3378
hmmmm	-11.3386
ocks	-11.3396
bee	-11.3425
▁quietly	-11.3425
▁bra	-11.343
▁ame	-11.344
▁thith	-11.3451
▁wis	-11.3452
▁commanded	-11.3457
▁pala	-11.3458
▁cart	-11.347
heads	-11.3471
arling	-11.3474
mbo	-11.3474
olds	-11.3475
▁logical	-11.3479
▁decorat	-11.3484
▁diver	-11.3484
▁fris	-11.3489
▁cleaned	-11.3493
▁loop	-11.3497
▁discussing	-11.3498
hines	-11.3506
▁profits	-11.351
▁patients	-11.3512
▁tested	-11.3514
▁bothered	-11.3514
▁defenses	-11.3516
▁tryin	-11.3521
▁pudd	-11.3523
ature	-11.3532
etta	-11.3532
but	-11.3537
▁siren	-11.3543
kas	-11.3546
▁combin	-11.3546
▁sphere	-11.3547
verted	-11.3547
▁farr	-11.3553
▁squi	-11.3555
▁windy	-11.3571
▁griev	-11.3574
▁reserves	-11.3584
▁tracker	-11.3585
some	-11.3599
▁institutions	-11.3613
▁ministers	-11.3613
▁errors	-11.3614
▁pockets	-11.3616
▁girlfriends	-11.3618
dooper	-11.362
▁coons	-11.363
▁bombing	-11.3635
▁sch	-11.3665
▁additional	-11.367
put	-11.3671
▁supposedly	-11.3676
▁hips	-11.369
▁nag	-11.3691
uit	-11.3693
▁greener	-11.37
pay	-11.371
▁drums	-11.3712
rring	-11.3717
▁uniforms	-11.3717
▁loo	-11.3725
hee	-11.3741
▁capal	-11.3741
▁protecting	-11.3749
▁sailing	-11.376
▁tracking	-11.3765
ncy	-11.3766
▁dens	-11.3771
▁flips	-11.3773
rem	-11.3777
▁uti	-11.3779
▁lightly	-11.378
▁ami	-11.3781
spiration	-11.3785
▁pap	-11.3795
▁killers	-11.3811
▁sinks	-11.3819
▁showers	-11.3821
▁bowls	-11.3822
olo	-11.3823
own	-11.3824
▁vic	-11.3829
▁drivers	-11.3843
▁hehe	-11.3848
lly	-11.3876
agin	-11.3891
▁sw	-11.3903
▁ty	-11.3908
▁crimes	-11.3928
▁rely	-11.3929
▁snaps	-11.3941
nite	-11.3952
pping	-11.3954
▁boon	-11.3964
▁cand	-11.3974
▁strapp	-11.3983
▁orderly	-11.3988
ears	-11.4
▁chaps	-11.4004
eros	-11.4012
▁cure	-11.4025
▁reviv	-11.4033
▁pineapples	-11.4035
▁costumes	-11.4035
▁fails	-11.4039
▁roses	-11.404
▁moron	-11.4041
▁by	-11.4074
lyn	-11.4074
▁cherr	-11.4078
▁beautifully	-11.4081
▁hen	-11.4088
tly	-11.4101
▁recording	-11.4112
▁luthers	-11.4142
▁subjects	-11.4142
▁rider	-11.4164
iga	-11.419
ace	-11.4194
ards	-11.4198
igible	-11.4203
▁flor	-11.4233
▁pressures	-11.424
hoohoohoo	-11.4249
itch	-11.4266
▁ru	-11.4279
▁quart	-11.429
▁izz	-11.4295
▁aims	-11.4309
▁tamp	-11.4309
▁arr	-11.4313
▁kl	-11.4328
ench	-11.4335
▁dearly	-11.4337
▁challenges	-11.4364
▁locks	-11.4368
▁traps	-11.4371
▁improv	-11.4375
rise	-11.4408
▁lover	-11.4444
▁justif	-11.4445
▁dun	-11.4453
tentious	-11.4464
▁manipulate	-11.4472
▁prot	-11.449
uri	-11.4495
itty	-11.4538
▁accuse	-11.4557
▁sto	-11.4571
▁ropes	-11.4578
▁reduce	-11.4581
▁jimm	-11.4582
▁traitors	-11.4583
▁yee	-11.4583
▁governors	-11.4583
▁ruins	-11.4588
oral	-11.4604
▁dom	-11.4621
gre	-11.4654
llo	-11.468
▁spark	-11.471
growth	-11.4737
aine	-11.4738
▁integrate	-11.4747
▁timeout	-11.476
▁organis	-11.4763
▁wor	-11.477
▁mano	-11.4781
▁guid	-11.4803
▁trounc	-11.4808
protective	-11.481
tense	-11.4821
▁torture	-11.4824
▁penetrate	-11.4829
▁heath	-11.4831
▁assemble	-11.4836
▁tellin	-11.4861
ignified	-11.4862
▁dynami	-11.4866
▁ration	-11.4871
rappers	-11.4879
sche	-11.4887
devil	-11.4887
van	-11.4888
ahh	-11.493
▁thi	-11.494
slippery	-11.4941
▁compel	-11.4947
▁kla	-11.4983
▁stat	-11.4991
▁ci	-11.4994
lurry	-11.5019
▁smo	-11.5028
▁barne	-11.5046
hr	-11.5061
palo	-11.5062
▁luci	-11.515
tag	-11.5174
burr	-11.5207
tish	-11.5271
mit	-11.5284
laza	-11.5297
ttle	-11.5305
rta	-11.5316
lve	-11.5355
lated	-11.539
▁birdie	-11.5395
nia	-11.5403
cus	-11.545
pelled	-11.546
ttering	-11.5469
▁devi	-11.5496
run	-11.5503
▁clap	-11.5505
ization	-11.5511
aries	-11.5517
▁joint	-11.5551
▁sla	-11.5564
lay	-11.5654
mmit	-11.5707
wrapped	-11.5723
▁pla	-11.5757
ua	-11.5758
ndre	-11.5771
▁theor	-11.5773
icated	-11.5808
ub	-11.5818
▁mont	-11.5833
▁specializ	-11.5851
meters	-11.5852
▁organiz	-11.5859
▁halle	-11.587
▁content	-11.5888
okie	-11.5898
bi	-11.5939
▁mayor	-11.595
▁ap	-11.5986
▁improve	-11.5994
alleys	-11.6022
cum	-11.6055
post	-11.6076
ava	-11.6114
ronic	-11.6116
▁receiv	-11.6118
▁consort	-11.6139
ghhh	-11.6161
ect	-11.6186
▁drown	-11.6216
▁kin	-11.622
doo	-11.6222
▁conduct	-11.6237
atical	-11.624
ire	-11.6254
aking	-11.6285
urre	-11.6287
war	-11.6305
ffle	-11.6321
▁indig	-11.6338
▁doo	-11.6356
errier	-11.6384
pm	-11.6385
▁homesick	-11.6398
▁cl	-11.642
aris	-11.6438
▁issu	-11.6477
angled	-11.6482
lary	-11.6486
▁thth	-11.6492
▁ku	-11.6503
gun	-11.6506
▁negotiate	-11.6535
mic	-11.6557
▁chum	-11.6567
eu	-11.6626
ility	-11.6639
▁embrac	-11.6644
▁vai	-11.6648
▁endure	-11.6661
▁cran	-11.6662
oise	-11.6673
▁thankful	-11.6693
pernic	-11.6699
▁cher	-11.67
vere	-11.6712
▁deli	-11.6738
lala	-11.6742
bri	-11.6743
▁regress	-11.6773
skirts	-11.6826
▁mc	-11.6849
omeran	-11.6877
▁tee	-11.6881
otic	-11.6884
ron	-11.6903
▁gi	-11.6922
los	-11.694
▁mini	-11.6969
aki	-11.6987
vy	-11.6992
rawn	-11.7003
▁tol	-11.707
▁ut	-11.7077
ou	-11.7093
ceived	-11.7097
▁unbeliev	-11.7122
iety	-11.714
▁decorate	-11.7149
▁renta	-11.7152
▁volcan	-11.7154
▁syn	-11.7157
eally	-11.7168
▁scru	-11.7183
izing	-11.7198
inha	-11.7205
ze	-11.7212
covered	-11.7218
▁infl	-11.7227
▁relat	-11.7239
escent	-11.7265
▁ideolog	-11.7274
rmed	-11.7288
wi	-11.729
▁emp	-11.7295
gh	-11.7314
pressed	-11.7314
▁chu	-11.7319
lashes	-11.7339
ost	-11.7342
▁smilin	-11.7395
stance	-11.7415
▁carol	-11.744
▁etern	-11.7441
pendable	-11.7444
▁eng	-11.7457
lie	-11.7464
▁ahahah	-11.7482
ridge	-11.7507
top	-11.751
word	-11.7518
▁wee	-11.7518
dale	-11.7541
itched	-11.7551
▁twe	-11.7553
▁indicate	-11.758
ador	-11.7581
dies	-11.7592
odor	-11.7592
poles	-11.7597
▁photograph	-11.7598
crat	-11.7613
▁tribu	-11.7614
▁evolv	-11.7645
tribute	-11.7661
ural	-11.767
ducing	-11.7676
stakes	-11.7688
▁groan	-11.7688
▁emerge	-11.769
ji	-11.769
▁forbid	-11.7691
▁leopard	-11.7691
▁neighbour	-11.7691
▁reservation	-11.7691
▁souvenir	-11.7691
▁generat	-11.7696
▁equation	-11.7697
▁appro	-11.7698
coat	-11.7704
▁refu	-11.7712
▁kip	-11.7714
▁pancake	-11.7715
▁prophet	-11.7715
▁martyr	-11.7715
▁heretic	-11.7717
▁cocktail	-11.7721
▁ou	-11.7722
▁accelerate	-11.7722
strial	-11.7723
self	-11.7724
▁critter	-11.7726
▁lannister	-11.7726
▁muscle	-11.7726
isto	-11.7727
▁tactic	-11.7727
▁instrument	-11.7728
▁highball	-11.7728
▁him	-11.7728
▁kitten	-11.7729
▁pattern	-11.7732
▁grownup	-11.7736
▁instruction	-11.7736
▁habitat	-11.7737
▁ji	-11.7739
▁swe	-11.7743
▁ox	-11.7743
▁cau	-11.7748
▁circu	-11.7749
▁colchi	-11.7749
▁andrew	-11.7751
tender	-11.7752
rting	-11.7753
▁jew	-11.776
▁gut	-11.7771
ween	-11.7775
▁other	-11.7776
▁hmmm	-11.7776
▁bud	-11.778
mates	-11.7794
▁detail	-11.7799
▁plumb	-11.78
▁exten	-11.78
▁shack	-11.7806
▁preacher	-11.7807
fer	-11.781
▁bene	-11.781
▁deposit	-11.7814
▁brut	-11.782
meter	-11.7821
▁recover	-11.7824
▁hol	-11.7826
missions	-11.7833
▁surround	-11.7834
▁lug	-11.7835
▁shatter	-11.7836
▁inde	-11.7837
ditionally	-11.7846
umbs	-11.7849
▁psycho	-11.786
worldly	-11.7863
rched	-11.7864
pression	-11.7867
▁ceas	-11.7867
tif	-11.7867
ith	-11.7872
▁robb	-11.7873
▁handicap	-11.7874
▁sneez	-11.7875
ien	-11.7875
▁divid	-11.7876
crews	-11.7877
cakes	-11.7878
bbering	-11.7879
▁carg	-11.788
▁expand	-11.788
▁scal	-11.7882
ector	-11.7883
▁excit	-11.7884
▁devastat	-11.7886
minded	-11.7886
▁conve	-11.7886
▁frustrat	-11.7886
heat	-11.7887
lock	-11.7887
owling	-11.7888
▁figur	-11.7891
▁trickortreat	-11.7893
▁echo	-11.7894
bble	-11.7895
▁roar	-11.7896
usher	-11.7896
▁murmur	-11.7896
▁boil	-11.7896
power	-11.7896
ckling	-11.7897
▁collat	-11.7901
▁disintegrat	-11.7901
▁manufactur	-11.7901
▁cherish	-11.7903
▁eva	-11.7903
▁haunt	-11.7903
▁clar	-11.7905
▁invent	-11.7906
agna	-11.7906
▁offend	-11.7908
▁tootin	-11.7909
▁dominat	-11.7909
trapping	-11.7909
▁acquaint	-11.791
term	-11.7911
▁univers	-11.7912
▁craw	-11.7915
▁clan	-11.7915
ities	-11.7916
rug	-11.7918
script	-11.7919
ette	-11.792
iving	-11.7922
writer	-11.7922
trap	-11.7922
bag	-11.7923
friends	-11.7923
haul	-11.7923
biz	-11.7923
happies	-11.7923
view	-11.7925
phrase	-11.7925
ruff	-11.7925
build	-11.7925
▁glue	-11.7925
▁plea	-11.7926
▁fizz	-11.7926
shore	-11.7926
identified	-11.7926
penny	-11.7926
spotted	-11.7926
zero	-11.7927
judged	-11.7927
nik	-11.7927
after	-11.7927
▁qualifie	-11.7927
shift	-11.7928
stream	-11.7928
bouncing	-11.7928
killer	-11.7928
needles	-11.7928
squeak	-11.7929
historical	-11.7929
burn	-11.7929
presence	-11.7929
joined	-11.7929
fathers	-11.7929
pilot	-11.7929
quarter	-11.7929
responsible	-11.7929
consider	-11.7929
understood	-11.7929
girl	-11.7929
▁celebrit	-11.7929
grateful	-11.7929
given	-11.7929
grown	-11.7929
grade	-11.7929
bomb	-11.7929
double	-11.7929
pressure	-11.7929
experience	-11.793
wolf	-11.793
bringing	-11.793
energy	-11.793
normal	-11.793
▁bio	-11.793
plethora	-11.793
scene	-11.793
finish	-11.793
teacher	-11.793
plane	-11.793
bird	-11.793
minute	-11.793
drop	-11.793
final	-11.793
▁educate	-11.793
horse	-11.793
course	-11.793
morning	-11.793
people	-11.793
daisy	-11.793
with	-11.793
▁ceremon	-11.793
▁purge	-11.793
bottom	-11.793
maybe	-11.7931
▁brea	-11.7931
▁gidd	-11.7931
jos	-11.7931
obey	-11.7931
▁fortunate	-11.7931
▁ugl	-11.7931
physical	-11.7932
halt	-11.7932
▁stud	-11.7932
▁spunk	-11.7932
valley	-11.7932
peter	-11.7932
▁gato	-11.7933
blind	-11.7933
jack	-11.7933
▁energ	-11.7933
▁garde	-11.7933
▁asp	-11.7933
▁defens	-11.7933
▁craz	-11.7933
lift	-11.7933
born	-11.7934
wire	-11.7934
▁yow	-11.7934
style	-11.7934
▁magnifi	-11.7935
flying	-11.7935
winning	-11.7935
type	-11.7935
heard	-11.7936
fore	-11.7937
case	-11.7937
▁merg	-11.7937
itating	-11.7938
worthy	-11.7938
found	-11.7939
making	-11.7939
fell	-11.7939
bilities	-11.7939
cats	-11.794
▁activate	-11.794
▁absolut	-11.7941
mile	-11.7941
bean	-11.7941
roni	-11.7941
media	-11.7941
bore	-11.7942
▁grad	-11.7944
▁whoopdedoop	-11.7944
▁prett	-11.7945
▁flak	-11.7945
tton	-11.7946
▁curl	-11.7946
taking	-11.7946
hound	-11.7946
▁collide	-11.7947
order	-11.7947
▁famili	-11.7947
step	-11.7947
▁villa	-11.7947
▁dedicate	-11.7947
▁mosquito	-11.7948
▁orde	-11.7948
pass	-11.7948
▁pff	-11.7949
spir	-11.7949
nice	-11.795
▁potentia	-11.7952
▁exam	-11.7952
seeing	-11.7952
▁feat	-11.7952
▁kik	-11.7953
▁olympi	-11.7953
▁atti	-11.7953
▁ancest	-11.7953
▁enemi	-11.7953
▁cooperat	-11.7953
▁phenom	-11.7953
▁hustle	-11.7953
▁dictat	-11.7953
ccent	-11.7954
▁infect	-11.7954
▁recommend	-11.7954
▁revis	-11.7954
▁opportun	-11.7954
▁troub	-11.7954
▁celebratin	-11.7954
▁robot	-11.7955
▁leavin	-11.7955
▁exec	-11.7955
▁glori	-11.7955
urgeon	-11.7955
▁interact	-11.7955
cast	-11.7955
▁bernard	-11.7955
bling	-11.7955
▁vegeta	-11.7955
▁penn	-11.7955
bron	-11.7955
▁trait	-11.7955
▁orphan	-11.7956
▁dread	-11.7956
tastic	-11.7956
hysteric	-11.7956
racle	-11.7956
▁livin	-11.7956
▁procla	-11.7956
maker	-11.7956
▁intru	-11.7956
▁favour	-11.7956
semble	-11.7956
rbon	-11.7956
practic	-11.7956
▁multi	-11.7956
▁appo	-11.7957
▁furni	-11.7957
anci	-11.7957
▁contemp	-11.7957
▁neutr	-11.7957
▁strategi	-11.7957
hances	-11.7957
ivation	-11.7957
harmon	-11.7957
dwig	-11.7957
zzo	-11.7957
▁authenticat	-11.7957
▁subjugat	-11.7957
sanct	-11.7957
subordinat	-11.7957
▁goldarned	-11.7957
▁ordinat	-11.7957
▁sanctuar	-11.7957
▁sharecrop	-11.7957
▁tergi	-11.7957
▁voluntar	-11.7957
animous	-11.7957
evaluate	-11.7957
excellency	-11.7957
illsbury	-11.7957
ohohoh	-11.7957
relevant	-11.7957
resolution	-11.7957
rifying	-11.7957
surrection	-11.7957
terdam	-11.7957
▁abracadabra	-11.7957
▁adidas	-11.7957
▁adjourn	-11.7957
▁affre	-11.7957
▁afloat	-11.7957
▁airborne	-11.7957
▁alejandro	-11.7957
▁allegiance	-11.7957
▁ambassador	-11.7957
▁ambush	-11.7957
▁anthem	-11.7957
▁anticipate	-11.7957
▁apocalypse	-11.7957
▁appalachian	-11.7957
▁aspirin	-11.7957
▁atlantic	-11.7957
▁bachelor	-11.7957
▁balcony	-11.7957
▁baltimore	-11.7957
▁banjo	-11.7957
▁barbershop	-11.7957
▁bbbbut	-11.7957
▁bejesus	-11.7957
▁bewitching	-11.7957
▁binoculars	-11.7957
▁bismarck	-11.7957
▁blister	-11.7957
▁bludgeon	-11.7957
▁blueberries	-11.7957
▁boasts	-11.7957
▁boisterous	-11.7957
▁boulevard	-11.7957
▁bruise	-11.7957
▁brunel	-11.7957
▁buckingham	-11.7957
▁capiche	-11.7957
▁cappuccino	-11.7957
▁caribou	-11.7957
▁catalina	-11.7957
▁certificate	-11.7957
▁chaparral	-11.7957
▁chemosynthesis	-11.7957
▁chererat	-11.7957
▁chieri	-11.7957
▁chipmunk	-11.7957
▁citrus	-11.7957
▁clucking	-11.7957
▁clutche	-11.7957
▁colombia	-11.7957
▁companies	-11.7957
▁compassion	-11.7957
▁comprende	-11.7957
▁compromise	-11.7957
▁confederacy	-11.7957
▁congratulating	-11.7957
▁consequently	-11.7957
▁consult	-11.7957
▁controversial	-11.7957
▁controversies	-11.7957
▁cuckoo	-11.7957
▁cucumber	-11.7957
▁curiosity	-11.7957
▁cutthroats	-11.7957
▁cylinder	-11.7957
▁debacle	-11.7957
▁decelerat	-11.7957
▁deceptive	-11.7957
▁devour	-11.7957
▁dijanna	-11.7957
▁dilemma	-11.7957
▁diphtheria	-11.7957
▁disapprov	-11.7957
▁disassemble	-11.7957
▁disciples	-11.7957
▁dismount	-11.7957
▁disrupti	-11.7957
▁distorted	-11.7957
▁douay	-11.7957
▁doughnut	-11.7957
▁drainclean	-11.7957
▁dripping	-11.7957
▁elaborate	-11.7957
▁elbow	-11.7957
▁elegant	-11.7957
▁enterprise	-11.7957
▁epicenter	-11.7957
▁epitaph	-11.7957
▁epithet	-11.7957
▁epitome	-11.7957
▁euphori	-11.7957
▁exaggerated	-11.7957
▁excusezmoi	-11.7957
▁extremophiles	-11.7957
▁facsimile	-11.7957
▁fascinate	-11.7957
▁figgers	-11.7957
▁filthy	-11.7957
▁firecrackers	-11.7957
▁flearidden	-11.7957
▁foresakes	-11.7957
▁fossil	-11.7957
▁freeloaders	-11.7957
▁frenzy	-11.7957
▁frequency	-11.7957
▁friction	-11.7957
▁frown	-11.7957
▁gadget	-11.7957
▁ganymede	-11.7957
▁gentile	-11.7957
▁ghoul	-11.7957
▁gnaw	-11.7957
▁goalonger	-11.7957
▁goodfornothing	-11.7957
▁hallucinat	-11.7957
▁handerpants	-11.7957
▁harlot	-11.7957
▁hawaii	-11.7957
▁healthcare	-11.7957
▁hearteater	-11.7957
▁heuristic	-11.7957
▁hydraulic	-11.7957
▁hydrophyte	-11.7957
▁hygiene	-11.7957
▁hymeneal	-11.7957
▁identification	-11.7957
▁idiosyncrasy	-11.7957
▁immune	-11.7957
▁independence	-11.7957
▁indignant	-11.7957
▁indomitable	-11.7957
▁injure	-11.7957
▁innocence	-11.7957
▁integrity	-11.7957
▁intell	-11.7957
▁intricate	-11.7957
▁invoke	-11.7957
▁irrational	-11.7957
▁irresistible	-11.7957
▁itsits	-11.7957
▁janitor	-11.7957
▁khorosho	-11.7957
▁kirtle	-11.7957
▁kiteflyer	-11.7957
▁kulkan	-11.7957
▁latooah	-11.7957
▁leonberger	-11.7957
▁liberties	-11.7957
▁librarian	-11.7957
▁malachi	-11.7957
▁marathon	-11.7957
▁maturity	-11.7957
▁megawatts	-11.7957
▁merlot	-11.7957
▁minnesota	-11.7957
▁miraculous	-11.7957
▁misread	-11.7957
▁mitzvah	-11.7957
▁mocking	-11.7957
▁monstrous	-11.7957
▁mortgage	-11.7957
▁mortimer	-11.7957
▁moustache	-11.7957
▁munchausen	-11.7957
▁mysteries	-11.7957
▁nairobi	-11.7957
▁narrow	-11.7957
▁nehru	-11.7957
▁neptune	-11.7957
▁nicotine	-11.7957
▁nightclubs	-11.7957
▁noggin	-11.7957
▁nonetheless	-11.7957
▁norpoth	-11.7957
▁northeast	-11.7957
▁obsolete	-11.7957
▁obtained	-11.7957
▁oligarchy	-11.7957
▁opsomath	-11.7957
▁oratory	-11.7957
▁ordinance	-11.7957
▁orisha	-11.7957
▁outdoors	-11.7957
▁outreach	-11.7957
▁outsmart	-11.7957
▁pasadena	-11.7957
▁peddler	-11.7957
▁pedicure	-11.7957
▁peppermint	-11.7957
▁persuasion	-11.7957
▁petticoat	-11.7957
▁philomela	-11.7957
▁plessitora	-11.7957
▁plutonium	-11.7957
▁predator	-11.7957
▁prestochango	-11.7957
▁propagate	-11.7957
▁prophecy	-11.7957
▁protocol	-11.7957
▁provisions	-11.7957
▁pseudo	-11.7957
▁puttemans	-11.7957
▁rainbow	-11.7957
▁receipts	-11.7957
▁recognis	-11.7957
▁recollect	-11.7957
▁redemption	-11.7957
▁referee	-11.7957
▁regulat	-11.7957
▁relapse	-11.7957
▁relentless	-11.7957
▁repetition	-11.7957
▁reproduc	-11.7957
▁repulsive	-11.7957
▁resource	-11.7957
▁retreat	-11.7957
▁revelation	-11.7957
▁rheumatism	-11.7957
▁risotto	-11.7957
▁roadblock	-11.7957
▁rolypoly	-11.7957
▁roscoe	-11.7957
▁rsvp	-11.7957
▁ruckus	-11.7957
▁sarcastically	-11.7957
▁satisfaction	-11.7957
▁saturated	-11.7957
▁saturation	-11.7957
▁savvy	-11.7957
▁saxon	-11.7957
▁scann	-11.7957
▁scowl	-11.7957
▁secrecy	-11.7957
▁selfgoverning	-11.7957
▁selfprotection	-11.7957
▁semiaqua	-11.7957
▁sentencing	-11.7957
▁serpent	-11.7957
▁shiloh	-11.7957
▁shoelace	-11.7957
▁shortcut	-11.7957
▁sizzling	-11.7957
▁straddlers	-11.7957
▁stumble	-11.7957
▁stump	-11.7957
▁stuyvesant	-11.7957
▁subsequent	-11.7957
▁substitute	-11.7957
▁suspicion	-11.7957
▁sympathy	-11.7957
▁talbot	-11.7957
▁thampy	-11.7957
▁thingamabob	-11.7957
▁thingamajig	-11.7957
▁thirteen	-11.7957
▁thompson	-11.7957
▁throttle	-11.7957
▁ththththth	-11.7957
▁timothy	-11.7957
▁tldoublegeher	-11.7957
▁toddler	-11.7957
▁tonght	-11.7957
▁transcribe	-11.7957
▁treachery	-11.7957
▁trespass	-11.7957
▁trinket	-11.7957
▁trixie	-11.7957
▁ultraviolet	-11.7957
▁unbearable	-11.7957
▁unbuckle	-11.7957
▁underestimate	-11.7957
▁understatement	-11.7957
▁unimportant	-11.7957
▁uninspired	-11.7957
▁unkstadder	-11.7957
▁unlawful	-11.7957
▁unlucky	-11.7957
▁unravel	-11.7957
▁uranus	-11.7957
▁urchin	-11.7957
▁vigilan	-11.7957
▁villarosa	-11.7957
▁visibility	-11.7957
▁voltaire	-11.7957
▁vulgar	-11.7957
▁walnuts	-11.7957
▁wheelbarrow	-11.7957
▁wilson	-11.7957
▁winifred	-11.7957
▁wiretap	-11.7957
▁withdraw	-11.7957
▁woodchuck	-11.7957
▁yonder	-11.7957
▁zurg	-11.7957
▁zzz	-11.7957
etereter	-11.7957
▁snapshot	-11.7957
▁wacko	-11.7957
▁ydna	-11.7957
▁amelia	-11.7957
▁asbestos	-11.7957
▁ascend	-11.7957
▁ascot	-11.7957
▁blackmail	-11.7957
▁bliss	-11.7957
▁bogus	-11.7957
▁boychick	-11.7957
▁bullshit	-11.7957
▁carbonating	-11.7957
▁chomp	-11.7957
▁clacking	-11.7957
▁clinic	-11.7957
▁dominion	-11.7957
▁glamor	-11.7957
▁graveyard	-11.7957
▁hoopla	-11.7957
▁hypothe	-11.7957
▁ialalala	-11.7957
▁immortal	-11.7957
▁interrogati	-11.7957
▁intuiti	-11.7957
▁junkyard	-11.7957
▁mistress	-11.7957
▁novel	-11.7957
▁oblivio	-11.7957
▁plinkityplink	-11.7957
▁reelected	-11.7957
▁reunion	-11.7957
▁sanction	-11.7957
▁sardion	-11.7957
▁shadow	-11.7957
▁simpson	-11.7957
▁situated	-11.7957
▁sorcer	-11.7957
▁suspension	-11.7957
▁sylv	-11.7957
▁unaware	-11.7957
▁uncertain	-11.7957
▁volcanoes	-11.7957
▁weaknesses	-11.7957
▁whawhat	-11.7957
ritis	-11.7957
rmint	-11.7957
▁antlers	-11.7957
▁arapa	-11.7957
▁autonom	-11.7957
▁bimi	-11.7957
▁cafe	-11.7957
▁ceiling	-11.7957
▁conserve	-11.7957
▁detach	-11.7957
▁enlist	-11.7957
▁griping	-11.7957
▁hurl	-11.7957
▁identical	-11.7957
▁kingfisher	-11.7957
▁meek	-11.7957
▁merchan	-11.7957
▁naacp	-11.7957
▁navigat	-11.7957
▁pertain	-11.7957
▁regime	-11.7957
▁squabbl	-11.7957
▁suitcases	-11.7957
▁tomato	-11.7957
▁torch	-11.7957
▁tumor	-11.7957
▁whirl	-11.7957
▁woild	-11.7957
▁aimlessly	-11.7957
▁corben	-11.7957
▁exports	-11.7957
▁filter	-11.7957
▁fritter	-11.7957
▁gesture	-11.7957
▁heleo	-11.7957
▁iceskat	-11.7957
▁immoral	-11.7957
▁intrigu	-11.7957
▁mousse	-11.7957
▁obedien	-11.7957
▁shelves	-11.7957
▁brew	-11.7957
▁guinea	-11.7957
▁apprehend	-11.7957
▁lizards	-11.7957
▁profan	-11.7957
▁renounce	-11.7957
▁restoration	-11.7957
▁strive	-11.7957
▁console	-11.7957
▁diller	-11.7957
▁harsh	-11.7957
▁haveta	-11.7957
▁roommate	-11.7957
▁tranquilizer	-11.7957
uenos	-11.7957
▁altar	-11.7957
▁canyon	-11.7957
▁condescending	-11.7957
▁examining	-11.7957
▁lenses	-11.7957
▁participa	-11.7957
▁sinister	-11.7957
▁whoaohh	-11.7957
meron	-11.7957
▁sandrine	-11.7957
▁intensi	-11.7957
▁irritat	-11.7957
▁occupied	-11.7957
▁opsimath	-11.7957
▁aroused	-11.7957
▁envied	-11.7957
▁lulling	-11.7957
▁unarmed	-11.7957
▁chime	-11.7957
▁compound	-11.7957
▁coupon	-11.7957
▁linguist	-11.7957
▁restart	-11.7957
▁sprain	-11.7957
▁contemporar	-11.7957
▁hornero	-11.7957
▁nightmare	-11.7957
▁noticing	-11.7957
▁overall	-11.7957
▁dualist	-11.7957
▁draper	-11.7957
egar	-11.7957
uished	-11.7957
▁aggression	-11.7957
▁ahhhhhh	-11.7957
▁lucifer	-11.7957
▁luncheon	-11.7957
▁strategists	-11.7957
▁thrive	-11.7957
▁bypass	-11.7957
▁reek	-11.7957
▁retirement	-11.7957
▁ripple	-11.7957
▁saturn	-11.7957
▁trippy	-11.7957
▁casks	-11.7957
▁fragile	-11.7957
▁negotiations	-11.7957
▁offroad	-11.7957
▁rearrang	-11.7957
▁tiptoe	-11.7957
▁immut	-11.7957
▁furnish	-11.7957
▁harvest	-11.7957
▁distress	-11.7957
▁transferred	-11.7957
▁counterweight	-11.7957
▁interference	-11.7957
▁neutraliz	-11.7957
▁infuse	-11.7957
▁numbskull	-11.7957
▁makin	-11.7957
▁cuddl	-11.7957
▁ecstatic	-11.7957
▁quibble	-11.7957
▁ruffians	-11.7957
▁wilkins	-11.7957
▁jerome	-11.7957
▁mavis	-11.7957
▁oration	-11.7957
▁nogood	-11.7957
▁remedy	-11.7957
▁sprint	-11.7957
mmuniti	-11.7957
▁astray	-11.7957
▁cedar	-11.7957
▁pigeon	-11.7957
▁sprinklers	-11.7957
▁perpetuate	-11.7957
▁abroad	-11.7957
▁articulate	-11.7957
▁memorize	-11.7957
▁mosque	-11.7957
▁olsen	-11.7957
▁newborns	-11.7957
▁gumball	-11.7957
▁spicy	-11.7957
bum	-11.7957
bogg	-11.7957
▁context	-11.7957
▁flee	-11.7957
aaaaaa	-11.7957
sanitar	-11.7957
▁heartache	-11.7957
▁diaper	-11.7957
▁indulge	-11.7957
▁luggage	-11.7957
▁motorcycle	-11.7957
▁nolan	-11.7957
▁oldtimer	-11.7957
▁subconscious	-11.7957
▁succu	-11.7957
dominant	-11.7957
trated	-11.7957
▁kingsguard	-11.7957
▁vegetation	-11.7957
▁disconnect	-11.7957
▁energize	-11.7957
▁iye	-11.7957
▁dissolved	-11.7957
▁squish	-11.7957
▁spice	-11.7957
▁vista	-11.7957
▁butbut	-11.7957
▁mongr	-11.7957
▁carsonville	-11.7957
▁interfere	-11.7957
▁intruder	-11.7957
▁raz	-11.7957
guise	-11.7957
▁dumpster	-11.7957
▁legitimate	-11.7957
▁processions	-11.7957
▁symphon	-11.7957
▁boundaries	-11.7957
▁mosey	-11.7958
▁distinctive	-11.7958
▁stunning	-11.7958
▁instinctive	-11.7958
▁malice	-11.7958
▁yeeha	-11.7958
▁psychology	-11.7958
▁hostil	-11.7958
▁efficient	-11.7958
▁weaver	-11.7958
▁spinster	-11.7958
▁valentine	-11.7958
▁errand	-11.7958
▁croquet	-11.7958
▁troubling	-11.7958
▁simm	-11.7958
▁sugarcoat	-11.7958
▁edna	-11.7958
▁rudy	-11.7958
▁centerpiece	-11.7958
▁pathetic	-11.7958
nova	-11.7958
▁rift	-11.7958
▁vegetable	-11.7958
▁imposing	-11.7958
▁compose	-11.7958
▁rosebud	-11.7958
▁schack	-11.7958
▁nerd	-11.7958
▁unforgettable	-11.7958
▁rifles	-11.7958
udge	-11.7958
▁verac	-11.7958
▁forestall	-11.7958
▁denied	-11.7958
▁sibling	-11.7958
▁audac	-11.7958
▁bunny	-11.7958
▁ails	-11.7958
▁bambi	-11.7958
▁butler	-11.7958
▁pounce	-11.7958
▁preservation	-11.7958
▁arab	-11.7958
▁applies	-11.7958
▁erasers	-11.7958
▁entitled	-11.7958
▁diversion	-11.7958
▁arrogan	-11.7958
▁brownlee	-11.7958
▁blot	-11.7958
▁anxi	-11.7958
▁discrimination	-11.7958
▁eruption	-11.7958
▁inauguration	-11.7958
▁violation	-11.7958
▁distinction	-11.7958
▁pacifi	-11.7958
nnab	-11.7958
▁extensive	-11.7958
▁variations	-11.7958
▁executive	-11.7958
▁burps	-11.7958
ignati	-11.7958
▁motivation	-11.7958
▁banco	-11.7958
▁blitz	-11.7958
▁rigging	-11.7958
▁crud	-11.7958
▁waterskiers	-11.7958
▁pasi	-11.7958
▁dazzle	-11.7959
speaking	-11.7959
▁epic	-11.7959
azur	-11.7959
base	-11.7959
plicate	-11.7959
▁peel	-11.7959
▁teeny	-11.7959
▁victimhood	-11.7959
▁adorn	-11.7959
agan	-11.7959
deuce	-11.7959
▁ahhhhhhhhhh	-11.7959
▁dispute	-11.7959
▁steward	-11.7959
tograph	-11.7959
▁crucifi	-11.7959
▁decay	-11.7959
hampton	-11.7959
▁schism	-11.7959
▁polite	-11.7959
▁stalk	-11.7959
rtalo	-11.7959
▁flair	-11.7959
▁tracy	-11.7959
▁pursuit	-11.7959
▁sinew	-11.7959
▁handwriting	-11.7959
▁ruth	-11.7959
▁seismo	-11.7959
▁isolat	-11.7959
▁liberat	-11.7959
▁preferably	-11.7959
▁ilyn	-11.7959
▁classmates	-11.7959
▁vegas	-11.7959
▁johann	-11.7959
▁sharing	-11.7959
▁ttfn	-11.7959
cipher	-11.7959
▁lioness	-11.7959
▁galile	-11.7959
▁kingswood	-11.7959
▁confront	-11.7959
▁corset	-11.7959
▁fluent	-11.7959
▁offside	-11.7959
xili	-11.7959
▁barbe	-11.7959
▁delta	-11.796
▁henchm	-11.796
▁stitch	-11.796
arnish	-11.796
▁recommendation	-11.796
▁mandon	-11.796
▁rival	-11.796
▁hostility	-11.796
▁mentor	-11.796
monad	-11.796
▁stanley	-11.796
▁hereto	-11.796
▁tibetans	-11.796
▁incompetent	-11.796
▁injury	-11.796
▁guidance	-11.796
▁battlements	-11.796
▁measl	-11.796
▁ragged	-11.796
▁croft	-11.796
▁corpus	-11.796
▁dictatus	-11.796
▁garth	-11.796
▁reunitin	-11.796
▁ops	-11.796
frost	-11.796
▁abundant	-11.796
▁yummy	-11.796
▁robotic	-11.796
▁linda	-11.796
▁copper	-11.796
▁yellowstone	-11.796
mophobiaism	-11.796
▁thatta	-11.796
▁loft	-11.796
▁characteristic	-11.796
▁studies	-11.796
▁condenser	-11.796
▁fulfillment	-11.7961
▁singular	-11.7961
▁ohio	-11.7961
▁purse	-11.7961
▁representative	-11.7961
▁treetop	-11.7961
▁dignit	-11.7961
▁assign	-11.7961
▁helmet	-11.7961
▁laude	-11.7961
▁righteous	-11.7961
▁pranks	-11.7961
guay	-11.7961
▁bigotry	-11.7961
▁shun	-11.7961
▁slack	-11.7961
oci	-11.7961
▁exile	-11.7962
essive	-11.7962
zama	-11.7962
▁imply	-11.7962
▁madison	-11.7962
▁deaf	-11.7962
▁zipper	-11.7962
▁dudette	-11.7962
▁flour	-11.7962
▁clay	-11.7962
▁decoration	-11.7962
▁pedi	-11.7962
▁suspenders	-11.7962
▁perishers	-11.7962
▁poachers	-11.7962
▁mural	-11.7962
▁ragtime	-11.7962
▁fuzz	-11.7962
▁ramble	-11.7962
▁repent	-11.7962
▁contention	-11.7962
▁napis	-11.7962
▁imaginat	-11.7962
▁dentist	-11.7963
▁flurry	-11.7963
▁slee	-11.7963
▁keen	-11.7963
inburg	-11.7963
▁management	-11.7963
▁fishbone	-11.7963
▁scarier	-11.7963
▁munch	-11.7963
▁batteries	-11.7963
▁mello	-11.7963
▁toodles	-11.7963
▁harp	-11.7963
▁barba	-11.7963
▁tori	-11.7963
▁aghhh	-11.7963
▁riff	-11.7963
▁alex	-11.7963
▁charity	-11.7963
▁enny	-11.7963
nfl	-11.7963
precede	-11.7963
▁lumpy	-11.7963
▁reflection	-11.7963
▁aqua	-11.7964
▁renovation	-11.7964
otage	-11.7964
▁superstition	-11.7964
▁courtroom	-11.7964
▁extenuate	-11.7964
▁sculpture	-11.7964
▁theologian	-11.7964
▁gown	-11.7964
▁partnership	-11.7964
▁doze	-11.7964
▁korea	-11.7964
▁dislike	-11.7965
ttata	-11.7965
▁nursery	-11.7965
▁collective	-11.7965
▁sixteenth	-11.7965
▁pfft	-11.7965
▁denial	-11.7965
mology	-11.7965
▁revenue	-11.7965
▁technicality	-11.7965
▁barbel	-11.7966
▁quill	-11.7966
▁toxin	-11.7966
▁canad	-11.7966
▁finalists	-11.7966
cop	-11.7966
▁scuff	-11.7966
racu	-11.7966
lebore	-11.7966
▁scarce	-11.7966
▁restore	-11.7966
▁assert	-11.7967
▁allerg	-11.7967
▁graham	-11.7967
▁grassland	-11.7967
▁stephan	-11.7967
shilling	-11.7967
▁espous	-11.7967
▁promptly	-11.7967
▁travelled	-11.7967
▁festival	-11.7967
▁collider	-11.7967
▁veg	-11.7967
▁crosswork	-11.7967
▁interaction	-11.7967
▁instrumental	-11.7968
▁invader	-11.7968
▁posture	-11.7968
▁crock	-11.7968
nappin	-11.7968
▁psychiatry	-11.7968
▁supplier	-11.7968
xim	-11.7968
▁aisle	-11.7969
▁immerse	-11.7969
ourne	-11.7969
ttoo	-11.7969
▁expressive	-11.7969
▁qualities	-11.7969
▁redhanded	-11.797
visible	-11.797
▁australia	-11.797
▁proposal	-11.797
▁shrine	-11.797
▁atro	-11.797
▁bonus	-11.797
▁apologetic	-11.797
▁bald	-11.797
▁collins	-11.797
most	-11.797
▁tyrann	-11.797
▁consist	-11.797
▁decree	-11.797
▁aug	-11.797
bted	-11.797
▁batman	-11.7971
tamina	-11.7971
▁syca	-11.7971
▁wheez	-11.7971
entities	-11.7972
▁cuz	-11.7972
polit	-11.7972
▁linger	-11.7972
▁swine	-11.7972
▁breakdown	-11.7972
▁hustler	-11.7973
▁wetland	-11.7973
▁habitable	-11.7973
▁sharpton	-11.7973
▁catfish	-11.7973
lette	-11.7973
▁reap	-11.7973
▁electricity	-11.7973
▁ruffle	-11.7973
▁rode	-11.7973
ovey	-11.7973
▁mouthful	-11.7974
▁sunny	-11.7974
bition	-11.7974
uru	-11.7974
enders	-11.7974
gree	-11.7974
▁layout	-11.7974
▁zone	-11.7974
▁thorn	-11.7974
▁dock	-11.7975
▁voters	-11.7975
▁aand	-11.7975
▁confirmation	-11.7975
▁chur	-11.7975
▁comedian	-11.7975
▁barge	-11.7975
loud	-11.7975
▁sneakers	-11.7975
icize	-11.7975
▁architecture	-11.7976
▁enabl	-11.7976
▁pear	-11.7976
bite	-11.7976
▁wildfire	-11.7976
▁aval	-11.7976
gling	-11.7976
▁pinch	-11.7976
▁patern	-11.7976
▁exceeded	-11.7977
▁euro	-11.7977
▁planner	-11.7977
▁admission	-11.7977
▁alleged	-11.7977
▁flattened	-11.7977
▁employed	-11.7977
▁hover	-11.7977
▁stro	-11.7978
unfilled	-11.7979
rlock	-11.7979
▁magnif	-11.7979
▁muck	-11.7979
dilla	-11.7979
entine	-11.7979
▁bois	-11.798
urt	-11.798
▁puddle	-11.798
▁nightfall	-11.7981
▁apologist	-11.7981
▁whens	-11.7981
ilian	-11.7981
▁ruff	-11.7982
▁strainer	-11.7982
▁mint	-11.7982
▁nether	-11.7982
▁royalty	-11.7983
▁certainty	-11.7983
elli	-11.7983
▁timber	-11.7984
▁wate	-11.7984
▁architectur	-11.7984
vian	-11.7984
calorie	-11.7984
elieved	-11.7985
▁hollow	-11.7985
▁supposing	-11.7985
▁whore	-11.7985
▁booth	-11.7986
▁shushing	-11.7986
▁halfback	-11.7986
▁priceless	-11.7986
▁paleography	-11.7987
▁broom	-11.7987
▁systematic	-11.7987
▁gator	-11.7987
▁dough	-11.7987
▁icky	-11.7987
▁perp	-11.7988
▁unha	-11.7988
▁bonehead	-11.7988
▁fraul	-11.7988
▁ingen	-11.7989
▁pow	-11.7989
▁realistic	-11.7989
▁glued	-11.7989
▁alley	-11.7989
▁deliveries	-11.799
chis	-11.799
▁manpower	-11.799
▁communicating	-11.799
wind	-11.799
▁misuse	-11.7991
▁truthful	-11.7991
▁warden	-11.7991
▁noor	-11.7991
▁mich	-11.7991
▁script	-11.7991
cell	-11.7992
▁sinner	-11.7992
▁truce	-11.7992
▁betcha	-11.7992
ake	-11.7992
▁machinery	-11.7992
▁meditat	-11.7993
▁bloomin	-11.7993
▁valle	-11.7993
▁stunt	-11.7993
▁chores	-11.7993
▁mimic	-11.7993
▁jiff	-11.7994
▁wallis	-11.7994
▁ferr	-11.7994
▁ddo	-11.7994
▁reco	-11.7994
▁fullback	-11.7995
▁fizzy	-11.7995
▁homophobi	-11.7996
mania	-11.7996
▁flit	-11.7996
▁vii	-11.7996
olic	-11.7997
▁tractor	-11.7997
▁bookworm	-11.7997
▁dedicat	-11.7997
bil	-11.7997
▁thickest	-11.7997
oung	-11.7998
terior	-11.7998
▁soil	-11.7998
▁corp	-11.7999
▁aren	-11.7999
▁mutin	-11.7999
▁dilla	-11.8
▁hideout	-11.8
▁flopp	-11.8
▁maester	-11.8
dupon	-11.8001
▁hardball	-11.8001
▁steeper	-11.8002
▁weaken	-11.8002
▁backward	-11.8002
▁rally	-11.8002
▁spatter	-11.8002
▁exceptional	-11.8002
▁secretar	-11.8004
▁clang	-11.8004
▁greed	-11.8005
▁dome	-11.8005
bage	-11.8005
▁hardship	-11.8006
▁feeders	-11.8006
holder	-11.8006
coal	-11.8006
▁tox	-11.8006
▁badger	-11.8006
▁mack	-11.8006
▁industry	-11.8007
▁pout	-11.8007
▁advisory	-11.8007
quet	-11.8007
▁repitch	-11.8008
▁discussion	-11.8008
▁whwho	-11.8008
▁rug	-11.8008
▁festiv	-11.8008
▁ticker	-11.8009
▁biz	-11.8009
▁mite	-11.801
▁mingle	-11.801
▁chin	-11.801
▁chinaman	-11.8011
knowing	-11.8012
▁hous	-11.8012
▁haunted	-11.8012
▁manufactured	-11.8012
▁disintegrated	-11.8012
▁cherished	-11.8013
gregation	-11.8013
▁collated	-11.8013
▁robbed	-11.8014
▁flies	-11.8014
▁tempo	-11.8015
pation	-11.8015
▁nike	-11.8015
▁rig	-11.8016
bal	-11.8016
▁peeled	-11.8016
load	-11.8017
▁playoff	-11.8017
lague	-11.8017
istical	-11.8018
▁tempera	-11.8018
▁handling	-11.8018
▁haul	-11.8018
▁outrun	-11.8019
▁gum	-11.8019
▁brook	-11.8019
▁roy	-11.8019
▁moren	-11.802
▁cookies	-11.802
elus	-11.8021
▁asses	-11.8021
▁rod	-11.8022
▁burger	-11.8023
▁defined	-11.8023
▁checkout	-11.8024
▁morale	-11.8024
▁campus	-11.8025
▁marches	-11.8025
▁blackwater	-11.8025
▁talkative	-11.8025
▁spar	-11.8025
cup	-11.8025
▁oba	-11.8025
▁perf	-11.8026
sided	-11.8026
orthodox	-11.8026
▁idol	-11.8027
▁puttin	-11.8027
▁arth	-11.8028
▁specialty	-11.8028
▁allo	-11.8028
▁accountant	-11.8029
▁lineup	-11.8029
▁ico	-11.8029
▁endors	-11.8029
tiggers	-11.8031
nana	-11.8032
hit	-11.8032
▁punches	-11.8033
▁devastating	-11.8035
mpered	-11.8035
▁boiling	-11.8035
▁housing	-11.8035
▁expanding	-11.8035
▁surrounding	-11.8035
▁jon	-11.8036
hful	-11.8037
▁superconduct	-11.8038
▁startling	-11.8038
▁beatle	-11.804
▁positively	-11.804
▁elderly	-11.804
▁instantly	-11.804
▁kerr	-11.8042
▁incen	-11.8042
▁cul	-11.8043
uv	-11.8044
axi	-11.8045
▁some	-11.8047
▁soaked	-11.8048
▁commy	-11.8048
▁photographer	-11.8048
▁plumber	-11.8048
gaze	-11.8048
▁betrayed	-11.8049
▁hacked	-11.8049
▁compress	-11.8049
oofy	-11.8051
▁badge	-11.8052
▁justifi	-11.8052
▁interna	-11.8052
▁ick	-11.8052
tiggerifi	-11.8053
lem	-11.8053
▁investigated	-11.8053
▁thicker	-11.8054
▁plank	-11.8054
▁struggled	-11.8055
hemati	-11.8055
▁relations	-11.8056
▁poems	-11.8056
▁organisms	-11.8056
▁vamps	-11.8056
▁blokes	-11.8056
▁chandeliers	-11.8056
▁entrepreneurs	-11.8056
▁politicians	-11.8056
▁reinforcements	-11.8056
▁reptiles	-11.8056
▁instincts	-11.8056
▁fades	-11.8056
▁fragments	-11.8056
▁writer	-11.8057
ddled	-11.8057
▁architects	-11.8057
▁pent	-11.8058
inary	-11.8058
▁refus	-11.8059
▁patiently	-11.8061
mation	-11.8061
▁sour	-11.8061
iece	-11.8062
wy	-11.8062
▁invested	-11.8062
rdon	-11.8063
cher	-11.8063
▁hopeful	-11.8066
▁dip	-11.8068
▁coco	-11.807
▁coral	-11.807
▁easie	-11.8073
▁bach	-11.8073
▁matches	-11.8074
▁ron	-11.8074
▁esta	-11.8075
▁sexy	-11.8075
got	-11.8076
positions	-11.8076
▁increased	-11.8076
▁setup	-11.8076
▁jimo	-11.8077
▁ruler	-11.8077
▁buzzard	-11.8077
dispens	-11.8079
▁luke	-11.8079
▁mole	-11.8081
▁vest	-11.8082
▁engineering	-11.8082
▁commandment	-11.8083
▁lasse	-11.8083
▁reel	-11.8083
west	-11.8084
▁moonshiner	-11.8086
▁knighted	-11.8086
▁encountered	-11.8086
▁possessed	-11.8086
▁actor	-11.8086
▁puffed	-11.8086
▁symbolis	-11.809
▁bridget	-11.809
▁criticize	-11.8091
▁prom	-11.8092
▁iit	-11.8092
▁zigg	-11.8093
▁hayes	-11.8093
▁introducing	-11.8095
▁forgiven	-11.8102
▁peacefully	-11.8107
▁any	-11.8108
▁funk	-11.8109
get	-11.8109
▁verb	-11.8109
▁cookin	-11.811
▁essen	-11.8111
▁sway	-11.8112
▁corr	-11.8113
▁straighten	-11.8114
▁handsomely	-11.8115
killed	-11.8116
▁shackle	-11.8117
yola	-11.8118
▁cuban	-11.8123
▁displayed	-11.8123
▁nin	-11.8124
liant	-11.8126
ital	-11.8128
▁sneaky	-11.8129
niversa	-11.8132
headed	-11.8136
▁neopo	-11.8137
▁highp	-11.8137
▁crawling	-11.8138
night	-11.8139
meat	-11.8139
▁jabber	-11.8142
ath	-11.8143
▁coc	-11.8144
▁chilly	-11.8144
▁gable	-11.8148
▁messes	-11.815
▁distillery	-11.815
▁slamm	-11.815
zel	-11.8152
▁hearse	-11.8152
▁constantly	-11.8153
▁paranoi	-11.8153
▁papist	-11.8154
erfe	-11.8155
▁sn	-11.8158
▁scratched	-11.816
▁breached	-11.816
▁grasped	-11.816
▁microscop	-11.8162
▁cad	-11.8169
▁christen	-11.8171
▁swinger	-11.8172
▁tats	-11.8173
yself	-11.8173
▁menu	-11.8176
etic	-11.818
ume	-11.818
oxid	-11.8182
aching	-11.8189
▁railing	-11.819
▁surfing	-11.819
bumpkin	-11.8191
▁ticking	-11.8194
▁lit	-11.8195
▁evolve	-11.8195
encephalo	-11.8199
▁tre	-11.82
▁performed	-11.8201
▁competed	-11.8205
▁mic	-11.8208
▁wearin	-11.8213
rrrrrrrr	-11.8214
▁paleograph	-11.8214
erson	-11.8215
▁advanced	-11.8217
▁homeland	-11.8218
adron	-11.8222
cre	-11.8229
▁highballs	-11.823
▁leopards	-11.823
▁neighbours	-11.823
▁reservations	-11.823
▁smoothie	-11.823
▁souvenirs	-11.823
▁equations	-11.823
▁forbids	-11.823
▁emerges	-11.823
▁backwards	-11.823
▁borrowed	-11.8235
convenien	-11.8238
▁generate	-11.8238
dancing	-11.824
▁hoof	-11.8241
lco	-11.8242
▁span	-11.8243
guns	-11.8243
▁neatly	-11.8243
▁commoner	-11.8244
▁ducky	-11.8244
▁matt	-11.8246
▁dumber	-11.8247
▁teachin	-11.8248
gee	-11.8249
▁pressur	-11.8251
▁mot	-11.8253
▁creamy	-11.8253
▁beaten	-11.8262
lement	-11.8266
▁colli	-11.8267
ctive	-11.827
▁chewed	-11.8273
know	-11.8274
▁printer	-11.8274
sub	-11.8279
▁haw	-11.8281
▁marvelously	-11.8286
▁blooming	-11.8295
▁diet	-11.8297
▁builder	-11.8297
▁chica	-11.8307
▁heavenly	-11.8311
▁roasted	-11.8311
▁hath	-11.8313
emed	-11.8315
▁morons	-11.8317
tioning	-11.8317
▁blocked	-11.8317
use	-11.8318
▁dissen	-11.832
kid	-11.8321
▁poly	-11.8323
▁sued	-11.8324
▁lance	-11.8325
ssen	-11.8325
▁quota	-11.8326
huckle	-11.8327
▁buckle	-11.8335
▁hangin	-11.8335
▁ahm	-11.8336
▁excitedly	-11.8343
▁alarming	-11.8349
▁junkie	-11.8351
▁joker	-11.8353
▁flowed	-11.8354
actu	-11.8358
ussie	-11.8362
ttles	-11.8365
▁understandable	-11.837
▁pickin	-11.8375
▁spinn	-11.8378
▁crosswor	-11.838
▁softy	-11.838
agged	-11.8397
▁slapp	-11.8398
▁clause	-11.8399
▁commissioner	-11.8403
▁archie	-11.8411
▁did	-11.8412
▁flop	-11.8414
▁associate	-11.8415
▁falsely	-11.8421
yyou	-11.8422
▁pret	-11.8422
▁oop	-11.8427
▁seminar	-11.8428
▁correctly	-11.8428
▁loudly	-11.8441
▁explorer	-11.8442
▁meta	-11.8447
pension	-11.8451
▁confirming	-11.8453
▁weee	-11.8458
ahahah	-11.8458
lipp	-11.8465
▁plac	-11.8468
▁rap	-11.8472
eback	-11.8485
dying	-11.8486
▁engag	-11.8489
agile	-11.8491
▁permitt	-11.8492
luckiest	-11.8493
▁tickl	-11.8497
▁bugg	-11.8501
licious	-11.8503
▁bounder	-11.8524
sinaitic	-11.8524
▁fondle	-11.8534
▁zoom	-11.8539
▁deer	-11.8546
▁massac	-11.8553
▁arse	-11.8562
▁carolin	-11.8564
▁swor	-11.8579
▁chic	-11.8583
▁deco	-11.8585
▁newm	-11.8602
▁turnin	-11.8622
descent	-11.8662
bies	-11.8678
▁authoriz	-11.868
▁pinn	-11.8684
▁patroll	-11.8689
monia	-11.8694
▁askin	-11.8698
▁skinn	-11.8705
▁ironic	-11.873
▁comb	-11.8731
quel	-11.8737
▁eatin	-11.8738
teenth	-11.8769
wo	-11.8781
megaton	-11.8782
▁sixt	-11.8786
▁revolutionar	-11.8802
▁linen	-11.8808
▁uncover	-11.8815
▁latino	-11.8818
▁juici	-11.8819
▁volcanic	-11.8828
erv	-11.8829
sync	-11.8831
natin	-11.8834
▁theolog	-11.8851
advert	-11.8853
▁rank	-11.8874
tains	-11.8876
▁worshippe	-11.8897
ality	-11.8934
llaba	-11.8967
teres	-11.898
▁missin	-11.8995
▁hypocrit	-11.9002
▁remiss	-11.9026
▁eyel	-11.9053
ominated	-11.9074
last	-11.9083
▁garc	-11.9103
▁cre	-11.9109
ugged	-11.9184
ladas	-11.9227
▁skirt	-11.923
▁martini	-11.9298
rang	-11.9313
fold	-11.9348
▁fiance	-11.9354
cca	-11.9359
▁bomber	-11.9375
▁breather	-11.9398
maiden	-11.9432
nick	-11.9449
▁erase	-11.9449
▁chan	-11.9466
activity	-11.9502
eper	-11.9518
yle	-11.953
severance	-11.9532
▁ala	-11.9593
jury	-11.9598
▁vat	-11.9603
▁portho	-11.965
noun	-11.9658
ipped	-11.971
pose	-11.9734
▁spl	-11.9771
▁terri	-11.982
arnett	-11.9823
rich	-11.9839
bone	-11.9842
▁amph	-11.9869
▁hammer	-11.9905
cuff	-11.9951
iffle	-11.9952
▁baker	-12.0026
gue	-12.0038
employment	-12.0059
bber	-12.0062
ocation	-12.0071
▁stretche	-12.0084
dish	-12.0088
angelic	-12.0125
▁formula	-12.0148
ologists	-12.0157
▁consorti	-12.0165
▁anni	-12.0182
soir	-12.0208
ception	-12.021
▁finisher	-12.0215
metri	-12.0237
erated	-12.0265
rgency	-12.0267
version	-12.0331
▁gre	-12.0359
oosh	-12.0414
nam	-12.0421
examined	-12.0429
atter	-12.044
▁wiggl	-12.0465
appy	-12.0515
▁yu	-12.0531
going	-12.0555
rggg	-12.058
uveni	-12.0582
▁yorker	-12.06
conceived	-12.0608
ninety	-12.0631
lux	-12.0738
▁conta	-12.0742
▁fadin	-12.0752
ethe	-12.0756
▁barle	-12.0777
uddy	-12.0784
lash	-12.0787
▁econom	-12.0801
▁auntie	-12.0811
cism	-12.0823
nguard	-12.0865
affy	-12.0872
▁vir	-12.0919
▁conc	-12.0936
gging	-12.1045
ampa	-12.11
▁cutie	-12.1108
▁hedge	-12.1197
addle	-12.1255
done	-12.1268
vine	-12.1284
▁sexi	-12.1286
▁pant	-12.1328
▁boog	-12.1401
city	-12.1481
luc	-12.149
▁mater	-12.1514
▁concentrat	-12.1561
▁simul	-12.1575
▁rhythmic	-12.1582
tripped	-12.1668
aving	-12.1689
mong	-12.1693
ori	-12.1744
▁technolog	-12.1751
robe	-12.1752
▁impo	-12.1758
▁stepp	-12.1776
▁hydran	-12.1815
▁cheeri	-12.1873
vity	-12.1881
ement	-12.1882
posi	-12.1887
rite	-12.1905
howlin	-12.191
▁schem	-12.1962
ambo	-12.2011
▁curv	-12.204
ckle	-12.2052
whoohoo	-12.2093
udder	-12.2212
▁ahhah	-12.2231
▁slipper	-12.2243
eological	-12.2337
▁observat	-12.2381
▁dynam	-12.2389
tism	-12.2418
unk	-12.2422
▁assembl	-12.2454
▁penetrat	-12.247
uring	-12.2495
angelo	-12.2508
▁emi	-12.2515
▁nazi	-12.2519
▁tortur	-12.2529
▁iri	-12.2622
▁integrat	-12.264
▁capitaliz	-12.2667
titled	-12.2741
▁debu	-12.2747
▁geolog	-12.283
guard	-12.2839
amos	-12.2847
▁twin	-12.2918
▁interv	-12.2926
breed	-12.2944
vival	-12.297
▁thermo	-12.2974
awk	-12.3085
▁amp	-12.312
▁featur	-12.3196
▁che	-12.3256
▁ent	-12.327
▁ravin	-12.3288
fication	-12.3298
cursed	-12.3344
how	-12.3461
▁latte	-12.3502
▁conceive	-12.3521
raw	-12.3523
arach	-12.3586
igi	-12.3613
▁urge	-12.364
serving	-12.3647
▁quarte	-12.3652
▁summ	-12.3739
▁substan	-12.3739
▁ke	-12.378
sandal	-12.3785
▁settl	-12.3799
lain	-12.3834
vac	-12.3887
▁unemploy	-12.3893
▁influ	-12.3896
▁publishe	-12.3942
canned	-12.4103
ani	-12.4181
▁wigg	-12.4185
itude	-12.4284
▁damag	-12.4329
ooper	-12.444
▁arro	-12.4454
mm	-12.4493
lois	-12.4549
unch	-12.4567
▁nurs	-12.4626
aah	-12.4628
jector	-12.4644
▁nomina	-12.4654
log	-12.4694
chem	-12.4719
▁madde	-12.4781
▁recept	-12.4788
comfortably	-12.4804
kerous	-12.4812
▁flounc	-12.4867
▁behav	-12.487
nowi	-12.4945
oww	-12.4964
▁klu	-12.4968
pressurize	-12.5052
▁arg	-12.5107
▁seiz	-12.5219
▁sorr	-12.5279
▁preserv	-12.528
▁measur	-12.5369
equi	-12.5433
▁slur	-12.5561
q	-14.0514
