<unk>	0
<s>	0
</s>	0
s	-3.4219
▁im	-4.47544
▁dont	-4.62689
▁know	-4.63571
▁go	-4.80742
▁get	-4.85965
▁right	-4.98195
▁come	-5.00296
▁like	-5.06154
ing	-5.06395
▁youre	-5.06825
▁oh	-5.09254
▁got	-5.11133
▁one	-5.14378
▁yeah	-5.16417
▁well	-5.20503
ed	-5.20662
▁thats	-5.25612
▁na	-5.27405
▁okay	-5.34015
▁see	-5.3982
▁good	-5.40072
▁back	-5.49257
▁want	-5.51016
d	-5.51269
▁think	-5.55017
▁gon	-5.55447
▁yes	-5.57902
▁us	-5.58029
▁hey	-5.63505
▁hes	-5.63985
▁look	-5.64201
▁take	-5.65069
▁going	-5.65653
▁man	-5.67937
▁time	-5.69377
▁	-5.75807
▁cant	-5.76484
▁l	-5.78264
▁ill	-5.79917
▁need	-5.85263
▁tell	-5.88845
▁say	-5.93247
y	-5.95776
▁would	-5.96626
▁way	-5.96851
▁please	-5.98344
▁make	-6.02172
▁could	-6.02692
▁never	-6.0367
▁sorry	-6.0388
▁sir	-6.04106
▁thank	-6.06178
er	-6.07112
▁lets	-6.08458
▁let	-6.10256
▁really	-6.10614
▁something	-6.10756
▁theres	-6.15309
ly	-6.15551
▁two	-6.15738
e	-6.16061
▁love	-6.17942
▁didnt	-6.18012
▁whats	-6.18326
▁little	-6.20348
▁give	-6.20599
▁mean	-6.22568
▁god	-6.23205
▁people	-6.24796
▁wait	-6.2801
▁mr	-6.30588
▁ive	-6.30879
▁uh	-6.34335
▁thing	-6.34556
▁stop	-6.41263
▁keep	-6.4251
▁shes	-6.43852
▁said	-6.44877
a	-6.45564
▁theyre	-6.46006
▁help	-6.46238
▁home	-6.47451
▁work	-6.50107
▁new	-6.51162
▁name	-6.52337
in	-6.52449
▁find	-6.5269
▁even	-6.53284
▁much	-6.55072
▁sure	-6.55602
▁life	-6.56121
▁call	-6.57852
▁day	-6.58443
▁first	-6.58469
▁great	-6.58789
▁night	-6.62363
▁still	-6.63318
▁away	-6.63529
▁nothing	-6.63702
▁put	-6.63873
▁must	-6.64267
n	-6.6533
▁last	-6.66037
▁maybe	-6.66234
▁anything	-6.67814
▁guys	-6.68831
▁stay	-6.69051
▁hell	-6.69733
▁talk	-6.69935
▁ta	-6.71008
▁hi	-6.72168
▁leave	-6.72932
▁kill	-6.73932
▁ever	-6.75023
▁always	-6.75057
▁thought	-6.75733
▁place	-6.7614
▁world	-6.76143
▁long	-6.77448
▁coming	-6.79472
▁wan	-6.7999
▁around	-6.80128
▁guy	-6.80354
▁told	-6.80581
▁three	-6.8081
▁every	-6.80842
▁years	-6.82382
c	-6.82511
▁nice	-6.82875
▁everything	-6.83574
▁show	-6.83706
▁wont	-6.84042
▁move	-6.84062
r	-6.84073
o	-6.84528
▁youve	-6.84988
▁baby	-6.85463
es	-6.87036
al	-6.88837
▁better	-6.89357
t	-6.89808
▁done	-6.89862
▁hold	-6.90494
▁feel	-6.91174
▁listen	-6.91239
▁things	-6.91665
▁dad	-6.91672
▁id	-6.92504
▁may	-6.93138
▁youll	-6.93145
▁car	-6.93862
▁hear	-6.93922
▁hello	-6.94048
▁remember	-6.94174
p	-6.95253
▁understand	-6.9681
▁doesnt	-6.97077
▁left	-6.97078
▁fine	-6.97585
▁big	-6.98341
▁ok	-6.98482
▁woman	-7.00342
▁lot	-7.0211
m	-7.02661
▁son	-7.02851
▁believe	-7.03024
▁old	-7.04663
▁real	-7.04879
▁made	-7.05226
▁men	-7.06024
▁ready	-7.06457
▁shit	-7.07202
▁house	-7.07229
▁bad	-7.07646
▁enough	-7.08105
ll	-7.08421
▁watch	-7.09037
▁might	-7.10834
▁another	-7.1114
▁someone	-7.11758
▁room	-7.11771
▁friend	-7.12097
g	-7.1267
▁kind	-7.12861
▁girl	-7.12973
▁door	-7.13172
▁lm	-7.1409
▁dead	-7.14266
▁bring	-7.14661
▁run	-7.15223
▁boy	-7.153
▁ask	-7.15341
▁wrong	-7.16521
▁try	-7.16734
▁fight	-7.17102
▁live	-7.17459
▁father	-7.18687
▁today	-7.19158
▁best	-7.19192
▁talking	-7.21211
▁um	-7.21368
▁die	-7.2141
▁looking	-7.21466
▁playing	-7.2226
▁turn	-7.2276
▁music	-7.229
▁thanks	-7.23012
▁wanted	-7.2316
▁getting	-7.23514
▁money	-7.23596
▁seen	-7.23694
▁tonight	-7.23945
▁weve	-7.23946
▁miss	-7.23985
or	-7.24448
▁care	-7.2495
▁sam	-7.25017
▁excuse	-7.25356
▁mind	-7.26466
u	-7.26735
▁war	-7.26741
▁isnt	-7.26787
▁face	-7.27902
l	-7.2848
▁job	-7.2862
▁f	-7.28692
▁mom	-7.28988
▁hope	-7.29788
▁came	-7.30757
▁next	-7.31207
▁huh	-7.31212
▁happened	-7.3123
▁whoa	-7.31608
▁trying	-7.3194
▁meet	-7.32478
▁head	-7.3267
▁aint	-7.32725
▁open	-7.34212
▁dr	-7.34835
▁cause	-7.35052
▁together	-7.36227
▁else	-7.36231
▁end	-7.36364
▁course	-7.36628
▁without	-7.37023
▁everybody	-7.37494
▁mother	-7.37507
▁un	-7.37651
▁fire	-7.37842
en	-7.38001
▁hard	-7.38372
▁matter	-7.38644
▁chuckles	-7.3919
▁found	-7.39396
▁saw	-7.39861
▁damn	-7.40688
▁five	-7.40739
▁em	-7.4105
▁heart	-7.42165
▁family	-7.42352
▁yet	-7.42364
▁john	-7.42762
▁whole	-7.42782
▁lost	-7.428
▁morning	-7.43207
i	-7.43293
▁hand	-7.43613
▁alone	-7.43625
▁called	-7.43626
▁break	-7.44293
▁happy	-7.44481
ers	-7.44482
▁gone	-7.44503
▁side	-7.44548
b	-7.45983
on	-7.46198
▁phone	-7.46668
▁second	-7.46998
▁four	-7.47097
▁school	-7.47544
▁tomorrow	-7.48876
▁friends	-7.48978
▁speak	-7.49078
▁many	-7.49102
ar	-7.49389
▁frank	-7.50202
▁story	-7.50233
▁close	-7.50446
▁went	-7.50695
ion	-7.50856
▁days	-7.509
▁beautiful	-7.5115
▁city	-7.51166
▁everyone	-7.51167
▁knew	-7.52074
▁ago	-7.52548
k	-7.52559
▁far	-7.52822
le	-7.52881
▁whos	-7.53281
▁minutes	-7.53331
▁eat	-7.54717
▁change	-7.54969
it	-7.55319
▁shot	-7.5538
▁actually	-7.55388
▁late	-7.56587
▁ring	-7.56836
f	-7.56857
▁guess	-7.57312
▁shut	-7.57327
▁start	-7.57932
▁president	-7.58295
▁killed	-7.58571
▁already	-7.5879
▁use	-7.58809
▁idea	-7.58956
▁took	-7.59289
▁hit	-7.59554
▁sighs	-7.59912
▁stand	-7.60705
▁death	-7.61307
h	-7.61404
▁happen	-7.61539
re	-7.61619
▁re	-7.6162
▁wouldnt	-7.61883
▁sit	-7.61894
▁eyes	-7.62056
▁kid	-7.62219
▁easy	-7.62331
▁ah	-7.62647
▁part	-7.62671
▁used	-7.62812
▁inside	-7.62851
▁saying	-7.63144
▁wasnt	-7.63359
▁worry	-7.6388
▁walk	-7.64818
▁problem	-7.64919
▁pretty	-7.6493
▁welcome	-7.6493
▁b	-7.65087
▁roy	-7.65412
▁ha	-7.67034
▁anyone	-7.67063
▁lady	-7.67114
▁laughing	-7.67349
▁tommy	-7.67604
▁power	-7.67731
▁nobody	-7.68147
▁play	-7.68224
ic	-7.68737
▁check	-7.68737
▁set	-7.69631
▁rest	-7.69709
▁heard	-7.70661
v	-7.70896
▁half	-7.70914
st	-7.70975
▁minute	-7.71101
▁bob	-7.71483
▁case	-7.71492
▁water	-7.71506
▁youd	-7.71538
▁hurt	-7.71611
an	-7.72598
▁company	-7.72605
▁trust	-7.7262
▁lose	-7.72975
▁wish	-7.73653
▁safe	-7.73972
▁young	-7.74098
▁havent	-7.74329
▁bit	-7.74526
▁hands	-7.74606
▁read	-7.74622
▁six	-7.74913
▁exactly	-7.74924
▁high	-7.74939
▁lord	-7.74992
▁p	-7.75119
▁mine	-7.75501
▁control	-7.75505
est	-7.75544
▁line	-7.76103
▁black	-7.76675
▁pay	-7.76706
▁c	-7.77236
▁wheres	-7.77493
▁a	-7.7784
▁stuff	-7.77869
▁wife	-7.77869
▁ass	-7.7816
▁voice	-7.78472
▁chance	-7.78477
▁moment	-7.78978
▁alive	-7.79088
▁promise	-7.79281
▁boys	-7.79632
▁true	-7.79687
▁deal	-7.79746
▁number	-7.80189
▁couldnt	-7.8038
▁cut	-7.80494
w	-7.80762
▁since	-7.80901
▁shall	-7.80934
▁supposed	-7.81015
▁t	-7.81771
▁afraid	-7.82164
▁crazy	-7.82164
▁gentlemen	-7.82166
▁win	-7.82788
▁miles	-7.82995
▁looks	-7.83195
▁frodo	-7.83426
▁whatever	-7.83426
▁save	-7.8366
▁in	-7.8394
▁word	-7.8408
▁soon	-7.84487
▁forget	-7.85351
▁brother	-7.85398
▁answer	-7.85445
ri	-7.85664
▁wants	-7.85807
▁sleep	-7.86018
▁taking	-7.86022
▁later	-7.8616
▁working	-7.86477
▁year	-7.86753
ch	-7.87132
▁clear	-7.87296
▁behind	-7.8731
▁full	-7.87627
▁they	-7.87975
▁ten	-7.88615
▁business	-7.88639
▁gave	-7.88649
▁light	-7.88919
▁party	-7.88978
▁question	-7.89493
▁de	-7.89498
▁white	-7.89991
▁rock	-7.90072
▁pick	-7.90184
▁trouble	-7.90666
▁bye	-7.90667
▁send	-7.90674
▁country	-7.90685
▁shoot	-7.90742
is	-7.91301
▁free	-7.91345
▁somebody	-7.91351
▁fear	-7.91364
▁pull	-7.91529
▁doctor	-7.92322
▁goes	-7.92439
▁thinking	-7.92499
▁air	-7.92783
ie	-7.93284
▁says	-7.94068
▁wow	-7.94144
▁plan	-7.94426
▁person	-7.94736
▁kids	-7.95002
▁point	-7.95259
man	-7.95328
sh	-7.96033
▁heres	-7.96282
▁honey	-7.96285
▁met	-7.96397
▁paul	-7.97717
▁almost	-7.97736
▁till	-7.9778
▁waiting	-7.9823
▁fall	-7.98546
▁hours	-7.99134
▁ho	-7.99375
▁king	-7.99403
z	-7.9942
▁laughs	-7.99734
▁game	-7.99759
▁husband	-7.99958
▁probably	-7.99958
▁follow	-8.00271
▁deep	-8.00495
▁week	-8.00521
▁hang	-8.00809
▁makes	-8.00809
▁land	-8.01238
▁reason	-8.01437
▁important	-8.01468
▁team	-8.01505
▁peter	-8.01576
▁drink	-8.01593
▁grunts	-8.01811
▁means	-8.0195
▁blood	-8.01978
▁mrs	-8.02103
▁perfect	-8.02232
▁outside	-8.02237
▁started	-8.02316
▁died	-8.02618
▁d	-8.03035
ne	-8.03061
▁continues	-8.03768
▁captain	-8.03776
▁ship	-8.03799
▁st	-8.04106
ive	-8.04539
▁daughter	-8.05308
▁radio	-8.05347
▁tony	-8.05349
▁feet	-8.05349
▁touch	-8.05368
▁gun	-8.06017
▁least	-8.06138
▁truth	-8.06138
lng	-8.06697
▁women	-8.06938
▁york	-8.06938
▁front	-8.06939
▁earth	-8.06941
us	-8.0696
▁cooper	-8.06988
el	-8.0709
▁e	-8.07228
um	-8.07254
▁hate	-8.07494
▁harold	-8.07744
▁boss	-8.07775
▁fun	-8.08144
▁ride	-8.08296
▁professor	-8.08557
▁daddy	-8.08562
▁th	-8.08564
▁though	-8.09267
▁buddy	-8.09378
▁master	-8.094
▁sign	-8.09711
▁max	-8.1021
▁drive	-8.10657
▁making	-8.11041
▁dear	-8.11059
▁past	-8.11079
less	-8.11087
▁g	-8.1118
▁slow	-8.11668
▁dog	-8.11706
ation	-8.11861
▁secret	-8.11869
▁different	-8.11877
▁sister	-8.1206
▁news	-8.1246
▁jesus	-8.12724
▁leaving	-8.12724
▁running	-8.12732
▁married	-8.12737
▁quite	-8.12802
▁anymore	-8.13579
▁roger	-8.13581
▁living	-8.13594
▁general	-8.14441
▁future	-8.14442
▁also	-8.14443
▁girls	-8.14549
▁rocky	-8.14771
▁times	-8.15109
▁body	-8.1531
▁ladies	-8.1532
able	-8.15405
▁fat	-8.15723
▁asked	-8.15919
ies	-8.15954
▁horse	-8.1601
▁children	-8.16188
▁brought	-8.16189
▁along	-8.16192
▁khan	-8.16197
▁happening	-8.16389
▁cover	-8.16529
▁anyway	-8.17073
▁couple	-8.17078
▁cool	-8.17081
▁an	-8.17093
▁tried	-8.17213
▁hot	-8.17416
ish	-8.18536
▁fly	-8.18923
▁cheering	-8.19916
▁scared	-8.20035
ur	-8.20513
▁sound	-8.20618
▁dark	-8.20689
▁claire	-8.20693
▁special	-8.20694
▁grunting	-8.20774
▁happens	-8.2092
▁dream	-8.20935
▁top	-8.20996
▁book	-8.21217
to	-8.21288
▁pass	-8.21383
▁strong	-8.21384
▁hurry	-8.21619
▁food	-8.21619
▁wear	-8.21956
▁lives	-8.22255
▁count	-8.22258
ist	-8.22407
▁protect	-8.22522
▁stupid	-8.22554
ter	-8.22562
▁mission	-8.22794
▁buy	-8.22881
▁eye	-8.23057
▁space	-8.2349
▁arent	-8.23503
▁ahead	-8.23521
▁hmm	-8.23544
▁murder	-8.23792
▁pop	-8.2387
il	-8.23948
▁human	-8.24103
▁taken	-8.24213
▁pa	-8.2423
▁breathe	-8.24269
▁clean	-8.24289
▁fact	-8.24711
▁quick	-8.25198
▁sing	-8.25603
▁join	-8.25708
▁sometimes	-8.25974
▁red	-8.26102
ry	-8.26232
▁telling	-8.26281
▁anybody	-8.26382
▁goodbye	-8.26382
▁child	-8.26385
▁mama	-8.26507
at	-8.2727
▁straight	-8.27362
▁funny	-8.27379
▁return	-8.27786
▁step	-8.27906
▁quiet	-8.28139
▁super	-8.28315
▁choice	-8.28355
▁neil	-8.2836
▁seven	-8.28382
▁song	-8.28395
▁bed	-8.28539
▁able	-8.28757
▁seem	-8.29124
▁luck	-8.29153
▁sun	-8.29193
▁english	-8.29352
▁eight	-8.29364
▁itll	-8.29368
▁catch	-8.29385
ment	-8.29573
▁yo	-8.29751
▁bar	-8.29832
▁fast	-8.30031
▁french	-8.30363
▁flight	-8.30385
▁ln	-8.3046
▁gasps	-8.30584
id	-8.30736
▁office	-8.31209
te	-8.31447
▁order	-8.31514
ant	-8.31545
▁da	-8.31792
▁german	-8.32154
▁lt	-8.32163
▁dance	-8.32171
▁small	-8.32181
▁write	-8.32215
▁moving	-8.32428
▁none	-8.32485
▁o	-8.32499
▁beat	-8.32766
ting	-8.33184
▁others	-8.33456
▁lie	-8.33522
▁pain	-8.33782
▁major	-8.34484
▁sent	-8.34532
▁army	-8.34688
ut	-8.34781
▁feeling	-8.34909
▁calling	-8.35009
▁christmas	-8.35573
ty	-8.35644
▁z	-8.35896
ma	-8.36451
up	-8.36562
▁bet	-8.36592
▁fool	-8.36619
▁worth	-8.36647
▁burn	-8.36654
▁cold	-8.36665
▁drop	-8.36666
▁hotel	-8.36685
▁moon	-8.36693
▁la	-8.36728
▁ya	-8.37039
▁glass	-8.37626
▁either	-8.37734
▁kiss	-8.37735
▁wake	-8.37737
▁mouth	-8.37765
▁command	-8.3852
▁mad	-8.38793
▁relax	-8.38833
▁jet	-8.38851
▁tv	-8.38914
▁hour	-8.38992
▁lead	-8.39113
▁speaking	-8.39274
▁police	-8.39907
▁needs	-8.40031
▁machine	-8.4008
▁groans	-8.40113
ln	-8.40252
▁s	-8.40688
am	-8.40689
▁months	-8.4085
▁blue	-8.41068
▁dinner	-8.41068
▁enemy	-8.41068
▁road	-8.41068
▁glad	-8.41068
▁suit	-8.41295
▁seconds	-8.41315
▁seems	-8.41355
▁throw	-8.41438
ate	-8.41472
▁parents	-8.41614
th	-8.41648
ro	-8.41703
ce	-8.41925
ity	-8.42105
▁ann	-8.42106
▁across	-8.42204
▁teach	-8.42268
▁bruce	-8.43354
▁hows	-8.43356
▁ground	-8.43368
▁field	-8.43378
▁system	-8.4361
▁piece	-8.43641
▁pie	-8.43944
ot	-8.44194
ful	-8.44202
▁report	-8.44316
▁history	-8.44516
▁tom	-8.44574
▁crowd	-8.44629
ve	-8.44807
la	-8.45049
▁laugh	-8.45395
▁record	-8.45407
▁target	-8.45693
▁hair	-8.45727
▁mia	-8.45774
▁bitch	-8.45805
▁mmm	-8.45951
▁weeks	-8.45983
▁sick	-8.46889
▁panting	-8.46893
ous	-8.47143
ul	-8.47593
▁indistinct	-8.47871
▁rome	-8.48143
▁strange	-8.49038
▁fighting	-8.49206
▁sherman	-8.49308
▁shouldnt	-8.49308
▁calm	-8.49343
▁officer	-8.49518
▁plane	-8.50484
▁message	-8.50554
▁kick	-8.50576
▁roll	-8.50587
▁town	-8.50622
▁train	-8.50636
▁watching	-8.50648
▁lts	-8.50843
▁dis	-8.51087
▁push	-8.51149
▁attack	-8.51237
▁building	-8.51268
▁murph	-8.51792
▁present	-8.51793
▁alright	-8.51794
▁round	-8.51797
▁r	-8.51799
▁burr	-8.51833
▁screaming	-8.52051
▁age	-8.52084
▁agent	-8.52375
▁sounds	-8.5239
oobi	-8.52473
▁ex	-8.52737
▁america	-8.52785
▁words	-8.53055
▁gandalf	-8.53058
▁somewhere	-8.53058
▁hide	-8.53161
▁broke	-8.53169
▁po	-8.53253
▁chatter	-8.53701
▁singing	-8.53899
▁peace	-8.53973
▁letter	-8.53983
ia	-8.54109
▁amazing	-8.5434
▁cruella	-8.54344
▁given	-8.54355
▁duke	-8.54365
▁magic	-8.54375
▁bud	-8.54411
▁less	-8.54925
▁become	-8.55025
▁k	-8.55361
▁marry	-8.55651
▁wonderful	-8.55658
▁born	-8.55667
▁theyve	-8.55682
▁station	-8.55711
▁planet	-8.55797
▁copy	-8.55829
ent	-8.5591
▁mark	-8.56444
▁band	-8.56681
▁asking	-8.569
▁engine	-8.56924
▁short	-8.56955
▁bag	-8.57161
ge	-8.57281
▁hed	-8.57549
▁adam	-8.57734
▁destroy	-8.57738
▁honor	-8.57742
▁entire	-8.58068
▁careful	-8.5815
▁anderton	-8.58288
▁hamilton	-8.58288
▁forward	-8.5829
▁audience	-8.58295
▁hitler	-8.58309
▁gate	-8.58324
▁sky	-8.58343
▁poor	-8.58361
▁knock	-8.58432
▁learn	-8.58436
▁con	-8.58463
li	-8.58561
▁wayne	-8.58729
▁wed	-8.58751
co	-8.59157
▁cry	-8.59245
▁charlie	-8.59641
▁maam	-8.59654
▁tight	-8.59659
▁brendan	-8.59679
▁heh	-8.59758
▁list	-8.60083
ra	-8.60136
▁j	-8.60499
▁lock	-8.60638
ton	-8.60663
▁n	-8.60735
▁changed	-8.60799
▁class	-8.6086
▁sweet	-8.60928
▁comes	-8.60937
▁court	-8.61007
▁gift	-8.61009
▁michael	-8.61009
▁security	-8.61011
▁brand	-8.61013
▁seat	-8.61154
ber	-8.61328
▁lucky	-8.61366
▁m	-8.61443
▁finish	-8.61848
▁wind	-8.61883
▁saved	-8.61892
et	-8.6203
▁green	-8.62398
▁caught	-8.624
▁smile	-8.62403
▁felt	-8.62404
▁respect	-8.62407
▁director	-8.62428
▁ooh	-8.62446
▁rain	-8.6258
▁needed	-8.62631
▁blow	-8.62755
▁meeting	-8.63315
▁per	-8.63527
▁date	-8.63537
▁christ	-8.63788
▁forever	-8.63807
▁partner	-8.63809
▁sort	-8.63812
▁worried	-8.63838
▁fl	-8.63958
▁pre	-8.64088
as	-8.64557
▁tree	-8.64918
▁known	-8.6496
▁possible	-8.65235
▁swear	-8.65235
▁throat	-8.65235
▁explain	-8.65251
▁early	-8.654
ance	-8.65408
▁he	-8.65646
▁ba	-8.66606
▁goddamn	-8.66684
▁hospital	-8.66684
▁terrible	-8.66685
▁dangerous	-8.66694
▁charge	-8.66712
▁position	-8.66734
▁expect	-8.66955
▁loved	-8.67154
ped	-8.67758
ine	-8.67861
▁million	-8.67871
▁key	-8.68006
▁forgive	-8.68146
▁smell	-8.68155
▁hungry	-8.68161
▁shell	-8.68175
▁cost	-8.68244
op	-8.68564
ling	-8.6866
▁law	-8.68935
▁turned	-8.69001
▁state	-8.69208
▁figure	-8.6924
▁mistake	-8.69288
▁smart	-8.69412
▁street	-8.69416
▁coffee	-8.69648
▁george	-8.69648
▁river	-8.69648
▁longer	-8.69713
▁finally	-8.69801
▁out	-8.69976
▁arm	-8.70219
▁hall	-8.70252
▁wonder	-8.70506
▁handle	-8.70546
▁sp	-8.70582
▁joe	-8.70708
▁grab	-8.70846
▁takes	-8.7109
▁south	-8.71155
▁georgia	-8.71163
▁government	-8.71163
▁floor	-8.71163
▁sense	-8.71163
▁absolutely	-8.71187
▁fair	-8.71191
▁lll	-8.71217
▁pack	-8.71218
se	-8.7124
ho	-8.71633
out	-8.71827
age	-8.71996
▁looked	-8.72045
▁questions	-8.72292
▁serious	-8.72487
▁form	-8.72548
▁paper	-8.7257
▁paddy	-8.72705
▁smoke	-8.72705
▁rich	-8.72706
▁knight	-8.72707
▁spend	-8.7271
▁stick	-8.72721
▁tank	-8.72738
▁totally	-8.72786
▁sea	-8.7279
▁share	-8.72804
▁ice	-8.72822
▁kit	-8.72988
▁pat	-8.73009
▁names	-8.73039
▁worked	-8.73069
▁breathing	-8.73198
▁cat	-8.73361
▁loud	-8.73374
▁lou	-8.73423
▁meant	-8.73935
▁mo	-8.7406
▁near	-8.7406
▁thousand	-8.74189
▁contact	-8.74264
▁enjoy	-8.74264
▁uncle	-8.74264
▁proud	-8.74268
▁ball	-8.74407
▁seeing	-8.74577
▁choose	-8.7465
ian	-8.74678
▁bell	-8.74829
▁grow	-8.75063
ba	-8.75247
▁art	-8.75531
▁anne	-8.75568
▁balboa	-8.75851
▁perhaps	-8.75851
▁alarm	-8.75851
▁middle	-8.75851
▁lawyer	-8.75852
▁chicken	-8.7586
▁bank	-8.75867
▁upon	-8.75882
▁nine	-8.75905
▁west	-8.75909
▁bowl	-8.75956
▁table	-8.76068
ial	-8.76446
em	-8.76511
▁carl	-8.7682
do	-8.76883
▁continue	-8.77101
ow	-8.77256
▁accident	-8.77464
▁service	-8.77464
▁strength	-8.77464
▁werent	-8.77464
▁washington	-8.77464
▁hasnt	-8.77465
▁stone	-8.77534
▁sitting	-8.77541
▁screams	-8.77559
os	-8.77564
▁drover	-8.77567
▁carry	-8.77629
ol	-8.78165
▁star	-8.78372
▁act	-8.78493
na	-8.78623
be	-8.78689
▁lay	-8.78747
da	-8.78969
▁cell	-8.78973
▁simple	-8.79103
▁charles	-8.79107
▁guard	-8.79189
▁ray	-8.79238
▁broken	-8.79274
▁fish	-8.79295
▁seriously	-8.79332
▁tickets	-8.79459
▁lee	-8.79468
▁gold	-8.79527
▁reach	-8.79554
me	-8.79632
ally	-8.80138
▁lf	-8.80148
▁imagine	-8.8035
head	-8.80369
▁zak	-8.80755
▁amelia	-8.8077
▁anywhere	-8.8077
▁merry	-8.80779
▁rise	-8.80785
▁window	-8.80789
▁weekend	-8.80789
▁code	-8.80918
▁sm	-8.8094
▁belong	-8.80947
▁le	-8.81409
ru	-8.82138
▁low	-8.82462
▁college	-8.82465
▁fault	-8.82465
▁lunch	-8.82465
▁personal	-8.82493
▁race	-8.82499
▁june	-8.82537
▁slr	-8.82559
▁tired	-8.82573
▁lab	-8.82649
▁busy	-8.82684
▁suck	-8.8279
mp	-8.83095
ir	-8.83207
▁fix	-8.83643
led	-8.83743
▁realize	-8.83824
tic	-8.83836
de	-8.84087
▁paige	-8.84189
▁snow	-8.84189
▁island	-8.84189
▁dude	-8.84199
ca	-8.84246
▁unless	-8.84323
▁brain	-8.84513
ha	-8.84845
▁books	-8.85048
▁di	-8.85122
▁travel	-8.85298
▁soldiers	-8.85375
▁surprise	-8.85531
▁san	-8.8557
qu	-8.85845
▁gas	-8.8589
▁forgot	-8.8594
▁evil	-8.85943
▁viktor	-8.85943
▁blind	-8.85944
▁mike	-8.85946
▁darling	-8.85947
▁kidding	-8.85952
▁bridge	-8.85953
land	-8.86163
ag	-8.86176
▁cop	-8.86199
▁month	-8.86295
you	-8.86556
▁tea	-8.86752
▁program	-8.86824
▁hat	-8.86868
▁box	-8.86977
▁screw	-8.87178
▁mess	-8.87206
▁park	-8.87486
▁certain	-8.87514
▁fell	-8.87587
▁killing	-8.8766
▁definitely	-8.87729
▁within	-8.87732
▁pants	-8.87738
▁andi	-8.87742
▁groaning	-8.87782
▁press	-8.87856
▁billy	-8.87952
▁joey	-8.88041
les	-8.88202
▁trip	-8.88242
▁jump	-8.88328
▁american	-8.88479
▁gods	-8.88531
time	-8.89085
▁pro	-8.89453
▁ra	-8.89463
▁llttle	-8.89547
▁normal	-8.89547
▁rizvan	-8.89547
▁william	-8.89547
▁wrote	-8.89547
▁congratulations	-8.89551
▁trick	-8.89553
▁soul	-8.89565
▁vi	-8.89689
▁brave	-8.89756
▁east	-8.89797
▁en	-8.89808
▁picture	-8.90002
ver	-8.90099
go	-8.90521
rs	-8.90649
▁mu	-8.90736
▁al	-8.91275
▁third	-8.91399
▁except	-8.914
▁rancho	-8.91401
▁birdie	-8.91435
▁mmhmm	-8.91449
▁begin	-8.91513
▁completely	-8.9153
▁nurse	-8.91535
po	-8.91594
▁states	-8.9169
▁wondering	-8.92182
▁evening	-8.92604
▁co	-8.92731
▁rule	-8.92794
▁appreciate	-8.93011
▁do	-8.93148
▁village	-8.93267
▁difference	-8.93286
▁jenna	-8.93286
▁spartacus	-8.93286
▁weird	-8.93286
▁mommy	-8.93287
▁bloom	-8.93287
▁sweetie	-8.93335
▁golden	-8.93359
▁prove	-8.93453
▁signal	-8.93521
▁standing	-8.93757
▁united	-8.93762
▁pounds	-8.93831
▁dan	-8.93872
▁soldier	-8.93906
▁test	-8.94167
▁crying	-8.94182
▁bella	-8.9428
ness	-8.94618
nt	-8.94623
▁rules	-8.94637
▁raise	-8.94807
▁cr	-8.94993
▁sleeping	-8.95151
ny	-8.9519
▁spot	-8.95197
▁group	-8.95209
▁lieutenant	-8.95209
▁project	-8.95209
▁shirley	-8.95209
▁ulrich	-8.95209
▁virus	-8.95209
▁attention	-8.9521
▁jim	-8.95224
he	-8.95384
▁sad	-8.95462
▁quickly	-8.95642
▁figured	-8.95737
▁sh	-8.95751
oo	-8.95789
▁bloody	-8.9587
▁russian	-8.9588
▁path	-8.96374
▁dress	-8.96518
▁wearing	-8.96534
▁bomb	-8.96627
▁lovely	-8.96692
▁breath	-8.96911
im	-8.97121
▁ghost	-8.9717
▁yesterday	-8.9717
▁alien	-8.9717
▁shouldve	-8.97171
▁foot	-8.97175
▁colonel	-8.97178
▁archie	-8.97188
ip	-8.97391
▁parker	-8.97587
▁post	-8.97867
▁camera	-8.98025
▁works	-8.9805
▁whose	-8.98079
▁i	-8.98212
▁throwing	-8.9828
▁visit	-8.9844
▁flying	-8.98575
▁w	-8.98578
▁accept	-8.98604
▁stole	-8.99048
▁whoo	-8.99068
▁apollo	-8.9917
▁thomas	-8.9917
▁battle	-8.9917
▁mulan	-8.99172
▁dying	-8.99174
▁store	-8.99211
▁laughter	-8.99215
▁horn	-8.99235
▁dragon	-8.99314
▁doin	-8.99327
▁stopped	-8.99401
▁greatest	-8.99657
▁learned	-8.99997
▁hundred	-9.00022
▁van	-9.00026
ee	-9.00101
▁note	-9.0011
▁bus	-9.00196
▁weapons	-9.00212
▁buzz	-9.00562
▁track	-9.00575
▁sell	-9.00625
▁prime	-9.00671
way	-9.00711
tion	-9.00736
▁board	-9.00783
▁tim	-9.01135
▁alexander	-9.0121
▁repeat	-9.01211
▁bathroom	-9.01212
▁price	-9.01213
▁favorite	-9.01219
▁forest	-9.01251
▁lying	-9.01287
▁payne	-9.01324
▁yall	-9.01373
▁shouting	-9.01428
ary	-9.01562
▁force	-9.01709
▁dressed	-9.01787
▁starting	-9.01817
▁warm	-9.01833
▁cl	-9.01841
▁fr	-9.02019
▁truck	-9.02106
▁offer	-9.02242
▁bear	-9.02768
side	-9.0277
▁pen	-9.02805
▁agree	-9.02847
▁final	-9.03081
▁hero	-9.0316
▁mate	-9.03218
▁jane	-9.0328
▁dumb	-9.03283
▁brief	-9.03294
▁fought	-9.03294
▁judge	-9.03294
▁pleasure	-9.03294
▁rumbling	-9.03294
▁asshole	-9.03294
▁north	-9.03294
▁area	-9.03295
▁ashley	-9.03296
▁raju	-9.03297
▁bother	-9.03298
▁katie	-9.03317
▁robin	-9.03346
▁paid	-9.03349
▁data	-9.03384
▁betty	-9.03392
▁ma	-9.03423
▁so	-9.03448
▁beeping	-9.03497
▁eating	-9.03986
▁bill	-9.03989
▁lve	-9.04001
▁rocket	-9.04061
ck	-9.04079
▁finished	-9.04128
▁weapon	-9.04323
▁holding	-9.04388
▁bite	-9.04787
men	-9.05164
▁fate	-9.05246
▁brothers	-9.05264
▁weak	-9.0541
▁favor	-9.05412
▁address	-9.05421
▁albert	-9.05421
▁drunk	-9.05421
▁genius	-9.05421
▁clothes	-9.05422
▁jason	-9.05426
▁type	-9.05426
▁tough	-9.05427
▁kept	-9.05428
▁crime	-9.05428
▁spiderman	-9.05429
▁military	-9.0543
▁rather	-9.05431
▁outta	-9.05437
▁fbi	-9.05453
▁taught	-9.05462
▁guns	-9.05471
▁shh	-9.05598
▁match	-9.056
▁main	-9.0591
ble	-9.05948
lin	-9.05963
ew	-9.05988
▁teacher	-9.06295
▁wall	-9.06295
▁sword	-9.06524
ted	-9.06763
▁cute	-9.07063
▁lights	-9.0708
▁no	-9.07234
▁broadway	-9.07595
▁fletcher	-9.07595
▁impossible	-9.07595
▁precious	-9.07595
▁public	-9.07595
▁driving	-9.07595
▁fresh	-9.07596
▁helen	-9.07596
▁birthday	-9.07597
▁wedding	-9.076
▁queen	-9.07607
▁sight	-9.07657
▁pool	-9.07775
▁size	-9.07815
▁unit	-9.07994
▁wi	-9.08022
▁goodness	-9.08127
▁ran	-9.08198
vi	-9.08299
▁owe	-9.08788
▁lo	-9.08945
om	-9.09157
▁escape	-9.09401
ving	-9.09817
▁spirit	-9.09818
▁decision	-9.09818
▁heavily	-9.09818
▁lynch	-9.09818
▁sheriff	-9.09818
▁universe	-9.09818
▁serve	-9.09821
▁teeth	-9.09823
▁mountain	-9.09835
agol	-9.09838
▁spent	-9.09846
▁james	-9.09854
ord	-9.09878
▁flat	-9.09885
▁bigger	-9.09911
▁color	-9.09919
▁paulie	-9.09927
▁softly	-9.0998
▁mary	-9.10067
▁arms	-9.10078
▁certainly	-9.10086
▁cup	-9.10093
▁putting	-9.10104
▁ro	-9.10479
▁shoes	-9.10534
▁rings	-9.10571
▁doug	-9.10741
▁dreams	-9.1082
▁over	-9.10882
▁v	-9.10905
▁missed	-9.1109
▁pilot	-9.11105
ring	-9.11224
▁sacrifice	-9.11232
▁mann	-9.11411
▁steal	-9.11446
▁plates	-9.1152
▁allow	-9.11551
▁leader	-9.11607
▁base	-9.11706
▁risk	-9.11816
▁instead	-9.1209
▁strike	-9.12092
▁detective	-9.12095
▁club	-9.12098
▁wild	-9.121
▁large	-9.121
▁hank	-9.12111
▁babe	-9.12114
▁shaw	-9.12117
▁chosen	-9.12136
▁reading	-9.12294
▁manage	-9.1254
▁walking	-9.12551
▁ringing	-9.12781
▁nation	-9.128
▁dare	-9.12897
▁gu	-9.12918
▁where	-9.13713
▁hole	-9.13762
▁treat	-9.13826
hi	-9.13865
▁clears	-9.14014
▁scott	-9.14151
▁gra	-9.14153
▁correct	-9.14217
▁be	-9.14274
▁afternoon	-9.14416
▁deserve	-9.14416
▁maura	-9.14416
▁support	-9.14416
▁uhhuh	-9.14416
▁situation	-9.14416
▁climb	-9.14418
▁champion	-9.14458
▁writing	-9.14469
▁whispering	-9.14501
▁angela	-9.14517
▁single	-9.14575
▁interested	-9.14658
▁file	-9.14965
▁germany	-9.1501
▁commander	-9.15091
ass	-9.15112
▁ch	-9.15156
▁sl	-9.15312
▁destroyed	-9.15388
ta	-9.15528
▁leg	-9.15827
▁animal	-9.15941
▁freak	-9.15998
▁promised	-9.15999
▁card	-9.16004
▁defend	-9.16125
▁feed	-9.1659
▁quit	-9.1663
▁suggest	-9.16682
▁bottle	-9.16797
▁computer	-9.16797
▁crassus	-9.16797
▁emergency	-9.16797
▁mandira	-9.16797
▁wrestling	-9.16797
▁calvin	-9.16797
▁automat	-9.16798
▁phil	-9.16804
▁information	-9.16808
▁airport	-9.16811
▁stuck	-9.16813
▁level	-9.16838
▁beg	-9.16894
▁corner	-9.16934
▁tars	-9.17018
▁decided	-9.17069
▁ls	-9.17655
sp	-9.17964
▁pray	-9.1815
▁hobbits	-9.18334
▁slave	-9.18453
ping	-9.1867
ti	-9.18712
▁missing	-9.18754
▁survive	-9.18823
▁sex	-9.18999
▁honest	-9.19048
▁dagger	-9.19236
▁doubt	-9.19236
▁friday	-9.19236
▁purpose	-9.19236
▁worse	-9.19236
▁summer	-9.19236
▁conversation	-9.19236
▁lionel	-9.19236
▁chuckling	-9.19242
▁appointment	-9.19243
▁neck	-9.19244
▁dawn	-9.19244
▁cash	-9.19266
▁janet	-9.19377
▁bev	-9.19428
▁the	-9.19581
▁horses	-9.19738
▁beer	-9.19782
▁heads	-9.19856
▁pet	-9.1995
▁engineer	-9.20024
▁sol	-9.20839
▁nash	-9.21094
▁plays	-9.21323
▁notice	-9.21327
▁closed	-9.21448
▁cab	-9.2153
▁account	-9.21711
▁apologize	-9.21736
▁capitol	-9.21736
▁hobbs	-9.21736
▁matthew	-9.21736
▁research	-9.21736
▁rochester	-9.21736
▁worst	-9.21736
▁angry	-9.21736
▁empty	-9.21736
▁study	-9.21736
▁bought	-9.21739
▁percent	-9.2174
▁cattle	-9.21741
▁thls	-9.21743
▁papa	-9.21744
▁giving	-9.21751
▁camp	-9.21751
▁extra	-9.21753
▁meat	-9.21763
ise	-9.21782
▁producer	-9.21788
▁lucy	-9.21869
▁weight	-9.21884
▁lii	-9.21958
ions	-9.22119
▁aw	-9.22159
ick	-9.22331
▁mit	-9.22375
▁deer	-9.22602
▁draw	-9.22847
od	-9.23086
▁se	-9.23484
▁goin	-9.2353
▁und	-9.23622
▁cook	-9.23645
▁crack	-9.2368
▁fail	-9.23758
▁suppose	-9.23895
son	-9.23979
▁prison	-9.23997
line	-9.24117
▁appear	-9.243
▁bullshit	-9.243
▁difficult	-9.243
▁excellent	-9.243
▁excited	-9.243
▁jefferson	-9.243
▁justice	-9.243
▁neither	-9.243
▁nullah	-9.243
▁shield	-9.243
▁whether	-9.243
▁estella	-9.243
▁truly	-9.243
▁remind	-9.243
▁distance	-9.24304
▁gondor	-9.24312
▁sarah	-9.24319
▁bright	-9.24319
▁apartment	-9.24328
▁sake	-9.2433
▁france	-9.24334
▁march	-9.24363
▁announcer	-9.24363
▁swim	-9.24495
▁mum	-9.24495
▁action	-9.24662
▁shed	-9.25179
▁wine	-9.25233
▁starts	-9.25467
▁listening	-9.25611
lt	-9.25645
▁lips	-9.26098
▁idiot	-9.26319
▁ticket	-9.2637
▁to	-9.26453
▁nervous	-9.26708
▁leo	-9.26755
▁ends	-9.26839
▁stars	-9.26848
▁ad	-9.26895
▁courage	-9.26909
▁built	-9.26932
▁launch	-9.26932
▁rooster	-9.26932
▁whirring	-9.26932
▁whoever	-9.26932
▁nowhere	-9.26932
▁pressure	-9.26942
▁steady	-9.26949
▁fuck	-9.26964
▁liar	-9.2698
▁wa	-9.26983
mm	-9.26986
▁brit	-9.27001
▁closes	-9.27005
▁skin	-9.27008
▁princess	-9.2702
▁center	-9.27034
▁dave	-9.27243
▁sub	-9.27398
▁fit	-9.27414
com	-9.27446
▁secure	-9.27461
▁lived	-9.27561
▁bro	-9.28166
pe	-9.28405
ib	-9.28421
▁bird	-9.28668
▁el	-9.28844
▁crash	-9.28973
▁grand	-9.29114
▁cream	-9.2936
▁howd	-9.29367
ship	-9.29369
ence	-9.29378
▁bastard	-9.29634
▁benoit	-9.29634
▁double	-9.29634
▁interview	-9.29634
▁language	-9.29634
▁mordor	-9.29634
▁navorski	-9.29634
▁technology	-9.29634
▁tongue	-9.29634
▁chief	-9.29634
▁jiro	-9.29634
▁upset	-9.29635
▁spell	-9.29636
▁ge	-9.2964
▁blame	-9.29642
▁elise	-9.29644
▁conlon	-9.29651
▁block	-9.29658
▁deck	-9.29682
▁problems	-9.2969
ight	-9.29712
▁obviously	-9.2972
▁tall	-9.29832
▁huge	-9.29834
▁honestly	-9.29874
▁taste	-9.29883
wa	-9.29936
▁opens	-9.29959
▁orders	-9.29965
▁losing	-9.29983
▁yelling	-9.29987
▁keys	-9.30124
▁virgin	-9.30199
▁grandma	-9.30222
▁fi	-9.30258
▁am	-9.30592
ious	-9.30638
▁hu	-9.30997
▁fighter	-9.31052
▁lad	-9.31303
▁pal	-9.31316
tra	-9.31488
▁bo	-9.31605
ill	-9.31611
▁arrest	-9.31855
▁shadow	-9.31962
▁prepare	-9.31997
▁dogs	-9.32378
▁attempt	-9.32412
▁church	-9.32412
▁heavy	-9.32412
▁journey	-9.32412
▁plenty	-9.32412
▁uniform	-9.32412
▁llke	-9.32412
▁freedom	-9.32412
▁negative	-9.32414
▁minister	-9.32417
▁girlfriend	-9.32427
▁handsome	-9.3243
▁josh	-9.32435
▁gay	-9.32439
▁du	-9.3244
▁coat	-9.3245
▁tour	-9.3245
▁badger	-9.32474
▁amen	-9.32652
▁students	-9.32653
▁oil	-9.32818
▁trap	-9.32852
▁numbers	-9.32924
nce	-9.33023
▁wouldve	-9.33053
▁allowed	-9.33093
▁games	-9.33187
▁ii	-9.33232
ung	-9.33329
▁locked	-9.33546
ite	-9.33584
ap	-9.33782
▁experience	-9.33845
▁training	-9.33859
▁fe	-9.34137
▁tie	-9.34572
▁mar	-9.3467
▁u	-9.34736
▁fill	-9.34882
▁woods	-9.34983
cy	-9.34994
▁drago	-9.35192
▁switch	-9.35204
▁alpha	-9.35269
▁became	-9.35269
▁horace	-9.35269
▁norman	-9.35269
▁david	-9.35269
▁federal	-9.3527
▁indeed	-9.3527
▁zero	-9.3527
▁beginning	-9.35271
hrer	-9.35273
▁prize	-9.35275
▁beauty	-9.35276
▁everywhere	-9.35277
▁fellow	-9.35285
▁beyond	-9.35299
▁exist	-9.35323
▁doc	-9.35375
▁pete	-9.35528
▁su	-9.35859
end	-9.35908
▁dollars	-9.36001
▁trees	-9.36016
▁chi	-9.36066
one	-9.36194
▁legs	-9.36313
we	-9.36585
red	-9.36836
▁va	-9.37007
j	-9.37026
▁devil	-9.37082
▁heading	-9.37171
▁paris	-9.37188
▁talked	-9.37244
▁sisters	-9.37573
▁focus	-9.37642
ize	-9.37759
▁student	-9.37956
▁soft	-9.38005
▁aragorn	-9.3821
▁baroness	-9.3821
▁bilbo	-9.3821
▁defense	-9.3821
▁houston	-9.3821
▁pregnant	-9.3821
▁search	-9.3821
▁simply	-9.3821
▁scene	-9.38211
▁foreign	-9.38214
▁contract	-9.38215
▁mi	-9.38221
▁terrorist	-9.38222
▁legat	-9.38243
▁cake	-9.38253
▁button	-9.38271
▁jack	-9.38284
▁up	-9.38356
▁whatd	-9.38429
lon	-9.38784
ze	-9.38811
ld	-9.38905
▁feels	-9.38907
▁closer	-9.38923
ium	-9.38942
no	-9.39069
▁gl	-9.39076
ake	-9.39092
▁folks	-9.39166
▁slaves	-9.39167
▁mm	-9.40083
ign	-9.40292
der	-9.40298
▁moved	-9.40412
▁design	-9.40443
▁scream	-9.40445
▁sc	-9.40545
▁solve	-9.40853
▁bless	-9.40857
▁complete	-9.41028
▁butt	-9.41129
over	-9.4116
▁somethin	-9.41162
▁chamberlain	-9.41241
▁character	-9.41241
▁criminal	-9.41241
▁especially	-9.41241
▁garden	-9.41241
▁katniss	-9.41241
▁london	-9.41241
▁marriage	-9.41241
▁patient	-9.41241
▁private	-9.41241
▁cliff	-9.41245
▁contest	-9.41247
▁piano	-9.41248
▁alex	-9.41251
▁ought	-9.41253
▁apparently	-9.41264
▁farhan	-9.41269
▁fuel	-9.41276
▁storm	-9.41317
▁incredible	-9.41323
▁cia	-9.41346
▁tip	-9.41352
▁thousands	-9.41387
▁gasping	-9.41391
▁heal	-9.41436
▁plant	-9.41529
▁staying	-9.41607
▁interesting	-9.41608
our	-9.41707
ated	-9.41758
▁who	-9.42082
▁heat	-9.42207
▁br	-9.42223
ier	-9.42311
▁higher	-9.42469
▁si	-9.42498
▁hatch	-9.42815
ig	-9.43026
▁killer	-9.43591
▁punch	-9.43672
▁picked	-9.43764
ey	-9.44042
▁dies	-9.44103
▁iron	-9.44145
▁official	-9.44146
▁pot	-9.44166
▁prince	-9.44242
▁heaven	-9.44287
▁nothin	-9.44292
▁guest	-9.44346
▁blanc	-9.44351
▁baggins	-9.44366
▁district	-9.44366
▁explosion	-9.44366
▁maverick	-9.44366
▁opportunity	-9.44366
▁recognize	-9.44366
▁saruman	-9.44366
▁satisfied	-9.44366
▁sauron	-9.44366
▁suicide	-9.44366
▁fruit	-9.44366
▁poison	-9.44366
▁rush	-9.44366
▁brady	-9.44367
▁speed	-9.44368
▁koba	-9.44371
▁smith	-9.44373
▁saving	-9.44375
▁slim	-9.44384
▁jake	-9.44385
▁boat	-9.44395
▁yep	-9.44396
▁common	-9.44407
▁fox	-9.44413
▁involved	-9.44425
▁pair	-9.44443
▁hug	-9.44453
▁walked	-9.44502
▁tower	-9.44506
▁victory	-9.44528
▁ca	-9.44553
▁invited	-9.44555
▁grade	-9.44916
▁couldve	-9.45047
▁bi	-9.45066
▁faster	-9.45102
▁gr	-9.45144
▁bid	-9.45147
lar	-9.45156
▁str	-9.45174
▁humans	-9.45524
▁ar	-9.45698
▁eggs	-9.45706
▁kinda	-9.4599
▁doors	-9.46108
▁fan	-9.46184
▁enter	-9.46407
▁pee	-9.46487
▁signed	-9.4649
ator	-9.46791
▁cheers	-9.46911
▁waste	-9.47246
▁h	-9.47301
▁li	-9.4744
▁mmhm	-9.47503
away	-9.47532
▁danger	-9.47576
▁tap	-9.47589
▁adrian	-9.47591
▁alicia	-9.47591
▁angelica	-9.47591
▁creaking	-9.47591
▁emperor	-9.47591
▁evidence	-9.47591
▁hannibal	-9.47591
▁precrime	-9.47591
▁ridiculous	-9.47591
▁sergeant	-9.47591
▁speech	-9.47591
▁sweetheart	-9.47591
▁thunder	-9.47591
▁tutsi	-9.47591
▁twenty	-9.47591
▁flesh	-9.47592
▁onto	-9.47592
▁whiskey	-9.47593
▁dancing	-9.47593
▁surface	-9.47593
▁midnight	-9.47593
▁silly	-9.47597
▁damage	-9.47599
▁gunfire	-9.47599
▁shock	-9.476
▁memory	-9.47603
▁crew	-9.47613
▁rick	-9.47619
▁turns	-9.4762
▁defendant	-9.47625
▁aunt	-9.47627
▁darkness	-9.47639
▁joke	-9.47664
▁bull	-9.47678
▁powerful	-9.47723
▁comp	-9.47778
▁manager	-9.47836
▁warning	-9.48021
▁cal	-9.48175
▁scare	-9.48183
▁cap	-9.48368
▁peg	-9.48416
and	-9.48581
▁assume	-9.48617
▁showed	-9.48653
▁ab	-9.49016
▁breaking	-9.49174
▁rev	-9.49502
▁passed	-9.49556
▁bone	-9.49689
▁ed	-9.4973
▁scar	-9.49808
ns	-9.49842
▁dry	-9.49922
▁rot	-9.49962
▁pan	-9.50005
▁pulled	-9.50248
▁spin	-9.50343
▁remain	-9.5037
▁wash	-9.50401
by	-9.50407
▁direct	-9.50417
▁tape	-9.50559
▁wheel	-9.50685
lor	-9.50759
ark	-9.50795
▁rig	-9.50798
▁witness	-9.50816
▁ref	-9.50887
▁bones	-9.50892
▁apart	-9.50893
▁applause	-9.50925
▁gravity	-9.50925
▁insane	-9.50925
▁permission	-9.50925
▁possibly	-9.50925
▁someday	-9.50925
▁someplace	-9.50925
▁upstairs	-9.50925
▁pocket	-9.50925
▁sentinel	-9.50925
▁limit	-9.50925
▁loose	-9.50926
▁teddy	-9.50926
▁grandpa	-9.50927
▁sobbing	-9.50928
▁winner	-9.5093
▁medicine	-9.50932
▁shire	-9.50935
▁simon	-9.50939
▁noise	-9.50941
▁shame	-9.50951
▁hiding	-9.50967
▁byrd	-9.50987
▁for	-9.50988
▁plain	-9.5102
▁add	-9.51119
▁willing	-9.51212
▁sean	-9.51262
▁due	-9.5131
min	-9.5156
▁quietly	-9.51664
▁sale	-9.51664
ng	-9.51804
▁deeply	-9.519
▁me	-9.51963
▁using	-9.52022
▁defeat	-9.52192
▁helped	-9.52223
the	-9.52235
▁besides	-9.52243
▁opened	-9.52322
▁fathers	-9.52356
▁believed	-9.52407
▁expecting	-9.5241
▁rebels	-9.52464
▁reporter	-9.5247
▁tires	-9.52596
▁sha	-9.52653
▁rat	-9.52688
ler	-9.52798
▁ow	-9.52877
▁event	-9.53049
▁ruin	-9.53148
ob	-9.53362
▁rid	-9.53419
off	-9.53599
▁fellas	-9.53669
▁cops	-9.53752
▁drinking	-9.53799
▁gang	-9.54086
▁madam	-9.54231
▁rose	-9.54282
▁champ	-9.54306
▁harm	-9.54363
▁quarter	-9.54367
▁checked	-9.54373
▁access	-9.54373
▁awesome	-9.54373
▁brilliant	-9.54373
▁bunch	-9.54373
▁complicated	-9.54373
▁italian	-9.54373
▁orleans	-9.54373
▁request	-9.54373
▁science	-9.54373
▁social	-9.54373
▁clever	-9.54373
▁scoffs	-9.54373
▁heep	-9.54374
▁bialystock	-9.54374
▁larry	-9.54374
▁lift	-9.54374
▁maggie	-9.54375
▁barely	-9.54375
▁reggie	-9.54377
▁faith	-9.54377
▁department	-9.54377
▁edward	-9.54379
▁desk	-9.54383
▁boom	-9.54388
▁milk	-9.54405
▁mayday	-9.54442
▁suddenly	-9.54491
▁dust	-9.54517
▁national	-9.54531
▁squad	-9.54568
▁ben	-9.54648
▁rec	-9.54649
▁bron	-9.54679
ay	-9.54885
▁approaching	-9.54925
▁noticed	-9.54945
▁whispers	-9.55029
▁helpless	-9.55054
▁letting	-9.5514
x	-9.55403
▁all	-9.55587
▁wood	-9.55677
▁wise	-9.55859
▁hearing	-9.55931
ath	-9.5599
▁points	-9.56027
▁plans	-9.56138
rate	-9.56209
▁fund	-9.56214
▁ver	-9.56331
▁gut	-9.5635
▁cross	-9.56371
▁bra	-9.56391
▁towards	-9.56576
▁ka	-9.57167
▁vote	-9.57303
▁build	-9.57309
▁falling	-9.57437
▁earl	-9.5751
▁spare	-9.57515
▁mention	-9.57534
▁decide	-9.57536
down	-9.57578
▁bat	-9.57769
▁drove	-9.57792
▁bow	-9.57806
▁silence	-9.57831
▁gettin	-9.57884
▁advice	-9.57944
▁eliza	-9.57944
▁extreme	-9.57944
▁klump	-9.57944
▁lelaina	-9.57944
▁quigley	-9.57944
▁scientist	-9.57944
▁tatiana	-9.57944
▁twice	-9.57944
▁regret	-9.57945
▁beach	-9.57945
▁intend	-9.57945
▁theory	-9.57945
▁credit	-9.57945
▁local	-9.57946
▁afford	-9.57947
▁coward	-9.57954
▁henry	-9.57955
▁morgan	-9.57958
▁forgotten	-9.57959
▁nick	-9.5797
▁carney	-9.57978
▁roman	-9.57982
▁nose	-9.58023
▁stage	-9.58025
▁fake	-9.58031
▁ph	-9.58037
▁wet	-9.5804
▁applauding	-9.5805
▁medical	-9.58092
▁tone	-9.58145
ure	-9.5817
▁joy	-9.58216
▁bullet	-9.58318
▁miller	-9.58337
▁pm	-9.585
▁created	-9.58561
▁sold	-9.58589
▁wave	-9.58609
ok	-9.58624
▁filled	-9.58645
▁vo	-9.58675
▁op	-9.59017
▁tan	-9.59022
▁birds	-9.59227
rt	-9.59325
▁fa	-9.59444
per	-9.59448
ern	-9.59656
old	-9.5995
▁cameras	-9.60228
▁opening	-9.60258
pl	-9.60296
▁cos	-9.60431
▁ac	-9.60465
▁ne	-9.60646
▁pictures	-9.60721
▁contain	-9.60741
cient	-9.60764
▁image	-9.6078
▁wings	-9.60863
▁career	-9.60966
ub	-9.61028
ten	-9.61029
▁following	-9.61073
ley	-9.61159
▁sweat	-9.61225
▁deliver	-9.61377
ments	-9.61407
▁spoke	-9.61528
▁crick	-9.61612
▁california	-9.61648
▁condition	-9.61648
▁device	-9.61648
▁fortune	-9.61648
▁oclock	-9.61648
▁satellite	-9.61648
▁somehow	-9.61648
▁tournament	-9.61648
▁tuesday	-9.61648
▁bottom	-9.61648
▁document	-9.61648
▁fashion	-9.61648
▁snowflake	-9.61648
▁staff	-9.61648
▁vegas	-9.61648
▁gracie	-9.61648
▁pardon	-9.61648
▁einon	-9.61649
▁desert	-9.61649
▁presence	-9.61649
▁print	-9.61651
▁alfred	-9.61652
▁aircraft	-9.61655
▁rohan	-9.61655
▁cheat	-9.61656
▁quant	-9.61659
▁jail	-9.61663
▁shake	-9.61667
▁bang	-9.61669
▁self	-9.61676
▁investigation	-9.61693
▁energy	-9.61703
▁chest	-9.61718
▁aim	-9.61731
▁shoulder	-9.61754
▁rum	-9.61761
▁hook	-9.61772
▁ted	-9.6182
▁mona	-9.61828
▁mass	-9.61891
▁santa	-9.61917
▁ignore	-9.6192
▁paying	-9.61929
▁nature	-9.61971
▁ships	-9.62009
▁movie	-9.62157
▁whistle	-9.62175
▁mistakes	-9.62224
▁union	-9.62279
▁wide	-9.62347
▁exhales	-9.6235
ts	-9.62364
▁pia	-9.62552
▁eh	-9.62627
▁ace	-9.62641
▁ms	-9.628
▁rent	-9.62809
▁bigge	-9.62823
▁pin	-9.62849
tro	-9.62857
bu	-9.6301
▁min	-9.63248
▁walls	-9.63524
ster	-9.63632
bo	-9.63745
▁seemed	-9.6379
▁ate	-9.63845
▁slip	-9.6431
art	-9.6471
gg	-9.64795
▁turning	-9.64802
▁sneak	-9.6483
▁crap	-9.65085
▁total	-9.65289
▁create	-9.65293
ain	-9.65414
▁threat	-9.65429
▁practice	-9.65456
▁bounce	-9.65494
▁familiar	-9.65494
▁fifty	-9.65494
▁garrison	-9.65494
▁gorgeous	-9.65494
▁hanratty	-9.65494
▁jersey	-9.65494
▁krakozhia	-9.65494
▁loxley	-9.65494
▁admit	-9.65494
▁byebye	-9.65494
▁kitchen	-9.65494
▁madison	-9.65494
▁shift	-9.65494
▁angle	-9.65495
▁personnel	-9.65495
▁equal	-9.65495
▁richard	-9.65495
▁written	-9.65495
▁stink	-9.65497
▁mask	-9.65498
▁jazz	-9.65498
▁roof	-9.655
▁often	-9.65501
▁female	-9.65501
▁winning	-9.65502
▁fancy	-9.65505
▁awake	-9.65507
▁comin	-9.65508
▁ulla	-9.65512
▁bread	-9.65515
▁shop	-9.65518
▁view	-9.6552
▁edge	-9.65524
▁tax	-9.65525
▁apple	-9.65542
▁bobby	-9.65548
▁hugh	-9.65561
▁cast	-9.65601
▁professional	-9.65709
▁troy	-9.65733
▁trade	-9.6574
▁pity	-9.65795
▁chase	-9.65796
▁glasses	-9.65899
che	-9.659
▁hoping	-9.66069
▁warrior	-9.66189
▁that	-9.66285
▁failed	-9.66336
▁stranger	-9.66362
▁lance	-9.66373
▁par	-9.66465
pers	-9.66699
▁screwed	-9.6671
▁bath	-9.66748
▁clearly	-9.66781
ax	-9.66929
▁shower	-9.66929
▁armed	-9.6693
▁fighters	-9.66978
▁tri	-9.67153
val	-9.67486
ame	-9.67617
ft	-9.67961
ries	-9.68146
back	-9.68374
▁led	-9.68393
▁bum	-9.68522
▁checks	-9.68588
hua	-9.68838
▁approach	-9.68856
tch	-9.69042
ker	-9.69181
▁shooting	-9.69225
▁original	-9.69276
ade	-9.69294
▁awful	-9.69301
▁sa	-9.69366
ball	-9.69397
▁wlth	-9.69476
▁client	-9.69494
▁england	-9.69494
▁murdock	-9.69494
▁mystery	-9.69494
▁source	-9.69494
▁specific	-9.69494
▁subject	-9.69494
▁vehicle	-9.69494
▁whinnies	-9.69494
▁coughing	-9.69494
▁erik	-9.69494
▁separate	-9.69494
▁shirt	-9.69494
▁sugar	-9.69494
▁toilet	-9.69494
▁coach	-9.69495
▁scratch	-9.69495
▁echo	-9.69495
▁tanner	-9.69495
▁adele	-9.69495
▁ugly	-9.69495
▁affair	-9.69496
▁telephone	-9.69496
▁habit	-9.69499
▁pride	-9.695
▁capcom	-9.69506
▁yellow	-9.69508
▁springtime	-9.69508
▁refuse	-9.69513
▁sunday	-9.69515
▁chair	-9.69515
lic	-9.69526
▁duty	-9.6953
▁accountant	-9.69534
▁demon	-9.69558
▁style	-9.69559
▁dick	-9.69561
▁fired	-9.69566
▁flip	-9.69575
▁thatll	-9.69583
ga	-9.69595
▁hutu	-9.69624
▁statement	-9.69633
▁hon	-9.6966
▁bout	-9.6966
▁balls	-9.6971
▁cheer	-9.69721
▁snap	-9.69753
▁circle	-9.69851
▁halt	-9.69851
▁drug	-9.6995
▁subtitles	-9.69979
▁metal	-9.70115
▁you	-9.70151
ab	-9.70214
▁thin	-9.70275
▁wh	-9.70338
ex	-9.7037
▁introduce	-9.70417
▁prisoners	-9.70769
▁cars	-9.70784
▁drown	-9.70844
▁fella	-9.70859
▁orcs	-9.7089
ations	-9.70954
▁animals	-9.70962
▁pr	-9.71035
▁video	-9.71185
▁mon	-9.71291
▁trained	-9.71324
▁tag	-9.71364
▁sw	-9.71383
▁beeps	-9.71511
▁kn	-9.71599
let	-9.71831
▁harder	-9.71865
ify	-9.72122
▁lied	-9.72135
▁tests	-9.72177
tal	-9.72225
▁wing	-9.72249
▁followed	-9.72541
ized	-9.72569
▁hunt	-9.72736
▁warriors	-9.72913
nic	-9.72997
▁settle	-9.73231
▁schedule	-9.73231
▁liked	-9.73249
▁helping	-9.73283
▁operation	-9.73559
▁drag	-9.73617
▁shows	-9.73619
▁perform	-9.73653
▁cheese	-9.73661
▁desperate	-9.73661
▁destiny	-9.73661
▁fabulous	-9.73661
▁international	-9.73661
▁license	-9.73661
▁mattiece	-9.73661
▁monitor	-9.73661
▁nonsense	-9.73661
▁rattling	-9.73661
▁require	-9.73661
▁riordan	-9.73661
▁soviet	-9.73661
▁thirty	-9.73661
▁trigger	-9.73661
▁eagle	-9.73661
▁famous	-9.73661
▁smash	-9.73661
▁split	-9.73661
▁proceed	-9.73661
▁hadnt	-9.73661
▁reveal	-9.73662
▁troops	-9.73662
▁rescue	-9.73662
▁eyre	-9.73662
▁hyah	-9.73664
▁altitude	-9.73664
▁creed	-9.73666
▁dramatic	-9.73666
▁unbelievable	-9.73666
▁bride	-9.73676
▁spring	-9.7368
▁connection	-9.73683
▁classical	-9.73723
▁trish	-9.73748
▁mav	-9.73755
▁trial	-9.7377
▁tu	-9.73771
▁immediately	-9.73777
▁row	-9.7379
▁page	-9.73809
▁dirty	-9.73813
▁cage	-9.73832
▁daughters	-9.73857
▁lesson	-9.73858
▁ranger	-9.73874
▁aid	-9.73933
▁betrayed	-9.73935
▁passion	-9.73954
▁lower	-9.74247
▁former	-9.74303
▁bay	-9.74452
▁agreed	-9.74499
▁surprised	-9.74658
▁creature	-9.74673
▁plate	-9.74767
▁autobots	-9.74889
ative	-9.74933
▁nuts	-9.74976
▁downs	-9.75001
▁mid	-9.75096
▁cave	-9.75197
ire	-9.75209
▁staring	-9.7533
▁fart	-9.75369
ron	-9.75404
br	-9.75417
▁challenge	-9.75539
▁attacked	-9.75564
▁blowing	-9.75611
▁tro	-9.75765
▁doctors	-9.76222
▁siren	-9.76421
light	-9.76479
▁of	-9.76625
▁fingers	-9.76793
if	-9.76951
ied	-9.76968
▁nah	-9.77093
▁or	-9.77148
▁everybodys	-9.77223
▁hanging	-9.77326
▁pretend	-9.7736
▁load	-9.7745
▁hill	-9.77454
▁cow	-9.77474
▁dock	-9.77493
▁provide	-9.7759
▁release	-9.77596
▁curse	-9.77612
▁meaning	-9.7766
▁eve	-9.7786
▁brenda	-9.77879
io	-9.77899
▁bringing	-9.77948
▁gentle	-9.77961
ide	-9.78008
▁april	-9.78009
▁blade	-9.78009
▁brixton	-9.78009
▁chicago	-9.78009
▁disappear	-9.78009
▁downstairs	-9.78009
▁measure	-9.78009
▁miserable	-9.78009
▁relationship	-9.78009
▁responsible	-9.78009
▁revolution	-9.78009
▁chinese	-9.78009
▁vacation	-9.78009
▁hattie	-9.78009
▁witwer	-9.78009
▁blaring	-9.78009
▁toast	-9.7801
▁clue	-9.7801
▁title	-9.78014
▁monday	-9.78014
▁basically	-9.78016
▁peeta	-9.78024
▁pike	-9.78025
▁bedroom	-9.78026
▁marston	-9.78026
▁firing	-9.78029
▁noble	-9.78034
▁held	-9.78036
▁necessary	-9.78038
▁oath	-9.78039
▁crackling	-9.78039
▁plus	-9.78042
▁alnt	-9.78043
▁guardian	-9.78053
▁spacecom	-9.78054
▁regular	-9.78062
▁agreement	-9.78082
▁aside	-9.78099
▁retreat	-9.7811
▁heavens	-9.7812
▁guests	-9.7812
▁safety	-9.78194
▁setting	-9.78208
▁off	-9.78231
▁bleeding	-9.78253
▁x	-9.78289
ace	-9.78308
▁reality	-9.78359
▁received	-9.78361
▁nest	-9.78391
▁pi	-9.78435
▁lake	-9.78465
ja	-9.78482
▁feelings	-9.78511
▁jo	-9.7853
▁dads	-9.78594
▁decepticons	-9.78688
▁gotten	-9.78764
▁indistinctly	-9.78809
▁stairs	-9.78839
▁gosh	-9.78845
▁arrested	-9.78893
▁mimi	-9.7894
▁non	-9.78994
▁comm	-9.7907
▁suspect	-9.79197
▁issue	-9.79214
▁tied	-9.79235
▁au	-9.79249
▁eject	-9.79262
▁finger	-9.79263
▁blows	-9.79344
▁ir	-9.79732
▁lines	-9.79782
ery	-9.79822
▁mal	-9.79909
las	-9.80036
▁hearts	-9.80289
▁letters	-9.80334
▁pe	-9.80374
▁paint	-9.80391
▁hundreds	-9.80672
cu	-9.80694
▁pills	-9.80975
▁stayed	-9.81201
▁consider	-9.81337
rin	-9.81462
king	-9.81725
▁watched	-9.81736
▁arrive	-9.81966
▁ti	-9.81998
▁crow	-9.82055
▁coop	-9.82305
▁flow	-9.82335
▁guards	-9.82351
▁discuss	-9.82495
▁collect	-9.82497
▁congress	-9.82517
▁mountains	-9.82522
▁agatha	-9.82554
▁celebrate	-9.82554
▁effort	-9.82554
▁experiment	-9.82554
▁finkle	-9.82554
▁harris	-9.82554
▁intelligent	-9.82554
▁majesty	-9.82554
▁melinda	-9.82554
▁optimus	-9.82554
▁rosenberg	-9.82554
▁several	-9.82554
▁surrender	-9.82554
▁understood	-9.82554
▁whenever	-9.82554
▁whistling	-9.82554
▁beast	-9.82554
▁pippin	-9.82554
▁stories	-9.82555
▁donald	-9.82555
▁whooshing	-9.82555
▁alert	-9.82557
▁shore	-9.82557
▁memories	-9.82558
▁joob	-9.82562
▁spread	-9.82563
▁monster	-9.82563
▁rlght	-9.82565
▁kragen	-9.82565
▁earlier	-9.82565
▁hls	-9.82568
▁property	-9.82573
▁wwe	-9.82576
▁dump	-9.82581
▁jacket	-9.82583
▁wlll	-9.82593
▁unfortunately	-9.826
▁proof	-9.82602
▁grace	-9.8261
▁skies	-9.82617
▁cock	-9.82622
▁secretary	-9.82624
▁panic	-9.82649
▁freeze	-9.8266
▁confused	-9.82672
▁battery	-9.82683
▁pl	-9.82698
▁toll	-9.827
▁mail	-9.8273
▁port	-9.82735
▁whyd	-9.82796
▁clicking	-9.82816
▁invitation	-9.82988
▁rage	-9.83007
▁murderer	-9.83029
pla	-9.83187
▁personally	-9.83248
▁streets	-9.83274
▁jad	-9.83475
▁mini	-9.83573
▁bump	-9.83808
▁legal	-9.83891
▁clicks	-9.83901
▁member	-9.83985
▁kings	-9.84001
▁whi	-9.84195
▁whip	-9.84203
▁flowers	-9.84282
▁ul	-9.84326
▁closet	-9.84344
▁prom	-9.84611
▁marks	-9.84671
eg	-9.84777
▁map	-9.84789
ah	-9.84881
ank	-9.84896
▁chattering	-9.84906
use	-9.85073
ox	-9.85133
▁agents	-9.85149
▁lip	-9.85189
▁forces	-9.85217
▁loser	-9.85406
▁hop	-9.8562
▁dat	-9.85639
▁yells	-9.85679
▁bombs	-9.85795
▁seek	-9.85871
▁talkin	-9.85934
▁systems	-9.86244
▁mothers	-9.86395
▁del	-9.86449
▁inter	-9.86464
▁answers	-9.86595
▁piss	-9.8688
ven	-9.87038
▁sharp	-9.87099
▁trans	-9.87253
▁effect	-9.87282
cha	-9.87305
▁flash	-9.87311
▁adventure	-9.87316
▁affect	-9.87316
▁anthony	-9.87316
▁avoid	-9.87316
▁garbage	-9.87316
▁grantham	-9.87316
▁however	-9.87316
▁jessica	-9.87316
▁lindsey	-9.87316
▁muscle	-9.87316
▁ocean	-9.87316
▁otherwise	-9.87316
▁pomatter	-9.87316
▁romilly	-9.87316
▁solution	-9.87316
▁weather	-9.87316
▁wednesday	-9.87316
▁combat	-9.87316
▁deepcore	-9.87316
▁opinion	-9.87316
▁closing	-9.87317
▁cousin	-9.87317
▁glory	-9.87317
▁hidden	-9.87317
▁spear	-9.87317
▁blew	-9.87317
▁robbie	-9.87317
▁desire	-9.87319
▁photo	-9.87319
▁extraordinary	-9.87319
▁central	-9.8732
▁sniffles	-9.87322
▁inn	-9.87323
▁honour	-9.87327
▁benny	-9.87335
▁comfortable	-9.8734
▁barking	-9.87345
▁literally	-9.87376
▁missile	-9.87376
▁forth	-9.87377
▁played	-9.8738
▁reaction	-9.87389
▁section	-9.87401
▁nasty	-9.87405
▁began	-9.87405
▁anger	-9.87406
▁market	-9.8741
▁mister	-9.87429
▁lean	-9.87447
▁stock	-9.87456
▁static	-9.87584
▁pum	-9.87602
▁ren	-9.87671
▁itd	-9.87688
▁grown	-9.87711
▁keeping	-9.8775
▁wire	-9.87762
lve	-9.87902
▁dc	-9.88041
▁salt	-9.88047
▁swing	-9.88098
▁shadows	-9.88101
▁survived	-9.88138
▁bike	-9.88138
▁raised	-9.88362
▁yell	-9.88383
ara	-9.88392
▁carla	-9.8843
▁moments	-9.88475
▁warn	-9.88539
▁thuds	-9.88563
▁slowly	-9.88583
▁ear	-9.88802
▁ven	-9.88839
▁pill	-9.89128
▁highly	-9.89147
fl	-9.89504
ther	-9.89594
ily	-9.89749
▁ap	-9.89822
▁ned	-9.89882
▁spit	-9.89891
▁ordered	-9.89976
▁luc	-9.89993
air	-9.90135
▁hips	-9.90256
istic	-9.9034
lm	-9.90608
▁loss	-9.90609
▁finding	-9.90705
▁cha	-9.90934
▁auctione	-9.91006
▁assum	-9.91014
▁oi	-9.91026
ste	-9.91128
▁mer	-9.91551
▁dent	-9.91672
ism	-9.91815
board	-9.91919
her	-9.91949
▁mars	-9.91969
▁picking	-9.92022
▁victor	-9.92045
▁range	-9.92117
▁loyal	-9.92292
▁toot	-9.92304
▁guarantee	-9.92316
▁chocolate	-9.92316
▁disease	-9.92316
▁enemies	-9.92316
▁europe	-9.92316
▁expert	-9.92316
▁fantastic	-9.92316
▁gemini	-9.92316
▁innocent	-9.92316
▁insult	-9.92316
▁melody	-9.92316
▁necklace	-9.92316
▁phoenix	-9.92316
▁symbol	-9.92316
▁tradition	-9.92316
▁trunk	-9.92316
▁unusual	-9.92316
▁upbeat	-9.92316
▁wolf	-9.92316
▁cabinet	-9.92316
▁guitar	-9.92316
▁senator	-9.92316
▁flood	-9.92316
▁imperial	-9.92317
▁kilo	-9.92317
▁debt	-9.92317
▁joyner	-9.92317
▁francisco	-9.92321
▁mickey	-9.92322
▁species	-9.92327
▁status	-9.92327
▁medal	-9.9233
▁raven	-9.9233
▁commit	-9.92337
▁flame	-9.92342
▁boyfriend	-9.92343
▁dube	-9.92345
▁naked	-9.92348
▁mj	-9.92348
▁penny	-9.9235
▁skill	-9.92358
▁capable	-9.92362
▁duck	-9.92364
▁audition	-9.92366
▁kin	-9.92367
▁yearold	-9.92372
▁arrow	-9.92393
▁dropped	-9.92401
▁vow	-9.92405
▁hates	-9.92426
▁bane	-9.92458
▁rank	-9.92467
▁chain	-9.92488
▁pace	-9.925
▁fourth	-9.92548
▁armor	-9.92564
▁protection	-9.92622
▁coin	-9.92721
▁reg	-9.92733
▁cello	-9.9274
▁papers	-9.92816
▁confirmed	-9.92849
▁hired	-9.92899
▁pig	-9.92909
▁host	-9.9291
▁arrived	-9.92969
▁archer	-9.93052
▁ruined	-9.93143
gie	-9.93214
▁gunn	-9.93363
day	-9.93371
▁bucks	-9.93455
▁shape	-9.9356
▁auction	-9.93644
▁sec	-9.9387
ki	-9.9392
lc	-9.93947
lson	-9.93995
▁reached	-9.94063
▁hobbit	-9.94215
▁victim	-9.9423
▁odd	-9.94241
▁rate	-9.94248
▁expected	-9.94283
▁driver	-9.94285
▁toward	-9.94287
ug	-9.94307
▁backup	-9.94355
▁cri	-9.94414
▁angel	-9.94479
▁headed	-9.94594
▁kat	-9.94677
▁fights	-9.94718
▁lies	-9.94792
▁knocking	-9.94794
▁swords	-9.94886
▁burned	-9.94976
▁pushing	-9.9498
▁chip	-9.95055
▁burning	-9.95391
▁hurts	-9.95494
ock	-9.95675
▁qua	-9.95883
▁counting	-9.95886
▁hoo	-9.96175
▁suffer	-9.96422
▁interest	-9.96436
for	-9.96522
▁whistles	-9.9683
▁sand	-9.96922
▁dive	-9.96982
▁confirm	-9.96989
▁belongs	-9.97017
lie	-9.97059
▁success	-9.97143
▁earn	-9.97149
▁remove	-9.97153
two	-9.97276
▁health	-9.97352
▁trusted	-9.97435
▁among	-9.97527
▁object	-9.97545
▁author	-9.97546
▁brown	-9.97547
▁transport	-9.97551
▁taxi	-9.97564
▁adhemar	-9.97579
▁complex	-9.97579
▁coyote	-9.97579
▁dylan	-9.97579
▁explode	-9.97579
▁gamora	-9.97579
▁holiday	-9.97579
▁incident	-9.97579
▁junior	-9.97579
▁knife	-9.97579
▁manhattan	-9.97579
▁michelle	-9.97579
▁monsieur	-9.97579
▁ranchhoddas	-9.97579
▁signature	-9.97579
▁sophie	-9.97579
▁stanford	-9.97579
▁underneath	-9.97579
▁volunteer	-9.97579
▁wizard	-9.97579
▁dozen	-9.97579
▁empire	-9.97579
▁instant	-9.97579
▁giant	-9.9758
▁japanese	-9.9758
▁coughs	-9.9758
▁firm	-9.9758
▁diana	-9.9758
▁jerk	-9.9758
▁kingdom	-9.9758
▁blast	-9.9758
▁eema	-9.9758
▁italy	-9.9758
▁underground	-9.9758
▁ferry	-9.9758
▁swimming	-9.97581
▁gym	-9.97581
▁border	-9.97581
▁burden	-9.97582
▁gotham	-9.97583
▁onion	-9.97584
▁priest	-9.97584
▁rough	-9.97586
▁planning	-9.97587
▁steel	-9.97588
▁willow	-9.97591
▁assistant	-9.97592
▁lisa	-9.97592
▁grey	-9.97595
▁romantic	-9.97602
▁franz	-9.97608
▁season	-9.97621
▁aah	-9.97626
▁ava	-9.97627
▁batman	-9.97635
▁burst	-9.97647
▁agena	-9.97647
▁doom	-9.97648
▁craft	-9.9766
ical	-9.97664
▁tune	-9.97672
▁fans	-9.97674
▁bowen	-9.97675
▁rip	-9.97704
annoy	-9.9774
▁mint	-9.97772
▁square	-9.97792
▁wander	-9.97808
▁winter	-9.97815
▁stolen	-9.97925
▁stopping	-9.97973
unt	-9.97973
▁hood	-9.98078
▁sexy	-9.98161
▁nu	-9.98192
▁pla	-9.98249
▁joint	-9.98357
▁speakers	-9.98406
▁checking	-9.98463
▁spy	-9.98514
▁under	-9.98517
▁based	-9.98626
▁grave	-9.98833
▁songs	-9.98887
▁sire	-9.99233
▁seats	-9.993
▁sy	-9.9952
▁sooner	-9.99569
ii	-9.99733
▁tunnel	-9.99772
▁sometime	-9.99869
▁becomes	-10.0029
▁recording	-10.0054
▁rope	-10.0067
▁los	-10.0072
▁leading	-10.0075
▁murdered	-10.0081
star	-10.0097
▁chips	-10.0097
▁beating	-10.0098
▁it	-10.0104
▁what	-10.0112
▁lively	-10.0121
▁steps	-10.0125
▁cure	-10.0139
▁records	-10.0146
▁powers	-10.0174
▁cleared	-10.0221
▁hip	-10.0242
▁hol	-10.0255
▁wound	-10.0258
▁mix	-10.026
▁graduate	-10.0277
face	-10.0288
▁physical	-10.0291
▁usual	-10.0292
▁jun	-10.0295
▁remains	-10.0295
▁tear	-10.0303
▁rub	-10.0306
▁livin	-10.0306
▁exam	-10.0311
▁thou	-10.0313
▁breakfast	-10.0313
▁breast	-10.0313
▁bulgarian	-10.0313
▁convince	-10.0313
▁eboshi	-10.0313
▁explosiveskull	-10.0313
▁express	-10.0313
▁fifth	-10.0313
▁footsteps	-10.0313
▁jacob	-10.0313
▁jenny	-10.0313
▁mcbride	-10.0313
▁milady	-10.0313
▁mmmhmm	-10.0313
▁morrison	-10.0313
▁okkoto	-10.0313
▁positive	-10.0313
▁pulse	-10.0313
▁punk	-10.0313
▁rodney	-10.0313
▁supply	-10.0313
▁traffic	-10.0313
▁cheap	-10.0314
▁fluid	-10.0314
▁orbit	-10.0314
▁thief	-10.0314
▁branch	-10.0314
▁jasper	-10.0314
▁senate	-10.0314
▁threw	-10.0314
▁exclaims	-10.0314
▁nightmare	-10.0314
▁hustle	-10.0314
▁impact	-10.0314
▁beverly	-10.0314
▁unhappy	-10.0314
▁funeral	-10.0314
▁elves	-10.0314
▁gollum	-10.0314
▁stress	-10.0314
▁legend	-10.0314
▁slept	-10.0314
▁borrow	-10.0314
▁slide	-10.0315
▁committed	-10.0315
▁function	-10.0315
▁horrible	-10.0315
▁chasing	-10.0316
▁belt	-10.0316
▁medication	-10.0316
▁spark	-10.0316
▁scout	-10.0317
▁ingram	-10.0317
▁slap	-10.0317
▁leap	-10.0317
▁aware	-10.0317
▁gentleman	-10.0318
▁zone	-10.0318
▁loving	-10.0319
▁whatre	-10.0319
▁flag	-10.0319
▁package	-10.032
▁jab	-10.0321
▁farm	-10.0321
▁mitch	-10.0323
▁model	-10.0325
▁blt	-10.0326
▁taxes	-10.033
▁bender	-10.0333
▁spoken	-10.0333
▁bound	-10.0333
▁according	-10.0334
▁mercy	-10.0334
▁usually	-10.0335
▁rosen	-10.034
▁bury	-10.0346
▁screeching	-10.0349
▁lins	-10.0352
▁jc	-10.036
▁eva	-10.036
▁reed	-10.0361
▁mixed	-10.037
▁mustve	-10.0381
▁suffering	-10.0383
▁loaded	-10.0386
▁prepared	-10.0401
▁laws	-10.0406
▁designed	-10.0419
▁royal	-10.0427
▁idiots	-10.0446
▁stealing	-10.0476
▁peaceful	-10.048
▁jumped	-10.0491
▁fred	-10.0498
▁details	-10.0519
▁sports	-10.0539
▁cards	-10.0557
▁adams	-10.0558
▁pilots	-10.0563
ardi	-10.0564
▁engines	-10.0571
▁lately	-10.0574
▁toe	-10.0575
▁claim	-10.0588
▁hills	-10.0596
izing	-10.0614
▁knees	-10.0619
▁shu	-10.0626
ward	-10.0628
▁counter	-10.0641
sta	-10.0649
▁yup	-10.0661
▁fed	-10.0691
▁bon	-10.0697
pping	-10.0709
▁members	-10.0718
tt	-10.0728
▁badly	-10.0741
▁char	-10.0747
▁we	-10.0766
▁rider	-10.0768
lock	-10.0779
▁americans	-10.0781
▁landing	-10.0808
▁machines	-10.083
▁respond	-10.0837
▁sail	-10.0839
▁shout	-10.084
▁guts	-10.085
▁hung	-10.0854
▁engage	-10.0854
▁site	-10.0859
▁codes	-10.0859
▁fu	-10.0863
▁grant	-10.0865
town	-10.0867
book	-10.0871
▁af	-10.0877
wise	-10.0879
▁proper	-10.0883
ice	-10.0884
law	-10.0885
lly	-10.0888
▁weigh	-10.0888
▁hm	-10.0891
▁possess	-10.0891
act	-10.0894
ack	-10.0895
▁martin	-10.0896
▁comfort	-10.0899
▁represent	-10.0901
▁organ	-10.0901
▁birth	-10.0901
▁airplane	-10.0902
▁available	-10.0902
▁chamber	-10.0902
▁champagne	-10.0902
▁elizabeth	-10.0902
▁envelope	-10.0902
▁governor	-10.0902
▁horizon	-10.0902
▁inhales	-10.0902
▁intelligence	-10.0902
▁isengard	-10.0902
▁jeez	-10.0902
▁miracle	-10.0902
▁novalee	-10.0902
▁nuclear	-10.0902
▁rachel	-10.0902
▁struggle	-10.0902
▁traitor	-10.0902
▁university	-10.0902
▁valuable	-10.0902
▁current	-10.0902
▁darby	-10.0902
▁essential	-10.0902
▁farewell	-10.0902
▁groot	-10.0902
▁martha	-10.0902
▁mutant	-10.0902
▁parcher	-10.0902
▁pizza	-10.0902
▁process	-10.0902
▁silent	-10.0902
▁sodom	-10.0902
▁thlnk	-10.0902
▁improv	-10.0902
▁ammi	-10.0902
▁mostly	-10.0902
▁motor	-10.0902
▁online	-10.0902
▁knowledge	-10.0902
▁deke	-10.0902
▁knots	-10.0902
▁demand	-10.0902
▁gross	-10.0902
▁faint	-10.0902
▁hansen	-10.0902
through	-10.0902
▁wrap	-10.0902
▁reese	-10.0902
▁blanket	-10.0902
▁woke	-10.0903
▁film	-10.0903
▁civilian	-10.0903
▁goose	-10.0904
▁football	-10.0904
▁rising	-10.0904
▁passport	-10.0904
▁southern	-10.0905
▁wherever	-10.0905
▁sept	-10.0906
▁selfish	-10.0906
▁rob	-10.0908
▁hippy	-10.0908
▁therell	-10.0909
▁wln	-10.0909
▁kim	-10.091
▁laser	-10.0911
▁dimension	-10.0911
▁treatment	-10.0912
▁drax	-10.0912
▁homework	-10.0913
▁cent	-10.0913
▁elf	-10.0913
▁gear	-10.0914
▁generation	-10.0915
▁rare	-10.0917
▁core	-10.0918
▁fence	-10.0919
▁dings	-10.0919
▁scan	-10.092
▁guilty	-10.092
▁sew	-10.0922
▁surrounded	-10.0924
▁parties	-10.0939
▁directly	-10.0941
▁butter	-10.0944
▁honking	-10.0948
▁wink	-10.0957
ius	-10.0957
▁param	-10.0959
▁fay	-10.0959
▁tent	-10.0965
▁cu	-10.0968
▁scotty	-10.097
▁pissed	-10.0972
lat	-10.0974
▁witch	-10.0978
▁foundation	-10.0981
▁mach	-10.0986
▁ju	-10.0995
▁hunting	-10.0995
▁gloves	-10.0995
▁guineas	-10.0995
▁ant	-10.1007
▁hire	-10.1009
▁riding	-10.1015
▁millions	-10.102
▁chop	-10.1033
▁string	-10.1033
▁smaller	-10.104
▁goat	-10.1042
ette	-10.1056
▁realized	-10.1061
eat	-10.1082
▁offering	-10.1091
ture	-10.1101
▁traveling	-10.1126
han	-10.1137
▁degrees	-10.1142
▁acting	-10.1146
▁growing	-10.1149
▁stu	-10.1163
mic	-10.1171
upper	-10.1174
▁tryin	-10.1178
▁knee	-10.1188
▁depend	-10.1192
▁boot	-10.1196
ral	-10.1199
▁marc	-10.1231
▁rep	-10.1234
▁teaching	-10.1249
▁sk	-10.1267
▁ears	-10.1313
ux	-10.1329
▁passing	-10.133
▁tin	-10.1335
ified	-10.1391
bi	-10.1396
▁older	-10.1405
male	-10.1419
▁brains	-10.144
ji	-10.1453
▁tra	-10.1462
▁player	-10.1463
▁swa	-10.1465
▁leads	-10.1467
▁den	-10.1487
▁assure	-10.1491
house	-10.1497
▁wrestle	-10.1497
▁ve	-10.1501
▁sudden	-10.1505
port	-10.151
▁bags	-10.1514
▁chose	-10.1516
▁tick	-10.1521
▁seal	-10.1524
▁orphan	-10.1525
▁cruel	-10.1525
▁tech	-10.1526
▁atlantic	-10.1527
▁australia	-10.1527
▁broadcast	-10.1527
▁ceiling	-10.1527
▁circu	-10.1527
▁custody	-10.1527
▁disgrace	-10.1527
▁exchange	-10.1527
▁garcia	-10.1527
▁lichtenstein	-10.1527
▁magazine	-10.1527
▁mirror	-10.1527
▁neighbor	-10.1527
▁offense	-10.1527
▁oxygen	-10.1527
▁progress	-10.1527
▁recommend	-10.1527
▁responsibility	-10.1527
▁senior	-10.1527
▁constant	-10.1527
▁snake	-10.1527
▁example	-10.1527
▁phase	-10.1527
▁lunar	-10.1527
▁cancer	-10.1527
▁stood	-10.1527
▁thrust	-10.1527
▁coast	-10.1527
▁breach	-10.1527
▁pork	-10.1527
▁conference	-10.1527
hehheh	-10.1527
▁inform	-10.1527
▁narf	-10.1528
▁ugh	-10.1528
▁joking	-10.1528
▁pirate	-10.1528
▁delay	-10.1528
▁jj	-10.1528
▁wilson	-10.1528
▁talent	-10.1528
▁navy	-10.1528
▁towel	-10.1528
▁prick	-10.1528
▁easier	-10.1529
▁ladder	-10.1529
▁jew	-10.1529
▁sosa	-10.1529
▁nope	-10.153
▁plot	-10.153
▁legions	-10.153
▁rhythm	-10.153
▁starving	-10.1531
▁cockroaches	-10.1532
▁plow	-10.1532
▁dragonhead	-10.1532
▁cloud	-10.1532
▁mol	-10.1533
▁clock	-10.1533
▁coco	-10.1533
▁events	-10.1534
▁text	-10.1534
▁jimmy	-10.1534
▁alma	-10.1535
▁choke	-10.1535
▁quill	-10.1535
▁vice	-10.1537
▁determined	-10.1539
▁china	-10.1543
▁mental	-10.1547
▁fran	-10.1548
▁rio	-10.1549
▁dash	-10.1551
▁ash	-10.1552
▁toss	-10.1552
▁exit	-10.1554
▁not	-10.1556
▁ram	-10.1564
▁chap	-10.1566
▁madame	-10.1571
▁bond	-10.1573
▁scary	-10.158
von	-10.158
▁fallen	-10.1583
▁drum	-10.1584
▁raya	-10.159
▁melt	-10.1593
▁indian	-10.1597
▁lu	-10.1599
met	-10.1602
▁guide	-10.1607
▁cur	-10.1615
▁nearly	-10.1617
▁pretending	-10.1622
ible	-10.1642
▁finest	-10.1646
▁escaped	-10.1647
▁beth	-10.166
action	-10.1689
▁stronger	-10.1692
▁plato	-10.1692
▁pur	-10.1694
▁qui	-10.1697
▁associate	-10.1774
▁ended	-10.1785
ught	-10.181
▁scr	-10.1823
▁results	-10.1828
bon	-10.1832
▁tire	-10.1835
und	-10.1841
▁beep	-10.1848
▁gunshot	-10.1858
▁bee	-10.186
▁diet	-10.1861
▁parent	-10.187
▁jan	-10.1895
▁trucks	-10.19
▁vil	-10.1909
▁mp	-10.1911
▁bomber	-10.1914
rain	-10.1927
▁ending	-10.193
ich	-10.1964
▁cleaning	-10.197
▁showing	-10.199
▁reports	-10.2007
ets	-10.2009
▁issues	-10.2009
▁creatures	-10.2032
▁pieces	-10.2048
▁gather	-10.207
▁signs	-10.2071
▁includ	-10.2074
▁mel	-10.2079
ith	-10.2092
▁she	-10.2095
▁ja	-10.2095
▁easter	-10.21
▁movies	-10.2101
▁tale	-10.2109
uck	-10.2123
q	-10.2124
▁publish	-10.2136
▁cancel	-10.2137
▁drill	-10.2144
▁advance	-10.2151
▁invite	-10.2152
room	-10.2158
▁natural	-10.2171
▁particular	-10.2171
▁obvious	-10.2172
▁sue	-10.2176
▁gal	-10.2183
vel	-10.2187
▁carly	-10.2191
▁helm	-10.2192
▁tlg	-10.2192
▁august	-10.2193
▁campaign	-10.2193
▁describe	-10.2193
▁escort	-10.2193
▁fairfax	-10.2193
▁generous	-10.2193
▁grandfather	-10.2193
▁helicopter	-10.2193
▁honghui	-10.2193
▁increase	-10.2193
▁invisible	-10.2193
▁jensen	-10.2193
▁levinson	-10.2193
▁liberty	-10.2193
▁library	-10.2193
▁occasion	-10.2193
▁pelican	-10.2193
▁privacy	-10.2193
▁procedure	-10.2193
▁puzzle	-10.2193
▁pyramid	-10.2193
▁receipt	-10.2193
▁remarkable	-10.2193
▁remote	-10.2193
▁reputation	-10.2193
▁rochelle	-10.2193
▁sequence	-10.2193
▁servant	-10.2193
▁slaughter	-10.2193
▁soccer	-10.2193
▁swallow	-10.2193
▁tragedy	-10.2193
▁varinia	-10.2193
▁wealth	-10.2193
▁canyon	-10.2193
▁communication	-10.2193
▁maintain	-10.2193
▁rifle	-10.2193
▁rouran	-10.2193
▁scheme	-10.2193
▁silver	-10.2193
▁stretch	-10.2193
▁lizard	-10.2193
▁motive	-10.2193
▁amaze	-10.2193
▁flush	-10.2193
▁laura	-10.2193
▁nerve	-10.2193
▁conners	-10.2193
▁lainie	-10.2193
▁marino	-10.2193
▁warrant	-10.2193
▁joshua	-10.2193
▁serum	-10.2193
▁renai	-10.2193
▁boston	-10.2194
▁turd	-10.2194
▁doris	-10.2194
▁herr	-10.2194
▁repair	-10.2194
▁link	-10.2194
▁bucket	-10.2195
▁denny	-10.2195
▁backwards	-10.2195
▁stallion	-10.2195
▁gimli	-10.2195
▁chatur	-10.2195
▁revenge	-10.2196
▁decent	-10.2196
▁crawl	-10.2196
▁soap	-10.2196
▁coordinates	-10.2196
▁authority	-10.2196
▁narrator	-10.2197
▁sara	-10.2197
▁weakness	-10.2198
▁route	-10.2199
▁theme	-10.2201
▁flynn	-10.2202
▁sock	-10.2202
▁comment	-10.2203
▁lois	-10.2206
ware	-10.2206
▁discovered	-10.2207
▁armies	-10.2208
▁lonely	-10.2209
▁manual	-10.2209
▁laid	-10.221
boy	-10.2211
▁meal	-10.2215
▁ability	-10.2216
▁forty	-10.222
▁murmuring	-10.2223
▁connected	-10.2223
▁mood	-10.2225
▁wrestler	-10.2225
▁healthy	-10.2227
▁sink	-10.2228
▁def	-10.2228
▁dealing	-10.2231
▁drawn	-10.2233
▁leak	-10.2236
▁dld	-10.224
▁dutch	-10.2242
▁concerned	-10.2247
▁dot	-10.2272
▁gray	-10.2276
▁considered	-10.2278
▁carlin	-10.229
eth	-10.2296
▁rocko	-10.2303
▁belly	-10.2311
▁hitch	-10.2313
▁survivors	-10.2324
▁safer	-10.2327
▁attend	-10.2352
▁makeup	-10.2355
▁treated	-10.236
▁gim	-10.2373
▁prim	-10.2382
▁defending	-10.2382
▁communicate	-10.2384
▁freaking	-10.2388
▁bu	-10.2402
▁buzzing	-10.2413
▁boarding	-10.2414
▁fixed	-10.2419
▁mis	-10.2429
▁knocked	-10.2485
▁grunt	-10.2518
▁concern	-10.2522
▁leaders	-10.2525
car	-10.2528
▁gunshots	-10.254
▁manner	-10.2549
▁depends	-10.2565
▁tor	-10.2565
▁result	-10.2573
bra	-10.2574
▁jam	-10.2575
▁hum	-10.2579
▁rebel	-10.2582
▁wha	-10.2603
ile	-10.2603
▁hunter	-10.2609
▁buildings	-10.2611
▁lover	-10.263
pat	-10.2633
▁victims	-10.2638
▁odds	-10.2638
key	-10.2653
▁sin	-10.2662
▁minor	-10.2672
▁pea	-10.2678
den	-10.2684
kh	-10.2701
▁achieve	-10.2702
▁sch	-10.2706
of	-10.2737
▁will	-10.2764
▁bust	-10.2766
▁touching	-10.2771
▁dig	-10.2771
▁woo	-10.2776
ella	-10.2787
▁dl	-10.279
▁dal	-10.2821
▁squa	-10.2837
▁develop	-10.2842
gram	-10.2842
▁gus	-10.2855
▁arrange	-10.2856
aries	-10.2856
▁ras	-10.2863
point	-10.2875
break	-10.2876
▁recover	-10.2882
▁dirt	-10.2885
▁actual	-10.2887
▁mutt	-10.2888
form	-10.2893
▁russia	-10.2894
▁chuck	-10.29
▁audit	-10.2901
▁custom	-10.2901
▁wreck	-10.2906
▁prefer	-10.2907
looking	-10.2907
▁sparta	-10.2908
▁calculat	-10.2908
▁stubborn	-10.2908
▁allegra	-10.2908
▁ashitaka	-10.2908
▁attorney	-10.2908
▁belief	-10.2908
▁beloved	-10.2908
▁brooklyn	-10.2908
▁cepheus	-10.2908
▁channel	-10.2908
▁clamoring	-10.2908
▁coffey	-10.2908
▁commercial	-10.2908
▁convention	-10.2908
▁ducard	-10.2908
▁dwarf	-10.2908
▁einhorn	-10.2908
▁equipment	-10.2908
▁forbidden	-10.2908
▁glabrus	-10.2908
▁instrument	-10.2908
▁jealous	-10.2908
▁juilliard	-10.2908
▁legacy	-10.2908
▁multiple	-10.2908
▁muslim	-10.2908
▁peacekeepers	-10.2908
▁physics	-10.2908
▁political	-10.2908
▁shinyoung	-10.2908
▁sordino	-10.2908
▁television	-10.2908
▁twelve	-10.2908
▁unique	-10.2908
▁violence	-10.2908
▁violent	-10.2908
▁wangdu	-10.2908
▁wisdom	-10.2908
▁withdraw	-10.2908
▁zephyr	-10.2908
▁agency	-10.2908
▁arthur	-10.2908
▁arwen	-10.2908
▁attitude	-10.2908
▁bravo	-10.2908
▁eleven	-10.2908
▁equation	-10.2908
▁gupta	-10.2908
▁location	-10.2908
▁rascal	-10.2908
▁relative	-10.2908
▁blah	-10.2908
▁depth	-10.2908
▁foster	-10.2908
▁wrist	-10.2908
▁article	-10.2908
▁distant	-10.2908
▁everdeen	-10.2908
▁daisy	-10.2908
▁smiling	-10.2908
▁grond	-10.2908
▁miami	-10.2908
▁propose	-10.2908
▁radar	-10.2908
▁rom	-10.2908
▁resume	-10.2908
▁financial	-10.2908
▁profit	-10.2908
▁shove	-10.2908
▁aggressive	-10.2908
▁terrified	-10.2908
▁pym	-10.2908
▁standard	-10.2908
▁expensive	-10.2908
▁japan	-10.2908
▁robert	-10.2908
▁nazg	-10.2908
▁choking	-10.2908
▁electricity	-10.2908
▁sobs	-10.2909
oke	-10.2909
▁histori	-10.2909
▁bind	-10.2909
▁sameer	-10.2909
▁terror	-10.2909
▁urgent	-10.291
▁mysterious	-10.291
▁moral	-10.291
▁tribe	-10.2911
▁championship	-10.2911
▁groom	-10.2911
▁helmet	-10.2912
▁marian	-10.2912
▁princeton	-10.2912
▁howard	-10.2912
▁roland	-10.2912
▁tool	-10.2912
▁trapped	-10.2912
▁hunterson	-10.2914
▁urg	-10.2914
▁beings	-10.2914
▁booth	-10.2915
▁gap	-10.2915
▁dropping	-10.2915
▁solid	-10.2915
▁soup	-10.2916
▁explorer	-10.2916
▁howl	-10.2916
▁commissioner	-10.2917
▁mount	-10.2918
▁highway	-10.2924
▁moan	-10.2925
▁hack	-10.2926
▁tug	-10.2927
▁memo	-10.2928
▁invented	-10.2931
▁wat	-10.2931
▁harl	-10.2932
▁witnesses	-10.2933
▁embarrassing	-10.2935
▁visitor	-10.2935
▁sharply	-10.2941
▁tiny	-10.2942
▁retired	-10.2943
▁sonny	-10.2944
▁hail	-10.2944
▁cole	-10.2945
▁colon	-10.2946
▁virtue	-10.2947
▁restore	-10.2948
hard	-10.2948
oden	-10.295
▁mere	-10.2954
▁direction	-10.2955
▁math	-10.2959
▁engaged	-10.2959
▁abandoned	-10.296
▁endless	-10.2967
▁lex	-10.2969
▁refugee	-10.2972
▁unto	-10.2975
▁provided	-10.2978
▁flop	-10.2981
▁bend	-10.2985
▁responding	-10.2988
▁eaten	-10.3009
▁considering	-10.3013
▁nasa	-10.3022
▁entirely	-10.303
▁crossing	-10.3043
▁blessed	-10.3045
▁lap	-10.305
rog	-10.3065
fully	-10.307
▁there	-10.307
▁don	-10.3071
spect	-10.3086
▁container	-10.3088
▁precogs	-10.31
▁offered	-10.311
▁if	-10.3149
van	-10.3199
fi	-10.3209
▁wipe	-10.3228
ept	-10.3234
▁fore	-10.3239
▁kicked	-10.3248
▁sip	-10.3253
▁learning	-10.3271
▁bb	-10.3294
▁merc	-10.3294
▁programm	-10.3299
▁kicking	-10.3302
five	-10.3308
▁worker	-10.3317
▁bills	-10.3319
▁martian	-10.334
▁egg	-10.3353
▁bees	-10.3356
▁dreamed	-10.3364
▁com	-10.3383
ett	-10.3392
▁bur	-10.3406
gged	-10.3411
▁russians	-10.3419
ration	-10.3444
izz	-10.345
▁transfer	-10.3492
▁maya	-10.3492
▁prep	-10.3507
▁han	-10.3513
rang	-10.3542
tle	-10.356
▁cart	-10.3564
ju	-10.3572
▁sucks	-10.3572
oth	-10.3576
uch	-10.358
aking	-10.359
▁bullets	-10.3601
▁wit	-10.3602
▁abandon	-10.362
▁threaten	-10.3633
▁corn	-10.3635
▁fra	-10.3643
▁ie	-10.3644
know	-10.3645
like	-10.3645
▁rats	-10.3652
▁immediate	-10.3655
▁incredibl	-10.3656
▁sandwich	-10.3665
▁elliot	-10.3666
ndi	-10.3666
▁translat	-10.3667
▁surge	-10.3668
▁strip	-10.3671
bear	-10.3673
▁invest	-10.3674
▁charm	-10.3675
▁civil	-10.3675
▁although	-10.3677
▁antoninus	-10.3677
▁atlanta	-10.3677
▁atmosphere	-10.3677
▁baracus	-10.3677
▁behalf	-10.3677
▁behavior	-10.3677
▁boromir	-10.3677
▁chanchad	-10.3677
▁coincidence	-10.3677
▁contribut	-10.3677
▁counsel	-10.3677
▁darwin	-10.3677
▁despite	-10.3677
▁distress	-10.3677
▁divas	-10.3677
▁eiffel	-10.3677
▁enormous	-10.3677
▁exciting	-10.3677
▁gracchus	-10.3677
▁happiness	-10.3677
▁harvey	-10.3677
▁injured	-10.3677
▁insurance	-10.3677
▁interrupt	-10.3677
▁jonah	-10.3677
▁louisiana	-10.3677
▁nebula	-10.3677
▁neighborhood	-10.3677
▁newspaper	-10.3677
▁permanent	-10.3677
▁politics	-10.3677
▁products	-10.3677
▁psycho	-10.3677
▁resource	-10.3677
▁rogue	-10.3677
▁scatter	-10.3677
▁society	-10.3677
▁succeed	-10.3677
▁thursday	-10.3677
▁zodiac	-10.3677
▁aborigin	-10.3677
▁babies	-10.3677
▁bachelor	-10.3677
▁century	-10.3677
▁dignity	-10.3677
▁endurance	-10.3677
▁eventually	-10.3677
▁faramir	-10.3677
▁garage	-10.3677
▁penalty	-10.3677
▁twist	-10.3677
▁unknown	-10.3677
▁visual	-10.3677
▁weyland	-10.3677
▁ashamed	-10.3677
▁conquer	-10.3677
▁interfere	-10.3677
▁overcome	-10.3677
▁stream	-10.3677
▁strict	-10.3677
▁wadia	-10.3677
▁balance	-10.3677
▁claus	-10.3677
▁wailing	-10.3677
▁doyle	-10.3677
▁false	-10.3677
▁jean	-10.3677
▁superior	-10.3677
▁saint	-10.3677
▁salad	-10.3677
▁advise	-10.3677
▁element	-10.3677
▁lamar	-10.3677
▁crisis	-10.3677
▁score	-10.3677
▁eddie	-10.3677
▁trask	-10.3677
▁civilization	-10.3677
▁scholarship	-10.3677
▁cigarette	-10.3677
▁shining	-10.3677
▁facing	-10.3677
▁pacific	-10.3677
▁trophy	-10.3677
▁accent	-10.3677
▁begun	-10.3677
▁stroke	-10.3678
▁radiation	-10.3678
▁vision	-10.3678
▁allah	-10.3678
▁practically	-10.3678
▁protest	-10.3678
▁accu	-10.3678
▁ivan	-10.3678
▁bronze	-10.3679
▁shopping	-10.3679
▁punishment	-10.3679
▁impressive	-10.3679
▁surgery	-10.368
▁benson	-10.368
▁robot	-10.368
▁logan	-10.368
▁trail	-10.368
▁boring	-10.3681
▁distraction	-10.3682
▁define	-10.3683
▁impression	-10.3683
▁gain	-10.3683
▁lang	-10.3683
▁reward	-10.3684
▁task	-10.3684
▁rode	-10.3684
▁zakir	-10.3684
▁brace	-10.3684
▁touchdown	-10.3684
▁shave	-10.3684
▁mick	-10.3685
▁neat	-10.3685
▁humor	-10.3685
▁grateful	-10.3686
▁poem	-10.3687
▁after	-10.3687
▁why	-10.3688
▁fitz	-10.3688
▁castle	-10.3688
▁pink	-10.3689
▁squeaking	-10.369
lip	-10.3691
▁heil	-10.3691
▁loan	-10.3693
▁dim	-10.3694
▁jammer	-10.3695
▁angeles	-10.3695
▁fried	-10.37
▁sweetest	-10.3703
▁chill	-10.3704
▁clattering	-10.3706
▁factor	-10.3711
▁mansion	-10.3714
▁jay	-10.3715
▁billion	-10.3717
▁arranged	-10.3722
▁advanced	-10.3726
▁officially	-10.3733
▁unable	-10.3737
▁designer	-10.3739
▁cane	-10.3739
uk	-10.374
▁whoop	-10.3742
▁dial	-10.3744
thin	-10.3751
▁juli	-10.3752
▁cursed	-10.3755
▁howdy	-10.3755
▁wounded	-10.3757
▁chin	-10.376
▁hub	-10.3763
▁tube	-10.3764
minus	-10.3772
▁tail	-10.3788
▁mentioned	-10.3803
▁neg	-10.3816
▁carefully	-10.3818
tz	-10.382
▁wasted	-10.3824
▁marsh	-10.3825
▁my	-10.3829
▁forced	-10.3839
pan	-10.385
▁sniffs	-10.3857
▁drawing	-10.3882
▁citizens	-10.3885
▁drawer	-10.3886
▁feeding	-10.3897
▁accepted	-10.3904
▁dancer	-10.3904
▁pit	-10.3913
▁messed	-10.3932
just	-10.3933
▁selling	-10.3934
▁thy	-10.3942
▁astronauts	-10.3969
▁options	-10.3998
▁chit	-10.4004
▁younger	-10.4009
ray	-10.4011
▁martians	-10.4026
▁humble	-10.4033
▁prayer	-10.4043
▁nail	-10.4118
▁chart	-10.4146
▁fort	-10.4153
▁tunnels	-10.4168
▁option	-10.4176
▁degree	-10.4176
▁sport	-10.4181
▁beside	-10.4185
▁edit	-10.4191
▁angels	-10.4196
▁covered	-10.4197
owned	-10.4201
▁swi	-10.4225
▁ideal	-10.4233
▁buying	-10.4243
▁friendly	-10.4255
pt	-10.4255
▁cows	-10.4278
▁punish	-10.4278
▁suspects	-10.4283
▁landed	-10.4285
▁pure	-10.4319
▁virginia	-10.4333
ties	-10.4335
ger	-10.4365
aron	-10.4369
▁q	-10.4411
▁millers	-10.443
▁creat	-10.4433
▁photograph	-10.4439
▁predict	-10.4449
▁insist	-10.4454
▁betray	-10.4457
▁honk	-10.4458
▁pulling	-10.446
▁retire	-10.4466
▁medic	-10.4469
what	-10.4477
minute	-10.4478
▁guilt	-10.4484
▁rap	-10.4489
▁exact	-10.4492
▁produce	-10.4492
▁complain	-10.4495
▁investigat	-10.45
▁mille	-10.4501
▁favour	-10.4509
long	-10.4509
▁resist	-10.451
▁accomplish	-10.451
▁concert	-10.451
▁republic	-10.451
▁rewind	-10.451
▁stammer	-10.451
advantage	-10.451
▁abagnale	-10.451
▁activity	-10.451
▁admiral	-10.451
▁admire	-10.451
▁africa	-10.451
▁almighty	-10.451
▁armstrong	-10.451
▁asleep	-10.451
▁audrey	-10.451
▁barbecue	-10.451
▁bullseye	-10.451
▁burgess	-10.451
▁connors	-10.451
▁delicious	-10.451
▁disgusting	-10.451
▁edmunds	-10.451
▁encrypt	-10.451
▁exposed	-10.451
▁facility	-10.451
▁families	-10.451
▁fifteen	-10.451
▁genetic	-10.451
▁gladiator	-10.451
▁increasing	-10.451
▁instinct	-10.451
▁judgment	-10.451
▁magarri	-10.451
▁mankind	-10.451
▁marilyn	-10.451
▁middleearth	-10.451
▁narracott	-10.451
▁purchase	-10.451
▁rebuild	-10.451
▁response	-10.451
▁restaurant	-10.451
▁saturday	-10.451
▁sauce	-10.451
▁schmidt	-10.451
▁stereo	-10.451
▁stomach	-10.451
▁survival	-10.451
▁terminal	-10.451
▁terribly	-10.451
▁tirith	-10.451
▁unacceptable	-10.451
▁ventura	-10.451
▁walkabout	-10.451
▁walmart	-10.451
▁wheirdicht	-10.451
▁whimpers	-10.451
▁becky	-10.451
▁cannon	-10.451
▁carlisle	-10.451
▁gordon	-10.451
▁peanut	-10.451
▁policy	-10.451
▁rainbow	-10.451
▁shelter	-10.451
▁voyles	-10.451
▁creep	-10.451
▁pathetic	-10.451
▁pearl	-10.451
▁smooth	-10.451
▁extend	-10.451
▁modern	-10.451
▁prevent	-10.451
▁tlme	-10.451
▁await	-10.451
▁guild	-10.451
▁pattern	-10.451
▁bodies	-10.451
▁pierce	-10.451
▁purple	-10.451
▁thrill	-10.451
▁throne	-10.451
▁chef	-10.451
▁humming	-10.451
▁twin	-10.451
▁wore	-10.451
▁barn	-10.451
▁candy	-10.451
▁judy	-10.451
▁tele	-10.451
▁flirt	-10.451
▁atf	-10.451
▁crane	-10.451
▁surveillance	-10.451
▁owner	-10.451
▁multi	-10.4511
▁curtain	-10.4511
▁boost	-10.4511
▁torture	-10.4511
▁magnet	-10.4511
▁juice	-10.4511
▁sheets	-10.4511
▁constitution	-10.4511
▁forney	-10.4511
▁version	-10.4511
▁monkey	-10.4511
▁ankle	-10.4511
▁denied	-10.4511
▁aye	-10.4511
▁employee	-10.4511
▁hahaha	-10.4511
▁amount	-10.4512
▁vickie	-10.4512
▁hlm	-10.4512
▁primary	-10.4512
▁vacu	-10.4512
▁temple	-10.4512
▁severe	-10.4512
▁arab	-10.4512
while	-10.4512
▁failure	-10.4513
▁glob	-10.4513
▁changing	-10.4513
▁flank	-10.4514
▁grew	-10.4514
▁passionate	-10.4515
▁hatred	-10.4515
▁squeeze	-10.4515
▁tapped	-10.4515
▁interpreter	-10.4515
▁thug	-10.4516
▁coke	-10.4516
▁obliged	-10.4516
▁spotted	-10.4516
▁announcement	-10.4516
▁ceremony	-10.4516
▁lima	-10.4517
▁review	-10.4518
▁fitting	-10.4518
▁dora	-10.4519
▁unlock	-10.452
▁whale	-10.4522
▁thick	-10.4522
▁wallet	-10.4522
▁arrangement	-10.4522
▁trace	-10.4522
▁campus	-10.4523
▁gag	-10.4524
▁whore	-10.4525
▁thirsty	-10.4525
▁bail	-10.4526
▁possession	-10.4526
▁app	-10.4528
▁mag	-10.4529
▁flies	-10.453
▁apply	-10.4532
▁foolish	-10.4534
▁crown	-10.4535
▁ego	-10.4537
▁sacred	-10.4538
iff	-10.4538
▁captured	-10.4538
▁cam	-10.4539
▁era	-10.4542
▁switches	-10.4545
▁cutting	-10.4546
▁ez	-10.4546
▁stark	-10.4548
▁hangman	-10.4553
▁impressed	-10.4557
▁freakin	-10.4558
▁frightened	-10.4562
▁deny	-10.4565
mbling	-10.4565
▁holo	-10.4567
▁kate	-10.4568
▁carol	-10.4571
▁developed	-10.4577
▁frankie	-10.458
▁lifetime	-10.4581
▁successful	-10.4581
▁charming	-10.4582
▁gathered	-10.4582
▁hy	-10.4584
▁hopeless	-10.4585
▁barr	-10.4587
▁owen	-10.4596
▁der	-10.4599
all	-10.4608
▁thrown	-10.4611
▁decorat	-10.4625
▁wally	-10.4626
▁exce	-10.4628
▁shy	-10.4629
▁hurting	-10.4637
▁stitch	-10.4639
▁docking	-10.4642
▁patch	-10.4648
ities	-10.4651
▁hut	-10.4666
▁camel	-10.4676
▁focused	-10.4677
▁wishes	-10.4685
nine	-10.4689
▁technical	-10.4695
▁skip	-10.4705
▁concentrate	-10.4715
▁yay	-10.4727
▁imagined	-10.4731
iest	-10.4732
▁engineering	-10.474
▁timing	-10.479
▁tre	-10.4795
▁mort	-10.4804
▁solo	-10.4834
▁hal	-10.4838
▁safely	-10.4848
ole	-10.485
work	-10.4851
ridge	-10.4855
rim	-10.4858
▁reaching	-10.4858
▁pip	-10.4864
▁mud	-10.4893
▁boars	-10.4919
▁hunters	-10.4929
▁receive	-10.4961
▁boar	-10.4968
read	-10.4977
▁returned	-10.5019
mate	-10.5021
▁rh	-10.5023
▁tears	-10.5041
gh	-10.5066
▁astronaut	-10.5082
▁detail	-10.5086
▁deco	-10.5097
▁chuckle	-10.5101
▁intention	-10.5128
▁dreaming	-10.5137
▁hen	-10.5138
▁dam	-10.5154
▁flower	-10.5164
▁falcon	-10.5314
▁ignor	-10.5351
▁frighten	-10.5363
▁announce	-10.537
▁arch	-10.5382
connect	-10.5385
position	-10.5387
john	-10.5387
▁pour	-10.5388
weight	-10.539
life	-10.539
jack	-10.5391
stand	-10.5393
ooh	-10.5394
▁batter	-10.5401
ont	-10.5406
▁opera	-10.5413
▁pupp	-10.5415
▁beau	-10.5417
lght	-10.5418
▁basic	-10.5419
▁cigar	-10.5419
ization	-10.5419
▁encounter	-10.5419
▁journal	-10.5419
▁ambassador	-10.5419
▁ambulance	-10.5419
▁application	-10.5419
▁approval	-10.5419
▁baghdad	-10.5419
▁benthic	-10.5419
▁brigman	-10.5419
▁childhood	-10.5419
▁comanche	-10.5419
▁conduct	-10.5419
▁diplomat	-10.5419
▁education	-10.5419
▁elephant	-10.5419
▁fascinating	-10.5419
▁fugitive	-10.5419
▁greetings	-10.5419
▁gregoire	-10.5419
▁hartley	-10.5419
▁hartmann	-10.5419
▁hector	-10.5419
▁immigrant	-10.5419
▁industr	-10.5419
▁initial	-10.5419
▁intercept	-10.5419
▁isildur	-10.5419
▁kurokawa	-10.5419
▁legolas	-10.5419
▁lonnie	-10.5419
▁maitland	-10.5419
▁munich	-10.5419
▁nahoko	-10.5419
▁occur	-10.5419
▁opposite	-10.5419
▁ordinary	-10.5419
▁pascal	-10.5419
▁possibility	-10.5419
▁potential	-10.5419
▁rastogi	-10.5419
▁rwanda	-10.5419
▁sesterces	-10.5419
▁snoring	-10.5419
▁stadium	-10.5419
▁titties	-10.5419
▁value	-10.5419
▁wilhemina	-10.5419
▁beneath	-10.5419
▁cletus	-10.5419
▁display	-10.5419
▁expand	-10.5419
▁google	-10.5419
▁herald	-10.5419
▁maggot	-10.5419
▁orange	-10.5419
▁shatter	-10.5419
▁snack	-10.5419
▁zhou	-10.5419
▁bhai	-10.5419
▁eteon	-10.5419
▁feather	-10.5419
▁outfit	-10.5419
▁assemble	-10.5419
▁ironworks	-10.5419
▁period	-10.5419
▁spoil	-10.5419
▁tatsi	-10.5419
▁anytime	-10.5419
▁swedish	-10.5419
▁obey	-10.5419
▁riend	-10.5419
▁thatcher	-10.5419
▁wicked	-10.5419
▁foul	-10.5419
▁moria	-10.5419
▁related	-10.5419
▁karen	-10.5419
▁cmon	-10.5419
▁holmes	-10.5419
▁adult	-10.5419
▁clothing	-10.5419
▁herb	-10.5419
▁roaring	-10.5419
▁cadet	-10.542
▁gracious	-10.542
▁begging	-10.542
▁havens	-10.542
▁drift	-10.542
▁ballad	-10.542
▁instructions	-10.542
▁waitress	-10.542
▁sammy	-10.542
▁scrunt	-10.542
▁cheek	-10.542
▁graduation	-10.542
▁supervis	-10.542
▁youii	-10.542
▁flashlight	-10.5421
▁actors	-10.5421
▁begged	-10.5421
▁parade	-10.5421
▁dldnt	-10.5421
▁fetch	-10.5421
▁overboard	-10.5422
▁nazi	-10.5422
▁valor	-10.5422
▁spice	-10.5422
martial	-10.5422
▁sync	-10.5423
▁swell	-10.5423
▁rice	-10.5423
▁purty	-10.5423
▁charity	-10.5423
▁clay	-10.5423
▁jackson	-10.5423
▁domin	-10.5423
▁chapter	-10.5423
▁abuse	-10.5424
▁visa	-10.5424
▁subway	-10.5424
▁nearby	-10.5424
▁tits	-10.5424
▁bolt	-10.5424
▁kali	-10.5425
▁promote	-10.5425
▁media	-10.5425
▁keen	-10.5426
▁marine	-10.5426
▁kara	-10.5426
▁overhead	-10.5426
▁samoan	-10.5426
▁beef	-10.5427
▁aboard	-10.5427
▁footage	-10.5428
▁practic	-10.5428
▁forgiveness	-10.5428
▁filthy	-10.5428
▁discovery	-10.5428
▁feur	-10.5429
▁web	-10.5429
▁farther	-10.5431
▁glve	-10.5432
▁huit	-10.5434
▁scooter	-10.5434
▁thumping	-10.5435
escent	-10.544
▁dna	-10.544
▁quest	-10.544
▁classic	-10.5442
▁tempt	-10.5443
▁tucker	-10.5445
lst	-10.5449
▁embarrassed	-10.545
▁countless	-10.5452
▁cue	-10.5454
▁coma	-10.5454
▁detected	-10.5455
▁fold	-10.5458
▁bandit	-10.5458
▁mob	-10.5459
▁mechanical	-10.5459
▁sald	-10.546
▁surrounding	-10.5461
▁stable	-10.5464
▁bitter	-10.5466
▁cries	-10.5466
▁grass	-10.5467
▁penis	-10.5476
▁threatened	-10.5488
▁whl	-10.549
▁sie	-10.5494
▁ahh	-10.5497
▁canceled	-10.5498
▁classes	-10.5499
▁released	-10.551
▁suffered	-10.5521
▁cable	-10.5523
jo	-10.5545
▁torn	-10.5549
▁painted	-10.5549
▁compete	-10.5557
▁solved	-10.5563
▁passengers	-10.5569
▁driven	-10.557
▁crossed	-10.5572
▁washed	-10.5581
▁added	-10.5581
▁include	-10.5586
▁pile	-10.5592
▁airlines	-10.5602
▁drones	-10.5603
▁asses	-10.5604
▁entering	-10.5614
▁gil	-10.5623
▁patriots	-10.5636
▁continu	-10.5644
▁hesitate	-10.5644
test	-10.5655
▁yards	-10.5669
▁auto	-10.567
▁orc	-10.5676
add	-10.5701
awn	-10.5709
▁cookies	-10.5715
▁mat	-10.5722
▁realm	-10.5722
▁reject	-10.5733
▁visiting	-10.5735
rad	-10.5736
▁dolphins	-10.5737
▁pillars	-10.5737
▁ko	-10.5755
▁vest	-10.5755
handed	-10.5758
ound	-10.5765
▁bri	-10.5766
▁boxing	-10.5775
▁sni	-10.5817
▁cho	-10.5829
▁elect	-10.5829
▁honored	-10.5832
▁tee	-10.584
▁eu	-10.5844
▁concerns	-10.5861
▁ke	-10.5893
▁boots	-10.593
▁ye	-10.5931
▁when	-10.5945
▁layer	-10.5952
mill	-10.596
▁claims	-10.5961
itched	-10.5976
▁joined	-10.5989
▁cleaned	-10.5997
▁forg	-10.6016
lr	-10.6019
▁sounded	-10.602
▁lone	-10.6052
▁scrap	-10.6061
▁dolphin	-10.608
▁pillar	-10.6091
▁shoe	-10.6094
▁folk	-10.6105
▁mile	-10.6115
night	-10.6148
tric	-10.6192
▁aj	-10.6227
hh	-10.6236
▁suite	-10.6252
▁down	-10.6263
▁hated	-10.6273
ability	-10.6274
lk	-10.6301
ode	-10.6311
some	-10.6311
oid	-10.6341
▁impress	-10.6351
▁regard	-10.6352
▁screech	-10.6355
walk	-10.6382
cent	-10.6384
flower	-10.6386
well	-10.6393
phone	-10.6401
▁unlike	-10.6405
▁wast	-10.641
▁jamm	-10.6412
▁mornin	-10.6416
▁spider	-10.6416
▁establish	-10.6417
▁beautif	-10.6417
▁alcohol	-10.6419
▁absorb	-10.6419
▁agaln	-10.6419
▁ancestors	-10.6419
▁argue	-10.6419
▁arguing	-10.6419
▁assault	-10.6419
▁avenue	-10.6419
▁awkward	-10.6419
▁banner	-10.6419
▁berkeley	-10.6419
▁celebrating	-10.6419
▁circumstances	-10.6419
▁cleveland	-10.6419
▁consequence	-10.6419
▁council	-10.6419
▁cuff	-10.6419
▁cycle	-10.6419
▁czechs	-10.6419
▁debris	-10.6419
▁deception	-10.6419
▁descend	-10.6419
▁diamond	-10.6419
▁dolores	-10.6419
▁easily	-10.6419
▁elevator	-10.6419
▁enterprise	-10.6419
▁error	-10.6419
▁flavor	-10.6419
▁fortunate	-10.6419
▁galaxy	-10.6419
▁gulapa	-10.6419
▁hawaii	-10.6419
▁hurricane	-10.6419
▁hysterical	-10.6419
▁infinite	-10.6419
▁lafayette	-10.6419
▁marcellus	-10.6419
▁marvelous	-10.6419
▁minuti	-10.6419
▁motorcycle	-10.6419
▁napoleon	-10.6419
▁opponent	-10.6419
▁orgocorp	-10.6419
▁pittsburgh	-10.6419
▁podacter	-10.6419
▁pronounce	-10.6419
▁rizu	-10.6419
▁rottingham	-10.6419
▁saturn	-10.6419
▁symptom	-10.6419
▁tremendous	-10.6419
▁trevor	-10.6419
▁tyranny	-10.6419
▁ultimate	-10.6419
▁witwicky	-10.6419
▁wolves	-10.6419
▁dummy	-10.6419
▁essay	-10.6419
▁fortress	-10.6419
▁gambling	-10.6419
▁maximum	-10.6419
▁neuf	-10.6419
▁ounce	-10.6419
▁pistol	-10.6419
▁ravage	-10.6419
▁salute	-10.6419
▁splash	-10.6419
▁summon	-10.6419
▁bargain	-10.6419
▁candida	-10.6419
▁disaster	-10.6419
▁shortcut	-10.6419
▁terms	-10.6419
▁thumb	-10.6419
▁wharf	-10.6419
▁deutsch	-10.6419
▁pleasant	-10.6419
▁smoking	-10.6419
▁update	-10.6419
▁aisle	-10.6419
▁draft	-10.6419
▁fourteen	-10.6419
▁fraud	-10.6419
▁lounge	-10.6419
▁sheep	-10.6419
▁sixteen	-10.6419
▁actress	-10.6419
▁joust	-10.6419
▁jerry	-10.6419
▁preparing	-10.6419
▁riley	-10.6419
▁harry	-10.6419
▁navigat	-10.6419
▁tumor	-10.6419
▁governess	-10.6419
▁illegal	-10.6419
▁feast	-10.6419
▁session	-10.6419
▁collines	-10.6419
▁brakes	-10.6419
▁method	-10.6419
▁deaf	-10.6419
▁patricia	-10.6419
▁dragged	-10.6419
▁estate	-10.6419
▁psychological	-10.6419
▁clerk	-10.642
▁bialy	-10.642
▁supplies	-10.642
▁woe	-10.642
▁slams	-10.642
▁homecoming	-10.642
▁annoying	-10.642
▁depressing	-10.642
▁mccain	-10.642
▁rosie	-10.642
▁chugga	-10.642
▁diner	-10.642
▁fades	-10.642
▁breed	-10.642
▁evolutionary	-10.642
▁league	-10.642
▁bingo	-10.6421
▁interven	-10.6421
▁curious	-10.6421
▁catherine	-10.6421
plicate	-10.6421
▁courtney	-10.6421
▁dotson	-10.6421
▁heather	-10.6421
▁pepper	-10.6421
▁clack	-10.6422
▁ezra	-10.6422
▁barks	-10.6422
▁chick	-10.6422
▁reset	-10.6422
▁britain	-10.6422
▁attractive	-10.6422
▁series	-10.6422
▁smack	-10.6422
▁strap	-10.6422
▁myth	-10.6422
▁classified	-10.6423
▁existence	-10.6423
▁ripped	-10.6423
▁reckon	-10.6423
▁hostage	-10.6423
▁descent	-10.6423
▁slick	-10.6424
▁curve	-10.6424
▁electrical	-10.6424
▁assign	-10.6424
▁mega	-10.6424
▁callahan	-10.6425
▁foe	-10.6425
nation	-10.6425
▁debate	-10.6425
▁philip	-10.6425
▁choi	-10.6425
▁election	-10.6425
▁mason	-10.6426
▁slice	-10.6426
▁flour	-10.6426
▁reactor	-10.6426
▁alike	-10.6426
▁gunther	-10.6426
▁luis	-10.6427
▁congressman	-10.6428
▁heck	-10.6428
▁boil	-10.643
▁potatoes	-10.643
▁abel	-10.643
▁conver	-10.6431
▁gig	-10.6431
▁liz	-10.6431
▁tide	-10.6433
▁planned	-10.6434
▁bedtime	-10.6435
▁rally	-10.6436
▁blonde	-10.6437
▁tung	-10.6437
▁hawk	-10.6439
▁recently	-10.6439
▁dice	-10.6441
▁spies	-10.6441
▁fulfill	-10.6443
▁disable	-10.6445
▁haha	-10.6447
▁fleet	-10.6448
▁noon	-10.6449
▁vari	-10.6451
▁distracted	-10.6453
▁johnny	-10.6454
▁policeman	-10.6454
▁linger	-10.6455
▁july	-10.6457
▁divorced	-10.6457
▁colony	-10.6459
▁bait	-10.6459
lou	-10.6459
▁reasonable	-10.6461
▁chat	-10.6463
▁assist	-10.6465
▁sang	-10.6471
▁photographer	-10.6472
▁hitting	-10.6473
▁hiller	-10.6478
▁slipped	-10.6479
opher	-10.6481
▁beaten	-10.6486
fusion	-10.6487
▁boxes	-10.6488
▁git	-10.6489
▁useless	-10.6489
▁dean	-10.6489
nat	-10.6491
▁labor	-10.6494
▁wheeler	-10.6494
wood	-10.6496
▁shine	-10.65
▁tend	-10.6503
▁nervously	-10.6508
▁lara	-10.6509
▁giggles	-10.6512
▁ink	-10.6514
▁drilling	-10.6521
▁sieg	-10.6527
▁ticking	-10.6528
▁sweater	-10.6539
ille	-10.6546
▁sple	-10.6547
▁inc	-10.6547
table	-10.6548
▁log	-10.6554
▁thankyou	-10.6565
right	-10.6576
unsu	-10.6579
▁nut	-10.6583
▁boobs	-10.6585
▁residents	-10.6586
▁highp	-10.6601
▁farmer	-10.6608
▁rash	-10.6609
stance	-10.6622
horn	-10.6627
▁movement	-10.663
▁fln	-10.6632
▁orderly	-10.6649
ddy	-10.6653
▁crashing	-10.6677
▁menu	-10.6678
top	-10.6679
▁can	-10.668
▁cooking	-10.6691
▁cracking	-10.6692
▁slipp	-10.6693
▁sal	-10.6696
▁pale	-10.6725
▁mayor	-10.6727
hut	-10.6732
▁bearing	-10.6756
▁tracking	-10.676
▁moo	-10.6772
▁wage	-10.6808
▁jumping	-10.6809
▁unh	-10.6809
more	-10.6814
pad	-10.6823
actic	-10.683
ville	-10.6832
illam	-10.6894
bil	-10.6929
ix	-10.6958
ada	-10.7106
▁anti	-10.7107
▁click	-10.714
▁pound	-10.7142
low	-10.7151
tract	-10.7196
▁autobot	-10.7199
path	-10.7204
▁cookie	-10.7207
▁gum	-10.722
due	-10.7231
▁mac	-10.7288
▁prisoner	-10.7306
▁louis	-10.7314
ney	-10.7315
▁mortal	-10.7321
▁trauma	-10.7324
▁activate	-10.733
▁bug	-10.7348
▁blinkin	-10.7396
▁mc	-10.7399
▁vet	-10.7407
uel	-10.7434
▁tub	-10.7436
▁crib	-10.7452
▁profession	-10.7466
▁bleed	-10.7468
▁poet	-10.7469
▁divorce	-10.7488
claim	-10.7497
mouth	-10.7498
year	-10.7499
bound	-10.7501
▁rabbi	-10.7506
seven	-10.7506
ben	-10.7513
▁demo	-10.7517
bone	-10.7518
pack	-10.7518
▁potato	-10.7519
four	-10.752
▁recent	-10.7521
▁runnin	-10.7523
▁react	-10.7525
▁morg	-10.7526
▁mysterio	-10.7527
▁disturb	-10.7529
▁surf	-10.753
▁disrupt	-10.753
▁mathematic	-10.753
▁download	-10.753
▁neigh	-10.753
▁nigger	-10.753
scription	-10.753
▁academy	-10.753
▁antonio	-10.753
▁approve	-10.753
▁athlete	-10.753
▁average	-10.753
▁balcony	-10.753
▁batiatus	-10.753
▁battalion	-10.753
▁brundusium	-10.753
▁cheyenne	-10.753
▁cilician	-10.753
▁colleague	-10.753
▁competition	-10.753
▁compliment	-10.753
▁compromise	-10.753
▁confident	-10.753
▁contlnue	-10.753
▁cybertron	-10.753
▁depressed	-10.753
▁dragonslayer	-10.753
▁ector	-10.753
▁educate	-10.753
▁embassy	-10.753
▁encourage	-10.753
▁englne	-10.753
▁entertain	-10.753
▁entrance	-10.753
▁exhaust	-10.753
▁explosive	-10.753
▁forfeit	-10.753
▁glimpse	-10.753
▁harbor	-10.753
▁hercules	-10.753
▁hilbert	-10.753
▁imagination	-10.753
▁inaudible	-10.753
▁influence	-10.753
▁initiate	-10.753
▁inspire	-10.753
▁inspiring	-10.753
▁lecture	-10.753
▁levant	-10.753
▁luggage	-10.753
▁marlak	-10.753
▁mockingjay	-10.753
▁moscow	-10.753
▁november	-10.753
▁override	-10.753
▁protocol	-10.753
▁prototype	-10.753
▁pruitt	-10.753
▁quote	-10.753
▁relieve	-10.753
▁reunion	-10.753
▁rivendell	-10.753
▁rustling	-10.753
▁schuyler	-10.753
▁snorting	-10.753
▁structure	-10.753
▁studio	-10.753
▁suspend	-10.753
▁teenager	-10.753
▁terrific	-10.753
▁thieves	-10.753
▁treasure	-10.753
▁turtle	-10.753
▁twilight	-10.753
▁verheek	-10.753
▁violation	-10.753
▁vodka	-10.753
▁whimpering	-10.753
▁wormhole	-10.753
▁ahchoo	-10.753
▁alliance	-10.753
▁exclaiming	-10.753
▁museum	-10.753
▁polite	-10.753
▁praise	-10.753
▁previous	-10.753
▁register	-10.753
▁ritual	-10.753
▁shrink	-10.753
▁skull	-10.753
▁tolerate	-10.753
▁yakul	-10.753
▁bruise	-10.753
▁divide	-10.753
▁identity	-10.753
▁solemn	-10.753
▁submit	-10.753
ucci	-10.753
▁budget	-10.753
▁ghul	-10.753
▁permit	-10.753
▁pigeon	-10.753
▁convo	-10.753
▁emilie	-10.753
▁harness	-10.753
▁wagon	-10.753
▁statue	-10.753
▁regina	-10.7531
▁whoohoo	-10.7531
▁balloon	-10.7531
▁ruth	-10.7531
▁charging	-10.7531
▁chanting	-10.7531
▁steam	-10.7531
▁rumbles	-10.7531
reception	-10.7531
▁microwave	-10.7531
▁oscar	-10.7531
▁timmy	-10.7531
▁cosmo	-10.7531
▁fieri	-10.7531
▁flatbed	-10.7531
▁candle	-10.7531
▁lamb	-10.7531
▁teefs	-10.7531
▁grind	-10.7531
▁uhuh	-10.7531
▁eliminate	-10.7531
▁neuro	-10.7531
▁production	-10.7531
identified	-10.7531
▁jones	-10.7531
▁grandmother	-10.7531
▁muffled	-10.7531
▁francs	-10.7531
▁locate	-10.7531
▁burger	-10.7531
▁lauren	-10.7531
▁griev	-10.7531
▁heels	-10.7531
▁hostile	-10.7531
▁silk	-10.7531
▁misery	-10.7532
▁representative	-10.7532
lfe	-10.7532
▁struck	-10.7532
▁causing	-10.7532
▁lightning	-10.7532
▁spacecraft	-10.7532
egrin	-10.7532
▁alternative	-10.7532
▁riddle	-10.7532
▁couch	-10.7533
▁quarterback	-10.7533
▁slack	-10.7533
▁conspiracy	-10.7533
▁offend	-10.7533
▁qian	-10.7533
▁palace	-10.7533
▁popular	-10.7533
▁email	-10.7534
▁jewel	-10.7534
▁crank	-10.7534
▁rapid	-10.7534
▁portland	-10.7534
▁leah	-10.7534
▁hissing	-10.7534
▁hlt	-10.7534
▁item	-10.7534
▁fellowship	-10.7534
▁sensitive	-10.7534
▁shaking	-10.7535
▁stiff	-10.7535
▁fanny	-10.7536
▁chopper	-10.7536
▁mantis	-10.7536
▁cities	-10.7537
▁massage	-10.7537
▁maiden	-10.7537
▁detonat	-10.7537
▁stab	-10.7538
▁tess	-10.7538
▁jaw	-10.7538
▁countries	-10.7539
▁bryan	-10.7539
▁polo	-10.7539
▁strut	-10.754
▁zap	-10.754
▁coup	-10.754
▁motion	-10.754
▁comic	-10.754
▁appropriate	-10.7541
▁brush	-10.7541
▁sentence	-10.7541
▁probe	-10.7541
▁sack	-10.7541
▁romance	-10.7541
power	-10.7541
▁roommate	-10.7542
▁internal	-10.7542
▁root	-10.7542
▁assignment	-10.7542
▁villagers	-10.7542
made	-10.7542
▁pony	-10.7543
▁payback	-10.7543
▁tooth	-10.7544
▁mock	-10.7544
▁blight	-10.7544
▁sickness	-10.7544
▁frame	-10.7544
▁que	-10.7545
▁clip	-10.7545
▁collection	-10.7545
wave	-10.7545
▁valley	-10.7548
▁lamp	-10.7552
▁allen	-10.7553
▁operational	-10.756
▁deeds	-10.7563
▁clearance	-10.7563
▁fatty	-10.7564
▁maid	-10.7565
▁johnson	-10.7565
ility	-10.7565
▁tina	-10.7566
▁formula	-10.7567
▁silencer	-10.7567
▁particularly	-10.7569
▁factory	-10.7571
▁weep	-10.7572
▁punches	-10.7574
▁crushed	-10.7575
▁runway	-10.7578
▁seo	-10.7581
▁crushing	-10.7582
▁thus	-10.7583
▁useful	-10.7586
▁rever	-10.7593
▁dearest	-10.7595
▁heroes	-10.7596
▁badge	-10.76
▁sat	-10.7604
▁butcher	-10.7608
▁insisted	-10.7609
▁funk	-10.7613
▁lack	-10.7615
▁delivery	-10.7616
▁bent	-10.7618
▁kay	-10.7627
▁busted	-10.7632
▁mistaken	-10.7635
▁whooping	-10.7635
burg	-10.7639
rawl	-10.7642
▁toy	-10.7642
▁granted	-10.7644
▁sealed	-10.7648
▁resolve	-10.7651
▁earned	-10.7657
▁sailing	-10.7661
▁hardest	-10.7665
▁rear	-10.7665
▁culture	-10.7671
▁terr	-10.7675
▁asset	-10.768
▁smarter	-10.7721
▁painting	-10.773
▁entered	-10.7741
▁painful	-10.7742
▁punched	-10.7747
▁ruining	-10.7758
▁conj	-10.776
▁remaining	-10.7763
▁gee	-10.7772
▁bandy	-10.7775
▁writer	-10.7807
▁fond	-10.7808
▁curl	-10.7835
till	-10.7837
▁seize	-10.7846
▁fur	-10.7859
mortality	-10.7922
▁shoo	-10.7971
▁vent	-10.8006
appy	-10.8038
ike	-10.8047
with	-10.8075
ppy	-10.8087
▁transmit	-10.8114
▁ach	-10.8178
spel	-10.8203
rv	-10.8302
▁yu	-10.8327
▁dun	-10.8328
▁sigh	-10.8435
▁citizen	-10.8443
▁precog	-10.8444
▁thud	-10.8448
▁dollar	-10.8451
▁yard	-10.8475
itates	-10.8476
▁steppe	-10.848
master	-10.8487
ular	-10.8504
post	-10.8508
clap	-10.8538
ket	-10.8554
▁fianc	-10.8586
▁sum	-10.8595
▁att	-10.8599
▁india	-10.8638
▁ange	-10.8639
fish	-10.8679
lce	-10.8692
rgl	-10.8731
▁capture	-10.874
fried	-10.8748
storm	-10.8748
betty	-10.8748
girl	-10.8748
world	-10.8748
yard	-10.8749
▁becom	-10.8755
three	-10.8756
▁blond	-10.8759
▁absolute	-10.8759
▁tow	-10.876
plant	-10.8762
▁connect	-10.8765
▁replace	-10.8768
▁environment	-10.8769
ification	-10.877
fire	-10.8771
▁expla	-10.8772
band	-10.8772
▁givin	-10.8773
▁movin	-10.8773
▁critic	-10.8773
fight	-10.8774
▁confess	-10.8774
mail	-10.8776
▁attract	-10.8777
▁extract	-10.8778
▁employ	-10.8779
▁evolution	-10.8779
▁divers	-10.878
▁compassion	-10.878
▁contaminat	-10.878
▁liquid	-10.878
▁thorough	-10.878
▁abomination	-10.878
▁adolf	-10.878
▁americus	-10.878
▁apologies	-10.878
▁arrival	-10.878
▁ausiello	-10.878
▁beethoven	-10.878
▁benefit	-10.878
▁billabong	-10.878
▁buffalo	-10.878
▁bunny	-10.878
▁celebration	-10.878
▁combination	-10.878
▁conflict	-10.878
▁conscience	-10.878
▁corrupt	-10.878
▁dalmatian	-10.878
▁deploy	-10.878
▁destined	-10.878
▁distort	-10.878
▁division	-10.878
▁dwarves	-10.878
▁electronic	-10.878
▁embrace	-10.878
▁emotional	-10.878
▁evaluation	-10.878
▁exclusive	-10.878
▁execute	-10.878
▁executi	-10.878
▁exercise	-10.878
▁expense	-10.878
▁exploit	-10.878
▁facilities	-10.878
▁florida	-10.878
▁forensic	-10.878
▁gargantua	-10.878
▁gilbert	-10.878
▁granddaughter	-10.878
▁grenade	-10.878
▁harvard	-10.878
▁headquarters	-10.878
▁incorrect	-10.878
▁inspiration	-10.878
▁intense	-10.878
▁iraq	-10.878
▁isolate	-10.878
▁laundry	-10.878
▁liebkind	-10.878
▁lincoln	-10.878
▁lorraine	-10.878
▁mademoiselle	-10.878
▁maneuver	-10.878
▁massacre	-10.878
▁mcbain	-10.878
▁milltary	-10.878
▁module	-10.878
▁nickname	-10.878
▁oprah	-10.878
▁orchestra	-10.878
▁pentagon	-10.878
▁petrakis	-10.878
▁prevision	-10.878
▁principal	-10.878
▁proposal	-10.878
▁psychic	-10.878
▁quesadilla	-10.878
▁reservation	-10.878
▁reserve	-10.878
▁sebastian	-10.878
▁significant	-10.878
▁similar	-10.878
▁strawberry	-10.878
▁supreme	-10.878
▁tattoo	-10.878
▁thornfield	-10.878
▁throttle	-10.878
▁tokyo	-10.878
▁tomahawk	-10.878
▁transmission	-10.878
▁turbulence	-10.878
▁valkyr	-10.878
▁vallelonga	-10.878
▁volume	-10.878
▁whatsoever	-10.878
▁yield	-10.878
▁britani	-10.878
▁clapping	-10.878
▁clarity	-10.878
▁combine	-10.878
▁consumed	-10.878
▁cullen	-10.878
▁dedicate	-10.878
▁enhance	-10.878
▁fabric	-10.878
▁genuine	-10.878
▁identify	-10.878
▁inspector	-10.878
▁knuckle	-10.878
▁lobster	-10.878
▁minimum	-10.878
▁rhyme	-10.878
▁routine	-10.878
▁smurf	-10.878
▁studied	-10.878
▁sunshine	-10.878
▁vessel	-10.878
▁albie	-10.878
▁applied	-10.878
▁capital	-10.878
▁clanking	-10.878
▁hamster	-10.878
▁pencil	-10.878
▁caesar	-10.878
▁klear	-10.878
▁ninth	-10.878
▁studies	-10.878
▁whlstle	-10.878
▁appeal	-10.878
▁collar	-10.878
▁guido	-10.878
▁patrol	-10.878
▁hammer	-10.878
▁material	-10.878
▁rude	-10.878
▁stabbed	-10.878
▁anomal	-10.8781
▁mitchell	-10.8781
▁worn	-10.8781
▁arena	-10.8781
▁costume	-10.8781
▁crust	-10.8781
▁morse	-10.8781
▁bmw	-10.8781
▁campana	-10.8781
▁cardinal	-10.8781
▁tomato	-10.8781
▁draco	-10.8781
▁pledge	-10.8781
▁entry	-10.8781
qualified	-10.8781
▁buddies	-10.8781
▁vapor	-10.8781
▁relay	-10.8781
▁finnick	-10.8781
▁disruptors	-10.8781
▁muttering	-10.8781
▁network	-10.8781
▁bosco	-10.8781
▁fireworks	-10.8781
▁boggs	-10.8781
▁adopt	-10.8781
▁stunning	-10.8781
▁downtown	-10.8781
▁relics	-10.8781
▁scalp	-10.8781
▁stamp	-10.8781
▁repeatedly	-10.8781
▁gratitude	-10.8781
▁lethal	-10.8781
▁clink	-10.8781
▁honjo	-10.8781
▁beans	-10.8781
▁transform	-10.8781
▁fading	-10.8781
▁swift	-10.8782
▁institution	-10.8782
▁drama	-10.8782
▁organized	-10.8782
▁community	-10.8782
▁eternal	-10.8782
▁adjust	-10.8782
▁recall	-10.8782
▁evacuation	-10.8782
▁reflection	-10.8782
▁spanish	-10.8782
▁extension	-10.8783
▁paperwork	-10.8783
▁mlght	-10.8783
▁chug	-10.8783
▁nuke	-10.8783
ndez	-10.8784
▁alice	-10.8784
▁delta	-10.8784
▁dalton	-10.8784
▁gown	-10.8784
▁geoff	-10.8784
▁baseball	-10.8784
▁geez	-10.8784
▁runner	-10.8785
▁nonny	-10.8785
▁inbound	-10.8785
▁colli	-10.8785
▁upside	-10.8785
▁purse	-10.8786
phop	-10.8786
▁dickhead	-10.8786
▁creative	-10.8786
▁coppers	-10.8786
▁instance	-10.8786
▁bored	-10.8786
▁jig	-10.8786
▁blanche	-10.8786
▁loyalty	-10.8787
▁fever	-10.8787
▁moro	-10.8787
▁oven	-10.8787
▁burch	-10.8787
▁chew	-10.8787
▁baker	-10.8787
▁jess	-10.8788
▁shoutlng	-10.8788
▁substitute	-10.8788
▁dumbass	-10.8788
▁homo	-10.8788
▁limp	-10.8789
▁objective	-10.8789
▁cuba	-10.8789
▁nightfall	-10.879
▁suspense	-10.8791
▁bald	-10.8791
▁centre	-10.8792
▁screen	-10.8792
▁clop	-10.8792
▁engagement	-10.8792
▁merci	-10.8793
▁allies	-10.8793
▁invention	-10.8794
▁tourist	-10.8794
▁scum	-10.8795
▁rack	-10.8795
▁pods	-10.8795
▁phony	-10.8797
▁flaw	-10.8797
▁compare	-10.8797
▁madness	-10.8798
▁growth	-10.88
▁sandwiches	-10.88
▁plead	-10.8801
▁ninety	-10.8801
▁bold	-10.8804
▁ashes	-10.8805
▁macho	-10.8807
▁dip	-10.8807
▁label	-10.8807
▁mln	-10.8807
▁digg	-10.8809
▁carried	-10.881
▁drain	-10.8811
▁clunk	-10.8811
▁dury	-10.8813
▁humanity	-10.8814
▁intern	-10.8814
▁bugger	-10.8816
▁naturally	-10.8824
▁deadline	-10.8825
▁hose	-10.8826
▁lndia	-10.8827
▁reply	-10.8828
▁physically	-10.8833
vous	-10.8834
▁condom	-10.8837
▁tenth	-10.8838
▁fastest	-10.8842
door	-10.8843
▁yah	-10.8845
▁stare	-10.8848
▁cath	-10.8855
▁pounding	-10.8859
▁cain	-10.886
▁sway	-10.886
▁showtime	-10.8864
▁regarding	-10.8866
▁fasten	-10.8868
▁assured	-10.887
▁pouring	-10.8875
▁voter	-10.8877
▁proven	-10.8878
▁removed	-10.8887
▁hunger	-10.8887
▁published	-10.8893
▁graduated	-10.8893
▁shitty	-10.8893
▁irony	-10.8896
▁payment	-10.8901
new	-10.8901
▁ura	-10.8906
▁pic	-10.8908
▁gathering	-10.8911
▁creamy	-10.8915
▁scheduled	-10.8916
▁settled	-10.8916
▁pitch	-10.8918
▁takeoff	-10.8924
▁latest	-10.8926
▁falcone	-10.893
▁blink	-10.8935
▁spared	-10.894
▁risky	-10.8941
▁voted	-10.8944
▁cape	-10.8953
▁wee	-10.8961
▁lily	-10.8966
▁touches	-10.898
lan	-10.8992
imb	-10.8998
ological	-10.9001
▁sneaking	-10.9009
▁ski	-10.9012
▁matt	-10.9039
▁mcc	-10.9041
▁lure	-10.9049
mont	-10.908
▁transferr	-10.9097
▁semi	-10.9103
▁congratulate	-10.9145
take	-10.9163
▁mir	-10.9168
job	-10.9209
bbing	-10.9209
eek	-10.9278
▁pep	-10.9328
avi	-10.9354
daily	-10.9363
▁peel	-10.9396
▁sim	-10.9418
▁transmitte	-10.9495
▁mist	-10.9517
▁drea	-10.9607
una	-10.967
▁bio	-10.9678
▁righthand	-10.9688
active	-10.9703
▁wei	-10.9747
stock	-10.9795
▁spec	-10.983
aka	-10.9837
▁concentrat	-10.9857
▁doo	-10.9858
▁sniff	-10.9868
▁patriot	-10.9869
▁buck	-10.9873
▁gasp	-10.9899
▁brok	-10.999
▁via	-11.003
▁cultur	-11.0031
▁crush	-11.0085
▁surround	-11.0087
▁net	-11.0111
look	-11.0119
▁corps	-11.0129
▁detect	-11.0141
▁murmur	-11.0144
▁rag	-11.0152
friend	-11.016
field	-11.0169
generation	-11.0176
chuckles	-11.0177
born	-11.0177
▁thirst	-11.0182
▁scoot	-11.0185
▁stan	-11.0187
fella	-11.0188
grade	-11.0188
high	-11.0191
▁cockroach	-11.0198
▁narrat	-11.0202
▁prior	-11.0207
▁steward	-11.0209
▁obscur	-11.0209
jacques	-11.0209
▁allegiance	-11.0209
▁altogether	-11.0209
▁andrew	-11.0209
▁antenna	-11.0209
▁anticipat	-11.0209
▁arriving	-11.0209
▁ascend	-11.0209
▁asylum	-11.0209
▁autograph	-11.0209
▁banana	-11.0209
▁bankrupt	-11.0209
▁beacon	-11.0209
▁bicycle	-11.0209
▁blonsky	-11.0209
▁brenna	-11.0209
▁caitlin	-11.0209
▁catastrophe	-11.0209
▁centuries	-11.0209
▁chunk	-11.0209
▁colville	-11.0209
▁colvin	-11.0209
▁confidence	-11.0209
▁confound	-11.0209
▁congrats	-11.0209
▁controvers	-11.0209
▁corporal	-11.0209
▁crixus	-11.0209
▁crunch	-11.0209
▁daggett	-11.0209
▁democracy	-11.0209
▁demonstration	-11.0209
▁destination	-11.0209
▁discount	-11.0209
▁elegant	-11.0209
▁enforce	-11.0209
▁epiglottis	-11.0209
▁episode	-11.0209
▁estimate	-11.0209
▁expedition	-11.0209
▁floyd	-11.0209
▁gauge	-11.0209
▁gavin	-11.0209
▁gherson	-11.0209
▁homicide	-11.0209
▁hydrogen	-11.0209
▁ignition	-11.0209
▁independence	-11.0209
▁individual	-11.0209
▁infected	-11.0209
▁innocence	-11.0209
▁jocelyn	-11.0209
▁jupiter	-11.0209
▁kangaroo	-11.0209
▁kansas	-11.0209
▁kuchever	-11.0209
▁length	-11.0209
▁malfunction	-11.0209
▁mehnaz	-11.0209
▁melissa	-11.0209
▁mercenary	-11.0209
▁metaphor	-11.0209
▁neptune	-11.0209
▁nicholls	-11.0209
▁nietzsche	-11.0209
▁oracle	-11.0209
▁outnumbered	-11.0209
▁oxford	-11.0209
▁pancakes	-11.0209
▁pebble	-11.0209
▁pollard	-11.0209
▁pollux	-11.0209
▁pregnancy	-11.0209
▁privilege	-11.0209
▁profile	-11.0209
▁proportions	-11.0209
▁psychiatri	-11.0209
▁pudding	-11.0209
▁punctu	-11.0209
▁pursuit	-11.0209
▁retrieve	-11.0209
▁rupture	-11.0209
▁samurai	-11.0209
▁sausage	-11.0209
▁schmuck	-11.0209
▁scoundrel	-11.0209
▁scramble	-11.0209
▁sensltlve	-11.0209
▁separation	-11.0209
▁smuggl	-11.0209
▁sneller	-11.0209
▁steinway	-11.0209
▁sweatshop	-11.0209
▁tatopoulos	-11.0209
▁technique	-11.0209
▁therefore	-11.0209
▁treason	-11.0209
▁typical	-11.0209
▁underestimate	-11.0209
▁underwear	-11.0209
▁verdict	-11.0209
▁vulture	-11.0209
▁wristwatch	-11.0209
osphere	-11.0209
▁anonymous	-11.0209
▁billionaire	-11.0209
▁cheep	-11.0209
▁chirping	-11.0209
▁companies	-11.0209
▁component	-11.0209
▁convict	-11.0209
▁cottage	-11.0209
▁divine	-11.0209
▁dixon	-11.0209
▁flaunt	-11.0209
▁garver	-11.0209
▁goolaj	-11.0209
▁grief	-11.0209
▁humiliat	-11.0209
▁lawsuit	-11.0209
▁lylla	-11.0209
▁manufacture	-11.0209
▁powder	-11.0209
▁quatre	-11.0209
▁unconscious	-11.0209
▁captive	-11.0209
▁cotton	-11.0209
▁hardwick	-11.0209
▁heartbeat	-11.0209
▁manipulat	-11.0209
▁samantha	-11.0209
▁shelf	-11.0209
▁spencer	-11.0209
▁sphere	-11.0209
▁villain	-11.0209
▁zulu	-11.0209
▁steep	-11.0209
▁addition	-11.0209
▁analyz	-11.0209
▁clown	-11.0209
▁didier	-11.0209
▁postpone	-11.0209
▁sponge	-11.0209
▁cherry	-11.0209
▁sworn	-11.0209
▁companion	-11.0209
▁concur	-11.0209
▁widow	-11.0209
▁worm	-11.0209
▁motel	-11.0209
▁rehman	-11.0209
▁distinguished	-11.0209
▁doorbell	-11.0209
▁gaze	-11.0209
▁glrl	-11.0209
▁haunted	-11.0209
▁onboard	-11.0209
▁serving	-11.0209
▁straining	-11.0209
▁vault	-11.0209
▁leaf	-11.0209
▁hineman	-11.0209
▁osborn	-11.0209
▁thrive	-11.0209
▁chubb	-11.0209
▁detach	-11.0209
▁gently	-11.0209
▁saraya	-11.0209
▁crumb	-11.0209
▁anais	-11.0209
▁berlin	-11.0209
▁ripple	-11.0209
▁absence	-11.0209
▁ambitio	-11.0209
▁cassie	-11.0209
▁ease	-11.0209
▁anchor	-11.0209
▁incoming	-11.0209
▁kyle	-11.0209
▁cassa	-11.0209
▁pursue	-11.0209
▁apology	-11.0209
▁wield	-11.0209
▁eighteen	-11.0209
▁fong	-11.0209
▁suhas	-11.0209
▁carpet	-11.0209
▁naughty	-11.0209
▁canada	-11.0209
▁grabbed	-11.0209
▁spinning	-11.0209
▁housing	-11.021
▁tidy	-11.021
▁warren	-11.021
▁patents	-11.021
▁marshall	-11.021
▁scrubbing	-11.021
phrase	-11.021
▁oops	-11.021
▁whatwhat	-11.021
▁cody	-11.021
▁registr	-11.021
▁behold	-11.021
▁tingle	-11.021
onnais	-11.021
▁pluck	-11.021
▁buried	-11.021
▁narrow	-11.021
▁schizophrenia	-11.021
▁kong	-11.0211
▁tiger	-11.0211
▁rational	-11.0211
▁plug	-11.0211
▁sprock	-11.0211
▁favourite	-11.0211
▁belgian	-11.0211
▁golf	-11.0211
▁sunset	-11.0211
▁rattle	-11.0211
▁internet	-11.0211
▁construction	-11.0211
▁uptown	-11.0211
▁walt	-11.0211
▁destruction	-11.0211
▁assassinations	-11.0212
▁tryouts	-11.0212
▁assistance	-11.0212
▁toki	-11.0212
▁poppy	-11.0212
▁bbbbbad	-11.0212
▁prospect	-11.0212
▁vibrat	-11.0212
▁nlght	-11.0212
▁forehead	-11.0212
▁resistance	-11.0212
▁quack	-11.0213
▁poetry	-11.0213
ague	-11.0213
▁orphanage	-11.0213
▁moses	-11.0213
ulsion	-11.0213
▁junk	-11.0214
▁retirement	-11.0214
▁starboard	-11.0214
▁abortion	-11.0214
▁roster	-11.0214
▁stability	-11.0214
▁mouse	-11.0215
▁thread	-11.0215
▁oof	-11.0215
▁corporation	-11.0215
▁jimbo	-11.0215
▁satan	-11.0215
▁barrel	-11.0215
▁brew	-11.0215
▁pavel	-11.0215
▁pond	-11.0215
▁nomin	-11.0216
▁performance	-11.0216
▁grip	-11.0216
▁extraction	-11.0216
▁junkers	-11.0216
▁tread	-11.0217
▁ogie	-11.0217
▁poker	-11.0217
▁commitment	-11.0217
▁panem	-11.0217
▁promising	-11.0217
▁colt	-11.0218
▁evacuate	-11.0218
▁obsession	-11.0218
▁confirmation	-11.0218
▁adore	-11.0218
▁attach	-11.0218
▁ladles	-11.0218
▁brownies	-11.0218
▁alley	-11.0219
▁compose	-11.022
▁quality	-11.022
▁rotate	-11.022
▁acid	-11.022
▁verse	-11.022
▁geek	-11.022
▁tension	-11.022
▁transit	-11.022
maid	-11.0221
▁surgeon	-11.0221
▁tore	-11.0221
▁precisely	-11.0221
▁courageous	-11.0222
▁temper	-11.0222
▁closure	-11.0222
▁sexual	-11.0223
▁effective	-11.0223
orbid	-11.0223
▁slight	-11.0224
▁customers	-11.0224
▁carrier	-11.0224
▁bribe	-11.0225
▁modest	-11.0225
▁martini	-11.0225
▁pinch	-11.0226
▁bench	-11.0227
▁kir	-11.0227
▁stepping	-11.0227
terior	-11.0227
▁christian	-11.0228
▁development	-11.0228
▁ahab	-11.0229
▁moron	-11.0231
▁raid	-11.0231
▁poop	-11.0232
▁nightstand	-11.0232
▁declared	-11.0233
▁background	-11.0233
▁dong	-11.0234
▁squealing	-11.0235
▁artist	-11.0237
▁rabbit	-11.0241
▁unlikely	-11.0243
▁gran	-11.0244
▁brag	-11.0244
▁examine	-11.0244
▁xp	-11.0244
▁ramp	-11.0245
▁sore	-11.0246
▁nightlock	-11.0246
▁neutralize	-11.0248
▁heir	-11.0252
▁disappointed	-11.0252
▁rlng	-11.0252
▁bog	-11.0254
▁comedy	-11.0255
ulus	-11.0256
▁photography	-11.0258
▁role	-11.026
▁ahem	-11.0262
▁recovery	-11.0267
▁properly	-11.0267
▁superman	-11.0268
▁palm	-11.027
▁perk	-11.0272
▁haul	-11.0274
▁lvan	-11.0276
▁active	-11.0278
▁kindness	-11.0279
▁ross	-11.0281
▁dung	-11.0282
▁tray	-11.0284
itable	-11.0284
▁tender	-11.0293
▁originally	-11.0296
▁awfully	-11.0298
▁bush	-11.0301
▁barry	-11.0302
▁dresses	-11.0302
lrst	-11.0313
easing	-11.0316
▁earle	-11.0323
▁announced	-11.033
ngbang	-11.0336
▁jr	-11.0339
▁correction	-11.034
▁artie	-11.0378
▁reverse	-11.0393
▁bass	-11.04
▁curt	-11.0409
anned	-11.0427
▁appreciat	-11.0433
▁conclu	-11.0439
▁atten	-11.0452
havin	-11.0464
tonic	-11.0468
▁mule	-11.0469
nya	-11.0475
tempo	-11.0512
▁scarf	-11.0603
▁duel	-11.061
uveni	-11.0637
tches	-11.0685
▁stat	-11.0686
▁minorit	-11.0747
cloth	-11.0837
▁observe	-11.0848
▁receiv	-11.0866
▁wel	-11.0939
▁compet	-11.0948
nln	-11.1007
rock	-11.1034
ckle	-11.1081
▁but	-11.1103
lala	-11.1122
▁rul	-11.1152
hold	-11.1201
fold	-11.1209
▁associat	-11.1212
▁vl	-11.1233
gun	-11.1258
venge	-11.1293
sembl	-11.1298
▁appoint	-11.1352
ngton	-11.1406
ication	-11.1414
▁dove	-11.1444
▁introduc	-11.1474
▁whisper	-11.148
ough	-11.1489
▁technic	-11.1503
▁shei	-11.1503
▁secur	-11.1534
▁survivor	-11.154
▁exhale	-11.1545
▁stair	-11.1556
▁airline	-11.1563
▁drone	-11.1579
eak	-11.1672
▁defi	-11.1681
word	-11.1705
▁andy	-11.1705
▁cleanse	-11.1708
vitational	-11.1708
▁nurs	-11.1753
▁embarrass	-11.1753
▁butch	-11.1764
▁announc	-11.1772
▁mechanic	-11.18
▁invent	-11.1801
▁clatter	-11.181
▁accord	-11.1811
▁distract	-11.1811
▁sacr	-11.182
▁neutral	-11.183
▁worrie	-11.1835
mother	-11.1838
guard	-11.184
hawk	-11.1842
keeping	-11.1843
school	-11.1843
control	-11.1843
dead	-11.1844
▁flee	-11.1845
burn	-11.1847
▁valle	-11.1849
check	-11.185
▁energ	-11.185
▁commission	-11.1852
▁mode	-11.1853
▁explore	-11.1854
bury	-11.1857
▁literal	-11.1861
wire	-11.1862
▁obsess	-11.1865
case	-11.1869
▁abort	-11.187
roud	-11.1872
▁litera	-11.1873
titude	-11.1874
▁optimis	-11.1874
▁constitu	-11.1874
▁depressi	-11.1875
▁micro	-11.1876
▁vietnam	-11.1876
▁molecul	-11.1876
artolomeo	-11.1876
dadadadaiahd	-11.1876
▁aaaooo	-11.1876
▁abilities	-11.1876
▁acquaintance	-11.1876
▁acquired	-11.1876
▁activities	-11.1876
▁amplified	-11.1876
▁analog	-11.1876
▁antoinett	-11.1876
▁arizona	-11.1876
▁aspirin	-11.1876
▁behave	-11.1876
▁blasphem	-11.1876
▁blazevich	-11.1876
▁bluff	-11.1876
▁brazil	-11.1876
▁breeze	-11.1876
▁bubble	-11.1876
▁bypass	-11.1876
▁cadillac	-11.1876
▁casualties	-11.1876
▁collapse	-11.1876
▁confront	-11.1876
▁correspond	-11.1876
▁deceased	-11.1876
▁despair	-11.1876
▁dinkley	-11.1876
▁dinosaur	-11.1876
▁disagree	-11.1876
▁discriminat	-11.1876
▁disguise	-11.1876
▁dismissed	-11.1876
▁domestic	-11.1876
▁downhill	-11.1876
▁dynam	-11.1876
▁econom	-11.1876
▁einstein	-11.1876
▁enrique	-11.1876
▁eternity	-11.1876
▁excellency	-11.1876
▁exhibition	-11.1876
▁exploration	-11.1876
▁fantasy	-11.1876
▁finchberg	-11.1876
▁fingerprints	-11.1876
▁frankfurt	-11.1876
▁fuzz	-11.1876
▁gamgee	-11.1876
▁gelderland	-11.1876
▁giggling	-11.1876
▁halfcaste	-11.1876
▁happily	-11.1876
▁heathcoat	-11.1876
▁immigration	-11.1876
▁indestructible	-11.1876
▁indicate	-11.1876
▁initiating	-11.1876
▁insect	-11.1876
▁interahamwe	-11.1876
▁invincible	-11.1876
▁jiko	-11.1876
▁jonghoon	-11.1876
▁kigali	-11.1876
▁lizzard	-11.1876
▁mackerel	-11.1876
▁messenger	-11.1876
▁misunderstand	-11.1876
▁mortgage	-11.1876
▁mueller	-11.1876
▁nitrogen	-11.1876
▁nobility	-11.1876
▁obstruct	-11.1876
▁oklahoma	-11.1876
▁oldfashioned	-11.1876
▁oliver	-11.1876
▁opportunities	-11.1876
▁osgiliath	-11.1876
▁perfume	-11.1876
▁perimeter	-11.1876
▁persuade	-11.1876
▁pineapple	-11.1876
▁pisceshite	-11.1876
▁pompey	-11.1876
▁preserve	-11.1876
▁raccoon	-11.1876
▁recognise	-11.1876
▁religion	-11.1876
▁reynolds	-11.1876
▁richmond	-11.1876
▁rifemen	-11.1876
▁selfdestruct	-11.1876
▁semester	-11.1876
▁sensation	-11.1876
▁shrieks	-11.1876
▁simmons	-11.1876
▁somethln	-11.1876
▁squire	-11.1876
▁summary	-11.1876
▁suppress	-11.1876
▁surprising	-11.1876
▁sustain	-11.1876
▁sympathy	-11.1876
▁tarmac	-11.1876
▁tartutic	-11.1876
▁tendency	-11.1876
▁texas	-11.1876
▁therapy	-11.1876
▁thirteen	-11.1876
▁threshold	-11.1876
▁tribute	-11.1876
▁trumpet	-11.1876
▁unimaginable	-11.1876
▁urban	-11.1876
▁volcano	-11.1876
▁whitmore	-11.1876
▁worship	-11.1876
▁wullgar	-11.1876
▁xianniang	-11.1876
▁youtube	-11.1876
▁yummy	-11.1876
▁amateur	-11.1876
▁audio	-11.1876
▁blunt	-11.1876
▁concept	-11.1876
▁cradle	-11.1876
▁dispute	-11.1876
▁edoras	-11.1876
▁endanger	-11.1876
▁inherit	-11.1876
▁intact	-11.1876
▁inverter	-11.1876
▁inviting	-11.1876
▁kevin	-11.1876
▁momentarily	-11.1876
▁newlywed	-11.1876
▁nxt	-11.1876
▁poverty	-11.1876
▁promotion	-11.1876
▁retail	-11.1876
▁salmon	-11.1876
▁sweep	-11.1876
▁tragic	-11.1876
▁wrath	-11.1876
▁baggage	-11.1876
▁blend	-11.1876
▁cinq	-11.1876
▁gloom	-11.1876
▁lipstick	-11.1876
▁relations	-11.1876
▁robbery	-11.1876
▁ucla	-11.1876
▁agenda	-11.1876
▁confine	-11.1876
▁cramm	-11.1876
▁install	-11.1876
▁negotiations	-11.1876
▁nobel	-11.1876
▁operator	-11.1876
▁storage	-11.1876
▁decade	-11.1876
▁fiction	-11.1876
▁odette	-11.1876
▁strider	-11.1876
▁gugu	-11.1876
▁howre	-11.1876
▁polish	-11.1876
▁random	-11.1876
▁capua	-11.1876
▁droving	-11.1876
▁payroll	-11.1876
▁sector	-11.1876
▁spiritual	-11.1876
▁squawk	-11.1876
▁basket	-11.1876
▁cloak	-11.1876
▁outcome	-11.1876
▁gravy	-11.1876
▁mlss	-11.1876
▁oxen	-11.1876
▁referee	-11.1876
▁stephen	-11.1876
proxim	-11.1876
▁landlord	-11.1876
▁reduce	-11.1876
▁workshop	-11.1876
▁bacon	-11.1876
▁vanished	-11.1876
▁deckard	-11.1876
▁panicked	-11.1876
▁porch	-11.1876
▁typing	-11.1876
▁assessment	-11.1876
▁rusesabagina	-11.1876
▁bunk	-11.1876
▁violate	-11.1876
▁column	-11.1876
▁knott	-11.1876
▁adapt	-11.1876
▁fbl	-11.1876
▁taylor	-11.1876
▁glitch	-11.1876
▁mearing	-11.1876
▁chancellor	-11.1876
▁dyne	-11.1876
▁lyons	-11.1876
▁dodge	-11.1876
▁blim	-11.1876
▁ensure	-11.1876
▁unhook	-11.1876
▁bosom	-11.1876
▁bulletproof	-11.1876
▁crystal	-11.1876
▁litter	-11.1876
▁float	-11.1876
▁emerge	-11.1876
▁roast	-11.1876
▁shiny	-11.1876
▁stewardess	-11.1876
▁torres	-11.1876
▁bloodshed	-11.1876
▁lslam	-11.1876
▁freezing	-11.1876
▁perkins	-11.1876
▁fundamental	-11.1876
▁sinner	-11.1876
▁uhoh	-11.1876
▁kidnapping	-11.1876
▁booing	-11.1876
▁whining	-11.1876
▁egyptian	-11.1876
▁berth	-11.1877
▁gossip	-11.1877
▁dishes	-11.1877
▁inches	-11.1877
▁logical	-11.1877
▁urn	-11.1877
▁uphold	-11.1877
alysis	-11.1877
▁arrogan	-11.1877
▁scale	-11.1877
▁josephine	-11.1877
▁kenn	-11.1877
▁invaders	-11.1877
▁trills	-11.1877
▁caution	-11.1877
▁latin	-11.1877
▁hulk	-11.1877
▁clarif	-11.1877
nderson	-11.1877
▁optimistic	-11.1877
▁drool	-11.1877
weave	-11.1877
▁sideways	-11.1877
▁sample	-11.1878
▁faden	-11.1878
▁overnight	-11.1878
▁disappointment	-11.1878
▁sniffling	-11.1878
▁observation	-11.1878
▁cele	-11.1878
▁suitcase	-11.1878
▁preferred	-11.1878
▁subtle	-11.1878
fluent	-11.1878
▁priority	-11.1879
▁wakefield	-11.1879
▁saddle	-11.1879
▁magnificent	-11.1879
▁korea	-11.1879
▁avalon	-11.1879
▁bodyguard	-11.1879
▁holler	-11.1879
▁ginger	-11.1879
▁victorious	-11.1879
▁disney	-11.1879
▁hiya	-11.1879
▁liftoff	-11.188
▁rotten	-11.188
▁waltz	-11.188
▁cult	-11.188
▁wreckage	-11.188
▁jewelry	-11.188
▁tramp	-11.188
▁anderson	-11.188
▁airfield	-11.188
▁seattle	-11.188
▁feedback	-11.1881
▁tilt	-11.1881
▁harmoni	-11.1881
▁peck	-11.1881
▁slightest	-11.1881
▁ouch	-11.1882
▁investment	-11.1882
▁dwell	-11.1882
▁delete	-11.1882
hanger	-11.1883
▁blo	-11.1884
▁diversion	-11.1884
▁rug	-11.1884
▁confession	-11.1884
▁kha	-11.1884
▁elder	-11.1884
▁defib	-11.1885
▁kidney	-11.1885
▁karate	-11.1885
▁jamie	-11.1885
▁native	-11.1886
▁moonlight	-11.1886
▁dentist	-11.1886
▁dope	-11.1886
▁sidewalk	-11.1887
▁trash	-11.1887
▁sunlight	-11.1887
▁kickoff	-11.1887
▁settlement	-11.1887
▁lousy	-11.1888
▁madonn	-11.1888
▁irish	-11.1888
▁playfully	-11.1888
▁yea	-11.1889
▁bragg	-11.189
▁rotting	-11.189
▁digit	-11.189
▁critical	-11.1891
▁environmental	-11.1891
▁exile	-11.1891
▁grid	-11.1892
grima	-11.1892
▁hallway	-11.1892
▁alum	-11.1893
▁buckle	-11.1893
▁amongst	-11.1893
▁agh	-11.1893
▁taxman	-11.1894
erapis	-11.1894
▁jock	-11.1894
▁scent	-11.1894
▁joan	-11.1894
▁roam	-11.1895
▁bonus	-11.1896
▁lena	-11.1896
▁hush	-11.1896
▁region	-11.1897
▁kneel	-11.1897
▁mice	-11.1897
▁dj	-11.1898
▁condo	-11.1899
▁discussion	-11.1899
▁choir	-11.1899
▁stung	-11.19
▁spotting	-11.19
▁elliott	-11.19
▁translation	-11.1902
▁starve	-11.1902
▁acre	-11.1903
▁teasing	-11.1903
▁alter	-11.1904
▁bravery	-11.1904
ddling	-11.1904
▁patty	-11.1906
▁cricket	-11.1906
▁complaint	-11.1907
rubbing	-11.1908
▁copies	-11.1909
▁passage	-11.1911
▁castor	-11.1911
▁liege	-11.1912
▁popped	-11.1912
stone	-11.1913
▁formation	-11.1913
▁cord	-11.1915
ached	-11.1915
▁justif	-11.1915
▁mutat	-11.1915
▁majority	-11.1917
▁heroic	-11.1919
▁betting	-11.192
▁portion	-11.1921
▁highness	-11.1921
▁alas	-11.1921
consi	-11.1927
▁soar	-11.1927
▁alan	-11.1929
stom	-11.193
▁pager	-11.1933
▁rah	-11.1934
▁endure	-11.1941
▁glen	-11.1944
▁natha	-11.1954
ello	-11.1962
▁suggestion	-11.1962
▁reck	-11.1965
▁corpse	-11.1971
azz	-11.1975
precedent	-11.1981
▁cau	-11.2004
▁poetic	-11.2013
oulet	-11.2072
▁equi	-11.2114
▁assassinat	-11.2123
▁aff	-11.2134
▁trie	-11.2178
▁activat	-11.2193
▁bugg	-11.2212
nning	-11.23
mature	-11.2392
appointed	-11.2421
▁now	-11.2429
▁dur	-11.2533
evo	-11.2556
fall	-11.2582
manned	-11.2588
▁alg	-11.2679
ologist	-11.2715
ook	-11.2848
▁carrie	-11.3084
▁sab	-11.3095
▁span	-11.3212
tender	-11.3304
▁choos	-11.3353
▁groan	-11.3484
▁resident	-11.3534
▁passenger	-11.3536
▁glove	-11.3542
▁guinea	-11.3542
▁decepticon	-11.3544
▁assassin	-11.358
▁colo	-11.3589
▁boob	-11.3604
weill	-11.3651
▁refuge	-11.3687
▁plum	-11.3717
ntana	-11.3737
▁immortal	-11.3757
▁virtu	-11.376
▁negotia	-11.3808
▁applaud	-11.3812
▁confus	-11.3814
▁disappoint	-11.3814
▁anyth	-11.382
▁determine	-11.3834
▁involve	-11.3835
craft	-11.3836
▁tuck	-11.3838
charge	-11.3841
folk	-11.3842
glen	-11.3842
dimension	-11.3842
section	-11.3843
married	-11.3843
bird	-11.3843
style	-11.3847
piece	-11.3849
foot	-11.385
▁unfortunate	-11.3854
racks	-11.3857
around	-11.3857
▁samoa	-11.3861
level	-11.3862
▁electric	-11.3863
arrow	-11.3864
▁changin	-11.3868
▁lovin	-11.3868
▁risin	-11.3868
▁takin	-11.3869
tual	-11.3871
▁communi	-11.3873
▁francis	-11.3874
▁alternat	-11.3874
▁conscious	-11.3874
▁scholar	-11.3875
▁columb	-11.3876
▁extinguish	-11.3876
▁inject	-11.3876
▁obtain	-11.3876
determination	-11.3876
wraiths	-11.3876
▁abroad	-11.3876
▁accompany	-11.3876
▁affirmative	-11.3876
▁amdursky	-11.3876
▁amendola	-11.3876
▁anniversary	-11.3876
▁antidote	-11.3876
▁appetite	-11.3876
▁argument	-11.3876
▁austria	-11.3876
▁authentic	-11.3876
▁avengers	-11.3876
▁aztec	-11.3876
▁baltimore	-11.3876
▁barbosa	-11.3876
▁bathtub	-11.3876
▁behaviour	-11.3876
▁bikini	-11.3876
▁bizimungu	-11.3876
▁bleep	-11.3876
▁broomhilde	-11.3876
▁brushstrokes	-11.3876
▁bruun	-11.3876
▁buffet	-11.3876
▁caproni	-11.3876
▁certificate	-11.3876
▁cheerleader	-11.3876
▁chemical	-11.3876
▁chemistry	-11.3876
▁chernobyl	-11.3876
▁chlldren	-11.3876
▁claudia	-11.3876
▁cocktail	-11.3876
▁cohorts	-11.3876
▁cojones	-11.3876
▁compartment	-11.3876
▁competitive	-11.3876
▁conceived	-11.3876
▁connecticut	-11.3876
▁consumer	-11.3876
▁continent	-11.3876
▁contrary	-11.3876
▁coochle	-11.3876
▁cripple	-11.3876
▁crusade	-11.3876
▁dadadadada	-11.3876
▁daladier	-11.3876
▁deavers	-11.3876
▁december	-11.3876
▁definition	-11.3876
▁describing	-11.3876
▁dialogue	-11.3876
▁disrespect	-11.3876
▁dobkin	-11.3876
▁doughnut	-11.3876
▁dynasty	-11.3876
▁efficient	-11.3876
▁electrocuted	-11.3876
▁engrav	-11.3876
▁evolve	-11.3876
▁facult	-11.3876
▁fantasies	-11.3876
▁festival	-11.3876
▁footprint	-11.3876
▁fracture	-11.3876
▁gaffer	-11.3876
▁gamemakers	-11.3876
▁glasstipped	-11.3876
▁greedy	-11.3876
▁grocer	-11.3876
▁hallelujah	-11.3876
▁handwriting	-11.3876
▁harvest	-11.3876
▁hindu	-11.3876
▁hlphop	-11.3876
▁horikoshi	-11.3876
▁hunnicutt	-11.3876
▁injustice	-11.3876
▁intimate	-11.3876
▁isaac	-11.3876
▁itinerary	-11.3876
▁latrine	-11.3876
▁lennox	-11.3876
▁loscudo	-11.3876
▁lucullus	-11.3876
▁lutheran	-11.3876
▁margarita	-11.3876
▁maurice	-11.3876
▁mexican	-11.3876
▁militia	-11.3876
▁millimeter	-11.3876
▁mobilise	-11.3876
▁monsoon	-11.3876
▁multiverse	-11.3876
▁mystique	-11.3876
▁napkin	-11.3876
▁norwich	-11.3876
▁oerstadt	-11.3876
▁olympic	-11.3876
▁oppress	-11.3876
▁philosophy	-11.3876
▁picasso	-11.3876
▁plutarch	-11.3876
▁possibilities	-11.3876
▁principle	-11.3876
▁pumpkin	-11.3876
▁raymond	-11.3876
▁regulator	-11.3876
▁rehearsal	-11.3876
▁religious	-11.3876
▁removal	-11.3876
▁revolver	-11.3876
▁ronnie	-11.3876
▁ruff	-11.3876
▁rufus	-11.3876
▁rupert	-11.3876
▁rutaganda	-11.3876
▁satisfaction	-11.3876
▁satisfy	-11.3876
▁saxophone	-11.3876
▁scientific	-11.3876
▁selfdefense	-11.3876
▁serpent	-11.3876
▁shamaldas	-11.3876
▁singularity	-11.3876
▁sketch	-11.3876
▁snails	-11.3876
▁snatch	-11.3876
▁snickers	-11.3876
▁spandex	-11.3876
▁spectacular	-11.3876
▁splendid	-11.3876
▁struggling	-11.3876
▁sudetenland	-11.3876
▁sunglasses	-11.3876
▁surviving	-11.3876
▁suspicion	-11.3876
▁temperature	-11.3876
▁territory	-11.3876
▁thracian	-11.3876
▁tissue	-11.3876
▁treacher	-11.3876
▁treasury	-11.3876
▁triumph	-11.3876
▁unauthorized	-11.3876
▁undercarriage	-11.3876
▁unexpected	-11.3876
▁unload	-11.3876
▁unnecessary	-11.3876
▁valedictorian	-11.3876
▁verheiden	-11.3876
▁vesuvius	-11.3876
▁virgil	-11.3876
▁vulnerable	-11.3876
▁wichita	-11.3876
▁windshield	-11.3876
▁wrestlemania	-11.3876
decisive	-11.3876
▁banville	-11.3876
▁capsule	-11.3876
▁coconut	-11.3876
▁comrade	-11.3876
▁copilot	-11.3876
▁database	-11.3876
▁delightful	-11.3876
▁dishonor	-11.3876
▁elbow	-11.3876
▁elvish	-11.3876
▁embedd	-11.3876
▁governing	-11.3876
▁jagger	-11.3876
▁lunatic	-11.3876
▁mellark	-11.3876
▁optical	-11.3876
▁population	-11.3876
▁primitive	-11.3876
▁prostate	-11.3876
▁rrince	-11.3876
▁sabena	-11.3876
▁savior	-11.3876
▁sherwood	-11.3876
▁shieid	-11.3876
▁solitary	-11.3876
▁summit	-11.3876
▁thermal	-11.3876
▁triads	-11.3876
▁upstate	-11.3876
▁adorable	-11.3876
▁bradley	-11.3876
▁dungeon	-11.3876
▁haldir	-11.3876
▁indication	-11.3876
▁jogging	-11.3876
▁julep	-11.3876
▁lawrence	-11.3876
▁memorial	-11.3876
▁oasis	-11.3876
▁omelet	-11.3876
▁operative	-11.3876
▁pupil	-11.3876
▁redfoo	-11.3876
▁scotch	-11.3876
▁stabilize	-11.3876
▁stalking	-11.3876
▁trench	-11.3876
▁variety	-11.3876
▁album	-11.3876
▁cisco	-11.3876
▁expire	-11.3876
▁fritz	-11.3876
▁jungle	-11.3876
▁patrick	-11.3876
▁rebellion	-11.3876
▁regiment	-11.3876
▁ringbearer	-11.3876
▁thurman	-11.3876
▁vomit	-11.3876
▁statute	-11.3876
▁deceit	-11.3876
▁mandarin	-11.3876
▁merrily	-11.3876
▁motherinlaw	-11.3876
▁outrage	-11.3876
▁seventeen	-11.3876
▁stutter	-11.3876
▁trident	-11.3876
▁babum	-11.3876
▁codename	-11.3876
▁diction	-11.3876
▁hasek	-11.3876
▁holiness	-11.3876
▁prodig	-11.3876
▁carousel	-11.3876
▁carriage	-11.3876
▁headache	-11.3876
▁vocal	-11.3876
▁wong	-11.3876
▁zoom	-11.3876
▁ritz	-11.3876
▁bliss	-11.3876
▁strangle	-11.3876
▁sunrise	-11.3876
▁abbot	-11.3876
▁preach	-11.3876
▁linney	-11.3876
▁paranoi	-11.3876
▁noisy	-11.3876
▁arteries	-11.3876
▁loeb	-11.3876
▁yacht	-11.3876
▁jelly	-11.3876
▁filter	-11.3876
▁robbed	-11.3876
▁chorus	-11.3876
▁dairy	-11.3876
▁imminent	-11.3876
▁sportscast	-11.3876
▁cartoon	-11.3876
▁compensat	-11.3876
▁temporar	-11.3876
▁testicle	-11.3876
▁oleg	-11.3876
▁havo	-11.3876
▁plastic	-11.3876
▁abyss	-11.3876
▁pbc	-11.3876
▁blg	-11.3876
▁ringtone	-11.3876
▁carmine	-11.3876
▁firsthand	-11.3876
▁juggl	-11.3876
▁lodge	-11.3876
▁rita	-11.3876
▁buckeye	-11.3876
▁lemon	-11.3876
▁ransom	-11.3876
▁lulu	-11.3876
▁nina	-11.3876
uva	-11.3876
▁ernie	-11.3876
▁vandal	-11.3876
▁darn	-11.3876
▁nancy	-11.3876
▁jody	-11.3876
▁untll	-11.3876
▁prettie	-11.3876
▁dazzl	-11.3876
▁devot	-11.3876
▁laptop	-11.3877
▁mellow	-11.3877
▁mobile	-11.3877
itating	-11.3877
▁elsie	-11.3877
ndra	-11.3877
▁davis	-11.3877
▁insight	-11.3877
▁donkey	-11.3877
▁kirby	-11.3877
▁susan	-11.3877
hohoho	-11.3877
▁kelly	-11.3877
▁authorities	-11.3877
▁skirt	-11.3877
▁consul	-11.3877
▁cere	-11.3877
▁cerebr	-11.3877
▁tranquility	-11.3877
▁limo	-11.3877
▁prix	-11.3877
▁consciousness	-11.3877
▁kidnapped	-11.3877
▁neville	-11.3877
▁grove	-11.3877
▁addict	-11.3877
▁consist	-11.3877
▁crook	-11.3877
▁xray	-11.3877
▁kevl	-11.3877
▁ethic	-11.3878
▁dyer	-11.3878
▁nerd	-11.3878
▁robbing	-11.3878
▁battlefield	-11.3878
▁basis	-11.3878
▁pension	-11.3878
▁radius	-11.3878
▁asian	-11.3878
▁accurate	-11.3878
▁discharge	-11.3878
▁midtown	-11.3878
▁scrub	-11.3878
▁yuck	-11.3878
▁merchan	-11.3878
▁duties	-11.3878
▁authorized	-11.3878
▁fanboy	-11.3878
▁collide	-11.3879
▁salary	-11.3879
▁righteous	-11.3879
▁resent	-11.3879
▁colour	-11.3879
▁spike	-11.3879
▁butterflies	-11.3879
▁nlce	-11.3879
▁disturbance	-11.3879
blam	-11.3879
harps	-11.3879
▁forevermore	-11.388
▁topgun	-11.388
▁hasty	-11.388
▁novel	-11.388
▁reek	-11.388
dammit	-11.388
▁steak	-11.388
lease	-11.388
▁commence	-11.388
▁render	-11.3881
▁parlor	-11.3881
▁notebook	-11.3881
▁spray	-11.3881
▁superpower	-11.3881
remors	-11.3881
▁legendary	-11.3881
unction	-11.3881
▁ashland	-11.3881
▁delhi	-11.3881
▁junkie	-11.3881
▁burrito	-11.3881
amental	-11.3881
▁establishment	-11.3881
▁atom	-11.3882
▁rival	-11.3882
▁instructor	-11.3882
▁operating	-11.3882
▁stall	-11.3882
▁operate	-11.3882
▁grub	-11.3882
▁slx	-11.3883
▁halloween	-11.3883
▁rcs	-11.3883
▁mild	-11.3883
▁lobo	-11.3883
▁slay	-11.3884
▁rubber	-11.3884
▁arise	-11.3884
store	-11.3884
▁attendant	-11.3884
▁sharing	-11.3884
imony	-11.3884
▁transition	-11.3884
▁owns	-11.3885
▁sharon	-11.3885
ovich	-11.3885
▁outrun	-11.3885
▁waking	-11.3885
▁jackass	-11.3885
▁whirs	-11.3885
▁wlthout	-11.3886
▁veil	-11.3886
▁brick	-11.3886
▁confusion	-11.3886
▁moanlng	-11.3886
▁grandson	-11.3886
▁faci	-11.3886
▁puppet	-11.3887
▁detector	-11.3887
▁bulldo	-11.3887
▁skinny	-11.3888
▁lockdown	-11.3888
▁ofyou	-11.3888
▁fume	-11.3889
▁transportation	-11.3889
▁tipped	-11.389
▁holies	-11.389
▁hatchet	-11.389
▁spill	-11.389
▁glue	-11.389
▁ateam	-11.389
▁voting	-11.3891
▁overtime	-11.3891
▁barker	-11.3891
▁yaga	-11.3891
▁proving	-11.3891
▁butterfl	-11.3892
▁filing	-11.3892
▁ifit	-11.3892
▁award	-11.3893
▁rld	-11.3893
elimina	-11.3894
▁gutter	-11.3894
▁reich	-11.3894
▁replacement	-11.3896
▁sober	-11.3897
▁vick	-11.3898
▁brian	-11.3899
▁infra	-11.39
▁cora	-11.39
▁chemo	-11.3901
▁snoop	-11.3902
▁stripper	-11.3902
▁yoga	-11.3903
▁youse	-11.3903
▁hallowe	-11.3904
▁elys	-11.3904
ancho	-11.3904
▁soil	-11.3904
▁broom	-11.3905
▁rover	-11.3907
▁marina	-11.3909
brah	-11.391
▁ents	-11.3911
▁gio	-11.3916
bodi	-11.3924
clined	-11.3926
▁isi	-11.3926
▁vine	-11.3935
▁negotiate	-11.3943
filtrat	-11.3944
gave	-11.3948
raising	-11.3951
aboli	-11.3969
▁byr	-11.3976
▁bumme	-11.3987
crack	-11.399
▁abduct	-11.4044
▁plumb	-11.4054
yoshi	-11.4063
▁gall	-11.4073
keith	-11.4104
self	-11.4112
▁arse	-11.4133
▁ditch	-11.4159
tobac	-11.433
▁ledge	-11.4333
▁contend	-11.445
bach	-11.4506
▁achiev	-11.4518
intentionally	-11.4604
vanna	-11.4734
tinction	-11.4903
▁mandat	-11.5006
▁distinct	-11.5195
otape	-11.5273
defeated	-11.5374
▁dishonour	-11.5549
▁temp	-11.5743
solved	-11.5748
▁etc	-11.5766
clusion	-11.5964
▁subtitle	-11.6045
ellen	-11.6169
ooooo	-11.6204
▁writ	-11.6208
▁occup	-11.6212
alino	-11.6233
▁discover	-11.6293
ground	-11.6298
▁plea	-11.6325
angling	-11.633
▁declare	-11.6332
mount	-11.6338
grateful	-11.6342
jimmy	-11.6342
text	-11.6343
regular	-11.6343
hundred	-11.6343
▁suff	-11.6343
planned	-11.6343
flynn	-11.6343
people	-11.6343
program	-11.6344
phony	-11.6345
▁filth	-11.6349
eillng	-11.6352
▁precise	-11.6353
▁suspens	-11.6353
▁apparent	-11.6354
▁intent	-11.6356
▁coordinat	-11.6364
ffa	-11.6365
easy	-11.6365
▁corporat	-11.6365
uffl	-11.6366
▁instruct	-11.6367
orrow	-11.6367
▁riva	-11.6368
ternal	-11.6369
▁krag	-11.6369
erfect	-11.6371
▁depart	-11.6372
verybody	-11.6373
verything	-11.6373
▁kidnap	-11.6373
▁invade	-11.6374
▁joseph	-11.6374
▁muff	-11.6374
sippi	-11.6375
▁confer	-11.6376
▁advertis	-11.6376
▁wretch	-11.6376
▁architect	-11.6376
▁crazi	-11.6376
▁devastati	-11.6376
▁kombucha	-11.6376
▁overwhelm	-11.6376
▁quarrel	-11.6376
arbarians	-11.6376
greatgrandfather	-11.6376
vails	-11.6376
▁acceleration	-11.6376
▁acoustic	-11.6376
▁administrator	-11.6376
▁advisor	-11.6376
▁aggravat	-11.6376
▁ambush	-11.6376
▁andreiko	-11.6376
▁aperitif	-11.6376
▁apprentice	-11.6376
▁aquitania	-11.6376
▁argentin	-11.6376
▁astonish	-11.6376
▁autopsy	-11.6376
▁bamboo	-11.6376
▁barricade	-11.6376
▁bascomb	-11.6376
▁bathrobe	-11.6376
▁bloodstained	-11.6376
▁bollocks	-11.6376
▁bouncing	-11.6376
▁bravura	-11.6376
▁brilliance	-11.6376
▁catastrophic	-11.6376
▁chaucer	-11.6376
▁claude	-11.6376
▁coexist	-11.6376
▁compelling	-11.6376
▁concrete	-11.6376
▁contusion	-11.6376
▁convenient	-11.6376
▁corridor	-11.6376
▁creativity	-11.6376
▁croissant	-11.6376
▁crucial	-11.6376
▁curfew	-11.6376
▁czechoslovakia	-11.6376
▁dadadatdatda	-11.6376
▁deactivate	-11.6376
▁deliberately	-11.6376
▁delusional	-11.6376
▁demonstrate	-11.6376
▁diablo	-11.6376
▁dictatorship	-11.6376
▁dilemma	-11.6376
▁disengage	-11.6376
▁disobey	-11.6376
▁durbatul	-11.6376
▁elendil	-11.6376
▁enmebaragesi	-11.6376
▁eothain	-11.6376
▁epidemic	-11.6376
▁extradition	-11.6376
▁extravagan	-11.6376
▁famished	-11.6376
▁fanfare	-11.6376
▁fitzgerald	-11.6376
▁fountain	-11.6376
▁fragile	-11.6376
▁frequenc	-11.6376
▁frozen	-11.6376
▁furniture	-11.6376
▁genocide	-11.6376
▁geometry	-11.6376
▁ghibli	-11.6376
▁giminski	-11.6376
▁godzilla	-11.6376
▁grandkids	-11.6376
▁greece	-11.6376
▁grumpy	-11.6376
▁happier	-11.6376
▁hawthorne	-11.6376
▁hayao	-11.6376
▁heirloom	-11.6376
▁honeymoon	-11.6376
▁hopclop	-11.6376
▁horror	-11.6376
▁hovercraft	-11.6376
▁hydraulic	-11.6376
▁imbecile	-11.6376
▁impertinent	-11.6376
▁independent	-11.6376
▁infection	-11.6376
▁intimidate	-11.6376
▁jujitsu	-11.6376
▁karapetyan	-11.6376
▁khamel	-11.6376
▁kiilln	-11.6376
▁kindergarten	-11.6376
▁kipling	-11.6376
▁koppel	-11.6376
▁koroku	-11.6376
▁landscape	-11.6376
▁librarian	-11.6376
▁lloyd	-11.6376
▁luxury	-11.6376
▁lyrics	-11.6376
▁magnitude	-11.6376
▁margaret	-11.6376
▁mascot	-11.6376
▁mechanism	-11.6376
▁metapontum	-11.6376
▁mexico	-11.6376
▁miraculous	-11.6376
▁miscarriage	-11.6376
▁misfits	-11.6376
▁misunderstood	-11.6376
▁mithrandir	-11.6376
▁mithril	-11.6376
▁miyazaki	-11.6376
▁mononoke	-11.6376
▁monstrous	-11.6376
▁morphine	-11.6376
▁motivate	-11.6376
▁mulligan	-11.6376
▁mushrooms	-11.6376
▁natasha	-11.6376
▁neighbours	-11.6376
▁nightclub	-11.6376
▁norwegian	-11.6376
▁nowadays	-11.6376
▁obedien	-11.6376
▁observatory	-11.6376
▁obstacle	-11.6376
▁octavius	-11.6376
▁octopus	-11.6376
▁operatically	-11.6376
▁orefice	-11.6376
▁outgunned	-11.6376
▁paradise	-11.6376
▁paragraph	-11.6376
▁parallel	-11.6376
▁paralyzed	-11.6376
▁phenomen	-11.6376
▁physici	-11.6376
▁pneumonia	-11.6376
▁prairie	-11.6376
▁prefects	-11.6376
▁probability	-11.6376
▁propaganda	-11.6376
▁ravishing	-11.6376
▁rebuilt	-11.6376
▁recalibrating	-11.6376
▁reconstruct	-11.6376
▁regroup	-11.6376
▁relativity	-11.6376
▁reload	-11.6376
▁rererere	-11.6376
▁resurrect	-11.6376
▁retarded	-11.6376
▁rookie	-11.6376
▁rosalie	-11.6376
▁rousseau	-11.6376
▁rusticated	-11.6376
▁salvation	-11.6376
▁satomi	-11.6376
▁scenario	-11.6376
▁schopenhauer	-11.6376
▁scissors	-11.6376
▁sedgewick	-11.6376
▁sensible	-11.6376
▁september	-11.6376
▁sleeve	-11.6376
▁sltuatlon	-11.6376
▁snorlng	-11.6376
▁solitude	-11.6376
▁somewhat	-11.6376
▁southeast	-11.6376
▁sovereign	-11.6376
▁speculation	-11.6376
▁sponsor	-11.6376
▁spritzer	-11.6376
▁strategy	-11.6376
▁subordinate	-11.6376
▁substantial	-11.6376
▁surname	-11.6376
▁sylvia	-11.6376
▁syndrome	-11.6376
▁tantrum	-11.6376
▁tchoupitoulas	-11.6376
▁technological	-11.6376
▁teresa	-11.6376
▁tigranes	-11.6376
▁tweezers	-11.6376
▁twitter	-11.6376
▁uncomfortable	-11.6376
▁underhill	-11.6376
▁unicorn	-11.6376
▁unreasonable	-11.6376
▁unwilling	-11.6376
▁vampire	-11.6376
▁velvet	-11.6376
▁vigilante	-11.6376
▁walrus	-11.6376
▁wardrobe	-11.6376
▁warfare	-11.6376
▁weasel	-11.6376
▁wheelchair	-11.6376
▁wheezing	-11.6376
▁wrench	-11.6376
▁wrinkle	-11.6376
▁xanthium	-11.6376
▁administrati	-11.6376
▁airborne	-11.6376
▁annihilat	-11.6376
▁disloyal	-11.6376
▁epps	-11.6376
▁feature	-11.6376
▁fluke	-11.6376
▁frequent	-11.6376
▁gamble	-11.6376
▁giddy	-11.6376
▁hydro	-11.6376
▁invalid	-11.6376
▁kraut	-11.6376
▁ladakh	-11.6376
▁liquor	-11.6376
▁mattress	-11.6376
▁offlcer	-11.6376
▁peasants	-11.6376
▁rabble	-11.6376
▁recruit	-11.6376
▁redefin	-11.6376
▁revoir	-11.6376
▁scowl	-11.6376
▁shazam	-11.6376
▁splinter	-11.6376
▁submissi	-11.6376
▁sweetwater	-11.6376
▁terminat	-11.6376
▁theatrical	-11.6376
▁thoroughbred	-11.6376
▁underdog	-11.6376
▁wiggle	-11.6376
▁youngsoon	-11.6376
diagnos	-11.6376
niko	-11.6376
restricted	-11.6376
▁ahuja	-11.6376
▁antibio	-11.6376
▁asano	-11.6376
▁chancellery	-11.6376
▁chaplain	-11.6376
▁dennis	-11.6376
▁elrond	-11.6376
▁grimes	-11.6376
▁illustrat	-11.6376
▁klaus	-11.6376
▁necessit	-11.6376
▁ninja	-11.6376
▁patience	-11.6376
▁relief	-11.6376
▁theatre	-11.6376
▁truce	-11.6376
▁twentyeight	-11.6376
▁utility	-11.6376
▁deceive	-11.6376
▁inevitab	-11.6376
▁allison	-11.6376
▁brutal	-11.6376
▁caiman	-11.6376
▁clucking	-11.6376
▁dowry	-11.6376
▁duff	-11.6376
▁gerbil	-11.6376
▁hypothetical	-11.6376
▁jackpot	-11.6376
▁keycard	-11.6376
▁lobby	-11.6376
▁monument	-11.6376
▁nineteen	-11.6376
▁reliable	-11.6376
▁residu	-11.6376
▁revelation	-11.6376
▁sprout	-11.6376
▁steering	-11.6376
▁sutton	-11.6376
▁treebeard	-11.6376
▁voyage	-11.6376
▁befit	-11.6376
▁dillings	-11.6376
▁gronk	-11.6376
▁handshake	-11.6376
▁lexington	-11.6376
▁particles	-11.6376
▁slamm	-11.6376
▁pervert	-11.6376
▁scribbl	-11.6376
▁shanti	-11.6376
▁upgrades	-11.6376
▁vietnamese	-11.6376
▁boong	-11.6376
▁exotic	-11.6376
▁lambert	-11.6376
▁lurking	-11.6376
▁nonstop	-11.6376
▁oyster	-11.6376
▁scroll	-11.6376
▁ufc	-11.6376
▁yankees	-11.6376
▁conceal	-11.6376
▁creaks	-11.6376
▁invasi	-11.6376
▁quinn	-11.6376
hhhhhh	-11.6376
▁resort	-11.6376
▁token	-11.6376
▁warehouse	-11.6376
▁clang	-11.6376
▁ethel	-11.6376
▁martyr	-11.6376
▁straw	-11.6376
▁detain	-11.6376
▁scorn	-11.6376
▁wreak	-11.6376
▁blur	-11.6376
▁finler	-11.6376
▁kurt	-11.6376
▁andand	-11.6376
▁bedlam	-11.6376
▁kipp	-11.6376
▁mountaln	-11.6376
▁stove	-11.6376
▁unseen	-11.6376
lphi	-11.6376
▁binary	-11.6376
▁endorse	-11.6376
▁income	-11.6376
▁alvin	-11.6376
▁exorcism	-11.6376
▁foley	-11.6376
▁hisham	-11.6376
▁manifest	-11.6376
▁mathematicians	-11.6376
▁retain	-11.6376
▁agitate	-11.6376
▁ethan	-11.6376
▁bonnie	-11.6376
▁ivy	-11.6376
▁reaper	-11.6376
▁redeem	-11.6376
▁aorion	-11.6376
▁flattered	-11.6376
▁harass	-11.6376
▁jedda	-11.6376
▁gail	-11.6376
▁radical	-11.6376
▁eager	-11.6376
▁fierce	-11.6376
▁herman	-11.6376
▁spicy	-11.6376
▁sweden	-11.6376
▁utter	-11.6376
▁spyders	-11.6376
▁widf	-11.6376
▁yelp	-11.6376
▁luke	-11.6376
▁puke	-11.6376
▁irritat	-11.6376
▁staging	-11.6376
▁firearm	-11.6376
▁reinforcements	-11.6376
▁idaho	-11.6376
▁zito	-11.6376
▁slope	-11.6376
▁blake	-11.6376
▁flint	-11.6376
▁chute	-11.6376
▁bleach	-11.6376
definite	-11.6376
▁seminar	-11.6376
▁tamper	-11.6376
▁rouge	-11.6376
▁stomp	-11.6376
▁radiator	-11.6376
▁yank	-11.6376
▁biology	-11.6376
▁saree	-11.6376
▁cunning	-11.6376
▁aguado	-11.6376
▁departure	-11.6376
▁presume	-11.6376
▁cnn	-11.6377
▁willpower	-11.6377
▁vegeta	-11.6377
▁goofy	-11.6377
▁rivet	-11.6377
▁goggle	-11.6377
▁pandem	-11.6377
▁gunnars	-11.6377
▁bulk	-11.6377
▁nickering	-11.6377
▁trinke	-11.6377
▁fedens	-11.6377
▁gulp	-11.6377
▁stale	-11.6377
▁upsidedown	-11.6377
▁bogey	-11.6377
▁snitch	-11.6378
▁plunge	-11.6378
▁morrow	-11.6378
▁introduction	-11.6378
▁compound	-11.6378
atherine	-11.6378
▁memoriz	-11.6379
▁mentor	-11.6379
▁hq	-11.6379
▁jingle	-11.638
▁tunic	-11.638
▁cutters	-11.6381
▁chess	-11.6381
▁tawes	-11.6381
▁whisk	-11.6381
▁dining	-11.6381
▁jiggl	-11.6382
▁shutters	-11.6382
▁nothln	-11.6382
trix	-11.6383
▁sparrin	-11.6384
▁makln	-11.6386
ahili	-11.6387
▁steve	-11.6388
▁commute	-11.6388
content	-11.6391
austin	-11.6392
mulate	-11.6401
▁taint	-11.6403
▁milli	-11.6406
galad	-11.6421
ficial	-11.6425
class	-11.6438
rigging	-11.6448
azy	-11.6459
fleld	-11.6461
utterlng	-11.6462
▁undertak	-11.6509
occupied	-11.6542
▁flunk	-11.6598
iatha	-11.6643
▁modif	-11.6649
▁verifi	-11.6697
riggs	-11.682
▁interacti	-11.6852
▁persia	-11.6872
eemed	-11.6992
punished	-11.7163
gents	-11.7212
▁sacrific	-11.7501
dini	-11.7522
competent	-11.7577
▁humbl	-11.8283
communicated	-11.868
▁clove	-11.8872
gnment	-11.9201
equil	-11.9209
ology	-11.921
guided	-11.9241
moto	-11.9307
lunking	-11.9318
▁giggle	-11.9369
duction	-11.9415
▁precede	-11.9484
warming	-11.9503
▁should	-11.9605
laborat	-11.9609
slgn	-11.962
▁fulfil	-11.962
▁morn	-11.9632
clog	-11.9633
▁squeal	-11.9642
▁thump	-11.9644
▁squeak	-11.9644
ouche	-11.9663
where	-11.9663
▁beyon	-11.9669
▁snoo	-11.967
closure	-11.9674
sexual	-11.9675
screen	-11.9675
appropriate	-11.9675
brush	-11.9675
proof	-11.9675
cloud	-11.9676
after	-11.9676
crowd	-11.9677
blood	-11.9677
course	-11.9677
little	-11.9677
first	-11.9677
human	-11.9677
trish	-11.9677
▁evacuat	-11.9681
▁ceremon	-11.9682
▁necessar	-11.9683
▁stead	-11.9683
▁interpret	-11.9685
ffles	-11.9685
review	-11.9686
▁substitut	-11.9687
▁squeez	-11.9687
▁qualit	-11.9689
▁debat	-11.9693
oodles	-11.9694
▁origin	-11.9697
▁darlin	-11.9701
▁destructi	-11.9703
▁construct	-11.9703
▁reflect	-11.9703
▁extensi	-11.9704
▁belgi	-11.9704
lfred	-11.9705
▁blank	-11.9706
▁extraordina	-11.9706
▁easie	-11.9706
▁tranquil	-11.9707
xcuse	-11.9707
▁egypt	-11.9707
autiful	-11.9708
supplie	-11.9708
▁psycholog	-11.9708
distinguish	-11.9709
▁tranq	-11.9709
currency	-11.9709
discretion	-11.9709
missible	-11.9709
productive	-11.9709
responsive	-11.9709
sensual	-11.9709
trudging	-11.9709
▁abrupt	-11.9709
▁absurd	-11.9709
▁adjacent	-11.9709
▁admirabl	-11.9709
▁admissions	-11.9709
▁adrenaline	-11.9709
▁airframe	-11.9709
▁alabama	-11.9709
▁algorithm	-11.9709
▁alligator	-11.9709
▁ammonia	-11.9709
▁ammunition	-11.9709
▁anarchist	-11.9709
▁anarchy	-11.9709
▁antichrist	-11.9709
▁apprehend	-11.9709
▁arathorn	-11.9709
▁arnhem	-11.9709
▁ascension	-11.9709
▁asperger	-11.9709
▁attaboy	-11.9709
▁auditorium	-11.9709
▁automobile	-11.9709
▁auxiliar	-11.9709
▁avalanche	-11.9709
▁banquet	-11.9709
▁basejumping	-11.9709
▁bavaria	-11.9709
▁beatboxing	-11.9709
▁becareful	-11.9709
▁benedict	-11.9709
▁bequeath	-11.9709
▁berkley	-11.9709
▁birmingham	-11.9709
▁bizarre	-11.9709
▁bllnd	-11.9709
▁blushing	-11.9709
▁bonjour	-11.9709
▁boogeyman	-11.9709
▁bradford	-11.9709
▁bradshaw	-11.9709
▁brandybuck	-11.9709
▁brigade	-11.9709
▁brumbies	-11.9709
▁bureau	-11.9709
▁bystander	-11.9709
▁cafeteria	-11.9709
▁cannelloni	-11.9709
▁caradhras	-11.9709
▁casualty	-11.9709
▁catalog	-11.9709
▁catholic	-11.9709
▁cautious	-11.9709
▁certifi	-11.9709
▁chickierun	-11.9709
▁cipher	-11.9709
▁citadel	-11.9709
▁collateral	-11.9709
▁contradict	-11.9709
▁convertible	-11.9709
▁counterfeit	-11.9709
▁credentials	-11.9709
▁crocodile	-11.9709
▁crucified	-11.9709
▁darcelle	-11.9709
▁debrief	-11.9709
▁decipher	-11.9709
▁decommission	-11.9709
▁deduct	-11.9709
▁delusions	-11.9709
▁dhokla	-11.9709
▁diameter	-11.9709
▁diffract	-11.9709
▁dingoes	-11.9709
▁dionysius	-11.9709
▁dishonest	-11.9709
▁dishwasher	-11.9709
▁dodging	-11.9709
▁doublecross	-11.9709
▁eduardo	-11.9709
▁enlightenment	-11.9709
▁entanglement	-11.9709
▁entrails	-11.9709
▁entrepreneur	-11.9709
▁entrust	-11.9709
▁errand	-11.9709
▁exaggerati	-11.9709
▁excitement	-11.9709
▁exclude	-11.9709
▁expelled	-11.9709
▁exploslon	-11.9709
▁exposure	-11.9709
▁fascinated	-11.9709
▁february	-11.9709
▁fernandez	-11.9709
▁ferruccio	-11.9709
▁fertility	-11.9709
▁fidelity	-11.9709
▁fingernail	-11.9709
▁foreskin	-11.9709
▁forrester	-11.9709
▁fraternity	-11.9709
▁fugue	-11.9709
▁gawk	-11.9709
▁glamour	-11.9709
▁grandchildren	-11.9709
▁grifts	-11.9709
▁grudge	-11.9709
▁grumbling	-11.9709
▁halothane	-11.9709
▁handcuffs	-11.9709
▁henceforth	-11.9709
▁hollingsworth	-11.9709
▁horrendous	-11.9709
▁huddle	-11.9709
▁hurdle	-11.9709
▁hypnotize	-11.9709
▁icecream	-11.9709
▁impediment	-11.9709
▁imprinted	-11.9709
▁inbreathiate	-11.9709
▁incomplete	-11.9709
▁inconsistent	-11.9709
▁induce	-11.9709
▁infirm	-11.9709
▁ingenuit	-11.9709
▁inhabit	-11.9709
▁insanity	-11.9709
▁insensitive	-11.9709
▁insolence	-11.9709
▁intellectual	-11.9709
▁intruders	-11.9709
▁ironhide	-11.9709
▁isolation	-11.9709
▁jenkins	-11.9709
▁jerilynn	-11.9709
▁jonathan	-11.9709
▁kathleen	-11.9709
▁kittykat	-11.9709
▁knoxville	-11.9709
▁koolaid	-11.9709
▁legitimate	-11.9709
▁loudspeaker	-11.9709
▁lozano	-11.9709
