<unk>	0
<s>	0
</s>	0
s	-3.46592
▁im	-4.51023
▁dont	-4.57259
▁know	-4.71508
▁go	-4.75934
▁get	-4.76367
▁oh	-4.78633
▁come	-4.82454
▁right	-4.86639
▁well	-4.95606
▁like	-4.98812
▁got	-5.00751
▁youre	-5.05567
ing	-5.07885
▁thats	-5.14083
▁yeah	-5.1494
▁one	-5.182
▁good	-5.22477
ed	-5.31396
▁na	-5.32678
▁see	-5.35889
▁hey	-5.38936
▁okay	-5.42589
▁think	-5.43275
▁yes	-5.4338
▁look	-5.47178
▁back	-5.49437
▁want	-5.50848
▁gon	-5.59276
▁going	-5.60336
▁us	-5.62286
▁hes	-5.62475
▁time	-5.63652
▁ill	-5.63873
d	-5.68624
▁take	-5.69749
▁man	-5.70872
▁cant	-5.72652
▁really	-5.83881
▁way	-5.84666
▁lets	-5.86001
y	-5.86343
▁could	-5.88045
▁say	-5.88555
▁never	-5.92864
▁little	-5.93132
▁would	-5.93284
▁something	-5.97711
▁mr	-5.98483
▁tell	-5.9975
▁	-6.01291
▁thank	-6.02307
▁need	-6.03755
▁make	-6.04894
er	-6.08473
▁mean	-6.10005
▁love	-6.1039
▁let	-6.11743
▁please	-6.11753
▁whats	-6.13021
▁sorry	-6.15056
▁ive	-6.15428
▁wait	-6.16662
▁give	-6.17532
e	-6.18171
▁didnt	-6.18802
▁theres	-6.21505
▁sir	-6.23253
▁thing	-6.25018
▁l	-6.25417
▁two	-6.28387
▁help	-6.34535
ly	-6.34746
▁sure	-6.35606
▁great	-6.35923
▁day	-6.37212
▁said	-6.39553
▁stop	-6.4199
▁much	-6.45116
▁theyre	-6.46023
▁home	-6.46632
▁dad	-6.46928
▁guys	-6.4828
▁work	-6.49238
▁must	-6.49736
▁night	-6.50847
▁find	-6.51482
▁first	-6.52937
▁even	-6.53259
▁nothing	-6.53924
▁life	-6.54728
r	-6.57144
▁people	-6.576
a	-6.57764
▁keep	-6.59089
▁maybe	-6.59155
▁hi	-6.59217
▁thought	-6.59359
▁new	-6.59609
▁away	-6.60027
▁big	-6.61079
t	-6.61786
▁uh	-6.61888
▁better	-6.63578
▁anything	-6.63753
▁put	-6.64845
▁ta	-6.64909
▁shes	-6.65462
in	-6.65615
▁ever	-6.66793
▁around	-6.67072
n	-6.67559
▁boy	-6.68423
▁god	-6.68979
▁nice	-6.69156
▁still	-6.69157
▁listen	-6.7008
▁call	-6.70323
▁believe	-6.72517
▁old	-6.74399
▁id	-6.74683
▁always	-6.75068
▁place	-6.75072
▁last	-6.75486
p	-6.75616
▁hello	-6.76173
▁name	-6.76284
▁world	-6.77328
▁long	-6.78362
▁baby	-6.78372
▁talk	-6.78612
l	-6.7907
▁feel	-6.79222
▁play	-6.79292
▁youve	-6.79427
▁three	-6.80708
i	-6.81322
▁stay	-6.81401
▁wont	-6.81569
▁fine	-6.8223
▁everything	-6.82319
▁kind	-6.82744
▁father	-6.83735
▁youll	-6.83983
g	-6.85065
▁miss	-6.85919
▁years	-6.86027
▁things	-6.86186
o	-6.86664
▁whoa	-6.88064
▁isnt	-6.89222
▁doesnt	-6.89456
▁hold	-6.90257
▁huh	-6.90635
▁every	-6.90746
▁coming	-6.92593
▁bad	-6.92822
▁mom	-6.93741
▁thanks	-6.95257
▁show	-6.95365
▁told	-6.95746
▁house	-6.95765
▁ready	-6.96357
▁may	-6.97411
▁hell	-6.97917
es	-6.98495
▁lot	-6.98702
▁best	-6.99594
▁wrong	-6.99823
▁real	-7.00161
▁guy	-7.00434
▁hear	-7.01136
▁remember	-7.01166
▁try	-7.01614
▁talking	-7.02981
▁enough	-7.02993
▁done	-7.03285
▁morning	-7.03532
▁might	-7.03532
▁girl	-7.03733
▁course	-7.0462
▁leave	-7.04653
▁wan	-7.04729
u	-7.04836
▁made	-7.04951
c	-7.05705
▁move	-7.065
▁mind	-7.06547
▁left	-7.07384
▁run	-7.08696
al	-7.09634
▁understand	-7.09653
▁excuse	-7.1139
▁kids	-7.11738
▁mother	-7.11921
▁today	-7.1227
▁car	-7.1323
▁job	-7.13759
▁jack	-7.14017
▁weve	-7.16792
▁next	-7.17407
▁watch	-7.18165
▁school	-7.19919
▁honey	-7.19921
▁son	-7.21113
▁coach	-7.22169
▁everybody	-7.2315
▁game	-7.23759
▁room	-7.24493
▁tonight	-7.24806
▁another	-7.2514
▁ok	-7.25168
▁care	-7.2604
▁second	-7.27013
▁getting	-7.27065
▁live	-7.27325
▁looking	-7.2748
▁minute	-7.27544
▁money	-7.2855
▁hope	-7.28925
▁george	-7.29243
▁hard	-7.30075
▁guess	-7.30296
▁found	-7.303
▁turn	-7.30453
▁whole	-7.31008
▁bring	-7.31099
▁happened	-7.31303
▁pretty	-7.3136
▁meet	-7.31816
▁woman	-7.32075
▁trying	-7.32196
▁came	-7.33525
▁heard	-7.33626
▁ah	-7.33678
▁family	-7.33887
▁dear	-7.34277
or	-7.34749
▁seen	-7.34802
h	-7.34931
▁idea	-7.3495
▁wouldnt	-7.35103
▁tomorrow	-7.35732
▁use	-7.3576
▁ask	-7.36121
▁head	-7.36243
▁team	-7.36496
▁knew	-7.37233
▁together	-7.37992
▁ha	-7.38087
▁wanted	-7.38108
▁saw	-7.39153
ve	-7.39608
▁water	-7.39926
▁matter	-7.40024
f	-7.4118
▁door	-7.41441
▁worry	-7.41483
▁without	-7.42273
▁dead	-7.42671
▁em	-7.42867
▁aint	-7.43071
▁face	-7.4308
▁start	-7.43106
le	-7.43337
▁everyone	-7.43488
▁yet	-7.43496
▁wasnt	-7.44687
▁else	-7.45107
▁hand	-7.47306
en	-7.47337
▁children	-7.4758
▁eat	-7.47754
▁easy	-7.48
▁lost	-7.4801
▁fun	-7.48048
▁someone	-7.48422
▁boys	-7.48449
▁whos	-7.48451
b	-7.48521
▁kid	-7.49203
▁many	-7.49247
▁alone	-7.49703
▁actually	-7.49709
▁late	-7.49839
▁open	-7.49857
▁king	-7.49953
▁five	-7.50599
▁fight	-7.50951
▁since	-7.50994
▁friend	-7.51222
▁beautiful	-7.51863
▁true	-7.51863
▁cause	-7.52305
▁set	-7.52405
▁welcome	-7.53185
▁stuff	-7.53188
▁win	-7.53583
▁happy	-7.53633
▁crazy	-7.53639
w	-7.53714
▁shall	-7.54062
▁hit	-7.54064
m	-7.54233
▁friends	-7.54544
▁end	-7.5456
▁part	-7.54843
▁playing	-7.54931
▁havent	-7.54975
▁used	-7.55096
▁kill	-7.55716
▁went	-7.55895
on	-7.56336
▁men	-7.56565
▁close	-7.57071
ic	-7.57157
▁brother	-7.5792
k	-7.57978
▁lucky	-7.58353
▁break	-7.58496
▁forget	-7.59103
▁cool	-7.59149
ers	-7.60399
▁music	-7.60532
▁sit	-7.60739
▁dream	-7.62681
▁laughing	-7.62696
▁four	-7.62946
▁somebody	-7.6296
▁gone	-7.6321
▁walk	-7.63884
▁wow	-7.63952
▁wish	-7.64844
▁chance	-7.64941
▁year	-7.65396
▁power	-7.65913
▁afraid	-7.65938
▁c	-7.65976
▁couldnt	-7.66101
▁re	-7.66224
▁check	-7.6633
ie	-7.66391
▁already	-7.66443
▁took	-7.66445
▁business	-7.66951
▁problem	-7.66953
▁days	-7.67382
▁fire	-7.68186
ll	-7.69194
▁looks	-7.69338
▁far	-7.69498
▁charlie	-7.69528
ch	-7.69741
▁hurt	-7.69947
▁word	-7.70182
ar	-7.70453
re	-7.70523
▁pick	-7.70529
▁says	-7.70694
▁ybi	-7.70983
▁youd	-7.71136
▁ball	-7.71152
▁quite	-7.71205
▁change	-7.71454
▁young	-7.71947
▁free	-7.7205
▁heart	-7.724
▁anyway	-7.72711
man	-7.72754
▁b	-7.72821
▁dance	-7.72838
ion	-7.72925
▁hands	-7.73102
▁un	-7.73197
▁red	-7.73469
▁called	-7.73525
▁number	-7.74026
▁saying	-7.75552
▁plan	-7.75801
▁six	-7.75965
▁stand	-7.75973
▁side	-7.76047
▁exactly	-7.76577
est	-7.76634
▁supposed	-7.76719
▁lm	-7.77081
▁hmm	-7.77127
▁eyes	-7.77293
▁rest	-7.77295
▁mary	-7.77759
▁special	-7.78255
▁arent	-7.78258
▁pay	-7.78899
▁save	-7.79091
el	-7.79151
▁happen	-7.79266
▁nobody	-7.79399
▁trouble	-7.79399
▁hurry	-7.79405
▁hate	-7.79909
▁sleep	-7.7993
▁high	-7.80096
▁shut	-7.80533
▁taking	-7.80597
▁later	-7.80769
▁thinking	-7.81337
st	-7.81526
▁die	-7.8162
▁smurf	-7.81628
▁anyone	-7.81732
▁light	-7.82199
▁hot	-7.82239
▁probably	-7.82323
▁wheres	-7.82601
▁working	-7.82882
▁point	-7.82927
ri	-7.83031
▁sighs	-7.83518
▁bit	-7.83868
▁half	-7.8412
▁goodbye	-7.8412
▁blue	-7.8413
▁line	-7.84208
▁daddy	-7.8476
▁ya	-7.84861
▁hang	-7.85341
▁wife	-7.85344
▁perfect	-7.85725
li	-7.85936
▁s	-7.86087
us	-7.86366
▁cut	-7.86842
▁um	-7.86946
▁inside	-7.87193
▁fast	-7.87541
▁soon	-7.87597
▁dog	-7.8781
▁ago	-7.87823
▁whatever	-7.88441
▁mine	-7.88454
▁ahead	-7.89082
▁fly	-7.89339
▁goes	-7.89366
▁almost	-7.89711
▁read	-7.90105
▁clear	-7.90369
▁lose	-7.90848
▁minutes	-7.90939
▁city	-7.91682
an	-7.92232
▁food	-7.92301
▁phone	-7.92322
th	-7.92654
▁though	-7.92811
▁bye	-7.92959
▁feet	-7.92971
▁a	-7.93978
▁different	-7.94288
▁town	-7.94306
▁lord	-7.94963
▁deal	-7.95039
▁gasps	-7.95185
▁th	-7.95208
▁john	-7.95622
▁week	-7.95965
▁moment	-7.96046
z	-7.96132
it	-7.96306
▁anybody	-7.96314
▁important	-7.96314
▁parents	-7.96607
▁earth	-7.97006
▁heres	-7.97271
ation	-7.97501
▁beat	-7.97767
▁wants	-7.98088
▁funny	-7.99083
▁story	-7.99126
ment	-7.99156
▁de	-7.99163
▁step	-7.99178
▁front	-7.99787
▁least	-7.99787
▁also	-7.99789
▁shot	-7.99833
able	-7.99884
▁hair	-8.00208
▁body	-8.005
▁lady	-8.00567
▁safe	-8.00858
▁dr	-8.01233
▁f	-8.0147
▁follow	-8.01532
▁full	-8.0164
is	-8.01646
▁running	-8.01941
▁wonderful	-8.0198
▁party	-8.02388
▁gave	-8.02689
▁bed	-8.02866
▁along	-8.03388
▁ladies	-8.03392
▁ride	-8.03802
ies	-8.04085
▁daughter	-8.0412
▁joe	-8.04697
▁sweet	-8.04812
▁in	-8.04941
▁fred	-8.05007
▁song	-8.05118
▁g	-8.05228
▁country	-8.05625
▁drive	-8.06049
▁behind	-8.06359
v	-8.06792
▁p	-8.06929
▁quick	-8.06941
▁trust	-8.07116
▁catch	-8.07175
▁shoot	-8.07294
▁bet	-8.07583
te	-8.07866
▁throw	-8.07885
▁theyll	-8.07891
▁send	-8.08024
▁girls	-8.0809
▁horse	-8.08147
▁pull	-8.08309
▁rock	-8.08352
▁ship	-8.08353
▁cat	-8.08462
▁making	-8.08661
▁sound	-8.08678
▁means	-8.08927
▁bear	-8.09139
▁damn	-8.09424
▁telling	-8.0978
▁harry	-8.10205
▁speak	-8.10337
▁drink	-8.10364
▁field	-8.10483
▁sea	-8.10487
▁luck	-8.10709
la	-8.10752
▁married	-8.10993
▁gentlemen	-8.10993
▁ooh	-8.11445
▁air	-8.11783
▁chuckles	-8.11951
▁war	-8.11953
▁hours	-8.12211
et	-8.12442
▁dinner	-8.12586
▁general	-8.13393
▁waiting	-8.13759
▁makes	-8.14035
▁couple	-8.14206
▁space	-8.14207
▁touch	-8.14525
▁child	-8.15025
▁perhaps	-8.15025
▁stick	-8.15025
▁christmas	-8.15026
▁fact	-8.15033
▁continues	-8.15276
▁top	-8.15913
se	-8.1592
▁book	-8.16155
▁promise	-8.16345
▁laughs	-8.16929
▁asked	-8.16938
▁answer	-8.16964
▁question	-8.16987
at	-8.17064
▁pass	-8.17158
▁sometimes	-8.17285
ter	-8.17751
▁la	-8.1814
ive	-8.18313
▁lead	-8.18328
▁ernie	-8.18374
▁land	-8.19098
ro	-8.19135
▁captain	-8.19228
▁radio	-8.19228
▁stupid	-8.19228
▁till	-8.19268
▁ducks	-8.19364
▁ho	-8.19522
ness	-8.19779
▁reason	-8.20054
▁either	-8.2009
▁women	-8.2009
▁ice	-8.20108
▁met	-8.20229
▁started	-8.20289
▁sister	-8.20495
▁hour	-8.20529
▁banks	-8.20535
▁weird	-8.20737
▁control	-8.20961
▁mama	-8.20995
▁grunts	-8.21113
▁cheering	-8.21185
ur	-8.21254
▁anymore	-8.21836
▁grand	-8.21875
ity	-8.22034
▁voice	-8.22721
▁crowd	-8.2275
▁screaming	-8.22827
▁star	-8.23164
▁con	-8.23454
▁person	-8.23523
▁proud	-8.23618
▁white	-8.23624
▁tried	-8.23685
lo	-8.24118
▁careful	-8.24384
▁kidding	-8.2452
▁somewhere	-8.25424
▁times	-8.25701
▁st	-8.26106
▁strong	-8.2611
▁straight	-8.26342
▁street	-8.26342
▁d	-8.26909
▁eye	-8.27002
▁co	-8.27126
▁death	-8.27268
▁moving	-8.27279
▁wake	-8.27317
to	-8.27358
nt	-8.27461
▁al	-8.27703
▁human	-8.27906
▁smell	-8.27929
▁case	-8.27949
▁serious	-8.28025
▁blow	-8.28143
▁w	-8.28145
▁itll	-8.28209
▁class	-8.28248
▁killed	-8.28268
▁finally	-8.28273
▁scared	-8.2839
▁fish	-8.2858
▁e	-8.28749
▁learn	-8.2883
▁brought	-8.29146
▁small	-8.29146
▁clean	-8.29161
▁wed	-8.29718
▁amazing	-8.30098
▁sense	-8.30098
▁buy	-8.30099
up	-8.30596
▁join	-8.30604
ge	-8.30636
▁kiss	-8.30791
▁grandma	-8.31082
▁sign	-8.31269
▁order	-8.31365
▁camp	-8.31928
▁scott	-8.31985
sh	-8.32014
▁black	-8.32031
▁outside	-8.32034
▁magic	-8.32272
ia	-8.32342
▁wear	-8.32421
▁count	-8.32719
▁soul	-8.33011
▁queen	-8.33017
▁living	-8.33018
ry	-8.33944
▁forever	-8.34001
▁past	-8.34001
▁absolutely	-8.34025
▁alive	-8.34041
un	-8.34547
▁feeling	-8.34752
▁wonder	-8.34804
▁seven	-8.34967
▁short	-8.35001
▁glad	-8.35001
▁president	-8.35003
▁race	-8.35011
▁eight	-8.3503
▁poor	-8.35062
▁sing	-8.3517
ck	-8.35781
▁secret	-8.35955
▁write	-8.36011
▁buddy	-8.36012
▁quack	-8.36014
▁darling	-8.36016
▁ten	-8.36365
▁news	-8.36394
ra	-8.3647
▁test	-8.36472
▁t	-8.36565
▁seem	-8.36752
▁ring	-8.36785
▁sounds	-8.37004
▁super	-8.37029
▁tough	-8.37031
▁football	-8.37035
▁ow	-8.3806
▁north	-8.38062
▁island	-8.38062
▁papa	-8.38062
▁round	-8.38067
▁sort	-8.38069
▁act	-8.38472
▁fall	-8.38476
▁mad	-8.38769
ent	-8.39001
▁uncle	-8.39161
ist	-8.39214
x	-8.39275
▁happens	-8.39435
▁cute	-8.39639
▁evening	-8.39933
▁road	-8.40157
▁office	-8.4099
▁become	-8.4122
▁kelly	-8.41221
▁lts	-8.41579
ling	-8.41685
ty	-8.41852
▁quiet	-8.42299
▁sick	-8.42304
▁age	-8.42558
▁lovely	-8.42999
▁k	-8.4306
▁seems	-8.43405
co	-8.44456
▁mess	-8.44466
▁jump	-8.44467
▁fault	-8.44482
▁shouldnt	-8.44482
▁dangerous	-8.44493
▁maam	-8.44494
▁drop	-8.44494
▁tight	-8.44498
▁moon	-8.44525
▁princess	-8.44546
ance	-8.44677
▁whoo	-8.44711
▁park	-8.44752
▁months	-8.44835
▁quit	-8.45387
▁spend	-8.45597
▁sun	-8.45742
▁piece	-8.459
▁dress	-8.46129
▁finish	-8.46229
▁fair	-8.46396
id	-8.46481
▁truth	-8.46716
▁honor	-8.46733
▁shit	-8.46748
▁hall	-8.46845
▁bar	-8.46921
▁be	-8.47013
▁report	-8.4702
▁fix	-8.47371
▁deep	-8.4745
▁fear	-8.47845
▁theyve	-8.47877
▁smurfs	-8.48063
▁return	-8.48505
um	-8.48536
il	-8.48543
▁slow	-8.48824
▁leaving	-8.49002
▁york	-8.49002
▁simple	-8.49003
▁push	-8.49016
ma	-8.49099
▁suit	-8.49189
▁mission	-8.49252
▁bob	-8.49741
▁english	-8.50118
▁michael	-8.50153
▁ground	-8.50168
▁outta	-8.50176
▁happening	-8.50251
▁able	-8.50639
▁suppose	-8.51002
▁state	-8.51151
▁cold	-8.51342
▁sent	-8.51408
▁train	-8.51414
ous	-8.51445
▁dreams	-8.51662
▁boat	-8.5189
▁cover	-8.52037
▁gun	-8.5206
▁surprise	-8.52188
▁present	-8.52497
▁police	-8.52532
▁groans	-8.52532
▁wild	-8.52532
▁hungry	-8.52537
ne	-8.52601
age	-8.52663
▁weeks	-8.53144
▁roll	-8.53169
▁lunch	-8.53734
▁forgive	-8.53737
▁relax	-8.53737
▁army	-8.5393
▁loved	-8.53938
▁mario	-8.54084
▁buzz	-8.54088
less	-8.5444
▁taken	-8.54641
▁dark	-8.54942
▁bomb	-8.54951
▁handle	-8.54954
▁tired	-8.54959
▁monster	-8.5496
▁nine	-8.54978
▁mmm	-8.55354
ah	-8.55418
▁figure	-8.55898
▁mistake	-8.56191
▁hows	-8.56194
▁vince	-8.56198
▁pa	-8.56325
▁bird	-8.56356
▁grow	-8.56637
▁marry	-8.56811
▁husband	-8.56832
▁clumsy	-8.57441
rs	-8.57658
▁low	-8.57696
ai	-8.57933
▁mouth	-8.58706
▁se	-8.58748
▁grunting	-8.58752
▁pain	-8.58887
▁officer	-8.58981
▁van	-8.59249
▁doctor	-8.59445
ful	-8.59541
▁worth	-8.59682
ted	-8.5979
ting	-8.59911
▁summer	-8.59989
▁wind	-8.59998
▁juli	-8.60074
▁bell	-8.60203
▁busy	-8.60221
▁calling	-8.60232
▁mo	-8.60546
▁shell	-8.60584
▁died	-8.61162
▁grab	-8.61234
▁future	-8.61287
▁rather	-8.6129
▁french	-8.61292
▁calm	-8.61297
▁marshall	-8.61301
▁boss	-8.61364
▁h	-8.61379
▁fool	-8.61449
▁bill	-8.6232
▁brain	-8.62366
▁entire	-8.62421
▁lives	-8.6244
▁an	-8.62549
▁college	-8.62603
▁georgie	-8.62603
▁felt	-8.62603
▁eric	-8.62622
▁early	-8.62708
▁m	-8.63031
▁enjoy	-8.63428
▁wash	-8.63469
▁window	-8.63523
▁needs	-8.63553
▁smart	-8.63699
▁laugh	-8.63739
▁possible	-8.63936
▁system	-8.63936
▁hut	-8.6398
▁teach	-8.6406
▁card	-8.64557
▁el	-8.64563
▁comes	-8.64804
▁tree	-8.64915
▁strange	-8.64979
▁speaking	-8.64999
▁brown	-8.65288
▁kay	-8.65294
▁expect	-8.65525
▁building	-8.6583
na	-8.65902
▁hed	-8.65948
ol	-8.66041
ate	-8.66295
▁ones	-8.66321
▁bag	-8.66432
▁bryce	-8.66658
▁giving	-8.66658
▁pardon	-8.66658
▁attention	-8.66658
▁richard	-8.66668
▁terrible	-8.66696
▁kick	-8.66918
am	-8.67768
▁words	-8.67803
as	-8.67932
▁charge	-8.68046
▁favorite	-8.68054
▁third	-8.68055
▁master	-8.68058
▁nose	-8.68079
▁hide	-8.6813
ow	-8.68181
▁ba	-8.6829
▁faster	-8.68554
▁i	-8.68882
▁meeting	-8.69077
im	-8.69195
▁lie	-8.69214
▁angel	-8.69357
▁forgot	-8.69446
▁incredible	-8.69494
ac	-8.69726
ta	-8.69881
op	-8.69953
▁known	-8.70196
▁asking	-8.70395
▁joke	-8.7066
▁frank	-8.70716
▁match	-8.70796
▁flying	-8.70854
▁spot	-8.70857
▁afternoon	-8.70884
▁worse	-8.70895
▁foot	-8.70938
ant	-8.71151
▁trip	-8.71326
▁carry	-8.71813
▁miles	-8.72136
▁hero	-8.72211
▁club	-8.7232
▁awesome	-8.72333
▁london	-8.72333
▁gerry	-8.72333
▁smurfette	-8.7234
▁million	-8.72345
▁aah	-8.72375
▁born	-8.72377
▁share	-8.72388
▁po	-8.72854
▁steve	-8.7369
▁nervous	-8.73803
▁history	-8.73803
▁jacques	-8.73803
▁walter	-8.73804
▁imagine	-8.73804
▁popper	-8.73804
▁dude	-8.7381
▁none	-8.73876
▁r	-8.73927
▁completely	-8.73948
▁turned	-8.7436
▁date	-8.744
▁eating	-8.7453
ts	-8.74757
▁blood	-8.7501
time	-8.7504
▁gosh	-8.75186
▁belong	-8.752
▁paddington	-8.75296
▁others	-8.75297
▁middle	-8.75299
▁wedding	-8.75299
▁horn	-8.75306
ce	-8.75502
ig	-8.75776
▁ma	-8.75859
▁hat	-8.75895
▁seconds	-8.76011
▁changed	-8.76257
▁di	-8.7651
▁v	-8.76521
▁mike	-8.76525
▁machine	-8.76745
▁except	-8.76765
▁definitely	-8.76811
▁pleasure	-8.76812
▁upon	-8.76833
▁doubt	-8.76871
▁sword	-8.76874
▁key	-8.76889
▁station	-8.76901
▁broken	-8.76907
▁longer	-8.76929
▁warm	-8.77081
▁ass	-8.7716
▁law	-8.77203
▁da	-8.77215
▁legs	-8.77314
▁protect	-8.77659
mo	-8.77715
▁fat	-8.78286
▁box	-8.78324
▁arthur	-8.78349
▁company	-8.78349
▁yesterday	-8.78356
▁stuck	-8.78366
▁less	-8.78424
pe	-8.78479
▁given	-8.78484
▁meant	-8.78593
▁pal	-8.79196
io	-8.79232
▁brothers	-8.7924
▁build	-8.79288
▁near	-8.79781
▁rules	-8.79791
▁green	-8.79912
▁spell	-8.79912
▁congratulations	-8.7994
▁tv	-8.79961
▁hotel	-8.80018
▁standing	-8.80096
oo	-8.80152
▁bus	-8.80194
▁ii	-8.80604
▁destroy	-8.80683
▁bo	-8.80799
▁attack	-8.80998
▁accident	-8.8149
▁anywhere	-8.81499
▁bunch	-8.81499
▁choice	-8.81499
▁dorothy	-8.81499
▁explain	-8.81499
▁fantastic	-8.81499
▁whistle	-8.81499
▁position	-8.81503
▁area	-8.81509
▁board	-8.81626
▁table	-8.81661
▁en	-8.81668
▁rule	-8.81906
tic	-8.81943
▁knock	-8.81966
▁ga	-8.82445
▁watching	-8.83089
▁william	-8.83101
▁coffee	-8.83112
▁lucas	-8.83112
▁davis	-8.83113
▁block	-8.83115
▁caught	-8.83116
▁josh	-8.83126
▁mommy	-8.83147
▁o	-8.83178
▁picture	-8.83267
▁american	-8.83404
▁pop	-8.83438
ian	-8.83549
▁pre	-8.8389
out	-8.84348
▁prince	-8.84644
▁rich	-8.8474
▁spirit	-8.84751
▁baymax	-8.84752
▁grinch	-8.84752
▁kept	-8.84757
▁cake	-8.84773
▁sitting	-8.84817
▁stone	-8.84818
▁certainly	-8.84891
▁worked	-8.84892
▁rain	-8.8495
▁champion	-8.84968
▁singing	-8.85794
ti	-8.85884
no	-8.85962
▁shrek	-8.86418
▁mumble	-8.86421
▁marina	-8.86423
▁corner	-8.86505
▁sad	-8.86564
▁commander	-8.86687
▁force	-8.86688
▁map	-8.86865
▁wearing	-8.8749
▁visit	-8.87945
▁tea	-8.87961
▁sweetheart	-8.88113
▁werent	-8.88113
▁nando	-8.88114
▁birthday	-8.88114
▁bother	-8.88119
▁unless	-8.88177
▁respect	-8.88188
▁artie	-8.88225
▁single	-8.88243
led	-8.88258
▁ray	-8.88377
ct	-8.88392
▁fighting	-8.88855
▁besides	-8.89017
ke	-8.89563
▁fell	-8.89683
▁wh	-8.8973
▁south	-8.89741
ish	-8.89766
▁ben	-8.89781
▁jim	-8.89837
▁evil	-8.89837
▁chair	-8.8984
▁mmhmm	-8.89851
▁action	-8.89939
▁missed	-8.90098
▁guard	-8.90257
▁tall	-8.90282
▁promised	-8.90549
▁freak	-8.90949
▁engine	-8.90973
▁questions	-8.90992
▁reach	-8.91094
▁cross	-8.91104
▁command	-8.91293
les	-8.91294
▁river	-8.91584
▁breakfast	-8.91592
▁defense	-8.91592
▁idiot	-8.91593
▁lift	-8.91593
▁forward	-8.91593
▁sc	-8.91601
▁message	-8.91624
▁yep	-8.91633
▁totally	-8.91676
ped	-8.91846
▁hiro	-8.91857
▁quickly	-8.92005
and	-8.92128
if	-8.92382
▁fl	-8.92465
▁lock	-8.92643
▁dis	-8.92728
ver	-8.93093
▁vi	-8.9311
▁arm	-8.93234
▁n	-8.93334
▁aunt	-8.93337
▁across	-8.93377
▁instead	-8.93377
▁jesus	-8.93377
▁service	-8.93377
▁sophie	-8.93377
▁uhhuh	-8.93377
▁blind	-8.93378
▁floor	-8.93378
▁smile	-8.93379
▁speed	-8.93379
▁hasnt	-8.93381
▁sake	-8.93396
▁yo	-8.93398
▁loud	-8.93401
▁band	-8.93425
▁jane	-8.93441
▁west	-8.93549
▁chattering	-8.93588
▁out	-8.93639
ey	-8.93832
▁complete	-8.93877
▁rocky	-8.94043
▁horses	-8.9456
vi	-8.94596
▁cry	-8.94845
▁chicken	-8.94953
▁personal	-8.95161
▁clothes	-8.95196
▁neither	-8.95196
▁village	-8.95198
▁group	-8.95199
▁double	-8.95207
▁shh	-8.95248
▁plays	-8.9545
▁ab	-8.95705
ary	-8.95711
way	-8.95766
▁animal	-8.95792
▁ran	-8.96049
▁offer	-8.96069
ine	-8.96077
▁learned	-8.9615
▁lo	-8.96334
▁sell	-8.9648
▁escape	-8.96696
iy	-8.96757
▁dare	-8.96792
▁pe	-8.96811
om	-8.96953
▁extra	-8.97031
▁hundred	-8.97047
▁squirrel	-8.97047
▁stoker	-8.97047
▁strike	-8.97047
▁works	-8.97047
▁situation	-8.97048
▁cream	-8.9705
▁heh	-8.97088
▁yall	-8.97191
ea	-8.97254
▁holy	-8.97436
▁played	-8.97585
▁greatest	-8.97634
be	-8.97693
▁starting	-8.98104
▁saved	-8.98161
▁names	-8.98205
▁record	-8.98286
▁post	-8.98424
▁mark	-8.98509
▁art	-8.98577
▁settle	-8.98591
▁named	-8.98607
▁realize	-8.98656
▁artemis	-8.98934
▁swear	-8.98934
▁thunder	-8.98959
▁camera	-8.99058
▁stopped	-8.99119
ard	-8.99154
▁sp	-8.99361
mp	-8.99663
▁ra	-8.99699
ble	-9.00401
▁pl	-9.00575
▁no	-9.00807
▁alliance	-9.00857
▁goddamn	-9.00857
▁goldberg	-9.00857
▁purpose	-9.00857
▁upstairs	-9.00857
▁church	-9.00857
▁worried	-9.00857
▁difference	-9.00858
▁boris	-9.00859
▁sight	-9.00859
▁track	-9.0086
▁terrific	-9.00861
▁bro	-9.00881
▁agent	-9.00907
▁annie	-9.00951
▁remind	-9.00962
▁looked	-9.01676
▁eggs	-9.01734
▁mi	-9.01961
▁pat	-9.02304
▁deliver	-9.02311
▁normal	-9.02682
▁broke	-9.02707
▁katherine	-9.02818
▁major	-9.02818
▁somehow	-9.02818
▁universe	-9.02818
▁roger	-9.02818
▁season	-9.02846
▁boom	-9.02877
▁computer	-9.02893
▁brave	-9.03007
▁bitch	-9.03051
ite	-9.0336
▁gift	-9.03682
▁finished	-9.03686
ber	-9.0385
▁screams	-9.04002
ca	-9.04272
▁quarter	-9.04807
▁trick	-9.04813
▁rayburn	-9.04818
▁ridiculous	-9.04818
▁spanish	-9.04818
▁tiger	-9.04818
▁ivan	-9.04821
▁teeth	-9.04822
▁amen	-9.04877
▁danger	-9.04897
▁do	-9.05035
▁planet	-9.05071
▁shouting	-9.05079
▁seat	-9.05094
▁spy	-9.05115
▁christ	-9.05124
ster	-9.05221
▁main	-9.05303
▁bank	-9.05415
▁talked	-9.05454
ni	-9.05499
▁tr	-9.05716
ph	-9.05726
▁per	-9.06039
▁j	-9.06198
▁stars	-9.06528
▁honest	-9.06699
▁over	-9.06764
▁paul	-9.06812
▁gargamel	-9.06859
▁greek	-9.06859
▁kitchen	-9.06859
▁level	-9.06859
▁napoleon	-9.06859
▁wrote	-9.06859
▁beast	-9.06859
▁howd	-9.0686
▁risk	-9.06861
▁emergency	-9.06874
▁rid	-9.06895
▁eh	-9.07
▁sky	-9.07095
▁travel	-9.07297
de	-9.07315
▁bowl	-9.07407
king	-9.07412
▁locked	-9.07427
▁lay	-9.07603
▁breath	-9.08068
▁goodness	-9.08164
ill	-9.08184
▁where	-9.08272
ton	-9.08313
▁certain	-9.08765
▁max	-9.08776
▁owe	-9.08894
▁favor	-9.08931
▁miracle	-9.08942
▁practice	-9.08942
▁throat	-9.08942
▁dumb	-9.08942
▁beach	-9.08942
▁repeat	-9.08943
▁enzo	-9.08944
▁chief	-9.08944
▁fellow	-9.08968
▁battle	-9.08975
▁jamie	-9.08984
▁paid	-9.08997
▁appreciate	-9.09047
▁program	-9.09151
bb	-9.09229
▁sam	-9.09263
▁interesting	-9.09295
▁hole	-9.0936
by	-9.09468
▁store	-9.09551
ag	-9.09672
▁draw	-9.09678
▁score	-9.09724
▁bite	-9.09824
▁gr	-9.09836
ee	-9.0985
ng	-9.09927
▁thousand	-9.10056
▁egg	-9.10108
▁cook	-9.10133
▁tie	-9.10215
▁shoes	-9.10239
▁fi	-9.10538
▁accept	-9.10565
▁treat	-9.10715
▁soft	-9.10894
red	-9.10941
▁allison	-9.1107
▁hospital	-9.1107
▁weather	-9.1107
▁indeed	-9.1107
▁smoke	-9.1107
▁vote	-9.1107
▁lucy	-9.1107
▁moses	-9.11077
▁henry	-9.11078
▁launch	-9.11084
▁meat	-9.11088
▁forest	-9.11093
▁taste	-9.11144
▁press	-9.11207
▁wa	-9.11215
he	-9.11235
▁davey	-9.11276
da	-9.115
▁fairy	-9.11616
▁freeze	-9.1164
men	-9.11767
▁san	-9.11879
▁fan	-9.1189
▁giant	-9.12303
▁prove	-9.12343
▁begin	-9.1241
▁consider	-9.1265
▁quest	-9.127
▁letter	-9.12862
▁agree	-9.12899
▁burn	-9.12906
po	-9.13055
back	-9.13206
▁peace	-9.13224
▁beyond	-9.13244
▁deserve	-9.13244
▁garden	-9.13244
▁strength	-9.13244
▁danny	-9.13244
▁folks	-9.13245
▁impossible	-9.13247
▁panting	-9.13258
▁rings	-9.13314
▁bridge	-9.13323
hi	-9.13353
▁east	-9.13534
▁barking	-9.13561
▁sh	-9.13609
▁orders	-9.13622
▁experience	-9.13859
▁plans	-9.14373
▁penguin	-9.14584
▁carl	-9.1461
▁holding	-9.14635
▁missing	-9.14883
▁mention	-9.15015
▁needed	-9.15103
▁stu	-9.15121
▁mm	-9.15188
▁nuts	-9.15277
tion	-9.15444
▁remain	-9.15466
▁silly	-9.15466
▁bathroom	-9.15472
▁trade	-9.15473
▁bobby	-9.15489
▁beg	-9.15496
▁pitch	-9.15507
▁baker	-9.15518
▁shel	-9.15608
▁sweetie	-9.15612
▁decided	-9.15647
▁bloody	-9.15895
▁listening	-9.15945
▁fit	-9.16006
▁cr	-9.16256
▁form	-9.16309
ical	-9.16702
▁german	-9.16918
j	-9.16929
▁hoo	-9.16992
▁wall	-9.17112
▁pack	-9.17369
▁pi	-9.17537
▁ch	-9.17647
▁wolf	-9.17694
▁especially	-9.17739
▁majesty	-9.17739
▁kingdom	-9.17739
▁alarm	-9.17739
▁large	-9.17739
▁vanya	-9.17739
▁stink	-9.17742
▁ought	-9.17759
▁tooth	-9.17759
▁worst	-9.17761
▁cale	-9.17801
▁heat	-9.17911
▁swing	-9.18095
▁ohh	-9.18297
▁leader	-9.18454
▁bath	-9.18587
▁leg	-9.18682
▁ar	-9.18848
▁butt	-9.18874
▁training	-9.18957
▁pro	-9.19131
▁month	-9.19337
▁pu	-9.19584
▁cop	-9.19729
do	-9.19733
▁final	-9.19889
▁waste	-9.19906
▁lived	-9.20042
▁gold	-9.20042
▁bottom	-9.20064
▁saturday	-9.20064
▁vacation	-9.20064
▁empty	-9.20065
▁poppins	-9.20065
▁center	-9.20065
▁voss	-9.20065
▁underdog	-9.20065
▁nowhere	-9.20066
▁winner	-9.20067
▁lyle	-9.2007
▁pants	-9.20084
▁spent	-9.20091
▁grade	-9.20108
the	-9.20143
ler	-9.20255
▁barker	-9.20257
▁sandy	-9.20259
▁breathe	-9.20385
▁list	-9.2049
▁moved	-9.20586
▁gotten	-9.20655
▁walking	-9.20681
▁continue	-9.20782
▁closer	-9.20785
▁z	-9.2088
off	-9.20924
▁mate	-9.20944
▁ian	-9.21336
▁note	-9.21432
di	-9.21478
me	-9.21875
▁cheer	-9.22129
▁dogs	-9.22176
▁ca	-9.22391
▁bunny	-9.22445
▁marriage	-9.22445
▁choose	-9.22445
▁court	-9.22446
▁flight	-9.22464
▁carlos	-9.22466
▁wolfman	-9.22492
▁tom	-9.22514
▁paint	-9.22554
▁heads	-9.2258
▁feels	-9.22602
▁dig	-9.22618
▁dads	-9.23125
▁victor	-9.23256
ore	-9.23609
▁curt	-9.24226
▁ed	-9.24251
▁julie	-9.24445
▁notice	-9.24538
▁pray	-9.24592
▁fellas	-9.24612
▁reading	-9.24817
▁annabel	-9.24884
▁england	-9.24884
▁focus	-9.24884
▁twice	-9.24884
▁byebye	-9.24884
▁terry	-9.24885
▁security	-9.24894
▁championship	-9.24895
ap	-9.24922
▁swim	-9.24924
▁tiny	-9.2495
▁weight	-9.24978
▁gate	-9.24994
▁seeing	-9.25082
ating	-9.25141
▁victory	-9.25175
min	-9.25364
▁missy	-9.25517
▁crying	-9.25735
▁killing	-9.25799
▁wine	-9.25804
▁cor	-9.25904
▁teacher	-9.26041
▁whose	-9.261
▁ann	-9.26362
▁ad	-9.26759
▁mountain	-9.26769
son	-9.2681
▁raise	-9.27048
▁mu	-9.27121
▁rev	-9.27129
▁dan	-9.27187
▁apart	-9.2735
▁climb	-9.27384
▁donkey	-9.27384
▁tentacular	-9.27384
▁discuss	-9.27384
▁plenty	-9.27384
▁thatll	-9.27384
▁dancing	-9.27385
▁emmet	-9.27385
▁upset	-9.27385
▁sunday	-9.27397
▁bright	-9.27398
▁information	-9.27399
▁highness	-9.27506
▁cup	-9.27513
▁tony	-9.27544
▁doin	-9.27547
▁games	-9.27796
▁seriously	-9.27865
▁curse	-9.2791
▁shed	-9.28018
▁hill	-9.28094
▁so	-9.28531
ize	-9.2878
▁pet	-9.28987
bi	-9.2899
▁takes	-9.29055
▁arms	-9.29197
▁cousin	-9.29387
▁picked	-9.29762
▁gas	-9.29789
▁bough	-9.29817
▁francis	-9.29926
▁excellent	-9.29948
▁girlfriend	-9.29948
▁gloria	-9.29948
▁claire	-9.29949
▁ugh	-9.29951
▁cell	-9.29952
▁tank	-9.29966
▁handsome	-9.29973
▁katie	-9.29994
▁james	-9.30006
▁shop	-9.30013
▁lesson	-9.30044
▁usually	-9.30048
▁huge	-9.30074
bu	-9.30075
▁bought	-9.30084
▁putting	-9.30216
▁interested	-9.30291
▁type	-9.30415
▁va	-9.30513
mi	-9.30934
▁mar	-9.31138
▁tape	-9.31318
▁wondering	-9.31579
ally	-9.31608
ated	-9.31685
▁bucks	-9.3174
▁bi	-9.31846
▁suck	-9.31884
ki	-9.32116
ible	-9.32143
▁duck	-9.32157
▁ruin	-9.32163
▁file	-9.32165
os	-9.32278
▁ni	-9.32291
▁awful	-9.32417
▁showed	-9.32458
ud	-9.32539
▁lt	-9.32559
▁austin	-9.3258
▁brilliant	-9.3258
▁hockey	-9.3258
▁murder	-9.3258
▁private	-9.3258
▁project	-9.3258
▁lovelace	-9.3258
▁student	-9.3258
▁bottle	-9.3258
▁afford	-9.32581
▁contact	-9.32582
▁allnut	-9.32582
▁dragon	-9.32584
▁beauty	-9.32584
▁roof	-9.32584
▁grace	-9.32589
▁zone	-9.3259
▁admiral	-9.32597
▁everywhere	-9.32598
che	-9.32611
▁correct	-9.32611
▁poet	-9.32612
▁hiding	-9.32613
▁carol	-9.32773
▁wet	-9.3278
mon	-9.32856
▁fathers	-9.32886
▁stranger	-9.33195
▁mor	-9.33282
▁blows	-9.33286
▁ape	-9.3329
ction	-9.33529
▁spit	-9.33688
▁inter	-9.33798
ern	-9.33803
▁ja	-9.33838
▁sisters	-9.34024
ations	-9.34394
em	-9.34423
▁pen	-9.3453
▁color	-9.34782
▁allow	-9.34803
▁flintstone	-9.34883
▁pie	-9.35038
▁nothin	-9.35176
▁fr	-9.35182
go	-9.35199
▁fresh	-9.35225
▁abigail	-9.35283
▁challenge	-9.35283
▁difficult	-9.35283
▁ocean	-9.35283
▁offense	-9.35283
▁possibly	-9.35283
▁shouldve	-9.35283
▁tunnel	-9.35283
▁decision	-9.35283
▁truly	-9.35283
▁bug	-9.35284
▁taught	-9.35286
▁unbelievable	-9.35286
▁address	-9.35287
▁operation	-9.35289
▁zoo	-9.35302
▁royal	-9.3531
▁losing	-9.35311
▁cash	-9.35315
▁ro	-9.3533
▁stage	-9.35368
▁rose	-9.35459
▁flowers	-9.35605
▁aw	-9.35639
▁hatch	-9.35686
▁ahh	-9.35705
▁lights	-9.35732
ten	-9.35843
▁perfectly	-9.36078
▁fill	-9.36078
▁figured	-9.36131
▁lll	-9.36331
▁te	-9.36468
▁fo	-9.36551
▁to	-9.36747
▁helping	-9.36858
aw	-9.36912
bo	-9.3706
▁ju	-9.3708
▁animals	-9.37152
our	-9.37214
▁ne	-9.37319
▁ears	-9.37551
▁robot	-9.37758
ious	-9.37859
▁flower	-9.37939
▁collect	-9.38015
▁according	-9.3806
▁bravo	-9.3806
▁driving	-9.3806
▁friday	-9.3806
▁gordon	-9.3806
▁mckenna	-9.3806
▁northbrook	-9.3806
▁public	-9.3806
▁restaurant	-9.3806
▁cindy	-9.38061
▁clarence	-9.38062
▁support	-9.38062
▁department	-9.38066
▁chuckling	-9.38066
▁assignment	-9.38071
▁airport	-9.38072
▁shake	-9.38075
▁flag	-9.38078
▁edge	-9.38093
▁lonely	-9.38113
▁immediately	-9.38123
▁math	-9.38145
▁loves	-9.38163
▁whatd	-9.38233
▁bond	-9.38289
▁allowed	-9.3857
ring	-9.38637
one	-9.38861
▁using	-9.38939
ii	-9.38942
ze	-9.38997
▁dressed	-9.39301
ial	-9.39436
▁acting	-9.3978
▁cheat	-9.39782
tor	-9.40376
ence	-9.40379
▁plane	-9.40432
▁pee	-9.40601
▁base	-9.40645
▁problems	-9.40907
▁clock	-9.40918
▁elizabeth	-9.40918
▁genius	-9.40918
▁government	-9.40918
▁matthew	-9.40918
▁nonsense	-9.40918
▁syracuse	-9.40918
▁excited	-9.40918
▁fowl	-9.40918
▁ugly	-9.40918
▁nurse	-9.40918
▁beginning	-9.40919
▁lisa	-9.40923
▁dying	-9.40925
▁square	-9.40928
▁yellow	-9.40931
▁howard	-9.40931
▁exist	-9.40932
▁heck	-9.40941
▁nina	-9.40946
▁sonja	-9.4095
▁winnie	-9.40974
▁lake	-9.41111
▁amy	-9.41125
▁there	-9.41221
▁cost	-9.41238
▁charming	-9.41329
▁tail	-9.41358
med	-9.4195
▁liked	-9.4238
▁spin	-9.42711
▁he	-9.42895
▁followed	-9.42917
▁books	-9.4296
▁me	-9.43201
▁following	-9.43468
uc	-9.43662
▁paper	-9.43707
▁pan	-9.43714
▁dave	-9.43717
▁juni	-9.43806
▁asleep	-9.43859
▁balboa	-9.43859
▁built	-9.43859
▁cloud	-9.43859
▁duran	-9.43859
▁prison	-9.43859
▁science	-9.43859
▁telephone	-9.43859
▁ulysses	-9.43859
▁wilma	-9.43859
▁cheese	-9.43859
▁condition	-9.43859
▁peyton	-9.43859
▁zero	-9.43859
▁nancy	-9.43859
▁scene	-9.43859
▁hadnt	-9.4386
▁they	-9.43862
▁pru	-9.43863
▁angry	-9.43866
▁often	-9.43866
▁noise	-9.43869
▁meow	-9.43877
▁babe	-9.43886
▁weekend	-9.43893
▁sox	-9.43907
▁button	-9.43925
▁neck	-9.43935
land	-9.43943
▁carried	-9.43948
▁shape	-9.43953
▁crown	-9.43968
▁powerful	-9.4397
▁lines	-9.44062
▁nature	-9.44219
▁hook	-9.44299
▁dollars	-9.44677
▁calls	-9.44716
▁madam	-9.4481
▁states	-9.44813
▁opening	-9.4521
▁siren	-9.45276
you	-9.45297
▁goin	-9.45344
▁boo	-9.45439
▁cab	-9.4548
▁starts	-9.45507
▁dive	-9.45517
▁heading	-9.4584
ba	-9.45857
▁lots	-9.45862
▁woo	-9.46114
▁ver	-9.46246
▁crack	-9.46249
▁tu	-9.46253
▁suffer	-9.46418
▁easter	-9.46485
▁staying	-9.4649
▁doo	-9.46505
head	-9.46577
▁switch	-9.46785
▁member	-9.46828
▁scare	-9.46873
▁onto	-9.46874
▁self	-9.46875
▁aculos	-9.46889
▁boyfriend	-9.46889
▁crocodile	-9.46889
▁eagle	-9.46889
▁europe	-9.46889
▁heavyweight	-9.46889
▁italian	-9.46889
▁nightmare	-9.46889
▁midnight	-9.4689
▁contract	-9.46891
▁lawyer	-9.46893
▁saving	-9.46895
▁jason	-9.46902
▁path	-9.4692
▁soup	-9.4692
▁suddenly	-9.4693
▁wiii	-9.46953
▁yard	-9.46958
▁darkness	-9.46959
▁pool	-9.4697
▁nun	-9.46973
▁director	-9.47001
▁ex	-9.47032
▁jo	-9.47381
▁cha	-9.4778
▁immortals	-9.47933
▁bone	-9.47942
▁si	-9.4799
▁bat	-9.481
▁sta	-9.48205
kin	-9.48217
▁birds	-9.4838
▁turns	-9.48578
▁ringing	-9.48797
ock	-9.49092
▁sal	-9.49301
▁oi	-9.49508
▁invite	-9.49671
▁prepare	-9.49671
house	-9.49769
▁punch	-9.49909
▁glass	-9.49917
▁witch	-9.49942
▁snow	-9.50009
▁admit	-9.50014
▁adventure	-9.50014
▁charles	-9.50014
▁professor	-9.50014
▁shield	-9.50014
▁shoeshine	-9.50014
▁trash	-9.50014
▁clyde	-9.50014
▁cora	-9.50014
▁ellie	-9.50014
▁toast	-9.50016
▁shark	-9.50017
▁teddy	-9.5002
▁candy	-9.5002
▁pressure	-9.50024
▁barley	-9.50032
▁toula	-9.50034
▁goal	-9.50065
▁knight	-9.5008
▁size	-9.50081
▁uhoh	-9.50096
▁guest	-9.50098
end	-9.50104
▁safety	-9.50115
▁lad	-9.50122
▁grover	-9.50133
▁milk	-9.50157
▁dirty	-9.50165
▁player	-9.50167
▁gods	-9.50256
▁shower	-9.50274
▁invited	-9.50359
▁prepared	-9.50359
▁ref	-9.50385
dy	-9.50527
▁filled	-9.50589
▁trees	-9.50908
▁su	-9.51508
▁yay	-9.51521
▁pretend	-9.52589
▁turner	-9.52906
▁health	-9.52961
▁cla	-9.52964
▁oil	-9.53052
hoo	-9.53099
▁doc	-9.53113
▁orange	-9.53233
▁british	-9.5324
▁conversation	-9.5324
▁energy	-9.5324
▁heavy	-9.5324
▁journey	-9.5324
▁jungle	-9.5324
▁request	-9.5324
▁rescue	-9.5324
▁sauvage	-9.5324
▁texas	-9.5324
▁crime	-9.5324
▁within	-9.5324
▁zoc	-9.5324
▁sharp	-9.5324
▁jerk	-9.5324
▁blast	-9.53241
▁style	-9.53241
▁rosie	-9.53242
▁truck	-9.53242
▁vision	-9.53242
▁coast	-9.53243
▁blame	-9.53243
▁glory	-9.53244
▁bigger	-9.53245
▁chocolate	-9.53245
▁gentleman	-9.53254
▁rise	-9.53257
▁rush	-9.5326
▁mick	-9.53265
▁spaceship	-9.53268
▁proper	-9.53297
▁obviously	-9.53307
▁hanging	-9.53317
▁lying	-9.53325
▁cave	-9.53381
▁alien	-9.53446
▁heroes	-9.53467
▁fourth	-9.53485
▁wheel	-9.53518
ga	-9.53646
▁united	-9.53657
▁barn	-9.5367
▁brainy	-9.53953
▁ate	-9.54003
▁loser	-9.54129
but	-9.54748
▁passed	-9.55179
▁all	-9.55514
▁bow	-9.5587
▁survive	-9.56221
cy	-9.56232
▁america	-9.56283
came	-9.5638
▁aliens	-9.56392
ep	-9.56394
▁indistinct	-9.56394
▁weak	-9.56544
▁although	-9.56573
▁azrael	-9.56573
▁defend	-9.56573
▁meredith	-9.56573
▁montgomery	-9.56573
▁pygar	-9.56573
▁require	-9.56573
▁whiskey	-9.56573
▁fulton	-9.56573
▁groaning	-9.56573
▁interrupt	-9.56573
▁pocket	-9.56573
▁sugar	-9.56573
▁gather	-9.56574
▁tires	-9.56574
▁elsie	-9.5658
▁hoops	-9.56581
▁honking	-9.56582
▁romantic	-9.56583
▁spring	-9.56583
▁li	-9.56585
▁loving	-9.56586
▁sarah	-9.56588
▁bread	-9.5659
▁nope	-9.56602
▁view	-9.56609
▁dropped	-9.56617
▁kim	-9.56645
▁petey	-9.56684
▁ranger	-9.56692
▁account	-9.567
▁rocket	-9.56706
▁arrived	-9.56743
▁guns	-9.56825
▁ghost	-9.56832
▁creature	-9.56855
▁sport	-9.56885
▁bump	-9.57046
▁degrees	-9.57066
▁nut	-9.57137
▁x	-9.57272
▁parker	-9.57275
ub	-9.57489
▁or	-9.57509
▁breathing	-9.57596
▁destroyed	-9.57632
▁sooner	-9.57818
▁hawks	-9.57835
▁dry	-9.58033
▁fixed	-9.58054
hand	-9.58056
rate	-9.58091
▁bust	-9.58308
▁falling	-9.58641
▁pounds	-9.58796
▁introduce	-9.58923
▁tc	-9.58963
ise	-9.59
▁pieces	-9.59166
ung	-9.59365
down	-9.59676
ship	-9.59684
▁sports	-9.59723
board	-9.59739
▁killer	-9.59812
uff	-9.5988
▁feed	-9.59883
▁falls	-9.5989
▁due	-9.59905
▁staff	-9.60021
▁advice	-9.60021
▁ducal	-9.60021
▁horrible	-9.60021
▁mushroom	-9.60021
▁price	-9.60021
▁speech	-9.60021
▁taeko	-9.60021
▁wizard	-9.60021
▁david	-9.60022
▁merlin	-9.60022
▁simply	-9.60022
▁stretch	-9.60022
▁turtle	-9.60022
▁dennis	-9.60022
▁tower	-9.60022
▁biggest	-9.60023
▁leonard	-9.60026
▁virginia	-9.60026
▁partner	-9.60029
▁tommy	-9.60029
▁bruce	-9.6003
▁bride	-9.60032
▁dump	-9.60037
▁claim	-9.60039
▁bullet	-9.60047
▁yards	-9.6006
▁growling	-9.60086
▁cooper	-9.60089
▁panic	-9.60093
▁sub	-9.60101
▁bigfoot	-9.60101
▁paulie	-9.60104
▁mister	-9.60145
▁shame	-9.60145
▁chain	-9.60171
▁jan	-9.60255
▁heaven	-9.6038
▁appear	-9.60393
▁weapon	-9.6042
▁hoping	-9.60459
▁up	-9.60575
▁cookie	-9.60581
▁doors	-9.60659
▁fella	-9.60729
▁waited	-9.60955
▁pin	-9.60968
▁clearly	-9.60991
▁humans	-9.61046
▁cops	-9.61201
▁tear	-9.61357
▁beer	-9.61414
ier	-9.61687
ka	-9.62451
▁woods	-9.62479
▁fired	-9.62545
▁ends	-9.62575
▁landing	-9.62624
▁bringing	-9.62699
▁drinking	-9.62863
ass	-9.62948
▁steal	-9.62969
field	-9.63335
▁hearts	-9.63338
▁india	-9.63447
▁spoke	-9.63464
▁loose	-9.63466
▁suggest	-9.63546
▁kit	-9.6355
cient	-9.6358
▁akima	-9.63593
▁apologize	-9.63593
▁duke	-9.63593
▁pregnant	-9.63593
▁stadium	-9.63593
▁whether	-9.63593
▁distance	-9.63593
▁downstairs	-9.63593
▁peanut	-9.63593
▁hazel	-9.63593
▁orbit	-9.63593
▁devil	-9.63593
▁official	-9.63594
▁praise	-9.63595
▁chicago	-9.63595
▁fancy	-9.63605
▁crew	-9.63612
▁tsar	-9.63612
▁wound	-9.63618
▁shine	-9.63623
▁direction	-9.6363
▁matt	-9.63675
▁auntie	-9.63691
▁carmen	-9.63731
ized	-9.6388
▁signal	-9.63914
▁sand	-9.63918
▁ant	-9.63982
▁robots	-9.63983
▁app	-9.63998
▁nearly	-9.64006
line	-9.64043
▁sold	-9.64083
▁russian	-9.64187
▁feelings	-9.64227
ure	-9.64344
▁mile	-9.64381
▁les	-9.64521
side	-9.64529
▁cur	-9.64609
ors	-9.6484
▁germans	-9.64905
▁penguins	-9.65037
▁log	-9.65457
▁keeping	-9.65768
▁sat	-9.65801
▁pulled	-9.65949
▁farm	-9.6595
▁clears	-9.66091
▁model	-9.66115
▁interest	-9.66235
▁hip	-9.66303
ving	-9.66338
▁turning	-9.66401
▁wings	-9.66527
▁matters	-9.6654
▁sail	-9.66569
▁sa	-9.66621
fully	-9.66633
▁crash	-9.66651
▁faith	-9.66699
▁louis	-9.66968
q	-9.67001
▁flow	-9.67052
ide	-9.67066
▁total	-9.67156
▁sandwich	-9.67193
▁for	-9.67203
▁career	-9.67205
▁harm	-9.67223
▁babies	-9.67297
▁capsule	-9.67297
▁citizen	-9.67297
▁colonel	-9.67297
▁current	-9.67297
▁equipment	-9.67297
▁insane	-9.67297
▁kragle	-9.67297
▁lorenzo	-9.67297
▁memories	-9.67297
▁relationship	-9.67297
▁wrestling	-9.67297
▁crush	-9.67297
▁period	-9.67297
▁raymond	-9.67297
▁africa	-9.67297
▁supper	-9.67297
▁sobbing	-9.67297
▁fiona	-9.67297
▁prize	-9.67297
▁grandpa	-9.67298
▁calvin	-9.67299
▁stairs	-9.673
▁herd	-9.673
▁tongue	-9.67302
▁positive	-9.67303
▁desk	-9.67307
▁flame	-9.67308
▁pump	-9.67312
▁comfortable	-9.67313
▁crap	-9.67314
▁forgotten	-9.6732
▁stories	-9.67323
▁property	-9.67323
▁gross	-9.67327
▁attend	-9.6733
▁shift	-9.67331
▁basement	-9.67342
▁sever	-9.67349
▁batman	-9.67351
▁mail	-9.67358
▁goalie	-9.6736
▁fearless	-9.67364
▁flies	-9.67368
▁grave	-9.67379
▁pure	-9.67405
▁fur	-9.6741
▁keys	-9.67413
▁march	-9.67451
▁landon	-9.67525
▁rope	-9.67526
▁belt	-9.67543
▁screeching	-9.67548
▁storm	-9.67559
▁sink	-9.67588
▁of	-9.67624
▁juliet	-9.6768
▁older	-9.67776
▁add	-9.67809
▁slowly	-9.67881
▁movie	-9.67952
▁ideas	-9.6797
just	-9.68001
▁ear	-9.68005
gue	-9.68008
▁billy	-9.68123
▁coat	-9.68143
oggy	-9.6815
ism	-9.68222
ition	-9.68247
▁surprised	-9.68388
▁sale	-9.68502
ound	-9.68543
ank	-9.68733
▁knocking	-9.68782
▁everythings	-9.69398
ks	-9.69551
▁net	-9.69556
▁rec	-9.69583
▁lou	-9.69765
▁national	-9.69785
▁fighter	-9.69862
▁enter	-9.70053
▁magical	-9.70179
ett	-9.70391
ator	-9.70431
▁par	-9.70527
que	-9.70593
▁wi	-9.7062
▁tears	-9.70722
load	-9.7089
▁load	-9.70893
ave	-9.71026
▁superhero	-9.7104
ley	-9.71076
▁bertier	-9.71143
▁choir	-9.71143
▁colony	-9.71143
▁courage	-9.71143
▁device	-9.71143
▁effect	-9.71143
▁famous	-9.71143
▁grandfather	-9.71143
▁issue	-9.71143
▁recipe	-9.71143
▁rough	-9.71143
▁uniform	-9.71143
▁valley	-9.71143
▁writing	-9.71143
▁target	-9.71143
▁threw	-9.71143
▁dawn	-9.71143
▁phil	-9.71143
▁regret	-9.71143
▁root	-9.71143
▁held	-9.71144
▁boston	-9.71144
▁pedro	-9.71144
▁slave	-9.71144
▁appointment	-9.71148
▁spread	-9.71148
▁judge	-9.71149
▁alice	-9.71154
▁witness	-9.71157
▁bombay	-9.71159
▁stepford	-9.71159
▁shock	-9.71166
▁patton	-9.71166
▁central	-9.71178
▁poetry	-9.71179
▁port	-9.71193
▁fashion	-9.71198
▁flat	-9.71205
▁snap	-9.71245
▁announcer	-9.71251
▁mamma	-9.71256
▁meal	-9.71259
▁jackson	-9.71291
▁pink	-9.7131
▁powers	-9.71347
▁skate	-9.71355
▁itd	-9.71355
▁nicky	-9.71363
▁willing	-9.7138
▁winter	-9.71399
▁gasping	-9.71412
▁milly	-9.71449
▁sleeping	-9.7146
▁hooker	-9.71527
▁metal	-9.71542
▁code	-9.71591
▁hy	-9.7166
▁eaten	-9.7168
ily	-9.71777
▁lower	-9.71862
▁peter	-9.71939
▁warrior	-9.71946
▁ticket	-9.71986
▁wire	-9.71994
▁event	-9.72126
▁unit	-9.72178
her	-9.72205
▁rat	-9.72624
▁lately	-9.72789
▁trained	-9.72792
▁driver	-9.72923
▁expecting	-9.72966
ress	-9.73328
▁soldiers	-9.73379
▁prefer	-9.73409
▁touched	-9.73527
ut	-9.73688
▁bri	-9.73695
ture	-9.73725
▁nate	-9.73759
▁cars	-9.73765
▁wave	-9.73781
▁closed	-9.74094
▁stra	-9.74466
▁bl	-9.74499
▁bur	-9.74507
▁skin	-9.74565
work	-9.74726
▁pictures	-9.74755
▁spark	-9.75001
▁stole	-9.75016
▁hated	-9.75035
▁sw	-9.75056
▁bull	-9.75113
▁object	-9.75113
▁legend	-9.75142
▁agency	-9.75143
▁avoid	-9.75143
▁circus	-9.75143
▁division	-9.75143
▁durberville	-9.75143
▁effort	-9.75143
▁grandmother	-9.75143
▁guarantee	-9.75143
▁recognize	-9.75143
▁scholarship	-9.75143
▁silence	-9.75143
▁university	-9.75143
▁whispering	-9.75143
▁glenn	-9.75143
▁scratch	-9.75143
▁duty	-9.75143
▁exciting	-9.75143
▁diana	-9.75143
▁flora	-9.75143
▁sheldon	-9.75143
▁desert	-9.75143
▁demand	-9.75144
▁rice	-9.75144
▁example	-9.75145
▁permission	-9.75146
▁bruno	-9.75151
▁llke	-9.75158
▁varsity	-9.75169
▁bike	-9.7517
▁pipe	-9.75174
▁touchdown	-9.75177
▁section	-9.75179
▁mercy	-9.75247
▁wide	-9.75251
▁off	-9.75264
▁embarrassing	-9.75312
▁involved	-9.75322
▁male	-9.75377
▁wise	-9.75396
▁gain	-9.75479
▁yell	-9.755
ven	-9.75556
▁approaching	-9.75623
▁joy	-9.75649
▁wing	-9.75763
▁yelling	-9.7577
▁settled	-9.75886
▁com	-9.76027
gh	-9.76038
▁ke	-9.76256
▁sons	-9.76294
▁tied	-9.763
▁smells	-9.7634
▁uhh	-9.7666
▁higher	-9.76771
▁mayor	-9.76892
▁jumping	-9.77491
▁sk	-9.77503
▁numbers	-9.77572
cha	-9.78476
val	-9.78508
ied	-9.78732
light	-9.78769
▁champions	-9.78775
▁concern	-9.78806
▁design	-9.78808
▁fe	-9.78841
▁fields	-9.78923
▁speaks	-9.78923
▁serve	-9.7896
▁decide	-9.7897
▁hug	-9.78992
▁knights	-9.79231
▁convent	-9.79262
▁access	-9.79309
▁assistant	-9.79309
▁criminal	-9.79309
▁delicious	-9.79309
▁disturb	-9.79309
▁easier	-9.79309
▁faint	-9.79309
▁however	-9.79309
▁jazz	-9.79309
▁jealous	-9.79309
▁luther	-9.79309
▁mississippi	-9.79309
▁necessary	-9.79309
▁regular	-9.79309
▁result	-9.79309
▁social	-9.79309
▁spike	-9.79309
▁stargazer	-9.79309
▁stomach	-9.79309
▁subtitle	-9.79309
▁sunshine	-9.79309
▁vehicle	-9.79309
▁wadsworth	-9.79309
▁whistling	-9.79309
▁written	-9.79309
▁drej	-9.7931
▁frost	-9.7931
▁ralph	-9.7931
▁shirt	-9.7931
▁slide	-9.7931
▁wreck	-9.7931
▁herbert	-9.7931
▁hova	-9.7931
▁freedom	-9.7931
▁jean	-9.7931
▁wheat	-9.7931
▁pair	-9.7931
▁insist	-9.79314
▁patrick	-9.79315
▁winning	-9.79317
▁coward	-9.79337
▁boring	-9.79338
▁wherever	-9.79338
▁adam	-9.79339
▁moore	-9.79344
▁vow	-9.79359
▁whoohoo	-9.79361
▁seal	-9.79362
▁boone	-9.79363
▁cub	-9.7938
▁barely	-9.79383
▁grass	-9.79388
▁iove	-9.79395
▁began	-9.794
▁ru	-9.79422
▁secrets	-9.79489
▁exclaiming	-9.7949
▁rare	-9.79499
▁mixed	-9.79511
▁chap	-9.79513
▁indistinctly	-9.79535
▁dean	-9.79535
▁mon	-9.7958
▁belongs	-9.79583
▁mass	-9.79709
▁drum	-9.79836
ita	-9.79891
▁row	-9.79985
▁mothers	-9.80102
day	-9.80154
▁sometime	-9.8053
ov	-9.80578
▁drawing	-9.80581
▁riding	-9.80615
▁lips	-9.80763
▁not	-9.80785
▁ti	-9.80907
▁cos	-9.8094
▁bon	-9.81074
▁fingers	-9.8159
nie	-9.81598
▁gl	-9.81825
▁harder	-9.82111
▁bastards	-9.82163
▁blowing	-9.82187
▁answers	-9.82191
room	-9.82351
ina	-9.82428
▁believed	-9.82443
▁stan	-9.82488
▁search	-9.82507
ade	-9.82572
za	-9.82605
▁bless	-9.8268
▁guards	-9.82685
com	-9.82809
rn	-9.82913
▁russians	-9.83011
▁charm	-9.83034
over	-9.83122
▁disappear	-9.83157
▁talent	-9.83167
▁creatures	-9.83294
tie	-9.83295
▁chop	-9.83297
▁sweat	-9.83314
▁seek	-9.83329
▁direct	-9.8345
▁natural	-9.83475
▁guests	-9.83579
▁gee	-9.8358
▁gal	-9.83599
▁perform	-9.8364
▁opera	-9.83641
▁walked	-9.83648
▁bullshit	-9.83657
▁chamber	-9.83657
▁circle	-9.83657
▁easily	-9.83657
▁giggling	-9.83657
▁gillian	-9.83657
▁language	-9.83657
▁lenny	-9.83657
▁practically	-9.83657
▁tadashi	-9.83657
▁tuesday	-9.83657
▁bishop	-9.83657
▁caesar	-9.83657
▁dolphin	-9.83657
▁contain	-9.83657
▁drunk	-9.83657
▁eddie	-9.83658
▁holly	-9.83658
▁crystal	-9.83658
▁disease	-9.83658
▁nerve	-9.83658
▁blew	-9.83658
▁brewster	-9.8366
▁mysterious	-9.83661
▁monkey	-9.83661
▁responsibility	-9.83664
▁memory	-9.83665
▁resistance	-9.83669
▁alright	-9.8367
▁steam	-9.8367
▁franck	-9.83672
▁barbarella	-9.83675
▁mel	-9.8368
▁naked	-9.83684
▁jail	-9.83699
▁ike	-9.83701
▁swamp	-9.83723
▁friendship	-9.83728
▁portal	-9.83754
▁fairies	-9.83793
▁gary	-9.83805
▁hm	-9.83817
▁tess	-9.83829
▁bench	-9.83853
▁wor	-9.83956
▁process	-9.8412
▁pleased	-9.84295
▁er	-9.84422
▁picking	-9.84499
▁giggles	-9.84742
▁marc	-9.84835
▁buck	-9.84924
▁sha	-9.8498
▁cooking	-9.84988
▁am	-9.85439
▁mc	-9.85464
▁hon	-9.85467
▁giants	-9.85587
▁returned	-9.85589
▁wood	-9.85613
▁chase	-9.85661
▁sm	-9.85689
▁ton	-9.85865
▁moments	-9.85942
my	-9.85961
▁aye	-9.85996
▁victoria	-9.86106
mate	-9.86485
▁kinda	-9.86521
▁counting	-9.86547
▁greater	-9.8659
▁bra	-9.8701
▁keeps	-9.87055
▁shooting	-9.87409
▁weapons	-9.87677
▁fail	-9.8772
▁arrest	-9.87722
▁bark	-9.87846
▁sin	-9.87981
▁sex	-9.87992
▁bears	-9.88015
▁usual	-9.8803
▁checked	-9.88088
▁sneak	-9.8814
▁among	-9.8816
▁typ	-9.8819
▁occasion	-9.88203
▁averman	-9.88203
▁banana	-9.88203
▁callaghan	-9.88203
▁geoffrey	-9.88203
▁harper	-9.88203
▁jersey	-9.88203
▁joanna	-9.88203
▁johana	-9.88203
▁knife	-9.88203
▁neighbor	-9.88203
▁pabio	-9.88203
▁percent	-9.88203
▁progress	-9.88203
▁responsible	-9.88203
▁servant	-9.88203
▁someday	-9.88203
▁subject	-9.88203
▁twitch	-9.88203
▁understood	-9.88203
▁whinnying	-9.88203
▁whispers	-9.88203
▁whoever	-9.88203
▁jerry	-9.88203
▁option	-9.88203
▁patient	-9.88203
▁screen	-9.88203
▁helen	-9.88203
▁route	-9.88203
▁await	-9.88203
▁wlli	-9.88203
▁saint	-9.88203
▁ellen	-9.88203
▁local	-9.88203
▁invisible	-9.88205
▁humming	-9.88206
▁baseball	-9.88211
▁cheap	-9.88213
▁common	-9.88213
▁judy	-9.88217
▁orangemen	-9.88219
▁study	-9.88222
▁quarterback	-9.88228
▁guardian	-9.88242
▁skill	-9.88243
▁award	-9.88253
▁nora	-9.8826
▁artist	-9.88262
▁liar	-9.88267
▁nasty	-9.88281
▁batter	-9.88294
▁betty	-9.88342
▁film	-9.88345
gan	-9.8836
▁apple	-9.88434
▁passion	-9.88436
▁jam	-9.88589
▁carter	-9.8865
▁failed	-9.88703
▁personally	-9.88706
we	-9.88726
▁brad	-9.888
▁raised	-9.88842
▁deeply	-9.88937
▁manage	-9.88992
▁ruined	-9.89075
▁cares	-9.89091
▁twins	-9.89196
ney	-9.89253
▁plant	-9.89338
▁highly	-9.89648
▁knee	-9.89653
▁bastard	-9.89791
▁nana	-9.89889
▁pound	-9.89891
▁gu	-9.89896
▁toes	-9.90056
▁titans	-9.90103
▁kicking	-9.90346
▁runs	-9.90447
▁aha	-9.90832
▁seats	-9.90894
▁ram	-9.91004
are	-9.91329
▁che	-9.91515
fore	-9.92095
▁shout	-9.92374
▁release	-9.92605
▁tick	-9.92673
▁wheels	-9.92731
▁under	-9.92761
▁express	-9.92909
▁character	-9.9296
▁applause	-9.92965
▁champagne	-9.92965
▁deloris	-9.92965
▁dietrich	-9.92965
▁floyd	-9.92965
▁foreign	-9.92965
▁germaine	-9.92965
▁hefty	-9.92965
▁intelligent	-9.92965
▁lancelot	-9.92965
▁lieutenant	-9.92965
▁neighborhood	-9.92965
▁newspaper	-9.92965
▁opinion	-9.92965
▁traffic	-9.92965
▁trophy	-9.92965
▁cruel	-9.92965
▁enemy	-9.92965
▁honeymoon	-9.92965
▁spoil	-9.92965
▁twist	-9.92965
▁video	-9.92965
▁beeping	-9.92965
▁damage	-9.92965
▁fuel	-9.92965
▁ogre	-9.92965
▁physical	-9.92965
▁mouse	-9.92965
▁cloe	-9.92966
▁guppy	-9.92968
▁bald	-9.92969
▁trapped	-9.92973
▁height	-9.92975
▁schedule	-9.92984
▁drax	-9.92988
▁fake	-9.92989
▁reverse	-9.9299
▁maiden	-9.92991
▁poem	-9.92995
▁familiar	-9.92996
▁connie	-9.92997
▁clubber	-9.93006
▁francisco	-9.93006
▁puck	-9.93016
▁neat	-9.93017
▁orion	-9.93031
▁gem	-9.93036
▁hammer	-9.93039
▁title	-9.93042
▁diet	-9.93043
▁market	-9.93044
▁yearold	-9.93046
▁loan	-9.9306
▁create	-9.93075
▁tune	-9.93085
▁explorer	-9.93118
▁julius	-9.93127
▁homework	-9.93156
▁stable	-9.93163
▁thee	-9.93164
▁scottie	-9.93209
▁cabin	-9.93218
▁loss	-9.93226
▁emotional	-9.93226
▁page	-9.9323
▁cage	-9.93237
cra	-9.93454
▁warning	-9.93482
▁cast	-9.93498
ming	-9.93543
▁plus	-9.93548
▁opened	-9.93676
▁jewels	-9.9368
▁fate	-9.9374
rain	-9.93763
▁can	-9.93805
▁stealing	-9.93822
▁letting	-9.93827
▁apes	-9.93836
let	-9.93843
▁signs	-9.93865
▁realized	-9.93982
▁wipe	-9.93985
▁sol	-9.9417
▁surely	-9.94458
▁engineer	-9.94689
▁kicked	-9.9473
▁vin	-9.94781
▁hearing	-9.94809
ball	-9.9491
▁friendly	-9.94987
▁younger	-9.9508
▁messed	-9.95179
row	-9.95274
ef	-9.95421
▁cad	-9.9571
tra	-9.95904
▁ac	-9.96106
iest	-9.96217
▁ding	-9.96354
▁stor	-9.96372
▁nick	-9.96435
▁reporter	-9.9663
▁ld	-9.96737
▁yells	-9.96763
han	-9.96811
▁tickets	-9.96904
lar	-9.96963
▁units	-9.96976
▁ted	-9.97021
▁rip	-9.97162
▁rod	-9.97256
▁leaves	-9.97297
▁hop	-9.97386
eth	-9.9747
▁bum	-9.975
▁exact	-9.97789
▁losers	-9.97892
▁gettin	-9.97893
▁rocks	-9.97919
▁champ	-9.97941
▁audition	-9.97965
▁desire	-9.97965
▁edmund	-9.97965
▁emperor	-9.97965
▁gardner	-9.97965
▁gibberish	-9.97965
▁glorious	-9.97965
▁gorilla	-9.97965
▁literally	-9.97965
▁luigi	-9.97965
▁museum	-9.97965
▁paradise	-9.97965
▁particular	-9.97965
▁qyack	-9.97965
▁research	-9.97965
▁surrender	-9.97965
▁therapy	-9.97965
▁wilkins	-9.97965
▁wolfgang	-9.97965
▁wouid	-9.97965
▁cotton	-9.97965
▁decent	-9.97965
▁negro	-9.97965
▁ouch	-9.97965
▁zurg	-9.97965
▁caul	-9.97965
▁limit	-9.97965
▁luke	-9.97965
▁commercial	-9.97965
▁slate	-9.97968
▁martin	-9.97968
▁peasant	-9.9797
▁planned	-9.97971
▁monday	-9.97972
▁planning	-9.97972
▁mask	-9.97972
▁swimming	-9.97976
▁campbell	-9.97977
▁lightyear	-9.97984
▁chart	-9.97985
▁marine	-9.97993
▁piano	-9.97995
▁apparently	-9.97997
▁titanic	-9.98
▁bedroom	-9.98005
▁tricks	-9.98011
▁alba	-9.98012
▁brian	-9.98013
▁rude	-9.98015
▁shore	-9.98015
▁data	-9.98021
▁hung	-9.98024
▁wallet	-9.98032
▁apartment	-9.98035
▁firm	-9.9804
▁disgusting	-9.98047
▁plate	-9.98059
▁mentor	-9.98062
▁laughter	-9.98074
▁castle	-9.98075
▁gim	-9.98076
▁professional	-9.98077
▁rub	-9.98102
▁eden	-9.98104
▁led	-9.98121
▁stolen	-9.98124
▁impressed	-9.98132
▁pill	-9.98135
▁moms	-9.98214
▁papers	-9.98217
ory	-9.9823
▁pilot	-9.98342
▁latest	-9.98523
▁dish	-9.98562
▁copy	-9.98602
▁chi	-9.98681
▁noticed	-9.98689
▁inn	-9.98913
▁para	-9.99232
ay	-9.99301
▁players	-9.99325
ok	-9.99376
ome	-9.99377
▁painting	-9.99386
ipping	-9.99405
▁reached	-9.9942
▁scream	-9.99447
▁burning	-9.99452
car	-9.99521
▁y	-9.9963
▁windows	-9.99632
pack	-9.99667
ark	-9.99726
▁butts	-9.99731
ium	-9.99919
▁ye	-9.99986
▁owner	-10
▁thy	-10.0017
▁letters	-10.0023
▁mol	-10.003
▁mac	-10.0042
▁depends	-10.0057
▁growing	-10.006
▁kissed	-10.0064
▁parking	-10.0095
▁tip	-10.011
ummy	-10.018
▁mill	-10.0188
▁wins	-10.0202
▁pulling	-10.0226
▁tim	-10.0247
▁approach	-10.026
▁ants	-10.026
▁chatter	-10.0263
▁steps	-10.0269
▁rate	-10.0278
gged	-10.0286
▁creep	-10.0293
▁piss	-10.0296
▁grove	-10.0307
▁leo	-10.0309
▁tapes	-10.0309
▁robert	-10.0312
▁politic	-10.0323
▁achieve	-10.0323
▁attitude	-10.0323
▁barsinister	-10.0323
▁complicated	-10.0323
▁dwarf	-10.0323
▁elephant	-10.0323
▁female	-10.0323
▁garbage	-10.0323
▁hendricks	-10.0323
▁holiday	-10.0323
▁kgys	-10.0323
▁magnificent	-10.0323
▁mmmhmm	-10.0323
▁otherwise	-10.0323
▁revolution	-10.0323
▁volcano	-10.0323
▁wednesday	-10.0323
▁carriage	-10.0323
▁debbie	-10.0323
▁generous	-10.0323
▁outfit	-10.0323
▁pride	-10.0323
▁shadow	-10.0323
▁theater	-10.0323
▁value	-10.0323
▁bedrock	-10.0323
▁junk	-10.0323
▁philip	-10.0323
▁sherry	-10.0323
▁costume	-10.0323
▁grateful	-10.0323
▁washington	-10.0323
▁granger	-10.0323
▁regent	-10.0323
▁instructions	-10.0323
▁loski	-10.0323
▁mood	-10.0323
▁crawl	-10.0323
▁hector	-10.0323
▁community	-10.0323
▁gen	-10.0323
▁helmet	-10.0324
▁cancel	-10.0324
▁weii	-10.0324
▁lousy	-10.0324
▁merry	-10.0324
▁actress	-10.0326
▁barney	-10.0328
▁france	-10.0328
▁assure	-10.0328
▁roman	-10.0328
▁exit	-10.0329
▁chosen	-10.0333
▁oni	-10.0336
▁opens	-10.0342
▁ila	-10.0344
▁scary	-10.0353
▁jr	-10.0361
oh	-10.0368
▁honestly	-10.037
▁cow	-10.0371
▁louise	-10.0376
▁kingman	-10.038
▁lab	-10.0384
▁ln	-10.0389
▁flintstones	-10.0402
▁we	-10.0419
▁lit	-10.0424
▁mid	-10.0427
▁suffering	-10.0435
zi	-10.0452
▁drag	-10.0458
▁counter	-10.0496
▁breaking	-10.051
▁expected	-10.0522
▁towards	-10.0527
▁pot	-10.0558
▁what	-10.0558
▁shoulder	-10.056
▁soldier	-10.0562
▁gum	-10.057
away	-10.0581
▁joined	-10.0605
▁medi	-10.064
can	-10.0644
▁tag	-10.0647
▁exp	-10.0649
vin	-10.0667
▁knees	-10.0689
▁cleaning	-10.069
▁leading	-10.0733
▁fed	-10.0742
of	-10.0748
bil	-10.0795
looking	-10.0815
▁ace	-10.0833
▁wrestle	-10.0839
▁flip	-10.0845
▁grant	-10.0846
roll	-10.0852
gle	-10.0858
af	-10.0866
▁ships	-10.0868
▁whee	-10.0877
▁adult	-10.0878
▁affair	-10.0878
▁amount	-10.0878
▁apollo	-10.0878
▁brooklyn	-10.0878
▁cassandra	-10.0878
▁cigarette	-10.0878
▁compliment	-10.0878
▁expensive	-10.0878
▁experiment	-10.0878
▁fabulous	-10.0878
▁florida	-10.0878
▁granada	-10.0878
▁insult	-10.0878
▁irwin	-10.0878
▁kornpett	-10.0878
▁marmalade	-10.0878
▁metaphor	-10.0878
▁military	-10.0878
▁precisely	-10.0878
▁solution	-10.0878
▁someplace	-10.0878
▁source	-10.0878
▁supplies	-10.0878
▁unhappy	-10.0878
▁whinnies	-10.0878
▁borrow	-10.0878
▁bubble	-10.0878
▁essence	-10.0878
▁forbidden	-10.0878
▁smash	-10.0878
▁couch	-10.0878
▁couid	-10.0878
▁flash	-10.0878
▁laurie	-10.0878
▁leerie	-10.0878
▁lonnie	-10.0878
▁prescott	-10.0878
▁priest	-10.0878
▁daniel	-10.0878
▁prevent	-10.0878
▁smiling	-10.0878
▁attic	-10.0878
▁changing	-10.0878
▁intend	-10.0878
▁grew	-10.0878
▁krei	-10.0878
▁expert	-10.0878
▁flesh	-10.0878
▁flew	-10.0878
▁balloon	-10.0878
▁grip	-10.0878
▁niko	-10.0878
▁colin	-10.0878
▁plain	-10.0878
▁pleasant	-10.0879
▁morris	-10.0879
▁scale	-10.0879
▁dust	-10.0879
▁piease	-10.0879
▁happiness	-10.0879
▁sasha	-10.0879
▁precious	-10.0879
▁fought	-10.0879
while	-10.0879
▁flack	-10.0879
▁secure	-10.0879
▁isle	-10.088
▁behavior	-10.088
▁shaking	-10.088
▁behold	-10.088
▁soap	-10.0881
▁assume	-10.0881
▁dummy	-10.0881
▁stallion	-10.0882
▁kitty	-10.0882
▁noble	-10.0882
▁jade	-10.0882
▁grizzly	-10.0883
▁tuck	-10.0883
▁whale	-10.0884
▁ciao	-10.0885
▁tour	-10.0886
▁conway	-10.0887
▁shaw	-10.0888
▁mental	-10.089
▁anton	-10.0892
▁rick	-10.0894
▁equal	-10.0894
▁cape	-10.0903
▁hitting	-10.0903
▁peru	-10.0903
▁nest	-10.0904
▁customer	-10.0909
▁useless	-10.091
▁whod	-10.0918
▁chat	-10.0919
▁down	-10.0935
▁spare	-10.0937
▁ron	-10.0945
pin	-10.0949
▁badge	-10.0959
▁blessing	-10.0961
ong	-10.0962
▁transfer	-10.0963
▁who	-10.0964
▁scored	-10.0972
▁biscuits	-10.0981
▁gay	-10.0986
▁split	-10.0991
kov	-10.0992
▁destroyer	-10.0994
▁wishes	-10.0996
▁measure	-10.1005
▁lovers	-10.1013
▁mountains	-10.1019
▁paris	-10.1025
▁makeup	-10.1025
▁legal	-10.1029
fish	-10.1035
bon	-10.1055
▁iron	-10.1072
▁selling	-10.1075
▁exc	-10.1081
tal	-10.1084
ude	-10.1103
▁skull	-10.1147
▁fully	-10.1151
▁indians	-10.1152
▁finger	-10.1154
▁beside	-10.1156
▁ham	-10.1161
▁tradition	-10.1171
▁skulls	-10.1189
▁toys	-10.119
tro	-10.1202
▁toy	-10.1208
▁watched	-10.1214
▁bud	-10.1226
▁talkin	-10.1227
▁boats	-10.1233
▁testing	-10.1237
▁inc	-10.1285
▁staring	-10.1291
▁changes	-10.1294
con	-10.1322
▁cap	-10.1324
▁scar	-10.1341
sky	-10.1342
kins	-10.1345
▁movies	-10.1362
▁forces	-10.1377
▁pops	-10.1393
ward	-10.1402
▁bang	-10.1408
▁disappoint	-10.1413
▁screw	-10.1414
▁ghosts	-10.142
tar	-10.1421
▁whip	-10.1424
▁divorce	-10.1431
foot	-10.1434
▁dirt	-10.1438
▁announce	-10.1446
▁remove	-10.1447
▁boot	-10.1448
▁warn	-10.145
▁slight	-10.1455
▁somethin	-10.1456
▁electric	-10.1464
▁inform	-10.1465
▁organ	-10.1466
▁civil	-10.1467
▁available	-10.1467
▁beindorf	-10.1467
▁century	-10.1467
▁cinderella	-10.1467
▁collier	-10.1467
▁confidence	-10.1467
▁dagger	-10.1467
▁education	-10.1467
▁extraordinary	-10.1467
▁families	-10.1467
▁fifteen	-10.1467
▁ignore	-10.1467
▁imagination	-10.1467
▁include	-10.1467
▁jessie	-10.1467
▁license	-10.1467
▁monsieur	-10.1467
▁murmuring	-10.1467
▁neruda	-10.1467
▁ordinary	-10.1467
▁oxygen	-10.1467
▁rotten	-10.1467
▁sergeant	-10.1467
▁shouid	-10.1467
▁sweep	-10.1467
▁thirty	-10.1467
▁transmooker	-10.1467
▁beatrice	-10.1467
▁closing	-10.1467
▁clue	-10.1467
▁feast	-10.1467
▁filthy	-10.1467
▁location	-10.1467
▁product	-10.1467
▁rameses	-10.1467
▁recently	-10.1467
▁reverend	-10.1467
▁sengh	-10.1467
▁silver	-10.1467
▁ufc	-10.1467
▁anchor	-10.1467
▁chinese	-10.1467
▁eminence	-10.1467
▁stiles	-10.1467
▁strict	-10.1467
▁balance	-10.1467
▁invest	-10.1467
▁tavern	-10.1467
▁details	-10.1467
▁perkis	-10.1467
▁scoffs	-10.1467
▁executive	-10.1467
▁basketball	-10.1467
▁cowboy	-10.1467
▁upbea	-10.1467
▁shopping	-10.1467
▁conference	-10.1467
▁trail	-10.1468
▁gorgeous	-10.1468
▁iook	-10.1468
▁turkey	-10.1468
▁navy	-10.1468
▁impressive	-10.1468
▁operator	-10.1468
▁attractive	-10.1468
▁growls	-10.1468
▁jimmy	-10.1468
▁believing	-10.1469
▁dropping	-10.1469
▁chasing	-10.147
▁aboard	-10.1473
▁lila	-10.1474
▁prime	-10.1474
▁kip	-10.1475
▁lick	-10.1476
▁raph	-10.1477
▁guilty	-10.1483
▁jb	-10.1484
▁mall	-10.1485
▁witches	-10.1486
▁alan	-10.1491
▁surrounded	-10.1493
▁goat	-10.1494
▁provided	-10.1495
▁enchanted	-10.1496
▁lack	-10.1499
▁iet	-10.15
▁fallen	-10.15
▁patch	-10.1506
▁russ	-10.1507
▁rent	-10.1512
▁clay	-10.152
▁pity	-10.1522
▁grown	-10.1526
▁arrested	-10.1532
▁disappeared	-10.1535
▁solve	-10.1543
graph	-10.1544
▁mud	-10.1553
▁created	-10.1554
▁forth	-10.1561
▁agreed	-10.1563
▁hurting	-10.1588
▁hire	-10.1595
▁carefully	-10.16
▁au	-10.1625
▁sob	-10.1627
▁sucker	-10.1631
▁robb	-10.1647
▁shelly	-10.1652
▁traveling	-10.1653
▁santa	-10.1666
▁non	-10.1685
▁brakes	-10.1696
▁noon	-10.1702
▁gune	-10.1704
▁terms	-10.1714
▁ned	-10.1719
zy	-10.1725
▁carrying	-10.1736
▁begins	-10.1736
▁lied	-10.1738
▁fans	-10.1738
▁jumped	-10.1744
▁hen	-10.1744
▁teaching	-10.1757
▁scores	-10.1758
▁husbands	-10.1765
▁odd	-10.1771
▁u	-10.1772
▁depend	-10.1773
▁ordered	-10.1782
▁signed	-10.1782
▁maria	-10.1783
▁buzzing	-10.1788
ox	-10.1809
▁gifts	-10.1815
▁and	-10.1838
ump	-10.1863
▁hunt	-10.1953
▁warriors	-10.1961
▁rats	-10.1966
▁sending	-10.198
▁bid	-10.1991
▁mere	-10.1991
▁sec	-10.2002
▁ali	-10.2009
▁cass	-10.203
▁gene	-10.2039
▁gran	-10.2052
▁complain	-10.2053
▁yup	-10.2069
▁ste	-10.208
▁rap	-10.2085
▁photo	-10.2091
▁apology	-10.2092
▁attempt	-10.2092
▁bennell	-10.2092
▁california	-10.2092
▁clown	-10.2092
▁companion	-10.2092
▁destiny	-10.2092
▁disgrace	-10.2092
▁donnagon	-10.2092
▁exhales	-10.2092
▁explanation	-10.2092
▁feather	-10.2092
▁governor	-10.2092
▁harrison	-10.2092
▁hustle	-10.2092
▁insurance	-10.2092
▁jeez	-10.2092
▁jonathan	-10.2092
▁lonnegan	-10.2092
▁macdonald	-10.2092
▁mirror	-10.2092
▁mystery	-10.2092
▁negative	-10.2092
▁opportunity	-10.2092
▁peopie	-10.2092
▁phantom	-10.2092
▁quality	-10.2092
▁rainbow	-10.2092
▁senior	-10.2092
▁splendid	-10.2092
▁spretzle	-10.2092
▁surface	-10.2092
▁underneath	-10.2092
▁unusual	-10.2092
▁wasabi	-10.2092
▁whenever	-10.2092
▁yabbadabbadoo	-10.2092
▁committee	-10.2092
▁desperate	-10.2092
▁egypt	-10.2092
▁fifty	-10.2092
▁individual	-10.2092
▁instant	-10.2092
▁manticore	-10.2092
▁produce	-10.2092
▁repair	-10.2092
▁smooth	-10.2092
▁becoming	-10.2092
▁cherry	-10.2092
▁fetch	-10.2092
▁yoast	-10.2092
▁glove	-10.2092
▁skinny	-10.2092
▁gym	-10.2092
▁jones	-10.2092
▁uther	-10.2092
▁alpha	-10.2092
▁photograph	-10.2092
▁whooping	-10.2092
▁diner	-10.2092
▁sauce	-10.2092
▁wives	-10.2093
▁miami	-10.2093
▁failure	-10.2093
▁guide	-10.2093
▁golf	-10.2093
▁narnia	-10.2093
▁owns	-10.2094
▁principal	-10.2094
▁solid	-10.2094
▁soda	-10.2095
▁villain	-10.2095
▁stopping	-10.2096
▁gang	-10.2097
▁fade	-10.2097
▁engraving	-10.2098
▁unfortunately	-10.2098
▁whas	-10.21
▁aii	-10.21
▁secretary	-10.21
irring	-10.2101
▁chef	-10.2102
▁collection	-10.2102
▁members	-10.2105
▁junior	-10.2106
▁celebrate	-10.2108
▁protection	-10.2111
▁glasses	-10.2112
▁lars	-10.2113
▁annoying	-10.2114
▁machines	-10.212
▁pit	-10.2122
▁received	-10.2136
▁kite	-10.2138
▁bel	-10.214
▁nailed	-10.2143
▁inf	-10.2144
▁screwed	-10.2145
▁union	-10.2146
bra	-10.2148
▁mia	-10.2149
▁rob	-10.2152
▁ended	-10.2154
▁paying	-10.216
▁designed	-10.2168
▁searching	-10.2185
▁af	-10.2197
▁bay	-10.2231
ky	-10.2234
▁scan	-10.2256
▁tend	-10.2272
▁it	-10.2281
▁swa	-10.2282
▁bend	-10.2293
▁pirates	-10.2296
▁sr	-10.2312
▁closet	-10.2325
▁nail	-10.2328
▁whi	-10.2329
▁kno	-10.2335
▁walls	-10.2336
▁mona	-10.2346
▁corn	-10.2347
▁doctors	-10.2369
▁gra	-10.238
▁backup	-10.2384
▁wee	-10.2384
bble	-10.2429
▁indian	-10.2443
▁tri	-10.2448
▁shoulders	-10.2466
▁helped	-10.2471
itch	-10.2475
▁pig	-10.2483
nce	-10.2521
▁plants	-10.2534
▁fishing	-10.2537
▁rein	-10.2566
▁lap	-10.2578
ake	-10.2595
rage	-10.2613
ept	-10.2645
rdy	-10.265
itt	-10.2654
▁tale	-10.2655
lk	-10.2664
▁statue	-10.2666
▁remembered	-10.2668
tte	-10.2684
▁appears	-10.2686
▁nasa	-10.2701
▁americans	-10.2702
▁mount	-10.2706
▁thrill	-10.2706
▁you	-10.2718
▁refuse	-10.2724
▁arrive	-10.2726
▁earn	-10.2731
national	-10.2733
▁weigh	-10.2734
▁thorn	-10.2737
▁chose	-10.2746
ple	-10.2748
▁mmhm	-10.2753
▁improve	-10.2755
▁commit	-10.2755
▁success	-10.2756
▁twenty	-10.2758
▁behalf	-10.2758
▁carpathia	-10.2758
▁cloak	-10.2758
▁defensive	-10.2758
▁enormous	-10.2758
▁excalibur	-10.2758
▁exhibit	-10.2758
▁headquarters	-10.2758
▁hyperspeed	-10.2758
▁including	-10.2758
▁innocent	-10.2758
▁jemima	-10.2758
▁justice	-10.2758
▁lagoon	-10.2758
▁league	-10.2758
▁lydia	-10.2758
▁mystic	-10.2758
▁opposite	-10.2758
▁plaza	-10.2758
▁quarry	-10.2758
▁rabbit	-10.2758
▁reception	-10.2758
▁relative	-10.2758
▁rewind	-10.2758
▁rommel	-10.2758
▁rubbish	-10.2758
▁scientist	-10.2758
▁shrink	-10.2758
▁stammering	-10.2758
▁supreme	-10.2758
▁thursday	-10.2758
▁toilet	-10.2758
▁vacuum	-10.2758
▁whimpering	-10.2758
▁clever	-10.2758
▁formula	-10.2758
▁pigeon	-10.2758
▁rookie	-10.2758
▁sicily	-10.2758
▁silent	-10.2758
▁andrea	-10.2758
▁hooray	-10.2758
▁martha	-10.2758
▁protest	-10.2758
▁spray	-10.2758
▁distract	-10.2758
▁largo	-10.2758
▁stood	-10.2758
▁bodies	-10.2758
▁daisy	-10.2758
▁echo	-10.2758
▁authorities	-10.2758
▁beeps	-10.2758
▁coyle	-10.2758
▁farren	-10.2758
▁minor	-10.2758
▁roast	-10.2758
▁racing	-10.2758
▁analy	-10.2759
▁yasmin	-10.2759
▁johnny	-10.2759
▁whyd	-10.2759
▁leak	-10.2759
▁bryan	-10.2759
▁deck	-10.2759
▁tackle	-10.2759
▁awake	-10.2759
▁blanket	-10.2759
▁herb	-10.2759
▁miserable	-10.276
▁urgent	-10.276
▁garage	-10.276
▁lava	-10.276
▁argue	-10.276
▁depth	-10.276
▁impression	-10.276
▁sheet	-10.276
▁whoops	-10.2761
▁bru	-10.2761
▁coordinates	-10.2761
▁frozen	-10.2761
▁blah	-10.2762
▁hyah	-10.2762
▁jimbo	-10.2762
▁cities	-10.2762
▁deaf	-10.2762
▁exam	-10.2763
▁motor	-10.2763
▁squad	-10.2764
▁dang	-10.2764
▁iike	-10.2765
▁onion	-10.2765
▁string	-10.2765
▁brick	-10.2766
▁chew	-10.2766
▁fence	-10.2767
▁birth	-10.2767
▁shade	-10.2768
▁labor	-10.2769
▁freshman	-10.277
▁laser	-10.277
▁marie	-10.2771
▁shave	-10.2772
▁gig	-10.2773
▁standard	-10.2775
▁deb	-10.2776
▁butter	-10.2777
▁comin	-10.2777
▁jen	-10.2778
▁cutting	-10.278
▁lump	-10.278
▁alter	-10.2781
▁sailor	-10.2781
▁wailing	-10.2783
▁aaa	-10.2785
▁forty	-10.2788
iff	-10.2788
▁itch	-10.279
▁cantrow	-10.2804
▁frightened	-10.2805
▁awfully	-10.2807
▁highest	-10.2811
▁sweater	-10.2812
▁hike	-10.2816
▁healthy	-10.282
▁rear	-10.2822
▁clip	-10.2823
▁fal	-10.2827
▁prob	-10.2828
izing	-10.2828
▁domin	-10.2831
▁classes	-10.2834
▁tax	-10.2838
▁concerned	-10.284
▁taco	-10.2842
▁hired	-10.2848
▁chickens	-10.2854
▁frye	-10.2867
▁hah	-10.287
▁gotcha	-10.2875
what	-10.2882
▁cod	-10.2903
▁cousins	-10.2909
▁oldest	-10.291
▁drown	-10.2912
▁mentioned	-10.2914
▁timeout	-10.2914
▁nation	-10.2916
▁threaten	-10.2917
▁stronger	-10.2934
▁checking	-10.2934
▁sup	-10.2939
▁prayers	-10.2944
▁bags	-10.2945
▁armed	-10.2954
▁heroics	-10.2975
▁don	-10.2981
▁ms	-10.3018
ppy	-10.3031
▁skip	-10.3035
▁ending	-10.3038
jo	-10.305
like	-10.3052
▁beard	-10.3079
ddle	-10.3082
▁thousands	-10.3091
▁winding	-10.3108
▁spa	-10.3109
▁showing	-10.3112
▁odds	-10.3114
▁messing	-10.3164
▁parent	-10.3164
▁creat	-10.3192
ja	-10.3208
▁receive	-10.3211
▁salt	-10.3211
▁learning	-10.3234
▁mil	-10.324
ax	-10.3257
▁tro	-10.3288
▁passing	-10.3294
▁slip	-10.3303
▁gut	-10.3313
port	-10.3324
▁fielding	-10.3331
▁hum	-10.3347
▁unh	-10.3365
▁float	-10.3408
▁cal	-10.3414
hold	-10.3415
▁develop	-10.3417
▁sim	-10.3419
▁chip	-10.3421
▁frighten	-10.3425
▁provide	-10.3439
▁replace	-10.344
fire	-10.3446
cliff	-10.3447
phone	-10.3452
▁incredibl	-10.3452
▁terribl	-10.3452
▁absolute	-10.3455
▁actual	-10.3455
▁rehears	-10.3464
▁toot	-10.3467
▁entertain	-10.3469
▁magazine	-10.3473
▁ashamed	-10.3473
▁astronaut	-10.3473
▁barbara	-10.3473
▁byzanium	-10.3473
▁charlene	-10.3473
▁circumstances	-10.3473
▁duane	-10.3473
▁entrance	-10.3473
▁exercise	-10.3473
▁explosion	-10.3473
▁favour	-10.3473
▁fortune	-10.3473
▁griselda	-10.3473
▁henderson	-10.3473
▁journal	-10.3473
▁kibner	-10.3473
▁length	-10.3473
▁minnesota	-10.3473
▁necklace	-10.3473
▁noodles	-10.3473
▁orphan	-10.3473
▁prophecy	-10.3473
▁rooster	-10.3473
▁rumbling	-10.3473
▁sacrifice	-10.3473
▁snarling	-10.3473
▁splash	-10.3473
▁vegetarian	-10.3473
▁victim	-10.3473
▁violence	-10.3473
▁whisrles	-10.3473
▁wyldstyle	-10.3473
▁client	-10.3473
▁disaster	-10.3473
▁pathetic	-10.3473
▁pearl	-10.3473
▁slept	-10.3473
▁slomo	-10.3473
▁temper	-10.3473
▁violin	-10.3473
▁wicked	-10.3473
▁flood	-10.3473
▁gerti	-10.3473
▁brotherhood	-10.3473
▁milner	-10.3473
▁pipp	-10.3473
▁palace	-10.3473
▁whew	-10.3473
▁brand	-10.3473
▁punk	-10.3473
▁penny	-10.3473
▁habit	-10.3473
▁plot	-10.3473
▁material	-10.3473
▁caddie	-10.3473
▁gear	-10.3473
▁underwater	-10.3473
▁ladder	-10.3473
▁freezing	-10.3473
▁activity	-10.3473
▁earlier	-10.3473
▁sunset	-10.3473
▁dramatic	-10.3473
▁authority	-10.3473
▁myth	-10.3473
▁rico	-10.3474
▁fruit	-10.3474
▁steady	-10.3474
▁playoffs	-10.3474
▁howl	-10.3474
▁despi	-10.3474
▁association	-10.3474
▁construction	-10.3474
▁possession	-10.3474
▁buried	-10.3474
▁addition	-10.3474
▁fran	-10.3474
▁bounce	-10.3474
▁attach	-10.3474
▁curious	-10.3474
▁pecan	-10.3474
▁runner	-10.3475
▁pillow	-10.3475
▁mummy	-10.3476
▁zap	-10.3476
tail	-10.3476
▁happily	-10.3476
▁electricity	-10.3476
▁drain	-10.3477
▁demo	-10.3477
▁defi	-10.3478
▁stock	-10.3478
▁colt	-10.3478
▁geez	-10.3479
▁extremely	-10.3479
▁groom	-10.3479
▁jock	-10.348
▁stall	-10.348
▁stack	-10.3481
▁disco	-10.3481
▁injured	-10.3482
▁fox	-10.3483
▁rash	-10.3483
▁potion	-10.3484
▁june	-10.3485
▁taxi	-10.3485
▁drill	-10.3485
▁hans	-10.3486
▁mint	-10.3486
▁chill	-10.3486
▁darn	-10.3486
▁doll	-10.349
▁theme	-10.3491
▁lang	-10.3491
▁stare	-10.3491
▁superheroes	-10.3492
bar	-10.3492
▁presentation	-10.3494
▁embarrassed	-10.3497
▁decker	-10.3498
▁ripped	-10.3503
▁forgetting	-10.3503
▁arranged	-10.3505
▁farty	-10.3505
▁microbots	-10.351
▁poke	-10.351
ron	-10.3512
▁paw	-10.3514
▁hail	-10.3516
▁inch	-10.3516
▁medica	-10.3517
▁sch	-10.3518
▁ken	-10.3521
▁disappointed	-10.3534
ttie	-10.3535
▁steven	-10.3536
▁poo	-10.3551
▁vice	-10.3551
▁banging	-10.3552
ail	-10.3563
▁now	-10.3567
▁based	-10.3571
▁entirely	-10.3575
▁actor	-10.3578
▁kat	-10.3604
▁colored	-10.3609
▁feeding	-10.361
▁ap	-10.3615
▁clicks	-10.3633
▁nah	-10.3649
ame	-10.366
not	-10.3661
▁il	-10.3668
▁offered	-10.3676
▁knocked	-10.3706
▁attacked	-10.3709
▁mode	-10.3712
▁cruise	-10.3718
▁doom	-10.3722
▁peel	-10.3738
▁til	-10.3741
▁signor	-10.3756
▁tit	-10.377
▁guts	-10.3774
▁treasure	-10.3781
▁hairy	-10.3782
▁den	-10.3785
▁covered	-10.3789
ette	-10.3793
unc	-10.3832
nic	-10.3852
▁marrying	-10.3858
▁mare	-10.3912
▁iii	-10.3915
▁landed	-10.3915
▁flu	-10.3921
▁titan	-10.3922
▁snake	-10.3925
▁term	-10.3925
▁heel	-10.3929
▁here	-10.4024
ob	-10.4027
▁waves	-10.4072
▁ping	-10.4127
▁walker	-10.4139
▁pep	-10.4152
oohoo	-10.4157
▁heavens	-10.416
erina	-10.4162
▁slam	-10.4162
▁brief	-10.4178
▁boil	-10.4187
▁defeat	-10.4191
▁delight	-10.4196
west	-10.4196
ati	-10.4199
▁retire	-10.4203
▁arrange	-10.4208
udge	-10.4212
▁fort	-10.4214
shot	-10.4215
book	-10.4217
▁corps	-10.4222
▁immediate	-10.4224
box	-10.4229
▁council	-10.4237
▁comfort	-10.4238
▁lemon	-10.4241
▁vegeta	-10.4242
▁academy	-10.4242
▁ambulance	-10.4242
▁anxious	-10.4242
▁audience	-10.4242
▁bammbamm	-10.4242
▁bratitude	-10.4242
▁ceremony	-10.4242
▁chimpanzee	-10.4242
▁colwyn	-10.4242
▁competition	-10.4242
▁durbeyfield	-10.4242
▁eventually	-10.4242
▁exchange	-10.4242
▁excitement	-10.4242
▁execution	-10.4242
▁farquaad	-10.4242
▁footsteps	-10.4242
▁huddle	-10.4242
▁illegal	-10.4242
▁knuckle	-10.4242
▁lyssa	-10.4242
▁montrose	-10.4242
▁oclock	-10.4242
▁pacific	-10.4242
▁patricia	-10.4242
▁permanent	-10.4242
▁pharaoh	-10.4242
▁pizza	-10.4242
▁policy	-10.4242
▁promotion	-10.4242
▁pursuit	-10.4242
▁recommend	-10.4242
▁reggie	-10.4242
▁relieve	-10.4242
▁reputation	-10.4242
▁ruffin	-10.4242
▁syndicate	-10.4242
▁unknown	-10.4242
▁valuable	-10.4242
▁vardon	-10.4242
▁waponi	-10.4242
▁coronation	-10.4242
▁craven	-10.4242
▁document	-10.4242
▁explode	-10.4242
▁fuzzy	-10.4242
▁rabies	-10.4242
▁suspect	-10.4242
▁welsh	-10.4242
▁beardsley	-10.4242
▁ibm	-10.4242
▁japanese	-10.4242
▁pattern	-10.4242
▁poison	-10.4242
▁anytime	-10.4242
▁chirp	-10.4242
▁reign	-10.4242
▁tomato	-10.4242
▁troops	-10.4242
▁betray	-10.4242
▁herman	-10.4242
▁albert	-10.4242
▁drew	-10.4242
▁mathmos	-10.4242
▁thatd	-10.4242
▁terrified	-10.4242
▁wretche	-10.4242
▁sunny	-10.4242
▁rib	-10.4242
▁tennis	-10.4242
▁whoville	-10.4242
▁medal	-10.4242
▁theory	-10.4242
▁remark	-10.4242
▁display	-10.4242
▁kidnapped	-10.4242
▁fortress	-10.4242
▁link	-10.4242
▁capcom	-10.4243
▁lean	-10.4243
▁robinson	-10.4243
▁claude	-10.4243
▁dining	-10.4243
▁honks	-10.4243
▁hailey	-10.4243
▁springfield	-10.4243
▁trace	-10.4243
▁ojo	-10.4244
▁delightful	-10.4244
▁lunchbox	-10.4244
▁concentrate	-10.4245
▁sogo	-10.4245
▁joking	-10.4245
▁terminat	-10.4245
▁peaches	-10.4245
▁shane	-10.4246
▁elise	-10.4246
▁monty	-10.4246
▁manual	-10.4246
▁original	-10.4247
▁successful	-10.4247
▁sentence	-10.4248
▁gundy	-10.4248
▁bored	-10.4248
▁email	-10.4249
▁mice	-10.4249
▁aside	-10.425
▁topsy	-10.425
▁rack	-10.4251
▁blonde	-10.4251
▁rehearsal	-10.4251
▁determined	-10.4252
▁fries	-10.4252
▁turk	-10.4253
▁pace	-10.4253
▁beings	-10.4256
▁dishes	-10.4258
▁alas	-10.4262
▁sandwiches	-10.4264
▁fog	-10.4264
boy	-10.4267
▁manager	-10.4267
▁indiana	-10.4268
▁cliff	-10.427
▁annu	-10.4271
▁aim	-10.4271
▁mist	-10.4272
▁pitt	-10.4273
▁naturally	-10.4275
▁rem	-10.4281
▁ew	-10.4288
▁confirmed	-10.4289
▁sixth	-10.4297
▁pm	-10.4299
▁fleet	-10.4299
▁squealing	-10.4301
▁bush	-10.4303
▁risin	-10.4311
▁floating	-10.4312
▁bass	-10.4313
▁fist	-10.4314
▁visitor	-10.4321
▁dock	-10.4322
▁psycho	-10.4325
ght	-10.4342
▁loaded	-10.4345
▁ki	-10.4346
▁louder	-10.4346
▁slipp	-10.4349
▁speaker	-10.4351
▁comb	-10.4365
▁hunter	-10.4372
▁escaped	-10.4393
▁locker	-10.4402
▁claws	-10.4415
▁accepted	-10.4432
▁rd	-10.4434
▁indicate	-10.4448
▁wit	-10.4463
▁del	-10.4476
▁dreaming	-10.4485
▁preed	-10.4487
▁chicks	-10.4495
mal	-10.45
▁ty	-10.4519
▁singer	-10.4528
sha	-10.4564
▁heels	-10.4576
▁moral	-10.4584
▁tar	-10.4584
zer	-10.4591
▁ay	-10.4603
▁wak	-10.4603
▁mutt	-10.4619
▁pigs	-10.4631
▁laps	-10.4632
▁mer	-10.4634
▁ski	-10.4655
ford	-10.4659
▁cleaned	-10.4674
▁boots	-10.4681
▁tales	-10.4694
▁owners	-10.4739
▁masterbuilder	-10.4751
yard	-10.4751
▁toward	-10.4757
▁hawk	-10.4759
▁brake	-10.476
▁swor	-10.4764
for	-10.4771
▁ravi	-10.478
▁signing	-10.4782
▁wrap	-10.481
ham	-10.4817
▁auto	-10.4861
▁mend	-10.4878
▁dancer	-10.4902
▁workin	-10.492
▁dar	-10.4951
▁bot	-10.4986
▁programme	-10.4987
eral	-10.4995
ified	-10.5003
▁beating	-10.5008
▁squeal	-10.5011
▁confirm	-10.5022
▁graduate	-10.504
eight	-10.5046
town	-10.505
▁capture	-10.5055
▁obvious	-10.5057
▁conquer	-10.506
case	-10.5063
▁prim	-10.5065
stone	-10.5066
▁russia	-10.5066
ode	-10.5069
▁qua	-10.5074
▁basket	-10.5074
▁broad	-10.5074
▁accent	-10.5075
▁applaud	-10.5075
▁abdullah	-10.5075
▁absurd	-10.5075
▁afterwards	-10.5075
▁alexander	-10.5075
▁amateur	-10.5075
▁amigo	-10.5075
▁arguing	-10.5075
▁ashira	-10.5075
▁athletic	-10.5075
▁behave	-10.5075
▁beloved	-10.5075
▁beneath	-10.5075
▁district	-10.5075
▁elevator	-10.5075
▁eliminate	-10.5075
▁explosiveskull	-10.5075
▁felix	-10.5075
▁furniture	-10.5075
▁garrett	-10.5075
▁gondorff	-10.5075
▁healthcare	-10.5075
▁intelligence	-10.5075
▁invitation	-10.5075
▁ketchup	-10.5075
▁labyrinth	-10.5075
▁lunatic	-10.5075
▁marvelous	-10.5075
▁medicine	-10.5075
▁mitchell	-10.5075
▁monitor	-10.5075
▁nikki	-10.5075
▁ninja	-10.5075
▁philadelphia	-10.5075
▁phoebe	-10.5075
▁phoeni	-10.5075
▁purple	-10.5075
▁relief	-10.5075
▁response	-10.5075
▁rhyme	-10.5075
▁rhythm	-10.5075
▁routine	-10.5075
▁shaikh	-10.5075
▁sheryl	-10.5075
▁snyder	-10.5075
▁soccer	-10.5075
▁struggle	-10.5075
▁stubborn	-10.5075
▁survival	-10.5075
▁symbol	-10.5075
▁technology	-10.5075
▁temperature	-10.5075
▁thrust	-10.5075
▁tremendous	-10.5075
▁twelve	-10.5075
▁tyrant	-10.5075
▁underwear	-10.5075
▁vocalizing	-10.5075
▁volunteer	-10.5075
▁whimpers	-10.5075
▁yield	-10.5075
▁adorable	-10.5075
▁confused	-10.5075
▁constant	-10.5075
▁elbow	-10.5075
▁korso	-10.5075
▁maintain	-10.5075
▁referee	-10.5075
▁tentacle	-10.5075
▁towel	-10.5075
▁charity	-10.5075
▁stammers	-10.5075
▁submar	-10.5075
▁sunrise	-10.5075
▁woke	-10.5075
▁cantonese	-10.5075
▁retard	-10.5075
▁sherman	-10.5075
▁ronny	-10.5075
▁slot	-10.5075
▁spear	-10.5075
▁thick	-10.5075
▁bunk	-10.5075
▁gently	-10.5075
▁justin	-10.5075
▁cheek	-10.5075
▁drug	-10.5075
▁ease	-10.5075
▁knowledge	-10.5075
▁larry	-10.5075
▁blaring	-10.5075
▁toad	-10.5075
▁digging	-10.5075
▁uhuh	-10.5075
▁bold	-10.5075
▁oops	-10.5075
▁hollywood	-10.5075
▁increase	-10.5076
▁struck	-10.5076
▁mambo	-10.5076
▁delay	-10.5076
▁lamb	-10.5076
▁sonny	-10.5076
▁resist	-10.5076
▁blade	-10.5076
▁puppy	-10.5076
▁item	-10.5076
▁stevenson	-10.5076
▁tsk	-10.5077
▁stool	-10.5077
▁firebird	-10.5077
▁poll	-10.5077
▁estate	-10.5078
▁traitor	-10.5078
▁wimp	-10.5078
▁trap	-10.5078
jesse	-10.5078
▁juice	-10.5079
▁veer	-10.5079
▁brush	-10.5079
▁beef	-10.5079
▁lazy	-10.5079
▁grail	-10.5079
▁messina	-10.508
▁announcement	-10.508
▁concert	-10.5081
▁roam	-10.5081
▁potatoes	-10.5081
▁williamson	-10.5081
▁motion	-10.5082
▁scout	-10.5082
▁proof	-10.5083
▁puff	-10.5083
▁fascinating	-10.5084
▁fame	-10.5085
▁tur	-10.5085
▁karp	-10.5086
▁grandson	-10.5087
stair	-10.5087
▁clare	-10.5087
▁lamp	-10.5089
▁janie	-10.5089
▁twink	-10.509
▁trial	-10.509
▁gail	-10.5091
▁task	-10.5091
▁china	-10.5091
▁approved	-10.5092
▁domino	-10.5092
gloss	-10.5094
▁bien	-10.5094
▁anger	-10.5094
▁barry	-10.5094
▁izzy	-10.5095
▁capable	-10.5095
▁engaged	-10.5095
▁boof	-10.5096
▁jet	-10.5096
▁convinced	-10.5098
▁formation	-10.5098
▁discovered	-10.51
▁heal	-10.51
▁exception	-10.5102
▁bound	-10.5103
▁pour	-10.5103
▁thas	-10.5103
▁bout	-10.5103
▁spoken	-10.5107
▁earl	-10.5108
▁established	-10.5108
▁invented	-10.5113
▁clicking	-10.5113
▁goose	-10.5114
ities	-10.5116
▁chanting	-10.5118
rita	-10.5118
▁grabb	-10.512
▁andy	-10.5121
▁captured	-10.5126
▁haunt	-10.5126
▁delighted	-10.5131
▁oss	-10.5131
▁ob	-10.5136
▁mayol	-10.5138
▁earned	-10.514
▁que	-10.5141
▁matty	-10.5147
▁plug	-10.5147
▁served	-10.5147
▁normally	-10.5156
▁roy	-10.516
▁lifetime	-10.5162
▁hunting	-10.5164
▁survived	-10.5166
▁this	-10.5169
▁gin	-10.5173
▁hoped	-10.5173
▁cath	-10.5173
▁timing	-10.5181
▁passes	-10.5183
laid	-10.5183
▁frankly	-10.5186
▁ol	-10.5207
▁toe	-10.5207
▁crashing	-10.5225
▁sailing	-10.5226
▁cheated	-10.5231
▁ohhh	-10.5235
▁buzzer	-10.5244
▁stew	-10.5252
▁cracking	-10.5259
▁exclaims	-10.5265
▁cheating	-10.5274
▁coo	-10.5275
post	-10.5278
▁pod	-10.5285
▁safely	-10.53
▁ava	-10.5311
▁pad	-10.5315
loom	-10.5316
▁muscles	-10.5322
▁crossed	-10.5328
▁farmer	-10.5328
ack	-10.5348
▁cutters	-10.5381
▁offering	-10.5382
▁freaking	-10.5397
▁drawer	-10.5399
▁laughed	-10.5406
▁washed	-10.5409
▁masterbuilders	-10.541
nut	-10.5425
▁aid	-10.5439
▁snakes	-10.544
▁protecting	-10.5445
▁mum	-10.5447
▁nu	-10.5483
▁fooling	-10.5508
tan	-10.5522
▁rolling	-10.5547
hut	-10.5578
▁shoe	-10.5605
▁shoo	-10.5643
▁gasp	-10.5651
nel	-10.5656
▁immortal	-10.5668
▁kissing	-10.5671
▁cutter	-10.5703
▁deed	-10.5705
read	-10.5744
▁mob	-10.5756
▁lip	-10.5764
▁magnet	-10.577
▁cleaner	-10.5784
▁sho	-10.5788
▁prov	-10.5799
▁site	-10.5825
▁magn	-10.5894
▁screech	-10.591
▁bleed	-10.592
▁ach	-10.5936
▁qui	-10.5953
right	-10.5954
bridge	-10.5959
guard	-10.5959
free	-10.596
▁fil	-10.5961
born	-10.5961
▁lame	-10.5967
inned	-10.5969
▁frog	-10.5972
▁morgan	-10.5972
rick	-10.5973
▁involve	-10.5974
▁runnin	-10.5974
▁select	-10.598
▁assign	-10.5981
▁thou	-10.5983
▁dom	-10.5984
through	-10.5984
▁occur	-10.5984
▁respond	-10.5984
▁affirmative	-10.5984
▁ambassador	-10.5984
▁assistance	-10.5984
▁avenue	-10.5984
▁awkward	-10.5984
▁aziz	-10.5984
▁beautifui	-10.5984
▁bicycle	-10.5984
▁cactus	-10.5984
▁capital	-10.5984
▁certificate	-10.5984
▁cheerleader	-10.5984
▁comrade	-10.5984
▁confident	-10.5984
▁delicate	-10.5984
▁demonstration	-10.5984
▁discipline	-10.5984
▁empire	-10.5984
▁enemies	-10.5984
▁incandesto	-10.5984
▁interview	-10.5984
▁jesuit	-10.5984
▁jimothy	-10.5984
▁lloyd	-10.5984
▁longhorns	-10.5984
▁loretta	-10.5984
▁luggage	-10.5984
▁naughty	-10.5984
▁occup	-10.5984
▁orchestra	-10.5984
▁picnic	-10.5984
▁possibility	-10.5984
▁potential	-10.5984
▁practicing	-10.5984
▁rejoice	-10.5984
▁satisfied	-10.5984
▁seminar	-10.5984
▁sleeve	-10.5984
▁society	-10.5984
▁splinter	-10.5984
▁tattoo	-10.5984
▁theatre	-10.5984
▁thirsty	-10.5984
▁underground	-10.5984
▁vitruvius	-10.5984
▁wisdom	-10.5984
▁wrightwood	-10.5984
▁bargain	-10.5984
▁eleven	-10.5984
▁finley	-10.5984
▁install	-10.5984
▁penalty	-10.5984
▁resort	-10.5984
▁signature	-10.5984
▁unique	-10.5984
▁adrian	-10.5984
▁beetle	-10.5984
▁budget	-10.5984
▁calculations	-10.5984
▁darren	-10.5984
▁frown	-10.5984
▁otter	-10.5984
▁refund	-10.5984
▁fierce	-10.5984
▁regard	-10.5984
▁riley	-10.5984
▁shotgun	-10.5984
▁steak	-10.5984
▁donald	-10.5984
▁hush	-10.5984
▁tempt	-10.5984
▁surf	-10.5984
▁thief	-10.5984
▁amusing	-10.5984
▁incoming	-10.5984
▁oui	-10.5984
▁slap	-10.5984
▁doyle	-10.5984
▁superior	-10.5984
▁generation	-10.5984
▁drove	-10.5984
▁franklin	-10.5984
▁foul	-10.5984
▁presence	-10.5984
▁centr	-10.5984
▁flipper	-10.5984
▁shiny	-10.5984
▁brandnew	-10.5984
▁candle	-10.5984
▁freddie	-10.5984
▁skirt	-10.5984
▁begging	-10.5984
▁allamerican	-10.5984
▁bidding	-10.5985
▁candie	-10.5985
▁forfeit	-10.5985
▁text	-10.5985
▁downtown	-10.5985
▁mustache	-10.5985
▁grizzlies	-10.5985
▁modern	-10.5985
▁bind	-10.5985
▁eternal	-10.5985
▁communication	-10.5985
▁lightning	-10.5985
▁huntington	-10.5985
▁bradley	-10.5986
▁fuss	-10.5986
▁greetings	-10.5986
▁sample	-10.5986
▁aware	-10.5986
▁critical	-10.5986
▁seren	-10.5987
▁existence	-10.5987
▁hippo	-10.5987
▁rubble	-10.5987
▁fever	-10.5987
ville	-10.5988
▁connection	-10.5988
lapping	-10.5988
▁patrol	-10.5988
▁financ	-10.5989
▁shelby	-10.5989
▁doorbell	-10.599
▁modest	-10.599
▁heavily	-10.599
▁curry	-10.599
▁foam	-10.599
▁christian	-10.5991
▁philosophy	-10.5991
▁overtime	-10.5992
▁chili	-10.5992
▁comment	-10.5992
▁marty	-10.5992
▁conduct	-10.5993
▁tubes	-10.5993
▁knockout	-10.5993
▁expression	-10.5993
▁technically	-10.5994
▁amongst	-10.5994
▁eise	-10.5994
▁dick	-10.5995
▁ack	-10.5996
▁luisa	-10.5996
▁angle	-10.5997
▁fbi	-10.5997
▁harmon	-10.5998
▁cries	-10.5999
▁executed	-10.5999
▁recovery	-10.6
▁spies	-10.6002
▁spain	-10.6003
▁compared	-10.6004
▁teen	-10.6005
▁mock	-10.6008
▁buckley	-10.601
▁bait	-10.601
▁hugg	-10.6011
▁iea	-10.6012
▁chest	-10.6012
▁demon	-10.6015
▁acky	-10.6015
▁rum	-10.6015
▁kar	-10.6015
▁tries	-10.6016
▁bean	-10.6016
linda	-10.6017
▁loosen	-10.6018
▁toss	-10.6019
▁solo	-10.6019
▁steer	-10.6021
▁reasonable	-10.6023
▁chet	-10.6025
▁retired	-10.6026
▁superman	-10.6027
▁cia	-10.6028
five	-10.603
▁shutter	-10.6033
▁squeaking	-10.6043
▁sniffing	-10.6043
missile	-10.6044
state	-10.6045
▁sexy	-10.6045
▁dial	-10.6049
▁wrestler	-10.6049
▁hack	-10.605
▁matches	-10.6053
▁perfection	-10.6057
▁managed	-10.6058
▁wage	-10.606
▁briefing	-10.6062
face	-10.6064
▁tender	-10.6069
▁rider	-10.6093
▁talented	-10.6094
▁searched	-10.6096
▁dip	-10.61
▁shy	-10.6108
▁blown	-10.6115
▁learnt	-10.6121
▁lone	-10.6126
▁zorgons	-10.6127
▁manners	-10.6128
▁cro	-10.6139
▁hint	-10.6144
▁entering	-10.6144
▁the	-10.6205
▁considered	-10.6206
▁treated	-10.6214
▁worthy	-10.6216
▁weirdo	-10.6229
▁belly	-10.623
▁delivered	-10.6231
▁sham	-10.625
▁recording	-10.6314
▁hun	-10.6323
▁poster	-10.6343
▁enjoyed	-10.6352
▁fooled	-10.6357
uit	-10.6369
▁joey	-10.6374
eau	-10.6378
put	-10.641
▁retrieve	-10.6437
▁wondered	-10.6476
itating	-10.6481
▁propos	-10.6512
▁formal	-10.6551
▁cosm	-10.6645
▁chick	-10.666
▁pirate	-10.6663
onic	-10.6681
▁heroic	-10.6701
hop	-10.6705
▁sig	-10.6708
▁unti	-10.6711
▁disable	-10.6744
▁mini	-10.676
▁cre	-10.6788
▁tone	-10.6804
▁gus	-10.6811
van	-10.6811
▁trans	-10.6827
mmer	-10.6863
opping	-10.6869
▁rag	-10.688
night	-10.69
▁she	-10.6901
▁sniff	-10.6918
▁squeak	-10.692
▁abandon	-10.6932
▁download	-10.6933
▁enchant	-10.6934
▁will	-10.6946
▁reno	-10.6946
▁mix	-10.6947
▁advance	-10.6948
owned	-10.695
place	-10.6955
▁guilt	-10.6955
piece	-10.696
life	-10.696
▁crow	-10.6962
▁shove	-10.6962
well	-10.6963
bury	-10.6969
▁fry	-10.6971
▁gentle	-10.6979
fortunately	-10.6981
▁attract	-10.6981
▁loyal	-10.6982
four	-10.6982
ically	-10.6982
▁greet	-10.6982
▁instruct	-10.6984
▁decorat	-10.6984
▁advantage	-10.6984
▁airplane	-10.6984
▁ancestors	-10.6984
▁aqua	-10.6984
▁bartolini	-10.6984
▁breast	-10.6984
▁charmaine	-10.6984
▁chemical	-10.6984
▁cleveland	-10.6984
▁coincidence	-10.6984
▁corcoran	-10.6984
▁corridor	-10.6984
▁coughing	-10.6984
▁dawson	-10.6984
▁dazzling	-10.6984
▁dedicated	-10.6984
▁diamond	-10.6984
▁disguise	-10.6984
▁dorothea	-10.6984
▁ducksworth	-10.6984
▁embassy	-10.6984
▁employee	-10.6984
▁escort	-10.6984
▁evidence	-10.6984
▁exhausted	-10.6984
▁fernandes	-10.6984
▁fridge	-10.6984
▁gadget	-10.6984
▁gracious	-10.6984
▁hauptmannkoenig	-10.6984
▁hidden	-10.6984
▁horizon	-10.6984
▁japan	-10.6984
▁kangaroo	-10.6984
▁krupp	-10.6984
▁lengyel	-10.6984
▁library	-10.6984
▁memphis	-10.6984
▁muffled	-10.6984
▁mumbling	-10.6984
▁nigger	-10.6984
▁ouimet	-10.6984
▁passenger	-10.6984
▁procedure	-10.6984
▁racehorse	-10.6984
▁represent	-10.6984
▁rhonda	-10.6984
▁slayers	-10.6984
▁snips	-10.6984
▁survivor	-10.6984
▁swallow	-10.6984
▁tatianna	-10.6984
▁television	-10.6984
▁territory	-10.6984
▁unexpected	-10.6984
▁xavier	-10.6984
▁alexandr	-10.6984
▁audible	-10.6984
▁average	-10.6984
▁cannon	-10.6984
▁dallas	-10.6984
▁dinky	-10.6984
▁julianna	-10.6984
▁kimberly	-10.6984
▁reserve	-10.6984
▁sensitive	-10.6984
▁torture	-10.6984
▁winslow	-10.6984
▁boogie	-10.6984
▁fifth	-10.6984
▁gibb	-10.6984
▁habib	-10.6984
▁lailailailai	-10.6984
▁mulch	-10.6984
▁observe	-10.6984
▁razor	-10.6984
▁rifle	-10.6984
▁snack	-10.6984
▁widow	-10.6984
▁collar	-10.6984
▁diva	-10.6984
▁mvp	-10.6984
▁reckon	-10.6984
▁slice	-10.6984
▁element	-10.6984
▁contest	-10.6984
▁credit	-10.6984
▁rapids	-10.6984
▁facing	-10.6984
▁chores	-10.6984
▁fanny	-10.6984
▁relay	-10.6984
▁salad	-10.6984
▁barrel	-10.6984
▁hyper	-10.6984
▁diane	-10.6984
▁fold	-10.6984
▁basic	-10.6984
▁illusion	-10.6984
▁alert	-10.6985
▁commission	-10.6985
▁depress	-10.6985
▁breed	-10.6985
▁maniac	-10.6985
▁communist	-10.6985
▁leap	-10.6985
▁drift	-10.6985
▁basically	-10.6985
▁jewelry	-10.6985
▁highpi	-10.6985
▁rumble	-10.6986
▁pond	-10.6986
▁grandchildren	-10.6986
▁auction	-10.6986
▁crook	-10.6986
▁obey	-10.6986
▁range	-10.6986
▁romero	-10.6986
▁necktie	-10.6986
▁jockey	-10.6986
▁superpower	-10.6986
▁confession	-10.6986
▁stalk	-10.6986
▁hiya	-10.6987
▁furious	-10.6987
form	-10.6987
▁ergo	-10.6987
▁suitcase	-10.6987
▁ayah	-10.6987
▁gunfire	-10.6987
▁saddle	-10.6987
▁logical	-10.6987
▁christina	-10.6987
▁firewood	-10.6988
▁translat	-10.6988
▁romance	-10.6988
▁raven	-10.6988
▁fried	-10.6988
▁kong	-10.6988
▁glow	-10.6989
▁grownup	-10.6989
▁mickey	-10.6989
▁ooo	-10.6989
▁brody	-10.6989
▁swell	-10.6989
▁starfish	-10.6989
▁kab	-10.699
▁dickon	-10.699
stein	-10.699
▁spill	-10.6991
▁tyre	-10.6991
▁unlike	-10.6991
▁belief	-10.6991
▁cheerio	-10.6991
▁oooh	-10.6992
▁decei	-10.6992
▁romeo	-10.6992
▁princeton	-10.6992
▁starving	-10.6992
▁reward	-10.6993
▁ruth	-10.6993
▁maid	-10.6994
▁anti	-10.6994
▁gaze	-10.6994
▁hirota	-10.6994
▁stealth	-10.6995
know	-10.6996
▁hallowe	-10.6996
▁qualified	-10.6997
▁sack	-10.6997
▁troll	-10.6997
▁strategy	-10.6998
▁spotted	-10.6999
▁craft	-10.6999
▁personality	-10.7001
▁tech	-10.7001
▁johnson	-10.7002
▁emily	-10.7002
▁twinkle	-10.7003
▁robin	-10.7005
▁mansion	-10.7005
▁roberto	-10.7006
▁worm	-10.7007
▁contr	-10.7007
▁bedtime	-10.7008
▁toll	-10.7009
▁booth	-10.7009
▁statu	-10.7012
▁realise	-10.7012
▁corpse	-10.7012
▁haha	-10.7014
▁slightly	-10.7016
▁musician	-10.7018
▁sym	-10.7018
▁bobbin	-10.7019
▁polly	-10.7021
▁roaring	-10.7022
▁inspired	-10.7025
▁cock	-10.7027
▁daylight	-10.7029
ected	-10.7036
amore	-10.704
▁goodnight	-10.7041
▁sang	-10.7042
▁creepy	-10.7042
▁souther	-10.7043
▁divorced	-10.7046
▁guin	-10.7047
▁setup	-10.7048
▁defeated	-10.7052
▁threatened	-10.7061
▁lawn	-10.7074
▁warned	-10.7074
▁softly	-10.7075
▁granted	-10.7082
▁bury	-10.7088
▁loudly	-10.7092
oid	-10.7092
▁ringo	-10.7099
▁blessed	-10.7107
bell	-10.7118
▁tot	-10.7119
▁entered	-10.7124
▁wast	-10.7127
▁pest	-10.7128
▁rank	-10.7136
▁bent	-10.7139
erial	-10.714
▁underestimate	-10.7144
gri	-10.7161
▁heed	-10.7163
▁pete	-10.7165
▁ang	-10.7172
ingham	-10.7187
▁mikey	-10.7191
▁pretending	-10.7196
▁bare	-10.7211
▁packed	-10.7222
▁magnetic	-10.723
▁quested	-10.7233
ook	-10.7244
identifi	-10.7245
▁painful	-10.7252
▁marked	-10.7271
▁rode	-10.7276
▁trea	-10.7296
▁county	-10.7306
▁wrappe	-10.7315
▁casey	-10.7323
▁lan	-10.7364
▁shi	-10.7391
▁workers	-10.7394
▁painter	-10.7404
▁arr	-10.7473
▁propose	-10.7482
year	-10.7513
▁tin	-10.7536
▁encourage	-10.7567
▁divers	-10.7618
▁declare	-10.7621
▁slu	-10.7661
nders	-10.7692
▁fee	-10.7741
▁thin	-10.7743
that	-10.7748
▁muscle	-10.7771
▁dollar	-10.7787
▁tub	-10.7809
tched	-10.782
your	-10.7826
▁starter	-10.7874
▁taki	-10.7906
▁chris	-10.7909
▁scum	-10.793
▁classic	-10.7944
eval	-10.7947
▁et	-10.7955
range	-10.7968
▁slug	-10.7972
▁chuck	-10.8024
iate	-10.8026
▁invent	-10.804
berry	-10.8041
▁prop	-10.8045
▁surround	-10.8045
maker	-10.8047
▁connect	-10.8059
power	-10.8068
print	-10.8069
break	-10.807
▁marsha	-10.808
▁merc	-10.8084
▁detect	-10.8087
▁norma	-10.8089
▁threat	-10.8089
▁mam	-10.8091
▁transport	-10.8092
▁clin	-10.8092
hole	-10.8093
▁specific	-10.8094
▁gorge	-10.8095
▁buckle	-10.8095
▁intention	-10.8095
▁priorit	-10.8095
▁virtu	-10.8095
▁anyhow	-10.8095
▁archbishop	-10.8095
▁athlete	-10.8095
▁beaumont	-10.8095
▁biology	-10.8095
▁brearh	-10.8095
▁campaign	-10.8095
▁casual	-10.8095
▁catholic	-10.8095
▁complex	-10.8095
▁conclusion	-10.8095
▁continent	-10.8095
▁cupcake	-10.8095
▁cyril	-10.8095
▁destination	-10.8095
▁disrupt	-10.8095
▁dreadful	-10.8095
▁dwayne	-10.8095
▁dynamite	-10.8095
▁eberhart	-10.8095
▁evergiot	-10.8095
▁fitzroyce	-10.8095
▁griffen	-10.8095
▁grimsdyke	-10.8095
▁guinevere	-10.8095
▁guvnor	-10.8095
▁hallelujah	-10.8095
▁hawaii	-10.8095
▁hawthorne	-10.8095
▁holmes	-10.8095
▁hurdle	-10.8095
▁instinct	-10.8095
▁invade	-10.8095
▁isiand	-10.8095
▁judgment	-10.8095
▁kablowey	-10.8095
▁laundry	-10.8095
▁lewis	-10.8095
▁mackenzie	-10.8095
▁marshmallow	-10.8095
▁maximum	-10.8095
▁medlock	-10.8095
▁mermaid	-10.8095
▁moonwind	-10.8095
▁motorcycle	-10.8095
▁nephew	-10.8095
▁nicholas	-10.8095
▁obstacle	-10.8095
▁odile	-10.8095
▁perceval	-10.8095
▁perfume	-10.8095
▁plastic	-10.8095
▁popcorn	-10.8095
▁popular	-10.8095
▁privilege	-10.8095
▁purchase	-10.8095
▁rajeev	-10.8095
▁reject	-10.8095
▁resource	-10.8095
▁savage	-10.8095
▁scraps	-10.8095
▁skeleton	-10.8095
▁sneeze	-10.8095
▁souvenir	-10.8095
▁species	-10.8095
▁specimen	-10.8095
▁squeeze	-10.8095
▁steuby	-10.8095
▁stupendous	-10.8095
▁suicide	-10.8095
▁supervisor	-10.8095
▁thomas	-10.8095
▁thomson	-10.8095
▁tournament	-10.8095
▁trajectory	-10.8095
▁ultimate	-10.8095
▁underpants	-10.8095
▁urdu	-10.8095
▁violet	-10.8095
▁armando	-10.8095
▁combination	-10.8095
▁garner	-10.8095
▁geneva	-10.8095
▁heartbeat	-10.8095
▁heisman	-10.8095
▁hindu	-10.8095
▁irene	-10.8095
▁notify	-10.8095
▁profit	-10.8095
▁revenge	-10.8095
▁sacred	-10.8095
▁beeper	-10.8095
▁bluenote	-10.8095
▁carrots	-10.8095
▁cosimo	-10.8095
▁creek	-10.8095
▁dentist	-10.8095
▁dozen	-10.8095
▁holiness	-10.8095
▁oliver	-10.8095
▁sensor	-10.8095
▁thumb	-10.8095
▁update	-10.8095
▁colour	-10.8095
▁distant	-10.8095
▁kerby	-10.8095
▁lobby	-10.8095
▁niece	-10.8095
▁otho	-10.8095
▁palermo	-10.8095
▁polish	-10.8095
▁supply	-10.8095
▁proceed	-10.8095
▁rattle	-10.8095
▁chancing	-10.8095
▁oath	-10.8095
▁permit	-10.8095
▁sleepyhead	-10.8095
▁kenny	-10.8095
▁mooch	-10.8095
▁spoon	-10.8095
▁mostly	-10.8095
▁educate	-10.8095
▁chlle	-10.8095
▁earrings	-10.8095
▁palmer	-10.8095
▁avery	-10.8095
phony	-10.8095
▁pepper	-10.8095
▁region	-10.8095
▁oak	-10.8095
▁riot	-10.8095
▁spider	-10.8095
▁narrow	-10.8095
▁dawes	-10.8095
▁fuck	-10.8095
▁graduation	-10.8095
▁moaning	-10.8096
▁bedell	-10.8096
▁benny	-10.8096
▁dort	-10.8096
▁seduc	-10.8096
▁spiritual	-10.8096
▁susan	-10.8096
▁scheme	-10.8096
▁blink	-10.8096
▁shining	-10.8096
▁teammates	-10.8096
▁trisha	-10.8096
▁dork	-10.8096
▁laurence	-10.8096
▁pronounce	-10.8096
▁pedal	-10.8096
▁promote	-10.8096
▁blob	-10.8096
▁alfred	-10.8096
▁choke	-10.8096
▁greed	-10.8097
▁celebration	-10.8097
▁turton	-10.8097
▁resent	-10.8097
▁libert	-10.8097
▁spacecraft	-10.8097
▁chump	-10.8097
▁humble	-10.8097
▁jammed	-10.8098
▁doug	-10.8098
▁loyalty	-10.8098
▁purse	-10.8098
▁meatball	-10.8098
▁detective	-10.8098
▁stacy	-10.8098
▁gunshot	-10.8098
▁revving	-10.8099
▁delos	-10.8099
▁carrie	-10.8099
▁personnel	-10.8099
▁brace	-10.8099
▁racket	-10.81
▁trend	-10.81
▁passionate	-10.81
▁chaos	-10.81
▁religion	-10.8101
▁clinic	-10.8101
▁marble	-10.8101
▁selfish	-10.8101
▁entertainment	-10.8101
▁accountant	-10.8101
▁quill	-10.8101
▁flush	-10.8102
▁accidentally	-10.8102
▁bake	-10.8103
▁surprisingly	-10.8103
uzz	-10.8103
▁bucket	-10.8104
▁objective	-10.8104
▁jake	-10.8104
▁handbook	-10.8104
▁nickel	-10.8105
▁hooting	-10.8105
▁whatll	-10.8106
▁chimes	-10.8106
▁cameron	-10.8107
▁marcus	-10.8107
▁michaelson	-10.8107
▁warhead	-10.8107
▁grid	-10.8108
unce	-10.8108
▁portman	-10.8109
▁suggestion	-10.8111
▁fluffy	-10.8111
uuu	-10.8111
▁pinch	-10.8112
▁erm	-10.8112
▁morgana	-10.8113
▁layla	-10.8113
▁divided	-10.8114
▁coke	-10.8114
▁worthless	-10.8115
▁organized	-10.8116
▁quitting	-10.8116
▁print	-10.8122
▁stranded	-10.8123
▁mechanical	-10.8123
▁kneel	-10.8125
▁golden	-10.8125
▁kiddo	-10.8125
▁separated	-10.8127
▁lib	-10.8127
▁hoid	-10.8128
▁madness	-10.8128
▁leon	-10.8129
▁shovel	-10.8129
▁caf	-10.8131
▁statement	-10.8131
▁growth	-10.8131
▁punches	-10.8134
▁punished	-10.8135
▁advanced	-10.8135
▁raw	-10.8137
▁herring	-10.8138
▁ditch	-10.8139
boat	-10.8142
▁setting	-10.8148
▁q	-10.8149
▁authoriz	-10.8153
▁creed	-10.8154
▁cody	-10.8157
▁zu	-10.816
▁gua	-10.8165
▁host	-10.8167
▁cole	-10.8167
▁activate	-10.8169
▁campers	-10.8169
▁brat	-10.8175
▁bleeding	-10.8177
▁developed	-10.8178
▁hose	-10.8178
▁chin	-10.818
▁fastest	-10.818
▁condo	-10.8181
▁angeles	-10.8183
▁takeover	-10.8185
▁lane	-10.8188
▁boiling	-10.8192
▁janet	-10.8195
▁rage	-10.82
lair	-10.8207
▁pissed	-10.8208
elope	-10.8208
▁slipper	-10.8212
▁former	-10.8219
▁reality	-10.8225
▁coop	-10.8241
▁coin	-10.8244
▁buster	-10.8263
rais	-10.8295
▁hooked	-10.8299
▁smarter	-10.8306
▁farming	-10.8315
▁lance	-10.8328
▁banker	-10.8337
▁safer	-10.834
▁deeper	-10.8343
▁chim	-10.8374
▁hump	-10.8394
▁sank	-10.8395
▁communicate	-10.8503
more	-10.8522
▁iu	-10.8524
hog	-10.8539
folk	-10.8563
▁pile	-10.8585
lake	-10.8592
▁vic	-10.8598
eem	-10.8644
under	-10.8682
bash	-10.8692
▁traditional	-10.8695
▁fir	-10.871
cut	-10.8742
▁gro	-10.8748
▁kin	-10.8836
▁mut	-10.8843
oft	-10.8907
hunk	-10.8908
▁core	-10.8974
iii	-10.9002
▁giggle	-10.9028
▁admir	-10.9046
▁web	-10.9054
▁equ	-10.9091
vital	-10.9119
▁prayer	-10.9149
ologist	-10.9209
▁inspir	-10.929
▁establish	-10.9295
▁separate	-10.931
▁convince	-10.931
ench	-10.9317
mission	-10.9319
▁craz	-10.9319
breath	-10.932
girl	-10.932
▁sudden	-10.9327
▁torpedo	-10.9334
▁origin	-10.9337
▁jew	-10.9341
▁makin	-10.9342
▁urge	-10.9343
▁rust	-10.9343
▁fright	-10.9344
▁accomplish	-10.9345
▁overwhelm	-10.9345
▁concept	-10.9345
▁snort	-10.9345
▁trespass	-10.9345
▁aslan	-10.9345
▁attorney	-10.9345
▁august	-10.9345
▁beckerstead	-10.9345
▁beechwood	-10.9345
▁bermuda	-10.9345
▁boomerang	-10.9345
▁breeze	-10.9345
▁bunnies	-10.9345
▁capacity	-10.9345
▁centuries	-10.9345
▁clacktiel	-10.9345
▁compassion	-10.9345
▁compete	-10.9345
▁despair	-10.9345
▁dictator	-10.9345
▁dogpile	-10.9345
▁eisenhower	-10.9345
▁elevar	-10.9345
▁enforce	-10.9345
▁evacuate	-10.9345
▁explosive	-10.9345
▁extension	-10.9345
▁galaxy	-10.9345
▁granddaughter	-10.9345
▁greece	-10.9345
▁guenevere	-10.9345
▁helicopter	-10.9345
▁irrational	-10.9345
▁knives	-10.9345
▁mcgill	-10.9345
▁minneapolis	-10.9345
▁miriam	-10.9345
▁nantucket	-10.9345
▁neighbourhood	-10.9345
▁offensive	-10.9345
▁opponent	-10.9345
▁oppress	-10.9345
▁pascal	-10.9345
▁pastuzo	-10.9345
▁piscine	-10.9345
▁portokalos	-10.9345
▁portuguese	-10.9345
▁prettypretty	-10.9345
▁primitive	-10.9345
▁profile	-10.9345
▁protocol	-10.9345
▁publish	-10.9345
▁refrigerator	-10.9345
▁register	-10.9345
▁reservation	-10.9345
▁rewbell	-10.9345
▁ricardo	-10.9345
▁rodrigo	-10.9345
▁sausage	-10.9345
▁similar	-10.9345
▁snoring	-10.9345
▁streak	-10.9345
▁territories	-10.9345
▁thirteen	-10.9345
▁tokyo	-10.9345
▁toshio	-10.9345
▁tragedy	-10.9345
▁ukata	-10.9345
▁undefeated	-10.9345
▁valestra	-10.9345
▁vault	-10.9345
▁vodka	-10.9345
▁voula	-10.9345
▁voyage	-10.9345
▁whobilation	-10.9345
▁ashore	-10.9345
▁bathtub	-10.9345
▁distress	-10.9345
▁farewell	-10.9345
▁femaie	-10.9345
▁initial	-10.9345
▁insect	-10.9345
▁mercury	-10.9345
▁neuro	-10.9345
▁override	-10.9345
▁pamela	-10.9345
▁pennant	-10.9345
▁reentry	-10.9345
▁review	-10.9345
▁swift	-10.9345
▁tminus	-10.9345
▁amazed	-10.9345
▁gravy	-10.9345
▁guild	-10.9345
▁mamaji	-10.9345
▁obsess	-10.9345
▁popsicle	-10.9345
▁reckless	-10.9345
▁tammy	-10.9345
▁trunk	-10.9345
▁capella	-10.9345
▁cynic	-10.9345
▁election	-10.9345
▁lounge	-10.9345
▁madison	-10.9345
▁plead	-10.9345
▁polite	-10.9345
▁radical	-10.9345
▁error	-10.9345
▁kimono	-10.9345
▁orient	-10.9345
▁throne	-10.9345
▁brooke	-10.9345
▁howre	-10.9345
▁related	-10.9345
▁scatter	-10.9345
▁wagon	-10.9345
▁aaron	-10.9345
▁diaper	-10.9345
▁dirk	-10.9345
▁flex	-10.9345
▁heip	-10.9345
▁merciful	-10.9345
▁corral	-10.9345
▁burden	-10.9345
▁novel	-10.9345
▁blares	-10.9345
▁donuts	-10.9345
▁sofa	-10.9345
▁stafford	-10.9345
▁entry	-10.9345
▁panicked	-10.9345
▁smith	-10.9345
▁powder	-10.9345
▁sewers	-10.9345
▁unfair	-10.9345
▁cancer	-10.9345
▁peak	-10.9345
▁jolly	-10.9345
▁sexual	-10.9345
▁eighteen	-10.9345
▁reilly	-10.9345
▁crab	-10.9345
▁blaz	-10.9346
▁carpet	-10.9346
▁foaly	-10.9346
▁tragic	-10.9346
▁mead	-10.9346
▁series	-10.9346
▁straining	-10.9346
▁homecoming	-10.9346
▁mineral	-10.9346
▁reveal	-10.9346
evita	-10.9346
▁lever	-10.9346
▁cpr	-10.9346
▁hungarian	-10.9346
▁celebrating	-10.9346
▁turnip	-10.9346
▁burger	-10.9346
▁mankind	-10.9346
▁endanger	-10.9346
▁beak	-10.9346
▁miniatur	-10.9346
▁taft	-10.9346
▁bracelet	-10.9346
▁ethan	-10.9346
▁berg	-10.9346
▁sheep	-10.9346
▁mistress	-10.9346
▁muttering	-10.9346
▁affect	-10.9346
▁langley	-10.9346
▁scramble	-10.9347
▁aggressive	-10.9347
▁ronnie	-10.9347
▁yummy	-10.9347
bound	-10.9347
▁festival	-10.9347
▁minister	-10.9347
▁shaving	-10.9347
▁chica	-10.9348
▁void	-10.9348
▁hostage	-10.9348
▁psst	-10.9348
▁honour	-10.9348
▁shortcut	-10.9348
▁backwards	-10.9348
neck	-10.9348
▁carolina	-10.9348
▁reference	-10.9349
▁programming	-10.9349
martial	-10.9349
▁crank	-10.9349
▁crick	-10.9349
▁liberat	-10.9349
▁bacon	-10.935
▁stiff	-10.9351
▁parade	-10.9351
▁oven	-10.9351
▁flock	-10.9351
▁frame	-10.9351
▁chuckie	-10.9351
▁freshmen	-10.9351
▁diving	-10.9351
pulse	-10.9352
▁performance	-10.9352
▁facemaker	-10.9352
▁redstone	-10.9353
▁harmless	-10.9353
▁fiom	-10.9353
▁youth	-10.9353
▁branches	-10.9353
▁lime	-10.9354
▁stream	-10.9354
▁steel	-10.9354
▁pumpkin	-10.9354
▁dime	-10.9355
▁shatter	-10.9356
▁utter	-10.9356
▁studie	-10.9357
▁barkis	-10.9357
▁weakness	-10.9357
▁package	-10.9358
▁liz	-10.9358
▁memo	-10.9359
▁begun	-10.936
▁foolish	-10.936
▁debut	-10.936
▁dub	-10.9363
▁enid	-10.9364
▁stake	-10.9364
▁inches	-10.9365
▁hideous	-10.9366
▁recruiting	-10.9368
▁discovery	-10.9368
▁treatment	-10.9368
▁clattering	-10.9368
▁appli	-10.9369
▁canal	-10.937
▁dash	-10.9371
▁soar	-10.9371
▁slimy	-10.9371
▁dna	-10.9372
▁aww	-10.9373
▁overman	-10.9376
▁rusty	-10.9376
▁brag	-10.9378
bre	-10.938
▁andi	-10.9381
▁recovered	-10.9384
▁strap	-10.9385
dog	-10.9385
▁thorne	-10.9387
▁jab	-10.9388
▁cargo	-10.9388
▁duel	-10.9391
▁clearance	-10.9392
▁xl	-10.9393
▁billion	-10.9393
▁seventh	-10.9396
▁armor	-10.9399
▁englishman	-10.9399
▁deny	-10.9399
▁gutsy	-10.94
▁turd	-10.9401
▁graduated	-10.9401
▁eve	-10.9402
▁triple	-10.9404
▁connected	-10.9404
▁campus	-10.9407
▁curly	-10.9409
▁replaced	-10.941
▁abandoned	-10.9411
▁downloaded	-10.9411
▁bern	-10.9412
▁bitter	-10.9412
▁mild	-10.9415
▁backyard	-10.9415
▁refused	-10.9415
onne	-10.9417
▁useful	-10.9417
ninth	-10.942
▁nerd	-10.9422
▁removed	-10.9425
▁careless	-10.943
▁lend	-10.9435
▁boxes	-10.9437
▁epi	-10.9438
▁sparky	-10.9443
▁released	-10.9444
▁mounted	-10.9446
▁thrilled	-10.9446
▁antiqu	-10.9454
▁batt	-10.9467
▁dresses	-10.9471
▁lighten	-10.948
▁jacket	-10.9484
▁kisses	-10.9492
▁tent	-10.9494
▁pole	-10.9504
▁joker	-10.9561
▁ama	-10.9562
▁caper	-10.9567
▁sole	-10.9571
▁chant	-10.9575
▁admire	-10.9645
▁quote	-10.9662
▁chan	-10.9663
eye	-10.9672
alta	-10.9676
▁calculate	-10.9704
▁introduc	-10.9773
▁ripp	-10.978
▁fianc	-10.9907
ipped	-10.9928
arian	-10.9945
▁vol	-10.9963
aut	-11.0077
▁ut	-11.0153
▁devot	-11.0193
▁mat	-11.0247
ronic	-11.0315
▁yama	-11.0336
▁disp	-11.0348
▁exclaim	-11.0385
▁click	-11.0385
▁twin	-11.0401
▁quot	-11.0421
▁dep	-11.0424
▁lawful	-11.0459
▁claw	-11.0476
▁when	-11.0484
▁visual	-11.0503
▁chuckle	-11.0549
▁deni	-11.0585
▁accu	-11.0597
▁hom	-11.0617
vous	-11.0632
▁embarrass	-11.0656
ability	-11.0658
▁figur	-11.0663
ttering	-11.0668
▁flee	-11.0676
▁emotion	-11.0692
▁suff	-11.071
▁impress	-11.0717
▁punish	-11.0719
▁engage	-11.0735
▁locate	-11.0738
wood	-11.0743
▁grouch	-11.0743
▁slim	-11.0746
connect	-11.0748
yearold	-11.0748
wheel	-11.0749
blue	-11.0749
wash	-11.0749
two	-11.0749
water	-11.0749
wall	-11.075
capable	-11.0751
▁luis	-11.0755
▁explore	-11.0756
▁potato	-11.0764
▁tore	-11.0764
▁movin	-11.0769
▁accelerat	-11.0769
cott	-11.0769
▁tempora	-11.0771
▁rome	-11.0772
▁drama	-11.0772
▁scram	-11.0772
▁anoint	-11.0774
▁reassign	-11.0774
▁apprehend	-11.0774
▁intercept	-11.0774
alalala	-11.0774
structure	-11.0774
▁amelia	-11.0774
▁anniversary	-11.0774
▁argument	-11.0774
▁arnold	-11.0774
▁arrival	-11.0774
▁arriving	-11.0774
▁atami	-11.0774
▁atmosphere	-11.0774
▁australia	-11.0774
▁bachelorette	-11.0774
▁betelgeuse	-11.0774
▁bubbie	-11.0774
▁capitol	-11.0774
▁ceiling	-11.0774
▁charging	-11.0774
▁cinnamon	-11.0774
▁circling	-11.0774
▁competitive	-11.0774
▁coughs	-11.0774
▁currency	-11.0774
▁detroit	-11.0774
▁diggums	-11.0774
▁disagree	-11.0774
▁dolores	-11.0774
▁dylan	-11.0774
▁einstein	-11.0774
▁enthusias	-11.0774
▁exaggerate	-11.0774
▁excellency	-11.0774
▁facility	-11.0774
▁fishfinger	-11.0774
▁flavor	-11.0774
▁fleekfest	-11.0774
▁gallons	-11.0774
▁gerwyn	-11.0774
▁gravity	-11.0774
▁grazie	-11.0774
▁grifter	-11.0774
▁groceries	-11.0774
▁harpoon	-11.0774
▁hebrew	-11.0774
▁hilarious	-11.0774
▁imaginary	-11.0774
▁inappropriate	-11.0774
▁inbetween	-11.0774
▁incident	-11.0774
▁inconvenience	-11.0774
▁integrat	-11.0774
▁investigate	-11.0774
▁irrita	-11.0774
▁jeff	-11.0774
▁kansas	-11.0774
▁lafawnduh	-11.0774
▁lafleur	-11.0774
▁lecture	-11.0774
▁lincoln	-11.0774
▁macbride	-11.0774
▁merchant	-11.0774
▁method	-11.0774
▁microphone	-11.0774
▁minimum	-11.0774
▁mischief	-11.0774
▁mortgage	-11.0774
▁moscow	-11.0774
▁negotiate	-11.0774
▁neutral	-11.0774
▁nickname	-11.0774
▁nowadays	-11.0774
▁organization	-11.0774
▁pabllto	-11.0774
▁petachi	-11.0774
▁poldark	-11.0774
▁privacy	-11.0774
▁quadrant	-11.0774
▁rebels	-11.0774
▁recondition	-11.0774
▁regatta	-11.0774
▁ruoppoio	-11.0774
▁satellite	-11.0774
▁saudi	-11.0774
▁scotch	-11.0774
▁scotland	-11.0774
▁sensation	-11.0774
▁seymour	-11.0774
▁sophomore	-11.0774
▁squirt	-11.0774
▁succeed	-11.0774
▁surveillance	-11.0774
▁suspension	-11.0774
▁tatiana	-11.0774
▁taylor	-11.0774
▁tippytoe	-11.0774
▁trading	-11.0774
▁triangle	-11.0774
▁trigger	-11.0774
▁twirl	-11.0774
▁uncomfortable	-11.0774
▁uryens	-11.0774
▁vegas	-11.0774
▁vibration	-11.0774
▁walkietalkie	-11.0774
▁welfare	-11.0774
▁zathura	-11.0774
▁alcohol	-11.0774
▁crisis	-11.0774
▁essential	-11.0774
▁expedition	-11.0774
▁globe	-11.0774
▁hamada	-11.0774
▁hydrogen	-11.0774
▁infinity	-11.0774
▁nanny	-11.0774
▁ncaa	-11.0774
▁pencil	-11.0774
▁script	-11.0774
▁sidekick	-11.0774
▁solemn	-11.0774
▁squid	-11.0774
▁stroke	-11.0774
▁transmitter	-11.0774
▁april	-11.0774
▁clique	-11.0774
▁decade	-11.0774
▁distinct	-11.0774
▁fingerprints	-11.0774
▁gentry	-11.0774
▁identify	-11.0774
▁lundy	-11.0774
▁scuba	-11.0774
▁smoking	-11.0774
▁thorough	-11.0774
▁venture	-11.0774
▁cortez	-11.0774
▁hysterical	-11.0774
▁indoor	-11.0774
▁reunion	-11.0774
▁slack	-11.0774
▁worries	-11.0774
▁anthea	-11.0774
▁bookstore	-11.0774
▁internet	-11.0774
▁motto	-11.0774
▁puzzle	-11.0774
▁jelly	-11.0774
▁mtv	-11.0774
▁stella	-11.0774
▁unstable	-11.0774
▁aisle	-11.0774
▁headache	-11.0774
▁online	-11.0774
▁shaft	-11.0774
▁spectacular	-11.0774
▁honeypot	-11.0774
▁moose	-11.0774
▁flick	-11.0774
▁majesti	-11.0774
▁recall	-11.0774
▁scandal	-11.0774
▁godbole	-11.0774
▁article	-11.0774
▁adela	-11.0774
▁chute	-11.0774
▁spindle	-11.0774
▁appeal	-11.0774
▁loony	-11.0774
▁cramp	-11.0774
▁spicy	-11.0774
▁arena	-11.0774
▁illustr	-11.0774
▁malia	-11.0774
▁numer	-11.0774
▁econom	-11.0774
▁hesitate	-11.0774
▁raft	-11.0774
▁decorations	-11.0774
▁buon	-11.0774
▁tango	-11.0774
▁upper	-11.0774
▁gonogo	-11.0774
▁adios	-11.0774
▁buen	-11.0774
▁italy	-11.0774
▁channel	-11.0774
▁upgrade	-11.0774
▁sewing	-11.0774
▁adopt	-11.0774
transmit	-11.0774
▁basketboy	-11.0774
▁fond	-11.0775
▁bugger	-11.0775
▁halt	-11.0775
▁excess	-11.0775
▁chubby	-11.0775
▁snoo	-11.0775
▁newscast	-11.0775
▁chrom	-11.0775
▁vicious	-11.0775
▁consume	-11.0775
▁compa	-11.0775
▁injuries	-11.0775
▁castaway	-11.0775
▁concentration	-11.0776
▁reaction	-11.0776
▁frail	-11.0776
▁allergic	-11.0776
▁asshole	-11.0776
▁yeehaw	-11.0776
▁darby	-11.0776
▁techno	-11.0776
▁wuss	-11.0776
▁broadway	-11.0776
▁amusement	-11.0776
▁bluff	-11.0777
▁rustling	-11.0777
▁denver	-11.0777
▁edward	-11.0777
▁shaii	-11.0777
▁upside	-11.0777
▁tribe	-11.0777
▁viola	-11.0777
▁sara	-11.0778
▁automatic	-11.0778
▁adjust	-11.0778
▁haircut	-11.0778
▁oof	-11.0779
▁sentimental	-11.0779
▁debts	-11.0779
▁countess	-11.0779
▁overboard	-11.0779
▁inspector	-11.0779
▁hissing	-11.0779
▁associates	-11.078
▁combat	-11.078
▁coleman	-11.078
▁confirmation	-11.078
where	-11.0781
▁begged	-11.0781
▁lust	-11.0781
▁willie	-11.0781
▁concei	-11.0781
▁development	-11.0781
▁commitment	-11.0782
▁disappointment	-11.0783
▁karen	-11.0784
▁omin	-11.0784
▁henri	-11.0784
▁furry	-11.0784
▁stress	-11.0784
▁ieave	-11.0785
▁grey	-11.0785
▁shack	-11.0785
▁countdown	-11.0785
▁funeral	-11.0786
▁batteries	-11.0786
▁management	-11.0786
▁chuc	-11.0787
▁temporary	-11.0787
▁injury	-11.0787
▁damp	-11.0788
▁bowser	-11.0788
▁humor	-11.0788
▁petty	-11.0788
▁robbers	-11.0789
▁elway	-11.079
▁peril	-11.0791
▁convention	-11.0791
▁puke	-11.0791
▁ridge	-11.0793
▁lifeboat	-11.0794
▁comic	-11.0795
▁yea	-11.0796
▁wax	-11.0797
▁breakdown	-11.0798
▁beam	-11.0798
▁multiply	-11.08
▁digit	-11.0801
▁ability	-11.0801
▁coverage	-11.0802
▁allen	-11.0802
▁possessed	-11.0802
▁monk	-11.0804
▁fren	-11.0804
▁grouchy	-11.0804
▁armies	-11.0805
▁domo	-11.0806
▁skies	-11.0807
▁vain	-11.0808
▁bail	-11.0809
▁located	-11.081
▁mayday	-11.081
▁ego	-11.0811
▁dating	-11.0812
▁vari	-11.0812
▁ahhh	-11.0813
▁ames	-11.0813
▁caleb	-11.0814
▁geek	-11.0814
▁swat	-11.0816
▁worn	-11.0818
▁groove	-11.0821
▁humanity	-11.0821
demn	-11.0823
fuse	-11.0827
▁switches	-11.0827
▁casa	-11.0831
▁sip	-11.0836
▁deepest	-11.0836
▁shallow	-11.0837
▁gil	-11.084
▁rape	-11.084
▁pow	-11.0842
slav	-11.0843
▁tut	-11.0843
▁role	-11.0847
oken	-11.0852
▁dez	-11.0855
▁debate	-11.0866
▁complaint	-11.0867
▁mio	-11.0881
▁thej	-11.0889
▁lace	-11.0889
▁maxie	-11.0923
ellow	-11.096
voi	-11.0962
new	-11.0975
▁mace	-11.0985
▁which	-11.1081
aisie	-11.1088
▁beau	-11.1203
▁prom	-11.1243
▁keg	-11.1372
▁birdie	-11.1408
▁devo	-11.144
▁tense	-11.1494
▁intr	-11.1523
rett	-11.1534
▁travell	-11.1544
version	-11.155
orted	-11.1643
▁mop	-11.165
▁vet	-11.1678
▁interfere	-11.169
▁mach	-11.1713
▁mega	-11.1719
rake	-11.1826
▁rig	-11.2027
▁grunt	-11.2064
▁biscuit	-11.2121
made	-11.2169
feit	-11.2186
▁astra	-11.2226
clear	-11.2325
activated	-11.2329
▁recover	-11.2362
▁discover	-11.2363
▁comput	-11.2373
hoe	-11.2375
▁sparkl	-11.2376
▁herr	-11.2376
▁annoy	-11.2377
▁wail	-11.2401
▁approve	-11.2405
▁roar	-11.2408
culi	-11.241
▁multipl	-11.241
bird	-11.2411
▁compare	-11.2411
craft	-11.2412
signor	-11.2415
birth	-11.2415
fashion	-11.2415
point	-11.2415
normal	-11.2416
wife	-11.2416
smurf	-11.2417
tight	-11.2419
▁blond	-11.242
▁technical	-11.2422
jack	-11.2425
▁livin	-11.2432
▁branch	-11.2433
▁posit	-11.2435
▁reflect	-11.2436
▁strip	-11.2436
stitute	-11.2437
▁transform	-11.2437
pick	-11.2438
▁fortuna	-11.2439
▁gregor	-11.2439
ndians	-11.2439
▁diploma	-11.2441
▁scientific	-11.2441
industrial	-11.2441
▁acquired	-11.2441
▁activities	-11.2441
▁alligator	-11.2441
▁ambition	-11.2441
▁appetite	-11.2441
▁arabs	-11.2441
▁babysitter	-11.2441
▁barbecue	-11.2441
▁behaving	-11.2441
▁bellicec	-11.2441
▁belmont	-11.2441
▁benefit	-11.2441
▁berlin	-11.2441
▁binnacle	-11.2441
▁bouchard	-11.2441
▁buddhist	-11.2441
▁cakeeater	-11.2441
▁calendar	-11.2441
▁casino	-11.2441
▁caspian	-11.2441
▁cautious	-11.2441
▁cheermeister	-11.2441
▁chemist	-11.2441
▁circuit	-11.2441
▁civilization	-11.2441
▁colum	-11.2441
▁compartment	-11.2441
▁compromise	-11.2441
▁concrete	-11.2441
▁congratulate	-11.2441
▁consequences	-11.2441
▁contagious	-11.2441
▁contribution	-11.2441
▁crikey	-11.2441
▁cuckooland	-11.2441
▁custody	-11.2441
▁darrell	-11.2441
▁descent	-11.2441
▁destined	-11.2441
▁dialogue	-11.2441
▁doulton	-11.2441
▁dowager	-11.2441
▁elevated	-11.2441
▁elmira	-11.2441
▁enterprise	-11.2441
▁environment	-11.2441
▁exploding	-11.2441
▁figaro	-11.2441
▁flirt	-11.2441
▁fruitcake	-11.2441
▁fulfill	-11.2441
▁garlic	-11.2441
▁gauntlet	-11.2441
▁geronimo	-11.2441
▁giorno	-11.2441
▁gracias	-11.2441
▁grandparents	-11.2441
▁guarani	-11.2441
▁harbor	-11.2441
▁hirschorn	-11.2441
▁hurricane	-11.2441
▁iadonai	-11.2441
▁ignorant	-11.2441
▁igrayne	-11.2441
▁inaudible	-11.2441
▁institution	-11.2441
▁instrument	-11.2441
▁intimidat	-11.2441
▁investigation	-11.2441
▁irregular	-11.2441
▁irresponsible	-11.2441
▁kathryn	-11.2441
▁kennedy	-11.2441
▁klonk	-11.2441
▁kovacs	-11.2441
▁latitude	-11.2441
▁lettuce	-11.2441
▁liquor	-11.2441
▁luxury	-11.2441
▁massachusetts	-11.2441
▁memorial	-11.2441
▁molinari	-11.2441
▁muffinman	-11.2441
▁nehamkin	-11.2441
▁nichols	-11.2441
▁nicolas	-11.2441
▁nightwatcher	-11.2441
▁opportunities	-11.2441
▁pancake	-11.2441
▁parakeet	-11.2441
▁piracy	-11.2441
▁portugal	-11.2441
▁possibilities	-11.2441
▁presume	-11.2441
▁psychiatrist	-11.2441
▁puppet	-11.2441
▁remodel	-11.2441
▁reprogram	-11.2441
▁requisition	-11.2441
▁resembl	-11.2441
▁roosevelt	-11.2441
▁sasquatch	-11.2441
▁satisfaction	-11.2441
▁satisfy	-11.2441
▁seagram	-11.2441
▁selfdefense	-11.2441
▁semester	-11.2441
▁sequence	-11.2441
▁shepard	-11.2441
▁southampton	-11.2441
▁sponsor	-11.2441
▁succor	-11.2441
▁sunningdale	-11.2441
▁telescope	-11.2441
▁thieves	-11.2441
▁thudding	-11.2441
▁touganda	-11.2441
▁trulock	-11.2441
▁unnecessary	-11.2441
▁unpleasant	-11.2441
▁vatsnik	-11.2441
▁vietnam	-11.2441
▁vigilant	-11.2441
▁vouch	-11.2441
▁wallpaper	-11.2441
▁waltz	-11.2441
▁wheelchair	-11.2441
▁whereabouts	-11.2441
▁willoughby	-11.2441
▁wolffstein	-11.2441
▁yaeko	-11.2441
▁yeahbsolutely	-11.2441
▁atlant	-11.2441
▁atlas	-11.2441
▁blitz	-11.2441
▁destruction	-11.2441
▁dorsey	-11.2441
▁embrace	-11.2441
▁exotic	-11.2441
▁forbid	-11.2441
▁fresno	-11.2441
▁galleon	-11.2441
▁guitar	-11.2441
▁hardware	-11.2441
▁hernan	-11.2441
▁imagining	-11.2441
▁keegan	-11.2441
▁motivation	-11.2441
▁recital	-11.2441
▁sheriff	-11.2441
▁torres	-11.2441
▁wilson	-11.2441
▁blouse	-11.2441
▁butler	-11.2441
▁clerk	-11.2441
▁dexter	-11.2441
▁dismiss	-11.2441
▁eject	-11.2441
▁exposed	-11.2441
▁gruber	-11.2441
▁hahaha	-11.2441
▁hostile	-11.2441
▁jeep	-11.2441
▁morehead	-11.2441
▁oblige	-11.2441
▁phillip	-11.2441
▁pistol	-11.2441
▁prank	-11.2441
▁regain	-11.2441
▁serfs	-11.2441
▁sorrow	-11.2441
▁submit	-11.2441
▁temple	-11.2441
▁xander	-11.2441
▁butterfly	-11.2441
▁callendar	-11.2441
▁conscious	-11.2441
▁crunch	-11.2441
▁extend	-11.2441
▁gesture	-11.2441
▁gillie	-11.2441
▁instance	-11.2441
▁memento	-11.2441
▁mordred	-11.2441
▁slade	-11.2441
▁slick	-11.2441
▁stride	-11.2441
▁vanilla	-11.2441
▁armpit	-11.2441
▁boolah	-11.2441
▁chevy	-11.2441
▁dairy	-11.2441
▁dusk	-11.2441
▁grief	-11.2441
▁irish	-11.2441
▁mayhew	-11.2441
▁childhood	-11.2441
▁cornell	-11.2441
▁ipod	-11.2441
▁postpone	-11.2441
▁pronto	-11.2441
▁verona	-11.2441
▁describe	-11.2441
▁glitter	-11.2441
▁hull	-11.2441
▁importance	-11.2441
▁milord	-11.2441
▁populat	-11.2441
▁siggy	-11.2441
▁studio	-11.2441
▁flattered	-11.2441
▁nomad	-11.2441
▁serving	-11.2441
▁simmons	-11.2441
▁yelp	-11.2441
▁dictate	-11.2441
▁dull	-11.2441
▁fleming	-11.2441
▁repay	-11.2441
▁retain	-11.2441
▁heir	-11.2441
▁envy	-11.2441
▁noisy	-11.2441
▁scalp	-11.2441
▁czar	-11.2441
▁giri	-11.2441
▁moreno	-11.2441
israel	-11.2441
▁bengal	-11.2441
▁salino	-11.2441
▁atom	-11.2441
▁civilians	-11.2441
▁stith	-11.2441
▁unchar	-11.2441
hubba	-11.2441
▁assuming	-11.2441
▁countries	-11.2441
▁dedmon	-11.2441
▁deetz	-11.2441
▁pierce	-11.2441
▁chord	-11.2441
▁nanako	-11.2441
▁naoko	-11.2441
▁fisherman	-11.2441
▁yawn	-11.2441
▁harsh	-11.2441
▁compos	-11.2441
▁leaf	-11.2441
▁joust	-11.2441
▁weld	-11.2441
▁database	-11.2441
▁meteor	-11.2441
▁spinning	-11.2441
▁reply	-11.2441
▁lull	-11.2441
▁mangia	-11.2441
▁gyp	-11.2441
▁pony	-11.2441
▁mirad	-11.2441
resident	-11.2442
▁latin	-11.2442
▁republican	-11.2442
▁whining	-11.2442
▁tools	-11.2442
▁falcon	-11.2442
▁smack	-11.2442
▁squash	-11.2442
▁commenc	-11.2442
▁regulation	-11.2442
▁violation	-11.2442
▁lemonade	-11.2442
▁snob	-11.2442
▁triumphant	-11.2442
unning	-11.2442
▁consist	-11.2442
▁gregorio	-11.2442
▁bailey	-11.2442
▁sharkboy	-11.2442
▁whatcha	-11.2443
shire	-11.2443
▁infectio	-11.2443
▁spook	-11.2443
▁salsa	-11.2443
▁internal	-11.2443
▁snowball	-11.2443
▁somewh	-11.2444
▁curley	-11.2444
▁narrator	-11.2444
▁lungs	-11.2444
▁institute	-11.2444
▁blend	-11.2444
▁saks	-11.2445
▁senor	-11.2445
▁assess	-11.2445
▁archi	-11.2445
▁punishment	-11.2445
▁embarrassment	-11.2445
▁taik	-11.2445
▁beals	-11.2445
▁reflection	-11.2445
▁administrator	-11.2446
lamour	-11.2446
▁efficient	-11.2446
▁inspiration	-11.2446
▁scarce	-11.2446
▁cartridge	-11.2446
▁flare	-11.2446
▁acceleration	-11.2446
▁sector	-11.2446
▁bratz	-11.2446
▁teii	-11.2446
▁miser	-11.2447
▁feedback	-11.2447
▁legendary	-11.2447
▁whipped	-11.2447
▁delia	-11.2447
▁heap	-11.2447
▁victorious	-11.2447
▁ammo	-11.2448
▁quiz	-11.2448
▁thread	-11.2448
▁medium	-11.2448
▁bruise	-11.2448
▁invention	-11.2448
▁lockdown	-11.2448
▁riverside	-11.2448
▁marshal	-11.2448
▁passport	-11.2448
▁acid	-11.2449
▁screwup	-11.2449
▁mature	-11.2449
▁retirement	-11.2449
▁depart	-11.2449
▁stamp	-11.2449
▁polar	-11.245
▁selection	-11.245
▁randy	-11.245
▁jj	-11.245
▁improvement	-11.245
▁cooperate	-11.245
▁vend	-11.2451
▁detector	-11.2451
▁stripes	-11.2451
▁councilman	-11.2451
▁scrubb	-11.2452
▁happier	-11.2452
ometer	-11.2452
▁rally	-11.2453
▁omen	-11.2454
▁mason	-11.2455
▁torpedoes	-11.2455
jour	-11.2455
▁larson	-11.2456
▁hava	-11.2457
▁baking	-11.2457
▁peaceful	-11.2457
eady	-11.2459
▁commandant	-11.2459
▁tutor	-11.2459
▁extract	-11.2459
▁dino	-11.246
▁bonus	-11.246
▁tj	-11.246
▁allies	-11.2461
▁tripped	-11.2461
▁screeches	-11.2461
ficial	-11.2462
▁dame	-11.2462
▁reduce	-11.2462
▁donation	-11.2464
▁spun	-11.2464
▁sax	-11.2465
▁sneakers	-11.2465
▁shelter	-11.2465
▁erie	-11.2465
▁buff	-11.2466
▁straw	-11.2466
▁ferr	-11.2467
▁rotat	-11.2468
snapper	-11.2468
▁ramon	-11.2471
▁athe	-11.2471
▁conqueror	-11.2471
▁kol	-11.2473
▁sanders	-11.2473
▁bernie	-11.2473
▁weep	-11.2477
▁abra	-11.2477
▁hup	-11.2478
▁preci	-11.2483
▁chess	-11.2483
vious	-11.2484
▁cress	-11.2485
▁tina	-11.2485
nesia	-11.2492
ference	-11.2492
chita	-11.2494
▁consideration	-11.2514
▁sore	-11.2516
▁kent	-11.2527
▁identi	-11.2529
▁tickle	-11.2552
other	-11.257
▁renounc	-11.2572
ewer	-11.268
▁faithful	-11.2733
▁astr	-11.2743
▁swam	-11.2775
▁pian	-11.2804
nickers	-11.2896
voca	-11.2975
▁sap	-11.3016
▁continu	-11.3177
▁predict	-11.3245
base	-11.3274
pande	-11.337
▁volt	-11.3527
▁tart	-11.3552
▁treasur	-11.3574
pache	-11.3629
take	-11.3764
tool	-11.3787
▁resi	-11.3877
▁whwh	-11.3912
▁zorgon	-11.4115
▁manner	-11.4125
▁jewel	-11.4127
▁degree	-11.4128
▁collapse	-11.414
gree	-11.4239
adian	-11.4277
▁custom	-11.4321
▁atta	-11.4337
▁zip	-11.4359
▁groov	-11.4374
▁strand	-11.4389
lush	-11.4395
▁divide	-11.4405
▁execute	-11.4405
▁organize	-11.4409
▁izz	-11.4411
▁strateg	-11.4412
qualified	-11.4414
worthy	-11.4415
american	-11.4415
correct	-11.4415
keeping	-11.4416
course	-11.4416
second	-11.4418
▁thund	-11.4419
▁fluff	-11.442
▁extreme	-11.4422
▁villa	-11.4425
▁peach	-11.443
▁mmmmm	-11.4436
▁confess	-11.4436
▁automat	-11.4436
▁helm	-11.4438
▁virgin	-11.4438
▁triumph	-11.4439
▁kidnap	-11.4439
▁brew	-11.4439
▁invisi	-11.4439
▁sculpt	-11.444
▁harv	-11.444
destruct	-11.4441
▁ninny	-11.4441
▁tranquili	-11.4441
dabbadoo	-11.4441
misunderstanding	-11.4441
ourseives	-11.4441
responsibilities	-11.4441
rgensson	-11.4441
terranean	-11.4441
▁absorb	-11.4441
▁accommodat	-11.4441
▁accompan	-11.4441
▁aiways	-11.4441
▁almighty	-11.4441
▁alternative	-11.4441
▁applications	-11.4441
▁appropriate	-11.4441
▁aquamarine	-11.4441
▁archaic	-11.4441
▁architect	-11.4441
▁aspect	-11.4441
▁bagumba	-11.4441
▁balkan	-11.4441
▁banner	-11.4441
▁baptized	-11.4441
▁bastogne	-11.4441
▁beefsteak	-11.4441
▁berries	-11.4441
▁bhutan	-11.4441
▁blindfold	-11.4441
▁boogeyman	-11.4441
▁breach	-11.4441
▁brochure	-11.4441
▁bronski	-11.4441
▁cafeteria	-11.4441
▁canaveral	-11.4441
▁cannibal	-11.4441
▁catalyst	-11.4441
▁certifi	-11.4441
▁challenging	-11.4441
▁chipmunk	-11.4441
▁cluck	-11.4441
▁clunk	-11.4441
▁coconut	-11.4441
▁competitor	-11.4441
▁concluded	-11.4441
▁console	-11.4441
▁conspiracy	-11.4441
▁corrupt	-11.4441
▁dagmar	-11.4441
▁deactivate	-11.4441
▁deceased	-11.4441
▁delilah	-11.4441
▁deposit	-11.4441
▁descendant	-11.4441
▁detention	-11.4441
▁dioxide	-11.4441
▁disposal	-11.4441
▁employed	-11.4441
▁eternity	-11.4441
▁eustace	-11.4441
▁evolving	-11.4441
▁exterminator	-11.4441
▁facilities	-11.4441
▁fantasy	-11.4441
▁furnace	-11.4441
▁garcia	-11.4441
▁geographers	-11.4441
▁geometry	-11.4441
▁georgia	-11.4441
▁gratitude	-11.4441
▁harold	-11.4441
▁harriet	-11.4441
▁humility	-11.4441
▁hwyl	-11.4441
▁ignorance	-11.4441
▁infiltrate	-11.4441
▁influence	-11.4441
▁ingredient	-11.4441
▁intrusion	-11.4441
▁jefferson	-11.4441
▁lasagna	-11.4441
▁latrine	-11.4441
▁lntelligence	-11.4441
▁marlott	-11.4441
▁mathematic	-11.4441
▁mccann	-11.4441
▁meatloaf	-11.4441
▁meerkats	-11.4441
▁meherunissa	-11.4441
▁menopause	-11.4441
▁messenger	-11.4441
▁milagro	-11.4441
▁misselthwaite	-11.4441
▁mittens	-11.4441
▁motherinlaw	-11.4441
▁myrna	-11.4441
▁necessarily	-11.4441
▁neglect	-11.4441
▁neighing	-11.4441
▁norwegian	-11.4441
▁nuisance	-11.4441
▁observation	-11.4441
▁overreact	-11.4441
▁participat	-11.4441
▁pegasus	-11.4441
▁persuade	-11.4441
▁phrase	-11.4441
▁plumbers	-11.4441
▁predicament	-11.4441
▁prolong	-11.4441
▁prototype	-11.4441
▁psychological	-11.4441
▁regency	-11.4441
▁regiment	-11.4441
▁rescuing	-11.4441
▁resigned	-11.4441
▁retreat	-11.4441
▁salmonella	-11.4441
▁schwedes	-11.4441
▁scrugg	-11.4441
▁seventyfour	-11.4441
▁shepherd	-11.4441
▁shriek	-11.4441
▁shuffle	-11.4441
▁shushing	-11.4441
▁sicilian	-11.4441
▁sleigh	-11.4441
▁snarls	-11.4441
▁spaghetti	-11.4441
▁spectre	-11.4441
▁squish	-11.4441
▁stabilizer	-11.4441
▁struggling	-11.4441
▁strummin	-11.4441
▁supernatural	-11.4441
▁suspend	-11.4441
▁sweatshirt	-11.4441
▁sync	-11.4441
▁telegram	-11.4441
▁thunderlips	-11.4441
▁tijada	-11.4441
▁tissue	-11.4441
▁toohey	-11.4441
▁trumpet	-11.4441
▁tumips	-11.4441
▁tuppence	-11.4441
▁twerk	-11.4441
▁typewriter	-11.4441
▁ulanga	-11.4441
▁umbrella	-11.4441
▁unbeatable	-11.4441
▁unconscious	-11.4441
▁vaughan	-11.4441
▁vocalizes	-11.4441
▁vortex	-11.4441
▁voskovec	-11.4441
▁vulnerable	-11.4441
▁wardrobe	-11.4441
▁werewolf	-11.4441
▁whisrling	-11.4441
▁wilmer	-11.4441
▁yourseif	-11.4441
obedient	-11.4441
piration	-11.4441
▁ajob	-11.4441
▁annihilat	-11.4441
▁authentic	-11.4441
▁babysitting	-11.4441
▁bankrupt	-11.4441
▁bennett	-11.4441
▁beware	-11.4441
▁bundle	-11.4441
▁canada	-11.4441
▁cauldron	-11.4441
▁caviar	-11.4441
▁democratic	-11.4441
▁fabric	-11.4441
▁fizz	-11.4441
▁gasoline	-11.4441
▁hallucinat	-11.4441
▁hampton	-11.4441
▁ieft	-11.4441
▁infinite	-11.4441
▁inviting	-11.4441
▁jacob	-11.4441
▁jeopardi	-11.4441
▁lesbian	-11.4441
▁omega	-11.4441
▁omelet	-11.4441
▁preserve	-11.4441
▁psyched	-11.4441
▁pudding	-11.4441
▁radius	-11.4441
▁reconsider	-11.4441
▁refresh	-11.4441
▁revoir	-11.4441
▁savor	-11.4441
▁stamina	-11.4441
▁summon	-11.4441
▁teleport	-11.4441
▁textronics	-11.4441
▁avanri	-11.4441
▁cease	-11.4441
▁dimitr	-11.4441
▁elusive	-11.4441
▁friction	-11.4441
▁giddy	-11.4441
▁klaus	-11.4441
▁monument	-11.4441
▁phew	-11.4441
▁pioneer	-11.4441
▁pittsmore	-11.4441
▁raphael	-11.4441
▁rattling	-11.4441
▁rebuil	-11.4441
▁rouge	-11.4441
▁squawk	-11.4441
▁stereo	-11.4441
▁stevie	-11.4441
▁wealth	-11.4441
▁yeerow	-11.4441
▁bullseye	-11.4441
▁chorus	-11.4441
▁constance	-11.4441
▁dignity	-11.4441
▁figler	-11.4441
▁gerald	-11.4441
▁outdoor	-11.4441
▁rewrit	-11.4441
▁secretaries	-11.4441
▁anarch	-11.4441
▁remote	-11.4441
▁restrict	-11.4441
▁beagle	-11.4441
▁buddies	-11.4441
▁companies	-11.4441
▁doodoo	-11.4441
▁evelyn	-11.4441
▁talons	-11.4441
▁cherish	-11.4441
▁itaiy	-11.4441
▁lantern	-11.4441
▁laurel	-11.4441
▁poppop	-11.4441
▁salute	-11.4441
▁subtle	-11.4441
abolic	-11.4441
▁abbey	-11.4441
▁breck	-11.4441
▁nigel	-11.4441
▁valentines	-11.4441
▁axehammer	-11.4441
▁candid	-11.4441
▁canyon	-11.4441
▁depot	-11.4441
▁kidnapping	-11.4441
▁stomp	-11.4441
▁utopia	-11.4441
▁munion	-11.4441
▁nasik	-11.4441
▁testify	-11.4441
▁parole	-11.4441
▁unseen	-11.4441
▁rayray	-11.4441
▁anesti	-11.4441
▁ethel	-11.4441
▁felon	-11.4441
▁siena	-11.4441
▁wilderness	-11.4441
▁wrist	-11.4441
▁compel	-11.4441
▁juicy	-11.4441
▁angelica	-11.4441
▁ankle	-11.4441
▁duh	-11.4441
▁ernest	-11.4441
▁laddie	-11.4441
▁pebbles	-11.4441
▁maury	-11.4441
▁bff	-11.4441
▁piace	-11.4441
▁torment	-11.4441
▁brooks	-11.4441
▁kelp	-11.4441
▁historic	-11.4441
▁rupee	-11.4441
▁gunther	-11.4441
▁lindy	-11.4441
▁pause	-11.4441
▁manifest	-11.4441
▁cattle	-11.4441
▁dug	-11.4441
▁serum	-11.4441
▁sushi	-11.4441
▁carpent	-11.4441
▁discre	-11.4441
▁mercenar	-11.4441
▁assembl	-11.4441
▁winwin	-11.4441
▁forged	-11.4441
▁swarm	-11.4441
▁cartier	-11.4441
▁recognis	-11.4441
▁newcomer	-11.4441
▁dorm	-11.4441
molecul	-11.4441
▁cement	-11.4441
▁dodg	-11.4441
▁clank	-11.4441
▁opal	-11.4441
aturi	-11.4441
▁simms	-11.4441
▁bugged	-11.4441
▁blank	-11.4441
▁lastik	-11.4441
▁copper	-11.4441
▁segregation	-11.4441
▁tenner	-11.4441
▁textbook	-11.4441
▁bestowed	-11.4441
▁juanita	-11.4441
▁shuttle	-11.4441
▁creak	-11.4441
▁mingle	-11.4441
▁twentyfour	-11.4441
▁westworld	-11.4441
▁serpentine	-11.4441
▁cue	-11.4441
▁vanished	-11.4441
▁twentyfive	-11.4441
▁departure	-11.4441
▁inflat	-11.4441
▁featur	-11.4441
▁stlli	-11.4441
▁rails	-11.4442
▁resume	-11.4442
▁grams	-11.4442
dolph	-11.4442
sahib	-11.4442
▁pension	-11.4442
▁robotics	-11.4442
▁convict	-11.4442
▁gwenna	-11.4442
▁harvey	-11.4442
▁robbins	-11.4442
▁content	-11.4442
▁distort	-11.4442
▁suspicious	-11.4442
▁socks	-11.4442
▁rivet	-11.4442
▁parched	-11.4442
▁yoohoo	-11.4442
▁bonfire	-11.4442
▁conned	-11.4442
▁specifically	-11.4442
sanitary	-11.4442
▁appall	-11.4442
▁income	-11.4443
▁ahoy	-11.4443
▁dizzy	-11.4443
cular	-11.4443
▁webber	-11.4443
▁native	-11.4443
▁lizard	-11.4443
▁accused	-11.4443
▁stepping	-11.4443
▁petals	-11.4443
▁description	-11.4443
▁amuse	-11.4444
▁paffe	-11.4444
▁sniffles	-11.4444
▁deci	-11.4444
▁glide	-11.4444
▁unleash	-11.4444
▁feline	-11.4444
▁salvation	-11.4444
▁erase	-11.4445
▁karate	-11.4445
▁muddle	-11.4445
▁transformation	-11.4445
▁shona	-11.4445
▁paperwork	-11.4445
▁alumn	-11.4445
▁budda	-11.4445
▁dislike	-11.4445
▁tidy	-11.4446
▁delta	-11.4446
▁engagement	-11.4446
▁cricket	-11.4446
▁torn	-11.4446
▁prediction	-11.4446
▁sharing	-11.4446
▁dwell	-11.4447
▁mmmmmm	-11.4447
▁conform	-11.4447
▁expressway	-11.4447
▁underway	-11.4447
▁yyou	-11.4447
▁variet	-11.4447
▁voil	-11.4447
lutz	-11.4447
kirk	-11.4447
▁haul	-11.4447
▁transportation	-11.4448
play	-11.4448
▁merge	-11.4448
▁chub	-11.4448
▁paddle	-11.4448
▁yank	-11.4448
▁iong	-11.4449
▁whirs	-11.4449
▁griev	-11.4449
▁spotlight	-11.445
▁tourist	-11.445
sloppy	-11.4451
fusion	-11.4451
▁salary	-11.4451
▁abide	-11.4451
▁shamus	-11.4451
▁tasty	-11.4451
▁patsy	-11.4451
ological	-11.4452
▁genetic	-11.4452
bastia	-11.4453
▁overdo	-11.4453
▁trina	-11.4454
▁pimp	-11.4454
ifyou	-11.4455
okay	-11.4457
▁lsnt	-11.4457
▁substan	-11.4458
▁votin	-11.4459
affe	-11.4461
ternal	-11.4462
ddling	-11.4465
▁combine	-11.4467
▁adore	-11.447
▁define	-11.4471
sensiti	-11.4475
imony	-11.4478
nuck	-11.4483
▁rhun	-11.4494
ndered	-11.4497
pido	-11.4503
ronco	-11.4526
▁overlook	-11.4593
aught	-11.4609
▁slamm	-11.4664
▁mcgr	-11.467
ptical	-11.467
accurate	-11.4701
▁rosa	-11.4721
▁uphol	-11.4834
▁leelailai	-11.4942
▁dye	-11.4954
raving	-11.4991
biamo	-11.5004
dental	-11.5054
▁receiv	-11.5102
▁declar	-11.5399
olera	-11.5431
▁complet	-11.5931
▁cruis	-11.6053
wipe	-11.6248
repa	-11.6326
crib	-11.6361
▁flak	-11.6394
anita	-11.6511
pilots	-11.6734
minded	-11.6777
▁author	-11.68
aunted	-11.6817
▁captur	-11.6843
parts	-11.6845
▁celebr	-11.6865
▁mechanic	-11.6873
▁possess	-11.6884
ivity	-11.6901
▁determine	-11.6905
firm	-11.6912
▁numb	-11.6913
izzy	-11.6913
▁hurr	-11.6913
grave	-11.6914
conduct	-11.6915
grade	-11.6915
june	-11.6915
hammer	-11.6915
julie	-11.6916
shift	-11.6916
plate	-11.6916
space	-11.6916
walk	-11.6916
think	-11.6916
rched	-11.6916
three	-11.6916
fight	-11.6917
paid	-11.6917
snake	-11.6921
▁surprising	-11.6922
▁heavi	-11.6922
▁unfortunate	-11.6922
▁apparent	-11.6923
▁scrub	-11.6923
ought	-11.6924
▁associat	-11.6925
▁bridg	-11.6926
please	-11.6927
▁religio	-11.6928
▁froze	-11.6928
▁believin	-11.693
▁coordinat	-11.693
▁finis	-11.693
▁inspect	-11.693
▁sentiment	-11.6932
▁princip	-11.6932
tridge	-11.6932
▁trait	-11.6932
▁slop	-11.6933
▁qualif	-11.6934
▁terrif	-11.6935
▁salvat	-11.6936
▁construct	-11.6936
scription	-11.6937
▁appoint	-11.6938
fact	-11.6938
▁mysteri	-11.6939
ustache	-11.6939
▁gwen	-11.6939
▁lauren	-11.6939
▁electro	-11.6939
▁garga	-11.694
▁specta	-11.694
▁valenti	-11.694
▁ohhhohh	-11.6941
▁withdraw	-11.6941
ipulate	-11.6941
proximate	-11.6941
squito	-11.6941
tysix	-11.6941
▁abruptly	-11.6941
▁adventurous	-11.6941
▁akrennian	-11.6941
▁alabama	-11.6941
▁alexi	-11.6941
▁ambush	-11.6941
▁andonandonandon	-11.6941
▁anonymous	-11.6941
▁anticipat	-11.6941
▁apologies	-11.6941
▁arrivai	-11.6941
▁austria	-11.6941
▁balcony	-11.6941
▁baloney	-11.6941
▁banquet	-11.6941
▁beanstalk	-11.6941
▁bioexorcist	-11.6941
▁bizarre	-11.6941
▁bjorn	-11.6941
▁bleach	-11.6941
▁bloomington	-11.6941
▁blossom	-11.6941
▁brazil	-11.6941
▁brittany	-11.6941
▁broadcast	-11.6941
▁bubbling	-11.6941
▁bungalow	-11.6941
▁buoy	-11.6941
▁burglar	-11.6941
▁bygones	-11.6941
▁bypass	-11.6941
▁capacitance	-11.6941
▁cavalry	-11.6941
▁cemetery	-11.6941
▁chariot	-11.6941
▁cherries	-11.6941
▁clamoring	-11.6941
▁cloudbreather	-11.6941
▁clutch	-11.6941
▁collision	-11.6941
▁cologne	-11.6941
▁commemorat	-11.6941
▁commodity	-11.6941
▁commotion	-11.6941
▁congrats	-11.6941
▁constitution	-11.6941
▁contemplat	-11.6941
▁convenient	-11.6941
▁crucify	-11.6941
▁crumble	-11.6941
▁cucumber	-11.6941
▁descended	-11.6941
▁dessert	-11.6941
▁devastat	-11.6941
▁disobey	-11.6941
▁distinguish	-11.6941
▁distribut	-11.6941
▁dulock	-11.6941
▁dungeon	-11.6941
▁dynasty	-11.6941
▁elliot	-11.6941
▁employment	-11.6941
▁encounter	-11.6941
▁exborneo	-11.6941
▁excellence	-11.6941
▁executors	-11.6941
▁exquisite	-11.6941
▁exterior	-11.6941
▁fanciful	-11.6941
▁fiddleyio	-11.6941
▁flourish	-11.6941
▁fountain	-11.6941
▁furlough	-11.6941
▁gaffney	-11.6941
▁gettysburg	-11.6941
▁golilla	-11.6941
▁greasy	-11.6941
▁greyhound	-11.6941
▁gridiron	-11.6941
▁grushenko	-11.6941
▁heinlein	-11.6941
▁hereafter	-11.6941
▁homosexual	-11.6941
▁hopscotch	-11.6941
▁horror	-11.6941
▁humiliate	-11.6941
▁humiliating	-11.6941
▁hyperdrive	-11.6941
▁illumination	-11.6941
▁imbecile	-11.6941
▁inbedkov	-11.6941
▁inhales	-11.6941
▁injustice	-11.6941
▁innocence	-11.6941
▁invincible	-11.6941
▁joylette	-11.6941
▁juvenile	-11.6941
▁kasserine	-11.6941
▁kilometers	-11.6941
▁knitting	-11.6941
▁landlord	-11.6941
▁larocca	-11.6941
▁lazarus	-11.6941
▁leather	-11.6941
▁leondegrance	-11.6941
▁liquid	-11.6941
▁lollipop	-11.6941
▁lulu	-11.6941
▁lynetta	-11.6941
▁mackerel	-11.6941
▁magistrate	-11.6941
▁malcolm	-11.6941
▁malfunction	-11.6941
▁mannequin	-11.6941
▁marvellous	-11.6941
▁matllde	-11.6941
▁maywho	-11.6941
▁mexica	-11.6941
▁mexico	-11.6941
▁microscop	-11.6941
▁microwave	-11.6941
▁miraculous	-11.6941
▁monstrous	-11.6941
▁mozart	-11.6941
▁muzeum	-11.6941
▁nimrod	-11.6941
▁nononono	-11.6941
▁normandy	-11.6941
▁nuhuh	-11.6941
▁oatmeal	-11.6941
▁obedience	-11.6941
▁obsolete	-11.6941
▁october	-11.6941
▁okajima	-11.6941
▁okeydoke	-11.6941
▁optimis	-11.6941
▁orangutan	-11.6941
▁orthodox	-11.6941
▁osborne	-11.6941
▁outrageous	-11.6941
▁outsmart	-11.6941
▁overblown	-11.6941
▁overdue	-11.6941
▁paralyzed	-11.6941
▁paranoid	-11.6941
▁passelevve	-11.6941
▁pennsylvania	-11.6941
▁perimeter	-11.6941
▁perpetual	-11.6941
▁petersburg	-11.6941
▁phase	-11.6941
▁piatform	-11.6941
▁pineapple	-11.6941
▁pipsqueak	-11.6941
▁pondicherry	-11.6941
▁practise	-11.6941
▁preferably	-11.6941
▁preview	-11.6941
▁proclaim	-11.6941
▁puberty	-11.6941
▁qualities	-11.6941
▁receipt	-11.6941
▁resolve	-11.6941
▁revolting	-11.6941
▁ritual	-11.6941
▁saajan	-11.6941
▁safflower	-11.6941
▁sanctuary	-11.6941
▁sandecker	-11.6941
▁schwartzwalder	-11.6941
▁scraping	-11.6941
▁scrimmag	-11.6941
▁sensual	-11.6941
▁separation	-11.6941
▁shipshape	-11.6941
▁silverware	-11.6941
▁skulk	-11.6941
▁skyscraper	-11.6941
▁slaughter	-11.6941
▁slitherpoole	-11.6941
▁slurps	-11.6941
▁smurfintine	-11.6941
▁sniper	-11.6941
▁soninlaw	-11.6941
▁spatters	-11.6941
▁sphincter	-11.6941
▁squire	-11.6941
▁starkiller	-11.6941
▁strawberries	-11.6941
▁stunned	-11.6941
▁suffocate	-11.6941
▁sullivan	-11.6941
▁surgeon	-11.6941
▁syllable	-11.6941
▁symptoms	-11.6941
▁synthesizer	-11.6941
▁taormina	-11.6941
▁teresa	-11.6941
▁theodore	-11.6941
▁therapist	-11.6941
▁threequarter	-11.6941
▁tiffany	-11.6941
▁tolstoy	-11.6941
▁trampoline	-11.6941
▁unacceptable	-11.6941
▁unbearable	-11.6941
▁undercover	-11.6941
▁unikitty	-11.6941
▁unreasonable	-11.6941
▁unruly	-11.6941
▁unsportsmanlike	-11.6941
▁usefui	-11.6941
▁wainwright	-11.6941
▁whatsoever	-11.6941
▁wolves	-11.6941
▁wonderfui	-11.6941
▁wondrous	-11.6941
▁ybivalue	-11.6941
anthrop	-11.6941
saurus	-11.6941
▁akbar	-11.6941
▁arcane	-11.6941
▁border	-11.6941
▁boscoe	-11.6941
▁burrito	-11.6941
▁climate	-11.6941
▁cockpit	-11.6941
▁colorado	-11.6941
▁conquest	-11.6941
▁consul	-11.6941
▁cottage	-11.6941
▁domestic	-11.6941
▁dryclean	-11.6941
▁duties	-11.6941
▁fading	-11.6941
▁formidable	-11.6941
▁gelatin	-11.6941
▁genuine	-11.6941
▁germs	-11.6941
▁grease	-11.6941
▁hobart	-11.6941
▁hoffman	-11.6941
▁indisposed	-11.6941
▁indulge	-11.6941
▁inherit	-11.6941
▁intense	-11.6941
▁intruder	-11.6941
▁jethro	-11.6941
▁jiffy	-11.6941
▁jumbo	-11.6941
▁kosta	-11.6941
▁leopard	-11.6941
▁llfe	-11.6941
▁maitland	-11.6941
▁mendoza	-11.6941
▁myspace	-11.6941
▁newlywed	-11.6941
▁nimble	-11.6941
▁prettier	-11.6941
▁reindeer	-11.6941
▁salvage	-11.6941
▁simpson	-11.6941
▁spontaneous	-11.6941
▁striking	-11.6941
▁trauma	-11.6941
▁vokes	-11.6941
▁vomit	-11.6941
▁wrench	-11.6941
▁yuck	-11.6941
forsaken	-11.6941
▁banjo	-11.6941
▁brokaw	-11.6941
▁butbut	-11.6941
▁cinema	-11.6941
▁decline	-11.6941
▁episode	-11.6941
▁essay	-11.6941
▁evasi	-11.6941
▁frederick	-11.6941
▁gluten	-11.6941
▁gokart	-11.6941
▁gossip	-11.6941
▁harmonica	-11.6941
▁hiphip	-11.6941
▁jerome	-11.6941
▁justjust	-11.6941
▁landscape	-11.6941
▁madonna	-11.6941
▁molitor	-11.6941
▁mwah	-11.6941
▁petrina	-11.6941
▁playwright	-11.6941
▁probiem	-11.6941
▁procure	-11.6941
▁raspberr	-11.6941
▁reeves	-11.6941
▁refuge	-11.6941
▁rokai	-11.6941
▁skunk	-11.6941
▁stewart	-11.6941
▁suburb	-11.6941
▁twig	-11.6941
▁amphi	-11.6941
▁assassin	-11.6941
▁defence	-11.6941
▁deploy	-11.6941
▁expense	-11.6941
▁herald	-11.6941
▁brassie	-11.6941
▁gallery	-11.6941
▁gauol	-11.6941
▁heiio	-11.6941
▁maestro	-11.6941
▁shalom	-11.6941
▁yuk	-11.6941
▁anandi	-11.6941
▁embodi	-11.6941
▁leeke	-11.6941
▁postcard	-11.6941
▁swirl	-11.6941
▁brink	-11.6941
▁bunco	-11.6941
▁clover	-11.6941
▁flunk	-11.6941
▁gallop	-11.6941
▁hippie	-11.6941
▁keith	-11.6941
▁outlaw	-11.6941
▁swedish	-11.6941
▁acorn	-11.6941
▁hula	-11.6941
▁offender	-11.6941
▁overrated	-11.6941
▁peewee	-11.6941
▁deacon	-11.6941
▁glaive	-11.6941
▁hashtag	-11.6941
▁mastermind	-11.6941
▁nevertheless	-11.6941
cchio	-11.6941
▁coffin	-11.6941
▁deux	-11.6941
▁drinian	-11.6941
▁emerald	-11.6941
▁saloon	-11.6941
▁tweed	-11.6941
▁wirh	-11.6941
▁fatima	-11.6941
▁guran	-11.6941
▁parlor	-11.6941
▁tramp	-11.6941
▁unveil	-11.6941
▁veins	-11.6941
▁sputter	-11.6941
▁wield	-11.6941
ullah	-11.6941
▁bummer	-11.6941
▁handbag	-11.6941
▁slab	-11.6941
▁licence	-11.6941
▁session	-11.6941
▁siege	-11.6941
▁wheezing	-11.6941
▁align	-11.6941
▁neek	-11.6941
▁urine	-11.6941
▁waik	-11.6941
▁beiong	-11.6941
▁piggy	-11.6941
▁gbh	-11.6941
▁alamo	-11.6941
▁decay	-11.6941
▁whipper	-11.6941
▁audac	-11.6941
▁guru	-11.6941
▁mimic	-11.6941
▁wedgie	-11.6941
▁canoe	-11.6941
▁undone	-11.6941
▁ernst	-11.6941
▁oink	-11.6941
▁repent	-11.6941
▁pamper	-11.6941
▁cowabunga	-11.6941
▁defect	-11.6941
▁klein	-11.6941
▁prophet	-11.6941
▁accomplishments	-11.6941
▁overall	-11.6941
▁attagirl	-11.6941
▁refusing	-11.6941
▁hughes	-11.6941
▁mutual	-11.6941
▁thrive	-11.6941
▁grapes	-11.6941
▁imminent	-11.6941
▁railing	-11.6941
▁ridden	-11.6941
▁valve	-11.6941
▁agil	-11.6941
▁botfight	-11.6941
▁minus	-11.6941
easant	-11.6941
▁bosley	-11.6941
▁disarm	-11.6941
▁advise	-11.6941
▁menace	-11.6941
▁stylis	-11.6941
▁craftsman	-11.6941
▁mink	-11.6941
▁forcing	-11.6941
▁goodwill	-11.6941
▁absence	-11.6941
▁convert	-11.6941
roscop	-11.6941
▁google	-11.6941
▁pledge	-11.6941
▁folly	-11.6941
▁latch	-11.6941
▁warren	-11.6941
▁gender	-11.6941
▁lyric	-11.6941
▁ammunition	-11.6941
gantuan	-11.6941
▁pupa	-11.6941
▁twentytwo	-11.6941
▁scoring	-11.6941
▁vandal	-11.6941
▁dariing	-11.6941
▁aintree	-11.6941
▁spice	-11.6941
▁boosters	-11.6942
▁sculpture	-11.6942
▁jester	-11.6942
▁oreo	-11.6942
▁salesman	-11.6942
▁sprit	-11.6942
▁electronic	-11.6942
▁housing	-11.6942
moxys	-11.6942
▁grits	-11.6942
▁rational	-11.6942
▁brutal	-11.6942
▁insure	-11.6943
▁soak	-11.6943
▁tangle	-11.6943
▁doggie	-11.6944
▁rhin	-11.6944
▁llve	-11.6944
laborat	-11.6944
significan	-11.6944
▁fumbl	-11.6945
▁squander	-11.6945
▁cuddl	-11.6945
ufo	-11.6945
munition	-11.6946
▁riddle	-11.6947
ector	-11.6948
mobile	-11.6948
▁retrac	-11.6948
luxe	-11.6949
▁detonat	-11.6951
easure	-11.6952
plore	-11.6953
▁grasp	-11.6953
▁octa	-11.6957
inkling	-11.6958
▁axe	-11.6962
leash	-11.6962
▁dragonfl	-11.6963
▁justif	-11.6967
harley	-11.6971
▁pabl	-11.6971
▁embr	-11.699
rrent	-11.6992
hair	-11.6994
▁spru	-11.7004
draft	-11.7019
hrist	-11.7022
namel	-11.7024
oggi	-11.7071
▁finn	-11.7078
hart	-11.7098
▁stutter	-11.7125
▁undertak	-11.7132
nzo	-11.7154
▁hydra	-11.7179
kori	-11.7201
roids	-11.7275
▁butterfi	-11.7284
nished	-11.7458
▁visualiz	-11.7462
shelves	-11.7487
▁pegg	-11.7698
penetra	-11.833
prone	-11.8547
predictable	-11.8707
▁communicat	-11.901
threatening	-11.9169
antana	-11.9182
adilla	-11.9197
▁indicat	-11.9313
lailailai	-11.9437
▁measur	-11.9444
hhhh	-11.9691
▁underestimat	-11.9694
cession	-11.9873
▁critic	-12.0042
accounted	-12.0107
doubted	-12.0121
▁profession	-12.0188
▁injur	-12.019
hoho	-12.0198
▁explor	-12.0198
▁recruit	-12.0208
▁clatter	-12.0208
▁disgust	-12.0211
▁squa	-12.0215
equip	-12.0219
▁happi	-12.0229
▁atten	-12.0238
▁grizzl	-12.0241
▁philosoph	-12.0244
▁emergenc	-12.0245
temporary	-12.0247
danger	-12.0247
stream	-12.0248
world	-12.0248
belief	-12.0248
proof	-12.0248
familiar	-12.0249
varsity	-12.0249
winnie	-12.0249
toula	-12.0249
launch	-12.0249
third	-12.0249
concert	-12.0249
cause	-12.0249
double	-12.0253
▁specia	-12.0262
▁administrat	-12.0263
▁darlin	-12.0263
▁narrat	-12.0268
▁yeeha	-12.0268
▁commun	-12.0268
lfred	-12.027
▁differ	-12.0271
mpossible	-12.0272
▁serpent	-12.0272
ecutive	-12.0273
mercial	-12.0273
nfair	-12.0273
excus	-12.0274
ogogo	-12.0274
▁disengag	-12.0274
▁spontan	-12.0274
▁grandchild	-12.0274
▁koushik	-12.0274
▁prohibit	-12.0274
▁shroud	-12.0274
▁sustain	-12.0274
▁unexpl	-12.0274
andahalf	-12.0274
disobedience	-12.0274
margarine	-12.0274
november	-12.0274
punctual	-12.0274
simplify	-12.0274
▁abilities	-12.0274
▁abroad	-12.0274
▁academi	-12.0274
▁adolescence	-12.0274
▁advertised	-12.0274
▁afflict	-12.0274
▁afghanistan	-12.0274
▁afterlife	-12.0274
▁aggressor	-12.0274
▁aiuro	-12.0274
▁alakazoo	-12.0274
▁alleged	-12.0274
▁alphabetical	-12.0274
▁anxiet	-12.0274
▁apocalyp	-12.0274
▁applesauce	-12.0274
▁apprentice	-12.0274
▁approval	-12.0274
▁aptitude	-12.0274
▁archbold	-12.0274
▁aristocrat	-12.0274
▁armadillo	-12.0274
▁artillery	-12.0274
▁aspirin	-12.0274
▁assault	-12.0274
▁background	-12.0274
▁bahamas	-12.0274
▁barracks	-12.0274
▁berkeley	-12.0274
▁bernhardt	-12.0274
▁betrothed	-12.0274
▁blasphem	-12.0274
▁blintzes	-12.0274
▁bridetobe	-12.0274
▁brimstone	-12.0274
▁bundt	-12.0274
▁camelyarde	-12.0274
▁canhardly	-12.0274
▁captivity	-12.0274
▁carnivores	-12.0274
▁carthaginians	-12.0274
▁cauliflower	-12.0274
▁centaur	-12.0274
▁cereal	-12.0274
▁ceremonies	-12.0274
▁cheerleading	-12.0274
▁cheesecake	-12.0274
▁chepstow	-12.0274
▁chivalry	-12.0274
▁cinzano	-12.0274
▁cockaleekie	-12.0274
▁colleague	-12.0274
▁colorcoded	-12.0274
▁complication	-12.0274
▁concussion	-12.0274
▁conflict	-12.0274
▁confusing	-12.0274
▁connecticut	-12.0274
▁conrinues	-12.0274
▁conscience	-12.0274
▁consolation	-12.0274
▁contempt	-12.0274
▁copilot	-12.0274
▁coyote	-12.0274
▁crawford	-12.0274
▁crimson	-12.0274
▁curiosity	-12.0274
▁cushion	-12.0274
▁cyborg	-12.0274
▁dammit	-12.0274
▁dedication	-12.0274
▁definition	-12.0274
▁delirious	-12.0274
▁democracy	-12.0274
▁determination	-12.0274
▁diameter	-12.0274
▁dictabird	-12.0274
▁dimension	-12.0274
▁dinosaur	-12.0274
▁discourage	-12.0274
▁disneyland	-12.0274
▁driscoll	-12.0274
▁dummkopf	-12.0274
▁duplicat	-12.0274
▁dwarves	-12.0274
▁earthquak	-12.0274
▁eccentric	-12.0274
▁eleanor	-12.0274
▁embezzle	-12.0274
▁embezzling	-12.0274
▁emptiness	-12.0274
▁evangel	-12.0274
▁exterminate	-12.0274
▁farfingles	-12.0274
▁favre	-12.0274
▁feminine	-12.0274
▁fractions	-12.0274
▁franchise	-12.0274
▁frequent	-12.0274
▁fugax	-12.0274
▁fugitive	-12.0274
▁fuzzball	-12.0274
▁geographic	-12.0274
▁gesundheit	-12.0274
▁goldilocks	-12.0274
▁grissom	-12.0274
▁grumble	-12.0274
▁guidance	-12.0274
▁haiku	-12.0274
▁halfpipe	-12.0274
▁hamstring	-12.0274
▁handkerchief	-12.0274
▁harlem	-12.0274
▁hasbeen	-12.0274
▁havoc	-12.0274
▁heartbroken	-12.0274
▁hemsut	-12.0274
▁hiidegarde	-12.0274
▁hitchhike	-12.0274
▁hobbyhorse	-12.0274
▁houdini	-12.0274
▁humidity	-12.0274
▁humongous	-12.0274
▁iaugh	-12.0274
▁ifarren	-12.0274
▁ignition	-12.0274
▁ignoring	-12.0274
▁imaginable	-12.0274
▁impact	-12.0274
▁imperative	-12.0274
▁incomplete	-12.0274
▁independen	-12.0274
▁industry	-12.0274
▁inflexible	-12.0274
▁ingalls	-12.0274
▁ingenuity	-12.0274
▁inhabitant	-12.0274
▁insanity	-12.0274
▁integrity	-12.0274
▁interfering	-12.0274
▁interrogation	-12.0274
▁invasion	-12.0274
▁jejune	-12.0274
▁jeopardy	-12.0274
▁koolaid	-12.0274
▁krapotkin	-12.0274
▁krishna	-12.0274
▁kroot	-12.0274
▁krull	-12.0274
▁krypton	-12.0274
▁leprechaun	-12.0274
▁literature	-12.0274
▁livorno	-12.0274
▁mafdet	-12.0274
▁malfoy	-12.0274
▁manhattan	-12.0274
▁masculine	-12.0274
▁mechanism	-12.0274
▁metabolism	-12.0274
▁michelle	-12.0274
▁microchip	-12.0274
