<unk>	0
<s>	0
</s>	0
s	-3.60922
▁know	-4.48207
▁im	-4.51941
▁dont	-4.52086
▁get	-4.71236
▁got	-4.79931
▁right	-4.80185
▁like	-4.91149
▁yeah	-4.92206
▁go	-4.94129
▁youre	-5.01385
▁come	-5.07768
▁na	-5.08284
▁thats	-5.15807
▁one	-5.19671
▁well	-5.2415
▁oh	-5.28502
▁fucking	-5.30807
▁want	-5.31181
ing	-5.31374
▁man	-5.32395
▁good	-5.34645
▁gon	-5.35012
▁	-5.41905
▁see	-5.43318
▁okay	-5.46174
▁fuck	-5.47399
▁think	-5.48082
ed	-5.51342
▁hes	-5.54101
▁back	-5.59593
▁look	-5.61021
▁take	-5.6532
▁hey	-5.66609
▁l	-5.69486
▁time	-5.71625
▁ill	-5.74997
▁tell	-5.76355
▁going	-5.79227
▁us	-5.8015
▁say	-5.84013
▁yes	-5.85231
▁shit	-5.90951
▁cant	-5.94751
▁could	-5.9547
▁didnt	-5.96318
▁would	-5.96342
d	-5.97039
▁need	-5.97048
▁give	-5.98507
▁make	-6.00615
▁way	-6.02691
▁mean	-6.04272
▁something	-6.0603
▁never	-6.07885
▁little	-6.08823
▁let	-6.08998
▁whats	-6.11214
▁really	-6.11961
▁two	-6.15171
▁lets	-6.1569
y	-6.16986
▁theres	-6.18844
▁please	-6.20963
▁said	-6.23229
▁sir	-6.23535
▁people	-6.23665
o	-6.23986
▁ive	-6.25373
▁thank	-6.2696
▁money	-6.27349
e	-6.29613
▁sorry	-6.29765
▁mr	-6.31267
▁god	-6.33304
▁thing	-6.3565
▁love	-6.37331
▁guy	-6.37502
▁put	-6.38394
er	-6.38411
▁call	-6.38466
▁sure	-6.41604
▁uh	-6.42544
▁help	-6.44444
▁anything	-6.46185
▁name	-6.46933
▁nothing	-6.4813
▁much	-6.48408
▁even	-6.4863
▁theyre	-6.48833
▁life	-6.49528
▁talk	-6.51101
ly	-6.51129
▁day	-6.5288
▁find	-6.5383
▁car	-6.54001
▁keep	-6.55632
▁guys	-6.55703
▁ta	-6.55852
a	-6.56344
▁stop	-6.5766
▁night	-6.62253
▁work	-6.62633
t	-6.62987
▁around	-6.63531
▁away	-6.63709
▁big	-6.65016
▁first	-6.6601
▁still	-6.66177
▁home	-6.66666
▁wan	-6.66707
▁wait	-6.66795
▁maybe	-6.67702
▁ever	-6.69064
▁new	-6.69185
▁shes	-6.7054
▁listen	-6.71553
in	-6.71941
▁kill	-6.72579
▁better	-6.73303
▁old	-6.74404
▁last	-6.76433
▁thought	-6.76454
▁everything	-6.76783
▁years	-6.78122
▁long	-6.7831
▁hell	-6.78657
▁always	-6.78659
▁things	-6.79333
▁house	-6.79369
▁great	-6.79578
▁boy	-6.79805
▁baby	-6.80001
▁aint	-6.80578
▁told	-6.81549
r	-6.82084
▁understand	-6.82216
▁three	-6.82635
▁move	-6.82854
▁dead	-6.83143
▁place	-6.83704
▁id	-6.8471
▁hear	-6.85391
▁every	-6.85972
▁bad	-6.86789
▁door	-6.87697
▁fuckin	-6.88445
▁son	-6.88984
▁leave	-6.89269
▁wont	-6.89905
▁lot	-6.90242
▁real	-6.90812
▁nice	-6.93716
▁youll	-6.94031
▁job	-6.94068
▁made	-6.94733
▁father	-6.94954
▁youve	-6.96043
▁done	-6.96505
▁talking	-6.96592
▁stay	-6.97431
▁kind	-6.97958
▁left	-6.9879
▁feel	-6.99177
▁believe	-6.99698
▁doesnt	-7.00193
▁girl	-7.01096
n	-7.01617
▁huh	-7.02336
▁care	-7.03444
▁ask	-7.03625
▁remember	-7.03865
▁hi	-7.04176
▁ok	-7.04524
▁wrong	-7.07269
i	-7.07984
▁ass	-7.08249
▁fine	-7.08517
▁friend	-7.08541
▁business	-7.11896
▁mother	-7.11926
▁hold	-7.11978
▁run	-7.11979
▁happened	-7.12378
▁coming	-7.13314
▁came	-7.13623
▁enough	-7.13799
▁wanted	-7.13885
▁phone	-7.14084
▁looking	-7.14732
▁show	-7.14827
▁else	-7.14888
▁getting	-7.15076
▁family	-7.15157
▁kid	-7.15494
▁world	-7.15984
m	-7.16476
▁must	-7.16491
l	-7.16858
▁wasnt	-7.17371
▁men	-7.1746
▁course	-7.17652
▁hello	-7.17659
▁head	-7.17795
▁another	-7.19634
▁gun	-7.19718
▁open	-7.19801
▁wife	-7.20172
▁went	-7.21367
▁found	-7.21925
▁morning	-7.22244
▁today	-7.2254
▁trying	-7.22966
u	-7.23352
▁next	-7.2402
▁deal	-7.24567
▁mind	-7.25351
▁best	-7.25849
▁watch	-7.2607
▁might	-7.26442
▁isnt	-7.26748
▁knew	-7.27056
▁woman	-7.27057
▁hard	-7.2753
▁heard	-7.27755
▁em	-7.2923
al	-7.29896
▁cause	-7.29916
▁killed	-7.30266
▁seen	-7.30462
▁hand	-7.30601
es	-7.3085
▁thanks	-7.30961
▁problem	-7.32713
▁de	-7.33915
▁shut	-7.34059
▁um	-7.34272
▁tony	-7.34748
b	-7.35004
▁took	-7.35073
▁jesus	-7.35411
▁whos	-7.35895
▁may	-7.36198
p	-7.3622
▁sit	-7.36605
▁saw	-7.3676
▁tonight	-7.37097
▁room	-7.37113
▁try	-7.37179
▁police	-7.37398
▁wouldnt	-7.37511
▁bring	-7.37778
▁shot	-7.38224
▁someone	-7.38946
▁goddamn	-7.3951
▁case	-7.39817
▁meet	-7.40422
▁five	-7.40575
▁nobody	-7.41097
▁whole	-7.41985
▁pay	-7.4223
▁bitch	-7.42294
▁pretty	-7.42342
▁jimmy	-7.42703
▁hit	-7.42912
▁brother	-7.42927
▁saying	-7.4331
▁n	-7.43547
▁everybody	-7.44429
▁die	-7.44594
ll	-7.44709
▁dad	-7.45052
c	-7.4513
▁playing	-7.45722
▁gone	-7.45879
▁ready	-7.46533
g	-7.4655
▁start	-7.466
▁face	-7.46755
▁used	-7.46857
▁end	-7.47567
▁many	-7.48107
▁weve	-7.48642
▁alright	-7.49409
▁idea	-7.49853
▁friends	-7.49947
▁hands	-7.49989
▁music	-7.5016
▁without	-7.50182
▁happy	-7.50576
▁play	-7.51353
▁matter	-7.51474
▁live	-7.51902
▁four	-7.52133
▁together	-7.52146
▁lm	-7.52225
▁called	-7.52621
▁minutes	-7.52692
▁says	-7.52864
▁youd	-7.5298
▁days	-7.52986
▁bit	-7.53095
▁cut	-7.53655
▁henry	-7.53703
▁somebody	-7.53901
ie	-7.54088
▁point	-7.54338
▁turn	-7.54637
▁guess	-7.55773
▁crazy	-7.55777
▁shoot	-7.56001
▁use	-7.5703
▁alone	-7.57851
▁whoa	-7.58689
▁frank	-7.59105
or	-7.59118
▁line	-7.59219
▁havent	-7.59966
▁stuff	-7.59967
▁beautiful	-7.60395
▁worry	-7.60826
▁excuse	-7.61259
▁couldnt	-7.61353
▁six	-7.61695
▁gave	-7.62578
▁damn	-7.62594
ers	-7.62877
▁ah	-7.62988
▁dog	-7.63312
▁forget	-7.63435
▁wheres	-7.63598
▁set	-7.63798
▁already	-7.63896
▁second	-7.63908
▁anyone	-7.64343
▁check	-7.64771
▁inside	-7.64794
▁kids	-7.65557
▁black	-7.67108
▁hope	-7.67208
▁walk	-7.67505
▁danny	-7.67525
▁million	-7.67528
▁motherfucker	-7.67631
▁un	-7.67876
▁ago	-7.67975
▁easy	-7.68453
▁pick	-7.68463
▁drive	-7.68713
▁eyes	-7.69334
▁number	-7.69555
▁since	-7.70338
▁half	-7.71271
ar	-7.71273
▁e	-7.7148
▁que	-7.71519
▁boss	-7.71712
▁yet	-7.7178
▁goes	-7.71979
▁clean	-7.72155
▁read	-7.7253
on	-7.72619
▁drink	-7.72855
▁john	-7.73212
▁captain	-7.73228
▁rest	-7.73237
▁later	-7.73327
▁supposed	-7.73641
▁fight	-7.73724
▁minute	-7.74528
▁anybody	-7.74705
▁thinking	-7.7499
▁probably	-7.75703
▁lost	-7.7623
▁chance	-7.76713
▁soon	-7.77061
▁cool	-7.77193
▁lord	-7.77219
▁front	-7.77228
ic	-7.7733
▁close	-7.77644
▁free	-7.77927
▁clear	-7.78017
▁sighs	-7.78241
▁taking	-7.78274
▁year	-7.78695
▁tomorrow	-7.78756
▁christ	-7.78794
▁stand	-7.78944
▁couple	-7.79276
▁buy	-7.79328
▁laughing	-7.79459
▁red	-7.79678
▁outside	-7.79796
▁boys	-7.80231
ve	-7.80282
▁la	-7.80343
▁working	-7.8036
▁chuckles	-7.80471
▁week	-7.80808
▁exactly	-7.80867
▁fire	-7.81156
▁anyway	-7.81374
▁mom	-7.81379
▁wants	-7.81381
▁school	-7.81387
▁war	-7.81868
▁heart	-7.81929
le	-7.82187
▁whatever	-7.82441
▁game	-7.82523
▁part	-7.82829
▁dude	-7.8299
▁word	-7.8302
▁hate	-7.83152
▁funny	-7.83521
▁white	-7.83529
▁change	-7.83805
▁bill	-7.83863
▁actually	-7.84069
▁far	-7.84087
▁street	-7.84115
▁behind	-7.84609
▁blood	-7.84966
ion	-7.85178
▁piece	-7.85264
▁miss	-7.85318
▁young	-7.85542
▁ahead	-7.85718
▁answer	-7.86521
▁ya	-7.86728
f	-7.86906
▁trust	-7.86977
ies	-7.87184
▁sleep	-7.87453
▁looks	-7.87797
▁though	-7.87885
▁making	-7.87965
▁death	-7.88523
▁cop	-7.88788
▁happen	-7.89428
▁jack	-7.89522
▁town	-7.89686
▁stupid	-7.90244
▁c	-7.90356
▁pull	-7.90733
▁truth	-7.90825
ur	-7.91482
▁grunts	-7.91581
h	-7.918
▁question	-7.91864
▁sometimes	-7.92608
▁water	-7.92626
▁jordan	-7.93186
▁tommy	-7.93191
▁mine	-7.94028
▁ten	-7.94312
▁afraid	-7.94387
v	-7.94419
▁tom	-7.95043
▁continues	-7.95102
▁side	-7.95411
▁city	-7.95626
▁eat	-7.95686
▁met	-7.9586
▁sick	-7.96213
▁anymore	-7.96216
▁story	-7.9622
est	-7.96332
▁send	-7.96348
▁re	-7.96425
▁high	-7.9702
▁asked	-7.97239
k	-7.97355
▁hurt	-7.97376
▁bullshit	-7.97455
▁months	-7.97687
▁grunting	-7.98113
▁break	-7.98344
▁speak	-7.98462
▁bet	-7.98653
▁alive	-7.9872
▁body	-7.98726
▁girls	-7.99458
▁touch	-7.9961
▁h	-8.00393
▁started	-8.00671
▁hours	-8.00974
▁nick	-8.01069
▁fucked	-8.0116
▁also	-8.01267
▁true	-8.01277
▁times	-8.02075
▁wish	-8.03151
▁daughter	-8.03192
▁trouble	-8.03225
▁dr	-8.03906
▁light	-8.04396
▁nigger	-8.04554
an	-8.04568
▁telling	-8.05381
▁doctor	-8.05934
▁michael	-8.06581
▁least	-8.06594
▁late	-8.07146
w	-8.0719
▁important	-8.07267
▁country	-8.07277
▁makes	-8.07423
▁eye	-8.07543
▁grand	-8.08643
▁tv	-8.08662
▁fun	-8.09312
▁person	-8.09388
▁everyone	-8.09506
▁cops	-8.09822
▁office	-8.09928
▁hows	-8.10056
▁party	-8.10331
▁heres	-8.10372
us	-8.11082
en	-8.11421
▁a	-8.11836
▁bed	-8.11936
th	-8.11944
▁full	-8.1199
▁moment	-8.12427
▁bank	-8.12648
▁arent	-8.12924
▁cash	-8.1293
▁nicky	-8.13158
man	-8.13193
▁different	-8.13493
▁order	-8.13496
▁drop	-8.13636
▁welcome	-8.13651
ch	-8.14115
▁means	-8.1448
▁either	-8.15127
▁waiting	-8.15819
▁table	-8.1592
▁screaming	-8.15948
▁step	-8.16136
▁hour	-8.16235
▁they	-8.16328
▁fast	-8.16465
▁serious	-8.16477
▁hmm	-8.1656
▁company	-8.16626
it	-8.16782
▁hang	-8.16891
▁club	-8.17352
▁calm	-8.17383
▁beat	-8.17715
▁prison	-8.17925
▁gentlemen	-8.18147
▁top	-8.182
▁se	-8.18277
▁truck	-8.18522
▁lose	-8.18709
▁lts	-8.19155
▁reason	-8.19277
▁lll	-8.19631
▁shall	-8.19707
▁comes	-8.1991
▁v	-8.2016
▁promise	-8.21
▁private	-8.2126
▁daddy	-8.21274
▁groans	-8.21315
▁tried	-8.21324
▁win	-8.21435
st	-8.21768
▁stan	-8.21824
▁almost	-8.22053
▁husband	-8.22053
▁buddy	-8.22854
▁voice	-8.22855
▁worth	-8.22864
▁sign	-8.2289
▁taken	-8.23239
▁special	-8.23363
▁book	-8.23557
▁died	-8.23588
▁honey	-8.23666
▁safe	-8.24268
▁along	-8.2447
▁living	-8.24476
▁ace	-8.24566
▁save	-8.25049
▁bar	-8.25287
▁itll	-8.25293
▁asking	-8.25314
▁mrs	-8.25557
▁swear	-8.26119
▁brought	-8.26119
▁blue	-8.2612
▁howard	-8.2612
▁sent	-8.26167
ce	-8.26301
▁officer	-8.26907
▁stem	-8.26959
▁wake	-8.26969
id	-8.27023
▁hed	-8.27548
▁fact	-8.27709
▁laughs	-8.27731
▁th	-8.28093
▁hot	-8.28111
▁asshole	-8.28508
▁control	-8.28632
▁groaning	-8.28657
▁past	-8.28715
▁building	-8.28811
▁sell	-8.29062
▁in	-8.29333
▁happens	-8.29369
▁sound	-8.29415
▁straight	-8.29464
▁team	-8.29528
▁f	-8.29562
▁scared	-8.29632
▁radio	-8.30357
▁b	-8.30874
▁count	-8.31003
▁running	-8.31234
▁poor	-8.31258
▁quite	-8.31365
▁questions	-8.31676
▁coffee	-8.32104
▁wow	-8.32111
▁iike	-8.32122
re	-8.32699
▁karen	-8.32988
▁roll	-8.33191
▁french	-8.33658
▁mouth	-8.33908
▁i	-8.34676
▁dick	-8.34744
▁sense	-8.34786
▁married	-8.34788
▁floor	-8.34792
▁bastard	-8.34817
able	-8.34943
▁j	-8.34977
▁throw	-8.35093
▁worked	-8.35226
▁crime	-8.35256
z	-8.35338
▁known	-8.35469
▁slow	-8.3555
▁food	-8.35702
▁catch	-8.3574
▁da	-8.35929
▁smart	-8.36431
▁power	-8.36681
▁speaking	-8.37333
▁act	-8.37446
▁choice	-8.37535
▁mitch	-8.37535
▁children	-8.37537
▁follow	-8.3756
▁kidding	-8.37563
▁aii	-8.37643
▁air	-8.37675
▁ha	-8.37977
▁fat	-8.38057
▁yo	-8.38281
▁hair	-8.38294
▁stick	-8.3834
▁plan	-8.38394
▁york	-8.38469
▁english	-8.38469
▁till	-8.38499
▁news	-8.38773
▁panting	-8.39435
▁pass	-8.39442
▁road	-8.39538
▁bye	-8.40366
▁weeks	-8.40419
▁child	-8.40522
▁sister	-8.40556
▁lucky	-8.40561
▁state	-8.40684
▁murder	-8.40694
▁blow	-8.40935
▁sam	-8.41243
ta	-8.4125
▁sort	-8.41346
▁learn	-8.41367
▁ball	-8.41413
▁pain	-8.41489
▁feeling	-8.41594
▁respect	-8.4227
▁grey	-8.42298
▁hotel	-8.42319
▁cold	-8.42357
▁boat	-8.42548
▁engine	-8.42779
▁st	-8.42911
ii	-8.43324
▁knock	-8.43357
▁holy	-8.4337
▁needs	-8.43396
▁eu	-8.43461
▁watching	-8.4389
▁relax	-8.44268
▁seems	-8.4427
▁dance	-8.44295
to	-8.44357
▁finish	-8.44861
▁dinner	-8.45268
▁detective	-8.45269
▁est	-8.4532
▁lie	-8.4535
▁somewhere	-8.46278
▁tires	-8.46406
▁picture	-8.46645
▁paul	-8.47097
▁luck	-8.47147
▁rat	-8.47189
▁sweet	-8.47244
ra	-8.47328
ian	-8.47601
▁short	-8.47642
▁p	-8.47908
▁less	-8.48022
▁lives	-8.48063
▁rock	-8.48098
▁corleone	-8.48329
▁leaving	-8.48332
▁seven	-8.4838
▁none	-8.48462
▁mary	-8.48806
▁max	-8.49324
▁cam	-8.4953
ity	-8.49983
▁pa	-8.50189
▁lady	-8.50492
▁perfect	-8.50722
▁gold	-8.51407
▁green	-8.51483
▁hurry	-8.51488
▁moving	-8.51493
▁agent	-8.515
▁pop	-8.51602
il	-8.51781
▁guns	-8.51788
▁ride	-8.51796
▁ringing	-8.51963
▁lawyer	-8.52003
▁bag	-8.5223
▁women	-8.52564
▁charlie	-8.52565
▁master	-8.52575
▁sake	-8.52575
▁eight	-8.52605
▁sitting	-8.52623
▁d	-8.52738
▁thousand	-8.531
ment	-8.53183
▁wall	-8.53388
▁figure	-8.53391
▁calling	-8.53521
▁court	-8.53633
▁able	-8.54218
▁quiet	-8.54599
co	-8.5467
▁handle	-8.54741
▁glad	-8.5475
ive	-8.55
▁meeting	-8.55196
▁hundred	-8.55371
um	-8.55471
▁talked	-8.55638
▁small	-8.55684
▁rich	-8.55715
▁pleasure	-8.5586
▁driving	-8.55863
▁maam	-8.55866
▁james	-8.55872
▁jail	-8.55881
▁ring	-8.55901
ia	-8.55911
▁cell	-8.55919
up	-8.5613
▁rid	-8.56246
▁month	-8.56572
ha	-8.56924
▁outta	-8.56995
▁loved	-8.57032
▁mad	-8.57033
▁appreciate	-8.57051
less	-8.57096
▁tape	-8.57162
li	-8.57311
▁m	-8.57362
▁brothers	-8.57404
▁lf	-8.57667
▁horse	-8.57724
▁killing	-8.57853
ro	-8.58106
▁paid	-8.58207
▁sounds	-8.58253
▁offer	-8.58409
▁machine	-8.58861
▁become	-8.58869
▁bullet	-8.58891
▁con	-8.58991
▁fair	-8.59061
ter	-8.59101
▁maurizio	-8.59269
▁dave	-8.59322
▁given	-8.59339
▁doc	-8.59485
▁train	-8.59528
▁beer	-8.59625
el	-8.59831
▁law	-8.60035
▁window	-8.60076
▁across	-8.60432
▁ladies	-8.60444
la	-8.60952
▁pro	-8.611
▁lock	-8.6132
▁quit	-8.61425
▁david	-8.61608
▁s	-8.61938
▁charge	-8.62221
▁ran	-8.623
▁quick	-8.62477
▁missing	-8.62682
▁dream	-8.62774
▁hospital	-8.62799
▁human	-8.62799
▁situation	-8.62799
▁patrick	-8.628
▁shouldnt	-8.628
▁race	-8.62819
▁names	-8.62857
is	-8.62895
▁busy	-8.62913
▁box	-8.63041
▁miles	-8.63656
▁balls	-8.63723
▁guard	-8.63741
▁looked	-8.63847
▁dollars	-8.63876
ist	-8.63951
▁favor	-8.63997
▁dark	-8.6402
▁expect	-8.64302
▁hide	-8.64474
nt	-8.6479
▁present	-8.64797
ous	-8.64826
▁words	-8.6516
ant	-8.65176
▁except	-8.65184
▁song	-8.65273
▁feet	-8.65274
▁grab	-8.65439
▁ben	-8.65519
▁mark	-8.65795
▁smell	-8.65802
▁k	-8.6593
▁wear	-8.65994
▁keys	-8.66241
▁tough	-8.66458
▁price	-8.66469
▁born	-8.66505
▁theyve	-8.66526
▁enjoy	-8.66766
do	-8.66806
x	-8.6682
▁date	-8.66877
▁bell	-8.67118
▁co	-8.67153
ne	-8.67395
▁owe	-8.67396
▁harry	-8.67712
▁apartment	-8.67714
▁tired	-8.67725
▁post	-8.67896
▁al	-8.6801
▁mama	-8.68336
▁card	-8.685
▁strong	-8.68801
▁lt	-8.68883
▁cunt	-8.6898
▁dangerous	-8.68985
▁early	-8.69098
▁wed	-8.69197
▁mess	-8.69634
▁kiss	-8.69761
▁near	-8.70069
▁felt	-8.70256
▁forever	-8.70258
▁judge	-8.70259
▁giving	-8.70261
▁gasps	-8.70521
▁mo	-8.70622
te	-8.71342
▁joe	-8.71375
▁longer	-8.71408
▁hunt	-8.71501
▁explain	-8.71537
▁vincent	-8.71557
▁security	-8.71587
▁american	-8.71663
▁mike	-8.72657
▁beach	-8.72791
▁partner	-8.7283
▁secret	-8.72866
▁bunch	-8.7287
▁kept	-8.72871
▁uncle	-8.72955
▁parents	-8.73291
▁list	-8.73294
▁maya	-8.7349
▁land	-8.73639
▁fish	-8.73756
▁glass	-8.74131
▁service	-8.74165
▁anywhere	-8.74203
▁crowd	-8.74203
▁peace	-8.74203
▁worse	-8.74203
▁birthday	-8.74204
▁fault	-8.74205
▁prick	-8.74209
▁shouting	-8.74282
▁driver	-8.74522
lo	-8.74578
▁meant	-8.74824
▁king	-8.74967
▁horn	-8.7536
▁proud	-8.75552
▁italian	-8.75554
▁chief	-8.75555
▁terrible	-8.75555
▁gucci	-8.75556
▁movie	-8.75573
▁fool	-8.75582
▁walking	-8.7566
▁key	-8.75739
▁dear	-8.75764
ting	-8.75873
ness	-8.75889
▁seem	-8.75931
▁arrest	-8.76517
▁po	-8.76553
▁burn	-8.76612
▁needed	-8.7665
▁smoke	-8.76699
▁joel	-8.768
▁django	-8.76925
▁possible	-8.76925
▁werent	-8.76925
▁goodbye	-8.76925
▁river	-8.76928
▁cab	-8.76929
▁unless	-8.76982
▁paper	-8.77016
▁vi	-8.77221
▁laugh	-8.77473
ling	-8.77653
▁join	-8.77699
no	-8.7777
▁para	-8.77872
▁attack	-8.77899
ation	-8.77962
▁joke	-8.78152
▁write	-8.78181
▁mate	-8.78255
▁personal	-8.78271
▁turned	-8.78306
▁caught	-8.78314
▁wonder	-8.78781
▁broke	-8.79191
▁fall	-8.79252
as	-8.79261
▁drugs	-8.79406
▁g	-8.79433
▁track	-8.795
▁careful	-8.79645
▁accident	-8.79722
▁information	-8.79725
ine	-8.80563
▁seconds	-8.8113
▁london	-8.81151
▁history	-8.81151
▁gift	-8.81153
▁spent	-8.81158
▁lauda	-8.81159
▁mas	-8.81267
▁kick	-8.81665
▁seat	-8.81714
▁evening	-8.81902
de	-8.82294
▁general	-8.8244
▁super	-8.82573
▁dumb	-8.82586
rs	-8.82592
▁knife	-8.826
▁nigga	-8.826
▁ooh	-8.82601
▁mickey	-8.82605
▁clothes	-8.82606
▁harley	-8.82625
▁foot	-8.82662
▁louis	-8.82698
▁richie	-8.8275
▁shop	-8.82751
▁nose	-8.82761
▁round	-8.82767
▁lance	-8.8289
▁ice	-8.82932
▁spend	-8.83558
▁chatter	-8.8356
▁honor	-8.83676
▁mmm	-8.84062
▁position	-8.8407
▁jackson	-8.84098
▁doin	-8.84159
▁mistake	-8.84208
▁rose	-8.84359
▁places	-8.84423
▁record	-8.84924
age	-8.85102
▁be	-8.85232
▁reggie	-8.85563
▁others	-8.85563
▁emily	-8.85564
▁drunk	-8.85567
▁gang	-8.85569
▁fear	-8.85576
▁pe	-8.85664
▁sun	-8.85878
▁brain	-8.85923
▁drug	-8.85933
am	-8.85999
ri	-8.86018
im	-8.86223
▁sean	-8.86435
▁suppose	-8.86822
▁arm	-8.86845
▁forgive	-8.87064
▁weird	-8.87078
▁rather	-8.87089
▁shh	-8.87096
▁earth	-8.87098
▁cheering	-8.87215
▁crewe	-8.87227
▁killer	-8.87258
▁ron	-8.87276
▁ow	-8.87303
▁ground	-8.87397
▁casino	-8.874
▁dis	-8.87411
▁message	-8.87414
▁works	-8.87483
▁return	-8.87687
ry	-8.87901
▁america	-8.8841
▁indistinct	-8.88466
▁certain	-8.88477
▁spot	-8.8861
▁francis	-8.88617
▁president	-8.88617
▁vegas	-8.88617
▁brian	-8.88626
▁r	-8.88651
▁bob	-8.88678
▁putting	-8.8882
▁mm	-8.89123
▁cover	-8.89259
▁age	-8.89266
▁reg	-8.8942
ad	-8.89443
▁prove	-8.89454
▁steal	-8.8964
▁mons	-8.89703
▁sex	-8.90001
▁goin	-8.90168
▁gerry	-8.90179
▁tyler	-8.90181
▁bought	-8.90183
▁finally	-8.90277
▁skin	-8.90331
▁starts	-8.90353
▁shed	-8.90452
lng	-8.90976
na	-8.91234
▁surprise	-8.91506
▁fathers	-8.91508
▁entire	-8.91608
▁stole	-8.91682
▁afternoon	-8.91766
▁instead	-8.91766
▁worried	-8.91766
▁island	-8.91767
▁niki	-8.91767
▁mmhmm	-8.918
▁ho	-8.92084
▁plane	-8.92281
▁dress	-8.92893
▁deep	-8.93054
▁si	-8.93241
et	-8.93313
▁simple	-8.9338
▁sweetheart	-8.93381
▁andy	-8.93384
▁wonderful	-8.93394
▁mick	-8.93401
▁scene	-8.93412
▁single	-8.93418
▁decided	-8.93548
ton	-8.93829
▁nine	-8.93849
▁crying	-8.93871
▁dry	-8.93919
▁report	-8.94041
▁push	-8.9408
ent	-8.94387
▁cry	-8.94737
▁north	-8.94995
▁throat	-8.95019
▁especially	-8.95019
▁forward	-8.95019
▁tight	-8.95021
▁innocent	-8.95024
▁brody	-8.95025
▁johnny	-8.95034
▁absolutely	-8.95047
▁shell	-8.9505
go	-8.9528
▁cards	-8.95286
ful	-8.95808
ass	-8.96209
ary	-8.96367
▁howd	-8.96466
▁ex	-8.96546
▁am	-8.96633
▁christmas	-8.96686
▁lay	-8.96727
▁dirty	-8.96765
▁so	-8.96794
▁problems	-8.96941
▁bro	-8.96987
▁protect	-8.97396
▁rule	-8.9742
▁visit	-8.97772
▁orders	-8.97793
▁cat	-8.97981
▁closes	-8.97988
▁listening	-8.98041
▁carry	-8.98042
▁named	-8.9816
▁address	-8.98315
▁amazing	-8.9838
▁whatd	-8.98381
▁attention	-8.98381
▁risk	-8.98385
▁station	-8.98439
▁yall	-8.98561
▁rain	-8.98775
▁park	-8.98849
▁theyd	-8.98968
▁fit	-8.99158
▁changed	-8.99195
▁takes	-8.99217
out	-8.99329
▁hill	-8.99528
▁low	-8.99928
▁south	-9.00048
ck	-9.00082
▁everywhere	-9.00104
▁middle	-9.00104
▁fbi	-9.00104
▁heavy	-9.00121
▁sonny	-9.00141
▁gasping	-9.00175
pa	-9.00179
▁breathing	-9.00499
▁class	-9.00536
▁saved	-9.00653
▁pal	-9.00712
ty	-9.00939
▁hole	-9.01039
▁screams	-9.0105
ma	-9.01077
▁missed	-9.01394
▁lead	-9.01425
▁board	-9.0149
one	-9.01515
▁fell	-9.01727
▁public	-9.01836
▁doubt	-9.01859
▁major	-9.01859
▁sobbing	-9.01859
▁area	-9.01859
▁keller	-9.0186
▁milk	-9.019
▁lying	-9.01915
▁walter	-9.01953
▁certainly	-9.0203
▁shoes	-9.02087
▁trip	-9.02337
▁bloody	-9.02539
▁soul	-9.02703
▁leg	-9.02724
▁cock	-9.02739
▁wouldve	-9.0274
▁east	-9.02893
j	-9.03089
▁cost	-9.03217
▁happening	-9.03395
▁narrat	-9.03598
▁future	-9.03644
▁morpheus	-9.03644
▁paolo	-9.03645
▁idiot	-9.03645
▁wedding	-9.03656
▁fighting	-9.03663
▁mothers	-9.03663
▁dogs	-9.03687
▁softly	-9.03738
▁totally	-9.03757
▁shooting	-9.04016
ance	-9.04139
▁bucks	-9.04219
▁ones	-9.04249
ou	-9.04338
ate	-9.04353
▁wearing	-9.04371
▁store	-9.04565
▁normal	-9.05327
▁strange	-9.05334
▁papers	-9.05358
▁folks	-9.05463
▁lebowski	-9.05463
▁alex	-9.05463
▁summer	-9.05463
▁neck	-9.05468
▁bright	-9.05471
▁license	-9.05475
▁upon	-9.05499
▁shake	-9.0553
▁ray	-9.05642
▁frankie	-9.0569
▁copy	-9.06137
▁fired	-9.06366
▁cousin	-9.06399
▁action	-9.06557
▁angel	-9.06691
▁plays	-9.06894
▁jump	-9.06905
▁agree	-9.07034
▁imagine	-9.0706
▁realize	-9.07108
▁legal	-9.07226
▁standing	-9.07255
▁breakfast	-9.07314
▁government	-9.07314
▁pussy	-9.07315
▁teddy	-9.07317
▁stuck	-9.07321
▁plus	-9.07322
▁chicken	-9.07345
ho	-9.07426
▁jo	-9.07459
▁singing	-9.07549
▁joker	-9.07606
ge	-9.08174
per	-9.082
▁pen	-9.08244
▁treat	-9.08244
▁jan	-9.08319
▁field	-9.08521
▁pulled	-9.08622
me	-9.08744
▁wick	-9.08787
▁suck	-9.08981
▁lunch	-9.09192
▁niggers	-9.09197
▁contact	-9.09201
▁double	-9.09201
▁keaton	-9.09201
▁patrizia	-9.09201
▁pocket	-9.09201
▁stephanie	-9.09201
▁yesterday	-9.09201
▁third	-9.09201
▁bridge	-9.09205
▁operation	-9.09206
▁darling	-9.09215
▁mommy	-9.09221
▁voc	-9.09222
▁involved	-9.09271
▁stopped	-9.09295
▁union	-9.09363
▁seeing	-9.09377
▁army	-9.09468
▁interested	-9.09534
▁no	-9.09547
▁consider	-9.10125
▁german	-9.1031
▁patient	-9.10333
▁casey	-9.10352
ted	-9.10394
▁el	-9.10474
▁piss	-9.10677
▁van	-9.10705
▁iii	-9.10727
▁letter	-9.10731
▁honest	-9.10769
▁di	-9.10856
▁bi	-9.11027
▁split	-9.11105
▁background	-9.11124
▁empty	-9.11124
▁ronnie	-9.11124
▁conversation	-9.11128
▁football	-9.11128
▁eh	-9.11275
▁score	-9.11278
▁quickly	-9.11369
▁anna	-9.1144
▁interesting	-9.1154
▁moved	-9.11714
pe	-9.1177
▁billy	-9.11883
▁neo	-9.11936
▁legs	-9.12109
▁stone	-9.12149
▁selling	-9.1226
▁rules	-9.12269
▁fly	-9.13029
▁fix	-9.13046
▁creasy	-9.13085
▁impossible	-9.13085
▁kitchen	-9.13085
▁justice	-9.13086
▁dying	-9.13088
▁sergeant	-9.13089
▁noise	-9.13091
▁aqui	-9.13093
time	-9.13102
▁wheel	-9.13108
▁rob	-9.13142
▁press	-9.13146
▁tea	-9.13146
▁cap	-9.13148
▁mum	-9.13166
▁gary	-9.13173
▁choose	-9.13234
▁cars	-9.13377
▁ii	-9.13433
▁guards	-9.13509
▁cr	-9.13708
▁starting	-9.13742
▁dig	-9.13851
▁bags	-9.14059
▁animal	-9.14375
▁numbers	-9.14405
▁unit	-9.14444
sh	-9.14571
▁where	-9.14575
▁per	-9.1465
▁liked	-9.14773
se	-9.14844
▁bear	-9.14886
▁beg	-9.15045
▁do	-9.15067
▁forgot	-9.15082
▁bottle	-9.15085
▁decision	-9.15085
▁definitely	-9.15085
▁evidence	-9.15085
▁exhales	-9.15085
▁neither	-9.15085
▁uhhuh	-9.15085
▁whether	-9.15085
▁neighborhood	-9.15086
▁difference	-9.1509
▁soze	-9.15093
▁teii	-9.15102
▁girlfriend	-9.15108
▁west	-9.15117
▁whistle	-9.15117
▁grave	-9.15235
▁lovely	-9.15476
▁hop	-9.15658
▁wind	-9.15879
▁following	-9.1617
▁share	-9.16173
▁whose	-9.16212
▁ticket	-9.1646
▁weapon	-9.16479
os	-9.16708
om	-9.16749
lie	-9.16812
▁pot	-9.16816
by	-9.16852
▁walked	-9.16873
▁star	-9.1706
▁became	-9.17126
▁calvin	-9.17126
▁college	-9.17126
▁perhaps	-9.17126
▁extra	-9.17127
▁hungry	-9.17134
▁chuckling	-9.17136
▁color	-9.17187
▁broken	-9.17284
▁brad	-9.17495
he	-9.17587
▁clicks	-9.17672
be	-9.1773
tic	-9.17905
▁finished	-9.17989
▁block	-9.18153
▁lived	-9.18483
▁suit	-9.18593
▁grow	-9.18595
▁roman	-9.1876
▁pre	-9.1905
▁art	-9.19068
▁honour	-9.19186
▁danger	-9.19191
▁cocksucker	-9.19209
▁gustave	-9.19209
▁project	-9.19209
▁sheriff	-9.19209
▁wrote	-9.19209
▁held	-9.1921
▁afford	-9.1921
▁tongue	-9.1921
▁zero	-9.19219
▁favorite	-9.19222
▁system	-9.19224
▁chef	-9.19233
▁reading	-9.19259
iy	-9.19478
▁joint	-9.19482
▁over	-9.19598
▁paulie	-9.19623
▁cute	-9.19656
▁mac	-9.1984
▁wet	-9.20059
▁ra	-9.20568
▁bird	-9.20839
▁taste	-9.21075
▁nothin	-9.2128
▁discuss	-9.21297
▁tie	-9.2131
▁blind	-9.21336
▁worst	-9.21337
▁noodles	-9.21337
▁debt	-9.21338
▁ginger	-9.21339
▁sight	-9.21347
▁coke	-9.21352
▁shoulder	-9.21385
▁mister	-9.21461
▁begin	-9.21466
▁boom	-9.21493
▁tip	-9.21569
▁feed	-9.21744
▁books	-9.22017
▁warm	-9.22075
▁calls	-9.22306
ts	-9.22335
▁hat	-9.22444
▁non	-9.22508
▁bother	-9.22569
ut	-9.22759
▁search	-9.22996
▁client	-9.22997
▁gunshot	-9.22999
▁criminal	-9.23008
▁chris	-9.23107
▁pounds	-9.23167
▁breath	-9.23287
▁george	-9.23508
▁church	-9.23511
▁department	-9.23511
▁kenny	-9.23511
▁memory	-9.23511
▁scoffs	-9.23511
▁film	-9.23511
▁senator	-9.23511
▁friday	-9.23512
▁winning	-9.23512
▁shouldve	-9.23515
▁heaven	-9.23516
▁season	-9.23519
▁stephen	-9.23536
▁stock	-9.23556
▁played	-9.2358
▁meat	-9.23606
▁wild	-9.2379
▁dope	-9.23833
ga	-9.24269
▁locked	-9.24272
ac	-9.24326
▁pin	-9.24376
▁beeps	-9.24524
▁closed	-9.24642
▁out	-9.24689
io	-9.25017
▁ca	-9.25185
▁cowboy	-9.25226
▁pack	-9.2524
▁allow	-9.25338
▁loose	-9.25639
▁clem	-9.25731
▁clementine	-9.25733
▁investigation	-9.25733
▁lieutenant	-9.25733
▁pete	-9.25734
▁hasnt	-9.25734
▁bigger	-9.25735
▁space	-9.25745
▁excited	-9.25748
▁local	-9.25748
▁lights	-9.25752
▁grace	-9.25753
▁cake	-9.25763
▁distance	-9.25783
▁bus	-9.25874
▁t	-9.26043
▁ears	-9.26158
▁up	-9.26268
▁opens	-9.26291
ai	-9.26459
▁ear	-9.26551
▁rings	-9.2665
▁wine	-9.26744
▁sad	-9.26789
head	-9.27057
che	-9.27238
▁continue	-9.27405
▁witness	-9.27499
▁smile	-9.27502
▁accept	-9.27542
▁ad	-9.27612
▁blame	-9.27734
▁camera	-9.27766
▁crew	-9.27782
mo	-9.27861
ca	-9.27866
▁freedom	-9.28006
▁support	-9.28008
▁colonel	-9.28011
▁kickass	-9.28028
▁guilty	-9.28047
▁drinking	-9.2806
▁mask	-9.28063
▁corner	-9.28074
▁fredo	-9.28109
▁cup	-9.28125
▁sold	-9.28129
▁amen	-9.28372
▁staying	-9.2839
▁slave	-9.28819
▁nuts	-9.28875
▁interest	-9.29022
▁cross	-9.29297
▁suspect	-9.29507
▁lve	-9.29512
▁pray	-9.29564
son	-9.29644
▁jerk	-9.2979
▁wa	-9.29901
▁diamond	-9.29979
▁jew	-9.30001
▁hero	-9.30184
▁bastards	-9.30242
▁enemy	-9.30331
▁however	-9.30331
▁schultz	-9.30331
▁hadnt	-9.30332
▁teeth	-9.30332
▁bodies	-9.30332
▁beginning	-9.30332
▁television	-9.30333
▁aunt	-9.30339
▁property	-9.3034
▁tank	-9.30359
▁baker	-9.30373
▁ought	-9.30422
▁barking	-9.3043
▁laid	-9.3045
▁awful	-9.30466
▁row	-9.30472
▁sal	-9.30501
off	-9.30702
▁w	-9.30734
▁gotten	-9.30736
▁yells	-9.3089
▁main	-9.30912
▁waste	-9.31091
po	-9.31217
▁passed	-9.31347
▁bringing	-9.31392
▁crack	-9.31576
▁turns	-9.31653
▁kinda	-9.31802
▁yard	-9.32026
▁announc	-9.32098
▁russian	-9.3235
▁gods	-9.32413
▁finger	-9.32442
▁notice	-9.32456
▁tree	-9.3246
▁total	-9.32562
if	-9.32568
▁final	-9.32569
▁cream	-9.32712
▁platt	-9.32712
▁yknow	-9.32712
▁foi	-9.32713
▁aye	-9.32714
▁fresh	-9.32717
▁conlon	-9.32718
▁steve	-9.32725
va	-9.32865
▁fingers	-9.33003
▁bo	-9.33128
▁sa	-9.33536
▁besides	-9.33685
▁camp	-9.33755
▁os	-9.33894
mos	-9.33904
▁test	-9.33946
men	-9.34196
ti	-9.34346
▁build	-9.34656
▁trace	-9.34825
▁account	-9.34831
▁picked	-9.34837
▁condition	-9.34844
▁holding	-9.34852
▁sleeping	-9.34863
▁soldier	-9.3491
que	-9.34971
▁queen	-9.34989
ig	-9.35094
▁spirit	-9.3515
▁insurance	-9.35151
▁taught	-9.35151
▁jerry	-9.35151
▁within	-9.35151
▁storm	-9.35152
▁rothstein	-9.35152
▁operator	-9.35153
▁miami	-9.35154
▁loki	-9.35154
▁weii	-9.35155
▁crap	-9.35167
▁castle	-9.35175
▁helped	-9.35176
▁code	-9.35184
▁jim	-9.35184
ke	-9.35207
▁motherfucking	-9.35246
▁weight	-9.35257
▁yelling	-9.35259
▁large	-9.35264
▁completely	-9.35284
▁indistinctly	-9.35392
▁pants	-9.35533
▁at	-9.35723
▁lots	-9.35732
▁figured	-9.3574
▁county	-9.35751
line	-9.36085
▁whoo	-9.36624
▁ab	-9.36746
▁states	-9.37128
▁file	-9.37221
ir	-9.37225
▁wash	-9.37278
▁sirens	-9.37349
▁apologize	-9.37372
▁faith	-9.37418
▁vehicle	-9.37431
▁belong	-9.37467
▁match	-9.37586
▁strike	-9.37631
▁deserve	-9.37651
▁mercedes	-9.37651
▁wailing	-9.37651
▁cheap	-9.37656
▁bottom	-9.37669
▁yep	-9.37673
▁type	-9.37698
▁self	-9.37717
▁cage	-9.3773
▁usually	-9.37745
▁manager	-9.37838
▁size	-9.37875
▁believed	-9.37917
▁hiding	-9.37949
▁seriously	-9.38159
▁bare	-9.38296
▁gas	-9.3843
▁bullets	-9.385
▁paying	-9.38643
▁murdered	-9.38729
▁sp	-9.38807
▁points	-9.3913
▁en	-9.39239
ure	-9.39286
▁records	-9.39696
ish	-9.39737
▁breathe	-9.39893
▁stops	-9.40025
end	-9.40044
▁add	-9.40049
▁spoke	-9.40123
▁sometime	-9.40139
▁suggest	-9.40174
▁correct	-9.40203
▁audience	-9.40215
▁character	-9.40215
▁muffled	-9.40215
▁pistol	-9.40215
▁rifle	-9.40215
▁roulet	-9.40215
▁shirt	-9.40215
▁credit	-9.40216
▁pyle	-9.40216
▁travel	-9.40217
▁bathroom	-9.40217
▁itd	-9.4022
▁clock	-9.40226
▁dropped	-9.40242
▁fake	-9.40245
▁lift	-9.40295
▁heat	-9.40353
▁sin	-9.40416
▁quietly	-9.40571
ick	-9.40653
▁ln	-9.40774
▁tin	-9.40792
▁promised	-9.41073
▁pig	-9.41091
ow	-9.41175
▁teach	-9.41723
▁pat	-9.41833
▁reach	-9.41904
▁ver	-9.41909
▁due	-9.41928
▁load	-9.42013
way	-9.42141
▁bite	-9.42189
ever	-9.42207
▁bang	-9.42364
▁force	-9.42504
▁release	-9.42579
ner	-9.42653
▁group	-9.42742
▁exist	-9.42796
▁program	-9.428
▁built	-9.42847
▁threw	-9.42847
▁roger	-9.42847
▁writing	-9.42847
▁upset	-9.42848
▁common	-9.42852
▁juice	-9.42857
▁shame	-9.4286
▁thatll	-9.42861
▁dare	-9.4288
▁obviously	-9.42918
▁hup	-9.42929
▁drivers	-9.42943
▁moms	-9.42949
▁trade	-9.42973
▁daughters	-9.43001
▁harm	-9.43069
▁united	-9.4339
▁pissed	-9.43411
▁shower	-9.43446
▁speaks	-9.4352
▁ma	-9.43736
▁map	-9.43755
▁rip	-9.43863
▁port	-9.43985
▁fill	-9.44678
▁to	-9.44921
ade	-9.44993
▁rent	-9.45101
▁shoe	-9.45198
▁settle	-9.45308
▁rome	-9.4535
▁victims	-9.45353
▁gettin	-9.45512
▁owner	-9.45525
▁gorgeous	-9.4555
▁insane	-9.4555
▁monroe	-9.4555
▁nervous	-9.4555
▁hoffa	-9.4555
▁often	-9.45552
▁liar	-9.45554
▁official	-9.45559
▁te	-9.4556
▁flat	-9.45576
▁band	-9.45598
▁an	-9.45603
▁coughing	-9.45627
▁lester	-9.45657
▁chill	-9.45784
▁joy	-9.45842
▁squealing	-9.45887
da	-9.45962
▁peter	-9.46013
▁when	-9.4621
▁everybodys	-9.46246
king	-9.46368
▁weapons	-9.46416
▁wondering	-9.46527
▁learned	-9.46755
▁gi	-9.46776
tor	-9.46801
▁frances	-9.46812
▁chi	-9.46841
▁plant	-9.4692
▁paint	-9.47198
you	-9.47272
▁arms	-9.47675
▁deliver	-9.47694
▁blows	-9.47738
▁sisters	-9.47768
▁corps	-9.479
▁remind	-9.47928
▁o	-9.47971
▁bust	-9.48028
▁guarantee	-9.48048
▁complete	-9.48177
▁freeze	-9.48182
▁loud	-9.48201
▁arthur	-9.48328
▁bruce	-9.48328
▁cassandra	-9.48328
▁cease	-9.48328
▁difficult	-9.48328
▁language	-9.48328
▁lecter	-9.48328
▁responsible	-9.48328
▁relationship	-9.48328
▁downtown	-9.48328
▁murray	-9.48329
▁dramatic	-9.4833
▁rush	-9.48332
▁fellow	-9.48342
▁beauty	-9.48343
▁javi	-9.48344
▁starling	-9.48349
▁molly	-9.48369
▁fitz	-9.48376
▁filthy	-9.48378
▁evey	-9.48384
▁rv	-9.48395
▁view	-9.48419
▁wire	-9.48512
▁wood	-9.48603
▁concerned	-9.48654
▁jews	-9.4875
▁joey	-9.48793
lin	-9.48819
ava	-9.48857
▁officers	-9.48988
▁armed	-9.49083
▁mil	-9.49281
▁reporter	-9.4932
▁cheers	-9.49753
▁draw	-9.49753
ven	-9.50095
▁shots	-9.50344
▁ser	-9.5036
▁sue	-9.50519
▁motherfuckers	-9.5052
▁destroy	-9.50789
▁mention	-9.50847
▁command	-9.50883
▁wh	-9.50951
▁soft	-9.51042
ot	-9.51115
▁ambulance	-9.51185
▁anthony	-9.51185
▁attorney	-9.51185
▁cheese	-9.51185
▁mexico	-9.51185
▁nowhere	-9.51185
▁otherwise	-9.51185
▁target	-9.51185
▁trinity	-9.51185
▁stories	-9.51185
▁contract	-9.51185
▁whoever	-9.51186
▁twice	-9.51187
▁earlier	-9.51188
▁sunday	-9.51192
▁norman	-9.51194
▁pressure	-9.51198
▁jury	-9.51198
▁rug	-9.51209
▁penny	-9.51211
▁virginie	-9.51215
▁switch	-9.51219
▁button	-9.51219
▁silly	-9.51225
▁statement	-9.51245
▁kg	-9.51321
▁lookin	-9.51341
▁ld	-9.51351
▁gangster	-9.5136
▁farm	-9.51373
▁victim	-9.51393
▁honestly	-9.51411
▁honking	-9.51429
▁manny	-9.51477
▁blessed	-9.51478
▁agreed	-9.51589
▁diamonds	-9.5162
jo	-9.51628
▁losing	-9.51648
▁banging	-9.51731
▁lies	-9.52088
ble	-9.52157
▁boyle	-9.52238
▁there	-9.52395
▁hearing	-9.52516
▁las	-9.52573
led	-9.52783
res	-9.52854
▁va	-9.53063
ni	-9.53129
▁fellas	-9.53365
ial	-9.53511
▁sweat	-9.53609
▁collect	-9.5365
▁provide	-9.53726
▁weak	-9.53951
fucking	-9.53967
▁bay	-9.53972
ped	-9.54039
▁boyfriend	-9.54126
▁dixon	-9.54126
▁easier	-9.54126
▁ghost	-9.54126
▁hutch	-9.54126
▁necessary	-9.54126
▁regular	-9.54126
▁sugar	-9.54126
▁upstairs	-9.54126
▁derek	-9.54126
▁pardon	-9.54126
▁allison	-9.54128
▁costello	-9.54129
▁monday	-9.54129
▁mental	-9.54129
▁eddie	-9.5413
▁leonard	-9.5413
▁sarah	-9.54151
▁papa	-9.54168
▁weekend	-9.54174
▁franklin	-9.54181
▁marion	-9.5419
▁protection	-9.54196
▁leon	-9.54203
▁lila	-9.54205
▁magic	-9.54252
▁pair	-9.54258
▁taxi	-9.54304
▁computer	-9.54322
▁hired	-9.54324
▁arrived	-9.54361
▁gate	-9.54478
▁approaching	-9.54479
▁lake	-9.54499
▁dollar	-9.5457
▁experience	-9.54622
▁sky	-9.54657
▁sale	-9.54659
▁jane	-9.54736
▁closer	-9.54785
▁faster	-9.54801
▁whispers	-9.54837
▁sea	-9.5495
▁units	-9.55164
▁mar	-9.5521
bb	-9.55474
land	-9.55501
▁sha	-9.55544
▁showed	-9.55603
tion	-9.55925
▁helping	-9.56227
ina	-9.56317
▁san	-9.56392
▁buzz	-9.56579
▁por	-9.56595
▁disappear	-9.56733
▁dump	-9.56752
▁streets	-9.5686
▁bat	-9.56983
ee	-9.57079
▁regret	-9.57144
▁admit	-9.57156
▁sionis	-9.57156
▁traffic	-9.57156
▁trigger	-9.57156
▁alarm	-9.57156
▁congratulations	-9.57156
▁access	-9.57156
▁cancer	-9.57156
▁garden	-9.57158
▁elevator	-9.5716
▁poison	-9.57162
▁ugly	-9.57166
▁desk	-9.57182
▁pilot	-9.57193
▁professional	-9.57198
▁babe	-9.57207
▁cj	-9.57221
▁russ	-9.5724
▁trick	-9.57263
▁robbery	-9.57307
▁beeping	-9.57421
▁medal	-9.57479
▁badge	-9.57598
▁surprised	-9.57658
▁allowed	-9.57719
▁you	-9.57867
red	-9.57955
▁burned	-9.58072
▁windows	-9.58111
ping	-9.58134
▁stars	-9.58142
▁chattering	-9.58204
ite	-9.5847
ver	-9.58486
ding	-9.58505
ens	-9.59094
▁pictures	-9.59141
▁ter	-9.59316
▁all	-9.59398
▁fucker	-9.59662
▁sh	-9.59685
▁talkin	-9.5974
ring	-9.59762
▁eating	-9.59774
▁usa	-9.59795
the	-9.59807
▁request	-9.59847
though	-9.6
ze	-9.60074
▁decide	-9.60155
▁games	-9.60256
▁asleep	-9.60281
▁bread	-9.60281
▁federal	-9.60281
▁fifth	-9.60281
▁marsellus	-9.60281
▁spanish	-9.60281
▁subject	-9.60281
▁snow	-9.60281
▁brown	-9.60281
▁kay	-9.60282
▁desert	-9.60283
▁terrorist	-9.60283
▁priest	-9.60284
▁awake	-9.60285
▁airport	-9.60291
▁coat	-9.60293
▁profit	-9.60303
▁powerful	-9.60326
▁rabbit	-9.60354
▁ends	-9.60392
▁steph	-9.60399
▁nah	-9.60473
▁devil	-9.60672
▁prefer	-9.60672
▁cigarette	-9.60763
▁paris	-9.60764
▁ju	-9.60881
▁pound	-9.60902
▁dreams	-9.61071
▁birds	-9.61116
▁walt	-9.61209
▁du	-9.61349
▁horses	-9.6144
▁le	-9.61483
gest	-9.61547
▁bu	-9.61574
▁los	-9.61641
▁heads	-9.61685
▁me	-9.61847
▁nobodys	-9.61852
▁ordered	-9.62065
ize	-9.62226
tro	-9.62439
▁sec	-9.62454
▁screw	-9.6257
▁ph	-9.62613
▁them	-9.62874
uc	-9.62949
▁mu	-9.62982
▁freak	-9.62994
house	-9.63036
beat	-9.63078
▁chuck	-9.631
▁br	-9.6315
▁checked	-9.63208
▁introduce	-9.63236
▁robert	-9.63253
▁survive	-9.63274
▁remain	-9.63476
▁andrew	-9.63507
▁expensive	-9.63507
▁ridiculous	-9.63507
▁roof	-9.63507
▁rough	-9.63507
▁strength	-9.63507
▁russell	-9.63507
▁aware	-9.63509
▁hammer	-9.63509
▁repeat	-9.63512
▁inspector	-9.63516
▁marry	-9.63523
▁social	-9.63526
▁tune	-9.63529
▁confession	-9.63532
▁gunfire	-9.6354
▁hack	-9.63551
▁laughter	-9.63552
▁immediately	-9.63554
▁march	-9.63564
▁stage	-9.63569
▁market	-9.63579
▁warden	-9.63583
▁gina	-9.63599
▁plate	-9.63615
▁huge	-9.63633
▁weed	-9.63647
▁sweetie	-9.63676
▁pita	-9.63763
▁wise	-9.63851
▁noticed	-9.63863
▁knees	-9.63923
▁bosses	-9.64012
and	-9.6403
▁letting	-9.6408
▁recognize	-9.6411
ney	-9.6424
▁flying	-9.64342
ph	-9.64363
sa	-9.64601
▁sooner	-9.64609
▁fa	-9.64693
ier	-9.64878
▁followed	-9.64957
▁bomb	-9.64998
▁siren	-9.65043
▁com	-9.65239
▁fi	-9.65656
▁he	-9.65691
▁hanging	-9.65698
▁pigs	-9.6579
▁career	-9.65822
▁crash	-9.65828
ice	-9.66311
▁jobs	-9.66327
▁taik	-9.66335
▁fee	-9.66565
▁escape	-9.66571
▁older	-9.66614
▁proper	-9.66757
▁somethin	-9.66783
▁favour	-9.66833
▁advice	-9.6684
▁beyond	-9.6684
▁california	-9.6684
▁grew	-9.6684
▁ramona	-9.6684
▁restaurant	-9.6684
▁saburo	-9.6684
▁spread	-9.6684
▁angry	-9.6684
▁donnie	-9.6684
▁process	-9.6684
▁raymond	-9.6684
▁toilet	-9.6684
▁blew	-9.66841
▁hollywood	-9.66841
▁ugh	-9.66841
▁telephone	-9.66841
▁funeral	-9.66841
▁whirring	-9.66842
▁trunk	-9.66842
▁mood	-9.66843
▁flight	-9.66848
▁bedroom	-9.66851
▁jewish	-9.66853
▁medical	-9.66853
▁several	-9.66857
▁pure	-9.66884
▁comin	-9.66908
▁trial	-9.66931
▁using	-9.66934
▁tax	-9.66958
▁earn	-9.67005
▁stolen	-9.67034
ious	-9.67035
▁vote	-9.67039
▁shape	-9.67175
▁bath	-9.67235
▁gear	-9.67335
▁ri	-9.67533
▁bitches	-9.67546
▁drove	-9.67556
▁gunshots	-9.67641
▁asses	-9.6783
▁carrying	-9.67842
▁arrested	-9.67854
▁gra	-9.67906
▁sand	-9.68187
▁cu	-9.68894
▁sub	-9.69205
▁ward	-9.69304
▁breaking	-9.69569
▁che	-9.69872
ittie	-9.69936
der	-9.70057
▁natural	-9.70135
▁enter	-9.70148
▁buying	-9.70155
▁form	-9.70229
▁matt	-9.70252
▁irish	-9.70263
▁chair	-9.70277
▁chop	-9.7028
▁attempt	-9.70289
▁families	-9.70289
▁flesh	-9.70289
▁florida	-9.70289
▁fortune	-9.70289
▁japanese	-9.70289
▁miracle	-9.70289
▁mmmhmm	-9.70289
▁outfit	-9.70289
▁texas	-9.70289
▁thursday	-9.70289
▁clever	-9.70289
▁damage	-9.70289
▁model	-9.70289
▁stairs	-9.70289
▁location	-9.7029
▁candie	-9.70291
▁clarice	-9.70291
▁charles	-9.70293
▁garage	-9.70296
▁forgotten	-9.70296
▁soap	-9.70299
▁arno	-9.70304
▁brick	-9.70306
▁unbelievable	-9.70306
▁sentence	-9.70309
▁plenty	-9.70313
▁dancing	-9.70334
▁highway	-9.70335
▁aldo	-9.70339
▁exit	-9.70349
▁oil	-9.70388
▁center	-9.70471
▁prepared	-9.70513
▁clark	-9.7052
▁cos	-9.70535
dy	-9.70537
▁picking	-9.70546
ley	-9.70566
▁concern	-9.7062
con	-9.70622
▁ford	-9.70625
▁path	-9.7069
▁sat	-9.707
▁off	-9.70774
▁instrumenta	-9.70813
▁wayne	-9.70988
▁whore	-9.71073
▁winner	-9.71076
▁clients	-9.7112
sse	-9.71131
▁ir	-9.71183
▁feels	-9.71211
▁dressed	-9.71268
▁mile	-9.71672
▁lou	-9.71694
cha	-9.71755
▁sucks	-9.71779
▁sons	-9.71821
▁customers	-9.72039
▁pops	-9.7212
▁dia	-9.72143
down	-9.72966
ill	-9.73274
▁pretend	-9.73338
▁exact	-9.73711
▁sco	-9.73723
▁chest	-9.73745
▁everythings	-9.73759
▁mmhm	-9.73783
▁according	-9.7386
▁cackling	-9.7386
▁horrible	-9.7386
▁rachel	-9.7386
▁travis	-9.7386
▁motel	-9.7386
▁fantastic	-9.7386
▁whyd	-9.73861
▁buried	-9.73862
▁fancy	-9.73863
▁spring	-9.73871
▁emergency	-9.73872
▁heck	-9.73874
▁duty	-9.73875
▁basement	-9.73877
▁announce	-9.73891
▁friendship	-9.73911
▁meal	-9.73939
▁marshall	-9.7394
▁annie	-9.73977
▁quarter	-9.74011
▁fund	-9.74027
▁fourth	-9.74139
▁pm	-9.74139
hand	-9.74155
▁bl	-9.742
our	-9.74305
▁boo	-9.74655
▁turning	-9.74701
▁jean	-9.74741
ado	-9.74751
▁connection	-9.74787
▁ga	-9.74807
▁detail	-9.74818
▁exchange	-9.74912
▁parking	-9.74933
▁pi	-9.74946
▁ed	-9.75067
▁fella	-9.75126
mi	-9.75259
▁sta	-9.75411
▁mon	-9.75536
▁passing	-9.75801
▁acting	-9.75851
▁ahh	-9.76086
▁rats	-9.76156
▁salt	-9.76513
▁details	-9.76579
over	-9.76681
▁ar	-9.7682
▁tall	-9.76951
▁cigarettes	-9.76996
▁pulling	-9.77029
▁loss	-9.77137
mon	-9.77174
▁martin	-9.77181
▁ruin	-9.77212
▁butt	-9.77347
▁hung	-9.77403
▁sharp	-9.77409
▁strip	-9.77481
▁caesar	-9.77538
▁slip	-9.77557
▁mail	-9.7756
▁crawford	-9.77564
▁fifty	-9.77564
▁garbage	-9.77564
▁matrix	-9.77564
▁matthew	-9.77564
▁opportunity	-9.77564
▁jungle	-9.77564
▁mostly	-9.77564
▁vietnamese	-9.77564
▁apart	-9.77564
▁example	-9.77564
▁belt	-9.77565
▁jeez	-9.77565
▁muito	-9.77567
▁flash	-9.77567
▁spook	-9.77569
▁curious	-9.77571
▁fought	-9.77572
▁champion	-9.77573
▁comfortable	-9.77583
▁marla	-9.77586
▁rise	-9.77602
▁famous	-9.77616
▁truly	-9.77622
▁estate	-9.77634
▁vito	-9.77636
▁mable	-9.77657
▁fan	-9.77689
▁sua	-9.77714
▁invited	-9.77732
▁vice	-9.77788
▁trap	-9.77797
▁haller	-9.77838
ba	-9.77861
▁sink	-9.77871
▁scare	-9.77874
▁simon	-9.77955
und	-9.77967
nce	-9.78031
▁amy	-9.78075
▁keyser	-9.78097
▁perfectly	-9.78104
▁loaded	-9.78151
▁pills	-9.78184
▁clears	-9.7822
▁greatest	-9.78266
▁hm	-9.78319
▁tied	-9.78325
▁tara	-9.78328
▁marine	-9.78598
▁sport	-9.78624
▁depends	-9.79064
▁val	-9.79085
▁letters	-9.79105
▁tan	-9.79126
▁expecting	-9.79132
qu	-9.79166
▁doors	-9.79724
tra	-9.79915
ise	-9.79918
▁nada	-9.80064
▁shows	-9.80095
▁dealing	-9.80099
▁mal	-9.80204
▁player	-9.80325
ized	-9.80342
▁nail	-9.80411
▁lu	-9.80421
▁stayed	-9.80555
▁uma	-9.8066
▁cha	-9.80663
▁bone	-9.80778
▁cleaned	-9.8081
▁positive	-9.81245
▁among	-9.81383
▁hates	-9.81384
▁avoid	-9.8141
▁circle	-9.8141
▁current	-9.8141
▁downstairs	-9.8141
▁godfather	-9.8141
▁heavily	-9.8141
▁illegal	-9.8141
▁saturday	-9.8141
▁square	-9.8141
▁thunder	-9.8141
▁understood	-9.8141
▁written	-9.8141
▁bravo	-9.8141
▁changing	-9.8141
▁simply	-9.8141
▁verbal	-9.8141
▁warrant	-9.8141
▁doorbell	-9.8141
▁video	-9.8141
▁proceed	-9.8141
▁interview	-9.81411
▁sexual	-9.81411
▁practice	-9.81412
▁vacation	-9.81412
▁blaring	-9.81412
▁wiii	-9.81422
▁babies	-9.81422
▁bail	-9.81423
▁anson	-9.81425
▁chopper	-9.81428
▁paso	-9.8143
▁apparently	-9.81431
▁caii	-9.81448
▁secretary	-9.81449
▁national	-9.81452
▁decent	-9.81454
▁steak	-9.81455
▁winter	-9.81508
▁willing	-9.81518
▁golden	-9.81523
▁wide	-9.8154
▁william	-9.81565
▁angeles	-9.81567
▁keeps	-9.81617
▁bra	-9.81677
ng	-9.81679
▁bull	-9.81762
▁dar	-9.81766
▁forced	-9.81852
▁casa	-9.81911
▁disappeared	-9.81936
▁slowly	-9.82064
ake	-9.82091
▁fixed	-9.82224
▁ch	-9.82601
▁dies	-9.82642
▁artist	-9.82733
ism	-9.82786
▁carrie	-9.82841
▁stranger	-9.82884
▁tao	-9.8302
lia	-9.83201
▁hon	-9.83603
▁ob	-9.83686
▁eggs	-9.83805
ff	-9.8419
▁nu	-9.84264
ets	-9.84466
fuck	-9.84489
▁bend	-9.84511
▁bless	-9.84577
▁players	-9.84753
▁dealer	-9.84895
▁har	-9.84905
▁screech	-9.84906
▁squeal	-9.8491
▁lad	-9.84942
ank	-9.85004
▁runs	-9.8513
▁sing	-9.8514
▁prepare	-9.85149
▁silence	-9.85189
▁usual	-9.85262
▁gu	-9.85286
▁marshal	-9.85356
▁gross	-9.85377
▁advantage	-9.8541
▁genius	-9.8541
▁incident	-9.8541
▁kennedy	-9.8541
▁montoya	-9.8541
▁stood	-9.8541
▁dispatch	-9.8541
▁spray	-9.8541
▁chancellor	-9.8541
▁policy	-9.8541
▁fireworks	-9.8541
▁england	-9.8541
▁yellow	-9.85413
▁piease	-9.85413
▁parole	-9.85414
▁skinny	-9.85421
▁psycho	-9.85423
▁boring	-9.85424
▁benny	-9.85425
▁reward	-9.85427
▁aah	-9.85428
▁nope	-9.85434
▁nature	-9.85435
▁bobby	-9.85438
▁opal	-9.85453
▁weather	-9.85457
▁familiar	-9.85464
▁rare	-9.8548
▁giuseppe	-9.85483
▁gim	-9.85499
▁bum	-9.85503
▁kate	-9.85508
▁assume	-9.8551
▁lago	-9.85514
▁suddenly	-9.85531
▁chain	-9.85543
▁lane	-9.85572
▁yearold	-9.85605
▁lab	-9.85642
▁bond	-9.85644
▁bem	-9.85648
▁boxes	-9.85663
▁personally	-9.85881
▁sexy	-9.85965
▁wasted	-9.86028
gh	-9.86034
▁pr	-9.86133
▁cameras	-9.86162
▁serve	-9.8624
▁wound	-9.86354
▁gene	-9.8639
my	-9.86464
▁charges	-9.86506
▁metal	-9.86594
▁lee	-9.86634
▁bookies	-9.867
▁interrupt	-9.86846
▁guest	-9.86859
▁flowers	-9.86873
▁terms	-9.86946
▁vern	-9.87083
▁opened	-9.87164
▁training	-9.87194
▁drinks	-9.87398
▁harder	-9.87688
cia	-9.87888
ore	-9.88185
▁hated	-9.88263
ther	-9.88295
▁opening	-9.88505
▁brains	-9.887
boy	-9.88783
▁sending	-9.88795
▁complain	-9.88854
▁ohh	-9.88997
▁ideas	-9.89018
▁approach	-9.89076
▁punch	-9.89179
pl	-9.89233
▁health	-9.89374
▁refuse	-9.89382
▁parts	-9.89473
▁movies	-9.89519
▁print	-9.89544
▁spider	-9.89545
▁chick	-9.89574
▁authority	-9.89577
▁custody	-9.89577
▁defense	-9.89577
▁electronic	-9.89577
▁fifteen	-9.89577
▁fruit	-9.89577
▁hildi	-9.89577
▁marriage	-9.89577
▁mathilda	-9.89577
▁mcmanus	-9.89577
▁purpose	-9.89577
▁sneak	-9.89577
▁tuesday	-9.89577
▁twelve	-9.89577
▁whimpering	-9.89577
▁akim	-9.89577
▁fbl	-9.89577
▁nancy	-9.89577
▁wallace	-9.89577
▁coincidence	-9.89577
▁sara	-9.89578
▁shift	-9.89578
▁permission	-9.89578
▁route	-9.8958
▁smoking	-9.89583
▁failure	-9.89585
▁zach	-9.89586
▁mais	-9.8961
▁not	-9.89611
▁hola	-9.89625
▁katie	-9.89633
▁queenan	-9.89633
▁study	-9.89654
▁pool	-9.89657
▁began	-9.89658
▁grass	-9.89674
▁woke	-9.89691
▁disgusting	-9.89695
▁witnesses	-9.89715
ste	-9.89755
gi	-9.89787
▁tower	-9.89807
▁gay	-9.89825
▁hall	-9.8983
▁belongs	-9.89888
▁addy	-9.8994
▁forth	-9.8994
▁policeman	-9.89952
▁mission	-9.8996
▁soldiers	-9.90007
▁nearly	-9.9008
▁sant	-9.90254
▁assholes	-9.90296
▁loves	-9.90367
▁ze	-9.90563
▁su	-9.9065
▁feds	-9.90714
▁mist	-9.90778
▁robber	-9.9087
▁seemed	-9.90893
▁keeping	-9.90932
▁laws	-9.90943
her	-9.9095
▁yards	-9.91007
▁expected	-9.91024
▁mexican	-9.91112
▁appear	-9.91163
▁ne	-9.91385
▁base	-9.91429
▁ke	-9.9149
▁headed	-9.91745
▁signed	-9.91769
▁char	-9.91802
▁shine	-9.91888
▁prisoner	-9.92122
▁par	-9.9221
lam	-9.92265
▁guests	-9.92409
bra	-9.92585
▁scar	-9.92608
ence	-9.92878
ency	-9.93114
▁tear	-9.93114
▁rep	-9.93316
▁aiex	-9.93325
▁plans	-9.9338
▁cor	-9.93381
▁iook	-9.93428
▁focus	-9.935
▁fail	-9.93529
▁trans	-9.93576
▁convince	-9.93659
▁dirt	-9.93714
▁nights	-9.93723
▁ba	-9.93811
▁rocks	-9.93832
tre	-9.93866
▁alcohol	-9.93878
▁commit	-9.93891
▁organ	-9.93922
▁appointment	-9.93924
▁aronoff	-9.93924
▁border	-9.93924
▁claim	-9.93924
▁closing	-9.93924
▁gambling	-9.93924
▁kevin	-9.93924
▁military	-9.93924
▁ocean	-9.93924
▁oclock	-9.93924
▁represent	-9.93924
▁steady	-9.93924
▁stomach	-9.93924
▁violence	-9.93924
▁sicily	-9.93924
▁coisa	-9.93925
▁evil	-9.93925
▁indeed	-9.93925
▁limit	-9.93925
▁daniel	-9.93925
▁kiii	-9.93925
▁ricky	-9.93925
▁speed	-9.93925
▁connie	-9.93925
▁briefcase	-9.93925
▁winston	-9.93927
▁morgan	-9.93928
▁edward	-9.93928
▁formula	-9.93929
▁literal	-9.93929
▁leak	-9.9393
▁electric	-9.93934
▁mouse	-9.93936
▁beef	-9.93949
▁sosa	-9.93953
▁broad	-9.93954
▁brave	-9.93959
▁royal	-9.93964
▁cmon	-9.9397
sty	-9.93971
▁whip	-9.93973
▁original	-9.93976
▁oui	-9.9398
▁monster	-9.93981
▁allen	-9.93985
▁twin	-9.94007
▁unfortunately	-9.94012
▁bates	-9.94037
▁echoing	-9.94048
▁moon	-9.94075
▁cow	-9.94105
▁partners	-9.94116
▁retired	-9.94116
▁sins	-9.94147
▁glasses	-9.94171
▁wallet	-9.94198
▁assure	-9.94299
▁gotham	-9.94346
▁signal	-9.94373
▁screeching	-9.94476
ue	-9.94507
▁lo	-9.94516
▁dan	-9.94859
▁heh	-9.94891
▁criminals	-9.95
em	-9.95136
▁romans	-9.95233
▁clearly	-9.95246
▁suits	-9.95251
▁becomes	-9.95477
▁helicopter	-9.95616
▁kray	-9.95675
▁egg	-9.95702
▁member	-9.95703
▁wave	-9.9577
ram	-9.95983
▁photos	-9.96123
▁knocking	-9.96217
▁ted	-9.96275
▁ele	-9.96435
▁of	-9.96803
zz	-9.9708
gr	-9.97261
▁cook	-9.97364
▁tools	-9.97433
▁ap	-9.97694
▁smith	-9.97696
▁showing	-9.97724
▁pieces	-9.97807
▁sol	-9.9802
bs	-9.98136
▁aw	-9.98166
ap	-9.98192
▁divorce	-9.98201
▁object	-9.98407
▁wolf	-9.98415
▁comfort	-9.98446
▁percent	-9.98462
▁vietnam	-9.9847
▁anderson	-9.9847
▁available	-9.9847
▁behalf	-9.9847
▁celebrate	-9.9847
▁dozen	-9.9847
▁enemies	-9.9847
▁fenster	-9.9847
▁laeddis	-9.9847
▁league	-9.9847
▁magazine	-9.9847
▁nephew	-9.9847
▁norcut	-9.9847
▁ofelia	-9.9847
▁peggy	-9.9847
▁photograph	-9.9847
▁pregnant	-9.9847
▁probiem	-9.9847
▁ralph	-9.9847
▁revenge	-9.9847
▁sollozzo	-9.9847
▁somehow	-9.9847
▁squad	-9.9847
▁tuddy	-9.9847
▁wouid	-9.9847
▁marquis	-9.9847
▁pride	-9.9847
▁thief	-9.9847
▁fox	-9.9847
▁lansky	-9.9847
▁nurse	-9.9847
▁owned	-9.98471
▁solomon	-9.98471
▁zasa	-9.98474
▁bunny	-9.98474
▁bailey	-9.98476
▁owns	-9.98477
▁morrie	-9.98484
▁joking	-9.9849
▁aside	-9.98498
▁direction	-9.98508
▁eron	-9.98514
▁grandpa	-9.98515
▁lean	-9.98521
▁roth	-9.98526
▁rude	-9.98533
▁safety	-9.98543
▁hail	-9.98572
gen	-9.98588
▁iron	-9.9859
▁reasonable	-9.98615
▁under	-9.98718
▁americans	-9.98796
▁sally	-9.98811
▁files	-9.98838
▁blown	-9.98913
fi	-9.98941
ey	-9.98967
▁rap	-9.98982
▁tool	-9.99521
mer	-9.99564
▁growing	-9.99595
▁suspensefu	-9.99632
▁returned	-9.99723
▁higher	-9.9976
▁pope	-9.998
▁fu	-9.99963
▁mob	-9.99969
▁tickets	-9.99995
▁lit	-10.0001
▁watched	-10.0009
▁animals	-10.0012
▁pipe	-10.0018
▁rot	-10.0025
▁newspaper	-10.0038
▁muscle	-10.0039
▁duck	-10.0041
▁odd	-10.0046
▁pie	-10.0062
lu	-10.0066
▁tr	-10.0076
▁somebodys	-10.013
▁friendly	-10.0134
▁pee	-10.0157
▁lads	-10.0173
▁pan	-10.0174
wa	-10.0176
▁era	-10.0206
ative	-10.0224
ora	-10.0244
▁direct	-10.0275
▁scott	-10.0296
▁straighten	-10.0297
▁hug	-10.0302
▁chose	-10.0314
▁perform	-10.0322
▁twenty	-10.0322
▁almighty	-10.0323
▁auction	-10.0323
▁authorities	-10.0323
▁byron	-10.0323
▁challenge	-10.0323
▁chicago	-10.0323
▁destiny	-10.0323
▁effort	-10.0323
▁eventually	-10.0323
▁explosiveskull	-10.0323
▁extreme	-10.0323
▁fletcher	-10.0323
▁institution	-10.0323
▁lifeguard	-10.0323
▁marcus	-10.0323
▁sandwich	-10.0323
▁terrific	-10.0323
▁thomas	-10.0323
▁choking	-10.0323
▁crawl	-10.0323
▁presence	-10.0323
▁slept	-10.0323
▁heip	-10.0323
▁organization	-10.0323
▁spell	-10.0323
▁boston	-10.0323
▁robbed	-10.0323
▁whod	-10.0323
▁jimmie	-10.0323
berry	-10.0323
▁battle	-10.0323
▁plain	-10.0323
▁pikey	-10.0323
▁lisa	-10.0324
▁swim	-10.0324
▁silent	-10.0324
▁saint	-10.0324
▁student	-10.0324
▁desire	-10.0324
▁grandmother	-10.0324
▁staff	-10.0324
▁spit	-10.0324
▁snap	-10.0324
▁takin	-10.0325
▁towel	-10.0325
▁trash	-10.0325
▁onto	-10.0325
▁naked	-10.0326
▁poker	-10.0326
▁solid	-10.0326
▁technically	-10.0327
▁title	-10.0328
▁mercy	-10.033
▁tour	-10.033
lly	-10.033
▁confused	-10.0332
▁embarrassed	-10.0332
▁thatd	-10.0334
▁jacket	-10.0335
▁page	-10.0336
▁regan	-10.0337
▁bury	-10.0338
▁mere	-10.034
tle	-10.0341
▁forty	-10.0346
ard	-10.0346
cr	-10.0352
▁toy	-10.0362
▁actor	-10.0363
▁quote	-10.0365
▁deeply	-10.0369
▁male	-10.0376
▁writer	-10.0382
▁tail	-10.0383
ally	-10.0385
▁lick	-10.0388
▁taro	-10.0388
▁tits	-10.0389
▁fort	-10.039
▁corpse	-10.0398
▁chase	-10.04
▁buzzing	-10.0404
▁aim	-10.0408
▁mor	-10.041
▁fred	-10.0412
▁jackie	-10.0422
▁cri	-10.0424
▁hairy	-10.0435
▁parked	-10.0441
▁mel	-10.0445
▁reported	-10.0447
what	-10.0449
▁pai	-10.0461
▁ac	-10.0464
▁goal	-10.047
▁younger	-10.0475
▁hurts	-10.0476
▁victor	-10.0486
▁scream	-10.05
ki	-10.0511
▁tag	-10.0513
▁tri	-10.0514
▁moe	-10.0524
▁patients	-10.0525
▁faggot	-10.0538
▁ela	-10.0538
▁issues	-10.0551
▁guts	-10.0559
gan	-10.0568
ang	-10.0571
ria	-10.0578
▁mc	-10.0582
▁anti	-10.0583
hi	-10.0594
▁beating	-10.0652
ries	-10.0677
ash	-10.0683
ft	-10.0703
ny	-10.0714
▁heading	-10.0716
gged	-10.0723
▁rag	-10.0757
ations	-10.0758
board	-10.0772
ude	-10.0773
back	-10.0774
field	-10.0776
▁confess	-10.0777
side	-10.0777
▁talent	-10.0781
ov	-10.0785
▁range	-10.0796
▁raise	-10.0798
▁woods	-10.0802
low	-10.0803
bel	-10.0805
▁doctors	-10.0806
away	-10.0807
▁sudden	-10.0808
▁success	-10.0811
▁gordo	-10.0814
▁virgin	-10.0816
▁scum	-10.0823
▁awesome	-10.0823
▁bollocks	-10.0823
▁broomhilda	-10.0823
▁committee	-10.0823
▁creedy	-10.0823
▁escort	-10.0823
▁expert	-10.0823
▁impressive	-10.0823
▁including	-10.0823
▁maximus	-10.0823
▁orange	-10.0823
▁possibly	-10.0823
▁precious	-10.0823
▁shrink	-10.0823
▁someplace	-10.0823
▁tyrone	-10.0823
▁undercover	-10.0823
▁firm	-10.0823
▁period	-10.0823
▁tiger	-10.0823
▁style	-10.0823
▁amount	-10.0823
▁piano	-10.0823
▁sauce	-10.0824
▁begging	-10.0824
▁golf	-10.0824
▁gamble	-10.0824
▁rope	-10.0824
▁hahaha	-10.0825
▁surf	-10.0825
▁describe	-10.0825
▁bored	-10.0825
▁ability	-10.0826
▁memories	-10.0826
▁leeds	-10.0826
▁motion	-10.0826
▁shopping	-10.0826
▁minton	-10.0826
▁package	-10.0827
▁incredible	-10.0827
▁string	-10.0827
▁handsome	-10.0827
▁dover	-10.0828
▁princess	-10.0828
▁homicide	-10.0829
▁role	-10.0829
▁asha	-10.083
▁level	-10.0832
▁doll	-10.0834
▁proof	-10.0836
▁comp	-10.0838
▁directly	-10.0839
▁remo	-10.0845
▁cleaning	-10.0845
▁singer	-10.0845
▁hitting	-10.0847
▁stopping	-10.0848
ities	-10.085
▁junkie	-10.0853
▁shy	-10.0858
▁dust	-10.0858
▁warning	-10.0858
▁operate	-10.0861
▁counts	-10.0872
▁carson	-10.0872
▁movement	-10.0876
cho	-10.0877
▁carefully	-10.0884
pp	-10.09
▁taiking	-10.09
▁stab	-10.0901
▁filled	-10.0901
▁til	-10.0902
▁mentioned	-10.0903
▁drawing	-10.0914
▁note	-10.0914
▁slams	-10.0917
▁charged	-10.0937
▁towards	-10.0946
▁laying	-10.0981
ville	-10.0992
▁lied	-10.0992
▁events	-10.1
▁fishing	-10.1019
▁finding	-10.1024
▁leader	-10.1034
ock	-10.1058
▁riding	-10.1058
▁sim	-10.1059
▁monkey	-10.1064
▁fe	-10.1069
▁shotgun	-10.1071
we	-10.1073
▁mountain	-10.1077
▁ja	-10.1094
▁cocks	-10.1095
▁ti	-10.1101
ors	-10.1101
pla	-10.1107
▁throwing	-10.1112
all	-10.1122
▁on	-10.1136
▁appears	-10.1152
ten	-10.1163
▁sayin	-10.1164
▁led	-10.1175
▁nos	-10.1187
▁moments	-10.1201
▁ship	-10.1206
▁tu	-10.1215
▁answers	-10.1241
▁spa	-10.1248
▁feelings	-10.1268
▁tent	-10.1277
▁stra	-10.1277
▁commission	-10.1303
▁assault	-10.1306
▁register	-10.1308
▁mix	-10.1309
▁arrive	-10.1321
▁remove	-10.1327
▁tem	-10.1327
▁for	-10.1338
▁threat	-10.134
▁motherfuckin	-10.1344
▁europe	-10.1346
▁specific	-10.1349
▁brief	-10.1349
▁horror	-10.1349
▁bounty	-10.1349
▁circumstances	-10.1349
▁crucifixion	-10.1349
▁crush	-10.1349
▁exciting	-10.1349
▁footsteps	-10.1349
▁garnett	-10.1349
▁goldfarb	-10.1349
▁intelligence	-10.1349
▁jewelry	-10.1349
▁moustafa	-10.1349
▁opinion	-10.1349
▁plastic	-10.1349
▁servant	-10.1349
▁shouid	-10.1349
▁skull	-10.1349
▁stratton	-10.1349
▁swallow	-10.1349
▁tattaglia	-10.1349
▁sarge	-10.1349
▁avi	-10.135
▁dawn	-10.135
▁coach	-10.135
▁knowledge	-10.135
▁saving	-10.135
▁ernie	-10.135
▁gordie	-10.135
▁billboards	-10.135
▁epps	-10.135
▁stress	-10.135
▁papi	-10.135
▁lonely	-10.135
▁anger	-10.135
▁apology	-10.135
▁naomi	-10.135
▁recall	-10.135
▁jones	-10.135
▁british	-10.135
▁argue	-10.135
▁championship	-10.135
▁faint	-10.135
▁flush	-10.135
▁jules	-10.135
▁punk	-10.135
▁possession	-10.1351
▁duke	-10.1351
▁booze	-10.1351
▁olive	-10.1351
▁vamos	-10.1351
▁gentleman	-10.1351
▁blast	-10.1352
▁edge	-10.1352
▁romantic	-10.1352
▁hayes	-10.1353
▁bush	-10.1353
▁jealous	-10.1353
▁moron	-10.1355
▁pink	-10.1356
▁raid	-10.1356
▁barry	-10.1359
▁pit	-10.136
▁tries	-10.1363
▁tense	-10.1364
▁whispering	-10.1373
cl	-10.1374
▁useless	-10.1375
▁clicking	-10.1376
▁heroin	-10.1378
▁jet	-10.1383
▁served	-10.1384
▁auto	-10.1386
▁connected	-10.1389
▁delivery	-10.1391
▁angela	-10.1401
▁wounded	-10.1404
▁coughs	-10.1434
▁mikey	-10.1438
▁suspects	-10.144
▁smells	-10.1456
▁treated	-10.1469
▁lately	-10.1471
▁teacher	-10.1471
▁jingles	-10.148
▁chips	-10.1486
▁pushed	-10.1487
▁thy	-10.1488
▁kicked	-10.1505
▁lower	-10.1534
▁machines	-10.1542
▁offered	-10.1546
▁x	-10.1548
▁burning	-10.155
▁hunting	-10.1561
▁gosh	-10.1571
▁panic	-10.1573
bit	-10.1581
▁wr	-10.1597
▁thin	-10.1606
▁cheer	-10.1607
▁fontaine	-10.1625
▁tra	-10.1625
▁photo	-10.1629
▁lawyers	-10.1634
ole	-10.1641
▁customer	-10.1644
▁lesson	-10.1645
▁ros	-10.1645
▁rolling	-10.1663
ub	-10.1664
▁odds	-10.1666
▁bon	-10.1676
▁victoria	-10.1694
▁hip	-10.1706
▁loser	-10.1726
▁brings	-10.1743
▁dos	-10.1755
▁trusted	-10.1755
▁image	-10.1761
▁mass	-10.1762
▁hook	-10.1772
art	-10.1774
▁walks	-10.1779
ung	-10.179
ky	-10.1831
▁ent	-10.185
▁tracks	-10.186
▁connect	-10.186
▁seek	-10.186
▁insist	-10.1861
▁gangsters	-10.1871
▁advance	-10.1877
▁value	-10.1878
sto	-10.188
▁butch	-10.1882
▁grant	-10.1885
▁obvious	-10.189
mate	-10.1891
▁invest	-10.1902
▁addition	-10.1905
▁brilliant	-10.1905
▁champagne	-10.1905
▁climb	-10.1905
▁detroit	-10.1905
▁education	-10.1905
▁excellent	-10.1905
▁experiment	-10.1905
▁humming	-10.1905
▁jersey	-10.1905
▁knauer	-10.1905
▁mildred	-10.1905
▁negative	-10.1905
▁occasion	-10.1905
▁paranoid	-10.1905
▁pizza	-10.1905
▁political	-10.1905
▁revving	-10.1905
▁routine	-10.1905
▁squeeze	-10.1905
▁vatican	-10.1905
▁anytime	-10.1905
▁chinese	-10.1905
▁cotton	-10.1905
▁karl	-10.1905
▁random	-10.1905
▁text	-10.1905
▁beckett	-10.1905
▁nightmare	-10.1905
▁starving	-10.1905
▁isso	-10.1905
▁practical	-10.1905
▁nerve	-10.1905
▁fisk	-10.1905
▁wives	-10.1905
▁planned	-10.1905
▁eliza	-10.1905
▁basically	-10.1905
▁internet	-10.1906
▁candyland	-10.1906
▁viggo	-10.1906
▁reverse	-10.1906
▁becoming	-10.1906
▁cancel	-10.1906
▁robbie	-10.1906
▁blair	-10.1906
▁chacon	-10.1906
▁jason	-10.1906
▁loyalty	-10.1906
▁canary	-10.1906
▁construction	-10.1906
▁massage	-10.1907
▁castro	-10.1907
▁madden	-10.1907
▁sobs	-10.1907
▁habit	-10.1908
▁ramos	-10.1908
▁organized	-10.191
▁skill	-10.1911
▁capable	-10.1912
▁vision	-10.1914
▁brand	-10.1918
▁lack	-10.192
▁colin	-10.192
▁quid	-10.1921
▁fuckedup	-10.1924
▁denied	-10.1925
▁passion	-10.1929
▁grown	-10.1933
▁raised	-10.1935
▁bleeding	-10.1939
▁sandy	-10.1942
▁como	-10.1944
▁failed	-10.1959
▁gut	-10.1964
▁er	-10.1966
▁trees	-10.1989
▁mi	-10.1991
▁sheets	-10.1995
▁nest	-10.1999
▁pu	-10.2015
▁marks	-10.2021
▁jumped	-10.2033
ook	-10.2044
▁protected	-10.2047
ez	-10.2052
pped	-10.2054
▁protecting	-10.2077
▁blocks	-10.2083
▁stealing	-10.2091
▁et	-10.2093
▁bugs	-10.2102
▁trained	-10.2112
▁bid	-10.2114
▁gal	-10.2123
▁cents	-10.2134
▁rate	-10.2144
▁hundreds	-10.2159
les	-10.2169
▁beep	-10.2173
ula	-10.2186
▁walls	-10.2188
▁stores	-10.2194
▁lover	-10.2196
ruc	-10.2202
▁issue	-10.2217
▁loan	-10.2218
▁france	-10.2222
▁wo	-10.223
day	-10.2236
▁steps	-10.2249
▁members	-10.2256
▁someones	-10.2267
▁au	-10.2299
▁hid	-10.2306
▁strangers	-10.2312
▁prisoners	-10.2313
▁she	-10.2348
ile	-10.2358
▁ai	-10.2404
▁qua	-10.2407
▁vin	-10.2413
▁ge	-10.2419
ship	-10.2437
▁jos	-10.2437
▁gates	-10.2441
▁shock	-10.2442
▁drill	-10.2449
▁tow	-10.2459
den	-10.246
▁cheat	-10.2462
▁junk	-10.2465
▁create	-10.2467
▁wipe	-10.2467
▁don	-10.247
▁anne	-10.2471
just	-10.2477
til	-10.2478
▁col	-10.249
▁dist	-10.2492
▁loyal	-10.2492
▁catherine	-10.2493
▁collignon	-10.2493
▁community	-10.2493
▁crown	-10.2493
▁cypher	-10.2493
▁dynamite	-10.2493
▁energy	-10.2493
▁international	-10.2493
▁judgment	-10.2493
▁leparq	-10.2493
▁liquor	-10.2493
▁lobby	-10.2493
▁messiah	-10.2493
▁nonsense	-10.2493
▁peopie	-10.2493
▁procedure	-10.2493
▁purchase	-10.2493
▁schedule	-10.2493
▁scrap	-10.2493
▁scratch	-10.2493
▁similar	-10.2493
▁smooth	-10.2493
▁surgery	-10.2493
▁surveillance	-10.2493
▁tangiers	-10.2493
▁tragedy	-10.2493
▁volunteer	-10.2493
▁whimpers	-10.2493
▁amigo	-10.2493
▁byebye	-10.2493
▁combat	-10.2493
▁emperor	-10.2493
▁patrol	-10.2493
▁physical	-10.2493
▁tattoo	-10.2493
▁tolan	-10.2493
▁explosion	-10.2493
▁fraud	-10.2493
▁swat	-10.2493
▁finch	-10.2493
▁society	-10.2493
▁steel	-10.2493
▁superior	-10.2493
▁omar	-10.2493
▁racing	-10.2493
▁burger	-10.2493
▁whatre	-10.2493
▁division	-10.2494
▁opposite	-10.2494
▁planning	-10.2494
▁kidnapped	-10.2494
▁scumbag	-10.2494
▁snake	-10.2494
▁medicine	-10.2494
▁sniper	-10.2494
▁beast	-10.2494
▁franco	-10.2494
▁cabinet	-10.2495
▁blake	-10.2495
▁trapped	-10.2495
▁coward	-10.2495
▁willie	-10.2496
▁legend	-10.2496
▁basic	-10.2496
▁pitch	-10.2497
▁giant	-10.2497
▁supper	-10.2497
▁pension	-10.2497
▁flag	-10.2497
▁struck	-10.2498
▁growling	-10.2498
▁spare	-10.2499
▁toid	-10.2499
▁recently	-10.2499
▁barish	-10.25
▁rice	-10.2501
▁honk	-10.2501
▁dna	-10.2502
▁deny	-10.2502
▁homework	-10.2502
▁personality	-10.2502
▁fetch	-10.2503
▁pub	-10.2503
▁fold	-10.2503
▁bow	-10.2503
tes	-10.2504
▁arrow	-10.2505
▁roy	-10.2507
▁toss	-10.2513
▁cutting	-10.2519
▁created	-10.252
▁agora	-10.2522
▁former	-10.2524
▁cast	-10.2527
▁lifetime	-10.2541
mp	-10.2549
▁teamsters	-10.2554
▁wifes	-10.2568
▁stoned	-10.2575
▁stronger	-10.2576
▁here	-10.2577
▁bombing	-10.2586
▁reached	-10.2589
▁shitty	-10.2593
▁hooker	-10.2595
▁merci	-10.2598
ich	-10.2604
▁painting	-10.2614
cient	-10.2618
▁meter	-10.2622
▁can	-10.2627
ada	-10.2633
ei	-10.2641
▁ao	-10.2648
▁pet	-10.2664
▁attacked	-10.2675
eight	-10.2689
▁counter	-10.2702
▁falling	-10.2714
▁sides	-10.2745
▁houses	-10.2746
▁sl	-10.2776
▁crimes	-10.2789
▁carlo	-10.2805
▁marian	-10.2805
▁esta	-10.2806
▁apple	-10.2815
▁inf	-10.2818
uck	-10.2818
▁dea	-10.2823
hole	-10.2824
ied	-10.2831
▁intention	-10.2834
▁clown	-10.2836
▁maria	-10.2851
▁hills	-10.2853
▁thee	-10.2867
▁toe	-10.2884
▁touched	-10.2895
itude	-10.291
▁banks	-10.2939
▁fre	-10.294
▁boats	-10.2973
ana	-10.2981
▁touching	-10.2988
▁mis	-10.2991
ak	-10.3001
▁everyones	-10.3014
▁suffer	-10.3024
▁seats	-10.3047
▁defend	-10.3063
urn	-10.3064
ical	-10.3066
▁respond	-10.3066
▁bowl	-10.307
hold	-10.3073
▁inform	-10.3073
▁log	-10.3073
night	-10.3079
▁charm	-10.3081
▁associate	-10.3091
▁feei	-10.3091
▁ski	-10.3101
▁violent	-10.3102
▁particular	-10.3104
bility	-10.3106
▁stretch	-10.3106
▁phil	-10.3107
▁madam	-10.3108
▁kara	-10.3113
▁breast	-10.3115
▁effect	-10.3116
▁flip	-10.3117
▁transfer	-10.3118
▁activity	-10.3118
▁avenue	-10.3118
▁becca	-10.3118
▁bonjour	-10.3118
▁cocaine	-10.3118
▁communist	-10.3118
▁companies	-10.3118
▁concentrate	-10.3118
▁corliss	-10.3118
▁dhazghig	-10.3118
▁disturb	-10.3118
▁dufresne	-10.3118
▁easily	-10.3118
▁ferrari	-10.3118
▁financial	-10.3118
▁kurtz	-10.3118
▁macready	-10.3118
▁miserable	-10.3118
▁narcotics	-10.3118
▁offense	-10.3118
▁professor	-10.3118
▁rebecca	-10.3118
▁reputation	-10.3118
▁responsibility	-10.3118
▁suicide	-10.3118
▁thirty	-10.3118
▁torrance	-10.3118
▁twentyfive	-10.3118
▁willoughby	-10.3118
▁zsasz	-10.3118
▁couid	-10.3118
▁guinea	-10.3118
▁pablo	-10.3118
▁venice	-10.3118
▁sharon	-10.3118
▁coast	-10.3118
▁mistress	-10.3118
▁spoon	-10.3118
▁iife	-10.3118
▁spud	-10.3118
▁vinnie	-10.3118
▁boris	-10.3118
▁daily	-10.3118
▁bacall	-10.3118
▁quando	-10.3118
▁defence	-10.3119
▁brittle	-10.3119
▁couch	-10.3119
▁ruth	-10.3119
▁guide	-10.3119
▁testify	-10.3119
▁ofthe	-10.3119
▁merry	-10.3119
▁hostage	-10.312
▁bingo	-10.312
▁childhood	-10.312
▁committed	-10.312
▁slim	-10.312
▁laundry	-10.312
▁tuco	-10.3121
▁reaction	-10.3122
▁birth	-10.3122
▁bible	-10.3122
▁isto	-10.3122
▁blondie	-10.3123
▁diaz	-10.3123
▁dragon	-10.3123
▁fence	-10.3123
▁possibility	-10.3123
▁kidnapping	-10.3123
▁youse	-10.3124
▁chew	-10.3124
▁plantation	-10.3124
▁wade	-10.3125
▁treatment	-10.3125
▁jamie	-10.3126
▁dj	-10.3126
▁serk	-10.3126
▁labor	-10.3127
▁receiver	-10.3127
▁ciao	-10.3129
▁factory	-10.313
▁fuss	-10.3131
▁caine	-10.3132
▁sword	-10.3132
▁separate	-10.3132
▁johnson	-10.3133
▁obey	-10.3133
▁embarrassing	-10.3133
▁services	-10.3137
▁lapd	-10.3137
▁received	-10.3138
▁spoken	-10.3141
▁managed	-10.3145
▁mia	-10.3146
▁blonde	-10.3147
▁pole	-10.3153
▁gray	-10.3159
▁pity	-10.316
▁billion	-10.316
▁down	-10.3164
▁roberto	-10.3169
▁passes	-10.317
use	-10.3173
▁ira	-10.3174
▁dime	-10.3178
▁fal	-10.318
▁spin	-10.3181
▁curse	-10.3185
▁campo	-10.3192
▁dean	-10.3192
▁based	-10.3194
▁meantime	-10.3198
▁screwed	-10.3201
▁tal	-10.3203
▁destroyed	-10.3211
tter	-10.3214
▁busted	-10.3218
▁slo	-10.3219
▁nasty	-10.3221
▁washed	-10.3225
▁realized	-10.3227
▁ro	-10.3231
▁belly	-10.3232
▁interests	-10.3233
▁planet	-10.3236
▁op	-10.3237
▁fairy	-10.324
▁stacks	-10.3256
▁makeup	-10.3266
▁ann	-10.3268
fore	-10.3271
▁tre	-10.3271
▁elvis	-10.3274
▁min	-10.3285
ame	-10.3286
▁manage	-10.3287
▁covered	-10.3291
▁cabin	-10.3301
ya	-10.3301
▁honored	-10.3301
▁my	-10.3314
▁ci	-10.3315
▁nation	-10.3315
▁des	-10.3324
▁shouts	-10.3331
▁porn	-10.3334
▁jam	-10.3345
▁fully	-10.3346
▁results	-10.3349
▁ey	-10.3358
▁diet	-10.3365
▁earl	-10.3366
▁stones	-10.3376
ight	-10.338
▁knocked	-10.3393
▁dreaming	-10.3395
ated	-10.3404
let	-10.3408
▁fields	-10.341
▁seu	-10.3412
▁needle	-10.3415
▁admire	-10.3421
▁toes	-10.3422
▁pens	-10.3437
▁med	-10.344
▁engineer	-10.3451
▁mei	-10.3453
▁trucks	-10.3455
▁drag	-10.3459
ax	-10.3476
▁clip	-10.3479
▁cases	-10.3479
▁leads	-10.3479
▁demand	-10.35
rio	-10.3504
▁luca	-10.3506
▁rec	-10.3512
▁beside	-10.3514
▁ol	-10.3541
ator	-10.3544
but	-10.3546
▁mat	-10.355
▁sla	-10.3572
▁remembered	-10.3576
ify	-10.3577
▁ham	-10.36
▁rod	-10.362
▁murderer	-10.3625
▁gar	-10.3639
▁hurting	-10.3658
za	-10.3665
▁childs	-10.3669
acy	-10.3689
cent	-10.3716
▁inter	-10.3729
▁drown	-10.3733
two	-10.374
▁insult	-10.3742
▁whack	-10.3743
▁damned	-10.3746
▁fuckers	-10.375
▁depend	-10.3754
▁williams	-10.3758
▁custom	-10.3763
▁norm	-10.3774
ery	-10.3776
▁grocer	-10.3781
▁psych	-10.3781
▁wrap	-10.3785
▁arbogast	-10.3785
▁belfort	-10.3785
▁benefit	-10.3785
▁budapest	-10.3785
▁courage	-10.3785
▁delicious	-10.3785
▁destination	-10.3785
▁district	-10.3785
▁exercise	-10.3785
▁extraordinary	-10.3785
▁fashion	-10.3785
▁foreign	-10.3785
▁kowalski	-10.3785
▁mafia	-10.3785
▁melissa	-10.3785
▁meredith	-10.3785
▁nunca	-10.3785
▁sahib	-10.3785
▁satisfaction	-10.3785
▁smack	-10.3785
▁speech	-10.3785
▁whistling	-10.3785
▁identity	-10.3785
▁instructions	-10.3785
▁paddy	-10.3785
▁paradise	-10.3785
▁bribe	-10.3785
▁bugger	-10.3785
▁courtesan	-10.3785
▁hazen	-10.3785
▁scattered	-10.3785
▁spleen	-10.3785
▁washington	-10.3785
▁caravan	-10.3785
▁conspiracy	-10.3785
▁material	-10.3785
▁swiss	-10.3785
▁greek	-10.3785
▁demany	-10.3785
▁freezing	-10.3785
▁prevent	-10.3785
▁donkey	-10.3785
▁loving	-10.3785
▁facing	-10.3785
▁theory	-10.3785
▁silver	-10.3785
▁whoops	-10.3785
▁burke	-10.3786
▁revs	-10.3786
▁lungs	-10.3786
▁arrangement	-10.3786
▁firing	-10.3787
▁defendant	-10.3787
▁pimp	-10.3787
▁shelley	-10.3787
▁library	-10.3787
▁geek	-10.3788
▁unlike	-10.3788
▁dough	-10.3788
▁racket	-10.3789
▁motor	-10.3789
▁judea	-10.379
▁alley	-10.379
▁screen	-10.379
▁subtitle	-10.379
▁thick	-10.3792
▁shaw	-10.3792
▁fever	-10.3792
▁moral	-10.3793
▁flo	-10.3793
▁contain	-10.3794
▁uhoh	-10.3794
▁thou	-10.3795
▁discovered	-10.3795
▁shatter	-10.3796
▁sch	-10.3796
▁task	-10.3802
▁rubber	-10.3803
▁successful	-10.3806
▁linda	-10.381
▁gain	-10.381
▁plank	-10.3812
itz	-10.3812
▁bound	-10.3814
▁victory	-10.3815
▁lara	-10.382
▁unable	-10.3821
▁cured	-10.3823
▁warned	-10.3824
▁faces	-10.3828
▁carried	-10.3831
▁explosives	-10.3834
▁exclaims	-10.3834
▁prize	-10.3835
ire	-10.3838
▁mixed	-10.3838
▁registered	-10.3838
▁ru	-10.384
▁normally	-10.3843
▁reai	-10.3848
▁ended	-10.3851
▁clouds	-10.3854
▁comic	-10.3861
right	-10.3864
▁thuds	-10.3873
▁queens	-10.3876
uit	-10.3882
▁commander	-10.3885
▁mustve	-10.3891
▁yi	-10.3902
▁cent	-10.3927
gu	-10.3941
▁bothering	-10.3947
iest	-10.3954
▁bets	-10.3956
▁lighter	-10.3965
▁sucking	-10.3971
▁melt	-10.3982
▁oi	-10.399
▁drawer	-10.4009
▁und	-10.4011
ah	-10.4011
▁kissed	-10.4011
▁tw	-10.4029
▁manners	-10.4032
▁tryin	-10.4034
▁hits	-10.4045
▁accus	-10.4051
ory	-10.4066
▁ant	-10.4068
▁germans	-10.4079
▁ou	-10.4083
for	-10.4085
die	-10.4097
▁waited	-10.4102
▁mountains	-10.4145
▁blowing	-10.4156
▁costs	-10.4157
▁souls	-10.4159
▁stink	-10.4162
chi	-10.4183
nte	-10.4194
▁meaning	-10.4195
val	-10.4206
▁tunnel	-10.4214
▁deposit	-10.4214
▁suitcase	-10.4216
▁pode	-10.4218
▁cats	-10.4222
fo	-10.4229
▁tears	-10.4232
▁bug	-10.4234
▁bee	-10.4235
ball	-10.4266
▁nut	-10.4271
▁carol	-10.4287
▁nd	-10.4305
▁workin	-10.4322
▁matters	-10.4324
list	-10.4333
▁the	-10.4334
▁term	-10.4335
ern	-10.4355
▁jud	-10.4391
▁dealers	-10.4398
▁sw	-10.4408
ab	-10.4415
part	-10.4415
▁gam	-10.4419
air	-10.4425
▁continu	-10.4431
▁wing	-10.4433
▁ye	-10.4434
▁assassin	-10.4443
how	-10.4446
▁pump	-10.4447
▁bills	-10.445
foot	-10.445
▁borrow	-10.4455
mark	-10.4457
▁sales	-10.4459
tte	-10.4461
▁doug	-10.4473
▁noon	-10.4474
▁signor	-10.4476
▁creep	-10.4477
▁equal	-10.4483
▁flow	-10.4484
▁weigh	-10.4485
▁prince	-10.4492
▁sittin	-10.4494
▁cuba	-10.4499
▁resist	-10.4499
▁ambush	-10.4499
▁brush	-10.4499
▁recruit	-10.4499
▁accomplish	-10.4499
▁agatha	-10.4499
▁altobello	-10.4499
▁appeal	-10.4499
▁attend	-10.4499
▁caretaker	-10.4499
▁chocolate	-10.4499
▁clattering	-10.4499
▁description	-10.4499
▁eagle	-10.4499
▁environment	-10.4499
▁furniture	-10.4499
▁impressed	-10.4499
▁industry	-10.4499
▁initial	-10.4499
▁lunatic	-10.4499
▁midget	-10.4499
▁mirror	-10.4499
▁montana	-10.4499
▁november	-10.4499
▁pancakes	-10.4499
▁pessoa	-10.4499
▁plague	-10.4499
▁poiice	-10.4499
▁prostitute	-10.4499
▁recognise	-10.4499
▁rescue	-10.4499
▁response	-10.4499
▁sempre	-10.4499
▁sensitive	-10.4499
▁stereo	-10.4499
▁stiff	-10.4499
▁sunshine	-10.4499
▁tournament	-10.4499
▁underneath	-10.4499
▁vengeance	-10.4499
▁wednesday	-10.4499
▁wladek	-10.4499
▁buffalo	-10.4499
▁cruel	-10.4499
▁kumar	-10.4499
▁lardass	-10.4499
▁pattern	-10.4499
▁piace	-10.4499
▁purse	-10.4499
▁reckon	-10.4499
▁superstar	-10.4499
▁hysterical	-10.4499
▁indio	-10.4499
▁warehouse	-10.4499
▁collins	-10.4499
▁dodge	-10.4499
▁innit	-10.4499
▁stabbed	-10.4499
▁giggling	-10.4499
▁toast	-10.4499
▁laura	-10.4499
▁candy	-10.4499
▁robbing	-10.4499
▁ransom	-10.4499
▁brainerd	-10.4499
▁version	-10.45
▁temptation	-10.45
▁solando	-10.45
▁repair	-10.45
▁hmong	-10.45
▁scam	-10.45
▁promote	-10.45
▁accent	-10.45
▁wrapped	-10.45
▁assistant	-10.45
▁urgent	-10.45
▁glory	-10.45
▁zoo	-10.4501
▁incoming	-10.4501
▁slipped	-10.4501
▁indian	-10.4501
▁jurisdiction	-10.4501
▁interrogation	-10.4501
▁civilian	-10.4501
▁shaking	-10.4501
rica	-10.4501
▁gourd	-10.4502
▁management	-10.4502
▁riot	-10.4502
▁snitch	-10.4502
▁bacon	-10.4502
▁fuel	-10.4502
▁inmate	-10.4503
▁terry	-10.4503
▁huntley	-10.4503
▁european	-10.4504
▁salad	-10.4504
▁wore	-10.4504
▁emotional	-10.4506
▁legitimate	-10.4506
▁facility	-10.4506
▁porch	-10.4507
▁ahhh	-10.4507
▁stepped	-10.4507
▁shep	-10.4507
▁booth	-10.4508
▁dings	-10.4512
▁grandma	-10.4513
▁haha	-10.4513
▁apply	-10.4513
▁betty	-10.4514
▁related	-10.4515
▁superman	-10.4515
▁heiio	-10.4518
▁deke	-10.452
▁angle	-10.4522
▁madame	-10.4523
▁stable	-10.4527
▁limo	-10.4529
▁retarded	-10.4529
▁ink	-10.4531
▁betrayed	-10.4532
▁naturally	-10.4532
▁narc	-10.4534
▁warn	-10.4536
▁visitor	-10.4537
evi	-10.4542
▁tone	-10.4543
▁director	-10.4543
▁convinced	-10.4544
▁missus	-10.4544
▁suffered	-10.4548
bag	-10.4551
▁hire	-10.4553
▁hood	-10.4554
▁yup	-10.4556
▁charming	-10.4558
▁shovel	-10.4563
▁vehicles	-10.4564
▁ditch	-10.4564
▁foundation	-10.4568
▁reality	-10.4572
▁host	-10.4577
fire	-10.4578
▁deeper	-10.4579
▁ruined	-10.4582
▁wi	-10.4588
▁cares	-10.459
▁finest	-10.4592
▁politicians	-10.4594
▁earned	-10.4606
▁delivered	-10.461
tory	-10.4615
▁cracked	-10.463
▁barn	-10.4633
▁bells	-10.4635
▁considered	-10.4661
▁cowboys	-10.4669
▁blades	-10.468
▁likely	-10.4682
▁highly	-10.4685
▁chat	-10.4701
ski	-10.4705
▁bars	-10.4707
▁sei	-10.4724
▁messed	-10.4743
▁boots	-10.4746
ain	-10.4758
▁shares	-10.4759
▁neighbors	-10.4765
ult	-10.4772
▁frankly	-10.4772
▁gr	-10.4794
lon	-10.4797
▁disse	-10.4824
▁sucker	-10.4826
▁speakers	-10.4827
port	-10.4835
▁fam	-10.4838
▁content	-10.4841
sis	-10.4847
ome	-10.4848
zo	-10.4863
▁apples	-10.4873
ration	-10.489
▁fra	-10.4891
▁nate	-10.4894
▁bas	-10.4906
▁banker	-10.4924
▁fate	-10.4932
▁smit	-10.4941
▁naive	-10.4941
▁counting	-10.4942
▁jai	-10.4949
▁pile	-10.495
▁krays	-10.4961
▁waves	-10.4961
▁individual	-10.4985
▁document	-10.4985
▁eyeball	-10.4986
▁minds	-10.4987
▁neighbor	-10.4988
▁gook	-10.499
▁result	-10.499
▁flower	-10.5028
▁nails	-10.5053
▁answered	-10.5067
▁badly	-10.507
▁killa	-10.508
▁whores	-10.5093
▁persons	-10.5096
▁prime	-10.5097
▁chen	-10.5106
▁sm	-10.5116
point	-10.5134
▁pl	-10.5135
ong	-10.5139
▁mistakes	-10.5146
▁manner	-10.5147
▁roses	-10.5154
ison	-10.5174
run	-10.5178
▁design	-10.518
▁speaker	-10.5205
▁trail	-10.5221
▁smash	-10.5225
rez	-10.5226
▁twist	-10.5227
▁blond	-10.5228
▁powers	-10.523
well	-10.5231
ose	-10.5239
▁ate	-10.524
▁mug	-10.5243
▁retire	-10.5248
▁desperate	-10.5252
▁mag	-10.5252
▁unfortunate	-10.5253
▁heii	-10.5254
▁quo	-10.5258
▁burns	-10.526
▁superhero	-10.526
▁emotion	-10.5261
▁maze	-10.5262
vez	-10.5263
▁symbol	-10.5264
▁express	-10.5264
▁civil	-10.5266
through	-10.5268
▁affair	-10.5268
▁barzini	-10.5268
▁brooklyn	-10.5268
▁campaign	-10.5268
▁carlisle	-10.5268
▁complicated	-10.5268
▁confidence	-10.5268
▁cortez	-10.5268
▁crossbow	-10.5268
▁culture	-10.5268
▁desculpa	-10.5268
▁despite	-10.5268
▁dorothy	-10.5268
▁embrace	-10.5268
▁eternal	-10.5268
▁fantasy	-10.5268
▁female	-10.5268
▁havana	-10.5268
▁holiday	-10.5268
▁impression	-10.5268
▁instinct	-10.5268
▁kansas	-10.5268
▁lundegaard	-10.5268
▁oklahoma	-10.5268
▁pearson	-10.5268
▁polish	-10.5268
▁popular	-10.5268
▁proposition	-10.5268
▁pulse	-10.5268
▁randazzo	-10.5268
▁rumbling	-10.5268
▁sausage	-10.5268
▁someday	-10.5268
▁switzerland	-10.5268
▁terribly	-10.5268
▁uncomfortable	-10.5268
▁valuable	-10.5268
▁vargas	-10.5268
▁widow	-10.5268
▁worries	-10.5268
▁century	-10.5268
▁cirk	-10.5268
▁disease	-10.5268
▁medium	-10.5268
▁sutler	-10.5268
▁sweep	-10.5268
▁choke	-10.5268
▁coffin	-10.5268
▁mayhem	-10.5268
▁polite	-10.5268
▁alpha	-10.5268
▁kingdom	-10.5268
▁inhale	-10.5268
▁intend	-10.5268
▁neat	-10.5268
▁vagina	-10.5268
▁razor	-10.5269
▁shark	-10.5269
▁connor	-10.5269
▁foul	-10.5269
▁pedro	-10.5269
▁grabbed	-10.5269
▁levin	-10.5269
▁boogie	-10.5269
▁invisible	-10.5269
▁donny	-10.5269
▁richardson	-10.5269
▁specifically	-10.5269
▁studio	-10.5269
▁martinez	-10.5269
▁option	-10.5269
▁session	-10.5269
▁cooperation	-10.5269
▁arab	-10.5269
▁adult	-10.5269
▁float	-10.527
▁begbie	-10.527
▁ficar	-10.527
▁imagination	-10.527
▁zone	-10.527
▁overnight	-10.527
▁violation	-10.527
▁psychiatrist	-10.527
▁section	-10.527
▁review	-10.527
▁pierce	-10.5271
▁media	-10.5271
▁liberty	-10.5271
▁wherever	-10.5271
▁tooth	-10.5272
▁sample	-10.5272
▁unload	-10.5272
▁yessir	-10.5273
▁acid	-10.5273
▁false	-10.5273
▁deaf	-10.5274
▁prosecutor	-10.5274
▁ox	-10.5274
▁rebel	-10.5274
▁colon	-10.5275
▁stash	-10.5275
▁nearby	-10.5275
▁bruno	-10.5276
▁batman	-10.5276
▁grateful	-10.5278
▁speck	-10.5278
▁approve	-10.5281
▁plot	-10.5281
▁pathetic	-10.5281
▁gordon	-10.5283
▁brutal	-10.5284
▁discussion	-10.5284
▁bout	-10.5284
▁trooper	-10.5286
▁greeting	-10.5287
▁palm	-10.5287
▁bump	-10.5288
▁spain	-10.5288
▁dep	-10.5291
▁willy	-10.5292
▁frightened	-10.5294
▁iet	-10.5297
▁cane	-10.53
▁deck	-10.5303
▁properly	-10.5305
▁fried	-10.5308
▁scary	-10.5308
▁tempo	-10.531
▁mer	-10.531
▁owl	-10.5311
▁mill	-10.5311
onde	-10.5312
▁healthy	-10.5315
▁robin	-10.5318
▁threatening	-10.5318
▁bench	-10.5325
▁mud	-10.5337
▁commissioner	-10.5337
▁oid	-10.534
▁redhead	-10.5347
▁helpful	-10.5348
▁porqu	-10.5348
▁celtics	-10.5349
▁bolt	-10.5368
▁shared	-10.5375
▁dumped	-10.5378
here	-10.5382
▁quicker	-10.5386
▁crossed	-10.5413
▁packed	-10.5419
▁blocked	-10.543
▁shooter	-10.5434
▁brakes	-10.5441
▁ww	-10.5445
ren	-10.5453
bie	-10.5461
▁chambers	-10.5464
▁watches	-10.5469
▁staring	-10.5471
▁walkin	-10.5481
▁considering	-10.5484
▁sniffs	-10.5488
▁breaks	-10.5502
▁app	-10.5503
▁tim	-10.5512
▁vo	-10.5519
▁broker	-10.5524
▁tons	-10.5547
▁backup	-10.555
nel	-10.5564
▁signs	-10.5571
▁af	-10.5603
▁shite	-10.5613
▁ton	-10.5619
▁offering	-10.5632
orted	-10.5639
▁murderers	-10.5648
▁loans	-10.5651
▁actions	-10.5663
▁fontaines	-10.5675
▁thousands	-10.5686
▁sn	-10.569
▁shotguns	-10.5698
▁mini	-10.5702
ux	-10.5704
pin	-10.5718
▁holes	-10.5735
▁pulls	-10.5774
uff	-10.5774
▁shout	-10.5776
▁z	-10.5803
▁slaver	-10.5807
▁hunter	-10.5813
▁bodyguard	-10.5814
▁shorts	-10.5814
▁uniform	-10.5816
▁wounds	-10.582
▁buck	-10.5828
▁miller	-10.5832
▁parent	-10.5843
▁boot	-10.5853
ette	-10.5854
▁bones	-10.5865
▁payment	-10.5865
▁sports	-10.5865
▁connections	-10.589
▁coin	-10.5901
▁forms	-10.592
▁casinos	-10.5922
▁grounds	-10.5922
▁messages	-10.5922
qui	-10.5925
iam	-10.5929
▁bur	-10.5949
▁fredd	-10.5951
ando	-10.5956
▁je	-10.5988
▁roads	-10.599
▁tricks	-10.6012
face	-10.6023
▁threaten	-10.6024
▁plug	-10.6043
▁fri	-10.6047
ward	-10.6049
▁gather	-10.6051
▁bleed	-10.6052
▁affect	-10.6054
▁confirm	-10.6057
▁disappoint	-10.6057
▁disrespect	-10.6058
phone	-10.6059
water	-10.6061
▁receive	-10.6064
▁plea	-10.6068
▁jokes	-10.6071
▁pursue	-10.6073
▁invite	-10.6088
met	-10.6089
▁absolute	-10.6089
▁blank	-10.6095
▁sail	-10.6097
▁iove	-10.6101
wait	-10.6101
▁gentle	-10.6101
▁sonofabitch	-10.6102
▁anxious	-10.6102
▁applause	-10.6102
▁argument	-10.6102
▁beethoven	-10.6102
▁belfast	-10.6102
▁beneath	-10.6102
▁bureau	-10.6102
▁catholic	-10.6102
▁cemetery	-10.6102
▁circuit	-10.6102
▁circus	-10.6102
▁compliment	-10.6102
▁constant	-10.6102
▁corporal	-10.6102
▁cripple	-10.6102
▁disguise	-10.6102
▁domenico	-10.6102
▁durden	-10.6102
▁envelope	-10.6102
▁errol	-10.6102
▁grief	-10.6102
▁immunity	-10.6102
▁interfere	-10.6102
▁investigate	-10.6102
▁joseph	-10.6102
▁lopez	-10.6102
▁mclaren	-10.6102
▁mechanic	-10.6102
▁mierzwiak	-10.6102
▁october	-10.6102
▁peanut	-10.6102
▁politics	-10.6102
▁potential	-10.6102
▁reservation	-10.6102
▁rodolfo	-10.6102
▁sacrifice	-10.6102
▁science	-10.6102
▁struggling	-10.6102
▁sunrise	-10.6102
▁traitor	-10.6102
▁underwear	-10.6102
▁vaughn	-10.6102
▁depois	-10.6102
▁flew	-10.6102
▁harbor	-10.6102
▁monaco	-10.6102
▁relative	-10.6102
▁vlog	-10.6102
▁vomit	-10.6102
▁brooks	-10.6102
▁ghetto	-10.6102
▁contest	-10.6102
▁jiro	-10.6102
▁steam	-10.6102
▁patsey	-10.6102
▁santino	-10.6102
▁whatll	-10.6102
▁drew	-10.6102
▁claus	-10.6102
▁december	-10.6102
▁ninth	-10.6102
▁teenage	-10.6102
▁midnight	-10.6102
▁protest	-10.6102
▁cartel	-10.6102
▁todd	-10.6102
▁moaning	-10.6102
▁meyer	-10.6102
▁woo	-10.6102
▁granny	-10.6102
▁burden	-10.6102
▁weeknd	-10.6102
▁zeena	-10.6102
▁jeff	-10.6102
▁jazz	-10.6103
▁smiling	-10.6103
▁entertainment	-10.6103
▁snowball	-10.6103
▁lalala	-10.6103
▁pursuit	-10.6103
▁transferred	-10.6103
▁sicilian	-10.6103
▁souad	-10.6103
▁costume	-10.6103
▁manuel	-10.6103
▁gamma	-10.6103
▁southern	-10.6103
▁operating	-10.6103
▁quality	-10.6104
▁broadcast	-10.6104
▁marble	-10.6104
▁cheque	-10.6104
▁signature	-10.6104
▁corporation	-10.6104
▁aggressive	-10.6104
▁appearance	-10.6104
▁whooping	-10.6104
▁distant	-10.6105
▁frozen	-10.6105
▁selfish	-10.6105
▁deborah	-10.6105
▁puff	-10.6105
▁iong	-10.6105
▁blah	-10.6105
▁tourist	-10.6105
▁exley	-10.6105
▁teammate	-10.6106
▁punish	-10.6106
▁diner	-10.6106
▁unlock	-10.6106
▁toad	-10.6107
▁secure	-10.6107
▁straw	-10.6107
▁proposal	-10.6108
▁mount	-10.6108
▁thumb	-10.6108
▁merrily	-10.6109
▁brock	-10.611
▁iot	-10.611
▁youth	-10.6111
▁inner	-10.6111
▁taps	-10.6112
▁link	-10.6112
▁eise	-10.6114
▁math	-10.6114
▁convicted	-10.6115
▁heal	-10.6118
▁chosen	-10.6118
▁brass	-10.6122
▁copper	-10.6122
▁brandt	-10.6123
▁buzzes	-10.6123
▁bud	-10.6124
▁edie	-10.6125
▁highness	-10.6125
▁tortured	-10.6126
▁vai	-10.613
▁useful	-10.613
▁fig	-10.6131
▁sharply	-10.6138
▁jay	-10.6138
▁rein	-10.6139
▁scotty	-10.6141
▁ridge	-10.6141
▁july	-10.6145
▁dana	-10.6147
win	-10.6155
▁this	-10.6155
▁dialing	-10.6156
▁complaint	-10.6162
▁stinking	-10.6164
▁dec	-10.6171
▁confessed	-10.6173
▁lawn	-10.6178
▁wil	-10.6186
▁martini	-10.619
▁cooking	-10.6199
▁iooking	-10.6203
▁vol	-10.6209
cas	-10.621
▁bent	-10.6223
▁checking	-10.6225
▁gap	-10.623
▁crashing	-10.6236
▁freaking	-10.624
ito	-10.6243
nder	-10.6264
cy	-10.6278
▁inch	-10.6284
▁testing	-10.6286
▁fla	-10.6294
rate	-10.6296
▁nod	-10.6304
▁mayor	-10.6305
▁owes	-10.6308
▁searching	-10.6308
▁songs	-10.6312
▁expenses	-10.6315
▁ana	-10.6328
▁pd	-10.6332
▁cable	-10.6334
gue	-10.6335
▁lips	-10.634
▁dial	-10.634
▁returning	-10.6397
▁ty	-10.6405
▁dreamed	-10.641
▁kicking	-10.6415
lock	-10.6423
▁cli	-10.6432
tters	-10.6433
▁fuckup	-10.645
▁enjoying	-10.6467
▁tend	-10.6483
▁carlos	-10.6498
ham	-10.6501
▁reasons	-10.6548
▁lil	-10.655
▁liver	-10.6565
fyou	-10.6606
▁site	-10.6609
▁qu	-10.6627
▁les	-10.6639
▁corn	-10.6639
▁understanding	-10.664
▁oni	-10.6651
abie	-10.6657
▁seize	-10.6662
▁marys	-10.6663
▁mau	-10.6673
▁mexicans	-10.6676
▁grunt	-10.669
▁rub	-10.6705
▁reports	-10.6712
▁barrel	-10.6723
▁chuckle	-10.6753
hood	-10.6754
▁lap	-10.6776
▁negotiate	-10.6776
▁rode	-10.6799
fully	-10.6836
▁tellin	-10.6843
rained	-10.6845
ark	-10.6849
▁rape	-10.6893
work	-10.6898
▁bats	-10.6912
▁sticks	-10.6925
ably	-10.6952
room	-10.6964
yearold	-10.6966
tempo	-10.6966
▁betray	-10.6969
ified	-10.6973
kins	-10.6977
four	-10.6981
▁arch	-10.6982
▁marty	-10.6982
nite	-10.6983
▁engage	-10.6983
▁ignore	-10.6983
▁torture	-10.6984
▁greed	-10.6989
oster	-10.699
▁ni	-10.6997
▁korea	-10.7001
ford	-10.7001
▁attract	-10.7005
▁counsel	-10.7005
▁runnin	-10.7006
▁transport	-10.701
▁occur	-10.701
▁zip	-10.701
▁basket	-10.7011
▁hump	-10.7011
▁behavior	-10.7011
▁inherit	-10.7011
▁miiiion	-10.7011
▁alessandra	-10.7011
▁anyhow	-10.7011
▁appetite	-10.7011
▁attitude	-10.7011
▁average	-10.7011
▁beloved	-10.7011
▁bracelet	-10.7011
▁cadillac	-10.7011
▁catherlne	-10.7011
▁certificate	-10.7011
▁cocktail	-10.7011
▁cooperate	-10.7011
▁determine	-10.7011
▁disagree	-10.7011
▁dmitri	-10.7011
▁dufayel	-10.7011
▁elbow	-10.7011
▁genuine	-10.7011
▁haunt	-10.7011
▁headquarters	-10.7011
▁hockney	-10.7011
▁jonathan	-10.7011
▁karras	-10.7011
▁landlord	-10.7011
▁lchimonji	-10.7011
▁length	-10.7011
▁leprechaun	-10.7011
▁llewelyn	-10.7011
▁measure	-10.7011
▁michigan	-10.7011
▁mortgage	-10.7011
▁motorcycle	-10.7011
▁mysterious	-10.7011
▁naughty	-10.7011
▁parasites	-10.7011
▁pentangeli	-10.7011
▁phoenix	-10.7011
▁piscano	-10.7011
▁poulain	-10.7011
▁reeves	-10.7011
▁rodriguez	-10.7011
▁shelter	-10.7011
▁shepherd	-10.7011
▁sleeve	-10.7011
▁subpoena	-10.7011
▁succeed	-10.7011
▁surgeon	-10.7011
▁suspicion	-10.7011
▁sweeney	-10.7011
▁technique	-10.7011
▁temporary	-10.7011
▁trousers	-10.7011
▁typical	-10.7011
▁visual	-10.7011
▁volume	-10.7011
▁article	-10.7011
▁balance	-10.7011
▁dallas	-10.7011
▁empire	-10.7011
▁hidetora	-10.7011
▁jerome	-10.7011
▁margie	-10.7011
▁status	-10.7011
▁storage	-10.7011
▁wreck	-10.7011
▁rattling	-10.7011
▁sheep	-10.7011
▁valerie	-10.7011
▁ballister	-10.7011
▁loop	-10.7011
▁madeleine	-10.7011
▁palace	-10.7011
▁roast	-10.7011
▁clue	-10.7011
▁stiii	-10.7011
▁method	-10.7011
▁thug	-10.7011
▁delta	-10.7011
▁ashamed	-10.7011
▁iisten	-10.7011
▁conquer	-10.7011
▁swimming	-10.7011
▁kyle	-10.7011
▁advisor	-10.7011
▁network	-10.7011
▁wholl	-10.7011
▁fanucci	-10.7011
▁dishes	-10.7011
▁conference	-10.7011
▁helen	-10.7011
▁willard	-10.7011
▁bald	-10.7011
▁toot	-10.7011
▁cameron	-10.7011
▁saddle	-10.7011
▁entrance	-10.7011
▁granville	-10.7011
▁sniffles	-10.7011
▁misery	-10.7011
▁rocco	-10.7012
▁thrill	-10.7012
▁bubble	-10.7012
▁mandingo	-10.7012
▁unger	-10.7012
▁suspicious	-10.7012
▁drift	-10.7012
▁alguma	-10.7012
▁regard	-10.7012
▁root	-10.7012
▁valley	-10.7013
▁lousy	-10.7013
▁serge	-10.7013
▁spill	-10.7013
▁narrow	-10.7013
▁glen	-10.7013
▁wanker	-10.7014
▁medication	-10.7014
▁nazi	-10.7014
▁partnership	-10.7014
▁flu	-10.7014
▁slice	-10.7014
▁territory	-10.7014
▁testimony	-10.7014
▁wrist	-10.7014
▁poop	-10.7014
▁potatoes	-10.7014
▁basis	-10.7014
▁investment	-10.7014
▁tango	-10.7014
▁meanwhile	-10.7015
▁ripped	-10.7015
▁rising	-10.7015
▁swell	-10.7015
▁chaos	-10.7015
▁armand	-10.7015
▁award	-10.7015
▁drain	-10.7015
▁elder	-10.7015
▁guardsmen	-10.7016
▁charity	-10.7016
▁zion	-10.7016
▁sack	-10.7016
▁aiden	-10.7016
▁lois	-10.7016
▁supply	-10.7016
▁sammy	-10.7016
▁jaw	-10.7017
▁cuff	-10.7017
▁decorat	-10.7018
▁righteous	-10.7019
▁standard	-10.702
▁chatterlng	-10.702
▁bike	-10.702
▁dropping	-10.7021
▁obsessed	-10.7021
▁hideout	-10.7021
▁bandit	-10.7021
▁recon	-10.7021
▁agreement	-10.7021
▁tech	-10.7022
▁samson	-10.7022
▁fazer	-10.7022
▁kim	-10.7022
▁clamp	-10.7023
▁fries	-10.7024
▁vow	-10.7026
▁exce	-10.7027
▁advised	-10.7028
▁soup	-10.7028
▁drone	-10.703
▁greedy	-10.7033
▁thieves	-10.7033
▁clan	-10.7033
▁momma	-10.7034
▁philly	-10.7034
▁invented	-10.7037
▁digging	-10.7037
inda	-10.7039
▁nickel	-10.704
▁matches	-10.704
▁cave	-10.704
▁preacher	-10.7041
▁tender	-10.7041
▁compar	-10.7042
▁eva	-10.7042
bble	-10.7042
▁setting	-10.7047
▁groups	-10.7049
▁backyard	-10.705
▁creaks	-10.7053
▁yelps	-10.7053
▁forces	-10.7054
▁hustler	-10.7054
▁mesm	-10.7056
▁removed	-10.7058
headed	-10.7064
▁bitter	-10.7064
▁accused	-10.7067
▁divorced	-10.7069
▁whacked	-10.7069
▁timing	-10.7071
▁louder	-10.7072
▁noone	-10.7073
▁informed	-10.7073
▁diver	-10.7082
▁rust	-10.7083
▁rear	-10.7084
▁spy	-10.7092
▁chor	-10.7095
▁cried	-10.7095
▁sic	-10.7104
ester	-10.7106
▁released	-10.7107
yard	-10.7114
▁killers	-10.7116
▁homeless	-10.7125
▁tate	-10.7125
▁raped	-10.7128
▁conditions	-10.713
▁abuse	-10.7131
istic	-10.7131
▁blessing	-10.7133
▁employees	-10.7135
▁nitro	-10.7138
▁beard	-10.7141
card	-10.7143
shore	-10.7146
▁lend	-10.7147
▁remaining	-10.7161
▁requires	-10.7163
▁painted	-10.7168
itt	-10.7168
▁sweating	-10.7178
▁tru	-10.7182
are	-10.7186
▁stare	-10.719
▁surely	-10.719
▁cass	-10.7191
▁degrees	-10.7218
▁shitting	-10.7218
inal	-10.7231
▁rumors	-10.7246
pper	-10.7249
▁handled	-10.7269
▁candles	-10.7274
▁thr	-10.729
▁ally	-10.7298
maker	-10.7305
com	-10.7306
▁recording	-10.7344
▁spending	-10.735
▁gooks	-10.7358
▁opera	-10.7365
▁chic	-10.7378
▁lucas	-10.7415
gua	-10.7423
▁boxing	-10.7429
▁emt	-10.7434
▁clowns	-10.7443
▁classic	-10.7465
▁rolled	-10.7489
▁chap	-10.7489
▁cousins	-10.7491
▁wast	-10.7579
▁fits	-10.7607
▁spic	-10.7617
▁lovers	-10.7627
▁kr	-10.7634
▁sou	-10.7641
q	-10.7646
ka	-10.7649
▁sniff	-10.7676
▁click	-10.7688
▁colleague	-10.7723
▁candle	-10.7728
▁sock	-10.7741
▁chin	-10.7761
▁lip	-10.7766
rem	-10.777
kin	-10.7781
▁gin	-10.7783
▁winners	-10.779
▁concerns	-10.7793
▁bookie	-10.7805
key	-10.7807
▁bombs	-10.7841
▁clar	-10.7886
▁rounds	-10.7892
▁geez	-10.79
thats	-10.7926
▁gran	-10.7951
int	-10.7955
▁squeak	-10.7958
piece	-10.7961
▁offend	-10.7965
free	-10.7966
three	-10.7966
▁fer	-10.7966
called	-10.7967
▁crook	-10.7969
▁retard	-10.7969
▁dim	-10.7973
▁exception	-10.7976
stand	-10.7976
lyn	-10.7977
▁quart	-10.7981
▁hustle	-10.7981
like	-10.7985
▁multipl	-10.7988
▁cheek	-10.7989
▁recover	-10.7989
▁qual	-10.799
▁previous	-10.7994
▁bunk	-10.7995
▁immediate	-10.7996
ature	-10.7999
▁reminds	-10.8001
▁recommend	-10.8005
▁debora	-10.8007
▁officials	-10.8008
▁drama	-10.801
▁lamb	-10.801
▁romi	-10.801
ological	-10.8011
▁uhuh	-10.8011
▁afterwards	-10.8011
▁amateur	-10.8011
▁assigned	-10.8011
▁assignment	-10.8011
▁association	-10.8011
▁attaboy	-10.8011
▁august	-10.8011
▁babysitter	-10.8011
▁baywatch	-10.8011
▁brandnew	-10.8011
▁celebrating	-10.8011
▁conscience	-10.8011
▁continental	-10.8011
▁deputy	-10.8011
▁disgrace	-10.8011
▁dorsia	-10.8011
▁felix	-10.8011
▁flakka	-10.8011
▁forensics	-10.8011
▁fragile	-10.8011
▁governor	-10.8011
▁grandfather	-10.8011
▁grazie	-10.8011
▁guillermo	-10.8011
▁hamilton	-10.8011
▁hannibal	-10.8011
▁harbinger	-10.8011
▁harold	-10.8011
▁immigrant	-10.8011
▁increase	-10.8011
▁instance	-10.8011
▁investigator	-10.8011
▁lewis	-10.8011
▁mackenzie	-10.8011
▁marijuana	-10.8011
▁messenger	-10.8011
▁museum	-10.8011
▁mystery	-10.8011
▁ordinary	-10.8011
▁passenger	-10.8011
▁pembry	-10.8011
▁platoon	-10.8011
▁privacy	-10.8011
▁research	-10.8011
▁rhythm	-10.8011
▁schmuck	-10.8011
▁shawshank	-10.8011
▁sozinha	-10.8011
▁stensland	-10.8011
▁suprem	-10.8011
▁theater	-10.8011
▁therapy	-10.8011
▁tissue	-10.8011
▁tobacco	-10.8011
▁treasure	-10.8011
▁troubie	-10.8011
▁ultimate	-10.8011
▁underground	-10.8011
▁vegetable	-10.8011
▁vienna	-10.8011
▁wiseguys	-10.8011
▁yourseif	-10.8011
▁behave	-10.8011
▁bonnie	-10.8011
▁buddha	-10.8011
▁cierra	-10.8011
▁davis	-10.8011
▁outstanding	-10.8011
▁ozzie	-10.8011
▁pencil	-10.8011
▁produce	-10.8011
▁renteria	-10.8011
▁replace	-10.8011
▁source	-10.8011
▁swamp	-10.8011
▁chloe	-10.8011
▁dignam	-10.8011
▁extend	-10.8011
▁humor	-10.8011
▁instant	-10.8011
▁modern	-10.8011
▁nylon	-10.8011
▁phase	-10.8011
▁quinn	-10.8011
▁religio	-10.8011
▁samuel	-10.8011
▁sparma	-10.8011
▁strangle	-10.8011
▁submit	-10.8011
▁denni	-10.8011
▁denver	-10.8011
▁ezra	-10.8011
▁hush	-10.8011
▁aiways	-10.8011
▁italy	-10.8011
▁slide	-10.8011
▁sofa	-10.8011
▁quentin	-10.8011
▁flames	-10.8011
▁guildford	-10.8011
▁tappy	-10.8011
▁jacob	-10.8011
▁campsite	-10.8011
▁carmine	-10.8011
▁expose	-10.8011
▁yacht	-10.8011
▁sinners	-10.8011
▁application	-10.8011
ograph	-10.8011
▁fond	-10.8011
▁channel	-10.8011
▁tarde	-10.8011
▁spades	-10.8011
▁iast	-10.8011
▁jewels	-10.8011
▁alexander	-10.8011
▁reese	-10.8011
▁bamba	-10.8011
▁competition	-10.8011
▁yyou	-10.8011
▁dimmy	-10.8011
▁craig	-10.8011
▁village	-10.8011
▁beans	-10.8012
▁felon	-10.8012
▁junior	-10.8012
▁lightning	-10.8012
▁enforcement	-10.8012
▁independent	-10.8012
▁senate	-10.8012
▁oscar	-10.8012
▁occurred	-10.8012
▁maintain	-10.8012
▁sidewalk	-10.8012
▁chanting	-10.8012
▁perkins	-10.8012
▁shook	-10.8012
▁decade	-10.8012
▁dentist	-10.8012
▁comedian	-10.8013
▁burnham	-10.8013
▁sheeran	-10.8013
▁broadway	-10.8013
▁fridge	-10.8013
▁rotten	-10.8013
▁temple	-10.8013
▁navy	-10.8013
▁councilman	-10.8013
▁sector	-10.8014
▁performance	-10.8014
▁revolution	-10.8014
▁informant	-10.8014
▁survival	-10.8014
▁vouch	-10.8014
▁stripper	-10.8014
▁wagon	-10.8015
▁reaiiy	-10.8015
▁whale	-10.8015
▁grid	-10.8015
▁massive	-10.8015
▁tuck	-10.8015
▁sunny	-10.8015
▁rory	-10.8016
▁affection	-10.8016
▁soda	-10.8016
▁hagen	-10.8016
▁diane	-10.8016
▁phuc	-10.8017
▁june	-10.8017
▁raj	-10.8017
▁grade	-10.8017
▁foolish	-10.8018
▁examine	-10.8018
▁forest	-10.8018
▁todo	-10.8018
▁scotch	-10.8018
▁cities	-10.8019
▁employment	-10.802
▁blanket	-10.802
▁objection	-10.802
▁chairman	-10.802
▁inches	-10.802
▁boil	-10.8021
▁dumbass	-10.8021
▁touchdown	-10.8021
▁dri	-10.8021
▁popped	-10.8022
▁rudy	-10.8022
▁barker	-10.8023
▁maid	-10.8023
▁northup	-10.8024
▁bever	-10.8025
▁painful	-10.8026
▁owners	-10.8026
▁hose	-10.8027
▁surrounded	-10.8027
▁passage	-10.8028
▁satisfied	-10.8028
▁howl	-10.8028
▁freeway	-10.8028
▁acha	-10.8029
▁stanton	-10.8029
▁halfway	-10.803
▁demon	-10.803
ology	-10.8032
▁series	-10.8033
▁dice	-10.8033
▁taint	-10.8033
▁swing	-10.8033
▁morte	-10.8034
▁vou	-10.8035
▁taxes	-10.8035
▁toll	-10.8035
▁arranged	-10.8035
olog	-10.8036
▁internal	-10.8036
▁iad	-10.8037
▁bueno	-10.8038
▁product	-10.8039
▁alan	-10.804
▁mint	-10.804
▁clothing	-10.8041
▁yum	-10.8041
berg	-10.8041
▁creepy	-10.8042
▁sixty	-10.8043
nior	-10.8043
▁drum	-10.8043
▁shootout	-10.8044
▁abandoned	-10.8044
▁dismissed	-10.8044
▁rocket	-10.8046
▁rank	-10.8048
▁stain	-10.8054
▁betsy	-10.8055
▁consequences	-10.8057
▁shithole	-10.8059
▁tales	-10.806
▁eve	-10.806
▁gee	-10.806
▁brat	-10.806
▁solved	-10.8061
▁butter	-10.8061
▁disappointed	-10.8062
▁threatened	-10.8063
▁swinging	-10.8063
▁unto	-10.8063
▁eaten	-10.8065
▁coma	-10.8069
▁loudly	-10.807
▁wel	-10.807
▁sewer	-10.8072
▁hare	-10.8073
▁mistaken	-10.8078
izing	-10.8085
▁cheated	-10.8086
▁pork	-10.8086
▁hooked	-10.809
▁drowning	-10.8091
▁parties	-10.8093
▁escaped	-10.8095
▁seal	-10.8096
▁suffering	-10.8096
▁tracey	-10.8105
▁propos	-10.8107
▁focused	-10.8112
▁loom	-10.8114
▁settled	-10.8115
▁iti	-10.8116
▁troops	-10.8119
▁thrown	-10.8121
▁chuckie	-10.8123
▁hmmm	-10.8124
late	-10.8125
▁geezer	-10.8127
ural	-10.8136
▁touches	-10.8138
▁crashed	-10.8144
▁accounts	-10.8148
▁howdy	-10.815
▁tests	-10.8159
▁erase	-10.8161
▁maker	-10.8169
▁russians	-10.8178
▁smaller	-10.8178
▁conc	-10.8179
▁screwing	-10.818
row	-10.8184
▁meu	-10.819
▁continued	-10.8197
▁accepted	-10.8207
▁gloves	-10.821
▁teaching	-10.822
▁parker	-10.8229
▁cracking	-10.8242
▁wicked	-10.8248
▁citizens	-10.8272
rick	-10.8284
zzle	-10.8291
▁qui	-10.8295
▁mir	-10.83
▁nic	-10.8301
▁socks	-10.8303
▁fed	-10.8309
▁joely	-10.831
▁cur	-10.8312
▁recorded	-10.8313
▁leading	-10.8324
▁tastes	-10.8328
▁reporting	-10.8349
▁explained	-10.8357
▁janie	-10.8371
▁enjoyed	-10.8375
▁smelled	-10.8378
▁chip	-10.839
▁documents	-10.8397
▁individuals	-10.8397
donna	-10.8411
▁wings	-10.8428
▁suitcases	-10.8429
tain	-10.844
▁glo	-10.8441
▁marker	-10.8464
mal	-10.8467
seven	-10.8549
▁bin	-10.8549
rai	-10.856
▁hoo	-10.857
▁franky	-10.8572
▁breaker	-10.8573
nine	-10.8585
unning	-10.8586
▁learning	-10.8592
▁event	-10.8627
▁severe	-10.8627
▁dip	-10.8636
moan	-10.8638
▁muscles	-10.8652
cal	-10.866
▁deai	-10.8674
skim	-10.8701
hot	-10.8716
▁robbers	-10.8718
▁prop	-10.8721
▁eles	-10.8736
too	-10.875
iva	-10.8773
▁boob	-10.8776
▁questioned	-10.8791
▁whisper	-10.8796
▁yell	-10.8807
▁marines	-10.8814
ancho	-10.8818
▁that	-10.8825
▁banana	-10.8836
▁item	-10.8837
▁citizen	-10.8838
▁expense	-10.884
▁chamber	-10.8841
▁elvi	-10.8844
▁rumor	-10.8845
▁jingle	-10.8845
▁jeans	-10.8847
▁toward	-10.8847
▁blade	-10.886
▁pil	-10.8861
illa	-10.8862
▁tripp	-10.8867
▁butcher	-10.8872
▁ram	-10.8896
▁gallo	-10.8909
▁farmer	-10.8917
▁caused	-10.895
▁remains	-10.895
▁trauma	-10.8978
▁devils	-10.8978
▁prefers	-10.8979
▁shove	-10.8994
▁her	-10.8996
dade	-10.9005
ought	-10.9009
▁medals	-10.9012
▁blackie	-10.9023
wood	-10.9039
▁grin	-10.904
▁computers	-10.9045
light	-10.9065
bound	-10.9071
▁elect	-10.9076
worth	-10.9077
born	-10.9077
pants	-10.9079
keep	-10.908
▁commands	-10.9083
book	-10.9084
ised	-10.9089
▁arrange	-10.9093
▁stud	-10.9098
▁filth	-10.9101
▁guilt	-10.9101
▁gabriel	-10.9107
▁actual	-10.9107
▁prosecut	-10.9114
shit	-10.9115
▁movin	-10.9116
▁corrupt	-10.9118
▁addict	-10.9118
▁refer	-10.912
▁champ	-10.9121
▁sponsor	-10.9122
▁script	-10.9122
▁withdraw	-10.9122
▁academy	-10.9122
▁accurate	-10.9122
▁alibi	-10.9122
▁arizona	-10.9122
▁breach	-10.9122
▁bubba	-10.9122
▁cackles	-10.9122
▁carpenter	-10.9122
▁cawley	-10.9122
▁centurion	-10.9122
▁chirping	-10.9122
▁commercial	-10.9122
▁concierge	-10.9122
▁conclusion	-10.9122
▁conflict	-10.9122
▁consigliere	-10.9122
▁convincing	-10.9122
▁crease	-10.9122
▁crucified	-10.9122
▁damien	-10.9122
▁deceased	-10.9122
▁depressed	-10.9122
▁dolores	-10.9122
▁dorrie	-10.9122
▁exclusive	-10.9122
▁expand	-10.9122
▁fabric	-10.9122
▁groov	-10.9122
▁hancock	-10.9122
▁harvard	-10.9122
▁hector	-10.9122
▁holland	-10.9122
▁humble	-10.9122
▁hungarian	-10.9122
▁identify	-10.9122
▁ieave	-10.9122
▁immobiliare	-10.9122
▁investigating	-10.9122
▁israel	-10.9122
▁jarvis	-10.9122
▁kurogane	-10.9122
▁larkhill	-10.9122
▁leisure	-10.9122
▁macneil	-10.9122
▁melody	-10.9122
▁miggs	-10.9122
▁nevada	-10.9122
▁oakmont	-10.9122
▁olivia	-10.9122
▁oracle	-10.9122
▁orleans	-10.9122
▁oxygen	-10.9122
▁palantine	-10.9122
▁patience	-10.9122
▁picnic	-10.9122
▁railroad	-10.9122
▁sergio	-10.9122
▁snack	-10.9122
▁sorority	-10.9122
▁stockbroker	-10.9122
▁struggle	-10.9122
▁sullivan	-10.9122
▁taylor	-10.9122
▁tremendous	-10.9122
▁unusual	-10.9122
▁xerife	-10.9122
▁album	-10.9122
▁arguing	-10.9122
▁brett	-10.9122
▁bruv	-10.9122
▁central	-10.9122
▁cherry	-10.9122
▁creative	-10.9122
▁device	-10.9122
▁generous	-10.9122
▁gould	-10.9122
▁nelson	-10.9122
▁penalty	-10.9122
▁penthouse	-10.9122
▁permit	-10.9122
▁prothero	-10.9122
▁randall	-10.9122
▁reliable	-10.9122
▁resume	-10.9122
▁rosato	-10.9122
▁warsaw	-10.9122
▁bargain	-10.9122
▁clamoring	-10.9122
▁crystal	-10.9122
▁skylar	-10.9122
▁worid	-10.9122
▁bateman	-10.9122
▁pawn	-10.9122
▁payroll	-10.9122
▁salute	-10.9122
▁gracias	-10.9122
▁licence	-10.9122
▁carolyn	-10.9122
▁howie	-10.9122
▁reveal	-10.9122
▁corpos	-10.9122
▁fink	-10.9122
▁minister	-10.9122
▁praise	-10.9122
▁mattress	-10.9122
▁sincerely	-10.9122
▁susieq	-10.9122
▁bruise	-10.9122
▁lazy	-10.9122
▁premises	-10.9122
▁sober	-10.9122
▁posso	-10.9122
▁chimes	-10.9122
▁whiskey	-10.9122
▁courtesy	-10.9122
▁holler	-10.9122
▁enorm	-10.9122
▁worm	-10.9122
▁huntress	-10.9122
▁tapping	-10.9122
▁occupied	-10.9122
▁supervisor	-10.9122
▁reflect	-10.9122
▁susan	-10.9122
▁torn	-10.9122
▁actress	-10.9122
▁turkey	-10.9122
▁arsehole	-10.9122
▁moggy	-10.9122
▁kimball	-10.9122
▁furious	-10.9122
▁flies	-10.9122
▁thudding	-10.9122
▁townsend	-10.9122
▁dominic	-10.9122
▁salvation	-10.9122
▁millionaire	-10.9123
▁rossi	-10.9123
▁consist	-10.9123
▁fades	-10.9123
▁latin	-10.9123
▁indictment	-10.9123
▁griev	-10.9123
▁principle	-10.9123
▁devia	-10.9123
▁magnificent	-10.9123
▁halloween	-10.9123
▁whinn	-10.9123
▁kidnapper	-10.9123
▁hatchet	-10.9123
▁windsor	-10.9123
▁tracy	-10.9123
▁subtle	-10.9124
▁alert	-10.9124
▁resistance	-10.9124
▁antique	-10.9124
▁ludes	-10.9124
▁chapter	-10.9124
▁albie	-10.9125
▁subway	-10.9125
▁lease	-10.9125
▁cannon	-10.9125
▁retirement	-10.9125
▁chinaman	-10.9125
▁nino	-10.9125
▁hawk	-10.9125
▁passport	-10.9126
▁invitation	-10.9126
▁lime	-10.9126
▁compet	-10.9126
▁alike	-10.9126
▁julie	-10.9126
▁motre	-10.9127
▁detector	-10.9127
▁disappearance	-10.9127
▁asian	-10.9127
▁bucket	-10.9127
▁commitment	-10.9128
▁mutters	-10.9128
▁rattle	-10.9128
▁luis	-10.9129
▁funky	-10.9129
▁burst	-10.9129
▁adam	-10.913
▁crackling	-10.913
▁reside	-10.9131
▁fran	-10.9131
▁recipe	-10.9131
▁sym	-10.9131
▁powder	-10.9131
▁anos	-10.9131
iggle	-10.9131
▁stamp	-10.9131
▁minor	-10.9132
▁ratner	-10.9132
▁becky	-10.9134
▁underestimate	-10.9134
▁wolfie	-10.9136
▁captured	-10.9136
▁bold	-10.9137
▁payback	-10.9137
▁sway	-10.9137
▁soil	-10.9138
▁triple	-10.9138
▁weep	-10.9139
▁madness	-10.9139
▁established	-10.914
▁required	-10.914
icial	-10.914
▁sabe	-10.914
▁comment	-10.9142
▁lions	-10.9142
▁silk	-10.9143
▁china	-10.9143
▁identified	-10.9144
▁developed	-10.9145
▁conscious	-10.9145
▁dug	-10.9145
▁rum	-10.9147
▁shave	-10.9148
▁brit	-10.9148
▁serving	-10.9149
▁clinking	-10.915
▁conta	-10.9151
▁mansion	-10.9151
▁worthless	-10.9152
mela	-10.9152
▁lily	-10.9155
▁sacred	-10.9155
▁exists	-10.9155
▁nearest	-10.9156
▁gent	-10.9157
▁arse	-10.9157
▁dougie	-10.9157
▁southie	-10.9159
▁pour	-10.9163
▁metro	-10.9163
▁involve	-10.9165
▁lala	-10.9165
qualified	-10.9167
▁forgetting	-10.9168
stein	-10.9168
eyed	-10.9168
▁emma	-10.917
▁pickup	-10.9174
▁vitamins	-10.9174
lets	-10.9176
▁gl	-10.9177
▁latest	-10.9178
▁lineup	-10.9179
▁mall	-10.9179
▁rig	-10.918
▁dock	-10.9182
▁payne	-10.9182
▁gram	-10.9182
▁rage	-10.9186
▁sur	-10.9189
▁vain	-10.919
▁condo	-10.9192
▁translat	-10.9195
door	-10.9197
load	-10.9198
▁freezer	-10.9199
▁deni	-10.9199
▁ew	-10.9204
▁supplies	-10.9208
▁firearms	-10.9208
▁leo	-10.9209
▁pier	-10.9212
▁refused	-10.9215
▁responding	-10.9218
car	-10.922
▁introduced	-10.922
▁bowling	-10.9221
▁vic	-10.9225
▁pint	-10.9231
stone	-10.9238
▁punched	-10.9241
▁complained	-10.9241
▁prey	-10.9248
▁arc	-10.9254
▁honesty	-10.9257
▁lina	-10.9266
▁provid	-10.9281
▁carro	-10.9288
▁pretending	-10.9293
ager	-10.9296
▁reminded	-10.9303
▁patch	-10.9307
▁belle	-10.9309
▁tyres	-10.9313
▁horny	-10.9315
▁planted	-10.9318
▁hogs	-10.9322
▁rd	-10.9337
▁lotion	-10.9354
▁driven	-10.9364
vel	-10.937
▁minh	-10.9375
cept	-10.9381
▁carat	-10.9381
▁hay	-10.9397
▁gotcha	-10.9414
▁bananas	-10.9416
▁aid	-10.9417
▁illness	-10.9418
▁butchers	-10.9427
▁drinkin	-10.9428
▁tracker	-10.9432
▁farmers	-10.9438
▁treating	-10.9452
▁cleaner	-10.9472
▁formal	-10.9479
▁wondered	-10.9485
▁visiting	-10.9489
▁playin	-10.9504
▁iive	-10.9514
▁uniforms	-10.9522
▁payments	-10.9522
▁coins	-10.9522
▁mills	-10.9523
▁yu	-10.9532
▁presented	-10.954
▁eyeballs	-10.9557
raz	-10.9586
▁deposits	-10.9593
▁tunnels	-10.9593
▁stinks	-10.9595
mel	-10.9622
evo	-10.9627
▁demands	-10.9628
hop	-10.9633
▁cia	-10.9637
▁lid	-10.9638
▁intentions	-10.9664
unk	-10.9681
ettes	-10.9696
▁bom	-10.9718
lers	-10.9719
tem	-10.9729
▁rubb	-10.973
▁lessons	-10.9736
▁lookit	-10.9738
ient	-10.9752
▁mari	-10.9759
▁shi	-10.9761
▁deer	-10.977
▁monkeys	-10.9772
tention	-10.9785
▁nicer	-10.9791
antes	-10.9803
▁notes	-10.9809
▁faggots	-10.9809
ool	-10.9823
▁disco	-10.9827
tore	-10.9839
▁ducks	-10.9845
▁newspapers	-10.9845
▁helicopters	-10.9882
▁bla	-10.9932
▁bounc	-10.9937
orris	-10.9952
▁executi	-11.0008
▁duel	-11.0036
▁vu	-11.0037
▁tick	-11.0037
▁include	-11.0056
▁degree	-11.0089
ano	-11.0096
▁brake	-11.0099
itched	-11.0102
▁stack	-11.0114
▁gosta	-11.0125
oh	-11.0141
▁flee	-11.0148
▁q	-11.0168
acho	-11.0168
▁gasp	-11.0199
looking	-11.0272
craft	-11.0324
ridge	-11.0324
dollar	-11.0327
box	-11.0327
clear	-11.0327
blood	-11.0327
▁flood	-11.0328
▁dismiss	-11.033
▁abandon	-11.033
▁frighten	-11.033
▁bab	-11.033
power	-11.0331
pound	-11.0333
▁commen	-11.0334
▁vanish	-11.0334
▁achieve	-11.0341
▁kat	-11.0343
▁wealth	-11.0349
ible	-11.0353
▁execute	-11.0354
ello	-11.0355
▁sew	-11.0356
▁nightclub	-11.0356
▁atlant	-11.0357
▁solve	-11.0358
▁wag	-11.0362
this	-11.0367
▁makin	-11.0367
▁council	-11.0369
▁mutt	-11.0369
▁happi	-11.0371
▁consum	-11.0371
▁rack	-11.0372
▁harle	-11.0372
▁adventur	-11.0372
▁flirt	-11.0372
▁resign	-11.0372
▁awkward	-11.0372
▁ayabe	-11.0372
▁baltimore	-11.0372
▁barbara	-11.0372
▁bertinelli	-11.0372
▁cavalry	-11.0372
▁celebration	-11.0372
▁cluck	-11.0372
▁commodus	-11.0372
▁criminai	-11.0372
▁damico	-11.0372
▁desculpe	-11.0372
▁disaster	-11.0372
▁dorfman	-11.0372
▁duchess	-11.0372
▁dummy	-11.0372
▁ecoust	-11.0372
▁edmund	-11.0372
▁elaborate	-11.0372
▁essential	-11.0372
▁expired	-11.0372
▁exwife	-11.0372
▁fernando	-11.0372
▁glorious	-11.0372
▁grenade	-11.0372
▁gypsies	-11.0372
▁hollow	-11.0372
▁hurricane	-11.0372
▁impact	-11.0372
▁intelligent	-11.0372
▁jennifer	-11.0372
▁journal	-11.0372
▁judith	-11.0372
▁kaede	-11.0372
▁kobayashi	-11.0372
▁koji	-11.0372
▁kujan	-11.0372
▁lincoln	-11.0372
▁lombardo	-11.0372
▁lucchesi	-11.0372
▁lucien	-11.0372
▁ludwig	-11.0372
▁luggage	-11.0372
▁maguire	-11.0372
▁marseille	-11.0372
▁mortimer	-11.0372
▁obstacle	-11.0372
▁overseas	-11.0372
▁pacific	-11.0372
▁paramedic	-11.0372
▁parliament	-11.0372
▁peirce	-11.0372
▁pittsburgh	-11.0372
▁precinct	-11.0372
▁predict	-11.0372
▁prevail	-11.0372
▁progress	-11.0372
▁protocol	-11.0372
▁puppy	-11.0372
▁purple	-11.0372
▁rainbow	-11.0372
▁ramirez	-11.0372
▁receipt	-11.0372
▁refuge	-11.0372
▁reggiani	-11.0372
▁ribbon	-11.0372
▁ricochet	-11.0372
▁saigon	-11.0372
▁sanitation	-11.0372
▁santiago	-11.0372
▁schofield	-11.0372
▁seideibaum	-11.0372
▁slurping	-11.0372
▁snatch	-11.0372
▁snorting	-11.0372
▁strict	-11.0372
▁surrender	-11.0372
▁swift	-11.0372
▁terminator	-11.0372
▁thorough	-11.0372
▁toothbrush	-11.0372
▁veteran	-11.0372
▁vincennes	-11.0372
▁vincenzo	-11.0372
▁welfare	-11.0372
▁worship	-11.0372
▁ballpeen	-11.0372
▁buiiet	-11.0372
▁claw	-11.0372
▁fleck	-11.0372
▁hmhm	-11.0372
▁hooray	-11.0372
▁jeffrey	-11.0372
▁lachance	-11.0372
▁launch	-11.0372
▁lounge	-11.0372
▁oldtimers	-11.0372
▁retreat	-11.0372
▁shadow	-11.0372
▁vivian	-11.0372
▁yolanda	-11.0372
▁bronx	-11.0372
▁dennings	-11.0372
▁heartbreaker	-11.0372
▁hobby	-11.0372
▁panama	-11.0372
▁probable	-11.0372
▁retail	-11.0372
▁viddy	-11.0372
▁brotherfucker	-11.0372
▁dawg	-11.0372
▁fidel	-11.0372
▁pervert	-11.0372
▁roach	-11.0372
▁whew	-11.0372
▁chivo	-11.0372
▁clanging	-11.0372
▁collar	-11.0372
▁examining	-11.0372
▁noyce	-11.0372
▁pigeon	-11.0372
▁skirt	-11.0372
▁scan	-11.0372
▁bride	-11.0372
▁havin	-11.0372
▁daisy	-11.0372
▁insert	-11.0372
▁ponies	-11.0372
▁civilization	-11.0372
▁warrior	-11.0372
▁waving	-11.0372
▁lugar	-11.0372
securities	-11.0372
▁brower	-11.0372
▁hyman	-11.0372
▁turd	-11.0372
▁asshoie	-11.0372
▁kilo	-11.0372
▁modest	-11.0372
▁swap	-11.0372
▁stalling	-11.0372
▁dragged	-11.0372
▁reform	-11.0372
▁illusion	-11.0372
▁terrorism	-11.0372
▁whining	-11.0372
▁pond	-11.0372
▁splash	-11.0372
▁stomp	-11.0372
▁studied	-11.0372
lcer	-11.0373
▁update	-11.0373
▁mailbox	-11.0373
▁turkish	-11.0373
▁compound	-11.0373
▁morgue	-11.0373
▁woah	-11.0373
▁skylight	-11.0373
▁theft	-11.0373
▁hidden	-11.0373
▁generation	-11.0373
▁primary	-11.0373
▁dreadful	-11.0373
▁ounce	-11.0373
▁ankle	-11.0373
▁hesitate	-11.0373
▁colour	-11.0373
▁begun	-11.0373
▁happiness	-11.0374
▁wilson	-11.0374
▁zipper	-11.0374
▁haircut	-11.0374
▁classified	-11.0374
▁georgette	-11.0374
▁decline	-11.0374
▁ferry	-11.0374
▁pepper	-11.0374
▁harrison	-11.0374
▁pilate	-11.0374
▁paperwork	-11.0374
▁eleven	-11.0374
▁online	-11.0374
▁pumpkin	-11.0374
▁hallway	-11.0375
▁exorcism	-11.0375
▁regardless	-11.0375
▁sermon	-11.0375
▁attractive	-11.0375
▁critic	-11.0375
▁garry	-11.0375
▁coordinat	-11.0375
▁fag	-11.0376
▁meow	-11.0376
▁eightball	-11.0376
▁royalty	-11.0376
▁arson	-11.0376
▁hijack	-11.0376
▁sentimental	-11.0376
▁lris	-11.0377
▁shred	-11.0377
▁richard	-11.0377
▁waking	-11.0377
▁shipment	-11.0377
▁virginia	-11.0377
▁greenville	-11.0377
▁armour	-11.0378
▁shack	-11.0378
▁element	-11.0378
▁morto	-11.0378
▁buff	-11.0379
▁frame	-11.0379
▁chasing	-11.0379
▁expression	-11.0379
▁minus	-11.0379
▁upper	-11.0379
▁villain	-11.038
▁salary	-11.038
▁redfoot	-11.038
▁algu	-11.038
▁condom	-11.0381
▁aww	-11.0381
▁rita	-11.0382
▁agency	-11.0382
▁vince	-11.0382
▁spotted	-11.0383
▁sair	-11.0383
▁stake	-11.0383
▁beings	-11.0384
▁broom	-11.0385
▁fax	-11.0385
▁outra	-11.0385
▁playmate	-11.0386
▁mazel	-11.0386
▁peek	-11.0386
▁forgiveness	-11.0387
▁atlanta	-11.0387
▁protective	-11.0388
▁inspired	-11.0388
▁tide	-11.0389
▁shushing	-11.039
▁vibrating	-11.039
▁darkness	-11.039
▁native	-11.0391
▁cuban	-11.0392
sync	-11.0392
▁tailor	-11.0392
▁massacre	-11.0393
▁suggestion	-11.0393
▁correction	-11.0393
▁mustang	-11.0394
▁wealthy	-11.0394
coming	-11.0396
▁dating	-11.0397
▁everyday	-11.0397
▁vari	-11.0398
▁stripes	-11.0399
▁edit	-11.0401
▁colt	-11.0403
▁bio	-11.0405
▁palmer	-11.0405
▁darn	-11.0406
▁digest	-11.0406
▁respectable	-11.0406
▁pinched	-11.0408
▁mobile	-11.0408
▁employer	-11.0409
▁ranch	-11.0409
▁erased	-11.0409
▁ego	-11.0411
▁plead	-11.0414
▁fist	-11.0415
▁heroes	-11.0416
▁grandda	-11.0416
▁piaying	-11.0418
▁dent	-11.0419
▁executed	-11.0419
▁goodlooking	-11.0423
▁pisses	-11.0426
▁offended	-11.0427
▁beaten	-11.0428
▁associated	-11.0429
▁loosen	-11.0429
▁pinky	-11.043
▁sealed	-11.043
▁relations	-11.0432
▁cries	-11.0432
▁setup	-11.0434
▁wiped	-11.0434
▁cain	-11.0434
▁tube	-11.0436
▁sum	-11.0437
▁mmmm	-11.0437
▁skim	-11.0438
▁flare	-11.0438
▁sniffing	-11.0441
▁weakly	-11.0443
▁barf	-11.0446
▁viu	-11.0446
▁highest	-11.0452
▁gathering	-11.0453
▁walker	-11.0454
▁designed	-11.0454
▁insulted	-11.0455
▁reel	-11.0456
▁cord	-11.0458
tima	-11.0458
▁bog	-11.0458
▁kiddo	-11.0463
▁vig	-11.0468
▁assist	-11.0469
▁dom	-11.0474
▁feeiing	-11.0481
▁grind	-11.0483
▁talented	-11.0484
▁hint	-11.0486
▁shocking	-11.0489
snick	-11.0489
▁stroll	-11.049
▁lust	-11.0503
▁entirely	-11.0505
▁coroners	-11.051
▁survived	-11.051
▁locate	-11.0511
▁albert	-11.0513
▁highp	-11.0513
▁wishes	-11.053
▁businessman	-11.0531
▁entered	-11.0537
▁deve	-11.055
▁lever	-11.0552
▁cookie	-11.0554
bar	-11.0554
▁misses	-11.0562
▁divin	-11.0572
▁armor	-11.0577
▁lotus	-11.0586
▁chemicals	-11.0589
▁imagined	-11.0601
▁messy	-11.0606
action	-11.061
▁net	-11.0612
▁prayers	-11.0619
▁barks	-11.062
ken	-11.0627
▁headaches	-11.0628
▁filling	-11.0633
▁smarter	-11.0633
▁safely	-11.0635
▁reaching	-11.064
▁angelo	-11.0642
▁comedy	-11.0652
▁rocky	-11.0663
▁differently	-11.0665
▁includes	-11.0669
▁tickle	-11.067
▁urge	-11.067
▁sore	-11.0672
▁lookout	-11.0679
▁swor	-11.0684
▁mol	-11.0689
▁sticky	-11.0693
▁esp	-11.07
▁mam	-11.0702
▁items	-11.0708
▁frenchy	-11.0709
▁announced	-11.0711
ety	-11.0718
▁quem	-11.0744
▁vc	-11.0745
▁spl	-11.0748
▁colleagues	-11.0749
▁chaps	-11.0759
▁boarding	-11.0777
▁barrels	-11.0789
▁laughed	-11.0792
▁closely	-11.0794
▁pushing	-11.0809
▁graduate	-11.0812
▁supposedly	-11.0813
▁cau	-11.0829
▁bodyguards	-11.083
▁covering	-11.0831
▁ape	-11.0837
▁millers	-11.084
▁ringer	-11.0842
▁closet	-11.0863
▁este	-11.0867
▁joining	-11.0889
▁laps	-11.0908
pkin	-11.0909
▁sole	-11.0916
▁def	-11.0917
▁sil	-11.096
▁indicate	-11.0964
▁za	-11.0972
▁forg	-11.0988
▁sever	-11.0988
▁titt	-11.101
▁acted	-11.101
gun	-11.1012
▁carve	-11.1045
▁mim	-11.1062
pita	-11.1204
quint	-11.1206
▁grease	-11.1249
▁hal	-11.1295
fro	-11.1359
▁fora	-11.1378
uart	-11.1385
abi	-11.1491
ification	-11.1502
▁cora	-11.1507
▁headache	-11.1513
▁glove	-11.1523
▁skip	-11.1529
▁slam	-11.1557
bri	-11.1575
▁plac	-11.1591
skys	-11.1601
angle	-11.1657
fish	-11.1696
▁roma	-11.1741
▁piay	-11.1748
view	-11.1752
counter	-11.1755
bird	-11.1755
▁employ	-11.1756
mouth	-11.1756
▁stalk	-11.1756
yeah	-11.1756
year	-11.1757
▁spoil	-11.1757
class	-11.176
▁sacr	-11.1761
wise	-11.1763
▁invent	-11.1763
lift	-11.1765
▁advise	-11.1774
hair	-11.1779
onica	-11.1779
▁spec	-11.1782
▁precise	-11.1785
▁slight	-11.1785
cular	-11.1792
▁memori	-11.1793
▁batter	-11.1794
▁livin	-11.1795
▁givin	-11.1795
▁inquir	-11.1797
▁interrogat	-11.1797
▁corporat	-11.1797
▁recent	-11.1797
▁psychiatri	-11.1797
▁react	-11.1797
▁kidnap	-11.1798
▁prior	-11.1798
▁sierra	-11.1799
▁confident	-11.18
▁oppos	-11.18
▁forbid	-11.18
▁stew	-11.18
▁neighbour	-11.18
▁conduct	-11.1801
▁flinch	-11.1801
dwarf	-11.1801
▁aconteceu	-11.1801
▁alejandro	-11.1801
▁andretti	-11.1801
▁annabelle	-11.1801
▁apologies	-11.1801
▁appreciation	-11.1801
▁austrian	-11.1801
▁bathtub	-11.1801
▁beautifui	-11.1801
▁bourbon	-11.1801
▁bretodeau	-11.1801
▁bufalino	-11.1801
▁butler	-11.1801
▁cambodia	-11.1801
▁ceiling	-11.1801
▁clarlce	-11.1801
▁clatters	-11.1801
▁claudia	-11.1801
▁clemenza	-11.1801
▁clerk	-11.1801
▁combination	-11.1801
▁convenient	-11.1801
▁convention	-11.1801
▁costigan	-11.1801
▁creature	-11.1801
▁dascomb	-11.1801
▁degenerate	-11.1801
▁desaparece	-11.1801
▁devons	-11.1801
▁doughnut	-11.1801
▁elephant	-11.1801
▁ellerbee	-11.1801
▁elsewhere	-11.1801
▁equipment	-11.1801
▁evacuate	-11.1801
▁extortion	-11.1801
▁feather	-11.1801
▁fitzsimmons	-11.1801
▁flawless	-11.1801
▁fujimaki	-11.1801
▁hammond	-11.1801
▁hercules	-11.1801
▁hypocrite	-11.1801
▁injured	-11.1801
▁injuries	-11.1801
▁injury	-11.1801
▁intimidat	-11.1801
▁klubecks	-11.1801
▁leather	-11.1801
▁lebron	-11.1801
▁lloyd	-11.1801
▁loneliness	-11.1801
▁lsaiah	-11.1801
▁majesty	-11.1801
▁mauricio	-11.1801
▁mclanden	-11.1801
▁mcpherson	-11.1801
▁minimum	-11.1801
▁misunderstood	-11.1801
▁montauk	-11.1801
▁necklace	-11.1801
▁ogura	-11.1801
▁oldfashioned	-11.1801
▁olympic	-11.1801
▁oooh	-11.1801
▁pensacola	-11.1801
▁perfume	-11.1801
▁perimeter	-11.1801
▁persuade	-11.1801
▁population	-11.1801
▁precaution	-11.1801
▁privilege	-11.1801
▁refrigerator	-11.1801
▁reinforce	-11.1801
▁reunion	-11.1801
▁shirley	-11.1801
▁sizzling	-11.1801
▁skateboard	-11.1801
▁slaughter	-11.1801
▁sloppy	-11.1801
▁smidge	-11.1801
▁soccer	-11.1801
▁solution	-11.1801
▁somerset	-11.1801
▁stardust	-11.1801
▁statue	-11.1801
▁suspended	-11.1801
▁szpilman	-11.1801
▁talbot	-11.1801
▁tequila	-11.1801
▁tessio	-11.1801
▁thanksgiving	-11.1801
▁therapist	-11.1801
▁trespass	-11.1801
▁trucoat	-11.1801
▁universe	-11.1801
▁university	-11.1801
▁vegetarian	-11.1801
▁verdict	-11.1801
▁videotape	-11.1801
▁vioience	-11.1801
▁wardrobe	-11.1801
▁wheelchair	-11.1801
▁absurd	-11.1801
▁affirmative	-11.1801
▁airborne	-11.1801
▁blackmail	-11.1801
▁bracken	-11.1801
▁decree	-11.1801
▁demais	-11.1801
▁disconnect	-11.1801
▁dunno	-11.1801
▁essence	-11.1801
▁install	-11.1801
▁jordy	-11.1801
▁kilometer	-11.1801
▁maggie	-11.1801
▁maggot	-11.1801
▁moguy	-11.1801
▁mutual	-11.1801
▁orphan	-11.1801
▁overlook	-11.1801
▁panache	-11.1801
▁poetry	-11.1801
▁promising	-11.1801
▁pussies	-11.1801
▁seminar	-11.1801
▁significant	-11.1801
▁bennings	-11.1801
▁chilton	-11.1801
▁dedicate	-11.1801
▁farewell	-11.1801
▁gesture	-11.1801
▁missouri	-11.1801
▁monitor	-11.1801
▁poiitic	-11.1801
▁porfavor	-11.1801
▁prairie	-11.1801
▁probation	-11.1801
▁slippery	-11.1801
▁whatwhat	-11.1801
▁womb	-11.1801
▁blush	-11.1801
▁clutch	-11.1801
▁finance	-11.1801
▁parece	-11.1801
▁declare	-11.1801
▁kobe	-11.1801
▁sliding	-11.1801
▁unique	-11.1801
▁amendment	-11.1801
▁fortico	-11.1801
▁loony	-11.1801
▁sufficient	-11.1801
▁capital	-11.1801
▁envy	-11.1801
▁tackle	-11.1801
▁cohen	-11.1801
▁confine	-11.1801
▁jackpot	-11.1801
▁venha	-11.1801
▁reemer	-11.1801
▁absence	-11.1801
▁canvas	-11.1801
▁flaming	-11.1801
▁pbr	-11.1801
▁blaming	-11.1801
▁manifest	-11.1801
▁telegraph	-11.1801
▁vital	-11.1801
▁poach	-11.1801
▁deleye	-11.1801
▁penetrat	-11.1801
▁repay	-11.1801
▁straining	-11.1801
▁fanning	-11.1801
▁peach	-11.1801
▁barber	-11.1801
▁neighbourhood	-11.1801
▁complex	-11.1801
dolph	-11.1801
▁fiber	-11.1801
▁shears	-11.1801
▁mansell	-11.1801
▁imitation	-11.1801
▁twentysix	-11.1801
▁oops	-11.1801
▁ease	-11.1801
▁intercept	-11.1801
▁snuff	-11.1801
odoo	-11.1801
▁basketball	-11.1801
▁carpet	-11.1801
▁straps	-11.1801
▁eivira	-11.1801
▁terminal	-11.1801
▁onions	-11.1801
▁patchett	-11.1801
▁reset	-11.1801
▁insect	-11.1801
▁vinyard	-11.1801
▁reference	-11.1801
▁maniac	-11.1801
▁confidential	-11.1801
▁flashlight	-11.1801
▁raquel	-11.1801
▁yank	-11.1801
▁residence	-11.1801
▁concert	-11.1801
▁hayley	-11.1801
▁overlapping	-11.1801
sensible	-11.1802
▁swapped	-11.1802
▁creating	-11.1802
▁jelly	-11.1802
▁confusion	-11.1802
▁marvelous	-11.1802
▁divide	-11.1802
▁frost	-11.1802
▁baseball	-11.1802
▁southeast	-11.1802
▁italianamerican	-11.1802
▁anonymous	-11.1802
▁scale	-11.1802
▁paulsen	-11.1802
▁corky	-11.1802
▁negotiation	-11.1802
▁seventeen	-11.1802
▁investors	-11.1802
▁vault	-11.1802
wofourthreeseven	-11.1802
▁destruction	-11.1802
▁welby	-11.1802
▁deacon	-11.1802
▁depot	-11.1802
tai	-11.1802
▁micro	-11.1802
▁southbound	-11.1802
▁manual	-11.1802
▁ramone	-11.1802
▁quarterback	-11.1802
▁monica	-11.1803
▁espera	-11.1803
▁giggle	-11.1803
▁oak	-11.1803
▁smother	-11.1803
▁adjust	-11.1803
▁western	-11.1803
▁unknown	-11.1803
▁kitty	-11.1803
▁abduction	-11.1803
▁cutler	-11.1804
▁stool	-11.1804
▁ferri	-11.1804
▁masterpiece	-11.1804
▁whys	-11.1804
eja	-11.1804
▁lemon	-11.1804
crete	-11.1804
▁limp	-11.1804
▁courtroom	-11.1804
▁favourite	-11.1804
▁merciful	-11.1804
▁chopped	-11.1804
▁peak	-11.1804
▁automatic	-11.1804
▁goof	-11.1805
▁discipline	-11.1805
▁fading	-11.1805
▁wig	-11.1805
▁mmmmmm	-11.1805
▁erasing	-11.1805
▁imitate	-11.1805
▁daqui	-11.1805
▁structure	-11.1805
▁aquel	-11.1805
▁lsland	-11.1805
▁ruthless	-11.1805
▁grindle	-11.1805
▁puke	-11.1806
▁rebound	-11.1806
▁agua	-11.1806
▁define	-11.1806
icular	-11.1806
▁remote	-11.1806
▁stern	-11.1806
▁senor	-11.1806
▁grownup	-11.1806
▁chink	-11.1806
▁azu	-11.1806
▁clemens	-11.1806
▁centre	-11.1806
▁dominick	-11.1807
▁poem	-11.1807
▁production	-11.1807
▁neri	-11.1807
▁contra	-11.1807
▁bern	-11.1807
▁fingerprint	-11.1807
▁valet	-11.1808
▁execution	-11.1808
▁org	-11.1808
olas	-11.1809
▁sept	-11.1809
▁untie	-11.1809
▁offenders	-11.1809
▁footprint	-11.1809
▁murphy	-11.1809
▁weakness	-11.1809
▁election	-11.181
▁philosophy	-11.181
▁groceries	-11.181
▁aboard	-11.181
▁bait	-11.1812
▁profile	-11.1812
▁authoriz	-11.1812
▁chow	-11.1812
▁conway	-11.1812
▁faz	-11.1812
▁kir	-11.1812
▁gutter	-11.1813
▁intro	-11.1814
▁shade	-11.1814
▁viva	-11.1815
▁fled	-11.1815
▁controlled	-11.1815
▁suite	-11.1816
▁crane	-11.1816
▁pillar	-11.1816
▁outro	-11.1816
▁precisely	-11.1817
▁footage	-11.1817
▁brah	-11.1817
▁dickhead	-11.1818
▁herb	-11.1818
▁entra	-11.1818
▁penis	-11.1818
▁wooden	-11.1819
▁virus	-11.1819
▁ahem	-11.1819
licate	-11.1819
▁fuse	-11.182
▁gabriela	-11.182
▁hatch	-11.1821
▁parade	-11.1821
▁exclaiming	-11.1822
▁negotiating	-11.1823
▁flattered	-11.1824
▁inout	-11.1825
▁quitting	-11.1826
▁microprocessors	-11.1826
post	-11.1827
▁bunker	-11.1827
▁gem	-11.1828
▁programme	-11.1829
▁applauding	-11.1829
▁stealth	-11.1832
▁tramp	-11.1832
▁included	-11.1833
▁cheeky	-11.1833
▁fallen	-11.1836
▁okey	-11.1836
▁gigant	-11.1836
▁steering	-11.1839
▁shining	-11.1841
▁nva	-11.1841
▁rental	-11.1842
▁artie	-11.1842
working	-11.1842
▁betting	-11.1843
▁stretcher	-11.1844
▁madman	-11.1844
▁spoiled	-11.1844
uitar	-11.1845
▁ignored	-11.1845
self	-11.1846
▁stalker	-11.1847
▁narrator	-11.1847
▁epi	-11.185
▁heywood	-11.185
▁coupe	-11.185
▁dive	-11.1852
▁elected	-11.1858
▁mason	-11.1858
▁lamp	-11.1861
▁bugsy	-11.1861
▁standup	-11.1862
▁ticking	-11.1864
▁compared	-11.187
▁logo	-11.1872
▁trio	-11.1874
▁herr	-11.1874
▁kneel	-11.1874
▁confirmed	-11.1878
▁squeaking	-11.1879
▁cooler	-11.1879
▁compos	-11.1881
▁twisted	-11.1884
▁astr	-11.1888
▁designer	-11.1889
ellis	-11.189
▁kisses	-11.1895
▁yea	-11.1898
▁vez	-11.1903
▁bark	-11.1908
▁mid	-11.1911
▁intern	-11.1912
▁cracker	-11.1917
oever	-11.1919
▁romeo	-11.1919
▁assaulted	-11.1925
▁factor	-11.1926
▁legally	-11.1937
rated	-11.1938
itty	-11.1941
▁jar	-11.1942
▁henryk	-11.1943
▁faithful	-11.1943
▁smiley	-11.1953
▁goose	-11.1954
mps	-11.1958
▁cliffs	-11.1961
▁ali	-11.1966
▁generally	-11.1971
▁filed	-11.1973
cav	-11.1976
▁zed	-11.1983
▁blamed	-11.1987
▁herm	-11.1988
▁seth	-11.2
▁bombed	-11.2002
▁nem	-11.2006
mph	-11.2013
▁requested	-11.2013
▁taco	-11.2019
▁rollin	-11.2021
▁collected	-11.2026
▁lig	-11.203
▁pale	-11.2039
▁peep	-11.2046
▁beni	-11.2047
▁rented	-11.2048
▁smokey	-11.2055
▁fart	-11.2059
▁added	-11.2063
▁tested	-11.2077
▁suspected	-11.2089
rig	-11.2089
▁witnessed	-11.2096
▁wee	-11.2097
▁proved	-11.2101
▁bothered	-11.2111
▁loading	-11.2114
▁cb	-11.2133
last	-11.2135
▁boa	-11.2153
▁sen	-11.2154
▁resolve	-11.2155
▁jerking	-11.2155
▁praying	-11.2156
▁crossing	-11.2157
▁linen	-11.2157
▁missin	-11.2163
grim	-11.2172
▁stared	-11.2177
dale	-11.218
▁ringo	-11.2182
▁ash	-11.2196
nois	-11.2201
▁encontra	-11.2257
▁toke	-11.2258
vam	-11.2263
▁chan	-11.2282
▁pinch	-11.2288
▁we	-11.232
▁bounce	-11.2327
mba	-11.2332
▁tive	-11.2346
▁boxer	-11.2347
▁marie	-11.2401
▁iim	-11.2404
▁goat	-11.2452
▁hun	-11.2462
▁acu	-11.2518
offe	-11.2519
▁bake	-11.2521
▁merc	-11.2525
ench	-11.2528
▁cra	-11.2556
▁wha	-11.2567
▁entre	-11.2613
▁dishonor	-11.2633
dragg	-11.2664
▁gig	-11.2673
▁mop	-11.2678
▁abu	-11.2689
▁aro	-11.2703
far	-11.2738
roller	-11.2746
▁liz	-11.2778
▁hog	-11.2814
▁sadde	-11.2831
▁gru	-11.2843
solved	-11.2868
▁pill	-11.2879
▁hen	-11.291
iness	-11.2926
▁ani	-11.296
▁num	-11.3018
uch	-11.3034
▁kh	-11.304
▁embe	-11.3048
▁sk	-11.3104
eek	-11.3108
▁corr	-11.3126
▁div	-11.3126
▁cough	-11.3139
▁fixin	-11.3143
▁require	-11.3157
sec	-11.3161
▁tamb	-11.3167
▁chemical	-11.318
▁tyre	-11.3187
▁sheet	-11.3194
trus	-11.3199
▁instrument	-11.32
gging	-11.3201
▁fortunate	-11.3236
▁clap	-11.3299
elle	-11.3308
▁prayer	-11.3318
east	-11.3326
▁drip	-11.3344
▁peri	-11.3346
▁decid	-11.3357
▁tet	-11.3358
▁imagin	-11.3403
dressed	-11.3406
▁cloth	-11.3408
body	-11.3411
▁disgust	-11.3417
▁possess	-11.3419
mobile	-11.3419
word	-11.342
life	-11.3422
proof	-11.3422
security	-11.3423
break	-11.3423
minute	-11.3423
school	-11.3423
write	-11.3424
▁echo	-11.3426
six	-11.3426
▁coup	-11.3434
▁explode	-11.3441
▁buen	-11.3441
▁profession	-11.3442
▁intense	-11.3451
▁technical	-11.3452
▁numb	-11.3453
▁detect	-11.3454
▁tomato	-11.3459
▁tradition	-11.346
▁delusion	-11.346
▁clam	-11.3461
▁julia	-11.3461
▁waitress	-11.3461
▁mornin	-11.3462
▁domini	-11.3462
▁inspect	-11.3462
▁distribut	-11.3463
▁construct	-11.3463
▁automat	-11.3464
cut	-11.3464
▁darlin	-11.3465
▁sorrow	-11.3466
▁scarboro	-11.3466
▁turk	-11.3466
▁dread	-11.3466
▁rook	-11.3466
▁culpa	-11.3466
rotti	-11.3467
▁cigar	-11.3467
▁mathematic	-11.3467
▁smooch	-11.3467
▁accomplice	-11.3467
▁adjourned	-11.3467
▁aerotyne	-11.3467
▁akira	-11.3467
▁amsterdam	-11.3467
▁andolini	-11.3467
▁anniversary	-11.3467
▁aparece	-11.3467
▁approval	-11.3467
▁archbishop	-11.3467
▁baufort	-11.3467
▁baxter	-11.3467
▁believing	-11.3467
▁blackandwhites	-11.3467
▁bredoteau	-11.3467
▁brotherinlaw	-11.3467
▁burglar	-11.3467
▁byandby	-11.3467
▁caligari	-11.3467
▁cannibal	-11.3467
▁capacity	-11.3467
▁celebrity	-11.3467
▁cetera	-11.3467
▁christopher	-11.3467
▁communicate	-11.3467
▁compromise	-11.3467
▁condolences	-11.3467
▁consegui	-11.3467
▁crucify	-11.3467
▁curfew	-11.3467
▁deitrich	-11.3467
▁demolition	-11.3467
▁dessert	-11.3467
▁discreet	-11.3467
▁disneyland	-11.3467
▁disposal	-11.3467
▁doorknob	-11.3467
▁eccentric	-11.3467
▁elizabeth	-11.3467
▁enterprise	-11.3467
▁enugu	-11.3467
▁episode	-11.3467
▁erika	-11.3467
▁erinmore	-11.3467
▁errand	-11.3467
▁evolution	-11.3467
▁explanation	-11.3467
▁fingernails	-11.3467
▁flavor	-11.3467
▁forecast	-11.3467
▁fountain	-11.3467
▁fuentes	-11.3467
▁fuji	-11.3467
▁georgia	-11.3467
▁grandchildren	-11.3467
▁gustafson	-11.3467
▁haggle	-11.3467
▁handwriting	-11.3467
▁humiliation	-11.3467
▁iearn	-11.3467
▁indulge	-11.3467
▁intact	-11.3467
▁integrity	-11.3467
▁intimate	-11.3467
▁jehovah	-11.3467
▁jeopardiz	-11.3467
▁kalliste	-11.3467
▁knick	-11.3467
▁knives	-11.3467
▁laundering	-11.3467
▁lefferts	-11.3467
▁lindsey	-11.3467
▁lobster	-11.3467
▁loretta	-11.3467
▁magnum	-11.3467
▁migraine	-11.3467
▁mozart	-11.3467
▁munroe	-11.3467
▁murmuring	-11.3467
▁mwah	-11.3467
▁myseif	-11.3467
▁napalm	-11.3467
▁nebelsbad	-11.3467
▁neutral	-11.3467
▁nigeria	-11.3467
▁nowadays	-11.3467
▁obligation	-11.3467
▁obliged	-11.3467
▁offensive	-11.3467
▁overcome	-11.3467
▁poverty	-11.3467
▁prescription	-11.3467
▁pronounce	-11.3467
▁psychopath	-11.3467
▁rebenga	-11.3467
▁rebuild	-11.3467
▁receiving	-11.3467
▁regazzoni	-11.3467
▁reopen	-11.3467
▁reserve	-11.3467
▁rhyme	-11.3467
▁rosalind	-11.3467
▁savage	-11.3467
▁scissor	-11.3467
▁scorpion	-11.3467
▁scrub	-11.3467
▁shabbos	-11.3467
▁shrimp	-11.3467
▁solidarity	-11.3467
▁soninlaw	-11.3467
▁spectacular	-11.3467
▁spencer	-11.3467
▁stammering	-11.3467
▁stroke	-11.3467
▁substance	-11.3467
▁superficial	-11.3467
▁tangerine	-11.3467
▁technology	-11.3467
▁teiephone	-11.3467
▁tennessee	-11.3467
▁ticktock	-11.3467
▁torino	-11.3467
▁treason	-11.3467
▁tucson	-11.3467
▁tumbling	-11.3467
▁unexpected	-11.3467
▁upgrade	-11.3467
▁valentine	-11.3467
▁vietcong	-11.3467
▁weasel	-11.3467
▁whizz	-11.3467
▁wisdom	-11.3467
▁woltz	-11.3467
▁wretch	-11.3467
▁zlotys	-11.3467
▁adapt	-11.3467
▁authentic	-11.3467
▁banner	-11.3467
▁benedict	-11.3467
▁biscuit	-11.3467
▁bloke	-11.3467
▁bloom	-11.3467
▁cinema	-11.3467
▁contradict	-11.3467
▁defeat	-11.3467
▁display	-11.3467
▁dizzy	-11.3467
▁exhibit	-11.3467
▁fiction	-11.3467
▁hamburger	-11.3467
▁honeymoon	-11.3467
▁interior	-11.3467
▁kimmie	-11.3467
▁liquid	-11.3467
▁melhor	-11.3467
▁ouvi	-11.3467
▁practicing	-11.3467
▁reckless	-11.3467
▁scag	-11.3467
▁scalp	-11.3467
▁sibling	-11.3467
▁theories	-11.3467
▁thorpe	-11.3467
▁wendy	-11.3467
▁acidente	-11.3467
▁embora	-11.3467
▁forehead	-11.3467
▁handbill	-11.3467
▁palermo	-11.3467
▁rehabilitat	-11.3467
▁reign	-11.3467
▁resort	-11.3467
▁sustain	-11.3467
▁suzy	-11.3467
▁tragic	-11.3467
▁website	-11.3467
▁debbie	-11.3467
▁janitor	-11.3467
▁kike	-11.3467
▁marvin	-11.3467
▁turf	-11.3467
▁buddies	-11.3467
▁denny	-11.3467
▁howre	-11.3467
▁orient	-11.3467
▁rehab	-11.3467
▁sportscast	-11.3467
▁tiptoe	-11.3467
xtradition	-11.3467
▁bishop	-11.3467
▁domino	-11.3467
▁hardcore	-11.3467
▁norton	-11.3467
▁freud	-11.3467
▁patron	-11.3467
▁philip	-11.3467
▁redeem	-11.3467
▁klein	-11.3467
▁distress	-11.3467
▁judging	-11.3467
▁santoro	-11.3467
▁worn	-11.3467
▁applies	-11.3467
▁lutz	-11.3467
▁violet	-11.3467
▁ciear	-11.3467
▁handicap	-11.3467
▁muita	-11.3467
▁pleasant	-11.3467
▁arnold	-11.3467
▁creation	-11.3467
▁fascis	-11.3467
▁madrid	-11.3467
▁overseer	-11.3467
▁charging	-11.3467
▁clay	-11.3467
▁douglas	-11.3467
▁harvest	-11.3467
▁relay	-11.3467
infect	-11.3467
▁grip	-11.3467
▁spinning	-11.3467
▁cartoon	-11.3467
▁entitle	-11.3467
▁gorilla	-11.3467
▁breez	-11.3467
▁floyd	-11.3467
▁ledger	-11.3467
▁seduc	-11.3467
▁thump	-11.3467
▁bloodshed	-11.3467
▁strand	-11.3467
▁bloodstain	-11.3467
▁skunk	-11.3467
▁rookwood	-11.3467
▁nanny	-11.3467
▁adios	-11.3467
▁terrifying	-11.3467
▁dumas	-11.3468
▁iaw	-11.3468
▁dipshit	-11.3468
▁pinned	-11.3468
▁scheme	-11.3468
▁fuchs	-11.3468
▁wandering	-11.3468
▁itch	-11.3468
▁srt	-11.3468
▁humphr	-11.3468
▁forbidden	-11.3468
▁nipper	-11.3468
▁sunset	-11.3468
▁cobolt	-11.3468
▁twinkle	-11.3468
▁prosper	-11.3468
▁nathan	-11.3468
▁trench	-11.3468
▁depriv	-11.3468
▁graduation	-11.3468
▁breed	-11.3468
▁crips	-11.3468
▁email	-11.3468
▁clinic	-11.3468
▁dripping	-11.3468
▁hostile	-11.3468
▁yankee	-11.3468
▁vicious	-11.3468
▁web	-11.3468
▁logical	-11.3468
▁brasi	-11.3468
▁biggus	-11.3468
▁stuttering	-11.3469
▁establishment	-11.3469
borough	-11.3469
▁veal	-11.3469
▁consultant	-11.3469
▁clanking	-11.3469
▁grill	-11.3469
▁typing	-11.3469
▁confront	-11.3469
▁haul	-11.3469
▁abortion	-11.3469
▁lucy	-11.3469
▁economic	-11.3469
▁aiso	-11.3469
▁appropriate	-11.3469
▁ambi	-11.347
▁enlist	-11.347
▁rigged	-11.347
▁gringo	-11.347
▁romina	-11.347
▁priority	-11.347
▁beverage	-11.347
▁compensation	-11.347
▁conviction	-11.347
▁japan	-11.347
▁leslie	-11.347
▁ivan	-11.347
▁estamos	-11.347
▁witch	-11.347
▁hunch	-11.347
▁blackjack	-11.347
▁dunk	-11.3471
▁iosef	-11.3471
▁ambition	-11.3471
▁cheerio	-11.3471
▁slack	-11.3471
▁upside	-11.3471
▁slope	-11.3471
▁dependent	-11.3471
▁trang	-11.3471
▁temper	-11.3471
▁kint	-11.3471
▁seja	-11.3471
loaf	-11.3471
▁proudfoot	-11.3471
▁cabbie	-11.3471
▁aione	-11.3472
▁behold	-11.3472
▁punishment	-11.3472
▁roam	-11.3472
▁loot	-11.3472
▁distribution	-11.3472
▁after	-11.3472
▁respectfully	-11.3472
▁vulnerable	-11.3472
▁entry	-11.3472
▁psychotic	-11.3472
▁youyou	-11.3472
▁heir	-11.3472
▁suzanne	-11.3473
▁apiece	-11.3473
▁morality	-11.3473
▁rookie	-11.3473
aiiy	-11.3473
▁percentage	-11.3473
asino	-11.3473
▁pony	-11.3474
▁visto	-11.3474
kind	-11.3474
▁retain	-11.3474
▁mush	-11.3474
▁hound	-11.3474
▁refin	-11.3474
▁meaningless	-11.3475
▁marge	-11.3475
▁jerkoff	-11.3475
▁merri	-11.3475
▁webb	-11.3475
▁attraction	-11.3475
▁attic	-11.3476
▁hoover	-11.3476
▁faci	-11.3476
▁punt	-11.3476
▁biki	-11.3476
▁myth	-11.3476
▁ashes	-11.3476
▁floorboard	-11.3476
▁buckle	-11.3477
▁patty	-11.3477
▁giri	-11.3477
▁compel	-11.3477
▁acceptance	-11.3477
▁jenny	-11.3478
▁thirsty	-11.3478
▁aspirin	-11.3478
ulla	-11.3478
▁heist	-11.3478
▁dickey	-11.3478
▁surface	-11.3479
▁condemned	-11.3479
▁relieved	-11.348
teau	-11.348
▁allegedly	-11.3481
▁valid	-11.3481
▁motive	-11.3481
▁alice	-11.3481
▁spiderman	-11.3481
▁accountant	-11.3481
▁shaii	-11.3481
▁harmless	-11.3481
▁bartender	-11.3482
▁discovery	-11.3482
ffel	-11.3482
▁ninety	-11.3482
▁cellul	-11.3483
▁yelping	-11.3483
▁mailman	-11.3483
▁amongst	-11.3483
▁trent	-11.3483
▁volta	-11.3483
▁certainty	-11.3483
▁dino	-11.3484
▁stir	-11.3484
▁scarf	-11.3484
▁wax	-11.3484
▁delay	-11.3486
▁huey	-11.3486
▁combine	-11.3486
▁haif	-11.3486
▁rosie	-11.3486
▁comb	-11.3486
▁wool	-11.3486
▁lighthouse	-11.3487
▁reduce	-11.3487
▁ipo	-11.3488
▁wop	-11.3488
▁scottie	-11.3488
▁stream	-11.3489
▁salva	-11.349
▁ruben	-11.3492
▁playboy	-11.3493
▁vila	-11.3493
▁pow	-11.3493
▁chev	-11.3493
padre	-11.3493
▁bushes	-11.3494
▁skies	-11.3494
▁cann	-11.3494
▁exploded	-11.3495
▁adopted	-11.3495
▁motivated	-11.3495
▁raw	-11.3495
▁transit	-11.3497
▁mario	-11.3498
▁nba	-11.3499
▁lame	-11.3499
▁alcoholic	-11.35
▁fry	-11.35
▁dash	-11.3501
▁phu	-11.3505
▁rash	-11.3506
▁recovery	-11.3507
▁parttime	-11.3507
▁equally	-11.3507
▁boost	-11.3512
▁particularly	-11.3513
▁violently	-11.3513
▁barco	-11.3514
▁jackass	-11.3514
▁ruby	-11.3515
▁dora	-11.3516
▁tapped	-11.3516
▁region	-11.3517
▁sickness	-11.3518
▁iine	-11.3519
▁sheer	-11.3519
▁engaged	-11.3521
▁teaches	-11.3522
▁gum	-11.3524
▁beeper	-11.3527
▁craz	-11.3527
▁vanished	-11.3527
▁sow	-11.3528
▁martyr	-11.353
▁eighth	-11.3533
▁craft	-11.3534
▁packet	-11.3537
▁rabi	-11.3541
▁crooked	-11.3543
mero	-11.3545
▁convers	-11.3553
▁quar	-11.3553
▁advanced	-11.3556
▁lighten	-11.3556
▁valued	-11.3557
▁tracer	-11.3557
▁recess	-11.3557
▁chester	-11.356
▁shore	-11.3562
▁affected	-11.3564
▁goldie	-11.3564
▁maxie	-11.3566
▁silencer	-11.3567
▁smashed	-11.3568
▁solo	-11.3569
▁musician	-11.3574
▁borrowed	-11.3576
▁beaches	-11.3577
▁assim	-11.3579
▁cutter	-11.3583
▁ranger	-11.3584
▁moss	-11.3588
▁procur	-11.3593
▁trailer	-11.3597
▁cub	-11.3597
uous	-11.3597
▁sadly	-11.3598
▁badass	-11.3598
▁pumping	-11.36
▁prom	-11.3601
▁tricky	-11.3602
▁layin	-11.3605
▁copies	-11.3606
▁insisted	-11.3608
▁granted	-11.361
▁fiy	-11.3615
▁cure	-11.3618
▁defending	-11.362
▁drilling	-11.363
▁swan	-11.3632
▁straightened	-11.3632
▁oy	-11.3633
▁fur	-11.3636
▁guaranteed	-11.3649
▁pedir	-11.3654
▁printed	-11.3654
▁christie	-11.3668
▁apologized	-11.367
▁nailed	-11.368
aroon	-11.368
psy	-11.3687
▁cp	-11.3689
▁smiled	-11.3691
▁wage	-11.3692
▁carla	-11.3709
dental	-11.3711
ats	-11.3751
▁tier	-11.3832
gling	-11.3839
▁bac	-11.3846
▁tub	-11.3859
▁prim	-11.3866
lapping	-11.3881
▁gall	-11.3901
▁harp	-11.3939
▁von	-11.3963
▁digg	-11.3982
lection	-11.3988
▁tease	-11.4004
eating	-11.4018
▁skipp	-11.4088
▁dye	-11.4096
▁faun	-11.4107
▁specialize	-11.4124
▁moth	-11.4154
▁wit	-11.4178
▁participate	-11.4182
lagged	-11.4208
▁pose	-11.4213
▁poder	-11.4226
▁will	-11.4288
▁easter	-11.4306
▁bomber	-11.4312
▁tid	-11.433
sanity	-11.4331
kov	-11.444
angu	-11.4445
aaah	-11.4474
curr	-11.4593
▁shin	-11.4659
verge	-11.4755
quel	-11.4779
more	-11.481
▁tit	-11.4863
▁info	-11.4904
▁coz	-11.4942
state	-11.4996
iza	-11.5013
puncture	-11.5015
▁presi	-11.5028
▁siu	-11.506
▁knee	-11.5092
▁metall	-11.5102
udge	-11.5143
weigh	-11.5176
gram	-11.5179
▁tire	-11.5184
▁employee	-11.5186
▁politician	-11.5188
▁thud	-11.5188
cile	-11.5202
▁brun	-11.5229
▁spun	-11.5231
berto	-11.5233
▁wal	-11.5255
▁trump	-11.5279
tches	-11.5311
▁tele	-11.5328
wan	-11.5342
▁amp	-11.5353
eye	-11.5358
▁embarrass	-11.5373
▁droog	-11.538
earned	-11.5387
▁surviv	-11.539
▁preach	-11.5397
▁bol	-11.5402
▁cran	-11.5406
burg	-11.5407
▁entertain	-11.5412
know	-11.5413
▁shriek	-11.5413
▁should	-11.5413
▁clink	-11.5415
▁greet	-11.5416
▁smuggle	-11.5417
corn	-11.5418
▁steer	-11.5418
boat	-11.5419
serving	-11.5421
american	-11.5421
related	-11.5421
flower	-11.5421
town	-11.5421
mother	-11.5422
distance	-11.5422
▁exhaust	-11.5423
front	-11.5424
▁develop	-11.5425
▁invad	-11.5425
sound	-11.5426
scene	-11.5426
▁giusepp	-11.5428
track	-11.543
heart	-11.5431
▁slum	-11.5432
▁delight	-11.5435
luded	-11.5437
fight	-11.5437
▁inspire	-11.544
▁capture	-11.544
▁soci	-11.5443
▁heav	-11.5445
▁facilit	-11.5446
▁alleged	-11.5451
▁aspir	-11.5454
▁toda	-11.5454
▁consult	-11.5459
▁villa	-11.5459
▁potato	-11.546
nky	-11.546
▁sentiment	-11.546
▁leavin	-11.5462
▁drivin	-11.5462
believable	-11.5463
trip	-11.5463
▁abduct	-11.5463
▁hue	-11.5463
faced	-11.5464
▁violat	-11.5464
rupt	-11.5465
▁occup	-11.5465
▁beck	-11.5465
umbs	-11.5465
knuckle	-11.5466
▁marsha	-11.5466
occo	-11.5466
▁observa	-11.5466
▁confer	-11.5467
▁douche	-11.5467
ranged	-11.5467
▁paratroop	-11.5467
▁fuzzy	-11.5467
▁persuasi	-11.5467
intellectual	-11.5467
torturing	-11.5467
universal	-11.5467
▁accelerate	-11.5467
▁activities	-11.5467
▁advertising	-11.5467
▁airplane	-11.5467
▁allegation	-11.5467
▁amusement	-11.5467
▁antibiotic	-11.5467
▁antonio	-11.5467
▁appliance	-11.5467
▁appraisal	-11.5467
▁architect	-11.5467
▁argentin	-11.5467
▁aristocrat	-11.5467
▁armstrong	-11.5467
▁ashecliffe	-11.5467
▁aslan	-11.5467
▁asylum	-11.5467
▁balcon	-11.5467
▁baldassari	-11.5467
▁ballpark	-11.5467
▁battalion	-11.5467
▁bazooka	-11.5467
▁beiieve	-11.5467
▁bogdanski	-11.5467
▁bolivia	-11.5467
▁bonsoir	-11.5467
▁calculate	-11.5467
▁caliber	-11.5467
▁carnival	-11.5467
▁casual	-11.5467
▁cecelia	-11.5467
▁cecil	-11.5467
▁centuries	-11.5467
▁cleveland	-11.5467
▁closure	-11.5467
▁cockroach	-11.5467
▁cognac	-11.5467
▁collapse	-11.5467
▁dartagnan	-11.5467
▁delaware	-11.5467
▁delgado	-11.5467
▁departure	-11.5467
▁dictate	-11.5467
▁discount	-11.5467
▁disobey	-11.5467
▁doublecross	-11.5467
▁dummies	-11.5467
▁dwayne	-11.5467
▁encourage	-11.5467
▁enhance	-11.5467
▁eternity	-11.5467
▁ethiopia	-11.5467
▁excessive	-11.5467
▁fabienne	-11.5467
▁fascinate	-11.5467
▁fawkes	-11.5467
▁ferreiro	-11.5467
▁finneran	-11.5467
▁fischer	-11.5467
▁genitals	-11.5467
▁gentiemen	-11.5467
▁guidance	-11.5467
▁gutierrez	-11.5467
▁gypsy	-11.5467
▁halberstram	-11.5467
▁heaith	-11.5467
▁helmet	-11.5467
▁humiliated	-11.5467
▁humour	-11.5467
▁hypnotiz	-11.5467
▁immune	-11.5467
▁imprison	-11.5467
▁impulsive	-11.5467
▁infirmary	-11.5467
▁influence	-11.5467
▁inglewood	-11.5467
▁insecure	-11.5467
▁inspiration	-11.5467
▁intersection	-11.5467
▁intervention	-11.5467
▁intrude	-11.5467
▁itsits	-11.5467
▁ivory	-11.5467
▁kamasutra	-11.5467
▁ketamine	-11.5467
▁kettle	-11.5467
▁kilgo	-11.5467
▁kovacs	-11.5467
▁lippman	-11.5467
▁lkoma	-11.5467
▁lnfantry	-11.5467
▁lorenzo	-11.5467
▁manhattan	-11.5467
▁margaret	-11.5467
▁maserati	-11.5467
▁mccluskey	-11.5467
▁medevac	-11.5467
▁meditation	-11.5467
▁memphis	-11.5467
▁microwave	-11.5467
▁midwest	-11.5467
▁misunderstand	-11.5467
▁mouthwash	-11.5467
▁necessarily	-11.5467
▁nedjma	-11.5467
▁nicholas	-11.5467
▁nitroglycerin	-11.5467
▁opportunities	-11.5467
▁organisation	-11.5467
▁outreach	-11.5467
▁overwhelm	-11.5467
▁pasternak	-11.5467
▁pendejo	-11.5467
▁preciso	-11.5467
▁prejudice	-11.5467
▁pretzel	-11.5467
▁promotion	-11.5467
▁quadriplegic	-11.5467
▁raffle	-11.5467
▁raspail	-11.5467
▁registration	-11.5467
▁renounce	-11.5467
▁republic	-11.5467
▁resurrect	-11.5467
▁reynaldo	-11.5467
▁ritual	-11.5467
▁rizzi	-11.5467
▁rollsroyce	-11.5467
▁saucier	-11.5467
▁scenario	-11.5467
▁schooi	-11.5467
▁screenplay	-11.5467
▁sherbert	-11.5467
▁shokner	-11.5467
▁shrapnel	-11.5467
▁sisterinlaw	-11.5467
▁sodium	-11.5467
▁spaniard	-11.5467
▁spectacle	-11.5467
▁squash	-11.5467
▁squawking	-11.5467
▁stonesipher	-11.5467
▁strategy	-11.5467
▁suspension	-11.5467
▁sympathy	-11.5467
▁symphony	-11.5467
▁syrup	-11.5467
▁tactics	-11.5467
▁terrified	-11.5467
▁thirtyfive	-11.5467
▁throttle	-11.5467
▁transform	-11.5467
▁transsexual	-11.5467
▁trophy	-11.5467
▁turtle	-11.5467
▁tuscan	-11.5467
▁unemployed	-11.5467
▁unnecessary	-11.5467
▁upriver	-11.5467
▁vendetta	-11.5467
▁venture	-11.5467
▁veterinarian	-11.5467
▁vicinity	-11.5467
▁vulture	-11.5467
▁wheat	-11.5467
▁whiff	-11.5467
▁yulian	-11.5467
▁aggravat	-11.5467
▁bleach	-11.5467
▁blowjob	-11.5467
▁blunt	-11.5467
▁catania	-11.5467
▁chegou	-11.5467
▁commute	-11.5467
▁courier	-11.5467
▁cruise	-11.5467
▁crunch	-11.5467
▁domestic	-11.5467
▁einstein	-11.5467
▁enlighten	-11.5467
▁exleper	-11.5467
▁function	-11.5467
▁garbled	-11.5467
▁gerard	-11.5467
▁germs	-11.5467
▁huddle	-11.5467
▁hydro	-11.5467
▁identical	-11.5467
▁incompeten	-11.5467
▁infiltrat	-11.5467
▁journey	-11.5467
▁justify	-11.5467
▁lawrence	-11.5467
▁lizzy	-11.5467
▁maestro	-11.5467
▁mofet	-11.5467
▁oppress	-11.5467
▁outcome	-11.5467
▁prix	-11.5467
▁replica	-11.5467
▁shield	-11.5467
▁thrust	-11.5467
▁unfair	-11.5467
▁valium	-11.5467
▁walace	-11.5467
▁audio	-11.5467
▁budget	-11.5467
▁comigo	-11.5467
▁cristal	-11.5467
▁croak	-11.5467
▁cruz	-11.5467
▁davina	-11.5467
▁deliberate	-11.5467
▁deploy	-11.5467
▁dignity	-11.5467
▁dildo	-11.5467
▁fairvale	-11.5467
▁halloran	-11.5467
▁hollis	-11.5467
▁input	-11.5467
▁liberat	-11.5467
▁mcdonalds	-11.5467
▁negro	-11.5467
▁okonedo	-11.5467
▁predator	-11.5467
▁pucker	-11.5467
▁relief	-11.5467
▁rugrat	-11.5467
▁solicit	-11.5467
▁thread	-11.5467
▁biack	-11.5467
▁chalk	-11.5467
▁ciclo	-11.5467
▁demise	-11.5467
▁draft	-11.5467
▁enchant	-11.5467
▁exotic	-11.5467
▁gramont	-11.5467
▁horrorshow	-11.5467
▁lifestyle	-11.5467
▁premiere	-11.5467
▁stacey	-11.5467
▁chlor	-11.5467
▁uncover	-11.5467
▁appraise	-11.5467
▁deixa	-11.5467
▁emblem	-11.5467
▁hadley	-11.5467
▁oath	-11.5467
▁ariel	-11.5467
▁despise	-11.5467
▁duties	-11.5467
▁knot	-11.5467
▁lenny	-11.5467
▁mortal	-11.5467
▁pearl	-11.5467
▁testicle	-11.5467
▁aaron	-11.5467
▁audit	-11.5467
▁backpack	-11.5467
▁cantonese	-11.5467
▁cayman	-11.5467
▁coworker	-11.5467
▁frog	-11.5467
▁cafe	-11.5467
▁dyke	-11.5467
▁outgoing	-11.5467
▁polio	-11.5467
▁sedated	-11.5467
▁espere	-11.5467
▁evaluat	-11.5467
▁majorek	-11.5467
▁roaring	-11.5467
▁acquir	-11.5467
▁blouse	-11.5467
▁goodwill	-11.5467
▁saloon	-11.5467
▁whatve	-11.5467
▁clyde	-11.5467
▁foam	-11.5467
▁lynn	-11.5467
▁niece	-11.5467
▁surprising	-11.5467
▁teresa	-11.5467
▁prophet	-11.5467
▁settling	-11.5467
▁eighteen	-11.5467
▁intel	-11.5467
▁yeyo	-11.5467
▁coiombians	-11.5467
▁acquaintance	-11.5467
▁coupons	-11.5467
▁appointed	-11.5467
▁renee	-11.5467
▁underworld	-11.5467
▁circula	-11.5467
▁kdk	-11.5467
▁scatt	-11.5467
▁longterm	-11.5467
▁noticing	-11.5467
▁lobo	-11.5467
▁sensation	-11.5467
▁altar	-11.5467
▁orca	-11.5467
▁garces	-11.5468
▁urine	-11.5468
▁temperature	-11.5468
▁gym	-11.5468
▁patriot	-11.5468
▁dyle	-11.5468
▁helos	-11.5468
▁remand	-11.5468
▁anchor	-11.5468
▁antwan	-11.5468
▁distract	-11.5468
▁interstate	-11.5468
▁bliss	-11.5468
petition	-11.5468
▁drugged	-11.5468
▁mineral	-11.5468
▁doris	-11.5468
▁centerfold	-11.5468
▁roderick	-11.5468
pecca	-11.5468
▁airlines	-11.5468
▁peddl	-11.5468
▁fitzgerald	-11.5468
▁resettle	-11.5468
▁pesos	-11.5468
▁heavier	-11.5468
▁sponsorship	-11.5468
▁steward	-11.5468
▁observation	-11.5468
▁correlat	-11.5468
▁iraq	-11.5468
▁gooey	-11.5468
▁covet	-11.5468
▁crisp	-11.5468
▁principal	-11.5468
▁gloria	-11.5468
▁culpable	-11.5468
▁snuck	-11.5468
▁moonlight	-11.5468
▁liable	-11.5468
▁meself	-11.5468
▁crabs	-11.5468
▁grove	-11.5468
▁outrageous	-11.5468
▁chunk	-11.5468
▁slren	-11.5468
▁morphine	-11.5468
▁apoc	-11.5468
▁medic	-11.5468
▁hitler	-11.5468
▁infantry	-11.5468
▁caution	-11.5469
▁halina	-11.5469
tropic	-11.5469
▁gagging	-11.5469
▁migue	-11.5469
▁curio	-11.5469
▁creek	-11.5469
▁donald	-11.5469
▁incarceration	-11.5469
▁esque	-11.5469
▁marcel	-11.5469
▁timmy	-11.5469
▁blares	-11.5469
▁rubbish	-11.5469
▁leadership	-11.5469
▁lowlife	-11.5469
▁strapped	-11.5469
▁cooing	-11.5469
▁sierraone	-11.5469
▁piggy	-11.5469
▁embarrassment	-11.5469
▁contrary	-11.547
▁snot	-11.547
▁growls	-11.547
▁beauties	-11.547
▁swimmer	-11.547
▁causing	-11.547
▁rooster	-11.547
▁meek	-11.547
▁graveyard	-11.547
▁columbus	-11.547
▁enzo	-11.547
▁backwards	-11.547
▁shortcut	-11.547
▁unhappy	-11.547
▁whwh	-11.547
▁verify	-11.547
▁organism	-11.547
▁storeroom	-11.547
▁throne	-11.547
▁wellbeing	-11.547
▁bugged	-11.547
merald	-11.547
▁robinson	-11.547
▁frustration	-11.5471
▁denise	-11.5471
▁offence	-11.5471
band	-11.5471
▁boothby	-11.5471
▁tedious	-11.5471
▁luther	-11.5471
▁trading	-11.5471
▁achievement	-11.5471
▁heap	-11.5471
▁dandy	-11.5471
▁whwhat	-11.5471
▁slut	-11.5471
▁panties	-11.5471
▁revoir	-11.5471
▁underway	-11.5472
▁matou	-11.5472
▁existence	-11.5472
▁poke	-11.5472
▁danish	-11.5472
▁alias	-11.5472
▁ladder	-11.5472
magnet	-11.5472
▁volte	-11.5472
▁petty	-11.5472
▁quack	-11.5472
▁canteen	-11.5472
▁robot	-11.5472
▁ritz	-11.5472
▁pressfield	-11.5472
▁sixteen	-11.5473
▁cellphone	-11.5473
▁sophisticated	-11.5473
▁ballistic	-11.5473
▁exam	-11.5473
▁fourteen	-11.5473
▁plum	-11.5473
▁sobel	-11.5473
rella	-11.5473
▁civilized	-11.5474
▁inquiries	-11.5474
▁portland	-11.5474
niper	-11.5474
▁mumbles	-11.5474
▁xam	-11.5474
▁whir	-11.5474
polic	-11.5474
▁knight	-11.5474
▁holly	-11.5474
▁reload	-11.5475
▁gaze	-11.5475
▁funnylooking	-11.5475
▁effective	-11.5475
▁seattle	-11.5475
▁african	-11.5475
▁bravery	-11.5475
▁tudo	-11.5475
▁addiction	-11.5475
▁corruption	-11.5475
▁rathole	-11.5475
▁hoof	-11.5476
▁elite	-11.5476
▁fanci	-11.5476
▁noite	-11.5476
▁delusional	-11.5476
▁tomatoes	-11.5477
▁leper	-11.5477
▁salesman	-11.5478
▁fiddle	-11.5479
▁remark	-11.5479
▁farcy	-11.5479
▁filing	-11.5479
▁rasa	-11.5479
▁facebook	-11.5479
▁aurelio	-11.5479
▁julian	-11.5479
▁gumb	-11.5479
▁baii	-11.548
▁rally	-11.548
▁overtime	-11.548
▁symbolic	-11.548
▁counselor	-11.548
▁socialist	-11.5481
▁premi	-11.5481
▁dogface	-11.5481
▁heli	-11.5481
▁curb	-11.5482
▁courtney	-11.5482
abouts	-11.5482
▁logan	-11.5482
▁undies	-11.5482
▁skimm	-11.5482
▁attached	-11.5482
▁toff	-11.5483
▁dizer	-11.5483
▁brotherhood	-11.5483
▁prat	-11.5483
▁latter	-11.5483
▁popping	-11.5484
▁gauge	-11.5484
▁karate	-11.5484
▁ciccio	-11.5484
▁descend	-11.5485
▁grossman	-11.5485
▁creaking	-11.5486
▁confuse	-11.5487
▁trainee	-11.5487
▁intensely	-11.5487
▁marina	-11.5488
▁alien	-11.5489
azza	-11.549
▁satan	-11.549
▁queria	-11.549
▁waii	-11.549
case	-11.5491
▁slightly	-11.5491
▁benj	-11.5491
▁cozy	-11.5492
▁distinguished	-11.5492
▁indicted	-11.5492
▁rud	-11.5493
▁rejected	-11.5493
▁realistic	-11.5493
▁perto	-11.5494
▁honourable	-11.5495
▁publicity	-11.5496
ullet	-11.5497
▁annoying	-11.5498
▁fico	-11.5498
▁daylight	-11.5498
▁gently	-11.5498
▁sailor	-11.5499
▁campus	-11.5499
▁collection	-11.55
▁metres	-11.55
▁battery	-11.5501
▁previously	-11.5502
▁conclude	-11.5502
▁halt	-11.5503
ibility	-11.5503
▁alter	-11.5504
▁grit	-11.5504
▁iose	-11.5505
▁slit	-11.5505
▁specialty	-11.5505
▁educated	-11.5506
▁partial	-11.5506
▁kia	-11.5507
▁renton	-11.5507
▁lockup	-11.5507
▁legit	-11.5508
▁regime	-11.5509
▁surrounding	-11.551
▁prone	-11.5511
▁invaded	-11.5512
▁exhausted	-11.5512
▁delighted	-11.5512
▁desperately	-11.5513
▁achieved	-11.5515
▁multiply	-11.5516
▁hora	-11.5517
▁gimp	-11.5517
▁smuggler	-11.5518
▁active	-11.5519
▁madre	-11.552
▁crashes	-11.5521
▁shoved	-11.5521
▁possessed	-11.5522
▁shrieking	-11.5522
▁entertaining	-11.5522
▁kit	-11.5522
▁halftime	-11.5523
▁ache	-11.5524
▁potion	-11.5527
▁consideration	-11.5527
▁vocation	-11.5528
▁improvis	-11.5529
curtain	-11.5529
▁ej	-11.553
▁policemen	-11.5531
▁ola	-11.5536
▁historic	-11.5538
▁anda	-11.5541
▁mule	-11.5541
▁flooded	-11.5542
▁crosses	-11.5544
▁richest	-11.5544
▁arr	-11.5546
▁runner	-11.5547
cop	-11.555
▁spine	-11.5552
▁playlng	-11.5552
▁greased	-11.5552
▁barge	-11.5554
▁dickus	-11.5554
▁baer	-11.556
▁safest	-11.556
▁positively	-11.5561
teen	-11.5563
▁spite	-11.5567
▁pez	-11.5567
ehen	-11.5567
▁addresses	-11.5572
▁hunger	-11.5577
▁dela	-11.5577
▁dresses	-11.5578
clubbing	-11.5584
▁rapid	-11.5588
▁handling	-11.5589
▁shutting	-11.5589
▁boner	-11.5621
▁exceptional	-11.5622
finite	-11.5625
ximo	-11.5632
uggin	-11.5635
▁assassinate	-11.5638
▁vibrate	-11.564
legged	-11.566
▁hike	-11.5661
horn	-11.5662
▁sip	-11.5677
fat	-11.5681
▁monte	-11.569
seat	-11.5693
pido	-11.5719
ewer	-11.5737
▁importa	-11.5747
▁vem	-11.5755
▁capri	-11.5755
▁desc	-11.5769
▁tilt	-11.5777
▁interpret	-11.5812
▁fleet	-11.5851
▁alas	-11.5858
shak	-11.5874
bach	-11.5889
▁jap	-11.594
dded	-11.5941
▁restrain	-11.5953
▁friggin	-11.5971
raising	-11.5973
▁loca	-11.6019
eering	-11.6068
▁ensu	-11.6084
▁baba	-11.6109
▁zee	-11.6125
▁poll	-11.6194
▁greas	-11.6228
aves	-11.6254
jah	-11.6291
▁shipp	-11.6337
conscious	-11.6346
▁pant	-11.6357
▁utter	-11.6375
ember	-11.6421
aram	-11.6437
plate	-11.6498
earing	-11.6501
▁gostar	-11.657
with	-11.661
▁improve	-11.6635
arrow	-11.6715
▁operati	-11.6779
mission	-11.6842
cede	-11.687
▁milli	-11.6892
gate	-11.6946
▁gesta	-11.7104
▁zap	-11.7113
▁encontrar	-11.7174
▁slap	-11.7217
iggy	-11.7223
melon	-11.7258
▁voi	-11.7266
▁bookmak	-11.7276
zio	-11.7281
▁diz	-11.7345
▁rott	-11.7363
eeling	-11.7387
rolled	-11.745
▁wobbl	-11.756
eller	-11.7611
▁troop	-11.7621
stock	-11.763
making	-11.7655
▁mic	-11.7656
▁cliff	-11.7679
▁coroner	-11.768
▁celtic	-11.7687
▁cloud	-11.7689
▁teamster	-11.7692
▁whoohoo	-11.7719
brew	-11.7736
vesti	-11.7739
▁involv	-11.7757
proxim	-11.7759
▁terror	-11.7793
clean	-11.7802
▁surround	-11.787
▁explo	-11.7873
▁refus	-11.7874
▁invit	-11.7876
▁ammo	-11.7879
unny	-11.7886
▁thiev	-11.7902
▁discover	-11.7905
▁applaud	-11.7914
fold	-11.7915
▁separa	-11.7918
educated	-11.7918
satisfied	-11.7921
▁convict	-11.7921
pathetic	-11.7921
friendly	-11.7922
whistle	-11.7922
color	-11.7923
▁establish	-11.7923
certain	-11.7923
white	-11.7923
▁motivat	-11.7923
▁adopt	-11.7924
▁brut	-11.7926
▁supp	-11.793
minded	-11.793
known	-11.7931
level	-11.7933
▁rabbi	-11.7935
▁forc	-11.7935
pool	-11.7938
▁frustrat	-11.7939
▁cicci	-11.7946
▁incredibl	-11.7948
iike	-11.7951
▁apparent	-11.7952
▁smel	-11.7956
▁flatter	-11.7956
▁froze	-11.7958
▁africa	-11.7958
▁virtu	-11.7959
▁marsh	-11.796
▁asia	-11.796
▁mumbl	-11.7962
▁harris	-11.7963
▁compensat	-11.7963
▁columb	-11.7964
okie	-11.7964
huckle	-11.7965
▁enforce	-11.7965
ucci	-11.7966
▁puttin	-11.7966
nipple	-11.7966
gerald	-11.7967
▁tempt	-11.7967
▁gaggi	-11.7967
▁georgie	-11.7967
▁afoga	-11.7967
▁treach	-11.7967
▁henckels	-11.7967
▁intolera	-11.7967
▁respira	-11.7967
▁rhetoric	-11.7967
▁sylv	-11.7967
▁synthe	-11.7967
▁tractor	-11.7967
crimination	-11.7967
voluntary	-11.7967
▁absolve	-11.7967
▁accompan	-11.7967
▁acknowledg	-11.7967
▁administer	-11.7967
▁administrati	-11.7967
▁agencies	-11.7967
▁alexandre	-11.7967
▁alimony	-11.7967
▁allegiance	-11.7967
▁angrily	-11.7967
▁apparition	-11.7967
▁apprentice	-11.7967
▁aqueduct	-11.7967
▁arrogant	-11.7967
▁artichoke	-11.7967
▁artificial	-11.7967
▁artillery	-11.7967
▁autograph	-11.7967
▁bahamas	-11.7967
▁bandleader	-11.7967
▁baptist	-11.7967
▁baptized	-11.7967
▁barbaric	-11.7967
▁barracks	-11.7967
▁bartletts	-11.7967
▁beaucoup	-11.7967
▁behaviour	-11.7967
▁bennett	-11.7967
▁bethany	-11.7967
▁beware	-11.7967
▁bicycle	-11.7967
▁bizarre	-11.7967
▁blaspheme	-11.7967
▁blasphemy	-11.7967
▁blossom	-11.7967
▁boulevard	-11.7967
▁brantner	-11.7967
▁brendan	-11.7967
▁buchannon	-11.7967
▁bunnies	-11.7967
▁burritos	-11.7967
▁calendar	-11.7967
▁candidate	-11.7967
▁casitas	-11.7967
▁caviar	-11.7967
▁cereal	-11.7967
▁ceremony	-11.7967
▁certeza	-11.7967
▁chopchop	-11.7967
▁cicatriz	-11.7967
▁cllcklng	-11.7967
▁compassion	-11.7967
▁comprimidos	-11.7967
▁connecticut	-11.7967
▁contigo	-11.7967
▁contribute	-11.7967
▁corcoran	-11.7967
▁croisilles	-11.7967
▁crossroads	-11.7967
▁dalsum	-11.7967
▁deixo	-11.7967
▁demonstration	-11.7967
▁depressing	-11.7967
▁depression	-11.7967
▁deputies	-11.7967
▁despair	-11.7967
▁dialectic	-11.7967
▁dilemma	-11.7967
▁dinosaur	-11.7967
▁duchamp	-11.7967
▁efficient	-11.7967
▁eliminate	-11.7967
▁engiish	-11.7967
▁excellency	-11.7967
▁exhusband	-11.7967
▁expansion	-11.7967
▁eyebrows	-11.7967
▁ezekiel	-11.7967
▁fabulous	-11.7967
▁florence	-11.7967
▁flynns	-11.7967
▁fontane	-11.7967
▁forfeit	-11.7967
▁forrester	-11.7967
▁fractions	-11.7967
▁furnish	-11.7967
▁generosity	-11.7967
▁godfrey	-11.7967
▁gossip	-11.7967
▁grapefruit	-11.7967
▁grenada	-11.7967
▁gurdlinger	-11.7967
▁hallucinations	-11.7967
▁hammock	-11.7967
▁harlequin	-11.7967
▁helenowski	-11.7967
▁hermandad	-11.7967
▁homophobi	-11.7967
▁horrific	-11.7967
▁hospitai	-11.7967
▁hurrah	-11.7967
▁hyena	-11.7967
▁inaudible	-11.7967
▁inclined	-11.7967
▁inconvenienc	-11.7967
▁indochina	-11.7967
▁inscription	-11.7967
▁insignificant	-11.7967
▁intimacy	-11.7967
▁intrigu	-11.7967
▁invasion	-11.7967
▁irresponsibl	-11.7967
▁iunch	-11.7967
▁jenkins	-11.7967
▁jeremiah	-11.7967
▁jukebox	-11.7967
▁juvenile	-11.7967
▁kalfus	-11.7967
▁kangaroo	-11.7967
▁keeyai	-11.7967
▁keinszig	-11.7967
▁kennefick	-11.7967
▁ketchup	-11.7967
▁kosher	-11.7967
▁kraut	-11.7967
▁kruczynski	-11.7967
▁kurlen	-11.7967
▁lecture	-11.7967
▁lesbian	-11.7967
▁lipstick	-11.7967
▁lumber	-11.7967
▁luxury	-11.7967
▁malchick	-11.7967
▁manipulati	-11.7967
▁marlboro	-11.7967
▁matthias	-11.7967
▁mechanism	-11.7967
▁mississippi	-11.7967
▁molasses	-11.7967
▁moulins	-11.7967
▁myjob	-11.7967
▁nazareth	-11.7967
▁neuroleptics	-11.7967
▁newswatch	-11.7967
▁nixon	-11.7967
▁norwegian	-11.7967
▁nurburgring	-11.7967
▁oasis	-11.7967
▁obligated	-11.7967
▁odessa	-11.7967
▁orchestra	-11.7967
▁overreact	-11.7967
▁overthrow	-11.7967
▁paddington	-11.7967
▁paddle	-11.7967
▁pappas	-11.7967
▁peckerwood	-11.7967
▁penitentiar	-11.7967
▁perjury	-11.7967
▁pheasant	-11.7967
▁phenomenon	-11.7967
▁phrase	-11.7967
▁pieasure	-11.7967
▁premature	-11.7967
▁presume	-11.7967
▁probability	-11.7967
▁prophecy	-11.7967
▁prostitution	-11.7967
▁province	-11.7967
▁psychiatry	-11.7967
▁publish	-11.7967
▁pyjamas	-11.7967
▁rafterman	-11.7967
▁rathbun	-11.7967
▁reassigned	-11.7967
▁reception	-11.7967
▁reclamation	-11.7967
▁reconsider	-11.7967
▁regulations	-11.7967
▁relentless	-11.7967
▁remington	-11.7967
▁resolution	-11.7967
▁responsibi	-11.7967
▁retrieve	-11.7967
▁reutemann	-11.7967
▁reveille	-11.7967
▁revolver	-11.7967
▁rollercoaster	-11.7967
▁rosebud	-11.7967
▁sabrina	-11.7967
▁schizophreni	-11.7967
▁scribbling	-11.7967
▁sculpt	-11.7967
▁seagull	-11.7967
▁seidelbaum	-11.7967
▁semipro	-11.7967
▁serrano	-11.7967
▁seymour	-11.7967
▁shekel	-11.7967
▁shtunk	-11.7967
▁significance	-11.7967
▁sledgehammer	-11.7967
▁smuggling	-11.7967
▁snarling	-11.7967
▁snorts	-11.7967
▁software	-11.7967
▁somewhat	-11.7967
▁splendid	-11.7967
▁squirrel	-11.7967
▁stagger	-11.7967
▁stammers	-11.7967
▁stubborn	-11.7967
▁suicida	-11.7967
▁sybil	-11.7967
▁tallahassee	-11.7967
▁tiffany	-11.7967
▁triumph	-11.7967
▁tshirt	-11.7967
▁tummy	-11.7967
▁tuttle	-11.7967
▁tyranny	-11.7967
▁ullman	-11.7967
▁unforgettable	-11.7967
▁unhappiness	-11.7967
▁unreasonable	-11.7967
▁urchin	-11.7967
▁vacuum	-11.7967
▁vazir	-11.7967
▁versace	-11.7967
▁vessel	-11.7967
▁vigilante	-11.7967
▁vinegar	-11.7967
▁wendell	-11.7967
▁widget	-11.7967
▁xanax	-11.7967
▁zombie	-11.7967
▁zubrowk	-11.7967
compulsive	-11.7967
▁accumulat	-11.7967
▁bianca	-11.7967
▁clinton	-11.7967
▁collateral	-11.7967
▁cormier	-11.7967
▁disorder	-11.7967
▁dteam	-11.7967
▁enthusias	-11.7967
▁estrada	-11.7967
▁fireplace	-11.7967
▁frederick	-11.7967
▁gibson	-11.7967
▁gunderson	-11.7967
▁hampton	-11.7967
▁illustrat	-11.7967
▁inject	-11.7967
▁itzak	-11.7967
▁january	-11.7967
▁justjust	-11.7967
▁klaus	-11.7967
▁morreu	-11.7967
▁muffin	-11.7967
▁oblivio	-11.7967
▁opium	-11.7967
▁osaka	-11.7967
▁peculiar	-11.7967
▁pesach	-11.7967
▁precisa	-11.7967
▁proprietor	-11.7967
▁repuls	-11.7967
▁rouge	-11.7967
▁specimen	-11.7967
▁toxic	-11.7967
▁tuition	-11.7967
▁uptight	-11.7967
▁vermont	-11.7967
agonizing	-11.7967
eeniem	-11.7967
ermilk	-11.7967
▁agitat	-11.7967
▁antoine	-11.7967
▁austin	-11.7967
▁babyjoel	-11.7967
▁baggage	-11.7967
▁bridie	-11.7967
▁bullseye	-11.7967
▁cannoli	-11.7967
▁cassidy	-11.7967
▁cicero	-11.7967
▁hallelu	-11.7967
▁hardware	-11.7967
▁houston	-11.7967
▁imbecile	-11.7967
▁kathy	-11.7967
▁nassau	-11.7967
▁overture	-11.7967
▁pastrami	-11.7967
▁permanent	-11.7967
▁pledge	-11.7967
▁radical	-11.7967
▁redneck	-11.7967
▁reginald	-11.7967
▁serpent	-11.7967
▁shoving	-11.7967
▁snider	-11.7967
▁tribute	-11.7967
▁flick	-11.7967
▁tumble	-11.7967
▁xray	-11.7967
▁cubber	-11.7967
▁flex	-11.7967
▁gareth	-11.7967
▁income	-11.7967
▁klick	-11.7967
▁parlay	-11.7967
▁quintus	-11.7967
▁sherry	-11.7967
▁testament	-11.7967
▁toledo	-11.7967
▁angei	-11.7967
▁applied	-11.7967
▁assumption	-11.7967
▁clover	-11.7967
▁doutor	-11.7967
▁lifeform	-11.7967
▁loafers	-11.7967
▁manacles	-11.7967
▁rumours	-11.7967
▁scandal	-11.7967
▁siago	-11.7967
▁sobre	-11.7967
▁spike	-11.7967
▁squid	-11.7967
▁stunt	-11.7967
▁thorns	-11.7967
▁timber	-11.7967
▁wilderness	-11.7967
▁assurance	-11.7967
▁canyon	-11.7967
▁coolidge	-11.7967
▁handshake	-11.7967
▁mountaineers	-11.7967
▁properties	-11.7967
▁violin	-11.7967
▁berlin	-11.7967
▁brodsky	-11.7967
▁doida	-11.7967
▁doorstep	-11.7967
▁hanna	-11.7967
▁iawyer	-11.7967
▁nickname	-11.7967
▁sieep	-11.7967
▁dozer	-11.7967
▁motto	-11.7967
▁piercing	-11.7967
▁pouco	-11.7967
▁rivals	-11.7967
▁wesson	-11.7967
▁debate	-11.7967
▁dmv	-11.7967
▁allerg	-11.7967
▁keypad	-11.7967
▁plumber	-11.7967
kowski	-11.7967
tagoni	-11.7967
▁abusive	-11.7967
▁inequ	-11.7967
▁iowa	-11.7967
▁snoring	-11.7967
▁hyper	-11.7967
▁lauren	-11.7967
▁meatballs	-11.7967
▁miscarr	-11.7967
▁ouais	-11.7967
▁error	-11.7967
▁flank	-11.7967
▁fortress	-11.7967
▁groggy	-11.7967
▁torche	-11.7967
▁twitch	-11.7967
▁jammed	-11.7967
▁oyster	-11.7967
▁snipp	-11.7967
▁tavern	-11.7967
▁dyna	-11.7967
▁ieft	-11.7967
▁shaving	-11.7967
▁devastat	-11.7967
▁radar	-11.7967
▁hottest	-11.7967
▁teeny	-11.7967
▁balm	-11.7967
▁ebbing	-11.7967
▁koon	-11.7967
▁backstage	-11.7967
▁devote	-11.7967
▁sketch	-11.7967
▁vejo	-11.7967
▁earrings	-11.7968
▁jingling	-11.7968
▁annual	-11.7968
▁iiving	-11.7968
withstand	-11.7968
▁sissy	-11.7968
▁kerb	-11.7968
▁idaho	-11.7968
▁medell	-11.7968
▁seditio	-11.7968
▁digital	-11.7968
▁douchebag	-11.7968
▁larry	-11.7968
▁yarbi	-11.7968
▁marvel	-11.7968
▁stove	-11.7968
▁heels	-11.7968
▁musl	-11.7968
▁sarcastic	-11.7968
▁biind	-11.7968
dispensa	-11.7968
▁repeatedly	-11.7968
▁margin	-11.7968
▁lashes	-11.7968
▁greaseball	-11.7968
▁missiles	-11.7968
▁lottery	-11.7968
▁aggression	-11.7968
▁automobile	-11.7968
▁chisel	-11.7968
▁solitary	-11.7968
▁obscene	-11.7968
▁senile	-11.7968
▁contingenc	-11.7968
▁thailand	-11.7968
▁priorities	-11.7968
actical	-11.7968
▁susie	-11.7968
▁contribution	-11.7968
▁alternative	-11.7968
▁lovebirds	-11.7968
cini	-11.7968
▁skank	-11.7968
▁consent	-11.7968
interact	-11.7968
▁bragging	-11.7968
▁stoning	-11.7968
ghett	-11.7968
▁intercom	-11.7968
▁botti	-11.7968
▁sipping	-11.7968
▁blink	-11.7968
▁sideways	-11.7968
▁aisle	-11.7968
▁junkyard	-11.7968
▁esteem	-11.7968
▁digits	-11.7968
▁feature	-11.7969
▁flea	-11.7969
▁lethal	-11.7969
▁ciose	-11.7969
▁ginny	-11.7969
▁levar	-11.7969
▁orderlies	-11.7969
▁spiritual	-11.7969
▁upstate	-11.7969
▁devise	-11.7969
▁granddaughter	-11.7969
▁birthright	-11.7969
▁cramp	-11.7969
▁muslim	-11.7969
▁uk	-11.7969
▁storytell	-11.7969
▁knuckles	-11.7969
▁delightful	-11.7969
▁nineteen	-11.7969
▁haster	-11.7969
junction	-11.7969
▁pathological	-11.7969
▁ardel	-11.7969
▁sharkey	-11.7969
▁muttering	-11.7969
▁referred	-11.7969
▁pirate	-11.7969
▁slogan	-11.7969
▁sorrowful	-11.797
▁mendl	-11.797
▁bentley	-11.797
▁chinamen	-11.797
▁upload	-11.797
▁rims	-11.797
▁battlefield	-11.797
▁burial	-11.797
▁romy	-11.797
▁assistance	-11.797
▁testified	-11.797
▁obsession	-11.797
▁allright	-11.797
▁carolina	-11.797
▁deveria	-11.7971
▁powerboat	-11.7971
▁rejection	-11.7971
▁bummer	-11.7971
polit	-11.7971
▁flipped	-11.7971
▁ioveiy	-11.7971
▁disqualified	-11.7971
▁cursing	-11.7971
▁googl	-11.7971
▁essa	-11.7971
▁vendo	-11.7971
▁primetime	-11.7972
▁shaft	-11.7972
▁scorn	-11.7972
▁domum	-11.7972
▁leash	-11.7972
▁sensor	-11.7972
▁youngster	-11.7972
▁amari	-11.7972
▁transportation	-11.7972
▁groom	-11.7972
▁unfold	-11.7973
▁whipping	-11.7973
▁involvement	-11.7973
▁dorm	-11.7973
▁copyright	-11.7973
▁flute	-11.7973
▁jav	-11.7973
▁tension	-11.7973
▁nerd	-11.7973
▁confirmation	-11.7973
▁mentalism	-11.7973
▁branches	-11.7973
▁heather	-11.7973
▁robotic	-11.7973
▁hoytl	-11.7974
▁offthe	-11.7974
▁midst	-11.7974
▁ignorant	-11.7974
▁northern	-11.7974
mples	-11.7974
▁tribe	-11.7974
▁detection	-11.7974
▁fucksville	-11.7974
▁forbe	-11.7974
▁shady	-11.7974
▁before	-11.7974
▁disappointment	-11.7975
▁henchm	-11.7975
▁slightest	-11.7975
▁beak	-11.7975
▁normandy	-11.7975
▁leap	-11.7975
▁stitches	-11.7975
▁consultation	-11.7975
▁infant	-11.7975
▁virtues	-11.7976
▁drool	-11.7976
▁primeir	-11.7976
▁dwell	-11.7976
▁fique	-11.7976
▁gaga	-11.7976
▁judas	-11.7976
▁lobe	-11.7976
▁scout	-11.7976
▁colombian	-11.7976
▁galante	-11.7976
▁static	-11.7976
▁lrish	-11.7976
▁upand	-11.7977
▁personalities	-11.7977
▁oven	-11.7977
▁unwise	-11.7977
▁mature	-11.7977
▁newfound	-11.7977
▁aka	-11.7978
▁mmmmm	-11.7978
mnh	-11.7978
▁pause	-11.7978
▁ceo	-11.7978
▁tart	-11.7979
▁roos	-11.7979
ihua	-11.7979
▁starring	-11.7979
▁traditional	-11.7979
▁expectations	-11.798
▁earnings	-11.798
▁damp	-11.798
▁stacy	-11.798
▁truthfully	-11.798
▁waitresses	-11.798
▁echoes	-11.798
▁render	-11.798
▁objective	-11.7981
▁tipped	-11.7981
▁fiim	-11.7981
▁rigor	-11.7981
▁scent	-11.7982
▁electricity	-11.7982
▁flock	-11.7982
▁adrenaline	-11.7982
▁nova	-11.7982
▁handgun	-11.7983
▁drab	-11.7983
▁lump	-11.7983
▁countries	-11.7983
▁merle	-11.7984
▁poland	-11.7984
▁alongside	-11.7984
▁recommendation	-11.7984
▁ronda	-11.7984
▁hex	-11.7984
▁archers	-11.7986
▁lex	-11.7986
▁courthouse	-11.7987
▁velh	-11.7987
▁defian	-11.7987
▁passover	-11.7987
▁casing	-11.7987
▁considerate	-11.7987
▁capone	-11.7987
▁rusk	-11.7988
▁joyous	-11.7989
▁pads	-11.7989
▁muck	-11.799
▁strikers	-11.799
▁exile	-11.799
hugging	-11.7991
idado	-11.7991
▁lsnt	-11.7991
immel	-11.7992
▁fitts	-11.7992
bath	-11.7994
▁vibe	-11.7994
▁irishman	-11.7994
▁barney	-11.7995
▁monk	-11.7996
coeur	-11.7996
▁wedge	-11.7996
▁superheroes	-11.7997
▁cff	-11.7997
▁korean	-11.7998
▁cada	-11.7998
▁whup	-11.7999
▁intra	-11.8
▁lining	-11.8
▁acceptable	-11.8001
▁pelo	-11.8001
▁vanity	-11.8001
▁splitter	-11.8002
▁canal	-11.8003
▁thai	-11.8003
mpered	-11.8004
viral	-11.8007
▁shah	-11.8009
▁refi	-11.8011
horse	-11.8014
▁massac	-11.8014
▁burt	-11.8014
▁booge	-11.8015
metric	-11.8016
etts	-11.802
▁dame	-11.8022
unton	-11.8026
▁jac	-11.8033
▁commendat	-11.8037
▁sputter	-11.8048
ccord	-11.8054
▁pursu	-11.8058
▁otter	-11.8059
▁explor	-11.806
orrido	-11.8063
▁vassa	-11.8069
eezing	-11.8076
▁cleanser	-11.8078
▁droogie	-11.8084
▁crank	-11.8098
▁exterminat	-11.8105
▁disrespectful	-11.8112
smic	-11.8128
downloade	-11.8129
vision	-11.8159
flake	-11.8159
sonsof	-11.8166
▁degrad	-11.8196
▁dissolve	-11.8216
jack	-11.822
proved	-11.8265
nomination	-11.8267
▁stitch	-11.8276
ession	-11.8352
▁snag	-11.8391
cana	-11.8522
mblin	-11.8532
▁clapp	-11.8548
qt	-11.856
▁yahoo	-11.8595
▁cust	-11.8634
culo	-11.8655
which	-11.8658
▁execut	-11.871
▁admir	-11.8761
▁mcco	-11.878
tuna	-11.891
▁jangl	-11.893
▁multi	-11.8962
▁improv	-11.8979
orsak	-11.8998
▁conservati	-11.9012
▁acredit	-11.9178
buster	-11.9204
hopping	-11.9206
hittin	-11.9241
aaaa	-11.9408
cura	-11.9514
▁roden	-11.9533
noir	-11.9536
pong	-11.958
baked	-11.9631
bj	-11.9687
▁indicat	-11.9724
uttering	-11.9759
hopper	-11.981
▁acredita	-11.9826
ept	-11.995
pendable	-12.0004
interrupted	-12.0008
▁select	-12.0243
▁raisin	-12.045
▁acc	-12.0632
verse	-12.0699
▁nitr	-12.0821
stically	-12.0834
onald	-12.0903
▁pedi	-12.0924
▁vibrat	-12.0955
▁exclaim	-12.0969
▁groan	-12.0981
▁envi	-12.099
▁choos	-12.1009
▁firearm	-12.1017
▁explosive	-12.1023
▁supplie	-12.1023
fatso	-12.1169
etzs	-12.1187
wald	-12.12
▁arriv	-12.1201
olhar	-12.1211
▁retir	-12.1221
gazi	-12.1237
found	-12.1246
▁annoy	-12.1247
▁shush	-12.1248
walk	-12.1251
happy	-12.1251
▁reject	-12.1252
stream	-12.1253
virus	-12.1253
identified	-12.1254
▁slug	-12.1254
▁indict	-12.1254
▁obsess	-12.1254
grateful	-12.1255
▁origin	-12.1255
blade	-12.1255
teacher	-12.1255
stack	-12.1255
whip	-12.1255
familiar	-12.1255
weather	-12.1255
pipe	-12.1256
dancing	-12.1256
rabbit	-12.1256
criminal	-12.1256
▁homicid	-12.1256
correct	-12.1256
broken	-12.1256
wheel	-12.1256
girlfriend	-12.1256
finished	-12.1256
mentioned	-12.1256
▁distinguish	-12.1256
knock	-12.1256
trial	-12.1256
second	-12.1256
black	-12.1256
jesus	-12.1256
around	-12.1256
food	-12.1257
help	-12.1257
bomb	-12.1257
good	-12.1258
famous	-12.1258
large	-12.1259
gotten	-12.1259
wanted	-12.1259
terminate	-12.126
steak	-12.126
smith	-12.126
egitimate	-12.1266
▁excite	-12.1272
▁relieve	-12.1273
▁beaut	-12.1275
▁thirst	-12.1278
▁murph	-12.1278
▁aureli	-12.1279
▁adrenalin	-12.128
pilot	-12.128
▁fiddl	-12.1281
▁stru	-12.1282
▁cours	-12.1283
▁innocen	-12.1287
▁jenn	-12.1288
finger	-12.1288
scribes	-12.1288
parent	-12.1289
▁india	-12.1292
▁branch	-12.1292
▁exorcis	-12.1292
▁hoyt	-12.1293
▁colombia	-12.1293
▁servin	-12.1295
▁smokin	-12.1295
▁dancin	-12.1295
▁quittin	-12.1295
▁cooperati	-12.1295
▁laud	-12.1295
▁colomb	-12.1296
oogie	-12.1297
uspicious	-12.1297
▁chasin	-12.1298
orphine	-12.1298
urray	-12.1299
▁engl	-12.1299
winkle	-12.1299
▁scram	-12.13
▁coincide	-12.13
▁especia	-12.13
▁kiddin	-12.13
▁cyber	-12.13
▁coiombia	-12.13
▁absent	-12.13
▁guild	-12.13
▁whisk	-12.13
destructi	-12.1301
▁hubba	-12.1301
emorrh	-12.1301
explica	-12.1301
▁fractur	-12.1301
abilities	-12.1301
conclusive	-12.1301
disqualification	-12.1301
ectomy	-12.1301
ferocious	-12.1301
greatgrandmother	-12.1301
negotiable	-12.1301
reassignment	-12.1301
recognition	-12.1301
savvy	-12.1301
▁accommodat	-12.1301
▁adequate	-12.1301
▁afflict	-12.1301
▁ajudem	-12.1301
▁alexandria	-12.1301
▁algorithm	-12.1301
▁alleyoop	-12.1301
▁amnesty	-12.1301
▁amphetamine	-12.1301
▁analog	-12.1301
▁anatomy	-12.1301
▁antarctic	-12.1301
▁antisemit	-12.1301
▁anxiety	-12.1301
▁apologise	-12.1301
▁arraignment	-12.1301
▁arrasto	-12.1301
▁asparagus	-12.1301
▁aspect	-12.1301
▁avalanche	-12.1301
▁bailiff	-12.1301
▁baitimore	-12.1301
▁banished	-12.1301
▁barbecue	-12.1301
▁barragem	-12.1301
▁beaufoy	-12.1301
▁belvedere	-12.1301
▁bickering	-12.1301
▁bogdanovich	-12.1301
▁bonasera	-12.1301
▁botched	-12.1301
▁bouquet	-12.1301
▁brackets	-12.1301
▁brennan	-12.1301
▁brilliance	-12.1301
▁buddhist	-12.1301
▁bullettooth	-12.1301
▁burgundy	-12.1301
▁bystander	-12.1301
▁caffeine	-12.1301
▁caribbean	-12.1301
▁carpentry	-12.1301
▁cellblocks	-12.1301
▁certified	-12.1301
▁chauffeur	-12.1301
▁chemistry	-12.1301
▁chiidren	-12.1301
▁chinchilla	-12.1301
▁ciothes	-12.1301
▁circling	-12.1301
▁colosseum	-12.1301
▁commonwealth	-12.1301
▁commune	-12.1301
▁communication	-12.1301
▁communion	-12.1301
▁communities	-12.1301
▁compliance	-12.1301
▁complication	-12.1301
▁concentration	-12.1301
▁contempt	-12.1301
▁convenience	-12.1301
▁cornelius	-12.1301
▁cossack	-12.1301
▁courtmartial	-12.1301
▁craftsmanship	-12.1301
▁creativity	-12.1301
▁creedence	-12.1301
▁cresci	-12.1301
▁crocodile	-12.1301
▁croix	-12.1301
▁crotch	-12.1301
▁cugina	-12.1301
▁cyborg	-12.1301
▁cynical	-12.1301
▁database	-12.1301
▁deauxma	-12.1301
▁declaration	-12.1301
▁dedication	-12.1301
▁defensive	-12.1301
▁definition	-12.1301
▁deixe	-12.1301
▁desaparecido	-12.1301
▁deteriorate	-12.1301
▁devotchka	-12.1301
▁devotion	-12.1301
▁diminish	-12.1301
▁dirosa	-12.1301
▁disciple	-12.1301
▁dishwasher	-12.1301
▁dormindo	-12.1301
▁efficiency	-12.1301
▁engaging	-12.1301
▁enquanto	-12.1301
▁entrepreneur	-12.1301
▁equilibrium	-12.1301
▁espresso	-12.1301
▁ethics	-12.1301
▁eunuch	-12.1301
▁excusezmoi	-12.1301
▁exquisite	-12.1301
▁extension	-12.1301
▁extensive	-12.1301
▁eyewitness	-12.1301
▁fabrizio	-12.1301
▁fantasma	-12.1301
▁fascinating	-12.1301
▁fatherinlaw	-12.1301
▁fazendo	-12.1301
▁feinberg	-12.1301
▁felicia	-12.1301
▁fernandez	-12.1301
▁fiducia	-12.1301
▁firecracker	-12.1301
▁fonzie	-12.1301
▁foreplay	-12.1301
▁frazier	-12.1301
▁frenzy	-12.1301
▁frequent	-12.1301
▁fugitive	-12.1301
▁fulfill	-12.1301
▁furnace	-12.1301
▁garrison	-12.1301
▁geoffrey	-12.1301
▁geometr	-12.1301
▁giraffe	-12.1301
▁glutton	-12.1301
▁gnarly	-12.1301
▁goodfellas	-12.1301
▁gracchus	-12.1301
▁grifter	-12.1301
▁grimsrud	-12.1301
▁grumble	-12.1301
▁guerrero	-12.1301
▁gurgling	-12.1301
▁haggling	-12.1301
▁halfbrother	-12.1301
▁harbour	-12.1301
▁heehaw	-12.1301
▁hehheh	-12.1301
▁hilarious	-12.1301
▁hillbilly	-12.1301
▁holster	-12.1301
▁hooooooooooo	-12.1301
▁horizon	-12.1301
▁horribie	-12.1301
▁hushhush	-12.1301
▁ibiza	-12.1301
▁icecream	-12.1301
▁ieaving	-12.1301
▁immigration	-12.1301
▁impulse	-12.1301
▁inappropriate	-12.1301
▁inconvenient	-12.1301
▁indirect	-12.1301
▁indiscre	-12.1301
▁industrial	-12.1301
▁infraction	-12.1301
▁initiative	-12.1301
▁injustice	-12.1301
▁inoculate	-12.1301
▁instigat	-12.1301
▁intensifie	-12.1301
▁interlink	-12.1301
▁invalid	-12.1301
▁irregular	-12.1301
▁irrigation	-12.1301
▁isolated	-12.1301
▁isolation	-12.1301
▁jagoff	-12.1301
▁jasmine	-12.1301
▁jerusalem	-12.1301
▁joshua	-12.1301
▁jujitsu	-12.1301
▁kearns	-12.1301
▁kellogg	-12.1301
▁kendricks	-12.1301
▁kodak	-12.1301
▁kyoami	-12.1301
▁labyrinth	-12.1301
▁lambeau	-12.1301
▁lebanon	-12.1301
▁lecturin	-12.1301
▁liberal	-12.1301
▁liechtenstein	-12.1301
▁lisbon	-12.1301
▁lizewski	-12.1301
▁lollipop	-12.1301
▁lonesome	-12.1301
▁lucius	-12.1301
▁ludicrous	-12.1301
▁luxuri	-12.1301
▁mainframe	-12.1301
▁maintenance	-12.1301
▁malfunction	-12.1301
▁malibu	-12.1301
▁maneuver	-12.1301
▁mcandrew	-12.1301
▁mercenary	-12.1301
▁merchant	-12.1301
▁methadone	-12.1301
▁meticulous	-12.1301
▁miiiicents	-12.1301
▁milwaukee	-12.1301
▁minnesota	-12.1301
▁mongoloid	-12.1301
▁montblanc	-12.1301
▁montmartre	-12.1301
▁municipal	-12.1301
▁neighing	-12.1301
▁nenhum	-12.1301
▁newscaster	-12.1301
▁nuhuh	-12.1301
▁numbnut	-12.1301
▁nypd	-12.1301
▁obituar	-12.1301
▁oblongata	-12.1301
▁obrigada	-12.1301
▁octopus	-12.1301
▁optimistic	-12.1301
▁oregon	-12.1301
▁osidius	-12.1301
▁overflow	-12.1301
▁pajama	-12.1301
▁palazzo	-12.1301
▁paperweight	-12.1301
▁paragraph	-12.1301
▁patricia	-12.1301
▁peasants	-12.1301
▁pederast	-12.1301
▁peggeleh	-12.1301
▁pennsylvania	-12.1301
▁pepsi	-12.1301
▁pescador	-12.1301
▁petrified	-12.1301
▁pharmac	-12.1301
▁pharmaceutical	-12.1301
▁pickpocket	-12.1301
▁pinstriped	-12.1301
▁pollack	-12.1301
▁possibilities	-12.1301
▁preserve	-12.1301
▁presumably	-12.1301
▁priviledge	-12.1301
▁propaganda	-12.1301
▁prowler	-12.1301
▁prudent	-12.1301
▁puddin	-12.1301
▁pyotr	-12.1301
▁qualifiers	-12.1301
▁questadt	-12.1301
▁quincampoix	-12.1301
▁quincy	-12.1301
▁quintana	-12.1301
▁quinzel	-12.1301
▁radiator	-12.1301
▁rasul	-12.1301
▁refreshment	-12.1301
▁reimburse	-12.1301
▁remarrie	-12.1301
▁renown	-12.1301
▁resourceful	-12.1301
▁restrictions	-12.1301
▁restructuring	-12.1301
▁ringleader	-12.1301
▁rivalry	-12.1301
▁rwanda	-12.1301
▁sadducee	-12.1301
▁salsiccia	-12.1301
▁sanatarium	-12.1301
▁sanchez	-12.1301
▁sarzana	-12.1301
▁satisfy	-12.1301
▁savior	-12.1301
▁scaffold	-12.1301
▁schillings	-12.1301
▁scholar	-12.1301
▁scrimmage	-12.1301
▁scroung	-12.1301
▁seclusion	-12.1301
▁secrecy	-12.1301
▁seizure	-12.1301
▁seldom	-12.1301
▁shakespeare	-12.1301
▁sideroads	-12.1301
▁siegfried	-12.1301
▁simultaneous	-12.1301
▁skyrocket	-12.1301
▁sneezes	-12.1301
▁sodomize	-12.1301
▁sophia	-12.1301
▁sprinkle	-12.1301
▁squirt	-12.1301
▁stadium	-12.1301
▁stagecoach	-12.1301
▁strategic	-12.1301
▁subterfuge	-12.1301
▁sunglasses	-12.1301
▁sweatshirt	-12.1301
▁swoop	-12.1301
▁symptom	-12.1301
▁synagogue	-12.1301
▁tanqueray	-12.1301
▁thunderstorm	-12.1301
▁trough	-12.1301
▁tsurumaru	-12.1301
▁tuberculosis	-12.1301
▁tucumcari	-12.1301
▁turnbull	-12.1301
▁turret	-12.1301
▁undertaker	-12.1301
▁unparallel	-12.1301
▁unravel	-12.1301
▁unrepentant	-12.1301
▁unspeakabl	-12.1301
▁unzip	-12.1301
▁utopia	-12.1301
▁uzi	-12.1301
▁vodka	-12.1301
▁vulgar	-12.1301
▁wattles	-12.1301
▁whomever	-12.1301
▁wiggins	-12.1301
▁windshield	-12.1301
▁yanagita	-12.1301
▁yokels	-12.1301
▁casket	-12.1301
▁cerebr	-12.1301
▁compact	-12.1301
▁compartment	-12.1301
▁corroborat	-12.1301
▁decapitat	-12.1301
▁fetish	-12.1301
▁glitter	-12.1301
▁groundskeeper	-12.1301
▁inflict	-12.1301
▁kneecap	-12.1301
▁manufactur	-12.1301
▁resurfac	-12.1301
▁squat	-12.1301
▁suffo	-12.1301
▁transcript	-12.1301
▁twilight	-12.1301
▁walrus	-12.1301
▁azoff	-12.1301
▁blatant	-12.1301
▁blatch	-12.1301
▁brazil	-12.1301
▁companion	-12.1301
▁compiete	-12.1301
▁cortina	-12.1301
▁crops	-12.1301
▁dahlia	-12.1301
▁deception	-12.1301
▁doortodoor	-12.1301
▁eightysix	-12.1301
▁facetoface	-12.1301
▁fiji	-12.1301
▁floppy	-12.1301
▁gimmick	-12.1301
▁grammar	-12.1301
▁gravity	-12.1301
▁hoodium	-12.1301
▁index	-12.1301
▁irvine	-12.1301
▁isabel	-12.1301
▁justified	-12.1301
▁knucklehead	-12.1301
▁lankford	-12.1301
▁marlene	-12.1301
▁maximum	-12.1301
▁muddled	-12.1301
▁octa	-12.1301
▁outlaw	-12.1301
▁paranoia	-12.1301
▁parlance	-12.1301
▁paycheck	-12.1301
▁pecado	-12.1301
▁phillip	-12.1301
▁plaster	-12.1301
▁proximity	-12.1301
▁roleplay	-12.1301
▁sturdy	-12.1301
▁terrace	-12.1301
▁tulip	-12.1301
▁tyrant	-12.1301
▁ultraviolen	-12.1301
▁undermine	-12.1301
▁unhook	-12.1301
▁whitman	-12.1301
admini	-12.1301
emption	-12.1301
▁bootleg	-12.1301
▁camelhair	-12.1301
▁clack	-12.1301
▁comanche	-12.1301
▁conform	-12.1301
▁doiiar	-12.1301
▁duality	-12.1301
▁dudley	-12.1301
▁gladiator	-12.1301
▁ignite	-12.1301
▁jigg	-12.1301
▁lemmon	-12.1301
▁mandatory	-12.1301
▁pianist	-12.1301
▁racist	-12.1301
▁showmanship	-12.1301
▁sidekick	-12.1301
▁steep	-12.1301
▁superstitious	-12.1301
▁april	-12.1301
▁bocce	-12.1301
▁bundle	-12.1301
▁caddy	-12.1301
▁cherish	-12.1301
▁elegant	-12.1301
▁erotic	-12.1301
▁firewall	-12.1301
▁foiiow	-12.1301
▁garlic	-12.1301
▁gemini	-12.1301
▁gitmo	-12.1301
▁hubbard	-12.1301
▁hydra	-12.1301
▁lraq	-12.1301
▁memorized	-12.1301
▁parallel	-12.1301
▁purgat	-12.1301
▁purge	-12.1301
▁shomer	-12.1301
▁smirk	-12.1301
▁soothe	-12.1301
▁survey	-12.1301
▁systematic	-12.1301
▁tiptop	-12.1301
▁vaudevill	-12.1301
▁wilko	-12.1301
▁wiretap	-12.1301
▁choppie	-12.1301
▁denham	-12.1301
▁dinah	-12.1301
▁filter	-12.1301
▁fritz	-12.1301
▁gaius	-12.1301
▁gmac	-12.1301
▁keith	-12.1301
▁chazer	-12.1301
▁clash	-12.1301
▁consolidat	-12.1301
▁grouch	-12.1301
▁liaison	-12.1301
▁paddie	-12.1301
▁perpetual	-12.1301
▁regulator	-12.1301
▁vickers	-12.1301
rrhea	-12.1301
▁shaffer	-12.1301
▁suburb	-12.1301
▁tompson	-12.1301
▁aerial	-12.1301
▁cartridge	-12.1301
▁goocher	-12.1301
▁gwen	-12.1301
▁hippie	-12.1301
▁lynch	-12.1301
▁nastiness	-12.1301
▁nevertheless	-12.1301
▁smiie	-12.1301
▁stump	-12.1301
▁beiong	-12.1301
▁billiards	-12.1301
▁sibley	-12.1301
ization	-12.1301
▁bluffs	-12.1301
▁boffa	-12.1301
▁davie	-12.1301
▁deceive	-12.1301
▁escalat	-12.1301
▁ganj	-12.1301
▁salerno	-12.1301
▁singsong	-12.1301
▁venom	-12.1301
▁alaba	-12.1301
▁befit	-12.1301
▁gravy	-12.1301
▁pennies	-12.1301
evelt	-12.1301
▁boppers	-12.1301
▁emptie	-12.1301
▁martha	-12.1301
▁mhm	-12.1301
▁pendant	-12.1301
▁rascal	-12.1301
▁sparks	-12.1301
▁ulcer	-12.1301
▁whooshing	-12.1301
▁substantial	-12.1301
▁breen	-12.1301
▁congress	-12.1301
▁firefighter	-12.1301
▁reenie	-12.1301
▁ruptur	-12.1301
▁slamming	-12.1301
cheeseburgers	-12.1301
▁blip	-12.1301
▁conceal	-12.1301
▁juicy	-12.1301
▁mdma	-12.1301
▁oof	-12.1301
▁racial	-12.1301
▁requirements	-12.1301
▁shuffl	-12.1301
▁paola	-12.1301
▁apoll	-12.1301
▁bertra	-12.1301
mbrava	-12.1301
▁anitas	-12.1301
▁cinna	-12.1301
prehensi	-12.1301
▁rapaz	-12.1301
▁camila	-12.1301
▁dairy	-12.1301
▁terribi	-12.1301
▁urinat	-12.1301
▁mcgee	-12.1301
▁nauls	-12.1301
▁tampin	-12.1301
▁mooch	-12.1301
▁pioneer	-12.1301
▁eldest	-12.1301
▁cherie	-12.1301
▁vivo	-12.1301
disposed	-12.1301
▁yawn	-12.1301
▁speculat	-12.1301
▁expedit	-12.1301
▁ibm	-12.1301
▁tristes	-12.1301
▁hotshot	-12.1301
▁senhor	-12.1301
▁ripple	-12.1301
▁pronto	-12.1301
▁natalie	-12.1301
▁particle	-12.1301
▁spouse	-12.1301
▁sieve	-12.1301
▁coloss	-12.1301
▁derail	-12.1301
▁invo	-12.1301
▁noisy	-12.1301
▁adeus	-12.1301
▁fiat	-12.1301
▁porsche	-12.1301
▁salud	-12.1301
▁swept	-12.1301
▁lamppost	-12.1301
▁amusing	-12.1301
▁irrelevant	-12.1301
▁upperclass	-12.1301
▁evasion	-12.1301
▁anagram	-12.1301
▁iosing	-12.1301
entials	-12.1301
▁convert	-12.1301
▁convey	-12.1301
▁treachery	-12.1301
▁mushroom	-12.1301
▁lanka	-12.1301
▁francs	-12.1301
▁hobo	-12.1301
ceptible	-12.1301
▁btn	-12.1301
▁liking	-12.1301
▁wizard	-12.1301
▁grudge	-12.1301
▁cooperating	-12.1301
▁shortening	-12.1301
▁proving	-12.1301
▁sinned	-12.1301
▁cartier	-12.1301
▁fartface	-12.1301
▁afogaram	-12.1301
hazard	-12.1301
▁birch	-12.1301
▁georgieboy	-12.1301
▁lurch	-12.1301
▁absentee	-12.1301
▁desecrat	-12.1301
▁kitten	-12.1301
▁tacky	-12.1301
▁mendis	-12.1301
▁gallery	-12.1301
▁lyric	-12.1301
▁practising	-12.1302
▁evelyn	-12.1302
▁semana	-12.1302
▁scramble	-12.1302
▁speedboat	-12.1302
▁consolation	-12.1302
▁hunchback	-12.1302
▁fusion	-12.1302
▁wealthiest	-12.1302
▁prompt	-12.1302
▁rampart	-12.1302
▁wept	-12.1302
▁lamar	-12.1302
▁jeannie	-12.1302
▁hud	-12.1302
▁cashiers	-12.1302
▁catwalk	-12.1302
▁biood	-12.1302
▁baggie	-12.1302
▁blindfold	-12.1302
▁notebook	-12.1302
▁qulet	-12.1302
▁deported	-12.1302
▁puzzle	-12.1302
uhuhuh	-12.1302
▁phuuc	-12.1302
▁slander	-12.1302
▁mammy	-12.1302
▁qualities	-12.1302
▁threesome	-12.1302
▁stirring	-12.1302
▁nipples	-12.1303
▁twentythree	-12.1303
▁chowder	-12.1303
▁manoio	-12.1303
▁uptown	-12.1303
▁outrage	-12.1303
▁pluck	-12.1303
▁shylock	-12.1303
▁maldade	-12.1303
▁excitement	-12.1303
▁criticize	-12.1303
dextro	-12.1303
▁diabet	-12.1303
▁fluff	-12.1303
▁scarface	-12.1303
▁canada	-12.1303
▁pastels	-12.1303
▁elves	-12.1303
▁batshit	-12.1303
▁morrer	-12.1303
▁taxfree	-12.1303
▁provision	-12.1304
▁referring	-12.1304
▁spatter	-12.1304
▁disrupt	-12.1304
▁twentytwo	-12.1304
▁downside	-12.1304
oodle	-12.1304
▁abdom	-12.1304
▁occupation	-12.1304
plex	-12.1304
▁farris	-12.1304
▁myles	-12.1304
▁lawsuit	-12.1304
▁vague	-12.1304
▁slapped	-12.1305
▁sandbag	-12.1305
▁verified	-12.1305
▁greg	-12.1305
▁walser	-12.1305
▁glance	-12.1305
▁fumbl	-12.1306
▁wither	-12.1306
▁intrusi	-12.1306
▁gps	-12.1306
▁dork	-12.1307
▁gunned	-12.1307
▁hks	-12.1307
ugula	-12.1308
▁niggerlov	-12.1308
▁dags	-12.1308
▁wanders	-12.1309
pagli	-12.131
▁dominati	-12.1311
▁thatthat	-12.1311
▁extract	-12.1311
▁biess	-12.1311
demic	-12.1312
▁blaze	-12.1312
athlete	-12.1312
▁riddle	-12.1313
fuiiy	-12.1313
▁cremat	-12.1313
leaf	-12.1314
▁lambert	-12.1314
kuz	-12.1315
▁hallowe	-12.1315
▁dlr	-12.1316
uncheon	-12.132
▁identifica	-12.1325
▁caesarea	-12.1328
aldi	-12.1328
harmony	-12.1329
visible	-12.1331
▁fugi	-12.1331
▁axe	-12.1335
plugged	-12.1338
▁implicat	-12.1339
▁tsk	-12.1339
eodor	-12.134
▁unbea	-12.1341
illiard	-12.1345
tamara	-12.1352
strung	-12.1353
cott	-12.136
▁renegotiat	-12.1365
▁hinge	-12.1371
▁congratulat	-12.1381
▁bleat	-12.1397
apple	-12.1405
