<unk>	0
<s>	0
</s>	0
s	-3.00818
ing	-4.25655
e	-4.40751
ed	-4.46884
t	-4.56205
d	-4.58579
▁im	-4.7593
n	-4.82913
y	-4.84436
▁know	-4.85741
er	-4.86726
▁dont	-4.91473
▁	-4.94473
▁get	-5.05912
r	-5.06696
▁go	-5.07209
a	-5.13147
g	-5.16878
▁like	-5.20725
u	-5.23599
▁right	-5.23922
in	-5.26585
p	-5.30775
▁youre	-5.30843
▁come	-5.30913
▁got	-5.35483
▁yeah	-5.39864
m	-5.40325
o	-5.43674
▁na	-5.45693
▁one	-5.45695
i	-5.48177
c	-5.48772
▁oh	-5.49186
b	-5.4961
▁well	-5.49721
▁thats	-5.50757
▁l	-5.58294
ly	-5.58336
▁want	-5.59133
▁s	-5.60216
▁okay	-5.61314
al	-5.62028
▁good	-5.66127
▁see	-5.68857
▁think	-5.73927
▁hey	-5.76741
▁man	-5.78084
▁look	-5.81963
▁back	-5.84386
h	-5.84416
v	-5.84497
le	-5.85079
▁gon	-5.8555
▁us	-5.86442
w	-5.88251
or	-5.88375
▁take	-5.89071
▁going	-5.89072
f	-5.89651
▁time	-5.89745
it	-5.9165
▁need	-5.91901
k	-5.92193
on	-5.92371
ar	-5.94642
an	-5.94689
▁yes	-6.00066
▁hes	-6.04905
▁say	-6.06593
▁cant	-6.06992
▁c	-6.08227
▁w	-6.08896
▁tell	-6.11962
▁ill	-6.12303
▁would	-6.13442
es	-6.14381
▁re	-6.15672
l	-6.15855
▁make	-6.16521
▁mean	-6.1738
re	-6.17497
▁a	-6.18972
en	-6.19085
▁really	-6.21275
ri	-6.21971
▁way	-6.24156
▁could	-6.24157
▁de	-6.24185
ch	-6.25571
▁love	-6.25667
▁let	-6.2671
▁p	-6.30924
▁sir	-6.30959
▁didnt	-6.31275
▁f	-6.33923
ra	-6.3468
ion	-6.34928
▁never	-6.36082
▁something	-6.36514
▁whats	-6.37045
▁lets	-6.37176
▁in	-6.3745
▁st	-6.38494
sp	-6.38772
▁thank	-6.3962
ic	-6.40712
at	-6.41502
z	-6.42344
▁b	-6.44679
▁sorry	-6.45052
il	-6.45282
el	-6.45779
▁little	-6.4613
▁please	-6.46976
ie	-6.47896
et	-6.49789
ter	-6.50402
ve	-6.50906
▁give	-6.51704
▁t	-6.53023
ent	-6.53051
▁ta	-6.54632
▁car	-6.54919
▁even	-6.55491
▁two	-6.55728
▁theres	-6.55995
▁people	-6.56259
ur	-6.57427
▁ive	-6.57538
ro	-6.57586
▁god	-6.57655
ation	-6.58261
▁mr	-6.58614
▁help	-6.59372
▁call	-6.59691
▁work	-6.60782
ne	-6.60814
th	-6.6104
▁said	-6.63903
▁stop	-6.65854
st	-6.66146
▁m	-6.66439
▁thing	-6.67313
▁j	-6.68363
▁ho	-6.68693
ce	-6.70012
▁wait	-6.70681
▁uh	-6.7212
▁hi	-6.72281
ol	-6.72296
▁life	-6.72579
▁new	-6.74276
▁day	-6.74332
▁nb	-6.74508
▁find	-6.74647
is	-6.74744
▁home	-6.74882
▁k	-6.75437
▁much	-6.75493
▁keep	-6.77233
▁guys	-6.7776
▁sure	-6.77796
▁e	-6.78692
▁great	-6.79226
ll	-6.8133
▁put	-6.81372
▁theyre	-6.816
la	-6.81662
▁con	-6.81756
est	-6.81946
▁o	-6.82618
▁anything	-6.82982
▁be	-6.83379
us	-6.83468
▁miss	-6.83817
am	-6.85361
▁ma	-6.85739
▁g	-6.86537
▁maybe	-6.88011
ers	-6.89083
li	-6.89177
▁mo	-6.89249
▁still	-6.8938
▁first	-6.89826
ate	-6.89961
▁feel	-6.89964
age	-6.90501
▁must	-6.9139
id	-6.9152
▁night	-6.91759
▁kill	-6.92336
▁shes	-6.92554
x	-6.92637
▁stay	-6.92864
▁po	-6.93281
ment	-6.93454
▁name	-6.94092
ty	-6.95561
▁long	-6.95641
▁talk	-6.95746
▁th	-6.97538
▁thought	-6.97665
ck	-6.98113
▁sh	-6.9836
▁bu	-6.98374
▁last	-6.98763
▁hell	-6.98878
▁ro	-6.98909
te	-6.99555
ir	-7.00849
▁move	-7.01187
▁better	-7.01323
▁ever	-7.0143
▁ch	-7.01474
▁leave	-7.01477
▁nothing	-7.02319
▁la	-7.0234
ke	-7.02799
ies	-7.03179
▁guy	-7.03729
▁pro	-7.04327
lo	-7.04598
▁di	-7.04712
▁mar	-7.04776
▁always	-7.04885
ow	-7.05214
ul	-7.05225
▁music	-7.05758
▁away	-7.0581
ist	-7.05844
▁show	-7.0651
▁everything	-7.07298
▁kind	-7.07304
ive	-7.07645
▁place	-7.07742
▁co	-7.08247
sh	-7.08504
▁mom	-7.0879
▁listen	-7.09316
▁around	-7.09542
▁da	-7.09737
▁se	-7.10761
ant	-7.11351
▁play	-7.11653
as	-7.11711
▁big	-7.11762
▁un	-7.11928
▁believe	-7.12537
▁old	-7.12749
▁youve	-7.13241
ver	-7.13414
un	-7.13835
▁world	-7.14665
▁gr	-7.15969
▁live	-7.16536
▁wan	-7.16546
ig	-7.16683
▁left	-7.17087
um	-7.18009
▁ha	-7.18103
▁shit	-7.18159
▁id	-7.18212
▁dad	-7.18413
▁lot	-7.18879
▁money	-7.19065
▁care	-7.19163
▁hold	-7.19339
▁hear	-7.19362
▁h	-7.19553
▁done	-7.19952
▁every	-7.20722
▁coming	-7.20765
▁head	-7.20973
▁lo	-7.21063
▁do	-7.21109
▁boy	-7.21646
▁told	-7.21897
▁girl	-7.22036
▁doesnt	-7.22361
na	-7.22713
▁ready	-7.22815
▁three	-7.22882
▁nice	-7.23185
▁made	-7.23608
▁r	-7.23715
▁turn	-7.24713
▁years	-7.25977
ta	-7.26243
▁dr	-7.26768
▁hard	-7.26795
▁plan	-7.2686
▁may	-7.26887
ad	-7.27531
▁son	-7.28735
▁hello	-7.2961
▁door	-7.29886
de	-7.2993
ill	-7.30084
▁family	-7.3014
▁ra	-7.30375
▁thanks	-7.30381
▁things	-7.30594
▁came	-7.3077
ac	-7.30848
▁might	-7.3098
▁win	-7.3099
▁ask	-7.31362
▁al	-7.31406
▁cl	-7.31579
ng	-7.31756
▁bad	-7.32067
▁v	-7.32576
▁wont	-7.33268
▁ba	-7.33487
▁to	-7.33684
▁real	-7.33867
▁youll	-7.34414
▁watch	-7.34415
ure	-7.34622
▁war	-7.34852
▁open	-7.35083
▁bo	-7.35234
▁playing	-7.35915
▁cha	-7.36118
ia	-7.36599
▁tra	-7.36662
▁fine	-7.36757
▁enough	-7.3679
▁happen	-7.36802
▁course	-7.37069
ance	-7.3742
▁fight	-7.37669
▁remember	-7.37669
▁someone	-7.37669
▁em	-7.38097
ting	-7.38195
▁house	-7.3865
ut	-7.38961
▁meet	-7.39015
▁ah	-7.39137
▁ass	-7.40047
▁friend	-7.40088
ian	-7.40105
man	-7.40636
▁start	-7.41033
able	-7.41518
▁close	-7.4167
▁mother	-7.41734
▁kid	-7.41899
▁father	-7.41995
ity	-7.42257
▁brother	-7.42306
▁dead	-7.42536
▁wrong	-7.43234
▁another	-7.43553
▁today	-7.43582
▁fl	-7.43843
▁huh	-7.44399
co	-7.45498
▁end	-7.4561
▁um	-7.45821
▁mind	-7.45834
▁sc	-7.46014
▁bring	-7.46163
ry	-7.46171
▁te	-7.46413
▁best	-7.46456
▁tonight	-7.46803
▁sha	-7.46825
▁run	-7.47232
▁le	-7.47585
▁no	-7.48095
▁else	-7.48163
▁talking	-7.4818
▁woman	-7.48457
ful	-7.48604
▁phone	-7.49128
▁mi	-7.50258
▁school	-7.50486
▁found	-7.50487
▁so	-7.50568
▁fire	-7.50729
▁he	-7.50761
▁next	-7.51173
end	-7.52041
▁check	-7.52561
▁guess	-7.5257
▁room	-7.52641
▁wanted	-7.52986
▁isnt	-7.53612
me	-7.53894
▁understand	-7.53965
▁die	-7.5429
▁second	-7.54319
▁baby	-7.54323
▁men	-7.54524
ine	-7.55017
▁damn	-7.55038
▁getting	-7.5526
▁trying	-7.55338
ph	-7.55738
▁cause	-7.55762
im	-7.56047
▁vi	-7.56178
▁job	-7.56544
▁knew	-7.56838
up	-7.57062
ip	-7.57471
▁bar	-7.57927
▁try	-7.58177
ence	-7.5839
ma	-7.58451
▁pre	-7.58466
▁ad	-7.59006
▁week	-7.5909
▁game	-7.59479
▁part	-7.59784
▁sighs	-7.60171
no	-7.60272
▁looking	-7.603
▁ca	-7.60339
▁aint	-7.60571
▁inter	-7.60731
▁fr	-7.60763
▁com	-7.61012
▁bl	-7.61027
▁dis	-7.61625
▁morning	-7.61689
▁bit	-7.62019
▁gun	-7.62193
ca	-7.6228
ap	-7.62477
▁am	-7.62515
mo	-7.62563
ast	-7.62787
▁ne	-7.62798
▁whole	-7.62843
oo	-7.63307
ell	-7.63782
po	-7.63819
▁saw	-7.63866
▁hand	-7.64112
▁heart	-7.64219
▁where	-7.64405
▁change	-7.64434
▁hit	-7.64752
▁problem	-7.64796
▁many	-7.6483
▁everyone	-7.64852
▁happened	-7.65148
▁chuckles	-7.6574
ton	-7.65766
▁wasnt	-7.65987
▁pretty	-7.66388
▁weve	-7.66395
▁pass	-7.66625
bo	-7.66676
if	-7.66727
ci	-7.67049
▁actually	-7.67192
▁ex	-7.67289
mp	-7.67334
que	-7.67354
▁jo	-7.67393
ick	-7.67542
▁du	-7.67689
▁together	-7.68003
▁an	-7.68152
ot	-7.68322
▁me	-7.68364
▁walk	-7.68424
▁whos	-7.69242
▁word	-7.69246
ise	-7.6935
▁far	-7.69481
▁bra	-7.69976
▁cut	-7.70066
▁high	-7.70482
he	-7.70893
▁already	-7.70895
▁everybody	-7.70895
om	-7.71007
▁idea	-7.71032
▁pay	-7.71222
ok	-7.71234
tion	-7.71338
▁seen	-7.71791
▁hot	-7.7189
ther	-7.72025
▁heard	-7.72652
▁hands	-7.73013
▁excuse	-7.73014
▁safe	-7.73472
▁hurt	-7.73885
▁gu	-7.74126
▁hope	-7.74814
bb	-7.74817
▁use	-7.7482
tor	-7.74858
▁speak	-7.75069
▁city	-7.75083
▁met	-7.75132
▁act	-7.75218
▁clear	-7.75626
▁wouldnt	-7.76099
▁went	-7.76413
j	-7.7642
▁without	-7.765
ling	-7.77097
▁mine	-7.77313
▁read	-7.77447
tic	-7.77455
ard	-7.77796
▁ga	-7.77863
▁lost	-7.78162
▁five	-7.78351
▁hu	-7.78768
▁took	-7.79273
son	-7.79701
ak	-7.79742
▁water	-7.80129
▁deal	-7.8051
▁anyone	-7.80574
▁ab	-7.807
▁stand	-7.80711
▁pr	-7.80808
▁sa	-7.81074
▁pa	-7.8115
▁shot	-7.81165
▁team	-7.81187
op	-7.81445
▁drink	-7.81506
▁dance	-7.81518
▁killed	-7.81556
less	-7.81608
▁ru	-7.8187
und	-7.81926
▁grunts	-7.81969
▁fun	-7.82218
▁true	-7.82438
▁ri	-7.82742
▁eat	-7.82781
be	-7.82872
▁rest	-7.8301
ake	-7.83139
▁alright	-7.83411
▁power	-7.83871
▁yet	-7.84362
▁easy	-7.84822
ary	-7.84828
and	-7.85021
▁fe	-7.85154
▁crazy	-7.85302
▁blood	-7.85303
▁face	-7.85417
▁en	-7.85446
▁question	-7.85788
▁ok	-7.86091
▁sl	-7.86302
▁line	-7.86349
ha	-7.86561
▁pick	-7.8658
▁point	-7.86784
▁alone	-7.87818
▁four	-7.879
▁joe	-7.87923
q	-7.88039
▁light	-7.88188
▁party	-7.88297
▁saying	-7.885
ah	-7.88952
▁called	-7.88993
ho	-7.88994
▁ball	-7.89198
▁tomorrow	-7.89253
▁matter	-7.89259
▁ju	-7.89513
▁stuff	-7.89842
▁year	-7.8988
▁train	-7.90153
▁shut	-7.90443
▁drive	-7.90449
▁soon	-7.90697
▁break	-7.90777
▁sign	-7.90784
▁lead	-7.90921
▁friends	-7.91317
cy	-7.92018
to	-7.92271
▁gone	-7.92297
▁sleep	-7.92323
▁whoa	-7.92324
ress	-7.92588
▁air	-7.92719
▁el	-7.93429
ny	-7.94478
▁pat	-7.94949
▁case	-7.95072
▁seem	-7.95078
▁nobody	-7.95489
▁welcome	-7.96027
▁follow	-7.96027
▁couldnt	-7.96072
▁lm	-7.96192
all	-7.96218
ated	-7.96222
▁book	-7.96268
▁cool	-7.96334
▁captain	-7.96568
▁young	-7.96568
▁youd	-7.96571
▁shoot	-7.96572
for	-7.96581
dge	-7.96662
▁death	-7.97664
▁inside	-7.97735
▁happy	-7.98207
em	-7.9826
▁dog	-7.9888
ous	-7.99199
▁late	-7.99801
ish	-7.99866
▁business	-7.99874
▁used	-7.99875
▁havent	-7.99875
▁girls	-8.00023
▁eyes	-8.00152
▁forget	-8.00435
▁whatever	-8.00435
▁police	-8.00437
ness	-8.00493
▁full	-8.00532
▁i	-8.00591
ore	-8.008
▁days	-8.01173
▁ti	-8.01203
▁engine	-8.01569
▁wife	-8.01573
▁spanish	-8.0214
▁worry	-8.02141
gu	-8.02332
▁six	-8.02719
▁since	-8.02723
ack	-8.03821
▁ago	-8.03906
▁report	-8.04038
▁probably	-8.04459
▁black	-8.04515
▁sun	-8.04733
▁fall	-8.04781
ade	-8.04981
▁trust	-8.05047
▁up	-8.05136
▁beautiful	-8.05639
▁somebody	-8.05639
king	-8.0567
▁aye	-8.05701
▁bill	-8.06013
▁order	-8.06235
▁va	-8.0666
▁jack	-8.06976
▁free	-8.07035
▁wish	-8.07087
▁minutes	-8.07407
▁promise	-8.07436
▁mu	-8.07551
▁per	-8.08176
ven	-8.08312
cu	-8.08324
▁bat	-8.08387
▁arm	-8.087
per	-8.08941
ough	-8.09012
ward	-8.09045
▁red	-8.09325
▁send	-8.09405
▁set	-8.09439
▁sit	-8.09617
▁ow	-8.09863
our	-8.10037
▁fa	-8.10171
▁lose	-8.10256
▁hate	-8.10359
▁kids	-8.10401
▁pe	-8.10411
▁later	-8.10472
▁dream	-8.10506
▁minute	-8.10532
▁chance	-8.10697
▁continues	-8.10866
▁answer	-8.11128
▁app	-8.1117
▁side	-8.11522
▁har	-8.12225
▁working	-8.12506
▁fi	-8.12589
▁gave	-8.12614
▁chatter	-8.13031
▁protect	-8.13036
▁master	-8.13061
▁wow	-8.13069
▁ten	-8.13114
ally	-8.13256
▁moment	-8.13791
▁making	-8.13798
▁taking	-8.1385
▁supposed	-8.14
▁chi	-8.14128
min	-8.14163
▁bet	-8.14282
▁street	-8.14315
▁jake	-8.14494
▁hang	-8.145
ba	-8.14529
ock	-8.14759
▁half	-8.14967
▁exp	-8.15057
▁ship	-8.15075
ction	-8.15518
▁step	-8.15555
ious	-8.1559
▁speaking	-8.15781
▁secret	-8.16274
▁number	-8.16946
▁ahead	-8.17007
ile	-8.17311
▁funny	-8.17665
one	-8.17727
▁pi	-8.18112
▁murder	-8.18274
▁lady	-8.18307
▁ben	-8.18338
▁white	-8.18371
▁laughs	-8.18524
▁afraid	-8.1895
▁grunting	-8.1895
▁grow	-8.19199
▁state	-8.19203
▁pain	-8.19302
▁town	-8.19639
▁lie	-8.19639
▁also	-8.19684
▁count	-8.20266
▁exactly	-8.20315
io	-8.20346
▁sally	-8.20396
▁drop	-8.20644
ize	-8.20797
▁star	-8.20842
▁laughing	-8.20885
▁perfect	-8.21004
▁hmm	-8.2101
▁pull	-8.21012
▁tri	-8.21314
▁bro	-8.21553
▁cap	-8.21705
▁fast	-8.21872
▁lock	-8.21996
▁sent	-8.22491
▁person	-8.2357
▁though	-8.23601
▁throw	-8.23815
▁honey	-8.23817
▁story	-8.23833
▁least	-8.23933
▁buy	-8.24384
▁important	-8.24527
▁camp	-8.24635
▁catch	-8.24656
▁boys	-8.24889
▁gar	-8.25336
▁rec	-8.25474
day	-8.26565
▁waiting	-8.26862
▁whi	-8.27228
▁leg	-8.2738
▁reason	-8.2744
▁anymore	-8.28176
▁comp	-8.2827
out	-8.28728
▁land	-8.28912
▁voice	-8.28922
▁thinking	-8.29052
ial	-8.29222
▁op	-8.2948
▁behind	-8.29674
▁almost	-8.29674
▁rock	-8.30103
▁hall	-8.30144
▁enola	-8.30434
▁ooh	-8.30441
▁body	-8.30453
▁ni	-8.30563
▁trouble	-8.31195
▁truth	-8.31195
▁return	-8.31195
▁figure	-8.31196
▁finish	-8.31196
port	-8.31283
▁stupid	-8.31964
▁child	-8.3197
▁blow	-8.32146
▁laugh	-8.32676
▁anyway	-8.3274
ez	-8.32971
▁alive	-8.3299
▁ski	-8.33047
▁ladies	-8.33525
▁save	-8.33702
ley	-8.34311
▁class	-8.34325
▁arent	-8.34328
▁james	-8.35103
▁learn	-8.35107
▁beat	-8.35273
▁bed	-8.3607
lic	-8.36337
ition	-8.36349
ome	-8.36434
▁charlie	-8.36708
▁different	-8.36708
▁hurry	-8.36709
▁touch	-8.36711
▁over	-8.36724
▁slow	-8.36863
▁mark	-8.36877
▁gl	-8.37452
▁running	-8.37549
▁asked	-8.37607
▁cru	-8.37627
▁write	-8.37649
▁yo	-8.38324
ler	-8.38334
▁jimmy	-8.38341
▁fact	-8.38407
light	-8.38447
▁feeling	-8.38849
▁tried	-8.38927
▁outside	-8.39182
ating	-8.39323
▁mess	-8.39646
▁officer	-8.39789
▁sal	-8.39819
▁wear	-8.40044
▁human	-8.40118
▁king	-8.40124
▁carl	-8.40617
▁ride	-8.40707
▁country	-8.40917
way	-8.40921
▁rat	-8.41723
▁office	-8.41904
▁gi	-8.42144
▁christ	-8.42248
▁theyll	-8.42543
old	-8.42616
▁ya	-8.4265
▁hours	-8.42682
▁goes	-8.42711
▁join	-8.42818
▁sound	-8.42846
ught	-8.42951
▁test	-8.43122
▁started	-8.43218
▁john	-8.43367
▁indistinct	-8.43405
▁ghost	-8.43405
▁couple	-8.43406
▁seven	-8.43535
▁ear	-8.436
time	-8.43896
▁wonder	-8.44218
▁doctor	-8.44275
▁jesus	-8.44277
▁control	-8.45152
▁box	-8.45455
▁dear	-8.4579
▁quite	-8.45848
▁sweet	-8.45878
▁anybody	-8.46037
▁picture	-8.46037
▁victor	-8.46037
▁quick	-8.46065
▁died	-8.46182
▁san	-8.46468
▁complete	-8.46931
▁force	-8.46938
▁paul	-8.47122
▁harlan	-8.47138
▁out	-8.47291
▁america	-8.47626
▁cop	-8.4763
▁married	-8.47841
▁charge	-8.4785
▁lts	-8.47855
▁kiss	-8.47869
▁jet	-8.47924
▁cheer	-8.48328
▁fly	-8.48709
▁expect	-8.4874
▁living	-8.4874
▁strong	-8.48741
▁col	-8.4943
▁choice	-8.49657
▁front	-8.49665
▁blue	-8.49694
ject	-8.49723
▁peter	-8.49931
▁aw	-8.50183
▁sw	-8.50251
▁cor	-8.50293
▁top	-8.50435
▁detective	-8.50583
▁parents	-8.50583
▁jump	-8.50678
▁screaming	-8.50856
▁sounds	-8.51305
▁nu	-8.51345
▁president	-8.51518
▁straight	-8.51518
▁clean	-8.51537
▁attack	-8.51538
▁past	-8.51581
▁panting	-8.51596
▁shoe	-8.51636
▁luck	-8.5168
▁careful	-8.51737
▁bell	-8.51782
▁record	-8.52465
▁movie	-8.52468
▁horse	-8.52472
▁sister	-8.52486
▁suit	-8.5249
▁marta	-8.52808
▁cell	-8.53071
▁rule	-8.53262
▁special	-8.53413
▁contact	-8.53413
▁million	-8.53415
▁boo	-8.53648
▁cover	-8.53933
▁pen	-8.53977
▁can	-8.54224
▁normal	-8.54375
▁gentlemen	-8.54376
▁moving	-8.54397
▁direct	-8.54421
▁fair	-8.54708
▁near	-8.55052
▁fell	-8.551
▁hero	-8.55105
▁cry	-8.55117
▁wall	-8.5517
▁teach	-8.55363
▁deep	-8.55429
▁message	-8.55465
rate	-8.55581
▁law	-8.5569
▁rid	-8.55863
▁enjoy	-8.56326
▁sometimes	-8.56326
▁food	-8.56331
▁sense	-8.56341
▁brought	-8.56358
▁burn	-8.56361
▁pop	-8.56611
▁sam	-8.56616
air	-8.56718
rie	-8.56971
▁itll	-8.5733
▁kidding	-8.57362
▁sub	-8.57372
▁key	-8.57402
▁months	-8.57478
▁american	-8.57542
▁mon	-8.57605
▁kick	-8.57626
▁fish	-8.57789
▁dom	-8.57982
▁york	-8.58319
▁bird	-8.58324
▁daddy	-8.58349
▁roll	-8.58969
▁till	-8.59061
ship	-8.59089
▁low	-8.59169
▁ken	-8.59179
▁shouldnt	-8.59326
▁surprise	-8.59326
▁become	-8.59329
▁worth	-8.59331
▁park	-8.59353
wood	-8.59743
▁hair	-8.59788
▁shall	-8.59857
▁pack	-8.59884
▁henry	-8.60349
▁dark	-8.60355
▁gasps	-8.6037
▁bag	-8.60576
off	-8.60859
▁bitch	-8.6087
▁cheering	-8.6093
▁piece	-8.61382
▁def	-8.62418
▁husband	-8.62419
▁super	-8.62434
▁serious	-8.63095
▁radio	-8.63473
▁soft	-8.63481
▁travel	-8.63489
uff	-8.64034
▁future	-8.64536
▁along	-8.64544
▁yell	-8.64552
▁scared	-8.64555
▁sim	-8.64738
▁table	-8.65079
▁maam	-8.65184
▁fan	-8.65249
▁mad	-8.6542
▁leaving	-8.65611
▁knock	-8.65613
▁small	-8.65616
▁allow	-8.65681
▁lord	-8.657
▁bye	-8.65719
▁weapon	-8.66698
▁eight	-8.66698
▁goddamn	-8.66698
▁seat	-8.66726
mmy	-8.66914
▁tv	-8.67149
▁ve	-8.67285
▁scream	-8.67475
▁breathing	-8.67503
▁children	-8.67801
▁honor	-8.67821
▁crowd	-8.68908
▁ground	-8.68909
▁fool	-8.68916
▁beep	-8.68945
▁stole	-8.69078
▁heres	-8.69189
▁unit	-8.69422
▁cat	-8.69801
lng	-8.69876
▁suck	-8.70043
▁hows	-8.70156
▁temp	-8.70235
▁miles	-8.70371
▁feet	-8.70451
pping	-8.7062
▁eye	-8.70684
▁pur	-8.7075
ii	-8.70998
▁goodbye	-8.71169
▁either	-8.71169
▁agent	-8.71186
▁short	-8.71202
▁pan	-8.71253
com	-8.71274
▁dude	-8.714
▁operat	-8.71729
▁perhaps	-8.72318
▁women	-8.72322
▁art	-8.72571
▁road	-8.72758
▁personal	-8.72821
▁scar	-8.72922
▁copy	-8.73358
▁smart	-8.73481
▁window	-8.73484
▁joke	-8.73505
▁miller	-8.73513
▁port	-8.73647
▁ran	-8.737
▁range	-8.73888
▁player	-8.74284
▁target	-8.74657
▁squa	-8.74657
▁cross	-8.74662
▁offer	-8.74664
▁north	-8.74666
▁push	-8.74667
▁grab	-8.74703
▁johnny	-8.74716
▁walt	-8.74902
▁entire	-8.75847
▁forever	-8.75848
▁fault	-8.75849
▁crew	-8.75856
iff	-8.76089
▁bang	-8.76165
▁soul	-8.76173
▁roman	-8.76516
▁boss	-8.76876
▁hour	-8.76946
▁spirit	-8.77052
▁bridge	-8.77053
▁shouting	-8.77054
▁peace	-8.77055
▁fuck	-8.77057
▁uncle	-8.77058
▁floor	-8.77061
▁honest	-8.77064
▁sick	-8.77085
▁nick	-8.77209
▁gold	-8.77306
▁none	-8.77983
▁mm	-8.78036
▁lucky	-8.78071
▁able	-8.78205
▁heavily	-8.78272
▁dinner	-8.78272
▁daughter	-8.78273
▁decide	-8.7828
▁south	-8.78286
right	-8.78716
▁early	-8.78822
▁carry	-8.78851
▁certain	-8.79506
▁respect	-8.79506
▁escape	-8.79506
▁mistake	-8.79507
▁worse	-8.79509
▁yu	-8.79513
▁foot	-8.79518
▁form	-8.79529
▁para	-8.79544
▁under	-8.79569
▁sex	-8.80057
▁building	-8.80164
▁butt	-8.80225
▁hide	-8.80323
side	-8.80327
▁sad	-8.80445
▁truck	-8.80756
▁mouth	-8.80763
▁gift	-8.80764
▁court	-8.80771
▁quiet	-8.80834
▁rain	-8.80853
▁pal	-8.81116
▁station	-8.8113
▁ann	-8.81236
▁base	-8.81341
▁boat	-8.81661
land	-8.81969
▁dangerous	-8.82038
▁glad	-8.82152
▁sort	-8.82155
▁fix	-8.8222
▁reach	-8.82248
▁breathe	-8.82367
iva	-8.82371
▁track	-8.82417
▁age	-8.82568
▁stick	-8.82616
▁less	-8.82661
▁fear	-8.82774
▁birthday	-8.83304
▁gllllan	-8.83304
▁possible	-8.83304
▁belong	-8.83305
▁buddy	-8.83305
▁freak	-8.83307
▁company	-8.83308
▁dress	-8.83388
▁grand	-8.83507
▁fail	-8.83681
▁max	-8.8401
▁forgot	-8.84603
▁theyve	-8.84603
▁relax	-8.84604
▁angel	-8.8461
▁earth	-8.84814
▁song	-8.8504
▁aj	-8.85225
▁letter	-8.85521
▁bow	-8.85538
▁definitely	-8.85919
▁groans	-8.85919
▁bobby	-8.8592
▁command	-8.85922
▁aunt	-8.85933
▁others	-8.85937
▁saved	-8.86318
▁rich	-8.86444
▁plu	-8.86717
▁mil	-8.86845
▁hospital	-8.87252
▁somewhere	-8.87252
▁david	-8.87254
▁ethan	-8.87255
▁mister	-8.87295
▁board	-8.87464
▁mmm	-8.87776
▁her	-8.88108
▁cost	-8.88368
ium	-8.88384
▁weird	-8.88603
▁except	-8.88603
▁bank	-8.88622
▁notice	-8.88679
▁swim	-8.88689
▁paper	-8.88733
mber	-8.88859
▁memo	-8.8887
▁strange	-8.89975
over	-8.90186
▁marry	-8.90374
▁band	-8.90519
▁singing	-8.90561
▁final	-8.91011
▁dragon	-8.91362
▁service	-8.91362
▁champion	-8.91362
▁whoo	-8.91378
▁cold	-8.91957
▁dick	-8.9196
▁poor	-8.91981
▁accept	-8.9277
▁sweetwater	-8.9277
▁screw	-8.92773
▁island	-8.92773
▁bike	-8.92776
▁extra	-8.92777
▁medic	-8.92796
▁spot	-8.92798
▁present	-8.92801
▁richard	-8.92819
▁member	-8.92821
▁totally	-8.92976
▁finger	-8.93089
▁paid	-8.93108
▁finally	-8.93162
▁tom	-8.93312
▁race	-8.93662
▁tour	-8.93868
▁major	-8.942
▁crime	-8.94201
▁agree	-8.94206
▁swear	-8.94206
▁felt	-8.94228
▁bearing	-8.94229
▁spa	-8.94246
▁ringing	-8.94323
▁guard	-8.94353
▁batman	-8.94353
▁tony	-8.94465
▁sell	-8.95004
▁handle	-8.9558
▁hundred	-8.95648
▁favorite	-8.95651
▁prison	-8.95652
▁search	-8.95652
▁drug	-8.95665
▁blind	-8.95669
▁self	-8.95677
▁all	-8.9574
▁space	-8.9578
▁unless	-8.9591
▁mama	-8.96111
▁fat	-8.96638
▁driving	-8.97119
▁english	-8.97119
▁soldier	-8.97119
▁history	-8.97119
▁communi	-8.97119
▁frank	-8.97122
▁draw	-8.97128
▁smell	-8.97128
▁green	-8.97139
▁russia	-8.9716
▁hunt	-8.97295
▁date	-8.9772
▁west	-8.97908
▁male	-8.98075
▁accident	-8.98611
▁obvious	-8.98611
▁private	-8.98611
▁folks	-8.98612
▁deserve	-8.98613
▁lam	-8.98617
▁crack	-8.98619
▁spend	-8.98626
▁abby	-8.98628
▁ii	-8.98667
▁steal	-8.98685
▁cast	-8.9882
▁mandi	-8.98888
down	-8.98955
▁stone	-8.99164
ically	-8.99235
line	-9.00033
▁absolutely	-9.00126
▁clothes	-9.00126
▁security	-9.00126
▁animal	-9.00127
▁german	-9.00131
▁visit	-9.00189
▁lisa	-9.00578
▁zo	-9.01544
▁share	-9.01599
▁girlfriend	-9.01665
▁destroy	-9.01665
▁explain	-9.01666
▁alex	-9.01677
▁caught	-9.01759
▁trip	-9.01807
▁realize	-9.01815
▁cash	-9.02094
▁broken	-9.02421
▁eli	-9.02656
▁month	-9.03205
▁double	-9.03227
▁machine	-9.03229
▁harvey	-9.0323
▁giving	-9.03235
▁film	-9.0324
▁wash	-9.03243
▁igor	-9.03246
▁tires	-9.03266
lock	-9.03916
▁across	-9.04815
▁system	-9.04815
▁imagine	-9.04815
▁switch	-9.04816
▁wedding	-9.04818
▁devil	-9.04822
ept	-9.04842
▁calm	-9.04851
▁tired	-9.04857
▁kept	-9.04939
▁beach	-9.04943
ible	-9.04945
▁busy	-9.05131
▁dare	-9.05235
▁raise	-9.05358
▁att	-9.057
▁quit	-9.05812
▁pig	-9.05924
▁account	-9.06428
▁anywhere	-9.06428
▁tight	-9.06428
▁church	-9.0643
▁hasnt	-9.0643
▁club	-9.0645
▁born	-9.06487
▁coach	-9.06559
▁sitting	-9.06644
▁tough	-9.07199
▁broke	-9.07546
▁boyfriend	-9.08067
▁exhales	-9.08067
▁forgive	-9.08067
▁screech	-9.08067
▁gordon	-9.08068
▁remind	-9.08073
▁treat	-9.08088
▁information	-9.08133
▁round	-9.08407
ache	-9.0859
▁wake	-9.08918
▁amazing	-9.09734
▁sheila	-9.09734
▁electric	-9.09737
▁smile	-9.0974
▁position	-9.09744
▁yard	-9.09769
▁pirate	-9.0979
▁yall	-9.09972
▁shell	-9.10195
▁mike	-9.10203
▁rick	-9.10408
▁awesome	-9.11429
▁coffee	-9.11429
▁middle	-9.11429
▁general	-9.11429
▁speed	-9.11433
▁threat	-9.11434
▁invite	-9.11437
▁tessa	-9.11437
▁aaron	-9.11442
▁impress	-9.11442
▁risk	-9.11512
▁phil	-9.11543
▁trick	-9.11656
▁block	-9.11748
▁store	-9.12095
▁suspect	-9.13153
▁instead	-9.13153
▁rudder	-9.13153
▁dancing	-9.13153
▁heaven	-9.13154
▁yesterday	-9.13154
▁darling	-9.13155
▁punch	-9.13156
▁consider	-9.13156
▁idiot	-9.13156
▁crash	-9.13157
▁seriously	-9.13785
ility	-9.14107
hood	-9.14347
▁college	-9.14907
▁focus	-9.14907
▁falcon	-9.14908
▁yep	-9.1491
▁shadow	-9.14913
▁desert	-9.14914
▁glass	-9.14922
▁snake	-9.14922
▁qua	-9.14927
▁gym	-9.14943
▁scene	-9.14949
▁roger	-9.14955
▁magic	-9.15032
▁single	-9.15065
▁field	-9.15436
▁color	-9.15486
▁tewkesbury	-9.16693
▁london	-9.16693
▁psych	-9.16694
▁flower	-9.16703
▁curse	-9.16737
▁tiger	-9.16755
▁fort	-9.17743
▁fill	-9.18157
▁arrest	-9.18511
▁attention	-9.18511
▁asshole	-9.18512
▁bullet	-9.18513
▁computer	-9.18515
▁support	-9.18516
▁scoffs	-9.18516
▁derek	-9.18522
▁fbi	-9.18543
▁wild	-9.18548
▁proud	-9.18557
▁create	-9.18616
▁exist	-9.18923
▁summer	-9.20363
▁social	-9.20365
▁bomb	-9.20379
▁local	-9.20384
▁partner	-9.20416
▁judge	-9.20498
▁scout	-9.20521
▁sweetie	-9.20703
▁dent	-9.20737
▁afternoon	-9.2225
▁appreciate	-9.2225
▁michael	-9.2225
▁survive	-9.2225
▁linda	-9.22251
▁average	-9.22251
▁situation	-9.22252
▁simple	-9.22254
▁loose	-9.22268
▁sharon	-9.22273
▁match	-9.22275
▁werent	-9.22276
▁bigger	-9.22286
▁area	-9.22286
▁martin	-9.22304
▁sky	-9.22334
▁proper	-9.22565
▁gang	-9.22576
▁continue	-9.23049
▁kyl	-9.23492
what	-9.24103
▁breath	-9.24165
▁linnet	-9.24173
▁female	-9.24174
▁deliver	-9.24174
▁group	-9.24175
▁irish	-9.24177
▁loud	-9.24214
▁grandpa	-9.24218
▁suppose	-9.25119
work	-9.25438
▁note	-9.25486
▁sara	-9.259
▁basketball	-9.26134
▁bathroom	-9.26134
▁difference	-9.26134
▁bastard	-9.26134
▁wonderful	-9.26263
▁cook	-9.26581
▁challenge	-9.28133
▁decision	-9.28134
▁worried	-9.28134
▁arrive	-9.28134
▁quarter	-9.28135
▁ticket	-9.28135
▁bourne	-9.28136
▁forward	-9.28136
▁choose	-9.28136
▁jaden	-9.28139
▁besides	-9.28142
▁gotham	-9.28169
head	-9.28233
▁vote	-9.28247
▁tree	-9.28323
▁waste	-9.28405
eek	-9.29411
▁beginning	-9.30174
▁mmhmm	-9.30174
▁practice	-9.30174
▁chicken	-9.30176
▁spoke	-9.30179
▁witch	-9.30188
▁luke	-9.30194
▁price	-9.30213
▁experience	-9.32258
▁francis	-9.32258
▁terrible	-9.32258
▁regret	-9.32258
▁throat	-9.3226
▁buzz	-9.3226
▁prepare	-9.32262
▁smoke	-9.32263
▁lunch	-9.32265
▁built	-9.32275
▁demon	-9.32294
ified	-9.32314
▁mention	-9.32552
▁noise	-9.32573
▁loop	-9.32638
▁shop	-9.32874
▁rathe	-9.33416
▁bernardo	-9.34385
▁chaplin	-9.34385
▁dodgeball	-9.34385
▁language	-9.34385
▁pleasure	-9.34385
▁sergeant	-9.34385
▁purpose	-9.34385
▁thousand	-9.34385
▁concern	-9.34386
▁poirot	-9.34386
▁sheriff	-9.34387
▁request	-9.34388
▁cooper	-9.34391
▁stuck	-9.34395
▁cousin	-9.34397
▁evidence	-9.36559
▁genius	-9.36559
▁sudden	-9.36559
▁groaning	-9.36559
▁drunk	-9.36561
▁video	-9.36562
▁remain	-9.36566
▁dying	-9.36569
▁garden	-9.36569
▁chief	-9.36575
▁prefer	-9.36576
▁sharp	-9.36594
▁storm	-9.36594
▁dumb	-9.3696
▁favor	-9.3878
▁greyhound	-9.38781
▁mountain	-9.38781
▁official	-9.38781
▁conversation	-9.38782
▁twenty	-9.38782
▁crown	-9.38782
▁heavy	-9.38782
▁type	-9.38784
▁third	-9.38792
▁lawyer	-9.38811
▁horn	-9.38893
▁standard	-9.39004
▁serve	-9.39498
connect	-9.40889
▁bullshit	-9.41054
▁impossible	-9.41054
▁starboard	-9.41054
▁program	-9.41054
▁whirring	-9.41054
▁repeat	-9.41055
▁siveth	-9.4106
▁corner	-9.41078
▁adele	-9.41103
▁spent	-9.41112
duct	-9.41143
▁bought	-9.41238
▁dramatic	-9.4338
▁especially	-9.4338
▁public	-9.4338
▁civil	-9.4338
▁sight	-9.4338
▁student	-9.4338
▁neither	-9.43381
▁dallas	-9.43381
▁jerry	-9.43387
▁queen	-9.43389
▁alarm	-9.4339
▁jail	-9.43394
▁correct	-9.43395
▁stopped	-9.43472
▁riff	-9.4354
▁counselor	-9.45761
▁suggest	-9.45761
▁wailing	-9.45761
▁whistle	-9.45763
▁wound	-9.45766
skull	-9.45771
▁cabin	-9.45777
▁joni	-9.45831
▁hiding	-9.46
▁taste	-9.46033
field	-9.47473
▁lieutenant	-9.482
▁within	-9.482
▁truly	-9.482
▁study	-9.48201
▁gentle	-9.48205
▁ransom	-9.48205
▁distance	-9.48205
▁christmas	-9.48209
▁gasping	-9.48216
▁fresh	-9.48217
▁talent	-9.48217
▁settle	-9.48226
▁supp	-9.48245
▁huge	-9.48328
▁chris	-9.49182
▁department	-9.507
▁treasure	-9.507
▁embarrass	-9.507
▁twice	-9.507
▁hungry	-9.507
▁elliot	-9.507
▁charles	-9.50703
▁nurse	-9.50704
▁wrote	-9.50705
▁battle	-9.50713
▁invest	-9.50715
▁worst	-9.50715
▁shirt	-9.50717
▁diana	-9.50725
▁wave	-9.50729
▁molly	-9.50731
▁luce	-9.50735
▁british	-9.53264
▁inspector	-9.53264
▁upstairs	-9.53264
▁daniel	-9.53264
▁doubt	-9.53264
▁tongue	-9.53264
▁sherlock	-9.53265
▁witness	-9.53267
▁release	-9.53267
▁stories	-9.53273
▁provide	-9.5328
▁shouts	-9.53281
▁spell	-9.53286
▁bunch	-9.53287
▁center	-9.53325
▁tape	-9.54746
▁produc	-9.5498
night	-9.55106
▁total	-9.55554
▁george	-9.55895
▁instrument	-9.55895
▁success	-9.55895
▁sanchez	-9.55896
▁device	-9.55896
▁knife	-9.55896
▁became	-9.55896
▁health	-9.55899
▁alpha	-9.559
▁text	-9.55905
▁cuba	-9.55907
▁alice	-9.55936
▁chose	-9.55937
▁nope	-9.55944
▁anti	-9.57104
▁build	-9.57183
▁danger	-9.58571
▁chuckling	-9.58598
▁confirm	-9.58598
▁congratulations	-9.58598
▁criminal	-9.58598
▁professor	-9.58598
▁strength	-9.58598
▁sweetheart	-9.58598
▁victim	-9.58598
▁william	-9.58598
▁excited	-9.58598
▁plenty	-9.58598
▁contract	-9.58598
▁perform	-9.58599
▁troop	-9.586
▁cassie	-9.58601
▁detail	-9.58602
▁screen	-9.58602
▁sobbing	-9.58604
▁limit	-9.58607
▁admit	-9.58608
▁whatd	-9.58609
▁josie	-9.58653
▁silly	-9.58663
▁jones	-9.58699
▁shark	-9.58745
▁tub	-9.5885
▁qui	-9.59984
▁custom	-9.61376
▁difficult	-9.61376
▁excellent	-9.61376
▁photograph	-9.61376
▁somehow	-9.61376
▁speech	-9.61376
▁suicide	-9.61376
▁africa	-9.61376
▁weigh	-9.61376
▁zooey	-9.61376
▁eagle	-9.61376
▁football	-9.61376
▁split	-9.61377
▁famous	-9.61378
▁wheel	-9.61379
▁rachel	-9.61379
▁engage	-9.61381
▁writing	-9.61382
▁climb	-9.61383
▁pilot	-9.61383
▁adult	-9.61387
▁clark	-9.61388
▁anita	-9.6139
▁weak	-9.61399
▁grace	-9.614
▁buried	-9.61411
▁iron	-9.61425
▁egg	-9.61434
▁crap	-9.61438
▁kahndaq	-9.64233
▁kitchen	-9.64233
▁monsieur	-9.64233
▁mycroft	-9.64233
▁responsible	-9.64233
▁shouldve	-9.64233
▁empire	-9.64233
▁steady	-9.64233
▁discuss	-9.64234
▁value	-9.64235
▁address	-9.64236
▁prince	-9.64238
▁damage	-9.6424
▁funeral	-9.64251
▁indian	-9.64251
▁bouc	-9.64255
▁doyle	-9.64259
▁monster	-9.64266
▁collect	-9.64269
▁character	-9.67174
▁introduce	-9.67174
▁duncan	-9.67174
▁spread	-9.67174
▁cloud	-9.67175
▁defense	-9.67175
▁organ	-9.67175
▁popular	-9.67175
▁design	-9.67175
▁constable	-9.67176
▁french	-9.67178
▁maddie	-9.67179
▁insane	-9.6718
▁jerem	-9.6718
▁rescue	-9.67181
▁secure	-9.67181
▁receive	-9.67182
▁threw	-9.67183
▁sword	-9.67184
▁sweat	-9.67201
▁grew	-9.67227
▁liz	-9.67233
▁royal	-9.67243
house	-9.69596
▁affair	-9.70205
▁apparently	-9.70205
▁attempt	-9.70205
▁everywhere	-9.70205
▁league	-9.70205
▁nervous	-9.70205
▁oswald	-9.70205
▁permission	-9.70205
▁relationship	-9.70205
▁government	-9.70205
▁loretta	-9.70205
▁competition	-9.70205
▁justice	-9.70205
▁chirping	-9.70205
▁beyond	-9.70205
▁midnight	-9.70205
▁angry	-9.70209
▁level	-9.70213
▁evil	-9.70214
▁clyde	-9.70223
▁clicks	-9.70231
▁large	-9.70269
▁pray	-9.70277
▁blame	-9.70378
just	-9.71066
▁approach	-9.7333
▁atreides	-9.7333
▁elizabeth	-9.7333
▁eudoria	-9.7333
▁immediately	-9.7333
▁jakob	-9.7333
▁understood	-9.7333
▁bruce	-9.7333
▁beauty	-9.7333
▁breakfast	-9.7333
▁texas	-9.73331
▁surge	-9.73333
▁equ	-9.73333
▁remove	-9.73334
▁claim	-9.73335
▁pretend	-9.73336
▁faith	-9.73337
▁suffer	-9.7334
▁traitor	-9.7334
▁aware	-9.73345
▁elect	-9.7359
▁pipe	-9.73629
▁somethin	-9.75987
▁brilliant	-9.76555
▁chicago	-9.76555
▁disappear	-9.76555
▁extreme	-9.76555
▁jazz	-9.76555
▁nowhere	-9.76555
▁original	-9.76555
▁access	-9.76555
▁current	-9.76555
▁convoy	-9.76556
▁border	-9.76557
▁issue	-9.76558
▁natural	-9.76559
▁brooke	-9.7656
▁droid	-9.76561
▁salute	-9.76561
▁depend	-9.76565
▁national	-9.76568
▁appear	-9.76572
▁curly	-9.76578
▁brian	-9.76581
▁snap	-9.76997
▁audience	-9.79889
▁emergency	-9.79889
▁jeanine	-9.79889
▁mexico	-9.79889
▁ridiculous	-9.79889
▁rumbling	-9.79889
▁uniform	-9.79889
▁junior	-9.79889
▁often	-9.79889
▁borrow	-9.79889
▁investigation	-9.79889
▁energy	-9.79889
▁inhales	-9.79889
▁kennedy	-9.79889
▁spider	-9.79889
▁village	-9.79891
▁enemy	-9.79891
▁thatll	-9.79892
▁madame	-9.79894
▁thunder	-9.79894
▁refuse	-9.79894
▁simply	-9.79895
▁bravo	-9.79899
▁foul	-9.79901
▁attract	-9.79901
▁cheap	-9.79902
▁inform	-9.83206
▁suspens	-9.83337
▁explosive	-9.83337
▁armstrong	-9.83337
▁divorce	-9.83337
▁employ	-9.83337
▁footsteps	-9.83337
▁grandfather	-9.83337
▁mtumbie	-9.83337
▁require	-9.83337
▁unfortunate	-9.83337
▁whoever	-9.83337
▁hidden	-9.83338
▁penguin	-9.83338
▁england	-9.83338
▁muffle	-9.8334
▁whimper	-9.83341
▁condition	-9.83342
titude	-9.83382
▁chuckle	-9.85534
▁arrakis	-9.86908
▁happiness	-9.86908
▁japanese	-9.86908
▁library	-9.86908
▁mmmhmm	-9.86908
▁replace	-9.86908
▁vehicle	-9.86908
▁written	-9.86908
▁circle	-9.86908
▁circus	-9.86908
▁taehun	-9.86908
▁uhhuh	-9.86908
▁avoid	-9.86909
▁sighing	-9.86909
▁bottle	-9.86909
▁accus	-9.86909
▁assistant	-9.86909
▁fremen	-9.86909
▁abandon	-9.86909
▁globo	-9.8691
▁earlier	-9.86912
▁marriage	-9.86912
▁fortune	-9.86912
▁empty	-9.86916
▁spark	-9.86918
▁cream	-9.86919
▁flash	-9.86922
▁grave	-9.86931
▁assume	-9.87079
▁afford	-9.90612
▁commissioner	-9.90612
▁divergent	-9.90612
▁effect	-9.90612
▁gertrude	-9.90612
▁innocent	-9.90612
▁necklace	-9.90612
▁recognize	-9.90612
▁automat	-9.90612
▁instruct	-9.90612
▁literally	-9.90612
▁virgin	-9.90612
▁clifton	-9.90612
▁possess	-9.90613
▁hadnt	-9.90613
▁distract	-9.90614
▁chinese	-9.90614
▁launch	-9.90615
▁complain	-9.90615
▁mellie	-9.90616
▁spoil	-9.90619
▁burchard	-9.94458
▁jealous	-9.94458
▁johanna	-9.94458
▁neighbor	-9.94458
▁wagner	-9.94458
▁clamoring	-9.94458
▁disappoint	-9.94458
▁easier	-9.94458
▁shield	-9.94458
▁separate	-9.94458
▁thomas	-9.9446
▁emperor	-9.9446
▁vegas	-9.94461
▁aboard	-9.94461
▁hostage	-9.94463
▁pocket	-9.94463
▁online	-9.94466
▁xian	-9.94468
logical	-9.94603
▁fantastic	-9.98458
▁frankenstein	-9.98458
▁otherwise	-9.98458
▁ramsey	-9.98458
▁ratchett	-9.98458
▁research	-9.98458
▁shoulder	-9.98458
▁stewart	-9.98458
▁ventura	-9.98458
▁explosion	-9.98458
▁schedule	-9.98458
▁disturb	-9.98458
▁familia	-9.98458
▁holmes	-9.98458
▁photo	-9.98459
▁violence	-9.98459
▁credit	-9.9846
▁theyd	-9.9846
▁hollow	-9.98461
▁freedom	-9.98462
▁science	-9.98463
▁entertain	-10.0262
▁announcer	-10.0262
▁apologize	-10.0262
▁arrange	-10.0262
▁asleep	-10.0262
▁california	-10.0262
▁citizen	-10.0262
▁creature	-10.0262
▁echelon	-10.0262
