<unk>	0
<s>	0
</s>	0
s	-3.02435
t	-4.02255
ing	-4.15067
e	-4.1736
y	-4.33823
d	-4.34109
n	-4.4993
ed	-4.50947
o	-4.60233
er	-4.64124
p	-4.64551
i	-4.724
▁im	-4.8012
m	-4.84997
r	-4.88257
▁	-4.88411
c	-4.89855
in	-4.92446
▁know	-4.94393
▁dont	-4.94473
a	-4.99151
▁s	-5.00105
g	-5.03282
l	-5.06283
u	-5.12955
▁go	-5.14657
▁get	-5.20568
▁like	-5.26853
h	-5.28957
▁l	-5.2913
or	-5.32926
▁right	-5.33928
▁na	-5.35623
v	-5.40136
▁c	-5.40239
▁f	-5.40573
▁youre	-5.41084
b	-5.41433
▁yeah	-5.41604
le	-5.42146
▁got	-5.44377
▁come	-5.44456
ar	-5.46878
▁oh	-5.47318
it	-5.55317
f	-5.56222
al	-5.57531
re	-5.57877
on	-5.58127
▁t	-5.59213
ll	-5.62733
▁thats	-5.63665
k	-5.64909
▁want	-5.65204
▁okay	-5.65648
w	-5.66621
ly	-5.69476
▁think	-5.72357
▁well	-5.72441
▁re	-5.72584
▁gon	-5.74192
▁one	-5.74843
▁man	-5.75267
es	-5.7779
▁see	-5.78239
▁st	-5.78472
en	-5.80609
at	-5.80851
▁good	-5.84058
th	-5.87404
an	-5.91052
ri	-5.91195
▁look	-5.93026
ic	-5.94225
ck	-5.95931
▁hey	-5.96597
ent	-5.9671
▁fuck	-5.981
il	-5.99303
ch	-6.00001
▁say	-6.01195
▁e	-6.0153
▁us	-6.01706
ie	-6.02388
▁de	-6.04564
▁take	-6.05269
▁back	-6.07855
▁g	-6.08515
▁time	-6.08736
▁a	-6.10132
▁need	-6.10946
▁yes	-6.11339
▁o	-6.12409
▁ill	-6.12651
▁b	-6.13224
▁be	-6.13347
ra	-6.14088
▁p	-6.15136
ve	-6.16461
▁ma	-6.18051
▁hes	-6.18199
▁tell	-6.18864
ter	-6.19028
▁going	-6.19435
▁cant	-6.23428
▁in	-6.24273
▁k	-6.27995
▁would	-6.29042
ur	-6.29262
ce	-6.29736
st	-6.30226
ir	-6.3037
el	-6.3105
▁make	-6.34431
▁shit	-6.34589
▁mean	-6.35929
▁please	-6.36051
ate	-6.36276
▁bo	-6.3711
▁really	-6.37658
▁love	-6.38652
▁let	-6.3879
▁ro	-6.41161
▁wh	-6.41209
▁didnt	-6.42706
▁something	-6.43588
▁fucking	-6.43905
▁w	-6.43967
▁pa	-6.44338
ne	-6.44547
▁god	-6.45869
▁bu	-6.45907
se	-6.46138
ro	-6.47886
ry	-6.48492
▁ho	-6.48506
▁could	-6.49276
▁thank	-6.49343
▁ta	-6.49506
lo	-6.49756
▁fa	-6.50216
▁m	-6.50451
un	-6.52026
▁way	-6.53756
▁hi	-6.53786
▁sorry	-6.53943
us	-6.54199
▁co	-6.54574
et	-6.55666
ion	-6.56349
▁whats	-6.5646
▁se	-6.56707
z	-6.56771
▁never	-6.57093
▁uh	-6.57543
▁give	-6.57595
is	-6.57636
▁little	-6.58512
▁work	-6.59213
am	-6.59348
▁sp	-6.59433
▁stop	-6.60192
▁ra	-6.60463
ad	-6.61056
ver	-6.61235
▁ha	-6.61323
ol	-6.61763
te	-6.61912
ul	-6.62949
▁car	-6.63554
▁lets	-6.65172
▁call	-6.65203
▁people	-6.65521
ut	-6.65634
ke	-6.67255
▁ca	-6.67459
x	-6.68249
▁mr	-6.68635
▁ive	-6.68789
ation	-6.68934
qu	-6.69442
▁ba	-6.69834
▁wait	-6.6992
▁po	-6.70042
tion	-6.70549
▁said	-6.70635
▁theres	-6.70906
▁help	-6.71014
▁con	-6.72469
▁ex	-6.72861
im	-6.73054
▁talk	-6.73799
▁sc	-6.7407
▁un	-6.74906
▁th	-6.74953
de	-6.75277
▁much	-6.76039
▁di	-6.76595
▁two	-6.77064
▁to	-6.77257
ge	-6.77284
▁day	-6.77325
▁mar	-6.78073
▁sh	-6.78516
les	-6.78815
▁even	-6.80485
▁shes	-6.81122
▁thing	-6.81249
▁dr	-6.82007
▁feel	-6.8236
uck	-6.82887
ff	-6.84171
▁sure	-6.84173
oo	-6.8474
est	-6.84787
ant	-6.85904
ist	-6.86184
▁ri	-6.86262
▁ch	-6.86835
ies	-6.87043
▁mi	-6.87646
ive	-6.88151
ow	-6.88541
as	-6.88787
id	-6.90073
ment	-6.90342
▁home	-6.90948
um	-6.91945
and	-6.92232
▁pro	-6.9251
ig	-6.92522
▁da	-6.9259
▁find	-6.93325
▁le	-6.93563
▁night	-6.93914
▁vi	-6.94416
▁i	-6.94609
▁anything	-6.94843
▁girl	-6.95132
om	-6.95323
▁put	-6.95727
me	-6.95807
ac	-6.96246
up	-6.96389
▁theyre	-6.96578
ia	-6.97746
▁do	-6.97769
ug	-6.97826
▁new	-6.98723
age	-6.98891
▁he	-6.98978
▁gr	-6.99144
▁tra	-6.99379
mp	-7.00194
la	-7.00862
▁keep	-7.01198
▁maybe	-7.0123
▁la	-7.0127
if	-7.01521
▁ask	-7.01553
▁kill	-7.0223
ine	-7.02766
▁jo	-7.02946
▁wan	-7.04079
ers	-7.04219
▁long	-7.04812
▁an	-7.05055
▁music	-7.0541
▁name	-7.05638
▁me	-7.05712
▁h	-7.06627
end	-7.0736
ty	-7.07747
▁ever	-7.07927
▁life	-7.08001
▁hell	-7.08069
▁listen	-7.08639
▁first	-7.08639
▁around	-7.09297
▁money	-7.10142
▁al	-7.10738
▁boy	-7.10888
ha	-7.10941
man	-7.10949
▁stay	-7.11007
ight	-7.12333
ity	-7.12339
▁so	-7.12352
▁thought	-7.12434
▁sir	-7.12763
▁hand	-7.13145
▁great	-7.13184
▁hear	-7.14314
ta	-7.14381
▁friend	-7.14562
ma	-7.14616
▁son	-7.14716
▁better	-7.14746
▁door	-7.14785
j	-7.15125
▁no	-7.15269
ish	-7.15649
▁guy	-7.17773
▁nothing	-7.17934
▁still	-7.18054
▁baby	-7.18665
▁told	-7.18675
▁n	-7.18827
▁miss	-7.19364
▁sa	-7.19664
▁everything	-7.20305
▁leave	-7.20674
ard	-7.20707
▁guys	-7.21229
▁last	-7.21319
▁sha	-7.21424
▁tr	-7.2156
▁ok	-7.22399
▁ru	-7.22972
able	-7.23043
▁care	-7.23594
▁we	-7.23613
▁ar	-7.23935
▁ju	-7.25069
▁du	-7.25486
▁real	-7.26025
ho	-7.26739
▁id	-7.26863
▁ass	-7.27051
ting	-7.27263
▁part	-7.27495
▁show	-7.27963
▁lot	-7.28002
▁away	-7.28245
op	-7.28367
▁understand	-7.28375
ast	-7.28393
▁for	-7.28981
▁ac	-7.28989
▁nice	-7.29195
ill	-7.30527
▁big	-7.30916
▁place	-7.31221
▁start	-7.31263
ling	-7.31315
▁pre	-7.32487
▁hello	-7.32668
▁mo	-7.3311
▁old	-7.33347
ful	-7.33381
▁remember	-7.3351
▁bad	-7.33561
▁woman	-7.33935
▁years	-7.34131
▁phone	-7.34357
▁always	-7.34358
▁things	-7.34702
▁doesnt	-7.34783
▁kid	-7.34891
ee	-7.35146
▁house	-7.3522
▁kind	-7.35469
▁coming	-7.35702
▁com	-7.35828
▁um	-7.35927
▁wont	-7.36088
▁cha	-7.36111
▁hold	-7.36309
▁fine	-7.3643
▁dis	-7.37379
▁father	-7.37385
▁head	-7.38032
▁ad	-7.38085
na	-7.38492
▁mind	-7.3897
▁believe	-7.39592
▁mother	-7.39596
▁must	-7.39946
▁every	-7.4046
▁move	-7.40616
▁pi	-7.40752
▁ne	-7.41122
▁laugh	-7.41401
▁done	-7.4168
▁mon	-7.41848
▁je	-7.42072
▁ja	-7.42591
▁em	-7.42812
ii	-7.4282
▁youve	-7.4301
ure	-7.43032
▁dad	-7.43425
▁huh	-7.43676
▁happened	-7.43762
▁talking	-7.43861
▁live	-7.43929
▁made	-7.4419
▁youll	-7.44411
tch	-7.45586
▁minute	-7.45592
▁three	-7.45609
ence	-7.45718
he	-7.46041
▁someone	-7.4727
▁came	-7.474
▁open	-7.47527
▁ya	-7.48639
bb	-7.50402
▁che	-7.50531
▁pr	-7.50563
▁dead	-7.50583
mo	-7.51676
ance	-7.52523
ang	-7.52658
▁aint	-7.52792
▁wrong	-7.5325
ger	-7.53703
▁mom	-7.53713
▁trying	-7.53836
be	-7.5407
▁room	-7.54084
ak	-7.54427
▁bar	-7.54438
da	-7.54643
ally	-7.54745
und	-7.54765
▁enough	-7.55063
▁world	-7.55063
▁else	-7.55076
▁isnt	-7.55327
▁try	-7.55373
▁another	-7.55587
▁sit	-7.56185
▁happen	-7.56317
▁meet	-7.5645
▁end	-7.56481
▁hard	-7.56551
▁hu	-7.56552
ab	-7.56792
▁men	-7.57044
▁left	-7.5746
ous	-7.57487
ian	-7.58254
▁ga	-7.58605
▁thanks	-7.59462
▁course	-7.59886
▁va	-7.60142
▁am	-7.60242
▁cause	-7.6073
▁gun	-7.60856
▁job	-7.61213
▁col	-7.62007
▁per	-7.62346
▁found	-7.6267
▁play	-7.62786
▁playing	-7.62837
▁turn	-7.62965
▁fire	-7.63118
▁war	-7.63196
▁saw	-7.63242
▁might	-7.63771
▁wi	-7.63776
▁wanted	-7.64291
▁week	-7.64381
▁watch	-7.64433
ide	-7.64735
▁run	-7.65
ise	-7.65245
▁close	-7.65259
▁bra	-7.65756
▁tea	-7.65913
▁next	-7.66992
▁walk	-7.67883
▁ye	-7.68026
▁ah	-7.68231
▁plan	-7.68703
▁whos	-7.69031
ook	-7.6959
▁tonight	-7.70592
ca	-7.70895
▁may	-7.71485
▁best	-7.7152
▁ab	-7.71637
▁speak	-7.71819
▁wife	-7.71831
▁guess	-7.73375
▁pu	-7.73446
▁face	-7.7348
▁wasnt	-7.73689
▁today	-7.73691
ize	-7.74147
▁bit	-7.74158
▁sw	-7.74559
▁morning	-7.74649
▁getting	-7.75611
▁chi	-7.7621
▁looking	-7.76477
▁ear	-7.76508
▁app	-7.76939
▁die	-7.7703
ph	-7.77256
▁inter	-7.77329
▁whole	-7.77568
▁wa	-7.77828
▁en	-7.78203
▁hour	-7.78305
▁problem	-7.79191
▁shut	-7.79648
▁hurt	-7.79888
▁sound	-7.80651
▁pretty	-7.80873
▁cut	-7.80937
▁ready	-7.81066
▁second	-7.8189
▁question	-7.82232
▁brother	-7.82235
▁family	-7.82576
▁went	-7.82583
▁change	-7.8262
▁bri	-7.82941
▁break	-7.83268
▁person	-7.8364
▁use	-7.84026
ward	-7.84041
▁knew	-7.84666
▁four	-7.84784
▁john	-7.85027
▁word	-7.8504
▁check	-7.85051
▁bring	-7.85085
ake	-7.85566
▁light	-7.85729
▁called	-7.85927
▁the	-7.85989
▁pick	-7.86189
▁cla	-7.86292
our	-7.86544
▁heard	-7.86787
ba	-7.87177
▁office	-7.87517
▁win	-7.87558
▁actually	-7.87877
▁read	-7.88185
ary	-7.88357
▁breath	-7.88606
▁five	-7.88776
▁everybody	-7.88972
▁eat	-7.89206
▁free	-7.89987
▁police	-7.90081
▁high	-7.90094
▁six	-7.901
▁idea	-7.90186
▁case	-7.90658
▁wouldnt	-7.91298
▁damn	-7.91598
▁weve	-7.92415
▁water	-7.92623
▁matter	-7.92736
ness	-7.93155
ated	-7.93633
▁pay	-7.93845
▁hope	-7.94089
▁together	-7.94246
▁gen	-7.94445
▁bitch	-7.94565
▁fun	-7.95272
▁au	-7.9548
▁crazy	-7.95806
▁seen	-7.96133
▁christ	-7.96204
▁school	-7.96595
▁fight	-7.97261
ical	-7.98065
▁tomorrow	-7.98595
▁nobody	-7.99
▁count	-7.99033
▁excuse	-7.99406
▁rest	-8.00053
▁alone	-8.00245
▁everyone	-8.00654
▁took	-8.00757
▁cop	-8.00905
▁clear	-8.01491
▁story	-8.01956
▁continue	-8.02299
▁drink	-8.02308
▁sleep	-8.02721
▁anyone	-8.03141
▁jesus	-8.0358
▁stand	-8.03713
▁pain	-8.03823
▁heart	-8.039
▁jack	-8.04049
▁yo	-8.04102
▁easy	-8.04432
▁ben	-8.04694
▁youd	-8.04855
▁business	-8.05278
▁deal	-8.05498
▁bye	-8.06268
ial	-8.06301
▁aw	-8.06318
▁true	-8.06609
▁killed	-8.06706
▁beautiful	-8.07021
▁daddy	-8.07053
▁already	-8.07461
▁pass	-8.07485
▁z	-8.07539
▁grunts	-8.07904
▁year	-8.08109
▁book	-8.08223
▁havent	-8.08354
▁whatever	-8.08796
▁drive	-8.09253
▁bro	-8.09863
▁bla	-8.09936
▁blood	-8.10146
▁chuckles	-8.10147
▁point	-8.10211
▁since	-8.10636
▁arm	-8.10742
▁ten	-8.10931
▁without	-8.11057
▁happy	-8.1244
▁late	-8.12643
▁comp	-8.13093
▁dog	-8.13577
▁alright	-8.13844
▁ago	-8.13925
▁pl	-8.14084
lic	-8.14267
▁probably	-8.14313
▁sign	-8.14819
▁far	-8.15213
▁answer	-8.15264
▁safe	-8.15334
▁soon	-8.15534
▁nick	-8.15751
▁later	-8.15894
▁hate	-8.15963
▁couldnt	-8.16324
▁somebody	-8.16706
▁trust	-8.16717
▁sister	-8.17237
▁air	-8.17258
▁shoot	-8.17699
port	-8.18642
▁number	-8.18662
▁hmm	-8.18682
▁wonder	-8.19157
▁worry	-8.19162
▁ow	-8.19573
▁exactly	-8.19654
▁touch	-8.19661
▁stuff	-8.19662
gue	-8.19703
▁met	-8.19784
▁sighs	-8.20155
▁line	-8.2056
▁supposed	-8.20993
▁inside	-8.21181
▁grand	-8.21513
▁yet	-8.2159
▁art	-8.21632
▁different	-8.2167
▁mor	-8.21841
▁promise	-8.22183
▁grunting	-8.22693
ious	-8.23542
▁gave	-8.23652
▁daughter	-8.23726
▁lost	-8.24312
ttle	-8.2436
▁send	-8.24597
▁whoa	-8.24815
▁doctor	-8.25297
▁honey	-8.25311
▁order	-8.26361
▁serious	-8.26367
▁sex	-8.26561
▁mu	-8.26996
▁wow	-8.27003
▁goddamn	-8.27971
▁young	-8.28517
▁sweet	-8.28522
▁shot	-8.29725
▁follow	-8.30718
▁death	-8.30752
▁husband	-8.31277
▁pull	-8.3146
▁save	-8.31557
▁side	-8.31613
▁child	-8.31861
▁power	-8.31869
spect	-8.31874
▁truth	-8.3298
▁reason	-8.33551
▁taking	-8.33593
▁cool	-8.33991
▁mike	-8.34121
▁ring	-8.34506
▁couple	-8.34699
▁mine	-8.34916
▁lou	-8.35115
▁perfect	-8.35278
▁hang	-8.35532
▁paper	-8.35975
▁full	-8.36032
▁chance	-8.36117
▁white	-8.36508
▁outside	-8.37042
▁women	-8.37045
▁black	-8.37389
▁fla	-8.37461
▁drop	-8.37572
▁anymore	-8.37638
▁mmm	-8.37679
▁bill	-8.37838
▁street	-8.38246
▁game	-8.38555
▁wall	-8.39235
▁murder	-8.39445
▁town	-8.39485
▁forget	-8.40678
▁important	-8.41287
▁afraid	-8.41906
▁dream	-8.41917
▁welcome	-8.4316
▁body	-8.43931
▁report	-8.44224
▁picture	-8.4443
▁though	-8.44639
▁dress	-8.45163
▁moment	-8.45415
▁anyway	-8.45718
▁stupid	-8.45718
▁making	-8.45777
▁asshole	-8.46369
▁piece	-8.46381
▁sub	-8.46452
▁also	-8.46558
▁figure	-8.4768
▁million	-8.47681
▁anybody	-8.4834
▁motherfucker	-8.4834
▁finish	-8.48352
▁america	-8.49007
▁scared	-8.49035
▁grow	-8.49501
▁trouble	-8.49677
▁married	-8.49695
▁half	-8.49711
▁lock	-8.49756
▁broke	-8.50016
▁behind	-8.50354
▁emily	-8.51053
▁indistinct	-8.51718
▁kiss	-8.51806
pped	-8.52307
▁screaming	-8.52408
▁ahead	-8.52414
▁build	-8.52434
▁voice	-8.53102
▁church	-8.53105
▁key	-8.53343
▁class	-8.53583
▁sick	-8.53917
way	-8.53955
▁wish	-8.54497
▁michael	-8.54506
▁sometimes	-8.55215
▁record	-8.55216
▁fell	-8.5625
▁write	-8.56807
▁crack	-8.57388
▁clean	-8.57404
▁either	-8.58839
▁children	-8.58847
▁food	-8.58875
▁burn	-8.58941
time	-8.59301
▁almost	-8.5958
▁front	-8.59582
▁blow	-8.59593
▁lady	-8.59712
▁frank	-8.60326
▁apart	-8.60327
▁wake	-8.61009
▁mouth	-8.61086
▁quick	-8.61835
▁throw	-8.61844
▁dinner	-8.62599
▁buddy	-8.626
▁learn	-8.62625
▁funny	-8.62627
▁dance	-8.63423
▁leaving	-8.64143
▁control	-8.64144
▁prison	-8.64146
▁blue	-8.64147
▁panting	-8.64175
▁expect	-8.64924
ship	-8.65247
▁quiet	-8.65712
▁parents	-8.65713
▁ooh	-8.65799
▁least	-8.6613
▁hurry	-8.66511
▁james	-8.67332
▁seven	-8.67346
▁theyll	-8.68123
▁angel	-8.68219
▁groans	-8.68926
▁calm	-8.69038
▁hows	-8.69102
▁tried	-8.69872
▁deep	-8.69946
▁hospital	-8.70571
▁court	-8.71535
▁fred	-8.71793
▁special	-8.72244
▁mistake	-8.72246
▁engine	-8.72246
▁kick	-8.72283
▁park	-8.72294
▁tire	-8.72749
▁relax	-8.73094
▁under	-8.73231
▁chatter	-8.73967
▁phil	-8.74023
▁bullshit	-8.74809
▁living	-8.74811
ease	-8.74831
▁movie	-8.75698
▁running	-8.75732
▁brought	-8.76555
▁click	-8.76559
▁company	-8.76562
▁step	-8.77267
▁lose	-8.77412
▁protect	-8.77442
▁lord	-8.77653
▁dark	-8.78352
▁charlie	-8.79234
▁radio	-8.79235
▁goodbye	-8.79236
▁cross	-8.79247
▁strong	-8.80145
▁softly	-8.81061
▁sense	-8.81143
▁bank	-8.82034
▁groaning	-8.82922
▁lawyer	-8.82922
▁worth	-8.82936
▁small	-8.82937
▁push	-8.83016
▁itll	-8.83036
▁absolutely	-8.83865
▁secret	-8.83865
▁david	-8.83868
▁mommy	-8.83902
▁choice	-8.84818
▁slow	-8.84875
▁kidding	-8.84909
▁cru	-8.8563
▁surprise	-8.85778
▁certain	-8.85779
▁short	-8.85962
▁creat	-8.86066
▁gasps	-8.86759
▁fix	-8.86785
▁shell	-8.86896
▁treat	-8.86912
▁fear	-8.86961
▁explain	-8.8773
▁straight	-8.87734
▁weird	-8.87743
▁along	-8.88736
▁super	-8.88773
▁pray	-8.88797
▁complete	-8.89722
▁glass	-8.89725
▁decide	-8.89733
▁charge	-8.89738
▁honest	-8.89743
▁wild	-8.90805
▁floor	-8.91777
▁knock	-8.92782
▁buzz	-8.92784
▁swear	-8.92803
▁grace	-8.92808
▁accident	-8.93823
▁allow	-8.93838
▁smell	-8.93846
field	-8.93904
▁shouldnt	-8.94876
▁become	-8.94876
▁ladies	-8.94893
▁moving	-8.94913
▁stick	-8.94955
▁english	-8.95939
▁french	-8.9594
▁fault	-8.95965
▁enjoy	-8.97015
▁victim	-8.97015
▁message	-8.97016
▁collins	-8.97017
▁psych	-8.97017
▁york	-8.97023
▁qua	-8.97316
▁hundred	-8.98102
▁bird	-8.98141
▁somewhere	-8.99201
▁caught	-8.99201
▁bastard	-8.99204
▁bobby	-8.99211
▁amazing	-9.00312
▁barbara	-9.00312
▁priest	-9.00334
▁birthday	-9.01435
▁smoke	-9.01443
▁honor	-9.01516
▁extra	-9.02613
▁glad	-9.02614
▁agree	-9.03732
▁finally	-9.03736
▁imagine	-9.04884
▁smart	-9.04892
▁forever	-9.04897
▁girlfriend	-9.0606
▁service	-9.0606
▁victor	-9.06061
▁return	-9.06061
▁window	-9.06065
▁notice	-9.06069
▁definitely	-9.07251
▁coffee	-9.07252
▁north	-9.07276
▁beach	-9.08497
▁alice	-9.08509
▁bru	-9.0895
▁yesterday	-9.09675
▁forgot	-9.1091
▁arrest	-9.10923
▁worse	-9.10926
▁gentlemen	-9.1216
▁president	-9.1216
▁giving	-9.12161
▁normal	-9.12162
▁tough	-9.12165
▁computer	-9.12168
▁smile	-9.12168
▁south	-9.12183
▁favorite	-9.13425
▁photo	-9.13426
▁idiot	-9.13426
▁crash	-9.13428
▁screw	-9.13441
▁account	-9.14708
▁system	-9.14708
▁attack	-9.14708
▁distance	-9.14715
▁harry	-9.14729
▁boyfriend	-9.16006
▁possible	-9.16006
▁heavy	-9.16007
▁client	-9.16007
▁vanessa	-9.16007
▁across	-9.16009
▁others	-9.16015
▁katie	-9.16026
▁peace	-9.17323
▁future	-9.17326
▁ground	-9.17329
▁connect	-9.1733
▁direct	-9.1733
▁sophie	-9.18657
▁deserve	-9.18659
▁davis	-9.20015
▁dying	-9.20025
▁obvious	-9.21377
▁terrible	-9.21377
▁captain	-9.21377
▁public	-9.21377
▁nobby	-9.21383
▁bought	-9.24174
▁machine	-9.2418
▁jim	-9.2561
▁hungry	-9.27052
▁sheriff	-9.27052
▁weapon	-9.27052
▁kept	-9.27058
▁department	-9.28522
▁thousand	-9.28523
q	-9.60983
