<unk>	0
<s>	0
</s>	0
s	-3.61623
▁im	-4.68396
▁dont	-4.72292
▁oh	-4.74592
▁well	-4.84187
▁get	-4.84604
▁know	-4.90862
ing	-4.94227
▁come	-4.9998
▁go	-5.01644
▁right	-5.07121
▁like	-5.09244
▁one	-5.19392
▁got	-5.24008
▁youre	-5.26859
▁see	-5.28848
▁good	-5.32285
▁thats	-5.32889
ed	-5.43236
▁back	-5.49485
▁yes	-5.5185
▁think	-5.55185
▁	-5.58023
▁time	-5.58754
▁yeah	-5.61531
▁na	-5.63935
▁want	-5.6505
▁look	-5.7204
▁ill	-5.72743
▁hes	-5.73492
▁hey	-5.74768
▁us	-5.75137
▁take	-5.76347
▁going	-5.78065
d	-5.80908
▁cant	-5.8179
y	-5.82715
▁little	-5.83699
▁would	-5.86777
▁gon	-5.87664
▁way	-5.87835
▁make	-5.89485
▁say	-5.90537
e	-5.99503
▁could	-5.99527
▁mr	-5.99607
▁man	-5.99835
▁lets	-6.00796
▁really	-6.01721
▁tell	-6.04765
▁okay	-6.08652
▁whats	-6.10736
▁never	-6.12233
ly	-6.15348
▁two	-6.16612
▁mean	-6.17213
▁love	-6.17459
▁let	-6.18286
▁la	-6.19715
▁theres	-6.20322
▁give	-6.20668
▁something	-6.24528
▁ive	-6.24845
▁sure	-6.25296
▁world	-6.26488
▁first	-6.26982
▁l	-6.27614
▁help	-6.27771
▁thank	-6.31008
er	-6.31747
▁sir	-6.31778
▁didnt	-6.31817
▁must	-6.32088
▁need	-6.32758
▁please	-6.33615
▁wait	-6.36065
ve	-6.36715
▁ha	-6.39822
▁uh	-6.41839
▁christmas	-6.42542
▁find	-6.42795
▁boy	-6.4407
▁thing	-6.44146
▁great	-6.46019
▁day	-6.46206
▁people	-6.46994
▁away	-6.48231
▁sorry	-6.50704
▁even	-6.51139
▁night	-6.51654
▁home	-6.52592
▁much	-6.54234
▁new	-6.54891
▁put	-6.55196
▁keep	-6.56145
▁better	-6.5688
▁work	-6.58478
▁big	-6.59193
▁still	-6.59251
▁stop	-6.60897
▁music	-6.6133
▁theyre	-6.61332
▁dad	-6.61863
▁said	-6.6274
▁maybe	-6.63458
▁around	-6.63811
▁youll	-6.64945
i	-6.65268
▁ever	-6.65359
▁life	-6.67829
▁ta	-6.69178
▁huh	-6.70878
▁old	-6.71486
▁shes	-6.7338
▁long	-6.75043
▁call	-6.75089
▁things	-6.76378
▁last	-6.76556
▁hello	-6.76875
▁nothing	-6.77243
t	-6.77487
▁always	-6.7848
▁everything	-6.7848
a	-6.78758
▁nice	-6.7878
▁wont	-6.79735
▁ah	-6.8098
▁course	-6.81006
▁thought	-6.81457
r	-6.81676
▁whoa	-6.82736
▁you	-6.82811
▁place	-6.82853
▁every	-6.85259
▁doesnt	-6.86709
▁miss	-6.87321
n	-6.87335
▁id	-6.87803
in	-6.8785
▁bad	-6.87881
▁fine	-6.8809
▁made	-6.88133
▁anything	-6.88531
▁isnt	-6.88992
▁believe	-6.9054
▁show	-6.9144
▁hear	-6.92895
▁thanks	-6.93778
▁may	-6.95138
▁three	-6.95187
▁stay	-6.95994
▁together	-6.97171
▁care	-6.97761
▁coming	-6.98219
▁car	-6.98937
▁kind	-6.98956
▁heart	-6.99429
▁girl	-7.00192
▁mom	-7.00193
▁listen	-7.01131
▁another	-7.02312
es	-7.02429
▁might	-7.02542
▁remember	-7.02841
▁water	-7.02846
▁ready	-7.03464
▁hand	-7.03969
▁son	-7.05545
▁weve	-7.06076
▁enough	-7.06076
▁told	-7.06077
▁father	-7.0622
▁talk	-7.06622
o	-7.06791
▁lot	-7.07926
▁try	-7.0807
▁name	-7.08813
▁leave	-7.09058
▁mother	-7.12618
▁next	-7.13469
▁dear	-7.14003
al	-7.14732
▁guess	-7.15122
▁kid	-7.15652
▁years	-7.15926
▁dog	-7.16222
▁without	-7.1646
▁mind	-7.17091
▁hold	-7.17589
l	-7.17937
▁hi	-7.18333
▁far	-7.20152
▁money	-7.20176
▁feel	-7.20526
▁turn	-7.20822
▁friend	-7.21796
▁start	-7.22318
▁minute	-7.22705
▁jack	-7.22713
▁best	-7.22771
▁run	-7.22794
▁head	-7.23016
▁done	-7.23403
▁laughing	-7.24196
▁real	-7.24474
▁today	-7.2536
p	-7.25882
▁getting	-7.26241
▁ok	-7.26702
▁came	-7.26725
▁yet	-7.27377
▁guys	-7.27612
▁wrong	-7.28049
▁charlie	-7.2811
▁happened	-7.28292
▁worry	-7.28677
▁wouldnt	-7.28862
▁king	-7.29038
▁hope	-7.29157
▁matter	-7.29491
▁seen	-7.29502
▁team	-7.29565
▁understand	-7.30118
▁morning	-7.30122
st	-7.30323
est	-7.30502
▁left	-7.30821
▁house	-7.31541
▁door	-7.32461
▁move	-7.32852
▁wanted	-7.33126
▁pig	-7.33137
▁job	-7.34389
▁young	-7.34912
▁watch	-7.3587
▁found	-7.37292
▁excuse	-7.37342
ll	-7.3814
▁trouble	-7.38559
▁happy	-7.3885
▁tomorrow	-7.3885
▁alone	-7.38855
▁number	-7.3927
▁idea	-7.39282
▁hell	-7.39536
▁looking	-7.39601
▁easy	-7.39614
▁wan	-7.39913
▁room	-7.40426
m	-7.40713
▁ball	-7.40987
▁em	-7.41198
▁ask	-7.41565
▁guy	-7.4169
▁soon	-7.41765
▁wish	-7.4188
▁looks	-7.41979
▁fly	-7.42896
▁gone	-7.4292
▁fun	-7.44273
▁meet	-7.44406
▁ooh	-7.44529
▁trying	-7.44544
▁pretty	-7.45127
▁someone	-7.45736
▁forget	-7.45963
▁aint	-7.46764
▁live	-7.47158
▁sing	-7.47722
▁un	-7.47775
▁hard	-7.4801
▁use	-7.48237
▁dr	-7.48399
▁school	-7.48424
▁warm	-7.48436
▁year	-7.49171
▁everybody	-7.4926
▁princess	-7.49321
▁whole	-7.50114
▁barking	-7.50155
en	-7.50864
▁continues	-7.50923
▁gadget	-7.50963
▁late	-7.5119
▁knew	-7.51824
▁uncle	-7.52693
▁beautiful	-7.52695
▁chuckles	-7.52753
le	-7.53122
▁true	-7.53572
▁fire	-7.54175
▁gentlemen	-7.54456
▁hurt	-7.54456
▁baby	-7.5536
▁cold	-7.55367
▁kids	-7.55667
▁else	-7.56251
on	-7.56625
▁open	-7.56969
▁everyone	-7.57267
▁race	-7.57666
▁play	-7.57765
▁havent	-7.58076
▁god	-7.58315
▁stand	-7.58422
▁heard	-7.58656
▁r	-7.58827
▁hurry	-7.59002
▁woman	-7.59003
▁bird	-7.59131
ion	-7.59264
▁bring	-7.59365
▁sound	-7.59654
▁men	-7.59687
▁cheering	-7.60029
h	-7.60064
g	-7.60104
▁hit	-7.60522
▁afraid	-7.6088
▁important	-7.60882
▁aah	-7.60914
▁bright	-7.61832
▁high	-7.6237
▁prince	-7.62425
▁perfect	-7.62577
▁second	-7.62776
▁earth	-7.62778
▁couldnt	-7.62953
▁light	-7.63104
▁lead	-7.63466
▁boys	-7.6363
▁bye	-7.63765
b	-7.64645
▁since	-7.64729
▁already	-7.64745
▁fight	-7.65118
▁ho	-7.65278
▁chance	-7.65737
▁saw	-7.65748
▁eat	-7.65858
▁fall	-7.6601
▁problem	-7.66083
▁tree	-7.66087
▁check	-7.66505
▁merlin	-7.66735
▁arent	-7.66736
▁honey	-7.66738
▁dream	-7.66944
▁j	-7.67522
▁whos	-7.67608
▁lovely	-7.67687
▁crowd	-7.67745
▁tonight	-7.67745
▁boss	-7.67759
▁air	-7.67769
▁ringle	-7.67775
▁called	-7.67828
▁mine	-7.67871
c	-7.68047
▁goes	-7.68108
▁a	-7.68167
▁many	-7.68306
▁matilda	-7.68766
▁buddy	-7.68779
▁lost	-7.68784
▁bit	-7.68916
▁end	-7.69066
▁line	-7.69078
▁hmm	-7.69805
or	-7.69837
▁face	-7.69919
▁quite	-7.69921
▁ya	-7.69974
▁full	-7.70351
▁waiting	-7.70446
▁speak	-7.70605
▁four	-7.70815
▁voice	-7.71301
▁cause	-7.71588
▁free	-7.71608
▁andrea	-7.71891
▁family	-7.71899
▁win	-7.72202
▁talking	-7.72205
▁moment	-7.72449
▁e	-7.72544
▁sleep	-7.72982
▁youd	-7.73699
▁sweet	-7.74008
▁million	-7.74038
▁food	-7.74045
▁eyes	-7.74076
▁g	-7.74449
▁dance	-7.74672
▁wasnt	-7.75117
▁girls	-7.75205
▁beat	-7.75501
▁close	-7.75863
▁business	-7.76082
▁story	-7.76208
▁stupid	-7.76216
▁in	-7.76627
▁pay	-7.76732
▁game	-7.76908
▁nobody	-7.77327
▁friends	-7.77432
able	-7.77941
▁days	-7.7807
▁summer	-7.7845
▁anyone	-7.78451
▁crazy	-7.78456
▁brown	-7.79587
▁working	-7.79689
▁rock	-7.80038
k	-7.80353
▁save	-7.80476
▁shall	-7.80722
▁gold	-7.80743
▁actually	-7.80757
▁they	-7.81727
▁i	-7.82125
▁sit	-7.82457
▁hours	-7.8252
▁seems	-7.82562
▁sun	-7.82987
▁flight	-7.83089
▁part	-7.83667
▁star	-7.83717
▁taking	-7.84287
▁top	-7.84306
▁c	-7.85241
▁theodore	-7.85478
▁point	-7.85492
▁gasps	-7.85753
▁change	-7.86136
▁happen	-7.86583
▁probably	-7.8669
▁along	-7.86692
▁hercules	-7.86692
▁child	-7.86694
▁wonderful	-7.86739
ies	-7.86787
▁word	-7.87794
▁captain	-7.87925
▁forest	-7.87943
▁later	-7.88213
▁promise	-7.88873
▁whatever	-7.89175
▁sterling	-7.89175
▁throw	-7.8918
▁went	-7.89185
▁half	-7.8921
▁lm	-7.89481
▁um	-7.89495
▁wonder	-7.89664
▁santa	-7.90349
▁person	-7.90365
▁p	-7.90563
▁saying	-7.90593
▁rest	-7.90596
▁wheres	-7.9075
▁used	-7.90832
ous	-7.91222
▁careful	-7.91619
▁set	-7.9168
▁wow	-7.91726
▁took	-7.91727
▁means	-7.92388
▁bet	-7.92905
▁bob	-7.92958
▁six	-7.93024
▁feet	-7.93029
▁five	-7.93075
▁answer	-7.93487
▁asked	-7.93755
▁heres	-7.94226
▁says	-7.94261
▁become	-7.94337
▁poor	-7.94337
▁canyon	-7.94345
▁cool	-7.9436
▁side	-7.94423
▁act	-7.94561
▁flying	-7.95541
▁town	-7.95681
▁follow	-7.95843
▁wants	-7.95912
▁white	-7.96013
ers	-7.96119
▁fast	-7.96863
▁gordy	-7.97022
▁walk	-7.97209
▁claw	-7.97332
▁comes	-7.98169
▁thinking	-7.98223
▁reason	-7.98344
▁professor	-7.98392
▁ago	-7.98431
▁grunts	-7.98449
▁lady	-7.98467
▁learn	-7.98601
▁grand	-7.99558
▁laughs	-7.9967
▁daughter	-7.99781
▁almost	-7.99782
▁horse	-7.99944
▁book	-7.99975
▁case	-8.00002
▁catch	-8.00246
▁re	-8.00551
ment	-8.02135
▁ohh	-8.02542
▁somebody	-8.02618
▁perhaps	-8.02621
▁celebi	-8.02621
▁champion	-8.02622
▁inside	-8.02623
▁exactly	-8.02629
▁ladies	-8.02639
▁started	-8.03605
▁fact	-8.03988
▁anybody	-8.04067
▁different	-8.04076
▁plane	-8.04412
▁return	-8.0509
us	-8.05182
▁funny	-8.05547
▁lt	-8.05627
▁power	-8.05791
▁beast	-8.05806
▁s	-8.06577
▁break	-8.06591
▁sounds	-8.06744
▁somewhere	-8.0703
▁goodbye	-8.0703
▁stuff	-8.07031
▁dinner	-8.07031
▁also	-8.07032
▁ahead	-8.07036
▁minutes	-8.07118
▁lucky	-8.07332
▁brother	-8.07382
▁ow	-8.07462
▁met	-8.07654
▁drink	-8.07787
▁safe	-8.08178
▁playing	-8.08204
▁step	-8.08264
nt	-8.0853
▁stanley	-8.08545
▁coffee	-8.08549
▁send	-8.08716
▁hands	-8.08794
▁die	-8.08914
▁luck	-8.09819
▁dead	-8.09856
▁quick	-8.09868
▁trust	-8.10084
▁anyway	-8.10086
▁wed	-8.10411
▁reach	-8.11186
▁read	-8.11197
▁b	-8.11207
▁glad	-8.11646
▁born	-8.11646
▁danny	-8.11647
▁darling	-8.11647
▁least	-8.11648
▁doctor	-8.11648
▁death	-8.11648
▁welcome	-8.11663
▁phone	-8.11816
▁folks	-8.11839
▁hot	-8.11871
▁drive	-8.12089
▁able	-8.12215
▁dreams	-8.12616
ie	-8.12704
▁figure	-8.12927
▁li	-8.12953
▁plan	-8.13053
▁lose	-8.13212
▁fool	-8.13228
▁children	-8.13234
▁penny	-8.13248
u	-8.1355
mon	-8.13557
▁bell	-8.14025
▁land	-8.14336
▁cut	-8.14647
▁chief	-8.14846
▁merry	-8.14847
▁ty	-8.15026
▁supposed	-8.15096
▁sighs	-8.15182
▁human	-8.15476
▁ride	-8.16383
▁clear	-8.16433
▁possible	-8.16486
▁marry	-8.16492
▁radio	-8.165
▁m	-8.1749
berry	-8.1791
▁be	-8.17997
▁stuart	-8.18152
▁city	-8.18215
▁deal	-8.18225
▁sign	-8.18678
f	-8.19482
▁mrs	-8.19526
▁seem	-8.19555
▁magic	-8.19773
▁giving	-8.19851
▁woof	-8.19854
▁lonely	-8.19859
▁majesty	-8.1986
▁heh	-8.19871
▁chattering	-8.19915
▁coin	-8.19923
▁hour	-8.20692
▁song	-8.20766
th	-8.20988
v	-8.21306
▁special	-8.21328
▁quiet	-8.21349
▁behind	-8.21575
▁mister	-8.21577
▁board	-8.21644
▁sometimes	-8.21832
▁kill	-8.21969
azzle	-8.22291
▁question	-8.22412
▁feeling	-8.22545
▁cake	-8.23328
▁making	-8.23328
▁shot	-8.23346
▁theyve	-8.2359
▁animals	-8.23598
▁dressing	-8.23628
▁evening	-8.2379
▁wind	-8.23816
▁class	-8.25041
▁bed	-8.25093
▁floyd	-8.25112
▁front	-8.25112
▁hanky	-8.25141
▁certainly	-8.25238
▁times	-8.25561
▁party	-8.25565
▁order	-8.25631
w	-8.25632
▁dogs	-8.25704
▁de	-8.25721
▁shoot	-8.25836
an	-8.25998
▁bank	-8.25999
▁round	-8.26018
▁fingers	-8.2622
▁hang	-8.26247
um	-8.2684
▁bastian	-8.2693
▁crystal	-8.2693
▁dancing	-8.26931
▁either	-8.26931
▁road	-8.26932
▁outside	-8.26932
▁except	-8.26987
▁pull	-8.27595
man	-8.27698
▁ring	-8.27852
▁birds	-8.28459
▁gordon	-8.28782
▁future	-8.28782
▁pass	-8.29344
▁pick	-8.29498
▁flowers	-8.30038
▁gets	-8.30078
▁th	-8.30112
▁past	-8.3035
▁small	-8.30476
▁shut	-8.30643
▁snow	-8.30661
▁straight	-8.30662
▁alvin	-8.30668
▁college	-8.30668
▁impossible	-8.30671
▁queen	-8.30674
▁fang	-8.30685
▁itll	-8.30687
▁groaning	-8.30718
▁buy	-8.30738
ity	-8.30781
▁mission	-8.30885
ic	-8.30893
▁train	-8.31075
▁present	-8.31861
▁lord	-8.31863
▁wear	-8.31962
▁yo	-8.32113
▁ii	-8.3219
▁mu	-8.32262
it	-8.32495
▁dark	-8.3257
▁control	-8.32577
▁blanket	-8.32592
▁brought	-8.32595
▁green	-8.32597
▁body	-8.32602
▁makes	-8.32603
▁master	-8.3262
▁rain	-8.3264
▁foot	-8.32654
▁lake	-8.32672
▁whoo	-8.32871
▁hate	-8.33162
▁join	-8.33668
▁attack	-8.33776
▁needs	-8.3424
▁suppose	-8.3425
▁ten	-8.3425
▁office	-8.3434
▁strong	-8.34365
▁mmm	-8.34529
▁broadway	-8.34553
▁grayson	-8.34553
▁lili	-8.34568
▁maam	-8.34573
▁gave	-8.34582
▁tried	-8.34616
▁groans	-8.34743
ter	-8.35519
▁judge	-8.35796
▁north	-8.36552
▁virgil	-8.36552
▁janie	-8.36555
▁running	-8.36558
▁hundred	-8.36564
▁damn	-8.36566
▁wife	-8.36566
▁blood	-8.36572
▁knowing	-8.36784
▁goin	-8.37351
▁n	-8.37463
▁quit	-8.3755
▁bear	-8.37588
▁telling	-8.37766
▁enjoy	-8.3784
▁touch	-8.38128
▁slow	-8.38381
▁drummond	-8.38593
▁hungry	-8.38599
▁country	-8.38612
▁hugo	-8.3862
ar	-8.38677
▁list	-8.38771
▁planet	-8.3879
▁finally	-8.388
▁w	-8.38904
▁leaves	-8.39932
ch	-8.40675
▁major	-8.40676
▁narrator	-8.40676
▁spirit	-8.40676
▁across	-8.40677
▁chuckling	-8.40685
▁hotel	-8.407
▁pok	-8.40737
▁scared	-8.40778
▁pat	-8.40944
▁report	-8.41149
▁shoes	-8.41396
▁mad	-8.41446
▁h	-8.41684
▁speaking	-8.42128
▁machine	-8.42229
▁state	-8.4227
▁brain	-8.42332
▁kick	-8.4234
▁final	-8.42593
▁anymore	-8.42804
▁kabuna	-8.42804
▁sort	-8.42808
▁richard	-8.42809
▁alive	-8.42823
▁sent	-8.42854
▁eh	-8.42908
▁parker	-8.42994
▁parents	-8.43069
▁stick	-8.43071
▁co	-8.43777
▁walking	-8.43943
id	-8.44145
▁roll	-8.44236
▁honor	-8.44499
▁pa	-8.44775
▁though	-8.44964
▁cinderella	-8.44978
▁english	-8.44978
▁rosebud	-8.44978
▁hero	-8.44982
▁zeus	-8.44986
▁till	-8.44998
▁daddy	-8.45031
▁boat	-8.45033
▁steve	-8.45087
▁forever	-8.45257
▁awful	-8.45356
▁secret	-8.46673
▁fair	-8.46866
▁general	-8.472
▁wake	-8.47203
▁glorious	-8.47203
▁tight	-8.47206
▁shouldnt	-8.47214
▁castle	-8.47219
▁yall	-8.4734
▁x	-8.47341
▁words	-8.47489
out	-8.48156
z	-8.48423
▁taken	-8.48757
▁animal	-8.49138
▁seven	-8.49444
▁evil	-8.49462
▁space	-8.4947
▁simple	-8.49473
▁track	-8.49474
▁leaving	-8.49475
▁message	-8.49483
▁hair	-8.49492
▁station	-8.49498
▁mama	-8.49504
ce	-8.49558
▁sell	-8.4956
▁busy	-8.49611
▁santas	-8.49646
▁ice	-8.49654
▁spend	-8.49697
▁blue	-8.49794
▁al	-8.50545
ii	-8.507
ness	-8.5078
▁knows	-8.51388
▁fresh	-8.51763
▁canyons	-8.51785
▁language	-8.51799
▁taylor	-8.51799
▁outta	-8.51799
▁company	-8.51799
▁mail	-8.51801
▁living	-8.51802
▁gee	-8.5183
▁winter	-8.51852
▁spin	-8.51876
▁lll	-8.52399
ty	-8.5274
▁kiss	-8.52947
▁expect	-8.52962
▁engine	-8.53086
▁park	-8.532
ling	-8.54055
▁strike	-8.54061
▁clean	-8.54134
▁shh	-8.54155
▁sheep	-8.54176
▁baxter	-8.54179
▁dockerty	-8.54179
▁garden	-8.54179
▁relax	-8.54179
▁reeko	-8.5418
▁jelly	-8.5418
▁terrible	-8.5418
▁married	-8.54196
▁dangerous	-8.54203
at	-8.54215
▁double	-8.5425
▁screaming	-8.54332
▁cute	-8.54558
ive	-8.54686
▁blessing	-8.54716
▁handle	-8.54749
▁t	-8.54802
▁pack	-8.55384
ful	-8.55821
▁truth	-8.56
▁explain	-8.56141
▁cross	-8.56169
▁finish	-8.56176
▁deep	-8.56384
▁news	-8.56393
▁rings	-8.56431
▁wild	-8.56467
▁forgot	-8.56615
▁boris	-8.56618
▁felt	-8.56618
▁rascal	-8.56618
▁rimspoke	-8.56618
▁sarah	-8.56618
▁sword	-8.5662
▁football	-8.56624
▁afternoon	-8.56624
▁smile	-8.56632
▁kidding	-8.56634
▁eight	-8.56634
▁fear	-8.56639
▁american	-8.56805
▁faster	-8.56952
kept	-8.57458
▁law	-8.57825
se	-8.57931
▁teach	-8.58097
ation	-8.58631
▁operation	-8.58916
▁no	-8.58923
▁sister	-8.58928
▁copper	-8.58968
▁eye	-8.59013
▁form	-8.59104
▁worth	-8.59109
▁marriage	-8.59118
▁sense	-8.59119
▁hows	-8.59122
▁bernie	-8.59133
▁laughter	-8.5914
▁bag	-8.59172
▁sand	-8.59196
▁hill	-8.59393
▁celebrate	-8.59417
▁lives	-8.59612
▁fat	-8.59657
▁hed	-8.59732
▁miles	-8.59785
ra	-8.603
▁record	-8.60327
▁known	-8.60687
oo	-8.61102
ting	-8.61264
▁singing	-8.61345
▁winner	-8.61601
▁peace	-8.6166
▁bottom	-8.61683
▁police	-8.61683
▁rescue	-8.61683
▁monster	-8.61683
▁native	-8.61683
▁silly	-8.61687
▁speed	-8.61692
▁cash	-8.61693
▁drop	-8.61705
▁clothes	-8.61712
▁looked	-8.61772
ate	-8.62046
▁dis	-8.62402
ur	-8.62774
age	-8.6326
up	-8.63457
ine	-8.63554
▁standing	-8.63712
▁fell	-8.63754
▁red	-8.63974
▁wood	-8.64174
▁rope	-8.64262
▁higgins	-8.64314
▁plenty	-8.64314
▁smart	-8.64314
▁thousand	-8.64314
▁immediately	-8.64314
▁arthur	-8.64315
▁twice	-8.64317
▁beauty	-8.64317
▁week	-8.64317
▁dare	-8.64342
▁jane	-8.64348
▁tired	-8.64352
▁besides	-8.64498
im	-8.64638
less	-8.64953
el	-8.65287
▁happening	-8.65889
▁d	-8.66216
et	-8.66361
▁consider	-8.66451
▁ought	-8.66899
▁mistake	-8.66917
▁ground	-8.66995
▁john	-8.67003
▁adventure	-8.67017
▁amazing	-8.67017
▁applause	-8.67017
▁indistinct	-8.67017
▁inspector	-8.67017
▁jungle	-8.67017
▁kangaroo	-8.67017
▁jump	-8.67017
▁among	-8.67018
▁tough	-8.67019
▁frog	-8.67026
▁rather	-8.67029
▁shit	-8.67033
▁couple	-8.67039
▁shake	-8.67043
▁grunting	-8.67048
▁highness	-8.67075
▁hide	-8.67076
▁sky	-8.67136
▁cow	-8.67339
▁gosh	-8.67442
▁k	-8.67676
▁shine	-8.67878
▁continue	-8.68008
▁f	-8.68161
▁count	-8.68207
▁longer	-8.68261
re	-8.68611
▁grow	-8.68957
▁creatures	-8.69018
▁blow	-8.691
▁calling	-8.69182
is	-8.69384
▁howd	-8.69492
▁base	-8.69499
▁near	-8.69508
▁matt	-8.69512
▁bill	-8.6954
▁serious	-8.69568
▁trip	-8.69653
▁attention	-8.69795
▁beach	-8.69795
▁computer	-8.69795
▁hammond	-8.69795
▁ridiculous	-8.69795
▁royal	-8.69795
▁others	-8.69795
▁forgive	-8.69795
▁thunder	-8.69796
▁women	-8.69796
▁spot	-8.698
▁pleasure	-8.69808
▁growling	-8.69815
▁tv	-8.69826
▁absolutely	-8.69834
▁moon	-8.69882
▁whistle	-8.69926
▁mountain	-8.69937
▁cat	-8.69977
ent	-8.70206
▁hat	-8.70647
ul	-8.70704
▁unh	-8.70816
▁pe	-8.70975
▁knock	-8.71451
▁offer	-8.71875
un	-8.7209
▁laugh	-8.72161
▁legs	-8.72248
▁hen	-8.72279
▁honest	-8.72438
▁bar	-8.7244
▁alright	-8.72652
▁kitchen	-8.72652
▁balto	-8.72654
▁butch	-8.72655
▁claus	-8.72656
▁mmhmm	-8.72668
▁alan	-8.72684
▁sam	-8.72731
▁short	-8.72772
▁island	-8.72776
▁worked	-8.73481
▁ahh	-8.74013
▁bee	-8.74363
▁pigs	-8.7457
▁names	-8.74573
▁tin	-8.74678
▁mei	-8.74705
me	-8.74744
▁ship	-8.748
▁strange	-8.75137
▁suggest	-8.7543
▁doubt	-8.75593
▁emperor	-8.75593
▁formula	-8.75593
▁lunch	-8.75593
▁midvale	-8.75593
▁street	-8.75593
▁system	-8.75593
▁worried	-8.75593
▁pleasant	-8.75593
▁president	-8.75594
▁jones	-8.75594
▁silver	-8.75599
▁third	-8.75599
▁service	-8.756
▁nasty	-8.7561
▁henry	-8.7561
▁shouting	-8.75671
▁tail	-8.75677
▁fred	-8.75719
ry	-8.75721
▁band	-8.75731
▁grains	-8.75799
ance	-8.75816
▁sad	-8.75828
▁field	-8.75882
▁woody	-8.7593
▁ski	-8.76682
▁ringing	-8.76777
▁di	-8.76945
tic	-8.77086
ist	-8.77976
▁asking	-8.78383
▁soft	-8.78387
▁entire	-8.78403
▁certain	-8.78431
▁sick	-8.78594
▁theo	-8.786
▁gift	-8.78623
▁science	-8.78623
▁valley	-8.78623
▁black	-8.78624
▁planned	-8.78631
▁moving	-8.78632
blank	-8.78639
▁grandma	-8.78644
▁charge	-8.78645
▁nose	-8.78659
▁seconds	-8.78697
▁kate	-8.78744
▁aii	-8.78761
▁tea	-8.78789
▁leg	-8.78991
▁less	-8.79088
▁fit	-8.79225
▁greatest	-8.79328
▁wings	-8.79857
▁lve	-8.80795
▁heat	-8.8095
▁deliver	-8.80968
▁search	-8.81004
▁works	-8.8108
▁fix	-8.81292
▁meeting	-8.81422
▁write	-8.8154
▁ben	-8.81665
▁visit	-8.81691
▁andrew	-8.81748
▁caught	-8.81748
▁situation	-8.81748
▁suzette	-8.81748
▁tanamashu	-8.81748
▁thompson	-8.81748
▁competition	-8.81748
▁kingdom	-8.81748
▁choice	-8.81754
▁director	-8.81759
▁upon	-8.81792
▁dave	-8.81801
▁unless	-8.81817
▁prove	-8.81822
▁farm	-8.81835
▁nature	-8.81857
▁decided	-8.8186
▁none	-8.81887
▁date	-8.82081
▁teacher	-8.82091
▁picture	-8.82194
▁piece	-8.82344
▁ba	-8.82729
▁climb	-8.83454
▁missing	-8.83628
▁pounds	-8.8363
▁bless	-8.83808
▁taste	-8.84638
▁realize	-8.8469
▁cave	-8.84765
▁click	-8.84793
▁arm	-8.84896
▁river	-8.84966
▁extra	-8.8497
▁crusoe	-8.84974
▁hoggett	-8.84974
▁humbug	-8.84974
▁remain	-8.84974
▁someday	-8.84974
▁proud	-8.84974
▁teddy	-8.84974
▁pepe	-8.84974
▁anywhere	-8.84974
▁beginning	-8.84975
▁horn	-8.84975
▁cousin	-8.84975
▁doian	-8.84976
▁lowell	-8.84977
▁flag	-8.8498
▁forward	-8.84996
▁snorting	-8.85011
▁angela	-8.85014
▁leon	-8.85105
▁elle	-8.85148
▁early	-8.85172
▁rip	-8.85288
one	-8.85293
▁aw	-8.85354
▁happens	-8.85468
▁decision	-8.85528
▁promised	-8.85773
as	-8.86082
la	-8.86585
▁needed	-8.87176
▁spell	-8.87594
▁cry	-8.87626
▁mm	-8.87673
▁test	-8.87714
▁pet	-8.87753
▁difficult	-8.87935
▁max	-8.88124
▁rich	-8.88239
▁afford	-8.88307
▁junior	-8.88307
▁zira	-8.88307
▁wolf	-8.88308
▁mingle	-8.88308
▁worse	-8.88313
▁coach	-8.88323
▁miller	-8.88342
▁squealing	-8.88371
▁babe	-8.88375
▁robin	-8.88397
▁feed	-8.8851
▁tod	-8.8853
▁single	-8.88533
▁interested	-8.88679
▁fault	-8.88914
▁finished	-8.88938
▁guard	-8.89072
▁brains	-8.89125
▁hardly	-8.8919
ant	-8.8939
▁died	-8.89473
▁lords	-8.89594
▁uhh	-8.89793
ow	-8.90034
▁turned	-8.9068
▁rob	-8.90735
▁announce	-8.90832
▁travel	-8.90987
▁ex	-8.91267
▁treat	-8.91293
▁program	-8.91738
▁contest	-8.91744
▁middle	-8.91754
▁bruce	-8.91756
▁female	-8.91756
▁goreslimey	-8.91756
▁history	-8.91756
▁nervous	-8.91756
▁tortoise	-8.91756
▁yesterday	-8.91756
▁sensation	-8.91756
▁calm	-8.91756
▁clack	-8.91757
▁milk	-8.91758
▁practice	-8.91758
▁panting	-8.91761
▁international	-8.91763
▁throat	-8.91763
▁pudding	-8.91765
▁store	-8.91775
▁national	-8.91784
▁lying	-8.91829
▁completely	-8.91874
▁hee	-8.921
▁cup	-8.92102
▁tom	-8.92165
▁quickly	-8.92248
▁o	-8.92299
ap	-8.92515
▁perfectly	-8.92546
▁killed	-8.92647
▁key	-8.92663
▁imagine	-8.9269
▁presents	-8.93091
▁wise	-8.93184
▁rid	-8.93723
▁ann	-8.93772
▁lots	-8.94223
▁fish	-8.94575
▁arms	-8.94649
▁sea	-8.9485
▁smell	-8.95008
▁missed	-8.95222
▁broke	-8.95229
▁leo	-8.953
▁sp	-8.9532
▁herc	-8.95322
▁super	-8.95327
▁built	-8.95327
▁congratulations	-8.95327
▁husband	-8.95327
▁tammy	-8.95327
▁timmie	-8.95327
▁vacation	-8.95329
▁weather	-8.95329
▁johnny	-8.95333
▁stuck	-8.95335
▁aunt	-8.95338
▁hasnt	-8.95338
▁simon	-8.95346
▁fellow	-8.95347
▁baron	-8.9539
▁nicole	-8.95412
▁corner	-8.95453
▁honking	-8.95466
▁whe	-8.95534
▁iii	-8.95703
▁billy	-8.95718
▁fairy	-8.95811
▁challenge	-8.96033
▁barks	-8.96076
▁stars	-8.96145
▁mac	-8.96184
▁wall	-8.96229
▁apple	-8.96242
▁monkey	-8.9626
▁clouds	-8.9628
▁creature	-8.9634
and	-8.96607
▁mo	-8.96671
ary	-8.96833
▁ears	-8.9687
▁ab	-8.96921
dean	-8.96929
▁crash	-8.97805
▁fellas	-8.97819
ip	-8.98452
▁push	-8.9856
▁horses	-8.98629
ne	-8.98666
▁force	-8.98726
time	-8.98826
▁branch	-8.98931
▁protect	-8.98977
▁weeks	-8.99026
▁excellent	-8.99031
▁giggling	-8.99031
▁instead	-8.99031
▁thunderbird	-8.99031
▁desert	-8.99031
▁experiment	-8.99031
▁favorite	-8.99031
▁werent	-8.99031
▁emergency	-8.99031
▁timberwolves	-8.99031
▁department	-8.99033
▁leila	-8.99034
▁slice	-8.99035
▁ridgeway	-8.99035
▁share	-8.99036
▁driving	-8.99037
▁strength	-8.99039
▁danger	-8.99044
▁definitely	-8.99051
▁ash	-8.99071
▁uhoh	-8.99078
▁andy	-8.99087
▁mule	-8.99138
▁over	-8.99178
▁blown	-8.99179
▁tires	-8.99501
▁up	-8.99565
▁angels	-8.99709
▁passed	-8.99923
▁risk	-9.00128
▁month	-9.00155
▁fill	-9.00261
▁rule	-9.00416
▁ran	-9.0043
▁listening	-9.00494
▁orders	-9.00808
▁cook	-9.0116
▁cars	-9.01207
▁gun	-9.01353
▁takes	-9.01417
▁smoke	-9.0143
▁trees	-9.01503
ro	-9.01712
▁rules	-9.01723
▁guards	-9.02022
▁pain	-9.02113
▁cover	-9.02421
▁mention	-9.02453
▁lock	-9.02506
▁add	-9.02648
▁beg	-9.02716
▁fantasia	-9.02758
▁forge	-9.02769
▁watching	-9.02798
▁woods	-9.02855
▁admit	-9.02867
▁dexter	-9.02877
▁penelope	-9.02877
▁royce	-9.02877
▁victory	-9.02877
▁court	-9.02879
▁flash	-9.02879
▁norman	-9.0288
▁jenny	-9.0288
▁alarm	-9.02888
▁shell	-9.02918
▁rex	-9.02924
▁port	-9.02963
▁raise	-9.0297
▁age	-9.03005
▁bigger	-9.03023
▁hay	-9.03086
▁starting	-9.03403
j	-9.03577
▁se	-9.03706
▁ra	-9.03729
▁st	-9.03996
▁yah	-9.04007
▁pie	-9.04009
▁window	-9.04063
▁sharks	-9.04124
▁flower	-9.04289
▁fella	-9.04347
▁letter	-9.04451
co	-9.04803
▁sh	-9.04954
▁named	-9.05028
▁kit	-9.05393
▁lift	-9.05634
▁interest	-9.0575
▁lf	-9.05773
▁tim	-9.05799
▁eating	-9.05835
▁low	-9.06019
▁study	-9.06139
▁pop	-9.06192
▁steal	-9.06199
▁war	-9.06291
▁pal	-9.06373
▁enter	-9.0641
▁ruin	-9.06511
▁correct	-9.06623
▁blows	-9.06684
▁match	-9.06779
▁account	-9.06877
▁cereal	-9.06877
▁cream	-9.06877
▁george	-9.06877
▁henrietta	-9.06877
▁larrabee	-9.06877
▁nonsense	-9.06877
▁pouch	-9.06877
▁sergeant	-9.06877
▁tortoni	-9.06877
▁idiot	-9.06877
▁loud	-9.06877
▁rappel	-9.06877
▁papa	-9.06878
▁amos	-9.06882
▁zero	-9.06882
▁crime	-9.06884
▁spring	-9.06884
▁piggy	-9.06886
▁difference	-9.06886
▁carface	-9.06887
▁sonny	-9.06913
▁oran	-9.06918
▁paid	-9.06919
▁indeed	-9.06923
tion	-9.06943
pensive	-9.06948
▁settle	-9.06949
▁von	-9.06951
▁arrived	-9.06984
▁totally	-9.06988
▁snorts	-9.0705
▁manager	-9.07057
▁shining	-9.07081
▁manage	-9.07089
▁hood	-9.07183
▁hare	-9.07367
▁crying	-9.0776
▁climbing	-9.07806
▁screams	-9.07843
▁fired	-9.08297
▁table	-9.0844
▁v	-9.08516
▁cap	-9.08975
▁learning	-9.09039
▁lie	-9.09086
ical	-9.09125
▁sa	-9.09367
▁con	-9.09484
▁dress	-9.09895
▁fighting	-9.09901
▁ac	-9.1044
▁mess	-9.10498
▁allow	-9.10597
▁surprise	-9.10736
▁sire	-9.10736
he	-9.10758
▁goof	-9.10909
▁canyoneering	-9.11044
▁derek	-9.11044
▁dumb	-9.11044
▁however	-9.11044
▁irena	-9.11044
▁kandi	-9.11044
▁private	-9.11044
▁within	-9.11044
▁contract	-9.11044
▁respect	-9.11044
▁brave	-9.11044
▁york	-9.11044
▁faith	-9.11047
▁ugh	-9.11047
▁information	-9.11048
▁wedding	-9.1105
▁bother	-9.11052
▁spread	-9.11053
▁soup	-9.11057
▁project	-9.11102
▁refere	-9.11158
▁broken	-9.11166
▁closer	-9.11475
▁whispering	-9.11527
▁goodness	-9.11962
▁attacked	-9.12008
ill	-9.12136
▁saved	-9.1218
▁gammas	-9.12281
▁barry	-9.12536
▁position	-9.12618
▁lap	-9.12636
▁cheers	-9.12662
▁paper	-9.12665
▁finger	-9.12712
▁thr	-9.13206
▁meant	-9.13232
ick	-9.13518
omin	-9.1381
▁seeing	-9.13912
▁bat	-9.14
ha	-9.14262
▁tr	-9.14314
ia	-9.14917
ther	-9.14957
▁mark	-9.15015
▁per	-9.15135
▁pot	-9.1526
▁grab	-9.15353
▁cummings	-9.15391
▁evidence	-9.15391
▁exciting	-9.15391
▁fashion	-9.15391
▁group	-9.15391
▁pollen	-9.15391
▁ralph	-9.15391
▁steady	-9.15391
▁wagon	-9.15391
▁level	-9.15392
▁nova	-9.15392
▁darn	-9.15392
▁weii	-9.15392
▁upset	-9.15392
▁dude	-9.15393
▁miracle	-9.15395
▁giant	-9.15398
▁chimp	-9.15403
▁thatll	-9.15408
▁james	-9.15412
▁talent	-9.15414
▁flat	-9.15415
▁bite	-9.15422
▁jail	-9.15422
▁brandon	-9.15428
▁flies	-9.15434
▁main	-9.15464
▁cost	-9.1553
▁goofy	-9.15705
▁prayer	-9.15793
▁pro	-9.15865
▁feels	-9.16033
▁studio	-9.16091
▁holding	-9.16184
▁simians	-9.16191
▁figured	-9.16257
▁misses	-9.16356
▁madam	-9.16433
▁changed	-9.16509
▁blowing	-9.16547
▁counting	-9.16557
▁belong	-9.16713
▁vi	-9.16784
▁due	-9.17001
▁wearing	-9.1708
▁spindle	-9.17099
▁bomb	-9.17135
▁duck	-9.17149
▁ne	-9.17194
the	-9.17219
▁wheel	-9.17274
▁hop	-9.17323
▁pound	-9.17351
▁given	-9.17391
rs	-9.17516
▁plant	-9.17676
▁seat	-9.17845
▁singer	-9.17944
ey	-9.18279
▁lights	-9.18653
ile	-9.18667
▁ru	-9.18691
▁build	-9.19233
▁plays	-9.19356
▁appear	-9.19447
▁pray	-9.19523
am	-9.19551
▁fort	-9.19562
▁burn	-9.19576
▁who	-9.1962
li	-9.19678
▁waste	-9.1969
▁natural	-9.19714
▁large	-9.19816
▁asleep	-9.19937
▁bonnelli	-9.19937
▁bravo	-9.19937
▁central	-9.19937
▁glenn	-9.19937
▁harriet	-9.19937
▁milady	-9.19937
▁neither	-9.19937
▁switch	-9.19937
▁teeth	-9.19937
▁whistling	-9.19937
▁byebye	-9.19937
▁oil	-9.19937
▁proceed	-9.19937
▁snoring	-9.19937
▁teii	-9.19937
▁willard	-9.19939
▁winning	-9.1994
▁patient	-9.19941
▁weekend	-9.19943
▁floor	-9.19947
▁season	-9.19949
▁fuel	-9.1995
▁meat	-9.19954
▁everywhere	-9.1996
▁aboard	-9.1996
▁elf	-9.19961
▁card	-9.19982
▁personal	-9.19983
▁comin	-9.19992
▁weight	-9.20031
▁invited	-9.2004
▁sue	-9.20045
▁sight	-9.20071
▁drum	-9.20082
▁suddenly	-9.20094
▁army	-9.20362
▁tiny	-9.20409
▁turns	-9.2055
▁bigge	-9.20557
▁dado	-9.21308
▁leader	-9.2138
▁introduce	-9.21517
x	-9.2163
▁heaven	-9.2174
▁sport	-9.21973
▁begin	-9.2207
▁doll	-9.22206
▁heavens	-9.22605
to	-9.23026
▁bringing	-9.2361
ig	-9.2385
ship	-9.24126
▁loose	-9.24574
▁chuck	-9.24615
▁places	-9.24633
▁barcuna	-9.24699
▁brittany	-9.24699
▁french	-9.24699
▁nottingham	-9.24699
▁security	-9.24699
▁suffer	-9.24699
▁whimpering	-9.24699
▁candle	-9.24699
▁view	-9.24699
▁cheese	-9.24699
▁dollars	-9.24699
▁erik	-9.247
▁chitra	-9.247
▁movie	-9.247
▁accord	-9.24702
▁prize	-9.24703
▁duke	-9.24704
▁swim	-9.24704
▁truck	-9.24705
▁slide	-9.24705
▁address	-9.24706
▁mike	-9.24707
▁kom	-9.24707
▁repeat	-9.2472
▁paul	-9.2474
▁chen	-9.24778
▁pitch	-9.24813
▁type	-9.24898
be	-9.24974
▁putting	-9.24989
▁agreed	-9.24997
▁owl	-9.25002
▁losing	-9.25053
▁glor	-9.25088
▁rose	-9.25101
▁whee	-9.25198
▁officer	-9.25225
▁suit	-9.25362
▁interesting	-9.25582
▁recording	-9.26088
▁ad	-9.26264
▁trick	-9.26329
▁score	-9.26466
▁le	-9.26505
te	-9.26757
▁ticket	-9.26812
▁hippo	-9.26849
▁calls	-9.26877
▁note	-9.26982
▁intern	-9.27042
▁played	-9.27076
▁par	-9.27076
▁unit	-9.27108
led	-9.27118
▁dari	-9.27225
▁out	-9.27272
▁driver	-9.27362
▁fa	-9.2812
▁mar	-9.28305
▁falling	-9.28312
▁bus	-9.28377
▁keys	-9.28409
▁breath	-9.28432
▁gives	-9.28878
▁cha	-9.29018
▁cheat	-9.2902
▁tall	-9.29087
▁carry	-9.29088
ke	-9.2915
os	-9.29178
▁accept	-9.29216
▁design	-9.29251
specially	-9.29301
sh	-9.29311
▁agree	-9.29354
▁german	-9.29374
▁charli	-9.29389
▁mountains	-9.29437
▁should	-9.29442
▁proper	-9.29478
iy	-9.29576
▁south	-9.29692
▁accident	-9.29699
▁cinderelly	-9.29699
▁contact	-9.29699
▁cornelius	-9.29699
▁crew	-9.29699
▁england	-9.29699
▁eyepoppers	-9.29699
▁pizza	-9.29699
▁scrooge	-9.29699
▁snowflake	-9.29699
▁tarzan	-9.29699
▁zaius	-9.29699
▁telephone	-9.29699
▁chittering	-9.29699
▁fruit	-9.29699
▁village	-9.29699
▁necessary	-9.297
▁birthday	-9.297
▁local	-9.29701
▁block	-9.29701
▁jingle	-9.29701
▁gadgetmobile	-9.29703
▁battle	-9.29704
▁amount	-9.29705
▁dying	-9.29706
▁clock	-9.29706
▁unusual	-9.29708
▁noise	-9.29709
▁favor	-9.2971
▁pardon	-9.29711
▁snowbell	-9.29713
▁common	-9.29715
▁stray	-9.29723
▁iike	-9.29725
▁handsome	-9.29738
▁smith	-9.29741
▁nine	-9.29751
▁illusion	-9.29765
▁puppy	-9.29768
▁storm	-9.29771
▁map	-9.29799
ad	-9.29847
▁hunter	-9.29949
▁charming	-9.30019
▁surprised	-9.30071
▁lee	-9.30136
▁wally	-9.30147
▁screeching	-9.30208
▁boxing	-9.30287
lly	-9.30318
ck	-9.30741
em	-9.3076
▁sooner	-9.30908
ally	-9.31492
▁students	-9.3163
▁subject	-9.32074
▁partner	-9.32156
no	-9.3233
▁questions	-9.32411
lo	-9.32469
▁following	-9.32502
▁loser	-9.3254
▁humans	-9.32983
▁problems	-9.33108
▁player	-9.33226
▁bo	-9.33563
▁ste	-9.33843
▁boo	-9.33853
land	-9.33996
▁event	-9.34098
▁helping	-9.34359
came	-9.34609
▁escape	-9.34689
▁stole	-9.34856
▁glass	-9.34857
▁ai	-9.34909
▁bert	-9.34949
▁heavy	-9.34961
▁apologize	-9.34962
▁beyond	-9.34962
▁bought	-9.34962
▁bunch	-9.34962
▁famous	-9.34962
▁godzilla	-9.34962
▁karthik	-9.34962
▁marakeet	-9.34962
▁midnight	-9.34962
▁purpose	-9.34962
▁scientific	-9.34962
▁whimpers	-9.34962
▁jesse	-9.34962
▁journey	-9.34962
▁humming	-9.34962
▁pretend	-9.34962
▁pony	-9.34963
▁jerk	-9.34963
▁dewey	-9.34964
▁often	-9.34964
▁planning	-9.34965
▁william	-9.34965
▁area	-9.34965
▁uhhuh	-9.34965
▁timmy	-9.34966
▁jake	-9.34966
▁public	-9.34968
▁wiii	-9.34968
▁club	-9.34969
▁apart	-9.3497
▁motor	-9.34972
▁neck	-9.34973
▁garth	-9.34974
▁worst	-9.34985
▁opportunity	-9.34987
▁vow	-9.34988
▁evilia	-9.34989
▁fantastic	-9.34994
▁direction	-9.34999
▁energy	-9.35003
▁usually	-9.35039
▁bound	-9.35058
▁clue	-9.35071
▁obviously	-9.35075
▁snake	-9.35086
▁coppers	-9.35283
▁bath	-9.35311
▁gasping	-9.35315
ma	-9.35371
▁nearly	-9.35383
▁hearts	-9.35492
▁eve	-9.35617
▁goal	-9.35825
▁hole	-9.3585
▁owe	-9.35876
▁rats	-9.35984
▁waves	-9.36092
▁bud	-9.36368
▁gas	-9.36372
▁bucks	-9.36395
ted	-9.36532
▁crowns	-9.36697
▁me	-9.3676
▁loved	-9.36877
▁skills	-9.37007
ho	-9.37032
▁robert	-9.37743
▁ghost	-9.37773
▁scout	-9.37773
▁speaks	-9.37915
▁provide	-9.38481
▁months	-9.3884
▁brothers	-9.39197
▁wash	-9.3929
▁draw	-9.39795
▁sl	-9.39894
▁destroy	-9.40057
▁america	-9.40086
▁moo	-9.40102
▁prepare	-9.40237
ol	-9.40239
▁serve	-9.40278
▁frank	-9.40338
our	-9.40425
▁nothin	-9.40469
▁anastasia	-9.40518
▁applaud	-9.40518
▁breakfast	-9.40518
▁choose	-9.40518
▁claudia	-9.40518
▁clever	-9.40518
▁hitchcock	-9.40518
▁hyah	-9.40518
▁interrupt	-9.40518
▁krinkle	-9.40518
▁quigley	-9.40518
▁regret	-9.40518
▁simply	-9.40518
▁blind	-9.40518
▁spinach	-9.40518
▁bonnie	-9.40518
▁guinea	-9.40518
▁monty	-9.40518
▁pollinators	-9.40519
▁colonel	-9.4052
▁heck	-9.40523
▁yellow	-9.40527
▁nasties	-9.40527
▁charity	-9.40531
▁rough	-9.40531
▁inter	-9.40536
▁tw	-9.40541
▁stage	-9.40549
▁self	-9.40551
▁deck	-9.40561
▁destiny	-9.40561
▁yep	-9.40561
▁pure	-9.40564
▁appreciate	-9.40567
▁allen	-9.40568
▁sail	-9.40578
▁code	-9.4058
▁carol	-9.40593
▁taxi	-9.40605
▁grav	-9.40628
▁remind	-9.40645
▁sweetie	-9.40678
▁pinky	-9.40684
ily	-9.40718
▁jen	-9.40825
▁skin	-9.40841
▁discovered	-9.40841
▁maxie	-9.40847
▁pup	-9.40876
▁escaped	-9.40884
▁gibbering	-9.40918
▁frightful	-9.41035
▁hunting	-9.41045
▁warning	-9.41174
▁liver	-9.41315
▁nuts	-9.41377
▁building	-9.41424
▁attacker	-9.41484
▁ordered	-9.4193
▁lit	-9.41937
op	-9.4199
▁fans	-9.42282
▁apes	-9.42517
▁si	-9.42619
▁training	-9.42714
go	-9.43132
▁shows	-9.43361
▁condition	-9.43548
▁snap	-9.4355
▁lesson	-9.43612
▁chicken	-9.4362
▁member	-9.43658
▁indian	-9.43739
▁tape	-9.43771
ton	-9.4412
ever	-9.4421
tch	-9.44524
▁chris	-9.45017
ending	-9.45393
da	-9.45584
place	-9.45647
ore	-9.46061
▁notice	-9.4608
▁slipper	-9.46252
▁champ	-9.46339
uppence	-9.4638
▁advisor	-9.464
▁forbidden	-9.464
▁jessica	-9.464
▁merrinoe	-9.464
▁mouth	-9.464
▁naught	-9.464
▁odette	-9.464
▁purse	-9.464
▁sundancer	-9.464
▁taught	-9.464
▁virg	-9.464
▁zora	-9.464
▁marshal	-9.464
▁pocket	-9.464
▁shirt	-9.464
▁support	-9.464
▁tanner	-9.464
▁jesus	-9.464
▁militar	-9.464
▁truly	-9.464
▁pringle	-9.464
▁bride	-9.464
▁practical	-9.46401
▁linus	-9.46401
▁prefer	-9.46401
▁bridge	-9.46402
▁joy	-9.46402
▁sunset	-9.46402
▁fancy	-9.46405
▁clark	-9.46406
▁brutus	-9.46407
▁forgotten	-9.46409
▁kane	-9.4641
▁robot	-9.46412
▁italian	-9.46419
▁peck	-9.46419
▁tuppence	-9.4642
▁grass	-9.46425
▁market	-9.46426
▁lean	-9.46433
▁size	-9.46435
▁skull	-9.46436
▁aban	-9.46441
▁rome	-9.46469
▁friendship	-9.46494
▁murmuring	-9.46512
▁tower	-9.46558
▁root	-9.46633
▁swing	-9.46675
▁coughing	-9.46698
▁an	-9.46769
▁action	-9.46856
▁starts	-9.4689
▁iove	-9.46994
▁bend	-9.47007
▁allowed	-9.47042
▁cookie	-9.47142
for	-9.47188
▁turning	-9.47283
▁fur	-9.47446
▁stealing	-9.47537
com	-9.47633
▁guessing	-9.47721
▁spelling	-9.47726
▁pin	-9.47749
ard	-9.48084
▁returned	-9.48253
▁airlines	-9.48524
▁games	-9.48792
▁slip	-9.48925
▁so	-9.48938
▁mi	-9.49202
▁staying	-9.49293
▁mate	-9.49302
▁explosion	-9.49797
nce	-9.49798
▁raccoon	-9.49843
▁mighty	-9.49905
▁depend	-9.49933
▁wondering	-9.49969
▁beating	-9.50551
▁ma	-9.50704
dy	-9.50726
son	-9.5115
men	-9.51412
▁box	-9.51427
▁wool	-9.51565
▁warn	-9.51624
▁pieces	-9.51646
na	-9.51698
beat	-9.51807
▁whisper	-9.51923
▁surely	-9.51974
▁opens	-9.52036
▁complete	-9.52176
▁doc	-9.5226
▁whistles	-9.52351
▁sudden	-9.52432
▁hoo	-9.52445
▁walt	-9.52469
aw	-9.52496
▁brand	-9.52598
▁gettin	-9.52614
▁grace	-9.52628
▁spun	-9.52634
▁africa	-9.5265
▁attempt	-9.5265
▁awesome	-9.5265
▁barbara	-9.5265
▁brilliant	-9.5265
▁chirp	-9.5265
▁corporal	-9.5265
▁excited	-9.5265
▁kartik	-9.5265
▁khan	-9.5265
▁library	-9.5265
▁oclock	-9.5265
▁palace	-9.5265
▁sophie	-9.5265
▁survive	-9.5265
▁thief	-9.5265
▁wednesday	-9.5265
▁connor	-9.5265
▁distance	-9.5265
▁instant	-9.5265
▁jeff	-9.5265
▁mortal	-9.5265
▁mouse	-9.5265
▁racing	-9.5265
▁happiness	-9.52651
▁precious	-9.52651
▁stella	-9.52652
▁obey	-9.52653
▁wherever	-9.52653
▁hidden	-9.52654
▁ugly	-9.52654
▁gusta	-9.52654
▁foster	-9.52654
▁failure	-9.52654
▁goose	-9.52654
▁paolo	-9.52655
▁spoke	-9.52657
▁candy	-9.52657
▁sweetheart	-9.5266
▁incredible	-9.52661
▁dozen	-9.52661
▁comfortable	-9.52665
▁riverton	-9.52666
▁oooh	-9.5269
▁press	-9.52729
▁fetch	-9.5273
▁cage	-9.52756
▁dust	-9.52776
▁funky	-9.52785
▁rise	-9.52824
▁jar	-9.52868
▁winners	-9.52882
▁loves	-9.52889
we	-9.529
▁received	-9.52925
▁defend	-9.52932
▁tied	-9.52961
▁cast	-9.53045
▁mary	-9.53104
▁aaah	-9.53169
▁all	-9.53267
▁dressed	-9.53339
▁slowly	-9.5334
▁locked	-9.53393
▁page	-9.53461
▁che	-9.53547
▁tale	-9.53662
▁higher	-9.53894
▁harder	-9.54088
▁picked	-9.54196
wa	-9.54201
ru	-9.54204
ooh	-9.54262
▁knocking	-9.54311
▁growing	-9.54353
▁seemed	-9.54378
▁tears	-9.54575
line	-9.54747
ot	-9.5533
▁numbers	-9.55647
▁wins	-9.55966
▁she	-9.56107
▁interns	-9.56195
▁ear	-9.56349
▁sports	-9.56389
▁saint	-9.5651
▁it	-9.56526
▁belongs	-9.56592
▁guest	-9.56631
▁signal	-9.56789
all	-9.56973
ng	-9.57009
▁il	-9.57461
▁woo	-9.57772
ail	-9.57802
ba	-9.57827
▁pen	-9.57831
▁u	-9.57848
ca	-9.57901
▁brings	-9.58221
▁en	-9.58339
do	-9.58603
▁bang	-9.58619
pped	-9.58624
▁books	-9.58688
act	-9.58692
▁doin	-9.58941
▁butt	-9.58969
ious	-9.59074
▁create	-9.59086
▁murder	-9.59103
▁harm	-9.59239
▁auto	-9.59279
iam	-9.59295
▁success	-9.59297
▁wing	-9.59303
▁audience	-9.59317
▁chloe	-9.59317
▁dawn	-9.59317
▁eleanor	-9.59317
▁empress	-9.59317
▁familiar	-9.59317
▁genius	-9.59317
▁klaus	-9.59317
▁kodi	-9.59317
▁marianne	-9.59317
▁otherwise	-9.59317
▁scott	-9.59317
▁section	-9.59317
▁slykes	-9.59317
▁sneak	-9.59317
▁telugu	-9.59317
▁turkey	-9.59317
▁twelve	-9.59317
▁weird	-9.59317
▁angry	-9.59317
▁brent	-9.59317
▁ciao	-9.59317
▁dixie	-9.59317
▁lambert	-9.59317
▁sharp	-9.59317
▁threw	-9.59317
▁video	-9.59317
▁zone	-9.59317
▁satterfield	-9.59317
▁whatd	-9.59317
▁wire	-9.59317
▁feather	-9.59318
▁vicious	-9.59319
▁hadnt	-9.59319
▁smiling	-9.5932
▁route	-9.59322
▁growls	-9.59322
▁divine	-9.59323
▁possibly	-9.59326
▁psst	-9.59327
▁balloon	-9.5933
▁unknown	-9.59334
▁owner	-9.59334
▁gang	-9.59338
▁slight	-9.59338
▁tuck	-9.59339
▁bash	-9.5934
▁teammate	-9.59342
▁blast	-9.59346
▁invention	-9.59352
▁gina	-9.59359
▁championship	-9.59365
▁tie	-9.59377
▁tempo	-9.59378
▁agent	-9.59379
▁maa	-9.59381
▁style	-9.59384
▁stopped	-9.59404
▁powerful	-9.59408
▁sale	-9.59411
▁rocket	-9.59425
▁camera	-9.59504
▁huge	-9.59529
▁dirty	-9.59531
▁west	-9.59546
▁center	-9.59556
▁barn	-9.59557
▁stink	-9.59606
▁tour	-9.5967
▁sub	-9.59726
▁approaching	-9.59752
▁squeals	-9.59805
by	-9.5984
▁honestly	-9.59842
plain	-9.59961
ure	-9.60131
▁wishes	-9.60193
ish	-9.60468
▁fighter	-9.6061
▁keeping	-9.60674
ping	-9.61109
ied	-9.61115
▁shoo	-9.61563
▁learned	-9.61579
▁passing	-9.62048
▁gu	-9.62176
▁members	-9.62534
▁ghosts	-9.62732
▁scouts	-9.62732
ge	-9.62817
▁post	-9.63085
▁cheer	-9.63335
▁bi	-9.63603
▁deserve	-9.63605
▁pilot	-9.63605
▁servant	-9.63606
▁student	-9.63751
▁fi	-9.63766
let	-9.63874
▁skill	-9.63885
caf	-9.63994
▁plans	-9.64096
▁doors	-9.64157
▁sleeping	-9.64164
▁includ	-9.64295
ual	-9.64429
▁talks	-9.64537
▁steps	-9.64681
if	-9.65216
tor	-9.65228
▁fl	-9.6534
ight	-9.65398
▁kings	-9.65438
ward	-9.65559
▁launch	-9.65668
▁screech	-9.65728
room	-9.65979
▁rush	-9.65981
▁showed	-9.66028
▁scare	-9.66102
▁load	-9.66142
▁experience	-9.6618
▁prison	-9.66236
ong	-9.66279
▁cows	-9.6628
▁express	-9.66303
▁itch	-9.66386
▁basic	-9.6645
▁bibbidibobbidi	-9.66459
▁brush	-9.66459
▁anchor	-9.66459
▁audition	-9.66459
▁barista	-9.66459
▁beloved	-9.66459
▁dearborne	-9.66459
▁easier	-9.66459
▁easily	-9.66459
▁equipment	-9.66459
▁example	-9.66459
▁fanfare	-9.66459
▁gigante	-9.66459
▁jacob	-9.66459
▁lieutenant	-9.66459
▁magnificent	-9.66459
▁mercy	-9.66459
▁murray	-9.66459
▁nightmare	-9.66459
▁ocean	-9.66459
▁responsibility	-9.66459
▁schooi	-9.66459
▁skunk	-9.66459
▁spark	-9.66459
▁empty	-9.6646
▁period	-9.6646
▁ransom	-9.6646
▁breed	-9.6646
▁nurse	-9.6646
▁onto	-9.6646
▁henri	-9.6646
▁trumpet	-9.6646
▁mallinger	-9.66461
▁technical	-9.66461
▁upsidedown	-9.66461
▁barely	-9.66461
▁shape	-9.66463
▁friday	-9.66463
▁gotcha	-9.66463
▁bow	-9.66464
▁lightning	-9.66465
▁split	-9.66467
▁toward	-9.66468
▁groov	-9.66469
erald	-9.66469
▁commandant	-9.66471
▁blame	-9.66471
▁dietz	-9.66474
▁price	-9.66474
▁swear	-9.66475
▁cheap	-9.66475
▁duty	-9.66476
▁sake	-9.66477
▁soul	-9.6648
▁swan	-9.66485
▁slot	-9.66487
tock	-9.66499
▁mice	-9.66511
▁jaw	-9.66528
▁capable	-9.66536
▁unfortunately	-9.6655
▁harry	-9.6655
▁art	-9.66578
▁claim	-9.66598
▁stolen	-9.66605
▁ken	-9.66607
▁runs	-9.66661
ions	-9.66728
hark	-9.66735
▁baboons	-9.66776
way	-9.66813
▁magical	-9.6682
ster	-9.66821
▁buzzing	-9.66838
▁net	-9.6685
▁suspect	-9.66936
▁entirely	-9.66993
▁yelling	-9.66999
▁spy	-9.67069
▁shadows	-9.67189
▁realized	-9.67219
▁howdy	-9.67262
off	-9.67316
▁mayor	-9.67393
▁paint	-9.67394
▁filled	-9.67408
▁treated	-9.67418
▁jet	-9.67887
▁do	-9.67978
▁shooter	-9.68022
▁siren	-9.68276
▁pulled	-9.68279
▁whi	-9.68354
▁cy	-9.68554
▁followed	-9.68956
▁lay	-9.69007
▁sn	-9.69174
▁hanging	-9.69499
▁guests	-9.69502
▁reading	-9.69998
▁finding	-9.70263
▁dolls	-9.70747
▁gr	-9.70773
▁begins	-9.70784
▁clears	-9.71077
ern	-9.71178
▁conversation	-9.7126
▁saxon	-9.71297
▁can	-9.71334
▁credit	-9.71383
▁ape	-9.71424
▁shoe	-9.71466
▁airline	-9.71473
▁lands	-9.71484
▁toy	-9.71533
▁sta	-9.71721
bb	-9.71737
▁farmer	-9.7183
ts	-9.72008
▁for	-9.72023
▁mile	-9.72199
▁claws	-9.72359
▁opening	-9.72601
▁clicks	-9.72777
▁crack	-9.72887
▁hunt	-9.73113
▁fits	-9.73161
▁planes	-9.73286
▁range	-9.73363
ff	-9.73387
ody	-9.73421
▁mor	-9.73495
▁march	-9.73676
bit	-9.73686
▁discover	-9.73707
though	-9.7378
▁guide	-9.73811
▁bull	-9.7389
▁total	-9.73935
▁official	-9.73937
▁bees	-9.73958
▁collect	-9.7397
▁drown	-9.74041
▁tradition	-9.74064
▁gods	-9.74087
▁chap	-9.74094
▁grandpa	-9.74125
▁perform	-9.74135
▁berkshire	-9.74152
▁british	-9.74152
▁conduct	-9.74152
▁excitement	-9.74152
▁generation	-9.74152
▁hockey	-9.74152
▁jennifer	-9.74152
▁mckible	-9.74152
▁medicine	-9.74152
▁memory	-9.74152
▁muffled	-9.74152
▁opinion	-9.74152
▁parkhurst	-9.74152
▁presence	-9.74152
▁request	-9.74152
▁savage	-9.74152
▁silence	-9.74152
▁therefore	-9.74152
▁upstairs	-9.74152
▁chinese	-9.74152
▁electro	-9.74152
▁incident	-9.74152
▁medfield	-9.74152
▁scary	-9.74152
▁scene	-9.74152
▁spoil	-9.74152
▁stories	-9.74152
▁oscar	-9.74152
▁pair	-9.74152
▁canoe	-9.74152
▁poison	-9.74153
▁heavyweight	-9.74154
▁understood	-9.74154
▁recall	-9.74154
▁wrap	-9.74155
▁culture	-9.74155
▁roger	-9.74156
▁luke	-9.74157
▁halt	-9.74158
▁nowhere	-9.74159
▁huey	-9.7416
▁legend	-9.7416
▁damage	-9.74161
▁sheepdog	-9.74164
▁refuse	-9.74164
▁gorgeous	-9.74165
▁boots	-9.74167
▁regular	-9.74175
▁successful	-9.74175
▁sunday	-9.74177
▁chasing	-9.74182
▁breeze	-9.74183
pulse	-9.74194
▁cock	-9.74195
▁bobby	-9.74196
▁meg	-9.74199
▁league	-9.742
▁whalen	-9.74207
▁color	-9.74208
▁trade	-9.74209
▁pants	-9.74212
▁latte	-9.7423
▁darkness	-9.74239
▁sniffing	-9.74245
▁toot	-9.74289
▁bu	-9.74336
▁discuss	-9.74337
▁hook	-9.74338
▁dadda	-9.74347
ay	-9.74348
▁rare	-9.74363
▁dot	-9.74363
▁factory	-9.74365
▁squeaking	-9.74366
▁non	-9.74374
▁woolly	-9.74441
▁eaten	-9.74611
▁ol	-9.74647
▁stocking	-9.74839
▁designed	-9.7486
▁leer	-9.74883
▁breathe	-9.74964
▁killer	-9.75007
▁fri	-9.75225
ition	-9.75312
▁studying	-9.7562
▁talkin	-9.75627
▁riding	-9.75817
▁meaning	-9.75996
▁soldiers	-9.76076
▁someones	-9.76171
▁closed	-9.76432
▁orphans	-9.76762
▁cares	-9.76766
ble	-9.76847
▁sum	-9.7686
▁lived	-9.77203
▁lied	-9.77306
ide	-9.77371
▁pre	-9.77375
▁pulling	-9.774
▁killing	-9.77591
lle	-9.78448
▁drivers	-9.78671
▁bon	-9.79256
▁ro	-9.79289
▁papers	-9.79313
ated	-9.7938
▁joke	-9.79692
▁orphan	-9.79703
▁holiday	-9.79705
▁wowser	-9.79724
▁crown	-9.79757
▁shark	-9.79828
▁headed	-9.79952
▁lookin	-9.80019
▁dreaming	-9.80169
▁ls	-9.8026
▁fathers	-9.80405
▁shower	-9.8046
▁ci	-9.80696
▁led	-9.80728
▁aha	-9.8084
ice	-9.81008
king	-9.81093
ring	-9.81256
▁wh	-9.81557
▁cloth	-9.81573
▁hug	-9.81664
ating	-9.81743
▁ships	-9.81777
▁stock	-9.818
▁bowl	-9.81835
ize	-9.81863
▁focus	-9.82017
▁gather	-9.82037
repe	-9.82051
▁exist	-9.82053
▁receive	-9.82078
▁recognize	-9.82143
▁release	-9.82152
▁advance	-9.82165
▁cats	-9.82166
▁decide	-9.82183
boo	-9.82214
ue	-9.82356
▁tip	-9.82383
▁hospital	-9.82456
▁chiid	-9.82485
▁courage	-9.82485
▁photo	-9.82485
▁smooth	-9.82485
▁sugar	-9.82485
▁airplane	-9.82485
▁balthazar	-9.82485
▁butterflies	-9.82485
▁carruthers	-9.82485
▁creak	-9.82485
▁cyclone	-9.82485
▁desire	-9.82485
▁donnybrook	-9.82485
▁eagle	-9.82485
▁espresso	-9.82485
▁fifth	-9.82485
▁flicky	-9.82485
▁joking	-9.82485
▁license	-9.82485
▁london	-9.82485
▁meadow	-9.82485
▁mumbling	-9.82485
▁oska	-9.82485
▁promotion	-9.82485
▁shakespeare	-9.82485
▁stomach	-9.82485
▁yawns	-9.82485
▁generous	-9.82485
▁louie	-9.82485
▁milkweed	-9.82485
▁thread	-9.82485
▁unique	-9.82485
▁frost	-9.82485
▁sobbing	-9.82485
▁television	-9.82485
▁broadcast	-9.82485
▁zoo	-9.82485
▁permission	-9.82486
▁aircraft	-9.82487
▁interference	-9.82487
▁spinning	-9.82488
▁kidnapped	-9.82488
▁insist	-9.82488
▁tracy	-9.8249
▁earlier	-9.8249
▁heels	-9.82491
▁flock	-9.82492
▁hissing	-9.82492
▁assistant	-9.82493
▁noble	-9.82493
▁capture	-9.82495
▁lionel	-9.82495
▁roof	-9.82495
▁happily	-9.82496
▁grew	-9.82497
▁flew	-9.82497
▁towel	-9.82497
▁wipe	-9.825
▁solid	-9.82501
▁steam	-9.82501
▁grandmother	-9.82502
▁shore	-9.82503
▁string	-9.82503
▁deposit	-9.82504
▁greek	-9.82504
▁confidence	-9.82506
▁drunk	-9.82507
▁refer	-9.82508
▁rode	-9.82513
▁pressure	-9.82514
▁pumpkin	-9.82515
▁universe	-9.82522
▁reward	-9.82527
▁plus	-9.82539
▁wide	-9.82539
▁clare	-9.82548
▁trap	-9.82548
▁toes	-9.82555
▁weak	-9.82556
▁wet	-9.82561
▁gain	-9.82564
▁luti	-9.82565
▁male	-9.82567
ations	-9.8258
▁josh	-9.82595
▁safety	-9.82606
▁setting	-9.82621
▁injury	-9.82632
▁sitting	-9.82633
▁vp	-9.82635
▁tipp	-9.82636
▁fairies	-9.82645
ules	-9.82646
▁dig	-9.82656
▁coat	-9.8269
▁carried	-9.82709
▁branches	-9.82716
▁sold	-9.82717
▁gear	-9.82744
▁flame	-9.82777
▁moms	-9.82827
▁challenger	-9.8284
▁thirsty	-9.8289
▁willing	-9.82924
away	-9.82965
▁personally	-9.82967
▁sighing	-9.82986
che	-9.83078
▁ohoh	-9.83082
▁baker	-9.83103
▁howling	-9.83104
▁lower	-9.83132
▁shatter	-9.83189
fully	-9.83194
▁log	-9.83217
▁seeds	-9.83282
▁wa	-9.83288
▁stronger	-9.83309
▁county	-9.83441
▁dearest	-9.83523
▁exams	-9.83553
▁goblins	-9.83594
▁ass	-9.83644
sky	-9.83729
ered	-9.8373
ley	-9.83864
▁burning	-9.83885
▁pleased	-9.83979
anche	-9.84035
▁carefully	-9.84091
▁lifting	-9.84095
▁coughs	-9.84099
▁fan	-9.84105
ways	-9.84627
▁bones	-9.84692
▁states	-9.84812
▁details	-9.84833
▁regents	-9.84834
▁landed	-9.84942
ress	-9.84978
▁fe	-9.85067
▁diamonds	-9.85083
▁eggs	-9.85083
▁caused	-9.85093
rick	-9.85127
ory	-9.85236
▁princey	-9.85271
▁lips	-9.85416
▁friendly	-9.85524
▁credits	-9.85584
▁mere	-9.85585
▁pr	-9.85758
▁dry	-9.85759
▁den	-9.8581
ier	-9.86167
▁attract	-9.86399
▁ideas	-9.86436
▁pi	-9.86493
▁mothers	-9.86712
uck	-9.86735
min	-9.86879
neer	-9.86986
ors	-9.87166
▁hearing	-9.87255
▁cards	-9.87829
▁limit	-9.87943
▁aaa	-9.88049
▁finds	-9.88071
urg	-9.88115
over	-9.88371
▁hall	-9.88645
▁adult	-9.88683
▁devil	-9.8872
▁diamond	-9.88806
▁egg	-9.88806
▁guns	-9.88814
▁gamma	-9.88864
▁stone	-9.89013
▁shoulder	-9.89059
▁walls	-9.89159
gh	-9.89311
▁du	-9.89311
qui	-9.89367
hand	-9.8944
▁tear	-9.89622
▁teams	-9.89721
▁ye	-9.89745
bell	-9.89758
▁talked	-9.89843
▁shop	-9.89896
▁there	-9.89985
▁com	-9.90172
▁command	-9.90351
con	-9.90431
▁east	-9.90492
▁he	-9.9058
bles	-9.90622
▁when	-9.90726
▁scratch	-9.90767
▁of	-9.90895
que	-9.90987
▁beep	-9.91043
like	-9.91084
▁arrest	-9.91102
▁concern	-9.91118
board	-9.91124
down	-9.91177
thirsty	-9.91179
▁hoot	-9.91214
▁assure	-9.91262
red	-9.91282
▁normal	-9.91363
▁supp	-9.91387
▁corn	-9.91438
▁cab	-9.91454
▁monstro	-9.91538
▁chair	-9.91546
believ	-9.9157
▁advice	-9.91576
▁ancestors	-9.91576
▁anxious	-9.91576
▁benevolence	-9.91576
▁carriage	-9.91576
▁century	-9.91576
▁character	-9.91576
▁charlotte	-9.91576
▁effort	-9.91576
▁eventually	-9.91576
▁expedition	-9.91576
▁footsteps	-9.91576
▁heiio	-9.91576
▁holmsby	-9.91576
▁imperial	-9.91576
▁kumonga	-9.91576
▁mumbai	-9.91576
▁nectar	-9.91576
▁particular	-9.91576
▁patience	-9.91576
▁picnic	-9.91576
▁schuyler	-9.91576
▁sentimental	-9.91576
▁siwon	-9.91576
▁snuffy	-9.91576
▁speech	-9.91576
▁stemming	-9.91576
▁survival	-9.91576
▁terlip	-9.91576
▁thudding	-9.91576
▁whinnying	-9.91576
▁written	-9.91576
▁await	-9.91576
▁farewell	-9.91576
▁fiddle	-9.91576
▁hooray	-9.91576
▁involved	-9.91576
▁delay	-9.91576
▁fortune	-9.91576
▁represent	-9.91576
▁tiger	-9.91576
▁defense	-9.91576
▁manpowered	-9.91576
▁saving	-9.91576
▁motherinlaw	-9.91577
▁mostly	-9.91577
▁horrible	-9.91577
▁swimming	-9.91577
▁ryan	-9.91577
▁starving	-9.91578
▁term	-9.91578
▁pipe	-9.91578
▁lawyer	-9.91578
▁bottle	-9.91579
▁believing	-9.91579
▁resist	-9.91579
▁under	-9.91579
▁feast	-9.91581
▁greetings	-9.91583
▁suspense	-9.91583
▁whobble	-9.91583
▁trash	-9.91583
▁blockhead	-9.91584
holic	-9.91585
▁western	-9.91585
▁stakeout	-9.91587
while	-9.91589
▁diana	-9.91589
▁baseball	-9.9159
▁crumply	-9.91592
▁dropped	-9.91593
▁pollination	-9.91594
▁tasty	-9.91595
▁whoohoo	-9.91596
▁robby	-9.91596
▁static	-9.91596
▁bike	-9.91596
▁sleigh	-9.91597
▁chocolate	-9.91597
▁pikachu	-9.91597
▁thrill	-9.916
▁proof	-9.91603
▁film	-9.91606
▁tingle	-9.91606
▁marvelous	-9.91607
▁hiya	-9.91627
▁aware	-9.91633
▁float	-9.91635
▁began	-9.91639
▁sew	-9.91639
▁oid	-9.9164
▁dong	-9.91642
▁bubble	-9.91642
▁health	-9.91652
▁nome	-9.91654
▁award	-9.91662
▁strict	-9.91672
▁severa	-9.91677
▁luc	-9.9168
▁impressed	-9.91686
▁cries	-9.91696
▁directly	-9.91715
▁bush	-9.91744
▁pole	-9.91748
▁jim	-9.91749
▁neal	-9.91752
▁ropes	-9.91763
▁tony	-9.91766
magne	-9.9178
▁useless	-9.91788
▁ze	-9.91825
ware	-9.91828
▁rent	-9.919
▁wandering	-9.91967
▁bail	-9.91972
▁giggles	-9.91987
▁grown	-9.92017
▁cure	-9.92021
▁chase	-9.92031
▁naturally	-9.92034
▁gotten	-9.92035
▁nest	-9.92089
▁butter	-9.921
▁bobs	-9.92112
▁loaded	-9.92165
▁served	-9.92168
▁ri	-9.92243
▁warned	-9.92279
▁cops	-9.92547
car	-9.92587
▁noon	-9.92613
▁fate	-9.92623
▁quietly	-9.92805
▁clearly	-9.92858
▁ward	-9.92878
▁cheating	-9.92984
▁uno	-9.93004
▁improve	-9.93399
▁lo	-9.93456
kins	-9.93468
eez	-9.9351
ver	-9.93586
▁traveling	-9.93728
res	-9.93774
▁searching	-9.93841
▁parts	-9.94034
▁deed	-9.94082
▁machines	-9.94162
lar	-9.94163
but	-9.94608
▁holidays	-9.94712
▁rocks	-9.948
▁farmers	-9.95104
▁trie	-9.95365
hyd	-9.95518
▁tu	-9.95546
▁ca	-9.956
mo	-9.95759
▁dreamed	-9.95943
very	-9.96049
▁older	-9.96269
▁roberts	-9.9638
▁breaking	-9.96389
▁concentrate	-9.96547
▁cho	-9.96576
▁moments	-9.96599
▁ref	-9.97021
▁bust	-9.97108
▁faces	-9.97214
ery	-9.97233
ial	-9.97303
▁yell	-9.97474
▁plants	-9.97542
af	-9.97742
cat	-9.97749
▁positions	-9.97788
▁paying	-9.98176
▁moves	-9.98331
▁tap	-9.98341
▁mud	-9.98465
▁chimpanzee	-9.98629
▁gen	-9.98654
▁sneeze	-9.98684
▁height	-9.98689
▁ki	-9.98718
▁victim	-9.98766
▁grade	-9.98768
▁weapon	-9.98782
▁riverhorse	-9.98786
▁buck	-9.98802
▁regent	-9.98806
▁detail	-9.98855
▁cloud	-9.9887
▁monkeys	-9.98927
ub	-9.99251
▁helped	-9.99405
▁reporter	-9.99539
▁fab	-9.99772
▁comp	-9.99803
▁gi	-9.99977
▁hum	-10.0009
cede	-10.0009
▁los	-10.0024
▁er	-10.0024
ticky	-10.0036
ized	-10.0042
▁cri	-10.0051
▁everyones	-10.0069
▁char	-10.0069
▁heads	-10.007
▁sink	-10.008
▁howl	-10.0084
▁gibber	-10.0084
ook	-10.0103
▁intend	-10.0108
work	-10.0111
▁guarantee	-10.0123
▁fail	-10.0124
book	-10.0128
▁dirt	-10.0129
▁replace	-10.013
ible	-10.0133
▁obvious	-10.0136
▁drag	-10.0137
▁solve	-10.0138
▁counts	-10.014
▁bro	-10.0147
▁puff	-10.0147
▁punch	-10.0148
▁anim	-10.0153
▁pump	-10.0154
▁cruel	-10.0157
▁skate	-10.0157
▁achieve	-10.0158
▁adorable	-10.0158
▁advantage	-10.0158
▁assimilate	-10.0158
▁benjamin	-10.0158
▁bishop	-10.0158
▁chariot	-10.0158
▁church	-10.0158
▁column	-10.0158
▁disaster	-10.0158
▁distribute	-10.0158
▁donkey	-10.0158
▁enemies	-10.0158
▁entrance	-10.0158
▁fernfield	-10.0158
▁framm	-10.0158
▁fuji	-10.0158
▁glitches	-10.0158
▁grazie	-10.0158
▁grief	-10.0158
▁hepworth	-10.0158
▁jorma	-10.0158
▁length	-10.0158
▁lmpossible	-10.0158
▁memories	-10.0158
▁mermoz	-10.0158
▁outfit	-10.0158
▁process	-10.0158
▁regard	-10.0158
▁saturday	-10.0158
▁separate	-10.0158
▁solution	-10.0158
▁spanish	-10.0158
▁swirled	-10.0158
▁temperature	-10.0158
▁terribly	-10.0158
▁thanksgiving	-10.0158
▁thorensen	-10.0158
▁throbbing	-10.0158
▁vehicle	-10.0158
▁ashamed	-10.0158
▁chiidren	-10.0158
▁electric	-10.0158
▁government	-10.0158
▁hansen	-10.0158
▁scoffs	-10.0158
▁emotional	-10.0158
▁sipes	-10.0158
▁blew	-10.0158
▁clown	-10.0158
▁sponsor	-10.0158
▁jeanette	-10.0158
▁petersen	-10.0158
▁faint	-10.0158
▁fireworks	-10.0158
▁zion	-10.0158
▁pork	-10.0158
owwow	-10.0158
▁intelligence	-10.0158
▁alert	-10.0158
▁definiteiy	-10.0158
▁toast	-10.0158
▁terrific	-10.0158
▁judo	-10.0158
▁terrance	-10.0158
▁ensure	-10.0158
▁wrapped	-10.0158
▁whines	-10.0158
▁matson	-10.0158
▁silk	-10.0158
▁june	-10.0158
▁piay	-10.0158
▁staff	-10.0158
▁label	-10.0159
▁subtitle	-10.0159
▁source	-10.0159
▁cattle	-10.0159
▁balance	-10.0159
▁tank	-10.0159
▁territory	-10.0159
▁grant	-10.016
▁artist	-10.016
▁education	-10.016
▁martin	-10.016
▁barney	-10.016
▁original	-10.0161
▁sweat	-10.0161
▁skyship	-10.0162
▁legal	-10.0162
▁jamal	-10.0162
▁bedroom	-10.0162
▁allowance	-10.0162
▁iook	-10.0162
▁bread	-10.0163
▁beck	-10.0164
▁pool	-10.0164
▁foal	-10.0165
▁connection	-10.0165
▁squad	-10.0166
▁trailer	-10.0167
▁ceo	-10.0167
▁ruby	-10.0169
▁stu	-10.0169
▁chest	-10.017
▁mass	-10.0171
▁rumble	-10.0173
▁demon	-10.0175
▁compare	-10.0176
▁liked	-10.0176
▁convinced	-10.0177
▁stopping	-10.0179
▁supper	-10.018
▁laser	-10.018
▁freeman	-10.0184
ify	-10.0185
▁fourth	-10.0186
▁aim	-10.0189
▁ohhh	-10.019
▁da	-10.019
▁landon	-10.0193
▁ce	-10.0194
▁model	-10.0197
▁bully	-10.02
▁knowledge	-10.0202
▁failed	-10.0204
▁concerned	-10.0208
▁cent	-10.0214
▁classes	-10.0217
▁created	-10.0218
▁earl	-10.0221
ture	-10.0222
▁rot	-10.0224
▁records	-10.0224
▁down	-10.0225
ise	-10.023
▁crops	-10.0241
▁worrying	-10.0246
▁forced	-10.0246
▁sisters	-10.0247
anc	-10.0252
▁bowling	-10.0252
cient	-10.0256
▁oni	-10.026
▁squeaks	-10.0264
through	-10.0273
▁ruined	-10.0276
▁rin	-10.0283
ex	-10.0299
▁tag	-10.0299
▁kite	-10.0315
▁degrees	-10.0323
▁muscles	-10.0323
▁pine	-10.0341
▁cor	-10.0354
▁shades	-10.0354
▁dings	-10.0355
ung	-10.0357
▁expected	-10.0361
▁nu	-10.0364
▁crashing	-10.0371
▁somb	-10.0382
▁reveal	-10.0395
▁seal	-10.0402
▁produce	-10.0411
▁gates	-10.0415
▁riverhorses	-10.0445
▁weapons	-10.0445
▁yay	-10.0474
val	-10.0475
sta	-10.0492
▁expecting	-10.0493
▁cu	-10.0495
▁bri	-10.0504
▁wowsers	-10.0507
aval	-10.0513
▁not	-10.0517
ny	-10.0533
om	-10.054
▁signor	-10.0553
ute	-10.0572
▁troubles	-10.0574
▁picking	-10.0584
▁where	-10.06
▁depends	-10.063
slick	-10.0641
hoo	-10.066
▁chickens	-10.0661
▁ver	-10.0695
elle	-10.0715
rt	-10.073
▁players	-10.0768
▁feelings	-10.0783
▁spen	-10.0803
▁ends	-10.0811
▁ln	-10.0837
▁wha	-10.0878
▁yea	-10.0888
aaa	-10.0902
▁cro	-10.0906
▁scream	-10.0924
▁gasp	-10.0942
▁meal	-10.0991
▁soldier	-10.0993
▁gate	-10.101
ah	-10.1036
▁au	-10.1037
ian	-10.1051
▁beasts	-10.1061
▁bone	-10.1065
▁rips	-10.1068
you	-10.1069
▁decisions	-10.1073
bu	-10.1076
▁haha	-10.1082
▁hu	-10.1092
ger	-10.1096
▁stands	-10.1098
▁pictures	-10.1106
▁lies	-10.1137
ana	-10.1141
aah	-10.1163
▁ga	-10.1165
head	-10.1176
▁smash	-10.119
▁approach	-10.1195
▁closes	-10.1197
abl	-10.1198
▁charm	-10.1203
▁wishing	-10.1216
▁foreign	-10.122
▁shock	-10.1221
▁adopt	-10.1222
▁mix	-10.1222
field	-10.1224
boy	-10.1229
back	-10.123
foot	-10.1232
▁roma	-10.1234
looking	-10.1236
▁arrive	-10.1238
that	-10.1243
ball	-10.1243
▁complain	-10.1248
▁pink	-10.125
▁actual	-10.1253
▁awake	-10.1257
▁witness	-10.1257
▁mmhm	-10.1263
▁marvel	-10.1265
mois	-10.1266
ordinary	-10.1267
▁establish	-10.1267
▁kidnap	-10.1268
▁trans	-10.1268
▁neighbor	-10.1268
▁brief	-10.1268
▁hummingbird	-10.1269
▁alphabatical	-10.1269
▁avoid	-10.1269
▁blossom	-10.1269
▁buongiorno	-10.1269
▁chipettes	-10.1269
▁combination	-10.1269
▁commentator	-10.1269
▁ferdinand	-10.1269
▁fowler	-10.1269
▁grateful	-10.1269
▁guilty	-10.1269
▁hooggho	-10.1269
▁jealous	-10.1269
▁lucifer	-10.1269
▁material	-10.1269
▁mechanic	-10.1269
▁mercury	-10.1269
▁necklace	-10.1269
▁nonfat	-10.1269
▁opposite	-10.1269
▁orchid	-10.1269
▁poirier	-10.1269
▁rewind	-10.1269
▁ribbit	-10.1269
▁shelter	-10.1269
▁sheriff	-10.1269
▁splash	-10.1269
▁squeeze	-10.1269
▁stretch	-10.1269
▁succeed	-10.1269
▁supplies	-10.1269
▁sweep	-10.1269
▁target	-10.1269
▁thirty	-10.1269
▁uberta	-10.1269
▁whinnies	-10.1269
▁wisdom	-10.1269
▁yawning	-10.1269
▁rodan	-10.1269
▁witch	-10.1269
▁ernie	-10.1269
▁governor	-10.1269
▁narrow	-10.1269
▁squadron	-10.1269
▁stoutheart	-10.1269
▁becoming	-10.1269
▁shiver	-10.1269
▁reckon	-10.1269
▁susie	-10.1269
▁aggie	-10.1269
▁confess	-10.1269
▁physical	-10.1269
▁lecroix	-10.1269
▁clarise	-10.1269
▁joe	-10.1269
▁freedom	-10.1269
▁suspicious	-10.1269
▁bradley	-10.1269
▁honour	-10.1269
▁siva	-10.1269
▁basket	-10.1269
▁martha	-10.1269
▁rooster	-10.1269
▁surgery	-10.1269
▁delicious	-10.1269
▁echo	-10.1269
▁agency	-10.1269
▁riley	-10.1269
▁stiff	-10.127
▁sheik	-10.127
▁christine	-10.127
▁argument	-10.127
▁fox	-10.127
▁fence	-10.127
▁fatso	-10.127
▁boyfriend	-10.127
▁hush	-10.127
▁dumpling	-10.127
▁imagination	-10.127
▁extraordinary	-10.127
▁defeat	-10.127
▁miserable	-10.127
▁rupees	-10.1271
▁whoever	-10.1271
▁authority	-10.1271
▁grip	-10.1271
▁brock	-10.1271
▁kang	-10.1271
▁misty	-10.1271
▁sur	-10.1271
▁minister	-10.1271
▁coast	-10.1271
▁print	-10.1271
▁impression	-10.1271
▁rumbling	-10.1271
▁gentleman	-10.1271
▁soap	-10.1271
▁nearby	-10.1272
▁twist	-10.1272
▁bern	-10.1272
▁freezing	-10.1272
▁freeze	-10.1273
▁property	-10.1274
▁aside	-10.1274
▁foolish	-10.1274
▁operator	-10.1274
▁puck	-10.1275
▁halfway	-10.1275
▁sunny	-10.1275
▁yum	-10.1275
▁schedule	-10.1276
▁iot	-10.1276
▁mush	-10.1276
▁spill	-10.1277
▁angeles	-10.1277
▁lemon	-10.1277
▁millie	-10.1277
▁ewe	-10.1278
▁uhuh	-10.1278
▁sol	-10.1279
▁bandit	-10.1279
▁helena	-10.1279
▁objection	-10.1279
▁pace	-10.128
▁confident	-10.1282
ibul	-10.1282
▁perse	-10.1283
▁feder	-10.1283
▁unto	-10.1284
▁bored	-10.1284
▁bout	-10.1285
▁arranged	-10.1286
▁hike	-10.1286
▁link	-10.1286
▁homework	-10.1286
▁naps	-10.1286
▁liar	-10.1287
▁za	-10.1287
▁buzzer	-10.1287
▁delighted	-10.1288
▁parl	-10.1288
uel	-10.1289
▁collector	-10.129
▁chain	-10.1294
▁disappointed	-10.1294
▁gentle	-10.1296
▁merely	-10.1298
ug	-10.1303
▁walter	-10.1303
iiin	-10.1304
▁dep	-10.1305
oke	-10.1307
▁patch	-10.1307
▁amen	-10.1308
▁skies	-10.1308
▁quarter	-10.1317
▁oughta	-10.1319
▁tribes	-10.132
▁chipmunks	-10.132
▁movement	-10.1326
erary	-10.1328
▁fo	-10.1331
▁answers	-10.1333
▁completed	-10.1335
▁rating	-10.1343
▁nana	-10.1343
▁stranger	-10.1353
▁vet	-10.1354
▁shy	-10.1358
▁destroyed	-10.1364
▁hooting	-10.1366
▁operations	-10.1368
▁cracking	-10.138
▁melt	-10.138
▁marching	-10.138
▁laid	-10.1388
rai	-10.1394
▁nation	-10.1397
ast	-10.14
▁based	-10.1407
▁hip	-10.1419
▁washing	-10.1425
amas	-10.1428
▁fixed	-10.1441
▁delivered	-10.1442
▁breathing	-10.1444
gging	-10.1448
▁yards	-10.1455
▁repairs	-10.1455
berate	-10.1461
▁dramatic	-10.1467
▁dads	-10.1473
▁trainer	-10.1476
▁bolt	-10.1479
▁plates	-10.1489
▁packed	-10.1491
▁am	-10.1508
▁changes	-10.1517
▁mini	-10.152
▁mis	-10.1526
▁touched	-10.1535
▁clicking	-10.1542
▁sis	-10.1546
▁heresy	-10.1548
▁carrie	-10.1551
▁ant	-10.1552
▁trained	-10.1556
▁tend	-10.1568
▁mid	-10.157
▁announc	-10.1573
▁gli	-10.1574
ith	-10.159
▁victims	-10.1592
▁grades	-10.1593
ped	-10.1597
side	-10.1598
▁sleepy	-10.1614
▁reached	-10.1619
▁ooo	-10.1633
▁walked	-10.1672
lk	-10.1694
▁toys	-10.1696
▁judges	-10.1702
kin	-10.1708
▁enjoying	-10.171
▁gar	-10.1725
ass	-10.1731
can	-10.1763
▁saints	-10.1766
▁shooting	-10.1771
chat	-10.1781
▁raccoons	-10.1801
▁moved	-10.1801
▁mel	-10.1802
▁landing	-10.183
▁soc	-10.1842
▁metal	-10.1866
lon	-10.187
▁rounds	-10.1873
▁opened	-10.1876
▁catching	-10.1917
▁thu	-10.1926
▁to	-10.1941
▁showing	-10.1966
ang	-10.1974
▁songs	-10.1978
rass	-10.1995
nder	-10.1998
▁bombs	-10.2014
▁ducks	-10.2014
▁wheels	-10.2014
lic	-10.2034
ten	-10.2088
▁believed	-10.2096
ardo	-10.2133
▁fights	-10.2137
▁sigh	-10.2146
otten	-10.2162
hi	-10.219
▁apples	-10.2194
ept	-10.222
▁title	-10.2224
▁instructor	-10.2224
▁relationship	-10.2224
▁trial	-10.2226
▁leprechaun	-10.2233
▁sultan	-10.2236
▁cowboy	-10.2238
▁cell	-10.2245
test	-10.2251
▁prisoner	-10.2263
▁wave	-10.2273
ada	-10.2279
▁cart	-10.2291
▁powers	-10.2293
▁thinkin	-10.2328
▁bark	-10.2331
▁drama	-10.2333
▁hahaha	-10.2333
▁bl	-10.2362
▁y	-10.2397
▁fore	-10.2414
tense	-10.2415
▁dodge	-10.242
▁propose	-10.242
▁weigh	-10.2423
▁ja	-10.2426
▁rum	-10.2439
cent	-10.2439
oh	-10.2441
▁disappear	-10.2471
▁panic	-10.2473
charlie	-10.2481
house	-10.2483
▁require	-10.2485
dog	-10.2489
▁brook	-10.2492
▁invent	-10.2506
▁tow	-10.2506
ttie	-10.2507
▁helen	-10.2509
inky	-10.2514
talian	-10.2516
▁effect	-10.2516
▁birth	-10.2518
▁embrace	-10.2519
ezvous	-10.2519
▁anabelle	-10.2519
▁anderson	-10.2519
▁artichoke	-10.2519
▁barnsworth	-10.2519
▁barouche	-10.2519
▁beneath	-10.2519
▁berklee	-10.2519
▁brenda	-10.2519
▁california	-10.2519
▁ceremony	-10.2519
▁challenging	-10.2519
▁clatter	-10.2519
▁commercial	-10.2519
▁community	-10.2519
▁conference	-10.2519
▁corporat	-10.2519
▁cratchit	-10.2519
▁creek	-10.2519
▁current	-10.2519
▁disease	-10.2519
▁falkor	-10.2519
▁folger	-10.2519
▁fountain	-10.2519
▁furniture	-10.2519
▁gaskill	-10.2519
▁granny	-10.2519
▁heechul	-10.2519
▁hiccups	-10.2519
▁ingenious	-10.2519
▁innocent	-10.2519
▁inspection	-10.2519
▁interview	-10.2519
▁invitation	-10.2519
▁jinnie	-10.2519
▁kurds	-10.2519
▁monitor	-10.2519
▁nemesis	-10.2519
▁passengers	-10.2519
▁peanut	-10.2519
▁peopie	-10.2519
▁phillips	-10.2519
▁pluto	-10.2519
▁potential	-10.2519
▁progress	-10.2519
▁rabbit	-10.2519
▁rendezvous	-10.2519
▁responsible	-10.2519
▁restaurant	-10.2519
▁result	-10.2519
▁ribbon	-10.2519
▁rudolph	-10.2519
▁scientist	-10.2519
▁screw	-10.2519
▁shiva	-10.2519
▁somehow	-10.2519
▁someplace	-10.2519
▁sorcerer	-10.2519
▁splendid	-10.2519
▁stammering	-10.2519
▁suicune	-10.2519
▁sylvia	-10.2519
▁tunnel	-10.2519
▁uncomfortable	-10.2519
▁uniform	-10.2519
▁valuable	-10.2519
▁varmint	-10.2519
▁wrote	-10.2519
▁xiliens	-10.2519
▁butterfly	-10.2519
▁distant	-10.2519
▁enemy	-10.2519
▁japanese	-10.2519
▁macante	-10.2519
▁phew	-10.2519
▁silent	-10.2519
▁urgent	-10.2519
▁changing	-10.2519
▁instructions	-10.2519
▁plastic	-10.2519
▁salad	-10.2519
▁joan	-10.2519
▁thorn	-10.2519
▁whatll	-10.2519
▁wicked	-10.2519
▁chewing	-10.2519
▁jerry	-10.2519
▁mild	-10.2519
▁slope	-10.2519
▁swiss	-10.2519
▁chanting	-10.2519
▁froze	-10.2519
▁slave	-10.2519
▁medical	-10.2519
▁tongue	-10.2519
▁socks	-10.2519
▁troop	-10.2519
▁nerve	-10.2519
▁jensen	-10.2519
▁lazy	-10.2519
▁odd	-10.2519
▁torture	-10.2519
▁david	-10.2519
▁juice	-10.2519
rattling	-10.2519
▁autograph	-10.2519
▁cooing	-10.2519
▁wailing	-10.2519
▁chicago	-10.2519
▁trunk	-10.2519
▁dining	-10.2519
▁vote	-10.252
▁francis	-10.252
▁caliba	-10.252
▁daily	-10.252
▁accent	-10.252
▁dough	-10.252
▁tootall	-10.252
▁salt	-10.252
▁seattle	-10.252
▁navy	-10.252
▁square	-10.252
▁invisible	-10.252
▁couid	-10.252
▁stack	-10.252
▁benefit	-10.252
▁professional	-10.252
▁guardian	-10.252
▁shortcut	-10.252
▁pinchcliffe	-10.2521
▁slam	-10.2521
▁bucket	-10.2521
▁admiral	-10.2521
▁rapid	-10.2521
ncible	-10.2521
▁orange	-10.2521
▁fake	-10.2521
▁performance	-10.2522
▁bodies	-10.2522
▁junk	-10.2522
▁housekeeper	-10.2522
▁popular	-10.2522
▁switzerland	-10.2522
gen	-10.2522
▁maria	-10.2522
▁bullet	-10.2522
▁surprising	-10.2522
▁banana	-10.2522
▁dropoff	-10.2522
▁mental	-10.2522
▁suck	-10.2522
▁loan	-10.2522
▁oof	-10.2523
▁motion	-10.2523
▁expensive	-10.2523
▁appearance	-10.2524
▁dome	-10.2524
▁internet	-10.2524
▁actress	-10.2525
▁alley	-10.2525
▁strategy	-10.2525
▁obliged	-10.2525
▁publicity	-10.2525
▁clam	-10.2525
▁personality	-10.2526
▁worn	-10.2527
▁crows	-10.2527
▁collection	-10.2528
▁lair	-10.2528
▁vision	-10.2528
▁argue	-10.2528
▁shame	-10.2529
▁fame	-10.2529
▁held	-10.2529
▁colony	-10.2529
▁gaw	-10.2532
▁jami	-10.2532
▁upper	-10.2532
▁commissioner	-10.2533
▁crush	-10.2533
▁controlling	-10.2533
▁bleeding	-10.2534
▁arno	-10.2534
▁hem	-10.2535
▁specialty	-10.2535
▁cutting	-10.2535
▁gunk	-10.2536
▁tax	-10.2537
▁tur	-10.2538
▁bah	-10.2539
▁fade	-10.2543
▁ahhh	-10.2543
▁braying	-10.2544
▁shushing	-10.2544
cut	-10.2544
▁bump	-10.2545
▁hid	-10.2547
▁sitter	-10.2547
▁habit	-10.2549
▁ahem	-10.2549
▁clucking	-10.2554
▁hopeless	-10.2555
▁bleating	-10.2555
▁factor	-10.2559
▁row	-10.2562
▁produced	-10.2564
▁gum	-10.2564
▁camping	-10.2565
▁advanced	-10.2568
aaagh	-10.2571
▁frankly	-10.2572
▁pu	-10.2573
▁itchy	-10.2575
▁developing	-10.2575
▁insects	-10.2577
▁monarchs	-10.2577
day	-10.2581
▁manson	-10.2585
▁hog	-10.2588
▁product	-10.2589
▁supervis	-10.259
▁oo	-10.2595
▁ruler	-10.2598
▁hiding	-10.26
▁joint	-10.26
▁phil	-10.2607
▁competitors	-10.2616
▁paws	-10.2616
▁prepared	-10.2617
▁host	-10.2619
▁rein	-10.2621
▁wilder	-10.2623
▁seriously	-10.2627
▁bets	-10.263
▁mutt	-10.2636
never	-10.2653
▁chitt	-10.2657
▁banging	-10.2666
ounce	-10.2671
▁carl	-10.2677
▁cath	-10.2681
▁covered	-10.2692
▁armed	-10.2716
▁honks	-10.2717
▁slipp	-10.2717
▁safely	-10.2719
pated	-10.2724
▁engines	-10.2725
ner	-10.2729
▁tools	-10.2732
▁knees	-10.2732
▁knocked	-10.2736
mic	-10.274
▁backup	-10.2741
▁belle	-10.2744
▁pan	-10.2747
▁considered	-10.2747
▁recorded	-10.2761
▁stops	-10.279
▁su	-10.2791
elanc	-10.2803
▁concept	-10.2804
▁relat	-10.2808
▁cowboys	-10.281
▁sultans	-10.281
▁cells	-10.281
▁secrets	-10.2828
▁highly	-10.2837
au	-10.2848
▁ana	-10.2885
▁rocky	-10.2885
▁whoop	-10.2889
▁qu	-10.2899
▁demonstrate	-10.2906
▁include	-10.292
cy	-10.2928
▁mamm	-10.2958
▁jokes	-10.2968
▁bears	-10.299
▁fu	-10.2998
▁twenty	-10.3004
▁ay	-10.3011
▁image	-10.3024
▁wand	-10.3027
▁waitin	-10.3072
▁kindly	-10.3126
▁indians	-10.3162
ois	-10.3171
rry	-10.3197
not	-10.3198
▁lu	-10.3225
▁partners	-10.325
▁units	-10.3271
ood	-10.3271
▁ros	-10.3274
▁events	-10.3284
▁voices	-10.3293
▁handy	-10.332
ze	-10.3326
lit	-10.3336
▁seats	-10.3361
▁rat	-10.338
lf	-10.3382
▁buzz	-10.3393
▁ban	-10.3399
▁outs	-10.3423
▁shin	-10.3438
▁def	-10.3445
ink	-10.3445
rie	-10.3451
oc	-10.3478
▁will	-10.3492
▁bells	-10.3493
▁organ	-10.3509
▁fr	-10.3516
▁gil	-10.3598
▁cough	-10.3599
iling	-10.3605
nes	-10.3612
sure	-10.3613
ell	-10.3614
▁angel	-10.3648
▁wunko	-10.3653
▁device	-10.3653
▁gorilla	-10.3653
▁breaks	-10.3653
▁exclaim	-10.3654
▁employee	-10.3658
▁guidebook	-10.3662
▁shade	-10.3668
▁plate	-10.3674
▁simian	-10.3677
gel	-10.3685
end	-10.3707
▁ei	-10.3711
nis	-10.3714
ries	-10.3722
ky	-10.3729
sa	-10.3775
▁dec	-10.378
ensible	-10.3789
▁dancer	-10.3815
dder	-10.3838
▁stayed	-10.384
▁cru	-10.3848
▁direct	-10.3861
▁mam	-10.3863
her	-10.3881
▁mat	-10.3894
▁wr	-10.3895
▁borrow	-10.3898
▁descend	-10.3899
▁wast	-10.3905
piece	-10.3908
fire	-10.3909
▁curse	-10.3912
▁eliminate	-10.3913
▁robber	-10.3915
▁invite	-10.3917
▁ram	-10.392
▁desperate	-10.3924
▁assume	-10.3924
▁absolute	-10.3926
bble	-10.3936
▁object	-10.3939
▁whale	-10.3945
▁percent	-10.3946
▁tra	-10.3947
▁assist	-10.3947
wolves	-10.3947
junction	-10.3947
▁abilities	-10.3947
▁ambrose	-10.3947
▁apparently	-10.3947
▁arrival	-10.3947
▁asterbilt	-10.3947
▁bonanza	-10.3947
▁brakes	-10.3947
▁britewell	-10.3947
▁cackling	-10.3947
▁celsius	-10.3947
▁centuries	-10.3947
▁citizen	-10.3947
▁closing	-10.3947
▁commotion	-10.3947
▁criminal	-10.3947
▁curious	-10.3947
▁curtain	-10.3947
▁disgrace	-10.3947
▁duvalle	-10.3947
▁ebeneezer	-10.3947
▁entertainment	-10.3947
▁expert	-10.3947
▁extreme	-10.3947
▁fabulous	-10.3947
▁favourite	-10.3947
▁harvest	-10.3947
▁heidi	-10.3947
▁increase	-10.3947
▁intelligent	-10.3947
▁knife	-10.3947
▁kruger	-10.3947
▁lodge	-10.3947
▁loudspeaker	-10.3947
▁maintain	-10.3947
▁maximum	-10.3947
▁mcgreevy	-10.3947
▁mouris	-10.3947
▁mysterious	-10.3947
▁namikawa	-10.3947
▁olympus	-10.3947
▁orchestra	-10.3947
▁paradise	-10.3947
▁phoenix	-10.3947
▁powder	-10.3947
▁pretzi	-10.3947
▁qualify	-10.3947
▁riverfoal	-10.3947
▁sacrifice	-10.3947
▁saeko	-10.3947
▁scaffold	-10.3947
▁shrieks	-10.3947
▁society	-10.3947
▁species	-10.3947
▁spectacle	-10.3947
▁statue	-10.3947
▁surround	-10.3947
▁sydney	-10.3947
▁technique	-10.3947
▁tetsuo	-10.3947
▁thumpclank	-10.3947
▁tolerate	-10.3947
▁ultimate	-10.3947
▁ursus	-10.3947
▁utah	-10.3947
▁veil	-10.3947
▁verdict	-10.3947
▁voyage	-10.3947
▁warrender	-10.3947
▁blog	-10.3947
▁elmer	-10.3947
▁photographer	-10.3947
▁routine	-10.3947
▁screen	-10.3947
▁secure	-10.3947
▁status	-10.3947
▁steak	-10.3947
▁stubborn	-10.3947
▁whatre	-10.3947
▁appointment	-10.3947
▁behave	-10.3947
▁false	-10.3947
▁freak	-10.3947
▁dedicate	-10.3947
▁attitude	-10.3947
▁data	-10.3947
▁method	-10.3947
▁personnel	-10.3947
▁superior	-10.3947
▁crowing	-10.3947
▁ahyuck	-10.3947
▁almond	-10.3947
▁emotions	-10.3947
▁arriving	-10.3947
▁tickle	-10.3947
▁demand	-10.3947
▁ease	-10.3947
▁gently	-10.3947
▁goodnight	-10.3947
▁belladonna	-10.3947
▁iron	-10.3947
▁russian	-10.3947
▁gym	-10.3948
▁warehouse	-10.3948
▁crisp	-10.3948
▁scrap	-10.3948
▁almighty	-10.3948
▁cancer	-10.3948
▁jimmy	-10.3948
▁expelled	-10.3948
▁bicycle	-10.3948
▁dipsy	-10.3948
▁carnival	-10.3948
▁colour	-10.3948
▁creative	-10.3948
▁romantic	-10.3948
tran	-10.3948
▁kenny	-10.3948
▁pride	-10.3948
▁washington	-10.3948
▁ouch	-10.3948
▁anger	-10.3949
▁conner	-10.3949
▁jenkins	-10.3949
▁scu	-10.3949
▁social	-10.3949
▁terror	-10.3949
▁directive	-10.3949
▁relative	-10.395
▁campus	-10.395
hood	-10.395
▁behold	-10.395
▁reference	-10.395
▁traitor	-10.395
▁crap	-10.3951
▁snowball	-10.3951
▁prime	-10.3951
▁destruction	-10.3951
▁escort	-10.3951
▁positive	-10.3951
▁writing	-10.3951
▁function	-10.3951
▁randy	-10.3951
▁furthe	-10.3951
▁author	-10.3951
▁crackling	-10.3951
▁ditch	-10.3952
▁communication	-10.3952
▁punk	-10.3952
▁efficient	-10.3952
▁minor	-10.3952
▁suckers	-10.3952
▁megan	-10.3952
▁scales	-10.3953
▁maiden	-10.3953
▁jean	-10.3953
▁dating	-10.3954
▁contestant	-10.3954
▁dart	-10.3954
▁litter	-10.3954
▁spaceship	-10.3954
▁inches	-10.3955
▁giddy	-10.3955
▁miii	-10.3955
cial	-10.3955
gue	-10.3956
▁secretary	-10.3957
▁saucer	-10.3957
▁err	-10.3957
▁web	-10.3957
▁prick	-10.3957
▁unlike	-10.3957
▁moron	-10.3958
▁parade	-10.3959
▁whew	-10.3959
▁shifty	-10.3959
▁budget	-10.396
▁storyland	-10.396
▁ego	-10.3961
▁confus	-10.3961
▁beef	-10.3962
▁cabin	-10.3963
▁hiking	-10.3963
▁solo	-10.3963
▁angle	-10.3963
▁mount	-10.3963
▁announcement	-10.3963
▁stall	-10.3964
▁whip	-10.3964
▁freshman	-10.3965
▁harsh	-10.3965
▁choi	-10.3965
▁chop	-10.3965
▁earned	-10.3966
uine	-10.3966
▁shutter	-10.3968
▁skipper	-10.3968
tail	-10.3969
▁sailor	-10.3969
▁maid	-10.3969
▁reliable	-10.3969
▁determined	-10.397
▁nono	-10.3971
▁sore	-10.3972
▁boxes	-10.3972
▁qualified	-10.3972
▁accused	-10.3973
gly	-10.3973
▁cargo	-10.3974
▁circle	-10.3978
▁explode	-10.3978
▁exhausted	-10.398
▁cycle	-10.3982
▁stable	-10.3982
▁mall	-10.3984
▁sch	-10.3989
rsh	-10.3989
▁nail	-10.399
▁reverse	-10.3991
▁duet	-10.3992
▁usual	-10.3998
▁assured	-10.4
▁birdie	-10.4
▁neighing	-10.4001
▁quacking	-10.4001
▁parties	-10.4002
▁chased	-10.4003
▁prey	-10.4008
▁adopted	-10.4009
▁reality	-10.401
▁hatch	-10.4011
▁commander	-10.4012
▁blokes	-10.4016
▁radi	-10.4019
▁noticed	-10.403
▁beaten	-10.403
▁focused	-10.4031
▁gathered	-10.4031
▁whooping	-10.4039
▁posted	-10.4048
▁ding	-10.4054
ades	-10.4056
▁calculations	-10.4061
▁aid	-10.4076
▁beeping	-10.4076
▁dame	-10.4079
▁lame	-10.4083
▁bags	-10.4092
▁businesses	-10.4092
▁wasted	-10.4102
▁smaller	-10.4104
table	-10.4138
ona	-10.4142
top	-10.4145
▁dam	-10.4146
▁outdoors	-10.415
stone	-10.4155
▁sw	-10.4157
▁sling	-10.4179
▁dariing	-10.4186
zing	-10.4189
▁despi	-10.4189
▁neat	-10.4199
▁gal	-10.4208
▁shopp	-10.4238
▁guidebooks	-10.4241
▁el	-10.4243
ome	-10.4252
▁fed	-10.4253
▁kissed	-10.4253
▁crossed	-10.4253
▁cooking	-10.4257
▁operat	-10.4271
▁counter	-10.4273
▁til	-10.4287
▁leprechauns	-10.4287
▁ph	-10.4298
robe	-10.4308
▁climber	-10.4328
bellie	-10.4335
▁ham	-10.4343
▁skiing	-10.4344
▁cos	-10.4354
ax	-10.4383
▁nicer	-10.4389
ford	-10.4393
▁danced	-10.4413
▁devils	-10.4426
▁stones	-10.4426
▁reports	-10.4428
▁shoulders	-10.4438
ame	-10.444
rag	-10.4464
tri	-10.4486
hae	-10.4492
▁bal	-10.4502
▁saxons	-10.452
▁lad	-10.4543
▁joining	-10.4561
▁chill	-10.4562
spite	-10.4566
▁deserves	-10.4567
▁pilots	-10.4567
▁servants	-10.4567
▁posts	-10.4569
hold	-10.4574
▁tor	-10.4575
▁ar	-10.4576
▁defen	-10.4584
▁san	-10.4599
▁signals	-10.4614
tary	-10.4616
▁explosions	-10.4661
vi	-10.4672
▁slips	-10.4673
▁conditions	-10.4709
▁snaps	-10.4709
▁sounded	-10.474
▁badly	-10.4748
▁drinking	-10.475
▁col	-10.4761
▁banks	-10.4774
▁lei	-10.4774
ney	-10.4808
▁site	-10.4819
ank	-10.4835
▁pri	-10.4841
▁hippos	-10.4853
▁notes	-10.4868
▁hoped	-10.487
ya	-10.4876
▁min	-10.4943
▁spindles	-10.495
old	-10.4954
▁int	-10.4972
tz	-10.4978
▁ge	-10.4978
▁bats	-10.4982
▁aca	-10.499
lated	-10.4995
itar	-10.4998
thy	-10.5023
br	-10.5059
▁tables	-10.5072
▁windows	-10.5097
▁letters	-10.5098
▁hire	-10.51
▁admire	-10.5104
▁spa	-10.5123
cal	-10.5124
▁ages	-10.5124
devi	-10.5126
enti	-10.5127
▁ec	-10.5128
▁ion	-10.515
aud	-10.5168
itty	-10.5175
▁checking	-10.5186
▁challenges	-10.5198
of	-10.52
▁lip	-10.5206
▁lion	-10.5208
ane	-10.5224
some	-10.5234
tto	-10.5243
▁clip	-10.5267
are	-10.5269
▁ending	-10.5279
▁dang	-10.5285
▁sat	-10.5286
▁faults	-10.5296
▁pit	-10.53
dies	-10.5306
▁knee	-10.5322
▁slo	-10.5322
▁vitamin	-10.5325
ama	-10.5331
▁repair	-10.5333
▁degree	-10.5335
▁muscle	-10.5335
▁tool	-10.5336
▁sometime	-10.5346
▁gus	-10.5346
▁here	-10.5352
my	-10.536
fu	-10.537
▁yard	-10.5375
▁equal	-10.5388
rmore	-10.5389
▁listened	-10.5423
▁that	-10.5424
▁develop	-10.5484
▁fields	-10.5499
▁capital	-10.5515
▁modern	-10.5515
▁wea	-10.5529
▁herd	-10.5536
▁ju	-10.5536
▁dele	-10.5539
lu	-10.5549
▁connect	-10.5551
mother	-10.5552
▁beam	-10.5555
▁meter	-10.5557
▁psych	-10.5559
▁chatter	-10.5562
▁punish	-10.5563
port	-10.5563
▁dump	-10.5564
▁disturb	-10.5564
cycle	-10.5568
half	-10.5577
▁injur	-10.5583
▁hank	-10.5587
▁permanent	-10.5589
▁restore	-10.559
▁fuss	-10.5592
▁unfortunate	-10.5592
▁heavi	-10.5593
kos	-10.5594
▁commission	-10.5595
q	-10.5596
osh	-10.56
▁skip	-10.5602
▁flow	-10.5603
bone	-10.5604
▁instrument	-10.5605
▁region	-10.5605
▁career	-10.5608
▁migrat	-10.5608
▁hung	-10.5609
▁puddin	-10.5609
▁comfort	-10.561
▁kiddin	-10.561
▁threat	-10.561
▁movin	-10.561
▁compete	-10.5611
▁hawaii	-10.5611
▁europe	-10.5611
▁occur	-10.5611
▁loyal	-10.5611
▁detect	-10.5612
▁recommend	-10.5612
▁inform	-10.5612
▁triumph	-10.5612
▁chica	-10.5613
▁lalala	-10.5613
▁scram	-10.5614
addin	-10.5614
▁automatic	-10.5614
voir	-10.5614
▁acknowledge	-10.5614
▁adrenaline	-10.5614
▁advertis	-10.5614
▁appropriate	-10.5614
▁association	-10.5614
▁beckett	-10.5614
▁border	-10.5614
▁circuit	-10.5614
▁circus	-10.5614
▁cockadoodledo	-10.5614
▁cockpit	-10.5614
▁collapse	-10.5614
▁colorado	-10.5614
▁conclusion	-10.5614
▁congratulate	-10.5614
▁contraption	-10.5614
▁convention	-10.5614
▁critter	-10.5614
▁daniels	-10.5614
▁desperados	-10.5614
▁discipline	-10.5614
▁disguise	-10.5614
▁dispatch	-10.5614
▁distinguish	-10.5614
▁distract	-10.5614
▁divinity	-10.5614
▁divorce	-10.5614
▁elizabeth	-10.5614
▁enormous	-10.5614
▁enrico	-10.5614
▁estimate	-10.5614
▁exhales	-10.5614
▁expand	-10.5614
▁fantasy	-10.5614
▁fingernail	-10.5614
▁fought	-10.5614
▁fuzzy	-10.5614
▁gassolini	-10.5614
▁gusgus	-10.5614
▁harmonica	-10.5614
▁hmph	-10.5614
▁hurray	-10.5614
▁insecure	-10.5614
▁invade	-10.5614
▁kathleen	-10.5614
▁kaukau	-10.5614
▁kraus	-10.5614
▁krugman	-10.5614
▁leash	-10.5614
▁lynx	-10.5614
▁magazine	-10.5614
▁maintenance	-10.5614
▁masalva	-10.5614
▁measure	-10.5614
▁mexico	-10.5614
▁minerva	-10.5614
▁misunderstand	-10.5614
▁negative	-10.5614
▁nephew	-10.5614
▁obtain	-10.5614
▁omaha	-10.5614
▁outstanding	-10.5614
▁pandora	-10.5614
▁perceive	-10.5614
▁phantom	-10.5614
▁policy	-10.5614
▁population	-10.5614
▁ravencroft	-10.5614
▁repossessed	-10.5614
▁resort	-10.5614
▁rhiannon	-10.5614
▁richthofen	-10.5614
▁ruthybelle	-10.5614
▁sakurai	-10.5614
▁scholarship	-10.5614
▁senior	-10.5614
▁shaking	-10.5614
▁shrieking	-10.5614
▁smack	-10.5614
▁specimen	-10.5614
▁thorough	-10.5614
▁throttle	-10.5614
▁treasure	-10.5614
▁unexpected	-10.5614
▁unhappy	-10.5614
▁unnecessary	-10.5614
▁withdraw	-10.5614
▁zhl	-10.5614
socsoc	-10.5614
▁aerodynamic	-10.5614
▁album	-10.5614
▁amuse	-10.5614
▁aruna	-10.5614
▁awfui	-10.5614
▁barbie	-10.5614
▁cacti	-10.5614
▁catherine	-10.5614
▁fierce	-10.5614
▁identify	-10.5614
▁irene	-10.5614
▁mesmeri	-10.5614
▁rainbow	-10.5614
▁reserve	-10.5614
▁rifle	-10.5614
▁slaughter	-10.5614
▁specifica	-10.5614
▁tiring	-10.5614
▁patrol	-10.5614
▁whirl	-10.5614
▁practicing	-10.5614
▁hobby	-10.5614
▁neil	-10.5614
▁precisely	-10.5614
▁transmission	-10.5614
▁causing	-10.5614
▁eager	-10.5614
▁entry	-10.5614
▁noisy	-10.5614
▁onward	-10.5614
▁prevent	-10.5614
▁soaring	-10.5614
▁vital	-10.5614
▁civilization	-10.5614
▁iady	-10.5614
▁thump	-10.5614
▁ticking	-10.5614
mpse	-10.5614
▁descent	-10.5614
▁principles	-10.5614
▁canyoneers	-10.5614
▁robbed	-10.5614
▁iisten	-10.5614
▁nope	-10.5614
▁waterfalls	-10.5614
▁eleven	-10.5614
▁abandon	-10.5614
▁muttering	-10.5614
▁bastion	-10.5614
▁yarn	-10.5614
▁louis	-10.5614
▁mumbles	-10.5614
▁ribs	-10.5614
▁holler	-10.5614
▁attaboy	-10.5614
▁reaiiy	-10.5614
▁stake	-10.5614
▁rude	-10.5614
▁mask	-10.5614
▁whining	-10.5614
▁drove	-10.5614
▁oops	-10.5614
▁affection	-10.5614
▁apr	-10.5614
▁medal	-10.5614
▁wives	-10.5614
▁edge	-10.5614
▁collar	-10.5615
▁jester	-10.5615
▁disgust	-10.5615
▁expose	-10.5615
▁clang	-10.5615
▁mmmhmm	-10.5615
▁clapping	-10.5615
▁beans	-10.5615
▁blake	-10.5615
▁option	-10.5615
▁wouidnt	-10.5615
▁constant	-10.5615
▁girlfriend	-10.5615
▁industries	-10.5615
▁clove	-10.5615
▁flesh	-10.5615
▁carlton	-10.5615
gram	-10.5615
▁available	-10.5615
▁remarkable	-10.5615
▁attic	-10.5615
▁theme	-10.5615
▁baroness	-10.5615
▁impressive	-10.5615
▁psychologist	-10.5615
▁companion	-10.5615
▁codebook	-10.5615
▁assignment	-10.5616
▁justice	-10.5616
▁firing	-10.5616
▁yuck	-10.5616
▁sunshine	-10.5616
▁beau	-10.5616
▁vari	-10.5616
▁fold	-10.5616
▁frag	-10.5616
▁detective	-10.5616
▁marley	-10.5616
handed	-10.5616
▁bathroom	-10.5616
▁knot	-10.5616
▁mole	-10.5616
▁trace	-10.5617
▁element	-10.5617
▁naked	-10.5617
▁wilderness	-10.5617
▁skinny	-10.5617
▁bacon	-10.5617
▁bedford	-10.5617
▁cellar	-10.5617
▁investigation	-10.5617
▁toid	-10.5617
zug	-10.5617
▁sunlight	-10.5618
▁punishment	-10.5618
▁bold	-10.5618
▁sack	-10.5618
▁rising	-10.5618
▁research	-10.5618
▁fabric	-10.5618
▁northeast	-10.5618
▁draft	-10.5618
▁proto	-10.5618
▁dash	-10.5619
▁childhood	-10.5619
▁airport	-10.5619
▁hyper	-10.5619
▁godmother	-10.562
▁mutters	-10.562
▁decent	-10.562
▁johnson	-10.562
▁batter	-10.562
▁scent	-10.5621
▁throne	-10.5621
▁trop	-10.5621
▁studies	-10.5621
▁bonus	-10.5622
▁airfield	-10.5622
▁paris	-10.5622
quint	-10.5622
▁mag	-10.5622
▁wel	-10.5623
▁vast	-10.5623
▁flip	-10.5623
▁ohhhh	-10.5623
▁chosen	-10.5623
▁dragon	-10.5624
▁trot	-10.5624
▁elli	-10.5624
▁groom	-10.5626
▁quest	-10.5626
▁para	-10.5626
▁tis	-10.5627
▁coup	-10.5627
▁bedtime	-10.5628
▁bait	-10.5629
▁giri	-10.5629
▁button	-10.563
▁everyday	-10.563
▁rice	-10.563
▁sang	-10.563
▁wander	-10.563
▁exploring	-10.5631
▁glider	-10.5631
▁punches	-10.5632
▁jig	-10.5632
▁puffin	-10.5633
▁apply	-10.5633
▁this	-10.5633
▁snoopy	-10.5634
▁copy	-10.5635
▁annoying	-10.5636
▁slap	-10.5636
▁civilis	-10.5637
▁hound	-10.564
▁protection	-10.564
▁jackson	-10.5641
▁desperately	-10.5641
akl	-10.5642
▁tender	-10.5644
▁sustained	-10.5644
▁spies	-10.5645
▁fries	-10.5645
▁abolish	-10.5645
▁teen	-10.5646
▁abdu	-10.5646
▁complaint	-10.5647
▁stream	-10.5648
▁moaning	-10.565
▁tc	-10.5652
▁grounds	-10.5653
▁glasses	-10.5653
▁shhh	-10.5655
▁manner	-10.5656
▁youngun	-10.5658
▁messes	-10.5659
rase	-10.566
▁useful	-10.566
▁dumped	-10.5661
▁cmon	-10.5662
▁stuttering	-10.5664
yard	-10.5664
▁issue	-10.567
▁cord	-10.567
▁rap	-10.5673
▁lucy	-10.5675
▁disappeared	-10.5679
▁lifetime	-10.568
▁funk	-10.5683
▁coal	-10.5687
▁tone	-10.5688
▁mistaken	-10.5689
▁wor	-10.5689
▁lack	-10.569
▁clap	-10.5694
▁spare	-10.5695
▁blooms	-10.5696
▁chips	-10.5696
▁vegetables	-10.5696
▁properly	-10.5696
▁busted	-10.5702
▁tar	-10.5703
▁striker	-10.5704
▁arrested	-10.5705
▁passion	-10.5707
▁pm	-10.5709
▁slippery	-10.5711
▁shattered	-10.5713
▁existed	-10.5713
▁vo	-10.5714
▁cli	-10.5714
▁any	-10.5716
▁experienced	-10.5716
▁eman	-10.5725
iff	-10.5732
▁dock	-10.5735
▁lovers	-10.5736
▁nut	-10.5738
▁lane	-10.5744
▁gulps	-10.5749
▁footprints	-10.5749
▁gloves	-10.5749
▁foundation	-10.5751
▁helpless	-10.5753
▁safer	-10.5758
▁shortly	-10.576
▁inc	-10.5768
▁chicks	-10.577
▁ace	-10.577
▁smelly	-10.5775
▁ato	-10.578
ledge	-10.578
▁letting	-10.5781
play	-10.5785
▁cann	-10.5787
ears	-10.5787
▁que	-10.5792
▁bugs	-10.5793
▁stri	-10.5793
ath	-10.5794
▁pier	-10.5799
▁delivery	-10.5799
▁spi	-10.5801
▁romans	-10.5802
▁crabs	-10.5803
▁laws	-10.581
▁paran	-10.5815
▁tent	-10.582
▁iive	-10.5826
▁blar	-10.583
▁mentioned	-10.5836
▁deer	-10.5844
▁pushed	-10.5845
▁crashed	-10.5847
▁worm	-10.5856
▁penguins	-10.5857
▁trails	-10.5858
▁drawing	-10.5864
▁cas	-10.5878
▁rug	-10.5887
▁carrying	-10.5894
burger	-10.5908
▁vitamins	-10.5912
▁beard	-10.5916
acious	-10.593
▁goro	-10.5953
▁ie	-10.5964
▁employees	-10.5967
▁tryin	-10.597
▁van	-10.5974
tler	-10.5977
▁honk	-10.6004
▁specially	-10.6011
▁fishing	-10.6013
▁honored	-10.6014
▁kicked	-10.6023
▁threaten	-10.6028
▁prisoners	-10.6032
▁sid	-10.6054
nstein	-10.6055
▁younger	-10.6109
▁offering	-10.6115
▁ni	-10.613
▁sneezes	-10.6133
▁heights	-10.6133
▁signed	-10.6135
▁yells	-10.614
▁organiz	-10.6159
ational	-10.6161
met	-10.6165
▁adults	-10.6189
▁va	-10.619
▁teaching	-10.6192
▁kissing	-10.6223
▁fla	-10.6262
▁dispose	-10.6266
▁rolling	-10.6281
▁provid	-10.6289
mate	-10.6299
▁reporting	-10.6299
▁conversations	-10.6302
song	-10.632
▁gre	-10.6338
col	-10.634
ga	-10.6356
vern	-10.639
chi	-10.642
▁nah	-10.6424
▁approve	-10.6427
▁racer	-10.6468
▁wil	-10.6471
▁ended	-10.6481
▁fle	-10.6498
▁checked	-10.6502
evi	-10.6503
uch	-10.6507
▁don	-10.6511
sis	-10.6513
nia	-10.6528
▁lessons	-10.6538
▁file	-10.655
case	-10.657
most	-10.6585
ura	-10.664
▁tellin	-10.6642
▁subjects	-10.6649
▁losers	-10.6672
run	-10.6673
▁cou	-10.6696
▁tickets	-10.6707
▁scores	-10.6712
▁tricks	-10.6713
▁hitch	-10.6735
▁answering	-10.6745
▁peri	-10.6787
gged	-10.6794
tle	-10.6821
▁fil	-10.6825
mber	-10.6873
▁barrys	-10.6886
▁div	-10.69
istic	-10.6912
nny	-10.6945
placed	-10.6952
ison	-10.6958
▁dee	-10.6959
rts	-10.699
shed	-10.6994
▁whoops	-10.6994
ised	-10.702
▁roo	-10.7022
▁risks	-10.704
rrier	-10.7061
▁ka	-10.7074
▁ag	-10.7091
what	-10.7185
uti	-10.719
▁ses	-10.7195
▁cancel	-10.7263
▁trail	-10.7309
▁tire	-10.7312
▁donation	-10.7322
▁penguin	-10.7325
▁outdoor	-10.7328
▁tune	-10.7334
▁goblin	-10.7337
▁folk	-10.7347
ability	-10.7356
ough	-10.7356
▁hea	-10.7359
▁parent	-10.7376
▁pla	-10.738
▁occasion	-10.744
eyed	-10.745
lined	-10.7476
ker	-10.7478
berg	-10.7484
▁bake	-10.7484
▁comb	-10.7486
▁skateboard	-10.7488
pers	-10.749
▁gin	-10.7514
rot	-10.7516
▁app	-10.7518
timer	-10.7519
made	-10.753
▁neigh	-10.7537
▁camp	-10.7538
▁quack	-10.7538
▁pour	-10.7549
▁educat	-10.7557
where	-10.7561
▁marga	-10.7562
▁volunteer	-10.7564
▁exhaust	-10.7567
▁disappoint	-10.7568
stream	-10.7573
pole	-10.7573
claim	-10.7573
bound	-10.7575
load	-10.7575
brain	-10.7575
jack	-10.7576
talk	-10.7577
minute	-10.7577
father	-10.7578
othy	-10.7578
▁update	-10.7578
▁brad	-10.7579
▁arrange	-10.7579
▁remove	-10.7581
dic	-10.7582
▁determine	-10.7582
free	-10.7582
chop	-10.7583
light	-10.7584
etched	-10.7589
reat	-10.759
▁plea	-10.759
okay	-10.7596
▁grove	-10.7602
▁potato	-10.7603
▁tomato	-10.7603
▁sketch	-10.7603
▁troub	-10.7604
teen	-10.7607
long	-10.7607
▁calculat	-10.7607
▁exhibit	-10.7608
▁jam	-10.7609
▁plum	-10.7609
▁chose	-10.7609
▁givin	-10.7609
▁moth	-10.761
▁cla	-10.7612
inister	-10.7612
▁cult	-10.7613
graph	-10.7613
▁heir	-10.7614
▁pupp	-10.7614
▁repre	-10.7614
▁forbid	-10.7614
▁auction	-10.7614
▁compliment	-10.7614
▁favour	-10.7614
▁profit	-10.7614
▁shouid	-10.7614
february	-10.7614
memorial	-10.7614
ockadiddledoodle	-10.7614
▁altitude	-10.7614
▁apollo	-10.7614
▁application	-10.7614
▁athletes	-10.7614
▁atlas	-10.7614
▁australia	-10.7614
▁backpack	-10.7614
▁banished	-10.7614
▁bastard	-10.7614
▁behaving	-10.7614
▁branson	-10.7614
▁brinks	-10.7614
▁calliope	-10.7614
▁campaign	-10.7614
▁caterpillar	-10.7614
▁champagne	-10.7614
▁charlemagne	-10.7614
▁cheetah	-10.7614
▁contra	-10.7614
▁covington	-10.7614
▁cricket	-10.7614
▁critical	-10.7614
▁curiosity	-10.7614
▁custody	-10.7614
▁dessert	-10.7614
▁devote	-10.7614
▁downtown	-10.7614
▁everlasting	-10.7614
▁execution	-10.7614
▁executive	-10.7614
▁explanation	-10.7614
▁explosive	-10.7614
▁exquisite	-10.7614
▁extinguish	-10.7614
▁fifteen	-10.7614
▁fluffy	-10.7614
▁generator	-10.7614
▁gimmick	-10.7614
▁granddaddy	-10.7614
▁greaves	-10.7614
▁ignore	-10.7614
▁indispensable	-10.7614
▁infinite	-10.7614
▁inhabit	-10.7614
▁inherit	-10.7614
▁innocence	-10.7614
▁instinct	-10.7614
▁insurance	-10.7614
▁julius	-10.7614
▁katarina	-10.7614
▁kerchief	-10.7614
▁khurissan	-10.7614
▁krunch	-10.7614
▁kurdy	-10.7614
▁laboratory	-10.7614
▁limerick	-10.7614
▁lizard	-10.7614
▁maldue	-10.7614
▁marshmallow	-10.7614
▁mcallister	-10.7614
▁milord	-10.7614
▁nuclear	-10.7614
▁ofcourse	-10.7614
▁offend	-10.7614
▁olivia	-10.7614
▁pacific	-10.7614
▁pennypacker	-10.7614
▁perfume	-10.7614
▁possess	-10.7614
▁precaution	-10.7614
▁prototype	-10.7614
▁recruit	-10.7614
▁register	-10.7614
▁rejoice	-10.7614
▁relieve	-10.7614
▁response	-10.7614
▁rhyme	-10.7614
▁satisfied	-10.7614
▁scrambling	-10.7614
▁semifinal	-10.7614
▁shaving	-10.7614
▁sisterscousins	-10.7614
▁skulduggery	-10.7614
▁snarling	-10.7614
▁spectacular	-10.7614
▁stewart	-10.7614
▁surrender	-10.7614
▁theater	-10.7614
▁toadstool	-10.7614
▁toilet	-10.7614
▁traffic	-10.7614
▁tragedy	-10.7614
▁tribunal	-10.7614
▁tshirt	-10.7614
▁twerps	-10.7614
▁underneath	-10.7614
▁upright	-10.7614
▁warrant	-10.7614
▁website	-10.7614
▁wound	-10.7614
▁approximately	-10.7614
▁attached	-10.7614
▁consequences	-10.7614
▁duties	-10.7614
▁flush	-10.7614
▁fridge	-10.7614
▁granger	-10.7614
▁greenhill	-10.7614
▁irish	-10.7614
▁oliver	-10.7614
▁piano	-10.7614
▁rustling	-10.7614
▁waik	-10.7614
crust	-10.7614
▁appeal	-10.7614
▁ashram	-10.7614
▁conscious	-10.7614
▁content	-10.7614
▁finance	-10.7614
▁glow	-10.7614
▁goddess	-10.7614
▁headache	-10.7614
▁importance	-10.7614
▁nevertheless	-10.7614
▁nyah	-10.7614
▁variety	-10.7614
▁chunk	-10.7614
▁electronic	-10.7614
▁fulton	-10.7614
▁pioneer	-10.7614
▁resume	-10.7614
▁sample	-10.7614
▁scheme	-10.7614
▁plot	-10.7614
▁jammed	-10.7614
▁pattern	-10.7614
▁peak	-10.7614
▁pussy	-10.7614
▁committee	-10.7614
▁exceed	-10.7614
▁sniffles	-10.7614
▁tanya	-10.7614
▁beak	-10.7614
▁orbit	-10.7614
▁llamas	-10.7614
▁munic	-10.7614
▁tidy	-10.7614
▁swallow	-10.7614
▁hawk	-10.7614
▁julie	-10.7614
▁poop	-10.7614
▁aspen	-10.7614
▁naomi	-10.7614
▁madeira	-10.7614
▁susan	-10.7614
▁helga	-10.7614
▁iunch	-10.7614
▁session	-10.7614
▁belch	-10.7614
▁luggage	-10.7614
▁lonesome	-10.7614
▁scrub	-10.7614
▁chimney	-10.7614
▁cider	-10.7614
▁etc	-10.7614
▁civilized	-10.7614
▁version	-10.7614
▁convey	-10.7614
▁hisses	-10.7614
azz	-10.7614
▁onions	-10.7614
▁fulfill	-10.7614
▁underground	-10.7614
▁influence	-10.7614
▁packages	-10.7614
▁unveil	-10.7614
▁groceries	-10.7614
▁pillow	-10.7615
▁highlands	-10.7615
▁text	-10.7615
▁capsule	-10.7615
▁exceptional	-10.7615
▁dreadful	-10.7615
▁crisis	-10.7615
▁pencil	-10.7615
▁cliff	-10.7615
▁decree	-10.7615
▁crate	-10.7615
▁labour	-10.7615
▁pond	-10.7615
▁dumpster	-10.7615
▁flood	-10.7615
▁financial	-10.7615
▁haywood	-10.7615
▁rival	-10.7615
▁felon	-10.7615
▁roast	-10.7615
▁loaf	-10.7615
▁latin	-10.7615
▁opry	-10.7615
▁desk	-10.7615
▁kidnapping	-10.7615
▁yippi	-10.7615
▁waking	-10.7616
▁tapping	-10.7616
▁saddle	-10.7616
▁theft	-10.7616
▁fleece	-10.7616
▁trapped	-10.7616
▁series	-10.7616
▁sammy	-10.7616
▁oink	-10.7616
▁teenage	-10.7617
▁popped	-10.7617
▁payroll	-10.7617
▁whiff	-10.7617
▁leaf	-10.7617
▁editor	-10.7617
▁selfish	-10.7617
▁festival	-10.7617
▁meowth	-10.7617
▁aiong	-10.7617
▁hyung	-10.7617
▁worid	-10.7617
▁meow	-10.7617
▁estate	-10.7617
▁boring	-10.7617
▁item	-10.7617
▁backwards	-10.7618
▁compensation	-10.7618
▁adore	-10.7618
▁peasant	-10.7618
▁astronomy	-10.7618
▁romance	-10.7618
▁development	-10.7618
▁headquarters	-10.7618
▁loup	-10.7618
▁massive	-10.7619
▁troll	-10.7619
▁choke	-10.7619
▁caii	-10.7619
▁trem	-10.7619
▁mmmmm	-10.7619
▁channel	-10.7619
▁profile	-10.7619
▁respond	-10.7619
▁wreck	-10.7619
▁plumb	-10.7619
▁grind	-10.7619
▁tide	-10.762
▁speedway	-10.762
▁features	-10.762
▁woke	-10.762
▁harmless	-10.762
▁solar	-10.762
▁wax	-10.762
▁imitat	-10.762
▁ideals	-10.762
▁roar	-10.762
▁mailroom	-10.7621
▁migration	-10.7621
▁task	-10.7621
▁aione	-10.7621
▁nobleman	-10.7621
▁chitters	-10.7621
▁fong	-10.7621
▁somewh	-10.7621
▁burst	-10.7622
▁hindi	-10.7622
▁mock	-10.7622
▁alongside	-10.7622
▁fever	-10.7622
▁slim	-10.7623
▁arrangement	-10.7623
▁fascinating	-10.7624
▁examine	-10.7624
▁sketches	-10.7625
▁tomatoes	-10.7625
▁regional	-10.7625
▁andes	-10.7625
▁hydr	-10.7625
▁coverage	-10.7625
▁heap	-10.7625
▁rail	-10.7626
▁dime	-10.7627
▁toll	-10.7627
▁torch	-10.7627
igan	-10.7627
▁hoohoo	-10.7627
▁vaca	-10.7627
▁theory	-10.7627
▁travelling	-10.7628
▁reign	-10.7628
▁lamb	-10.7629
▁role	-10.7629
▁lens	-10.7629
▁mich	-10.7631
▁bench	-10.7631
▁tooth	-10.7631
▁theore	-10.7631
▁dick	-10.7631
▁exit	-10.7631
▁moose	-10.7633
▁chin	-10.7633
▁sob	-10.7634
▁sloth	-10.7634
▁rental	-10.7634
▁overhead	-10.7635
▁traditional	-10.7638
point	-10.7638
▁sour	-10.7639
▁berth	-10.7639
▁shuddering	-10.7641
▁preparing	-10.7641
▁gorge	-10.7642
▁soak	-10.7642
▁aj	-10.7643
▁poise	-10.7646
▁doublecross	-10.7648
zzing	-10.765
▁exam	-10.765
▁palm	-10.7651
▁frightened	-10.7652
▁xray	-10.7652
llow	-10.7652
▁betty	-10.7652
▁reid	-10.7653
▁clem	-10.7653
▁reel	-10.7654
▁fussy	-10.7654
iii	-10.7654
▁blaz	-10.7654
give	-10.7655
▁boil	-10.7656
▁limb	-10.7656
▁sow	-10.7656
▁straining	-10.7658
▁editing	-10.7658
▁inch	-10.7658
▁earning	-10.7658
▁idol	-10.7659
▁brooke	-10.766
▁robbery	-10.7661
▁froth	-10.7663
▁canceled	-10.7664
▁earthling	-10.7665
net	-10.7668
▁iet	-10.7668
▁hoid	-10.7668
tow	-10.7669
▁required	-10.767
▁bugg	-10.767
▁barky	-10.7672
▁larger	-10.7672
▁punished	-10.7673
▁rever	-10.7673
▁nearest	-10.7673
cable	-10.7674
▁pasta	-10.7677
▁begging	-10.7678
▁hm	-10.7679
▁officially	-10.768
gic	-10.768
▁replaced	-10.7688
how	-10.7689
▁assumed	-10.7689
volv	-10.7695
▁fund	-10.7696
▁liqu	-10.7699
▁manual	-10.7699
▁released	-10.7699
▁carla	-10.7701
▁shocked	-10.7705
▁mixed	-10.7705
▁foreigner	-10.7707
▁path	-10.7708
▁pity	-10.7709
▁herding	-10.7711
▁kindness	-10.7712
▁affairs	-10.7716
▁tubes	-10.7716
▁sniffs	-10.7716
▁takeoff	-10.7718
▁heavenly	-10.7724
▁sco	-10.7725
▁prob	-10.7726
yster	-10.7728
▁yu	-10.7736
▁suggestion	-10.7736
▁passes	-10.774
▁meantime	-10.775
▁drowned	-10.7752
▁germany	-10.7755
plicate	-10.7759
▁writer	-10.7763
▁smashing	-10.7765
▁crunch	-10.7772
▁pard	-10.7772
▁ele	-10.7776
▁cable	-10.7777
▁pete	-10.7779
▁propos	-10.7781
▁dodg	-10.7781
▁intentions	-10.7782
▁stairs	-10.7782
▁saris	-10.7782
▁boxer	-10.7783
▁softly	-10.7786
▁bella	-10.7787
tangled	-10.7801
▁helpful	-10.7803
dar	-10.7804
▁washed	-10.7805
▁newman	-10.7806
▁accepted	-10.7825
▁difficulty	-10.7829
rite	-10.783
ross	-10.7838
▁appeared	-10.7847
▁bumblebees	-10.785
▁croaks	-10.785
▁belts	-10.785
▁shouts	-10.7851
▁belonged	-10.7853
▁visitors	-10.7854
▁launching	-10.7854
▁marked	-10.7856
▁eatin	-10.786
▁iong	-10.7862
▁painting	-10.7863
▁planted	-10.7864
▁messed	-10.7869
▁ware	-10.787
▁makeup	-10.7871
▁entered	-10.788
▁moral	-10.7885
▁typ	-10.7887
▁reduce	-10.7891
▁cooked	-10.7895
ishing	-10.7902
▁workers	-10.7903
▁cane	-10.7911
▁tunes	-10.7918
▁donations	-10.7918
omination	-10.7925
▁easter	-10.7941
▁blessed	-10.7948
ummy	-10.7949
▁and	-10.795
▁deadly	-10.7957
▁humbl	-10.7959
tically	-10.7963
▁grande	-10.7965
▁equals	-10.7983
▁pits	-10.7991
▁naive	-10.7992
▁rely	-10.7994
agged	-10.7994
hahahaha	-10.7996
izing	-10.7997
▁peter	-10.8002
▁pope	-10.8003
▁feelin	-10.8004
aka	-10.8005
uge	-10.8015
▁meters	-10.8045
▁moi	-10.8046
rise	-10.8049
▁devices	-10.8055
▁gorillas	-10.8055
▁wunkos	-10.8055
▁exclaims	-10.8055
▁lowing	-10.8056
▁explained	-10.8057
▁rang	-10.8061
▁dancers	-10.8081
▁sting	-10.8096
▁karat	-10.8114
▁trials	-10.8124
▁instructors	-10.8124
▁relationships	-10.8124
▁lab	-10.8128
▁titles	-10.813
▁christ	-10.8134
▁triple	-10.8144
stood	-10.8146
▁testing	-10.8148
▁meals	-10.8194
loo	-10.8197
▁fli	-10.8211
uh	-10.8219
▁boa	-10.8219
▁cd	-10.8242
▁cents	-10.8243
▁chimpanzees	-10.8264
▁cleared	-10.8274
wig	-10.8275
▁loss	-10.8278
▁burr	-10.8285
▁flee	-10.8297
▁anti	-10.8297
▁engineer	-10.8307
▁reporters	-10.8308
▁select	-10.8317
unk	-10.8321
mma	-10.8337
▁packing	-10.8348
▁faced	-10.8348
▁hive	-10.8352
▁parking	-10.8373
▁freed	-10.8373
▁spit	-10.8407
owns	-10.8452
ife	-10.8473
▁canad	-10.8489
▁quitt	-10.8516
▁mut	-10.8595
▁hustle	-10.8659
ient	-10.8663
rang	-10.8703
ncy	-10.8715
▁repl	-10.8717
quat	-10.8731
ddy	-10.8754
▁dan	-10.8787
inner	-10.8823
erries	-10.8867
▁communicate	-10.8868
▁struggle	-10.8868
oma	-10.8898
▁ber	-10.891
▁conf	-10.8968
▁encourage	-10.8984
▁wo	-10.9017
▁recit	-10.9019
▁bla	-10.917
▁reader	-10.9175
▁bong	-10.9242
▁ob	-10.9255
chin	-10.9262
▁muc	-10.9285
njo	-10.9303
▁straw	-10.9335
▁rec	-10.9352
▁negotiat	-10.9358
ception	-10.9411
▁predict	-10.9453
▁budd	-10.947
hole	-10.9488
allah	-10.95
▁explore	-10.9572
fer	-10.958
▁phon	-10.9583
icy	-10.9587
oot	-10.9639
fr	-10.9641
ez	-10.9663
▁studi	-10.967
gie	-10.9746
▁suite	-10.9746
rians	-10.9752
▁squeak	-10.9759
▁shout	-10.9762
▁groan	-10.9773
▁cop	-10.9775
amp	-10.9796
illa	-10.9808
▁reno	-10.9818
city	-10.9819
▁bumblebee	-10.982
▁belt	-10.982
▁croak	-10.982
iness	-10.9827
▁crab	-10.9829
▁shadow	-10.9839
oodle	-10.9853
▁fright	-10.9856
done	-10.9863
irring	-10.9863
▁visitor	-10.9864
nity	-10.989
imp	-10.9923
▁roman	-10.9945
▁tang	-10.9951
choo	-10.9966
▁embarrass	-10.9983
▁the	-10.9994
pati	-10.9999
▁participa	-11
full	-11.0006
▁yup	-11.0028
▁stutter	-11.0036
▁cluck	-11.0039
▁accus	-11.0042
▁pollinat	-11.0057
▁acquaint	-11.0058
▁tele	-11.006
▁rev	-11.006
scope	-11.0061
▁unl	-11.0064
lock	-11.0065
▁sustain	-11.0067
▁bleat	-11.0068
just	-11.0069
▁delight	-11.0072
▁frighten	-11.0072
reliable	-11.0073
power	-11.0074
cer	-11.0075
box	-11.0075
ground	-11.0075
driver	-11.0075
pid	-11.0075
bury	-11.0076
phone	-11.0076
class	-11.0076
heart	-11.0076
rich	-11.0077
▁declare	-11.0078
wood	-11.008
▁rattle	-11.008
master	-11.008
cool	-11.0081
deer	-11.0082
▁bore	-11.0082
▁snoop	-11.0082
wear	-11.0083
▁retire	-11.0083
▁welcom	-11.0085
awful	-11.0086
maid	-11.0088
fall	-11.0089
▁inventor	-11.009
coat	-11.0091
▁numb	-11.0091
▁rhythm	-11.0094
▁convince	-11.0095
nah	-11.0095
▁programme	-11.0096
▁buckle	-11.0096
▁exact	-11.0099
depende	-11.01
▁violat	-11.0102
▁shove	-11.0105
well	-11.0106
▁chim	-11.0107
▁investigat	-11.0109
▁somethin	-11.0109
▁conque	-11.011
fect	-11.011
▁runnin	-11.011
nternational	-11.011
mpani	-11.0111
▁simi	-11.0111
▁bab	-11.0112
▁peaceful	-11.0112
▁access	-11.0113
▁script	-11.0113
▁interfere	-11.0113
▁brut	-11.0114
▁industrial	-11.0114
storm	-11.0114
perative	-11.0114
▁timber	-11.0114
mediate	-11.0114
▁princip	-11.0114
▁cigar	-11.0114
▁physi	-11.0114
▁emerge	-11.0114
▁transform	-11.0114
▁myoj	-11.0114
ohohohohoh	-11.0114
ometric	-11.0114
▁academy	-11.0114
▁accompan	-11.0114
▁accurate	-11.0114
▁activities	-11.0114
▁adamant	-11.0114
▁afterwards	-11.0114
▁ambassador	-11.0114
▁ambush	-11.0114
▁anatomy	-11.0114
▁anniversary	-11.0114
▁anonymous	-11.0114
▁anxiety	-11.0114
▁apologies	-11.0114
▁appetite	-11.0114
▁artificial	-11.0114
▁asyium	-11.0114
▁average	-11.0114
▁aweigh	-11.0114
▁ballpark	-11.0114
▁bamboo	-11.0114
▁barbecue	-11.0114
▁bartender	-11.0114
▁behavior	-11.0114
▁bickerstaff	-11.0114
▁bullseye	-11.0114
▁bundle	-11.0114
▁carjackers	-11.0114
▁circumstances	-11.0114
▁clumsy	-11.0114
▁coliseum	-11.0114
▁commence	-11.0114
▁compound	-11.0114
▁console	-11.0114
▁cooperation	-11.0114
▁coreander	-11.0114
▁cunning	-11.0114
▁dabbett	-11.0114
▁decreas	-11.0114
▁delicate	-11.0114
▁disastrous	-11.0114
▁dismissed	-11.0114
▁dizzy	-11.0114
▁dunburry	-11.0114
▁dungeon	-11.0114
▁eccentric	-11.0114
▁econom	-11.0114
▁eggnog	-11.0114
▁elevator	-11.0114
▁eligible	-11.0114
▁entomolog	-11.0114
▁entrancing	-11.0114
▁envelope	-11.0114
▁excellency	-11.0114
▁exercise	-11.0114
▁families	-11.0114
▁fandango	-11.0114
▁fifty	-11.0114
▁flavius	-11.0114
▁fluid	-11.0114
▁fortynine	-11.0114
▁fracture	-11.0114
▁frown	-11.0114
▁fugitive	-11.0114
▁furschtien	-11.0114
▁furukawa	-11.0114
▁gettinbetter	-11.0114
▁ghidorah	-11.0114
▁grouch	-11.0114
▁harvard	-11.0114
▁hehhehheh	-11.0114
▁helicopter	-11.0114
▁hibernate	-11.0114
▁hurrah	-11.0114
▁infinity	-11.0114
▁infrasound	-11.0114
▁initially	-11.0114
▁jeanbob	-11.0114
▁jethro	-11.0114
▁kirby	-11.0114
▁korkona	-11.0114
▁kurzi	-11.0114
▁lindbergh	-11.0114
▁maisie	-11.0114
▁manescue	-11.0114
▁maneuver	-11.0114
▁mathematical	-11.0114
▁matilde	-11.0114
▁matsumiya	-11.0114
▁mickey	-11.0114
▁mongrel	-11.0114
▁nationwide	-11.0114
▁nimara	-11.0114
▁obsess	-11.0114
▁ogelvie	-11.0114
▁overlook	-11.0114
▁oxygen	-11.0114
▁photography	-11.0114
▁platform	-11.0114
▁possum	-11.0114
▁predicament	-11.0114
▁presume	-11.0114
▁primitive	-11.0114
▁privilege	-11.0114
▁proclamation	-11.0114
▁prompt	-11.0114
▁prosper	-11.0114
▁pursuit	-11.0114
▁ravage	-11.0114
▁reconsider	-11.0114
▁rehearse	-11.0114
▁reputation	-11.0114
▁roquefort	-11.0114
▁rubbish	-11.0114
▁sacred	-11.0114
▁scoundrel	-11.0114
▁scroll	-11.0114
▁seashell	-11.0114
▁sieep	-11.0114
▁smirkle	-11.0114
▁sorrow	-11.0114
▁spectrum	-11.0114
▁sphinx	-11.0114
▁symbol	-11.0114
▁tattered	-11.0114
▁tempt	-11.0114
▁tokyo	-11.0114
▁toothpaste	-11.0114
▁treason	-11.0114
▁tribute	-11.0114
▁umbrella	-11.0114
▁vanished	-11.0114
▁waziya	-11.0114
▁wiggl	-11.0114
▁wrestling	-11.0114
▁yahhoohoohoo	-11.0114
▁zanzar	-11.0114
▁zebra	-11.0114
▁zombie	-11.0114
▁aigoo	-11.0114
▁analyze	-11.0114
▁apost	-11.0114
▁bureau	-11.0114
▁conceal	-11.0114
▁concert	-11.0114
▁crumb	-11.0114
▁devito	-11.0114
▁examination	-11.0114
▁globe	-11.0114
▁gnome	-11.0114
▁grasp	-11.0114
▁greece	-11.0114
▁install	-11.0114
▁kerjarqu	-11.0114
▁knight	-11.0114
▁literally	-11.0114
▁lucius	-11.0114
▁managing	-11.0114
▁marvellous	-11.0114
▁mystery	-11.0114
▁oppa	-11.0114
▁permit	-11.0114
▁postcard	-11.0114
▁provisions	-11.0114
▁razor	-11.0114
▁reaction	-11.0114
▁refund	-11.0114
▁signature	-11.0114
▁snatch	-11.0114
▁socalled	-11.0114
▁terrain	-11.0114
▁truce	-11.0114
▁unravel	-11.0114
▁value	-11.0114
▁venus	-11.0114
▁wrinkle	-11.0114
▁donuts	-11.0114
▁handbag	-11.0114
▁horseshoe	-11.0114
▁lounge	-11.0114
▁motive	-11.0114
▁outrage	-11.0114
▁poem	-11.0114
▁prospect	-11.0114
▁protesting	-11.0114
▁recently	-11.0114
▁shaii	-11.0114
▁stench	-11.0114
▁supersede	-11.0114
▁utter	-11.0114
▁jessie	-11.0114
▁knit	-11.0114
▁recipe	-11.0114
▁abbey	-11.0114
▁barrel	-11.0114
▁firm	-11.0114
▁historic	-11.0114
▁honeybees	-11.0114
▁ieave	-11.0114
▁ingenu	-11.0114
▁jinx	-11.0114
▁monday	-11.0114
▁newspapers	-11.0114
▁schnell	-11.0114
▁snob	-11.0114
▁envy	-11.0114
▁gallows	-11.0114
▁morio	-11.0114
▁ninth	-11.0114
▁strand	-11.0114
▁stunn	-11.0114
▁trigg	-11.0114
▁adapt	-11.0114
▁piease	-11.0114
▁scold	-11.0114
▁slurp	-11.0114
phant	-11.0114
▁cinch	-11.0114
▁froglib	-11.0114
▁fungus	-11.0114
▁mario	-11.0114
▁sentence	-11.0114
▁taiking	-11.0114
▁harley	-11.0114
▁location	-11.0114
▁loving	-11.0114
▁raspberr	-11.0114
▁chancellor	-11.0114
▁clunk	-11.0114
▁cozy	-11.0114
▁relent	-11.0114
▁archer	-11.0114
▁hesitate	-11.0114
▁kelly	-11.0114
▁online	-11.0114
▁severe	-11.0114
▁yelp	-11.0114
▁pamper	-11.0114
▁hiram	-11.0114
▁merit	-11.0114
▁outlets	-11.0114
▁stride	-11.0114
▁yacht	-11.0114
erature	-11.0114
▁remote	-11.0114
obedient	-11.0114
▁brat	-11.0114
▁flaming	-11.0114
▁proving	-11.0114
▁sharing	-11.0114
▁neighbourhood	-11.0114
▁presto	-11.0114
▁raven	-11.0114
▁limping	-11.0114
▁disused	-11.0114
▁pedro	-11.0114
▁costume	-11.0114
▁shave	-11.0114
▁dickens	-11.0114
▁insane	-11.0114
▁sasha	-11.0114
▁italy	-11.0114
▁undertak	-11.0114
▁attend	-11.0114
▁squawking	-11.0114
▁scatt	-11.0114
▁identical	-11.0114
▁salesman	-11.0114
▁surface	-11.0114
▁disposition	-11.0114
▁keen	-11.0114
▁consent	-11.0114
▁altogether	-11.0114
▁cheek	-11.0114
▁ollie	-11.0114
▁dishes	-11.0114
▁sri	-11.0114
▁charles	-11.0114
▁description	-11.0114
▁reverend	-11.0114
▁sidney	-11.0114
▁transfer	-11.0114
▁consum	-11.0114
▁flailing	-11.0114
▁income	-11.0115
▁invest	-11.0115
▁recognition	-11.0115
▁leftovers	-11.0115
▁worries	-11.0115
▁frame	-11.0115
▁insult	-11.0115
▁swedish	-11.0115
▁vander	-11.0115
▁buried	-11.0115
▁lori	-11.0115
▁patron	-11.0115
▁deliri	-11.0115
▁judging	-11.0115
▁inquir	-11.0115
▁distress	-11.0115
▁flares	-11.0115
▁wits	-11.0115
▁unfair	-11.0115
▁gracious	-11.0115
▁boogie	-11.0115
venue	-11.0115
▁merge	-11.0115
▁scramble	-11.0115
▁breach	-11.0115
▁lalalalala	-11.0115
▁fairytale	-11.0115
▁ranks	-11.0115
▁fraternity	-11.0115
▁prima	-11.0115
▁password	-11.0115
▁pedal	-11.0115
▁chamber	-11.0115
▁destruct	-11.0116
▁rumors	-11.0116
▁ladyguard	-11.0116
▁wager	-11.0116
▁donny	-11.0116
▁locate	-11.0116
▁gruel	-11.0116
ville	-11.0116
▁caution	-11.0116
▁primate	-11.0116
▁prix	-11.0116
▁glide	-11.0116
▁caff	-11.0116
cratic	-11.0116
▁gray	-11.0116
▁grub	-11.0116
▁customers	-11.0116
▁consistent	-11.0116
▁arrogant	-11.0116
▁dwell	-11.0116
▁tension	-11.0116
▁literary	-11.0116
▁spicy	-11.0116
▁panda	-11.0116
ilbert	-11.0116
▁buff	-11.0116
▁toad	-11.0116
▁moonlight	-11.0116
▁craw	-11.0116
▁greet	-11.0116
▁whack	-11.0116
▁cotton	-11.0116
▁probation	-11.0117
▁beave	-11.0117
▁foam	-11.0117
▁renew	-11.0117
▁christop	-11.0117
▁noodle	-11.0117
▁scal	-11.0117
ternity	-11.0117
▁homesick	-11.0117
flower	-11.0117
▁ethic	-11.0117
▁upside	-11.0117
▁deception	-11.0117
▁passionate	-11.0117
▁happier	-11.0117
▁recommendation	-11.0117
▁assistance	-11.0117
▁ridge	-11.0117
▁morality	-11.0117
▁siight	-11.0117
▁sector	-11.0118
▁roam	-11.0118
▁snapping	-11.0118
▁inspirational	-11.0118
▁southern	-11.0118
▁persuade	-11.0118
▁basically	-11.0118
▁raising	-11.0118
▁surgeon	-11.0118
▁digging	-11.0118
▁beginner	-11.0118
▁stress	-11.0118
▁european	-11.0118
▁grill	-11.0118
▁ieft	-11.0118
▁detonate	-11.0118
▁seize	-11.0118
▁vase	-11.0118
▁babies	-11.0118
▁edition	-11.0119
▁waahoo	-11.0119
▁hayley	-11.0119
▁ooty	-11.0119
▁stumbled	-11.0119
▁snip	-11.0119
▁popping	-11.0119
▁incompetent	-11.012
▁countdown	-11.012
▁noah	-11.012
▁celebration	-11.012
▁iife	-11.012
▁modest	-11.012
transl	-11.012
aggle	-11.012
▁grownup	-11.012
▁cruelty	-11.012
▁dislike	-11.012
▁astronaut	-11.0121
▁dandelions	-11.0121
▁expense	-11.0121
▁kansas	-11.0121
▁compos	-11.0121
▁dockers	-11.0121
▁promote	-11.0121
▁depth	-11.0121
▁accessible	-11.0121
▁atta	-11.0122
gratitude	-11.0122
▁nobu	-11.0122
▁touchdown	-11.0122
uit	-11.0122
▁dotty	-11.0122
▁unload	-11.0122
▁conquest	-11.0122
▁railway	-11.0122
▁media	-11.0122
▁pawn	-11.0122
▁dropping	-11.0123
▁shovel	-11.0123
▁canine	-11.0123
▁complexion	-11.0123
▁straightaway	-11.0123
▁leap	-11.0123
▁graceful	-11.0124
▁eric	-11.0124
▁stunt	-11.0124
▁itii	-11.0124
▁hoax	-11.0124
▁freshmen	-11.0124
▁caroline	-11.0124
▁monstrous	-11.0125
▁pinch	-11.0126
▁atmosphere	-11.0126
▁offense	-11.0126
▁doggie	-11.0127
▁whiie	-11.0127
▁violation	-11.0127
▁athat	-11.0127
▁overwhelming	-11.0127
▁carrot	-11.0127
▁chow	-11.0127
▁kneel	-11.0128
▁potatoes	-11.0128
▁instrumental	-11.0128
▁assembly	-11.0128
▁evolved	-11.0129
▁drug	-11.013
▁alike	-11.013
▁crackers	-11.013
▁seii	-11.0131
▁nick	-11.0131
▁fortunately	-11.0131
▁airways	-11.0131
▁stow	-11.0131
▁flatter	-11.0132
▁mommy	-11.0132
▁grover	-11.0132
▁possibility	-11.0133
▁hallway	-11.0134
▁minim	-11.0134
▁elves	-11.0134
▁observe	-11.0134
▁reproduce	-11.0134
▁conscien	-11.0134
▁error	-11.0134
▁agreement	-11.0135
▁discouraged	-11.0135
▁bum	-11.0136
▁spunk	-11.0136
▁woodsman	-11.0136
▁worthless	-11.0136
▁realise	-11.0137
▁lamp	-11.0137
▁agh	-11.0138
▁creepy	-11.0138
▁curly	-11.0138
▁described	-11.0139
▁harmon	-11.0139
▁occurred	-11.0139
▁revert	-11.014
▁pear	-11.014
▁hence	-11.014
▁tyran	-11.0141
utbut	-11.0141
▁takin	-11.0142
▁swo	-11.0142
▁wah	-11.0142
▁awaken	-11.0143
▁ache	-11.0145
▁fig	-11.0146
▁prop	-11.0146
▁transmitted	-11.0147
▁chess	-11.0148
▁programmed	-11.0148
▁engaged	-11.0149
▁tossed	-11.015
▁marty	-11.0151
▁july	-11.0151
▁ludo	-11.0152
▁fee	-11.0152
▁leech	-11.0152
quet	-11.0153
▁shallow	-11.0153
▁kiddo	-11.0154
ham	-11.0155
▁emma	-11.0156
▁skiers	-11.0157
anqui	-11.0157
▁rig	-11.0157
▁plead	-11.0158
▁removed	-11.0158
▁zip	-11.0159
▁barker	-11.0161
▁larry	-11.0161
▁boop	-11.0161
▁fami	-11.0162
greatgrandmother	-11.0162
▁ingredients	-11.0163
▁wiggins	-11.0163
▁embarrassed	-11.0164
▁badge	-11.0166
▁rear	-11.0166
▁convert	-11.0167
▁tenth	-11.0167
▁cleaners	-11.0168
▁heartily	-11.0168
▁const	-11.017
matic	-11.0171
▁ability	-11.0171
cra	-11.0172
minent	-11.0172
▁gap	-11.0172
▁clanking	-11.0172
▁leaking	-11.0172
▁weeping	-11.0173
▁explored	-11.0175
▁hick	-11.0177
▁eliminated	-11.0177
▁volunteered	-11.0178
▁hitched	-11.0183
▁soo	-11.0186
▁gim	-11.0186
▁athe	-11.0189
▁legally	-11.0189
▁matches	-11.019
▁disturbed	-11.0192
▁connected	-11.0192
▁developed	-11.0193
▁bury	-11.0194
▁bald	-11.0194
headed	-11.0195
▁embarrassing	-11.0196
▁donate	-11.0197
▁swed	-11.02
▁costa	-11.0202
▁quant	-11.0202
upi	-11.0202
▁via	-11.0203
▁dial	-11.0206
▁sap	-11.0206
▁borrowed	-11.0206
▁mmmm	-11.0206
▁directed	-11.0207
▁guaranteed	-11.0207
▁hypo	-11.0208
brows	-11.021
▁reasonable	-11.0212
▁pouring	-11.0219
rous	-11.0221
▁committ	-11.0225
▁solved	-11.0226
▁recognized	-11.0226
honda	-11.0228
▁deny	-11.0228
▁taller	-11.0229
faddle	-11.0231
▁recover	-11.0233
▁guided	-11.0236
▁beaming	-11.0242
▁lankoms	-11.0248
▁nieces	-11.0248
▁resources	-11.0248
▁customs	-11.0248
▁intended	-11.0249
▁yelled	-11.0254
▁manlo	-11.026
▁sung	-11.0261
owned	-11.0265
▁dinging	-11.027
▁ton	-11.0273
dded	-11.0273
▁identi	-11.0277
▁robbin	-11.028
usion	-11.0281
donna	-11.0282
pan	-11.0287
▁weighing	-11.029
▁cracked	-11.0291
▁homeless	-11.0292
▁fried	-11.0294
▁fatal	-11.0307
▁rushed	-11.0308
▁lala	-11.0311
▁scored	-11.0311
▁sst	-11.0331
▁sinking	-11.0337
▁strangely	-11.0348
▁bug	-11.0349
▁disco	-11.0352
pen	-11.0358
▁scratching	-11.0359
▁commanding	-11.0362
▁doodl	-11.0364
▁minu	-11.0365
▁op	-11.0374
nut	-11.0377
▁rung	-11.0377
▁clothing	-11.0385
▁deeply	-11.0397
▁tricked	-11.04
▁repe	-11.0415
▁sensibl	-11.0415
▁tasted	-11.042
▁proved	-11.0425
▁dogg	-11.0446
emic	-11.045
▁inso	-11.0451
▁universit	-11.0457
▁lifted	-11.0469
▁ballo	-11.047
▁added	-11.0486
lousy	-11.0492
verge	-11.0503
▁fend	-11.0525
▁catcher	-11.0533
▁kar	-11.0534
▁maki	-11.0542
▁heed	-11.0546
▁dangl	-11.0626
▁lace	-11.0635
▁foe	-11.0645
▁begg	-11.0661
▁boost	-11.0677
eft	-11.0686
▁justi	-11.0728
▁mare	-11.0799
▁allie	-11.0825
▁truthful	-11.0854
▁fre	-11.0888
▁gir	-11.0888
▁sabotage	-11.09
sanity	-11.0905
▁skipp	-11.0913
▁rider	-11.0972
▁heater	-11.0985
wend	-11.1024
▁qua	-11.1026
▁deni	-11.1046
▁bur	-11.1061
▁franc	-11.1091
phony	-11.1099
▁hail	-11.1116
part	-11.1153
▁forth	-11.1163
▁arg	-11.1173
▁ov	-11.1196
limited	-11.1283
▁hon	-11.131
ency	-11.1332
citation	-11.1351
▁lik	-11.1363
ovic	-11.1413
iate	-11.1433
haha	-11.1454
ttle	-11.1455
row	-11.1491
cast	-11.1495
olo	-11.1528
▁communicat	-11.1529
▁struggl	-11.1537
who	-11.1565
▁chick	-11.1586
▁concentrat	-11.1612
▁lone	-11.1667
rays	-11.1673
far	-11.1718
▁illustr	-11.1759
▁rate	-11.178
▁yi	-11.1826
ather	-11.1836
oran	-11.186
lute	-11.1862
veni	-11.1873
▁spro	-11.1979
▁domin	-11.1991
▁wis	-11.2038
▁cra	-11.2099
▁rut	-11.2109
▁introduc	-11.2196
driven	-11.2208
nkers	-11.2232
▁continu	-11.2283
▁rub	-11.2333
dium	-11.2401
▁mamma	-11.2473
▁crop	-11.2473
▁pun	-11.2503
anna	-11.2538
anni	-11.2556
owl	-11.2571
▁brai	-11.2576
vic	-11.2616
ock	-11.263
▁thru	-11.2674
rock	-11.2713
ization	-11.2715
▁ruff	-11.2721
▁just	-11.2721
▁oohoohooh	-11.2724
itti	-11.2762
hou	-11.2813
tale	-11.2839
game	-11.2853
cious	-11.2857
ella	-11.295
bul	-11.2983
▁recycle	-11.3
▁wee	-11.3016
hoho	-11.3057
▁squeal	-11.31
▁plac	-11.3128
lap	-11.3152
▁intention	-11.3154
▁stair	-11.3154
▁sari	-11.3154
▁footprint	-11.3159
▁glove	-11.3159
▁gulp	-11.316
awa	-11.3162
▁competitor	-11.3165
▁calculation	-11.3183
▁beside	-11.319
covered	-11.3196
▁grain	-11.3206
person	-11.3213
▁chuckle	-11.3233
▁paw	-11.3233
▁terr	-11.3239
found	-11.3245
▁maniac	-11.3271
quarters	-11.3278
islands	-11.3281
otti	-11.3304
minded	-11.3307
ology	-11.3312
even	-11.3338
ovin	-11.3342
flow	-11.3348
▁india	-11.3357
▁creat	-11.336
▁edit	-11.3362
▁rio	-11.3364
▁clank	-11.3367
▁leak	-11.3367
▁strain	-11.3369
▁circl	-11.337
▁shush	-11.3372
▁murmur	-11.3374
▁experienc	-11.3375
▁weep	-11.3375
verted	-11.3379
▁squa	-11.3384
▁assum	-11.3387
▁impress	-11.3392
▁accomplish	-11.3396
▁civil	-11.3397
▁earn	-11.3397
▁smi	-11.3397
face	-11.3399
▁engag	-11.3402
▁obst	-11.3402
mount	-11.3402
▁moan	-11.3402
boat	-11.3405
prepared	-11.3407
confident	-11.3407
filled	-11.3407
traveling	-11.3408
grown	-11.3408
horse	-11.3408
tempo	-11.3408
wheel	-11.3408
▁chatt	-11.3409
world	-11.3409
human	-11.3409
blood	-11.3409
cause	-11.3409
sweet	-11.341
weight	-11.3411
josh	-11.3411
lucky	-11.3411
strict	-11.3412
▁praise	-11.3412
▁clu	-11.3412
▁treacher	-11.3413
▁describe	-11.3413
wise	-11.3414
▁creep	-11.3414
▁curl	-11.3414
▁overhea	-11.3415
▁disc	-11.3415
flight	-11.3415
▁qualifie	-11.3415
▁shift	-11.3416
▁shatt	-11.3416
▁orn	-11.3417
shot	-11.3417
▁destin	-11.3418
▁occurre	-11.3418
▁majest	-11.3418
self	-11.3418
▁spook	-11.3419
parent	-11.3419
butter	-11.342
▁reproduc	-11.342
▁observ	-11.342
▁energ	-11.342
▁argu	-11.3422
▁oppos	-11.3422
▁sauce	-11.3423
▁fortunate	-11.3423
shine	-11.3424
forth	-11.3424
▁toss	-11.3425
▁definite	-11.3425
sign	-11.3426
▁apprecia	-11.3426
▁bubbl	-11.3426
▁widow	-11.3426
▁mart	-11.3427
▁milli	-11.3427
angle	-11.3429
▁complex	-11.3435
new	-11.3435
▁norm	-11.3436
▁hind	-11.3436
▁blea	-11.3436
▁featur	-11.3438
▁colon	-11.3438
ounding	-11.3438
▁sham	-11.344
▁raisin	-11.3442
▁hyun	-11.3442
▁drivin	-11.3442
▁livin	-11.3442
▁sex	-11.3443
elief	-11.3443
▁assign	-11.3444
▁irrita	-11.3444
▁practi	-11.3444
▁suspen	-11.3445
rift	-11.3445
▁poet	-11.3445
appointed	-11.3445
▁drain	-11.3446
▁transport	-11.3446
▁convict	-11.3446
▁confide	-11.3446
cadi	-11.3446
▁trait	-11.3447
▁humili	-11.3447
ector	-11.3447
▁politic	-11.3447
▁vegeta	-11.3447
▁employ	-11.3447
▁tippytippy	-11.3447
▁condemn	-11.3447
▁iyiyiyi	-11.3447
▁oldfashion	-11.3447
▁reject	-11.3447
hhhhhhhhhhhhh	-11.3447
lepidoptera	-11.3447
occupied	-11.3447
prejudice	-11.3447
responsibilities	-11.3447
▁antenna	-11.3447
▁anthro	-11.3447
▁anticipat	-11.3447
▁apprentice	-11.3447
▁argentina	-11.3447
▁argentine	-11.3447
▁arithmetic	-11.3447
▁arizona	-11.3447
▁artifacts	-11.3447
▁associate	-11.3447
▁asylum	-11.3447
▁aurora	-11.3447
▁awkward	-11.3447
▁bambina	-11.3447
▁bargain	-11.3447
▁bayleef	-11.3447
▁beagle	-11.3447
▁bluebird	-11.3447
▁bockser	-11.3447
▁bogeyman	-11.3447
▁boomerang	-11.3447
▁boulder	-11.3447
▁bouncing	-11.3447
▁bouquet	-11.3447
▁bubalochov	-11.3447
▁cabbages	-11.3447
▁carburet	-11.3447
▁caviar	-11.3447
▁celebrity	-11.3447
▁charities	-11.3447
▁chauffeur	-11.3447
▁cheyenne	-11.3447
▁commute	-11.3447
▁conclude	-11.3447
▁confirm	-11.3447
▁conflict	-11.3447
▁confront	-11.3447
▁confucius	-11.3447
▁contain	-11.3447
▁contender	-11.3447
▁coocoo	-11.3447
▁copilot	-11.3447
▁crease	-11.3447
▁cylinder	-11.3447
▁daughterinlaw	-11.3447
▁deductions	-11.3447
▁desirable	-11.3447
▁despair	-11.3447
▁disagree	-11.3447
▁disrespect	-11.3447
▁duchess	-11.3447
▁duckworth	-11.3447
▁dulcey	-11.3447
▁encounter	-11.3447
▁endeavor	-11.3447
▁engywook	-11.3447
▁enslave	-11.3447
▁enterprise	-11.3447
▁enthusias	-11.3447
▁entourage	-11.3447
▁ephraim	-11.3447
▁essential	-11.3447
▁evacuation	-11.3447
▁evolution	-11.3447
▁exterminate	-11.3447
▁ferdie	-11.3447
▁forfeit	-11.3447
▁fossil	-11.3447
▁friction	-11.3447
▁fundraiser	-11.3447
▁galaxy	-11.3447
▁gelato	-11.3447
▁glamor	-11.3447
▁goober	-11.3447
▁grazing	-11.3447
▁grudge	-11.3447
▁guidance	-11.3447
▁hammock	-11.3447
▁hencoop	-11.3447
▁horizon	-11.3447
▁hurricane	-11.3447
▁ignorant	-11.3447
▁inferior	-11.3447
▁inflict	-11.3447
▁initiative	-11.3447
▁inquisitive	-11.3447
▁inviting	-11.3447
▁ippon	-11.3447
▁irresistible	-11.3447
▁jaguar	-11.3447
▁jeremiah	-11.3447
▁jewel	-11.3447
▁kaclick	-11.3447
▁kazuo	-11.3447
▁kilimanjaro	-11.3447
▁kilometer	-11.3447
▁knox	-11.3447
▁kokoyaki	-11.3447
▁labyrinth	-11.3447
▁longdistance	-11.3447
▁louvre	-11.3447
▁luxuri	-11.3447
▁luxury	-11.3447
▁macklin	-11.3447
▁manufactur	-11.3447
▁mascot	-11.3447
▁massacre	-11.3447
▁mathematics	-11.3447
▁matrimony	-11.3447
▁mcquade	-11.3447
▁mcquick	-11.3447
▁menacing	-11.3447
▁mischie	-11.3447
▁mystify	-11.3447
▁necessarily	-11.3447
▁nitwit	-11.3447
▁nowadays	-11.3447
▁oblivious	-11.3447
▁obscur	-11.3447
▁offspring	-11.3447
▁opponent	-11.3447
▁orchard	-11.3447
▁outgunned	-11.3447
▁overlapping	-11.3447
▁overreact	-11.3447
▁pancakes	-11.3447
▁panzius	-11.3447
▁peacock	-11.3447
▁pediatric	-11.3447
▁peppermint	-11.3447
▁philosoph	-11.3447
▁pittsburgh	-11.3447
▁polite	-11.3447
▁preposterous	-11.3447
▁prettier	-11.3447
▁procedure	-11.3447
▁pronounce	-11.3447
▁published	-11.3447
▁pyramid	-11.3447
▁rawlinson	-11.3447
▁reassur	-11.3447
▁recreation	-11.3447
▁refracti	-11.3447
▁refresh	-11.3447
▁rehearsing	-11.3447
▁representative	-11.3447
▁reservation	-11.3447
▁review	-11.3447
▁rollsroyce	-11.3447
▁saloon	-11.3447
▁sandwich	-11.3447
▁sasquatch	-11.3447
▁satisfaction	-11.3447
▁satisfy	-11.3447
▁savanna	-11.3447
▁scandal	-11.3447
▁scarlet	-11.3447
▁schroeder	-11.3447
▁scrumptious	-11.3447
▁seduction	-11.3447
▁separation	-11.3447
▁serignol	-11.3447
▁significan	-11.3447
▁snarls	-11.3447
▁snooze	-11.3447
▁sreekanth	-11.3447
▁stephanie	-11.3447
▁strangled	-11.3447
▁submarine	-11.3447
▁synthe	-11.3447
▁teppet	-11.3447
▁teresa	-11.3447
▁thursday	-11.3447
▁topsecret	-11.3447
▁treasury	-11.3447
▁trifle	-11.3447
▁tumtum	-11.3447
▁ultra	-11.3447
▁unacceptable	-11.3447
▁unconscious	-11.3447
▁unreasonable	-11.3447
▁upbringing	-11.3447
▁victori	-11.3447
▁vigilan	-11.3447
▁vinegar	-11.3447
▁vinnie	-11.3447
▁violence	-11.3447
▁vizag	-11.3447
▁voorhees	-11.3447
▁warrior	-11.3447
▁watermelon	-11.3447
▁wfpo	-11.3447
▁whatwhat	-11.3447
▁wizard	-11.3447
▁worldfamous	-11.3447
▁yeehaw	-11.3447
▁yippee	-11.3447
▁yorkshire	-11.3447
▁archaeologi	-11.3447
▁chronic	-11.3447
▁extend	-11.3447
▁hungarian	-11.3447
▁joseph	-11.3447
▁scorpi	-11.3447
distancing	-11.3447
precise	-11.3447
▁ahjussi	-11.3447
▁alpha	-11.3447
▁apology	-11.3447
▁brace	-11.3447
▁cactus	-11.3447
▁cetera	-11.3447
▁chump	-11.3447
▁deploy	-11.3447
▁distinct	-11.3447
▁dopey	-11.3447
▁eddie	-11.3447
▁falcon	-11.3447
▁grease	-11.3447
▁headhunter	-11.3447
▁hehheh	-11.3447
▁herbs	-11.3447
▁interfering	-11.3447
▁lobby	-11.3447
▁maximus	-11.3447
▁muffin	-11.3447
▁nashville	-11.3447
▁nelson	-11.3447
▁nourish	-11.3447
▁pathetic	-11.3447
▁pistol	-11.3447
▁pitiful	-11.3447
▁plug	-11.3447
▁purring	-11.3447
▁relentlessly	-11.3447
▁repay	-11.3447
▁rhody	-11.3447
▁ritual	-11.3447
▁skating	-11.3447
▁slack	-11.3447
▁snack	-11.3447
▁swayne	-11.3447
▁wkla	-11.3447
▁yield	-11.3447
▁yoohoo	-11.3447
wright	-11.3447
▁cherries	-11.3447
▁concho	-11.3447
▁daisy	-11.3447
▁defuse	-11.3447
▁duct	-11.3447
▁endowment	-11.3447
▁existence	-11.3447
▁exotic	-11.3447
▁hunch	-11.3447
▁ketchu	-11.3447
▁kirk	-11.3447
▁kyung	-11.3447
▁outcome	-11.3447
▁overcome	-11.3447
▁pajama	-11.3447
▁reactor	-11.3447
▁slade	-11.3447
▁slopp	-11.3447
▁splattering	-11.3447
▁thurman	-11.3447
▁worldwide	-11.3447
▁cocoa	-11.3447
▁elders	-11.3447
▁empir	-11.3447
▁hometown	-11.3447
▁kurt	-11.3447
▁micro	-11.3447
▁numeric	-11.3447
▁poof	-11.3447
▁slugg	-11.3447
▁splat	-11.3447
▁sworn	-11.3447
▁trophy	-11.3447
flexible	-11.3447
pepper	-11.3447
▁beiieve	-11.3447
▁haruno	-11.3447
▁peach	-11.3447
▁scam	-11.3447
▁trample	-11.3447
▁armani	-11.3447
▁cinders	-11.3447
▁cramp	-11.3447
▁doomed	-11.3447
▁dopes	-11.3447
▁finch	-11.3447
▁huffs	-11.3447
▁mound	-11.3447
▁spoon	-11.3447
▁competing	-11.3447
▁gesture	-11.3447
▁squawks	-11.3447
lodging	-11.3447
▁amusing	-11.3447
▁beggars	-11.3447
▁confined	-11.3447
▁clients	-11.3447
▁conjur	-11.3447
▁crank	-11.3447
▁jolly	-11.3447
▁misdemeanor	-11.3447
▁yadda	-11.3447
▁cease	-11.3447
▁goodwill	-11.3447
▁rolloll	-11.3447
▁weasel	-11.3447
▁incubat	-11.3447
▁stewards	-11.3447
▁alleg	-11.3447
▁herman	-11.3447
▁slamming	-11.3447
▁carnage	-11.3447
▁shreds	-11.3447
▁decod	-11.3447
▁homepage	-11.3447
▁intellectual	-11.3447
▁ahju	-11.3447
▁contributions	-11.3447
▁curve	-11.3447
▁devastating	-11.3447
▁stimulating	-11.3447
▁rackettail	-11.3447
▁spider	-11.3447
▁stump	-11.3448
▁burps	-11.3448
▁grizzl	-11.3448
▁mankind	-11.3448
▁facing	-11.3448
▁woofshi	-11.3448
▁diaper	-11.3448
rived	-11.3448
▁debt	-11.3448
▁drew	-11.3448
▁premature	-11.3448
cooperative	-11.3448
▁vocali	-11.3448
▁subsid	-11.3448
▁telegram	-11.3448
▁snickering	-11.3448
▁tyranitar	-11.3448
▁flourish	-11.3448
fahr	-11.3448
▁terrified	-11.3448
▁alternative	-11.3448
▁turbulence	-11.3448
diggity	-11.3448
▁mantis	-11.3448
▁underworld	-11.3448
ibal	-11.3448
▁japan	-11.3448
landslide	-11.3448
▁defying	-11.3448
▁paree	-11.3448
▁humiliated	-11.3448
ebod	-11.3448
▁donford	-11.3448
▁reptiles	-11.3448
▁grapes	-11.3448
▁sirree	-11.3448
▁rusty	-11.3448
▁bisc	-11.3448
enched	-11.3448
regr	-11.3448
▁briefcase	-11.3448
▁jaq	-11.3448
▁clutch	-11.3448
▁stevie	-11.3448
▁psychological	-11.3448
▁irritated	-11.3448
▁archi	-11.3448
▁nutritio	-11.3448
▁imaginary	-11.3448
▁distort	-11.3448
▁index	-11.3448
▁whwhat	-11.3448
▁fischer	-11.3449
▁dimwit	-11.3449
▁crosscountry	-11.3449
▁isle	-11.3449
▁gunshot	-11.3449
▁annette	-11.3449
▁gagging	-11.3449
chipper	-11.3449
▁waska	-11.3449
adjustment	-11.3449
▁corps	-11.3449
▁snowmobile	-11.3449
piace	-11.3449
▁delegat	-11.3449
▁demonstration	-11.3449
▁lalalala	-11.3449
▁prophe	-11.3449
▁fading	-11.3449
▁vermin	-11.3449
▁wilson	-11.3449
▁transportation	-11.3449
▁frail	-11.345
▁irritating	-11.345
▁commitment	-11.345
▁automatically	-11.345
▁surge	-11.345
▁chores	-11.345
▁sparr	-11.345
▁mountaineer	-11.345
▁drift	-11.345
▁fractio	-11.345
▁radar	-11.345
▁suds	-11.345
▁industrialist	-11.345
▁quot	-11.345
▁immers	-11.345
▁temporar	-11.345
armac	-11.345
▁nickel	-11.345
▁slept	-11.345
▁skinner	-11.345
▁extravagant	-11.345
▁flagpole	-11.345
▁underway	-11.345
▁devise	-11.3451
▁avenge	-11.3451
▁nelli	-11.3451
▁zack	-11.3451
cumul	-11.3451
▁triumphant	-11.3451
▁precede	-11.3451
▁elegan	-11.3451
▁alps	-11.3451
▁ooooh	-11.3451
rbing	-11.3451
polar	-11.3451
▁chopped	-11.3451
▁fleas	-11.3451
▁riddle	-11.3452
▁basis	-11.3452
▁wellington	-11.3452
▁scoid	-11.3452
▁gangster	-11.3452
▁laundry	-11.3452
inkling	-11.3452
▁aerop	-11.3452
▁translator	-11.3453
▁sandstone	-11.3453
▁feedback	-11.3453
▁glue	-11.3453
▁article	-11.3453
▁iodi	-11.3453
▁standstill	-11.3453
▁logical	-11.3453
▁satter	-11.3453
▁panel	-11.3453
▁overboard	-11.3453
▁foul	-11.3454
▁hostage	-11.3454
daft	-11.3454
▁fins	-11.3454
▁hawaiian	-11.3454
liant	-11.3454
▁supreme	-11.3454
▁bunk	-11.3454
randall	-11.3454
scous	-11.3454
▁usurper	-11.3454
▁unwise	-11.3454
▁garage	-11.3454
▁copies	-11.3454
▁captiv	-11.3454
▁effective	-11.3454
▁gallon	-11.3455
corn	-11.3455
▁wobbly	-11.3455
▁snuggly	-11.3455
▁rack	-11.3455
▁rigor	-11.3455
▁competent	-11.3455
▁compass	-11.3455
▁organic	-11.3455
▁swell	-11.3456
▁defenseless	-11.3456
▁translat	-11.3457
▁countryside	-11.3457
iks	-11.3457
▁reflection	-11.3457
▁labor	-11.3457
▁unlock	-11.3457
▁orphanage	-11.3457
▁stirred	-11.3457
▁dissol	-11.3457
▁wahwah	-11.3457
▁chemistry	-11.3457
▁cyclerepairer	-11.3457
▁flavor	-11.3457
▁mirror	-11.3457
▁craft	-11.3457
▁gassed	-11.3457
▁batteries	-11.3458
▁demi	-11.3458
▁pelt	-11.3458
▁graduate	-11.3458
▁admitted	-11.3458
▁vibe	-11.3458
▁exhibition	-11.3458
▁oxide	-11.3458
▁funnie	-11.3458
▁rake	-11.3458
▁flaw	-11.3458
▁chaos	-11.3458
pect	-11.3458
▁blah	-11.3459
▁magician	-11.3459
▁enchanted	-11.3459
▁expectations	-11.3459
▁checkmate	-11.3459
▁flake	-11.3459
endous	-11.3459
anto	-11.3459
▁robinson	-11.346
▁hasty	-11.346
▁sleeve	-11.346
▁sheet	-11.346
▁clar	-11.346
rmu	-11.346
▁chairman	-11.346
▁deaf	-11.346
▁ox	-11.346
▁rational	-11.346
▁establishment	-11.346
▁hospitality	-11.3461
ieves	-11.3461
pose	-11.3461
▁decade	-11.3461
▁bribe	-11.3461
▁selfre	-11.3461
▁combine	-11.3462
▁fog	-11.3462
vory	-11.3462
▁honorious	-11.3462
five	-11.3463
▁bugle	-11.3463
▁wholesome	-11.3463
▁tyres	-11.3463
▁shant	-11.3464
▁jab	-11.3465
eating	-11.3465
▁petition	-11.3465
▁indication	-11.3466
▁inde	-11.3466
▁vibra	-11.3466
▁mash	-11.3467
ngrily	-11.3467
▁biii	-11.3467
▁lisa	-11.3468
▁humor	-11.3468
▁widower	-11.3469
▁format	-11.3469
▁crib	-11.3469
▁define	-11.3469
▁indulge	-11.3469
▁smoking	-11.3469
ealth	-11.3469
▁abra	-11.347
▁painful	-11.3471
▁squash	-11.3471
▁swam	-11.3472
▁starring	-11.3472
▁luckily	-11.3473
▁posters	-11.3473
▁flown	-11.3474
▁flap	-11.3474
▁ranch	-11.3474
▁equipped	-11.3475
▁sensitive	-11.3475
▁stroke	-11.3475
▁sophisticat	-11.3475
ette	-11.3475
▁donor	-11.3475
▁vice	-11.3475
visible	-11.3476
▁whoosh	-11.3476
▁fitting	-11.3476
roll	-11.3476
▁torn	-11.3477
▁teamwork	-11.3478
▁ramp	-11.3478
still	-11.3478
▁broad	-11.3478
▁nurtured	-11.3479
▁dreaded	-11.3479
▁frustrated	-11.3479
▁assembled	-11.3479
▁veg	-11.3479
▁china	-11.348
▁overse	-11.3482
esday	-11.3482
▁chr	-11.3482
▁treachery	-11.3482
▁sexy	-11.3482
▁spooky	-11.3482
▁vent	-11.3482
▁praised	-11.3483
▁dug	-11.3483
▁coke	-11.3484
▁lecture	-11.3484
uary	-11.3485
▁yang	-11.3485
▁arth	-11.3486
▁witnesses	-11.3486
▁weed	-11.3488
▁santy	-11.3488
▁abuse	-11.3489
▁gull	-11.3489
blime	-11.349
▁treatment	-11.3492
▁peacefully	-11.3492
▁twinkl	-11.3493
▁penn	-11.3494
▁heavier	-11.3494
▁ssh	-11.3494
▁volu	-11.3495
▁youngster	-11.3495
▁recovery	-11.3495
▁fag	-11.3496
except	-11.3497
▁rattled	-11.3497
▁declared	-11.3497
▁inventory	-11.3498
▁sally	-11.3499
▁opposed	-11.3499
▁accomplished	-11.3499
▁shipment	-11.35
▁mattie	-11.35
▁reply	-11.35
psy	-11.3501
▁buckled	-11.3502
thesis	-11.3502
▁seventh	-11.3502
▁hardship	-11.3502
▁difficulties	-11.3502
▁emoti	-11.3503
▁permanently	-11.3503
izzles	-11.3506
▁beii	-11.3506
▁hattie	-11.3507
▁foil	-11.3507
▁retired	-11.3509
▁superb	-11.351
▁brady	-11.351
▁hideous	-11.351
▁dew	-11.351
▁updated	-11.3511
▁raw	-11.3515
▁imbecile	-11.3516
▁virtue	-11.3516
▁hup	-11.3516
lumber	-11.3517
▁pollinated	-11.3519
mmunit	-11.352
▁receiver	-11.352
▁mill	-11.3521
▁telescop	-11.3523
▁judgement	-11.3524
▁russ	-11.3526
▁restored	-11.3526
▁sant	-11.3526
▁geek	-11.3527
▁cling	-11.3528
▁minion	-11.3529
▁sincere	-11.353
▁gradual	-11.353
▁grable	-11.3531
▁moley	-11.3531
▁expression	-11.3531
▁discussion	-11.3531
▁chu	-11.3532
▁sicken	-11.3532
▁selected	-11.3533
▁wat	-11.3533
▁eeri	-11.3534
▁moss	-11.3538
▁bugged	-11.354
▁educated	-11.354
▁cursed	-11.354
inflate	-11.3541
▁waitress	-11.3542
▁turnip	-11.3542
▁bog	-11.3542
▁deli	-11.3543
▁fallout	-11.3546
upper	-11.3546
▁bray	-11.3548
▁loosen	-11.3549
▁bestow	-11.3549
▁nob	-11.3552
▁threatened	-11.3554
▁normally	-11.3554
▁bitter	-11.3557
▁businessman	-11.3557
▁jan	-11.3557
▁gown	-11.3558
ggage	-11.3558
▁cola	-11.3562
struck	-11.3563
▁tres	-11.3563
inary	-11.3567
acy	-11.3569
▁murderer	-11.3571
▁fantasian	-11.3572
▁marble	-11.3572
▁vertical	-11.3574
▁jacket	-11.3574
▁riot	-11.3577
▁att	-11.3577
havin	-11.3578
▁confused	-11.3578
▁descended	-11.3581
▁riches	-11.3582
unny	-11.3586
▁potion	-11.3587
ault	-11.3588
▁gay	-11.3591
▁possibi	-11.3593
this	-11.3594
▁pic	-11.3594
▁panick	-11.3597
▁consideration	-11.3598
▁mose	-11.3601
▁haig	-11.3602
ramble	-11.3605
▁participate	-11.3608
▁isi	-11.3613
▁gall	-11.3615
▁sunk	-11.3616
▁absen	-11.362
▁formation	-11.3625
▁maniacal	-11.3627
▁abso	-11.364
▁rebel	-11.3642
▁carlo	-11.3644
▁limo	-11.3645
▁acomin	-11.3655
state	-11.3666
▁mum	-11.3668
▁skateboarder	-11.3678
▁setti	-11.3683
▁correction	-11.3697
▁spon	-11.3714
idden	-11.3724
quent	-11.3725
▁kin	-11.3734
aul	-11.3734
imaginable	-11.3757
▁loop	-11.3763
▁occasional	-11.3765
ragged	-11.3778
kon	-11.3789
▁heal	-11.3801
owning	-11.3853
▁tog	-11.3901
ssary	-11.3985
tray	-11.401
▁cancell	-11.4012
▁cub	-11.403
▁institut	-11.4052
▁vol	-11.4058
eiffe	-11.4087
▁too	-11.4092
vie	-11.4121
▁optimist	-11.4123
▁doo	-11.4136
charted	-11.4141
zen	-11.4174
▁transmitt	-11.421
yeyed	-11.421
▁ruffi	-11.4236
▁tro	-11.425
▁rom	-11.4256
verse	-11.4285
ckle	-11.4303
asta	-11.4329
luc	-11.4366
▁pha	-11.437
▁displace	-11.4417
▁shun	-11.4474
▁hel	-11.4507
pic	-11.4556
raids	-11.4562
▁flan	-11.4608
▁strawberr	-11.4642
▁admir	-11.4648
▁medi	-11.4688
▁buzze	-11.4729
ecu	-11.5036
plant	-11.5133
yahoo	-11.5147
mish	-11.5217
▁valentine	-11.5218
▁menu	-11.5276
▁bub	-11.5277
▁nno	-11.5299
udder	-11.532
izz	-11.5426
greed	-11.5506
▁shipp	-11.5572
▁carcas	-11.5583
▁cav	-11.5684
weez	-11.571
ipped	-11.5711
qualified	-11.5774
zzi	-11.5785
▁woohoo	-11.5883
▁hustl	-11.5905
attractive	-11.5933
zzle	-11.6021
hallu	-11.6087
▁chil	-11.6222
stein	-11.6332
tyfour	-11.6378
▁dispos	-11.642
▁imagin	-11.6444
hunt	-11.6956
ncil	-11.6969
▁compa	-11.7108
▁opera	-11.7144
etti	-11.721
▁transmit	-11.7246
▁tease	-11.7405
gust	-11.7421
folded	-11.761
educed	-11.7681
▁univers	-11.7683
▁celebrat	-11.7702
eared	-11.7707
iou	-11.7726
eeting	-11.7727
▁chit	-11.779
olished	-11.7821
cade	-11.7855
avy	-11.7877
ago	-11.7891
▁fran	-11.791
lories	-11.7955
▁myth	-11.7995
ooper	-11.8037
ological	-11.8065
suspecting	-11.8068
▁sniff	-11.8082
rilo	-11.8092
vision	-11.8093
▁swa	-11.8098
yuk	-11.8102
▁snort	-11.8109
▁grunt	-11.8111
addle	-11.8142
▁stru	-11.8143
▁custom	-11.8144
▁lankom	-11.8148
▁resource	-11.8148
▁niece	-11.8148
▁affair	-11.8157
▁chip	-11.8159
▁bloom	-11.8162
▁vegetable	-11.8163
▁tube	-11.8165
▁bloke	-11.8168
▁insect	-11.8168
▁monarch	-11.8168
▁chipmunk	-11.817
▁tribe	-11.817
midt	-11.8171
▁giggle	-11.8173
▁baboon	-11.8176
▁discus	-11.8182
claps	-11.8194
▁commit	-11.8196
rnament	-11.8211
▁hyp	-11.8223
▁equa	-11.8258
▁prepar	-11.8279
lini	-11.8288
crossed	-11.8309
▁frolic	-11.8312
▁mimic	-11.8317
▁explod	-11.8318
jection	-11.8354
▁probabi	-11.8355
▁receiv	-11.8357
efic	-11.8357
▁poi	-11.8359
▁escap	-11.836
▁complet	-11.8362
▁serv	-11.8362
keeper	-11.8363
▁assembl	-11.8363
orms	-11.8364
▁annoy	-11.8371
▁shudder	-11.8371
▁convinc	-11.8375
▁bleed	-11.8376
armed	-11.8377
▁vau	-11.8382
dron	-11.8383
aken	-11.8384
orgi	-11.8386
special	-11.8388
▁greatgrand	-11.8389
▁dread	-11.8394
▁frustrat	-11.8396
▁nurtur	-11.8398
▁discourag	-11.8399
▁mode	-11.84
sophisticat	-11.8403
sensitive	-11.8403
equipped	-11.8403
stroke	-11.8403
word	-11.8403
known	-11.8404
possibility	-11.8405
solved	-11.8405
mark	-11.8405
charge	-11.8405
guard	-11.8405
hmm	-11.8406
polis	-11.8406
gically	-11.8407
bald	-11.8407
budget	-11.8407
country	-11.8407
schedule	-11.8408
crows	-11.8408
lair	-11.8408
league	-11.8408
broad	-11.8408
float	-11.8408
skull	-11.8409
stealing	-11.8409
fantastic	-11.8409
public	-11.8409
build	-11.8409
finished	-11.8409
coach	-11.8409
certain	-11.8409
break	-11.8409
plus	-11.8409
hundred	-11.8409
different	-11.841
girl	-11.841
second	-11.841
prince	-11.841
laughs	-11.841
morning	-11.841
around	-11.841
next	-11.841
music	-11.841
three	-11.841
paper	-11.841
drop	-11.841
school	-11.841
yeah	-11.841
speed	-11.841
▁wond	-11.8411
leave	-11.8412
dust	-11.8412
reign	-11.8413
pelled	-11.8413
▁evolve	-11.8414
grain	-11.8414
▁theodor	-11.8414
pants	-11.8416
▁oblige	-11.8416
today	-11.8416
▁strateg	-11.8417
udged	-11.8417
▁thirst	-11.8417
▁opportunit	-11.8418
▁gidd	-11.8418
forward	-11.8418
magic	-11.8419
elves	-11.8419
wife	-11.8419
▁atmospher	-11.842
▁offens	-11.842
change	-11.842
▁indicat	-11.8422
▁breez	-11.8422
beam	-11.8423
▁sinc	-11.8423
▁craz	-11.8424
▁inject	-11.8425
itude	-11.843
▁celeb	-11.8431
▁reflect	-11.8432
▁styl	-11.8434
▁incompeten	-11.8435
sisters	-11.8436
▁brough	-11.8436
▁compensat	-11.8436
▁unknow	-11.8437
▁certa	-11.8437
▁affect	-11.8438
▁inspiration	-11.8439
▁profession	-11.8439
alists	-11.844
mobile	-11.844
▁aero	-11.8441
▁extensi	-11.8441
▁coordinat	-11.8441
adios	-11.8441
▁mirac	-11.8442
▁cott	-11.8442
▁imaginati	-11.8442
▁leavin	-11.8442
eactivat	-11.8442
▁darlin	-11.8442
▁dancin	-11.8442
ccord	-11.8443
lusions	-11.8443
▁avail	-11.8443
struction	-11.8443
▁reinforce	-11.8443
ologists	-11.8444
▁wouid	-11.8444
▁fratern	-11.8445
▁calami	-11.8445
aska	-11.8445
icles	-11.8445
communica	-11.8445
ischer	-11.8445
ecision	-11.8445
▁assess	-11.8446
▁recogni	-11.8446
▁budge	-11.8446
hanks	-11.8446
▁necess	-11.8446
▁techn	-11.8446
▁expel	-11.8446
▁irre	-11.8447
▁snicke	-11.8447
reptile	-11.8447
venge	-11.8447
▁neighbour	-11.8447
▁reai	-11.8447
piration	-11.8447
▁remark	-11.8447
▁monk	-11.8447
nuku	-11.8447
journe	-11.8447
constructi	-11.8447
pologi	-11.8447
abolis	-11.8447
▁enforce	-11.8447
▁enlighten	-11.8447
▁imprison	-11.8447
itudin	-11.8447
trude	-11.8447
▁accommodat	-11.8447
▁bluff	-11.8447
▁brainwash	-11.8447
▁canvass	-11.8447
▁deraccoonif	-11.8447
▁electrif	-11.8447
▁embark	-11.8447
▁encompass	-11.8447
▁exploit	-11.8447
▁fertiliz	-11.8447
▁floppy	-11.8447
▁foiiow	-11.8447
▁fond	-11.8447
▁plunder	-11.8447
▁retain	-11.8447
▁revolution	-11.8447
▁skedaddl	-11.8447
▁smooch	-11.8447
▁smuggl	-11.8447
▁streak	-11.8447
▁strenuous	-11.8447
▁sympath	-11.8447
▁unvarmintiz	-11.8447
▁weightlift	-11.8447
▁withstand	-11.8447
appityp	-11.8447
articulat	-11.8447
cognit	-11.8447
convenience	-11.8447
flutter	-11.8447
oeuvre	-11.8447
ollywog	-11.8447
sufficient	-11.8447
terranean	-11.8447
udence	-11.8447
uffles	-11.8447
whatshername	-11.8447
▁aberration	-11.8447
▁abruptly	-11.8447
▁accelerat	-11.8447
▁accomplice	-11.8447
▁activity	-11.8447
▁advise	-11.8447
▁agatha	-11.8447
▁aggressive	-11.8447
▁airborne	-11.8447
▁aiready	-11.8447
▁albright	-11.8447
▁alexander	-11.8447
▁amputated	-11.8447
▁analysis	-11.8447
▁apologizing	-11.8447
▁applicant	-11.8447
▁apprehend	-11.8447
▁aspirin	-11.8447
▁assurance	-11.8447
▁astrochimp	-11.8447
▁ayuadame	-11.8447
▁ayyiyiyi	-11.8447
▁babbling	-11.8447
▁babcock	-11.8447
▁babysitter	-11.8447
▁bachelor	-11.8447
▁bannerman	-11.8447
▁barcelona	-11.8447
▁beanery	-11.8447
▁benefactor	-11.8447
▁boopboopboop	-11.8447
▁brawn	-11.8447
▁bridetobe	-11.8447
▁brigade	-11.8447
▁bygones	-11.8447
▁caboose	-11.8447
▁camden	-11.8447
▁cantaloupe	-11.8447
▁cauliflower	-11.8447
▁cavities	-11.8447
▁celebrities	-11.8447
▁certificate	-11.8447
▁charlatan	-11.8447
▁chigunk	-11.8447
▁claridges	-11.8447
▁classified	-11.8447
▁cocktaii	-11.8447
▁collision	-11.8447
▁commendabl	-11.8447
▁commerce	-11.8447
▁conceited	-11.8447
▁contempt	-11.8447
▁continent	-11.8447
▁courtmagician	-11.8447
▁coyote	-11.8447
▁cripple	-11.8447
▁culprit	-11.8447
▁curtis	-11.8447
▁dapplenag	-11.8447
▁december	-11.8447
▁decorating	-11.8447
▁demographic	-11.8447
▁determination	-11.8447
▁diagnos	-11.8447
▁dialect	-11.8447
▁diploma	-11.8447
▁discontent	-11.8447
▁discount	-11.8447
▁disorganized	-11.8447
▁displease	-11.8447
▁distributor	-11.8447
▁dootdootdoot	-11.8447
▁dorothy	-11.8447
▁downstairs	-11.8447
▁eeeya	-11.8447
▁egypt	-11.8447
▁elbow	-11.8447
▁elimination	-11.8447
▁embroidery	-11.8447
▁environment	-11.8447
▁esquire	-11.8447
▁exclusive	-11.8447
▁expenditure	-11.8447
▁eyelash	-11.8447
▁fahrenheit	-11.8447
▁faucet	-11.8447
▁felipe	-11.8447
▁fertile	-11.8447
▁fingerprints	-11.8447
▁fleetwood	-11.8447
▁foreclosure	-11.8447
▁foretold	-11.8447
▁froufrou	-11.8447
▁fujisaki	-11.8447
▁fundraising	-11.8447
▁gazebo	-11.8447
▁geishas	-11.8447
▁generosity	-11.8447
▁geography	-11.8447
▁gladiator	-11.8447
▁gogetter	-11.8447
▁goodfornothing	-11.8447
▁grandchildren	-11.8447
▁haiieiujah	-11.8447
▁hasslein	-11.8447
▁haystack	-11.8447
▁hermit	-11.8447
▁hollywood	-11.8447
▁horror	-11.8447
▁hurried	-11.8447
▁hyacinth	-11.8447
▁ignited	-11.8447
▁ignorance	-11.8447
▁iguana	-11.8447
▁immortali	-11.8447
▁incapacit	-11.8447
▁incarceration	-11.8447
▁increasing	-11.8447
▁infectious	-11.8447
▁infiuence	-11.8447
▁influx	-11.8447
▁innovation	-11.8447
▁inspire	-11.8447
▁interrogate	-11.8447
▁intrusion	-11.8447
▁invincible	-11.8447
▁iohoh	-11.8447
▁ioiiipop	-11.8447
▁irresponsibl	-11.8447
▁judgment	-11.8447
▁kaput	-11.8447
▁kenneth	-11.8447
▁khurissanvalley	-11.8447
▁kirwood	-11.8447
▁kleptomaniac	-11.8447
▁knack	-11.8447
▁knuckle	-11.8447
▁kuagigake	-11.8447
▁libert	-11.8447
▁librarian	-11.8447
▁loneliness	-11.8447
▁lopsided	-11.8447
▁lumberjack	-11.8447
▁lunatic	-11.8447
▁manderley	-11.8447
▁manhattan	-11.8447
▁marciano	-11.8447
▁marsupial	-11.8447
▁mcnamara	-11.8447
▁mechanism	-11.8447
▁meddle	-11.8447
▁meddling	-11.8447
▁mercedes	-11.8447
▁merciful	-11.8447
▁messenger	-11.8447
▁mexican	-11.8447
▁mistletoe	-11.8447
▁misunderstood	-11.8447
▁monsieur	-11.8447
▁motivated	-11.8447
▁motivation	-11.8447
▁munching	-11.8447
▁narwhal	-11.8447
▁nimbostratus	-11.8447
▁ninja	-11.8447
▁obligat	-11.8447
▁obstinacy	-11.8447
▁ordeal	-11.8447
▁osprey	-11.8447
▁outreach	-11.8447
▁outsmart	-11.8447
▁paradox	-11.8447
▁paxton	-11.8447
▁pembroke	-11.8447
▁perfetto	-11.8447
▁pilgrim	-11.8447
▁poppycock	-11.8447
▁poult	-11.8447
▁precarious	-11.8447
▁prestige	-11.8447
▁privacy	-11.8447
▁prosecution	-11.8447
▁prosecutor	-11.8447
▁provoke	-11.8447
▁psychiatrist	-11.8447
▁pugilis	-11.8447
▁purchase	-11.8447
▁pursue	-11.8447
▁pyrid	-11.8447
▁qualifications	-11.8447
▁quarrel	-11.8447
▁radiator	-11.8447
▁rearranging	-11.8447
▁refrigerat	-11.8447
▁reginald	-11.8447
▁rehearsals	-11.8447
▁resolution	-11.8447
▁roughnecks	-11.8447
▁sacrificial	-11.8447
▁salaam	-11.8447
▁salvation	-11.8447
▁sandbagging	-11.8447
▁sarcastic	-11.8447
▁satellite	-11.8447
▁seagulls	-11.8447
▁selfrespect	-11.8447
▁serpent	-11.8447
▁shackl	-11.8447
▁shickedanz	-11.8447
▁sidekicks	-11.8447
▁sisterinlaw	-11.8447
▁skrimshank	-11.8447
▁sleazy	-11.8447
▁soninlaw	-11.8447
▁sorceress	-11.8447
▁sorcery	-11.8447
▁speculation	-11.8447
▁sputtering	-11.8447
▁sputters	-11.8447
▁squirrel	-11.8447
▁stammers	-11.8447
▁starrett	-11.8447
▁stupendous	-11.8447
▁subsonic	-11.8447
▁supermarket	-11.8447
▁supervillain	-11.8447
▁surviving	-11.8447
▁survivor	-11.8447
▁suspicion	-11.8447
▁sussex	-11.8447
▁swatura	-11.8447
▁swift	-11.8447
▁sybil	-11.8447
▁syrup	-11.8447
▁tabloids	-11.8447
▁technician	-11.8447
▁temperament	-11.8447
▁temple	-11.8447
▁testified	-11.8447
▁theyretheyre	-11.8447
▁thunderbolts	-11.8447
▁turlip	-11.8447
▁unconventional	-11.8447
▁underestimated	-11.8447
▁undoubtedly	-11.8447
▁unnatural	-11.8447
▁unwilling	-11.8447
▁vaccine	-11.8447
▁violent	-11.8447
▁vittorio	-11.8447
▁volcano	-11.8447
▁vulture	-11.8447
▁wallbanger	-11.8447
▁whippoorwill	-11.8447
▁whwhwh	-11.8447
▁woofwoof	-11.8447
▁yourseif	-11.8447
ollolloll	-11.8447
▁cherish	-11.8447
▁hormone	-11.8447
▁janitor	-11.8447
▁merler	-11.8447
▁nitro	-11.8447
▁submit	-11.8447
▁vendor	-11.8447
▁ahhhhh	-11.8447
▁architect	-11.8447
▁automated	-11.8447
▁bruno	-11.8447
▁circulat	-11.8447
▁complement	-11.8447
▁crooked	-11.8447
▁ddont	-11.8447
