<unk>	0
<s>	0
</s>	0
s	-4.22004
▁dont	-4.77086
▁know	-4.79411
▁im	-4.80557
▁well	-4.84489
▁oh	-4.88996
▁go	-4.94021
▁like	-4.99872
▁get	-5.00124
▁one	-5.03687
▁come	-5.05138
▁right	-5.09809
▁l	-5.19286
▁youre	-5.20866
▁see	-5.24661
▁got	-5.29158
ing	-5.29841
▁good	-5.34145
▁thats	-5.40841
▁yes	-5.44648
▁	-5.46385
▁think	-5.51519
▁us	-5.53515
▁back	-5.53516
▁take	-5.60729
▁time	-5.62285
▁yeah	-5.64922
▁going	-5.68922
▁would	-5.69408
▁look	-5.70401
ed	-5.70631
▁okay	-5.70706
▁want	-5.72385
▁na	-5.72536
▁ill	-5.73995
▁man	-5.76128
▁cant	-5.76399
▁hes	-5.80597
▁little	-5.8167
▁way	-5.83278
▁hey	-5.89196
▁never	-5.91311
▁could	-5.92212
▁say	-5.97427
▁make	-5.97855
▁gon	-5.99259
▁tell	-6.00332
▁let	-6.01553
▁really	-6.04216
▁must	-6.08423
▁find	-6.1133
▁sure	-6.11651
▁help	-6.11884
▁need	-6.13275
▁theres	-6.13833
▁two	-6.14704
d	-6.15264
▁lets	-6.17178
▁give	-6.18279
▁music	-6.18608
▁love	-6.19082
▁thank	-6.22291
▁day	-6.22352
▁mr	-6.23912
▁great	-6.2401
▁something	-6.2417
▁home	-6.25598
▁whats	-6.26493
▁please	-6.27009
▁sir	-6.28088
▁ive	-6.30401
▁people	-6.32954
▁much	-6.33204
▁mean	-6.3368
y	-6.35222
▁new	-6.38045
▁away	-6.39845
▁didnt	-6.40688
▁even	-6.4302
▁first	-6.44042
▁thing	-6.44737
▁sorry	-6.46239
▁wait	-6.47682
▁life	-6.48581
▁big	-6.49492
▁night	-6.4975
▁said	-6.51268
ly	-6.51557
▁long	-6.51651
▁youll	-6.53819
▁keep	-6.53993
▁theyre	-6.5589
▁anything	-6.56579
▁work	-6.56972
▁stop	-6.57374
▁world	-6.58451
e	-6.58774
▁better	-6.59072
▁uh	-6.60504
▁put	-6.60517
▁nothing	-6.61262
▁ever	-6.62647
▁old	-6.64355
▁things	-6.64795
▁maybe	-6.65011
▁every	-6.65134
▁wont	-6.65412
▁around	-6.66163
▁miss	-6.66552
▁boy	-6.67062
▁show	-6.69167
▁last	-6.70216
▁shes	-6.70644
▁always	-6.7173
▁still	-6.71741
▁thought	-6.7203
▁place	-6.72524
▁father	-6.73145
▁leave	-6.73462
▁hear	-6.74062
▁three	-6.7466
▁everything	-6.74661
▁coming	-6.7643
▁nice	-6.76558
▁made	-6.77206
▁mother	-6.77867
▁course	-6.78149
▁another	-6.82516
▁may	-6.83026
▁girl	-6.83268
▁stay	-6.83664
▁told	-6.83905
▁care	-6.84587
▁kind	-6.85193
▁water	-6.85668
▁believe	-6.86767
▁years	-6.87303
▁dad	-6.88358
▁heart	-6.88408
▁god	-6.88753
▁enough	-6.89105
▁hold	-6.892
▁youve	-6.89614
▁men	-6.90425
▁family	-6.9057
▁real	-6.90844
▁name	-6.91287
▁fine	-6.94017
▁isnt	-6.95142
▁call	-6.9525
▁done	-6.9574
▁lm	-6.96156
▁mom	-6.97149
▁bring	-6.97455
▁la	-6.97574
▁young	-6.98727
▁king	-6.9889
▁try	-6.99009
▁came	-6.99444
▁thanks	-6.99574
er	-7.00884
▁best	-7.01031
▁id	-7.01978
▁ta	-7.02731
▁girls	-7.02859
▁seen	-7.04066
▁hand	-7.04555
▁bear	-7.04818
▁friend	-7.07202
▁bad	-7.07885
▁feel	-7.08013
▁might	-7.08188
▁woman	-7.08366
▁remember	-7.08568
▁found	-7.09421
▁guys	-7.09576
▁hello	-7.09992
▁left	-7.1028
▁lot	-7.10499
▁room	-7.10992
▁without	-7.11371
t	-7.11565
▁son	-7.12376
▁shall	-7.13183
▁yogi	-7.13197
▁hi	-7.13207
▁weve	-7.13225
▁saw	-7.13227
▁watch	-7.1329
▁everyone	-7.13893
▁next	-7.14455
▁ha	-7.14754
▁ready	-7.15207
▁listen	-7.15322
▁talk	-7.15832
▁ask	-7.15875
▁beautiful	-7.16351
▁many	-7.16472
▁mind	-7.17203
▁run	-7.17233
▁doesnt	-7.18278
▁gone	-7.19725
a	-7.20157
▁start	-7.21149
▁house	-7.22021
▁lost	-7.22332
▁head	-7.22334
es	-7.2359
▁else	-7.24018
▁princess	-7.24258
▁wrong	-7.24319
▁dear	-7.25699
▁understand	-7.25759
▁getting	-7.26555
▁wan	-7.26994
▁whole	-7.27151
▁huh	-7.27904
▁playing	-7.28118
▁food	-7.28299
▁live	-7.28326
▁alone	-7.28578
▁went	-7.28601
▁horse	-7.28933
▁wanted	-7.29719
▁pretty	-7.30016
▁days	-7.30291
▁money	-7.30751
▁brother	-7.3113
▁hope	-7.31234
▁true	-7.31553
▁morning	-7.32255
▁trying	-7.32772
▁whoa	-7.33677
▁speaking	-7.33967
n	-7.34161
ve	-7.34265
▁heard	-7.34989
▁friends	-7.35202
▁today	-7.35281
▁hurry	-7.35282
▁knew	-7.36055
▁aint	-7.361
▁far	-7.38015
▁dog	-7.38518
▁ah	-7.38551
▁guess	-7.38968
▁lll	-7.39012
▁job	-7.39036
▁together	-7.39233
▁whos	-7.39654
▁happy	-7.40026
▁eat	-7.40362
▁hard	-7.40779
▁lady	-7.40927
▁hell	-7.41137
▁excuse	-7.41373
▁open	-7.41523
▁move	-7.42009
▁happened	-7.42606
▁boat	-7.43068
▁wish	-7.44215
▁wouldnt	-7.44326
▁lts	-7.44343
▁looking	-7.44723
▁yet	-7.45199
▁land	-7.45329
▁worry	-7.45448
▁luna	-7.45863
▁easy	-7.45906
▁part	-7.46249
▁dead	-7.46592
▁sea	-7.46593
▁soon	-7.46655
▁mrs	-7.46865
▁crowd	-7.47414
▁year	-7.47494
▁already	-7.4759
▁eyes	-7.48072
▁talking	-7.48148
▁someone	-7.49142
▁use	-7.49531
▁idea	-7.4993
▁sam	-7.50139
▁gold	-7.50398
▁kid	-7.50977
▁prince	-7.51133
▁anyone	-7.51163
▁city	-7.51477
▁mine	-7.51981
▁high	-7.52125
i	-7.5257
▁face	-7.52859
▁wasnt	-7.52974
▁harry	-7.52997
▁ago	-7.53024
▁fly	-7.53648
▁sweet	-7.5374
▁tomorrow	-7.53916
▁rest	-7.54282
▁cool	-7.54728
▁lord	-7.54735
▁cave	-7.5486
▁meet	-7.55424
▁akita	-7.55775
▁actually	-7.55782
al	-7.56031
▁stand	-7.56263
▁town	-7.56375
▁tonight	-7.56648
▁four	-7.56685
▁since	-7.56699
▁neecro	-7.56727
▁welcome	-7.57415
o	-7.57483
▁matter	-7.57584
▁everybody	-7.57713
▁five	-7.57856
▁s	-7.58522
▁max	-7.58577
▁black	-7.58705
▁kids	-7.58854
▁ya	-7.58916
▁bit	-7.59205
r	-7.59405
▁christmas	-7.59641
▁took	-7.60641
▁looks	-7.6069
▁dream	-7.61026
▁kill	-7.61087
▁change	-7.61283
▁trouble	-7.61443
▁play	-7.62161
▁also	-7.62639
▁angel	-7.63465
▁fire	-7.6352
▁along	-7.63662
▁door	-7.6367
▁fun	-7.63989
▁bird	-7.64477
▁forget	-7.64697
▁taking	-7.64807
▁youd	-7.64809
▁full	-7.6554
▁car	-7.65587
▁perfect	-7.65649
▁turn	-7.66094
▁end	-7.66425
▁un	-7.66499
▁business	-7.66786
▁special	-7.6783
▁moment	-7.67844
▁sleep	-7.67857
▁late	-7.67859
▁guy	-7.67973
▁close	-7.6829
▁though	-7.68675
▁called	-7.69495
▁boo	-7.69518
▁sal	-7.69685
▁couldnt	-7.70186
▁follow	-7.70371
▁catch	-7.70791
▁star	-7.70867
▁earth	-7.7111
▁afraid	-7.71131
▁forever	-7.71133
▁minute	-7.72223
▁half	-7.72268
▁laughing	-7.7237
▁ok	-7.7315
▁chance	-7.73386
▁quite	-7.73403
▁dance	-7.73422
▁die	-7.73787
▁comes	-7.73938
▁drink	-7.74003
▁light	-7.74332
▁um	-7.74364
▁direction	-7.74516
▁wheres	-7.74675
▁strong	-7.75458
▁pay	-7.75501
▁gave	-7.75654
▁set	-7.75787
▁hands	-7.76697
▁inaudible	-7.76794
▁havent	-7.76797
▁elvis	-7.76811
▁gasps	-7.769
▁free	-7.76911
▁hit	-7.77569
est	-7.77611
▁wonderful	-7.77894
▁check	-7.78466
▁sun	-7.7872
▁singing	-7.79347
▁used	-7.79392
▁break	-7.79983
▁nobody	-7.80367
▁arent	-7.80402
▁word	-7.80594
▁stuff	-7.80768
▁wow	-7.81655
▁language	-7.81716
▁sound	-7.82335
▁ho	-7.82468
▁ride	-7.82692
▁maam	-7.82827
▁almost	-7.82842
▁waiting	-7.83133
▁hmm	-7.83284
▁count	-7.83851
▁tara	-7.84094
▁ahead	-7.84099
▁later	-7.84344
▁started	-7.8453
▁says	-7.84774
▁royal	-7.85321
▁child	-7.85365
▁least	-7.85379
in	-7.86033
▁goes	-7.86529
▁different	-7.86553
▁brought	-7.86616
▁bed	-7.86704
▁ball	-7.8678
▁promise	-7.87705
▁whispers	-7.88108
▁safe	-7.88288
▁seems	-7.88944
▁knows	-7.88955
▁air	-7.90112
▁em	-7.90165
▁speak	-7.9034
▁dark	-7.90561
▁save	-7.90573
▁sanna	-7.90575
▁lt	-7.90892
▁return	-7.91479
▁cause	-7.91647
▁camp	-7.91695
▁saying	-7.91853
▁perhaps	-7.91914
▁behind	-7.9194
▁death	-7.91944
▁reason	-7.92143
▁walk	-7.92621
ll	-7.92628
l	-7.92873
▁across	-7.93285
▁pa	-7.93344
▁school	-7.93455
▁p	-7.94418
▁bears	-7.94562
▁probably	-7.94673
▁goodbye	-7.94708
▁making	-7.94747
▁fish	-7.94757
▁dinner	-7.94956
▁secret	-7.94965
▁captain	-7.94966
▁step	-7.95243
▁makes	-7.95396
▁chef	-7.96082
▁children	-7.96112
▁feet	-7.96167
▁sometimes	-7.96231
▁times	-7.96627
▁means	-7.9735
▁krasta	-7.97509
▁inside	-7.97513
▁groove	-7.97524
▁sort	-7.97563
▁heaven	-7.97754
▁animals	-7.98237
ies	-7.98473
▁m	-7.98573
▁order	-7.98584
▁jack	-7.98606
▁boys	-7.98686
▁highness	-7.98971
▁second	-7.99302
▁sister	-7.99311
▁point	-7.99382
▁book	-7.99416
▁sit	-7.99528
▁lovely	-7.99579
▁somebody	-8.00429
▁tommy	-8.00433
▁mama	-8.00571
▁rock	-8.00622
▁send	-8.00846
▁ye	-8.0087
▁pick	-8.01026
▁d	-8.01781
▁honey	-8.01925
▁number	-8.02005
▁ladies	-8.02005
▁river	-8.02498
▁mountain	-8.02689
▁women	-8.03439
▁exactly	-8.03446
▁poor	-8.03453
▁bye	-8.03476
▁theyll	-8.03479
▁trust	-8.03813
▁wake	-8.03817
▁problem	-8.03844
▁daughter	-8.0385
▁baby	-8.0394
▁a	-8.04317
▁small	-8.04883
▁seem	-8.04913
▁fear	-8.05054
▁thinking	-8.05154
▁cold	-8.0517
▁tom	-8.0554
▁learn	-8.06271
▁chuckles	-8.06555
▁blood	-8.06578
▁dolly	-8.06588
▁cheering	-8.0661
▁case	-8.06927
▁lf	-8.06973
▁evening	-8.07049
▁laughs	-8.07149
▁tree	-8.07175
▁side	-8.07339
▁plan	-8.07487
▁needs	-8.0766
▁read	-8.07721
▁train	-8.07881
▁important	-8.08032
▁story	-8.08172
▁till	-8.08438
▁mark	-8.08564
▁summer	-8.08579
▁uncle	-8.08583
ful	-8.09122
▁pup	-8.0971
▁crazy	-8.09738
▁grunting	-8.09746
▁dreams	-8.09928
▁oksana	-8.10041
▁white	-8.10262
ers	-8.104
▁quiet	-8.11269
▁minutes	-8.11372
▁akhoba	-8.11375
▁week	-8.11873
▁phone	-8.11963
st	-8.12065
▁hate	-8.12384
▁quick	-8.12833
▁happen	-8.1285
▁sounds	-8.12887
▁feeling	-8.13036
▁julio	-8.13052
▁amazing	-8.13052
▁alive	-8.13172
▁ray	-8.13461
▁heres	-8.13513
▁island	-8.13584
▁group	-8.13613
▁c	-8.13623
▁american	-8.13629
▁whale	-8.13646
▁voice	-8.1366
▁mary	-8.13743
▁line	-8.13784
▁horses	-8.13919
▁song	-8.1394
▁lead	-8.13963
▁glad	-8.14177
▁yo	-8.14204
▁red	-8.14223
▁re	-8.14468
▁whatever	-8.14738
▁forest	-8.1476
▁grunts	-8.14763
▁moses	-8.14775
▁wife	-8.14811
▁lve	-8.14847
▁top	-8.14872
▁t	-8.15075
▁john	-8.15728
▁jason	-8.16465
▁funny	-8.16477
▁six	-8.16511
▁power	-8.16636
▁supposed	-8.16675
▁met	-8.16715
▁working	-8.16718
▁b	-8.16814
or	-8.17042
▁wed	-8.1741
▁throw	-8.17521
▁i	-8.18164
▁york	-8.18192
▁others	-8.18256
▁cut	-8.18433
▁master	-8.18861
▁cook	-8.18982
▁fast	-8.1965
▁kingdom	-8.20003
▁charlie	-8.20003
▁majesty	-8.20007
▁running	-8.20042
▁anymore	-8.20071
▁team	-8.20116
▁truth	-8.20619
▁become	-8.20733
▁ice	-8.20806
▁stone	-8.2082
▁touch	-8.21201
▁kings	-8.2132
▁bell	-8.21529
▁cry	-8.21592
▁strange	-8.21735
▁gentlemen	-8.21821
▁argh	-8.2185
▁buddy	-8.21857
▁vandergelder	-8.22493
▁de	-8.22507
▁cat	-8.22625
▁hours	-8.22684
▁hot	-8.22761
▁party	-8.22892
▁deal	-8.23318
▁sign	-8.23607
▁front	-8.23659
▁santa	-8.23676
▁tried	-8.23716
▁clear	-8.24139
▁anyway	-8.24348
▁hurt	-8.24441
▁lives	-8.24689
▁watching	-8.2484
▁gun	-8.24878
▁able	-8.25474
▁morgan	-8.25557
▁flipper	-8.2557
▁dancing	-8.2557
▁tiny	-8.25579
▁fact	-8.2558
▁possible	-8.25586
▁finally	-8.25605
▁hang	-8.25662
▁lose	-8.25771
able	-8.25822
▁given	-8.2672
▁news	-8.26916
▁wants	-8.26998
▁ten	-8.2704
▁rat	-8.27071
▁guard	-8.27137
▁st	-8.27328
▁person	-8.27376
▁careful	-8.27474
▁foreign	-8.2748
▁sheep	-8.27483
▁clothes	-8.27503
▁leaving	-8.27525
▁born	-8.27632
▁past	-8.27784
▁months	-8.27824
▁answer	-8.27998
▁dogs	-8.28151
▁fall	-8.28177
▁grow	-8.28306
▁asked	-8.28319
▁paul	-8.28349
▁band	-8.28423
▁table	-8.28522
▁marry	-8.29015
▁less	-8.29128
▁anybody	-8.2944
▁married	-8.29488
▁se	-8.29652
▁mad	-8.30109
▁be	-8.30219
▁smell	-8.30326
▁near	-8.31278
▁they	-8.31367
▁hide	-8.31413
▁outside	-8.31441
▁hungry	-8.31443
▁frankie	-8.31452
▁either	-8.31457
▁screaming	-8.31505
▁reach	-8.31693
▁lucky	-8.31726
▁shoot	-8.31837
▁tinker	-8.31894
▁sent	-8.32094
▁drop	-8.32295
▁question	-8.32389
▁billy	-8.32438
▁road	-8.32473
on	-8.32712
▁eye	-8.33187
▁suppose	-8.33242
▁magic	-8.3341
▁thousand	-8.33481
▁starbird	-8.33486
▁living	-8.33552
▁moving	-8.33572
▁ooh	-8.33596
▁hair	-8.3365
ion	-8.34136
▁gods	-8.34244
▁spring	-8.34374
▁monster	-8.34428
▁human	-8.34474
▁rain	-8.34558
▁happens	-8.34914
▁charge	-8.34971
▁words	-8.35355
▁barnaby	-8.35564
▁narrator	-8.35564
▁attention	-8.35565
▁proud	-8.35582
▁buy	-8.35966
▁killed	-8.36128
▁luck	-8.3624
▁box	-8.3638
▁emma	-8.36479
▁country	-8.36724
▁pull	-8.36733
▁taste	-8.37145
▁join	-8.37228
▁meeting	-8.37379
▁short	-8.37411
▁telling	-8.37428
▁certainly	-8.37781
▁quickly	-8.37825
▁sick	-8.38078
▁arms	-8.38234
h	-8.38512
▁moon	-8.38727
▁taken	-8.3937
▁fair	-8.39818
▁chief	-8.39887
▁claus	-8.39896
▁south	-8.39908
▁wedding	-8.39919
▁blue	-8.40267
▁park	-8.40354
▁imagine	-8.40375
▁gets	-8.4086
▁ground	-8.40888
▁animal	-8.40959
▁snow	-8.41107
ic	-8.41414
▁crow	-8.41838
▁straight	-8.42052
▁shut	-8.42058
▁afternoon	-8.42088
▁daddy	-8.42113
▁heroes	-8.42144
▁none	-8.42177
▁stars	-8.42223
▁fairy	-8.42304
▁ow	-8.42332
▁growing	-8.4255
▁honor	-8.42879
▁fight	-8.4331
▁shot	-8.43407
▁street	-8.43569
▁choice	-8.43946
▁heh	-8.43984
▁abbie	-8.44359
▁stupid	-8.44359
▁husband	-8.44361
▁everywhere	-8.44363
▁simple	-8.44363
▁impossible	-8.4438
▁swifty	-8.4442
▁tired	-8.44491
▁early	-8.44606
▁doctor	-8.45536
▁it	-8.4599
▁tea	-8.46023
▁sing	-8.463
▁lunch	-8.4659
▁village	-8.46662
▁couple	-8.46684
▁somewhere	-8.46685
▁cindy	-8.46715
▁parents	-8.46723
▁squeaks	-8.46733
an	-8.46755
▁unless	-8.46763
▁wings	-8.46808
▁picture	-8.4681
▁levi	-8.4682
▁aye	-8.46836
▁giving	-8.46886
▁sighs	-8.469
▁ship	-8.46997
▁west	-8.47042
▁miles	-8.47509
▁w	-8.47828
▁spirit	-8.47908
▁trip	-8.48002
▁clean	-8.48104
▁joe	-8.48173
▁win	-8.48251
▁wind	-8.48268
▁sense	-8.48407
▁bet	-8.4848
▁lad	-8.48615
▁grab	-8.48783
▁worth	-8.48875
▁kitchen	-8.49065
▁colonel	-8.49065
▁indeed	-8.49066
▁shell	-8.49113
▁busy	-8.49122
▁loved	-8.49224
▁nature	-8.49247
▁fool	-8.50088
▁talent	-8.50142
less	-8.50235
▁restaurant	-8.50342
▁hour	-8.50452
▁looked	-8.50634
▁age	-8.50776
▁forgive	-8.51331
▁africa	-8.51504
▁spanish	-8.51504
▁alright	-8.5151
▁kolo	-8.51514
▁mister	-8.51538
▁pool	-8.51564
▁kita	-8.51588
▁write	-8.516
▁madame	-8.51641
▁broken	-8.51738
▁board	-8.51884
▁rich	-8.51921
▁belong	-8.52025
▁fans	-8.52047
▁longer	-8.52152
▁present	-8.52443
▁k	-8.52457
▁hed	-8.52715
▁pole	-8.5299
▁command	-8.53223
▁da	-8.53227
▁president	-8.53597
▁share	-8.5376
▁deep	-8.53821
▁certain	-8.53899
▁police	-8.54001
▁anywhere	-8.54004
▁humphrey	-8.54004
▁instead	-8.54018
▁george	-8.54018
▁terrible	-8.54046
▁tour	-8.54082
▁tough	-8.5409
▁growls	-8.54273
▁spend	-8.54469
▁turned	-8.54599
▁co	-8.55081
▁g	-8.55186
▁position	-8.55372
▁toy	-8.55511
▁worked	-8.55765
▁ii	-8.55908
▁calling	-8.5599
▁teach	-8.55993
▁damn	-8.56313
▁ohh	-8.56434
▁except	-8.56457
▁double	-8.56554
▁cornelius	-8.56568
▁queen	-8.56571
▁upon	-8.5658
▁area	-8.56625
▁shh	-8.5666
▁wonder	-8.56704
▁green	-8.56731
▁protect	-8.57302
▁e	-8.57338
▁brave	-8.57476
▁lived	-8.57512
▁broke	-8.57841
▁idiot	-8.58041
▁pumpkin	-8.58114
▁weeks	-8.5834
▁pass	-8.58465
▁coffee	-8.59198
▁professor	-8.592
▁among	-8.59201
▁scared	-8.59316
▁besides	-8.59401
▁wild	-8.59484
▁engine	-8.59749
▁birds	-8.59926
▁jump	-8.60015
▁died	-8.60107
▁foot	-8.60544
▁ranger	-8.60718
▁fathers	-8.60872
▁search	-8.61264
▁me	-8.61393
▁enjoy	-8.615
▁works	-8.6151
▁agree	-8.61563
m	-8.61603
▁kiss	-8.61625
▁egypt	-8.61893
▁beyond	-8.619
▁raccoon	-8.61901
▁william	-8.61901
▁neecha	-8.61902
▁squawks	-8.61902
▁caught	-8.61904
▁empty	-8.61909
▁inspector	-8.61956
en	-8.6199
▁th	-8.61994
▁growling	-8.62012
▁sky	-8.62054
▁continues	-8.62338
▁groans	-8.62388
▁saved	-8.62411
▁promised	-8.62426
ity	-8.62842
▁north	-8.63056
▁date	-8.6343
▁pleasure	-8.63453
▁plane	-8.63546
▁asking	-8.63579
▁prove	-8.63657
▁missed	-8.63708
▁ran	-8.64401
▁serve	-8.64525
▁zorro	-8.64677
▁dangerous	-8.64689
▁soup	-8.64689
▁suddenly	-8.64716
▁castle	-8.64744
▁decided	-8.64782
▁nto	-8.64854
▁mayor	-8.64921
▁changed	-8.6538
▁law	-8.65595
le	-8.66038
▁known	-8.66262
▁future	-8.66305
ine	-8.66502
▁wear	-8.67102
▁fedor	-8.67382
▁entire	-8.67527
▁act	-8.6753
▁marriage	-8.67535
▁breakfast	-8.67537
▁felt	-8.67545
▁randy	-8.67566
▁aggie	-8.67567
▁n	-8.67638
▁evil	-8.6764
man	-8.67654
▁slow	-8.67816
▁low	-8.67833
▁swim	-8.67952
▁push	-8.68408
▁flying	-8.68774
▁questions	-8.69146
▁game	-8.69361
▁in	-8.69687
▁meant	-8.69827
▁round	-8.69856
ry	-8.70359
▁serious	-8.70377
▁fell	-8.7047
▁favorite	-8.70478
▁shouldnt	-8.70487
▁swear	-8.70487
▁speed	-8.70502
▁company	-8.70504
▁hup	-8.70514
▁warm	-8.70602
▁seven	-8.70628
▁wall	-8.70755
▁lions	-8.71296
ie	-8.71331
▁sad	-8.71425
▁laugh	-8.71554
▁skate	-8.71874
▁sell	-8.72206
▁visit	-8.72217
▁takes	-8.72527
nt	-8.72829
to	-8.7288
▁h	-8.73214
▁destroy	-8.73249
▁office	-8.73331
▁buffins	-8.73498
▁cougar	-8.73498
▁often	-8.73512
▁coast	-8.73591
▁halo	-8.73609
▁aii	-8.73658
▁screams	-8.73784
us	-8.73849
▁dry	-8.73985
▁carry	-8.74029
▁wine	-8.74681
▁storm	-8.74896
▁bag	-8.75178
▁surprise	-8.7526
▁dr	-8.75297
▁control	-8.75362
▁truck	-8.75418
▁million	-8.75514
▁radio	-8.75682
▁stick	-8.75852
▁peace	-8.76172
▁realize	-8.76393
▁risk	-8.7658
▁fault	-8.76623
▁forward	-8.76623
▁werent	-8.76625
▁excited	-8.76627
▁horace	-8.76627
▁choose	-8.76628
▁pardon	-8.76634
▁beginning	-8.76636
▁yesterday	-8.7669
▁mention	-8.76704
▁aah	-8.76709
▁kidding	-8.76756
▁personal	-8.76773
▁arrived	-8.76794
▁chattering	-8.76858
▁iii	-8.7688
▁tv	-8.77116
▁lamp	-8.77121
▁fit	-8.77256
▁respect	-8.77544
▁beat	-8.77663
▁littlest	-8.77671
▁brothers	-8.78187
▁blow	-8.78286
▁basket	-8.78545
▁danger	-8.78564
▁service	-8.78667
▁darling	-8.78681
▁doubt	-8.78725
▁teacher	-8.78813
▁handle	-8.78828
▁mouth	-8.78866
▁mile	-8.79109
▁expect	-8.79209
▁cute	-8.79232
▁soft	-8.79349
▁hole	-8.79414
▁desert	-8.796
▁allow	-8.79769
▁cinderella	-8.79848
▁jeff	-8.79849
▁noble	-8.79858
▁rather	-8.79873
▁boss	-8.79881
▁native	-8.79943
▁tight	-8.79994
▁hows	-8.79996
▁finished	-8.80081
▁war	-8.80087
▁vo	-8.80451
▁lie	-8.80849
▁so	-8.81111
▁practice	-8.81197
▁smart	-8.8159
▁pop	-8.81601
▁chair	-8.81868
▁department	-8.81929
▁chicken	-8.82021
▁dress	-8.82032
▁rose	-8.82042
▁horn	-8.82258
▁o	-8.82354
ka	-8.82797
▁state	-8.82856
▁louis	-8.8289
▁silver	-8.83173
▁absalom	-8.83182
▁jordan	-8.83182
▁pharaoh	-8.83182
▁sheriff	-8.83182
▁worried	-8.83183
▁snoring	-8.83184
▁third	-8.83191
▁consider	-8.83192
▁coley	-8.83193
▁nour	-8.83221
▁mike	-8.83267
▁woof	-8.83321
▁interested	-8.83326
▁needed	-8.8336
▁cubs	-8.83426
▁hunting	-8.8349
▁body	-8.83499
▁ones	-8.83552
▁paris	-8.8363
▁greatest	-8.83635
out	-8.83749
▁ches	-8.84077
▁hearts	-8.84198
▁feed	-8.84582
rs	-8.84779
▁garden	-8.85041
▁smile	-8.85104
id	-8.85212
▁figure	-8.85217
▁mate	-8.8547
▁piece	-8.85771
▁pray	-8.85959
▁r	-8.86068
▁soul	-8.86197
re	-8.86211
▁di	-8.86246
▁finish	-8.86437
▁tall	-8.86465
▁nervous	-8.86508
▁brigadoon	-8.8663
▁picnic	-8.8663
▁female	-8.8663
▁armelle	-8.86631
▁neither	-8.86631
▁within	-8.86635
▁weather	-8.86637
▁rusty	-8.86643
▁bride	-8.86659
▁aw	-8.86948
c	-8.86973
▁perfectly	-8.86982
▁barking	-8.8701
▁hoo	-8.87145
▁dare	-8.8752
▁fellas	-8.87547
▁ba	-8.87616
▁sleeping	-8.87899
▁drive	-8.88313
▁cover	-8.88397
▁sail	-8.88452
▁hat	-8.88672
▁detective	-8.8903
▁trees	-8.89044
▁adventure	-8.89045
▁elephant	-8.89062
▁gift	-8.89072
▁slave	-8.89206
▁relax	-8.89689
▁fix	-8.8988
it	-8.89935
▁prison	-8.90079
▁missing	-8.9015
▁udala	-8.90201
▁private	-8.90202
▁biggest	-8.90202
▁absolutely	-8.90207
▁definitely	-8.90207
▁silly	-8.9026
▁throne	-8.9026
▁winter	-8.90271
▁single	-8.9029
▁eight	-8.90313
▁jean	-8.90708
▁list	-8.90957
▁crying	-8.90962
▁over	-8.92143
▁bark	-8.92393
▁explain	-8.92416
▁spot	-8.92796
▁treasure	-8.9288
▁shop	-8.93678
▁bo	-8.93713
▁bill	-8.93798
▁coop	-8.93881
▁rameses	-8.93905
▁clawdeen	-8.93905
▁mkan	-8.93905
▁cheese	-8.93907
▁kosh	-8.93907
▁davis	-8.93908
▁duty	-8.9391
▁mummy	-8.93924
▁wandi	-8.93926
▁worse	-8.93927
▁completely	-8.93975
▁doc	-8.94003
▁folks	-8.94019
▁uhoh	-8.94044
▁mandie	-8.94072
▁station	-8.94079
▁interesting	-8.94161
▁mess	-8.94262
▁goodness	-8.94277
▁male	-8.94324
▁rules	-8.94476
▁walt	-8.9449
▁design	-8.94526
▁tracks	-8.94563
te	-8.94721
g	-8.95087
▁ugh	-8.95263
▁tum	-8.95412
ous	-8.95474
▁standing	-8.95501
▁places	-8.962
▁bottom	-8.96424
▁fresh	-8.9682
▁sand	-8.97048
▁form	-8.97254
▁survive	-8.97479
ii	-8.97537
▁lights	-8.97608
▁protocol	-8.97751
▁arnaud	-8.97751
▁audience	-8.97751
▁kayera	-8.97751
▁bottle	-8.97755
▁floor	-8.97764
▁lisa	-8.97778
▁totally	-8.97795
▁grandfather	-8.9782
▁laughter	-8.97828
▁taught	-8.97834
▁tess	-8.9798
▁bank	-8.982
▁fashion	-8.9824
▁flowers	-8.98283
▁leg	-8.98473
▁ln	-8.98807
▁rings	-8.98874
▁elephants	-8.98995
▁wise	-8.99579
▁opening	-8.99601
▁mothers	-8.99664
▁nah	-9.00056
▁size	-9.00552
▁giant	-9.0059
▁test	-9.00602
▁window	-9.00621
▁rocks	-9.00693
▁color	-9.00698
▁yay	-9.00699
▁hop	-9.00819
▁rise	-9.00853
▁general	-9.00896
▁sight	-9.011
the	-9.01413
▁dig	-9.01455
▁trick	-9.01544
▁settle	-9.01558
▁stole	-9.01633
▁pain	-9.01667
▁alex	-9.01749
▁congratulations	-9.01751
▁linguini	-9.01751
▁molloy	-9.01751
▁awesome	-9.01752
▁chinese	-9.01752
▁irena	-9.01753
▁dawn	-9.01753
▁heavy	-9.01754
▁alban	-9.01763
▁borel	-9.0181
▁baron	-9.01814
▁famous	-9.01826
▁yep	-9.01874
▁earl	-9.01934
▁bar	-9.01949
▁trumpeting	-9.02003
▁allowed	-9.02118
▁shame	-9.02135
▁card	-9.02203
▁ma	-9.02232
▁eh	-9.02341
ar	-9.02513
▁race	-9.02623
▁hill	-9.02956
▁lips	-9.03002
▁whoo	-9.03302
▁lay	-9.04069
▁stones	-9.04275
▁attack	-9.04452
▁ring	-9.04574
▁journey	-9.04578
p	-9.04659
▁distance	-9.04716
▁chestnut	-9.04755
▁lesson	-9.04807
▁babylon	-9.04924
▁key	-9.05045
▁hunt	-9.05197
▁offer	-9.05233
▁leaves	-9.05281
▁steal	-9.05483
▁enter	-9.05586
▁prepare	-9.05665
▁cross	-9.05714
▁difficult	-9.05918
▁english	-9.05918
▁purpose	-9.05918
▁rebecca	-9.05918
▁samantha	-9.05918
▁taylor	-9.05918
▁sinbad	-9.05918
▁museum	-9.05918
▁difference	-9.05918
▁beloved	-9.05919
▁advice	-9.05919
▁karell	-9.05919
▁billboard	-9.05921
▁forgot	-9.05924
▁stella	-9.05937
▁class	-9.05948
▁mmm	-9.05953
▁farm	-9.05973
▁charming	-9.05989
▁fill	-9.05994
▁bok	-9.06026
▁applaud	-9.0605
▁statue	-9.06072
▁hackl	-9.06194
▁faster	-9.06207
ate	-9.06256
▁riding	-9.06267
▁grrr	-9.06583
▁social	-9.06593
▁seemed	-9.06718
▁cooking	-9.06789
ness	-9.07134
▁waters	-9.07187
▁bay	-9.0719
▁bang	-9.07228
▁walls	-9.07381
▁correct	-9.07602
▁eating	-9.07904
▁mountains	-9.08033
ce	-9.08583
▁force	-9.09075
▁ocean	-9.09079
▁fellow	-9.09117
▁gusteau	-9.09119
▁an	-9.09157
as	-9.09229
▁build	-9.09273
▁fella	-9.09337
▁lots	-9.09347
▁sauce	-9.09412
▁murder	-9.09858
▁paint	-9.09987
▁hero	-9.10013
▁can	-9.10024
▁bow	-9.10068
▁excellency	-9.10266
▁patience	-9.10266
▁dalton	-9.10266
▁smith	-9.10266
▁especially	-9.10267
▁support	-9.10267
▁cabin	-9.10267
▁throat	-9.10272
▁floud	-9.10274
▁fancy	-9.10274
▁teeth	-9.10274
▁immediately	-9.10282
▁swimming	-9.10283
▁stroke	-9.10283
▁price	-9.10285
▁glory	-9.10287
▁suffer	-9.10322
▁onto	-9.10326
▁indistinctly	-9.10353
▁camera	-9.10514
▁figured	-9.10612
▁map	-9.10619
ation	-9.10674
at	-9.10837
▁art	-9.10852
▁creatures	-9.11013
▁gosh	-9.11145
▁names	-9.11169
▁pre	-9.11454
▁san	-9.11624
▁dis	-9.11854
▁turning	-9.11941
▁begin	-9.11972
▁awful	-9.12608
▁breath	-9.13171
um	-9.13174
▁mistake	-9.13406
▁competition	-9.13453
▁flight	-9.13488
▁report	-9.13531
▁hebrew	-9.13618
▁nose	-9.13742
▁weird	-9.13891
▁seeing	-9.14129
▁bomb	-9.14191
▁wes	-9.14257
▁honest	-9.14315
▁final	-9.1433
▁buck	-9.14496
▁sally	-9.14509
▁strength	-9.14549
▁escape	-9.14609
▁tink	-9.14776
▁memory	-9.14811
▁system	-9.14811
▁yonkers	-9.14811
▁upbeat	-9.14811
▁brinstead	-9.14812
▁applause	-9.14813
▁plenty	-9.14814
▁asleep	-9.14815
▁jail	-9.14819
▁ahoy	-9.14821
▁tusk	-9.14824
▁champ	-9.1483
▁hasnt	-9.14833
▁laura	-9.14847
▁path	-9.14858
▁handsome	-9.14863
▁fairies	-9.14865
▁remy	-9.14872
▁yelling	-9.1488
▁witches	-9.14881
▁strike	-9.14923
▁shaw	-9.14925
▁roars	-9.14987
▁create	-9.14997
▁grass	-9.14999
▁club	-9.15103
▁bread	-9.15113
▁officer	-9.15127
▁angels	-9.15139
▁locked	-9.15182
▁f	-9.15257
▁ought	-9.15557
w	-9.15856
▁weak	-9.15874
ment	-9.16062
▁slaves	-9.1624
et	-9.16461
▁following	-9.1649
▁shed	-9.16625
▁lookin	-9.16642
▁row	-9.17013
▁fan	-9.17047
▁ca	-9.17385
▁ways	-9.17466
ah	-9.17488
▁east	-9.17722
▁ro	-9.17778
▁goin	-9.18149
▁alarm	-9.18218
▁space	-9.18283
▁iron	-9.18325
▁machine	-9.18334
▁tradition	-9.18337
▁servant	-9.1834
▁paper	-9.18451
▁bike	-9.18464
▁whistle	-9.18504
▁orders	-9.1855
▁perform	-9.18627
▁wet	-9.18642
▁stranger	-9.18725
▁letter	-9.18759
▁cell	-9.18781
▁using	-9.18974
▁fox	-9.19446
▁usual	-9.19484
▁loose	-9.19522
▁chuck	-9.19527
▁large	-9.19527
▁mainland	-9.19537
▁borotyn	-9.19573
▁nebuchadnezzar	-9.19573
▁beneath	-9.19573
▁elaine	-9.19574
▁ghostier	-9.19577
▁parade	-9.19579
▁twice	-9.1958
▁stepmother	-9.19581
▁kept	-9.19584
▁mexico	-9.19585
▁beach	-9.19586
▁gentleman	-9.19588
▁middle	-9.19592
▁bigger	-9.19599
▁governor	-9.196
▁stopped	-9.19628
▁sunday	-9.19633
▁christy	-9.19634
▁diego	-9.19654
▁sweetie	-9.19671
▁mata	-9.19689
▁mule	-9.19716
▁hiding	-9.19733
▁golden	-9.19735
▁putting	-9.19793
and	-9.1987
▁closer	-9.20113
▁lion	-9.20148
▁keeping	-9.20229
▁shine	-9.20571
▁cal	-9.20628
▁followed	-9.20681
▁fired	-9.20855
▁planet	-9.20928
▁walking	-9.21003
▁moved	-9.21087
▁pieces	-9.21183
▁deliver	-9.21354
▁coat	-9.21393
ge	-9.21629
▁pumpkins	-9.21687
▁bite	-9.22056
ig	-9.22085
▁mole	-9.22153
▁guards	-9.22357
▁knock	-9.22451
▁rats	-9.22549
▁you	-9.22703
▁pack	-9.22777
▁arrive	-9.23031
▁remind	-9.23071
▁bringing	-9.23097
▁woods	-9.23145
▁shark	-9.23213
▁super	-9.2329
rry	-9.23295
▁prize	-9.23317
▁cloud	-9.23438
▁aunt	-9.2351
▁secrets	-9.23521
▁judge	-9.2365
▁lies	-9.23691
▁x	-9.23768
came	-9.23945
▁raise	-9.24351
▁chatter	-9.24424
▁corner	-9.24463
▁natural	-9.24468
▁nothin	-9.24509
▁somethin	-9.24519
▁exciting	-9.24573
▁jeiiystone	-9.24573
▁kumalo	-9.24573
▁mfundisi	-9.24573
▁upstairs	-9.24573
▁zelen	-9.24573
▁guitar	-9.24573
▁mystery	-9.24573
▁situation	-9.24574
▁splendid	-9.24574
▁garland	-9.24575
▁irene	-9.2458
▁stacy	-9.24581
▁built	-9.24587
▁planned	-9.2459
▁court	-9.24613
▁dust	-9.24625
▁iike	-9.24635
▁glass	-9.24645
▁stuck	-9.24658
▁huge	-9.24679
▁crown	-9.24763
▁square	-9.24773
▁willing	-9.24791
▁sandy	-9.24891
▁backup	-9.24891
▁held	-9.24892
▁neck	-9.24938
▁salad	-9.24993
▁dressed	-9.25027
▁pair	-9.25028
▁joy	-9.2512
▁beg	-9.25198
▁hardly	-9.2522
▁theyd	-9.25259
▁pen	-9.2529
▁learned	-9.25462
▁paintings	-9.2551
▁lock	-9.25531
▁mud	-9.25559
▁falling	-9.25622
▁ideas	-9.25785
▁closed	-9.25873
▁spare	-9.25874
▁legs	-9.25928
way	-9.26308
▁mighty	-9.264
▁we	-9.26502
go	-9.26981
▁press	-9.27239
▁liked	-9.27614
▁stag	-9.27806
erry	-9.28041
▁there	-9.28151
▁shows	-9.2816
▁remain	-9.28238
▁store	-9.28384
▁appear	-9.2842
▁challenge	-9.28424
▁message	-9.28477
▁devil	-9.2855
▁pizza	-9.2856
▁lo	-9.28568
▁valley	-9.28586
▁action	-9.28618
▁heavens	-9.28621
▁spear	-9.28651
▁cousin	-9.28697
▁hundred	-9.28742
▁ticket	-9.28767
▁sn	-9.29022
▁paw	-9.29192
▁image	-9.29215
▁separate	-9.29555
▁climb	-9.29607
▁health	-9.2963
▁dive	-9.29692
▁pretend	-9.29711
▁seth	-9.29739
▁mornin	-9.29788
▁indistinct	-9.29809
▁college	-9.29836
▁gashade	-9.29836
▁grumio	-9.29836
▁opportunity	-9.29836
▁rosamaria	-9.29836
▁schooner	-9.29836
▁whimpering	-9.29836
▁yappasha	-9.29836
▁whimpers	-9.29836
▁england	-9.29837
▁example	-9.29837
▁families	-9.29837
▁ensign	-9.29837
▁lenore	-9.29837
▁agency	-9.29837
▁wolf	-9.29838
▁ahh	-9.29838
▁french	-9.29839
▁kitty	-9.29839
▁bunch	-9.2984
▁delicious	-9.2984
▁monday	-9.29842
▁history	-9.29843
▁lonely	-9.29845
▁charity	-9.29847
▁yellow	-9.29852
▁classical	-9.29853
▁nigel	-9.29855
▁godmother	-9.2986
▁praise	-9.29869
▁betty	-9.29885
▁worst	-9.29892
▁cash	-9.29914
▁junior	-9.29929
▁army	-9.30007
▁introduce	-9.30211
▁noise	-9.30218
▁tears	-9.30283
▁cart	-9.30323
▁ringing	-9.30385
▁nest	-9.30387
▁announcements	-9.305
▁wearing	-9.30603
▁cheers	-9.30612
▁commander	-9.30652
▁shoes	-9.30762
ng	-9.31037
▁older	-9.31135
▁tricks	-9.3128
▁happening	-9.31336
ia	-9.31365
ally	-9.31381
▁con	-9.31512
ty	-9.31596
▁si	-9.31611
▁draw	-9.31936
▁that	-9.3215
▁caring	-9.32196
▁wei	-9.32753
▁finding	-9.33053
▁whip	-9.3322
▁bath	-9.3334
▁travel	-9.33457
▁harm	-9.33555
▁transport	-9.34021
▁cake	-9.34295
▁agent	-9.34306
▁mon	-9.34316
▁grand	-9.34349
▁staying	-9.34482
▁wheel	-9.347
▁complete	-9.35101
▁capture	-9.35157
▁rescue	-9.35276
▁grant	-9.35279
▁doug	-9.35322
▁view	-9.35384
▁apart	-9.35387
▁rutland	-9.35392
▁trundle	-9.35392
▁scrappy	-9.35392
▁jessica	-9.35392
▁ridiculous	-9.35392
▁somehow	-9.35392
▁fiona	-9.35393
▁hadnt	-9.35394
▁freedom	-9.35395
▁buried	-9.35395
▁according	-9.35395
▁silence	-9.35398
▁outta	-9.35399
▁whoever	-9.35401
▁brown	-9.35403
▁wiii	-9.35408
▁ginnie	-9.35409
▁aboard	-9.35413
▁pieta	-9.35419
▁admit	-9.35421
▁bought	-9.35424
▁incredible	-9.35427
▁dude	-9.35429
▁hotel	-9.35429
▁loco	-9.35433
▁shep	-9.35439
▁ahchoo	-9.35443
▁guilty	-9.35444
▁sanders	-9.35449
▁dirty	-9.35454
▁happiness	-9.35475
▁suspense	-9.35489
▁deliverer	-9.3549
▁sharp	-9.35503
▁glasses	-9.35531
▁punch	-9.35537
▁gasping	-9.35581
▁shouting	-9.35585
▁ego	-9.35588
▁pity	-9.35595
▁slowly	-9.35602
▁slum	-9.35639
▁turns	-9.35723
▁sold	-9.35855
▁forth	-9.35859
▁bright	-9.35912
▁roll	-9.36028
▁toward	-9.36186
▁favor	-9.36339
▁covered	-9.36354
▁nights	-9.36362
▁takers	-9.365
▁br	-9.36617
ting	-9.36754
▁wide	-9.368
▁gusteaus	-9.36886
ure	-9.36926
▁holly	-9.36978
▁hook	-9.36985
▁stage	-9.37092
▁boats	-9.37332
up	-9.37406
▁eggs	-9.37527
▁sa	-9.37686
▁toys	-9.37881
▁belongs	-9.38021
▁where	-9.38422
▁humans	-9.38502
▁bands	-9.38659
ne	-9.39
▁starts	-9.39252
▁interest	-9.39398
▁feelings	-9.39444
▁fl	-9.39567
▁fur	-9.39653
b	-9.39727
▁chase	-9.3982
made	-9.39858
▁photo	-9.39967
▁cajella	-9.39987
▁crew	-9.40023
▁miracle	-9.40033
▁no	-9.40035
▁block	-9.40057
▁task	-9.40133
▁success	-9.40169
▁guest	-9.40215
▁groan	-9.40555
▁hills	-9.40603
▁ham	-9.40764
▁experience	-9.4101
▁notice	-9.41026
▁america	-9.41119
orically	-9.41205
▁roof	-9.41258
▁ghost	-9.4127
▁wrote	-9.41274
▁cornwall	-9.41274
▁henri	-9.41275
▁klaus	-9.41275
▁agnes	-9.41276
▁chauvet	-9.41276
▁friday	-9.41276
▁hooray	-9.41276
▁giggling	-9.41277
▁scaris	-9.41281
▁invention	-9.41291
▁blind	-9.41297
▁genie	-9.41306
▁darkness	-9.41312
▁concert	-9.41312
▁simon	-9.41347
▁rope	-9.41385
▁clock	-9.4139
▁brandy	-9.41405
▁skateboarding	-9.41413
▁treated	-9.41417
you	-9.41422
▁cream	-9.41433
▁salt	-9.41469
▁circumstances	-9.41527
▁seriously	-9.41542
▁nearly	-9.4158
▁ac	-9.41636
▁sex	-9.41715
▁expected	-9.41743
▁deserve	-9.41752
▁to	-9.41969
▁grandma	-9.42064
ho	-9.42125
▁mission	-9.42166
▁bones	-9.42178
▁wishes	-9.4218
▁insist	-9.42253
▁driver	-9.4236
▁wash	-9.42409
▁hanging	-9.42431
▁dumb	-9.42494
▁grave	-9.42504
▁paws	-9.42577
▁accident	-9.42612
▁gives	-9.43044
▁gifts	-9.43188
▁states	-9.43215
▁tie	-9.43328
▁loves	-9.43414
sposit	-9.44076
▁fools	-9.44239
▁thinks	-9.44475
▁wood	-9.44539
noot	-9.44549
im	-9.44933
▁showed	-9.45088
k	-9.45124
son	-9.45158
ted	-9.45332
▁tw	-9.45354
ian	-9.45413
se	-9.4544
▁winds	-9.45644
▁fat	-9.45731
▁am	-9.45788
▁daughters	-9.45803
▁event	-9.45864
▁trumpet	-9.45951
▁sisters	-9.46022
▁hoffman	-9.46139
▁battle	-9.46186
▁track	-9.4621
▁sat	-9.46256
▁towns	-9.46275
▁album	-9.46284
▁rid	-9.46485
▁season	-9.46587
▁feels	-9.46651
▁add	-9.46729
▁month	-9.46734
▁bull	-9.46772
▁sake	-9.46816
▁meal	-9.46842
▁painting	-9.46956
▁building	-9.46986
▁madam	-9.47202
▁fi	-9.47236
▁jan	-9.47393
▁march	-9.47517
▁enemy	-9.47524
▁hudson	-9.47524
▁memnet	-9.47524
▁totoche	-9.47524
▁butler	-9.47524
▁daniel	-9.47524
▁magnificent	-9.47525
▁whether	-9.47525
▁prefer	-9.47525
▁easier	-9.47525
▁genius	-9.47525
▁disaster	-9.47526
▁angry	-9.47526
▁midnight	-9.47526
▁johannesburg	-9.47526
▁vacation	-9.47526
▁ugly	-9.47528
▁robert	-9.47531
▁hayley	-9.47532
▁bobby	-9.47533
▁whistling	-9.47534
▁sasha	-9.47536
▁trail	-9.47537
▁sweetheart	-9.47538
▁toyland	-9.47539
▁pressure	-9.47541
▁necessary	-9.47544
▁cleo	-9.47548
▁puppy	-9.4755
▁fascinating	-9.47551
▁sneak	-9.47556
▁ahem	-9.47569
▁penny	-9.47574
▁safety	-9.47577
▁obviously	-9.47604
▁therell	-9.47606
▁crime	-9.47613
▁hall	-9.47624
▁skating	-9.47625
▁doo	-9.47627
▁forgotten	-9.47637
▁potion	-9.47638
▁failed	-9.47648
▁type	-9.47684
▁dearie	-9.47695
▁sank	-9.47699
▁calm	-9.47725
▁responsible	-9.47728
▁eaten	-9.47746
▁stolen	-9.47752
▁milk	-9.47784
▁degrees	-9.47793
▁noticed	-9.47795
▁el	-9.47806
▁heat	-9.47838
▁quit	-9.47881
▁otto	-9.47885
▁maid	-9.47901
▁warning	-9.47901
▁captured	-9.47921
▁boyfriend	-9.47937
▁carefully	-9.47968
os	-9.47969
▁original	-9.48021
▁aim	-9.48086
▁pirates	-9.48092
▁string	-9.48216
▁boots	-9.484
▁mo	-9.48496
▁wondering	-9.48536
▁guests	-9.48718
v	-9.48795
▁smoke	-9.48805
▁sh	-9.48832
▁cousins	-9.48903
▁dun	-9.48999
▁papers	-9.49059
▁clouds	-9.49069
▁played	-9.49141
▁cards	-9.49327
▁fishing	-9.49336
▁frank	-9.49374
▁arm	-9.49465
▁barks	-9.49543
▁fate	-9.49617
yi	-9.49672
▁moan	-9.49681
▁moves	-9.4975
da	-9.49793
▁loud	-9.49808
▁checked	-9.49855
▁shake	-9.4987
▁rider	-9.50023
ive	-9.50505
▁hopes	-9.50645
▁heath	-9.50819
▁li	-9.50933
▁v	-9.50935
▁net	-9.50935
▁due	-9.51111
▁earn	-9.51622
▁gram	-9.51738
ur	-9.51882
▁whales	-9.51906
▁per	-9.52037
ttie	-9.5207
▁fo	-9.52265
▁ass	-9.52294
▁bat	-9.52354
▁record	-9.52365
▁faith	-9.52386
▁plans	-9.52501
▁seconds	-9.52579
▁pro	-9.52658
▁waited	-9.52679
▁level	-9.52816
▁bless	-9.5283
▁tongue	-9.52897
▁video	-9.52901
▁ruin	-9.52903
▁partner	-9.52964
▁tower	-9.52995
▁creature	-9.53048
▁tail	-9.53092
▁post	-9.53263
ts	-9.53399
▁gate	-9.53402
▁cow	-9.53712
▁coach	-9.53767
▁ja	-9.53906
▁somethings	-9.54006
▁waste	-9.5401
▁bother	-9.54021
▁grandpa	-9.54049
▁equal	-9.54134
▁california	-9.54191
▁cotton	-9.54191
▁excellent	-9.54191
▁gideon	-9.54191
▁hurricane	-9.54191
▁lapporte	-9.54191
▁nikki	-9.54191
▁oonaya	-9.54191
▁schedule	-9.54191
▁suzanne	-9.54191
▁effort	-9.54191
▁several	-9.54191
▁stephen	-9.54191
▁beauty	-9.54191
▁tyler	-9.54192
▁although	-9.54192
▁piano	-9.54193
▁drunk	-9.54194
▁bathroom	-9.54195
▁territory	-9.54198
▁celebration	-9.54199
▁rome	-9.54202
▁imagination	-9.54205
▁exist	-9.54211
▁pleased	-9.54217
▁osor	-9.54217
▁marty	-9.54221
▁calf	-9.54223
▁began	-9.54245
▁chosen	-9.54246
▁kane	-9.54248
▁flag	-9.54251
cient	-9.54262
▁shopping	-9.54308
▁haul	-9.5432
▁liz	-9.54332
▁thirsty	-9.54348
▁weight	-9.54396
▁ni	-9.54399
▁comin	-9.54405
▁ruined	-9.54429
▁wasted	-9.54461
▁bein	-9.54486
▁honking	-9.54499
▁gotten	-9.54542
▁filled	-9.54551
▁counselors	-9.54559
▁doors	-9.54735
▁marie	-9.54747
▁destroyed	-9.5475
▁surprised	-9.54755
▁rare	-9.54813
▁beer	-9.54815
▁realized	-9.54816
▁spokes	-9.54822
▁normal	-9.54948
▁depends	-9.55003
▁hoping	-9.55008
▁nations	-9.55247
▁seeds	-9.55296
▁returned	-9.55467
▁saint	-9.55512
is	-9.55894
▁training	-9.56058
▁mist	-9.56087
▁drama	-9.56474
▁mi	-9.56604
▁corn	-9.56899
ch	-9.56901
▁main	-9.56942
▁sire	-9.5716
▁trap	-9.57398
▁dum	-9.57557
▁des	-9.57631
▁maker	-9.57794
▁stayed	-9.57882
over	-9.58017
▁wouldve	-9.5803
▁france	-9.58047
▁gi	-9.58097
▁clears	-9.58399
▁rub	-9.58442
▁listening	-9.58495
▁base	-9.58837
▁helping	-9.58845
▁runs	-9.58856
▁groups	-9.58862
▁pups	-9.59063
▁gas	-9.59173
▁up	-9.59465
▁fa	-9.59546
▁sword	-9.59583
▁squaw	-9.59751
▁demand	-9.59811
▁po	-9.59918
▁contact	-9.59939
▁occasion	-9.6
▁nightmare	-9.60037
▁hail	-9.60107
▁plain	-9.60125
▁finger	-9.60181
▁movie	-9.60192
▁brain	-9.60197
▁field	-9.60206
▁continue	-9.60283
▁indian	-9.60382
▁speaks	-9.60429
▁moo	-9.60431
▁ne	-9.60505
▁sub	-9.60581
▁awake	-9.60602
▁le	-9.60676
▁shoe	-9.60723
ish	-9.60778
king	-9.60781
▁request	-9.61049
▁stretch	-9.6106
▁arrest	-9.6108
▁showing	-9.61085
▁swift	-9.61152
▁howd	-9.61179
fore	-9.61188
▁refuse	-9.6124
▁do	-9.61288
▁romantic	-9.61333
▁british	-9.61334
▁emergency	-9.61334
▁europe	-9.61334
▁prophecy	-9.61334
▁garbage	-9.61334
▁japanese	-9.61334
▁laurence	-9.61334
▁temple	-9.61334
▁caesar	-9.61334
▁excitement	-9.61334
▁review	-9.61334
▁nonsense	-9.61335
▁cuando	-9.61335
▁precious	-9.61335
▁bridge	-9.61335
▁however	-9.61335
▁surface	-9.61336
▁humming	-9.61336
▁security	-9.61336
▁birthday	-9.61338
▁modern	-9.61339
▁thief	-9.61339
▁zak	-9.61339
▁huerta	-9.6134
▁barton	-9.61341
▁moines	-9.61341
▁trash	-9.61342
▁walsh	-9.61342
▁struck	-9.61343
▁richard	-9.61349
▁sunset	-9.61349
▁heiio	-9.61352
▁eventually	-9.61352
▁basement	-9.61354
▁edward	-9.61354
▁planning	-9.6136
▁feast	-9.61368
▁knight	-9.61368
▁involved	-9.61376
▁rotte	-9.6139
▁aside	-9.61398
▁maria	-9.61399
▁cody	-9.61412
▁diving	-9.61425
▁oui	-9.61437
▁thatll	-9.61441
▁heather	-9.61454
▁steady	-9.61455
▁proof	-9.61458
▁saddle	-9.61463
▁united	-9.61471
▁exile	-9.61507
▁barely	-9.6151
▁usually	-9.61533
▁rule	-9.61546
▁snake	-9.61546
▁scientists	-9.61557
▁canoe	-9.61658
▁meat	-9.61783
▁joke	-9.61835
▁honk	-9.61855
▁prepared	-9.61887
▁soldiers	-9.61902
▁rough	-9.61919
▁passed	-9.62054
▁grown	-9.62062
▁skills	-9.62064
▁artists	-9.62078
▁talented	-9.62096
▁plants	-9.62173
▁should	-9.62178
▁ville	-9.62199
▁kate	-9.62493
▁provide	-9.62605
time	-9.62846
line	-9.6289
▁learning	-9.63196
▁ear	-9.633
▁mm	-9.63468
▁lack	-9.63655
▁parts	-9.63659
▁bend	-9.63785
▁panic	-9.6382
▁likes	-9.64095
▁meaning	-9.64107
▁breaking	-9.64215
▁headed	-9.64404
ight	-9.64484
▁likely	-9.64507
ist	-9.64623
th	-9.64648
ta	-9.65046
▁bucks	-9.65073
▁regret	-9.65419
▁boob	-9.6544
▁guns	-9.65478
▁lads	-9.65529
▁smells	-9.65554
▁j	-9.65658
▁bells	-9.65683
el	-9.65962
▁film	-9.66838
▁he	-9.66967
▁holding	-9.67341
▁whisper	-9.67374
▁bone	-9.67394
▁under	-9.6744
ant	-9.67491
▁kahuna	-9.67625
what	-9.67716
▁recipe	-9.67727
▁childhood	-9.6773
▁peter	-9.67864
▁style	-9.67875
▁momma	-9.6791
▁slip	-9.67989
sh	-9.68238
▁mail	-9.68302
▁member	-9.68516
▁shape	-9.686
▁pictures	-9.68602
▁spread	-9.6864
▁appreciate	-9.68708
▁guide	-9.68796
▁direct	-9.68825
▁compare	-9.68887
▁sudden	-9.68921
▁contest	-9.68964
▁match	-9.68969
▁heave	-9.68988
▁discuss	-9.69006
▁baiul	-9.6902
▁johannes	-9.69024
▁ermengarde	-9.69026
▁joshua	-9.69026
▁khaku	-9.69026
▁leprosy	-9.69026
▁literally	-9.69026
▁napoleon	-9.69026
▁penguins	-9.69026
▁stomach	-9.69026
▁tunnel	-9.69026
▁unusual	-9.69026
▁willett	-9.69026
▁garcia	-9.69026
▁neighborhood	-9.69026
▁sesame	-9.69027
▁knife	-9.69027
▁permission	-9.69027
▁italian	-9.69028
▁rifle	-9.69029
▁hidden	-9.6903
▁energy	-9.6903
▁heip	-9.69036
▁foolish	-9.69037
▁minnie	-9.69037
▁aware	-9.69038
▁logan	-9.69038
▁apparently	-9.69039
▁scott	-9.69039
▁jolly	-9.6904
▁circle	-9.6904
▁chuckling	-9.69041
▁trapped	-9.69041
▁dropped	-9.69042
▁goldfoot	-9.69043
▁nearby	-9.69045
▁innocent	-9.69046
▁alexander	-9.69048
▁grip	-9.69049
▁creaking	-9.69051
▁nope	-9.69052
▁mercy	-9.69053
▁lift	-9.69057
▁comfortable	-9.69058
▁emily	-9.6906
▁grew	-9.69064
▁fantastic	-9.69087
▁claim	-9.69092
▁dishes	-9.69128
▁sitting	-9.69138
▁manager	-9.69141
▁honour	-9.69149
▁fallen	-9.6915
▁uhhuh	-9.69154
▁market	-9.69175
▁range	-9.6918
▁charles	-9.69182
▁pi	-9.69184
▁nile	-9.69209
▁weekend	-9.6923
▁leader	-9.69231
▁naked	-9.69245
▁deck	-9.69245
▁gettin	-9.69245
▁accept	-9.69256
▁impressed	-9.69278
▁slipper	-9.69298
▁burning	-9.69311
ter	-9.6936
▁tender	-9.69371
na	-9.69374
▁softly	-9.69379
▁cup	-9.69381
▁nuts	-9.69394
▁hush	-9.69406
▁clearly	-9.69476
▁helped	-9.6955
fully	-9.6955
▁brooke	-9.69711
▁served	-9.69736
through	-9.69823
▁knees	-9.69826
▁customer	-9.69829
▁professional	-9.69839
▁higher	-9.69839
▁honored	-9.69891
▁swing	-9.69921
▁sailing	-9.69931
▁highly	-9.69942
▁expecting	-9.70007
▁moans	-9.70052
▁calls	-9.701
▁va	-9.70127
▁searching	-9.70187
▁van	-9.70196
▁chest	-9.70257
▁cage	-9.70267
▁bro	-9.70273
▁picked	-9.70381
▁lou	-9.70385
res	-9.70439
▁walked	-9.70484
▁buying	-9.70515
oring	-9.70585
▁shooting	-9.70625
▁friendly	-9.70636
▁imp	-9.70719
▁tickets	-9.70741
like	-9.70807
▁owe	-9.70811
ier	-9.70919
▁ends	-9.71022
▁keys	-9.71151
▁bi	-9.71216
▁deer	-9.71256
▁sport	-9.7129
▁killer	-9.71326
▁returning	-9.71382
for	-9.71387
▁waiter	-9.71418
▁che	-9.71444
▁pink	-9.71476
▁ida	-9.71552
▁horns	-9.71663
u	-9.71702
▁gardens	-9.71712
▁thy	-9.71788
ary	-9.72609
▁ignore	-9.73428
▁monsters	-9.73474
▁skin	-9.73566
▁heading	-9.73698
nnie	-9.73775
▁sta	-9.73925
▁wa	-9.73991
▁egg	-9.74197
▁seat	-9.74203
▁songs	-9.74313
▁shirt	-9.74444
he	-9.74543
▁tis	-9.7477
▁suit	-9.74795
▁crab	-9.75086
▁cos	-9.75101
▁cats	-9.75162
▁ls	-9.75194
▁cheer	-9.75219
▁books	-9.75249
▁rooms	-9.75361
have	-9.75507
▁chart	-9.75543
led	-9.75782
▁thunder	-9.75799
▁worlds	-9.75967
▁decision	-9.76057
▁lndian	-9.76069
all	-9.76133
▁magician	-9.76157
▁gunshot	-9.76158
▁rabbit	-9.76164
▁signal	-9.76179
▁fork	-9.76203
▁bandit	-9.76267
▁scene	-9.76269
ily	-9.76354
▁ad	-9.76361
▁duck	-9.76386
by	-9.76395
▁clam	-9.76524
▁shift	-9.76525
ey	-9.76532
▁flower	-9.76589
▁suggest	-9.76782
yah	-9.76867
▁matt	-9.76894
one	-9.76911
▁content	-9.76953
▁score	-9.76992
▁directions	-9.77123
▁warn	-9.77126
▁gather	-9.77146
▁arrange	-9.7715
▁thirst	-9.77166
▁ditch	-9.7719
ade	-9.7721
▁decide	-9.77214
▁screech	-9.77224
ship	-9.77237
▁obvious	-9.77253
▁doll	-9.77296
▁attempt	-9.77359
▁ambrose	-9.77359
▁computer	-9.77359
▁darius	-9.77359
▁draculaura	-9.77359
▁elliot	-9.77359
▁enemies	-9.77359
▁evidence	-9.77359
▁giggles	-9.77359
▁godzilla	-9.77359
▁horrible	-9.77359
▁jerusalem	-9.77359
▁lieutenant	-9.77359
▁mechagodzilla	-9.77359
▁orchestra	-9.77359
▁voyage	-9.77359
▁hawaii	-9.7736
▁luanu	-9.7736
▁written	-9.7736
▁eminence	-9.7736
▁effie	-9.7736
▁madison	-9.77361
▁address	-9.77361
▁carriage	-9.77361
▁creek	-9.77361
▁nowhere	-9.77361
▁cruel	-9.77362
▁complex	-9.77363
▁damage	-9.77363
▁palace	-9.77363
▁false	-9.77364
▁chamber	-9.77365
▁worship	-9.77366
▁thudding	-9.77366
▁steak	-9.7737
▁stories	-9.7737
▁express	-9.77371
▁earlier	-9.77372
▁jerry	-9.77374
▁wherever	-9.77379
▁reward	-9.77379
▁circus	-9.77381
▁champion	-9.77385
▁robbery	-9.77385
▁keno	-9.77386
▁concept	-9.77392
▁leland	-9.77398
▁roland	-9.774
▁medal	-9.77403
▁unfortunately	-9.7741
▁justin	-9.77412
▁church	-9.77419
▁changing	-9.7742
▁truly	-9.77427
▁jim	-9.77437
▁mommy	-9.77446
▁steele	-9.77452
▁pleasant	-9.77495
▁channel	-9.77495
▁smiling	-9.77496
▁discovered	-9.77497
▁palm	-9.77508
▁aha	-9.77515
▁liza	-9.77516
▁upset	-9.77527
▁familiar	-9.77532
▁goshen	-9.77551
▁defend	-9.77553
▁whatd	-9.77557
▁honestly	-9.77564
▁wagon	-9.77574
▁comforting	-9.77625
▁trace	-9.77647
▁heads	-9.77648
▁witch	-9.77676
▁lifetime	-9.77677
▁uk	-9.77687
▁paid	-9.77689
mber	-9.77714
▁reality	-9.77757
▁passes	-9.77802
▁birth	-9.77834
▁justice	-9.77854
▁forced	-9.77882
▁created	-9.779
▁timing	-9.77925
▁quietly	-9.77926
▁prey	-9.77944
▁nine	-9.7795
▁lower	-9.77952
▁dock	-9.77962
▁pants	-9.77992
ow	-9.78001
▁papa	-9.78053
▁stronger	-9.78053
▁kneel	-9.78058
▁thrown	-9.78095
▁bowl	-9.78114
▁agreed	-9.7817
▁stealing	-9.7817
▁sooner	-9.78268
▁cars	-9.78322
▁vampires	-9.78336
red	-9.78338
ance	-9.7836
▁beating	-9.78413
fish	-9.78469
▁drums	-9.78492
▁roam	-9.78529
▁glow	-9.78532
▁touched	-9.78561
que	-9.78611
▁alec	-9.78613
▁peaceful	-9.78709
f	-9.78741
▁pulling	-9.7878
▁fighting	-9.78793
▁younger	-9.7887
▁cares	-9.78917
▁scare	-9.78988
▁rush	-9.79029
tic	-9.79111
▁hank	-9.79166
▁thee	-9.79208
pt	-9.79243
▁owner	-9.7936
▁someones	-9.79434
▁farmer	-9.79453
▁diver	-9.79568
▁celebrate	-9.79623
▁port	-9.79651
▁breathe	-9.79661
▁reading	-9.79689
▁sale	-9.79694
no	-9.80018
▁extra	-9.80241
▁switch	-9.80314
▁fed	-9.80384
▁who	-9.80476
▁mix	-9.80592
▁millions	-9.80606
▁games	-9.8073
▁manage	-9.80821
ent	-9.8087
▁nap	-9.80895
▁ex	-9.80961
▁remembered	-9.81056
tll	-9.81216
▁gr	-9.81261
▁streets	-9.81801
▁tent	-9.81808
▁lotte	-9.82213
▁named	-9.82215
▁career	-9.82255
my	-9.82821
▁grows	-9.83033
▁leads	-9.83058
▁powers	-9.83173
▁al	-9.83591
▁bus	-9.83749
▁produce	-9.83761
▁nation	-9.83956
lestine	-9.83984
raz	-9.84181
▁steps	-9.84491
ill	-9.84632
▁depend	-9.84701
▁here	-9.851
▁relationship	-9.85144
do	-9.85154
▁condition	-9.85195
▁jacket	-9.85215
▁target	-9.8525
▁item	-9.85271
▁trunk	-9.85271
▁friendship	-9.85283
▁announcement	-9.85303
▁treat	-9.85423
▁focus	-9.85714
▁curse	-9.8616
ern	-9.86193
▁invite	-9.86195
▁pie	-9.86202
▁wealth	-9.86217
▁trade	-9.86224
▁positive	-9.86328
▁instant	-9.8633
▁particular	-9.86341
▁total	-9.86349
▁villa	-9.86447
▁afford	-9.8645
▁bithiah	-9.8645
▁brilliant	-9.8645
▁forsythe	-9.8645
▁frederick	-9.8645
▁gypsies	-9.8645
▁michelangelo	-9.8645
▁mirror	-9.8645
▁ndotsheni	-9.8645
▁oclock	-9.8645
▁opinion	-9.8645
▁otherwise	-9.8645
▁period	-9.8645
▁purgatory	-9.8645
▁recommend	-9.8645
▁rudolph	-9.8645
▁sergeant	-9.8645
▁sylvester	-9.8645
▁thieves	-9.8645
▁traffic	-9.8645
▁underneath	-9.8645
▁cyclops	-9.8645
▁papoose	-9.8645
▁scoffs	-9.86451
▁bruno	-9.86451
▁issue	-9.86451
▁saturday	-9.86451
▁research	-9.86451
▁whenever	-9.86452
▁easily	-9.86452
▁happily	-9.86453
▁bondage	-9.86453
▁babies	-9.86453
▁curious	-9.86454
▁information	-9.86454
▁kiko	-9.86454
▁unique	-9.86454
▁ayak	-9.86455
▁chicago	-9.86455
▁summon	-9.86455
▁branches	-9.86458
▁gentle	-9.86461
▁fogle	-9.86463
▁extraordinary	-9.86464
▁scooter	-9.86464
▁threw	-9.86468
▁simply	-9.86469
▁interaction	-9.86472
▁determined	-9.86479
▁pride	-9.86479
▁winner	-9.86483
▁complain	-9.86484
▁pendragon	-9.86486
▁ranch	-9.8649
▁vi	-9.86491
▁split	-9.86491
▁credit	-9.86494
▁courage	-9.86494
▁clank	-9.86498
▁candy	-9.86501
▁load	-9.86503
▁butter	-9.86507
▁stood	-9.86507
▁frightened	-9.86511
ba	-9.86514
▁helen	-9.86514
▁protection	-9.8652
▁blah	-9.86536
▁data	-9.86539
▁closing	-9.86545
▁michael	-9.86557
▁desk	-9.8656
▁dragon	-9.86568
▁option	-9.8658
▁blame	-9.86585
▁fruit	-9.86596
▁kindness	-9.8662
▁doin	-9.8663
▁naturally	-9.86652
▁flat	-9.86669
▁youth	-9.86733
▁center	-9.86735
▁barn	-9.86803
▁invited	-9.86827
▁deeds	-9.86841
▁heck	-9.86874
▁losing	-9.86878
▁driven	-9.8688
▁on	-9.86925
▁eve	-9.86937
ons	-9.8696
▁raised	-9.86993
▁attend	-9.86999
▁toes	-9.87099
▁traveling	-9.87119
▁wave	-9.87136
▁meerkats	-9.87187
▁ghouls	-9.87188
▁skull	-9.87203
▁pounds	-9.87258
▁stake	-9.87406
▁dollars	-9.87411
▁pe	-9.87423
▁lately	-9.87464
▁praying	-9.87501
▁ames	-9.87504
▁cents	-9.87546
▁trib	-9.87589
▁fires	-9.876
▁enjoying	-9.87854
▁passing	-9.87933
▁wore	-9.87959
▁filth	-9.88112
▁seasons	-9.88131
▁cast	-9.88148
cy	-9.88204
▁trumpets	-9.88224
ickering	-9.88327
▁touching	-9.88538
▁melt	-9.88733
ps	-9.8883
▁begins	-9.88932
▁ri	-9.88983
▁events	-9.89193
ra	-9.89324
▁sails	-9.89609
▁drinking	-9.89822
▁gray	-9.89836
enty	-9.89893
▁seek	-9.90029
▁pin	-9.90032
x	-9.90078
▁sink	-9.90182
▁out	-9.90276
▁tires	-9.90346
▁watched	-9.90386
▁dreaming	-9.90388
▁rent	-9.90415
▁fade	-9.90417
▁spit	-9.90484
▁talked	-9.90562
land	-9.90584
▁inter	-9.91332
▁planes	-9.91365
ped	-9.9163
▁driv	-9.91914
▁understanding	-9.91947
▁tinkers	-9.91978
back	-9.92138
house	-9.92468
▁drum	-9.92719
▁minds	-9.92961
▁tor	-9.92964
▁mans	-9.93266
▁lat	-9.93347
▁ch	-9.93348
ko	-9.93378
▁shin	-9.93405
ling	-9.9342
come	-9.93463
▁problems	-9.93685
▁numbers	-9.93814
▁print	-9.93901
▁boot	-9.93998
▁unlike	-9.94112
▁account	-9.94763
▁ti	-9.94793
▁practical	-9.94836
▁grandmother	-9.95035
▁snack	-9.95047
▁harmon	-9.95055
▁eagle	-9.95145
▁tiger	-9.95207
▁holiday	-9.95221
▁result	-9.95238
▁weapon	-9.95262
▁vampire	-9.95284
ized	-9.95296
▁herd	-9.9548
▁manner	-9.9552
▁cloth	-9.95574
▁gro	-9.95592
▁disappear	-9.95665
▁carrie	-9.95877
▁hits	-9.95931
▁kick	-9.95936
▁appeal	-9.96021
▁collect	-9.96052
▁zoo	-9.9609
▁murmur	-9.96174
▁faint	-9.9618
▁advance	-9.96202
▁surround	-9.96202
▁tune	-9.96225
▁witness	-9.96319
ings	-9.96333
▁desperate	-9.9637
▁shout	-9.9639
▁pal	-9.96394
▁jewel	-9.96415
▁factor	-9.96417
▁weddin	-9.96417
▁disappoint	-9.96439
▁popular	-9.9644
▁abigail	-9.9645
▁campaign	-9.9645
▁chocolate	-9.9645
▁dessert	-9.9645
▁elegance	-9.9645
▁ephraim	-9.9645
▁explanation	-9.9645
▁filiberto	-9.9645
▁individual	-9.9645
▁israel	-9.9645
▁kalahari	-9.9645
▁matthew	-9.9645
▁paradise	-9.9645
▁preparing	-9.9645
▁roosevelt	-9.9645
▁shepherd	-9.9645
▁sigurd	-9.9645
▁unbelievable	-9.9645
▁yochabel	-9.9645
▁recognize	-9.9645
▁adult	-9.96451
▁cyrus	-9.96451
▁jesus	-9.96451
▁succeed	-9.96451
▁jungle	-9.96451
▁champagne	-9.96451
▁delicate	-9.96451
▁necklace	-9.96451
▁tropic	-9.96451
▁anxious	-9.96452
▁flesh	-9.96452
▁urgent	-9.96452
▁amanda	-9.96453
▁avoid	-9.96453
▁elevator	-9.96453
▁lundie	-9.96453
▁dathan	-9.96454
▁mostly	-9.96454
▁jerk	-9.96455
▁bagdad	-9.96455
▁rowboat	-9.96457
▁draft	-9.96458
▁treason	-9.96462
▁airport	-9.96463
▁government	-9.96466
▁seattle	-9.96466
▁alice	-9.9647
▁release	-9.96473
▁accent	-9.96476
▁minister	-9.96476
▁egyptian	-9.96477
▁emile	-9.96478
▁gracious	-9.96485
▁fought	-9.96486
▁hammer	-9.96496
▁media	-9.96498
▁spent	-9.96499
▁spell	-9.96506
▁preto	-9.96507
▁glen	-9.96507
▁snap	-9.96511
▁wasting	-9.96512
▁hyah	-9.96513
▁dismissed	-9.9652
▁expression	-9.96523
▁blend	-9.96529
▁churring	-9.96535
▁creepy	-9.96537
▁raft	-9.96539
▁hospital	-9.96547
▁coughing	-9.96548
▁kano	-9.96564
▁torn	-9.96591
▁roaring	-9.96593
▁estate	-9.966
▁buzzing	-9.96601
▁powerful	-9.96602
▁mansion	-9.96616
▁writing	-9.96624
▁grain	-9.96626
▁sharing	-9.96673
▁firm	-9.96682
▁wrecked	-9.96704
▁thorn	-9.96708
▁hash	-9.96731
▁silk	-9.96733
▁gap	-9.96734
▁yup	-9.96737
▁route	-9.96747
▁smarter	-9.9675
▁salta	-9.96765
▁sync	-9.96785
▁bound	-9.96817
▁yells	-9.96827
▁vision	-9.96836
▁off	-9.96838
▁washed	-9.96864
▁stands	-9.96877
▁hired	-9.96882
▁deeply	-9.9689
▁students	-9.96893
▁steam	-9.96898
▁oops	-9.969
▁weigh	-9.96908
▁public	-9.97002
▁smaller	-9.97077
▁clues	-9.97118
▁rolling	-9.9712
▁interrupt	-9.97168
▁laid	-9.97183
z	-9.97184
▁flame	-9.97215
▁hung	-9.97252
▁ren	-9.97273
▁letting	-9.97403
ma	-9.97519
▁burns	-9.97547
▁lass	-9.97623
▁harder	-9.97659
▁changes	-9.97766
▁oil	-9.97806
▁sets	-9.97814
▁belly	-9.97824
▁flow	-9.97883
▁hauler	-9.97904
▁matters	-9.97904
▁suits	-9.97919
▁ants	-9.98023
men	-9.9819
▁lying	-9.98275
▁ordered	-9.9828
▁buildings	-9.98413
▁plant	-9.9842
▁sethi	-9.9858
▁faces	-9.98659
▁thick	-9.98722
▁hire	-9.9878
lo	-9.98804
▁gee	-9.98831
▁aring	-9.98835
▁kindly	-9.98843
▁ears	-9.9885
▁reminds	-9.98866
▁judges	-9.98883
▁ended	-9.98904
▁loving	-9.9905
▁strangers	-9.9912
▁pearl	-9.99149
▁mines	-9.99182
cal	-9.99331
▁chestnuts	-9.99386
▁tu	-9.99431
▁fri	-9.99702
▁paying	-10.0011
▁belt	-10.0025
▁proper	-10.0029
▁surprises	-10.0044
om	-10.0061
▁cost	-10.0062
ee	-10.0071
▁amen	-10.0082
side	-10.0084
▁crack	-10.0084
▁cr	-10.0086
me	-10.0119
▁lab	-10.0132
▁bid	-10.0142
ied	-10.0144
▁faithful	-10.0162
ding	-10.0179
▁flap	-10.0231
▁spoil	-10.0233
▁signs	-10.0234
▁blast	-10.026
ept	-10.0264
ut	-10.0271
▁falls	-10.0282
▁distan	-10.029
▁tire	-10.0292
▁min	-10.0299
▁ai	-10.0314
▁patch	-10.0337
▁not	-10.0338
we	-10.0357
ke	-10.0365
▁bind	-10.037
▁jo	-10.0389
▁com	-10.04
▁ew	-10.0406
▁shower	-10.0406
people	-10.0434
▁en	-10.0448
▁points	-10.0486
▁whisk	-10.0507
▁ra	-10.0541
▁reasons	-10.0549
▁knee	-10.0572
▁tri	-10.0575
finding	-10.0584
down	-10.0586
▁lum	-10.0587
▁announce	-10.0602
ld	-10.0608
▁motor	-10.0616
▁tomley	-10.0616
▁increase	-10.0619
▁bubble	-10.062
▁skill	-10.0621
▁movement	-10.0627
▁panel	-10.0627
▁legend	-10.0628
▁soap	-10.0631
▁jenny	-10.0632
▁sometime	-10.0634
▁reporter	-10.0637
▁subject	-10.0637
▁detail	-10.0638
▁artist	-10.0639
▁scale	-10.0642
▁button	-10.0643
▁feather	-10.0646
checked	-10.0646
▁growl	-10.0655
▁prisoner	-10.066
▁murderer	-10.0661
end	-10.067
▁meow	-10.0673
▁burn	-10.0683
▁lake	-10.0683
▁dollar	-10.0684
▁grace	-10.0688
ink	-10.0704
▁study	-10.0705
sor	-10.0706
ial	-10.0707
▁shore	-10.0714
▁approach	-10.0714
▁decree	-10.073
▁divide	-10.0731
oksana	-10.0731
▁pound	-10.0732
▁tick	-10.074
▁suspect	-10.0743
▁habit	-10.0746
▁journal	-10.0751
▁sons	-10.0752
▁sittin	-10.0753
▁absurd	-10.0756
▁azumi	-10.0756
▁bahamas	-10.0756
▁belknap	-10.0756
▁ciccio	-10.0756
▁downstairs	-10.0756
▁elizabeth	-10.0756
▁excellence	-10.0756
▁floretta	-10.0756
▁laundry	-10.0756
▁major	-10.0756
▁matilda	-10.0756
▁miguel	-10.0756
▁mitchell	-10.0756
▁octopus	-10.0756
▁odessa	-10.0756
▁olympic	-10.0756
▁phantom	-10.0756
▁similar	-10.0756
▁studied	-10.0756
▁survival	-10.0756
▁suspicious	-10.0756
▁yippee	-10.0756
▁ashamed	-10.0756
▁backpack	-10.0756
▁duchess	-10.0756
▁squids	-10.0756
▁udela	-10.0756
▁uniform	-10.0756
▁bopeep	-10.0756
▁telephone	-10.0756
▁entrance	-10.0756
▁advantage	-10.0756
▁temperature	-10.0756
▁century	-10.0756
▁culture	-10.0756
▁antonio	-10.0756
▁tools	-10.0756
▁presence	-10.0756
▁routine	-10.0756
▁yacht	-10.0756
▁fisheries	-10.0756
▁pregnant	-10.0756
▁someday	-10.0756
▁tractor	-10.0756
▁robbie	-10.0756
▁irina	-10.0756
▁underground	-10.0756
▁assume	-10.0756
▁ndye	-10.0756
▁potential	-10.0756
▁equipment	-10.0756
▁terrific	-10.0757
▁access	-10.0757
▁staff	-10.0757
▁shelter	-10.0757
▁electricity	-10.0757
▁unison	-10.0757
▁concentrate	-10.0757
▁sentence	-10.0757
▁monkey	-10.0757
▁cyclone	-10.0757
▁flew	-10.0757
▁solid	-10.0757
▁ventura	-10.0757
▁debut	-10.0757
▁banner	-10.0758
▁bravo	-10.0758
▁crowley	-10.0758
orita	-10.0758
▁kingsley	-10.0758
▁alien	-10.0758
▁sobbing	-10.0758
▁humble	-10.0758
▁wallace	-10.0759
▁unknown	-10.076
▁clapping	-10.076
▁lemon	-10.076
▁fetch	-10.0761
▁laddie	-10.0762
▁generous	-10.0762
▁feminine	-10.0763
▁starving	-10.0763
▁joking	-10.0763
▁subtitle	-10.0764
▁cern	-10.0765
▁divine	-10.0765
▁slightly	-10.0765
▁squeaking	-10.0765
▁repeat	-10.0766
▁contestant	-10.0767
▁splash	-10.0767
▁invented	-10.0769
▁brush	-10.077
▁struggle	-10.0772
▁coigne	-10.0772
▁expensive	-10.0773
▁influence	-10.0773
▁hallo	-10.0774
▁drill	-10.0774
▁beeping	-10.0774
▁whoohoo	-10.0774
▁physics	-10.0774
▁convinced	-10.0775
▁ruler	-10.0776
▁required	-10.0776
▁wicked	-10.0776
▁dating	-10.0776
▁sniffing	-10.0777
▁judy	-10.0778
▁toast	-10.0778
▁visitors	-10.078
▁weeping	-10.0781
▁former	-10.0781
▁isabel	-10.0782
▁kicked	-10.0783
▁fallin	-10.0783
▁disappeared	-10.0786
▁gotcha	-10.0786
▁farid	-10.0786
▁creation	-10.079
▁deai	-10.0797
▁tries	-10.0802
▁drawn	-10.0805
▁personally	-10.0806
▁skies	-10.0806
▁plead	-10.0806
▁metal	-10.0816
▁loaded	-10.0819
ando	-10.0824
▁attacked	-10.0826
▁latest	-10.0827
▁arranged	-10.083
▁rode	-10.0833
▁pots	-10.0838
▁fixed	-10.0838
▁halt	-10.0842
▁goose	-10.0844
▁painted	-10.0845
▁shoulder	-10.0863
▁jumped	-10.0868
▁blar	-10.0868
▁meows	-10.0869
▁behave	-10.087
▁details	-10.0876
▁iook	-10.089
▁wound	-10.0891
▁hunters	-10.0891
▁pol	-10.0895
▁led	-10.0899
▁sack	-10.09
age	-10.092
▁hol	-10.0925
▁del	-10.0928
▁styles	-10.0931
▁official	-10.0932
▁movies	-10.0943
▁waitin	-10.0943
▁fingers	-10.0944
▁loss	-10.0945
▁gates	-10.0945
▁worthy	-10.0948
ay	-10.0966
▁swell	-10.0973
▁scent	-10.0985
▁photos	-10.0989
▁marrying	-10.1001
il	-10.1009
use	-10.1009
▁is	-10.101
▁cent	-10.1043
▁letters	-10.1044
▁dreamed	-10.1061
▁forces	-10.1076
oh	-10.1085
▁rises	-10.109
▁souls	-10.1095
▁windows	-10.11
▁designer	-10.1101
▁have	-10.1116
▁ju	-10.1156
▁figures	-10.1169
▁bu	-10.1172
de	-10.1181
▁organ	-10.1228
bber	-10.1239
ny	-10.1258
▁thinkin	-10.126
▁tag	-10.1266
▁engines	-10.1275
if	-10.1279
▁siren	-10.13
▁bel	-10.1302
ways	-10.1314
▁tend	-10.1318
ya	-10.1325
▁din	-10.1341
▁doctors	-10.1351
▁fully	-10.1355
▁seas	-10.1359
mount	-10.1365
▁thoughts	-10.1366
▁hats	-10.1367
▁grounds	-10.1377
zzar	-10.1391
▁charges	-10.1406
▁tells	-10.1425
▁str	-10.1438
▁danced	-10.1443
▁ven	-10.1454
trick	-10.146
▁mac	-10.15
▁sw	-10.1516
▁ming	-10.1516
▁role	-10.152
▁vote	-10.1561
dino	-10.1614
▁lines	-10.1626
▁trains	-10.1634
la	-10.1662
▁wrap	-10.1669
ated	-10.1671
pect	-10.1684
ver	-10.1685
ious	-10.1687
▁til	-10.1691
eii	-10.1711
▁dominan	-10.1719
ha	-10.175
old	-10.1763
▁mutt	-10.1768
▁comfort	-10.1788
street	-10.1796
fall	-10.1809
▁pale	-10.1829
▁scream	-10.1836
▁iet	-10.1841
bone	-10.1845
▁gasp	-10.1846
▁gre	-10.1849
▁funeral	-10.1863
▁performance	-10.1864
▁spoke	-10.1872
▁crystal	-10.1875
▁connection	-10.1876
▁coward	-10.188
▁outfit	-10.188
▁dolphin	-10.1883
▁model	-10.1885
▁generation	-10.1885
▁mushroom	-10.1886
▁current	-10.1887
▁troubles	-10.1889
▁pirate	-10.189
▁magnet	-10.1891
▁idol	-10.1897
▁vanish	-10.1897
▁spin	-10.1905
ro	-10.1913
this	-10.1928
▁skater	-10.1932
▁drown	-10.1936
▁prayer	-10.1939
▁liar	-10.1945
▁fail	-10.1948
▁twitter	-10.1956
▁anna	-10.196
▁bon	-10.1967
▁beast	-10.1969
▁apologize	-10.1977
▁whee	-10.1981
▁float	-10.1983
▁continent	-10.1991
▁tale	-10.1991
▁speech	-10.1992
your	-10.1993
▁brand	-10.2002
▁them	-10.2004
▁circums	-10.2005
▁academy	-10.2006
▁apprentice	-10.2006
▁assassin	-10.2006
▁bieber	-10.2006
▁cathedral	-10.2006
▁chamberlain	-10.2006
▁cheesenewt	-10.2006
▁citizen	-10.2006
▁commodore	-10.2006
▁dozen	-10.2006
▁essential	-10.2006
▁fifteen	-10.2006
▁garrett	-10.2006
▁heeheehee	-10.2006
▁nefretiri	-10.2006
▁palatine	-10.2006
▁paleolithic	-10.2006
▁perspective	-10.2006
▁platform	-10.2006
▁quinoa	-10.2006
▁studio	-10.2006
▁unexpected	-10.2006
▁abraham	-10.2006
▁explosion	-10.2006
▁fortune	-10.2006
▁fragile	-10.2006
▁mugger	-10.2006
▁stubborn	-10.2006
▁supplies	-10.2006
▁twelve	-10.2006
▁babette	-10.2006
▁observe	-10.2006
▁sniveiy	-10.2006
▁hmph	-10.2006
▁london	-10.2006
▁phase	-10.2006
▁register	-10.2006
▁technical	-10.2006
▁lonesome	-10.2006
▁mysterious	-10.2006
▁telegram	-10.2006
▁niece	-10.2006
▁almighty	-10.2006
▁someplace	-10.2006
▁advise	-10.2006
▁destruction	-10.2006
▁burden	-10.2006
▁oscar	-10.2006
▁benson	-10.2006
▁compete	-10.2006
▁anytime	-10.2007
▁marvel	-10.2007
▁client	-10.2007
▁roger	-10.2007
▁overboard	-10.2007
▁possibly	-10.2007
▁chorus	-10.2007
▁sarin	-10.2007
▁colossa	-10.2007
▁gym	-10.2007
▁cheap	-10.2007
▁capable	-10.2007
▁basically	-10.2007
▁collar	-10.2007
▁colony	-10.2008
▁grainger	-10.2008
▁society	-10.2008
▁common	-10.2008
▁jamie	-10.2008
▁whew	-10.2008
▁transformed	-10.2008
▁poof	-10.2008
▁impressive	-10.2008
▁tucker	-10.2009
▁junk	-10.2009
▁principle	-10.2009
▁climate	-10.2009
▁property	-10.2009
▁china	-10.2009
▁behold	-10.2009
▁typical	-10.2009
▁holler	-10.2009
▁embarrassing	-10.201
▁trench	-10.201
▁recently	-10.201
▁swallow	-10.201
▁silverback	-10.201
▁waitress	-10.2011
▁precisely	-10.2011
itary	-10.2011
▁obey	-10.2012
▁becoming	-10.2012
▁lucy	-10.2012
▁russian	-10.2012
▁disease	-10.2012
▁gambling	-10.2013
▁lrene	-10.2013
▁whatll	-10.2013
▁bible	-10.2014
▁steven	-10.2014
▁bore	-10.2014
▁universe	-10.2015
▁daily	-10.2016
▁alas	-10.2016
▁bison	-10.2016
▁jug	-10.2016
▁molly	-10.2019
▁baka	-10.2019
▁teii	-10.2019
▁assure	-10.2019
▁trial	-10.202
▁pump	-10.2022
▁dying	-10.2022
▁polly	-10.2025
▁mistress	-10.2025
▁sec	-10.2025
▁duh	-10.2025
▁concerned	-10.2026
▁bitch	-10.2026
▁july	-10.2026
▁endless	-10.2027
▁appetite	-10.2027
▁beings	-10.203
▁matches	-10.2031
▁robe	-10.2031
▁gall	-10.2031
▁setting	-10.2033
▁latin	-10.2034
▁mice	-10.2038
▁spoken	-10.2038
ville	-10.2039
▁received	-10.204
▁gathered	-10.2044
▁warned	-10.2047
ery	-10.205
▁arrested	-10.2052
▁delight	-10.2058
▁orcas	-10.2062
▁dresses	-10.2063
▁socks	-10.2068
▁howl	-10.2074
▁regular	-10.2075
▁darn	-10.2075
▁tear	-10.2075
▁wouid	-10.2076
▁spy	-10.2077
▁jane	-10.2084
▁recording	-10.2086
▁offered	-10.2086
▁mar	-10.2089
▁prop	-10.2091
▁sweep	-10.2092
▁mere	-10.2092
▁settled	-10.2093
▁wh	-10.2098
▁explained	-10.2098
▁graceful	-10.2099
▁dodos	-10.2103
▁heavenly	-10.2107
▁inn	-10.2107
dy	-10.2108
▁magical	-10.2114
▁safely	-10.2115
▁gum	-10.212
boxes	-10.2121
▁cheerful	-10.2127
▁tryin	-10.2127
nce	-10.2133
▁waves	-10.2136
▁mono	-10.2142
▁subjects	-10.2143
lette	-10.2146
▁feeding	-10.2156
▁sacrifice	-10.2157
▁sole	-10.2158
▁weapons	-10.2159
▁tales	-10.2172
▁deadly	-10.2175
▁members	-10.2183
▁despi	-10.2184
▁bare	-10.219
▁finds	-10.2196
▁hip	-10.2203
▁acting	-10.2204
▁cleaning	-10.2233
▁mil	-10.2235
▁records	-10.2239
pe	-10.2241
▁sakes	-10.2243
▁couid	-10.2252
▁goats	-10.2257
▁uhh	-10.2276
▁agents	-10.2283
▁sounded	-10.2289
illa	-10.2294
▁pipe	-10.2294
▁wick	-10.2303
▁plu	-10.2307
▁bush	-10.2307
▁note	-10.2317
▁du	-10.2318
▁traveler	-10.2319
▁pu	-10.2321
▁trans	-10.2344
▁boom	-10.2349
▁title	-10.2351
▁rocking	-10.2371
▁colors	-10.2371
that	-10.2373
ton	-10.2374
▁dealing	-10.2381
▁designs	-10.2392
▁bert	-10.2395
tha	-10.241
▁argue	-10.2412
▁counting	-10.2443
▁sp	-10.2457
▁sounding	-10.2458
▁opens	-10.246
away	-10.2468
▁chickens	-10.2478
▁host	-10.2478
ions	-10.2481
▁stas	-10.2492
▁bags	-10.2502
▁beats	-10.252
▁resist	-10.2539
▁deb	-10.2539
▁dish	-10.2569
▁cruise	-10.2579
well	-10.2584
▁bob	-10.2589
▁idiots	-10.2605
▁boil	-10.2606
▁gang	-10.2623
▁fre	-10.2646
▁fore	-10.2647
▁ships	-10.2654
▁wishing	-10.2662
▁spirits	-10.267
▁gal	-10.2708
▁ease	-10.2724
▁dee	-10.274
▁await	-10.2743
▁nu	-10.2746
▁missy	-10.2749
let	-10.2765
rand	-10.2775
ard	-10.2785
hoo	-10.2828
▁wander	-10.2848
▁pan	-10.286
▁pile	-10.2863
▁becomes	-10.2878
▁rivers	-10.2879
▁houses	-10.2884
▁file	-10.2913
surely	-10.2914
▁voices	-10.2918
▁pet	-10.2921
▁pitch	-10.2924
hey	-10.2966
▁ms	-10.297
▁bur	-10.2971
▁lu	-10.3018
ities	-10.302
ors	-10.3026
be	-10.3049
▁saf	-10.3052
berry	-10.3057
▁fake	-10.3066
ations	-10.31
bed	-10.3108
▁jam	-10.3132
room	-10.3138
gging	-10.315
▁cheat	-10.3162
▁ed	-10.3165
▁custom	-10.3171
▁scar	-10.3177
▁pr	-10.3179
youre	-10.3183
ending	-10.3186
▁keeps	-10.32
guy	-10.3201
▁sees	-10.3205
▁leak	-10.3219
▁gu	-10.3229
▁pour	-10.323
ati	-10.324
▁pur	-10.3248
coat	-10.326
▁sigh	-10.3261
▁unit	-10.3283
▁monk	-10.3291
▁apartment	-10.3294
▁fence	-10.3298
▁bud	-10.3298
▁peanut	-10.3303
▁prophet	-10.3305
▁mammoth	-10.3308
▁reputation	-10.3308
▁neighbor	-10.331
▁vessel	-10.3311
▁victim	-10.3312
▁reservation	-10.3313
▁frog	-10.3313
▁girlfriend	-10.3315
▁mid	-10.3317
▁meerkat	-10.3317
▁soldier	-10.3319
▁counts	-10.332
▁maiden	-10.3321
▁program	-10.3321
▁youngster	-10.3324
▁beside	-10.3326
▁sailor	-10.3329
od	-10.3329
▁dodo	-10.3331
▁iove	-10.3333
▁ghoul	-10.3334
▁poison	-10.3351
▁hunter	-10.3352
▁term	-10.3354
▁tribe	-10.3357
▁page	-10.3366
▁mu	-10.3368
ley	-10.3376
new	-10.3382
vice	-10.3383
▁yard	-10.3392
▁click	-10.3392
ring	-10.3395
▁cub	-10.3396
▁require	-10.34
▁desire	-10.3405
▁neglect	-10.3406
▁crush	-10.3408
▁constant	-10.3424
▁actual	-10.3425
▁exact	-10.3425
▁cind	-10.3426
▁concern	-10.3426
gged	-10.3427
▁reno	-10.3431
▁threat	-10.3433
▁cunning	-10.3435
▁annoying	-10.3435
▁antidote	-10.3435
▁calcite	-10.3435
▁convict	-10.3435
▁cormoran	-10.3435
▁disguise	-10.3435
▁downstream	-10.3435
▁francisco	-10.3435
▁frozen	-10.3435
▁headquarters	-10.3435
▁masahiko	-10.3435
▁monaghan	-10.3435
▁monsieur	-10.3435
▁periscope	-10.3435
▁pheasant	-10.3435
▁porett	-10.3435
▁privilege	-10.3435
▁procedure	-10.3435
▁pulido	-10.3435
▁sedgewick	-10.3435
▁spaghetti	-10.3435
▁tattoo	-10.3435
▁technique	-10.3435
▁thursday	-10.3435
▁toothbrush	-10.3435
▁tragedy	-10.3435
▁valuable	-10.3435
▁whirring	-10.3435
▁anzio	-10.3435
▁capital	-10.3435
▁chariot	-10.3435
▁communicate	-10.3435
▁compartment	-10.3435
▁interview	-10.3435
▁keegan	-10.3435
▁mdana	-10.3435
▁technology	-10.3435
▁explosive	-10.3435
▁television	-10.3435
▁bargain	-10.3435
▁dainty	-10.3435
▁loneliness	-10.3435
▁vidia	-10.3435
▁inheritance	-10.3435
▁proceed	-10.3435
▁teedle	-10.3435
▁perros	-10.3435
▁understood	-10.3435
▁relief	-10.3435
▁scotland	-10.3435
▁transfer	-10.3435
▁wilderness	-10.3435
▁gorgeous	-10.3435
▁griffen	-10.3435
▁wolves	-10.3435
▁brianna	-10.3435
▁chittering	-10.3435
▁acquaintance	-10.3435
▁lawyer	-10.3435
▁forbidden	-10.3435
▁submarine	-10.3435
▁miserable	-10.3435
▁bounty	-10.3435
▁tomato	-10.3435
▁rainbow	-10.3435
▁cliff	-10.3435
▁plastic	-10.3435
▁kathy	-10.3435
▁cutlass	-10.3435
▁orphanage	-10.3435
▁chalk	-10.3435
▁alert	-10.3435
▁internet	-10.3435
▁envy	-10.3435
▁monarch	-10.3435
▁albright	-10.3435
▁average	-10.3435
▁christian	-10.3435
▁operator	-10.3435
▁denver	-10.3435
▁romance	-10.3435
▁underwater	-10.3435
▁punishment	-10.3435
▁representation	-10.3436
▁unhappy	-10.3436
▁babysitter	-10.3436
▁pocket	-10.3436
▁toymaker	-10.3436
▁gwen	-10.3436
▁chanting	-10.3436
▁humor	-10.3436
▁failure	-10.3436
▁mumbling	-10.3436
▁altar	-10.3436
▁attractive	-10.3436
▁conductor	-10.3436
▁behavior	-10.3437
▁harsh	-10.3437
▁myth	-10.3437
▁global	-10.3437
▁piace	-10.3437
▁straw	-10.3437
▁lousy	-10.3437
▁salmon	-10.3437
▁wailing	-10.3437
▁depiction	-10.3437
▁struggling	-10.3437
▁collection	-10.3437
▁iife	-10.3438
▁supper	-10.3438
▁herman	-10.3438
▁hunk	-10.3438
▁occasionally	-10.3438
▁scramble	-10.3438
▁captive	-10.3438
▁compass	-10.3439
▁passage	-10.3439
▁spain	-10.344
▁license	-10.344
▁terror	-10.344
▁stealth	-10.3441
▁peaks	-10.3441
▁thou	-10.3441
▁presentation	-10.3442
▁ieave	-10.3442
▁galina	-10.3442
▁shade	-10.3442
▁passenger	-10.3443
▁accused	-10.3443
▁celebrating	-10.3443
▁pilot	-10.3443
▁mattie	-10.3444
▁merely	-10.3446
▁lira	-10.3446
▁heir	-10.3446
▁elegant	-10.3446
▁arrangements	-10.3446
▁bricka	-10.3447
▁revealed	-10.3447
▁province	-10.3447
▁nasty	-10.3448
▁disgusting	-10.3448
▁cried	-10.3448
▁flies	-10.3449
▁stopping	-10.3449
▁whooping	-10.345
▁exhausted	-10.345
▁groom	-10.345
▁burst	-10.345
▁intention	-10.345
▁fuse	-10.3452
▁yuri	-10.3452
▁caroline	-10.3452
▁mayday	-10.3452
▁intended	-10.3453
▁particularly	-10.3453
▁etta	-10.3453
▁cries	-10.3454
▁aquarium	-10.3454
▁secure	-10.3454
▁solved	-10.3455
▁broad	-10.3456
▁forgetting	-10.3457
▁barrel	-10.3457
▁legal	-10.3459
▁unto	-10.346
▁luo	-10.346
▁delighted	-10.346
▁actor	-10.346
▁insult	-10.3461
▁lode	-10.3461
▁harmony	-10.3462
▁tourists	-10.3464
▁backstage	-10.3465
thetic	-10.3466
▁factory	-10.3466
▁breed	-10.3466
▁twist	-10.3467
▁ballet	-10.3467
▁bien	-10.3468
▁brat	-10.3469
▁shootin	-10.3471
▁developed	-10.3473
▁howling	-10.3473
▁edge	-10.3473
▁arrow	-10.3474
▁melod	-10.3476
▁plot	-10.3477
▁brad	-10.348
▁hollow	-10.3482
▁coconuts	-10.3482
▁hounds	-10.3482
▁useful	-10.3484
▁greatness	-10.3487
▁code	-10.349
▁sinking	-10.349
▁zoom	-10.3491
▁walkin	-10.3492
▁labor	-10.3492
▁sincere	-10.3493
▁blessed	-10.3494
▁mood	-10.3494
▁healthy	-10.3495
ong	-10.3495
▁sonar	-10.35
▁pinch	-10.3501
▁rescued	-10.3505
ward	-10.3505
▁swan	-10.3506
▁completed	-10.3508
▁crawl	-10.351
▁reign	-10.3511
▁shortly	-10.3511
▁jr	-10.3512
▁dearest	-10.3512
▁delivered	-10.3513
▁inner	-10.3518
▁slice	-10.3519
▁coyotes	-10.3519
▁permit	-10.3524
▁border	-10.3529
▁odds	-10.3534
▁terms	-10.3535
▁nephews	-10.3538
▁thuds	-10.3538
▁weary	-10.3541
▁prayed	-10.3545
▁pretending	-10.3546
▁pant	-10.3546
▁realm	-10.3546
▁ioves	-10.355
▁spill	-10.355
▁talkin	-10.3556
▁manure	-10.3556
▁shat	-10.3557
▁sailors	-10.3558
▁youngsters	-10.3558
▁units	-10.3561
▁dave	-10.3561
▁apple	-10.3568
▁mushrooms	-10.3575
▁oldest	-10.3578
▁searched	-10.3582
▁wonderfully	-10.3583
▁prints	-10.3585
▁butt	-10.3587
▁prayers	-10.3588
▁cycle	-10.359
▁discover	-10.3595
▁murderers	-10.3604
▁noone	-10.3605
sighing	-10.3605
▁fixing	-10.3606
rising	-10.361
▁builder	-10.3614
▁manners	-10.3614
▁grounded	-10.3614
▁accounts	-10.3614
▁reached	-10.362
▁hee	-10.3627
▁selling	-10.3628
▁trunks	-10.3629
▁pushing	-10.3633
▁identif	-10.3646
▁rabbits	-10.3649
▁tied	-10.3657
▁devour	-10.3659
▁su	-10.3669
▁cows	-10.3672
▁lively	-10.3674
▁ay	-10.369
▁ke	-10.3695
co	-10.3698
▁clawd	-10.3715
▁badly	-10.3721
▁jin	-10.3729
▁national	-10.3729
just	-10.3735
▁crash	-10.3743
▁caller	-10.3754
ou	-10.3756
lets	-10.376
▁down	-10.3771
▁sl	-10.3775
▁hundreds	-10.378
▁vital	-10.379
▁ton	-10.3796
▁images	-10.3798
▁sallys	-10.3806
iah	-10.3808
▁whistles	-10.3811
▁snuff	-10.382
▁pm	-10.3825
ixie	-10.3829
▁mistakes	-10.3845
ome	-10.3845
▁oceans	-10.3856
un	-10.3873
▁giants	-10.3888
▁dash	-10.3893
▁char	-10.3899
▁z	-10.3909
▁te	-10.3914
▁treasures	-10.3925
▁opened	-10.3925
▁lands	-10.3937
ably	-10.3944
▁detectives	-10.3947
▁checking	-10.397
wa	-10.3971
put	-10.3979
▁darlings	-10.4002
▁ned	-10.4005
▁gain	-10.4006
▁catching	-10.4017
▁remo	-10.4028
▁picking	-10.4029
▁lied	-10.4043
▁ahhh	-10.4062
▁listened	-10.4067
▁contain	-10.4074
▁skates	-10.4081
▁prov	-10.4102
▁dates	-10.4111
▁jumps	-10.4128
▁shown	-10.4142
ical	-10.4157
▁restaurants	-10.419
▁rip	-10.4227
not	-10.4237
▁playful	-10.4255
▁rih	-10.4259
▁rhythm	-10.4269
its	-10.4273
nsible	-10.4281
▁pl	-10.4281
▁har	-10.4286
ap	-10.4318
▁confess	-10.4322
▁roast	-10.4328
▁seal	-10.4334
▁drain	-10.4349
▁tub	-10.4357
▁sle	-10.4381
op	-10.4381
owns	-10.4399
iy	-10.4409
▁tip	-10.4435
▁mer	-10.4445
good	-10.4446
▁echo	-10.4464
ez	-10.4468
▁ru	-10.4474
▁sos	-10.4503
▁ar	-10.4513
▁limit	-10.4517
▁thirt	-10.4528
mine	-10.4531
▁rm	-10.4532
▁cookie	-10.4549
▁ka	-10.4555
▁begg	-10.4556
ture	-10.4557
▁cases	-10.4596
▁goal	-10.4602
mp	-10.4617
▁stops	-10.4645
how	-10.4649
▁talks	-10.465
icken	-10.4654
ives	-10.466
▁hon	-10.4665
lic	-10.4665
▁beds	-10.4676
going	-10.4678
▁demo	-10.469
▁slap	-10.469
▁bri	-10.4697
ad	-10.4717
ove	-10.4735
▁tr	-10.4749
▁mow	-10.4758
▁loyal	-10.4782
▁critic	-10.4791
ins	-10.4812
malenkaya	-10.4852
ku	-10.4855
▁workshop	-10.487
▁tim	-10.4891
about	-10.4892
▁hug	-10.4897
▁poop	-10.491
▁shee	-10.4917
ol	-10.4928
even	-10.493
ns	-10.4932
▁delay	-10.4934
▁princes	-10.4948
▁basic	-10.4955
▁breeze	-10.4957
▁clerk	-10.4958
known	-10.497
▁vulture	-10.4975
▁shadow	-10.4978
▁towel	-10.498
▁nephew	-10.4981
▁quarter	-10.4982
▁thud	-10.4983
▁squa	-10.4985
▁odd	-10.4989
▁brick	-10.4994
▁chop	-10.4996
▁plate	-10.5008
▁mmhm	-10.5009
▁root	-10.5014
rous	-10.5015
▁clue	-10.5024
▁sadi	-10.5038
▁skateboard	-10.5052
▁rev	-10.5056
▁cared	-10.506
▁den	-10.506
▁scratch	-10.5061
▁dump	-10.5063
▁attract	-10.5065
ets	-10.5069
▁declare	-10.5069
▁accomplish	-10.5075
▁tweet	-10.5076
▁dec	-10.5078
▁borrow	-10.5078
▁fulfill	-10.508
ina	-10.508
▁thrill	-10.5084
▁german	-10.5089
▁chose	-10.5091
▁christ	-10.5091
▁solve	-10.5093
▁contract	-10.5099
▁director	-10.51
▁represent	-10.5101
▁favour	-10.5101
▁abbey	-10.5101
▁april	-10.5101
▁atlantis	-10.5101
▁awkward	-10.5101
▁bonanza	-10.5101
▁caliph	-10.5101
▁cetera	-10.5101
▁champlaine	-10.5101
▁choochoo	-10.5101
▁condemned	-10.5101
▁corpse	-10.5101
▁ethiopia	-10.5101
▁greatgranddad	-10.5101
▁harufa	-10.5101
▁hortensia	-10.5101
▁instinct	-10.5101
▁jealous	-10.5101
▁jethro	-10.5101
▁korda	-10.5101
▁landscape	-10.5101
▁october	-10.5101
▁parkwold	-10.5101
▁ratatouille	-10.5101
▁reindeer	-10.5101
▁rochelle	-10.5101
▁rodrigo	-10.5101
▁russell	-10.5101
▁scientific	-10.5101
▁sorcerers	-10.5101
▁stonecutter	-10.5101
▁sunshine	-10.5101
▁tokyo	-10.5101
▁dialect	-10.5101
▁dignity	-10.5101
▁grifter	-10.5101
▁rearrange	-10.5101
▁reunion	-10.5101
▁skelita	-10.5101
▁specific	-10.5101
▁ancestors	-10.5101
▁buffalo	-10.5101
▁insane	-10.5101
▁sidney	-10.5101
▁adorable	-10.5101
▁exhibit	-10.5101
▁oceanview	-10.5101
▁vincenty	-10.5101
▁willory	-10.5101
▁monteria	-10.5101
▁strict	-10.5101
▁destiny	-10.5101
▁ceiling	-10.5101
▁expert	-10.5101
▁kyle	-10.5101
▁offense	-10.5101
▁apology	-10.5101
▁arctic	-10.5101
▁jeez	-10.5101
▁mumbles	-10.5102
▁central	-10.5102
▁crossbow	-10.5102
▁authority	-10.5102
▁downtown	-10.5102
▁assistant	-10.5102
▁pronounce	-10.5102
▁coronation	-10.5102
▁verdes	-10.5102
▁favourite	-10.5102
▁eloise	-10.5102
▁pulse	-10.5102
▁conversation	-10.5102
▁medicine	-10.5102
▁villemont	-10.5102
▁deuce	-10.5102
▁inspiration	-10.5102
▁astrologers	-10.5102
▁powder	-10.5102
▁sugar	-10.5102
▁unpack	-10.5102
▁receptionist	-10.5102
▁grief	-10.5102
▁fairchild	-10.5102
▁judgment	-10.5102
▁byebye	-10.5102
▁transformation	-10.5102
▁feature	-10.5102
▁presum	-10.5102
▁jaak	-10.5102
▁oniy	-10.5102
▁location	-10.5102
▁modest	-10.5102
▁massive	-10.5102
▁hinu	-10.5102
▁ghoulia	-10.5102
▁valleyville	-10.5102
▁supply	-10.5102
▁marcus	-10.5102
▁skateoff	-10.5102
▁crump	-10.5102
▁salvation	-10.5102
▁polite	-10.5102
▁copies	-10.5103
▁hughes	-10.5103
▁passport	-10.5103
▁garna	-10.5103
▁silent	-10.5103
▁dominion	-10.5103
▁policy	-10.5103
▁elsewhere	-10.5103
▁responsibility	-10.5103
▁mmmhmm	-10.5103
▁saloon	-10.5103
▁arrival	-10.5103
▁loser	-10.5103
▁attraction	-10.5103
▁bicycle	-10.5103
▁warden	-10.5103
▁sabelotodo	-10.5103
▁ceremony	-10.5104
▁canada	-10.5104
▁farewell	-10.5104
▁hurray	-10.5104
▁online	-10.5104
fron	-10.5104
▁publicity	-10.5104
▁combined	-10.5104
▁balance	-10.5104
▁rags	-10.5104
▁appointment	-10.5104
▁species	-10.5104
▁misery	-10.5105
▁stripped	-10.5105
▁rescuing	-10.5105
▁gigi	-10.5105
▁bongo	-10.5105
▁savannah	-10.5105
▁introduction	-10.5105
▁rapid	-10.5106
▁baboon	-10.5106
▁countryside	-10.5107
▁cmon	-10.5107
▁critical	-10.5107
▁guardian	-10.5107
▁conceal	-10.5107
▁series	-10.5107
▁begun	-10.5107
▁unlock	-10.5107
▁spray	-10.5107
▁sundown	-10.5108
▁grouch	-10.5108
▁finster	-10.5108
▁amazed	-10.5109
▁freezing	-10.5109
▁homesick	-10.5109
▁camper	-10.5109
▁predict	-10.511
▁spider	-10.511
▁caption	-10.511
▁relieved	-10.511
▁tsk	-10.511
▁digging	-10.511
▁admire	-10.511
▁warmth	-10.511
▁personality	-10.5111
▁waaah	-10.5111
▁engaged	-10.5112
▁ribs	-10.5112
▁convince	-10.5112
▁waist	-10.5112
▁ridge	-10.5112
▁steer	-10.5113
▁zachar	-10.5113
▁heels	-10.5114
▁vegetables	-10.5114
▁dove	-10.5115
▁grade	-10.5116
▁untie	-10.5116
▁pinging	-10.5116
▁squealing	-10.5116
▁guts	-10.5116
▁lazy	-10.5117
▁bedtime	-10.5117
▁judea	-10.5118
▁knowledge	-10.5118
▁coco	-10.5118
▁cutting	-10.5118
▁slight	-10.5118
▁sonny	-10.512
▁gar	-10.5121
▁lizard	-10.5122
▁largest	-10.5123
▁daylight	-10.5123
▁fever	-10.5123
▁navy	-10.5124
▁satisfied	-10.5124
▁veno	-10.5125
▁chin	-10.5125
▁formal	-10.5126
▁restored	-10.5126
▁smoking	-10.5126
▁beaton	-10.5126
▁spies	-10.5127
▁borrowed	-10.5127
▁neigh	-10.5127
▁babushka	-10.5128
▁shaft	-10.5128
▁motion	-10.5129
▁fog	-10.513
▁equally	-10.513
▁promotion	-10.513
▁reasonable	-10.5132
▁fourth	-10.5133
▁product	-10.5133
▁leather	-10.5134
▁scary	-10.5134
▁inspired	-10.5137
▁curls	-10.5137
▁drowned	-10.5138
▁wandering	-10.514
▁freak	-10.5141
▁cowell	-10.5141
▁photograph	-10.5141
▁divided	-10.5141
▁comic	-10.5143
▁locker	-10.5145
▁seaman	-10.5146
▁useless	-10.5146
▁surrounded	-10.5147
▁yeow	-10.5147
▁doggie	-10.5148
▁raw	-10.5148
▁skilled	-10.515
▁coughs	-10.5153
▁howdy	-10.5153
▁whoops	-10.5153
▁tense	-10.5154
▁muffler	-10.5156
▁practicing	-10.5156
▁instructions	-10.5158
▁yawn	-10.5159
▁failing	-10.516
▁moments	-10.5162
▁meter	-10.5162
▁compared	-10.5165
▁western	-10.5165
ving	-10.5166
▁extend	-10.5167
▁belief	-10.5167
▁dna	-10.5168
▁butcher	-10.5169
▁site	-10.5169
▁dew	-10.5171
▁rice	-10.5174
▁repairs	-10.5174
▁cracking	-10.5175
▁isle	-10.5179
▁highlands	-10.5181
▁awaits	-10.5182
▁mistaken	-10.5183
▁chat	-10.5184
▁spice	-10.5186
▁blown	-10.5188
▁chilling	-10.5191
▁hearing	-10.5196
▁yearold	-10.5197
▁spreading	-10.5198
▁tiller	-10.52
▁muscles	-10.5201
▁dial	-10.5202
▁affairs	-10.5202
▁blankets	-10.5202
▁crocodiles	-10.5202
▁ouch	-10.5204
▁bury	-10.5204
▁ideal	-10.5208
▁marching	-10.5209
▁keen	-10.521
▁bra	-10.521
▁retire	-10.5212
▁escaped	-10.5213
▁fred	-10.5216
▁bricks	-10.5227
pped	-10.5227
ming	-10.5234
▁loom	-10.5242
▁lookout	-10.5246
▁maidens	-10.5247
▁reservations	-10.5247
les	-10.5247
▁victims	-10.5247
▁helpless	-10.525
▁hose	-10.5254
▁differently	-10.5259
ir	-10.526
▁campers	-10.5268
▁generations	-10.5269
▁breathing	-10.5274
mo	-10.5287
▁damned	-10.5288
▁buttons	-10.5288
▁pickle	-10.5288
▁chain	-10.529
▁oksanochka	-10.529
▁scales	-10.5291
▁wondered	-10.5292
▁fooled	-10.5293
▁penalt	-10.5295
▁herds	-10.5301
▁shared	-10.5304
▁comb	-10.5309
▁dated	-10.5311
▁alley	-10.5312
▁cracks	-10.5314
▁chew	-10.5334
▁targets	-10.5335
▁fond	-10.5343
▁offering	-10.5351
▁iv	-10.5351
▁workers	-10.5353
▁gunshots	-10.5358
▁eel	-10.5358
▁soften	-10.536
▁picky	-10.5365
▁wee	-10.5367
▁link	-10.5368
▁mount	-10.5386
▁bathe	-10.5389
▁successful	-10.539
▁cleaner	-10.539
▁gay	-10.5394
ito	-10.5397
▁cur	-10.54
▁bum	-10.54
▁demands	-10.5403
▁county	-10.541
▁closes	-10.541
▁sic	-10.5417
▁trained	-10.5424
▁bond	-10.5431
▁mum	-10.544
some	-10.5441
▁jackass	-10.5456
▁princesses	-10.5457
▁blocks	-10.5462
▁sacr	-10.5462
▁appears	-10.5492
▁stuffed	-10.5495
ating	-10.5501
▁approve	-10.5504
▁remains	-10.5511
stage	-10.5539
▁self	-10.5547
▁counter	-10.555
▁bombs	-10.5559
▁hebrews	-10.5581
▁noses	-10.5593
▁fellows	-10.5603
▁includ	-10.5609
▁poster	-10.5617
limited	-10.5621
national	-10.5621
ries	-10.5644
wood	-10.5652
ast	-10.5657
▁medica	-10.5658
corn	-10.5666
▁coo	-10.5675
ux	-10.5681
▁rely	-10.5681
rvis	-10.5689
▁chi	-10.569
ni	-10.5699
▁finer	-10.5717
▁chill	-10.574
▁kn	-10.5744
ction	-10.5753
▁erase	-10.5757
▁ding	-10.5761
▁wins	-10.5764
▁mouths	-10.5768
▁oreg	-10.5779
▁services	-10.5781
ren	-10.58
▁holes	-10.5803
lly	-10.581
▁promote	-10.5818
vy	-10.582
nah	-10.5826
▁sil	-10.5835
ac	-10.5861
▁dancer	-10.5891
nder	-10.5894
▁juli	-10.591
▁flash	-10.5931
▁husk	-10.5952
▁venture	-10.5963
▁heal	-10.5988
▁fe	-10.6011
ogue	-10.6013
▁u	-10.6017
▁mob	-10.6044
▁unh	-10.605
▁will	-10.6063
▁joes	-10.6078
olic	-10.6091
uc	-10.6122
▁wha	-10.6124
book	-10.6142
▁condo	-10.615
▁ann	-10.6155
▁mor	-10.6166
▁mask	-10.6168
▁rains	-10.6173
▁tee	-10.6178
▁gamble	-10.6194
▁kin	-10.6198
▁kim	-10.6207
▁ge	-10.6232
ue	-10.6235
▁ki	-10.6238
▁tables	-10.624
▁just	-10.624
▁hurts	-10.625
▁fame	-10.6255
▁lash	-10.6265
marine	-10.6269
▁sep	-10.6288
▁y	-10.6289
▁cans	-10.6317
ikk	-10.632
▁cooks	-10.632
▁hu	-10.6332
▁stall	-10.6337
▁dos	-10.6338
light	-10.6354
▁fang	-10.6361
eyed	-10.6373
ping	-10.6377
▁marys	-10.6378
▁ammo	-10.6389
hes	-10.639
ten	-10.6414
ul	-10.643
▁suck	-10.6437
liness	-10.6445
work	-10.645
▁asks	-10.6451
▁sensation	-10.6452
▁hates	-10.6474
▁weed	-10.6475
▁pit	-10.6476
eva	-10.6476
▁strain	-10.6504
▁marks	-10.6528
zing	-10.655
mi	-10.6586
ulations	-10.6597
shed	-10.6603
kate	-10.6622
▁tin	-10.6677
vious	-10.6684
▁polk	-10.6691
oda	-10.67
▁mis	-10.6724
▁bump	-10.6732
▁scen	-10.6744
ball	-10.6745
tor	-10.6757
boy	-10.6773
▁def	-10.6783
▁er	-10.6804
▁balls	-10.6809
arious	-10.6815
burn	-10.6819
▁chas	-10.6833
▁ve	-10.6858
▁clip	-10.6865
oksanochka	-10.6871
iest	-10.6876
box	-10.6877
▁terribl	-10.6883
▁sur	-10.6885
dog	-10.6897
▁riches	-10.6931
mexic	-10.6936
so	-10.694
ned	-10.6944
fare	-10.6946
▁region	-10.6948
▁uhuh	-10.6954
▁exercise	-10.6957
▁fold	-10.6957
▁sculpture	-10.6957
ummy	-10.6957
much	-10.6957
▁stink	-10.696
▁noon	-10.6965
▁classic	-10.6966
▁magazine	-10.6969
▁bastard	-10.6969
▁material	-10.6969
ellow	-10.697
▁particle	-10.697
▁compliment	-10.6979
▁crocodile	-10.6979
▁affair	-10.698
▁blanket	-10.698
▁coyote	-10.6981
wed	-10.6981
▁muscle	-10.6982
▁blade	-10.6983
▁opera	-10.6984
▁counselor	-10.6984
▁spur	-10.6987
▁fee	-10.6991
▁glowin	-10.6992
▁breaks	-10.6999
▁err	-10.7013
▁twin	-10.7015
▁ob	-10.7016
▁butch	-10.7021
▁shock	-10.7029
▁height	-10.7033
▁flip	-10.7033
▁india	-10.7033
▁strip	-10.7035
▁broom	-10.7048
▁flood	-10.705
▁greet	-10.7059
▁chances	-10.7065
▁bor	-10.7067
▁rob	-10.707
▁grieve	-10.7071
hand	-10.7071
▁describe	-10.7072
▁abandon	-10.7072
▁preserve	-10.7072
▁defeat	-10.7075
▁intend	-10.7076
▁convent	-10.7078
▁impress	-10.7079
▁conquer	-10.7079
▁punish	-10.708
▁restore	-10.7082
▁deny	-10.7083
▁lightning	-10.7085
▁sandwich	-10.7087
▁saving	-10.7087
▁guilt	-10.7088
ked	-10.7088
▁familia	-10.709
▁extreme	-10.709
eemed	-10.7091
▁unfortunate	-10.7091
burg	-10.7091
▁fr	-10.7095
▁endure	-10.7096
▁govern	-10.7097
▁interpret	-10.71
▁tutt	-10.7101
▁jelly	-10.7101
▁agatha	-10.7101
▁antarctica	-10.7101
▁australia	-10.7101
▁available	-10.7101
▁barbecue	-10.7101
▁bronze	-10.7101
▁bucephalus	-10.7101
▁character	-10.7101
▁chiyoko	-10.7101
▁clumsy	-10.7101
▁destined	-10.7101
▁dungeon	-10.7101
▁dwarf	-10.7101
▁effect	-10.7101
▁elidorus	-10.7101
▁elodie	-10.7101
▁ernestina	-10.7101
▁eskimo	-10.7101
▁fernando	-10.7101
▁furniture	-10.7101
▁helpseeker	-10.7101
▁invisible	-10.7101
▁irritating	-10.7101
▁marduk	-10.7101
▁mathilde	-10.7101
▁merchant	-10.7101
▁monument	-10.7101
▁morillon	-10.7101
▁moscow	-10.7101
▁neumann	-10.7101
▁pafuri	-10.7101
▁rudder	-10.7101
▁scoundrel	-10.7101
▁squirrel	-10.7101
▁supernatural	-10.7101
▁symmetry	-10.7101
▁treacherous	-10.7101
▁ulido	-10.7101
▁volauvent	-10.7101
▁wednesday	-10.7101
▁yippyyippyyay	-10.7101
▁yunque	-10.7101
▁administ	-10.7101
▁constance	-10.7101
▁demonstrate	-10.7101
▁footsteps	-10.7101
▁formula	-10.7101
▁gypsy	-10.7101
▁illinois	-10.7101
▁observation	-10.7101
▁prague	-10.7101
▁troubie	-10.7101
▁apologies	-10.7101
▁autograph	-10.7101
▁combination	-10.7101
▁dawg	-10.7101
▁elements	-10.7101
▁grateful	-10.7101
▁heavily	-10.7101
▁philip	-10.7101
▁simmons	-10.7101
▁sensitive	-10.7101
▁studies	-10.7101
▁broadcast	-10.7101
▁bullseye	-10.7101
▁equator	-10.7101
▁ooph	-10.7101
▁turkey	-10.7101
▁debbie	-10.7101
▁harbor	-10.7101
▁jerome	-10.7101
▁melvin	-10.7101
▁wisdom	-10.7101
▁exploding	-10.7101
▁adventurous	-10.7101
▁automation	-10.7101
▁dumplings	-10.7101
▁antler	-10.7101
▁mutiny	-10.7101
▁washington	-10.7101
▁fortress	-10.7101
▁surroyal	-10.7101
▁easiest	-10.7101
▁meteor	-10.7101
▁granddaughter	-10.7102
▁presley	-10.7102
▁ramsey	-10.7102
▁banana	-10.7102
▁civilization	-10.7102
▁subtle	-10.7102
▁honeymoon	-10.7102
▁gesture	-10.7102
▁anticipation	-10.7102
▁barani	-10.7102
▁pacific	-10.7102
▁hahaha	-10.7102
▁herbie	-10.7102
▁rosanna	-10.7102
▁purple	-10.7102
▁winslow	-10.7102
▁exchange	-10.7102
▁value	-10.7102
▁railroad	-10.7102
quila	-10.7102
▁teddy	-10.7102
▁rosemary	-10.7102
▁mademoiselle	-10.7102
▁sinai	-10.7102
▁tixo	-10.7102
▁widow	-10.7102
▁contrary	-10.7102
▁jib	-10.7102
▁airplane	-10.7102
▁david	-10.7102
▁shipmate	-10.7102
▁mural	-10.7102
▁pillow	-10.7102
▁sunrise	-10.7102
▁interpretation	-10.7103
▁memories	-10.7103
▁campbell	-10.7103
▁cradle	-10.7103
▁robbed	-10.7103
▁ultimately	-10.7103
▁motel	-10.7103
▁angus	-10.7103
▁onboard	-10.7103
▁onward	-10.7103
▁flute	-10.7103
while	-10.7103
▁complicated	-10.7103
▁hooves	-10.7103
▁rudy	-10.7103
▁mallet	-10.7103
▁michelle	-10.7103
▁dumpster	-10.7103
▁slumber	-10.7103
▁ruff	-10.7103
▁illegal	-10.7104
▁foolishness	-10.7104
▁clever	-10.7104
▁messenger	-10.7104
▁whining	-10.7104
▁gnarly	-10.7104
▁porch	-10.7104
▁unseen	-10.7104
▁oldfashioned	-10.7104
▁stiff	-10.7104
▁commissioner	-10.7105
▁fatigued	-10.7105
▁maintain	-10.7105
▁nancy	-10.7105
▁hermit	-10.7105
▁pomp	-10.7105
▁text	-10.7105
▁cuff	-10.7105
▁slide	-10.7105
▁grandson	-10.7105
▁striking	-10.7105
▁oath	-10.7105
▁haunted	-10.7106
▁peek	-10.7106
▁copper	-10.7106
▁potatoes	-10.7106
▁breast	-10.7106
▁audition	-10.7106
▁awoo	-10.7107
▁kidnapping	-10.7107
▁settlement	-10.7107
▁doomed	-10.7107
▁pork	-10.7107
▁poaching	-10.7107
▁surprising	-10.7108
▁statement	-10.7108
▁matri	-10.7108
▁shaking	-10.7108
▁mustache	-10.7108
▁gross	-10.7108
▁lepers	-10.7109
▁titi	-10.7109
▁petting	-10.7109
▁slim	-10.711
▁whiskey	-10.711
▁prettier	-10.711
▁seventy	-10.711
▁documents	-10.711
▁affection	-10.7111
▁twig	-10.7111
▁schoolhouse	-10.7111
tuary	-10.7111
▁tossed	-10.7112
▁priest	-10.7112
▁coffin	-10.7112
▁cities	-10.7112
▁mouse	-10.7113
▁astronomy	-10.7113
▁extremely	-10.7113
▁beets	-10.7113
▁shook	-10.7113
▁reception	-10.7113
▁revol	-10.7114
▁alongside	-10.7115
▁deadline	-10.7115
▁dreadful	-10.7116
▁blinking	-10.7116
▁threatened	-10.7116
▁infern	-10.7116
▁disturbed	-10.7117
▁rita	-10.7117
▁critters	-10.7117
▁accusations	-10.7118
▁constantly	-10.7118
▁humanity	-10.7118
▁scratches	-10.7118
▁rude	-10.7118
▁passion	-10.7119
▁soil	-10.7119
▁reverse	-10.7121
▁wimp	-10.7121
▁science	-10.7122
▁james	-10.7123
▁narrow	-10.7123
▁fraud	-10.7124
▁beak	-10.7124
▁collector	-10.7125
▁inventor	-10.7125
▁villagers	-10.7125
▁rebuild	-10.7126
▁heap	-10.7126
▁skimmer	-10.7126
▁familys	-10.7127
hora	-10.7127
▁thor	-10.7128
▁award	-10.7128
▁defeated	-10.7128
ario	-10.7129
▁upper	-10.713
▁discovery	-10.7131
▁suggestion	-10.7131
▁phon	-10.7131
▁stove	-10.7131
▁rejecting	-10.7133
▁directly	-10.7133
▁fivepointnine	-10.7133
▁organize	-10.7134
▁section	-10.7136
▁jud	-10.7138
▁maxwell	-10.714
▁pigs	-10.7143
▁jumpin	-10.7143
▁colleagues	-10.7144
▁shutters	-10.7146
renown	-10.7146
air	-10.7146
uvre	-10.7148
▁creep	-10.7149
▁waking	-10.7149
▁crashing	-10.7149
▁fuel	-10.715
▁beans	-10.7151
▁tank	-10.7151
▁greed	-10.7151
▁suspected	-10.7152
▁anchor	-10.7153
▁pursue	-10.7154
▁inc	-10.7155
▁dough	-10.7155
▁hopeless	-10.7156
▁pouring	-10.7157
▁knot	-10.7157
▁charm	-10.7157
▁tow	-10.7158
▁collected	-10.7158
▁clay	-10.716
▁advanced	-10.7162
▁locke	-10.7163
▁bribe	-10.7164
▁comment	-10.7165
▁package	-10.7165
▁sheets	-10.7166
▁brakes	-10.7167
▁maxim	-10.7167
▁tape	-10.7168
▁pointers	-10.7168
▁assess	-10.7169
▁crucial	-10.717
▁vase	-10.7171
▁gorillas	-10.7172
▁floating	-10.7172
▁hawk	-10.7172
injured	-10.7172
▁alike	-10.7178
▁pistol	-10.7181
ks	-10.7182
▁approaching	-10.7182
▁studying	-10.7182
▁shit	-10.7183
▁waits	-10.7184
▁recorded	-10.7189
▁exit	-10.7197
vinci	-10.7198
▁poachers	-10.7199
▁clothing	-10.7201
▁sitter	-10.7202
▁rath	-10.7203
▁glance	-10.7204
▁bored	-10.7205
▁latch	-10.7205
▁seated	-10.7207
▁develop	-10.721
▁heights	-10.7211
▁lawn	-10.7213
▁reminded	-10.722
▁recall	-10.722
▁compliments	-10.7226
appeared	-10.7226
▁regions	-10.7229
▁mat	-10.723
▁eternal	-10.7237
▁clicks	-10.7238
▁yank	-10.7238
▁murdered	-10.7238
▁followin	-10.7238
▁lotus	-10.7239
▁nails	-10.7243
east	-10.7243
▁ox	-10.7243
▁hunted	-10.7245
▁canop	-10.7251
▁closet	-10.7253
▁mmhmm	-10.7254
▁shadows	-10.7254
▁survived	-10.7257
▁tens	-10.7259
ars	-10.7262
▁tragic	-10.7267
▁beasts	-10.7268
▁sailed	-10.7271
▁packing	-10.7281
▁vessels	-10.7282
▁neighbors	-10.7283
▁knocking	-10.7284
▁jet	-10.7286
▁dope	-10.7286
▁nut	-10.7289
▁askin	-10.7289
▁lighter	-10.729
▁notes	-10.7295
▁marsh	-10.7299
▁currents	-10.7302
▁snip	-10.7303
▁leap	-10.7303
▁sha	-10.7306
▁models	-10.7306
▁pits	-10.7306
▁dolphins	-10.731
▁finale	-10.7312
▁roots	-10.7313
seif	-10.7315
▁shorty	-10.732
▁fu	-10.7325
va	-10.7335
▁kissed	-10.7335
▁closely	-10.7339
▁her	-10.7339
▁orange	-10.7341
venge	-10.7342
of	-10.7343
▁joint	-10.7344
▁believes	-10.7347
▁sol	-10.7348
▁anger	-10.7354
▁reg	-10.7356
▁results	-10.7361
▁torch	-10.7362
▁relaxing	-10.7364
▁holidays	-10.7365
▁stayin	-10.7369
ever	-10.7375
▁joined	-10.7375
mpire	-10.7384
▁mus	-10.7387
▁items	-10.7387
gus	-10.7388
▁tide	-10.7391
▁blowing	-10.7393
announced	-10.7395
▁ducks	-10.7405
▁tube	-10.7407
▁answered	-10.7408
▁cleared	-10.7416
▁bandits	-10.7418
▁backs	-10.7419
▁rethink	-10.7421
▁magicians	-10.7421
▁lane	-10.7443
water	-10.7446
▁candle	-10.7447
▁lam	-10.7462
▁cups	-10.7462
ments	-10.7464
▁indians	-10.7467
▁the	-10.7468
▁mild	-10.7469
▁mall	-10.7472
▁meals	-10.7475
▁needle	-10.7477
▁after	-10.7477
▁caves	-10.7478
▁trusted	-10.7487
tion	-10.7487
▁ruins	-10.7489
▁protected	-10.7497
▁grim	-10.7498
▁bulls	-10.7498
rr	-10.7499
▁paddle	-10.7504
▁shy	-10.7507
▁choices	-10.7508
ana	-10.7509
tical	-10.7513
▁creat	-10.752
▁los	-10.7548
▁crook	-10.756
▁whi	-10.7565
▁caused	-10.7572
▁lip	-10.7572
▁scheme	-10.7579
▁expense	-10.7583
▁vib	-10.7594
▁pete	-10.7595
wards	-10.76
▁interests	-10.7604
▁nail	-10.7605
▁stags	-10.7609
▁hanks	-10.761
▁nerve	-10.7614
ram	-10.7621
▁beep	-10.7626
▁stores	-10.7626
▁sales	-10.7641
▁ash	-10.7658
▁val	-10.7658
ering	-10.7663
▁poet	-10.7669
▁fin	-10.7679
▁regard	-10.7715
▁bug	-10.7719
▁mel	-10.7722
▁generals	-10.7725
▁sch	-10.7733
▁pla	-10.775
▁spine	-10.7752
▁distances	-10.7754
our	-10.7754
▁was	-10.7755
▁for	-10.7757
▁lessons	-10.776
▁gear	-10.7765
▁bearing	-10.7772
▁dro	-10.7775
▁exhaust	-10.7776
▁gil	-10.7782
▁flipp	-10.7794
▁bats	-10.78
▁spots	-10.782
ripped	-10.7824
arag	-10.7826
▁compos	-10.7832
▁wished	-10.7835
▁thin	-10.7836
▁ken	-10.7841
▁guessed	-10.7842
▁par	-10.7852
▁adventures	-10.7858
▁diplomat	-10.7866
▁covers	-10.7873
are	-10.7874
▁lean	-10.7905
▁wanting	-10.7913
▁nicer	-10.7927
▁roses	-10.7929
▁blows	-10.7938
▁masa	-10.7948
▁fits	-10.7952
hh	-10.7965
▁hatch	-10.7971
lapping	-10.7978
▁ace	-10.8002
▁seize	-10.8007
▁booing	-10.8008
aged	-10.8016
▁triple	-10.8022
▁gras	-10.8028
ber	-10.8034
▁grumbl	-10.8036
▁exception	-10.8045
▁handy	-10.8056
▁carol	-10.806
▁cro	-10.8064
▁moons	-10.8066
▁yi	-10.8078
▁rou	-10.8079
tes	-10.8089
ize	-10.8097
▁rear	-10.8127
▁all	-10.8136
long	-10.8138
▁goat	-10.814
▁stewards	-10.8146
▁staring	-10.815
▁bars	-10.8153
der	-10.8174
▁blues	-10.8185
ously	-10.8185
▁ski	-10.8186
take	-10.8187
▁rate	-10.82
▁arth	-10.8208
▁tali	-10.8209
▁recover	-10.8226
gar	-10.8227
▁bul	-10.8261
▁poles	-10.8264
▁fac	-10.8273
act	-10.829
ice	-10.83
▁offend	-10.83
▁shots	-10.8314
▁cou	-10.8335
▁helps	-10.8337
roke	-10.8339
▁crackl	-10.8339
▁sis	-10.834
▁broker	-10.8351
▁ld	-10.8356
ble	-10.8357
uxi	-10.8377
▁perch	-10.8384
▁sniff	-10.8403
pping	-10.8405
▁stress	-10.8419
▁meetings	-10.8422
▁penn	-10.8436
tro	-10.844
▁billys	-10.8441
▁lure	-10.8452
▁wo	-10.8465
▁drops	-10.8475
play	-10.848
los	-10.8485
▁puts	-10.8525
ease	-10.8529
▁bla	-10.8534
▁landing	-10.8537
▁scrape	-10.854
▁interfere	-10.855
▁swam	-10.8557
iness	-10.8566
▁vol	-10.8576
▁reconstruct	-10.8585
▁ei	-10.8587
▁pil	-10.8591
ack	-10.8601
ans	-10.8612
▁execute	-10.8619
▁uns	-10.8627
▁bust	-10.8654
▁carri	-10.8691
▁pai	-10.8692
tions	-10.8698
▁trot	-10.8716
▁fort	-10.8718
▁americans	-10.8725
owed	-10.8736
▁menu	-10.876
tella	-10.8765
ado	-10.8789
▁hike	-10.8794
▁expose	-10.8806
ipper	-10.8806
ras	-10.8818
▁om	-10.8818
▁companions	-10.882
ster	-10.8833
sion	-10.8837
▁this	-10.8852
▁refer	-10.8861
misunderstanding	-10.8862
head	-10.8883
▁snag	-10.8917
▁iso	-10.8923
ched	-10.8925
▁wedd	-10.8934
ave	-10.8945
▁tha	-10.8945
▁et	-10.8963
▁tutor	-10.8965
▁sides	-10.8991
ama	-10.8996
▁sooth	-10.9004
▁pip	-10.9009
▁chap	-10.9046
nd	-10.9064
▁cap	-10.9078
please	-10.909
▁undo	-10.9094
des	-10.9097
▁tap	-10.91
▁patient	-10.9105
ude	-10.9138
▁itch	-10.9157
▁returns	-10.9172
place	-10.9182
izing	-10.919
▁au	-10.9196
nda	-10.9206
here	-10.9228
can	-10.9231
▁sings	-10.9238
board	-10.9244
▁ci	-10.9248
▁tar	-10.9252
ature	-10.9253
▁cl	-10.9253
ole	-10.9268
ishing	-10.9269
▁sleeps	-10.9283
ify	-10.9288
bra	-10.9297
▁orang	-10.9305
free	-10.9324
▁conver	-10.9336
historic	-10.9339
guard	-10.934
ground	-10.9342
▁gunfight	-10.9347
ppe	-10.9358
▁wher	-10.9368
▁brook	-10.9372
icious	-10.9377
piece	-10.9378
worthy	-10.9379
skull	-10.9381
protected	-10.9383
foot	-10.9385
looking	-10.9389
▁op	-10.9389
with	-10.9389
forth	-10.939
▁defi	-10.9392
▁remark	-10.9393
ank	-10.9433
miss	-10.9433
▁checks	-10.9446
bella	-10.9447
▁chick	-10.9452
▁hyena	-10.9456
▁footprint	-10.9456
▁zone	-10.9466
▁drag	-10.9468
▁misfortune	-10.9469
▁sorrow	-10.9471
▁orphan	-10.9471
▁appearance	-10.9471
▁ingredient	-10.9474
▁predator	-10.9474
▁experiment	-10.9475
▁relative	-10.9475
▁poacher	-10.9479
▁invent	-10.948
▁student	-10.9483
▁circumstance	-10.9484
▁degree	-10.9484
▁orca	-10.9485
▁arena	-10.9485
▁repair	-10.9489
▁bl	-10.9493
▁highland	-10.9498
▁gaz	-10.9499
off	-10.95
shift	-10.9506
▁bedroom	-10.9507
▁teenage	-10.9513
▁glove	-10.9513
bon	-10.9523
▁entertain	-10.9526
hole	-10.9534
▁sock	-10.954
ium	-10.9547
▁muffle	-10.955
ssors	-10.9551
▁overwhelm	-10.9551
▁snoop	-10.9552
▁react	-10.9554
▁continu	-10.9555
▁judg	-10.956
▁reject	-10.9561
▁appoint	-10.9563
sed	-10.9564
nny	-10.9569
▁perfume	-10.9569
▁depart	-10.957
▁improve	-10.9574
bs	-10.9574
▁polish	-10.9575
▁wreck	-10.9576
more	-10.9577
▁weep	-10.9578
▁butterfl	-10.9581
▁receive	-10.9582
▁dirt	-10.9585
iddle	-10.9586
▁worm	-10.959
▁precise	-10.9591
▁immediate	-10.9591
▁numb	-10.9591
▁pollen	-10.9591
▁smooth	-10.9596
▁inspect	-10.9597
▁gymnast	-10.9598
▁conduct	-10.9598
▁education	-10.9598
▁dynami	-10.9598
▁whack	-10.9598
roo	-10.9599
▁object	-10.9601
▁refresh	-10.9601
▁accursed	-10.9601
▁acknowledge	-10.9601
▁angrily	-10.9601
▁aristocrat	-10.9601
▁august	-10.9601
▁bloodbath	-10.9601
▁brutal	-10.9601
▁bungee	-10.9601
▁caaccff	-10.9601
▁caiifornia	-10.9601
▁caradec	-10.9601
▁carolsfeld	-10.9601
▁chigga	-10.9601
▁council	-10.9601
▁cultural	-10.9601
▁curiosity	-10.9601
▁cyril	-10.9601
▁dalrymple	-10.9601
▁demonstration	-10.9601
▁dinosaur	-10.9601
▁discreet	-10.9601
▁doskil	-10.9601
▁exquisite	-10.9601
▁fabric	-10.9601
▁fiddledeedee	-10.9601
▁forsaken	-10.9601
▁frascati	-10.9601
▁fundamental	-10.9601
▁gabriel	-10.9601
▁garlotti	-10.9601
▁glimpse	-10.9601
▁guarantee	-10.9601
▁hargrove	-10.9601
▁hierarchy	-10.9601
▁imbecile	-10.9601
▁impostor	-10.9601
▁incident	-10.9601
▁intelligence	-10.9601
▁invitation	-10.9601
▁jeremiah	-10.9601
▁jersey	-10.9601
▁jothergill	-10.9601
▁kremlin	-10.9601
▁lacassagne	-10.9601
▁leschenhaut	-10.9601
▁malabar	-10.9601
▁malaria	-10.9601
▁masomori	-10.9601
▁mortgage	-10.9601
▁nowadays	-10.9601
▁pajamas	-10.9601
▁panzanera	-10.9601
▁preposterous	-10.9601
▁proposal	-10.9601
▁rafaelito	-10.9601
▁residence	-10.9601
▁respond	-10.9601
▁shannon	-10.9601
▁snorting	-10.9601
▁sokurah	-10.9601
▁squirt	-10.9601
▁sultan	-10.9601
▁supermarket	-10.9601
▁superstition	-10.9601
▁supreme	-10.9601
▁vancouver	-10.9601
▁virginia	-10.9601
▁wardrobe	-10.9601
▁algeria	-10.9601
▁bundle	-10.9601
▁comparison	-10.9601
▁conflict	-10.9601
▁creepedeep	-10.9601
▁cullen	-10.9601
▁fabulous	-10.9601
▁ibex	-10.9601
▁instagram	-10.9601
▁obsession	-10.9601
▁outrage	-10.9601
▁permanent	-10.9601
▁pigeon	-10.9601
▁postpone	-10.9601
▁scepter	-10.9601
▁visual	-10.9601
▁activities	-10.9601
▁adapt	-10.9601
▁chariie	-10.9601
▁descend	-10.9601
▁dewdrop	-10.9601
▁inferior	-10.9601
▁lifestyle	-10.9601
▁meadow	-10.9601
▁reckon	-10.9601
▁sightseeing	-10.9601
▁tammo	-10.9601
▁unsaya	-10.9601
▁webcam	-10.9601
▁spectacular	-10.9601
▁migration	-10.9601
▁chancellor	-10.9601
▁offspring	-10.9601
▁patrol	-10.9601
▁possibilities	-10.9601
▁suffic	-10.9601
▁athlet	-10.9601
▁renata	-10.9601
▁whirlpool	-10.9601
▁attitude	-10.9601
▁bonjour	-10.9601
▁gregory	-10.9601
normous	-10.9601
▁exhusband	-10.9601
▁nickname	-10.9601
▁tennis	-10.9601
▁terence	-10.9601
▁throttle	-10.9601
▁windshie	-10.9601
▁dividing	-10.9601
▁jun	-10.9601
▁exclusive	-10.9602
▁nonstop	-10.9602
▁explode	-10.9602
▁monkees	-10.9602
▁clarion	-10.9602
▁sanitation	-10.9602
▁despair	-10.9602
▁confirm	-10.9602
▁ivory	-10.9602
▁taskmasters	-10.9602
▁confront	-10.9602
▁crunch	-10.9602
▁ollie	-10.9602
▁amusing	-10.9602
▁shriek	-10.9602
▁yoohoo	-10.9602
▁alliance	-10.9602
▁ashcan	-10.9602
▁boundaries	-10.9602
▁source	-10.9602
▁anyhow	-10.9602
▁flirt	-10.9602
▁instructor	-10.9602
▁munchkin	-10.9602
▁richmond	-10.9602
▁radar	-10.9602
▁titanium	-10.9602
▁cricket	-10.9602
▁rainforest	-10.9602
▁youtube	-10.9602
▁forbid	-10.9602
▁monsoon	-10.9602
▁leavin	-10.9602
▁suitcase	-10.9602
▁scoop	-10.9602
▁alpha	-10.9602
▁douglas	-10.9602
▁turtle	-10.9602
▁italy	-10.9602
▁choir	-10.9602
▁discharge	-10.9602
▁injury	-10.9602
▁torture	-10.9602
▁earthquake	-10.9602
▁gamekeeper	-10.9602
▁horizon	-10.9602
▁nicole	-10.9602
▁circuit	-10.9602
▁enthusiasm	-10.9602
▁sailboat	-10.9602
▁profit	-10.9602
▁insignificant	-10.9602
▁eggshell	-10.9602
▁heartbeat	-10.9602
▁replacement	-10.9602
▁tardes	-10.9602
▁kitten	-10.9602
▁tidings	-10.9602
▁whirl	-10.9602
▁quote	-10.9602
▁benefit	-10.9602
▁garage	-10.9602
▁beware	-10.9602
▁escort	-10.9602
▁jellyfish	-10.9602
▁pussy	-10.9602
▁carpet	-10.9602
▁intelligent	-10.9602
▁ltaly	-10.9602
▁violence	-10.9602
▁consent	-10.9602
▁edict	-10.9602
▁cmere	-10.9602
▁evans	-10.9602
▁stairs	-10.9603
▁hostess	-10.9603
▁heiress	-10.9603
▁marries	-10.9603
▁proclaim	-10.9603
▁jimmy	-10.9603
▁movin	-10.9603
▁yankee	-10.9603
▁blew	-10.9603
▁krill	-10.9603
▁skinner	-10.9603
▁website	-10.9603
▁resort	-10.9603
▁sidewinder	-10.9603
▁munch	-10.9603
▁miserly	-10.9603
▁poker	-10.9603
▁unarmed	-10.9603
▁bodies	-10.9603
▁display	-10.9603
▁martin	-10.9604
▁drool	-10.9604
▁orion	-10.9604
▁balloon	-10.9604
▁unsuitable	-10.9604
▁shrine	-10.9604
▁impression	-10.9604
▁trophy	-10.9604
▁deposit	-10.9604
▁festiv	-10.9604
▁nursery	-10.9604
▁niche	-10.9604
▁choosing	-10.9604
▁snowball	-10.9604
▁frown	-10.9604
▁ginger	-10.9604
▁organization	-10.9604
▁decent	-10.9605
▁university	-10.9605
▁dibs	-10.9605
▁fragment	-10.9605
▁headache	-10.9605
▁rubble	-10.9605
▁chatting	-10.9605
▁donations	-10.9605
▁grizzly	-10.9605
▁salute	-10.9605
▁panicked	-10.9605
▁anton	-10.9605
▁scarf	-10.9605
▁precedent	-10.9605
▁ciose	-10.9605
▁bailed	-10.9605
▁planner	-10.9606
▁executioner	-10.9606
▁popularity	-10.9606
▁temper	-10.9606
▁caval	-10.9606
▁duke	-10.9606
▁outline	-10.9606
ht	-10.9606
▁ashore	-10.9606
▁blush	-10.9606
▁riff	-10.9606
▁dedicated	-10.9607
▁headmaster	-10.9607
islav	-10.9607
▁smack	-10.9607
▁ricks	-10.9607
▁allergies	-10.9607
▁squeeze	-10.9607
▁stranded	-10.9607
▁flaming	-10.9608
▁timber	-10.9608
▁nude	-10.9608
▁angle	-10.9608
▁blake	-10.9608
▁katya	-10.9608
conna	-10.9608
▁yonder	-10.9608
▁jewelry	-10.9608
▁discussion	-10.9608
▁lurk	-10.9609
▁sadness	-10.9609
▁wages	-10.9609
▁confused	-10.9609
▁coral	-10.961
▁exaggerate	-10.961
▁stakeout	-10.961
▁fbi	-10.961
▁remarkable	-10.961
▁reply	-10.961
▁victory	-10.961
▁encouraging	-10.9611
▁persuade	-10.9611
▁leash	-10.9611
▁succession	-10.9611
▁foster	-10.9611
▁community	-10.9612
▁rumor	-10.9612
▁lovin	-10.9612
▁argument	-10.9612
▁robin	-10.9612
▁religion	-10.9613
▁principal	-10.9613
▁discour	-10.9613
▁household	-10.9613
▁overall	-10.9614
oodoo	-10.9614
▁spotted	-10.9614
▁doggy	-10.9614
▁journalist	-10.9615
▁sewing	-10.9615
▁fitting	-10.9616
▁sammy	-10.9616
▁makin	-10.9616
wise	-10.9616
▁operation	-10.9617
▁shipped	-10.9617
▁bugle	-10.9618
ordinary	-10.9618
▁residents	-10.9618
▁newborn	-10.9618
▁armor	-10.9618
▁oven	-10.9618
▁puny	-10.9619
▁woke	-10.9619
▁viewers	-10.9619
▁odor	-10.9619
▁mobo	-10.9619
▁hometown	-10.962
▁vaulting	-10.962
▁yaps	-10.962
▁distracting	-10.9621
▁buzz	-10.9621
▁grapes	-10.9621
▁sleeves	-10.9621
▁rivals	-10.9621
▁weave	-10.9621
▁snares	-10.9622
▁regain	-10.9622
▁moist	-10.9622
▁spoons	-10.9622
▁butterfly	-10.9622
▁preparations	-10.9622
▁gymnastics	-10.9622
▁knockoffs	-10.9623
▁tooth	-10.9623
▁carved	-10.9624
▁sneezes	-10.9624
▁prettie	-10.9624
▁drifting	-10.9625
▁busted	-10.9625
▁willis	-10.9625
▁sensual	-10.9625
▁alter	-10.9625
▁beck	-10.9625
▁aokay	-10.9625
▁painters	-10.9626
▁creaks	-10.9626
▁moose	-10.9627
▁floody	-10.9627
▁porter	-10.9627
fair	-10.9628
▁ensu	-10.9628
▁runaway	-10.9629
▁opposite	-10.9629
▁atmosphere	-10.9629
▁marble	-10.963
▁clown	-10.963
▁speeches	-10.9631
▁bravery	-10.9631
▁initial	-10.9632
▁chirping	-10.9632
▁ounce	-10.9633
▁regarded	-10.9633
▁continental	-10.9633
▁disturbing	-10.9634
▁dammit	-10.9635
▁yelled	-10.9635
▁conquered	-10.9636
▁germany	-10.9636
▁punished	-10.9637
▁shack	-10.9637
▁convention	-10.9638
▁takeoff	-10.9638
▁moody	-10.9639
▁bushel	-10.9639
▁litter	-10.964
▁bitter	-10.9641
▁emotions	-10.9641
▁snuffy	-10.9642
▁senior	-10.9642
ca	-10.9643
▁sellin	-10.9643
▁streams	-10.9643
▁glacier	-10.9644
▁fulfilled	-10.9644
▁scam	-10.9644
▁scratched	-10.9645
▁delayed	-10.9645
▁everyday	-10.9645
▁cattle	-10.9645
▁screeches	-10.9646
▁venus	-10.9647
▁utter	-10.9647
▁filet	-10.9648
▁poured	-10.9648
▁glu	-10.9649
▁gaining	-10.965
▁halfway	-10.965
ellen	-10.965
▁committee	-10.965
▁sci	-10.9651
▁robbers	-10.9651
▁steel	-10.9652
▁dug	-10.9652
izu	-10.9653
▁airline	-10.9653
▁tax	-10.9654
▁archer	-10.9654
hara	-10.9656
▁sought	-10.9657
▁persians	-10.9657
▁ducklings	-10.9658
▁stepsisters	-10.9658
▁thread	-10.9659
▁dire	-10.9659
▁pays	-10.966
▁inform	-10.9663
▁properly	-10.9663
▁june	-10.9664
▁tomb	-10.9664
▁dork	-10.9665
▁dime	-10.9665
▁tweeting	-10.9666
▁successor	-10.9667
olution	-10.9667
▁nailed	-10.9668
▁dots	-10.9668
▁bully	-10.967
▁scouts	-10.967
▁goldie	-10.967
▁cha	-10.9671
snt	-10.9672
bug	-10.9673
▁roar	-10.9673
▁mora	-10.9673
▁logs	-10.9675
▁tease	-10.9675
▁murmured	-10.9676
▁marryin	-10.9679
▁cryin	-10.9681
▁clothed	-10.9683
▁accomplished	-10.9683
▁fuss	-10.9687
fo	-10.9688
▁merci	-10.9688
roll	-10.9689
▁cath	-10.9689
▁lifted	-10.969
▁stables	-10.969
▁insects	-10.9693
▁rumbling	-10.9693
▁peasants	-10.9693
▁competitors	-10.9693
▁gloooo	-10.9693
▁diamonds	-10.9694
▁raindrops	-10.9694
▁classes	-10.9694
diction	-10.9696
▁smoothies	-10.9697
▁worms	-10.9697
works	-10.9698
▁lashes	-10.9699
▁winning	-10.9699
ties	-10.9701
iding	-10.9702
▁slower	-10.9702
▁correction	-10.9705
▁batter	-10.9705
▁cops	-10.9708
elders	-10.9708
che	-10.9711
▁scraps	-10.9714
▁carrot	-10.9714
▁taco	-10.9714
▁neu	-10.9715
▁what	-10.9715
▁shallow	-10.9718
▁bout	-10.9718
▁disgrace	-10.9721
▁politic	-10.9722
ax	-10.9725
▁donna	-10.9726
▁independen	-10.9727
▁spark	-10.9728
▁parker	-10.9728
▁stunt	-10.9728
▁stretched	-10.9729
▁relatives	-10.973
▁experiments	-10.973
▁predators	-10.973
▁granted	-10.973
▁decid	-10.973
▁ingredients	-10.973
▁patients	-10.9732
▁orphans	-10.9733
▁rolled	-10.9734
▁casual	-10.9735
▁welcom	-10.9735
▁fir	-10.9737
▁emotional	-10.975
▁separated	-10.975
▁parties	-10.9753
▁fedora	-10.9754
▁jay	-10.9755
▁spurs	-10.9758
▁mam	-10.9758
▁glori	-10.9758
▁ver	-10.9758
▁starters	-10.9759
▁shim	-10.976
flavor	-10.976
▁sniffs	-10.9762
▁barge	-10.9764
▁blades	-10.9764
▁bothering	-10.9765
▁performed	-10.9766
▁couch	-10.9766
▁whispering	-10.9773
▁leaders	-10.9776
▁banging	-10.9777
▁quicker	-10.9779
▁experienced	-10.9779
▁coaching	-10.9782
▁abs	-10.9783
▁physical	-10.9785
▁forgiven	-10.9791
▁mast	-10.9793
▁messed	-10.9797
▁vein	-10.9799
▁teen	-10.98
▁vultures	-10.9803
▁mystic	-10.9809
▁stray	-10.9815
▁pressing	-10.9824
▁remaining	-10.9832
▁frogs	-10.9833
▁yards	-10.9834
▁deserted	-10.9834
▁flaw	-10.9838
▁realms	-10.9839
▁mammoths	-10.9839
▁meters	-10.984
▁reputations	-10.984
▁lifting	-10.9843
▁getaway	-10.9844
▁girlfriends	-10.9847
tial	-10.9847
▁encourage	-10.985
▁yall	-10.9853
▁customs	-10.9855
▁feelin	-10.986
gner	-10.9861
sm	-10.9861
▁rowing	-10.9864
▁idols	-10.9866
▁tribes	-10.9867
▁fry	-10.9868
meter	-10.9868
▁worn	-10.9872
houses	-10.9872
▁outfits	-10.9876
▁crossing	-10.9877
▁col	-10.9877
▁glob	-10.9878
izer	-10.9882
▁feathers	-10.9885
▁reveal	-10.9885
▁hm	-10.9886
ller	-10.989
ace	-10.9891
▁awaken	-10.9896
▁stan	-10.9902
▁ol	-10.9902
▁shant	-10.9904
▁shores	-10.9908
covered	-10.991
▁historic	-10.9911
▁jennys	-10.9912
▁callin	-10.9914
racket	-10.9918
▁hack	-10.9922
▁lords	-10.9927
▁prisoners	-10.994
▁ale	-10.9943
▁tigers	-10.9948
▁treats	-10.9962
rus	-10.9964
▁pone	-10.9964
▁gardening	-10.9964
▁lease	-10.9964
gen	-10.9965
▁tug	-10.9974
▁onion	-10.9975
bag	-10.998
▁pans	-10.9984
▁conditions	-10.9986
▁freeze	-10.9986
▁friendships	-10.9986
ck	-10.9988
▁nationals	-10.9991
▁angeles	-10.9991
▁forks	-11.0003
tch	-11.0008
dge	-11.0011
▁pope	-11.0015
see	-11.0018
▁warming	-11.0023
▁lick	-11.0027
oooh	-11.0029
▁ez	-11.0031
▁lovers	-11.0035
▁liking	-11.0045
sy	-11.0047
▁hanged	-11.0053
▁sheer	-11.0056
▁peters	-11.0059
▁fishy	-11.0059
ggage	-11.0063
▁browse	-11.0064
▁loot	-11.0065
▁bella	-11.007
▁presidente	-11.007
▁partial	-11.0073
▁flee	-11.0074
▁lap	-11.0075
▁jumping	-11.0078
rious	-11.0082
ener	-11.0093
▁fields	-11.0094
ip	-11.0095
▁lance	-11.0103
▁peep	-11.0111
▁sore	-11.0111
vast	-11.0121
▁eli	-11.0121
try	-11.0126
▁partners	-11.0128
▁bene	-11.0133
▁towers	-11.014
rt	-11.0147
▁wat	-11.0148
▁dei	-11.0155
▁booked	-11.0158
▁sins	-11.0167
▁albums	-11.0168
ppy	-11.017
▁vocal	-11.0171
▁your	-11.0174
▁hy	-11.0177
▁sm	-11.0184
▁unde	-11.0184
▁rac	-11.0184
▁deed	-11.0187
▁deserves	-11.0187
▁sleepy	-11.019
▁sting	-11.0191
rator	-11.0198
ute	-11.0203
▁miracles	-11.0205
thing	-11.0207
▁antiquit	-11.0235
tin	-11.0239
iss	-11.0246
ook	-11.0246
mb	-11.0253
▁challenges	-11.0259
▁spears	-11.0262
▁tang	-11.0264
▁valleys	-11.0284
▁salads	-11.0288
▁bounc	-11.0297
hem	-11.0301
▁plays	-11.0308
▁bikes	-11.0313
▁ap	-11.0322
▁throwing	-11.0322
▁worker	-11.0326
▁swords	-11.033
▁regula	-11.0342
oo	-11.0346
▁servants	-11.0351
▁machines	-11.0354
▁nicely	-11.0375
▁arrives	-11.0375
doodle	-11.0386
gent	-11.0386
▁rightful	-11.039
▁sayin	-11.039
vie	-11.0392
alah	-11.0394
▁institut	-11.0401
▁nau	-11.0419
▁tast	-11.0422
▁sauces	-11.0424
ocati	-11.0427
rott	-11.0443
rie	-11.0447
▁chape	-11.0449
▁companion	-11.045
eluded	-11.0454
▁compromis	-11.046
▁troubled	-11.0474
▁hid	-11.0477
az	-11.048
▁swe	-11.0495
▁landed	-11.0496
kind	-11.0503
▁findings	-11.0505
ami	-11.0506
▁app	-11.0521
▁tilt	-11.0535
▁dares	-11.0541
▁bonn	-11.0562
▁musical	-11.057
hales	-11.0576
▁blo	-11.0578
▁explains	-11.0581
most	-11.0582
▁sum	-11.0585
ass	-11.0585
▁frustrati	-11.0585
▁exp	-11.0588
bois	-11.0589
▁fay	-11.0601
ach	-11.0605
▁bio	-11.0608
▁gown	-11.0622
▁excused	-11.0629
▁keeper	-11.0632
▁cla	-11.0636
ubile	-11.0644
▁bills	-11.0648
atch	-11.0651
car	-11.0655
rish	-11.0661
ying	-11.0663
sis	-11.0663
lus	-11.0672
▁chow	-11.0676
▁ambi	-11.0678
▁respectful	-11.0682
▁smiles	-11.0685
▁doubts	-11.0688
▁mass	-11.0694
esha	-11.0696
ndy	-11.0705
ath	-11.0716
ood	-11.0717
▁respects	-11.0719
▁annu	-11.0726
ration	-11.0731
▁heed	-11.0752
▁teachers	-11.0758
unny	-11.0769
▁dangers	-11.0787
cular	-11.0823
pper	-11.0824
▁ab	-11.0842
▁uph	-11.0861
ipped	-11.0875
lux	-11.0889
lder	-11.0895
▁dine	-11.0895
▁ir	-11.0905
▁greatly	-11.0916
▁invest	-11.0916
▁exten	-11.0932
gie	-11.0937
lin	-11.0945
sha	-11.0948
▁nami	-11.0949
▁superconduct	-11.098
ails	-11.0993
erial	-11.1002
▁spi	-11.1018
▁spa	-11.1031
▁res	-11.1035
▁stur	-11.1042
ura	-11.1043
▁presents	-11.1063
▁eats	-11.1065
ified	-11.1075
▁worrying	-11.1081
met	-11.1096
lot	-11.1097
▁senses	-11.11
▁origin	-11.1116
▁talents	-11.1116
am	-11.1125
song	-11.1131
ens	-11.1142
▁wi	-11.1157
▁lime	-11.1162
▁sparkl	-11.1165
right	-11.1168
▁span	-11.117
▁hock	-11.1202
lation	-11.1217
▁buen	-11.1234
▁detect	-11.1253
ot	-11.1265
ok	-11.1266
tting	-11.127
▁cock	-11.1272
▁vik	-11.1273
▁cue	-11.1273
▁advers	-11.1279
lor	-11.1328
▁notch	-11.1329
she	-11.1331
▁sin	-11.1333
▁noo	-11.1335
anda	-11.1373
shl	-11.1375
▁electric	-11.138
li	-11.138
▁hoho	-11.1395
will	-11.14
▁why	-11.141
als	-11.142
▁norther	-11.1425
▁adi	-11.1427
rk	-11.1439
udge	-11.1446
▁cran	-11.1456
▁scorch	-11.1459
▁answers	-11.1459
acha	-11.1468
aga	-11.149
ms	-11.1491
▁anne	-11.1492
▁remov	-11.1499
ology	-11.15
apping	-11.1509
els	-11.151
▁cop	-11.1512
▁ole	-11.1521
▁fran	-11.1561
oid	-11.1562
ocks	-11.159
urity	-11.1604
easy	-11.1632
▁pat	-11.1634
ds	-11.1653
ney	-11.1674
ano	-11.1684
▁flashl	-11.1716
arm	-11.1717
sa	-11.172
▁sous	-11.1726
eith	-11.1731
thy	-11.1732
▁bea	-11.1738
▁islands	-11.174
mic	-11.1743
whoo	-11.1767
eeping	-11.178
▁alb	-11.1793
▁prot	-11.1796
▁argu	-11.1806
▁noooo	-11.1827
▁whites	-11.1835
con	-11.1843
▁rap	-11.1855
thats	-11.1871
▁uncles	-11.1884
▁limb	-11.1886
▁rea	-11.1892
star	-11.1898
ock	-11.19
▁phones	-11.1906
▁don	-11.1914
▁ga	-11.194
nch	-11.194
uffle	-11.1957
nie	-11.1991
▁dip	-11.2003
▁qui	-11.2023
yes	-11.205
endant	-11.2051
▁possess	-11.2058
▁q	-11.2065
▁ans	-11.2067
rian	-11.2074
▁suns	-11.2097
vol	-11.2117
▁lover	-11.2125
lia	-11.2131
▁faithfull	-11.2132
▁smok	-11.2145
zo	-11.2148
▁picks	-11.2149
llery	-11.2152
mont	-11.216
▁sc	-11.2164
ssie	-11.2175
▁hay	-11.2178
▁es	-11.2186
▁fel	-11.2196
tive	-11.2222
isy	-11.2224
▁measure	-11.2249
▁lyric	-11.2251
▁she	-11.2278
leigh	-11.2291
▁ate	-11.2303
▁tik	-11.2308
▁aut	-11.2323
▁fortunate	-11.2323
something	-11.2326
per	-11.2328
▁rum	-11.2329
▁dent	-11.2344
▁ris	-11.2345
ef	-11.2356
▁bre	-11.2358
cul	-11.2362
thank	-11.2364
▁cling	-11.2376
▁broo	-11.2378
point	-11.2399
mean	-11.2409
▁legi	-11.2409
ora	-11.2419
aux	-11.2421
▁prom	-11.2425
▁lame	-11.2439
▁unp	-11.2454
wling	-11.2464
▁rec	-11.2469
▁gau	-11.2475
ois	-11.2475
▁forge	-11.2484
life	-11.2486
day	-11.2488
gon	-11.2492
▁pond	-11.2499
og	-11.2505
iam	-11.2513
▁cor	-11.2518
lock	-11.2533
ssy	-11.2546
▁kar	-11.2556
lying	-11.2558
vo	-11.2563
arried	-11.2575
▁caw	-11.2576
▁sits	-11.2585
cat	-11.2588
▁sanc	-11.259
▁sow	-11.2594
brace	-11.2599
▁rrr	-11.2613
▁examine	-11.2615
cha	-11.2617
shma	-11.2619
▁profession	-11.2623
grim	-11.2623
close	-11.2636
half	-11.2653
born	-11.2655
▁baff	-11.2659
▁dub	-11.2659
▁dete	-11.2661
lift	-11.2662
mile	-11.2664
ai	-11.2676
▁clap	-11.2683
green	-11.269
giving	-11.2691
ours	-11.2697
▁claw	-11.2698
regard	-11.2702
wide	-11.2703
year	-11.2705
bread	-11.2706
arch	-11.2712
pie	-11.2712
birth	-11.2714
squeak	-11.2717
▁stepp	-11.2717
justice	-11.2717
shore	-11.2719
bank	-11.2722
cks	-11.2723
public	-11.2725
give	-11.2732
mouth	-11.2736
▁apples	-11.2738
force	-11.274
flame	-11.2741
called	-11.2742
▁beard	-11.2743
ide	-11.2743
▁carryin	-11.2745
▁carolin	-11.2748
▁gran	-11.2759
wind	-11.2762
ning	-11.2769
breaking	-11.2771
▁prairie	-11.2789
▁pyramid	-11.2789
▁curfew	-11.2789
▁forefather	-11.279
▁donkey	-11.2791
▁fla	-11.2792
working	-11.2796
ick	-11.2797
▁cri	-11.28
▁caboose	-11.2802
▁curtain	-11.2802
▁depth	-11.2806
▁diamond	-11.2807
▁raindrop	-11.2808
▁competitor	-11.2808
▁peasant	-11.2808
▁insect	-11.2809
▁bullet	-11.2809
▁smoothie	-11.2811
▁gorilla	-11.2811
quisition	-11.2813
▁instruction	-11.2813
▁coconut	-11.2814
handed	-11.2814
▁vida	-11.2814
▁flock	-11.2816
▁scientist	-11.2817
▁relation	-11.2817
▁folk	-11.282
face	-11.2824
▁statues	-11.2826
▁cont	-11.283
▁tons	-11.283
self	-11.2831
▁cough	-11.2835
▁okinawa	-11.2837
donna	-11.2837
▁scout	-11.2847
▁demon	-11.2851
cut	-11.2853
yard	-11.2856
ged	-11.2857
▁chris	-11.2861
▁disturb	-11.2861
aw	-11.2868
lookin	-11.2869
▁calculat	-11.2875
▁anti	-11.2884
▁highway	-11.2885
▁brake	-11.2886
▁retreat	-11.2887
▁preten	-11.2892
▁chirp	-11.2892
▁atmospher	-11.2896
ear	-11.2897
▁hel	-11.2903
▁cancel	-11.2906
▁squeal	-11.2908
▁betray	-11.2909
▁elope	-11.2911
▁dismiss	-11.2913
▁multi	-11.2914
▁sheet	-11.2917
▁frighten	-11.2918
▁affect	-11.2918
pressed	-11.292
▁pendrago	-11.292
▁religio	-11.2924
▁cement	-11.2925
▁swab	-11.2925
▁snob	-11.2926
▁savanna	-11.2927
▁recent	-11.2928
▁deceive	-11.2929
▁winnin	-11.293
fivepointeight	-11.2931
▁sophi	-11.2932
cogni	-11.2932
▁driftin	-11.2933
▁slick	-11.2933
▁establish	-11.2934
▁violen	-11.2934
iently	-11.2934
▁cloak	-11.2935
ochka	-11.2935
yippyyay	-11.2935
▁abednego	-11.2935
▁aborigine	-11.2935
▁accustomed	-11.2935
▁achieve	-11.2935
▁aggressive	-11.2935
▁ammunition	-11.2935
▁arithmetic	-11.2935
▁atlantic	-11.2935
▁balcony	-11.2935
▁bathtub	-11.2935
▁bernadette	-11.2935
▁bygones	-11.2935
▁calarosa	-11.2935
▁caribbean	-11.2935
▁catacombs	-11.2935
▁chihuahua	-11.2935
▁columbia	-11.2935
▁commitment	-11.2935
▁confidence	-11.2935
▁conifers	-11.2935
▁cottage	-11.2935
▁cuisine	-11.2935
▁cyborg	-11.2935
▁delicacy	-11.2935
▁deputies	-11.2935
▁disobey	-11.2935
▁dnipropetrovst	-11.2935
▁eavesdrop	-11.2935
▁einstein	-11.2935
▁emphatically	-11.2935
▁eugenia	-11.2935
▁ferocious	-11.2935
▁fiftyfifty	-11.2935
▁florida	-11.2935
▁furnace	-11.2935
▁gigantic	-11.2935
▁granola	-11.2935
▁heiicopter	-11.2935
▁hieroglyph	-11.2935
▁himalaya	-11.2935
▁historians	-11.2935
▁iadder	-11.2935
▁imprisoned	-11.2935
▁incompeten	-11.2935
▁inevitabl	-11.2935
▁insanity	-11.2935
▁insecure	-11.2935
▁instrument	-11.2935
▁invasion	-11.2935
▁jacob	-11.2935
▁kabob	-11.2935
▁keisuke	-11.2935
▁leclaire	-11.2935
▁lloyd	-11.2935
▁locomotive	-11.2935
▁maclntosh	-11.2935
▁maquinna	-11.2935
▁medford	-11.2935
▁millemiglia	-11.2935
▁mineowners	-11.2935
▁mischievously	-11.2935
▁mississippi	-11.2935
▁mnumzane	-11.2935
▁ndelas	-11.2935
▁neanderthal	-11.2935
▁negotiat	-11.2935
▁november	-11.2935
▁nutrient	-11.2935
▁nuttiness	-11.2935
▁obelisk	-11.2935
▁okeydokey	-11.2935
▁parliament	-11.2935
▁participate	-11.2935
▁pencil	-11.2935
▁porridge	-11.2935
▁premature	-11.2935
▁premier	-11.2935
▁premises	-11.2935
▁prunella	-11.2935
▁rehearsal	-11.2935
▁reisenweber	-11.2935
▁reluctan	-11.2935
▁rembrandt	-11.2935
▁remington	-11.2935
▁rhinoceros	-11.2935
▁sceptre	-11.2935
▁sequence	-11.2935
▁shadrach	-11.2935
▁shalimar	-11.2935
▁skeleton	-11.2935
▁souvenir	-11.2935
▁stanford	-11.2935
▁supuecio	-11.2935
▁switzerland	-11.2935
▁toadstool	-11.2935
▁toralei	-11.2935
▁unnatural	-11.2935
▁vulnerable	-11.2935
▁wilkinson	-11.2935
▁withdraw	-11.2935
▁daphne	-11.2935
▁deliberate	-11.2935
▁divorce	-11.2935
▁geronim	-11.2935
▁illustrious	-11.2935
▁immortal	-11.2935
▁mongrel	-11.2935
▁neighbour	-11.2935
▁refuge	-11.2935
▁resource	-11.2935
▁shroud	-11.2935
▁tabloid	-11.2935
▁volunteer	-11.2935
▁warrior	-11.2935
▁abilities	-11.2935
▁burglar	-11.2935
▁contribut	-11.2935
▁fertil	-11.2935
▁harvest	-11.2935
▁horror	-11.2935
▁industri	-11.2935
▁kazu	-11.2935
▁length	-11.2935
▁microwave	-11.2935
▁penthouse	-11.2935
▁sayonara	-11.2935
▁schultz	-11.2935
▁squirm	-11.2935
▁sustain	-11.2935
▁twombley	-11.2935
▁unfurl	-11.2935
▁artifact	-11.2935
▁bouquet	-11.2935
▁keyholes	-11.2935
▁mandarin	-11.2935
▁nellie	-11.2935
▁olivi	-11.2935
▁rejoic	-11.2935
▁superior	-11.2935
▁communication	-11.2935
▁deputy	-11.2935
▁halloween	-11.2935
▁rattling	-11.2935
▁ravenous	-11.2935
▁aloft	-11.2935
▁archangel	-11.2935
▁banjo	-11.2935
▁dispatch	-11.2935
▁tolerate	-11.2935
▁verdict	-11.2935
▁detention	-11.2935
▁helmsman	-11.2935
▁yield	-11.2935
blossom	-11.2935
▁sausage	-11.2935
tolerable	-11.2935
▁authorities	-11.2935
▁december	-11.2935
▁enlist	-11.2935
▁persisten	-11.2935
▁reinforcements	-11.2935
▁stunning	-11.2935
▁colonial	-11.2935
▁entitled	-11.2935
▁insured	-11.2935
▁reckless	-11.2935
▁rubenstein	-11.2935
▁temptress	-11.2935
▁disagree	-11.2935
▁sermon	-11.2935
▁instance	-11.2935
▁coincidence	-11.2935
▁distributed	-11.2935
▁slurp	-11.2935
▁mortal	-11.2935
▁siege	-11.2935
▁assistance	-11.2935
▁maisey	-11.2935
▁silvermist	-11.2935
▁snorts	-11.2935
▁superstars	-11.2935
▁federation	-11.2935
▁fifth	-11.2935
▁lizzie	-11.2935
▁raji	-11.2935
▁beiieve	-11.2935
▁blarney	-11.2935
▁perkins	-11.2935
▁vamos	-11.2935
▁bartlett	-11.2935
▁counterpart	-11.2935
▁edmond	-11.2935
▁traitor	-11.2935
▁muffins	-11.2935
▁reflecti	-11.2935
▁samuel	-11.2935
▁snowflake	-11.2935
▁barrier	-11.2935
▁grappling	-11.2935
▁untidy	-11.2935
▁buddha	-11.2935
▁absence	-11.2935
▁analysis	-11.2935
▁termites	-11.2935
▁japan	-11.2935
▁commend	-11.2935
▁fukuda	-11.2935
▁jillian	-11.2935
▁column	-11.2935
▁congress	-11.2935
▁elbow	-11.2935
▁damien	-11.2935
▁poiice	-11.2935
▁reconsider	-11.2935
▁activity	-11.2935
▁chaplin	-11.2935
▁initiative	-11.2935
▁surgery	-11.2935
▁arrogance	-11.2935
▁distractions	-11.2935
▁testicle	-11.2935
▁eldest	-11.2935
▁importance	-11.2935
▁possibility	-11.2935
▁rubbish	-11.2935
▁ukrainian	-11.2935
▁blacklist	-11.2935
▁foretold	-11.2935
▁captivity	-11.2935
▁phew	-11.2935
▁percent	-11.2935
▁ritual	-11.2935
▁testament	-11.2935
▁swung	-11.2935
▁demise	-11.2935
▁evolution	-11.2935
▁exploration	-11.2935
▁knowitall	-11.2935
▁terrified	-11.2935
▁blanc	-11.2935
▁tribute	-11.2935
▁dimple	-11.2935
▁aloha	-11.2935
▁again	-11.2935
▁fridge	-11.2935
▁obtain	-11.2935
▁solving	-11.2935
▁spoonful	-11.2935
▁elmer	-11.2935
▁fuzz	-11.2935
▁hydrophone	-11.2935
▁sofia	-11.2935
▁sologne	-11.2935
▁engagement	-11.2935
▁skirt	-11.2935
▁welfare	-11.2935
▁twinkl	-11.2935
▁sprout	-11.2935
▁yikes	-11.2935
▁buddies	-11.2935
▁reggie	-11.2935
▁offence	-11.2936
▁patron	-11.2936
▁gulp	-11.2936
▁mirage	-11.2936
▁axel	-11.2936
▁dusk	-11.2936
▁bartle	-11.2936
▁existence	-11.2936
▁axis	-11.2936
▁happier	-11.2936
▁baseball	-11.2936
▁henry	-11.2936
▁courtney	-11.2936
▁ogre	-11.2936
▁demographic	-11.2936
▁sketch	-11.2936
▁install	-11.2936
▁blume	-11.2936
▁stench	-11.2936
▁propose	-11.2936
▁underworld	-11.2936
▁clemen	-11.2936
▁frail	-11.2936
▁facility	-11.2936
▁disturbance	-11.2936
▁kittycat	-11.2936
▁refill	-11.2936
▁seadoo	-11.2936
▁spinning	-11.2936
▁doublecross	-11.2936
▁boundary	-11.2936
▁dairy	-11.2936
▁pennant	-11.2936
▁impact	-11.2936
▁ramir	-11.2936
▁scroll	-11.2936
▁tamara	-11.2936
▁churr	-11.2936
▁reduce	-11.2937
▁medium	-11.2937
▁spooked	-11.2937
▁muzzle	-11.2937
▁ability	-11.2937
▁bobble	-11.2937
▁sissi	-11.2937
▁hurrah	-11.2937
▁yowls	-11.2937
▁worries	-11.2937
▁stifl	-11.2937
▁midian	-11.2937
▁independence	-11.2937
▁fishermen	-11.2937
▁vicious	-11.2937
▁unmarried	-11.2937
▁patti	-11.2937
▁gaunt	-11.2937
▁adjust	-11.2937
▁password	-11.2937
▁assignment	-11.2937
▁youknowwho	-11.2937
▁ungrateful	-11.2937
▁golddigger	-11.2937
▁launch	-11.2937
▁fresnes	-11.2937
▁providence	-11.2937
▁charade	-11.2937
▁skinny	-11.2938
▁hunch	-11.2938
▁halves	-11.2938
▁lattes	-11.2938
▁gallop	-11.2938
conscious	-11.2938
▁gopher	-11.2938
▁chump	-11.2938
▁memorize	-11.2938
▁thumb	-11.2938
▁senores	-11.2938
▁wingding	-11.2938
▁preach	-11.2938
▁poisonous	-11.2938
▁axelle	-11.2938
▁rcc	-11.2938
▁vamp	-11.2938
▁splendor	-11.2938
▁concentrating	-11.2938
▁depriv	-11.2938
▁bunk	-11.2938
▁additional	-11.2938
▁adopted	-11.2938
▁calves	-11.2939
▁category	-11.2939
▁reunited	-11.2939
▁geez	-11.2939
▁screw	-11.2939
▁archaeologist	-11.2939
▁ciean	-11.2939
▁symmetrical	-11.2939
▁upside	-11.2939
▁albert	-11.2939
▁sleepyhead	-11.2939
▁repay	-11.2939
▁zap	-11.2939
▁jab	-11.2939
▁hesitate	-11.2939
▁daydreams	-11.2939
▁theater	-11.294
▁projection	-11.294
▁armour	-11.294
▁swap	-11.294
▁grumpy	-11.294
▁mammal	-11.294
▁management	-11.294
▁strategy	-11.294
▁trek	-11.294
▁grouse	-11.294
▁arranging	-11.294
▁thrive	-11.294
▁psst	-11.294
▁stoked	-11.294
▁shovel	-11.294
▁improving	-11.294
▁basis	-11.2941
▁acquired	-11.2941
▁obliged	-11.2941
▁ravage	-11.2941
▁mimic	-11.2941
▁commerc	-11.2941
▁travelled	-11.2941
▁seafar	-11.2941
▁blubber	-11.2942
▁embarrassed	-11.2942
▁overreac	-11.2942
▁travelling	-11.2942
▁increasingly	-11.2942
▁motherhood	-11.2942
▁betterthan	-11.2942
▁gidd	-11.2942
▁yell	-11.2942
lulu	-11.2942
merel	-11.2943
gative	-11.2943
▁artistic	-11.2943
▁lilia	-11.2943
▁sway	-11.2943
▁loire	-11.2943
▁budget	-11.2943
▁unreal	-11.2943
reliable	-11.2943
▁session	-11.2943
▁educational	-11.2943
▁reef	-11.2943
▁investigate	-11.2944
▁jammed	-11.2944
▁marina	-11.2944
▁lagoona	-11.2944
▁stable	-11.2944
▁yelping	-11.2944
▁diviners	-11.2944
▁armand	-11.2945
▁dazzle	-11.2945
▁rebellion	-11.2945
▁theory	-11.2945
▁purse	-11.2945
▁croaking	-11.2945
▁daft	-11.2945
▁starboard	-11.2946
▁chica	-11.2946
▁willin	-11.2946
▁stock	-11.2946
▁juice	-11.2946
▁marta	-11.2946
▁sober	-11.2946
▁murderous	-11.2947
▁honourable	-11.2947
▁mocking	-11.2947
▁insubordinat	-11.2947
▁knob	-11.2947
▁braid	-11.2948
▁fender	-11.2948
▁published	-11.2948
▁superb	-11.2948
▁sensational	-11.2948
▁bonus	-11.2948
▁dragging	-11.2948
▁selection	-11.2949
▁tidy	-11.2949
▁pucker	-11.2949
▁popped	-11.2949
▁gourd	-11.2949
▁chlo	-11.295
▁gomez	-11.295
▁riddle	-11.295
▁rooftop	-11.295
▁ballroom	-11.2951
▁kong	-11.2951
berries	-11.2951
▁sickness	-11.2951
▁stamped	-11.2952
▁crap	-11.2952
nerlo	-11.2952
▁toil	-11.2952
▁restricted	-11.2952
▁ramp	-11.2952
▁arf	-11.2953
▁rogue	-11.2953
▁possession	-11.2954
▁capone	-11.2955
▁jake	-11.2955
▁copy	-11.2957
▁lighthouse	-11.2957
▁smashed	-11.2957
▁mantel	-11.2958
▁wetter	-11.2958
▁francs	-11.2958
▁exalt	-11.2958
▁conclude	-11.2958
▁skateboarder	-11.2958
▁rash	-11.2958
▁brighten	-11.2958
▁lunatic	-11.2959
▁requirement	-11.296
▁eddie	-11.296
▁roaster	-11.296
▁sample	-11.296
▁springtime	-11.296
▁occupan	-11.296
▁sandwiches	-11.2961
▁salva	-11.2961
▁countess	-11.2961
▁lobby	-11.2961
▁coins	-11.2962
▁mourning	-11.2962
▁flashes	-11.2962
▁tempting	-11.2962
▁their	-11.2962
▁ahso	-11.2962
▁blisters	-11.2962
▁canceled	-11.2963
▁betrayed	-11.2964
rant	-11.2964
▁millimeter	-11.2964
▁escaping	-11.2964
▁reserves	-11.2964
▁interacting	-11.2964
▁hoof	-11.2965
▁pylons	-11.2965
▁makebelieve	-11.2965
▁contenders	-11.2965
▁patterns	-11.2965
▁spreadsheets	-11.2965
▁bloom	-11.2965
▁stutters	-11.2965
▁shutting	-11.2965
▁wires	-11.2965
▁threaten	-11.2966
▁tresses	-11.2966
▁qi	-11.2966
▁oxy	-11.2967
▁robbing	-11.2967
▁fashionable	-11.2967
asses	-11.2968
▁sandals	-11.2968
plex	-11.2968
▁naught	-11.2969
▁shiver	-11.2969
▁toxic	-11.2969
▁protest	-11.297
▁backyard	-11.297
▁tickles	-11.297
▁annie	-11.297
▁jose	-11.2971
▁adore	-11.2971
▁grill	-11.2971
▁valid	-11.2972
▁cease	-11.2973
▁production	-11.2974
morons	-11.2975
▁bev	-11.2975
▁flutter	-11.2976
▁polished	-11.2976
▁wallet	-11.2976
▁saad	-11.2976
▁swine	-11.2977
▁psycho	-11.2977
▁batch	-11.2978
▁nanny	-11.2978
▁beaten	-11.2979
▁ceo	-11.2979
▁mutters	-11.298
▁helm	-11.298
▁fend	-11.2981
▁desperately	-11.2981
▁replaced	-11.2981
▁serpent	-11.2981
▁deceived	-11.2981
▁snarls	-11.2982
exter	-11.2983
▁pancakes	-11.2983
▁dried	-11.2985
▁instantly	-11.2986
▁positively	-11.2986
▁bumped	-11.2986
▁rover	-11.2986
▁abandoned	-11.2987
▁witnesses	-11.2987
▁preserved	-11.2987
▁gai	-11.2987
▁blunt	-11.2988
▁shocked	-11.2988
▁stripes	-11.2989
▁endured	-11.2989
▁whisky	-11.299
▁yaah	-11.299
▁described	-11.299
▁louder	-11.2992
▁thrilled	-11.2992
▁hooker	-11.2993
▁ashes	-11.2993
▁manual	-11.2993
▁isa	-11.2994
▁emanati	-11.2995
▁development	-11.2995
▁trim	-11.2996
▁connected	-11.2997
▁straighten	-11.2998
hair	-11.2998
▁entertaining	-11.2999
▁surp	-11.2999
▁refus	-11.2999
▁ached	-11.2999
▁bullying	-11.3
▁frost	-11.3001
▁static	-11.3001
▁solo	-11.3002
▁boyard	-11.3004
▁wrapped	-11.3005
▁blond	-11.3005
▁boulder	-11.3006
▁pee	-11.3006
▁blooms	-11.3006
▁cured	-11.3007
▁ranks	-11.3007
▁swipe	-11.3008
▁hitting	-11.3008
▁neglected	-11.301
they	-11.301
▁inventing	-11.3012
▁cheeks	-11.3013
▁troop	-11.3014
▁sheiks	-11.3014
nterpol	-11.3015
▁kettles	-11.3015
▁stinking	-11.3016
▁stamps	-11.3016
▁vow	-11.3016
▁ankles	-11.3016
▁criminals	-11.3017
▁roasting	-11.3017
▁cigarettes	-11.3017
▁consequences	-11.3017
▁cowboys	-11.3017
▁personne	-11.3017
ti	-11.3017
▁reminder	-11.3018
▁melted	-11.3018
▁roman	-11.3019
▁feei	-11.3019
▁casa	-11.3019
▁enthusiast	-11.302
▁distress	-11.302
▁fastest	-11.302
ular	-11.3021
▁sealed	-11.3021
▁fireman	-11.3022
▁sweat	-11.3022
▁wonderin	-11.3023
▁surf	-11.3026
▁slay	-11.3027
venue	-11.3028
▁eric	-11.3029
▁hopewell	-11.303
convenient	-11.3031
▁sweater	-11.3031
▁wealthy	-11.3032
▁believing	-11.3033
now	-11.3033
▁webs	-11.3033
▁okinawan	-11.3034
▁strat	-11.3034
▁income	-11.3035
▁connect	-11.3036
▁chime	-11.3036
▁slope	-11.3037
▁burnt	-11.3037
▁mills	-11.3038
▁blended	-11.3038
▁shaken	-11.304
▁decreed	-11.304
extinct	-11.3043
▁email	-11.3044
▁tighter	-11.3046
tches	-11.3048
▁focused	-11.3048
ess	-11.3048
carbon	-11.3049
▁cheating	-11.3049
▁cargo	-11.3049
acas	-11.3049
▁moat	-11.305
▁prosper	-11.305
andy	-11.3051
▁foxes	-11.3052
yeyed	-11.3053
▁disarm	-11.3054
▁mustard	-11.3054
▁fluid	-11.3056
bbing	-11.3059
▁suckers	-11.3061
libert	-11.3061
▁oof	-11.3061
▁blasting	-11.3062
▁mixed	-11.3062
▁vidas	-11.3063
▁depths	-11.3066
▁flocks	-11.3067
▁curtains	-11.3069
▁cabooses	-11.3069
▁demons	-11.3069
▁heii	-11.307
▁drowning	-11.3071
▁followers	-11.3072
▁accepted	-11.3072
▁scatter	-11.3073
▁defense	-11.3074
▁nervously	-11.3074
oever	-11.3075
▁teenager	-11.3076
▁rhyme	-11.3076
▁fantas	-11.3077
▁ascend	-11.3078
▁knots	-11.3078
▁guided	-11.3081
▁colour	-11.3081
▁galax	-11.3083
edible	-11.3084
▁bop	-11.3086
▁inspire	-11.3087
▁requested	-11.309
▁hottie	-11.3093
▁provided	-11.3095
▁highways	-11.3096
▁jingle	-11.3096
sque	-11.3097
aise	-11.3099
▁gloves	-11.31
▁nighttime	-11.31
▁raid	-11.3102
ki	-11.3107
▁claws	-11.3107
▁chunk	-11.3109
▁arenas	-11.311
▁accounting	-11.3112
▁qua	-11.3112
ile	-11.3113
▁treating	-11.3114
▁furious	-11.3116
▁delivery	-11.3117
▁flowing	-11.3117
▁goodnight	-11.3117
scarred	-11.3118
pho	-11.3119
timate	-11.3119
▁pooch	-11.3121
▁parisa	-11.3121
▁makeup	-11.3121
▁misfortunes	-11.3122
▁appearances	-11.3123
▁tangle	-11.3125
▁hothead	-11.3125
▁reek	-11.3125
▁loosen	-11.3128
fect	-11.3128
haveyou	-11.3128
agging	-11.313
▁handful	-11.3132
▁michel	-11.3134
▁nearer	-11.3136
▁meantime	-11.3136
▁playin	-11.3137
▁filmmak	-11.3137
lsey	-11.3137
▁harmed	-11.3138
urus	-11.3139
▁math	-11.3139
▁toss	-11.3141
▁heron	-11.3146
▁killin	-11.3146
▁suggesting	-11.3148
▁maley	-11.315
bound	-11.3151
▁chicks	-11.3151
▁qu	-11.3152
oni	-11.3152
shot	-11.3152
▁collapse	-11.3153
▁commute	-11.3153
city	-11.3153
▁cornered	-11.3154
▁crowned	-11.3158
ermit	-11.3159
▁packed	-11.3159
▁knocked	-11.3161
▁stinks	-11.3161
▁particles	-11.3175
▁bastards	-11.3175
▁materials	-11.3176
▁magazines	-11.3176
▁stow	-11.3176
▁spices	-11.3183
▁whoop	-11.3187
▁tele	-11.3191
▁classics	-11.3191
▁bold	-11.3193
▁bil	-11.3193
▁stored	-11.3196
▁eatin	-11.3196
ita	-11.3197
nourished	-11.3199
▁lati	-11.3201
▁kay	-11.3202
▁amuse	-11.3205
▁risky	-11.3206
▁towels	-11.3208
▁occurre	-11.3211
▁ascen	-11.3212
▁adding	-11.3212
▁tricked	-11.3214
ria	-11.322
▁gladly	-11.3221
▁seals	-11.3224
▁standard	-11.3225
▁lassie	-11.3225
▁goof	-11.3229
▁quarters	-11.3229
▁sunk	-11.3233
▁importantly	-11.324
▁bass	-11.324
▁conc	-11.3241
▁ideals	-11.3243
▁caps	-11.3244
▁lunches	-11.3248
▁player	-11.3248
▁wipe	-11.3254
▁loan	-11.3258
▁pages	-11.3258
▁liars	-11.3271
▁earned	-11.3272
▁smiled	-11.3278
▁tote	-11.328
▁peanuts	-11.3282
▁programs	-11.3282
wer	-11.3283
▁pamp	-11.3283
otto	-11.3285
▁starve	-11.3287
▁replace	-11.3289
▁boar	-11.3292
▁limits	-11.3294
▁arti	-11.3297
▁carve	-11.3298
▁kinder	-11.3298
▁wilt	-11.33
▁gunfighter	-11.3301
▁paskat	-11.3302
▁operate	-11.3303
▁bean	-11.3304
▁pipes	-11.3308
▁magnets	-11.3315
▁sham	-11.3315
chy	-11.3315
▁performing	-11.3317
gator	-11.3321
▁pleasing	-11.3323
fi	-11.3326
▁gradua	-11.3332
▁wax	-11.3333
▁crystals	-11.3335
▁connections	-11.3336
eams	-11.3338
gue	-11.3339
▁entering	-11.3339
▁ph	-11.3345
▁honesty	-11.3349
▁habits	-11.3353
▁boarded	-11.3354
▁cel	-11.3358
▁skaters	-11.3364
▁shoo	-11.3371
▁youyou	-11.3372
▁edit	-11.3373
▁stays	-11.3376
▁laughed	-11.3377
▁acted	-11.3377
▁soaps	-11.3381
▁panels	-11.3386
▁legends	-11.3389
▁scatt	-11.3391
did	-11.3393
▁strangle	-11.3395
▁fishes	-11.3399
▁parrot	-11.34
▁guil	-11.3404
vaga	-11.3404
umn	-11.341
▁whoah	-11.3413
▁prob	-11.3431
▁bolt	-11.3432
▁eagles	-11.3441
▁covering	-11.3443
▁squat	-11.3443
▁lit	-11.3444
▁louise	-11.3453
▁sieep	-11.3457
month	-11.3464
▁statu	-11.3476
ament	-11.3477
▁select	-11.348
▁malenkaya	-11.3485
▁vanishe	-11.3485
▁grease	-11.3488
▁teaching	-11.349
▁lantern	-11.3495
▁relationships	-11.3496
▁mold	-11.35
▁hlro	-11.3507
▁overhear	-11.351
▁bowls	-11.3514
▁mexic	-11.3516
▁buckle	-11.3516
isten	-11.3523
▁depress	-11.3527
▁aide	-11.353
▁shifts	-11.3532
▁midmorni	-11.3533
osity	-11.3534
▁measur	-11.3537
▁lndians	-11.3548
vation	-11.3549
▁decisions	-11.3549
scribed	-11.355
randa	-11.3552
aries	-11.3556
▁joyous	-11.3556
▁yuck	-11.3559
▁poss	-11.3569
▁scenes	-11.3574
▁hum	-11.3576
rill	-11.358
fortunately	-11.3581
pkin	-11.3591
▁mommas	-11.3595
▁soak	-11.3599
▁plains	-11.3599
▁recipes	-11.3602
▁childhoods	-11.3603
▁films	-11.3609
▁surre	-11.361
▁wal	-11.3625
▁pas	-11.3634
▁sling	-11.364
suitable	-11.3641
▁undress	-11.3656
▁nightmares	-11.3656
▁with	-11.3657
▁posts	-11.3661
▁communit	-11.3665
stand	-11.3668
▁occasions	-11.3668
▁halls	-11.367
▁andre	-11.3671
▁lyrical	-11.3685
▁brains	-11.3691
uck	-11.37
lfish	-11.3702
▁pod	-11.3707
▁videos	-11.3708
▁tongues	-11.371
quit	-11.3725
iled	-11.3726
▁traps	-11.3727
▁reassign	-11.373
▁zan	-11.3732
ening	-11.3733
▁seren	-11.3737
▁purr	-11.3741
▁bench	-11.3741
▁minor	-11.3745
bara	-11.3754
▁sang	-11.3754
▁ups	-11.3759
▁rolls	-11.3785
▁tails	-11.3791
upa	-11.3794
▁crews	-11.3799
fudg	-11.38
▁tasks	-11.3805
van	-11.3814
▁cajellas	-11.3816
hach	-11.3818
▁cells	-11.3828
▁knit	-11.3837
▁coal	-11.384
▁foundation	-11.3847
elf	-11.3858
ls	-11.3866
lrus	-11.3868
ows	-11.387
uchin	-11.387
ite	-11.3871
▁archaeolog	-11.3878
uction	-11.3885
▁hog	-11.3894
▁cakes	-11.3898
▁travels	-11.3899
▁qualif	-11.3909
▁iake	-11.3916
▁rump	-11.3917
▁gad	-11.3919
▁pizzas	-11.3921
▁comp	-11.3928
ingly	-11.3931
ire	-11.3944
ike	-11.395
▁aunts	-11.395
aying	-11.3953
▁dan	-11.3954
▁stream	-11.3955
▁kilo	-11.3959
▁gim	-11.3961
▁nue	-11.3966
arian	-11.3969
▁clove	-11.3987
eth	-11.3989
uddle	-11.3998
▁seed	-11.4
pee	-11.4008
▁sav	-11.4009
▁traditions	-11.401
histles	-11.4013
▁ent	-11.4014
▁dressing	-11.402
▁faker	-11.4024
lar	-11.4024
▁celesti	-11.4029
▁conspir	-11.4031
after	-11.4032
▁jobs	-11.4037
▁gov	-11.4038
▁rug	-11.4052
▁hah	-11.4073
aft	-11.4075
▁reports	-11.4075
ism	-11.4077
▁trom	-11.4084
▁ame	-11.4103
port	-11.4104
▁glade	-11.4105
▁batt	-11.4113
ittle	-11.4128
▁rc	-11.4132
▁hil	-11.4137
▁fianc	-11.4154
▁lsa	-11.4155
tender	-11.4155
▁attacks	-11.4178
▁races	-11.4186
track	-11.419
cian	-11.4193
rest	-11.4219
▁dreamt	-11.4225
cia	-11.4225
ga	-11.4229
▁physici	-11.4232
▁uncover	-11.4251
▁crowded	-11.4252
▁ram	-11.4254
▁dail	-11.4261
▁fist	-11.4265
ston	-11.4267
never	-11.4278
▁expos	-11.4284
hopping	-11.429
▁est	-11.4294
elves	-11.4296
▁gent	-11.4297
▁hick	-11.43
▁pies	-11.4305
hol	-11.4309
sons	-11.4318
▁gru	-11.432
hle	-11.4328
▁prostitut	-11.4337
▁figurati	-11.4354
▁ww	-11.4355
amps	-11.4356
rrow	-11.4366
witch	-11.4367
gal	-11.4368
ather	-11.437
dding	-11.4374
▁diet	-11.4375
▁bess	-11.4375
▁belonging	-11.4376
▁yak	-11.4377
lina	-11.4383
itty	-11.4387
▁dippe	-11.4398
▁hotte	-11.4403
▁cher	-11.4407
ust	-11.4419
▁engineer	-11.4427
min	-11.4436
▁scrap	-11.4445
ante	-11.4448
ew	-11.446
▁construct	-11.4481
si	-11.4495
▁pops	-11.4527
rrr	-11.4529
rm	-11.453
▁core	-11.4535
horn	-11.4541
▁sniffl	-11.4548
▁tur	-11.4557
▁outrun	-11.4561
▁sticks	-11.4562
alami	-11.4565
ones	-11.4566
gone	-11.457
lling	-11.4571
ris	-11.4578
town	-11.4594
▁foods	-11.4597
▁trucks	-11.4607
▁newly	-11.4615
ence	-11.4616
▁prec	-11.4635
eaving	-11.4677
▁unse	-11.4709
rove	-11.4715
▁mates	-11.4735
ered	-11.4754
▁futures	-11.478
titude	-11.4783
▁pupp	-11.4783
▁sunb	-11.4789
nto	-11.4803
▁uni	-11.4803
emper	-11.4829
▁elses	-11.4831
▁pleasures	-11.4835
▁lin	-11.4839
ony	-11.484
gh	-11.4841
hood	-11.4842
▁fra	-11.4858
ise	-11.4859
lack	-11.4867
▁spr	-11.4878
liding	-11.4886
▁crane	-11.4889
tipped	-11.4892
▁glo	-11.4898
▁dement	-11.49
▁fare	-11.4906
▁bros	-11.4908
omet	-11.4909
▁spoils	-11.494
mate	-11.4955
row	-11.4958
▁smash	-11.496
inal	-11.4963
mation	-11.4973
▁chand	-11.4983
▁rav	-11.499
▁psychi	-11.4991
▁rangers	-11.4994
▁positions	-11.4996
▁commands	-11.5007
▁drawer	-11.5013
▁assemble	-11.5022
▁rhythmic	-11.5028
ib	-11.504
▁grabs	-11.5053
lai	-11.5053
ically	-11.5054
parable	-11.5065
jury	-11.5075
edition	-11.5076
▁certif	-11.5083
▁screen	-11.5092
top	-11.51
bi	-11.5122
▁envi	-11.5136
ron	-11.5145
vous	-11.5194
headed	-11.5206
cc	-11.521
itz	-11.5211
ab	-11.5212
enade	-11.5219
▁psych	-11.522
icate	-11.522
▁reel	-11.522
▁wretch	-11.5225
iiy	-11.5228
▁assembl	-11.5241
▁terr	-11.525
▁wink	-11.5257
▁paras	-11.5258
▁sca	-11.5258
ump	-11.5266
hi	-11.5275
hold	-11.5282
any	-11.5284
▁rot	-11.5285
▁ste	-11.529
su	-11.5295
nvestment	-11.5316
bucket	-11.5325
tz	-11.5337
▁defin	-11.5373
▁drug	-11.5375
▁parks	-11.5384
▁tastes	-11.5387
roth	-11.5414
▁bred	-11.5423
pen	-11.5431
▁und	-11.5437
ru	-11.5439
▁kl	-11.5449
▁cam	-11.5452
▁dar	-11.5454
▁fivepoints	-11.5458
vent	-11.5458
▁sche	-11.5463
▁refine	-11.5468
tan	-11.5472
▁springs	-11.5493
▁listens	-11.5497
▁grower	-11.55
af	-11.5515
ther	-11.5517
▁clink	-11.5522
▁ooooo	-11.5522
▁cruis	-11.5544
za	-11.5556
▁whims	-11.5559
▁trusting	-11.5571
di	-11.5591
▁uran	-11.5602
ith	-11.5604
▁pauls	-11.5604
▁mea	-11.5605
moi	-11.5606
ger	-11.5608
sick	-11.5616
▁ripe	-11.562
izzy	-11.5639
▁bei	-11.5642
dom	-11.565
▁sho	-11.5654
▁rust	-11.5663
▁shoots	-11.5668
▁plum	-11.567
lapped	-11.568
uh	-11.5701
championships	-11.5703
▁scholars	-11.5718
▁hides	-11.5734
▁sk	-11.5751
▁nipp	-11.5751
enne	-11.5752
▁spar	-11.5752
▁thati	-11.5773
iards	-11.5775
nows	-11.5777
ache	-11.5786
▁lucki	-11.5799
▁vandergelders	-11.5813
▁exceptional	-11.5821
▁sass	-11.5831
▁hmmm	-11.5838
▁sparkle	-11.5839
▁inhale	-11.5854
ggle	-11.5857
▁smuggle	-11.5875
tie	-11.5879
▁univers	-11.5907
kin	-11.591
tres	-11.5927
▁lung	-11.5942
ores	-11.5945
▁wing	-11.5946
ik	-11.5963
uni	-11.5974
eek	-11.5976
gible	-11.5978
▁diploma	-11.5986
tra	-11.5994
▁kit	-11.6006
▁neat	-11.6026
stan	-11.6034
▁centa	-11.6038
uz	-11.604
links	-11.6075
llow	-11.6087
▁hint	-11.6102
▁include	-11.6105
▁babys	-11.6109
▁mega	-11.6115
▁remembering	-11.6127
▁verse	-11.6163
veal	-11.6177
▁prev	-11.6177
main	-11.6181
▁mare	-11.6194
▁decorat	-11.6202
ound	-11.6203
▁pig	-11.621
ugging	-11.6212
▁mini	-11.6217
▁compose	-11.6224
ze	-11.6231
inding	-11.6245
▁equ	-11.6265
fit	-11.6268
▁gy	-11.6274
graphy	-11.6276
ative	-11.6291
poly	-11.631
▁hears	-11.6315
witched	-11.6328
nes	-11.6329
▁ov	-11.6358
oudly	-11.6366
▁practic	-11.6372
▁justi	-11.6373
issy	-11.6386
▁za	-11.6391
ose	-11.6401
▁prima	-11.6402
iar	-11.6414
▁disinte	-11.6417
nut	-11.6417
▁dre	-11.6423
▁pierce	-11.6435
▁rep	-11.6438
▁log	-11.6441
mer	-11.6446
tre	-11.645
rating	-11.645
▁mont	-11.6457
▁elevate	-11.6474
▁testif	-11.6474
▁some	-11.6485
▁obi	-11.6499
arms	-11.6508
▁pot	-11.6512
ches	-11.6515
▁vers	-11.6525
▁web	-11.6534
▁caress	-11.6545
ania	-11.6557
▁mash	-11.656
▁hen	-11.6571
iii	-11.6574
arrow	-11.658
yeah	-11.6589
▁gonde	-11.6594
ooding	-11.6594
▁favorabl	-11.6605
ief	-11.6605
lla	-11.661
lt	-11.6613
used	-11.6656
▁af	-11.6657
ham	-11.6658
▁cre	-11.6667
mes	-11.6685
lipped	-11.6708
coming	-11.6711
▁dinners	-11.6712
▁antiqu	-11.6716
night	-11.6716
ri	-11.6734
▁miner	-11.674
aph	-11.6753
▁rebell	-11.6754
kar	-11.676
dry	-11.6763
make	-11.6783
amin	-11.6806
▁buff	-11.6813
tania	-11.6833
lon	-11.6839
ading	-11.6844
▁kil	-11.6847
mony	-11.6848
riving	-11.6855
▁guer	-11.6884
▁skipp	-11.6905
▁andr	-11.6912
▁rack	-11.6916
mama	-11.6918
▁logical	-11.6922
aiiy	-11.6932
▁fam	-11.6934
▁rocke	-11.695
ologists	-11.6961
ragged	-11.697
▁inconsisten	-11.6971
▁gra	-11.6975
amp	-11.6981
ff	-11.699
tem	-11.699
lah	-11.6996
▁cons	-11.7014
▁woo	-11.7033
▁settlin	-11.7039
▁engrav	-11.7058
▁prope	-11.707
▁vocali	-11.7075
▁coil	-11.7076
▁pest	-11.7082
two	-11.71
sman	-11.7117
bb	-11.7119
aning	-11.7141
rene	-11.7152
boarding	-11.7157
mmer	-11.7158
ct	-11.7161
em	-11.7178
unky	-11.7179
sters	-11.7183
when	-11.7189
▁nic	-11.7192
▁supposin	-11.7193
alling	-11.7193
print	-11.7193
tubb	-11.7195
▁babysit	-11.7201
▁slam	-11.7201
▁atten	-11.7212
▁lov	-11.7217
father	-11.7237
▁cucko	-11.7255
isco	-11.7255
▁languages	-11.7261
▁norma	-11.7262
ung	-11.7262
oose	-11.7263
pit	-11.7271
▁pim	-11.7277
▁je	-11.7285
▁dist	-11.7286
itive	-11.7287
action	-11.7288
win	-11.7293
▁identi	-11.7297
▁owners	-11.73
▁ping	-11.7312
whats	-11.7315
friend	-11.7317
pl	-11.7327
den	-11.7327
three	-11.7331
bird	-11.7348
mind	-11.7351
▁rating	-11.7356
door	-11.7356
▁eleva	-11.7359
▁replac	-11.736
ants	-11.7372
girl	-11.7373
earned	-11.738
oon	-11.7382
med	-11.7389
cast	-11.7398
lish	-11.741
▁rides	-11.7415
▁thi	-11.7426
roni	-11.7432
master	-11.7434
▁sup	-11.7436
▁spun	-11.7439
consistent	-11.744
agged	-11.7471
quaint	-11.7473
power	-11.7478
isnt	-11.7483
▁sauc	-11.7483
oop	-11.7484
wash	-11.7495
fa	-11.7498
▁occur	-11.7499
▁reads	-11.7499
pending	-11.7506
oodle	-11.7515
raff	-11.7516
maid	-11.7516
ido	-11.7517
word	-11.752
elie	-11.752
left	-11.7522
▁vest	-11.7523
▁or	-11.7527
set	-11.7529
park	-11.7532
but	-11.7534
▁trou	-11.7534
break	-11.7535
job	-11.7536
omin	-11.7544
flow	-11.7551
▁satisf	-11.7551
▁etern	-11.7556
heart	-11.7561
spite	-11.7565
lost	-11.7572
zi	-11.7573
▁skip	-11.7576
pion	-11.7578
minded	-11.7582
▁collaps	-11.7589
iving	-11.7592
▁ink	-11.7594
j	-11.7599
phone	-11.7603
▁bou	-11.7607
storm	-11.7607
different	-11.7609
▁scu	-11.7609
sky	-11.7615
ladies	-11.762
feet	-11.7623
opsy	-11.7631
determine	-11.7631
cycle	-11.7634
trollin	-11.7635
▁ther	-11.7635
anymore	-11.7637
later	-11.7638
▁brok	-11.7639
wife	-11.764
▁lea	-11.7642
clear	-11.7642
▁incline	-11.7647
been	-11.7649
case	-11.7653
▁civil	-11.7655
paul	-11.7656
burger	-11.7659
talent	-11.766
walk	-11.7662
▁nos	-11.7662
write	-11.7665
pot	-11.7666
ums	-11.7667
mydochka	-11.7667
jack	-11.7668
broken	-11.7672
▁rig	-11.768
joy	-11.7681
logy	-11.7682
▁rubb	-11.7683
woof	-11.7683
joyous	-11.7685
michel	-11.7687
▁oppos	-11.7687
ex	-11.7695
loaded	-11.7695
mor	-11.7695
square	-11.7698
fire	-11.7701
▁umb	-11.7701
vision	-11.7702
glass	-11.7702
belief	-11.7704
pistol	-11.7706
class	-11.7707
driver	-11.7709
dollar	-11.7709
▁swingin	-11.7711
pants	-11.7715
watch	-11.7717
flower	-11.7718
arranged	-11.772
yearold	-11.7721
louis	-11.7723
western	-11.7723
roots	-11.7728
responsible	-11.7734
ox	-11.7735
▁nois	-11.7736
▁ali	-11.7738
▁gag	-11.7739
loyal	-11.774
winning	-11.7744
apple	-11.7751
colour	-11.7751
lag	-11.7753
uga	-11.7753
hunters	-11.7753
climat	-11.7757
sync	-11.7757
prints	-11.7758
lend	-11.7761
▁involve	-11.7762
tun	-11.7763
▁gala	-11.7764
ites	-11.7766
nner	-11.7773
lucky	-11.7774
▁escap	-11.7775
▁fisherm	-11.7775
okie	-11.7776
▁zip	-11.7777
▁stew	-11.7778
coal	-11.778
chilling	-11.7782
pri	-11.7782
▁owl	-11.7784
card	-11.7788
wine	-11.779
▁miyajima	-11.779
▁costume	-11.779
▁skunk	-11.779
▁survivor	-11.7791
▁pillar	-11.7792
▁improvement	-11.7792
▁inmate	-11.7793
loom	-11.7795
tering	-11.7796
rist	-11.7796
operate	-11.7798
tech	-11.7799
▁consequence	-11.7802
▁criminal	-11.7802
▁cigarette	-11.7803
▁ankle	-11.7803
lifting	-11.7804
▁cowboy	-11.7806
▁troubl	-11.7806
▁kettle	-11.7806
roads	-11.7807
▁sheik	-11.7808
saving	-11.7809
ken	-11.781
▁stepsister	-11.7811
▁colleague	-11.7811
▁stamp	-11.7812
▁cheek	-11.7814
pots	-11.7815
▁duckling	-11.7817
▁robber	-11.7818
▁sucker	-11.782
▁persian	-11.7828
dict	-11.7829
▁fro	-11.783
▁consist	-11.7831
▁tourist	-11.7832
bond	-11.7834
▁snobb	-11.7835
▁climbin	-11.784
▁mane	-11.7843
eared	-11.7845
umber	-11.7845
▁how	-11.7846
▁shutter	-11.7852
▁stewar	-11.7856
inos	-11.7859
block	-11.7863
▁tempt	-11.7867
▁deceiv	-11.7869
▁snarl	-11.7872
▁responsibi	-11.7873
igi	-11.7873
▁interact	-11.7874
▁disgust	-11.7878
grapher	-11.788
▁amaz	-11.7881
▁oak	-11.7881
mission	-11.7884
▁consult	-11.7885
▁drift	-11.7886
▁hound	-11.7886
▁distract	-11.7891
▁mourn	-11.7892
▁gener	-11.7893
▁swoon	-11.7893
mas	-11.7893
rench	-11.7894
▁zach	-11.7894
▁visitor	-11.7894
fell	-11.7896
▁princip	-11.7896
tick	-11.7897
▁incredibl	-11.7897
▁celebr	-11.7898
▁feminin	-11.7898
▁employ	-11.7898
▁vault	-11.7899
▁snug	-11.7901
▁astronom	-11.7901
▁stumble	-11.7903
▁rehearse	-11.7903
▁casin	-11.7904
▁cherish	-11.7905
▁restrict	-11.7906
▁secre	-11.7907
▁russia	-11.7907
▁neces	-11.7907
firm	-11.7913
▁sneakin	-11.7914
orted	-11.7914
▁victor	-11.7915
▁germa	-11.7916
▁persia	-11.7916
sta	-11.7916
▁necessar	-11.7916
cups	-11.7918
▁lagoon	-11.792
▁relieve	-11.792
▁allergi	-11.7921
▁potato	-11.7922
▁increasing	-11.7923
▁engage	-11.7923
▁absolute	-11.7924
▁apparent	-11.7924
▁definite	-11.7925
▁accuse	-11.7925
▁execution	-11.7927
▁commission	-11.7928
▁scoot	-11.7928
▁confident	-11.7929
mpressive	-11.7929
▁crank	-11.793
▁joseph	-11.793
▁accordi	-11.7931
▁porc	-11.7932
▁corrupt	-11.7933
▁invade	-11.7933
▁procla	-11.7933
ddledee	-11.7933
significant	-11.7933
▁ratio	-11.7934
▁chic	-11.7934
▁runnin	-11.7934
▁hydro	-11.7934
▁audit	-11.7935
▁differ	-11.7935
▁process	-11.7935
▁adolescen	-11.7935
▁doppelga	-11.7935
▁embellish	-11.7935
▁highwire	-11.7935
▁inaugura	-11.7935
▁leapfrog	-11.7935
adequate	-11.7935
ubourg	-11.7935
▁absorb	-11.7935
▁acacia	-11.7935
▁accumu	-11.7935
▁aeronautic	-11.7935
▁affliction	-11.7935
▁aiieyoop	-11.7935
▁ambrister	-11.7935
▁analyze	-11.7935
▁anniversary	-11.7935
▁anthropomorphi	-11.7935
▁appreciative	-11.7935
▁approximately	-11.7935
▁arrabiata	-11.7935
▁astaire	-11.7935
▁astronauts	-11.7935
▁astyages	-11.7935
▁attribute	-11.7935
▁automatically	-11.7935
▁balboa	-11.7935
▁bedwetting	-11.7935
▁bikini	-11.7935
▁bizarre	-11.7935
▁blundering	-11.7935
▁bourdieu	-11.7935
▁brigantine	-11.7935
▁brumel	-11.7935
▁brunette	-11.7935
▁buffoons	-11.7935
▁burgundy	-11.7935
▁calcutta	-11.7935
▁catalina	-11.7935
▁catastroph	-11.7935
▁cecilia	-11.7935
▁ceiebrat	-11.7935
▁centimetre	-11.7935
▁centuries	-11.7935
▁changyu	-11.7935
▁chelsea	-11.7935
▁chimney	-11.7935
▁chronicle	-11.7935
▁chupacabra	-11.7935
▁cinnamon	-11.7935
▁cobwebs	-11.7935
▁communicating	-11.7935
▁congratulate	-11.7935
▁consorting	-11.7935
▁cymbal	-11.7935
▁daffodils	-11.7935
▁dakota	-11.7935
▁decipher	-11.7935
▁delicacies	-11.7935
▁delicatessen	-11.7935
▁destination	-11.7935
▁discipline	-11.7935
▁dishcloth	-11.7935
▁dolvidadez	-11.7935
▁dynasty	-11.7935
▁efficient	-11.7935
▁eliminate	-11.7935
▁encore	-11.7935
▁enigmatic	-11.7935
▁enthrall	-11.7935
▁envelope	-11.7935
▁eunuch	-11.7935
▁euphrates	-11.7935
▁evacuate	-11.7935
▁excavation	-11.7935
▁excelsis	-11.7935
▁expiain	-11.7935
▁fencing	-11.7935
▁fintastic	-11.7935
▁flimsy	-11.7935
▁florence	-11.7935
▁flotilla	-11.7935
▁furrific	-11.7935
▁furthermore	-11.7935
▁genuine	-11.7935
▁gertrude	-11.7935
▁gonzorgo	-11.7935
▁guercio	-11.7935
▁handkerchief	-11.7935
▁happygolucky	-11.7935
▁heliport	-11.7935
▁henderson	-11.7935
▁heritage	-11.7935
▁hideandseek	-11.7935
▁hippopotamus	-11.7935
▁hormones	-11.7935
▁huckleberry	-11.7935
▁ignoramus	-11.7935
▁illuminate	-11.7935
▁illustrated	-11.7935
▁improvis	-11.7935
▁incentive	-11.7935
▁indigestion	-11.7935
▁industry	-11.7935
▁inflict	-11.7935
▁inhumane	-11.7935
▁intimidat	-11.7935
▁jalape	-11.7935
▁january	-11.7935
▁jeopardize	-11.7935
▁jockey	-11.7935
▁kauai	-11.7935
▁kbmu	-11.7935
▁kelvin	-11.7935
▁labyrinth	-11.7935
▁lennon	-11.7935
▁leprechaun	-11.7935
▁library	-11.7935
▁lobster	-11.7935
▁magellan	-11.7935
▁manufacturer	-11.7935
▁marooned	-11.7935
▁mayonnaise	-11.7935
▁memphis	-11.7935
▁montrachet	-11.7935
▁motorbike	-11.7935
▁newspaper	-11.7935
▁nincompoop	-11.7935
▁nuggets	-11.7935
▁omasoosee	-11.7935
▁ornament	-11.7935
▁outnumbered	-11.7935
▁outsmarted	-11.7935
▁overshadow	-11.7935
▁palmetto	-11.7935
▁pavarotti	-11.7935
▁pelican	-11.7935
▁penetrate	-11.7935
▁perimeter	-11.7935
▁permeability	-11.7935
▁persimmon	-11.7935
▁philanthrop	-11.7935
▁piranha	-11.7935
▁potlatch	-11.7935
▁poundcake	-11.7935
▁precipice	-11.7935
▁prerogative	-11.7935
▁prestige	-11.7935
▁privacy	-11.7935
▁profile	-11.7935
▁prosecute	-11.7935
▁prototype	-11.7935
▁pubiic	-11.7935
▁quarrels	-11.7935
▁radicalized	-11.7935
▁rebuilt	-11.7935
▁refrigerator	-11.7935
▁registration	-11.7935
▁reminiscent	-11.7935
▁replica	-11.7935
▁richieboy	-11.7935
▁rinaldirogers	-11.7935
▁roanoke	-11.7935
▁sabotage	-11.7935
▁satellite	-11.7935
▁scampering	-11.7935
▁seminary	-11.7935
▁shrub	-11.7935
▁sluggish	-11.7935
▁snorkel	-11.7935
▁spinnaker	-11.7935
▁staircase	-11.7935
▁stirrups	-11.7935
▁striptease	-11.7935
▁subtracting	-11.7935
▁sungiasses	-11.7935
▁sunraider	-11.7935
▁suspicion	-11.7935
▁swirling	-11.7935
▁tapageaut	-11.7935
▁teievision	-11.7935
▁telenovela	-11.7935
▁theatrics	-11.7935
▁thoroughbred	-11.7935
▁titihoya	-11.7935
▁trallala	-11.7935
▁treachery	-11.7935
▁trembling	-11.7935
▁trivial	-11.7935
▁turbulence	-11.7935
▁unanswered	-11.7935
▁understatement	-11.7935
▁unleash	-11.7935
▁unprecedented	-11.7935
▁upgrade	-11.7935
▁upstream	-11.7935
▁vaccinat	-11.7935
▁vehicle	-11.7935
▁velocity	-11.7935
▁walkietalkie	-11.7935
▁warthog	-11.7935
▁willoughby	-11.7935
▁winchester	-11.7935
▁zuwa	-11.7935
▁audibly	-11.7935
▁backfiring	-11.7935
▁cocktail	-11.7935
▁coefficient	-11.7935
▁comrades	-11.7935
▁constrict	-11.7935
▁dedication	-11.7935
▁derailment	-11.7935
▁embedded	-11.7935
▁encounter	-11.7935
▁euros	-11.7935
▁forgetfulness	-11.7935
▁formidable	-11.7935
▁gelada	-11.7935
▁ieader	-11.7935
▁magistra	-11.7935
▁maneuver	-11.7935
▁memorable	-11.7935
▁miiiion	-11.7935
▁obligation	-11.7935
▁pablo	-11.7935
▁releasing	-11.7935
▁skydiving	-11.7935
▁stimul	-11.7935
▁sympathy	-11.7935
▁theatricalit	-11.7935
▁transplant	-11.7935
▁tuesday	-11.7935
▁voltageous	-11.7935
▁adonis	-11.7935
▁bleeding	-11.7935
▁croesus	-11.7935
▁humility	-11.7935
▁nauseating	-11.7935
▁plumbing	-11.7935
▁proposing	-11.7935
▁purchas	-11.7935
▁raspy	-11.7935
▁spectacle	-11.7935
▁sprinkle	-11.7935
▁unaware	-11.7935
▁aesthetic	-11.7935
▁bolognese	-11.7935
▁capsule	-11.7935
▁creativity	-11.7935
▁devastat	-11.7935
▁foiks	-11.7935
▁goliath	-11.7935
▁inviting	-11.7935
▁lavish	-11.7935
▁lucifer	-11.7935
▁makebeiieve	-11.7935
▁manhattan	-11.7935
▁pristine	-11.7935
▁profane	-11.7935
▁psychologically	-11.7935
▁saeko	-11.7935
▁utensil	-11.7935
▁zulu	-11.7935
▁banquet	-11.7935
▁vineyard	-11.7935
▁baloney	-11.7935
▁essence	-11.7935
▁integr	-11.7935
▁solitude	-11.7935
▁stupor	-11.7935
▁trinket	-11.7935
▁vulgar	-11.7935
▁abyss	-11.7935
▁commence	-11.7935
▁curtsy	-11.7935
▁ireland	-11.7935
▁montague	-11.7935
▁selfcontained	-11.7935
▁zayn	-11.7935
lzawa	-11.7935
▁assuming	-11.7935
▁daydreaming	-11.7935
▁electronic	-11.7935
▁evident	-11.7935
▁offensive	-11.7935
▁overseer	-11.7935
▁senegal	-11.7935
▁unshelled	-11.7935
▁machete	-11.7935
▁accurate	-11.7935
▁boxcars	-11.7935
▁miaow	-11.7935
▁tremendous	-11.7935
▁vodka	-11.7935
▁ambush	-11.7935
▁beauties	-11.7935
▁maitre	-11.7935
▁blathering	-11.7935
▁herbert	-11.7935
▁jeannette	-11.7935
▁lewis	-11.7935
▁nigeria	-11.7935
▁glitter	-11.7935
▁immature	-11.7935
▁taxpay	-11.7935
▁violin	-11.7935
▁warbler	-11.7935
▁abdication	-11.7935
▁atchoo	-11.7935
▁fuji	-11.7935
▁janitor	-11.7935
▁limestone	-11.7935
▁meditate	-11.7935
▁sproutlings	-11.7935
▁suspended	-11.7935
▁brocade	-11.7935
▁snooty	-11.7935
▁rhino	-11.7935
njun	-11.7935
▁exclaim	-11.7935
▁fifty	-11.7935
▁lipsync	-11.7935
▁pimville	-11.7935
▁barnett	-11.7935
▁reliant	-11.7935
▁sponsorship	-11.7935
▁democratic	-11.7935
▁falcon	-11.7935
▁leonard	-11.7935
▁penniless	-11.7935
▁wrists	-11.7935
▁convenience	-11.7935
▁marijuana	-11.7935
▁unharmed	-11.7935
lchl	-11.7935
▁bandini	-11.7935
▁hospitable	-11.7935
▁infinit	-11.7935
▁sarah	-11.7935
▁slobs	-11.7935
▁devries	-11.7935
▁sabba	-11.7935
▁discern	-11.7935
▁bmw	-11.7935
▁clanging	-11.7935
▁stingray	-11.7935
▁thwart	-11.7935
▁custody	-11.7935
▁indications	-11.7935
▁aurora	-11.7935
▁golfoot	-11.7935
▁blindfold	-11.7935
▁kibble	-11.7935
▁wizard	-11.7935
▁plunge	-11.7935
▁fierce	-11.7935
▁hairdress	-11.7935
▁seedlings	-11.7935
▁oleary	-11.7935
▁arbor	-11.7935
▁flourish	-11.7935
▁disqualified	-11.7935
▁mermaid	-11.7935
▁bracelet	-11.7935
▁nostra	-11.7935
▁blinkin	-11.7935
▁resemblance	-11.7935
▁admiring	-11.7935
▁baptis	-11.7935
▁japin	-11.7935
▁pebble	-11.7935
▁intrud	-11.7935
▁muchacho	-11.7935
▁unanimous	-11.7935
▁razor	-11.7935
ritif	-11.7935
▁halyard	-11.7935
▁katy	-11.7935
▁infrared	-11.7935
▁triumph	-11.7935
▁albertville	-11.7935
▁archives	-11.7935
▁obli	-11.7935
▁discretion	-11.7935
▁frazer	-11.7935
▁chateau	-11.7935
▁sexual	-11.7935
▁heavier	-11.7935
▁intermission	-11.7935
▁apron	-11.7935
▁oyster	-11.7935
▁mythology	-11.7935
▁refund	-11.7935
▁nobility	-11.7935
▁theatre	-11.7935
▁virility	-11.7935
▁overthrow	-11.7935
▁scrapbook	-11.7935
▁disposition	-11.7935
▁sushi	-11.7935
▁cunningham	-11.7935
▁wowzer	-11.7935
▁contraption	-11.7935
▁commis	-11.7935
▁waterfalls	-11.7935
▁cretin	-11.7935
▁doubie	-11.7935
▁refreshments	-11.7935
▁thisaway	-11.7935
▁priority	-11.7935
▁annulled	-11.7935
▁trimming	-11.7935
▁adele	-11.7936
▁saucepan	-11.7936
▁expertise	-11.7936
▁shln	-11.7936
▁congregation	-11.7936
▁mortar	-11.7936
▁excessive	-11.7936
▁evoke	-11.7936
▁patriot	-11.7936
▁imaginary	-11.7936
▁intercom	-11.7936
▁enchantment	-11.7936
▁gratitude	-11.7936
▁competing	-11.7936
▁destructive	-11.7936
▁ordeal	-11.7936
▁cloakroom	-11.7936
▁vegas	-11.7936
▁ukrain	-11.7936
▁bridle	-11.7936
▁outbreak	-11.7936
▁amigo	-11.7936
▁savior	-11.7936
▁cabbage	-11.7936
▁bowwow	-11.7936
▁tofu	-11.7936
▁earrings	-11.7936
▁bunkhouse	-11.7936
▁disrespectful	-11.7936
▁romanticists	-11.7936
▁fraction	-11.7936
▁freakier	-11.7936
▁inscription	-11.7936
▁suede	-11.7936
▁poppet	-11.7936
▁lucien	-11.7936
▁pafro	-11.7936
▁warehouse	-11.7936
cathed	-11.7936
▁generator	-11.7936
▁geologists	-11.7936
terior	-11.7936
▁objections	-11.7936
▁pushpull	-11.7936
▁interior	-11.7936
▁pillage	-11.7936
▁regiment	-11.7936
▁provision	-11.7936
▁serenade	-11.7936
▁scram	-11.7936
▁petti	-11.7936
▁yuan	-11.7936
▁curare	-11.7936
▁plague	-11.7936
▁amenities	-11.7936
▁visible	-11.7936
▁lhc	-11.7936
▁alexei	-11.7936
▁dancin	-11.7936
▁spiritual	-11.7936
▁icecream	-11.7936
▁milord	-11.7936
▁bleache	-11.7936
▁devotion	-11.7936
▁located	-11.7936
▁worldmedia	-11.7936
▁hustle	-11.7936
▁whatnot	-11.7936
▁glide	-11.7936
▁awoke	-11.7936
▁milady	-11.7936
▁adios	-11.7937
▁horrifi	-11.7937
▁neglige	-11.7937
▁changin	-11.7937
▁meatball	-11.7937
▁uboat	-11.7937
▁abide	-11.7937
▁classmate	-11.7937
▁forehead	-11.7937
▁handlebar	-11.7937
▁establishment	-11.7937
▁unveil	-11.7937
▁corset	-11.7937
▁insistence	-11.7937
inlaw	-11.7937
rutab	-11.7937
▁intervene	-11.7937
▁smut	-11.7937
▁doorstep	-11.7937
▁procession	-11.7937
▁minimal	-11.7937
▁postponing	-11.7937
▁attic	-11.7937
▁corruption	-11.7937
▁geneste	-11.7937
▁snead	-11.7937
▁therap	-11.7937
▁asshole	-11.7937
▁snores	-11.7937
▁approval	-11.7937
▁phenomenal	-11.7937
▁fiddledee	-11.7937
comprehend	-11.7937
▁politician	-11.7937
▁network	-11.7937
▁vendor	-11.7937
▁granddad	-11.7937
▁deigo	-11.7937
▁stabbing	-11.7937
▁tremble	-11.7937
▁version	-11.7937
▁mechanical	-11.7937
▁puzzle	-11.7937
▁wasps	-11.7937
▁invaders	-11.7937
▁viper	-11.7938
▁granny	-11.7938
▁snowstorm	-11.7938
▁choking	-11.7938
▁clinic	-11.7938
▁reverend	-11.7938
ization	-11.7938
▁resistance	-11.7938
▁tuttut	-11.7938
▁troublemaker	-11.7938
▁toddle	-11.7938
▁pepper	-11.7938
utiful	-11.7938
▁allure	-11.7938
▁geography	-11.7938
▁marketplace	-11.7938
▁description	-11.7938
▁brung	-11.7938
▁exploit	-11.7938
▁dognappe	-11.7938
▁miami	-11.7938
▁bosun	-11.7938
▁stagger	-11.7938
▁shush	-11.7938
▁reformed	-11.7938
▁kra	-11.7939
▁angemal	-11.7939
▁deedee	-11.7939
▁righteous	-11.7939
▁boredom	-11.7939
▁chimp	-11.7939
▁wonderfui	-11.7939
▁earthbound	-11.7939
whowho	-11.7939
▁electro	-11.7939
▁poetic	-11.7939
▁josephus	-11.7939
▁toilet	-11.7939
▁aisle	-11.7939
▁babbling	-11.794
▁cardboard	-11.794
▁bozo	-11.794
berger	-11.794
▁yiiiii	-11.794
▁hypothetically	-11.794
▁popcorn	-11.794
▁leisurely	-11.794
▁shrink	-11.794
▁stomp	-11.794
▁wagering	-11.794
▁hotshot	-11.794
▁simpson	-11.794
uffy	-11.794
▁inspection	-11.794
▁sevenfoot	-11.794
▁susan	-11.794
▁davinci	-11.794
▁depot	-11.794
▁whoohoohoo	-11.794
▁employee	-11.794
▁tackle	-11.794
▁fleas	-11.794
▁grub	-11.794
▁instructed	-11.794
▁voila	-11.794
▁dripping	-11.794
▁pedant	-11.794
▁artwork	-11.794
▁housekeeper	-11.7941
▁spicy	-11.7941
▁girth	-11.7941
▁confidentiall	-11.7941
▁statuette	-11.7941
▁inlaws	-11.7941
▁hysteria	-11.7941
▁spotlight	-11.7941
▁sworn	-11.7941
▁courtship	-11.7941
▁partnership	-11.7941
▁northeast	-11.7941
▁phine	-11.7941
▁mitten	-11.7941
▁senora	-11.7941
▁blip	-11.7941
▁overnight	-11.7941
▁waterproof	-11.7941
▁breach	-11.7941
▁slickers	-11.7941
▁viral	-11.7941
▁euphranian	-11.7942
▁greatgreatgrand	-11.7942
▁dynamic	-11.7942
▁disappointment	-11.7942
▁pokey	-11.7942
▁fabu	-11.7942
▁unguarded	-11.7942
▁veil	-11.7942
▁parole	-11.7942
▁petty	-11.7942
▁hono	-11.7942
▁campfire	-11.7943
▁nadine	-11.7943
▁salesman	-11.7943
▁undead	-11.7943
▁awareness	-11.7943
▁intense	-11.7943
▁blurry	-11.7943
▁yellin	-11.7943
▁parson	-11.7943
▁surreal	-11.7943
▁ooooh	-11.7943
▁tapestr	-11.7944
▁defile	-11.7944
▁jeweller	-11.7944
▁obedient	-11.7944
▁poppy	-11.7944
▁accountant	-11.7944
▁philosophy	-11.7944
▁temporary	-11.7944
spel	-11.7944
▁trustworthy	-11.7944
▁yummy	-11.7944
▁geese	-11.7944
▁iowa	-11.7944
▁unheard	-11.7944
▁paddlers	-11.7944
▁abundant	-11.7945
▁gondoi	-11.7945
▁entrust	-11.7945
▁medicare	-11.7945
▁farewe	-11.7945
▁dreaded	-11.7945
▁birthright	-11.7945
▁crabby	-11.7945
▁concretion	-11.7945
▁displease	-11.7945
▁drought	-11.7945
▁livin	-11.7946
▁sobs	-11.7946
mar	-11.7946
▁conqueror	-11.7946
▁iost	-11.7946
▁distinguished	-11.7946
▁neater	-11.7946
iulskatfivepoint	-11.7946
▁inherited	-11.7946
▁momoa	-11.7947
▁ensure	-11.7947
▁reserved	-11.7947
▁disposed	-11.7947
▁meoksanochka	-11.7947
▁bulldog	-11.7947
▁luau	-11.7947
▁weakness	-11.7947
mised	-11.7947
▁rainwater	-11.7948
▁info	-11.7948
▁paved	-11.7948
▁disappearance	-11.7948
▁peso	-11.7948
▁storybook	-11.7948
▁specialties	-11.7948
rimstone	-11.7948
▁hurried	-11.7949
▁fiction	-11.7949
▁victimized	-11.7949
▁contractor	-11.7949
▁canned	-11.7949
▁hippo	-11.7949
▁dropping	-11.7949
▁chaos	-11.795
▁traveller	-11.795
▁tension	-11.795
▁stork	-11.795
▁readiness	-11.795
▁lefthanded	-11.795
▁cockroach	-11.795
audible	-11.795
▁taiking	-11.7951
ckles	-11.7951
▁slain	-11.7951
▁devious	-11.7951
▁footage	-11.7952
▁scum	-11.7952
▁graci	-11.7952
▁intriguing	-11.7953
tually	-11.7953
▁admitted	-11.7953
▁shiest	-11.7953
▁trespassing	-11.7953
▁clattering	-11.7953
▁terrif	-11.7953
▁glisten	-11.7953
▁bluffing	-11.7953
▁squawking	-11.7954
revolution	-11.7954
▁beckon	-11.7955
▁cheatin	-11.7955
ecca	-11.7955
ucking	-11.7955
▁frustrated	-11.7955
bet	-11.7955
▁stained	-11.7955
▁wheat	-11.7956
tain	-11.7956
▁awe	-11.7956
▁havin	-11.7956
tobe	-11.7956
ilian	-11.7956
▁swabbi	-11.7956
▁exceed	-11.7956
▁tamper	-11.7957
▁hatred	-11.7957
▁kiddin	-11.7957
▁flattery	-11.7957
▁temptation	-11.7958
▁craze	-11.7958
▁feedback	-11.7958
▁flapping	-11.7958
roaches	-11.7958
▁pollenp	-11.7958
▁circulate	-11.7958
▁trickster	-11.7958
igna	-11.7958
▁cranky	-11.7958
▁shana	-11.7959
▁flushed	-11.7959
▁policemen	-11.7959
▁secretary	-11.7959
▁ancho	-11.7959
▁citymalenkaya	-11.796
lusive	-11.796
▁curry	-11.796
▁countdown	-11.796
▁panther	-11.7961
▁exasperating	-11.7961
▁sideways	-11.7961
▁yapping	-11.7961
▁phar	-11.7961
▁aground	-11.7962
▁flush	-11.7962
delphi	-11.7962
▁falter	-11.7962
▁chico	-11.7963
▁dense	-11.7963
▁ruies	-11.7963
▁figurine	-11.7963
▁teasing	-11.7963
sterda	-11.7964
ckety	-11.7964
▁bestsell	-11.7964
kaya	-11.7965
▁deaf	-11.7965
▁forgiveness	-11.7965
▁oksanawhat	-11.7965
▁telegraphe	-11.7965
▁severe	-11.7965
▁circula	-11.7966
▁marc	-11.7966
▁inches	-11.7966
▁squabbl	-11.7966
▁rehearsed	-11.7966
▁cherished	-11.7966
▁plait	-11.7966
▁tulip	-11.7967
▁sherry	-11.7967
▁guv	-11.7967
▁apprehend	-11.7968
▁willie	-11.7968
▁shameless	-11.7968
▁jade	-11.7968
▁armies	-11.7968
▁multipl	-11.7969
rium	-11.7969
▁lyon	-11.7969
▁fiddle	-11.7969
▁rail	-11.7969
hickey	-11.797
▁infant	-11.797
rella	-11.797
▁realise	-11.7971
▁chinaman	-11.7971
bidden	-11.7972
▁controlling	-11.7972
▁smuggling	-11.7972
▁enchanting	-11.7972
▁jamaica	-11.7972
▁stead	-11.7972
▁stumbled	-11.7973
▁contemplati	-11.7973
▁worid	-11.7973
▁millen	-11.7973
▁carefree	-11.7974
▁pun	-11.7974
▁crops	-11.7974
▁nige	-11.7976
▁animais	-11.7976
quished	-11.7977
▁taxes	-11.7977
▁horan	-11.7977
▁tuck	-11.7977
sty	-11.7977
▁moth	-11.7978
▁associated	-11.7978
▁infest	-11.7978
millionaire	-11.7979
nuck	-11.7979
▁reactor	-11.798
▁eloped	-11.798
▁hardship	-11.798
▁posse	-11.7981
▁frontier	-11.7981
▁taxi	-11.7981
▁thrash	-11.7981
▁explor	-11.7981
▁cemented	-11.7982
▁shameful	-11.7982
▁alto	-11.7982
▁sophisticat	-11.7982
▁theor	-11.7983
▁swooning	-11.7983
▁brute	-11.7983
▁mapped	-11.7983
▁farther	-11.7983
▁linds	-11.7983
▁kayak	-11.7984
▁gleam	-11.7984
▁ciown	-11.7984
▁lifeguard	-11.7985
▁consulting	-11.7985
▁poems	-11.7985
▁yelps	-11.7985
▁apply	-11.7988
uffing	-11.7988
▁savages	-11.7989
▁leopards	-11.7989
▁executives	-11.7989
▁collisions	-11.7989
▁stragglers	-11.7989
▁biscuits	-11.7989
▁postcards	-11.7989
▁microphones	-11.7989
▁crawdads	-11.7989
▁leagues	-11.7989
▁mainlanders	-11.799
rn	-11.799
▁cartwheels	-11.799
▁puttin	-11.799
▁hobb	-11.7991
roswell	-11.7991
▁slug	-11.7991
▁syn	-11.7991
acao	-11.7991
▁explorers	-11.7992
▁shimm	-11.7992
▁projects	-11.7994
▁carnivores	-11.7994
▁jinx	-11.7995
▁hinting	-11.7995
▁babes	-11.7995
▁investor	-11.7997
▁toho	-11.7998
▁sparkly	-11.7998
urre	-11.7998
▁rodeo	-11.7998
▁rosa	-11.8
▁download	-11.8
▁greedy	-11.8
▁takin	-11.8001
▁invested	-11.8003
▁squall	-11.8004
▁winged	-11.8004
▁lovelies	-11.8005
▁hasty	-11.8006
▁lyin	-11.8006
▁starved	-11.8006
▁quo	-11.8007
hou	-11.8008
▁entertained	-11.8008
▁perfumed	-11.8008
▁coron	-11.8009
▁drawings	-11.8009
▁departed	-11.8009
versati	-11.801
▁lightningy	-11.801
▁royalty	-11.801
▁fiower	-11.801
▁markings	-11.801
▁inch	-11.801
ubs	-11.8011
▁genes	-11.8011
▁appointed	-11.8012
▁retreating	-11.8013
▁engineering	-11.8013
▁biologist	-11.8014
▁monty	-11.8014
▁fading	-11.8014
▁yuk	-11.8014
rang	-11.8017
▁alp	-11.8018
▁regional	-11.8021
▁directory	-11.8022
▁caution	-11.8022
▁yorkie	-11.8023
▁oaks	-11.8024
▁aaaah	-11.8024
▁confessed	-11.8024
▁monte	-11.8024
▁grieved	-11.8025
▁faii	-11.8025
▁cutie	-11.8026
▁stealin	-11.8028
▁lln	-11.8028
apar	-11.8028
telli	-11.8029
▁trumps	-11.8029
▁inhabited	-11.8029
▁rumble	-11.803
▁pointless	-11.803
▁frequently	-11.8031
▁coven	-11.8032
▁hatched	-11.8032
▁protector	-11.8032
▁partie	-11.8032
▁clunk	-11.8032
calculation	-11.8032
▁spike	-11.8034
▁vir	-11.8035
▁ag	-11.8035
umph	-11.8037
▁occupied	-11.8038
▁dimension	-11.8038
▁walkway	-11.8038
▁plainly	-11.8039
oops	-11.8039
▁upward	-11.804
release	-11.804
▁fright	-11.8041
▁nook	-11.8041
▁performers	-11.8042
▁ehh	-11.8044
▁jackie	-11.8044
▁organized	-11.8044
▁landmark	-11.8045
▁filter	-11.8047
▁construction	-11.8048
▁snooping	-11.8049
▁romeo	-11.8049
▁overwhelming	-11.805
▁blank	-11.805
▁howled	-11.805
▁attracted	-11.805
▁declared	-11.8051
▁plow	-11.8051
▁rais	-11.8051
▁brah	-11.8054
com	-11.8056
▁huddle	-11.8056
▁chewing	-11.8057
▁bakes	-11.8057
▁bueno	-11.8058
ury	-11.8058
▁knave	-11.8058
gi	-11.806
▁shove	-11.806
▁balanced	-11.806
aiul	-11.8062
▁soaked	-11.8063
▁pledge	-11.8064
▁employed	-11.8064
▁cheated	-11.8065
▁improved	-11.8065
▁whinn	-11.8066
▁flooding	-11.8068
stitching	-11.8068
▁arriv	-11.8069
▁rented	-11.807
▁imitat	-11.807
▁poisoned	-11.807
▁bubbl	-11.8074
▁singin	-11.8077
▁desired	-11.8077
▁humiliat	-11.8077
▁denying	-11.8078
▁enclos	-11.8078
▁hiring	-11.808
▁pillars	-11.808
▁survivors	-11.808
▁locket	-11.808
▁inmates	-11.8081
▁skunks	-11.8081
▁costumes	-11.8082
▁miyajimas	-11.8082
▁improvements	-11.8082
▁shocking	-11.8082
imaginable	-11.8083
▁treetop	-11.8085
urs	-11.8087
▁yum	-11.8089
▁shaker	-11.8092
▁biame	-11.8093
▁omelet	-11.8093
▁glis	-11.8093
lights	-11.8095
▁likin	-11.8096
▁jackal	-11.8097
▁christen	-11.8097
▁yyyy	-11.8097
▁wipes	-11.8098
▁fawn	-11.8098
▁ridin	-11.8099
▁foul	-11.8099
▁jackals	-11.81
▁spade	-11.81
etical	-11.8101
▁pullin	-11.8102
▁grander	-11.8103
▁stir	-11.8103
▁stillness	-11.8104
▁fightin	-11.8104
▁apologized	-11.8106
▁restrain	-11.8107
craft	-11.8107
▁crazie	-11.8107
▁involves	-11.8108
▁nomin	-11.8108
▁pasture	-11.8108
▁strand	-11.8108
▁oats	-11.8108
▁bandage	-11.8111
▁bran	-11.8111
▁tric	-11.8112
▁boxers	-11.8114
▁dunes	-11.8114
▁dumping	-11.812
trogen	-11.8121
gnant	-11.8121
▁squeak	-11.8126
▁snout	-11.8126
▁buyin	-11.8126
▁wreak	-11.8126
▁rations	-11.8127
ushl	-11.8127
mobil	-11.8128
▁dang	-11.8128
▁released	-11.8129
▁shrill	-11.8129
▁franco	-11.813
▁fainted	-11.8131
▁haha	-11.8131
▁boov	-11.8131
nco	-11.8132
▁preference	-11.8134
▁farthe	-11.8135
fed	-11.8136
▁fresher	-11.8136
▁crushing	-11.8137
▁inquisiti	-11.8137
rovin	-11.8137
▁merc	-11.8137
▁discovering	-11.8139
▁vivi	-11.814
▁loren	-11.8147
▁poisoning	-11.815
▁tab	-11.8153
▁tech	-11.8154
▁clan	-11.8154
▁portion	-11.8154
▁closeup	-11.8154
▁cursed	-11.8157
maids	-11.8158
▁traded	-11.8158
▁chile	-11.8161
yup	-11.8164
beard	-11.8169
▁desperat	-11.8169
▁slit	-11.8172
▁relations	-11.8173
▁donkeys	-11.8175
▁forefathers	-11.8176
▁curfews	-11.8177
▁pyramids	-11.8177
garment	-11.8177
▁prairies	-11.8178
▁ama	-11.8178
▁traced	-11.8179
▁booty	-11.8179
ories	-11.8181
▁twittering	-11.8181
▁inse	-11.8184
▁includes	-11.8184
▁bullets	-11.8184
otic	-11.8186
▁flatter	-11.8186
▁challeng	-11.819
▁now	-11.819
▁cord	-11.8191
▁burned	-11.8192
▁appreciated	-11.8195
▁fie	-11.8199
digger	-11.8203
▁ax	-11.8207
▁quack	-11.8209
▁mydochka	-11.8209
▁chum	-11.8209
▁imagining	-11.8212
ific	-11.8213
sione	-11.8214
▁overheat	-11.8214
akes	-11.8214
ello	-11.8215
▁teachings	-11.8216
gas	-11.8217
▁toot	-11.8217
▁rank	-11.8218
ug	-11.8218
ware	-11.8219
▁demanded	-11.8219
skate	-11.822
▁whooo	-11.822
▁appealing	-11.8222
▁waitir	-11.8223
▁measures	-11.8225
▁watchable	-11.8226
▁rally	-11.8228
▁kicking	-11.8228
tter	-11.823
stone	-11.8231
▁greeting	-11.8232
kel	-11.8235
▁nurse	-11.8236
▁inclin	-11.8237
▁rivet	-11.8238
▁fum	-11.8242
shape	-11.8242
▁digest	-11.8243
▁mutter	-11.8244
▁sorrows	-11.8246
▁deeper	-11.8246
▁geo	-11.8252
cuttle	-11.8252
▁disappearing	-11.8253
eps	-11.8254
▁stern	-11.8255
▁canad	-11.8257
▁focusing	-11.8257
▁moder	-11.8258
▁contented	-11.8259
essie	-11.8259
acy	-11.8259
dez	-11.8263
▁proc	-11.8263
▁josh	-11.8268
essa	-11.8269
▁zones	-11.827
▁doom	-11.8272
▁hyenas	-11.8272
▁bedrooms	-11.8273
andie	-11.8273
which	-11.8273
▁footprints	-11.8275
▁esp	-11.8277
▁presently	-11.8279
▁burger	-11.8281
▁billow	-11.8282
▁obs	-11.8284
▁blocked	-11.8284
▁chaps	-11.8285
▁matted	-11.8291
▁favored	-11.8293
▁unbe	-11.8295
▁non	-11.8297
isse	-11.8297
▁layin	-11.8298
vebeen	-11.8301
than	-11.8302
▁sato	-11.8303
▁fumble	-11.8303
ernation	-11.8305
▁strengthen	-11.8306
ists	-11.8306
▁nicke	-11.8307
odium	-11.8309
▁climbed	-11.831
▁verti	-11.8315
▁tether	-11.8316
▁twins	-11.8317
vin	-11.8317
▁iow	-11.8321
▁cu	-11.8322
▁criticize	-11.8324
gling	-11.8331
heads	-11.8334
▁generate	-11.8338
dain	-11.8343
▁stru	-11.8346
▁hacks	-11.8346
▁indicate	-11.8346
▁imaginati	-11.8346
▁savings	-11.8348
▁doves	-11.8349
▁flu	-11.835
▁formation	-11.835
▁filming	-11.8353
▁aft	-11.8355
▁runner	-11.836
▁conf	-11.8362
▁listeners	-11.8363
▁associate	-11.8366
lutz	-11.8366
▁exercises	-11.8369
▁sculptures	-11.8369
▁ache	-11.837
▁maxs	-11.837
▁eighty	-11.8371
▁vary	-11.8373
▁friendlie	-11.8376
▁soc	-11.8378
▁invo	-11.838
show	-11.8391
▁thrower	-11.8392
lbert	-11.84
▁itit	-11.8402
liked	-11.8404
▁moll	-11.8405
ammer	-11.8405
▁molecule	-11.8405
▁bashfu	-11.8406
▁musician	-11.8407
▁frame	-11.8407
rad	-11.8409
▁ext	-11.8411
nizing	-11.8416
▁plates	-11.842
▁deplo	-11.8421
▁blink	-11.843
▁advertise	-11.8431
▁varie	-11.8436
▁tips	-11.8436
▁switcher	-11.8437
▁specialist	-11.8437
▁players	-11.8438
yan	-11.8442
▁stormy	-11.8444
▁trey	-11.8454
ven	-11.8454
tty	-11.8457
ounge	-11.8459
▁clerks	-11.8463
▁breezes	-11.8464
▁waaa	-11.8465
▁slaps	-11.8466
eem	-11.8468
epic	-11.8472
▁delays	-11.8473
▁basics	-11.8475
▁necessit	-11.8477
▁las	-11.8477
▁tracking	-11.8481
▁gravit	-11.8486
▁mover	-11.8489
▁dally	-11.849
keeper	-11.8491
▁crav	-11.8491
issing	-11.8491
▁tonights	-11.8501
▁denounc	-11.8512
▁washing	-11.8514
ettes	-11.8514
▁recit	-11.8516
▁weaken	-11.8521
▁tro	-11.8521
irl	-11.8523
▁prophets	-11.8524
▁translat	-11.8525
▁brew	-11.8525
held	-11.8526
sports	-11.8529
▁resemble	-11.853
▁ami	-11.853
▁losers	-11.854
▁fences	-11.8546
▁nor	-11.8547
qui	-11.8556
▁shapes	-11.856
▁apartments	-11.8564
ency	-11.8564
blets	-11.8565
▁teem	-11.8566
tacle	-11.8567
▁dul	-11.8568
olstered	-11.8569
▁practisin	-11.857
▁tenant	-11.8573
late	-11.8579
▁rink	-11.8583
▁truthful	-11.8586
▁para	-11.8588
▁wills	-11.8592
▁terrib	-11.8598
▁contra	-11.8599
▁but	-11.8601
nautic	-11.8602
lence	-11.8611
▁troll	-11.8615
▁monks	-11.8623
▁annas	-11.8624
▁votes	-11.8628
▁shreddi	-11.863
hip	-11.863
luster	-11.863
▁examin	-11.8637
ooww	-11.8642
▁cure	-11.8644
▁pelt	-11.8645
▁zipp	-11.8646
reign	-11.8646
ines	-11.8647
▁graz	-11.8648
ake	-11.8648
▁funerals	-11.8657
▁performances	-11.8659
▁checker	-11.866
▁trampl	-11.866
cer	-11.8667
▁dow	-11.8667
▁folder	-11.8673
▁rele	-11.8674
icky	-11.8674
iz	-11.8675
▁cowards	-11.8676
▁critici	-11.8682
▁cordi	-11.8684
▁strongly	-11.8691
▁snive	-11.8697
▁pose	-11.8701
▁thump	-11.8703
▁cuck	-11.8706
▁cas	-11.8707
▁flo	-11.8708
▁baffl	-11.8708
attat	-11.872
▁increases	-11.8725
▁slo	-11.8733
▁spits	-11.8736
▁constitutio	-11.8738
▁nick	-11.874
▁about	-11.874
▁goid	-11.8743
▁glaci	-11.8751
▁aur	-11.8753
▁tomleys	-11.8754
▁motors	-11.8754
▁treade	-11.8755
ality	-11.8756
pointfive	-11.8758
▁any	-11.8758
gs	-11.876
▁pooper	-11.8762
▁bubbles	-11.877
ques	-11.8773
scription	-11.8775
gress	-11.8776
▁skated	-11.8779
▁hib	-11.878
▁barg	-11.8783
▁movements	-11.8783
oa	-11.8787
▁sprin	-11.8789
▁pours	-11.8791
▁cooler	-11.8792
▁toe	-11.8801
▁stare	-11.8804
still	-11.8805
▁talon	-11.8807
▁reporters	-11.881
▁documentar	-11.881
diac	-11.8821
▁tunes	-11.8822
▁lens	-11.8827
outs	-11.8832
era	-11.8834
▁une	-11.8836
▁singed	-11.8836
▁crave	-11.8845
patiently	-11.8845
wi	-11.8847
▁snacks	-11.8848
▁sap	-11.8849
▁grandmothers	-11.8851
▁feat	-11.886
posed	-11.8871
▁flicker	-11.8875
letoe	-11.8881
▁sour	-11.8882
▁dim	-11.8883
ys	-11.8883
ral	-11.8889
▁sweeter	-11.889
▁ratat	-11.8894
tent	-11.8896
▁likeness	-11.8898
lawdy	-11.8899
ats	-11.8901
▁mailbox	-11.8905
quinn	-11.891
▁conn	-11.8913
auche	-11.8917
▁twer	-11.892
▁archeolog	-11.8933
membert	-11.894
▁retain	-11.8943
▁gl	-11.895
▁baller	-11.8953
▁clo	-11.8958
▁bah	-11.8959
unctu	-11.8963
▁jackets	-11.898
▁bake	-11.8981
▁cheater	-11.8985
oras	-11.8992
▁ration	-11.8994
▁casey	-11.8995
nsel	-11.9003
▁georgi	-11.9007
▁misplace	-11.901
inland	-11.9011
▁acce	-11.9018
enj	-11.9023
▁devot	-11.9027
▁settie	-11.9028
▁scores	-11.9029
▁bry	-11.9032
▁tho	-11.9033
quake	-11.9035
ards	-11.904
▁confus	-11.9044
▁outs	-11.9044
▁hom	-11.9048
▁signals	-11.9053
▁convers	-11.9059
corporate	-11.906
▁coax	-11.9069
▁rei	-11.908
tonne	-11.9097
▁telly	-11.9098
icker	-11.9099
▁stat	-11.911
▁sew	-11.9113
tit	-11.9114
▁alco	-11.9119
ouch	-11.9122
▁zig	-11.9123
▁kahunas	-11.914
▁kan	-11.9146
▁keepin	-11.9147
▁footing	-11.9148
doc	-11.9152
▁recycl	-11.9152
▁oka	-11.916
▁naive	-11.917
▁scrub	-11.9173
▁blessing	-11.918
▁enchant	-11.9184
▁clipp	-11.9193
illion	-11.9195
ress	-11.9218
racking	-11.9219
cial	-11.922
ignified	-11.9221
▁earning	-11.9222
cted	-11.9222
▁prowl	-11.9226
tivated	-11.9236
▁contacts	-11.9238
▁tru	-11.925
▁rebellio	-11.926
eeling	-11.9272
▁fath	-11.9281
real	-11.9288
▁backto	-11.9289
▁did	-11.9291
▁earns	-11.9293
mpson	-11.9301
▁waltz	-11.9303
wing	-11.9306
▁alexandr	-11.9308
lma	-11.9309
py	-11.9315
issed	-11.9317
▁levels	-11.932
▁numbered	-11.9338
umpkin	-11.9338
imony	-11.9351
ween	-11.9351
gets	-11.9353
tops	-11.9358
decorating	-11.9372
▁freshen	-11.9378
oyalty	-11.9381
kee	-11.9385
▁retro	-11.9387
ators	-11.94
entine	-11.9408
entist	-11.9408
leaned	-11.941
▁squaws	-11.9414
▁weirdo	-11.9414
▁battles	-11.9417
cock	-11.9417
▁hoffmans	-11.9433
▁dreamer	-11.9446
approving	-11.9448
aced	-11.9454
talking	-11.9457
▁mir	-11.946
▁calli	-11.9462
▁doe	-11.9462
astic	-11.9464
erto	-11.9466
▁terri	-11.9471
lled	-11.9485
▁dental	-11.9488
ished	-11.949
▁bragg	-11.9493
▁prior	-11.9496
▁meanin	-11.9497
▁demote	-11.9497
▁deli	-11.9503
▁gentl	-11.9508
▁tripe	-11.951
lubber	-11.9516
cinema	-11.9516
▁dreamy	-11.9518
▁hyd	-11.9521
▁camped	-11.9523
igment	-11.9538
▁jamm	-11.9555
tigate	-11.9561
▁infu	-11.9567
▁babylonia	-11.9579
emn	-11.9581
▁sy	-11.9583
▁tinkering	-11.9593
cence	-11.9599
▁scann	-11.9601
timer	-11.9605
rrrr	-11.9606
uffer	-11.9628
▁transports	-11.9628
ides	-11.9633
▁loo	-11.9636
ush	-11.9638
▁domini	-11.9654
▁beatle	-11.9662
nk	-11.9666
hur	-11.9667
talked	-11.9684
roy	-11.9684
maura	-11.9687
▁devils	-11.9696
▁parking	-11.9697
ermo	-11.9699
▁stroll	-11.9701
iiow	-11.9704
▁pierc	-11.9706
consistency	-11.9709
int	-11.9716
▁ev	-11.9722
▁cohab	-11.9722
▁messages	-11.9727
endar	-11.9728
▁counted	-11.9728
cold	-11.9742
▁lib	-11.975
signed	-11.9766
▁alum	-11.977
▁primi	-11.9779
arable	-11.9785
sana	-11.9789
▁prizes	-11.9792
ilized	-11.9795
ables	-11.9806
otten	-11.9815
▁fanta	-11.9815
▁produc	-11.9826
▁sharks	-11.9829
▁rott	-11.983
▁kidd	-11.9832
rvation	-11.9835
stein	-11.9841
▁publish	-11.9843
▁misunderstand	-11.9845
▁raining	-11.9851
▁ec	-11.9859
▁actions	-11.9862
dged	-11.9864
▁slipp	-11.9872
▁lowing	-11.9874
▁slash	-11.9882
▁irons	-11.9891
mps	-11.9894
▁tipto	-11.9905
addle	-11.9906
▁sights	-11.9915
▁aver	-11.9918
▁alarms	-11.9926
▁knocks	-11.9931
▁packs	-11.9932
▁bb	-11.9939
▁slu	-11.9955
▁powering	-11.9955
▁golly	-11.9956
dad	-11.9956
▁clubs	-11.9957
ull	-11.9958
▁empti	-11.9959
▁cho	-11.996
ife	-11.9961
ision	-11.9961
▁triplet	-11.9971
obii	-11.9973
last	-11.9982
▁vine	-11.9995
sshhhhhh	-12.0004
▁archi	-12.0014
▁fasten	-12.002
▁watches	-12.0021
▁flights	-12.0029
▁competitions	-12.0031
ates	-12.0043
som	-12.0083
code	-12.0085
cession	-12.0092
▁mids	-12.0098
hehehey	-12.0109
▁prophesi	-12.0118
uge	-12.0127
ledge	-12.0134
▁mc	-12.0143
gy	-12.0144
yyou	-12.015
▁swi	-12.0154
vv	-12.016
sels	-12.0165
▁resound	-12.0167
itory	-12.0174
zed	-12.0175
▁hic	-12.0176
▁prime	-12.0182
teau	-12.019
mm	-12.0191
ool	-12.0202
▁bod	-12.0203
▁deci	-12.0205
▁journeys	-12.0213
▁punk	-12.0213
▁monta	-12.0214
iffe	-12.0224
▁ban	-12.0232
bogg	-12.0236
dan	-12.0243
▁preca	-12.0258
iney	-12.026
▁bows	-12.0273
ooh	-12.0277
▁pitt	-12.0288
▁sizes	-12.0288
▁singer	-12.0297
▁auto	-12.0301
pick	-12.0305
▁as	-12.031
ailing	-12.031
▁ordering	-12.0314
▁alli	-12.0324
▁mal	-12.0325
▁rel	-12.033
leaf	-12.0331
hat	-12.0334
▁sen	-12.035
rank	-12.0351
anch	-12.0355
tte	-12.0365
bby	-12.0366
wag	-12.0383
▁manor	-12.0383
▁eag	-12.0388
▁bottoms	-12.0405
▁blam	-12.0409
shirts	-12.0424
taking	-12.0434
tery	-12.045
▁beam	-12.0454
▁arch	-12.0457
iff	-12.046
▁smuggl	-12.0465
signing	-12.048
ssed	-12.0481
▁ceme	-12.0486
▁sann	-12.0504
▁clarif	-12.0505
ner	-12.051
▁trend	-12.0527
▁jabbe	-12.0532
▁parche	-12.0549
▁drumm	-12.0556
▁shops	-12.0569
▁boned	-12.0572
▁shatter	-12.0573
get	-12.0576
▁execut	-12.0585
▁roy	-12.0591
▁tapa	-12.0591
kit	-12.0598
▁diligen	-12.0598
▁fivepoint	-12.0609
▁oi	-12.0621
assy	-12.0635
fixe	-12.0644
bas	-12.0645
▁poul	-12.0652
▁supervise	-12.0657
bbed	-12.0662
itter	-12.0666
▁fli	-12.0684
high	-12.0697
▁mill	-12.0699
▁understands	-12.0718
▁isolate	-12.0721
▁stuffing	-12.0722
utwit	-12.0722
▁devo	-12.0724
ran	-12.073
▁scholar	-12.0762
▁pac	-12.0774
▁wrestle	-12.0783
▁glor	-12.079
▁chippe	-12.0791
cked	-12.0794
hill	-12.0803
ads	-12.0807
▁departments	-12.0818
lie	-12.082
▁makers	-12.0821
▁bli	-12.0825
▁earls	-12.0829
ooooo	-12.0832
ttl	-12.0838
alo	-12.0839
ean	-12.084
spang	-12.0852
▁chairs	-12.0859
▁graphic	-12.0861
ribb	-12.0874
▁wool	-12.0877
▁modifi	-12.0887
ddle	-12.0891
liam	-12.0903
▁baskets	-12.0904
mans	-12.0935
▁forg	-12.0942
▁dizz	-12.0947
ckle	-12.0952
▁referr	-12.0953
▁behead	-12.096
▁puk	-12.098
▁inhal	-12.0983
shes	-12.0998
wagon	-12.1011
▁scorche	-12.103
iem	-12.1036
aming	-12.1063
▁eth	-12.1076
▁rested	-12.1077
raced	-12.1087
▁whim	-12.109
yama	-12.1095
▁relate	-12.1096
ible	-12.11
▁johns	-12.1103
rmo	-12.111
po	-12.112
▁sells	-12.1123
pitched	-12.113
io	-12.1147
▁visits	-12.1159
▁drives	-12.1164
ci	-12.1168
sier	-12.1175
ded	-12.1176
▁rom	-12.1205
lad	-12.1238
▁bing	-12.1244
ened	-12.1249
▁crumb	-12.1255
hoho	-12.1279
▁ce	-12.1294
▁fins	-12.1307
▁dab	-12.1308
itched	-12.1324
glade	-12.1325
aboli	-12.1347
▁hideous	-12.1349
ak	-12.1353
▁homes	-12.1359
stic	-12.1366
ander	-12.1368
▁sands	-12.1372
▁frances	-12.1388
▁poo	-12.1397
ebra	-12.1401
▁devi	-12.1413
▁swims	-12.1416
pa	-12.1417
▁teet	-12.1422
udding	-12.1426
▁regrett	-12.1426
unt	-12.1431
avo	-12.1439
test	-12.1442
bbling	-12.1445
▁majesti	-12.145
peck	-12.1453
▁humiliati	-12.1461
▁gour	-12.1463
zy	-12.1484
yyi	-12.1486
ters	-12.1493
waiting	-12.1497
▁ze	-12.1502
cooked	-12.1523
opping	-12.1537
lecross	-12.155
erman	-12.1571
▁shal	-12.1572
▁poi	-12.1578
▁scal	-12.1588
▁import	-12.1599
aze	-12.1616
dly	-12.1632
▁luci	-12.1635
▁amou	-12.1648
▁committ	-12.1653
mous	-12.1684
▁piet	-12.1685
▁sly	-12.1697
zzi	-12.1706
▁harr	-12.1711
▁hurrie	-12.1765
▁spani	-12.1774
ehehey	-12.1787
sfor	-12.1789
ference	-12.1804
▁sel	-12.1812
monia	-12.1813
▁translate	-12.1825
▁skippe	-12.1848
▁guine	-12.1852
▁redo	-12.1857
elita	-12.1858
aves	-12.187
▁ignor	-12.187
▁bal	-12.1874
osh	-12.1884
▁wrapp	-12.1889
aaah	-12.1909
armed	-12.191
▁certifi	-12.1911
▁bac	-12.1924
▁humiliate	-12.1935
▁pos	-12.195
▁gruel	-12.1977
▁tral	-12.198
igh	-12.198
olling	-12.1985
cher	-12.1991
▁countrys	-12.1993
ancho	-12.1995
▁screens	-12.1998
▁iand	-12.2002
cet	-12.2011
hy	-12.202
ition	-12.2021
▁anth	-12.2026
othing	-12.2028
ocal	-12.2028
apped	-12.2029
tel	-12.2044
▁donate	-12.2052
storms	-12.2059
hing	-12.206
saver	-12.2061
▁exasperat	-12.2064
pul	-12.2087
▁crus	-12.2104
▁peac	-12.211
▁soci	-12.2119
▁majest	-12.2124
▁pulls	-12.2132
pling	-12.2138
correctly	-12.2139
lum	-12.2167
gate	-12.2167
▁lone	-12.2172
ttle	-12.2175
▁rata	-12.2178
▁putt	-12.2182
▁roads	-12.2185
▁chan	-12.2193
▁lntern	-12.2195
cent	-12.2208
▁when	-12.2212
▁lump	-12.2222
▁atta	-12.2238
▁remembers	-12.2249
sic	-12.2251
laying	-12.2253
▁stalk	-12.2265
▁ach	-12.2268
str	-12.2273
▁hoh	-12.2288
▁compar	-12.2291
▁sleeper	-12.2294
mit	-12.2295
ttering	-12.2295
▁boost	-12.23
lands	-12.2304
▁slee	-12.2309
lis	-12.2314
▁iuck	-12.2324
▁swag	-12.2329
nning	-12.2332
lusion	-12.2333
▁mes	-12.2339
▁honors	-12.235
lighted	-12.2356
uttering	-12.2357
▁compe	-12.2368
izzi	-12.2371
▁axe	-12.2375
▁blaze	-12.2385
▁conclu	-12.2394
rge	-12.24
▁tan	-12.2415
▁overd	-12.2435
ester	-12.2435
ddy	-12.2436
▁colli	-12.2439
▁hea	-12.2442
event	-12.2445
▁wire	-12.2446
▁are	-12.2461
▁hem	-12.2464
limey	-12.2479
hearing	-12.2483
▁funk	-12.2487
▁my	-12.2487
adly	-12.2495
▁bray	-12.2501
cu	-12.2502
▁handed	-12.2504
done	-12.2505
▁scot	-12.2508
▁emmas	-12.251
▁undertak	-12.2512
ends	-12.2517
dame	-12.2544
▁bugg	-12.2547
egian	-12.256
▁fil	-12.2568
uch	-12.2588
▁stain	-12.2592
▁envis	-12.2602
▁oooo	-12.2633
ec	-12.2635
▁pantin	-12.2648
▁upt	-12.2669
▁funn	-12.2675
▁bai	-12.2675
▁pep	-12.2679
name	-12.2683
▁pecki	-12.2691
oria	-12.2696
▁championship	-12.2717
▁steward	-12.2723
atie	-12.2724
mania	-12.2733
▁masse	-12.2734
ell	-12.2737
▁mira	-12.2742
ore	-12.2747
▁puck	-12.275
▁asi	-12.2754
▁shakes	-12.2761
▁conserv	-12.2762
▁dra	-12.2809
oor	-12.2824
ark	-12.2836
▁loc	-12.284
ported	-12.2854
▁behavio	-12.2857
▁mankin	-12.2875
▁hor	-12.2878
▁snu	-12.288
wit	-12.2882
ager	-12.2891
ased	-12.2896
ocked	-12.2903
▁mixe	-12.2912
ngs	-12.2919
inned	-12.292
quest	-12.2921
▁wrestl	-12.2921
ender	-12.2922
▁mut	-12.2923
▁entr	-12.294
▁exaggerat	-12.2941
ggy	-12.2951
rise	-12.2955
▁dogg	-12.2956
▁sto	-12.2983
kenstein	-12.2985
oya	-12.2998
brain	-12.3013
▁amb	-12.3018
tier	-12.3023
▁frie	-12.304
oc	-12.3051
▁rib	-12.3097
boo	-12.3102
aid	-12.3106
ational	-12.3113
▁equi	-12.312
▁whoow	-12.3142
▁gen	-12.316
▁jill	-12.316
▁cris	-12.3161
anding	-12.3169
▁rave	-12.3182
▁anyways	-12.3184
▁garl	-12.3194
▁julie	-12.3219
eight	-12.3223
▁figur	-12.3244
▁conce	-12.3245
▁rem	-12.3245
spect	-12.3254
regon	-12.3261
econ	-12.3274
▁arou	-12.3292
dian	-12.3294
▁truths	-12.3295
▁partys	-12.3299
▁braves	-12.3301
▁buyer	-12.3316
rey	-12.3317
▁organi	-12.3337
ces	-12.3344
izz	-12.3347
ined	-12.3355
▁wonders	-12.3363
▁nurs	-12.3366
▁promot	-12.3382
ready	-12.3412
▁lighten	-12.3419
ime	-12.3429
▁sme	-12.3442
nine	-12.3448
itation	-12.3456
ottery	-12.3458
▁immun	-12.3464
▁sla	-12.3481
▁eras	-12.3483
▁gri	-12.3497
ndered	-12.3525
▁fascinat	-12.3572
ique	-12.3599
tched	-12.3608
shack	-12.3609
▁hangs	-12.3637
rath	-12.3643
ky	-12.3659
▁appi	-12.3677
▁fer	-12.3681
ught	-12.3682
hed	-12.3684
▁dies	-12.3688
ages	-12.3722
ray	-12.3723
▁margar	-12.3732
▁aqu	-12.3734
guarded	-12.3734
rief	-12.3737
kol	-12.3746
▁lyn	-12.3753
▁frustrat	-12.3757
▁stitche	-12.3759
six	-12.3771
ication	-12.3788
▁prophesie	-12.3798
bons	-12.3805
dra	-12.3812
▁masters	-12.3846
▁diab	-12.3857
oster	-12.3877
▁minim	-12.3915
▁ssshhhhh	-12.396
▁taii	-12.3962
nent	-12.3968
strel	-12.3978
xie	-12.3979
▁loca	-12.3992
rick	-12.4018
▁evolv	-12.4047
ench	-12.4051
rtial	-12.4051
▁summers	-12.4055
▁scor	-12.4072
▁aio	-12.4078
▁empt	-12.409
▁dishwa	-12.4093
vena	-12.4104
deserved	-12.4105
yl	-12.4106
nters	-12.4106
nted	-12.4107
▁lifes	-12.4138
cle	-12.4157
bolic	-12.4157
cture	-12.4162
▁dri	-12.4172
▁repe	-12.4178
lots	-12.4183
▁handl	-12.4184
▁brie	-12.4232
ashed	-12.4266
una	-12.4286
ucky	-12.4287
▁pri	-12.4294
sses	-12.4299
ui	-12.4307
gies	-12.4308
▁fund	-12.4318
artial	-12.433
▁tre	-12.4337
ures	-12.4341
onia	-12.4343
till	-12.4373
▁bash	-12.438
▁isolat	-12.4387
▁tops	-12.4401
ylo	-12.4403
halt	-12.4407
think	-12.4409
▁ref	-12.4412
▁liver	-12.4418
▁blaz	-12.4419
vid	-12.4425
▁por	-12.4435
▁hollyw	-12.4484
▁ful	-12.4489
training	-12.4492
ewed	-12.4495
sporting	-12.4496
▁clar	-12.4502
▁vert	-12.4508
oken	-12.451
▁sti	-12.4512
▁slippe	-12.4513
pas	-12.4571
▁stingi	-12.4584
ja	-12.4586
tyl	-12.4596
cking	-12.4602
aws	-12.4615
nice	-12.4617
wan	-12.4623
ppling	-12.463
▁bounce	-12.4636
▁learns	-12.464
uatro	-12.466
▁bather	-12.4667
▁yeii	-12.4675
ining	-12.469
▁hagg	-12.4714
▁tra	-12.4716
▁domina	-12.4727
rse	-12.4744
▁shei	-12.4752
table	-12.4755
▁shi	-12.4777
▁shipp	-12.4789
vene	-12.4794
imp	-12.4808
▁accidental	-12.4811
dads	-12.4844
▁vie	-12.4847
gian	-12.4848
▁sill	-12.4863
▁ramb	-12.4873
▁vel	-12.4875
▁conspira	-12.4881
▁diap	-12.4885
▁vau	-12.4897
▁carr	-12.4918
ame	-12.4924
▁captains	-12.4933
nature	-12.4942
▁extract	-12.4958
▁braggi	-12.4966
▁charg	-12.4974
uit	-12.4981
sible	-12.4982
inted	-12.499
▁cru	-12.5
▁bas	-12.5005
ag	-12.5005
ere	-12.5024
ss	-12.5036
vati	-12.5038
cation	-12.5042
uda	-12.5064
▁vet	-12.5084
seven	-12.5109
▁rand	-12.5121
▁mos	-12.5122
omi	-12.5134
ves	-12.5143
▁sadde	-12.5153
▁justa	-12.5163
moving	-12.5166
▁sim	-12.5176
▁categori	-12.5177
cious	-12.5187
bar	-12.5195
eased	-12.5199
▁enchante	-12.52
tell	-12.5219
usion	-12.5223
ouldve	-12.5226
rd	-12.5234
ree	-12.5249
ain	-12.5256
▁courses	-12.5263
▁provid	-12.5273
gam	-12.5278
▁tumble	-12.5284
godzllla	-12.5287
▁communi	-12.529
▁nood	-12.5293
▁schem	-12.53
ava	-12.5311
ont	-12.5313
lowest	-12.5314
sie	-12.5317
ara	-12.5318
lings	-12.5335
▁swoo	-12.5346
rable	-12.535
▁mobi	-12.5353
nger	-12.5359
asked	-12.5363
mat	-12.5372
heard	-12.5389
▁parish	-12.539
▁contr	-12.5395
▁emp	-12.5396
ders	-12.5402
cuse	-12.5405
seemly	-12.5408
ov	-12.5409
love	-12.542
▁ave	-12.543
distinct	-12.543
lk	-12.5448
▁sadd	-12.5464
cken	-12.5471
▁scr	-12.5485
arted	-12.549
oes	-12.5499
▁corporat	-12.5502
▁confusi	-12.5506
lit	-12.5508
rig	-12.5511
awdy	-12.5513
▁cra	-12.5518
ugs	-12.552
▁wille	-12.5532
▁knowin	-12.5538
harley	-12.5543
ils	-12.5579
▁plac	-12.5583
▁tickli	-12.5587
arc	-12.5599
look	-12.5605
amura	-12.5616
▁wilde	-12.5622
▁vive	-12.5627
▁crashe	-12.5658
nic	-12.5659
▁candles	-12.5661
die	-12.5681
icycle	-12.5684
nium	-12.5688
pers	-12.5714
sing	-12.5741
lam	-12.5756
▁officia	-12.5774
mote	-12.5781
uri	-12.5782
hot	-12.5789
▁devoure	-12.5805
▁entic	-12.581
▁benne	-12.5834
▁bowle	-12.5838
▁hal	-12.5839
▁camps	-12.5841
▁paddl	-12.5864
anterns	-12.587
elected	-12.5876
ek	-12.5878
struct	-12.5892
pi	-12.5896
▁unsatisf	-12.5897
must	-12.5918
ntial	-12.5927
qu	-12.5933
stern	-12.5936
liz	-12.594
nds	-12.5943
theres	-12.5944
zz	-12.5946
rity	-12.5951
▁hlr	-12.5952
sive	-12.5956
rks	-12.5959
cid	-12.5965
utting	-12.5969
▁unch	-12.5977
very	-12.598
orn	-12.5988
bear	-12.6004
▁chil	-12.6026
au	-12.6038
ues	-12.6048
yet	-12.6048
▁referrin	-12.6065
▁div	-12.6069
great	-12.6073
▁mend	-12.6096
open	-12.6106
ari	-12.6111
▁reproduc	-12.6115
pan	-12.6124
amba	-12.6127
pu	-12.6148
lamor	-12.6159
tatatta	-12.616
nia	-12.6168
ghs	-12.6185
ister	-12.6206
▁unwi	-12.621
assigned	-12.6215
▁sacrific	-12.622
▁seiz	-12.6228
▁interfer	-12.6249
▁brows	-12.625
say	-12.6276
▁exha	-12.6284
ibility	-12.6291
zzle	-12.6312
lio	-12.6322
rnation	-12.6326
▁apo	-12.6332
rac	-12.6341
▁scat	-12.6342
▁prog	-12.6343
▁mace	-12.6353
▁pine	-12.6354
sp	-12.6377
awful	-12.6388
inner	-12.6394
▁ser	-12.6404
gers	-12.6407
aron	-12.6411
mother	-12.6435
▁canter	-12.6444
aaaah	-12.6445
ator	-12.6456
mitted	-12.6458
zard	-12.6464
▁shred	-12.6483
theyre	-12.6496
▁waltzin	-12.6513
funnie	-12.6525
▁tramp	-12.6527
stick	-12.6527
youll	-12.6533
▁sym	-12.6534
world	-12.6534
ckadoo	-12.6542
ripping	-12.6544
tired	-12.6545
urned	-12.6547
nished	-12.6552
▁resembl	-12.6553
big	-12.6561
anders	-12.6567
▁skippin	-12.6567
ler	-12.6578
▁bumme	-12.6582
▁tickl	-12.6587
tall	-12.6589
talk	-12.659
parking	-12.6593
gr	-12.6594
care	-12.6604
tual	-12.6617
ev	-12.6617
urp	-12.6621
▁cer	-12.6642
nker	-12.665
dock	-12.6672
▁fad	-12.6681
laws	-12.6706
cous	-12.6736
leave	-12.6737
fer	-12.674
▁vac	-12.6742
course	-12.6744
▁grad	-12.6749
pets	-12.6751
lous	-12.6752
▁assign	-12.6758
▁advertis	-12.6763
calling	-12.6765
maker	-12.6771
▁pigm	-12.678
▁spe	-12.6785
▁twit	-12.6787
ndar	-12.6787
▁penal	-12.6788
eled	-12.679
▁autop	-12.6792
pet	-12.6793
organis	-12.6804
▁associat	-12.6805
▁introduc	-12.6818
due	-12.6836
aura	-12.6837
member	-12.6839
▁boos	-12.6845
perative	-12.6848
professional	-12.6853
ale	-12.6855
ense	-12.6863
▁friendli	-12.6878
bell	-12.6882
▁sparkli	-12.6896
choo	-12.6901
eeks	-12.6902
▁emotion	-12.6903
▁vit	-12.6904
wee	-12.6909
▁compromisin	-12.6909
bo	-12.691
▁ahhhh	-12.6914
feel	-12.6924
▁polo	-12.6943
▁oppo	-12.695
▁indicat	-12.695
leg	-12.6954
▁ange	-12.6959
young	-12.6974
ntries	-12.6978
elon	-12.6981
▁kno	-12.6994
without	-12.6997
▁grav	-12.7005
▁mexi	-12.7018
stay	-12.7026
traction	-12.7026
nounce	-12.7029
rain	-12.7044
racu	-12.7045
fr	-12.7048
nting	-12.7056
luck	-12.7059
▁constitut	-12.7062
▁unc	-12.7074
▁rubbin	-12.7079
bie	-12.7079
cr	-12.7093
▁flavo	-12.7095
▁at	-12.7097
next	-12.71
uckles	-12.7102
tum	-12.7108
▁aliveo	-12.711
etch	-12.7112
▁overh	-12.7112
tag	-12.7113
xed	-12.7117
hhhh	-12.712
amb	-12.7128
raveled	-12.7133
hall	-12.7141
horse	-12.7152
haw	-12.7153
▁hans	-12.716
▁addition	-12.7168
ophone	-12.7171
together	-12.7176
uce	-12.7181
▁bever	-12.7184
tality	-12.7187
sher	-12.7187
owe	-12.7192
▁inspir	-12.7197
rance	-12.7198
true	-12.7199
▁gir	-12.7211
▁medi	-12.7217
urable	-12.7218
ively	-12.722
▁own	-12.7221
▁scribe	-12.7224
▁nay	-12.7228
▁ter	-12.7233
▁tel	-12.724
▁tus	-12.7241
etted	-12.7241
▁glanc	-12.7243
tomorrow	-12.7244
ored	-12.7248
cade	-12.7257
everybody	-12.7259
cker	-12.726
anyone	-12.7261
hhhhh	-12.7265
▁outla	-12.7281
gulation	-12.7285
rty	-12.7286
lance	-12.7297
dh	-12.7302
ory	-12.7303
▁foo	-12.7303
rdon	-12.7305
perfect	-12.7306
opped	-12.7312
ddled	-12.7313
▁plea	-12.7319
▁treasur	-12.7322
lated	-12.7325
cracker	-12.7325
▁nooo	-12.7327
▁diag	-12.7327
tar	-12.7335
▁magnifi	-12.7337
forever	-12.7345
wonderful	-12.7345
▁jar	-12.7351
▁flippin	-12.7357
▁weighin	-12.7359
▁tun	-12.7361
▁rhym	-12.7364
▁promo	-12.7371
ckling	-12.7371
▁mol	-12.7377
max	-12.7378
▁jammi	-12.7379
child	-12.7381
▁plug	-12.7391
where	-12.7392
afraid	-12.7396
carts	-12.7399
teen	-12.74
hires	-12.7401
ection	-12.7406
▁connecti	-12.7407
tree	-12.7409
bu	-12.741
▁wak	-12.741
fast	-12.7411
▁jingl	-12.7412
behind	-12.7413
children	-12.7415
goodbye	-12.7416
school	-12.7417
gold	-12.7418
almost	-12.7418
▁impli	-12.7421
njured	-12.7421
elvis	-12.7423
▁hur	-12.7427
ext	-12.7429
tri	-12.7429
kadi	-12.7436
▁craw	-12.7441
▁igno	-12.7444
change	-12.7444
uddy	-12.7446
death	-12.7447
killed	-12.7448
tified	-12.7448
judic	-12.7448
opes	-12.7453
▁magn	-12.7453
trip	-12.7453
camp	-12.7458
references	-12.7461
story	-12.7462
▁elude	-12.7462
forget	-12.7465
jour	-12.7467
important	-12.7474
▁cruci	-12.7474
white	-12.7476
▁neutr	-12.7478
blood	-12.7482
voice	-12.7486
umbling	-12.7487
whale	-12.7488
baby	-12.7491
▁oksanayou	-12.7493
ahead	-12.7494
cup	-12.7497
moses	-12.75
seems	-12.7503
frame	-12.7505
necks	-12.7506
charge	-12.7506
buddy	-12.7507
neck	-12.7517
become	-12.752
truth	-12.7525
country	-12.7526
vern	-12.7527
question	-12.7528
airway	-12.7536
zan	-12.754
pull	-12.7541
ustration	-12.7542
▁cab	-12.7542
▁hawkin	-12.7544
ala	-12.7545
lashes	-12.7545
▁leapin	-12.7546
mark	-12.7547
▁pon	-12.7548
oze	-12.7549
erves	-12.7554
ootie	-12.7554
▁pursu	-12.7555
uded	-12.7558
quat	-12.7558
argh	-12.756
waddl	-12.7563
league	-12.7565
lunch	-12.7567
ranian	-12.7567
practical	-12.7568
lead	-12.7569
human	-12.7571
inspector	-12.7571
▁shri	-12.7571
aaa	-12.7572
pumpkin	-12.7574
▁scan	-12.7575
paw	-12.758
▁redistri	-12.7581
▁convinc	-12.7585
hours	-12.7586
wow	-12.7589
pool	-12.759
yesterday	-12.7592
jump	-12.7593
fuku	-12.7595
▁extrac	-12.7595
ograph	-12.7596
wave	-12.7597
▁tiju	-12.7597
▁urge	-12.76
respect	-12.76
castle	-12.7601
▁balanc	-12.7602
unless	-12.7602
hills	-12.7603
order	-12.7607
million	-12.7607
plane	-12.7609
radio	-12.761
nish	-12.7613
teacher	-12.7613
social	-12.7613
wheel	-12.7622
bro	-12.7622
▁noti	-12.7625
▁grunt	-12.7625
idity	-12.7627
▁sparkin	-12.7631
surprise	-12.7633
visit	-12.7634
col	-12.7634
bat	-12.7636
ookin	-12.7636
tenant	-12.7637
▁cav	-12.764
rehouse	-12.7641
strike	-12.7643
department	-12.7645
contra	-12.7646
grandfather	-12.7646
mmhmm	-12.7647
ploy	-12.7649
brows	-12.765
proof	-12.7652
politic	-12.7653
hundred	-12.7653
junior	-12.7655
meet	-12.7655
oulders	-12.7656
▁levit	-12.7657
sharp	-12.7658
shoot	-12.7659
goodness	-12.766
gun	-12.7662
boyfriend	-12.7662
forgotten	-12.7663
doubt	-12.7666
▁suspen	-12.7667
faster	-12.7669
ju	-12.7671
blast	-12.7672
▁kidnap	-12.7675
dimension	-12.7676
occupied	-12.7676
tube	-12.7677
field	-12.7678
honour	-12.7678
potion	-12.7679
milk	-12.7679
▁appetit	-12.768
crack	-12.768
barely	-12.768
▁etc	-12.7681
taught	-12.7682
channel	-12.7682
chief	-12.7683
goshen	-12.7685
captured	-12.7686
fruit	-12.7687
soaked	-12.7687
bles	-12.7687
spread	-12.7688
guil	-12.7689
utz	-12.7689
wrecked	-12.7689
writing	-12.769
employed	-12.769
▁sor	-12.769
prepared	-12.7691
pleasant	-12.7692
complete	-12.7692
smiling	-12.7692
promotion	-12.7693
development	-12.7693
drums	-12.7693
frequently	-12.7693
wrapped	-12.7694
slave	-12.7694
date	-12.7695
flap	-12.7695
marie	-12.7695
whoohoo	-12.7695
bother	-12.7696
native	-12.7697
boob	-12.7697
familiar	-12.7698
merci	-12.7698
laughter	-12.7698
drawn	-12.7699
received	-12.7699
happiness	-12.7699
babushka	-12.7699
influence	-12.7699
taik	-12.7699
mu	-12.77
barrel	-12.7701
fivepointnine	-12.7701
creation	-12.7701
weird	-12.7702
senior	-12.7702
expensive	-12.7703
discover	-12.7703
▁custo	-12.7704
limits	-12.7704
bull	-12.7704
grown	-12.7704
torch	-12.7704
curls	-12.7705
leader	-12.7705
prayer	-12.7705
loosen	-12.7705
mistress	-12.7706
jet	-12.7707
bedroom	-12.7707
whisk	-12.7708
isk	-12.7709
reality	-12.7709
ridin	-12.7709
cattle	-12.7711
static	-12.7712
accomplished	-12.7712
developed	-12.7712
shaft	-12.7714
experienced	-12.7714
loving	-12.7715
clouds	-12.7715
brick	-12.7715
appro	-12.7716
▁trump	-12.7717
float	-12.7719
screen	-12.7722
examine	-12.7722
type	-12.7722
route	-12.7723
▁coign	-12.7723
throne	-12.7725
shoes	-12.7725
steady	-12.7726
inhabited	-12.7726
▁eva	-12.7727
christ	-12.7727
anchor	-12.7727
invited	-12.7728
regular	-12.773
▁behav	-12.773
aquarium	-12.7731
wearing	-12.7732
ctua	-12.7733
caution	-12.7734
measur	-12.7735
followin	-12.7735
ider	-12.7736
spoken	-12.7736
program	-12.774
hounds	-12.7742
bang	-12.7743
iv	-12.7744
sharing	-12.7744
serpent	-12.7744
▁hyp	-12.7745
company	-12.7746
properly	-12.7746
▁brow	-12.7746
worm	-12.7747
softly	-12.7748
motion	-12.7751
q	-12.7752
pours	-12.7753
mail	-12.7753
▁infa	-12.7755
▁miche	-12.7755
stuck	-12.7756
snout	-12.7757
▁beautifu	-12.776
michael	-12.7761
dumb	-12.7761
youd	-12.7761
gown	-12.7762
▁dependin	-12.7763
buzz	-12.7764
manual	-12.7765
▁creak	-12.7766
▁project	-12.7766
plate	-12.7769
▁groov	-12.7771
broke	-12.7772
check	-12.7773
feed	-12.7774
phant	-12.7775
friendly	-12.7776
gli	-12.7777
intention	-12.7777
▁yelp	-12.778
missed	-12.778
connected	-12.7782
noses	-12.7783
enti	-12.7784
science	-12.7785
frost	-12.7786
yuri	-12.7788
jon	-12.7789
warming	-12.779
alive	-12.7792
toxic	-12.7792
bite	-12.7793
▁deni	-12.7793
▁pancake	-12.7793
▁reserve	-12.7793
oksan	-12.7795
uated	-12.7795
lived	-12.7795
growl	-12.7796
▁biscuit	-12.7797
▁straggler	-12.7797
▁microphone	-12.7797
▁collision	-12.7798
▁crawdad	-12.7798
▁exam	-12.7798
▁leopard	-12.7798
why	-12.7798
▁cartwheel	-12.7799
▁postcard	-12.78
quin	-12.7802
▁savage	-12.7805
bble	-12.7805
ghoul	-12.7806
▁shou	-12.7806
▁executive	-12.7807
▁recei	-12.7807
▁typ	-12.7808
season	-12.7808
▁spreadsheet	-12.7809
famous	-12.7809
▁pattern	-12.781
touch	-12.781
▁pylon	-12.7811
▁achin	-12.7811
bill	-12.7811
heh	-12.7811
▁preparation	-12.7814
▁millimet	-12.7814
evil	-12.7815
▁sendin	-12.7815
▁stutter	-12.7815
judge	-12.7817
▁accusation	-12.7817
▁vegetable	-12.7818
suckers	-12.7819
▁quarte	-12.7819
elegant	-12.7819
▁critter	-12.782
tails	-12.782
▁contender	-12.7821
▁skim	-12.7822
▁knockoff	-12.7822
weavin	-12.7822
ception	-12.7823
fraud	-12.7825
magneti	-12.7825
▁tombs	-12.7827
▁peacefu	-12.7827
▁rival	-12.7827
▁sophisti	-12.7828
past	-12.7829
tresses	-12.7829
▁animai	-12.7829
▁blister	-12.783
nich	-12.7831
▁gymnastic	-12.7833
▁churc	-12.7835
▁spoon	-12.7837
▁contemp	-12.7838
▁resident	-12.7839
plum	-12.784
▁explorer	-12.784
yak	-12.7842
▁ordina	-12.7843
▁arrangement	-12.7845
behave	-12.7846
▁nigh	-12.7846
fold	-12.7846
▁grape	-12.7847
task	-12.7847
engers	-12.7848
▁leas	-12.7848
▁poem	-12.7849
mighty	-12.7849
paws	-12.7851
▁apprehen	-12.7851
llo	-12.7852
▁snare	-12.7852
▁repeatin	-12.7852
bien	-12.7854
▁carnivore	-12.7855
▁experienc	-12.786
▁transm	-12.786
▁determin	-12.786
suits	-12.7861
other	-12.7861
predictab	-12.7862
▁crib	-12.7862
▁invol	-12.7863
▁captur	-12.7863
tooth	-12.7864
▁apologiz	-12.7865
▁embarrass	-12.7865
▁sleeve	-12.7865
▁sneeze	-12.7865
manded	-12.7867
brains	-12.7869
urban	-12.7869
▁engag	-12.787
▁audi	-12.787
▁versa	-12.7871
▁yearn	-12.7871
manner	-12.7871
▁carnivor	-12.7872
calm	-12.7872
galinas	-12.7872
stretched	-12.7872
▁advanc	-12.7872
uctible	-12.7873
▁veni	-12.7873
▁sneez	-12.7873
uhh	-12.7874
▁jamai	-12.7874
▁wart	-12.7875
▁pancak	-12.7877
▁traditio	-12.7879
▁retrac	-12.788
▁fulfil	-12.788
lphi	-12.7881
cede	-12.7881
washing	-12.7881
▁persua	-12.7881
▁overlo	-12.7881
iron	-12.7882
subordinate	-12.7882
lc	-12.7882
dammit	-12.7882
ospher	-12.7883
pink	-12.7888
icense	-12.7888
▁trespass	-12.7888
▁archaeo	-12.7888
▁poach	-12.7888
▁intrigu	-12.7889
comb	-12.789
nal	-12.789
▁chuckle	-12.7891
▁bluff	-12.7891
saw	-12.7892
▁omg	-12.7892
▁fiddl	-12.7894
ivate	-12.7894
▁clatter	-12.7895
▁captiv	-12.7895
▁speci	-12.7895
▁nobod	-12.7895
▁extraordina	-12.7895
traps	-12.7896
▁dazzl	-12.7896
crum	-12.7896
▁innocen	-12.7897
▁accus	-12.7898
▁croak	-12.7898
tures	-12.7899
pert	-12.7899
▁squeez	-12.79
▁phil	-12.79
▁recepti	-12.7901
narl	-12.7902
arden	-12.7903
yuk	-12.7903
▁transform	-12.7903
▁inherit	-12.7904
rasit	-12.7904
▁distinguish	-12.7905
nurse	-12.7906
trained	-12.7906
▁inhabit	-12.7907
▁subtit	-12.7907
▁aimin	-12.7907
ammit	-12.7908
▁acquire	-12.7908
▁depict	-12.7908
▁decre	-12.7909
▁victimize	-12.7909
▁fatigue	-12.7909
▁dedicate	-12.7909
▁concret	-12.7909
▁philosoph	-12.7911
▁temporar	-12.7911
▁additio	-12.7912
▁abundan	-12.7912
kano	-12.7912
▁investigat	-12.7913
▁oblige	-12.7913
▁dispos	-12.7913
▁grizzl	-12.7914
▁ceremon	-12.7915
pokes	-12.7916
▁obedien	-12.7916
feeling	-12.7916
▁meg	-12.7916
abelotodo	-12.7916
▁rememb	-12.7917
▁euphrania	-12.7917
▁symmetri	-12.7918
▁jenn	-12.7918
▁intens	-12.7918
lazed	-12.792
▁reunit	-12.792
▁hysteri	-12.792
▁troph	-12.792
adore	-12.7921
▁leisure	-12.7922
▁hypothetical	-12.7923
▁electr	-12.7923
▁organiz	-12.7923
▁preceden	-12.7923
▁huert	-12.7923
▁instruct	-12.7923
▁yiiii	-12.7923
▁educatio	-12.7923
▁splend	-12.7923
▁territor	-12.7923
▁gnarl	-12.7924
▁ungratefu	-12.7924
▁ultimate	-12.7924
▁blurr	-12.7925
▁profess	-12.7926
▁lice	-12.7927
▁memori	-12.7927
▁excite	-12.7927
tious	-12.7927
hoohoohoo	-12.7928
▁carniv	-12.7928
fternoon	-12.7928
▁accompli	-12.7928
▁phenomen	-12.7928
ncomprehen	-12.7928
poundin	-12.7929
ntelligent	-12.7929
▁postponin	-12.7929
▁combine	-12.7929
▁educat	-12.7929
ncredible	-12.7929
popula	-12.7931
▁mechani	-12.7931
demoiselle	-12.7931
▁thundercl	-12.7931
uffl	-12.7931
▁misunderst	-12.7931
▁fresn	-12.7932
barrassing	-12.7932
▁tickle	-12.7932
▁societ	-12.7932
▁branch	-12.7932
▁astrolog	-12.7932
prote	-12.7932
eck	-12.7932
racious	-12.7932
▁mechanic	-12.7932
script	-12.7932
▁congregat	-12.7933
▁nonsen	-12.7933
excus	-12.7933
▁anticipat	-12.7933
▁possibil	-12.7933
creepin	-12.7933
hauvet	-12.7933
▁arrogan	-12.7933
▁regime	-12.7933
▁darlin	-12.7933
▁sculpt	-12.7933
▁influen	-12.7933
spiration	-12.7934
▁ridicul	-12.7934
nanimous	-12.7934
▁especia	-12.7934
rambled	-12.7934
▁coincide	-12.7934
▁sponsor	-12.7934
▁discret	-12.7934
jection	-12.7934
▁democra	-12.7934
▁reinforce	-12.7934
ontaine	-12.7935
▁freezin	-12.7935
▁spectacu	-12.7935
▁beginnin	-12.7935
▁writin	-12.7935
▁coeffic	-12.7935
icopter	-12.7935
haihaihai	-12.7935
▁hahhahha	-12.7935
uuuuuu	-12.7935
hahhahhahhahhah	-12.7935
commod	-12.7935
ordination	-12.7935
urgat	-12.7935
lalala	-12.7935
beiiev	-12.7935
▁brigad	-12.7935
oceros	-12.7935
otodo	-12.7935
▁insigni	-12.7935
counsel	-12.7935
inaudi	-12.7935
▁disrespect	-12.7935
▁plannin	-12.7935
▁micro	-12.7935
jord	-12.7935
▁destruct	-12.7936
tempo	-12.7936
▁grump	-12.7936
▁hayle	-12.7936
prises	-12.7936
▁hypothe	-12.7936
▁congrat	-12.7936
▁bologn	-12.7936
gregor	-12.7936
▁infra	-12.7936
▁succ	-12.7936
logne	-12.7937
ophy	-12.7937
▁excess	-12.7937
▁permis	-12.7937
▁michelang	-12.7937
▁draggin	-12.7937
evator	-12.7937
psided	-12.7937
▁analys	-12.7937
▁cautio	-12.7937
▁inscr	-12.7937
grette	-12.7937
occasi	-12.7937
▁intent	-12.7938
ritis	-12.7938
caps	-12.7938
▁langu	-12.7938
▁author	-12.7938
▁spagh	-12.7938
▁techno	-12.7938
▁thorough	-12.7938
hological	-12.7938
▁eloi	-12.7938
gmast	-12.7938
▁diggin	-12.7938
▁cigar	-12.7938
opher	-12.7938
brid	-12.7939
tuation	-12.7939
▁schul	-12.7939
stitut	-12.7939
ustria	-12.794
rupt	-12.794
▁carefu	-12.794
talian	-12.7941
salem	-12.7941
▁intim	-12.7942
actory	-12.7942
▁grandm	-12.7942
▁cult	-12.7942
▁potent	-12.7942
▁circumstan	-12.7942
▁mysteri	-12.7942
▁sanita	-12.7942
▁hurra	-12.7943
erci	-12.7943
▁emerge	-12.7943
wich	-12.7944
culty	-12.7944
dopted	-12.7944
ilence	-12.7944
nteresting	-12.7944
ailment	-12.7945
undant	-12.7945
▁eeh	-12.7945
▁indep	-12.7945
clusive	-12.7945
▁transpo	-12.7945
▁dread	-12.7946
enient	-12.7946
▁tremen	-12.7946
▁sidewind	-12.7947
▁gamblin	-12.7947
trude	-12.7947
hibit	-12.7947
▁anthr	-12.7948
cakes	-12.7948
▁ancest	-12.7949
article	-12.7949
cessors	-12.7949
▁titani	-12.7949
mons	-12.795
mmmmm	-12.7951
▁radi	-12.7951
orbid	-12.7951
▁jokin	-12.7951
eenth	-12.7952
▁philo	-12.7952
poos	-12.7952
curity	-12.7952
aquin	-12.7952
runk	-12.7953
rov	-12.7953
ritan	-12.7953
▁swimmin	-12.7953
▁osc	-12.7954
uses	-12.7954
ennan	-12.7954
▁extraordinar	-12.7954
▁herb	-12.7955
quire	-12.7955
▁stoppin	-12.7955
golia	-12.7956
meric	-12.7956
▁recogni	-12.7956
elain	-12.7957
▁haunt	-12.7957
▁assist	-12.7957
▁mcg	-12.7957
diot	-12.7958
semble	-12.7958
▁phila	-12.7958
▁peop	-12.7958
▁skimm	-12.7958
▁crop	-12.7958
hydr	-12.7958
ragm	-12.7959
▁energ	-12.7959
▁vegeta	-12.796
phu	-12.796
pleted	-12.796
▁vander	-12.796
▁vul	-12.7961
▁senor	-12.7961
layers	-12.7961
▁dyin	-12.7961
▁vaca	-12.7962
▁shuttin	-12.7962
▁youknowwh	-12.7963
▁strateg	-12.7964
▁intr	-12.7964
▁esco	-12.7964
▁involv	-12.7964
etta	-12.7965
cqu	-12.7968
▁adopt	-12.7968
chael	-12.7968
prised	-12.7969
ndication	-12.7969
▁reliev	-12.7969
both	-12.7969
ertaining	-12.797
▁lndia	-12.797
▁cuttin	-12.797
vato	-12.797
idio	-12.7971
▁alim	-12.7972
▁insta	-12.7972
▁frag	-12.7972
ji	-12.7972
▁peak	-12.7972
ylv	-12.7973
▁carib	-12.7974
▁hirin	-12.7974
weet	-12.7975
suspect	-12.7977
▁smokin	-12.7977
atically	-12.7978
cree	-12.7978
tzer	-12.7979
▁satur	-12.7979
bab	-12.7979
ustra	-12.798
udent	-12.798
▁broth	-12.7981
keeping	-12.7981
▁babe	-12.7982
amenta	-12.7984
dden	-12.7984
▁humbl	-12.7984
idding	-12.7985
parents	-12.7985
annel	-12.7986
osphere	-12.7986
▁heigh	-12.7987
▁croc	-12.7987
▁hittin	-12.7988
eography	-12.7988
▁stubb	-12.7989
estate	-12.7989
▁smo	-12.7989
agne	-12.7991
valua	-12.7991
putation	-12.7993
cists	-12.7994
▁stinkin	-12.7994
zum	-12.7995
scene	-12.7997
petition	-12.7997
▁budge	-12.7997
abie	-12.7997
▁auth	-12.7998
boats	-12.7998
▁flour	-12.7998
xua	-12.7998
nothe	-12.8
nishment	-12.8001
▁acro	-12.8001
▁scro	-12.8001
▁irres	-12.8002
▁wanderin	-12.8003
uble	-12.8003
▁catac	-12.8004
takers	-12.8004
▁receiv	-12.8005
▁forgo	-12.8005
▁brag	-12.8006
▁abu	-12.8006
key	-12.8007
ombi	-12.8007
xious	-12.8008
ziness	-12.8009
orites	-12.8009
claw	-12.801
▁divin	-12.8011
▁hamp	-12.8011
▁howlin	-12.8012
▁surge	-12.8012
▁equip	-12.8012
rizon	-12.8013
vantage	-12.8015
▁explore	-12.8016
ipping	-12.8016
▁campai	-12.8017
▁follows	-12.8019
exas	-12.8021
hoots	-12.8021
▁voil	-12.8021
▁pardo	-12.8025
gical	-12.8026
▁screamin	-12.8029
aboo	-12.8029
▁unho	-12.803
mites	-12.803
▁antic	-12.8032
▁hump	-12.8033
pla	-12.8033
▁incon	-12.8033
ssing	-12.8033
▁disc	-12.8034
relation	-12.8034
▁galin	-12.8035
▁abra	-12.8035
▁practicin	-12.8036
probabl	-12.8037
▁styl	-12.8037
mez	-12.8038
▁antar	-12.804
▁leop	-12.8042
▁unshe	-12.8042
nvin	-12.8042
▁caj	-12.8042
mals	-12.8043
▁minist	-12.8047
▁jess	-12.8048
▁aki	-12.805
abilit	-12.8051
birds	-12.8052
rillo	-12.8054
▁eff	-12.8056
▁studyin	-12.8056
▁bask	-12.8056
▁bub	-12.8056
ountain	-12.8058
rewd	-12.8058
memor	-12.8059
▁aaa	-12.8059
▁investi	-12.8061
▁oksan	-12.8062
ologies	-12.8063
▁appl	-12.8063
teration	-12.8064
▁roc	-12.8064
▁pacif	-12.8064
ignor	-12.8067
standing	-12.8067
▁prede	-12.8067
page	-12.8068
ctic	-12.8069
▁beau	-12.8069
▁biz	-12.8069
▁eminen	-12.8071
▁growlin	-12.8073
quet	-12.8073
klin	-12.8074
▁morn	-12.8074
▁demi	-12.8074
bilt	-12.8075
▁hav	-12.8076
ibut	-12.8077
▁allo	-12.8078
kety	-12.8078
bec	-12.8079
howhow	-12.8079
▁forc	-12.8079
▁responsibilit	-12.808
rink	-12.8085
hron	-12.8086
▁kol	-12.8089
▁viril	-12.8089
irec	-12.8091
▁sunda	-12.8092
dext	-12.8092
▁toad	-12.8092
honest	-12.8093
eather	-12.8094
▁cuc	-12.8094
▁acquaint	-12.8096
▁appro	-12.8096
wei	-12.8098
▁poke	-12.8101
goose	-12.8101
ephant	-12.8102
▁dick	-12.8103
bor	-12.8103
kidding	-12.8104
gnan	-12.8106
▁hors	-12.8109
pai	-12.811
fort	-12.8112
utters	-12.8113
▁blessin	-12.8114
▁earnin	-12.8115
▁spreadin	-12.8116
▁anxi	-12.8116
trap	-12.8116
sail	-12.8117
▁distra	-12.8119
▁pref	-12.8119
string	-12.812
▁fili	-12.8125
▁jew	-12.8125
mble	-12.8128
claim	-12.8128
▁mitt	-12.8128
afra	-12.813
nile	-12.8131
▁steve	-12.8132
ldnt	-12.8133
poles	-12.8137
makers	-12.8137
unting	-12.8139
tip	-12.8139
▁underst	-12.8139
bbage	-12.814
pathy	-12.8141
unty	-12.8142
destructi	-12.8144
fles	-12.8144
▁colon	-12.8145
▁napol	-12.8145
were	-12.8146
▁juic	-12.8146
▁stab	-12.8146
ility	-12.8147
▁miser	-12.815
ips	-12.815
▁hypo	-12.8152
fricas	-12.8152
geant	-12.8152
▁specialis	-12.8152
avier	-12.8153
▁neech	-12.8154
rrito	-12.8155
▁arc	-12.8156
oma	-12.8157
ud	-12.8158
▁alre	-12.8158
ugg	-12.816
ahchoo	-12.816
trot	-12.8161
▁wond	-12.8163
tale	-12.8164
▁armel	-12.8167
▁hij	-12.8167
▁revo	-12.8167
▁alge	-12.8167
etically	-12.8168
▁esta	-12.8169
inspired	-12.8172
petite	-12.8174
rances	-12.8174
▁jeanne	-12.8176
▁casta	-12.8177
▁league	-12.8179
▁travelin	-12.818
▁twiste	-12.818
cano	-12.8186
▁fle	-12.8186
bow	-12.819
▁kidnapp	-12.8192
▁sandal	-12.8194
▁reveren	-12.8195
adies	-12.8195
▁sacri	-12.82
fits	-12.8201
▁baboo	-12.8204
▁grun	-12.8204
pier	-12.8205
liver	-12.8206
▁irr	-12.8207
proba	-12.8211
▁whereve	-12.8211
wel	-12.8213
▁spir	-12.8215
▁ringin	-12.822
ntless	-12.8223
▁saps	-12.8223
▁twee	-12.8223
▁hamm	-12.8224
▁unti	-12.8226
powering	-12.8227
nez	-12.8232
laus	-12.8233
▁nig	-12.8234
abits	-12.8237
duck	-12.8239
ymn	-12.8239
▁taik	-12.8239
▁mock	-12.824
▁buildin	-12.8247
kless	-12.8248
ripe	-12.8251
nip	-12.8251
▁ori	-12.8253
▁capa	-12.8254
oksanal	-12.8259
flake	-12.8262
painted	-12.8264
fl	-12.827
▁amu	-12.8271
▁hast	-12.8273
▁stripe	-12.8276
cable	-12.828
move	-12.828
▁conta	-12.8281
▁laug	-12.8282
loos	-12.8282
ijuana	-12.8285
rgency	-12.8287
▁genera	-12.829
astics	-12.8291
▁laughin	-12.8292
gious	-12.8293
obbery	-12.8295
pits	-12.8297
distribut	-12.8299
naka	-12.8301
mond	-12.8303
▁tram	-12.8304
▁aok	-12.8306
iated	-12.8306
seriously	-12.8307
▁monst	-12.8309
herefor	-12.831
▁lettin	-12.8311
beii	-12.8312
▁inde	-12.8312
▁rollin	-12.8313
maste	-12.8318
▁cei	-12.832
▁farmin	-12.8321
▁kissin	-12.8322
esome	-12.8325
mz	-12.8327
spense	-12.8331
▁fuku	-12.8331
hal	-12.8332
nubi	-12.8333
▁deco	-12.8336
▁toni	-12.834
alized	-12.8342
▁relaxin	-12.8342
▁performer	-12.8345
▁conven	-12.8345
skat	-12.8345
dlers	-12.8347
cting	-12.8351
oucher	-12.8352
lasting	-12.8352
dealing	-12.8358
▁wearin	-12.8363
ft	-12.8365
▁progr	-12.8367
▁mul	-12.8369
kals	-12.8369
▁jur	-12.837
doors	-12.8382
▁monter	-12.8383
osi	-12.8388
▁blowin	-12.8391
▁jog	-12.8391
▁gorge	-12.8393
mere	-12.8398
mage	-12.84
▁sweets	-12.84
mical	-12.8403
fif	-12.8409
vre	-12.841
▁unknow	-12.8416
▁defens	-12.8422
icular	-12.8426
agen	-12.8432
▁savi	-12.8433
▁chor	-12.8434
annas	-12.8435
ullet	-12.8436
inis	-12.8436
auras	-12.8438
oom	-12.844
▁signin	-12.8441
masters	-12.8441
▁agreein	-12.8455
nation	-12.8455
▁gorg	-12.8457
agem	-12.8461
ample	-12.8462
▁caus	-12.8464
welcomes	-12.8465
ackers	-12.8469
ndia	-12.847
broad	-12.8474
▁plank	-12.8479
▁abi	-12.8485
▁fanc	-12.8488
anks	-12.8491
▁reput	-12.8493
lou	-12.8495
▁passin	-12.8496
rade	-12.8497
▁actin	-12.8502
phones	-12.8506
▁stol	-12.8515
mong	-12.8517
ately	-12.8518
bump	-12.8519
▁quest	-12.8529
▁correcti	-12.8535
ixo	-12.8536
▁chine	-12.8539
oat	-12.854
hum	-12.8542
val	-12.8542
eighte	-12.8549
▁deter	-12.8552
bei	-12.8553
vement	-12.8554
spects	-12.8555
stian	-12.8555
rried	-12.8555
ption	-12.8558
▁fours	-12.8558
ckie	-12.8559
▁gla	-12.8562
too	-12.8568
▁coloss	-12.8574
▁neve	-12.8582
nald	-12.8588
ouching	-12.8589
▁unite	-12.859
irty	-12.8594
▁leadin	-12.8594
▁brooms	-12.8594
▁rul	-12.8598
▁growin	-12.8599
lik	-12.86
hannes	-12.8607
▁sno	-12.8608
icial	-12.861
▁hangin	-12.8611
▁vall	-12.8615
ang	-12.8622
mper	-12.8623
esting	-12.8624
▁fren	-12.8628
▁thre	-12.8629
nc	-12.863
potted	-12.863
▁desir	-12.8632
farms	-12.8633
points	-12.864
▁ind	-12.864
lege	-12.8641
ocking	-12.8642
▁pace	-12.8645
calls	-12.8649
vant	-12.8655
▁dal	-12.8655
elicious	-12.8656
itude	-12.8657
hone	-12.866
willing	-12.8668
rate	-12.8668
▁buffe	-12.8669
mental	-12.867
stol	-12.8678
▁amo	-12.8681
▁civiliz	-12.8681
allowed	-12.8686
anzi	-12.8688
deen	-12.869
wai	-12.8694
▁gig	-12.8695
eech	-12.8698
▁gui	-12.8703
▁cookin	-12.8703
racle	-12.8704
load	-12.8706
▁laure	-12.8709
rants	-12.8709
taker	-12.8714
urous	-12.8716
aye	-12.8723
▁nur	-12.8725
▁grr	-12.8734
▁fol	-12.8737
nians	-12.8744
ffs	-12.8744
xte	-12.8745
▁cheeri	-12.8745
▁reve	-12.8745
orate	-12.8751
does	-12.8755
herz	-12.8755
rame	-12.8757
nprofessional	-12.8758
vil	-12.8759
bbering	-12.8761
▁deadli	-12.8761
section	-12.8766
run	-12.877
▁additiona	-12.8771
▁doubled	-12.8777
▁determine	-12.8777
▁footst	-12.8779
▁padd	-12.878
licious	-12.8783
flying	-12.8787
lowly	-12.8792
▁itth	-12.8798
istant	-12.8798
▁trainin	-12.8801
rlin	-12.8807
▁bui	-12.8812
▁complicat	-12.8813
▁rams	-12.8817
▁lowin	-12.8823
▁startin	-12.8833
▁zo	-12.8835
sticks	-12.8835
loud	-12.8841
ody	-12.8848
▁coll	-12.8849
ndra	-12.8851
▁brim	-12.886
uises	-12.8862
▁hatin	-12.8869
agram	-12.8869
▁wager	-12.8871
itatin	-12.8872
▁bun	-12.8874
▁initiat	-12.8877
marks	-12.8896
▁ins	-12.8898
ubbed	-12.8901
sai	-12.8901
skey	-12.8903
▁mug	-12.8904
▁wilder	-12.8904
iful	-12.891
▁pickin	-12.8915
▁rockin	-12.8919
augh	-12.8921
▁ode	-12.8923
▁were	-12.8923
fives	-12.8925
▁wort	-12.8929
isits	-12.8935
▁bourd	-12.8942
taway	-12.8946
▁swin	-12.8947
▁satisfie	-12.8952
ifer	-12.8953
blem	-12.8953
▁abd	-12.8964
▁semi	-12.8969
razy	-12.8972
▁stri	-12.8975
▁attenti	-12.8976
culars	-12.8984
iles	-12.8994
iage	-12.8994
▁toymak	-12.8997
atio	-12.9
etter	-12.9004
▁pho	-12.9004
ert	-12.9007
fraid	-12.9008
▁contende	-12.901
wal	-12.9013
offs	-12.9016
[...]
