<unk>	0
<s>	0
</s>	0
s	-3.03199
ing	-4.44173
ed	-4.5425
d	-4.62611
y	-4.73131
▁know	-4.76292
▁im	-4.77628
▁dont	-4.81461
e	-4.90135
t	-4.93594
er	-4.94328
a	-4.95561
o	-4.98408
n	-4.98454
▁get	-5.00799
p	-5.05669
▁	-5.07172
▁got	-5.08035
▁right	-5.09796
▁go	-5.15579
▁like	-5.19934
▁yeah	-5.20279
l	-5.22537
r	-5.2677
▁na	-5.27624
i	-5.28397
in	-5.28774
▁come	-5.31974
▁youre	-5.32985
m	-5.3595
u	-5.36722
▁l	-5.37246
▁thats	-5.45174
▁one	-5.47188
▁want	-5.52361
▁man	-5.53346
▁well	-5.5657
▁oh	-5.56714
▁see	-5.62392
▁fucking	-5.62794
▁good	-5.64167
b	-5.64777
▁gon	-5.66309
ly	-5.67546
c	-5.69322
▁fuck	-5.70202
g	-5.72697
▁look	-5.75494
▁okay	-5.76252
▁think	-5.7835
le	-5.79347
f	-5.79585
ar	-5.82088
al	-5.82333
▁hes	-5.83506
h	-5.83866
▁back	-5.89954
▁time	-5.93788
▁take	-5.94647
or	-5.95898
▁hey	-5.97135
v	-5.98151
it	-6.01169
▁tell	-6.04347
▁us	-6.04603
w	-6.08338
ie	-6.08552
▁ill	-6.08668
▁going	-6.09555
▁de	-6.10079
re	-6.10177
▁say	-6.10409
on	-6.11911
▁need	-6.12894
es	-6.13702
k	-6.13786
▁mean	-6.13954
▁yes	-6.1598
▁make	-6.17756
an	-6.1792
▁shit	-6.19015
▁would	-6.22546
▁cant	-6.23795
▁give	-6.24068
▁s	-6.26108
▁didnt	-6.26131
▁f	-6.2654
▁could	-6.26887
▁re	-6.28021
en	-6.28462
▁way	-6.29729
ll	-6.31832
▁let	-6.32866
ve	-6.34461
▁something	-6.34806
▁g	-6.3556
ch	-6.35975
ic	-6.36943
▁ta	-6.37093
▁little	-6.38487
▁never	-6.38879
▁whats	-6.39149
il	-6.41141
ri	-6.41603
▁really	-6.42193
▁sir	-6.42335
z	-6.42758
ck	-6.42902
ro	-6.43932
▁c	-6.45897
▁two	-6.46199
▁love	-6.467
at	-6.48149
▁call	-6.48396
▁lets	-6.48421
st	-6.48429
ion	-6.48486
▁car	-6.49146
▁please	-6.49289
ra	-6.51163
▁theres	-6.51406
▁mr	-6.52534
▁people	-6.53021
▁said	-6.55594
▁money	-6.56112
▁h	-6.57129
▁in	-6.57147
▁ive	-6.57466
▁thank	-6.58258
▁sorry	-6.59183
▁thing	-6.60271
ur	-6.60442
▁k	-6.61599
▁put	-6.62711
▁talk	-6.62973
▁st	-6.63721
▁god	-6.64098
▁guy	-6.64359
▁even	-6.64404
▁name	-6.65031
ce	-6.65441
▁help	-6.66245
▁e	-6.68301
▁a	-6.68365
▁uh	-6.6953
▁life	-6.72247
▁sure	-6.726
▁sh	-6.73716
ent	-6.74087
ate	-6.74384
se	-6.75611
▁kill	-6.76067
▁anything	-6.76277
▁la	-6.7684
▁theyre	-6.77023
th	-6.77256
▁work	-6.77685
▁p	-6.78065
▁day	-6.78327
▁nothing	-6.78658
▁keep	-6.78947
▁stop	-6.78966
▁be	-6.79056
la	-6.79267
ation	-6.7958
▁con	-6.80361
▁much	-6.81108
▁o	-6.82199
ers	-6.82672
▁new	-6.82868
us	-6.83423
et	-6.8356
▁find	-6.83981
▁night	-6.84327
▁m	-6.84414
ne	-6.8446
▁co	-6.84508
▁big	-6.85439
ter	-6.86098
▁cr	-6.86462
am	-6.8649
▁guys	-6.87239
el	-6.8737
li	-6.87912
te	-6.88277
▁wan	-6.89161
▁n	-6.89557
▁listen	-6.90073
im	-6.90181
▁around	-6.90545
▁do	-6.91625
ir	-6.93256
▁br	-6.93422
▁still	-6.9381
▁home	-6.93981
▁ro	-6.94125
▁long	-6.94596
age	-6.95036
▁wait	-6.95117
▁old	-6.95576
is	-6.95636
▁ra	-6.9604
ist	-6.96078
▁away	-6.96107
▁first	-6.96574
▁th	-6.97063
▁bu	-6.97171
ke	-6.98474
ies	-6.98882
▁maybe	-6.99503
▁move	-7.00183
▁ass	-7.00713
▁ever	-7.00969
▁hi	-7.01656
▁un	-7.01703
▁ma	-7.02089
▁boy	-7.02862
▁po	-7.03086
▁son	-7.03255
id	-7.03284
▁shes	-7.03692
ment	-7.03913
▁hear	-7.04091
▁last	-7.04145
▁everything	-7.0425
▁better	-7.04292
▁hell	-7.05331
▁mi	-7.0535
▁id	-7.05599
▁years	-7.05795
tion	-7.05874
▁place	-7.06264
ow	-7.06514
▁lot	-7.06777
▁baby	-7.06845
▁aint	-7.07208
▁bad	-7.07255
▁always	-7.07381
▁great	-7.07381
▁door	-7.07494
ge	-7.0811
um	-7.08317
▁understand	-7.0832
▁thought	-7.0856
▁stay	-7.08899
▁house	-7.0896
▁sp	-7.09558
▁b	-7.0972
x	-7.09809
lo	-7.10128
▁ex	-7.11492
▁pa	-7.11592
▁tr	-7.12031
▁show	-7.12496
▁pro	-7.12532
ry	-7.12608
▁three	-7.12961
▁dead	-7.13339
ia	-7.13825
▁told	-7.14358
▁ba	-7.14672
▁se	-7.15919
▁real	-7.16018
▁father	-7.16381
▁v	-7.16703
▁mo	-7.17089
▁ho	-7.1711
ant	-7.17358
▁r	-7.17459
▁leave	-7.17616
co	-7.17634
▁every	-7.182
▁nice	-7.1828
▁to	-7.18426
▁things	-7.1859
na	-7.19802
▁feel	-7.19853
▁wont	-7.20158
▁ha	-7.20262
▁kind	-7.20361
ine	-7.20819
▁j	-7.20822
▁job	-7.21352
ta	-7.21466
▁done	-7.21593
nt	-7.22335
▁believe	-7.22499
▁mar	-7.23464
▁friend	-7.25003
▁head	-7.25086
▁fuckin	-7.25185
and	-7.25212
▁gun	-7.25525
▁em	-7.25674
▁mother	-7.25819
▁care	-7.26148
▁play	-7.2622
ver	-7.26551
▁su	-7.26889
▁made	-7.27121
▁open	-7.27181
▁hold	-7.2764
to	-7.27644
▁t	-7.2805
▁fl	-7.28391
▁youve	-7.29047
▁live	-7.2946
▁dr	-7.29894
▁left	-7.29954
▁huh	-7.3066
▁youll	-7.30688
▁talking	-7.31089
▁ask	-7.31507
▁girl	-7.32042
▁doesnt	-7.32085
▁kid	-7.32212
man	-7.32463
▁lo	-7.32976
▁bar	-7.33325
▁ok	-7.33678
▁sa	-7.33943
▁ca	-7.34077
▁fine	-7.34098
▁turn	-7.34512
▁bo	-7.34554
▁da	-7.34659
▁remember	-7.34755
ci	-7.35115
ff	-7.35412
▁cl	-7.35733
▁run	-7.35779
▁may	-7.35906
▁brother	-7.36993
ight	-7.37066
j	-7.37092
▁wrong	-7.37751
ug	-7.37823
ni	-7.38603
ha	-7.38789
ty	-7.38807
▁meet	-7.38887
▁so	-7.39401
▁business	-7.398
ting	-7.39856
▁deal	-7.40119
able	-7.4033
ive	-7.40628
▁miss	-7.40663
▁else	-7.40915
up	-7.41016
▁coming	-7.411
▁watch	-7.415
mo	-7.41524
▁enough	-7.41627
▁vi	-7.41835
ad	-7.41938
ut	-7.42103
▁getting	-7.42123
▁came	-7.42124
▁problem	-7.42156
▁phone	-7.42164
▁must	-7.42807
▁cop	-7.43131
▁pay	-7.43364
▁walk	-7.43494
ca	-7.43682
▁hard	-7.43775
▁wife	-7.44301
▁d	-7.44351
pe	-7.44504
▁w	-7.45134
▁cha	-7.4527
▁start	-7.453
▁family	-7.45386
▁mind	-7.45405
ny	-7.45476
▁frank	-7.45661
▁looking	-7.45806
▁world	-7.4621
▁found	-7.46211
▁wasnt	-7.46212
ig	-7.46302
▁happened	-7.46678
▁le	-7.46792
▁men	-7.47576
▁war	-7.47832
om	-7.47919
▁al	-7.48195
▁di	-7.4864
▁che	-7.48765
▁shot	-7.48839
▁hand	-7.49011
▁an	-7.49147
▁hello	-7.49479
ma	-7.49498
ho	-7.49555
▁me	-7.49613
▁dis	-7.49619
▁wanted	-7.49729
▁next	-7.50149
▁close	-7.50166
est	-7.50357
▁bring	-7.50948
▁course	-7.51304
▁happen	-7.51393
▁cut	-7.51532
▁another	-7.51886
▁whos	-7.52516
ance	-7.53135
▁pi	-7.5343
▁case	-7.53561
ii	-7.53609
▁trying	-7.53849
ou	-7.54285
ap	-7.54357
me	-7.54683
▁knew	-7.5485
▁morning	-7.54853
▁today	-7.55151
▁hit	-7.55167
▁end	-7.55592
de	-7.55678
▁woman	-7.55785
▁ar	-7.55812
▁best	-7.55944
▁jesus	-7.5606
▁went	-7.56275
ling	-7.56275
ity	-7.56799
▁police	-7.56977
▁we	-7.57007
▁sit	-7.57101
▁wouldnt	-7.57275
▁week	-7.57286
gu	-7.57294
▁shut	-7.57458
ag	-7.57553
▁wi	-7.57899
▁pick	-7.58073
▁he	-7.58198
▁might	-7.58345
▁heard	-7.5838
ian	-7.58458
▁nobody	-7.59151
▁ti	-7.59257
▁killed	-7.59424
▁shoot	-7.59468
▁bitch	-7.60007
▁win	-7.60668
▁took	-7.60809
ook	-7.60884
ish	-7.6105
▁cause	-7.61063
▁someone	-7.61373
▁no	-7.62233
▁bit	-7.62338
▁ap	-7.62592
ard	-7.62876
▁um	-7.62952
▁everybody	-7.62991
▁fa	-7.63094
▁room	-7.63117
cu	-7.63318
▁question	-7.63321
▁try	-7.63704
▁seen	-7.63984
▁i	-7.64026
▁isnt	-7.6431
▁bl	-7.6486
▁die	-7.65468
▁second	-7.66309
no	-7.6637
▁thanks	-7.66699
▁tony	-7.66756
do	-7.67126
▁face	-7.67134
▁drink	-7.67331
▁bill	-7.67545
▁en	-7.67715
be	-7.67846
▁pe	-7.67894
ot	-7.67996
ure	-7.68233
▁wh	-7.68295
▁goddamn	-7.68697
▁four	-7.68791
▁point	-7.69053
▁fire	-7.69125
ster	-7.6995
▁dog	-7.70011
▁dad	-7.70164
▁sc	-7.70623
ger	-7.70801
▁ju	-7.71008
▁tonight	-7.71146
ence	-7.71796
▁saw	-7.7184
▁word	-7.72219
ac	-7.72764
tic	-7.73012
ti	-7.73096
▁pretty	-7.73292
▁matter	-7.74152
▁check	-7.74227
▁happy	-7.74383
ash	-7.74412
ak	-7.74715
▁somebody	-7.74749
▁ah	-7.75096
king	-7.75124
ph	-7.75486
▁whole	-7.75858
▁without	-7.76228
red	-7.7625
▁idea	-7.76635
▁set	-7.76786
▁far	-7.76819
▁stand	-7.76911
▁jimmy	-7.76975
▁te	-7.77071
ee	-7.77318
▁alright	-7.77352
▁plan	-7.77681
▁five	-7.77751
▁ready	-7.77834
▁saying	-7.77969
▁use	-7.78051
▁weve	-7.78312
▁gra	-7.78539
▁pull	-7.79014
▁fight	-7.7915
oo	-7.79187
▁henry	-7.79254
▁hands	-7.79282
▁read	-7.79447
▁clean	-7.79642
va	-7.80551
▁called	-7.80557
▁boss	-7.80799
op	-7.81051
▁du	-7.81153
▁line	-7.81572
qu	-7.81954
▁com	-7.82148
bo	-7.82612
▁together	-7.82769
▁guess	-7.82776
▁playing	-7.82857
und	-7.82912
▁si	-7.83291
▁used	-7.83475
ted	-7.83552
▁number	-7.83568
▁gone	-7.83675
▁many	-7.83957
▁damn	-7.83975
▁black	-7.84415
da	-7.84522
▁friends	-7.8463
▁mom	-7.84686
▁motherfucker	-7.84777
▁blood	-7.84777
▁music	-7.85198
mon	-7.8521
▁high	-7.85661
▁pre	-7.85699
▁stuff	-7.86002
▁lm	-7.86017
▁ten	-7.86239
▁days	-7.86294
▁worry	-7.86413
▁six	-7.86501
ton	-7.86644
res	-7.87103
▁couldnt	-7.87211
▁change	-7.8808
end	-7.88337
▁john	-7.88434
ect	-7.88462
▁part	-7.88468
▁half	-7.88503
▁ago	-7.88627
▁youd	-7.88802
▁order	-7.88919
▁minutes	-7.89059
▁free	-7.8926
▁clear	-7.89349
ary	-7.90067
▁light	-7.90124
▁ball	-7.904
▁gr	-7.90452
▁chi	-7.9056
ping	-7.90701
▁am	-7.90807
▁jack	-7.91177
▁met	-7.91313
ber	-7.91334
▁pass	-7.91719
▁million	-7.91923
▁whoa	-7.91931
▁says	-7.91965
▁ri	-7.92043
io	-7.92159
▁excuse	-7.92359
▁easy	-7.9236
▁already	-7.92798
▁supposed	-7.93103
▁soon	-7.93214
▁beautiful	-7.93238
▁crazy	-7.93238
ib	-7.93448
▁pr	-7.93459
▁chance	-7.93738
son	-7.94125
▁ne	-7.94125
▁sleep	-7.94153
▁sw	-7.94405
▁forget	-7.94572
▁havent	-7.94573
▁gave	-7.94578
▁mu	-7.94926
▁alone	-7.95072
▁grand	-7.95109
go	-7.95203
ze	-7.95208
▁hate	-7.95586
▁que	-7.95642
▁hope	-7.95674
ful	-7.95863
▁nigger	-7.95923
▁sl	-7.95978
▁speak	-7.96105
▁yet	-7.96283
ical	-7.96556
▁anyone	-7.96835
ill	-7.97536
▁street	-7.97755
▁game	-7.97767
▁drive	-7.97817
em	-7.98008
▁arm	-7.98339
▁wheres	-7.98511
ass	-7.98528
▁answer	-7.98682
▁minute	-7.98993
▁qu	-7.99135
▁ch	-7.99139
▁anybody	-7.99149
▁young	-7.99164
▁kids	-7.99709
▁danny	-8.00565
ten	-8.00584
▁break	-8.01042
▁since	-8.01046
▁ya	-8.01302
ade	-8.01345
▁fe	-8.01394
▁touch	-8.01521
▁hurt	-8.01524
▁inside	-8.01604
▁fun	-8.01934
▁sign	-8.02011
▁buy	-8.02062
ise	-8.02242
ner	-8.02271
▁sound	-8.02559
mi	-8.02685
▁eat	-8.02883
ake	-8.03184
▁bet	-8.0333
ble	-8.03759
ack	-8.03761
▁count	-8.03862
che	-8.03968
▁lost	-8.04353
▁christ	-8.04738
▁mon	-8.05157
▁later	-8.0534
▁heart	-8.05657
▁book	-8.05736
▁tomorrow	-8.05931
▁rest	-8.0594
▁sighs	-8.06434
▁trust	-8.06441
▁cool	-8.0645
▁act	-8.06563
▁probably	-8.06939
▁piece	-8.06942
▁lord	-8.06988
▁goes	-8.07022
ated	-8.07045
▁red	-8.07163
▁eyes	-8.07308
▁pu	-8.07856
▁year	-8.07882
▁pen	-8.08625
ous	-8.08861
▁captain	-8.08985
▁anyway	-8.08986
ens	-8.09383
▁side	-8.09623
▁white	-8.0967
▁leg	-8.09691
▁jo	-8.10051
▁step	-8.10359
▁fi	-8.10576
▁ad	-8.10581
▁thinking	-8.10978
▁daughter	-8.11074
▁follow	-8.11074
▁chuckles	-8.11078
▁bra	-8.11278
▁taking	-8.11327
▁actually	-8.11603
▁exactly	-8.11603
▁front	-8.11604
▁outside	-8.11616
ai	-8.11821
ious	-8.12061
▁send	-8.12428
▁body	-8.12688
▁working	-8.12931
▁ac	-8.13103
▁funny	-8.13278
▁school	-8.13748
▁couple	-8.13749
▁death	-8.13971
▁though	-8.14238
▁key	-8.14886
he	-8.15426
▁making	-8.15523
▁blow	-8.15535
▁whatever	-8.1594
▁au	-8.1602
▁star	-8.16048
▁state	-8.16096
▁eye	-8.16136
way	-8.16495
▁story	-8.16509
▁they	-8.16669
ath	-8.16759
▁late	-8.17106
▁laughing	-8.17264
less	-8.17392
▁comp	-8.17554
▁save	-8.1769
▁ahead	-8.18806
▁water	-8.1943
▁dude	-8.19476
▁tommy	-8.19899
▁el	-8.20123
▁grunts	-8.20473
▁serious	-8.20504
▁wish	-8.20616
▁mine	-8.20669
one	-8.20692
▁tom	-8.20963
▁behind	-8.21055
▁prison	-8.21055
▁pain	-8.21476
▁sal	-8.21479
▁va	-8.21616
▁drop	-8.21688
▁tu	-8.21891
▁cor	-8.21985
▁sometimes	-8.22053
▁promise	-8.2223
▁boys	-8.22363
lin	-8.22485
ness	-8.2254
▁asked	-8.22547
▁beat	-8.22618
▁reason	-8.22821
▁sick	-8.2307
▁doctor	-8.23416
▁truth	-8.23417
▁town	-8.2342
▁mor	-8.23755
▁sell	-8.23981
▁ser	-8.24478
▁murder	-8.25222
▁can	-8.25313
▁ben	-8.25657
▁moment	-8.25671
▁paul	-8.25884
▁person	-8.26194
▁stupid	-8.26445
▁pop	-8.26681
▁nick	-8.26814
▁power	-8.27073
ial	-8.27094
▁est	-8.2754
▁afraid	-8.27683
▁hang	-8.27698
que	-8.28044
▁med	-8.28066
▁bi	-8.28149
▁roll	-8.28385
▁wa	-8.28545
▁mad	-8.28553
▁city	-8.28659
▁jordan	-8.28937
▁michael	-8.28937
▁important	-8.28938
port	-8.2909
▁wall	-8.29173
▁fucked	-8.29439
▁bullshit	-8.2957
▁true	-8.29581
▁fast	-8.2961
▁bank	-8.29647
▁ran	-8.29996
▁months	-8.30106
▁sent	-8.30186
▁anymore	-8.30207
▁trouble	-8.30207
▁ter	-8.3029
▁grunting	-8.30848
▁learn	-8.30855
▁safe	-8.30929
▁sol	-8.30957
▁per	-8.30968
▁girls	-8.30969
▁har	-8.31061
▁continues	-8.31214
▁gu	-8.31397
▁sm	-8.31788
▁mas	-8.32004
▁rat	-8.32101
▁everyone	-8.32244
tra	-8.32656
▁asshole	-8.32797
▁least	-8.328
eep	-8.32801
▁ow	-8.32807
unk	-8.33556
▁air	-8.33612
▁bag	-8.3367
ward	-8.33881
▁straight	-8.34161
▁drug	-8.3443
▁hair	-8.34462
ide	-8.34523
▁ab	-8.34577
▁alive	-8.34939
▁hours	-8.35206
au	-8.35251
▁bastard	-8.35455
▁bed	-8.35649
▁beg	-8.35819
▁knock	-8.3613
▁ring	-8.36222
com	-8.3626
▁fell	-8.36525
▁team	-8.36542
▁officer	-8.36641
▁rec	-8.36708
▁boo	-8.36787
▁figure	-8.36812
▁dream	-8.36813
▁also	-8.36893
▁full	-8.37534
▁para	-8.37605
land	-8.3765
ite	-8.38083
▁started	-8.38223
▁paper	-8.3823
by	-8.38282
▁office	-8.38371
▁for	-8.38529
▁lose	-8.38567
▁pat	-8.38686
▁burn	-8.38831
▁finish	-8.38882
▁super	-8.38906
▁interest	-8.38934
▁country	-8.39001
ley	-8.39328
zz	-8.39356
▁reg	-8.39511
▁different	-8.39579
▁gentlemen	-8.39579
▁either	-8.39579
▁honey	-8.39583
▁guard	-8.39637
pped	-8.39753
▁ja	-8.40084
▁wo	-8.40254
▁jew	-8.40288
▁screaming	-8.40366
▁telling	-8.40718
ung	-8.40896
▁lts	-8.40981
▁protect	-8.40993
▁broke	-8.40998
▁blue	-8.41001
▁hows	-8.41056
▁breath	-8.41708
▁truck	-8.41709
▁tv	-8.41836
▁nicky	-8.42004
▁lu	-8.4205
▁cash	-8.42062
▁rock	-8.42417
▁throw	-8.42429
▁ear	-8.42539
▁gold	-8.42569
▁sam	-8.43018
▁groans	-8.43151
▁company	-8.43153
▁special	-8.43158
▁crime	-8.43159
out	-8.43295
▁slow	-8.43301
▁top	-8.43304
▁arent	-8.43452
▁wil	-8.43528
▁almost	-8.43881
▁quick	-8.43882
▁child	-8.43889
▁tried	-8.43915
▁up	-8.44037
▁report	-8.44091
ice	-8.44154
▁joke	-8.44282
▁lie	-8.44323
▁table	-8.44367
▁hmm	-8.44629
▁train	-8.44639
▁mark	-8.44693
▁sister	-8.44728
▁fact	-8.45524
▁law	-8.45862
▁picture	-8.46103
▁certain	-8.46103
▁wear	-8.46435
▁waiting	-8.46955
▁heres	-8.4699
time	-8.47114
▁near	-8.47375
▁bullet	-8.47613
▁quiet	-8.47616
▁horse	-8.47621
▁shall	-8.4763
▁worth	-8.48377
▁calm	-8.48394
▁daddy	-8.48394
▁lock	-8.48913
▁por	-8.49026
ship	-8.49074
▁husband	-8.49145
▁stick	-8.49159
our	-8.49883
▁brought	-8.4992
▁howard	-8.50013
▁card	-8.50553
ank	-8.5064
▁box	-8.50964
▁over	-8.51105
▁asking	-8.51468
▁expect	-8.51489
▁hunt	-8.51491
▁record	-8.51492
ttle	-8.51778
▁feeling	-8.51943
▁stan	-8.52185
▁welcome	-8.52282
▁perfect	-8.52282
▁buddy	-8.52282
▁living	-8.52283
▁along	-8.52284
▁club	-8.52287
▁quite	-8.52792
▁past	-8.53081
▁control	-8.53082
▁charge	-8.53087
▁kick	-8.53094
▁ii	-8.53205
▁out	-8.53366
▁eight	-8.53491
▁sweet	-8.53891
▁children	-8.53892
▁swear	-8.53892
ating	-8.5415
▁building	-8.54262
▁dick	-8.54353
lie	-8.54367
▁unit	-8.54422
▁died	-8.54444
▁laughs	-8.55222
▁scared	-8.55415
▁smart	-8.5553
▁stem	-8.55806
▁fair	-8.5581
▁ver	-8.56732
▁boat	-8.56936
▁yo	-8.57186
▁smell	-8.57186
▁fat	-8.57364
▁groaning	-8.58021
▁karen	-8.58026
▁rule	-8.58029
▁court	-8.58034
▁park	-8.58072
▁party	-8.58088
▁ace	-8.58268
▁mess	-8.58718
▁inter	-8.58832
▁respect	-8.58869
▁short	-8.58906
▁lll	-8.59078
log	-8.59387
▁taken	-8.59666
▁wonder	-8.59702
▁laugh	-8.59715
▁radio	-8.59726
▁bur	-8.59916
▁rob	-8.59961
▁sex	-8.60077
ize	-8.60319
▁french	-8.60586
▁hour	-8.60772
▁lead	-8.60826
▁floor	-8.61465
▁join	-8.61514
the	-8.61705
▁joe	-8.61934
▁voice	-8.62333
▁york	-8.62334
▁window	-8.62335
▁married	-8.6234
side	-8.62356
▁kidding	-8.62375
▁grow	-8.62524
▁personal	-8.62763
▁hot	-8.62772
▁english	-8.63217
▁itll	-8.63236
▁cab	-8.6328
▁bat	-8.63356
▁rid	-8.63712
▁offer	-8.63764
umb	-8.64117
▁sense	-8.64133
▁running	-8.64139
▁driver	-8.64226
▁less	-8.64337
▁mary	-8.64744
▁worked	-8.64827
▁private	-8.65011
▁chatter	-8.65014
▁val	-8.65152
▁catch	-8.65205
▁ir	-8.65297
▁max	-8.6543
▁poor	-8.65445
▁wow	-8.65617
act	-8.65671
▁till	-8.65718
for	-8.65917
▁engine	-8.65921
▁partner	-8.66008
▁whi	-8.66107
▁cent	-8.66317
▁gi	-8.6652
▁mouth	-8.66842
▁lawyer	-8.6685
▁crew	-8.66852
▁cam	-8.66895
▁rich	-8.66909
▁sort	-8.66925
▁ye	-8.67163
▁ob	-8.67769
ift	-8.68025
▁road	-8.68136
▁bell	-8.684
▁jan	-8.68578
▁become	-8.68701
▁food	-8.68703
▁hed	-8.69091
▁watching	-8.69158
men	-8.69543
▁hundred	-8.69642
▁dark	-8.69649
▁bye	-8.69681
▁kiss	-8.6969
ula	-8.69724
▁iike	-8.69757
▁hotel	-8.69766
▁aii	-8.70566
▁cold	-8.70629
▁stra	-8.70866
▁luck	-8.70919
▁indistinct	-8.71555
▁glass	-8.7156
ude	-8.71873
▁test	-8.71881
▁sun	-8.7197
▁charlie	-8.72527
▁agent	-8.72535
▁panting	-8.7254
▁strange	-8.72555
▁speaking	-8.73116
▁mitch	-8.73516
▁glad	-8.73522
▁cell	-8.73541
▁maam	-8.74127
▁lucky	-8.74412
▁leaving	-8.74497
▁mistake	-8.74497
▁angel	-8.74517
▁lady	-8.74575
▁wake	-8.74781
▁fall	-8.75166
▁enjoy	-8.75497
▁coffee	-8.75497
▁thousand	-8.75497
▁relax	-8.75498
▁green	-8.75507
▁seven	-8.75508
▁women	-8.75524
▁dress	-8.75561
▁walt	-8.7572
▁land	-8.75734
▁master	-8.75965
▁hide	-8.76179
▁carry	-8.76329
▁ringing	-8.76332
▁piss	-8.76369
▁doc	-8.76481
▁add	-8.76489
▁choice	-8.76507
▁machine	-8.76508
▁secret	-8.76509
▁honest	-8.76512
▁under	-8.76569
▁cur	-8.77057
▁none	-8.77073
▁song	-8.77373
▁cat	-8.77493
▁foot	-8.77527
▁corleone	-8.77527
▁grey	-8.77566
▁track	-8.77712
▁sitting	-8.77761
▁cap	-8.77945
▁shop	-8.78054
▁handle	-8.78115
▁pal	-8.78541
▁surprise	-8.78558
▁agree	-8.78563
▁stole	-8.78582
▁treat	-8.786
▁write	-8.78604
▁cock	-8.78688
▁finger	-8.78817
▁mike	-8.79106
▁sub	-8.7949
▁somewhere	-8.796
▁driving	-8.796
▁dinner	-8.79602
▁movie	-8.79609
▁dance	-8.79856
▁ride	-8.80015
▁scream	-8.80528
▁detective	-8.80652
▁service	-8.80653
▁tires	-8.80828
▁grab	-8.81642
ative	-8.81671
▁return	-8.81716
▁ground	-8.81718
▁small	-8.81723
▁south	-8.81728
▁trans	-8.81773
▁art	-8.8182
▁careful	-8.81887
▁american	-8.82335
▁holy	-8.82491
▁mama	-8.82646
▁hurry	-8.82793
▁eu	-8.82938
▁race	-8.83008
▁suck	-8.83596
▁sake	-8.83656
▁pleasure	-8.83879
▁shouldnt	-8.83879
▁moving	-8.83895
▁tape	-8.84107
▁jail	-8.84155
lng	-8.842
▁pin	-8.84221
▁roman	-8.84356
▁low	-8.84392
▁cover	-8.84443
▁stone	-8.84748
▁strong	-8.84978
▁arrest	-8.84984
▁james	-8.84985
▁ladies	-8.84988
▁decide	-8.8499
▁bob	-8.85704
▁explain	-8.86089
▁across	-8.86089
▁smoke	-8.86091
▁mmm	-8.86104
▁favor	-8.87188
▁except	-8.88349
▁present	-8.88366
▁owe	-8.88384
wood	-8.88467
▁fix	-8.88537
▁deep	-8.88555
▁shoe	-8.88579
▁spend	-8.88594
▁theyve	-8.88712
▁dig	-8.88805
fuck	-8.88874
▁cost	-8.88895
▁fly	-8.89223
▁camp	-8.89257
▁seat	-8.89311
▁form	-8.89319
▁appreciate	-8.89498
▁patrick	-8.89498
▁giving	-8.89502
▁outta	-8.89617
pper	-8.90036
▁press	-8.90234
▁dave	-8.90324
▁anywhere	-8.90661
▁hospital	-8.90661
▁paid	-8.91216
▁skin	-8.91298
▁italian	-8.91837
▁vincent	-8.91837
▁complete	-8.9184
▁brain	-8.91941
ized	-8.92897
▁attack	-8.93028
▁maurizio	-8.93028
▁peace	-8.93032
▁push	-8.93079
▁harry	-8.9319
ball	-8.94111
▁david	-8.94234
▁steal	-8.94261
▁tired	-8.94439
▁shell	-8.94982
▁ph	-8.95275
▁weapon	-8.95452
▁forgot	-8.95453
▁casino	-8.95453
▁situation	-8.95454
▁consider	-8.95455
▁fool	-8.95457
▁goodbye	-8.95457
▁rose	-8.95683
▁feet	-8.95781
head	-8.96132
▁queen	-8.9629
▁date	-8.96515
▁hall	-8.96563
▁diamond	-8.96687
▁psych	-8.96687
▁human	-8.96692
ify	-8.96692
▁north	-8.96694
▁force	-8.97191
▁quit	-8.9786
▁block	-8.97942
▁bird	-8.97954
▁cross	-8.97956
▁bang	-8.97956
▁born	-8.97967
▁horn	-8.98028
▁miles	-8.98054
▁busy	-8.98258
▁month	-8.98448
▁scar	-8.98556
▁fish	-8.9871
▁ski	-8.99065
▁direct	-8.99204
▁judge	-8.99206
▁client	-8.99208
▁honor	-8.99226
▁able	-8.99406
▁spot	-8.99574
▁nine	-8.99891
▁off	-9.00242
▁pig	-9.00248
▁gasps	-9.00485
▁knife	-9.00485
▁ticket	-9.00485
▁tough	-9.00486
▁felt	-9.00506
▁visit	-9.00546
▁mate	-9.01119
▁butt	-9.01176
▁joel	-9.0119
▁accident	-9.01783
▁victim	-9.01783
▁clothes	-9.01783
▁patient	-9.01785
▁teach	-9.02005
▁whoo	-9.0201
▁post	-9.02314
▁fra	-9.02512
▁hero	-9.02551
ature	-9.02962
▁tax	-9.02973
▁history	-9.03099
▁bunch	-9.03108
▁wash	-9.03383
work	-9.03817
▁where	-9.03977
▁announc	-9.04432
▁gunshot	-9.04432
▁london	-9.04433
▁prick	-9.04439
▁beach	-9.04447
▁information	-9.04484
▁price	-9.04511
▁pack	-9.04545
▁dumb	-9.04548
▁bless	-9.04702
▁round	-9.0476
▁suit	-9.05332
▁af	-9.05379
▁nigga	-9.05784
▁terrible	-9.05784
▁reggie	-9.05786
▁commit	-9.05788
▁cunt	-9.05791
▁draw	-9.05795
▁prove	-9.05845
▁message	-9.05941
▁class	-9.05979
nder	-9.06001
▁earth	-9.06011
▁entire	-9.07154
▁shouting	-9.07157
▁connect	-9.07157
▁dangerous	-9.07175
▁kept	-9.07251
▁crack	-9.07462
▁share	-9.0783
▁early	-9.07843
▁gang	-9.085
▁possible	-9.08542
▁mickey	-9.08542
▁forgive	-9.08543
▁worse	-9.08546
▁allow	-9.08547
▁chief	-9.08552
▁trip	-9.08572
▁proud	-9.08576
▁sec	-9.08617
▁suppose	-9.08972
▁letter	-9.08992
▁hill	-9.09036
▁camera	-9.09378
▁birthday	-9.09951
▁belong	-9.09951
▁fault	-9.09951
▁virgin	-9.09951
▁concern	-9.09951
▁forever	-9.09952
▁crowd	-9.09959
▁bomb	-9.09971
▁harley	-9.10009
▁notice	-9.1004
▁you	-9.10192
▁river	-9.10203
▁plane	-9.10336
▁load	-9.10421
▁django	-9.11379
▁weird	-9.11385
▁german	-9.11389
▁gerry	-9.11391
▁click	-9.11398
▁squa	-9.1154
▁field	-9.11703
▁waste	-9.11959
▁involv	-9.12829
▁vegas	-9.12829
▁organ	-9.12829
▁witness	-9.1283
▁imagine	-9.12835
▁store	-9.12939
▁base	-9.13309
▁board	-9.13772
▁ice	-9.13856
board	-9.13952
▁absolutely	-9.14299
▁apartment	-9.14299
▁worried	-9.14299
▁accept	-9.14299
▁soldier	-9.14299
▁alex	-9.14305
▁emily	-9.14322
▁jump	-9.14324
▁usual	-9.1433
▁shake	-9.14653
▁richie	-9.1485
▁fear	-9.15302
▁fill	-9.15553
▁patrizia	-9.15792
▁finally	-9.15792
▁gucci	-9.15792
▁general	-9.15794
▁van	-9.15794
▁werent	-9.15801
▁uncle	-9.15801
▁louis	-9.15813
▁smile	-9.15846
▁file	-9.15854
▁realize	-9.16679
▁security	-9.17307
▁president	-9.17307
▁confess	-9.17307
▁animal	-9.17309
▁rather	-9.17323
▁wonderful	-9.1737
▁tea	-9.17478
▁nose	-9.18181
▁bought	-9.18845
▁evidence	-9.18845
▁mmhmm	-9.18845
▁amazing	-9.18845
▁custom	-9.18845
▁parents	-9.18846
▁deliver	-9.18847
▁invest	-9.18853
▁cousin	-9.18855
▁ooh	-9.18874
▁drunk	-9.19003
▁buzz	-9.19059
▁johnny	-9.19079
▁unless	-9.19103
▁america	-9.19503
▁action	-9.19593
▁rent	-9.20248
▁caught	-9.20408
▁tyler	-9.20409
▁island	-9.20415
ified	-9.20423
▁howd	-9.20437
▁robber	-9.2049
▁totally	-9.20634
▁gift	-9.20705
▁clem	-9.20928
▁lying	-9.21148
▁fort	-9.21355
▁doubt	-9.21995
▁future	-9.21996
▁search	-9.21999
▁narrat	-9.22003
▁bother	-9.22004
▁pray	-9.22033
▁gangster	-9.22056
▁jackson	-9.22172
▁cigarette	-9.23608
▁especially	-9.23608
▁folks	-9.23608
▁government	-9.23608
▁suspect	-9.23608
▁summer	-9.23608
▁address	-9.23612
▁yard	-9.23655
▁area	-9.23656
▁neck	-9.24224
▁account	-9.25247
▁difference	-9.25247
▁disappear	-9.25247
▁innocent	-9.25247
▁public	-9.25247
▁sweetheart	-9.25247
▁system	-9.25247
▁niki	-9.25248
▁choose	-9.25248
▁soul	-9.25271
▁reach	-9.25278
▁voc	-9.25285
▁softly	-9.25549
▁tight	-9.25736
▁mention	-9.258
▁yall	-9.25876
▁approach	-9.26914
▁francis	-9.26914
▁heaven	-9.26914
▁brody	-9.26915
▁pocket	-9.26916
▁double	-9.26916
▁others	-9.26916
▁dirty	-9.26917
▁whatd	-9.26922
▁east	-9.27007
▁andy	-9.27008
▁chop	-9.27606
▁instead	-9.28609
▁position	-9.28609
▁throat	-9.28612
▁plus	-9.28618
▁scene	-9.28626
▁single	-9.28692
▁west	-9.28793
house	-9.29764
▁taste	-9.29961
▁middle	-9.30333
▁major	-9.30335
▁lauda	-9.30337
▁paolo	-9.30338
▁egg	-9.30348
▁forward	-9.30396
▁phil	-9.30678
▁anna	-9.30894
▁tree	-9.30919
hood	-9.3109
▁criminal	-9.32088
▁girlfriend	-9.32088
▁condition	-9.32088
▁sobbing	-9.32088
▁wheel	-9.32093
▁match	-9.32115
▁martin	-9.32318
▁extra	-9.32327
▁singing	-9.32408
▁pete	-9.32829
▁afternoon	-9.33873
▁definitely	-9.33873
▁sheriff	-9.33873
▁normal	-9.33873
▁simple	-9.33873
▁wedding	-9.33875
▁contact	-9.33875
▁squeal	-9.33875
▁pussy	-9.33881
▁christmas	-9.33884
▁fbi	-9.33911
▁chuckling	-9.33923
▁stopped	-9.33971
▁wound	-9.33978
▁ai	-9.3434
q	-9.35214
▁lieutenant	-9.35691
▁noodles	-9.35691
▁sergeant	-9.35692
▁justice	-9.35692
▁keller	-9.35692
▁comfort	-9.35693
▁honour	-9.35694
▁screw	-9.35694
▁stock	-9.35711
▁attention	-9.37543
▁breakfast	-9.37543
▁neither	-9.37543
▁vehicle	-9.37543
▁victor	-9.37543
▁obvious	-9.37544
▁discuss	-9.37544
▁chicken	-9.37545
▁deserve	-9.37545
▁lunch	-9.37549
▁depend	-9.3755
duct	-9.37639
▁continue	-9.38354
▁destroy	-9.3943
▁gustave	-9.3943
▁morpheus	-9.3943
▁suggest	-9.3943
▁george	-9.3943
▁ronnie	-9.3943
▁command	-9.39437
▁spoke	-9.39438
▁stuck	-9.39442
▁mommy	-9.39449
▁sweat	-9.3945
▁self	-9.39454
▁rub	-9.39474
▁noise	-9.39643
▁ginger	-9.39643
▁chris	-9.40215
▁soft	-9.41038
▁background	-9.41353
▁college	-9.41353
▁department	-9.41353
▁whether	-9.41353
▁spirit	-9.41356
▁freedom	-9.41357
▁neighborhood	-9.41358
▁marshal	-9.41358
▁france	-9.41361
▁whore	-9.41401
▁debt	-9.41421
▁dying	-9.41442
▁weak	-9.4165
down	-9.42746
▁everywhere	-9.43314
▁kitchen	-9.43314
▁lebowski	-9.43314
▁stephanie	-9.43314
▁yesterday	-9.43314
▁gasping	-9.43314
▁distance	-9.43318
▁prepare	-9.4332
▁idiot	-9.43322
▁trick	-9.43332
▁dump	-9.43334
▁bridge	-9.43368
▁risk	-9.43401
▁corps	-9.43523
▁teii	-9.43597
▁cocksucker	-9.45314
▁creasy	-9.45314
▁shoulder	-9.45314
▁twenty	-9.45314
▁perhaps	-9.45314
▁uhhuh	-9.45314
▁decision	-9.45314
▁correct	-9.45315
▁church	-9.45315
▁appear	-9.45315
▁detail	-9.45318
▁threat	-9.45328
▁milk	-9.45332
▁blame	-9.45447
▁corner	-9.45453
▁slave	-9.45465
▁taik	-9.4549
▁guest	-9.45509
▁nothin	-9.47031
▁program	-9.47355
▁shouldve	-9.47355
▁vietnam	-9.47355
▁conversation	-9.47355
▁heavy	-9.47355
▁investigation	-9.47355
▁license	-9.47355
▁became	-9.47355
▁empty	-9.47359
▁split	-9.47377
▁loose	-9.47386
▁blind	-9.4739
▁jerk	-9.47394
▁sky	-9.47407
▁loud	-9.47447
▁bottle	-9.47521
ency	-9.47637
ept	-9.47655
gged	-9.48164
gging	-9.48473
▁screech	-9.49438
▁beginning	-9.49438
▁champion	-9.49438
▁motherfucking	-9.4944
▁remind	-9.4944
▁whistle	-9.49441
▁season	-9.49441
▁remain	-9.49446
▁third	-9.4945
▁favorite	-9.49488
▁color	-9.49489
▁winning	-9.49492
▁aye	-9.49542
▁gene	-9.49864
▁freeze	-9.49985
▁chuck	-9.51494
▁apologize	-9.51566
▁cowboy	-9.51566
▁keaton	-9.51566
▁afford	-9.51566
▁teddy	-9.51567
▁wrote	-9.51567
▁worst	-9.51573
▁film	-9.51595
▁property	-9.51635
▁pants	-9.51669
▁trace	-9.51681
▁slip	-9.52292
▁danger	-9.53709
▁proper	-9.5373
▁friday	-9.5374
▁operation	-9.5374
▁calvin	-9.5374
▁photo	-9.53742
▁aqui	-9.53743
▁darling	-9.53744
▁strike	-9.53746
▁miami	-9.5375
▁ruin	-9.53768
▁football	-9.53768
▁space	-9.53769
▁held	-9.53798
▁score	-9.53877
▁impossible	-9.55962
▁introduce	-9.55962
▁tongue	-9.55962
▁scoffs	-9.55962
▁memory	-9.55962
▁release	-9.55963
▁receive	-9.55967
▁zero	-9.55969
▁cream	-9.5598
▁snow	-9.55982
▁nuts	-9.56007
▁operator	-9.58235
▁russian	-9.58235
▁exhales	-9.58235
▁senator	-9.58235
▁natural	-9.58235
▁excited	-9.58235
▁travel	-9.58235
▁sniff	-9.58236
▁awful	-9.58236
▁support	-9.58237
▁complain	-9.58237
▁health	-9.58237
▁carrie	-9.58238
▁within	-9.58239
▁computer	-9.5824
▁teeth	-9.58242
▁yells	-9.58256
▁steve	-9.58274
▁retire	-9.58276
▁hasnt	-9.58277
▁mountain	-9.6056
▁clementine	-9.6056
▁official	-9.6056
▁guilty	-9.60561
▁member	-9.60562
▁kenny	-9.60563
▁enemy	-9.60563
▁faith	-9.60571
▁local	-9.60574
▁jean	-9.60577
▁upset	-9.60581
▁warden	-9.60595
▁provide	-9.60596
▁robert	-9.60649
▁strip	-9.62481
▁contract	-9.62941
▁experience	-9.62941
▁muffled	-9.62941
▁schultz	-9.62941
▁insurance	-9.62941
▁pretend	-9.62945
▁bodies	-9.62951
▁conlon	-9.62972
▁papa	-9.63142
▁matt	-9.64929
▁total	-9.65058
▁character	-9.6538
▁embarrass	-9.6538
▁ought	-9.6538
▁whoever	-9.6538
▁project	-9.6538
▁freak	-9.65384
▁sarah	-9.65385
▁jerry	-9.65387
▁wailing	-9.6539
▁scott	-9.65392
▁built	-9.65397
▁prefer	-9.65403
▁sharp	-9.65416
▁baker	-9.65418
▁tool	-9.65426
▁guarantee	-9.6788
▁however	-9.6788
▁mercedes	-9.6788
▁nervous	-9.6788
▁terrorist	-9.6788
▁escape	-9.6788
▁william	-9.67881
▁allison	-9.67881
▁thatll	-9.67885
▁castle	-9.67886
▁hadnt	-9.67891
▁large	-9.67984
ville	-9.68147
▁build	-9.69279
▁ambulance	-9.70444
▁audience	-9.70444
▁otherwise	-9.70444
▁rothstein	-9.70444
▁yknow	-9.70444
▁civil	-9.70444
▁platt	-9.70445
▁collect	-9.70446
▁stephen	-9.70448
▁rush	-9.70449
▁garden	-9.7045
▁hoffa	-9.7045
▁suffer	-9.70451
▁group	-9.70452
▁threw	-9.70453
▁bruce	-9.70453
▁priest	-9.70454
▁devil	-9.7046
▁cheese	-9.7048
▁nowhere	-9.73076
▁traffic	-9.73076
▁beauty	-9.73076
▁hammer	-9.73076
▁issue	-9.73077
▁leonard	-9.73077
▁request	-9.73079
▁fresh	-9.73081
▁loki	-9.73089
▁plate	-9.73103
▁attorney	-9.75779
▁bottom	-9.75779
▁colonel	-9.75779
▁mexican	-9.75779
▁relationship	-9.75779
▁television	-9.75779
▁often	-9.75781
▁insane	-9.75781
▁norman	-9.75785
▁javi	-9.75787
▁monroe	-9.75788
▁clock	-9.75794
▁shame	-9.75804
▁mental	-9.75846
▁coughing	-9.78556
▁difficult	-9.78556
▁responsible	-9.78556
▁upstairs	-9.78556
▁roulet	-9.78557
▁target	-9.78557
▁focus	-9.78557
▁arthur	-9.78559
▁pardon	-9.78559
▁switch	-9.7856
▁defend	-9.78561
▁regret	-9.78566
▁type	-9.78576
▁derek	-9.78577
▁storm	-9.78585
▁stink	-9.78737
▁sometime	-9.79396
▁spec	-9.79406
field	-9.80775
▁inform	-9.81304
▁boyfriend	-9.81413
▁gorgeous	-9.81413
▁mexico	-9.81413
▁recognize	-9.81413
▁taught	-9.81413
▁convince	-9.81414
▁costello	-9.81414
▁europe	-9.81414
▁quarter	-9.81416
▁hutch	-9.81416
▁silence	-9.81418
▁register	-9.81419
▁poison	-9.81421
▁admit	-9.81421
▁video	-9.81422
▁punch	-9.81424
▁invite	-9.81426
▁alarm	-9.81428
▁ugly	-9.81439
▁view	-9.8144
ability	-9.81443
▁anthony	-9.84355
▁bathroom	-9.84355
▁downtown	-9.84355
▁dramatic	-9.84355
▁employ	-9.84355
▁filthy	-9.84355
▁murray	-9.84355
▁sunday	-9.84356
▁angry	-9.84358
▁ghost	-9.84358
▁stories	-9.84362
▁repeat	-9.84366
▁shirt	-9.8437
▁memori	-9.84376
▁butch	-9.8438
▁chose	-9.8441
▁magic	-9.84434
▁arrange	-9.87385
▁cassandra	-9.87385
▁easier	-9.87385
▁helicopter	-9.87385
▁horrible	-9.87385
▁language	-9.87385
▁object	-9.87385
▁thursday	-9.87385
▁whispers	-9.87385
▁plenty	-9.87385
▁writing	-9.87387
▁dixon	-9.87387
▁rough	-9.87388
▁eddie	-9.87389
▁famous	-9.87389
▁prince	-9.8739
▁yelling	-9.87393
▁sionis	-9.87395
▁brown	-9.87398
▁cancer	-9.87412
▁attempt	-9.9051
▁california	-9.9051
▁congratulations	-9.9051
▁divorce	-9.9051
▁instruct	-9.9051
▁newspaper	-9.9051
▁restaurant	-9.9051
▁andrew	-9.9051
▁specific	-9.9051
▁unfortunate	-9.9051
▁asleep	-9.9051
▁muscle	-9.9051
▁pistol	-9.9051
▁favour	-9.90511
▁twice	-9.90511
▁clarice	-9.90511
▁jeez	-9.90511
▁spread	-9.90513
▁design	-9.90513
▁earlier	-9.90514
▁trinity	-9.90515
▁thunder	-9.90517
▁rifle	-9.90517
▁wolf	-9.90518
▁spider	-9.9053
▁motel	-9.90532
▁ridiculous	-9.93736
▁saburo	-9.93736
▁strength	-9.93736
▁whirring	-9.93736
▁advice	-9.93736
▁fancy	-9.93736
▁cease	-9.93737
▁spanish	-9.93738
▁access	-9.93738
▁monday	-9.93739
▁knees	-9.93744
▁shape	-9.93859
ridge	-9.93884
▁explosiveskull	-9.97069
▁hollywood	-9.97069
▁inspector	-9.97069
▁instrumenta	-9.97069
▁necessary	-9.97069
▁aware	-9.97069
▁raymond	-9.97069
▁yearold	-9.97069
▁donnie	-9.9707
▁regular	-9.9707
▁require	-9.9707
▁yellow	-9.9707
▁border	-9.9707
▁jungle	-9.9707
▁fortune	-9.9707
▁study	-9.9707
▁cackling	-9.97071
▁percent	-9.97072
▁bread	-9.97081
▁severa	-9.97245
▁crawford	-10.0052
▁disappoint	-10.0052
▁elevator	-10.0052
▁expensive	-10.0052
▁faggot	-10.0052
▁japanese	-10.0052
▁marsellus	-10.0052
▁russell	-10.0052
▁success	-10.0052
▁rabbit	-10.0052
▁texas	-10.0052
▁perform	-10.0052
▁federal	-10.0052
▁piease	-10.0052
▁refuse	-10.0052
▁cuba	-10.0053
though	-10.0345
▁somethin	-10.0376
▁example	-10.0409
▁montoya	-10.0409
▁telephone	-10.0409
▁twelve	-10.0409
▁understood	-10.0409
▁commission	-10.0409
▁insult	-10.0409
▁positive	-10.0409
▁steady	-10.0409
▁trigger	-10.0409
▁stairs	-10.0409
▁social	-10.0409
▁neighbor	-10.0778
▁according	-10.0779
▁alcohol	-10.0779
▁florida	-10.0779
▁giuseppe	-10.0779
▁interview	-10.0779
