<unk>	0
<s>	0
</s>	0
s	-4.02499
▁im	-4.30905
▁dont	-4.39003
▁know	-4.42814
▁get	-4.62156
▁yeah	-4.63654
▁right	-4.71267
▁go	-4.78295
▁like	-4.79711
▁got	-4.80101
▁oh	-4.86063
▁youre	-4.8711
▁come	-4.89385
▁okay	-4.97363
▁na	-5.03559
▁thats	-5.0788
▁well	-5.16082
▁want	-5.1844
▁think	-5.26752
▁one	-5.27732
▁gon	-5.28733
▁hey	-5.30261
▁good	-5.35863
▁man	-5.38478
▁see	-5.41319
▁going	-5.47632
▁look	-5.49899
▁back	-5.5395
▁fuck	-5.53975
ing	-5.59905
▁take	-5.61174
▁shit	-5.66435
▁fucking	-5.66626
▁hes	-5.67675
▁ill	-5.67914
▁time	-5.72663
▁l	-5.73093
▁really	-5.74665
▁yes	-5.75286
▁us	-5.75418
▁cant	-5.76216
▁tell	-5.78593
▁say	-5.7954
ed	-5.80404
▁whats	-5.84949
▁something	-5.87184
▁didnt	-5.89231
▁need	-5.8933
▁sorry	-5.91237
▁lets	-5.91385
▁please	-5.93695
▁would	-5.94295
▁mean	-5.9441
▁god	-5.96218
▁way	-6.00807
▁love	-6.02768
▁thank	-6.03592
▁little	-6.0372
▁make	-6.05542
▁could	-6.069
▁let	-6.07149
▁give	-6.10084
▁	-6.1207
▁never	-6.14517
▁people	-6.17544
▁two	-6.1822
▁theres	-6.19339
▁thing	-6.21367
▁said	-6.24011
▁ive	-6.25444
▁sure	-6.27727
▁shes	-6.2786
d	-6.2848
▁uh	-6.28777
▁guys	-6.3009
▁call	-6.32063
▁much	-6.33594
y	-6.33766
▁wait	-6.36349
▁help	-6.36993
▁talk	-6.38426
▁maybe	-6.3889
▁put	-6.39117
▁theyre	-6.40673
▁hi	-6.41197
▁guy	-6.43292
▁even	-6.44625
▁great	-6.48152
▁home	-6.48533
▁anything	-6.48892
▁stop	-6.49479
▁still	-6.49788
▁hell	-6.50306
▁hello	-6.51385
▁day	-6.53499
▁first	-6.53504
▁night	-6.54312
▁nice	-6.54471
▁work	-6.55917
▁keep	-6.58376
▁car	-6.5878
▁wan	-6.59431
▁ta	-6.59536
▁find	-6.6047
▁big	-6.61694
▁life	-6.62209
▁name	-6.62711
▁nothing	-6.63076
▁thought	-6.63837
▁around	-6.63944
▁better	-6.63946
▁away	-6.66783
▁sir	-6.68575
▁told	-6.69142
▁new	-6.69225
▁money	-6.71375
▁ever	-6.71773
e	-6.71953
▁kind	-6.72891
▁feel	-6.73655
▁baby	-6.73852
▁last	-6.7471
▁hear	-6.74762
▁everything	-6.75016
▁listen	-6.75108
▁believe	-6.77193
▁phone	-6.785
▁talking	-6.78539
▁hold	-6.78845
▁girl	-6.78867
▁move	-6.78885
▁house	-6.79005
▁lot	-6.79313
▁stay	-6.7947
▁huh	-6.81672
▁real	-6.8239
▁coming	-6.82524
▁things	-6.82586
er	-6.82843
▁kill	-6.8383
▁always	-6.84419
▁long	-6.84747
▁years	-6.85499
▁thanks	-6.8557
▁leave	-6.85707
▁bad	-6.85785
▁three	-6.86148
▁doesnt	-6.86149
ly	-6.86516
▁mr	-6.86591
▁woman	-6.87467
▁youve	-6.87688
▁id	-6.89068
▁place	-6.89104
▁happened	-6.90518
▁fine	-6.91761
▁door	-6.92558
▁wont	-6.92683
▁remember	-6.93066
▁boy	-6.93554
▁getting	-6.97788
▁every	-6.98158
▁understand	-6.99789
▁made	-7.00705
▁care	-7.01125
▁wanted	-7.01539
▁old	-7.01841
▁ass	-7.02088
▁must	-7.03509
▁aint	-7.04011
▁open	-7.06349
▁try	-7.0676
▁wrong	-7.06921
▁trying	-7.07564
▁else	-7.0762
▁youll	-7.0773
▁ok	-7.07998
▁um	-7.08311
▁bitch	-7.09057
▁done	-7.09374
▁show	-7.09487
▁friend	-7.09709
▁guess	-7.11476
▁might	-7.12157
▁ask	-7.12547
▁dad	-7.13292
▁enough	-7.13296
▁meet	-7.13787
▁tonight	-7.14157
▁looking	-7.14923
▁dude	-7.15017
▁shut	-7.15298
▁room	-7.15613
▁someone	-7.15906
▁son	-7.15919
▁lm	-7.16031
▁left	-7.169
▁world	-7.17108
▁pretty	-7.17383
▁mom	-7.17411
▁saying	-7.17958
▁excuse	-7.18584
▁play	-7.1929
▁cause	-7.19909
▁jesus	-7.20102
▁isnt	-7.20102
▁actually	-7.20107
▁whole	-7.20718
▁today	-7.21026
▁dead	-7.21527
▁job	-7.22368
▁watch	-7.2312
▁another	-7.23846
▁wasnt	-7.23846
▁music	-7.24544
a	-7.24923
▁next	-7.25449
▁black	-7.25759
▁damn	-7.26766
▁course	-7.27081
▁mother	-7.27286
▁best	-7.2773
▁mind	-7.27783
▁seen	-7.30502
▁fuckin	-7.31098
▁ready	-7.31561
▁start	-7.32496
▁run	-7.32797
▁saw	-7.32827
▁kids	-7.33114
▁check	-7.335
▁came	-7.33828
▁bit	-7.34237
▁whos	-7.3457
▁crazy	-7.34577
▁second	-7.34583
▁wouldnt	-7.3461
▁head	-7.35014
▁heard	-7.35275
▁went	-7.35289
in	-7.35553
▁hard	-7.35754
n	-7.35913
▁five	-7.36013
▁hit	-7.36139
▁turn	-7.36262
▁face	-7.36422
▁together	-7.36725
▁kid	-7.37156
▁honey	-7.38183
▁police	-7.38529
▁die	-7.38705
▁friends	-7.39051
▁called	-7.39432
▁may	-7.40265
▁found	-7.40397
▁everybody	-7.40516
▁matter	-7.40528
▁hand	-7.41289
▁stuff	-7.41349
r	-7.41768
▁wife	-7.42441
o	-7.42782
▁school	-7.43078
▁probably	-7.43455
▁alone	-7.43457
▁minute	-7.43644
▁knew	-7.44232
▁bring	-7.44446
▁many	-7.45223
▁father	-7.45351
▁weve	-7.45409
▁jake	-7.45804
▁men	-7.4597
t	-7.46219
▁live	-7.46326
▁cool	-7.46574
▁morning	-7.46604
▁used	-7.46838
▁whatever	-7.47401
▁minutes	-7.47615
▁problem	-7.48068
▁ha	-7.48102
▁happy	-7.48617
▁somebody	-7.48891
▁end	-7.49081
▁days	-7.49082
▁young	-7.49323
▁forget	-7.49836
▁white	-7.4985
▁anyway	-7.5013
▁hot	-7.50262
▁easy	-7.50676
▁four	-7.51927
▁tomorrow	-7.51928
▁hope	-7.52029
▁took	-7.5235
al	-7.52593
▁goddamn	-7.52774
▁family	-7.52774
▁supposed	-7.52809
▁drink	-7.53124
▁beautiful	-7.54056
▁killed	-7.54232
▁frank	-7.54352
▁eat	-7.54496
▁havent	-7.5492
▁ago	-7.54923
▁playing	-7.55017
▁use	-7.56199
▁ah	-7.5626
▁says	-7.56341
▁youd	-7.57124
▁number	-7.57124
▁brother	-7.57126
▁hurt	-7.57186
▁la	-7.5791
▁water	-7.58018
▁gun	-7.58053
▁yet	-7.58455
▁wheres	-7.58804
▁already	-7.59355
▁wow	-7.59812
▁sit	-7.59937
▁sex	-7.60095
▁later	-7.60329
▁gone	-7.60749
▁close	-7.62487
▁inside	-7.62583
▁line	-7.62652
▁idea	-7.62765
▁em	-7.62896
▁cut	-7.62911
▁miss	-7.63361
▁looks	-7.63622
▁nobody	-7.63646
▁point	-7.63868
▁pay	-7.64642
▁high	-7.65212
▁whoa	-7.65447
▁business	-7.65894
▁everyone	-7.66095
▁movie	-7.67087
▁without	-7.67871
▁children	-7.67874
▁true	-7.67876
▁couldnt	-7.67911
▁deal	-7.6838
▁bye	-7.68414
▁person	-7.68796
▁fire	-7.68867
▁shot	-7.69088
▁wants	-7.69131
▁happen	-7.69326
▁read	-7.69327
es	-7.70056
▁hands	-7.70188
▁working	-7.70525
▁though	-7.70818
▁story	-7.71389
▁dick	-7.71511
▁eyes	-7.72658
▁fun	-7.72924
▁six	-7.72931
▁taking	-7.72954
▁safe	-7.74325
▁word	-7.74326
▁walk	-7.74703
▁christ	-7.74872
▁anyone	-7.75035
▁asshole	-7.75397
▁late	-7.76009
▁girls	-7.76451
▁anybody	-7.76639
▁worry	-7.76639
▁un	-7.76988
▁met	-7.76994
▁set	-7.77079
▁screaming	-7.77231
▁jack	-7.77402
▁power	-7.77567
▁lost	-7.77737
▁far	-7.77867
▁sleep	-7.78252
▁outside	-7.7882
▁making	-7.79377
▁yo	-7.79797
▁since	-7.79929
▁fight	-7.80333
▁women	-7.80487
▁laughing	-7.80611
▁stand	-7.81073
▁thinking	-7.8125
▁part	-7.81337
▁daddy	-7.81526
▁couple	-7.81613
▁sonny	-7.81618
▁shoot	-7.81963
▁town	-7.8219
▁paul	-7.82658
▁funny	-7.83909
i	-7.83997
▁makes	-7.84451
▁year	-7.84485
▁pick	-7.84967
▁telling	-7.85059
▁motherfucker	-7.85664
▁mine	-7.85693
▁exactly	-7.8626
▁hours	-7.86355
▁hang	-7.87015
▁wish	-7.87394
▁soon	-7.88549
▁sam	-7.88557
▁john	-7.88642
▁lts	-7.88929
▁gave	-7.89271
▁street	-7.89332
▁sometimes	-7.90147
▁party	-7.9027
▁goes	-7.90343
▁drive	-7.90398
▁body	-7.90403
c	-7.90425
▁break	-7.91088
▁half	-7.91128
▁game	-7.91214
▁hate	-7.9134
▁also	-7.9237
▁side	-7.92723
▁mitch	-7.92999
▁death	-7.93006
▁anymore	-7.93639
▁free	-7.93643
▁boys	-7.93941
▁sweet	-7.94243
▁alive	-7.94297
▁trust	-7.94615
▁special	-7.94639
▁bed	-7.94778
▁times	-7.94829
▁hows	-7.94966
▁charlie	-7.95082
▁change	-7.9556
▁food	-7.9558
▁week	-7.95767
▁kidding	-7.9623
▁welcome	-7.9623
▁blood	-7.97374
▁question	-7.9738
▁york	-7.97432
▁started	-7.97464
▁dog	-7.97857
▁different	-7.98101
▁arent	-7.98216
▁rest	-7.98493
▁case	-7.98913
▁heart	-7.99312
▁sick	-7.99551
▁bro	-8.00321
▁city	-8.00474
▁weird	-8.00864
▁straight	-8.0091
▁air	-8.00943
▁husband	-8.01206
▁sounds	-8.01282
▁ahead	-8.0162
▁sighs	-8.01752
▁bobby	-8.02314
▁scared	-8.02364
▁months	-8.0242
▁sound	-8.02653
▁mike	-8.02833
p	-8.02896
ic	-8.03345
▁serious	-8.03611
▁almost	-8.03715
▁trouble	-8.03715
▁front	-8.03724
▁important	-8.0432
▁bullshit	-8.04415
▁married	-8.0443
▁aah	-8.04431
▁speak	-8.05013
▁child	-8.05134
on	-8.05802
▁hmm	-8.0659
▁dave	-8.06594
▁laughs	-8.06624
▁touch	-8.07302
▁dinner	-8.07308
▁tv	-8.07333
h	-8.07578
▁truth	-8.08048
▁behind	-8.08049
▁grunts	-8.08174
▁afraid	-8.08788
▁heres	-8.08885
▁clear	-8.0946
▁wake	-8.09536
▁bet	-8.09684
▁buy	-8.09915
▁th	-8.09955
▁ten	-8.10297
▁answer	-8.10446
▁perfect	-8.11026
▁fucked	-8.11156
▁hurry	-8.11807
▁dr	-8.11891
▁chuckles	-8.12013
▁chance	-8.12307
▁voice	-8.12326
▁stupid	-8.12577
▁hair	-8.12583
m	-8.12596
▁feeling	-8.13046
▁full	-8.13165
or	-8.13647
▁clean	-8.13843
▁moving	-8.14138
▁tried	-8.14159
▁war	-8.14281
▁cold	-8.14817
▁daniel	-8.1492
▁moment	-8.15477
▁reason	-8.15506
▁sister	-8.15522
▁grunting	-8.15743
▁light	-8.1585
▁happens	-8.16303
▁k	-8.16354
▁dance	-8.16448
▁red	-8.16764
▁happening	-8.1711
▁hour	-8.17195
▁dream	-8.17282
▁country	-8.17327
▁least	-8.17336
▁radio	-8.17419
▁promise	-8.17753
▁c	-8.18042
▁means	-8.18125
▁either	-8.18134
▁send	-8.18584
▁continues	-8.18907
▁mrs	-8.18962
▁shouldnt	-8.1978
▁parents	-8.20027
▁coffee	-8.20613
▁annie	-8.20616
▁lady	-8.20655
▁lucky	-8.20759
▁sal	-8.21347
▁lie	-8.21453
▁ladies	-8.21457
▁asked	-8.21505
▁save	-8.22119
▁officer	-8.2228
▁brought	-8.22302
▁lives	-8.22657
▁order	-8.22671
▁seems	-8.22852
▁cop	-8.22891
▁fact	-8.23
▁top	-8.23178
▁running	-8.24029
▁pull	-8.24037
▁meeting	-8.2427
▁piece	-8.24866
▁along	-8.24891
g	-8.249
▁waiting	-8.25588
▁song	-8.25804
▁ya	-8.25814
▁re	-8.26215
est	-8.2648
▁gay	-8.26662
▁lose	-8.26672
▁ooh	-8.26969
▁news	-8.27131
▁calling	-8.2747
▁taken	-8.27569
▁uncle	-8.28438
▁alright	-8.28443
l	-8.28789
▁plan	-8.29011
▁buddy	-8.29354
▁shh	-8.29385
▁book	-8.2964
▁s	-8.29841
▁lord	-8.30271
▁totally	-8.30309
▁ringing	-8.30451
▁mouth	-8.30825
▁glad	-8.31196
▁ride	-8.31253
▁doctor	-8.31264
▁team	-8.31269
f	-8.31599
▁joe	-8.31976
▁relax	-8.3213
▁theyll	-8.3213
▁weeks	-8.32786
▁mmm	-8.33066
▁somewhere	-8.33074
▁itll	-8.33074
▁drop	-8.33082
▁watching	-8.33243
▁mmhmm	-8.34031
▁peter	-8.34112
▁stu	-8.34122
▁catch	-8.34597
▁sense	-8.35075
b	-8.35393
▁america	-8.35691
▁dark	-8.35952
▁picture	-8.36215
▁sign	-8.36315
▁screams	-8.36374
▁f	-8.36707
▁cops	-8.36996
▁road	-8.37081
▁calm	-8.37818
▁sent	-8.37941
▁yall	-8.37942
▁follow	-8.3822
▁quiet	-8.38824
▁million	-8.39138
▁daughter	-8.39158
▁wind	-8.39264
▁e	-8.39448
▁american	-8.39451
ies	-8.39474
▁gets	-8.3963
▁bar	-8.40133
ion	-8.40147
▁seeing	-8.40184
▁ron	-8.40279
▁comes	-8.40329
▁step	-8.40541
▁control	-8.40949
▁george	-8.40959
▁middle	-8.40959
▁seven	-8.41135
▁sort	-8.41194
▁worked	-8.41854
▁luck	-8.4186
▁company	-8.4199
▁wall	-8.42069
▁b	-8.42798
ie	-8.42842
▁fat	-8.42892
▁office	-8.42974
▁figure	-8.43105
▁date	-8.43249
▁ho	-8.43363
▁kick	-8.43396
▁ice	-8.43937
▁super	-8.4404
▁seriously	-8.4424
k	-8.4455
▁security	-8.45148
▁favorite	-8.4515
▁class	-8.45152
▁kiss	-8.45445
▁g	-8.45745
▁throw	-8.45784
▁seem	-8.45845
u	-8.46155
▁ray	-8.46269
▁asking	-8.46558
us	-8.46579
▁learn	-8.466
▁longer	-8.46769
▁finally	-8.47363
▁crying	-8.47521
▁floor	-8.47621
▁pain	-8.47742
▁balls	-8.47746
▁human	-8.48733
▁wonder	-8.48734
▁nigga	-8.48847
▁fast	-8.49415
▁box	-8.49497
▁mommy	-8.49528
▁paid	-8.49544
▁groans	-8.49571
▁lan	-8.4987
▁wear	-8.50215
▁careful	-8.50587
▁beat	-8.50667
▁lll	-8.50819
▁blue	-8.51051
▁cute	-8.51175
▁died	-8.51309
▁quick	-8.5156
▁deep	-8.51581
▁past	-8.51668
▁rock	-8.51759
▁loved	-8.51762
▁living	-8.51784
▁cover	-8.52234
ve	-8.52344
▁record	-8.5276
▁beach	-8.52878
▁become	-8.5293
▁blow	-8.53011
▁quite	-8.53038
▁hotel	-8.5341
able	-8.53607
▁slow	-8.53988
▁amazing	-8.54093
▁leaving	-8.54093
▁sitting	-8.54118
▁murder	-8.54212
▁ow	-8.54241
▁carl	-8.54714
▁seat	-8.54756
▁outta	-8.55271
▁chattering	-8.55413
▁fall	-8.55458
▁bag	-8.55733
▁smart	-8.56311
▁brothers	-8.56421
▁alice	-8.56461
▁absolutely	-8.56464
▁none	-8.56515
▁boat	-8.5706
▁eye	-8.57133
▁de	-8.57496
▁needs	-8.57581
▁detective	-8.57666
▁english	-8.57667
an	-8.57694
ers	-8.57723
▁dear	-8.57785
▁table	-8.57923
▁cell	-8.58263
▁card	-8.58472
▁fix	-8.58578
▁space	-8.58685
▁captain	-8.58884
▁theyve	-8.58884
▁christmas	-8.58884
▁da	-8.59312
▁looked	-8.59366
▁knock	-8.59449
▁speaking	-8.59522
▁spend	-8.59739
▁cash	-8.60114
▁able	-8.6037
▁message	-8.60794
▁eli	-8.60888
man	-8.61013
▁strange	-8.61301
▁major	-8.61361
▁werent	-8.61369
▁sweetheart	-8.61372
▁grab	-8.61403
▁beer	-8.61456
▁king	-8.61458
▁arm	-8.61623
▁killer	-8.61664
▁ball	-8.61705
▁henry	-8.62061
▁key	-8.62099
▁lt	-8.62244
▁worth	-8.62442
▁shall	-8.6263
▁mm	-8.62632
▁accident	-8.62634
▁awesome	-8.62634
▁maam	-8.62636
▁swear	-8.62643
▁roger	-8.62645
▁boss	-8.62648
▁law	-8.62656
▁completely	-8.6267
▁st	-8.62712
▁in	-8.62889
▁gasps	-8.62906
▁singing	-8.62928
▁agent	-8.63374
▁killing	-8.63585
▁r	-8.63615
▁broke	-8.6386
▁gold	-8.63899
▁court	-8.63918
▁others	-8.63952
▁south	-8.64199
▁less	-8.64319
▁known	-8.64363
▁explain	-8.645
▁felt	-8.65215
▁proud	-8.65215
▁wed	-8.65232
▁christian	-8.65237
▁lovely	-8.65338
▁prison	-8.65876
▁quit	-8.66417
▁small	-8.66419
▁strong	-8.66421
le	-8.66504
▁except	-8.66506
▁possible	-8.66531
▁kept	-8.66532
▁jerry	-8.66534
▁born	-8.66551
▁bloody	-8.66889
▁wearing	-8.66979
▁finish	-8.67148
▁win	-8.67267
up	-8.67311
less	-8.67442
▁rich	-8.67699
▁choice	-8.67864
▁gentlemen	-8.67866
▁star	-8.67996
▁keys	-8.68393
▁sim	-8.68634
▁mistake	-8.6864
▁stick	-8.69126
▁eight	-8.69211
▁fault	-8.69217
▁tara	-8.6936
▁hed	-8.69398
▁bus	-8.69671
▁attack	-8.69871
▁smell	-8.7017
▁across	-8.70586
▁forgot	-8.70586
▁lying	-8.70603
ass	-8.7076
ist	-8.71065
▁bill	-8.71377
▁needed	-8.71471
▁secret	-8.71507
en	-8.71553
▁appreciate	-8.71773
▁giving	-8.71975
▁clothes	-8.71977
▁names	-8.7223
▁meant	-8.72901
▁dre	-8.72937
▁truck	-8.72956
▁breathe	-8.73095
▁t	-8.7335
▁tight	-8.73366
▁alarm	-8.73384
▁college	-8.73385
▁till	-8.73389
▁knocking	-8.73812
▁knows	-8.74276
▁club	-8.74394
▁ground	-8.74501
▁fair	-8.74513
▁mad	-8.74545
▁share	-8.7462
▁ones	-8.74644
▁doc	-8.74767
▁hungry	-8.74817
▁single	-8.74859
▁n	-8.75103
ce	-8.75264
▁sell	-8.75478
▁enjoy	-8.75535
▁partner	-8.75917
▁scene	-8.76261
▁birthday	-8.76261
▁sergeant	-8.76261
▁lock	-8.76833
el	-8.76934
▁victor	-8.76968
▁girlfriend	-8.77417
▁smoke	-8.77535
▁handle	-8.77617
▁upstairs	-8.77731
▁goodbye	-8.77732
▁babe	-8.77732
▁forever	-8.77732
▁jail	-8.77733
▁june	-8.77738
▁takes	-8.78375
▁works	-8.7839
▁joke	-8.78906
▁lawyer	-8.78921
▁seconds	-8.79177
lng	-8.79208
▁david	-8.79224
▁language	-8.79224
▁attention	-8.79224
▁situation	-8.79224
▁driving	-8.79225
▁bunch	-8.7923
▁trip	-8.79359
▁finished	-8.79566
▁wouldve	-8.79573
▁suck	-8.79635
▁p	-8.79682
▁act	-8.7969
▁gods	-8.79809
▁i	-8.79941
w	-8.80051
▁bank	-8.80166
▁ex	-8.80275
▁sake	-8.80396
▁month	-8.8051
▁doin	-8.80592
is	-8.80728
▁yesterday	-8.80739
▁definitely	-8.80743
▁crowd	-8.80752
▁groaning	-8.80756
▁stopped	-8.8076
▁breathing	-8.81078
▁burn	-8.81233
▁state	-8.81249
▁push	-8.81582
▁mess	-8.81586
▁er	-8.81598
▁evening	-8.81637
▁video	-8.81936
▁hundred	-8.8203
▁horse	-8.82037
▁respect	-8.82251
▁drunk	-8.82281
▁feet	-8.82285
▁mookie	-8.82294
▁gasping	-8.82347
▁ship	-8.82699
▁words	-8.82812
▁fish	-8.83164
▁test	-8.83239
▁pizza	-8.83548
▁station	-8.8356
▁system	-8.83611
▁bastard	-8.83622
▁ran	-8.83643
▁brenda	-8.8384
▁uhhuh	-8.8384
▁island	-8.83841
▁pleasure	-8.83842
▁foot	-8.83852
▁pussy	-8.83852
▁sandie	-8.83857
▁personal	-8.83896
▁hide	-8.83929
▁whoo	-8.83965
▁wonderful	-8.83965
st	-8.84043
▁busy	-8.84044
▁goin	-8.84329
▁join	-8.84662
▁questions	-8.84882
▁standing	-8.84888
▁short	-8.85007
▁pal	-8.85127
▁computer	-8.85182
▁lay	-8.85202
▁band	-8.85244
▁visit	-8.85393
▁green	-8.8542
▁jimmy	-8.85428
▁dying	-8.85429
▁panting	-8.85429
▁bought	-8.8543
▁wedding	-8.85448
▁tired	-8.8546
ch	-8.86019
re	-8.86272
▁a	-8.86337
holy	-8.86548
▁near	-8.86899
▁nine	-8.8691
▁shell	-8.87039
▁caught	-8.8704
▁worried	-8.8704
▁history	-8.8704
▁tough	-8.8704
▁private	-8.87041
▁yep	-8.87044
▁earth	-8.87046
▁sing	-8.87047
▁early	-8.87078
▁talked	-8.87419
▁acting	-8.87444
▁dumb	-8.87515
▁camp	-8.88051
▁honest	-8.88397
▁machine	-8.88402
▁conversation	-8.88442
▁witch	-8.88634
▁congratulations	-8.8868
▁perhaps	-8.8868
▁bathroom	-8.8868
▁neck	-8.88681
▁unless	-8.88732
▁sean	-8.88746
▁feels	-8.88839
▁laugh	-8.89531
▁d	-8.89562
▁pass	-8.89736
▁suit	-8.8974
▁favor	-8.90106
▁boyfriend	-8.9011
▁weekend	-8.90126
▁breath	-8.90138
▁howd	-8.90175
▁moved	-8.90225
▁general	-8.90234
▁poor	-8.90239
▁fresh	-8.90309
▁simple	-8.90322
▁donnie	-8.90346
▁bob	-8.90353
▁miles	-8.90789
▁count	-8.90791
▁metal	-8.90993
▁movies	-8.91354
▁teach	-8.91542
▁surprise	-8.91641
▁force	-8.91758
▁turned	-8.91767
▁ryan	-8.91841
▁listening	-8.91883
▁realize	-8.91889
▁write	-8.92001
▁anywhere	-8.92041
▁pants	-8.92044
▁riley	-8.92053
▁stuck	-8.92054
▁whatd	-8.92064
▁sweetie	-8.921
▁rings	-8.92169
▁ii	-8.92355
▁locked	-8.92394
ive	-8.92484
▁fit	-8.92518
▁sun	-8.92598
▁problems	-8.92636
▁report	-8.92853
▁block	-8.92979
▁park	-8.92984
▁rules	-8.92988
▁fear	-8.93616
▁window	-8.93729
▁hospital	-8.9375
▁north	-8.93762
▁beyond	-8.93765
▁colonel	-8.93765
▁information	-8.93778
▁starts	-8.93892
▁yelling	-8.93921
▁kate	-8.93952
ity	-8.94413
um	-8.94641
v	-8.94722
▁tape	-8.94739
▁pop	-8.94886
▁walking	-8.94999
▁engine	-8.95255
▁department	-8.95375
▁land	-8.95376
▁lunch	-8.9552
▁worse	-8.9552
▁summer	-8.95524
▁dirty	-8.95578
▁age	-8.95842
▁tires	-8.95857
▁shoes	-8.95891
▁roll	-8.96165
▁jump	-8.96582
ry	-8.96792
▁horn	-8.97037
▁fly	-8.97085
▁apartment	-8.97245
▁glass	-8.9727
▁support	-8.97288
▁instead	-8.97305
▁rather	-8.97305
▁group	-8.97312
▁johnny	-8.97313
▁sad	-8.97348
▁dare	-8.97388
ment	-8.97738
▁calls	-8.98563
ation	-8.9863
▁steal	-8.98703
▁entire	-8.99018
▁heavy	-8.99123
▁hasnt	-8.99124
▁third	-8.99126
▁guard	-8.9914
▁eh	-8.99179
▁paper	-8.99191
▁building	-8.99289
ur	-8.99366
▁folks	-8.99438
▁saved	-8.99533
▁w	-8.99615
▁film	-8.99688
▁train	-8.9976
▁birds	-9.0003
▁return	-9.00259
▁crash	-9.00533
▁al	-9.00598
▁legs	-9.00609
▁nah	-9.00781
▁jones	-9.00822
▁certain	-9.00881
▁continue	-9.00889
▁eric	-9.00931
▁california	-9.00975
▁evidence	-9.00975
▁candy	-9.00976
▁area	-9.00977
▁fbi	-9.00979
▁kane	-9.0098
▁action	-9.01049
▁chad	-9.01072
▁owe	-9.01589
▁ring	-9.02175
▁offer	-9.02217
▁lead	-9.02439
▁missing	-9.02464
▁dress	-9.02544
▁ms	-9.02615
▁upset	-9.02853
▁london	-9.02862
▁lori	-9.02863
▁dangerous	-9.02867
▁cube	-9.02884
▁taste	-9.02909
▁lucas	-9.02914
▁relationship	-9.02962
▁grand	-9.02968
▁named	-9.03086
▁billy	-9.03106
▁army	-9.03131
▁talkin	-9.03737
▁hole	-9.04214
▁cry	-9.04508
▁fell	-9.04709
▁low	-9.04738
▁loretta	-9.04785
▁neighborhood	-9.04786
▁future	-9.04786
▁jeff	-9.04787
▁mama	-9.04789
▁jay	-9.04823
▁shouting	-9.049
▁camera	-9.05002
▁lights	-9.05203
▁lived	-9.0571
▁protect	-9.06018
▁fighting	-9.06089
▁drugs	-9.0625
▁arrest	-9.06438
▁sea	-9.06476
▁imagine	-9.06532
▁fucker	-9.06585
▁loud	-9.06589
▁phillip	-9.06746
▁eddie	-9.06746
▁nowhere	-9.06746
▁darling	-9.06749
▁crap	-9.06752
▁booth	-9.06755
▁code	-9.06765
▁double	-9.06864
▁banging	-9.06954
▁loves	-9.07164
▁mark	-9.07715
▁unit	-9.07981
▁expect	-9.08031
▁wa	-9.08047
▁honor	-9.08216
▁staying	-9.084
▁plane	-9.08428
gest	-9.08478
▁soft	-9.08494
▁bomb	-9.08499
▁normal	-9.08641
▁church	-9.08746
▁wrote	-9.08746
▁florida	-9.08746
▁forward	-9.08746
▁credit	-9.08749
▁howard	-9.0875
▁race	-9.08753
▁knife	-9.08753
▁terrible	-9.08763
▁yaya	-9.08764
▁sandy	-9.0881
▁hall	-9.08819
▁broken	-9.08851
▁lance	-9.08941
▁finger	-9.08992
▁interesting	-9.09069
▁cock	-9.09117
▁picked	-9.09796
▁missed	-9.10052
ness	-9.10073
▁sleeping	-9.10132
▁turns	-9.10559
▁carry	-9.10569
▁smile	-9.10577
▁nick	-9.10635
▁chief	-9.10787
▁shirt	-9.10787
▁sudden	-9.10787
▁russell	-9.10787
▁theyd	-9.10787
▁pregnant	-9.10788
▁spent	-9.10788
▁president	-9.10789
▁throat	-9.10793
▁present	-9.10825
▁board	-9.10835
▁walter	-9.10847
▁honestly	-9.10917
out	-9.11048
▁corner	-9.11051
▁richard	-9.11091
▁mo	-9.11259
te	-9.11381
id	-9.11542
▁given	-9.12094
▁m	-9.1218
▁reading	-9.12335
ful	-9.12405
▁cook	-9.12419
th	-9.12751
▁kinda	-9.12769
▁color	-9.12842
▁adrian	-9.12864
▁built	-9.1287
▁eloise	-9.1287
▁terrance	-9.1287
▁difference	-9.12873
▁spot	-9.12875
▁ought	-9.12911
▁involved	-9.12919
▁huge	-9.12924
▁fan	-9.12957
▁beth	-9.12989
▁extra	-9.13037
▁starting	-9.13042
▁base	-9.13057
▁position	-9.13167
▁bottle	-9.13184
▁mum	-9.13399
▁whose	-9.13605
▁heat	-9.13607
▁dollars	-9.13614
ll	-9.13945
▁doors	-9.14023
▁rain	-9.14626
▁agree	-9.14793
▁waste	-9.14805
▁grow	-9.1483
▁guns	-9.1488
▁played	-9.1499
▁malorie	-9.14998
▁trevor	-9.14998
▁rachel	-9.14999
▁counselor	-9.15004
▁inhales	-9.15134
▁weapon	-9.15358
▁type	-9.15421
▁changed	-9.15622
▁art	-9.15627
▁closed	-9.15872
▁lve	-9.1595
▁j	-9.162
▁cross	-9.16454
▁text	-9.16826
▁final	-9.16946
▁pre	-9.16986
▁command	-9.16993
▁peace	-9.17161
▁besides	-9.17172
▁government	-9.17172
▁level	-9.17172
▁marriage	-9.17172
▁sarge	-9.17172
▁worst	-9.17172
▁asleep	-9.17172
▁address	-9.17174
▁everywhere	-9.17181
▁bodies	-9.17186
▁lonely	-9.17186
▁wild	-9.17194
▁west	-9.17196
▁excited	-9.17198
▁skin	-9.17211
▁nicole	-9.17236
▁joy	-9.17252
▁tree	-9.17511
▁idiot	-9.17562
▁soul	-9.17564
▁leg	-9.17752
▁dig	-9.17986
▁sexy	-9.18029
▁hanging	-9.18556
▁piss	-9.18657
▁press	-9.19109
▁suppose	-9.19209
ous	-9.19216
▁gives	-9.19224
ng	-9.19377
▁abigail	-9.19394
▁afternoon	-9.19394
▁kitchen	-9.19394
▁aiex	-9.19394
▁zooey	-9.19395
▁thatll	-9.19399
▁within	-9.19403
▁beauty	-9.19403
▁cream	-9.19408
▁famous	-9.19408
▁creaking	-9.19416
▁director	-9.19421
ate	-9.19507
▁rent	-9.19536
▁putting	-9.19539
▁where	-9.19581
▁tits	-9.19582
▁round	-9.19738
▁hol	-9.19768
▁leon	-9.20003
▁bell	-9.20059
▁guest	-9.20176
ter	-9.20513
▁boyd	-9.21216
▁liked	-9.21251
▁holding	-9.21307
▁richards	-9.21339
▁over	-9.21385
▁moms	-9.21433
▁ben	-9.21449
▁nervous	-9.21552
▁nothin	-9.2164
▁desalvo	-9.21667
▁doubt	-9.21667
▁french	-9.21667
▁marcus	-9.21667
▁sobbing	-9.21667
▁lisa	-9.21668
▁crew	-9.21669
▁rush	-9.21669
▁ellie	-9.21669
▁professor	-9.2167
▁choose	-9.21674
▁milk	-9.21675
▁upon	-9.21682
▁manager	-9.21683
▁local	-9.21685
▁bigger	-9.21701
▁jamie	-9.21702
▁usually	-9.21713
▁cup	-9.21772
▁charge	-9.21924
▁meg	-9.21924
▁wine	-9.22083
▁copy	-9.22145
▁service	-9.22177
▁kat	-9.22329
▁bird	-9.22891
▁shower	-9.23022
▁interest	-9.23335
▁drinking	-9.23704
▁allow	-9.23723
▁notice	-9.23802
▁blame	-9.23805
ne	-9.23824
▁tom	-9.23889
▁angry	-9.23992
▁difficult	-9.23992
▁sydney	-9.23992
▁milton	-9.23993
▁operation	-9.23994
▁emergency	-9.23999
▁distance	-9.24
▁river	-9.24001
▁danny	-9.2401
▁james	-9.24026
men	-9.24099
▁moaning	-9.24114
▁list	-9.24132
▁hat	-9.24229
ra	-9.24383
▁mary	-9.24504
▁drug	-9.24558
▁el	-9.2456
▁judge	-9.24862
▁arms	-9.2497
▁v	-9.24973
▁older	-9.25001
▁shooting	-9.25552
▁india	-9.25573
▁plays	-9.25864
▁eating	-9.26046
▁lynn	-9.26249
▁total	-9.2627
▁doug	-9.2632
▁extreme	-9.26373
▁harold	-9.26373
▁heavily	-9.26373
▁lieutenant	-9.26373
▁mostly	-9.26373
▁themistokles	-9.26373
▁whether	-9.26373
▁larry	-9.26373
▁samantha	-9.26375
▁duke	-9.26375
▁cheese	-9.26375
▁exhales	-9.26377
▁janet	-9.2639
▁barry	-9.26404
▁nose	-9.26426
▁laid	-9.26463
▁screeching	-9.26468
▁van	-9.26522
▁stone	-9.26571
▁mayor	-9.26614
▁hunter	-9.26617
▁shed	-9.26624
at	-9.26646
▁sucks	-9.26793
▁dreams	-9.26822
▁couldve	-9.26869
▁learned	-9.2705
▁nuts	-9.2705
▁seemed	-9.27059
▁crime	-9.27162
▁fed	-9.27792
▁reach	-9.28109
▁pack	-9.28115
▁rid	-9.28388
▁note	-9.2845
▁apologize	-9.28588
▁warm	-9.2869
▁hero	-9.28696
▁bottom	-9.28706
▁numbers	-9.28761
▁decision	-9.28812
▁mckenna	-9.28812
▁battle	-9.28813
▁klara	-9.28813
▁hollywood	-9.28813
▁evil	-9.28814
▁gerald	-9.28815
▁theater	-9.28815
▁freedom	-9.28817
▁teeth	-9.28833
▁laser	-9.28863
▁main	-9.28912
▁nora	-9.28939
▁cheering	-9.2894
ized	-9.29193
▁deserve	-9.29275
▁mate	-9.29551
▁east	-9.29663
▁ed	-9.29814
▁speaks	-9.29982
it	-9.30111
▁dogs	-9.30207
▁screw	-9.31005
▁streets	-9.31031
▁spoke	-9.31247
▁footsteps	-9.31312
▁ridiculous	-9.31312
▁weather	-9.31312
▁willie	-9.31312
▁kelly	-9.31312
▁royal	-9.31317
▁flight	-9.31321
▁claire	-9.31321
▁airport	-9.31322
▁vegas	-9.31372
▁obviously	-9.31372
▁orders	-9.31496
ian	-9.31583
▁swing	-9.31604
x	-9.3162
▁gas	-9.31743
▁experience	-9.31759
▁gift	-9.3196
▁thousand	-9.32065
z	-9.32207
▁los	-9.32254
ge	-9.3261
▁lines	-9.3328
▁books	-9.33708
▁toast	-9.33754
▁wise	-9.33805
▁ralph	-9.33876
▁taught	-9.33876
▁television	-9.33876
▁wailing	-9.33877
▁investigation	-9.33878
▁nikki	-9.33879
▁stories	-9.33879
▁chuckling	-9.33881
▁beginning	-9.33882
▁bailey	-9.33884
▁colin	-9.33891
▁tony	-9.33913
▁italian	-9.3393
▁gaz	-9.33969
▁officers	-9.34106
▁interested	-9.34214
▁drinks	-9.34242
▁using	-9.34362
ley	-9.34363
▁higher	-9.34467
▁sa	-9.34501
▁mothers	-9.3479
▁driver	-9.34921
ey	-9.34989
to	-9.3525
▁sexual	-9.35318
▁bless	-9.35823
▁feed	-9.36242
▁pa	-9.3647
▁split	-9.365
▁max	-9.36504
▁hobbes	-9.36508
▁memory	-9.36508
▁suzanne	-9.36508
▁dancing	-9.36508
▁aaron	-9.36509
▁lake	-9.36534
▁self	-9.36535
▁writing	-9.36568
ant	-9.36603
▁turning	-9.36613
▁warning	-9.36672
▁surprised	-9.36804
il	-9.3686
▁paula	-9.36888
▁h	-9.36952
▁figured	-9.37011
▁cheers	-9.37172
▁contact	-9.37241
▁devil	-9.37319
▁field	-9.37391
▁begin	-9.37406
▁shop	-9.38247
▁pictures	-9.387
▁spread	-9.38816
▁survive	-9.39022
▁hurts	-9.39151
▁cindy	-9.39211
▁esther	-9.39211
▁lainey	-9.39211
▁neither	-9.39211
▁plenty	-9.39211
▁wendy	-9.39211
▁hadnt	-9.39211
▁papa	-9.39211
▁lift	-9.39212
▁basically	-9.39213
▁imran	-9.39213
▁castor	-9.39227
▁professional	-9.39285
▁nurse	-9.39303
▁mende	-9.39303
▁decided	-9.3938
▁hm	-9.39413
▁male	-9.39517
▁richie	-9.3954
▁closer	-9.39566
▁pissed	-9.39585
▁bucks	-9.39591
▁dis	-9.39738
▁dry	-9.3987
ting	-9.39992
▁restaurant	-9.40015
▁chair	-9.40018
ah	-9.40074
▁whore	-9.40091
▁student	-9.40183
▁animal	-9.40197
▁following	-9.40244
▁yells	-9.40387
▁co	-9.40908
▁con	-9.41023
▁punch	-9.41041
▁iii	-9.41179
▁repeat	-9.41661
▁track	-9.41745
▁hearing	-9.41775
▁pressure	-9.41782
▁aw	-9.41805
▁raise	-9.41818
▁interview	-9.41879
son	-9.41964
▁cocksucker	-9.41988
▁gorgeous	-9.41988
▁jonathan	-9.41988
▁rusty	-9.41988
▁tongue	-9.41988
▁sheriff	-9.41988
▁spanish	-9.41989
▁walsh	-9.41989
▁marvin	-9.41992
▁terrific	-9.41993
▁pool	-9.41997
▁plus	-9.42004
▁thunder	-9.42005
▁center	-9.42031
▁angeles	-9.42035
▁scary	-9.42057
▁large	-9.42064
▁sky	-9.42082
▁pot	-9.42099
ro	-9.42131
▁beeping	-9.42177
la	-9.42217
▁deeply	-9.42247
▁prove	-9.42327
▁cars	-9.42353
▁account	-9.42609
▁chick	-9.42798
▁beeps	-9.42833
▁stars	-9.42901
▁remain	-9.43017
nt	-9.43021
▁suspect	-9.43028
▁inter	-9.43334
▁lots	-9.43662
▁niggers	-9.43711
▁hunt	-9.43883
▁nic	-9.44024
▁consider	-9.44094
age	-9.44118
▁paying	-9.44222
▁jew	-9.44305
one	-9.44542
▁exist	-9.44551
▁chris	-9.44615
et	-9.44619
▁loose	-9.44731
▁genius	-9.44789
▁roof	-9.44816
▁twenty	-9.44833
▁weak	-9.44833
▁especially	-9.44845
▁mistress	-9.44845
▁downtown	-9.44846
▁purge	-9.44846
▁willing	-9.44846
▁rumbling	-9.44847
▁forgive	-9.44847
▁sunday	-9.44848
▁boring	-9.44848
▁castle	-9.44855
▁coat	-9.44872
▁bust	-9.44875
▁immediately	-9.4489
▁pam	-9.44893
▁bass	-9.44906
▁sight	-9.44932
▁awful	-9.45307
▁trick	-9.45451
▁bo	-9.45472
ent	-9.45528
▁do	-9.45545
▁rob	-9.45688
▁cat	-9.45729
▁fi	-9.45755
▁wondering	-9.4583
▁angel	-9.45839
▁jean	-9.45933
▁photo	-9.45985
▁nigger	-9.45994
▁issue	-9.46003
ar	-9.4611
▁den	-9.4622
ot	-9.46411
▁mindy	-9.46455
▁site	-9.46918
▁tip	-9.47004
▁zo	-9.47027
▁accept	-9.47039
▁bother	-9.47079
▁load	-9.47146
▁helping	-9.47216
▁snow	-9.47391
▁chill	-9.476
▁escape	-9.47614
▁dope	-9.4777
▁admit	-9.47779
▁babies	-9.47787
▁elliot	-9.47787
▁literally	-9.47787
▁mexico	-9.47787
▁screen	-9.47787
▁thomas	-9.47787
▁whatre	-9.4779
▁elevator	-9.47792
▁gotten	-9.47793
▁guilty	-9.47832
▁sold	-9.4784
▁stage	-9.47881
▁concerned	-9.47928
▁rape	-9.47963
▁jon	-9.48059
ee	-9.481
▁losing	-9.4823
▁pro	-9.48249
▁store	-9.48634
by	-9.48646
▁risk	-9.48648
▁pocket	-9.48911
▁chocolate	-9.48969
▁victim	-9.48984
▁contract	-9.49036
▁gate	-9.49038
▁brain	-9.4907
▁letter	-9.4926
▁pie	-9.50151
ble	-9.503
▁speed	-9.50425
▁chatter	-9.50452
▁secure	-9.50622
▁decide	-9.50629
▁view	-9.50803
▁fantastic	-9.50817
▁often	-9.50817
▁sinclair	-9.50817
▁whistling	-9.50817
▁whoever	-9.50818
▁nope	-9.5082
▁dropped	-9.50824
▁grace	-9.50826
▁motherfuckers	-9.50829
▁machinery	-9.50841
▁disgusting	-9.50858
▁ghostface	-9.50858
▁whispering	-9.50894
▁states	-9.50895
▁national	-9.50931
▁motherfucking	-9.50951
▁ahh	-9.51023
▁pink	-9.51027
▁whispers	-9.51193
▁ships	-9.51258
▁realized	-9.51297
▁promised	-9.51537
▁all	-9.51605
▁remind	-9.51675
▁belong	-9.51752
am	-9.51788
▁ends	-9.51793
▁pulled	-9.51904
▁ghost	-9.52126
▁opens	-9.52617
im	-9.52787
▁animals	-9.52816
▁magic	-9.52972
os	-9.53091
▁brown	-9.53259
▁march	-9.53459
▁wash	-9.5351
▁marry	-9.53543
▁oil	-9.53751
▁watched	-9.53831
▁papers	-9.53844
▁freeze	-9.53868
▁hon	-9.53873
▁porn	-9.53893
▁non	-9.53905
▁abdullah	-9.53942
▁couch	-9.53942
▁downstairs	-9.53942
▁michael	-9.53942
▁sausage	-9.53942
▁monday	-9.53942
▁jules	-9.53942
▁twice	-9.53944
▁price	-9.53945
▁compton	-9.53945
▁aware	-9.5395
▁onto	-9.5395
▁cameron	-9.53961
▁mourning	-9.53972
▁standard	-9.53975
▁recently	-9.5398
▁belt	-9.53987
▁rigg	-9.53988
▁coughing	-9.54021
▁witches	-9.54036
▁bite	-9.54108
▁hoping	-9.54176
▁bath	-9.54338
▁dressed	-9.54471
▁zone	-9.54493
▁growing	-9.54498
▁butt	-9.54708
se	-9.54746
▁lied	-9.54959
▁feelings	-9.54966
▁dee	-9.55062
▁bear	-9.55108
▁trace	-9.55133
▁pilot	-9.55196
▁season	-9.5525
▁cost	-9.55268
▁jacket	-9.55283
▁ticket	-9.55363
▁soldier	-9.55367
▁actor	-9.55419
▁rule	-9.55479
▁breaking	-9.55897
▁pee	-9.56218
▁o	-9.5628
▁ended	-9.56336
▁charges	-9.56424
▁classic	-9.5646
▁direct	-9.56713
ted	-9.56719
▁fingers	-9.56772
▁mention	-9.56899
▁pen	-9.56965
▁hung	-9.57045
▁regular	-9.5705
▁prince	-9.57127
▁match	-9.57128
▁swim	-9.57168
▁common	-9.57168
▁gunfire	-9.57168
▁gym	-9.57168
▁hannibal	-9.57168
▁military	-9.57168
▁shouldve	-9.57168
▁webber	-9.57168
▁thirty	-9.57168
▁nathan	-9.57168
▁curious	-9.57169
▁norton	-9.57169
▁whenever	-9.57169
▁brian	-9.57171
▁stuart	-9.57171
▁fake	-9.57171
▁douche	-9.57172
▁program	-9.57172
▁vehicle	-9.57173
▁liar	-9.57174
▁meat	-9.57174
▁batman	-9.57177
▁narrat	-9.57177
▁comin	-9.57182
▁suicide	-9.57192
▁laura	-9.57195
▁wet	-9.572
▁safety	-9.57206
▁piper	-9.57211
▁incredible	-9.57239
▁pino	-9.57259
▁mission	-9.57358
end	-9.5737
land	-9.57452
▁quickly	-9.5747
▁letting	-9.57473
▁greatest	-9.57746
▁bitches	-9.57751
▁lately	-9.57812
▁burning	-9.57973
▁request	-9.58204
▁somebodys	-9.58236
ary	-9.58291
▁heaven	-9.58614
▁lou	-9.58615
▁greek	-9.58615
▁role	-9.58632
▁chicken	-9.58644
▁target	-9.58663
▁client	-9.58699
▁bags	-9.58806
▁keeps	-9.58888
▁records	-9.58955
▁se	-9.5904
▁grade	-9.59226
line	-9.59586
ish	-9.59599
▁fill	-9.59759
▁treat	-9.59778
▁places	-9.59811
▁career	-9.59841
▁witness	-9.60113
▁borrow	-9.60181
▁talent	-9.60189
▁plans	-9.60338
▁release	-9.6034
▁bringing	-9.60367
▁sharp	-9.6037
▁louis	-9.60388
head	-9.6039
▁sandwich	-9.60451
▁jam	-9.6046
▁ash	-9.60462
▁trent	-9.60468
▁virgin	-9.60496
▁canada	-9.60501
▁felicia	-9.60501
▁greg	-9.60501
▁impossible	-9.60501
▁insane	-9.60501
▁mirror	-9.60501
▁otherwise	-9.60501
▁strike	-9.60501
▁threw	-9.60501
▁friday	-9.60501
▁stallworth	-9.60502
▁foreign	-9.60502
▁midnight	-9.60502
▁blind	-9.60502
▁shame	-9.60503
▁juice	-9.60506
▁kitty	-9.60506
▁comfortable	-9.60509
▁apparently	-9.6051
▁grandma	-9.60511
▁tour	-9.60522
▁laughter	-9.60522
▁woke	-9.60533
▁ugh	-9.60543
▁pete	-9.6059
▁gary	-9.60593
▁hiding	-9.60598
▁joni	-9.60616
▁weed	-9.60623
▁certainly	-9.60692
▁tad	-9.60898
▁asses	-9.61147
▁san	-9.61294
▁ears	-9.61415
▁social	-9.61721
▁fired	-9.61803
▁master	-9.6204
▁spirit	-9.62063
oo	-9.62128
▁apple	-9.62133
▁travel	-9.62142
▁russian	-9.62156
▁walked	-9.62475
▁brains	-9.62522
▁cos	-9.62668
▁bun	-9.62852
▁sweat	-9.62932
▁crack	-9.62997
▁tea	-9.63297
ta	-9.6338
▁games	-9.63402
▁player	-9.63404
▁hook	-9.63418
▁deliver	-9.63443
▁heads	-9.63536
▁coach	-9.6354
▁build	-9.63553
▁pretend	-9.6357
▁study	-9.63623
ier	-9.63811
▁madam	-9.63844
▁natural	-9.63851
▁bail	-9.63945
▁knox	-9.63947
▁dewald	-9.63949
▁empty	-9.63949
▁kevin	-9.63949
▁mallory	-9.63949
▁ocean	-9.63949
▁rough	-9.6395
▁community	-9.6395
▁joking	-9.63955
▁responsible	-9.63961
▁rare	-9.63964
▁opportunity	-9.63965
▁duty	-9.63982
▁andy	-9.64002
▁ls	-9.64023
▁embarrassed	-9.64063
▁pin	-9.64078
▁noticed	-9.64234
▁allowed	-9.64407
▁clearly	-9.64442
▁chest	-9.64618
▁knees	-9.64693
▁mikey	-9.64848
▁keeping	-9.64904
▁harder	-9.65028
▁assholes	-9.65104
▁bang	-9.65166
▁details	-9.65265
▁fool	-9.65328
▁project	-9.65437
▁foley	-9.65605
▁criminal	-9.6566
▁claim	-9.65665
▁bullet	-9.65689
▁cigarette	-9.6571
▁jo	-9.65753
▁bud	-9.65836
▁out	-9.65846
▁va	-9.65904
▁chas	-9.66464
ton	-9.66475
▁discuss	-9.66757
ba	-9.66797
▁closes	-9.67078
▁le	-9.67129
▁shock	-9.67206
▁matt	-9.67294
▁post	-9.67327
▁actress	-9.67467
▁someones	-9.67486
▁public	-9.67509
▁crush	-9.67521
▁dallas	-9.67521
▁enemy	-9.67521
▁museum	-9.67521
▁punjabi	-9.67521
▁sixpack	-9.67521
▁staff	-9.67521
▁stood	-9.67521
▁desk	-9.67523
▁hart	-9.67523
▁torment	-9.67524
▁network	-9.67524
▁breakfast	-9.67524
▁gentleman	-9.67531
▁logan	-9.67532
▁football	-9.67533
▁whyd	-9.67542
▁pair	-9.67543
▁jet	-9.67611
▁invited	-9.67628
▁madame	-9.67651
▁stairs	-9.67687
▁shake	-9.67747
ia	-9.68292
▁parking	-9.68319
▁reasons	-9.68378
▁armed	-9.68405
▁murdered	-9.68473
da	-9.6866
▁touched	-9.69049
io	-9.69142
▁file	-9.6918
▁market	-9.69272
▁cards	-9.69293
▁monkey	-9.6932
▁queen	-9.69328
▁rose	-9.6934
▁moon	-9.6935
▁tap	-9.69655
▁bee	-9.69681
▁so	-9.70088
ol	-9.70172
▁nobodys	-9.70247
▁americans	-9.70344
▁pray	-9.7035
▁search	-9.70484
▁weapons	-9.70577
ling	-9.70793
▁rat	-9.70801
▁complete	-9.70921
▁practice	-9.71012
▁recognize	-9.71021
▁introduce	-9.71042
▁steve	-9.71086
▁sue	-9.7111
▁penis	-9.7119
▁chuck	-9.712
▁gettin	-9.71204
▁danger	-9.71217
▁audience	-9.71224
▁became	-9.71224
▁colqhoun	-9.71224
▁easier	-9.71224
▁flesh	-9.71224
▁giggling	-9.71224
▁period	-9.71224
▁scoffs	-9.71225
▁boston	-9.71225
▁advice	-9.71225
▁patterson	-9.71225
▁percent	-9.71225
▁grew	-9.71226
▁vacation	-9.71226
▁clamoring	-9.71229
▁innocent	-9.71229
▁slept	-9.7123
▁nasty	-9.71239
▁hindi	-9.71245
▁spell	-9.71247
▁jewish	-9.71255
▁bush	-9.7126
▁medical	-9.71311
▁miller	-9.71319
▁nature	-9.71415
▁runs	-9.71501
▁disappeared	-9.71502
▁hired	-9.71507
▁closet	-9.71521
▁faster	-9.71597
▁reached	-9.71696
▁fathers	-9.71817
▁slap	-9.72082
▁freak	-9.72109
ty	-9.72862
▁lies	-9.72936
▁cab	-9.73139
▁clue	-9.73184
▁patient	-9.73223
▁citizen	-9.73261
▁monster	-9.73267
▁clients	-9.73269
dy	-9.73393
▁niggas	-9.73533
▁photos	-9.73549
▁ideas	-9.74198
▁switch	-9.74288
▁tellin	-9.74504
▁rap	-9.74519
▁focus	-9.74753
co	-9.74801
▁fort	-9.74873
▁bright	-9.74943
as	-9.75009
▁somethin	-9.75045
▁harm	-9.75051
▁legal	-9.75055
▁correct	-9.75056
▁robert	-9.7506
▁apart	-9.75061
▁axel	-9.75071
▁distant	-9.75071
▁horrible	-9.75071
▁understood	-9.75071
▁chicago	-9.75071
▁swimming	-9.75071
▁afford	-9.75071
▁vision	-9.75071
▁collins	-9.75071
▁amanda	-9.75071
▁miami	-9.75071
▁howling	-9.75072
▁albert	-9.75072
▁poem	-9.75074
▁bacon	-9.75074
▁jason	-9.75075
▁fanny	-9.75076
▁yellow	-9.75077
▁josh	-9.75091
▁panic	-9.75093
▁pure	-9.75105
▁kim	-9.75113
▁size	-9.75122
▁cheap	-9.75126
▁carlos	-9.75153
▁rub	-9.75173
▁cap	-9.75174
▁windows	-9.75174
sh	-9.75218
▁interviewer	-9.75224
rs	-9.75233
▁union	-9.75263
▁joint	-9.75272
▁ohh	-9.75311
▁tied	-9.75323
▁gr	-9.75378
▁agreed	-9.75419
ure	-9.75537
▁coughs	-9.75538
▁lookin	-9.75657
▁rolling	-9.75907
eral	-9.76272
▁falling	-9.76323
▁an	-9.76684
▁model	-9.76834
▁sirens	-9.76935
▁di	-9.76975
▁bridge	-9.77104
▁matthew	-9.77184
▁weight	-9.77198
▁shoulder	-9.77226
▁sometime	-9.77295
▁fl	-9.77404
▁fella	-9.77416
▁meal	-9.77486
▁u	-9.77594
▁siren	-9.77653
ard	-9.77736
▁bi	-9.77846
▁ruin	-9.77904
▁dealing	-9.78096
▁guests	-9.7821
▁sh	-9.7823
▁be	-9.78258
tan	-9.78413
▁dimitr	-9.78799
▁serve	-9.78812
▁rick	-9.78884
▁bull	-9.78956
▁no	-9.78976
▁represent	-9.79054
▁zahra	-9.79066
▁advantage	-9.79071
▁distort	-9.79071
▁maretto	-9.79071
▁necessary	-9.79071
▁nelson	-9.79071
▁several	-9.79071
▁sugar	-9.79071
▁wolken	-9.79071
▁wyatt	-9.79071
▁saving	-9.79071
▁awake	-9.79071
▁muffled	-9.79071
▁silver	-9.79071
▁prick	-9.79072
▁device	-9.79074
▁mmmhmm	-9.79075
▁moron	-9.79075
▁assistant	-9.79076
▁wherever	-9.79076
▁familiar	-9.79076
▁license	-9.79076
▁borat	-9.79076
▁priest	-9.79077
▁bedroom	-9.79077
▁cancer	-9.79078
▁unfortunately	-9.79079
▁unbelievable	-9.7908
▁coco	-9.7908
▁society	-9.79082
▁nola	-9.79083
▁owner	-9.79086
▁heh	-9.7909
▁hank	-9.79091
▁birth	-9.79095
▁salad	-9.79109
▁subt	-9.79111
▁boom	-9.79113
▁daisy	-9.79133
▁pace	-9.79178
▁heading	-9.79308
▁due	-9.79362
▁charles	-9.79369
▁leo	-9.79385
▁beg	-9.79434
▁bow	-9.79552
▁flowers	-9.79717
▁offered	-9.79732
▁passed	-9.79823
▁hire	-9.79871
king	-9.79876
▁kicked	-9.80267
▁je	-9.80376
▁scream	-9.80531
▁per	-9.80607
▁brave	-9.80633
▁ab	-9.80708
▁yell	-9.8072
▁opening	-9.80759
▁pulling	-9.80864
▁jerk	-9.80917
▁monsters	-9.80984
▁disappear	-9.81074
ally	-9.81114
▁ca	-9.81116
▁stan	-9.81263
▁felix	-9.81267
▁grown	-9.81367
▁character	-9.81385
▁page	-9.81437
▁chain	-9.81472
▁bond	-9.81614
▁teacher	-9.81646
ow	-9.81929
ma	-9.81973
ca	-9.82035
▁tall	-9.82384
fully	-9.82471
▁po	-9.82602
▁units	-9.82627
▁eazy	-9.82676
▁checked	-9.82699
▁cha	-9.82913
▁destroy	-9.82929
▁martin	-9.82989
▁grant	-9.83033
▁shape	-9.83043
▁divorce	-9.8307
▁tank	-9.83109
▁physical	-9.83128
▁stole	-9.83175
▁ka	-9.83181
▁sale	-9.8319
▁process	-9.83199
▁fred	-9.83225
▁exercise	-9.83237
▁expensive	-9.83237
▁lincoln	-9.83237
▁purpose	-9.83237
▁responsibility	-9.83237
▁schultz	-9.83237
▁somehow	-9.83237
▁speech	-9.83237
▁whirring	-9.83237
▁review	-9.83239
▁appointment	-9.83239
▁closing	-9.83239
▁stress	-9.83241
▁vito	-9.83242
▁piano	-9.83243
▁blew	-9.83245
▁santa	-9.83246
▁ugly	-9.83249
▁route	-9.83253
▁handsome	-9.83265
▁betty	-9.83272
▁mister	-9.83282
▁sword	-9.83284
▁rex	-9.83288
▁image	-9.83385
▁gale	-9.83418
▁bleeding	-9.83425
▁tail	-9.83427
▁lee	-9.83458
▁softly	-9.8346
▁hills	-9.83462
▁frankie	-9.83464
▁lower	-9.83479
ul	-9.83495
▁maria	-9.83722
▁en	-9.83727
▁sally	-9.83803
▁si	-9.84069
▁burned	-9.84091
▁goodness	-9.84244
▁selling	-9.84351
▁ar	-9.84492
▁backup	-9.84525
▁meaning	-9.84555
▁tu	-9.8482
▁rip	-9.85287
▁murders	-9.85492
▁ad	-9.85511
▁score	-9.85527
▁fruit	-9.8562
▁tickets	-9.85631
▁mask	-9.8568
▁punk	-9.85685
▁cousin	-9.85713
▁broad	-9.85752
you	-9.85756
de	-9.85778
▁sport	-9.85791
▁pu	-9.86234
▁me	-9.86252
▁enter	-9.87138
▁audition	-9.87169
ball	-9.87249
▁cameras	-9.8725
house	-9.87333
▁smith	-9.87394
▁mix	-9.87414
▁prepare	-9.87422
▁assume	-9.87431
▁design	-9.87452
▁corn	-9.87455
▁indistinct	-9.8748
▁obvious	-9.87481
▁access	-9.87585
▁cocaine	-9.87585
▁greece	-9.87585
▁instrument	-9.87585
▁irene	-9.87585
▁kenneth	-9.87585
▁pardon	-9.87585
▁faint	-9.87585
▁taylor	-9.87585
▁aisle	-9.87585
▁freddie	-9.87585
▁among	-9.87586
▁mischa	-9.87586
▁smack	-9.87587
▁jeez	-9.87587
▁vagina	-9.87588
▁random	-9.87588
▁coast	-9.87591
▁neil	-9.87593
▁beast	-9.87594
▁naked	-9.87594
▁exciting	-9.87595
▁accountant	-9.87599
▁randy	-9.87603
▁stock	-9.87607
▁secretary	-9.87608
▁christine	-9.87619
▁storm	-9.87621
▁announcer	-9.87625
▁taxi	-9.87646
▁row	-9.87659
▁powerful	-9.87676
▁arrived	-9.87763
▁embarrassing	-9.87763
▁butter	-9.87815
▁wounded	-9.87885
▁spare	-9.87885
▁clicking	-9.87923
▁raised	-9.87964
▁mentioned	-9.88003
▁traveling	-9.88074
▁lips	-9.88201
▁speakers	-9.88399
and	-9.88406
▁towards	-9.88441
▁flying	-9.88526
▁testing	-9.88663
▁dickie	-9.88689
▁blowing	-9.89045
▁clicks	-9.89185
un	-9.89244
ck	-9.89447
▁paint	-9.89555
ism	-9.89815
▁stayed	-9.89832
▁wound	-9.89937
▁mc	-9.89972
▁soldiers	-9.90089
▁adam	-9.90163
▁whistle	-9.90215
▁clay	-9.9023
▁neighbor	-9.90308
▁issues	-9.90338
▁students	-9.90504
▁loss	-9.90731
▁fo	-9.90816
ai	-9.91001
▁daughters	-9.91076
▁beck	-9.91414
way	-9.91476
▁y	-9.91537
▁nights	-9.91629
▁garden	-9.91709
▁collect	-9.91715
▁li	-9.91808
▁dump	-9.91816
▁official	-9.92021
▁coop	-9.92022
▁aunt	-9.92048
▁silence	-9.92069
▁ruth	-9.92116
▁according	-9.92131
▁arjun	-9.92131
▁available	-9.92131
▁female	-9.92131
▁including	-9.92131
▁murphy	-9.92131
▁resident	-9.92131
▁squad	-9.92131
▁square	-9.92131
▁attitude	-9.92131
▁changing	-9.92131
▁commercial	-9.92131
▁doris	-9.92131
▁buried	-9.92131
▁kenny	-9.92131
▁toilet	-9.92131
▁describe	-9.92132
▁reese	-9.92133
▁motel	-9.92134
▁omar	-9.92134
▁cunt	-9.92135
itles	-9.92135
▁cherry	-9.92136
▁earlier	-9.92139
▁blanket	-9.92147
▁ruthless	-9.92148
▁connection	-9.92148
▁satan	-9.92153
▁chanting	-9.92157
▁basement	-9.92159
▁barely	-9.92163
▁laughlng	-9.92174
▁funeral	-9.92184
▁protection	-9.92185
▁itd	-9.92199
▁uhoh	-9.92209
▁clattering	-9.9223
▁jade	-9.92256
▁glasses	-9.92257
▁wire	-9.92262
▁approaching	-9.9236
ha	-9.92432
▁checking	-9.92492
▁personally	-9.92496
▁vc	-9.92566
▁shitty	-9.92566
▁sals	-9.92588
▁ren	-9.92637
▁showed	-9.92649
▁bastards	-9.92777
▁dads	-9.92828
▁prefer	-9.93076
off	-9.9318
▁gosh	-9.9326
▁ne	-9.93478
▁helped	-9.93518
▁map	-9.93529
▁smells	-9.93551
li	-9.93681
▁ordered	-9.93814
ade	-9.94
▁sports	-9.9406
op	-9.94096
ance	-9.94239
▁citizens	-9.9432
j	-9.94591
▁arrive	-9.94728
▁gang	-9.94983
▁neb	-9.9503
▁mountain	-9.95031
▁cow	-9.95037
▁detail	-9.95092
▁accounts	-9.95122
▁du	-9.95139
▁signal	-9.95238
▁sucker	-9.95355
▁reporter	-9.95365
▁flip	-9.95415
▁thousands	-9.95465
ad	-9.95505
▁changes	-9.95602
▁app	-9.95982
ical	-9.96115
▁whack	-9.96584
▁damage	-9.96676
▁strength	-9.96705
▁simpl	-9.96719
▁spit	-9.96766
▁original	-9.96795
na	-9.96854
▁mail	-9.9686
▁traffic	-9.96883
▁eve	-9.96887
▁although	-9.96893
▁anniversary	-9.96893
▁applause	-9.96893
▁ethan	-9.96893
▁excellent	-9.96893
▁griffith	-9.96893
▁helicopter	-9.96893
▁oclock	-9.96893
▁perimeter	-9.96893
▁racist	-9.96893
▁someday	-9.96893
▁stephanie	-9.96893
▁suzy	-9.96893
▁thursday	-9.96893
▁tuesday	-9.96893
▁undercover	-9.96893
▁desert	-9.96893
▁harry	-9.96893
▁confused	-9.96893
▁houssam	-9.96893
▁wasting	-9.96893
▁diana	-9.96893
▁silent	-9.96894
▁online	-9.96894
▁outfit	-9.96894
▁cowboy	-9.96896
▁negative	-9.96896
▁fancy	-9.96896
▁suge	-9.96899
▁coke	-9.969
▁chapter	-9.96903
▁cartman	-9.96907
▁truly	-9.96908
▁energy	-9.96915
▁tito	-9.96925
▁yearold	-9.96932
▁katie	-9.9694
no	-9.96963
▁progress	-9.96965
▁johnson	-9.96968
▁auntie	-9.96982
▁hitting	-9.97014
▁buzzing	-9.97034
▁forces	-9.97141
▁val	-9.97166
▁lap	-9.97248
▁phil	-9.97266
▁cali	-9.97311
▁slowly	-9.97334
▁doer	-9.97354
▁jonesy	-9.97367
▁screwed	-9.97488
▁add	-9.97599
▁nation	-9.9764
▁pills	-9.97747
▁carrying	-9.97795
▁degrees	-9.97924
▁gin	-9.98015
▁sisters	-9.98088
▁powers	-9.98212
▁hells	-9.98234
▁covered	-9.98281
▁shouts	-9.9829
▁bills	-9.98306
▁bon	-9.98317
▁lads	-9.98563
▁bones	-9.9858
▁kissing	-9.98629
▁fellas	-9.99117
▁up	-9.99133
▁rats	-9.99251
▁buying	-9.99379
ize	-9.99392
▁wood	-9.9947
▁blows	-9.99593
▁click	-9.997
▁scare	-9.99854
▁bum	-9.99856
▁cake	-9.99999
▁noise	-10.0004
▁cave	-10.0006
▁member	-10.0007
▁pound	-10.0009
▁dollar	-10.0015
▁everyones	-10.0017
▁prisoner	-10.005
ens	-10.0107
▁there	-10.011
▁suggest	-10.0114
▁separate	-10.0123
▁hug	-10.013
▁recommend	-10.0148
▁dial	-10.0148
▁confirm	-10.0157
▁cast	-10.0157
▁jealous	-10.0169
▁flash	-10.017
▁smooth	-10.0177
▁usual	-10.0179
▁emotional	-10.018
▁virus	-10.0184
▁faith	-10.0188
▁album	-10.0189
▁ambulance	-10.0189
▁attorney	-10.0189
▁barbara	-10.0189
▁brett	-10.0189
▁central	-10.0189
▁champagne	-10.0189
▁detroit	-10.0189
▁fantasy	-10.0189
▁ferrigno	-10.0189
▁kershaw	-10.0189
▁pamela	-10.0189
▁procedure	-10.0189
▁regret	-10.0189
▁saturday	-10.0189
▁science	-10.0189
▁senior	-10.0189
▁byebye	-10.0189
▁reich	-10.0189
▁thief	-10.0189
▁however	-10.0189
▁jennie	-10.0189
▁saint	-10.0189
▁intelligence	-10.0189
▁ammo	-10.019
▁internet	-10.019
▁hansel	-10.019
▁anger	-10.019
▁tasty	-10.019
▁tommy	-10.019
▁ellis	-10.019
▁halloween	-10.019
▁klan	-10.019
▁section	-10.019
▁smoking	-10.019
▁whimpering	-10.019
▁psycho	-10.019
▁estate	-10.019
▁pride	-10.019
▁baseball	-10.0191
▁fries	-10.0191
▁hallway	-10.0191
▁purse	-10.0191
▁treatment	-10.0191
▁chef	-10.0191
▁ro	-10.0192
▁statement	-10.0194
▁exit	-10.0194
▁yard	-10.0194
▁indeed	-10.0195
▁held	-10.0195
▁slide	-10.0195
▁solve	-10.0196
▁fallen	-10.0196
▁stolen	-10.0197
▁tone	-10.0198
▁style	-10.0199
▁received	-10.0201
▁indistinctly	-10.0201
▁bury	-10.0202
▁created	-10.0209
▁pieces	-10.0213
▁entirely	-10.0219
tion	-10.0224
▁destroyed	-10.0227
▁commander	-10.0228
▁louder	-10.0232
▁farm	-10.0249
▁bands	-10.0252
▁that	-10.0256
▁opened	-10.0266
▁arrested	-10.0269
▁eggs	-10.0279
▁sooner	-10.0283
▁pi	-10.0294
▁cares	-10.0298
▁tryin	-10.0311
ster	-10.0348
▁pounds	-10.0374
▁shows	-10.0378
▁cr	-10.0402
do	-10.0412
▁sending	-10.0429
▁dreaming	-10.0432
▁form	-10.045
▁actors	-10.048
▁ghosts	-10.0489
▁sc	-10.049
▁settle	-10.0497
res	-10.0498
▁subject	-10.0519
▁winner	-10.052
▁picking	-10.0526
▁gunshot	-10.0528
▁pig	-10.0536
▁wave	-10.0553
▁hop	-10.0554
▁matters	-10.0563
▁ld	-10.0574
▁points	-10.0578
ke	-10.0623
▁sin	-10.0623
▁who	-10.0641
▁headed	-10.0642
▁ln	-10.0669
▁ways	-10.0674
▁climb	-10.0681
▁assault	-10.0682
▁believed	-10.0695
▁dirt	-10.0698
▁dust	-10.0699
▁amen	-10.07
▁firm	-10.0704
▁bone	-10.0709
▁perform	-10.0713
▁ashamed	-10.0716
▁defense	-10.0716
▁desperate	-10.0716
▁equipment	-10.0716
▁eventually	-10.0716
▁families	-10.0716
▁fashion	-10.0716
▁grethe	-10.0716
▁jocasta	-10.0716
▁league	-10.0716
▁memories	-10.0716
▁schedule	-10.0716
▁serrano	-10.0716
▁tenenbaum	-10.0716
▁trash	-10.0716
▁turkey	-10.0716
▁chalk	-10.0716
▁research	-10.0716
▁telephone	-10.0716
▁mcquarry	-10.0716
▁faggot	-10.0716
▁kumar	-10.0716
▁defend	-10.0716
▁merry	-10.0716
▁bruno	-10.0716
▁firing	-10.0716
▁shack	-10.0716
▁amount	-10.0716
▁freezing	-10.0716
▁positive	-10.0717
▁slater	-10.0717
▁rude	-10.0717
▁growling	-10.0717
▁planning	-10.0717
▁snake	-10.0717
▁twelve	-10.0717
▁silly	-10.0717
▁chopper	-10.0718
▁broadway	-10.0718
om	-10.072
▁painful	-10.0721
▁chosen	-10.0722
▁quinn	-10.0722
▁echoing	-10.0723
▁button	-10.0723
▁aye	-10.0725
▁deck	-10.0727
▁former	-10.0727
▁impressed	-10.0728
▁prize	-10.0731
▁convinced	-10.0732
▁leaves	-10.0732
▁jesse	-10.0732
▁leona	-10.0734
▁hill	-10.0736
▁checks	-10.0739
▁shy	-10.074
▁divorced	-10.0744
bo	-10.075
▁deny	-10.075
▁stops	-10.0752
▁dam	-10.0754
me	-10.0756
▁boyle	-10.0757
▁lad	-10.0758
▁filled	-10.0765
▁quietly	-10.0773
▁amy	-10.0784
▁loser	-10.08
▁williams	-10.08
▁horses	-10.0803
▁ra	-10.0814
▁tend	-10.083
▁when	-10.083
▁finding	-10.0848
▁knocked	-10.0851
tic	-10.0857
▁staring	-10.087
▁followed	-10.0884
▁throwing	-10.0908
ni	-10.0915
▁media	-10.0916
▁showing	-10.092
▁cigarettes	-10.0991
ator	-10.0999
anc	-10.1021
▁rocks	-10.1028
▁condition	-10.1033
ette	-10.1036
▁tips	-10.105
▁cara	-10.105
▁mul	-10.1052
ner	-10.1066
▁stomach	-10.1074
▁edge	-10.1077
▁odd	-10.1078
▁ipad	-10.1078
▁tunnel	-10.1081
▁wheel	-10.1081
▁magazine	-10.1081
▁option	-10.1084
▁canadian	-10.1087
▁plate	-10.1088
▁hood	-10.1095
▁chop	-10.1099
▁robb	-10.1105
▁everybodys	-10.1108
▁walls	-10.1117
▁worker	-10.1141
▁ted	-10.1142
▁services	-10.1145
▁bra	-10.1154
ise	-10.1164
▁dies	-10.1172
▁tells	-10.1179
▁draw	-10.1186
▁bottles	-10.1187
▁hip	-10.1212
▁ending	-10.123
▁respond	-10.1237
▁insist	-10.1238
▁blast	-10.1241
ug	-10.1243
▁guarantee	-10.125
▁doll	-10.1251
▁trap	-10.1252
▁incredibl	-10.1259
▁particular	-10.126
▁brand	-10.1262
▁chose	-10.1265
▁alcohol	-10.1268
▁mmhm	-10.1268
▁express	-10.1269
ze	-10.1269
▁avoid	-10.127
▁arguing	-10.1271
▁clitoris	-10.1271
▁cynthia	-10.1271
▁disease	-10.1271
▁dispatch	-10.1271
▁fountain	-10.1271
▁gather	-10.1271
▁honeymoon	-10.1271
▁lounge	-10.1271
▁quality	-10.1271
▁sheila	-10.1271
▁sneak	-10.1271
▁universe	-10.1271
▁unusual	-10.1271
▁vaughn	-10.1271
▁costume	-10.1271
▁illegal	-10.1271
▁alert	-10.1271
▁bureau	-10.1271
▁cobb	-10.1271
▁complicated	-10.1271
▁pollux	-10.1271
▁clarence	-10.1271
▁example	-10.1271
▁joseph	-10.1271
▁lugo	-10.1271
▁tennis	-10.1271
▁smiling	-10.1271
▁bernie	-10.1271
▁stink	-10.1271
▁wolf	-10.1271
▁martha	-10.1271
▁combat	-10.1271
▁series	-10.1271
▁zero	-10.1271
▁digging	-10.1271
▁gail	-10.1272
▁colorado	-10.1272
▁property	-10.1272
▁impressive	-10.1272
▁miracle	-10.1272
▁written	-10.1272
▁value	-10.1272
▁cleaves	-10.1272
▁mobile	-10.1272
▁kyle	-10.1272
▁location	-10.1272
▁clock	-10.1272
▁aside	-10.1273
▁donna	-10.1273
▁motherfuckin	-10.1274
▁joyce	-10.1275
▁dopeman	-10.1275
▁bread	-10.1276
▁jer	-10.1276
▁froze	-10.1278
▁shine	-10.1279
▁bout	-10.1279
▁funk	-10.1279
▁doo	-10.1281
▁crawl	-10.1281
▁cutting	-10.1282
▁barking	-10.1282
▁fifty	-10.1285
▁fourth	-10.1286
▁discovered	-10.1288
▁host	-10.1289
▁tax	-10.1291
▁failed	-10.1292
▁keyes	-10.1293
▁giggles	-10.1298
erial	-10.13
▁hatcher	-10.1305
ii	-10.1305
ue	-10.1314
▁stronger	-10.1319
ations	-10.1323
▁considered	-10.1333
▁addict	-10.135
▁julie	-10.1356
▁sniffs	-10.1365
▁artist	-10.1372
▁ch	-10.1373
▁highly	-10.1398
▁attacked	-10.1401
▁messing	-10.1413
mo	-10.1416
▁mob	-10.1424
ern	-10.1426
▁hardly	-10.1442
▁hostages	-10.1446
▁spending	-10.1448
▁waited	-10.1456
▁beating	-10.1465
▁woods	-10.1478
▁prisoners	-10.1486
▁mal	-10.1518
▁cells	-10.1545
▁dicks	-10.1547
▁strip	-10.1552
▁ku	-10.1553
▁chase	-10.158
▁brings	-10.1582
▁moves	-10.1599
▁te	-10.1605
▁reminds	-10.1608
side	-10.1619
▁jews	-10.1635
▁jobs	-10.1636
▁photograph	-10.1636
▁suspects	-10.1639
▁parent	-10.164
▁sand	-10.1641
▁tear	-10.1646
▁german	-10.1663
▁gene	-10.1665
▁blindfold	-10.1666
▁winter	-10.1667
▁award	-10.1668
▁string	-10.1672
▁cloud	-10.1676
▁hostage	-10.1679
cat	-10.1708
▁beep	-10.1711
▁sub	-10.1712
▁aa	-10.1773
▁suffer	-10.1788
▁doctors	-10.1815
▁ditch	-10.1823
▁connect	-10.1826
ship	-10.1827
▁tuck	-10.1828
▁leads	-10.1829
▁hatch	-10.183
aii	-10.1847
▁helen	-10.1852
▁walt	-10.1854
▁magnet	-10.1855
▁sons	-10.1858
▁success	-10.1858
▁trans	-10.1859
▁basic	-10.1859
▁thick	-10.1859
▁thud	-10.1859
▁artemisia	-10.1859
▁brilliant	-10.1859
▁cruel	-10.1859
▁dylan	-10.1859
▁fraternity	-10.1859
▁grave	-10.1859
▁harper	-10.1859
▁hurricane	-10.1859
▁invisible	-10.1859
▁kindergarten	-10.1859
▁leonidas	-10.1859
▁rattling	-10.1859
▁response	-10.1859
▁sacrifice	-10.1859
▁stirling	-10.1859
▁toffler	-10.1859
▁umbrella	-10.1859
▁village	-10.1859
▁chinese	-10.1859
▁jersey	-10.1859
▁asian	-10.1859
▁mathew	-10.1859
▁garbage	-10.1859
▁plastic	-10.1859
▁permission	-10.186
▁becoming	-10.186
▁jarmo	-10.186
▁romantic	-10.186
▁sobs	-10.186
▁happiness	-10.186
▁behavior	-10.186
▁honour	-10.186
▁commitment	-10.186
▁envelope	-10.186
▁stevie	-10.186
▁humor	-10.186
▁cujo	-10.186
▁uncomfortable	-10.1861
▁ripley	-10.1861
▁whooping	-10.1861
▁sammy	-10.1861
▁agency	-10.1861
▁fellow	-10.1862
▁custody	-10.1862
▁roommate	-10.1863
▁proof	-10.1863
▁trial	-10.1863
▁troy	-10.1863
▁uhuh	-10.1864
▁tiny	-10.1865
▁berry	-10.1865
▁highway	-10.1866
▁darkness	-10.1867
▁ages	-10.1869
▁honking	-10.1871
▁robin	-10.1875
▁gina	-10.1875
▁taj	-10.1877
▁parties	-10.1885
▁core	-10.1888
▁gig	-10.189
▁reality	-10.1898
ine	-10.1899
▁her	-10.1901
▁disks	-10.191
▁depends	-10.1913
▁ate	-10.1916
▁golf	-10.1917
▁event	-10.1923
▁county	-10.1925
▁busted	-10.1927
▁survivors	-10.1932
▁fart	-10.194
▁hunting	-10.194
▁systems	-10.1948
▁ci	-10.195
▁singer	-10.195
▁rep	-10.1958
▁jumped	-10.1965
back	-10.1977
▁slaves	-10.1977
▁training	-10.1985
▁girlfriends	-10.1993
▁teaching	-10.1996
▁passing	-10.1999
▁hu	-10.1999
lo	-10.2009
ig	-10.2012
▁fixed	-10.2014
▁wh	-10.2051
▁che	-10.2052
▁voices	-10.2058
▁pigs	-10.2068
▁members	-10.2079
▁kicking	-10.2081
▁lover	-10.2084
▁answers	-10.2085
▁neighbors	-10.2102
▁hay	-10.2128
ki	-10.2137
▁sch	-10.2148
▁simon	-10.2159
▁popular	-10.2222
▁players	-10.2222
▁letters	-10.2228
red	-10.2229
▁hack	-10.2246
▁tapes	-10.2264
▁shout	-10.2267
▁coward	-10.2289
▁explosion	-10.2291
▁effect	-10.2292
▁stalker	-10.2294
▁product	-10.2295
▁quarter	-10.2297
he	-10.231
▁nut	-10.2315
▁notes	-10.2316
▁charlies	-10.233
▁stranger	-10.2333
▁bars	-10.2337
time	-10.2372
▁signs	-10.2378
▁hurting	-10.2393
▁breaks	-10.2395
ph	-10.2424
▁steel	-10.2426
▁proceed	-10.244
▁bat	-10.2443
▁concern	-10.2454
▁wipe	-10.2464
▁invite	-10.2465
▁health	-10.2467
▁warn	-10.2468
ack	-10.247
▁proper	-10.2476
▁russia	-10.2478
▁olive	-10.2478
▁environment	-10.2478
▁peach	-10.2479
▁clark	-10.2482
▁wrap	-10.2484
▁susan	-10.2484
▁sec	-10.2484
▁alonzo	-10.2484
▁anthony	-10.2484
▁attempt	-10.2484
▁barcelona	-10.2484
▁boycott	-10.2484
▁celebrate	-10.2484
▁donkey	-10.2484
▁eriksson	-10.2484
▁guitar	-10.2484
▁justice	-10.2484
▁meserve	-10.2484
▁miserable	-10.2484
▁moretti	-10.2484
▁mosely	-10.2484
▁peggy	-10.2484
▁possibly	-10.2484
▁ruiz	-10.2484
▁serena	-10.2484
▁shotgun	-10.2484
▁soho	-10.2484
▁someplace	-10.2484
▁steak	-10.2484
▁surrender	-10.2484
▁tatiana	-10.2484
▁violent	-10.2484
▁cmon	-10.2484
▁evelyn	-10.2484
▁wallace	-10.2484
▁warrant	-10.2484
▁privacy	-10.2484
▁gloria	-10.2484
▁interlinked	-10.2484
▁attractive	-10.2485
▁broadcast	-10.2485
▁diane	-10.2485
▁pathetic	-10.2485
▁starving	-10.2485
▁ripped	-10.2485
▁vibe	-10.2485
▁fag	-10.2485
▁investment	-10.2485
▁soda	-10.2486
▁crackling	-10.2486
▁theory	-10.2486
▁delta	-10.2486
▁comment	-10.2486
▁fought	-10.2486
▁shopping	-10.2486
▁stuntman	-10.2486
▁planned	-10.2486
cious	-10.2486
▁giant	-10.2486
▁attend	-10.2487
▁attica	-10.2487
▁mass	-10.2487
▁torn	-10.2487
▁iike	-10.2487
▁intense	-10.2487
▁expression	-10.2487
▁attracted	-10.2487
▁began	-10.2488
▁loving	-10.2488
▁patch	-10.2488
▁obsessed	-10.2488
▁gear	-10.2489
▁marty	-10.249
▁dime	-10.249
▁campers	-10.2493
▁retired	-10.2494
▁billion	-10.2495
▁bound	-10.2495
▁abandoned	-10.2499
▁dean	-10.25
▁fuckedup	-10.25
▁multipl	-10.2502
▁wing	-10.2506
▁cheating	-10.2508
▁nancy	-10.2509
▁bottomly	-10.2512
▁indian	-10.2518
▁managed	-10.2518
▁finest	-10.2531
▁x	-10.2538
▁bored	-10.2538
▁customers	-10.2539
▁wasted	-10.2543
▁sweater	-10.2543
the	-10.2544
▁civilians	-10.255
▁shorty	-10.2558
▁carefully	-10.256
▁chips	-10.2563
▁victory	-10.2564
▁challenge	-10.2566
▁fate	-10.2569
▁raped	-10.2578
▁riding	-10.2585
▁watches	-10.2586
▁com	-10.2586
▁parts	-10.2588
▁hundreds	-10.2592
▁lo	-10.2598
▁ac	-10.2601
▁pushed	-10.2615
▁lawyers	-10.2616
▁develop	-10.2619
▁socks	-10.2622
▁guts	-10.2622
▁reporting	-10.2628
▁ding	-10.2637
▁whip	-10.2645
▁uhh	-10.2654
▁med	-10.2659
▁fuckers	-10.2669
ax	-10.2679
ham	-10.2688
▁signed	-10.269
▁waves	-10.2706
ial	-10.2712
tra	-10.2715
que	-10.273
▁woo	-10.2761
▁pan	-10.2771
▁hated	-10.2785
▁trusted	-10.2799
▁diet	-10.2801
▁cleaning	-10.2804
▁seats	-10.2833
▁shots	-10.2856
▁ba	-10.2869
▁mechanic	-10.2942
▁effort	-10.2948
▁rope	-10.2949
▁nightmare	-10.2962
▁tool	-10.2965
▁diamond	-10.2965
▁alien	-10.297
▁crimes	-10.2977
▁chuckle	-10.2977
▁mile	-10.2978
▁ic	-10.2993
▁trade	-10.301
▁bells	-10.3014
▁ear	-10.3025
▁pet	-10.3054
ky	-10.3057
pe	-10.3061
▁surely	-10.3066
▁hates	-10.3077
▁plant	-10.3079
▁dan	-10.3079
▁lab	-10.308
▁lame	-10.3097
▁flow	-10.3099
▁teams	-10.3104
▁ram	-10.3108
▁relationships	-10.3115
▁sink	-10.3116
▁hump	-10.3121
▁advance	-10.3124
▁refuse	-10.313
▁remove	-10.3131
▁rescue	-10.3132
▁immediate	-10.3141
▁actual	-10.3141
▁exact	-10.3142
▁jim	-10.3146
▁gentle	-10.3149
▁inform	-10.315
▁transfer	-10.3151
▁athens	-10.3151
▁beverly	-10.3151
▁butterfly	-10.3151
▁dessert	-10.3151
▁explanation	-10.3151
▁explosiveskull	-10.3151
▁fabulous	-10.3151
▁fifteen	-10.3151
▁hudson	-10.3151
▁leprechaun	-10.3151
▁lorraine	-10.3151
▁maintenance	-10.3151
▁mcbride	-10.3151
▁offense	-10.3151
▁pistol	-10.3151
▁shannon	-10.3151
▁violence	-10.3151
▁xerxes	-10.3151
▁zhang	-10.3151
▁drove	-10.3151
▁presence	-10.3151
▁confidence	-10.3151
▁misery	-10.3151
▁terry	-10.3151
▁weiss	-10.3151
▁practical	-10.3151
▁jazz	-10.3151
▁journey	-10.3151
▁pepper	-10.3151
▁darius	-10.3151
▁generous	-10.3151
▁accent	-10.3151
▁latin	-10.3151
▁hallelujah	-10.3151
▁insurance	-10.3151
▁psychiatrist	-10.3151
▁pump	-10.3151
▁washington	-10.3151
▁perkins	-10.3151
▁amber	-10.3151
▁prime	-10.3151
▁pillow	-10.3151
▁mickey	-10.3151
▁hailey	-10.3151
▁unknown	-10.3151
▁grogan	-10.3152
▁lewis	-10.3152
▁sober	-10.3152
▁psychic	-10.3152
▁survival	-10.3152
▁operator	-10.3152
▁assignment	-10.3152
▁mood	-10.3152
▁native	-10.3152
▁sentence	-10.3153
▁nina	-10.3153
▁butcher	-10.3153
▁apology	-10.3155
▁diaz	-10.3156
▁habit	-10.3157
▁hayes	-10.3157
▁personality	-10.3157
▁plain	-10.3157
▁gim	-10.3159
▁retreat	-10.3159
▁eden	-10.3163
▁robbie	-10.3165
▁su	-10.3166
▁healthy	-10.3171
▁locate	-10.3172
▁adopted	-10.3174
▁queer	-10.3177
▁impression	-10.3177
▁que	-10.3179
▁sighing	-10.3179
▁status	-10.3182
▁blocks	-10.3183
▁timing	-10.3184
▁thrown	-10.3193
▁suffering	-10.3195
▁prepared	-10.3195
all	-10.3206
ious	-10.3207
▁damon	-10.3208
▁wide	-10.3209
▁planet	-10.3211
▁smiley	-10.3212
ddam	-10.3222
▁forced	-10.3229
▁brad	-10.3229
▁sings	-10.324
▁chin	-10.3257
▁slams	-10.3273
▁expecting	-10.3283
▁boots	-10.3284
▁burgers	-10.3286
▁joey	-10.3287
ox	-10.3303
▁pat	-10.3307
▁medi	-10.3309
▁comp	-10.3312
ga	-10.3314
▁ey	-10.3321
▁ma	-10.3324
▁tie	-10.3332
▁strangers	-10.3354
▁wit	-10.3358
iest	-10.3377
▁events	-10.3381
ut	-10.3381
▁theo	-10.3389
▁gi	-10.3397
ons	-10.342
▁friendly	-10.3421
▁he	-10.3422
▁chains	-10.3455
▁ko	-10.3458
▁russians	-10.3521
▁apples	-10.3521
ff	-10.3533
▁lefty	-10.3582
▁remains	-10.36
▁robot	-10.3622
▁hearts	-10.3628
ville	-10.3632
▁moan	-10.3649
bit	-10.3654
▁shift	-10.3658
▁object	-10.3659
▁cheer	-10.3662
▁organization	-10.3663
▁package	-10.3665
▁pays	-10.3667
▁mates	-10.3668
ik	-10.3669
▁marsh	-10.367
▁grandmother	-10.3672
▁email	-10.3672
▁slice	-10.3675
▁treasure	-10.3675
▁archer	-10.3677
▁term	-10.3679
▁feds	-10.368
▁wha	-10.3684
ts	-10.3692
▁steps	-10.3692
boy	-10.3709
▁flat	-10.3722
▁fu	-10.3736
ac	-10.3768
gi	-10.3773
▁stretch	-10.3776
▁unite	-10.3791
▁worlds	-10.3806
▁drown	-10.3808
▁log	-10.3809
▁path	-10.3811
ls	-10.382
▁aim	-10.3826
▁lick	-10.3827
▁buns	-10.3828
ping	-10.3829
water	-10.3839
▁convince	-10.3846
▁jill	-10.3847
▁ultimate	-10.3854
▁current	-10.3855
act	-10.3855
▁mental	-10.3856
▁slight	-10.3857
▁sparta	-10.3858
▁abort	-10.3863
▁europe	-10.3863
▁under	-10.3864
▁shave	-10.3865
▁prevent	-10.3865
▁alpha	-10.3865
▁appropriate	-10.3865
▁bruise	-10.3865
▁dwight	-10.3865
▁fantasies	-10.3865
▁hockey	-10.3865
▁jefferson	-10.3865
▁kirby	-10.3865
▁laundry	-10.3865
▁maggie	-10.3865
▁marissa	-10.3865
▁ocp	-10.3865
▁possibility	-10.3865
▁profile	-10.3865
▁rabbit	-10.3865
▁reception	-10.3865
▁religious	-10.3865
▁rendezvous	-10.3865
▁resort	-10.3865
▁script	-10.3865
▁sensitive	-10.3865
▁soap	-10.3865
▁stammering	-10.3865
▁suribachi	-10.3865
▁sweep	-10.3865
▁tequila	-10.3865
▁vodka	-10.3865
▁voight	-10.3865
▁appeal	-10.3865
▁lambert	-10.3865
▁palace	-10.3865
▁leroy	-10.3865
▁gross	-10.3865
▁delicious	-10.3865
▁blaring	-10.3865
▁choking	-10.3866
▁patricia	-10.3866
▁slut	-10.3866
▁capital	-10.3866
▁waitress	-10.3866
▁adventure	-10.3866
▁erotic	-10.3866
▁edward	-10.3866
▁solid	-10.3866
▁lousy	-10.3866
▁root	-10.3866
▁studio	-10.3867
▁abby	-10.3867
▁lamb	-10.3867
▁therell	-10.3867
▁rita	-10.3867
▁confession	-10.3867
▁wore	-10.3867
▁doorbell	-10.3868
▁loan	-10.3868
▁dropping	-10.3868
▁therapy	-10.3868
▁yup	-10.3868
▁dice	-10.3868
▁plug	-10.387
▁stunt	-10.387
▁technically	-10.3871
▁cassie	-10.3871
▁fireball	-10.3873
▁soup	-10.3874
▁gain	-10.3874
▁stalking	-10.3875
▁friendship	-10.3876
▁trapped	-10.3876
▁vera	-10.3877
▁wallet	-10.3877
▁dating	-10.3878
▁clothing	-10.3878
▁pm	-10.388
▁lean	-10.3881
▁bunker	-10.3881
▁critical	-10.3881
▁deadline	-10.3882
▁badge	-10.3884
▁stoner	-10.3884
▁deaf	-10.3886
▁paris	-10.3888
▁brandy	-10.3889
▁meantime	-10.3897
▁goodnight	-10.39
▁lawn	-10.3904
▁nearly	-10.3914
▁survived	-10.3921
▁carter	-10.3927
▁deeper	-10.3938
▁horny	-10.3941
▁flag	-10.3944
▁counter	-10.3948
▁ay	-10.3952
ile	-10.3954
▁fund	-10.3956
▁port	-10.3959
▁shared	-10.3966
▁texted	-10.3971
▁colored	-10.3975
▁expected	-10.3981
▁or	-10.3985
val	-10.3995
berg	-10.4008
▁homey	-10.4024
▁springs	-10.4038
▁partners	-10.4047
▁stare	-10.405
▁enjoying	-10.4063
▁gum	-10.4091
▁am	-10.4104
▁you	-10.4144
▁mud	-10.4148
▁reporters	-10.4159
gh	-10.4162
▁robe	-10.4166
▁net	-10.4184
▁salt	-10.4188
em	-10.4192
▁pages	-10.4194
▁approach	-10.4197
▁mis	-10.4204
our	-10.423
▁mill	-10.4236
▁touching	-10.4261
▁sat	-10.4296
▁min	-10.4308
den	-10.431
▁victims	-10.4321
▁provide	-10.4328
▁scar	-10.4335
▁jeans	-10.4335
▁anti	-10.4346
▁chicks	-10.435
▁ban	-10.4371
▁eva	-10.4371
▁thin	-10.4372
▁rate	-10.4372
▁creep	-10.443
▁squeal	-10.4432
▁vote	-10.4433
▁clown	-10.4438
▁stones	-10.4438
▁bug	-10.4439
▁muscle	-10.4441
▁persian	-10.4442
▁threat	-10.4442
▁stripper	-10.4445
▁twin	-10.4445
▁opinion	-10.4446
jo	-10.4447
▁spring	-10.4451
▁direction	-10.4451
ber	-10.4466
▁lesson	-10.4468
nie	-10.4469
▁taco	-10.4475
▁rom	-10.4477
uck	-10.4482
za	-10.4491
▁idiots	-10.4494
▁vent	-10.4509
▁patrol	-10.4513
▁likely	-10.4519
▁interrupt	-10.4558
▁aid	-10.4558
▁ignore	-10.4586
▁resist	-10.4593
▁reward	-10.46
▁spoil	-10.4602
▁hits	-10.4602
▁intend	-10.4602
▁spill	-10.4602
▁holes	-10.4605
▁tim	-10.4606
▁pitch	-10.4607
▁dealer	-10.461
▁tub	-10.4611
school	-10.4612
▁curse	-10.4613
▁advise	-10.4614
▁nail	-10.4614
ps	-10.4615
▁garci	-10.4619
▁fift	-10.4622
▁stab	-10.4629
▁makin	-10.4632
▁cure	-10.4633
▁blank	-10.4634
▁anytime	-10.4635
▁bishop	-10.4635
▁compliment	-10.4635
▁eleven	-10.4635
▁false	-10.4635
▁garrison	-10.4635
▁homicide	-10.4635
▁individual	-10.4635
▁jessica	-10.4635
▁jigsaw	-10.4635
▁klaven	-10.4635
▁kuribayashi	-10.4635
▁lobster	-10.4635
▁lydia	-10.4635
▁mardukas	-10.4635
▁martelli	-10.4635
▁mercury	-10.4635
▁messenger	-10.4635
▁mystic	-10.4635
▁policy	-10.4635
▁rachael	-10.4635
▁redneck	-10.4635
▁rifle	-10.4635
▁rookie	-10.4635
▁satellite	-10.4635
▁sobvechik	-10.4635
▁structure	-10.4635
▁wednesday	-10.4635
▁wreck	-10.4635
▁similar	-10.4635
▁automatic	-10.4635
▁skull	-10.4635
▁drake	-10.4635
▁whimpers	-10.4635
▁enforcement	-10.4635
▁uniform	-10.4635
▁vocalizing	-10.4635
▁stammers	-10.4635
▁drummer	-10.4635
▁parlor	-10.4635
▁april	-10.4635
▁sharing	-10.4635
▁nickname	-10.4635
▁whew	-10.4635
▁hahaha	-10.4635
▁jungle	-10.4635
▁texas	-10.4635
▁janice	-10.4635
▁bartender	-10.4635
▁execution	-10.4635
▁hidden	-10.4635
▁titty	-10.4635
▁jury	-10.4635
▁oak	-10.4635
▁deckard	-10.4635
▁charity	-10.4635
▁junior	-10.4636
▁scott	-10.4636
▁authority	-10.4636
▁denise	-10.4636
▁maxine	-10.4636
▁bravo	-10.4636
▁gray	-10.4636
▁tanner	-10.4636
▁supply	-10.4636
▁fence	-10.4637
▁distract	-10.4637
▁cities	-10.4637
▁vouch	-10.4637
▁minor	-10.4638
▁version	-10.4638
▁stabbed	-10.4638
▁quote	-10.464
▁cries	-10.464
▁winning	-10.4641
▁grass	-10.4641
▁crown	-10.4641
▁rise	-10.4641
▁convention	-10.4642
▁forth	-10.4642
▁china	-10.4644
▁golden	-10.4645
▁murmuring	-10.4645
▁tina	-10.4647
▁peoples	-10.4649
▁shaking	-10.4649
▁yella	-10.4649
▁possession	-10.465
▁lifetime	-10.4652
▁stopping	-10.4652
▁bay	-10.4656
▁passes	-10.4658
▁spoken	-10.4658
▁electric	-10.4663
▁carol	-10.4664
▁q	-10.4664
▁approve	-10.4665
▁knowledge	-10.4666
▁pipe	-10.4668
▁boxes	-10.467
▁songs	-10.4673
▁connected	-10.4676
▁reports	-10.4677
▁pinch	-10.4677
▁boner	-10.4681
▁wo	-10.4681
ite	-10.4683
▁parker	-10.4687
▁z	-10.4688
▁dumped	-10.4689
▁bike	-10.4689
▁hiya	-10.4689
▁vi	-10.4704
▁circle	-10.4715
▁gloves	-10.4717
▁nathe	-10.4718
▁accepted	-10.4719
▁howdy	-10.4722
va	-10.4729
▁homeless	-10.473
▁packed	-10.4737
▁loading	-10.4739
▁appears	-10.4747
▁trained	-10.477
▁holidays	-10.4777
▁reported	-10.478
ised	-10.4787
▁grounded	-10.481
▁counting	-10.4818
ver	-10.4828
▁pleased	-10.4831
▁mar	-10.4849
▁she	-10.4881
▁lit	-10.4892
▁covering	-10.4906
▁sins	-10.4914
▁walker	-10.4921
▁goat	-10.4928
ell	-10.4936
▁gu	-10.4939
gu	-10.4954
▁vic	-10.4965
og	-10.4965
ast	-10.4973
▁ur	-10.4973
▁to	-10.4975
▁ver	-10.5
▁phones	-10.5008
▁thinkin	-10.5012
▁chat	-10.5035
ea	-10.5037
ns	-10.504
▁bullets	-10.5052
▁hal	-10.5056
▁falls	-10.5066
▁understanding	-10.5073
▁targets	-10.5082
▁sl	-10.5084
wo	-10.5141
▁wifes	-10.5156
▁caused	-10.5169
▁knee	-10.5181
▁material	-10.5188
▁cases	-10.5189
che	-10.5201
ify	-10.5202
▁dates	-10.5235
▁kit	-10.5236
▁deserves	-10.524
▁int	-10.5243
▁gal	-10.5259
▁gasp	-10.5267
▁nerve	-10.5271
▁sock	-10.5279
▁trunk	-10.5281
▁degree	-10.5287
▁tube	-10.5289
▁gut	-10.5292
▁millions	-10.5293
▁brit	-10.5294
▁print	-10.5295
▁shoe	-10.5296
▁souls	-10.5317
▁movement	-10.5327
▁leader	-10.5327
port	-10.5332
▁cur	-10.5349
▁murderer	-10.5353
▁scrap	-10.5361
▁pe	-10.5384
▁snap	-10.5386
▁scratch	-10.5388
▁bombs	-10.5388
▁fail	-10.5396
▁ti	-10.541
light	-10.5421
▁bleed	-10.5422
▁defeat	-10.5432
▁trigger	-10.5432
wood	-10.5436
▁cancel	-10.5436
▁rot	-10.5438
▁receive	-10.5438
▁of	-10.5441
▁earn	-10.5443
jack	-10.5446
▁jess	-10.5446
pot	-10.5448
▁erase	-10.5448
▁create	-10.5455
▁commission	-10.5457
▁successful	-10.5458
▁examine	-10.5459
▁recent	-10.5459
bra	-10.546
▁grind	-10.5461
▁potato	-10.5463
▁mook	-10.5464
through	-10.5464
ub	-10.5466
▁homosexual	-10.5466
▁disrespect	-10.5467
▁brick	-10.5467
▁slip	-10.5467
▁incident	-10.5467
▁specific	-10.5467
▁poet	-10.5468
▁lalala	-10.5468
▁ethel	-10.5468
▁occur	-10.5468
▁afterwards	-10.5468
▁azamat	-10.5468
▁catherine	-10.5468
▁cecil	-10.5468
▁conference	-10.5468
▁configuration	-10.5468
▁crisis	-10.5468
▁cruise	-10.5468
▁elaine	-10.5468
▁exclaims	-10.5468
▁experiment	-10.5468
▁fellcla	-10.5468
▁furniture	-10.5468
▁gretel	-10.5468
▁grimes	-10.5468
▁humming	-10.5468
▁implosion	-10.5468
▁inspector	-10.5468
▁jericho	-10.5468
▁kennedy	-10.5468
▁lecter	-10.5468
▁lobby	-10.5468
▁mckinley	-10.5468
▁muslim	-10.5468
▁observe	-10.5468
▁olympia	-10.5468
▁orgasm	-10.5468
▁pagoda	-10.5468
▁raglan	-10.5468
▁routine	-10.5468
▁sabrina	-10.5468
▁sheep	-10.5468
▁shepard	-10.5468
▁sixteen	-10.5468
▁soprano	-10.5468
▁stephen	-10.5468
▁symptoms	-10.5468
▁taguchi	-10.5468
▁tragedy	-10.5468
▁voodoo	-10.5468
▁dialogue	-10.5468
▁grandpa	-10.5468
▁balloon	-10.5468
▁chandler	-10.5468
▁baldwin	-10.5468
▁novel	-10.5468
▁robbery	-10.5468
▁grabbed	-10.5468
▁sequence	-10.5468
▁average	-10.5468
▁strapped	-10.5468
▁clever	-10.5468
▁pirate	-10.5468
▁orange	-10.5468
▁border	-10.5468
▁jelly	-10.5468
▁weii	-10.5468
▁snack	-10.5468
▁coincidence	-10.5468
▁grandfather	-10.5468
▁dodge	-10.5468
▁orphanage	-10.5468
▁jenny	-10.5468
▁glory	-10.5468
▁corporation	-10.5468
▁margot	-10.5468
▁backwards	-10.5468
▁donny	-10.5468
▁hicks	-10.5468
▁personnel	-10.5468
▁phoebe	-10.5468
▁rubber	-10.5469
▁british	-10.5469
▁construction	-10.5469
▁genetic	-10.5469
▁subway	-10.5469
▁garage	-10.5469
▁caine	-10.5469
▁university	-10.5469
▁connie	-10.5469
▁childhood	-10.5469
▁avenue	-10.5469
▁vault	-10.5469
▁fortune	-10.5469
▁aight	-10.5469
▁fleet	-10.5469
▁warren	-10.5469
▁edition	-10.5469
▁delay	-10.5469
▁boogie	-10.5469
▁reaction	-10.5469
▁lockwood	-10.547
▁trish	-10.547
▁arabic	-10.547
▁background	-10.547
▁soil	-10.547
▁elton	-10.547
▁urge	-10.547
▁neat	-10.547
▁duck	-10.547
▁jane	-10.547
▁toss	-10.5471
▁kong	-10.5471
▁headache	-10.5471
▁budget	-10.5471
▁culture	-10.5471
▁virginity	-10.5471
▁bonus	-10.5472
▁footage	-10.5472
▁thumping	-10.5473
▁ballet	-10.5474
▁forest	-10.5474
▁alley	-10.5474
▁laughlin	-10.5475
▁charly	-10.5476
▁carried	-10.5477
▁toll	-10.5478
▁peterson	-10.5479
▁cargo	-10.5479
▁nein	-10.548
▁bridget	-10.5481
▁abuse	-10.5485
▁heroes	-10.5485
▁cooper	-10.5488
▁armor	-10.5489
▁haunted	-10.5491
▁ima	-10.5491
▁mutters	-10.5493
▁ere	-10.5496
▁roaring	-10.5497
▁setup	-10.5497
▁dudes	-10.5499
face	-10.5499
▁spin	-10.55
▁charming	-10.5501
▁cu	-10.5501
▁becky	-10.5502
▁supplies	-10.5508
▁troops	-10.5509
▁chimes	-10.5509
▁boobs	-10.5509
ny	-10.5509
▁served	-10.551
▁normally	-10.5514
▁holly	-10.5516
ability	-10.5519
▁confirmed	-10.5522
▁spartans	-10.5542
▁honks	-10.5542
▁br	-10.5542
▁suits	-10.5546
▁talented	-10.5549
gan	-10.5551
▁harris	-10.557
▁hee	-10.558
▁manage	-10.5586
▁shitting	-10.5587
▁jud	-10.5591
▁boo	-10.56
▁cookies	-10.56
▁honored	-10.5604
▁mi	-10.5604
▁packing	-10.5606
▁fades	-10.5606
ina	-10.5607
▁demons	-10.5607
ily	-10.5612
▁rolled	-10.5622
▁landed	-10.5626
▁messed	-10.5646
▁smash	-10.5651
▁jokes	-10.5655
▁landing	-10.566
▁laying	-10.5682
▁pushing	-10.5688
▁wi	-10.569
▁trainer	-10.5694
▁younger	-10.5709
▁fully	-10.5725
▁ny	-10.5728
▁ce	-10.5731
▁needle	-10.5735
▁tears	-10.5742
bl	-10.5744
▁sets	-10.5747
▁fe	-10.5749
▁canadians	-10.5755
ule	-10.5763
▁ja	-10.5778
▁cia	-10.5783
ney	-10.5809
▁scale	-10.5815
▁cleaned	-10.5822
▁bonds	-10.5855
▁disappears	-10.5857
▁negotiate	-10.5864
▁gar	-10.5866
▁kings	-10.5867
▁tables	-10.5869
▁shoulders	-10.5872
▁models	-10.5874
cr	-10.5879
▁passion	-10.5891
national	-10.5897
▁cal	-10.5903
▁boats	-10.5919
▁chi	-10.5932
mar	-10.5936
▁tri	-10.5943
ium	-10.596
▁toy	-10.597
▁fires	-10.5995
▁gates	-10.6008
let	-10.6017
▁husbands	-10.6019
▁ve	-10.6061
▁begins	-10.6077
▁drivers	-10.6103
ka	-10.6124
▁sigh	-10.6133
▁gl	-10.6142
▁musical	-10.617
▁bub	-10.6173
▁kilo	-10.6174
▁affair	-10.6175
▁pattern	-10.6176
ill	-10.6178
▁adult	-10.618
▁tire	-10.6182
▁producer	-10.6184
▁cent	-10.6185
▁document	-10.6187
▁creature	-10.6191
▁rapid	-10.6191
▁slave	-10.6193
erto	-10.6193
▁toward	-10.6197
▁down	-10.6197
▁equal	-10.62
▁burger	-10.6202
▁trees	-10.6217
▁writer	-10.6224
▁lves	-10.6232
▁placed	-10.626
called	-10.6278
con	-10.6282
▁cocks	-10.6283
▁pr	-10.6285
di	-10.6289
ench	-10.6291
▁faces	-10.6298
▁poison	-10.6304
▁hoo	-10.6307
▁embarrass	-10.6308
▁sol	-10.6309
▁organ	-10.6316
▁gran	-10.6316
▁ski	-10.6321
▁complain	-10.6323
▁rag	-10.6325
▁screech	-10.6333
▁float	-10.6338
▁pour	-10.6342
▁heal	-10.6343
▁drain	-10.6343
▁confess	-10.6343
▁adopt	-10.6346
▁twist	-10.6346
▁reveal	-10.6346
q	-10.6348
some	-10.6354
▁actions	-10.6355
▁fuss	-10.6355
star	-10.6358
▁arch	-10.636
▁mic	-10.6362
▁potential	-10.6365
away	-10.6366
▁boot	-10.6368
imately	-10.637
▁julia	-10.6371
▁drag	-10.6374
ak	-10.6374
▁buggin	-10.6374
sistance	-10.6374
▁rooms	-10.6375
▁livin	-10.6375
▁establish	-10.6376
▁announce	-10.6376
▁transport	-10.6376
▁confident	-10.6377
▁cannon	-10.6377
▁dahdah	-10.6377
▁academy	-10.6377
▁argument	-10.6377
▁awkward	-10.6377
▁baxter	-10.6377
▁buzzsaw	-10.6377
▁candice	-10.6377
▁carpenter	-10.6377
▁cease	-10.6377
▁clive	-10.6377
▁dilip	-10.6377
▁dublin	-10.6377
▁entrance	-10.6377
▁eversmann	-10.6377
▁exclaiming	-10.6377
▁glorious	-10.6377
▁grateful	-10.6377
▁grutas	-10.6377
▁horror	-10.6377
▁industry	-10.6377
▁leather	-10.6377
▁monitor	-10.6377
▁mystery	-10.6377
▁nielson	-10.6377
▁orchestra	-10.6377
▁patrice	-10.6377
▁patriot	-10.6377
▁permit	-10.6377
▁possibilities	-10.6377
▁purple	-10.6377
▁raheem	-10.6377
▁skullfucker	-10.6377
▁steady	-10.6377
▁submarine	-10.6377
▁talbot	-10.6377
▁thanksgiving	-10.6377
▁unavailable	-10.6377
▁underwear	-10.6377
▁uplink	-10.6377
▁wouid	-10.6377
▁wyler	-10.6377
▁carveth	-10.6377
▁debt	-10.6377
▁uzi	-10.6377
▁tampon	-10.6377
▁underground	-10.6377
▁azazel	-10.6377
▁gorgo	-10.6377
▁accurate	-10.6377
▁fond	-10.6377
▁hypnoti	-10.6377
▁doodoo	-10.6377
▁dorm	-10.6377
▁arsehole	-10.6377
▁fetch	-10.6377
▁panties	-10.6377
▁michelle	-10.6377
▁medicine	-10.6377
▁obsession	-10.6377
▁forehead	-10.6377
sili	-10.6377
▁lease	-10.6377
▁poker	-10.6377
gawa	-10.6377
▁inaudible	-10.6377
▁organism	-10.6377
▁after	-10.6378
▁institution	-10.6378
▁paperwork	-10.6378
▁political	-10.6378
▁glue	-10.6378
▁massage	-10.6378
▁education	-10.6378
▁temporary	-10.6378
▁evie	-10.6378
▁strangler	-10.6378
▁cuba	-10.6379
▁strictly	-10.6379
▁motor	-10.6379
▁puke	-10.6379
▁bible	-10.6379
▁static	-10.6379
▁exclusive	-10.6379
▁obey	-10.6379
▁moral	-10.6379
▁donation	-10.6379
▁irish	-10.638
▁motion	-10.638
▁drill	-10.638
▁anika	-10.638
▁mayday	-10.6381
▁identity	-10.6381
▁dishes	-10.6381
▁facility	-10.6381
▁bose	-10.6381
▁mustache	-10.6382
▁production	-10.6382
▁collection	-10.6382
▁muttering	-10.6383
▁discussion	-10.6383
▁medal	-10.6383
▁skies	-10.6383
▁ferry	-10.6383
▁beef	-10.6383
▁lifestyle	-10.6384
▁takin	-10.6384
▁launch	-10.6385
▁entertain	-10.6385
▁specialty	-10.6386
▁hugh	-10.6386
▁grill	-10.6388
▁filthy	-10.6392
▁range	-10.6393
▁setting	-10.6393
▁daylight	-10.6394
▁vern	-10.6394
▁emily	-10.6394
▁yale	-10.6397
▁rage	-10.6398
▁mustard	-10.6399
▁mumbles	-10.6401
▁limited	-10.6403
▁humvees	-10.6404
▁politics	-10.6404
▁freezer	-10.6405
▁canceled	-10.6412
▁bounce	-10.6412
▁off	-10.6414
▁eaten	-10.6414
▁whys	-10.6422
▁bully	-10.6423
▁menu	-10.643
▁hike	-10.643
▁blown	-10.6432
▁stillson	-10.6434
▁tada	-10.6436
▁whacked	-10.6439
▁granted	-10.6448
▁hardest	-10.6449
▁recall	-10.6455
▁freaked	-10.6456
▁smaller	-10.6458
▁arty	-10.6459
▁hooked	-10.6463
▁hooker	-10.6463
mp	-10.6466
▁mars	-10.6467
▁beston	-10.6474
▁loaded	-10.6478
▁bothered	-10.6478
▁shithead	-10.6479
▁terrorists	-10.6494
▁smoked	-10.6504
▁considering	-10.6506
bag	-10.6512
▁crossed	-10.6515
▁gags	-10.6518
▁pissing	-10.6544
▁daddys	-10.6546
▁makeup	-10.6554
▁imp	-10.6555
▁stands	-10.656
ger	-10.6569
▁toys	-10.657
▁sucked	-10.6577
▁intrud	-10.659
▁aids	-10.6601
▁shown	-10.661
hole	-10.6619
▁terms	-10.662
▁moans	-10.6621
▁mac	-10.6634
▁tab	-10.6639
▁recorded	-10.6641
▁anyways	-10.6675
uv	-10.6694
▁recording	-10.6701
▁cart	-10.6701
▁booked	-10.6709
▁chances	-10.6716
▁solo	-10.6719
▁op	-10.6725
▁noises	-10.673
ring	-10.6734
▁lovers	-10.674
hi	-10.6754
▁bend	-10.6762
▁workin	-10.6772
▁cleared	-10.6785
ir	-10.6788
▁stra	-10.6793
▁characters	-10.6804
ning	-10.6827
ever	-10.6833
▁par	-10.6844
▁sides	-10.6845
▁triple	-10.6869
▁the	-10.6902
▁is	-10.6946
▁belongs	-10.6956
gen	-10.6974
qu	-10.6981
▁angels	-10.6992
ula	-10.6993
▁tricks	-10.6994
▁gee	-10.7021
▁sp	-10.705
▁bl	-10.7075
▁ni	-10.7085
▁et	-10.7091
▁cra	-10.7093
min	-10.7095
▁thoughts	-10.7097
▁admir	-10.7111
ned	-10.7114
▁charm	-10.7138
ight	-10.7141
ence	-10.7156
▁graduate	-10.7157
▁spa	-10.7161
▁grunt	-10.7165
▁pill	-10.717
▁mexican	-10.7175
▁thumb	-10.7175
▁tune	-10.7177
▁cuts	-10.7179
▁scientist	-10.718
▁breast	-10.7181
▁channel	-10.7182
▁cereal	-10.7182
▁knight	-10.7183
▁riot	-10.7184
▁blade	-10.7187
▁holiday	-10.7193
▁mid	-10.7197
▁slam	-10.7197
▁folk	-10.7198
▁drum	-10.7206
fucking	-10.7223
▁egg	-10.7243
▁colors	-10.7243
▁ri	-10.7256
▁mole	-10.7269
stein	-10.7274
▁bounc	-10.7284
cal	-10.7288
night	-10.729
looking	-10.7305
etic	-10.7306
▁cheat	-10.7307
les	-10.7313
▁bel	-10.7326
▁for	-10.7332
down	-10.7337
▁damned	-10.7338
▁cor	-10.7342
▁retard	-10.7342
▁sn	-10.7343
▁register	-10.7344
▁vanish	-10.7345
▁stall	-10.7345
▁discover	-10.7347
board	-10.7348
▁boil	-10.7352
worth	-10.7352
husband	-10.7354
▁squeeze	-10.7355
▁propose	-10.7355
▁iron	-10.7361
stand	-10.7362
▁africa	-10.7364
▁financial	-10.7366
▁mort	-10.7367
▁colombia	-10.7369
▁negro	-10.7372
▁weigh	-10.7372
▁whoohoo	-10.7374
▁steam	-10.7375
▁guards	-10.7376
▁courage	-10.7376
▁expert	-10.7376
▁andre	-10.7377
misunderstanding	-10.7377
responsibilities	-10.7377
▁amsterdam	-10.7377
▁associate	-10.7377
▁benicio	-10.7377
▁boitano	-10.7377
▁brooklyn	-10.7377
▁buffalo	-10.7377
▁campaign	-10.7377
▁celebrating	-10.7377
▁century	-10.7377
▁complex	-10.7377
▁corrupt	-10.7377
▁daedalus	-10.7377
▁debbie	-10.7377
▁defensive	-10.7377
▁dejesus	-10.7377
▁depressed	-10.7377
▁devon	-10.7377
▁distinct	-10.7377
▁district	-10.7377
▁division	-10.7377
▁dorfler	-10.7377
▁enemies	-10.7377
▁espresso	-10.7377
▁frankenstein	-10.7377
▁fugazy	-10.7377
▁georgie	-10.7377
▁grief	-10.7377
▁infirmary	-10.7377
▁inviting	-10.7377
▁japanese	-10.7377
▁kazakhstan	-10.7377
▁kwame	-10.7377
▁moltisanti	-10.7377
▁moscone	-10.7377
▁mutual	-10.7377
▁naughty	-10.7377
▁opposite	-10.7377
▁orleans	-10.7377
▁phase	-10.7377
▁porsche	-10.7377
▁protocol	-10.7377
▁quarantine	-10.7377
▁revelle	-10.7377
▁schraeder	-10.7377
▁scotch	-10.7377
▁shield	-10.7377
▁sperm	-10.7377
▁suspense	-10.7377
▁teresa	-10.7377
▁wendell	-10.7377
▁woodsboro	-10.7377
▁worries	-10.7377
▁agnes	-10.7377
▁banana	-10.7377
▁niece	-10.7377
▁outlaws	-10.7377
▁sullivan	-10.7377
▁warehouse	-10.7377
▁flour	-10.7377
▁forgotten	-10.7377
▁heather	-10.7377
▁kerry	-10.7377
▁senor	-10.7377
▁thisll	-10.7377
▁yacht	-10.7377
▁flare	-10.7377
▁chirp	-10.7377
▁michigan	-10.7377
▁milano	-10.7377
▁violation	-10.7377
▁inappropriate	-10.7377
▁kidnapping	-10.7377
▁argue	-10.7377
▁injured	-10.7377
▁supermarket	-10.7377
▁fridge	-10.7377
▁transmission	-10.7377
▁imagination	-10.7377
▁snatch	-10.7377
▁bleats	-10.7377
▁repair	-10.7377
▁conduct	-10.7377
▁annette	-10.7377
▁pumpkin	-10.7377
▁benefit	-10.7377
▁flank	-10.7377
▁pilar	-10.7377
▁reverse	-10.7377
▁profit	-10.7377
▁sauce	-10.7377
▁rashid	-10.7378
▁howre	-10.7378
▁shrink	-10.7378
▁motive	-10.7378
▁pimp	-10.7378
▁toad	-10.7378
▁paddle	-10.7378
▁sherman	-10.7378
▁picnic	-10.7378
▁chug	-10.7378
▁doggy	-10.7378
▁limp	-10.7378
▁upside	-10.7378
▁compare	-10.7378
▁destruction	-10.7378
▁jojo	-10.7378
▁parade	-10.7378
▁geez	-10.7378
▁davis	-10.7378
▁sector	-10.7378
▁pluto	-10.7378
▁brief	-10.7378
▁identified	-10.7378
▁surveillance	-10.7378
▁medication	-10.7378
▁bride	-10.7378
▁transportation	-10.7378
▁rice	-10.7379
▁passport	-10.7379
▁beings	-10.7379
▁birack	-10.7379
▁debra	-10.7379
▁pepe	-10.7379
▁conscious	-10.738
▁jj	-10.738
▁sarah	-10.738
▁allah	-10.738
▁bugger	-10.738
▁organic	-10.7381
▁oi	-10.7381
▁ninety	-10.7381
▁bingo	-10.7381
▁bowman	-10.7382
▁strawberry	-10.7382
▁wig	-10.7382
▁shiny	-10.7382
▁negroes	-10.7382
▁strangled	-10.7382
▁plantation	-10.7383
▁label	-10.7383
▁jive	-10.7384
▁spain	-10.7384
▁tess	-10.7384
▁decent	-10.7384
▁sack	-10.7385
▁published	-10.7385
▁gently	-10.7386
▁pile	-10.7387
▁invented	-10.7387
▁math	-10.7387
▁godfather	-10.7387
▁flies	-10.7387
▁tickle	-10.7387
▁maid	-10.7388
▁relative	-10.7388
▁popped	-10.7388
▁replaced	-10.7389
▁cage	-10.739
▁complaint	-10.739
▁ml	-10.7391
▁fry	-10.7392
▁sara	-10.7392
▁sandwiches	-10.7393
▁witnesses	-10.7393
▁threatening	-10.7393
▁jackson	-10.7395
▁weeping	-10.7396
▁superman	-10.7396
▁begging	-10.7396
▁particularly	-10.7397
▁spy	-10.7398
▁sixth	-10.74
▁creepy	-10.7402
▁intimate	-10.7407
▁brutal	-10.7407
▁mmmm	-10.7407
▁bagel	-10.7408
▁pickup	-10.7409
▁dea	-10.7417
▁paulie	-10.7419
▁useless	-10.7421
▁navy	-10.7421
▁lapd	-10.7422
▁standup	-10.7424
▁pops	-10.7424
▁ph	-10.743
▁traditional	-10.7433
▁suite	-10.7436
▁photographer	-10.7437
▁finale	-10.7438
los	-10.7442
▁suggested	-10.7442
▁assure	-10.7446
▁assist	-10.7447
▁released	-10.745
▁mixed	-10.7452
▁badass	-10.7456
▁gotcha	-10.7459
▁ruined	-10.746
▁deserved	-10.7461
▁searched	-10.7466
▁yankees	-10.7467
▁shocked	-10.747
▁brownie	-10.7473
▁chor	-10.7482
▁purchase	-10.7484
▁freaking	-10.7486
▁grenades	-10.7486
▁toes	-10.7493
▁chasing	-10.7493
▁studying	-10.7495
two	-10.7498
▁blessed	-10.7503
▁treating	-10.7506
▁candles	-10.7506
▁evans	-10.7507
▁beans	-10.7507
▁traveler	-10.7514
▁comic	-10.7515
▁tracking	-10.7524
ular	-10.7525
▁feeding	-10.7532
▁mini	-10.7535
▁rd	-10.754
▁returned	-10.7558
ike	-10.7573
▁creatures	-10.7587
▁protecting	-10.7587
▁cents	-10.7587
▁yay	-10.7593
▁leading	-10.7595
▁alis	-10.7598
▁graduat	-10.76
▁enjoyed	-10.7609
▁promises	-10.7626
▁creeps	-10.7628
▁minu	-10.7644
▁funds	-10.7647
▁admire	-10.7648
▁latte	-10.7653
▁diamonds	-10.7668
▁rocket	-10.7671
▁noon	-10.7673
▁sticking	-10.7682
▁indians	-10.7683
▁explaining	-10.7697
▁waiter	-10.7698
▁clouds	-10.7709
shit	-10.7742
▁ace	-10.7747
▁deposit	-10.7752
▁caves	-10.777
od	-10.7788
ou	-10.7788
▁mountains	-10.7791
▁ber	-10.7793
go	-10.7802
▁sniff	-10.7812
▁led	-10.7817
ita	-10.7819
plng	-10.7822
▁broads	-10.7832
▁scores	-10.7834
▁agents	-10.7836
▁images	-10.7853
▁sis	-10.7857
ron	-10.7858
▁teachers	-10.7866
▁messages	-10.7877
▁cally	-10.7882
ppy	-10.7888
▁cher	-10.7891
▁patients	-10.7894
▁files	-10.7917
▁badly	-10.7918
▁criminals	-10.7936
▁fools	-10.7938
▁sm	-10.7952
pin	-10.7954
lf	-10.7978
▁bears	-10.8001
und	-10.8007
▁contracts	-10.804
cc	-10.8051
ena	-10.8051
sam	-10.8057
▁despi	-10.8059
ang	-10.8063
▁col	-10.807
bu	-10.8075
▁pl	-10.8075
gging	-10.8076
lor	-10.8136
ped	-10.8145
ama	-10.8152
cha	-10.8154
▁ari	-10.8158
ker	-10.817
▁terror	-10.8184
ound	-10.8192
▁doze	-10.8199
▁greater	-10.8209
ft	-10.8213
lores	-10.8261
▁comfort	-10.8267
his	-10.827
▁medic	-10.8271
▁mu	-10.8274
▁pointing	-10.828
▁clang	-10.8287
▁marine	-10.8289
▁signature	-10.8292
▁commit	-10.8293
▁chap	-10.8293
▁amateur	-10.8295
▁piranha	-10.8295
▁peanut	-10.8295
▁newspaper	-10.8296
▁lesbian	-10.8298
▁pra	-10.8306
▁william	-10.8306
▁demon	-10.831
▁fade	-10.8317
▁dar	-10.8327
▁coin	-10.8329
ung	-10.8331
▁flower	-10.8334
▁prayer	-10.8335
▁positions	-10.834
▁cel	-10.835
ated	-10.8352
oh	-10.8366
pro	-10.837
inary	-10.8375
load	-10.8414
▁tapp	-10.8427
▁motherfuck	-10.8436
for	-10.8447
▁appro	-10.8451
▁roar	-10.8451
ought	-10.8453
▁recover	-10.8456
▁thrill	-10.8456
▁brush	-10.8456
▁punish	-10.8456
▁limit	-10.8457
▁spray	-10.8457
▁haunt	-10.8457
ward	-10.8459
field	-10.8459
▁shove	-10.8459
holland	-10.8463
beat	-10.8463
▁skate	-10.8463
▁torture	-10.8467
▁frame	-10.8468
▁relate	-10.8468
▁del	-10.8469
▁filth	-10.847
▁apply	-10.847
▁guilt	-10.847
▁coordinate	-10.8473
▁custom	-10.8474
▁constant	-10.8477
▁bryan	-10.8481
▁mast	-10.8482
▁vari	-10.8483
▁mario	-10.8484
▁bla	-10.8484
▁counsel	-10.8485
malcolm	-10.8485
▁runnin	-10.8486
▁clip	-10.8486
▁journal	-10.8486
▁dais	-10.8486
▁films	-10.8486
▁trauma	-10.8488
▁reckon	-10.8488
▁snoop	-10.8488
▁acknowledge	-10.8488
▁alicia	-10.8488
▁atlanta	-10.8488
▁aurora	-10.8488
▁bourbon	-10.8488
▁brandnew	-10.8488
▁bribe	-10.8488
▁canaris	-10.8488
▁cheetah	-10.8488
▁chemical	-10.8488
▁clinic	-10.8488
▁cruisin	-10.8488
▁depressing	-10.8488
▁description	-10.8488
▁disagree	-10.8488
▁easily	-10.8488
▁electronic	-10.8488
▁escort	-10.8488
▁evacuate	-10.8488
▁franchise	-10.8488
▁gordon	-10.8488
▁hilarious	-10.8488
▁hiphop	-10.8488
▁instance	-10.8488
▁joadson	-10.8488
▁kirsten	-10.8488
▁kosher	-10.8488
▁lecture	-10.8488
▁lenore	-10.8488
▁lgbt	-10.8488
▁liquor	-10.8488
▁lunatic	-10.8488
▁maintain	-10.8488
▁marijuana	-10.8488
▁method	-10.8488
▁narcotics	-10.8488
▁oberoi	-10.8488
▁observation	-10.8488
▁phyllis	-10.8488
▁precinct	-10.8488
▁principle	-10.8488
▁reschedule	-10.8488
▁rican	-10.8488
▁sapper	-10.8488
▁scissors	-10.8488
▁selena	-10.8488
▁servant	-10.8488
▁shimizu	-10.8488
▁syndrome	-10.8488
▁temperature	-10.8488
▁torsten	-10.8488
▁underneath	-10.8488
▁wealth	-10.8488
▁coffin	-10.8488
▁dawn	-10.8488
▁region	-10.8488
▁tweet	-10.8488
shoulda	-10.8488
▁ease	-10.8488
▁harsh	-10.8488
▁kryptonite	-10.8488
▁narrow	-10.8488
▁panicked	-10.8488
▁dennis	-10.8488
▁kidnapped	-10.8488
▁mysterious	-10.8488
▁camilla	-10.8488
▁pond	-10.8488
▁sacred	-10.8488
▁nishi	-10.8488
▁surface	-10.8488
▁scumbag	-10.8488
▁tanya	-10.8488
▁untie	-10.8488
▁francisco	-10.8488
▁sorina	-10.8488
▁balance	-10.8488
▁lavash	-10.8488
▁modern	-10.8488
▁mantle	-10.8488
▁wizard	-10.8488
▁basketball	-10.8488
▁mabel	-10.8488
▁behold	-10.8488
▁update	-10.8488
▁mumbling	-10.8488
▁frickin	-10.8488
▁shelf	-10.8488
▁tevin	-10.8488
▁mackey	-10.8488
upper	-10.8489
▁excitement	-10.8489
▁surgery	-10.8489
▁employee	-10.8489
▁babysitter	-10.8489
▁hippie	-10.8489
▁deput	-10.8489
▁pause	-10.8489
▁puppy	-10.8489
▁element	-10.8489
▁roast	-10.8489
▁disappointment	-10.8489
▁shane	-10.8489
▁membership	-10.8489
▁creative	-10.8489
▁haircut	-10.8489
▁species	-10.8489
▁genus	-10.8489
▁psychotic	-10.8489
▁amish	-10.8489
▁laisse	-10.8489
▁blend	-10.8489
▁leak	-10.8489
▁denver	-10.8489
▁library	-10.8489
▁unhappy	-10.8489
▁tiger	-10.849
▁affect	-10.849
▁aggressive	-10.849
▁eagle	-10.849
▁jinx	-10.849
▁morality	-10.849
▁selfish	-10.849
▁aboard	-10.849
▁hatred	-10.849
▁cornish	-10.849
▁newscast	-10.849
▁radiation	-10.849
▁empire	-10.849
▁teasing	-10.849
▁foul	-10.8491
▁spear	-10.8491
▁marathon	-10.8491
▁romeo	-10.8491
▁panel	-10.8491
▁supper	-10.8491
▁column	-10.8491
▁gap	-10.8491
▁fbl	-10.8491
▁fever	-10.8491
▁gypsy	-10.8491
▁tactic	-10.8492
▁acid	-10.8492
▁dna	-10.8492
▁morton	-10.8492
▁objection	-10.8492
▁cuz	-10.8492
▁legend	-10.8492
▁unlock	-10.8492
▁spark	-10.8492
▁speaker	-10.8492
▁exchange	-10.8492
▁pork	-10.8492
▁stream	-10.8493
▁mercy	-10.8493
▁relieve	-10.8493
▁feature	-10.8493
▁rapist	-10.8493
▁pledge	-10.8494
▁brogan	-10.8494
▁nearby	-10.8494
▁consum	-10.8495
▁restraint	-10.8495
cient	-10.8495
▁clap	-10.8495
▁serving	-10.8496
cero	-10.8496
▁link	-10.8496
▁arise	-10.8496
▁motorcycle	-10.8497
▁stack	-10.8497
▁broom	-10.8497
tv	-10.8497
▁tries	-10.8498
▁regard	-10.8498
▁rhythm	-10.8498
▁inner	-10.8498
▁chew	-10.8499
▁infected	-10.8499
▁hush	-10.8501
▁engaged	-10.8501
▁freshman	-10.8502
▁mall	-10.8502
▁palm	-10.8502
▁african	-10.8502
▁coma	-10.8502
▁arranged	-10.8502
▁commissioner	-10.8504
▁receiver	-10.8504
▁assum	-10.8504
▁campus	-10.8504
▁battery	-10.8505
▁haul	-10.8505
▁surrounded	-10.8505
▁bucky	-10.8505
▁currently	-10.8505
▁backyard	-10.8505
▁quid	-10.8508
▁claus	-10.8508
▁properly	-10.8508
▁sickness	-10.8509
▁lala	-10.8511
▁taik	-10.8512
▁dish	-10.8514
▁thee	-10.8516
▁legit	-10.8516
▁horns	-10.8517
▁tender	-10.8517
▁angela	-10.8518
▁physically	-10.8518
▁trailer	-10.8521
▁char	-10.8521
▁payment	-10.8521
▁brakes	-10.8522
▁steroids	-10.8522
▁revealed	-10.8527
▁confessed	-10.8527
▁provided	-10.853
▁shutter	-10.8531
▁bent	-10.8532
▁earned	-10.8532
▁boyz	-10.8535
▁sexually	-10.8537
▁tapping	-10.8537
▁bur	-10.8543
▁forty	-10.8545
▁cuse	-10.8547
▁scaring	-10.8547
ire	-10.8548
▁dem	-10.855
▁loosen	-10.8551
ex	-10.8551
▁toot	-10.8553
lay	-10.8558
▁kindness	-10.8561
▁secured	-10.8566
▁beliefs	-10.8566
▁barks	-10.8569
▁shortly	-10.8569
▁crawling	-10.8569
▁drawing	-10.857
▁pope	-10.8575
▁mag	-10.8576
▁stoney	-10.8579
▁aes	-10.8579
▁carson	-10.858
▁goal	-10.858
▁switched	-10.8585
▁focused	-10.8586
▁runners	-10.8589
▁les	-10.8589
▁posted	-10.8592
▁blamed	-10.8593
▁counts	-10.8595
▁tomas	-10.86
▁washed	-10.8607
▁starve	-10.8607
▁reminded	-10.861
ved	-10.861
▁las	-10.8621
▁camps	-10.8631
▁speeding	-10.8639
▁facts	-10.8641
▁era	-10.8644
▁bothering	-10.8644
▁sticky	-10.865
iii	-10.8655
▁spiders	-10.8656
▁computers	-10.867
▁locker	-10.8676
▁coins	-10.868
▁tests	-10.8698
▁texting	-10.87
ez	-10.8702
led	-10.8705
▁raining	-10.8705
ev	-10.8717
▁tomb	-10.8724
ach	-10.8725
eight	-10.8726
▁por	-10.8729
▁dated	-10.873
▁safely	-10.8735
izing	-10.8736
▁crashing	-10.8738
▁banks	-10.8742
ya	-10.8746
▁trunks	-10.8747
▁prints	-10.8747
▁ham	-10.8759
▁pipes	-10.8766
▁cla	-10.8772
▁lessons	-10.8773
▁peep	-10.8777
▁fishing	-10.8787
▁wax	-10.8807
▁plants	-10.8818
ets	-10.8824
sky	-10.8831
▁products	-10.8839
▁trucks	-10.885
▁mayer	-10.8852
atch	-10.8878
▁options	-10.8885
▁thi	-10.8885
ities	-10.8906
▁remembered	-10.8915
▁lane	-10.8918
▁ai	-10.892
ably	-10.8935
tes	-10.8937
▁prep	-10.8937
▁qui	-10.8944
▁joi	-10.8956
esy	-10.8956
▁sw	-10.8958
▁sniffl	-10.8962
▁prisons	-10.8967
▁bowl	-10.8976
read	-10.8983
▁answered	-10.8996
▁cousins	-10.9001
▁pub	-10.9005
▁henrys	-10.9034
bi	-10.9043
ors	-10.9045
ural	-10.9097
▁gag	-10.9105
▁def	-10.9113
▁claims	-10.9118
▁bangs	-10.9122
▁whi	-10.913
owns	-10.9137
my	-10.9164
▁roles	-10.9166
▁dent	-10.9187
▁jacked	-10.9202
▁chocolates	-10.9239
▁listened	-10.9249
▁scr	-10.9251
zel	-10.9268
▁pos	-10.9284
▁ga	-10.9314
▁nicely	-10.9333
▁fields	-10.9333
arth	-10.9341
▁tut	-10.9345
▁dec	-10.9349
com	-10.9352
▁buck	-10.9363
▁inc	-10.9372
arm	-10.9376
▁til	-10.9392
rated	-10.94
▁ye	-10.9405
ray	-10.941
▁figures	-10.9416
▁it	-10.942
▁bert	-10.9448
▁opera	-10.9451
ture	-10.9466
▁tent	-10.947
over	-10.9489
ingle	-10.9497
▁bats	-10.9502
▁appear	-10.952
▁mel	-10.9522
▁nam	-10.9529
▁sha	-10.9531
▁lip	-10.9534
▁desire	-10.9536
▁react	-10.9541
▁ideal	-10.9541
▁reservation	-10.9542
▁session	-10.9542
▁concept	-10.9542
▁demand	-10.9542
▁result	-10.9545
vin	-10.9547
▁shadow	-10.9548
▁cheek	-10.955
▁source	-10.955
▁spider	-10.9551
lm	-10.9557
▁grows	-10.9558
▁cookie	-10.9568
▁ranger	-10.9572
▁sayin	-10.9583
ology	-10.9585
ied	-10.959
▁cracker	-10.9591
▁bump	-10.9608
▁corners	-10.9608
unk	-10.963
▁we	-10.9637
▁ton	-10.9641
▁buzz	-10.9648
▁studie	-10.9648
▁snor	-10.9655
hand	-10.9669
four	-10.9695
▁imperi	-10.9696
▁steer	-10.9696
▁abu	-10.9696
▁shudder	-10.9698
lock	-10.9699
▁herb	-10.97
book	-10.9701
▁trail	-10.9701
▁profession	-10.9704
▁depart	-10.9704
▁blog	-10.9705
ella	-10.9705
▁abandon	-10.9707
what	-10.9707
▁mouths	-10.9711
heart	-10.9712
▁offers	-10.9713
ants	-10.9714
block	-10.9715
minute	-10.9716
free	-10.9716
piece	-10.9716
▁retire	-10.9717
found	-10.9718
grade	-10.9719
box	-10.9721
▁happi	-10.9725
burg	-10.9726
▁anonymous	-10.9726
▁permanent	-10.9727
▁bunk	-10.9727
▁heii	-10.9732
▁sensation	-10.9732
▁alex	-10.9732
▁boog	-10.9733
▁tomato	-10.9733
▁condo	-10.9735
▁civil	-10.9736
▁champ	-10.9737
▁contain	-10.9737
▁convict	-10.9737
▁choir	-10.9738
▁biscuit	-10.9738
▁razor	-10.9738
▁alternative	-10.9738
▁arizona	-10.9738
▁athenian	-10.9738
▁bachelor	-10.9738
▁bannion	-10.9738
▁bonnet	-10.9738
▁celebrity	-10.9738
▁chisso	-10.9738
▁cleveland	-10.9738
▁clinking	-10.9738
▁cognac	-10.9738
▁concentrate	-10.9738
▁dammit	-10.9738
▁destiny	-10.9738
▁devaney	-10.9738
▁disconnect	-10.9738
▁eclipse	-10.9738
▁encounter	-10.9738
▁enormous	-10.9738
▁evacuation	-10.9738
▁guinea	-10.9738
▁hazmat	-10.9738
▁hobby	-10.9738
▁hoffman	-10.9738
▁hulk	-10.9738
▁intimacy	-10.9738
▁kashani	-10.9738
▁length	-10.9738
▁luxury	-10.9738
▁mamma	-10.9738
▁margarita	-10.9738
▁mccormick	-10.9738
▁montgomery	-10.9738
▁muskavich	-10.9738
▁octopus	-10.9738
▁oscar	-10.9738
▁overreact	-10.9738
▁patrick	-10.9738
▁pervert	-10.9738
▁plague	-10.9738
▁precise	-10.9738
▁pritchard	-10.9738
▁reinforcements	-10.9738
▁religion	-10.9738
▁remote	-10.9738
▁sargnt	-10.9738
▁savannah	-10.9738
▁sniper	-10.9738
▁stadium	-10.9738
▁strategy	-10.9738
▁struecker	-10.9738
▁struggle	-10.9738
▁struggling	-10.9738
▁suspend	-10.9738
▁sylvia	-10.9738
▁technology	-10.9738
▁timothy	-10.9738
▁tokyo	-10.9738
▁twombly	-10.9738
▁valuable	-10.9738
▁windshield	-10.9738
▁wisconsin	-10.9738
▁wright	-10.9738
▁bronx	-10.9738
▁convoy	-10.9738
▁flirt	-10.9738
▁physics	-10.9738
▁pleasant	-10.9738
▁sunshine	-10.9738
▁trafficante	-10.9738
▁unarmed	-10.9738
▁baked	-10.9738
▁chiming	-10.9738
▁entry	-10.9738
▁fingerprints	-10.9738
▁gregory	-10.9738
▁ahmad	-10.9738
▁dorn	-10.9738
▁lucy	-10.9738
▁ounce	-10.9738
▁sasha	-10.9738
▁copper	-10.9738
▁favour	-10.9738
▁gambl	-10.9738
▁skank	-10.9738
▁sunset	-10.9738
▁swamp	-10.9738
▁yelp	-10.9738
▁beloved	-10.9738
▁tropic	-10.9738
▁chuff	-10.9738
▁donald	-10.9738
▁blanc	-10.9738
▁boundaries	-10.9738
▁hayashi	-10.9738
▁shaft	-10.9738
▁benedict	-10.9738
▁generation	-10.9738
▁lemonade	-10.9738
▁executive	-10.9738
▁johan	-10.9738
▁karen	-10.9738
▁addition	-10.9739
▁veins	-10.9739
▁await	-10.9739
▁impact	-10.9739
▁underwater	-10.9739
▁negotiation	-10.9739
▁display	-10.9739
▁esu	-10.9739
▁mush	-10.9739
▁vanilla	-10.9739
▁babysitting	-10.9739
▁rational	-10.9739
▁gracie	-10.9739
▁comedian	-10.9739
▁transferred	-10.9739
▁skeleton	-10.9739
▁hostile	-10.9739
▁initial	-10.9739
▁guide	-10.9739
▁chickenshit	-10.9739
▁stiff	-10.9739
▁documentary	-10.9739
▁buff	-10.9739
▁crank	-10.9739
▁incoming	-10.9739
▁micro	-10.9739
▁japan	-10.9739
▁lalalala	-10.9739
▁countries	-10.9739
▁influence	-10.9739
▁reflection	-10.974
▁deactivated	-10.974
▁motherinlaw	-10.974
▁puff	-10.974
▁anderson	-10.974
▁choke	-10.974
▁engl	-10.974
▁activity	-10.974
▁anxious	-10.974
▁dentist	-10.974
▁independent	-10.974
▁bunny	-10.974
▁entertainment	-10.974
▁chili	-10.974
▁raymond	-10.974
▁argh	-10.974
▁overall	-10.974
▁scholarship	-10.974
▁traitor	-10.974
▁rang	-10.974
▁romance	-10.974
▁rail	-10.974
▁tide	-10.974
▁champion	-10.974
▁reborn	-10.974
▁flaw	-10.9741
▁valley	-10.9741
▁sync	-10.9741
▁liking	-10.9741
▁investigator	-10.9741
▁appetite	-10.9741
▁troll	-10.9741
▁dragged	-10.9741
▁performance	-10.9741
▁theme	-10.9741
▁hotshot	-10.9742
▁blackburn	-10.9742
▁hound	-10.9742
▁thou	-10.9742
▁kris	-10.9742
▁roldy	-10.9742
▁maxim	-10.9742
▁jonah	-10.9742
▁covey	-10.9742
▁tooth	-10.9742
▁barber	-10.9742
▁glen	-10.9742
▁gent	-10.9742
▁tripping	-10.9742
▁aspirin	-10.9742
▁swat	-10.9742
▁perry	-10.9743
▁cafe	-10.9743
▁stepping	-10.9743
▁western	-10.9743
▁internal	-10.9743
▁anyho	-10.9743
▁tracy	-10.9743
▁rainbow	-10.9743
▁notary	-10.9743
▁buzzes	-10.9743
▁inches	-10.9743
▁alter	-10.9744
▁whale	-10.9745
▁assign	-10.9745
▁grid	-10.9745
▁linda	-10.9745
▁lottery	-10.9745
▁potatoes	-10.9746
▁lamp	-10.9746
▁diego	-10.9746
▁elias	-10.9746
▁nwa	-10.9746
▁goofy	-10.9747
▁firewater	-10.9747
▁prom	-10.9747
▁brass	-10.9749
▁committed	-10.9749
▁halfway	-10.9749
▁ahhh	-10.9749
▁investigating	-10.9749
▁mansion	-10.975
▁shovel	-10.975
▁taxes	-10.975
▁bench	-10.975
▁metres	-10.975
▁constantly	-10.9751
▁fuel	-10.9751
▁shushing	-10.9751
▁rear	-10.9752
▁typing	-10.9752
▁homework	-10.9752
▁pole	-10.9752
▁dumbass	-10.9753
▁pulse	-10.9753
▁threatened	-10.9753
▁bam	-10.9753
▁fur	-10.9753
▁hysterical	-10.9755
▁examiner	-10.9755
▁tense	-10.9756
▁nurs	-10.9756
▁squeaking	-10.9757
▁ticking	-10.9757
▁dickhead	-10.9757
▁steals	-10.9757
▁disappointed	-10.9758
▁trem	-10.9758
▁filles	-10.9758
▁beaten	-10.9758
▁inch	-10.9761
▁wicked	-10.9762
▁revving	-10.9762
▁praise	-10.9762
▁der	-10.9762
▁kills	-10.9762
▁flagg	-10.9767
▁emotionally	-10.9767
▁noble	-10.9768
▁nest	-10.9768
▁officially	-10.977
▁fist	-10.977
ado	-10.9771
▁reasonable	-10.9773
▁dl	-10.9774
▁punished	-10.9774
▁thrilled	-10.9774
▁heroin	-10.9775
▁bah	-10.9775
▁raid	-10.9777
▁grits	-10.9777
▁ew	-10.9779
▁sew	-10.978
▁shutting	-10.978
▁perfection	-10.978
▁twisted	-10.9783
▁latest	-10.9784
▁wiped	-10.9785
▁settled	-10.9788
▁amend	-10.9789
▁fee	-10.9791
▁louise	-10.9791
▁impress	-10.9791
▁wanda	-10.9793
▁drowned	-10.9796
▁batter	-10.9798
▁dock	-10.9799
▁circumstances	-10.9802
▁snarls	-10.9802
▁founding	-10.9802
▁mist	-10.9804
▁expectations	-10.9805
▁completed	-10.9809
▁drowning	-10.981
▁delivery	-10.981
▁highest	-10.9816
▁mount	-10.9817
ano	-10.9824
▁tricky	-10.9824
▁introduced	-10.9824
▁dots	-10.9824
▁decades	-10.9828
▁euros	-10.9828
▁coolest	-10.983
▁drawer	-10.9832
▁unh	-10.9834
▁escaped	-10.9847
▁and	-10.9853
▁chambers	-10.9853
▁donuts	-10.9853
▁banged	-10.9859
▁delivered	-10.9861
▁weirdo	-10.9862
▁nicky	-10.9862
▁borrowed	-10.9865
▁treated	-10.9866
▁prey	-10.9867
▁smiled	-10.9868
▁bio	-10.9868
▁modeling	-10.9871
▁paintings	-10.9879
▁disturb	-10.9882
bone	-10.9882
▁translates	-10.9887
▁cracking	-10.989
▁wayne	-10.9892
▁continued	-10.9894
▁billboards	-10.9905
▁marching	-10.9906
▁formal	-10.9913
▁cheeks	-10.993
▁sources	-10.993
▁spreading	-10.9932
ital	-10.9934
▁rangers	-10.9934
well	-10.9939
▁importantly	-10.9946
▁yi	-10.9951
▁marked	-10.9954
▁rank	-10.9957
▁protected	-10.9957
▁prayers	-10.9964
▁tag	-10.9964
ative	-10.9972
ras	-10.9978
▁gil	-10.9987
▁parked	-10.9988
▁slit	-10.9997
▁para	-11.0005
ara	-11.0006
▁rapids	-11.0009
fil	-11.0016
▁acted	-11.0026
kin	-11.0028
▁stealing	-11.0029
▁tubes	-11.0043
▁acts	-11.0045
▁directions	-11.006
▁opinions	-11.006
▁tacos	-11.006
▁hiss	-11.0061
▁twins	-11.0061
▁rebel	-11.007
▁joining	-11.0075
▁hopes	-11.0079
▁locks	-11.0093
▁ward	-11.0107
uz	-11.0111
▁nightmares	-11.0113
▁wondered	-11.013
▁clubs	-11.0135
aw	-11.0143
▁quarters	-11.0145
▁at	-11.0147
▁strings	-11.0166
▁photographs	-11.0167
▁turner	-11.0171
▁cripple	-11.0183
▁secrets	-11.0187
▁plates	-11.0192
▁gunshots	-11.0219
ius	-11.0219
▁diar	-11.0223
▁forms	-11.0223
▁hips	-11.0224
iological	-11.0226
▁sticks	-11.0231
af	-11.0232
hba	-11.024
▁mistakes	-11.0241
▁reed	-11.0245
top	-11.0267
▁doz	-11.0268
▁nebs	-11.0273
agged	-11.0275
▁suckers	-11.0291
lew	-11.0295
▁wounds	-11.0301
▁fame	-11.0303
ong	-11.0307
▁technical	-11.0324
▁booking	-11.033
▁what	-11.0341
ark	-11.036
▁nap	-11.0369
▁meals	-11.0378
▁matthews	-11.038
▁clues	-11.041
ologist	-11.0425
▁sales	-11.0427
▁intern	-11.0436
its	-11.0455
she	-11.0472
▁spirits	-11.0488
▁masters	-11.0491
▁chickens	-11.0512
▁greeks	-11.0516
▁heavens	-11.0516
ries	-11.0525
▁determine	-11.0526
▁breaker	-11.0537
nder	-11.0556
▁peters	-11.0563
▁questioning	-11.0564
mate	-11.0564
avi	-11.0569
▁hose	-11.059
nny	-11.0607
▁ev	-11.0623
▁clo	-11.0659
tara	-11.0663
▁pointed	-11.0681
bel	-11.0682
▁curl	-11.0683
▁beds	-11.0693
▁jan	-11.0723
▁buckle	-11.0732
▁dip	-11.0745
▁toi	-11.0748
ks	-11.0781
nish	-11.0839
▁imitat	-11.086
▁plot	-11.0871
▁hel	-11.0902
▁sail	-11.0922
ler	-11.0934
▁chip	-11.0944
▁cough	-11.0949
▁whisper	-11.0949
▁seek	-11.095
▁bean	-11.0951
▁judgment	-11.0959
▁sailor	-11.0968
▁skill	-11.0968
▁colleague	-11.097
▁harrison	-11.0971
▁suggestion	-11.0972
▁olympic	-11.0974
▁passenger	-11.0974
▁volunteer	-11.0974
▁intention	-11.0974
▁orphan	-11.0975
▁wrist	-11.0976
▁candle	-11.0981
▁billboard	-11.0981
▁harri	-11.0981
▁terrorist	-11.0984
▁survivor	-11.0985
▁showers	-11.0989
▁evan	-11.0998
▁collar	-11.1007
▁marg	-11.101
▁ol	-11.1019
▁here	-11.1028
▁senses	-11.1028
lar	-11.1076
▁terribl	-11.1079
work	-11.1081
▁uni	-11.1087
▁ul	-11.1088
cation	-11.109
▁dancer	-11.1092
▁melt	-11.1094
▁barn	-11.1098
▁poop	-11.111
▁clam	-11.1111
nut	-11.1114
▁offend	-11.1117
ola	-11.1118
▁crunch	-11.1124
▁hammer	-11.1127
▁succeed	-11.1131
▁flood	-11.1132
▁recruit	-11.1133
girl	-11.1133
▁slaughter	-11.1138
class	-11.1138
▁junk	-11.1138
▁bind	-11.1139
covered	-11.114
▁planes	-11.1141
seven	-11.1143
print	-11.1143
born	-11.1144
foot	-11.1144
mona	-11.1146
hunt	-11.1146
▁residenc	-11.1147
fall	-11.115
▁nor	-11.115
stone	-11.115
▁teenage	-11.1153
▁australia	-11.1155
made	-11.1156
fore	-11.1157
▁invest	-11.1157
▁bree	-11.1158
▁stoke	-11.1158
▁function	-11.116
▁detect	-11.1162
ition	-11.1163
▁coloni	-11.1163
▁arab	-11.1163
▁marath	-11.1164
▁prima	-11.1165
▁spook	-11.1165
▁accompli	-11.1166
▁serge	-11.1166
ordinary	-11.1166
▁cigar	-11.1166
▁ackwell	-11.1167
▁advisor	-11.1167
▁airplane	-11.1167
▁algeria	-11.1167
▁alliance	-11.1167
▁amistad	-11.1167
▁amnesia	-11.1167
▁analysis	-11.1167
▁arrival	-11.1167
▁ashtray	-11.1167
▁august	-11.1167
▁bannerman	-11.1167
▁believing	-11.1167
▁benigna	-11.1167
▁blunt	-11.1167
▁bookmark	-11.1167
▁brooks	-11.1167
▁cadillac	-11.1167
▁caitlin	-11.1167
▁carmichael	-11.1167
▁category	-11.1167
▁catholic	-11.1167
▁caxton	-11.1167
▁cheerleader	-11.1167
▁cinque	-11.1167
▁communications	-11.1167
▁concert	-11.1167
▁conspiracy	-11.1167
▁council	-11.1167
▁curiosity	-11.1167
▁cycle	-11.1167
▁database	-11.1167
▁debate	-11.1167
▁dejeune	-11.1167
▁disorder	-11.1167
▁elderly	-11.1167
▁elephant	-11.1167
▁exclalm	-11.1167
▁fascinating	-11.1167
▁finsecker	-11.1167
▁forensic	-11.1167
▁fugitive	-11.1167
▁galentine	-11.1167
▁giraffe	-11.1167
▁heritage	-11.1167
▁immortal	-11.1167
▁intelligent	-11.1167
▁janitor	-11.1167
▁jiang	-11.1167
▁jordan	-11.1167
▁jupiter	-11.1167
▁kempeitai	-11.1167
▁kirsch	-11.1167
▁knives	-11.1167
▁libby	-11.1167
▁luggage	-11.1167
▁luther	-11.1167
▁mafia	-11.1167
▁marwan	-11.1167
▁microwave	-11.1167
▁moscow	-11.1167
▁muhammad	-11.1167
▁namaste	-11.1167
▁ninja	-11.1167
▁october	-11.1167
▁outstanding	-11.1167
▁patience	-11.1167
▁phantom	-11.1167
▁pineapple	-11.1167
▁pizzeria	-11.1167
▁platform	-11.1167
▁poltergeist	-11.1167
▁population	-11.1167
▁raleigh	-11.1167
▁reggae	-11.1167
▁replicant	-11.1167
▁revolution	-11.1167
▁ritual	-11.1167
▁sardine	-11.1167
▁semester	-11.1167
▁smear	-11.1167
▁smother	-11.1167
▁souvenir	-11.1167
▁soviet	-11.1167
▁starstruck	-11.1167
▁stepmother	-11.1167
▁suitcase	-11.1167
▁tambourine	-11.1167
▁taniwha	-11.1167
▁territory	-11.1167
▁trenches	-11.1167
▁tunnei	-11.1167
▁voil	-11.1167
▁volume	-11.1167
▁warfare	-11.1167
▁website	-11.1167
▁welfare	-11.1167
▁wolcott	-11.1167
▁anchor	-11.1167
▁angie	-11.1167
▁bigelow	-11.1167
▁couid	-11.1167
▁disaster	-11.1167
▁griev	-11.1167
▁joshua	-11.1167
▁liquid	-11.1167
▁ninth	-11.1167
▁shrimp	-11.1167
▁terminal	-11.1167
▁buddies	-11.1167
▁collapse	-11.1167
▁convenient	-11.1167
▁disabled	-11.1167
▁dvd	-11.1167
▁erections	-11.1167
▁hirawa	-11.1167
▁manifest	-11.1167
▁slick	-11.1167
▁sprinkle	-11.1167
▁ulcer	-11.1167
▁wagon	-11.1167
▁worm	-11.1167
▁blink	-11.1167
▁lonzo	-11.1167
▁crystal	-11.1167
▁gerry	-11.1167
▁uncuff	-11.1167
▁grip	-11.1167
▁shivering	-11.1167
▁yabe	-11.1167
▁clich	-11.1167
▁mousetrap	-11.1167
▁franklin	-11.1167
▁jukebox	-11.1167
▁luis	-11.1167
▁clerk	-11.1167
▁douglas	-11.1167
▁susie	-11.1167
▁maniac	-11.1167
▁sorrow	-11.1167
▁bracelet	-11.1167
▁alibi	-11.1167
▁bubbles	-11.1167
▁divine	-11.1167
▁nephew	-11.1167
▁dodd	-11.1167
▁wesker	-11.1167
▁competition	-11.1167
▁marcy	-11.1167
▁loneliness	-11.1167
▁deception	-11.1167
▁creek	-11.1167
▁jangl	-11.1167
▁claustrophobic	-11.1167
▁cahill	-11.1167
▁nawal	-11.1167
▁item	-11.1167
▁cramp	-11.1167
▁achieve	-11.1167
▁duties	-11.1167
▁baker	-11.1167
▁reverend	-11.1167
▁injury	-11.1167
▁priority	-11.1167
▁cried	-11.1167
▁freakshow	-11.1167
▁relief	-11.1167
▁ouch	-11.1167
▁interstate	-11.1167
▁prank	-11.1167
▁slack	-11.1167
▁protest	-11.1167
▁etheline	-11.1167
▁mmmmmm	-11.1167
▁booze	-11.1167
▁adorable	-11.1167
▁wiggl	-11.1167
▁dummy	-11.1168
▁polish	-11.1168
▁pursuit	-11.1168
▁groceries	-11.1168
▁quota	-11.1168
▁rico	-11.1168
▁mouse	-11.1168
▁conclusion	-11.1168
▁jewelry	-11.1168
▁triton	-11.1168
▁telescope	-11.1168
▁rosewood	-11.1168
▁butthole	-11.1168
▁necessarily	-11.1168
nanana	-11.1168
▁blowjob	-11.1168
▁beak	-11.1168
▁limo	-11.1168
▁overnight	-11.1168
▁headquarters	-11.1168
▁donor	-11.1168
▁rig	-11.1168
▁wwen	-11.1168
▁foolish	-11.1168
▁with	-11.1169
▁porch	-11.1169
▁halfhour	-11.1169
▁classified	-11.1169
▁clapping	-11.1169
▁announcement	-11.1169
▁unique	-11.1169
▁burst	-11.1169
▁skinny	-11.1169
▁youth	-11.1169
▁cooperation	-11.1169
▁bait	-11.1169
▁lockdown	-11.1169
▁gangster	-11.1169
▁ragged	-11.1169
lsey	-11.1169
▁terrorism	-11.1169
▁development	-11.117
▁brotherhood	-11.117
▁glock	-11.117
▁breed	-11.117
▁stitches	-11.117
▁enterprise	-11.117
▁boise	-11.117
▁stepped	-11.117
▁alike	-11.117
▁minister	-11.117
▁task	-11.117
▁whoops	-11.117
▁cork	-11.1171
▁sunny	-11.1171
▁confirmation	-11.1171
▁tonic	-11.1171
▁lois	-11.1171
▁vow	-11.1171
▁european	-11.1171
▁frisk	-11.1171
▁crispy	-11.1171
▁scent	-11.1171
▁dedicated	-11.1171
▁heartbeat	-11.1171
▁mave	-11.1171
▁mangled	-11.1172
▁angle	-11.1172
▁dj	-11.1172
▁caity	-11.1172
▁raw	-11.1172
▁satisfied	-11.1172
▁refer	-11.1172
▁brew	-11.1172
▁jeanne	-11.1172
▁effective	-11.1172
▁faithful	-11.1172
▁solution	-11.1172
▁tomatoes	-11.1173
▁publicity	-11.1173
▁unload	-11.1173
▁uli	-11.1173
▁korean	-11.1173
▁sensational	-11.1173
▁fulfill	-11.1173
▁fax	-11.1173
▁mature	-11.1173
▁arse	-11.1174
▁dread	-11.1174
▁frightened	-11.1174
▁fried	-11.1175
▁nino	-11.1175
▁firewood	-11.1175
▁bueno	-11.1175
▁controlled	-11.1176
mond	-11.1176
▁tita	-11.1176
▁darn	-11.1176
▁paso	-11.1176
▁tower	-11.1176
▁yoga	-11.1177
▁everyday	-11.1177
▁hype	-11.1177
▁capable	-11.1177
▁wee	-11.1177
▁ciao	-11.1178
▁emil	-11.1178
▁australian	-11.1179
▁silk	-11.1179
otten	-11.1179
▁cuban	-11.1179
▁dug	-11.118
▁privilege	-11.118
▁jock	-11.118
▁nickel	-11.1181
▁define	-11.1181
▁active	-11.1181
▁wheezing	-11.1182
▁shining	-11.1182
▁yaah	-11.1182
▁reject	-11.1183
▁challenger	-11.1183
▁jima	-11.1184
▁expired	-11.1184
▁seventh	-11.1184
▁hut	-11.1184
▁flush	-11.1184
▁grownup	-11.1185
▁todd	-11.1186
▁drawn	-11.1186
▁rode	-11.1186
ylli	-11.1187
▁streaking	-11.1188
▁waters	-11.1189
▁worthless	-11.1189
ustic	-11.119
▁mice	-11.1191
▁server	-11.1191
▁teen	-11.1191
▁moss	-11.1191
▁tech	-11.1191
▁recommendation	-11.1192
▁jar	-11.1192
▁gel	-11.1193
▁related	-11.1193
▁buildings	-11.1195
▁pitt	-11.1197
▁possessed	-11.1199
dog	-11.1199
▁erm	-11.1199
▁bumper	-11.1202
▁rod	-11.1202
▁alexand	-11.1203
▁jilly	-11.1206
▁hotter	-11.1207
▁pooping	-11.1207
▁useful	-11.1208
▁removed	-11.1212
▁regulations	-11.1212
▁recovered	-11.1212
▁wink	-11.1214
▁ture	-11.1214
▁naturally	-11.1215
▁dah	-11.1215
▁okla	-11.1216
▁sharply	-11.1217
▁coon	-11.1217
▁ignor	-11.1217
▁pit	-11.1219
▁ville	-11.1219
▁ringo	-11.1219
▁dusty	-11.1221
▁directly	-11.1221
▁hunger	-11.1221
▁tapped	-11.1222
▁apartments	-11.1224
▁burp	-11.1225
▁hy	-11.1227
▁yah	-11.1228
▁funky	-11.1228
▁burnt	-11.1229
▁pouring	-11.1231
▁poisoning	-11.1231
▁floating	-11.1233
▁mick	-11.1238
▁ricky	-11.1239
day	-11.1239
▁shatters	-11.1241
▁claws	-11.1241
▁requires	-11.1241
▁fuckface	-11.1241
▁goodlooking	-11.1241
▁ruby	-11.1242
▁charts	-11.1242
▁freaky	-11.1243
pol	-11.1244
▁corpse	-11.1245
▁scoot	-11.1249
▁loudly	-11.1253
▁flowing	-11.1256
▁manny	-11.1257
▁licking	-11.126
▁cured	-11.1264
▁tearing	-11.1271
▁beard	-11.1271
▁touches	-11.1275
▁assumed	-11.1279
▁kay	-11.128
▁fears	-11.1284
▁fairly	-11.1286
▁casting	-11.1288
▁au	-11.1295
▁patholog	-11.1295
▁bare	-11.1296
▁proved	-11.1296
▁hus	-11.13
▁charged	-11.1301
▁yank	-11.1306
▁involve	-11.1307
▁fooled	-11.1307
▁requested	-11.1319
▁ditche	-11.132
ttle	-11.1322
▁quicker	-11.1324
▁warriors	-11.1331
▁rumors	-11.1331
▁driven	-11.1338
▁existed	-11.134
▁breaths	-11.1342
▁ull	-11.1344
ins	-11.1346
▁stud	-11.1348
▁standin	-11.1351
▁dd	-11.1352
▁farmer	-11.1353
▁wrists	-11.1361
ew	-11.1362
▁browning	-11.1362
▁pulls	-11.1366
▁fairy	-11.1371
▁content	-11.1372
▁boi	-11.1373
▁nig	-11.138
har	-11.1389
▁shadows	-11.1391
▁studies	-11.1391
rai	-11.1395
▁compromise	-11.1401
▁roller	-11.1402
▁crackers	-11.1402
▁engineer	-11.1405
▁deed	-11.1408
▁wes	-11.1411
▁holl	-11.1419
▁lesbians	-11.1421
▁by	-11.1426
▁rum	-11.1429
▁therese	-11.1431
▁banker	-11.1442
chi	-11.1447
▁drums	-11.1449
▁crossing	-11.1451
▁blades	-11.1451
▁ru	-11.1458
▁blocked	-11.1458
▁pizzas	-11.1461
▁roman	-11.1463
▁counted	-11.1465
▁stations	-11.1466
▁thems	-11.1471
▁documents	-11.1482
▁offering	-11.1495
▁returning	-11.1502
▁burns	-11.1505
▁compassion	-11.1516
▁sakes	-11.1521
▁leaders	-11.153
▁threats	-11.1543
▁nails	-11.1544
▁ken	-11.1545
lam	-11.1556
▁explained	-11.1559
▁thy	-11.1561
▁slices	-11.1574
▁treasures	-11.1574
▁shifts	-11.1575
▁sucking	-11.158
▁ki	-11.1588
ign	-11.1592
ude	-11.1593
▁tools	-11.1605
▁pav	-11.1614
▁ir	-11.1616
▁mon	-11.1616
▁finn	-11.1623
talk	-11.1625
▁effects	-11.1636
▁pic	-11.1655
▁chops	-11.1697
▁magazines	-11.1698
▁wheels	-11.1698
▁tunnels	-11.1698
ata	-11.1701
▁nate	-11.1713
▁minds	-11.1717
▁lone	-11.1717
gram	-11.1732
▁deadly	-11.1733
bound	-11.1741
just	-11.1753
vy	-11.1758
ja	-11.1759
tit	-11.1776
▁cows	-11.1792
▁hid	-11.1797
▁dreamed	-11.18
▁ze	-11.1817
▁elses	-11.182
▁catching	-11.1823
▁guessing	-11.1826
▁whistles	-11.1827
▁wage	-11.1827
▁cas	-11.1834
▁mouthing	-11.185
▁punks	-11.1855
▁masks	-11.1855
ified	-11.1861
▁ge	-11.1868
▁bing	-11.187
ria	-11.1882
aged	-11.1916
tch	-11.1918
cro	-11.194
▁lighting	-11.1966
▁monkeys	-11.1982
▁rec	-11.1982
▁queens	-11.1983
▁behave	-11.2004
▁ju	-11.2008
ose	-11.2014
▁tr	-11.2014
▁clearing	-11.2022
istic	-11.2022
▁fa	-11.2075
gged	-11.2087
how	-11.2089
apped	-11.2092
roll	-11.2094
erra	-11.212
yo	-11.213
maker	-11.2137
▁aco	-11.2138
done	-11.2144
▁cle	-11.2158
bri	-11.2165
ility	-11.2174
ken	-11.2176
▁pockets	-11.2176
▁af	-11.218
position	-11.2195
▁blues	-11.2203
▁vest	-11.2209
▁cats	-11.2214
▁beats	-11.2216
▁lasted	-11.2234
▁premiere	-11.2236
▁translate	-11.2237
▁vice	-11.2271
▁citys	-11.2275
▁whores	-11.2276
▁cho	-11.2276
iy	-11.2304
iber	-11.2305
fit	-11.2338
yle	-11.2348
eta	-11.2348
car	-11.2369
▁experiences	-11.2377
acy	-11.2384
if	-11.2401
ona	-11.2407
eastern	-11.2413
▁tor	-11.2418
mper	-11.2451
▁tan	-11.2464
▁sorts	-11.2469
ello	-11.2477
▁ana	-11.25
vi	-11.2518
self	-11.2545
▁nod	-11.2556
air	-11.2583
▁texts	-11.2586
▁roads	-11.2588
tech	-11.2599
▁clatter	-11.2602
ement	-11.2604
▁arts	-11.2605
bs	-11.2617
ncy	-11.262
▁superior	-11.2631
▁illusion	-11.2632
▁sheet	-11.2633
▁emotion	-11.2635
▁hamburger	-11.2641
▁frog	-11.2642
▁warrior	-11.2643
▁rumor	-11.2647
▁grenade	-11.2647
▁glove	-11.2651
▁civilian	-11.2652
nsion	-11.2661
▁visitor	-11.2667
yl	-11.2674
▁toe	-11.2676
▁inf	-11.2677
▁presents	-11.268
▁smiles	-11.2684
pping	-11.2696
▁sk	-11.2698
gger	-11.2715
cy	-11.2717
▁bu	-11.272
ami	-11.2724
py	-11.273
ration	-11.2735
▁ohhh	-11.2742
▁writ	-11.2745
fuck	-11.2745
▁origin	-11.2747
fish	-11.2749
play	-11.2755
itched	-11.2759
▁drives	-11.276
test	-11.2762
▁ple	-11.2766
dar	-11.2767
▁tons	-11.2768
▁prepar	-11.2777
▁vol	-11.2784
▁highp	-11.2785
▁squawk	-11.2791
▁corps	-11.2795
style	-11.2798
▁wick	-11.2799
▁produce	-11.2805
guard	-11.2808
hem	-11.2809
like	-11.281
bird	-11.281
ghostface	-11.281
yeah	-11.2811
corn	-11.2811
law	-11.2811
mindy	-11.2812
dick	-11.2812
type	-11.2812
▁arrange	-11.2813
▁engage	-11.2813
▁activate	-11.2813
▁greed	-11.2813
phone	-11.2813
▁expire	-11.2813
▁capture	-11.2815
quinn	-11.2816
▁virginia	-11.2818
▁painting	-11.282
▁weave	-11.2821
part	-11.2822
sale	-11.2822
▁restrain	-11.2823
bet	-11.2823
door	-11.2823
▁zoom	-11.2825
front	-11.2829
mhmm	-11.283
▁intimidat	-11.283
▁wel	-11.2831
▁extract	-11.2831
▁sittin	-11.2831
▁cam	-11.2831
▁germ	-11.2831
ties	-11.2832
▁concentrati	-11.2832
▁exhibit	-11.2833
▁slash	-11.2833
▁lemon	-11.2833
▁myth	-11.2833
▁commence	-11.2833
▁enlighten	-11.2833
▁vietnam	-11.2833
▁absurd	-11.2833
▁aggression	-11.2833
▁akiko	-11.2833
▁almighty	-11.2833
▁ammunition	-11.2833
▁analyst	-11.2833
▁anuj	-11.2833
▁architect	-11.2833
▁augsburg	-11.2833
▁bakersfield	-11.2833
▁barbecue	-11.2833
▁becca	-11.2833
▁biltmore	-11.2833
▁brenner	-11.2833
▁calogero	-11.2833
▁canyon	-11.2833
▁celebration	-11.2833
▁celebrities	-11.2833
▁chrissake	-11.2833
▁columbia	-11.2833
▁combination	-11.2833
▁competitive	-11.2833
▁conflict	-11.2833
▁conscience	-11.2833
▁corporal	-11.2833
▁curtains	-11.2833
▁deceased	-11.2833
▁destination	-11.2833
▁devot	-11.2833
▁diligence	-11.2833
▁donovan	-11.2833
▁dynamo	-11.2833
▁exhausted	-11.2833
▁explode	-11.2833
▁feather	-11.2833
▁flemming	-11.2833
▁georgia	-11.2833
▁ghetto	-11.2833
▁gossip	-11.2833
▁halifax	-11.2833
▁heinemann	-11.2833
▁henessey	-11.2833
▁ibabe	-11.2833
▁illinois	-11.2833
▁increase	-11.2833
▁increasing	-11.2833
▁indigenous	-11.2833
▁invitation	-11.2833
▁iraq	-11.2833
▁isolation	-11.2833
▁jennifer	-11.2833
▁karma	-11.2833
▁katherine	-11.2833
▁ketchup	-11.2833
▁kimberly	-11.2833
▁kinkabe	-11.2833
▁leviathan	-11.2833
▁liberty	-11.2833
▁limousine	-11.2833
▁loomis	-11.2833
▁lorenzo	-11.2833
▁luenell	-11.2833
▁malfunction	-11.2833
▁maneuver	-11.2833
▁melody	-11.2833
▁metropoli	-11.2833
▁militia	-11.2833
▁mkay	-11.2833
▁mungo	-11.2833
▁november	-11.2833
▁nowadays	-11.2833
▁nuclear	-11.2833
▁occult	-11.2833
▁oldfashioned	-11.2833
▁oleary	-11.2833
▁pancakes	-11.2833
▁pappa	-11.2833
▁penthouse	-11.2833
▁philadelphia	-11.2833
▁pretzel	-11.2833
▁previous	-11.2833
▁puppet	-11.2833
▁purging	-11.2833
▁qualities	-11.2833
▁raspberry	-11.2833
▁receiving	-11.2833
▁remorse	-11.2833
▁revenge	-11.2833
▁rhodes	-11.2833
▁robocop	-11.2833
▁rumspringa	-11.2833
▁sacrificing	-11.2833
▁sagdiyev	-11.2833
▁savior	-11.2833
▁schoolteacher	-11.2833
▁scientific	-11.2833
▁selwyn	-11.2833
▁serpent	-11.2833
▁sheehy	-11.2833
▁sidney	-11.2833
▁sinatra	-11.2833
▁soccer	-11.2833
▁spakowsky	-11.2833
▁squash	-11.2833
▁stonewall	-11.2833
▁storage	-11.2833
▁striking	-11.2833
▁sunrise	-11.2833
▁surprising	-11.2833
▁therapist	-11.2833
▁thompson	-11.2833
▁tragic	-11.2833
▁travers	-11.2833
▁ulysses	-11.2833
▁underpants	-11.2833
▁unpack	-11.2833
▁vegetarian	-11.2833
▁violin	-11.2833
▁visual	-11.2833
▁vocabulary	-11.2833
▁vogue	-11.2833
▁voicemail	-11.2833
▁vulnerab	-11.2833
▁widow	-11.2833
▁windigo	-11.2833
▁wisdom	-11.2833
▁xander	-11.2833
▁zip	-11.2833
▁aramaic	-11.2833
▁bloom	-11.2833
▁britain	-11.2833
▁dawg	-11.2833
▁gracias	-11.2833
▁hanni	-11.2833
▁mercedes	-11.2833
▁promising	-11.2833
▁randall	-11.2833
▁skirt	-11.2833
▁sliding	-11.2833
▁affirmative	-11.2833
▁certifi	-11.2833
▁combined	-11.2833
▁drape	-11.2833
▁mumbai	-11.2833
▁planko	-11.2833
▁backpack	-11.2833
▁mommies	-11.2833
▁barrel	-11.2833
▁kroy	-11.2833
▁programmed	-11.2833
▁skinnies	-11.2833
▁absent	-11.2833
▁automated	-11.2833
▁cadre	-11.2833
▁hummus	-11.2833
▁shuttle	-11.2833
▁calder	-11.2833
▁promotion	-11.2833
▁basis	-11.2833
▁civilization	-11.2833
▁diarrhea	-11.2833
▁stash	-11.2833
▁heap	-11.2833
▁naomi	-11.2833
▁omelet	-11.2833
▁carpet	-11.2833
▁liberation	-11.2833
▁meteor	-11.2833
▁hector	-11.2833
▁microphone	-11.2834
▁institute	-11.2834
▁application	-11.2834
▁plaza	-11.2834
▁salvation	-11.2834
▁typical	-11.2834
▁lindsay	-11.2834
▁skating	-11.2834
▁whiskey	-11.2834
▁resync	-11.2834
▁vchip	-11.2834
▁hydrant	-11.2834
▁outbreak	-11.2834
▁manaker	-11.2834
▁submissive	-11.2834
▁wives	-11.2834
▁waldman	-11.2834
▁millionaire	-11.2834
▁theft	-11.2834
▁academic	-11.2834
▁jupe	-11.2834
▁franny	-11.2834
▁slang	-11.2834
▁whining	-11.2834
▁chainsaw	-11.2834
▁breeze	-11.2834
▁cinder	-11.2834
▁shanna	-11.2834
▁pistone	-11.2834
▁slipped	-11.2834
▁detonation	-11.2834
▁blake	-11.2834
▁craig	-11.2834
▁england	-11.2834
▁resolution	-11.2834
▁operative	-11.2834
▁definition	-11.2834
▁whwhat	-11.2834
▁orbit	-11.2834
▁article	-11.2834
▁disney	-11.2834
▁assistance	-11.2834
▁sanderson	-11.2834
▁dink	-11.2834
▁reilly	-11.2834
▁abdi	-11.2834
▁suze	-11.2834
▁paui	-11.2835
▁cornell	-11.2835
▁leap	-11.2835
▁pony	-11.2835
▁coffeecake	-11.2835
▁teii	-11.2835
▁luci	-11.2835
▁engagement	-11.2835
▁extraordinary	-11.2835
▁heck	-11.2835
▁unconscious	-11.2835
▁retro	-11.2835
▁apologies	-11.2835
▁contest	-11.2835
▁christopher	-11.2835
▁france	-11.2835
▁retirement	-11.2835
▁organized	-11.2835
▁unintelligibly	-11.2835
▁plum	-11.2835
▁dumpster	-11.2835
▁penny	-11.2835
▁shore	-11.2835
▁dripping	-11.2835
▁cleanse	-11.2836
▁disco	-11.2836
▁durant	-11.2836
▁supervisor	-11.2836
▁collier	-11.2836
▁authentic	-11.2836
▁fraud	-11.2836
▁grandkids	-11.2836
▁farsi	-11.2836
▁ivan	-11.2836
▁draft	-11.2836
▁smuggling	-11.2836
▁stake	-11.2836
▁establishment	-11.2836
▁raul	-11.2836
▁andrew	-11.2836
nshaw	-11.2836
▁huey	-11.2836
▁stockings	-11.2836
▁benny	-11.2836
▁wrapped	-11.2836
▁feast	-11.2836
▁hbo	-11.2836
▁rebound	-11.2837
▁growls	-11.2837
▁creation	-11.2837
▁montes	-11.2837
▁righteous	-11.2837
▁jamaican	-11.2837
▁slapping	-11.2837
▁slavery	-11.2837
▁holster	-11.2837
▁conta	-11.2837
▁detector	-11.2837
▁princeton	-11.2837
▁chaos	-11.2837
▁scout	-11.2837
▁stanley	-11.2837
▁ego	-11.2838
▁ann	-11.2838
▁hoak	-11.2838
▁beatles	-11.2838
▁scum	-11.2838
▁drama	-11.2838
▁jaw	-11.2838
▁santo	-11.2838
▁jessie	-11.2838
▁journalist	-11.2839
▁fuzzy	-11.2839
▁philosophy	-11.2839
▁rolex	-11.2839
▁mainland	-11.2839
▁muthafucka	-11.2839
▁conf	-11.2839
▁hangover	-11.2839
▁immune	-11.2839
▁windsor	-11.2839
▁episode	-11.2839
▁forcefully	-11.284
▁obtain	-11.284
▁baseline	-11.284
▁exam	-11.284
▁surgeon	-11.284
▁info	-11.284
ffle	-11.284
▁convenience	-11.284
minent	-11.284
▁absorb	-11.284
▁amaze	-11.284
▁blah	-11.284
▁atta	-11.284
omin	-11.284
▁charter	-11.284
▁dramatic	-11.2841
▁rayette	-11.2841
▁remarkable	-11.2842
▁pta	-11.2842
▁cutler	-11.2842
▁jammed	-11.2842
▁crooked	-11.2842
▁gem	-11.2843
▁divided	-11.2843
▁required	-11.2843
▁reiner	-11.2843
▁peaceful	-11.2843
eth	-11.2843
▁straighten	-11.2844
gious	-11.2844
▁lyon	-11.2844
▁alcoholic	-11.2845
▁interference	-11.2845
▁agreement	-11.2845
▁cj	-11.2845
▁weaponry	-11.2845
▁july	-11.2845
▁marie	-11.2845
▁deline	-11.2846
▁barton	-11.2846
▁blonde	-11.2847
▁skipper	-11.2847
▁spotted	-11.2847
▁grindr	-11.2847
▁runaway	-11.2847
▁studer	-11.2847
▁loop	-11.2848
▁perish	-11.2848
▁dismissed	-11.2848
▁cling	-11.2848
▁accomplished	-11.2848
▁abra	-11.2848
▁assassin	-11.2849
▁data	-11.2849
▁container	-11.2849
mer	-11.2849
itting	-11.2849
▁mailman	-11.2849
▁ssh	-11.285
▁included	-11.285
▁tow	-11.285
▁unclear	-11.285
▁vu	-11.2851
▁honky	-11.2851
lne	-11.2852
▁continuing	-11.2852
▁elite	-11.2853
▁payoff	-11.2853
▁captured	-11.2854
▁kno	-11.2854
▁factory	-11.2855
▁fran	-11.2856
▁ak	-11.2856
▁haha	-11.2856
▁meanwhile	-11.2857
▁switches	-11.2858
▁tempting	-11.2859
▁executed	-11.2859
▁cabin	-11.286
▁soaked	-11.286
▁matches	-11.2862
▁jude	-11.2862
▁anal	-11.2863
▁cong	-11.2863
▁prayin	-11.2864
▁stroke	-11.2864
▁framed	-11.2865
▁anna	-11.2865
▁straining	-11.2867
▁consideration	-11.2868
▁suppress	-11.2873
▁trains	-11.2873
▁title	-11.2873
▁lighten	-11.2873
▁forgetting	-11.2874
▁originally	-11.2876
▁eighth	-11.2878
ache	-11.2879
▁jen	-11.288
▁designer	-11.2881
▁sor	-11.2883
▁explosives	-11.2887
▁lyrics	-11.2887
▁rhymes	-11.2887
▁inmates	-11.2887
▁resumes	-11.2887
▁savages	-11.2887
▁titties	-11.2887
▁shuddering	-11.2888
▁projector	-11.2889
▁registered	-11.289
▁legally	-11.289
▁offender	-11.2894
▁mustnt	-11.2895
▁swor	-11.2897
east	-11.2899
▁sophie	-11.2902
▁pale	-11.2903
▁cable	-11.2904
▁wat	-11.2905
▁pointless	-11.2905
▁spilled	-11.2908
▁skiing	-11.2912
▁smithy	-11.2912
▁beaches	-11.2915
▁pier	-11.2916
▁janu	-11.2916
▁killian	-11.2917
sein	-11.2917
▁earning	-11.2919
▁oppress	-11.292
▁classes	-11.2922
▁dolphins	-11.2923
▁creaks	-11.2923
▁starin	-11.2924
▁taro	-11.293
▁policeman	-11.2932
▁recognized	-11.2932
▁warned	-11.2932
▁suffered	-11.2932
▁lynne	-11.2933
▁cello	-11.2934
vis	-11.2938
▁humping	-11.294
▁oy	-11.2942
▁sinking	-11.2943
▁checkers	-11.2952
▁pacific	-11.2954
▁dimitri	-11.2955
▁rim	-11.2955
▁cole	-11.2955
▁lack	-11.2955
▁generally	-11.2956
▁chicky	-11.2956
▁auto	-11.2956
▁heights	-11.2958
▁cambers	-11.2958
▁expenses	-11.2958
▁towels	-11.2958
▁crafts	-11.2958
gers	-11.2959
▁extend	-11.2962
▁hoot	-11.2964
▁conditioning	-11.2965
▁transmitt	-11.2965
▁stain	-11.2967
▁creat	-11.2975
▁screamed	-11.2977
▁rais	-11.298
▁factor	-11.2983
▁chassi	-11.2984
▁farting	-11.2985
▁plea	-11.2986
▁stoned	-11.2988
▁cds	-11.2993
▁not	-11.2993
▁prayed	-11.2993
▁dialing	-11.2993
▁nipples	-11.2994
▁il	-11.2997
▁steele	-11.2998
▁discussed	-11.2999
▁entering	-11.3
▁manner	-11.3005
▁belly	-11.3008
▁scan	-11.3012
▁fore	-11.3013
▁fits	-11.302
▁mines	-11.3026
▁frogs	-11.303
▁hamburgers	-11.303
▁emotions	-11.303
▁clatters	-11.3031
▁praying	-11.3034
▁honesty	-11.3046
▁repeated	-11.3047
▁filling	-11.3053
uk	-11.3053
uce	-11.3055
▁safer	-11.306
▁peeing	-11.3061
▁expose	-11.3064
▁oral	-11.3064
▁collars	-11.3065
▁olympics	-11.3066
▁passengers	-11.3066
▁volunteers	-11.3066
▁orphans	-11.3066
▁intentions	-11.3066
▁marrying	-11.3067
▁rely	-11.3068
▁eazye	-11.3078
▁snowing	-11.3082
▁ob	-11.3096
▁handled	-11.3097
▁conversations	-11.3098
▁bumps	-11.3102
▁results	-11.3102
▁lighter	-11.3103
▁sum	-11.3112
▁appreciated	-11.3114
hu	-11.3119
▁eats	-11.3125
▁drinkin	-11.3128
ple	-11.3136
▁newspapers	-11.3139
▁amateurs	-11.3139
▁peanuts	-11.3139
▁piranhas	-11.3139
▁reaching	-11.3139
van	-11.3153
▁amp	-11.3159
▁yorker	-11.3159
▁noons	-11.3161
▁classy	-11.3163
▁massacre	-11.3166
▁calculat	-11.317
▁spl	-11.3185
▁cooking	-11.3189
▁laughed	-11.3196
▁adjust	-11.32
wing	-11.3205
▁kin	-11.3212
▁joined	-11.3215
▁trad	-11.3216
▁videos	-11.3242
▁mari	-11.3248
▁playin	-11.3249
▁gals	-11.3251
cast	-11.3251
▁spo	-11.3266
▁bin	-11.3267
▁chen	-11.327
▁tale	-11.3274
▁closely	-11.3279
▁circles	-11.328
▁logic	-11.3284
▁muscles	-11.3285
▁persians	-11.3285
▁strippers	-11.3287
▁camping	-11.3289
▁scars	-11.329
far	-11.3299
▁frankly	-11.3319
▁emails	-11.3322
▁grandmothers	-11.3322
ust	-11.3331
state	-11.3335
row	-11.3354
illa	-11.3383
▁attacking	-11.3383
more	-11.3384
▁ned	-11.3386
▁sells	-11.3396
▁explosions	-11.3397
▁stalkers	-11.3398
▁kissed	-11.3404
▁awards	-11.3435
▁blindfolds	-11.3435
rate	-11.3441
mes	-11.3443
ride	-11.3452
▁moments	-11.3458
nze	-11.3464
▁premier	-11.3472
▁hoods	-11.3472
▁ipads	-11.3472
▁odds	-11.3472
was	-11.3478
ank	-11.3482
▁fra	-11.3483
▁sleepy	-11.349
ider	-11.3515
▁christy	-11.3518
▁wars	-11.3521
ups	-11.3523
▁mira	-11.3526
▁learning	-11.3533
▁cakes	-11.3548
▁carrie	-11.3548
▁hem	-11.3549
▁scares	-11.3562
show	-11.3564
▁gangs	-11.3584
tal	-11.3588
ooooo	-11.36
▁pri	-11.3607
▁employ	-11.3607
▁tin	-11.3632
otic	-11.3641
ids	-11.3645
▁bolt	-11.3645
▁cub	-11.3657
▁bre	-11.3659
▁jewel	-11.3673
▁nicer	-11.3688
▁mau	-11.3688
ore	-11.3702
ren	-11.371
▁marsha	-11.3718
▁bridges	-11.3733
▁on	-11.3739
▁weights	-11.3741
anna	-11.3789
▁stuffy	-11.38
▁roses	-11.3817
▁waitin	-11.3818
▁moons	-11.3821
▁depend	-11.3837
▁foleys	-11.3857
tz	-11.3864
nded	-11.3873
ean	-11.3898
date	-11.3901
rish	-11.3923
logical	-11.3937
ddy	-11.395
▁determin	-11.3954
lish	-11.3955
▁pubes	-11.3958
▁seasons	-11.3975
▁butts	-11.3982
▁jackets	-11.3983
dom	-11.3995
▁sho	-11.4006
▁hum	-11.4019
▁hotels	-11.403
gate	-11.4032
oli	-11.4039
▁crav	-11.4057
mans	-11.4068
▁itch	-11.4084
▁shipp	-11.4101
▁clu	-11.4106
▁judg	-11.4115
lot	-11.4148
come	-11.4161
▁poo	-11.4163
▁equ	-11.4163
bend	-11.4165
ide	-11.4172
▁humans	-11.4188
▁qu	-11.4202
je	-11.4218
▁floors	-11.4226
lance	-11.4239
▁gab	-11.4258
tile	-11.4291
▁gifts	-11.4298
▁casual	-11.4302
▁swings	-11.4305
▁shooter	-11.4331
▁watcher	-11.4354
▁rog	-11.4391
lly	-11.4409
▁marys	-11.4422
ath	-11.4428
eat	-11.4447
▁ell	-11.4455
▁loyal	-11.4464
▁sevens	-11.4467
▁communi	-11.4473
▁ali	-11.4485
▁inn	-11.4488
ugh	-11.4493
▁rounds	-11.4505
ddle	-11.4534
▁winds	-11.4535
▁digs	-11.4536
loat	-11.4536
▁lite	-11.4558
▁ele	-11.456
pd	-11.4563
▁jap	-11.4595
▁hen	-11.4603
tore	-11.4604
▁honk	-11.4607
gri	-11.4611
blo	-11.4614
omb	-11.4622
▁mums	-11.4624
▁rehearsal	-11.4632
▁arrow	-11.4632
▁easter	-11.4632
▁arrangement	-11.4633
▁cuff	-11.4634
hoe	-11.4635
▁shark	-11.4638
nce	-11.464
▁nipple	-11.4641
▁sample	-11.4642
▁chamber	-11.4645
▁donut	-11.4646
▁yankee	-11.4649
▁mart	-11.4649
▁tit	-11.465
▁mer	-11.4659
▁palmer	-11.4661
▁earl	-11.4668
▁spartan	-11.467
▁disk	-11.467
▁customer	-11.4673
▁runner	-11.4675
anda	-11.4679
▁tre	-11.4679
umpy	-11.4684
ification	-11.4685
press	-11.4686
sma	-11.4686
tery	-11.47
▁bore	-11.4709
itation	-11.4715
coming	-11.4717
▁tradition	-11.4717
▁soak	-11.4718
ari	-11.4745
cent	-11.4756
▁skip	-11.4764
▁pac	-11.4767
▁strain	-11.4779
▁escap	-11.4781
usse	-11.4787
▁unfold	-11.4789
▁iook	-11.4791
▁fold	-11.4791
room	-11.4793
hold	-11.4795
▁cloth	-11.4795
▁caus	-11.4799
▁betray	-11.4799
boat	-11.4799
▁weep	-11.48
▁disappoint	-11.48
▁insult	-11.48
place	-11.48
▁possess	-11.4801
▁surround	-11.4802
▁helpful	-11.4802
▁explore	-11.4803
while	-11.4804
▁spoo	-11.4805
▁revv	-11.4807
plant	-11.4807
three	-11.4808
ofthe	-11.4809
pipe	-11.481
knock	-11.4811
mouth	-11.4811
form	-11.4811
ware	-11.4811
six	-11.4811
wide	-11.4812
▁include	-11.4813
job	-11.4814
▁starr	-11.4816
▁mutt	-11.4817
▁execute	-11.4818
▁kink	-11.4819
▁instant	-11.482
▁corr	-11.482
▁blond	-11.482
bath	-11.482
angel	-11.4821
▁twink	-11.4823
▁nell	-11.4824
▁korea	-11.4824
▁rave	-11.4824
▁toke	-11.4826
▁maze	-11.4827
lab	-11.4827
▁iris	-11.4827
▁alias	-11.4828
▁torch	-11.4829
spect	-11.4829
▁sup	-11.483
▁terrifi	-11.4831
▁attic	-11.4831
▁beginnin	-11.4831
▁puss	-11.4831
▁audit	-11.4831
▁reflect	-11.4831
▁remark	-11.4831
▁verbal	-11.4832
▁consult	-11.4832
▁caution	-11.4833
tricia	-11.4833
where	-11.4833
▁enforc	-11.4833
▁disrupt	-11.4833
▁essential	-11.4833
▁tweak	-11.4833
▁vivid	-11.4833
friggin	-11.4833
▁abernathy	-11.4833
▁accelerat	-11.4833
▁accused	-11.4833
▁allergic	-11.4833
▁allergies	-11.4833
▁annihilator	-11.4833
▁argentina	-11.4833
▁arnold	-11.4833
▁artificial	-11.4833
▁asap	-11.4833
▁association	-11.4833
▁asthma	-11.4833
▁athlete	-11.4833
▁athletic	-11.4833
▁auction	-11.4833
▁austin	-11.4833
▁autopsy	-11.4833
▁azupep	-11.4833
▁balenciaga	-11.4833
▁barricade	-11.4833
▁blizzard	-11.4833
▁bloke	-11.4833
▁borgens	-11.4833
▁brennan	-11.4833
▁brunch	-11.4833
▁bureaucracy	-11.4833
▁candidate	-11.4833
▁cavalry	-11.4833
▁ceremony	-11.4833
▁circus	-11.4833
▁cocksucking	-11.4833
▁coyote	-11.4833
▁crossfire	-11.4833
▁crotch	-11.4833
▁cynical	-11.4833
▁danieiie	-11.4833
▁delicate	-11.4833
▁devastated	-11.4833
▁discharge	-11.4833
▁discount	-11.4833
▁doogie	-11.4833
▁dorky	-11.4833
▁dorothy	-11.4833
▁dumbdumb	-11.4833
▁dungeon	-11.4833
▁dupea	-11.4833
▁dysentery	-11.4833
▁easiest	-11.4833
▁edgar	-11.4833
▁educate	-11.4833
▁einstein	-11.4833
▁essay	-11.4833
▁eternity	-11.4833
▁ethnic	-11.4833
▁eugene	-11.4833
▁exclude	-11.4833
▁exquisite	-11.4833
▁exwife	-11.4833
▁eyewitness	-11.4833
▁frequency	-11.4833
▁freysa	-11.4833
▁fulbright	-11.4833
▁fundraiser	-11.4833
▁gardner	-11.4833
▁giovanni	-11.4833
▁grammy	-11.4833
▁gratitude	-11.4833
▁grease	-11.4833
▁griga	-11.4833
▁gunshofl	-11.4833
▁hanako	-11.4833
▁hebrew	-11.4833
▁heidi	-11.4833
▁horribly	-11.4833
▁hunch	-11.4833
▁identify	-11.4833
▁installed	-11.4833
▁jazeristan	-11.4833
▁jurisdiction	-11.4833
▁kesher	-11.4833
▁maccready	-11.4833
▁macneil	-11.4833
▁maggots	-11.4833
▁mainframe	-11.4833
▁majestic	-11.4833
▁malibu	-11.4833
▁marauder	-11.4833
▁massachusetts	-11.4833
▁mcnamara	-11.4833
▁medivac	-11.4833
▁meurice	-11.4833
▁migraine	-11.4833
▁minimum	-11.4833
▁monsieur	-11.4833
▁mulvaney	-11.4833
▁mutilate	-11.4833
▁necklace	-11.4833
▁nibbles	-11.4833
▁nightclub	-11.4833
▁nonsense	-11.4833
▁obligation	-11.4833
▁oblivio	-11.4833
▁obscur	-11.4833
▁offensive	-11.4833
▁okidoki	-11.4833
▁oklahoma	-11.4833
▁paradise	-11.4833
▁paralyzed	-11.4833
▁pencil	-11.4833
▁pendejo	-11.4833
▁perspective	-11.4833
▁pneumonia	-11.4833
▁prelim	-11.4833
▁premonition	-11.4833
▁principal	-11.4833
▁probiem	-11.4833
▁producing	-11.4833
▁psychopath	-11.4833
▁psychoplasmics	-11.4833
▁reboot	-11.4833
▁rehearse	-11.4833
▁rehearsing	-11.4833
▁rejoice	-11.4833
▁reputation	-11.4833
▁revelation	-11.4833
▁rosenbaum	-11.4833
▁russborough	-11.4833
▁saarne	-11.4833
▁saigo	-11.4833
▁schmuck	-11.4833
▁screwdriver	-11.4833
▁scrotum	-11.4833
▁scully	-11.4833
▁seasick	-11.4833
▁selfdefen	-11.4833
▁seventeen	-11.4833
▁sheldon	-11.4833
▁shelves	-11.4833
▁shrieks	-11.4833
▁somafree	-11.4833
▁sponsor	-11.4833
▁starbucks	-11.4833
▁stateoftheart	-11.4833
▁strahm	-11.4833
▁substance	-11.4833
▁subzero	-11.4833
▁sunglasses	-11.4833
▁tadpole	-11.4833
▁technique	-11.4833
▁tennessee	-11.4833
▁terrifying	-11.4833
▁tolerate	-11.4833
▁tshirt	-11.4833
▁tulyakbay	-11.4833
▁unfair	-11.4833
▁unleash	-11.4833
▁vacuum	-11.4833
▁vengeance	-11.4833
▁villain	-11.4833
▁violet	-11.4833
▁wardrobe	-11.4833
▁whinnies	-11.4833
▁wyoming	-11.4833
▁yankeenineniner	-11.4833
▁yurek	-11.4833
▁zipper	-11.4833
▁zombie	-11.4833
monos	-11.4833
oggy	-11.4833
▁capacity	-11.4833
▁ceiling	-11.4833
▁congress	-11.4833
▁conquer	-11.4833
▁counterfeit	-11.4833
▁deformed	-11.4833
▁dudley	-11.4833
▁farewell	-11.4833
▁frown	-11.4833
▁global	-11.4833
▁juicy	-11.4833
▁leahy	-11.4833
▁marilyn	-11.4833
▁piease	-11.4833
▁protein	-11.4833
▁solving	-11.4833
▁urinal	-11.4833
▁wilderness	-11.4833
▁jeep	-11.4833
▁kanu	-11.4833
▁knickers	-11.4833
▁langley	-11.4833
▁meredith	-11.4833
▁mimic	-11.4833
▁panther	-11.4833
▁piggy	-11.4833
▁somali	-11.4833
▁twitter	-11.4833
▁dominique	-11.4833
▁reihi	-11.4833
▁tyson	-11.4833
▁flint	-11.4833
▁hawk	-11.4833
▁stamp	-11.4833
▁autograph	-11.4833
▁error	-11.4833
▁partygoer	-11.4833
▁stabilize	-11.4833
▁vesper	-11.4833
▁authorities	-11.4833
▁oof	-11.4833
▁pedro	-11.4833
▁suburb	-11.4833
▁babysit	-11.4833
▁barrier	-11.4833
▁directress	-11.4833
▁stewardess	-11.4833
▁coroner	-11.4833
▁foxhole	-11.4833
▁insecure	-11.4833
▁keen	-11.4833
▁offworld	-11.4833
▁drift	-11.4833
▁lnternet	-11.4833
▁onstage	-11.4833
▁occupied	-11.4833
▁prophecy	-11.4833
▁carbon	-11.4833
▁graphic	-11.4833
▁macarthur	-11.4833
▁adachi	-11.4833
▁helmet	-11.4833
▁italy	-11.4833
▁muffins	-11.4833
▁wails	-11.4833
▁struck	-11.4834
▁parole	-11.4834
▁tourists	-11.4834
▁urban	-11.4834
▁thugs	-11.4834
▁visible	-11.4834
▁communicate	-11.4834
▁merger	-11.4834
▁presum	-11.4834
▁thudding	-11.4834
▁bruh	-11.4834
▁onboard	-11.4834
▁braying	-11.4834
▁compartment	-11.4834
▁shakily	-11.4834
▁vague	-11.4834
lux	-11.4834
▁entitled	-11.4834
▁polite	-11.4834
ovich	-11.4834
▁troph	-11.4834
hubby	-11.4834
▁kinney	-11.4834
▁homie	-11.4834
▁joanne	-11.4834
▁strung	-11.4834
▁nitro	-11.4834
▁puzzle	-11.4834
▁webster	-11.4834
▁rodney	-11.4834
▁cloak	-11.4834
▁ribs	-11.4834
▁intercept	-11.4834
▁yoko	-11.4834
appelle	-11.4834
▁delhi	-11.4834
▁behalf	-11.4834
▁bouch	-11.4834
▁password	-11.4834
▁olga	-11.4834
▁expelled	-11.4834
▁trumpet	-11.4834
▁lovebirds	-11.4834
scope	-11.4834
▁upstate	-11.4834
▁thigh	-11.4834
▁inherit	-11.4834
▁pension	-11.4834
▁blanche	-11.4834
▁clipping	-11.4834
▁compound	-11.4834
▁marketplace	-11.4834
▁suspicious	-11.4834
▁trance	-11.4834
▁britney	-11.4834
▁rival	-11.4834
▁neutral	-11.4834
▁nuke	-11.4834
▁patron	-11.4834
▁cautionary	-11.4834
▁swanson	-11.4834
▁utter	-11.4834
▁corpus	-11.4834
▁rodrigo	-11.4834
▁carolina	-11.4834
▁cavit	-11.4834
▁intact	-11.4834
▁upgrade	-11.4834
▁automobile	-11.4834
▁scorch	-11.4834
▁representative	-11.4834
▁quant	-11.4834
▁slipping	-11.4834
▁antique	-11.4834
▁dibs	-11.4834
▁labour	-11.4834
▁google	-11.4834
▁replacement	-11.4834
▁calvin	-11.4834
▁perez	-11.4834
▁geneva	-11.4834
▁veni	-11.4834
▁urns	-11.4835
▁flashlight	-11.4835
▁hungover	-11.4835
▁hyah	-11.4835
▁bandaid	-11.4835
▁injection	-11.4835
▁galway	-11.4835
▁liability	-11.4835
▁boobies	-11.4835
▁elementary	-11.4835
▁legacy	-11.4835
▁riba	-11.4835
▁specifically	-11.4835
▁moose	-11.4835
▁bundle	-11.4835
▁rising	-11.4835
▁inevitable	-11.4835
▁failure	-11.4835
▁tribe	-11.4835
▁polar	-11.4835
▁rash	-11.4835
▁baggage	-11.4835
▁tension	-11.4835
▁whatll	-11.4835
▁karate	-11.4835
▁battlefield	-11.4835
▁ballroom	-11.4835
▁festival	-11.4835
▁inventor	-11.4835
▁hooah	-11.4835
▁patio	-11.4836
▁dunno	-11.4836
▁sidewalk	-11.4836
▁hootch	-11.4836
ittie	-11.4836
▁coleman	-11.4836
▁rehab	-11.4836
▁pussies	-11.4836
▁napkin	-11.4836
▁consciousness	-11.4836
▁implants	-11.4836
▁zap	-11.4836
▁verse	-11.4836
▁personalities	-11.4836
▁gutter	-11.4836
▁satisfy	-11.4836
▁niv	-11.4836
▁atlanti	-11.4836
▁tray	-11.4837
▁grudge	-11.4837
▁salesman	-11.4837
▁viral	-11.4837
▁seize	-11.4837
▁tipped	-11.4837
▁management	-11.4837
▁horseshit	-11.4837
ujo	-11.4837
▁oj	-11.4837
▁stanton	-11.4837
▁tripped	-11.4837
▁deliberately	-11.4837
▁bead	-11.4837
▁branches	-11.4837
▁tich	-11.4837
▁inspired	-11.4837
▁scam	-11.4838
▁keyboard	-11.4838
▁fluid	-11.4838
▁stella	-11.4838
diac	-11.4838
▁batteries	-11.4838
▁objective	-11.4838
▁recipe	-11.4838
▁reference	-11.4838
▁admirable	-11.4838
▁spitting	-11.4838
▁bondage	-11.4838
▁cuddle	-11.4838
▁communist	-11.4838
▁whine	-11.4838
▁graduation	-11.4838
▁trespassing	-11.4838
▁erik	-11.4838
▁flunk	-11.4839
▁irre	-11.4839
▁fork	-11.4839
▁qualified	-11.4839
▁comb	-11.4839
ellow	-11.4839
▁trafficking	-11.4839
▁armour	-11.4839
▁anson	-11.484
▁juliana	-11.484
▁sympathy	-11.484
▁nerd	-11.484
▁cabinet	-11.484
▁airfield	-11.484
▁jac	-11.4841
▁muss	-11.4841
▁abortion	-11.4841
▁clank	-11.4841
▁molly	-11.4841
▁designated	-11.4841
▁basket	-11.4842
▁rack	-11.4842
▁whim	-11.4842
▁gender	-11.4842
▁willy	-11.4842
▁embrace	-11.4842
▁betrayal	-11.4842
orium	-11.4843
▁forgiveness	-11.4843
▁lining	-11.4843
▁flu	-11.4843
▁declin	-11.4843
▁valve	-11.4843
▁markos	-11.4844
ween	-11.4844
▁harmless	-11.4844
▁upsetting	-11.4844
▁strait	-11.4844
▁bj	-11.4845
▁rug	-11.4845
▁isolated	-11.4845
▁pronounced	-11.4845
▁manual	-11.4845
▁tadder	-11.4845
▁facebook	-11.4845
▁aidid	-11.4845
▁evac	-11.4845
▁guardian	-11.4845
▁anus	-11.4847
▁bedtime	-11.4847
▁carmine	-11.4847
▁february	-11.4847
▁duct	-11.4847
▁correction	-11.4848
izer	-11.4848
▁sadness	-11.4849
▁collector	-11.4849
▁balti	-11.4849
▁fitness	-11.4849
▁quitting	-11.4849
▁hometown	-11.485
▁stokely	-11.485
▁ceo	-11.485
▁coverage	-11.485
▁splashing	-11.485
▁masses	-11.4852
▁jeanie	-11.4852
▁pol	-11.4852
▁ahem	-11.4852
azy	-11.4852
▁happily	-11.4852
▁permanently	-11.4852
▁hos	-11.4853
▁sour	-11.4853
estimated	-11.4853
▁harbor	-11.4853
▁ante	-11.4853
▁hustler	-11.4853
▁teenager	-11.4854
▁environmental	-11.4854
▁bir	-11.4855
enne	-11.4855
▁warden	-11.4855
▁viruses	-11.4856
▁polly	-11.4856
▁annoying	-11.4856
▁princess	-11.4856
brid	-11.4857
▁financially	-11.4857
tomic	-11.4858
▁alan	-11.4858
▁activated	-11.4859
killer	-11.4859
▁ofthe	-11.4859
▁losses	-11.486
▁kara	-11.486
▁taser	-11.4861
▁helena	-11.4862
▁bullshitting	-11.4863
▁sadie	-11.4863
▁centre	-11.4863
▁playback	-11.4864
▁kia	-11.4864
▁imply	-11.4864
▁penises	-11.4865
▁residency	-11.4865
▁bushes	-11.4865
▁successfully	-11.4865
▁heroic	-11.4866
▁snorting	-11.4866
▁insulted	-11.4867
▁slightly	-11.4868
▁mentally	-11.4868
▁mina	-11.4868
▁ashes	-11.4868
▁screamin	-11.4868
▁runway	-11.4868
▁sealed	-11.4869
▁sur	-11.4869
▁benz	-11.487
▁syri	-11.4872
▁nearest	-11.4872
▁tortured	-11.4872
▁shipped	-11.4873
▁rever	-11.4874
▁irony	-11.4874
▁garcia	-11.4876
▁exp	-11.4877
▁transmitter	-11.4877
▁lars	-11.4877
▁depending	-11.4878
▁ada	-11.488
▁pager	-11.488
▁pint	-11.488
▁firmly	-11.488
▁porno	-11.488
▁junkie	-11.4881
▁recruited	-11.4882
luc	-11.4883
▁hail	-11.4885
▁erased	-11.4887
▁iim	-11.4887
▁trapp	-11.4888
▁donate	-11.4888
▁holland	-11.4888
▁departed	-11.4889
▁prop	-11.4889
▁appeared	-11.489
▁proven	-11.489
▁bumped	-11.489
▁mandate	-11.489
▁advised	-11.4891
▁rental	-11.4893
▁casing	-11.4893
▁shifty	-11.4893
▁violate	-11.4893
▁crashes	-11.4897
ife	-11.4898
▁copies	-11.49
quie	-11.49
▁refused	-11.49
▁disturbing	-11.49
▁bisexuals	-11.4901
▁refugees	-11.4902
▁retarded	-11.4904
▁measure	-11.4904
▁vibrates	-11.4904
▁cheated	-11.4905
njay	-11.4907
▁poisoned	-11.4912
▁poly	-11.4913
▁jr	-11.4914
▁advanc	-11.4916
▁sniffing	-11.4916
▁seal	-11.4917
▁sos	-11.4917
▁flashy	-11.4918
▁rollin	-11.4918
icated	-11.4918
▁stalling	-11.492
kins	-11.4922
▁hola	-11.4923
▁businessman	-11.4926
▁spoiled	-11.4926
▁topic	-11.4927
▁intended	-11.4927
▁cater	-11.4928
▁meters	-11.4929
mara	-11.4929
aut	-11.4929
▁fussing	-11.4929
▁healing	-11.493
▁corny	-11.4932
▁lew	-11.4936
▁failing	-11.4939
year	-11.494
▁kisses	-11.4943
▁nervously	-11.4944
▁hadas	-11.4944
▁oops	-11.4944
▁warmer	-11.4945
▁occasions	-11.4947
▁nazis	-11.4948
▁resisting	-11.4948
▁homeland	-11.4948
▁importan	-11.4948
anor	-11.495
▁tucked	-11.4956
▁scored	-11.4958
▁planted	-11.4961
▁insisted	-11.4964
▁lowly	-11.4965
▁assaulted	-11.4971
icle	-11.4975
▁risky	-11.4978
▁recommended	-11.4979
▁dialed	-11.4979
▁chilly	-11.498
▁parenting	-11.4988
▁campbells	-11.4989
▁vegetables	-11.4989
▁revs	-11.4998
▁rolls	-11.5
▁fisher	-11.5001
▁flame	-11.5005
▁laver	-11.5005
▁camels	-11.5011
▁cans	-11.5011
martial	-11.5011
▁suggesting	-11.5013
▁experienced	-11.5015
▁fin	-11.5016
▁tanker	-11.5017
▁mod	-11.5019
▁departments	-11.502
▁pad	-11.5021
▁katy	-11.5025
▁begg	-11.5027
eyed	-11.5033
▁samples	-11.5033
▁sharks	-11.5033
▁niner	-11.5034
▁palmers	-11.5037
▁shak	-11.5038
art	-11.5039
▁jd	-11.5047
shot	-11.5047
▁cracked	-11.5048
erald	-11.505
▁rein	-11.5053
▁badger	-11.5056
▁jerking	-11.5056
▁smarter	-11.5057
▁divers	-11.5059
▁peed	-11.5065
take	-11.5067
▁recit	-11.5069
▁switching	-11.507
town	-11.5072
▁belonged	-11.5073
petition	-11.5074
▁discussing	-11.5088
▁tricked	-11.5089
istan	-11.509
▁calmly	-11.5092
▁hangin	-11.5093
ington	-11.5094
▁hunted	-11.5094
▁pretending	-11.5097
▁coaching	-11.5097
▁sweating	-11.51
▁punched	-11.5101
▁ryans	-11.5108
▁surprises	-11.5113
rus	-11.5117
▁directing	-11.5119
paid	-11.512
▁colleagues	-11.5123
izzi	-11.5127
thing	-11.5128
▁pasta	-11.5132
▁orderly	-11.5134
▁warmed	-11.5137
▁dancers	-11.5142
▁digit	-11.5144
▁accepting	-11.5145
▁weekends	-11.5152
▁favors	-11.5153
▁boyfriends	-11.5154
▁accounting	-11.5159
▁payin	-11.516
▁punching	-11.5165
▁coll	-11.5168
▁pressed	-11.5169
▁concepts	-11.5169
▁demands	-11.5169
▁reservations	-11.5169
▁sessions	-11.5169
▁reacts	-11.5169
▁colder	-11.5174
posed	-11.5181
▁blessing	-11.5183
sto	-11.5186
met	-11.5187
▁machines	-11.5198
▁swinging	-11.5198
▁cd	-11.5214
▁signatures	-11.5214
innit	-11.5215
▁spaced	-11.5216
▁wherea	-11.5216
▁differently	-11.5221
▁consol	-11.5223
▁stripp	-11.5241
ford	-11.5253
▁illness	-11.5254
▁blea	-11.5257
▁channels	-11.526
▁knights	-11.526
▁breasts	-11.526
▁cereals	-11.526
▁scientists	-11.526
▁riots	-11.526
▁abo	-11.5262
▁pas	-11.5264
▁wally	-11.5276
▁dose	-11.5278
sex	-11.5286
atory	-11.5287
▁pals	-11.5291
cub	-11.5292
▁mat	-11.5302
▁edit	-11.5303
▁peel	-11.5305
▁adults	-11.5306
▁producers	-11.5307
▁writers	-11.5318
▁indi	-11.532
▁elect	-11.5323
▁watchin	-11.5334
▁filming	-11.5339
▁twi	-11.5342
▁linen	-11.5347
▁vet	-11.5348
▁movements	-11.5352
▁nerves	-11.5352
▁jumping	-11.5356
mission	-11.5358
uh	-11.5361
▁loc	-11.5364
▁blocking	-11.5375
▁murderers	-11.5395
▁clowns	-11.5399
▁bugs	-11.5399
▁ll	-11.5427
▁salts	-11.5427
use	-11.5436
▁pla	-11.545
▁archers	-11.5451
thre	-11.5452
▁lion	-11.5453
bod	-11.5466
▁planets	-11.5488
▁wings	-11.5534
▁magical	-11.5536
▁cowards	-11.554
▁finishing	-11.5542
▁flam	-11.5577
▁killin	-11.5585
▁germans	-11.5587
▁winters	-11.5587
▁farts	-11.5588
zing	-11.5592
▁genes	-11.5592
▁artists	-11.561
pped	-11.5619
▁stro	-11.562
▁stayin	-11.562
▁tutu	-11.5633
▁edges	-11.5635
▁stomachs	-11.5635
▁conditions	-11.5638
▁vam	-11.5639
▁pea	-11.5667
tha	-11.5683
▁subjects	-11.5683
▁winners	-11.5683
▁settles	-11.5685
alte	-11.5694
▁charle	-11.5702
▁participat	-11.5704
▁cre	-11.5725
▁bums	-11.5732
▁manufacture	-11.5769
aka	-11.5776
▁victoria	-11.5776
▁ruf	-11.5778
▁signals	-11.5779
▁arrives	-11.5781
▁marl	-11.5804
▁signing	-11.5812
▁dana	-11.5827
▁clays	-11.5828
▁adams	-11.5828
▁mot	-11.5833
aries	-11.5838
▁rad	-11.5858
▁glo	-11.5874
▁fruits	-11.5877
hill	-11.5882
▁koo	-11.5886
omy	-11.5892
▁undo	-11.5914
▁trou	-11.5918
▁felixs	-11.5926
▁jerks	-11.5931
▁growns	-11.5932
escent	-11.5941
▁bows	-11.5956
▁cabo	-11.5973
▁yum	-11.5974
mine	-11.5975
▁conv	-11.5976
▁dere	-11.5981
▁ito	-11.5994
iff	-11.6001
▁can	-11.6003
▁behav	-11.6006
blets	-11.6023
▁freaks	-11.6037
▁encourage	-11.6038
ille	-11.604
eek	-11.6044
ummy	-11.6045
houn	-11.6062
▁closets	-11.6072
▁vin	-11.6075
▁markets	-11.6078
▁projects	-11.6126
pit	-11.6128
▁callin	-11.613
pt	-11.6144
▁colo	-11.6145
rence	-11.6156
▁hoped	-11.6161
atic	-11.6181
axo	-11.6196
▁merch	-11.6202
▁grades	-11.6222
▁requests	-11.6231
▁stat	-11.6235
umbled	-11.6242
icu	-11.627
▁pilots	-11.6277
▁costs	-11.628
▁gen	-11.6282
plicate	-11.6297
▁resting	-11.6306
▁scal	-11.6324
▁participate	-11.6352
stitution	-11.6358
hea	-11.636
▁scramble	-11.6373
▁risks	-11.6383
▁stores	-11.6383
pie	-11.6391
▁circl	-11.6414
▁ip	-11.6432
▁partying	-11.6448
▁crumb	-11.646
gage	-11.6489
▁bund	-11.6502
▁tracks	-11.6506
▁dribble	-11.6519
▁chairs	-11.6536
▁restaurants	-11.6536
pu	-11.6541
▁resu	-11.6552
cilla	-11.6565
aid	-11.6579
▁rev	-11.6582
▁contacts	-11.6588
rvo	-11.6619
ashi	-11.6629
char	-11.663
fan	-11.6651
ipped	-11.6699
nia	-11.67
▁sled	-11.6715
ety	-11.6725
hopping	-11.6737
rous	-11.6737
▁tro	-11.675
▁loo	-11.6769
ckle	-11.6776
▁defi	-11.6796
▁appoint	-11.6802
▁but	-11.6804
but	-11.6811
rk	-11.6821
▁prov	-11.6828
▁grad	-11.6833
▁capu	-11.6902
▁ave	-11.6924
▁sedat	-11.6945
breaking	-11.7001
▁involv	-11.7016
bert	-11.7016
▁bid	-11.7022
▁reta	-11.7031
▁tam	-11.704
▁precede	-11.7049
▁fer	-11.7055
▁transmit	-11.7075
▁contribut	-11.708
ato	-11.7096
▁predict	-11.7096
▁circuit	-11.7132
▁cocktail	-11.7132
▁economic	-11.7132
▁bucket	-11.7134
▁lave	-11.7134
▁ree	-11.7137
▁vegetable	-11.7137
▁campbell	-11.7139
▁crab	-11.7139
▁expense	-11.7141
▁camber	-11.7141
▁homo	-11.7143
▁towel	-11.7144
▁height	-11.7144
▁scoo	-11.7146
▁euro	-11.7146
▁decade	-11.7146
▁belief	-11.7151
▁craft	-11.7153
tina	-11.7153
▁inhale	-11.7155
eater	-11.7156
▁bark	-11.7179
▁closest	-11.7181
ucla	-11.7184
▁mil	-11.7193
▁pec	-11.7207
▁screamer	-11.7215
wise	-11.7219
wee	-11.7221
▁sophi	-11.7222
▁how	-11.7222
▁lung	-11.7226
▁flop	-11.7232
▁exception	-11.7234
tories	-11.7252
kill	-11.7257
▁verif	-11.7264
▁tick	-11.7268
▁threaten	-11.7269
▁tex	-11.727
▁appli	-11.7273
▁releas	-11.7276
▁reai	-11.7281
fif	-11.7282
father	-11.7282
▁stalk	-11.7288
▁introduc	-11.7289
hood	-11.7291
▁spank	-11.7292
▁tempt	-11.7293
▁streak	-11.7294
▁squeak	-11.7294
▁surf	-11.7294
▁murmur	-11.7295
▁eu	-11.7295
pregna	-11.7295
▁echo	-11.7295
lasting	-11.7296
▁disgust	-11.7296
▁swell	-11.7297
▁pag	-11.73
yearold	-11.7301
burn	-11.7303
▁attach	-11.7304
five	-11.7306
▁vibrat	-11.7307
nick	-11.7308
lookin	-11.7308
partial	-11.7308
privilege	-11.7309
regard	-11.731
launch	-11.731
laughlin	-11.731
point	-11.731
dollar	-11.731
storm	-11.731
virgin	-11.731
ole	-11.7311
breath	-11.7311
duty	-11.7311
child	-11.7311
horse	-11.7311
▁apolog	-11.7311
perfect	-11.7311
married	-11.7311
second	-11.7311
course	-11.7311
food	-11.7311
chuckles	-11.7311
▁reserve	-11.7311
issue	-11.7311
think	-11.7312
half	-11.7312
stock	-11.7312
teeth	-11.7313
plate	-11.7313
american	-11.7313
road	-11.7314
bury	-11.7314
▁excite	-11.7315
berry	-11.7316
▁goof	-11.7316
weight	-11.7317
▁invad	-11.7317
nail	-11.7318
▁squirt	-11.7319
▁raf	-11.7319
hour	-11.732
hine	-11.732
beth	-11.732
▁intens	-11.7321
▁replace	-11.7322
▁numb	-11.7323
▁absolute	-11.7323
▁courageous	-11.7323
▁aspir	-11.7324
▁prosecut	-11.7326
oodle	-11.7326
▁jog	-11.7327
▁beau	-11.7327
▁delusion	-11.7327
▁stitch	-11.7328
▁org	-11.7329
▁cleav	-11.7329
▁exhal	-11.7329
▁trait	-11.7329
believable	-11.7329
▁unlike	-11.7329
▁branch	-11.7329
▁shaw	-11.7329
▁symbol	-11.7329
player	-11.733
▁spec	-11.733
▁beautif	-11.733
▁gif	-11.733
▁darlin	-11.7331
▁construct	-11.7331
lash	-11.7331
▁puttin	-11.7332
▁jun	-11.7332
wind	-11.7332
levant	-11.7332
▁destruct	-11.7332
scrib	-11.7333
▁cult	-11.7333
▁scholar	-11.7333
▁breach	-11.7333
▁vocal	-11.7333
▁iove	-11.7333
▁worship	-11.7333
▁stereo	-11.7333
▁concuss	-11.7333
▁hazard	-11.7333
nostromo	-11.7333
▁accommodate	-11.7333
▁activities	-11.7333
▁administrati	-11.7333
▁advising	-11.7333
▁alternate	-11.7333
▁amarillo	-11.7333
▁ambassador	-11.7333
▁amigo	-11.7333
▁analyze	-11.7333
▁annual	-11.7333
▁antarctica	-11.7333
▁anticipate	-11.7333
▁apocalyp	-11.7333
▁artaphernes	-11.7333
▁astrophysics	-11.7333
▁authorization	-11.7333
▁avocado	-11.7333
▁battalion	-11.7333
▁baywatch	-11.7333
▁bellevue	-11.7333
▁beneath	-11.7333
▁benjamin	-11.7333
▁berenson	-11.7333
▁bernard	-11.7333
▁berserk	-11.7333
▁berynium	-11.7333
▁bicycle	-11.7333
▁binoculars	-11.7333
▁blackmail	-11.7333
▁bluffing	-11.7333
▁boddicker	-11.7333
▁brazil	-11.7333
▁briefcase	-11.7333
▁brittany	-11.7333
▁broflovski	-11.7333
▁cabbage	-11.7333
▁centimeter	-11.7333
▁chameleon	-11.7333
▁channing	-11.7333
▁chariot	-11.7333
▁chump	-11.7333
▁circumcised	-11.7333
▁circumstantial	-11.7333
▁companies	-11.7333
▁condemn	-11.7333
▁congratulate	-11.7333
▁consistency	-11.7333
▁convincing	-11.7333
▁corridor	-11.7333
▁crowbar	-11.7333
▁demerius	-11.7333
▁deranged	-11.7333
▁derogatory	-11.7333
▁descend	-11.7333
▁destined	-11.7333
▁dictionary	-11.7333
▁dildo	-11.7333
▁disadvantage	-11.7333
▁discreet	-11.7333
▁disgrace	-11.7333
▁dismantl	-11.7333
▁dispens	-11.7333
▁distress	-11.7333
▁ditomasso	-11.7333
▁dixie	-11.7333
▁dominatrix	-11.7333
▁dynami	-11.7333
▁economy	-11.7333
▁emperor	-11.7333
▁emphasi	-11.7333
▁entrust	-11.7333
▁errands	-11.7333
▁examination	-11.7333
▁experiencing	-11.7333
▁exploring	-11.7333
▁eyebrow	-11.7333
▁fractured	-11.7333
▁fragile	-11.7333
▁fresno	-11.7333
▁freud	-11.7333
▁gabriel	-11.7333
▁garlic	-11.7333
▁gauge	-11.7333
▁genuine	-11.7333
▁giuseppina	-11.7333
▁glasgow	-11.7333
▁gordetsky	-11.7333
▁greyhound	-11.7333
▁guilford	-11.7333
▁hannah	-11.7333
▁harassment	-11.7333
▁harlem	-11.7333
▁harrell	-11.7333
▁hawlwadig	-11.7333
▁heavier	-11.7333
▁hendricksson	-11.7333
▁heterosexual	-11.7333
▁impulse	-11.7333
▁indefinitely	-11.7333
▁infrared	-11.7333
▁initiate	-11.7333
▁inspection	-11.7333
▁integr	-11.7333
▁invalid	-11.7333
▁invasion	-11.7333
▁japonaise	-11.7333
▁kaufman	-11.7333
▁kenosha	-11.7333
▁kevlar	-11.7333
▁knucklehead	-11.7333
▁landscape	-11.7333
▁lauderdale	-11.7333
▁literature	-11.7333
▁lloyd	-11.7333
▁ludmilla	-11.7333
▁majesty	-11.7333
▁malmsteen	-11.7333
▁mammy	-11.7333
▁mcgarrick	-11.7333
▁mcknight	-11.7333
▁meddows	-11.7333
▁memorial	-11.7333
▁misconduct	-11.7333
▁misunderstood	-11.7333
▁mitzvah	-11.7333
▁monroe	-11.7333
▁montana	-11.7333
▁mordecai	-11.7333
▁mormon	-11.7333
▁morris	-11.7333
▁motivation	-11.7333
▁mullins	-11.7333
▁mussolini	-11.7333
▁neigh	-11.7333
▁nevada	-11.7333
▁nightgown	-11.7333
▁notorious	-11.7333
▁okeydokey	-11.7333
▁oksana	-11.7333
▁oracle	-11.7333
▁outrun	-11.7333
▁outsmart	-11.7333
▁overwhelmed	-11.7333
▁overwhelming	-11.7333
▁pajama	-11.7333
▁pasadena	-11.7333
▁pennsylvania	-11.7333
▁philanthropist	-11.7333
▁physicist	-11.7333
▁proportion	-11.7333
▁proximity	-11.7333
▁rabies	-11.7333
▁racetrack	-11.7333
▁reckless	-11.7333
▁relations	-11.7333
▁reliable	-11.7333
▁resource	-11.7333
▁roosevelt	-11.7333
▁sabbath	-11.7333
▁sacramento	-11.7333
▁scotland	-11.7333
▁seizure	-11.7333
▁sentimental	-11.7333
▁shamiana	-11.7333
▁shouid	-11.7333
▁shrieking	-11.7333
▁significance	-11.7333
▁slauson	-11.7333
▁slippery	-11.7333
▁slurring	-11.7333
▁spectacular	-11.7333
▁spencer	-11.7333
▁supreme	-11.7333
▁survey	-11.7333
▁suzie	-11.7333
▁swedish	-11.7333
▁swirl	-11.7333
▁taggart	-11.7333
▁tattoo	-11.7333
▁thieves	-11.7333
▁thornton	-11.7333
▁thorough	-11.7333
▁throuple	-11.7333
▁ticktock	-11.7333
▁toucan	-11.7333
▁treacherous	-11.7333
▁trembling	-11.7333
▁trioceanic	-11.7333
▁tuxedo	-11.7333
▁tyree	-11.7333
▁unemployed	-11.7333
▁unfinished	-11.7333
▁unpatriotic	-11.7333
▁unpleasant	-11.7333
▁uptight	-11.7333
▁valentine	-11.7333
▁verdegast	-11.7333
▁veronica	-11.7333
▁vicinity	-11.7333
▁volleyball	-11.7333
▁wanjidon	-11.7333
▁welove	-11.7333
▁whatnot	-11.7333
▁wheelchair	-11.7333
▁whereabouts	-11.7333
▁wolves	-11.7333
▁wrath	-11.7333
▁wrestl	-11.7333
▁yorkshire	-11.7333
▁beneficial	-11.7333
▁bikini	-11.7333
▁brooke	-11.7333
▁diagnos	-11.7333
▁fourteen	-11.7333
▁godawful	-11.7333
▁grove	-11.7333
▁hardcore	-11.7333
▁havana	-11.7333
▁ireland	-11.7333
▁jeopardi	-11.7333
▁jomon	-11.7333
▁kemp	-11.7333
▁lindsey	-11.7333
▁lndian	-11.7333
▁maddox	-11.7333
▁piace	-11.7333
▁plumbing	-11.7333
▁politicians	-11.7333
▁sarcas	-11.7333
▁senate	-11.7333
▁severe	-11.7333
▁skeptic	-11.7333
▁slesers	-11.7333
▁slob	-11.7333
▁smarly	-11.7333
▁soames	-11.7333
▁stoop	-11.7333
▁taiaha	-11.7333
▁tannoy	-11.7333
▁tyler	-11.7333
rteen	-11.7333
▁ahooh	-11.7333
▁apc	-11.7333
▁arbor	-11.7333
▁coupon	-11.7333
▁eager	-11.7333
▁ecsta	-11.7333
▁endanger	-11.7333
▁globe	-11.7333
▁hiccup	-11.7333
▁orrin	-11.7333
▁parasite	-11.7333
▁pfc	-11.7333
▁pleurera	-11.7333
▁rpg	-11.7333
▁salute	-11.7333
▁sensor	-11.7333
▁tranquilizer	-11.7333
▁estonia	-11.7333
▁licence	-11.7333
▁oven	-11.7333
▁pelle	-11.7333
▁scheme	-11.7333
▁cissy	-11.7333
▁goggles	-11.7333
▁imagining	-11.7333
▁justin	-11.7333
▁khan	-11.7333
▁okubo	-11.7333
hyperventilating	-11.7333
▁bacteria	-11.7333
▁bandana	-11.7333
▁capri	-11.7333
▁fierce	-11.7333
▁forcing	-11.7333
▁hanley	-11.7333
▁herpes	-11.7333
▁lantern	-11.7333
▁unreal	-11.7333
▁yikes	-11.7333
▁tomica	-11.7333
▁whatsoever	-11.7333
▁whooshing	-11.7333
▁colonists	-11.7333
▁democracy	-11.7333
▁geometr	-11.7333
▁everett	-11.7333
▁heip	-11.7333
▁ficus	-11.7333
▁smelt	-11.7333
▁stomp	-11.7333
▁blouse	-11.7333
▁movin	-11.7333
▁abnormal	-11.7333
▁beams	-11.7333
▁speculat	-11.7333
▁glamorous	-11.7333
▁whirl	-11.7333
▁willful	-11.7333
▁consent	-11.7333
▁baltimore	-11.7333
▁fireworks	-11.7333
parallel	-11.7333
▁holabird	-11.7333
▁oneonone	-11.7333
▁persua	-11.7334
▁yawn	-11.7334
▁doorbal	-11.7334
▁taime	-11.7334
▁convert	-11.7334
▁fyi	-11.7334
▁nassar	-11.7334
mphatic	-11.7334
▁eighteen	-11.7334
sible	-11.7334
▁bald	-11.7334
emia	-11.7334
▁insert	-11.7334
▁bodybuilders	-11.7334
▁flattered	-11.7334
▁pearls	-11.7334
▁prognosis	-11.7334
▁prompt	-11.7334
▁winston	-11.7334
▁cubits	-11.7334
dahdahdahdah	-11.7334
▁hinges	-11.7334
▁default	-11.7334
▁kkk	-11.7334
▁lush	-11.7334
▁colony	-11.7334
▁dietrich	-11.7334
▁kidneys	-11.7334
▁decaf	-11.7334
▁frustration	-11.7334
▁platter	-11.7334
▁bruce	-11.7334
▁editorial	-11.7334
▁superset	-11.7334
▁underestimated	-11.7334
▁apologise	-11.7334
▁theatr	-11.7334
▁industrial	-11.7334
▁rocco	-11.7334
▁queso	-11.7334
▁riddle	-11.7334
▁chocolatier	-11.7334
▁plumber	-11.7334
▁tango	-11.7334
▁pulsing	-11.7334
▁liane	-11.7334
▁extension	-11.7334
▁abroad	-11.7334
▁psst	-11.7334
▁dye	-11.7334
▁houston	-11.7334
▁temper	-11.7334
▁timmy	-11.7334
setti	-11.7334
▁portray	-11.7334
▁scanner	-11.7334
▁burden	-11.7334
▁toolbox	-11.7334
▁fangs	-11.7334
▁gilligan	-11.7334
▁wilson	-11.7334
▁xbox	-11.7334
▁tsk	-11.7334
▁boardwalk	-11.7334
▁lowlife	-11.7334
▁sissy	-11.7334
▁surro	-11.7334
▁styl	-11.7334
savet	-11.7334
▁expend	-11.7334
▁accomplishment	-11.7334
▁finland	-11.7334
▁envy	-11.7334
▁cheeseburger	-11.7334
▁excessive	-11.7334
▁syd	-11.7334
▁backseat	-11.7334
▁interrogation	-11.7334
▁faking	-11.7334
▁outdoor	-11.7334
▁thethe	-11.7334
▁motto	-11.7334
▁racket	-11.7334
▁gangsta	-11.7334
▁nadia	-11.7335
▁welsh	-11.7335
▁consultant	-11.7335
▁shortcut	-11.7335
▁alabama	-11.7335
▁regroup	-11.7335
▁offside	-11.7335
▁prophe	-11.7335
▁hazy	-11.7335
▁playground	-11.7335
▁trend	-11.7335
schers	-11.7335
▁psychologist	-11.7335
▁spinning	-11.7335
▁frail	-11.7335
▁discipline	-11.7335
▁vicki	-11.7335
outof	-11.7335
rich	-11.7335
▁decipher	-11.7335
▁rumble	-11.7335
▁software	-11.7335
artar	-11.7335
▁gretta	-11.7335
▁selfmade	-11.7335
▁infection	-11.7335
▁selection	-11.7335
▁feminist	-11.7335
▁posse	-11.7335
▁neuro	-11.7335
▁heke	-11.7335
▁aquar	-11.7335
▁blaze	-11.7335
▁bandari	-11.7335
▁disarm	-11.7335
▁regain	-11.7335
▁removing	-11.7335
▁whyg	-11.7335
▁kiloton	-11.7336
▁commencement	-11.7336
▁urine	-11.7336
▁mutation	-11.7336
▁twat	-11.7336
▁lapham	-11.7336
▁northeast	-11.7336
▁tillington	-11.7336
▁tidy	-11.7336
▁seattle	-11.7336
▁venture	-11.7336
▁sustain	-11.7336
▁cursing	-11.7336
▁bridgewater	-11.7336
▁chiii	-11.7336
▁pierre	-11.7336
▁brotherinlaw	-11.7336
▁dining	-11.7336
▁vibration	-11.7336
▁nixon	-11.7336
▁withdrawal	-11.7336
▁portia	-11.7336
▁vicious	-11.7336
naise	-11.7336
▁elegant	-11.7336
▁ginger	-11.7336
aleck	-11.7336
▁income	-11.7336
▁guam	-11.7336
▁bilo	-11.7336
▁terra	-11.7336
▁marble	-11.7336
▁stride	-11.7336
▁election	-11.7336
▁nude	-11.7336
▁bertram	-11.7336
▁boast	-11.7336
▁thirsty	-11.7337
▁vital	-11.7337
▁vibrator	-11.7337
▁justju	-11.7337
▁dragging	-11.7337
▁registration	-11.7337
▁bulb	-11.7337
▁editor	-11.7337
▁demo	-11.7337
▁juan	-11.7337
▁inbound	-11.7337
▁jerkoff	-11.7337
▁denial	-11.7337
▁rodman	-11.7337
ecora	-11.7337
▁coven	-11.7337
▁begun	-11.7337
▁disrespectful	-11.7337
▁aargh	-11.7337
▁evidently	-11.7337
▁flavor	-11.7337
▁kansas	-11.7337
▁manhattan	-11.7337
▁miriam	-11.7337
office	-11.7337
▁eminent	-11.7337
▁assumption	-11.7337
ultan	-11.7337
▁salwa	-11.7338
▁attendant	-11.7338
▁withers	-11.7338
▁roland	-11.7338
▁taters	-11.7338
▁margie	-11.7338
▁communion	-11.7338
▁extraction	-11.7338
▁wordsworth	-11.7338
▁homosexuality	-11.7338
▁restroom	-11.7338
▁postga	-11.7338
▁salami	-11.7338
▁iq	-11.7338
▁maiden	-11.7339
▁electricity	-11.7339
▁improvement	-11.7339
▁weaknesses	-11.7339
▁conviction	-11.7339
▁gurgle	-11.7339
▁wildcat	-11.7339
▁poof	-11.7339
▁intel	-11.7339
▁drank	-11.7339
▁mona	-11.7339
▁heartache	-11.7339
▁uncie	-11.7339
uppies	-11.7339
▁delusional	-11.7339
▁incidentally	-11.7339
▁didi	-11.734
▁articulate	-11.734
▁halen	-11.734
▁maui	-11.734
▁peasant	-11.734
▁instructor	-11.734
▁frustrating	-11.734
runo	-11.734
▁irises	-11.734
▁spaz	-11.734
▁wong	-11.734
▁weakness	-11.734
▁thong	-11.734
▁denny	-11.7341
▁postcard	-11.7341
▁ape	-11.7341
▁settlement	-11.7341
▁admitted	-11.7341
▁melon	-11.7341
▁royalty	-11.7341
▁carmelo	-11.7341
▁airlock	-11.7341
▁sophia	-11.7341
▁ruck	-11.7342
theless	-11.7342
▁warped	-11.7342
▁delete	-11.7342
▁felony	-11.7342
▁equity	-11.7342
▁spicer	-11.7342
▁handjob	-11.7342
yard	-11.7342
▁brace	-11.7342
▁payroll	-11.7342
▁whisky	-11.7343
band	-11.7343
▁steward	-11.7343
▁paranoid	-11.7343
▁hardware	-11.7343
▁semen	-11.7343
▁yearbook	-11.7343
▁oz	-11.7343
▁kike	-11.7343
▁stern	-11.7344
▁splitting	-11.7344
▁gps	-11.7344
▁combo	-11.7344
▁resistance	-11.7344
▁impersonati	-11.7344
▁powder	-11.7344
▁phrase	-11.7344
▁holloway	-11.7344
▁mazel	-11.7345
▁breakdown	-11.7345
▁respectfully	-11.7345
▁awareness	-11.7345
▁rach	-11.7345
▁unlikely	-11.7345
▁inspiration	-11.7345
▁robbers	-11.7345
▁tur	-11.7345
▁hobo	-11.7345
▁apo	-11.7346
▁mindfuck	-11.7346
▁hull	-11.7346
▁ont	-11.7346
▁dej	-11.7346
▁flexi	-11.7346
▁boost	-11.7347
▁whoaoh	-11.7347
▁batch	-11.7347
▁breakthrough	-11.7347
▁labor	-11.7347
▁hitler	-11.7347
▁mack	-11.7347
▁stow	-11.7347
▁gesture	-11.7347
▁burglary	-11.7348
▁heiio	-11.7348
▁somewh	-11.7348
▁web	-11.7348
▁publicist	-11.7348
▁humiliated	-11.7348
▁declared	-11.7349
▁promoted	-11.7349
▁forged	-11.7349
▁passage	-11.7349
gee	-11.7349
ency	-11.7349
▁popil	-11.7349
▁judgmental	-11.7349
itis	-11.7349
cell	-11.7349
▁fro	-11.7349
▁spoon	-11.7349
burger	-11.7349
▁growth	-11.7349
▁worldclass	-11.735
▁gma	-11.735
that	-11.735
▁ivy	-11.7351
ssette	-11.7351
▁shelley	-11.7351
▁employer	-11.7351
▁roid	-11.7351
▁vast	-11.7351
▁robble	-11.7352
▁dante	-11.7352
arily	-11.7352
▁variation	-11.7352
▁restricted	-11.7352
bun	-11.7353
▁presentation	-11.7353
▁ross	-11.7353
▁pai	-11.7353
▁thermo	-11.7353
▁parttime	-11.7354
▁swan	-11.7354
▁eliminated	-11.7354
▁clearance	-11.7354
▁acceptable	-11.7355
▁mild	-11.7355
▁daah	-11.7355
▁halt	-11.7356
▁tailor	-11.7356
▁preparation	-11.7356
▁niche	-11.7356
▁rlc	-11.7356
▁tracing	-11.7357
▁socket	-11.7357
▁ravel	-11.7357
opat	-11.7357
▁hospitality	-11.7358
▁housekeeper	-11.7358
▁richter	-11.7358
▁injected	-11.7358
▁selected	-11.7358
ephi	-11.7358
▁anonymously	-11.7358
▁payback	-11.7359
▁dougan	-11.7359
▁mechanical	-11.7359
▁moist	-11.7359
▁kinky	-11.736
▁nelly	-11.736
▁waist	-11.736
▁twinky	-11.736
▁quest	-11.7361
▁yama	-11.7361
▁surge	-11.7361
obin	-11.7361
▁tilt	-11.7362
▁megan	-11.7362
▁newark	-11.7362
▁anne	-11.7363
▁kd	-11.7363
▁oliver	-11.7363
▁hustled	-11.7364
▁mocking	-11.7364
▁slurping	-11.7364
▁glowing	-11.7364
▁trenton	-11.7364
▁raft	-11.7365
▁fearless	-11.7365
fft	-11.7365
▁beheadings	-11.7366
▁dinosaurs	-11.7366
▁gunner	-11.7366
▁trin	-11.7366
▁bombers	-11.7367
▁produced	-11.7367
▁attached	-11.7368
▁potentially	-11.7368
▁mia	-11.7369
▁tenant	-11.737
▁via	-11.7371
iddly	-11.7371
▁spooky	-11.7371
▁emma	-11.7371
shades	-11.7371
▁betting	-11.7371
▁glitch	-11.7372
▁sore	-11.7373
▁drew	-11.7374
range	-11.7374
▁respectable	-11.7374
actic	-11.7374
▁scoop	-11.7375
▁humanity	-11.7376
▁surfing	-11.7376
▁spanking	-11.7376
▁actresses	-11.7376
▁dough	-11.7376
cock	-11.7377
▁betrayed	-11.7377
▁strained	-11.7377
city	-11.7378
▁ultimately	-11.7379
tner	-11.7379
▁sang	-11.7379
▁rome	-11.738
▁mint	-11.738
▁camel	-11.738
▁hardball	-11.738
▁cath	-11.738
▁stretcher	-11.7381
▁hookup	-11.7381
▁drugg	-11.7381
▁weston	-11.7382
▁metro	-11.7382
▁bash	-11.7383
▁heartbreaker	-11.7384
▁harv	-11.7384
▁unto	-11.7385
▁conserv	-11.7385
▁hous	-11.7385
▁penal	-11.7386
▁handling	-11.7386
▁folding	-11.7388
▁iooking	-11.7388
▁cleansed	-11.7389
hhh	-11.7389
▁stable	-11.739
▁showoff	-11.7391
▁cont	-11.7391
▁pilla	-11.7391
▁blur	-11.7391
▁cord	-11.7392
bbed	-11.7394
▁jeweler	-11.7395
▁shootout	-11.7397
▁zoo	-11.7397
▁slaughtered	-11.7397
▁flooded	-11.7397
▁skater	-11.7397
▁ants	-11.7397
▁bandit	-11.7398
▁linger	-11.7398
▁delightful	-11.7399
▁squawking	-11.74
▁arc	-11.74
▁operate	-11.74
yify	-11.7401
▁followers	-11.7401
▁bigtime	-11.7401
▁tuber	-11.7402
tempo	-11.7402
▁pity	-11.7402
▁cutter	-11.7403
▁smartest	-11.7403
▁shiv	-11.7403
▁perk	-11.7404
▁dion	-11.7405
▁deadend	-11.7406
▁beanie	-11.7407
lero	-11.7407
▁daytime	-11.7407
▁ella	-11.741
▁lair	-11.741
▁detain	-11.7411
▁crunching	-11.7412
▁hammering	-11.7412
▁spite	-11.7415
▁shaved	-11.7416
▁breeding	-11.7416
▁superb	-11.7416
▁reaii	-11.7418
▁charger	-11.7418
▁rescued	-11.7422
▁magicians	-11.7422
▁bollocks	-11.7422
▁crayons	-11.7422
▁crickets	-11.7422
▁tooheys	-11.7422
▁ford	-11.7424
▁musician	-11.7425
▁steering	-11.7425
inos	-11.7425
▁buzzer	-11.7425
▁raisins	-11.7428
▁unholy	-11.7432
aux	-11.7435
▁peeping	-11.7436
▁regularly	-11.7436
▁drained	-11.7436
▁joel	-11.7438
easy	-11.7438
▁guaranteed	-11.744
▁sher	-11.744
▁dickless	-11.7442
teria	-11.7444
▁washer	-11.7444
▁blackout	-11.7445
▁jealousy	-11.7445
▁reminder	-11.7446
cco	-11.7446
▁shithole	-11.7449
win	-11.7451
▁rating	-11.7454
▁distracted	-11.7455
▁interrupted	-11.7456
▁nailed	-11.7459
▁narcissist	-11.7459
crate	-11.7459
▁complaining	-11.746
▁shitface	-11.7463
▁hopeless	-11.7466
▁stretched	-11.7467
▁strok	-11.7468
▁toaster	-11.7468
▁snort	-11.7469
▁overhear	-11.7472
▁hottie	-11.7473
▁rul	-11.7477
▁cougars	-11.748
▁straws	-11.748
▁consequences	-11.748
▁rattles	-11.748
▁rattlesnakes	-11.748
▁onions	-11.748
▁elbows	-11.7481
▁colombians	-11.7481
▁heels	-11.7481
▁troopers	-11.7482
▁nanny	-11.7482
▁missus	-11.7482
aper	-11.7483
▁pitcher	-11.7485
▁interrupting	-11.7485
culo	-11.7486
▁exceptional	-11.7489
▁bounced	-11.7491
nav	-11.7491
▁practiced	-11.7495
▁mara	-11.7496
ora	-11.7497
▁stretching	-11.7499
▁developing	-11.7499
nows	-11.75
▁filed	-11.7501
▁sling	-11.7502
▁dias	-11.7504
▁responded	-11.7505
lp	-11.751
▁wearin	-11.7514
doo	-11.7515
▁climbed	-11.7515
dialing	-11.7516
▁erect	-11.7519
▁simpler	-11.7522
▁bragg	-11.7526
▁astron	-11.7534
▁stored	-11.7536
▁ratings	-11.7538
▁lungs	-11.7539
▁circuits	-11.7539
▁cocktails	-11.7539
▁economics	-11.7539
▁homos	-11.7539
▁punchy	-11.7539
▁crabs	-11.7539
▁buckets	-11.7539
▁godking	-11.7542
dis	-11.7547
▁blasting	-11.7548
▁heed	-11.7548
▁screamers	-11.7554
▁chev	-11.7554
▁workout	-11.7558
▁ohoh	-11.7559
dder	-11.7561
▁madly	-11.7569
▁tate	-11.7573
predictable	-11.7573
▁samu	-11.7576
winces	-11.7576
▁lana	-11.7577
tta	-11.758
▁digits	-11.7588
▁wishes	-11.7595
▁gardening	-11.7595
ister	-11.7597
▁arrangements	-11.7598
▁arrows	-11.7598
▁rehearsals	-11.7598
▁lions	-11.7599
▁bod	-11.7601
▁cuffs	-11.7602
▁berg	-11.7603
▁flick	-11.7603
▁sequ	-11.7606
▁auditioning	-11.7606
▁notif	-11.761
▁inde	-11.7611
▁pursue	-11.7611
▁dearly	-11.7613
▁hums	-11.7614
logist	-11.7619
▁jewels	-11.7625
▁witnessed	-11.7626
▁buttfuck	-11.7635
▁zon	-11.7641
▁imagined	-11.7645
▁fuse	-11.7658
▁illusions	-11.7658
▁superiors	-11.7658
▁sheets	-11.7659
▁searching	-11.7659
▁molest	-11.7659
▁visitors	-11.7662
▁snapp	-11.7667
▁allie	-11.7672
▁ferr	-11.7695
▁fishy	-11.7704
▁peek	-11.7704
▁separat	-11.7708
▁rile	-11.7711
▁skills	-11.7718
▁suggestions	-11.7718
▁judgments	-11.7718
▁sailors	-11.7718
▁harrisons	-11.7719
▁sails	-11.772
agging	-11.7728
mel	-11.7743
▁mont	-11.7745
▁infiltrat	-11.7746
stage	-11.7747
partment	-11.7751
▁peas	-11.7753
ega	-11.7753
▁dot	-11.7776
▁desires	-11.7778
▁wedd	-11.7779
oul	-11.7789
▁worthy	-11.7792
▁imitate	-11.7793
▁don	-11.7794
▁cope	-11.7806
▁comets	-11.7812
lapping	-11.7815
code	-11.7817
▁za	-11.7832
▁clangs	-11.7839
▁medics	-11.7841
▁marines	-11.7842
▁rocky	-11.7844
▁pose	-11.7854
▁listing	-11.786
▁comprehen	-11.7862
loo	-11.7863
▁rewrite	-11.7867
pers	-11.7869
▁trimm	-11.7885
▁rese	-11.7885
dish	-11.789
appointed	-11.7892
▁mexicans	-11.7901
▁thumbs	-11.7901
▁charms	-11.7903
▁tunes	-11.7905
▁crazie	-11.7909
▁tease	-11.7914
▁turnin	-11.7915
▁ut	-11.7925
luke	-11.794
▁bombing	-11.7948
generate	-11.795
▁equals	-11.7961
▁affairs	-11.7963
▁patterns	-11.7963
▁kilos	-11.7963
▁did	-11.797
wel	-11.7981
ept	-11.7982
▁suited	-11.7996
ame	-11.7997
▁gand	-11.7997
▁bertra	-11.8003
▁nozz	-11.8023
lia	-11.8036
▁damp	-11.8043
▁ohio	-11.8049
▁lind	-11.8054
llery	-11.8054
itude	-11.8056
▁casualt	-11.8058
▁pervers	-11.8072
▁askin	-11.8078
▁tracker	-11.8079
▁votes	-11.8087
▁squeals	-11.8087
▁shi	-11.81
▁terroriz	-11.8102
▁gums	-11.8116
▁asset	-11.8117
▁alienat	-11.8123
▁cour	-11.8129
▁bubb	-11.8131
▁contribute	-11.8145
▁organizations	-11.815
▁packages	-11.815
▁objects	-11.8151
suit	-11.8173
▁sticker	-11.8176
nstein	-11.8182
log	-11.819
▁launder	-11.8195
vard	-11.8214
▁efforts	-11.8214
▁ropes	-11.8214
▁mechanics	-11.8215
umbo	-11.8218
▁casey	-11.8222
▁dealers	-11.8224
▁dau	-11.8237
▁batt	-11.8245
▁meds	-11.8261
▁flipp	-11.8267
rogan	-11.8302
▁ties	-11.8305
list	-11.8306
rine	-11.832
▁improv	-11.8346
▁marker	-11.8384
▁indulg	-11.839
▁deer	-11.8403
▁provid	-11.8406
▁interfer	-11.8406
▁ringer	-11.8447
▁rame	-11.8447
ledge	-11.8458
▁mode	-11.8485
▁tw	-11.8492
habi	-11.8518
esca	-11.8579
▁hitch	-11.858
▁indicat	-11.8606
dunk	-11.8613
▁distribut	-11.8628
▁unc	-11.8644
▁specialize	-11.8645
hit	-11.8646
quin	-11.8654
▁wil	-11.8693
zzle	-11.8701
▁popp	-11.8729
▁cleaner	-11.8739
▁nob	-11.8756
antic	-11.876
▁fam	-11.8787
ndem	-11.8793
▁wal	-11.8808
atom	-11.8817
▁ani	-11.8869
▁cami	-11.8874
tro	-11.8882
▁tru	-11.8903
stem	-11.891
metric	-11.8911
mus	-11.8915
busters	-11.8928
ational	-11.893
▁yea	-11.8944
fro	-11.8984
wiii	-11.9016
▁tou	-11.9022
nking	-11.9028
▁strap	-11.9041
bell	-11.9042
▁technicalit	-11.9081
hall	-11.9087
reign	-11.9133
roth	-11.9139
nine	-11.914
▁pod	-11.9145
▁alg	-11.9177
▁recap	-11.9188
rrection	-11.9192
▁vag	-11.9196
▁fighter	-11.9229
▁abe	-11.9234
▁deli	-11.9258
serving	-11.926
▁improve	-11.9341
▁interfere	-11.9341
oohoo	-11.9345
▁div	-11.9354
▁shoo	-11.9369
tched	-11.9382
arse	-11.9382
aki	-11.9388
audible	-11.9395
▁indicate	-11.9433
itty	-11.9473
llah	-11.9473
▁dia	-11.9481
▁swa	-11.9511
pee	-11.9521
ears	-11.9531
▁dur	-11.9535
▁curr	-11.9574
tec	-11.9601
etta	-11.9643
rative	-11.9658
developed	-11.9662
dding	-11.9727
we	-11.9756
ient	-11.9762
▁multi	-11.9774
cie	-11.982
▁mea	-11.9822
rified	-11.9848
▁pip	-11.9904
▁crazies	-11.9919
gne	-11.9951
▁typ	-11.9955
▁calculate	-11.9965
hell	-12.0001
cut	-12.0036
▁premed	-12.004
▁aca	-12.004
▁ug	-12.0046
chester	-12.0047
▁sip	-12.0052
▁ou	-12.0052
▁identi	-12.0068
▁hog	-12.0068
▁juli	-12.0088
▁compete	-12.0089
chad	-12.0089
tory	-12.0099
ique	-12.0115
pel	-12.0128
estimat	-12.0129
diction	-12.014
tention	-12.0152
ptown	-12.0189
▁ambi	-12.0215
ctor	-12.0253
▁occasion	-12.0255
pression	-12.026
▁bathe	-12.0263
have	-12.027
hot	-12.0279
licking	-12.0282
▁pursu	-12.029
hat	-12.0291
▁unde	-12.0292
▁templ	-12.031
unned	-12.0311
ndi	-12.0321
mba	-12.0332
▁bb	-12.0335
making	-12.035
tended	-12.0352
bul	-12.0369
trane	-12.0372
arian	-12.0376
▁impose	-12.0378
▁bran	-12.042
ago	-12.0425
raping	-12.0429
▁creak	-12.0437
home	-12.044
boop	-12.0444
▁tootin	-12.0445
▁virtu	-12.045
▁groan	-12.0452
hap	-12.0455
▁trump	-12.0456
▁mathematic	-12.0456
▁ankle	-12.0456
▁require	-12.0457
▁capo	-12.0459
▁paramedic	-12.0462
▁roadblock	-12.0464
▁consequence	-12.0466
▁elbow	-12.0466
▁rattlesnake	-12.0466
▁rattle	-12.0467
▁condom	-12.0468
▁troop	-12.0469
ippy	-12.0469
▁cougar	-12.0472
▁nazi	-12.0472
▁straw	-12.0473
inch	-12.0473
▁onion	-12.0474
▁dolphin	-12.0475
▁oop	-12.0478
▁trooper	-12.0479
nson	-12.0479
▁circumstance	-12.0479
▁snarl	-12.0479
▁psych	-12.0483
▁chime	-12.0485
▁giggle	-12.0486
agi	-12.0487
▁chart	-12.0489
estial	-12.0489
▁heel	-12.049
▁claw	-12.049
▁stair	-12.0492
▁boob	-12.0493
▁colombian	-12.0494
▁expectation	-12.0508
uda	-12.0519
▁vig	-12.0538
▁trim	-12.0538
▁hada	-12.0544
▁measur	-12.0545
▁brut	-12.0552
minded	-12.0555
▁shatter	-12.0556
rabbi	-12.0563
▁assfuck	-12.0564
▁vir	-12.0566
horizo	-12.0575
▁corro	-12.0576
▁continu	-12.0578
▁publish	-12.058
▁pul	-12.0581
tti	-12.0581
▁redeem	-12.0582
▁critic	-12.0584
▁annoy	-12.059
▁why	-12.0594
treating	-12.0595
break	-12.0599
▁gallo	-12.0601
▁alexa	-12.0601
▁supplie	-12.0602
sequent	-12.0602
lios	-12.0602
drops	-12.0606
▁divorc	-12.0613
cup	-12.0618
▁poster	-12.0619
▁devi	-12.062
▁figur	-12.0621
▁morn	-12.0622
handed	-12.0623
▁greet	-12.0623
▁stutter	-12.0623
wearing	-12.0624
▁slurp	-12.0625
▁wheez	-12.0627
▁plac	-12.0627
iveness	-12.0627
▁shush	-12.0627
grad	-12.0629
▁mourn	-12.0629
▁select	-12.063
▁inject	-12.063
▁chocolat	-12.063
bros	-12.0631
▁bul	-12.0631
shak	-12.0631
▁invent	-12.0632
▁harbo	-12.0632
▁infect	-12.0633
▁dismiss	-12.0634
▁accomplish	-12.0635
wat	-12.0635
cards	-12.0635
itts	-12.0636
flower	-12.0636
▁mock	-12.0636
duct	-12.0637
▁suicid	-12.0637
▁mach	-12.064
▁crow	-12.064
walk	-12.064
▁hustle	-12.064
cream	-12.064
▁strangle	-12.0641
moving	-12.0641
possessed	-12.0641
february	-12.0642
dressed	-12.0642
interference	-12.0642
wick	-12.0642
carat	-12.0643
curl	-12.0643
wait	-12.0643
shaped	-12.0643
perish	-12.0643
announce	-12.0643
plug	-12.0643
horn	-12.0643
▁occup	-12.0644
proof	-12.0644
▁amus	-12.0644
birth	-12.0644
winning	-12.0644
jewish	-12.0644
public	-12.0644
grown	-12.0644
certain	-12.0644
grand	-12.0644
hundred	-12.0644
girlfriend	-12.0644
information	-12.0644
mookie	-12.0644
space	-12.0644
true	-12.0644
sighs	-12.0644
okay	-12.0644
children	-12.0644
drive	-12.0644
excuse	-12.0644
cake	-12.0645
famous	-12.0645
thunder	-12.0645
good	-12.0645
white	-12.0645
▁declare	-12.0645
▁promote	-12.0645
siren	-12.0646
important	-12.0646
▁isolate	-12.0646
▁pronounce	-12.0646
black	-12.0646
double	-12.0646
danny	-12.0646
paper	-12.0646
▁glow	-12.0647
▁burglar	-12.0647
person	-12.0647
guns	-12.0647
▁scorpio	-12.0648
master	-12.0648
whi	-12.0648
▁strawberr	-12.0648
▁facilit	-12.0648
▁forge	-12.0648
▁sixty	-12.0649
▁custod	-12.0649
▁eliminate	-12.0649
mption	-12.0649
▁energ	-12.0649
▁opportunit	-12.0649
bodies	-12.0649
▁romania	-12.0649
long	-12.065
▁ofher	-12.0651
bread	-12.0652
bank	-12.0652
▁immun	-12.0652
▁freight	-12.0653
▁bold	-12.0653
▁biblical	-12.0653
▁spiritual	-12.0653
bitch	-12.0654
▁klein	-12.0654
▁psychological	-12.0655
▁ugli	-12.0655
fast	-12.0655
▁grac	-12.0655
tribute	-12.0656
▁apparent	-12.0656
metal	-12.0656
▁restore	-12.0658
▁holler	-12.0658
▁iong	-12.0658
▁metallic	-12.0658
▁anton	-12.066
▁clair	-12.066
▁repuls	-12.066
ggl	-12.0661
shed	-12.0661
▁rustl	-12.0661
▁colum	-12.0661
▁scor	-12.0662
▁hassle	-12.0663
trap	-12.0663
▁trivia	-12.0663
▁swis	-12.0664
umbling	-12.0664
▁spic	-12.0664
▁grocer	-12.0664
▁plannin	-12.0664
dad	-12.0664
▁mute	-12.0664
cipher	-12.0665
cide	-12.0665
▁dyin	-12.0665
▁corporat	-12.0665
glass	-12.0665
dolph	-12.0665
▁defect	-12.0665
▁excess	-12.0665
▁lovin	-12.0665
▁definite	-12.0665
▁inju	-12.0666
▁inher	-12.0666
▁beautifu	-12.0666
▁anythin	-12.0666
▁esta	-12.0666
ophobia	-12.0666
▁francis	-12.0666
ndsay	-12.0666
▁kidnap	-12.0666
▁submit	-12.0666
ization	-12.0666
▁dahdahdah	-12.0666
▁barten	-12.0667
▁emancipat	-12.0667
▁oxy	-12.0667
▁unforgiv	-12.0667
chemistry	-12.0667
fractions	-12.0667
gahertz	-12.0667
ibility	-12.0667
ntaneous	-12.0667
sensual	-12.0667
▁abilities	-12.0667
▁abscam	-12.0667
▁acapulco	-12.0667
▁accost	-12.0667
▁accumulate	-12.0667
▁accusation	-12.0667
▁acquire	-12.0667
▁administer	-12.0667
▁advocat	-12.0667
▁aegean	-12.0667
▁aggravated	-12.0667
▁aircondition	-12.0667
▁ajmal	-12.0667
▁amazon	-12.0667
▁amerikkka	-12.0667
▁ancestors	-12.0667
▁anchov	-12.0667
▁annihilation	-12.0667
▁anomal	-12.0667
▁anwar	-12.0667
▁ararat	-12.0667
▁areuh	-12.0667
▁arriving	-12.0667
▁aspen	-12.0667
▁atmospher	-12.0667
▁audio	-12.0667
▁avant	-12.0667
▁baboon	-12.0667
▁balcony	-12.0667
▁baloney	-12.0667
▁barboza	-12.0667
▁bathtub	-12.0667
▁beacon	-12.0667
▁bedstuy	-12.0667
▁beiieve	-12.0667
▁biohazard	-12.0667
▁blossom	-12.0667
▁borough	-12.0667
▁bribing	-12.0667
▁brilliance	-12.0667
▁brunette	-12.0667
▁bullseye	-12.0667
▁burrito	-12.0667
▁bypass	-12.0667
▁caesar	-12.0667
▁caffeine	-12.0667
▁calendar	-12.0667
▁catalogue	-12.0667
▁cerrano	-12.0667
▁charlotte	-12.0667
▁chopsticks	-12.0667
▁chronic	-12.0667
▁climate	-12.0667
▁clutenichols	-12.0667
▁coblenz	-12.0667
▁composting	-12.0667
▁composure	-12.0667
▁conceived	-12.0667
▁concrete	-12.0667
▁condescend	-12.0667
▁condiments	-12.0667
▁confrontation	-12.0667
▁congrats	-12.0667
▁connecticut	-12.0667
▁context	-12.0667
▁contingency	-12.0667
▁credibility	-12.0667
▁curfew	-12.0667
▁deceiving	-12.0667
▁dementia	-12.0667
▁demonstration	-12.0667
▁dempsey	-12.0667
▁deployed	-12.0667
▁derringer	-12.0667
▁desatting	-12.0667
▁devastating	-12.0667
▁devour	-12.0667
▁dewey	-12.0667
▁dilemma	-12.0667
▁diligent	-12.0667
▁dissolve	-12.0667
▁doorknob	-12.0667
▁doughnuts	-12.0667
▁drydock	-12.0667
▁dubov	-12.0667
▁dysfunction	-12.0667
▁earmuff	-12.0667
▁ebitda	-12.0667
▁encryption	-12.0667
▁engraved	-12.0667
▁enrique	-12.0667
▁enthusiasm	-12.0667
▁enunciat	-12.0667
▁epidemic	-12.0667
▁epileptic	-12.0667
▁eunuch	-12.0667
▁evaluation	-12.0667
▁exhausting	-12.0667
▁exhumed	-12.0667
▁exterminat	-12.0667
▁failsafe	-12.0667
▁famished	-12.0667
▁farrakhan	-12.0667
▁faucet	-12.0667
▁fazools	-12.0667
▁financing	-12.0667
▁fingertip	-12.0667
▁firepower	-12.0667
▁flapjack	-12.0667
▁flaps	-12.0667
▁fragment	-12.0667
▁frankensync	-12.0667
▁frenzy	-12.0667
▁frequent	-12.0667
▁fuckknuckles	-12.0667
▁furnace	-12.0667
▁gadget	-12.0667
▁gaelic	-12.0667
▁gallivanting	-12.0667
▁gauze	-12.0667
▁generosity	-12.0667
▁genevieve	-12.0667
▁gibberish	-12.0667
▁giddyap	-12.0667
▁gobshite	-12.0667
▁grape	-12.0667
▁grasp	-12.0667
▁gravy	-12.0667
▁grentz	-12.0667
▁gretzky	-12.0667
▁guacamole	-12.0667
▁gueros	-12.0667
▁guinness	-12.0667
▁hairdresser	-12.0667
▁harassing	-12.0667
▁hawaii	-12.0667
▁heirloom	-12.0667
▁hemorrhaging	-12.0667
▁highpriced	-12.0667
▁historian	-12.0667
▁historical	-12.0667
▁hitchhiker	-12.0667
▁horrific	-12.0667
▁housewives	-12.0667
▁ichimaru	-12.0667
▁identification	-12.0667
▁inadequate	-12.0667
▁initiative	-12.0667
▁inquir	-12.0667
▁instagram	-12.0667
▁insubordination	-12.0667
▁insured	-12.0667
▁jackrabbit	-12.0667
▁jacob	-12.0667
▁jasper	-12.0667
▁jetlagged	-12.0667
▁jihad	-12.0667
▁kilometers	-12.0667
▁kolnas	-12.0667
▁kramer	-12.0667
▁krimp	-12.0667
▁kristofferson	-12.0667
▁kyushi	-12.0667
▁lackett	-12.0667
▁lactose	-12.0667
▁laguna	-12.0667
▁lasagna	-12.0667
▁lebanon	-12.0667
▁linguist	-12.0667
▁malkina	-12.0667
▁manicotti	-12.0667
▁margaret	-12.0667
▁mascot	-12.0667
▁matawai	-12.0667
▁mcbrayer	-12.0667
▁mccarran	-12.0667
▁meadow	-12.0667
▁miguel	-12.0667
▁millennium	-12.0667
▁minamata	-12.0667
▁minibar	-12.0667
▁misogynist	-12.0667
▁mmmmmartin	-12.0667
▁morgue	-12.0667
▁morocco	-12.0667
▁mothballs	-12.0667
▁mozart	-12.0667
▁muriel	-12.0667
▁neanderthal	-12.0667
▁nimrod	-12.0667
▁nitrate	-12.0667
▁nudge	-12.0667
▁nugget	-12.0667
▁nuisance	-12.0667
▁nuys	-12.0667
▁obligated	-12.0667
▁obnoxious	-12.0667
▁obstacle	-12.0667
▁obstruct	-12.0667
▁oconnor	-12.0667
▁offshore	-12.0667
▁omega	-12.0667
▁oohwhee	-12.0667
▁outlook	-12.0667
▁overseas	-12.0667
▁pakistani	-12.0667
▁parameters	-12.0667
▁parrot	-12.0667
▁pavilion	-12.0667
▁paycheck	-12.0667
▁peckerwood	-12.0667
▁penguin	-12.0667
▁penitentiary	-12.0667
▁perceive	-12.0667
▁phenomena	-12.0667
▁pingpong	-12.0667
▁pittsburgh	-12.0667
▁pixel	-12.0667
▁plastered	-12.0667
▁poiice	-12.0667
▁polaroid	-12.0667
▁portuguese	-12.0667
▁precision	-12.0667
▁prehistoric	-12.0667
▁preoccupied	-12.0667
▁prescription	-12.0667
▁prestig	-12.0667
▁procreation	-12.0667
▁prohibit	-12.0667
▁proposal	-12.0667
▁provoke	-12.0667
▁purring	-12.0667
▁quadrant	-12.0667
▁qualify	-12.0667
▁racism	-12.0667
▁reassess	-12.0667
▁receipt	-12.0667
▁reconsider	-12.0667
▁refill	-12.0667
▁refrain	-12.0667
▁remake	-12.0667
▁repartee	-12.0667
▁retches	-12.0667
▁revoke	-12.0667
▁roscoe	-12.0667
▁rossaveal	-12.0667
▁sabian	-12.0667
▁sabotag	-12.0667
▁salvador	-12.0667
▁scallions	-12.0667
▁schematic	-12.0667
▁schlomit	-12.0667
▁schmid	-12.0667
▁schumacher	-12.0667
▁seagulls	-12.0667
▁seatbelt	-12.0667
▁sensitivity	-12.0667
▁september	-12.0667
▁shakespeare	-12.0667
▁shampoo	-12.0667
▁sharpshooters	-12.0667
▁shelter	-12.0667
▁shepherd	-12.0667
▁shirley	-12.0667
▁shitrocket	-12.0667
▁shoelace	-12.0667
▁sicilian	-12.0667
▁simulated	-12.0667
▁skimm	-12.0667
▁snitch	-12.0667
▁sociopath	-12.0667
▁solemn	-12.0667
▁specimen	-12.0667
▁spiddal	-12.0667
▁squat	-12.0667
▁squid	-12.0667
▁squirrel	-12.0667
▁staggolee	-12.0667
▁staircase	-12.0667
▁stubborn	-12.0667
▁suffocat	-12.0667
▁sunbeam	-12.0667
▁supermodel	-12.0667
▁superpower	-12.0667
▁sweatshirt	-12.0667
▁swift	-12.0667
▁syllable	-12.0667
▁sylvester	-12.0667
▁symphoni	-12.0667
▁syrup	-12.0667
▁tachyon	-12.0667
▁tantrum	-12.0667
▁tarzan	-12.0667
▁temporarily	-12.0667
▁testimony	-12.0667
▁theoretical	-12.0667
▁thrusting	-12.0667
▁tiffany	-12.0667
▁topsecret	-12.0667
▁tortilla	-12.0667
▁tortoise	-12.0667
▁trajectory	-12.0667
▁transaction	-12.0667
▁transylvania	-12.0667
▁tricycle	-12.0667
▁trudeau	-12.0667
▁tyrell	-12.0667
▁ultraviolet	-12.0667
▁unacceptable	-12.0667
▁uncommon	-12.0667
▁unexpected	-12.0667
▁ungrateful	-12.0667
▁unicef	-12.0667
▁unrelated	-12.0667
▁unreliable	-12.0667
▁unsettl	-12.0667
▁untouched	-12.0667
▁unzipping	-12.0667
▁vacant	-12.0667
▁vaccine	-12.0667
▁vasquez	-12.0667
▁vatican	-12.0667
▁verdict	-12.0667
▁visiontext	-12.0667
▁volcano	-12.0667
▁voyeur	-12.0667
▁wagner	-12.0667
▁wahab	-12.0667
▁wyndham	-12.0667
▁xoxo	-12.0667
▁youporn	-12.0667
▁yourseif	-12.0667
▁yuca	-12.0667
▁yvonne	-12.0667
▁zealand	-12.0667
contamination	-12.0667
interpret	-12.0667
▁appetiz	-12.0667
▁briggs	-12.0667
▁clarinet	-12.0667
▁compelling	-12.0667
▁dictat	-12.0667
▁hygien	-12.0667
▁infidel	-12.0667
▁mechanism	-12.0667
▁neglect	-12.0667
▁pharmac	-12.0667
▁ryder	-12.0667
▁statistical	-12.0667
▁swoll	-12.0667
ccino	-12.0667
▁agenda	-12.0667
▁baumer	-12.0667
▁bookcase	-12.0667
▁carrots	-12.0667
▁casino	-12.0667
▁compensate	-12.0667
▁dalton	-12.0667
▁depth	-12.0667
▁detour	-12.0667
▁eminence	-12.0667
▁extent	-12.0667
▁flanne	-12.0667
▁flashdance	-12.0667
▁gasoline	-12.0667
▁gazebo	-12.0667
▁hancock	-12.0667
▁hellfire	-12.0667
▁hickey	-12.0667
▁hypnotized	-12.0667
▁hypothe	-12.0667
▁inflation	-12.0667
▁jennings	-12.0667
▁jheri	-12.0667
▁louisiana	-12.0667
▁nigei	-12.0667
▁paolo	-12.0667
▁reagan	-12.0667
▁retainer	-12.0667
▁reuben	-12.0667
▁revolt	-12.0667
▁toledo	-12.0667
▁uhhmm	-12.0667
▁vietnamese	-12.0667
▁altar	-12.0667
▁belches	-12.0667
▁canvas	-12.0667
▁coeur	-12.0667
▁farmhands	-12.0667
▁impala	-12.0667
▁intellectual	-12.0667
▁papi	-12.0667
▁phony	-12.0667
▁predator	-12.0667
▁robberies	-12.0667
▁unkind	-12.0667
▁beggars	-12.0667
▁bongos	-12.0667
▁bouquet	-12.0667
▁bozo	-12.0667
▁bulldogs	-12.0667
▁canoe	-12.0667
▁decorations	-12.0667
▁dyke	-12.0667
▁faggy	-12.0667
▁karl	-12.0667
▁koushik	-12.0667
▁noisy	-12.0667
▁ruski	-12.0667
▁settling	-12.0667
▁sneez	-12.0667
▁sponge	-12.0667
▁sushi	-12.0667
▁whadda	-12.0667
▁wiener	-12.0667
▁wretch	-12.0667
▁confidential	-12.0667
▁dairy	-12.0667
▁depp	-12.0667
▁hastings	-12.0667
▁implement	-12.0667
▁linebacker	-12.0667
▁raving	-12.0667
▁slamming	-12.0667
▁squint	-12.0667
▁sterling	-12.0667
▁strive	-12.0667
▁tissues	-12.0667
▁vichy	-12.0667
▁beetle	-12.0667
▁diabolical	-12.0667
▁plugged	-12.0667
▁riends	-12.0667
▁accessory	-12.0667
▁hiatus	-12.0667
▁jeffrey	-12.0667
▁kudos	-12.0667
▁recognizing	-12.0667
▁salmon	-12.0667
▁snlff	-12.0667
▁tyran	-12.0667
▁worn	-12.0667
▁bartending	-12.0667
▁contributions	-12.0667
▁hesitate	-12.0667
▁lodge	-12.0667
▁magnificent	-12.0667
▁abusive	-12.0667
▁kidnappers	-12.0667
▁possum	-12.0667
▁mattress	-12.0667
▁cremated	-12.0667
▁relocat	-12.0667
▁waving	-12.0667
fficient	-12.0667
▁ensure	-12.0667
▁gorilla	-12.0667
▁lipstick	-12.0667
▁worshippers	-12.0667
▁croatia	-12.0667
▁friendlies	-12.0667
▁fiero	-12.0667
▁insight	-12.0667
▁ooooh	-12.0667
▁peacock	-12.0667
▁smores	-12.0667
▁farther	-12.0667
▁glitter	-12.0667
▁laboratory	-12.0667
▁racing	-12.0667
▁evict	-12.0667
▁podcast	-12.0667
▁commie	-12.0667
▁downstream	-12.0667
▁giri	-12.0667
▁whitney	-12.0667
hohoho	-12.0667
millimeter	-12.0667
▁colonics	-12.0667
▁crossways	-12.0667
▁sunbed	-12.0667
▁gooks	-12.0667
▁machado	-12.0667
▁antichrist	-12.0667
▁bitten	-12.0667
nnett	-12.0667
▁unbe	-12.0667
▁biggie	-12.0667
▁cartoon	-12.0667
▁censorship	-12.0667
▁communities	-12.0667
▁masturbating	-12.0667
▁milius	-12.0667
▁outrageous	-12.0667
beas	-12.0667
▁snuff	-12.0667
▁assertations	-12.0667
▁headphones	-12.0667
▁modified	-12.0667
▁ninetynine	-12.0667
▁conflat	-12.0667
▁prowl	-12.0667
▁nannie	-12.0667
▁bowels	-12.0667
▁grabbing	-12.0667
▁ohohoh	-12.0667
▁werdijan	-12.0667
▁asda	-12.0667
▁birkin	-12.0667
▁corrado	-12.0667
▁hummer	-12.0667
▁ribbed	-12.0667
▁rosie	-12.0667
▁surfboard	-12.0667
vinci	-12.0667
▁abetting	-12.0667
▁exploding	-12.0667
▁facial	-12.0667
▁gracious	-12.0667
▁montag	-12.0667
▁sufficient	-12.0667
▁bugged	-12.0667
▁morphis	-12.0667
▁slippers	-12.0667
flakes	-12.0667
▁gurgling	-12.0667
▁lashing	-12.0667
▁mashed	-12.0667
▁mythology	-12.0667
▁postdeath	-12.0667
▁etje	-12.0667
▁spouse	-12.0667
▁darren	-12.0667
▁cooing	-12.0667
▁obama	-12.0667
▁deathbed	-12.0667
▁clump	-12.0667
▁supervis	-12.0667
▁atoms	-12.0667
iglia	-12.0667
▁nonono	-12.0667
▁wilki	-12.0667
inflat	-12.0667
▁coddling	-12.0667
▁cornbread	-12.0667
▁hillbillies	-12.0667
▁pedal	-12.0667
▁hehhehheh	-12.0667
▁wilkins	-12.0667
▁frederickson	-12.0667
▁gordy	-12.0667
▁nix	-12.0667
▁sideways	-12.0667
▁dipshit	-12.0667
▁bullhorn	-12.0667
▁clockwise	-12.0667
▁whatcha	-12.0667
▁notified	-12.0667
▁summat	-12.0667
▁resemblance	-12.0667
▁substantial	-12.0667
authorized	-12.0667
▁casket	-12.0667
▁cyr	-12.0667
tflix	-12.0667
▁bogot	-12.0667
▁ganglia	-12.0667
▁introduction	-12.0667
▁confusing	-12.0667
▁rudi	-12.0667
▁choosing	-12.0667
▁arcade	-12.0667
escalate	-12.0667
▁breachway	-12.0667
▁clipped	-12.0667
▁misfit	-12.0667
▁rubbing	-12.0667
▁submitted	-12.0667
bilbo	-12.0668
▁offhand	-12.0668
▁optimistic	-12.0668
▁homophobi	-12.0668
▁preservation	-12.0668
▁resignation	-12.0668
▁lethal	-12.0668
▁contrary	-12.0668
▁spectrum	-12.0668
▁scrapbook	-12.0668
▁rogue	-12.0668
▁junco	-12.0668
▁penalty	-12.0668
▁renford	-12.0668
▁spike	-12.0668
▁recreate	-12.0668
▁quiche	-12.0668
▁shaqu	-12.0668
▁admission	-12.0668
▁twentynine	-12.0668
▁radioactivity	-12.0668
▁lasses	-12.0668
▁quad	-12.0668
▁taint	-12.0668
▁cancelled	-12.0668
▁coarse	-12.0668
eith	-12.0668
▁furious	-12.0668
▁abolitionist	-12.0668
nderway	-12.0668
▁beware	-12.0668
▁dewa	-12.0668
▁vagine	-12.0668
▁reflexes	-12.0668
▁abide	-12.0668
▁xray	-12.0668
▁crust	-12.0668
▁dispers	-12.0668
▁ceme	-12.0668
▁retail	-12.0668
▁techno	-12.0668
▁banned	-12.0668
▁hayward	-12.0668
▁immunity	-12.0668
▁anello	-12.0668
▁cottage	-12.0668
▁laptop	-12.0668
▁renew	-12.0668
▁instruction	-12.0668
▁pollution	-12.0668
▁appreciation	-12.0668
▁michi	-12.0668
▁aboot	-12.0668
▁mailbox	-12.0668
▁burke	-12.0668
▁eternal	-12.0668
▁traumatic	-12.0668
▁humble	-12.0668
▁plating	-12.0668
▁intentionally	-12.0668
▁expertise	-12.0668
▁pulak	-12.0668
giver	-12.0669
▁nostalgia	-12.0669
▁herald	-12.0669
▁reunion	-12.0669
▁jiff	-12.0669
brain	-12.0669
▁merit	-12.0669
▁chopped	-12.0669
▁clarissa	-12.0669
▁journalism	-12.0669
▁doggie	-12.0669
▁decorator	-12.0669
salvage	-12.0669
▁urinat	-12.0669
▁sherry	-12.0669
▁muff	-12.0669
▁trinity	-12.0669
▁cosign	-12.0669
▁contestant	-12.0669
▁stunned	-12.0669
▁moses	-12.0669
▁aircraft	-12.0669
▁caroline	-12.0669
▁translation	-12.0669
▁humid	-12.0669
▁humpback	-12.0669
▁summon	-12.0669
▁dampen	-12.0669
▁prada	-12.0669
nineteen	-12.0669
▁bargain	-12.0669
▁fraid	-12.0669
▁whirs	-12.0669
▁solita	-12.0669
▁bonnie	-12.0669
▁derby	-12.0669
▁granddad	-12.0669
▁lawsuit	-12.0669
▁unison	-12.0669
▁mappy	-12.0669
▁mami	-12.067
igator	-12.067
▁flourish	-12.067
▁awhile	-12.067
▁jedi	-12.067
▁flee	-12.067
▁denied	-12.067
▁upped	-12.067
▁yuck	-12.067
▁tying	-12.067
▁ahold	-12.067
▁navigate	-12.067
▁shuffle	-12.067
▁jasmine	-12.067
▁outlet	-12.067
▁influen	-12.067
▁foolishness	-12.067
▁rawness	-12.067
▁blim	-12.067
▁snot	-12.067
▁susanna	-12.067
▁barcode	-12.067
▁colour	-12.067
▁existence	-12.067
▁align	-12.067
▁disposal	-12.0671
▁packets	-12.0671
▁glee	-12.0671
▁smut	-12.0671
▁pierc	-12.0671
▁futon	-12.0671
▁knoxville	-12.0671
▁russo	-12.0671
▁relevant	-12.0671
▁keeg	-12.0671
▁panty	-12.0671
▁greenstone	-12.0671
▁alteration	-12.0671
▁toby	-12.0671
▁guff	-12.0671
▁selfishness	-12.0671
▁envi	-12.0671
▁dependable	-12.0671
▁classroom	-12.0671
▁marone	-12.0671
▁rotting	-12.0671
▁twinkie	-12.0671
▁deuce	-12.0671
washi	-12.0671
▁zahrani	-12.0671
▁passbook	-12.0672
▁mornin	-12.0672
▁deceived	-12.0672
▁crane	-12.0672
▁apprehend	-12.0672
▁iv	-12.0672
aware	-12.0672
itory	-12.0672
▁ramble	-12.0672
▁kingsley	-12.0672
▁marx	-12.0672
kara	-12.0672
▁sizzling	-12.0672
▁milf	-12.0672
▁symbolic	-12.0672
▁slashers	-12.0672
ifies	-12.0672
▁cooperate	-12.0672
▁rotate	-12.0672
▁spade	-12.0672
▁wipers	-12.0672
▁ccs	-12.0672
▁juke	-12.0672
▁retardation	-12.0672
▁levin	-12.0672
▁overstate	-12.0672
▁rustles	-12.0672
▁spices	-12.0672
▁dumbsky	-12.0672
▁nomination	-12.0672
▁clipper	-12.0672
▁brutality	-12.0672
▁shawna	-12.0673
▁mason	-12.0673
▁anxiety	-12.0673
▁nourishment	-12.0673
▁sleeve	-12.0673
▁cellmate	-12.0673
▁managing	-12.0673
▁closure	-12.0673
▁knob	-12.0673
▁puking	-12.0673
▁paragraph	-12.0673
▁mummy	-12.0673
▁slab	-12.0673
▁nacho	-12.0673
ulty	-12.0673
▁aaah	-12.0673
▁archive	-12.0673
▁feedback	-12.0673
schei	-12.0673
▁stockton	-12.0673
▁hanson	-12.0674
ounty	-12.0674
▁ieg	-12.0674
▁expand	-12.0674
▁approval	-12.0674
▁dooley	-12.0674
▁mayflower	-12.0674
▁controller	-12.0674
▁sewers	-12.0674
▁tov	-12.0674
▁clement	-12.0674
▁minority	-12.0674
▁andie	-12.0674
▁rayray	-12.0674
▁assembled	-12.0675
▁divide	-12.0675
▁freelance	-12.0675
▁lobe	-12.0675
▁replay	-12.0675
▁metallica	-12.0675
▁particle	-12.0675
▁maim	-12.0675
pop	-12.0675
▁groove	-12.0675
▁penetrate	-12.0675
▁dispose	-12.0675
▁advancement	-12.0676
▁lazar	-12.0676
▁jig	-12.0676
▁steamers	-12.0676
adoodle	-12.0676
arthur	-12.0676
▁indicator	-12.0676
▁arson	-12.0676
▁bodyguard	-12.0676
▁brevi	-12.0676
▁meathead	-12.0676
▁anim	-12.0676
▁remodeling	-12.0676
▁vomiting	-12.0676
▁arlene	-12.0677
▁caretak	-12.0677
▁owned	-12.0677
▁hassler	-12.0677
▁manipulator	-12.0677
urray	-12.0677
▁shin	-12.0677
▁wander	-12.0677
dori	-12.0677
▁reactor	-12.0677
▁sightings	-12.0677
▁prosecutor	-12.0677
▁formation	-12.0678
▁apr	-12.0678
▁colada	-12.0678
openha	-12.0678
▁swish	-12.0678
▁calculation	-12.0678
most	-12.0678
▁dried	-12.0678
▁playlist	-12.0678
▁quil	-12.0679
▁geno	-12.0679
▁smuggler	-12.0679
▁reek	-12.0679
▁foxy	-12.0679
▁kleiner	-12.0679
ifty	-12.068
▁prior	-12.068
plain	-12.068
▁bugging	-12.068
▁drivin	-12.068
▁marchant	-12.068
▁notch	-12.068
▁khole	-12.068
▁writin	-12.0681
▁slope	-12.0681
uff	-12.0681
▁earnest	-12.0681
▁modest	-12.0681
▁representation	-12.0681
▁greenway	-12.0681
▁scarf	-12.0681
▁eff	-12.0681
▁flushes	-12.0681
▁buzzi	-12.0681
▁colonies	-12.0681
angu	-12.0681
▁angl	-12.0681
▁coos	-12.0681
gain	-12.0681
▁lightning	-12.0682
▁splatter	-12.0682
istine	-12.0682
▁cement	-12.0682
▁understa	-12.0682
math	-12.0682
▁leonard	-12.0682
minar	-12.0683
▁premeditated	-12.0683
▁significant	-12.0683
▁airbag	-12.0683
▁snuggl	-12.0683
▁cere	-12.0683
▁firearm	-12.0684
tool	-12.0684
atian	-12.0684
▁dole	-12.0684
▁peddl	-12.0685
▁cott	-12.0685
biograph	-12.0685
▁rodeo	-12.0685
▁performers	-12.0685
▁hyper	-12.0685
▁spooner	-12.0685
▁twentyone	-12.0685
itous	-12.0686
▁katz	-12.0686
▁payload	-12.0686
▁evo	-12.0686
▁poll	-12.0686
▁investor	-12.0687
▁poetic	-12.0687
▁joc	-12.0687
▁warmth	-12.0687
▁monk	-12.0687
▁mitchell	-12.0687
▁vais	-12.0687
▁perv	-12.0688
▁evolved	-12.0688
▁reformed	-12.0688
▁prevailed	-12.0688
▁smushed	-12.0688
▁chatting	-12.0688
▁enable	-12.0688
▁recon	-12.0688
▁delighted	-12.0689
▁meaningless	-12.0689
▁sitdown	-12.0689
▁jour	-12.0689
ddad	-12.0689
▁restored	-12.0689
▁slant	-12.069
▁reque	-12.069
care	-12.069
▁sharpen	-12.069
▁caf	-12.069
▁household	-12.0691
▁mortal	-12.0691
▁seduced	-12.0691
▁ridge	-12.0691
▁arsen	-12.0691
▁recreati	-12.0691
ressa	-12.0691
▁tackle	-12.0691
▁aww	-12.0691
▁bowie	-12.0692
▁muted	-12.0692
▁boilin	-12.0692
▁const	-12.0692
▁walton	-12.0692
▁bertin	-12.0693
mpa	-12.0693
▁frightening	-12.0693
▁booga	-12.0694
▁leftover	-12.0695
▁zoomer	-12.0695
zone	-12.0695
icial	-12.0695
▁lifeboat	-12.0695
▁fuckstick	-12.0695
▁lava	-12.0696
▁monty	-12.0696
▁reserved	-12.0698
▁hedge	-12.0698
▁turd	-12.0698
▁plotz	-12.0698
▁pillar	-12.0699
esteem	-12.0699
▁viewers	-12.0699
▁setback	-12.0699
▁stroker	-12.07
▁hoover	-12.0701
▁generate	-12.0701
▁peaches	-12.0702
▁sect	-12.0702
entive	-12.0702
▁annoyed	-12.0703
▁nur	-12.0703
alga	-12.0703
wewe	-12.0703
▁roofies	-12.0704
▁mitt	-12.0705
▁soften	-12.0705
▁prob	-12.0705
▁num	-12.0707
▁dominat	-12.0707
uffy	-12.0707
▁psyched	-12.0709
▁potion	-12.0709
▁facing	-12.0709
▁mere	-12.071
▁amusing	-12.0711
▁greeting	-12.0711
▁stuttering	-12.0711
▁hollering	-12.0711
▁childish	-12.0711
▁shattering	-12.0711
▁choo	-12.0712
▁greedy	-12.0712
▁freshen	-12.0714
▁brochures	-12.0714
▁chippendales	-12.0714
▁installments	-12.0714
▁flipped	-12.0715
▁playboy	-12.0715
▁bethie	-12.0716
▁coordinat	-12.0717
adios	-12.0719
▁threesome	-12.0719
▁pinto	-12.072
▁tighten	-12.0721
▁seance	-12.0722
▁hup	-12.0722
▁macher	-12.0722
▁publisher	-12.0723
▁duo	-12.0725
▁deriv	-12.0725
▁madman	-12.0727
▁philosopher	-12.0727
▁snapping	-12.0728
leto	-12.0728
▁swelling	-12.0728
▁welcom	-12.0729
▁letterman	-12.0729
▁silencer	-12.073
▁enjoyable	-12.073
▁peeled	-12.0731
▁hoop	-12.0731
▁nightnight	-12.0732
▁marshal	-12.0733
▁kissel	-12.0733
teries	-12.0735
cek	-12.0736
tyfive	-12.0736
life	-12.0737
▁fec	-12.0739
▁porter	-12.0739
▁icon	-12.0739
▁twofour	-12.074
playing	-12.0741
▁freakin	-12.0742
▁improvise	-12.0743
▁suba	-12.0744
this	-12.0744
▁rubin	-12.0744
quest	-12.0744
▁geniuses	-12.0745
▁straightened	-12.0745
▁xer	-12.0746
▁unfolding	-12.0746
▁salsa	-12.0746
mated	-12.0746
▁pup	-12.0747
swept	-12.0749
▁sweetness	-12.0749
▁sweatin	-12.075
▁iiii	-12.0751
▁squeezed	-12.0751
▁sympathize	-12.0751
▁proposed	-12.0752
▁sil	-12.0754
▁mastermind	-12.0754
▁hiring	-12.0755
working	-12.0756
▁headline	-12.0756
▁stray	-12.0757
▁personne	-12.0757
▁sung	-12.0757
▁coal	-12.0759
▁succeeded	-12.0759
▁secondary	-12.076
▁nono	-12.076
▁smoothly	-12.0762
▁melted	-12.0762
ulder	-12.0764
▁dat	-12.0764
▁shoved	-12.0764
rawn	-12.0765
put	-12.0766
▁oid	-12.0767
▁doorway	-12.0767
▁hof	-12.0767
▁pisses	-12.0768
▁contractor	-12.0768
▁sputter	-12.0773
▁sitter	-12.0773
▁marcha	-12.0773
▁vey	-12.0775
logging	-12.0778
elier	-12.0778
bes	-12.078
▁ignoring	-12.078
▁cursed	-12.0781
▁binding	-12.0781
▁hornet	-12.0781
ervent	-12.0782
▁sailing	-12.0783
▁interaction	-12.0785
▁melting	-12.0785
recognition	-12.0786
▁dresses	-12.0786
▁brushed	-12.0788
▁sprayed	-12.0788
▁priv	-12.0788
▁uv	-12.0791
▁boon	-12.0793
▁idol	-12.0793
▁fac	-12.0793
immer	-12.0795
▁toppings	-12.0796
▁nuns	-12.0796
▁appearances	-12.0796
▁milkshakes	-12.0796
▁veterans	-12.0796
▁paninis	-12.0796
▁brighter	-12.0797
▁rappers	-12.0797
▁tutori	-12.0797
▁dragons	-12.0798
▁handcuffs	-12.0798
▁hitter	-12.08
▁carat	-12.0802
▁vanished	-12.0803
▁fath	-12.0803
▁intestine	-12.0804
▁clone	-12.0806
▁likewise	-12.0806
▁shitload	-12.0808
▁roy	-12.0811
▁steven	-12.0813
▁corrosi	-12.0814
▁dolly	-12.0817
▁applying	-12.0817
▁gown	-12.082
▁missis	-12.0825
▁daring	-12.0828
▁triggered	-12.0831
▁scratched	-12.0832
▁clamp	-12.0833
▁innovati	-12.0833
▁defeated	-12.0838
▁boiling	-12.0839
▁erica	-12.0848
▁damaged	-12.0851
▁rewarded	-12.0852
▁raging	-12.0853
▁doe	-12.0855
▁wisely	-12.0856
▁originate	-12.0858
▁wholl	-12.0859
▁peck	-12.0863
▁kam	-12.0865
▁wrinkl	-12.0865
vering	-12.0866
phew	-12.0872
aura	-12.0874
▁nause	-12.0875
▁scratching	-12.0877
▁condoms	-12.0882
▁paramedics	-12.0882
▁roadblocks	-12.0882
▁ankles	-12.0882
▁mathematics	-12.0882
▁trumps	-12.0882
▁carats	-12.0884
ntin	-12.0886
▁occasional	-12.0888
▁roberta	-12.0889
▁mistaken	-12.0891
▁spared	-12.0892
spel	-12.0893
▁statu	-12.0896
▁patter	-12.0897
▁matty	-12.0899
▁sic	-12.0903
▁presently	-12.0905
▁dale	-12.0906
▁aiming	-12.0906
▁posters	-12.0907
▁sweaty	-12.0908
▁boul	-12.0912
intuitive	-12.0913
coat	-12.0917
▁deducti	-12.0918
▁softer	-12.0922
▁suing	-12.0922
▁shaped	-12.0926
▁proceeding	-12.0942
▁hint	-12.0945
organizing	-12.0948
▁earlie	-12.0951
▁hind	-12.0951
▁dashi	-12.0957
▁epic	-12.096
▁poorly	-12.0961
gt	-12.0973
▁collected	-12.0978
▁putz	-12.0978
▁oily	-12.0984
▁diplomat	-12.0984
▁visa	-12.0985
▁pressured	-12.0986
▁shorter	-12.0991
▁jobu	-12.0992
mino	-12.0992
cuse	-12.0994
▁lax	-12.0998
▁pear	-12.1004
▁yelled	-12.1013
▁pullin	-12.1014
▁stre	-12.1015
▁painted	-12.1017
▁regimen	-12.1018
▁martini	-12.1019
▁mai	-12.102
▁apologized	-12.1034
template	-12.1037
▁ador	-12.1043
eau	-12.1061
precedent	-12.1076
▁heartbreak	-12.1087
▁calist	-12.1097
▁crocke	-12.1098
▁berk	-12.1098
dead	-12.1102
▁nasa	-12.1102
▁baron	-12.1102
nuck	-12.1108
▁chore	-12.1119
racks	-12.112
▁domin	-12.1121
▁becker	-12.1136
▁skipp	-12.1189
▁sames	-12.1216
▁plato	-12.1248
▁louie	-12.1274
uper	-12.1282
▁patroll	-12.1289
▁muck	-12.1296
▁committ	-12.1313
communica	-12.1332
deedee	-12.1385
▁vine	-12.1385
▁conne	-12.1402
ryan	-12.1409
▁mope	-12.1439
rvs	-12.1439
▁plott	-12.1445
raged	-12.1452
▁operat	-12.146
▁desp	-12.1477
▁att	-12.1494
labas	-12.1494
▁seam	-12.1503
name	-12.1541
gua	-12.1607
▁translat	-12.1609
▁yyou	-12.1609
whipping	-12.1619
decent	-12.1645
ratio	-12.1667
▁atti	-12.167
tell	-12.1677
chat	-12.1701
▁sou	-12.1705
ailey	-12.1724
unde	-12.1748
ban	-12.1784
▁valid	-12.1802
tur	-12.1828
butt	-12.183
▁travell	-12.1839
oft	-12.1849
anquet	-12.189
capita	-12.192
▁arg	-12.1957
▁swap	-12.1968
veil	-12.1984
▁layer	-12.199
passionate	-12.1991
chez	-12.1999
iller	-12.2033
▁regress	-12.2043
cuous	-12.2068
cept	-12.2094
▁investigat	-12.2094
now	-12.2107
hook	-12.2147
▁intro	-12.2213
rom	-12.2218
heres	-12.2229
▁overcom	-12.2237
▁crave	-12.2238
▁stripe	-12.2247
cita	-12.2283
▁baller	-12.2308
▁complic	-12.2313
eologist	-12.2318
tribution	-12.2339
▁intr	-12.2397
▁manipulat	-12.2422
▁merc	-12.2439
▁prepp	-12.2452
▁mono	-12.2462
▁perp	-12.2464
adja	-12.2496
▁insi	-12.2521
ipping	-12.2555
▁sac	-12.2569
igan	-12.2591
pid	-12.2595
hili	-12.2595
schizophrenia	-12.2595
loving	-12.2609
illy	-12.2669
▁ocul	-12.2744
ankin	-12.2773
▁dine	-12.2784
▁encourag	-12.2799
▁inci	-12.2905
▁deco	-12.291
▁budg	-12.2962
▁vel	-12.2975
▁sanit	-12.2982
cular	-12.2994
rank	-12.304
viva	-12.309
▁garb	-12.3094
▁milli	-12.3099
▁schizophreni	-12.3138
▁truc	-12.314
▁negotiat	-12.3183
▁bolto	-12.3215
▁trac	-12.3216
erci	-12.3223
amine	-12.3404
▁nooo	-12.3421
mut	-12.3422
▁bou	-12.3422
unny	-12.3541
ripping	-12.3565
steppin	-12.3568
▁investigate	-12.3636
▁brav	-12.3665
▁notar	-12.3668
▁jag	-12.3687
rater	-12.3695
throw	-12.3705
▁hydr	-12.3807
hia	-12.3811
version	-12.3818
retta	-12.3832
hank	-12.3909
kro	-12.3993
▁whwh	-12.3994
quet	-12.4002
uran	-12.4061
idate	-12.4107
bender	-12.4124
axman	-12.4133
nium	-12.4142
ull	-12.4146
▁seis	-12.4181
▁terminat	-12.4252
▁unnecessar	-12.4298
youre	-12.4303
▁degener	-12.4342
ntruder	-12.4351
omber	-12.4368
mashup	-12.4408
▁radi	-12.4448
eodor	-12.4456
▁dart	-12.4462
got	-12.4493
writer	-12.4525
▁overhea	-12.4551
▁reduc	-12.4552
comprehensi	-12.4558
mala	-12.4561
▁bev	-12.457
anford	-12.457
▁obscen	-12.4577
luck	-12.4582
▁console	-12.461
▁wwe	-12.4656
▁scatt	-12.4663
▁jani	-12.4672
hero	-12.4688
▁seduc	-12.4739
▁epi	-12.4746
▁fri	-12.4748
▁sancti	-12.477
▁raisin	-12.484
leone	-12.4948
ustered	-12.495
▁barrac	-12.4963
grant	-12.4981
▁crock	-12.5
▁bac	-12.5031
▁pari	-12.5111
▁regime	-12.512
▁craw	-12.5147
▁spar	-12.5166
▁diploma	-12.5169
▁pictur	-12.5186
stains	-12.52
egade	-12.5222
tag	-12.5246
▁crim	-12.5249
bred	-12.5254
addle	-12.5256
shootin	-12.5273
▁deduct	-12.5274
▁poppin	-12.5301
▁semi	-12.5312
▁doubl	-12.5326
traction	-12.5358
union	-12.5358
nvers	-12.5359
heard	-12.5361
clap	-12.5386
ovation	-12.5402
tained	-12.5436
▁stew	-12.5441
▁intestin	-12.5447
tuous	-12.5456
▁handcuff	-12.5458
▁veteran	-12.5458
▁panini	-12.5458
▁rapper	-12.5458
bron	-12.5459
▁milkshake	-12.546
▁appearance	-12.5461
poo	-12.5462
▁savage	-12.5463
▁bollock	-12.5468
▁cricket	-12.5468
▁toohey	-12.5468
▁crayon	-12.5468
▁bisexual	-12.5473
▁explosive	-12.5477
▁lyric	-12.5477
▁rhyme	-12.5477
▁politic	-12.5478
▁regulation	-12.5479
▁steroid	-12.5482
▁tittie	-12.5483
▁humvee	-12.5484
▁dragon	-12.5486
▁mutter	-12.5486
▁inmate	-12.5487
▁snag	-12.5487
▁resume	-12.5487
▁nun	-12.5488
▁brake	-12.5488
▁refugee	-12.5489
▁topping	-12.5491
▁other	-12.5491
▁magician	-12.5492
▁viola	-12.5495
▁luca	-12.5497
▁corp	-12.5499
▁grit	-12.55
▁delight	-12.5503
▁jingl	-12.5506
▁recogni	-12.5508
▁vibrate	-12.5509
▁sympath	-12.5511
▁restrict	-12.5535
italians	-12.5535
misu	-12.5536
▁nip	-12.5542
▁peelin	-12.5547
rose	-12.5549
▁philosoph	-12.555
ipp	-12.5558
gina	-12.5563
laborate	-12.5563
erior	-12.5565
having	-12.5569
lushing	-12.5572
▁gird	-12.5583
▁hustl	-12.5584
keeper	-12.5585
▁ooo	-12.5586
rerecord	-12.5589
▁frighten	-12.5593
tial	-12.5593
▁surg	-12.5594
teller	-12.5595
▁relativ	-12.56
stick	-12.5609
entional	-12.5613
▁surviv	-12.5615
▁execut	-12.5617
bows	-12.5618
▁beave	-12.5618
▁este	-12.5619
▁appreciat	-12.562
▁cassi	-12.562
▁therm	-12.5622
▁replac	-12.5622
▁shov	-12.5623
blood	-12.5623
▁housekeep	-12.5624
creat	-12.5625
▁splash	-12.5627
fuckin	-12.5628
▁pau	-12.5629
discriminat	-12.5629
▁hamm	-12.563
▁caii	-12.563
▁thump	-12.563
▁prevail	-12.5631
▁smush	-12.5631
▁attract	-12.5632
▁limb	-12.5633
▁obsess	-12.5634
▁crook	-12.5634
lking	-12.5636
craft	-12.5636
graph	-12.5636
quarters	-12.5636
ddling	-12.5638
conscious	-12.5639
solution	-12.5639
known	-12.564
drivin	-12.564
premeditated	-12.564
significant	-12.564
view	-12.564
glow	-12.564
word	-12.564
▁reform	-12.5641
group	-12.5641
holloway	-12.5641
phrase	-12.5641
powder	-12.5641
absorb	-12.5642
convenience	-12.5642
remarkable	-12.5642
dramatic	-12.5643
▁oblige	-12.5643
spotted	-12.5643
river	-12.5643
flies	-12.5643
controlled	-12.5643
slaughter	-12.5643
beard	-12.5643
stream	-12.5643
basket	-12.5643
brush	-12.5643
exchange	-12.5643
grunt	-12.5643
origin	-12.5643
anika	-12.5643
budget	-12.5644
culture	-12.5644
tube	-12.5644
spoken	-12.5644
therapy	-12.5644
prepared	-12.5644
rescue	-12.5644
moral	-12.5644
shift	-12.5644
motherfuckin	-12.5644
broadway	-12.5644
twelve	-12.5644
convinced	-12.5644
snake	-12.5644
▁gravit	-12.5644
▁sketch	-12.5644
grass	-12.5644
patient	-12.5644
natural	-12.5644
plus	-12.5644
whispers	-12.5644
christ	-12.5644
world	-12.5644
beeping	-12.5644
crime	-12.5644
camera	-12.5644
excited	-12.5644
knife	-12.5644
protect	-12.5644
distance	-12.5644
pizza	-12.5644
engine	-12.5644
month	-12.5644
crowd	-12.5644
running	-12.5644
movie	-12.5644
wild	-12.5644
gasps	-12.5644
together	-12.5644
believe	-12.5644
maybe	-12.5644
anything	-12.5644
ouching	-12.5644
claim	-12.5645
deep	-12.5645
cold	-12.5645
route	-12.5645
wiped	-12.5645
palm	-12.5645
pay	-12.5645
spray	-12.5646
screaming	-12.5646
death	-12.5646
sleep	-12.5646
▁paranoi	-12.5646
▁refuge	-12.5646
▁dispos	-12.5646
▁quart	-12.5646
mature	-12.5646
pressure	-12.5646
loved	-12.5646
amaze	-12.5647
▁muthafuck	-12.5647
▁dedicate	-12.5647
▁felon	-12.5647
poop	-12.5647
legs	-12.5647
gender	-12.5648
▁crisp	-12.5648
vice	-12.5648
ctic	-12.5648
▁rold	-12.5648
▁gyps	-12.5648
ladas	-12.5649
▁societ	-12.5649
▁agenc	-12.5649
today	-12.5649
▁emergenc	-12.5649
crimin	-12.5649
▁definit	-12.565
▁fuzz	-12.565
▁blam	-12.565
▁mangle	-12.565
▁humiliate	-12.5651
loud	-12.5652
poster	-12.5652
pelled	-12.5653
▁groov	-12.5653
illions	-12.5653
meet	-12.5653
▁penetrat	-12.5653
etting	-12.5653
▁gurg	-12.5653
arve	-12.5653
▁butch	-12.5653
▁cuddl	-12.5654
▁jamaica	-12.5654
▁appetit	-12.5654
▁empir	-12.5654
▁hollow	-12.5654
▁rampa	-12.5654
erfu	-12.5654
prises	-12.5654
▁uncomfortabl	-12.5654
▁responsibl	-12.5655
▁whisk	-12.5655
▁deliberate	-12.5655
personal	-12.5656
▁quo	-12.5656
▁recip	-12.5656
▁preco	-12.5656
▁strict	-12.5656
▁unfortunate	-12.5656
▁michel	-12.5657
woman	-12.5657
▁instruct	-12.5658
ptions	-12.5658
▁tol	-12.5658
▁independen	-12.5658
▁registr	-12.5659
chip	-12.5659
funk	-12.5659
▁territori	-12.566
acula	-12.566
▁summ	-12.566
▁christophe	-12.566
▁dunn	-12.566
▁nikk	-12.5661
▁withdraw	-12.5661
▁stabb	-12.5661
ramming	-12.5661
cool	-12.5661
▁legitim	-12.5662
baby	-12.5662
hair	-12.5662
liz	-12.5663
▁behavio	-12.5663
▁diabet	-12.5663
▁kurt	-12.5663
morning	-12.5663
moment	-12.5663
▁punc	-12.5663
▁discipl	-12.5663
larissa	-12.5663
perative	-12.5663
▁slate	-12.5664
razie	-12.5664
▁conno	-12.5664
▁wailin	-12.5664
▁leavin	-12.5664
▁detonat	-12.5664
▁everythin	-12.5664
▁interrogat	-12.5664
▁relent	-12.5664
▁fright	-12.5665
▁authori	-12.5665
▁abolition	-12.5665
▁elegan	-12.5665
▁clemen	-12.5665
credible	-12.5665
▁pollut	-12.5665
▁municipal	-12.5665
▁psychiatr	-12.5665
duced	-12.5665
ntelligence	-12.5665
▁indict	-12.5665
▁assert	-12.5665
ldman	-12.5665
▁resign	-12.5665
ehhehheh	-12.5666
▁designate	-12.5666
▁frederick	-12.5666
▁sculpt	-12.5666
▁practi	-12.5666
▁forfeit	-12.5666
nsurance	-12.5666
▁givin	-12.5666
izard	-12.5666
▁acquaint	-12.5666
▁censor	-12.5666
▁hoho	-12.5666
▁flex	-12.5666
wich	-12.5666
omotion	-12.5666
▁preserv	-12.5666
▁drip	-12.5666
▁commerc	-12.5667
▁crip	-12.5667
▁intellect	-12.5667
khnum	-12.5667
▁congratu	-12.5667
▁endeavo	-12.5667
▁unconv	-12.5667
▁absofucking	-12.5667
▁anesthesi	-12.5667
▁arraign	-12.5667
▁catheter	-12.5667
▁controvers	-12.5667
▁corinth	-12.5667
▁empower	-12.5667
▁gangbang	-12.5667
▁hallucin	-12.5667
▁irritat	-12.5667
▁kazakh	-12.5667
▁libera	-12.5667
▁matrix	-12.5667
▁meshuggen	-12.5667
▁perspir	-12.5667
▁rhino	-12.5667
▁schlub	-12.5667
▁supremacis	-12.5667
▁youknowwh	-12.5667
▁yugoslav	-12.5667
bourg	-12.5667
buttholesandwich	-12.5667
centric	-12.5667
chiecoo	-12.5667
cognito	-12.5667
cyclop	-12.5667
heehyskeffington	-12.5667
iloqu	-12.5667
oplast	-12.5667
refute	-12.5667
ribbon	-12.5667
spirator	-12.5667
tinguish	-12.5667
ymphos	-12.5667
▁abdomin	-12.5667
▁accommodations	-12.5667
▁accordion	-12.5667
▁accusing	-12.5667
▁acknowledgment	-12.5667
▁activating	-12.5667
▁activist	-12.5667
▁adrenalin	-12.5667
▁adrienne	-12.5667
▁adversary	-12.5667
▁advertising	-12.5667
▁affiliat	-12.5667
▁agitat	-12.5667
▁alaska	-12.5667
▁alitalia	-12.5667
▁ambush	-12.5667
▁anaheim	-12.5667
▁anarchy	-12.5667
▁android	-12.5667
▁angrily	-12.5667
▁anorexic	-12.5667
▁anticipation	-12.5667
▁appease	-12.5667
▁applaud	-12.5667
▁applesauce	-12.5667
▁archuleta	-12.5667
▁assimilat	-12.5667
▁astrologer	-12.5667
▁asylum	-12.5667
▁attaglia	-12.5667
▁aughts	-12.5667
▁automotive	-12.5667
▁autumn	-12.5667
▁avenge	-12.5667
▁axmurder	-12.5667
▁babbling	-12.5667
▁bagatov	-12.5667
▁bankrupt	-12.5667
▁baptized	-12.5667
▁barbershop	-12.5667
▁beirut	-12.5667
▁bigboobalert	-12.5667
▁blanchard	-12.5667
▁bleep	-12.5667
▁blubber	-12.5667
▁blunderbuss	-12.5667
▁boliv	-12.5667
▁bonfire	-12.5667
▁bookworm	-12.5667
▁brezhnev	-12.5667
▁bruun	-12.5667
▁buddhist	-12.5667
▁budweiser	-12.5667
▁bumbumbum	-12.5667
▁butterscotch	-12.5667
▁cacophon	-12.5667
▁cajun	-12.5667
▁camaraderie	-12.5667
▁campfire	-12.5667
▁cannabis	-12.5667
▁capabilities	-12.5667
▁capisce	-12.5667
▁caribbean	-12.5667
▁cartwright	-12.5667
▁catastroph	-12.5667
▁categori	-12.5667
▁caucasian	-12.5667
▁cenobites	-12.5667
▁cervix	-12.5667
▁chartreuse	-12.5667
▁chiffonade	-12.5667
▁chrysler	-12.5667
▁chunky	-12.5667
▁chute	-12.5667
▁cinnamon	-12.5667
▁circulat	-12.5667
▁civilisation	-12.5667
▁cliff	-12.5667
▁clinton	-12.5667
▁colaba	-12.5667
▁collision	-12.5667
▁commissary	-12.5667
▁commuters	-12.5667
▁comparison	-12.5667
▁compensation	-12.5667
▁conceit	-12.5667
▁concluded	-12.5667
▁concludes	-12.5667
▁condominium	-12.5667
▁confederate	-12.5667
▁conjure	-12.5667
▁contaminate	-12.5667
▁corvette	-12.5667
▁cosignature	-12.5667
▁cribbs	-12.5667
▁cryobank	-12.5667
▁cucumber	-12.5667
▁daydream	-12.5667
▁ddojsioc	-12.5667
▁debatable	-12.5667
▁debord	-12.5667
▁dedication	-12.5667
▁defrost	-12.5667
▁demonstrate	-12.5667
▁depict	-12.5667
▁deprav	-12.5667
▁deprive	-12.5667
▁dervish	-12.5667
▁dilorenzo	-12.5667
▁disbarred	-12.5667
▁discarded	-12.5667
▁discretion	-12.5667
▁disembark	-12.5667
▁disguise	-12.5667
▁dislodg	-12.5667
▁disobey	-12.5667
▁disparaging	-12.5667
▁dissident	-12.5667
▁dissipate	-12.5667
▁dodgy	-12.5667
▁doltan	-12.5667
▁drooling	-12.5667
▁dubai	-12.5667
▁dumont	-12.5667
▁duncan	-12.5667
▁dungscraper	-12.5667
▁earlobe	-12.5667
▁edinburgh	-12.5667
▁egypt	-12.5667
▁elavil	-12.5667
▁embargo	-12.5667
▁encompass	-12.5667
▁endofday	-12.5667
▁enthusiastic	-12.5667
▁epidemiologist	-12.5667
▁ernesto	-12.5667
▁escobedo	-12.5667
▁eulogy	-12.5667
▁evaluator	-12.5667
▁evolution	-12.5667
▁excruciating	-12.5667
▁expiaining	-12.5667
▁expiration	-12.5667
▁explicit	-12.5667
▁exposure	-12.5667
▁ezekiel	-12.5667
▁fairytale	-12.5667
▁fascinate	-12.5667
▁fascist	-12.5667
▁fertilizer	-12.5667
▁fiftieth	-12.5667
▁firefighter	-12.5667
▁flanquette	-12.5667
▁fluttering	-12.5667
▁foiiow	-12.5667
▁footwear	-12.5667
▁formidable	-12.5667
▁freckle	-12.5667
▁friction	-12.5667
▁frontiersmen	-12.5667
▁frostbite	-12.5667
▁fundamentalists	-12.5667
▁fundamentals	-12.5667
▁geffen	-12.5667
▁gibson	-12.5667
▁glenfiddich	-12.5667
▁glengarry	-12.5667
▁glomm	-12.5667
▁goddammit	-12.5667
▁gonorrhea	-12.5667
▁governor	-12.5667
▁grandparents	-12.5667
▁grubby	-12.5667
▁gstring	-12.5667
▁gucci	-12.5667
▁gurney	-12.5667
▁gwagon	-12.5667
▁gynecologist	-12.5667
▁halfbrother	-12.5667
▁handicrafts	-12.5667
▁hangglide	-12.5667
▁hargis	-12.5667
▁hargrove	-12.5667
▁hawthorne	-12.5667
▁headstrong	-12.5667
▁heaveho	-12.5667
▁heinsbergen	-12.5667
▁henderson	-12.5667
▁hhuh	-12.5667
▁hikono	-12.5667
▁hobbit	-12.5667
▁hobbs	-12.5667
▁homicidal	-12.5667
▁honesttogod	-12.5667
▁hoplites	-12.5667
▁hordes	-12.5667
▁hubba	-12.5667
▁impeccable	-12.5667
▁inclusion	-12.5667
▁inconsolabl	-12.5667
▁incontinent	-12.5667
▁industries	-12.5667
▁inevitability	-12.5667
▁inexplicabl	-12.5667
▁inhabit	-12.5667
▁insensitiv	-12.5667
▁installation	-12.5667
▁installing	-12.5667
▁instantaneous	-12.5667
▁instinct	-12.5667
▁interiority	-12.5667
▁intersection	-12.5667
▁intervene	-12.5667
▁intractable	-12.5667
▁intrusion	-12.5667
▁invigorating	-12.5667
▁ipseity	-12.5667
▁itinerar	-12.5667
▁jeopardy	-12.5667
▁jeskey	-12.5667
▁jitterbug	-12.5667
▁juilliard	-12.5667
▁kahuna	-12.5667
▁kangaroo	-12.5667
▁karasawa	-12.5667
▁kathleen	-12.5667
▁kendall	-12.5667
▁ketamine	-12.5667
▁khaleesi	-12.5667
▁khram	-12.5667
▁kilometre	-12.5667
▁knuckles	-12.5667
▁kylie	-12.5667
▁lamppost	-12.5667
▁landmark	-12.5667
▁lenoix	-12.5667
▁leslie	-12.5667
▁lexington	-12.5667
▁ligaments	-12.5667
▁limerick	-12.5667
▁lollipop	-12.5667
▁longhetti	-12.5667
▁longtemps	-12.5667
▁lorlu	-12.5667
▁malpractice	-12.5667
▁manpower	-12.5667
▁maoris	-12.5667
▁marvellous	-12.5667
▁marvelous	-12.5667
▁masochist	-12.5667
▁masturbate	-12.5667
▁mcclure	-12.5667
▁mckeown	-12.5667
▁menacingly	-12.5667
▁menatarms	-12.5667
▁methodically	-12.5667
▁midget	-12.5667
▁milwaukee	-12.5667
▁miraculously	-12.5667
▁misconception	-12.5667
▁misfir	-12.5667
▁modulator	-12.5667
▁momogany	-12.5667
▁monogamy	-12.5667
▁monstrosity	-12.5667
▁monstrous	-12.5667
▁monument	-12.5667
▁morbid	-12.5667
▁morganville	-12.5667
▁motivated	-12.5667
▁motoyama	-12.5667
▁moustache	-12.5667
[...]
