<unk>	0
<s>	0
</s>	0
s	-4.01719
▁im	-4.45235
▁dont	-4.51469
▁know	-4.68251
▁get	-4.70588
▁oh	-4.72216
▁go	-4.76751
▁come	-4.79229
▁right	-4.81088
▁well	-4.91678
▁like	-4.95794
▁got	-4.95863
▁youre	-5.02522
▁thats	-5.08074
▁yeah	-5.08277
▁one	-5.1407
▁good	-5.17696
▁see	-5.3141
▁na	-5.32063
▁hey	-5.32182
▁okay	-5.34211
▁yes	-5.37169
▁think	-5.38757
ing	-5.39781
▁look	-5.44152
▁back	-5.47549
▁want	-5.47576
▁going	-5.51946
▁gon	-5.56377
▁hes	-5.5672
▁us	-5.56736
▁time	-5.59209
▁ill	-5.62661
▁man	-5.64339
▁cant	-5.6465
▁take	-5.65039
▁really	-5.77932
▁lets	-5.7857
▁could	-5.83227
▁way	-5.84821
▁say	-5.85842
▁little	-5.86742
ed	-5.8848
▁never	-5.90826
▁would	-5.92394
▁something	-5.92595
▁mr	-5.95005
▁tell	-5.97119
▁need	-5.99815
▁thank	-6.01232
▁make	-6.01568
▁sorry	-6.04291
▁please	-6.06155
▁ive	-6.06447
▁whats	-6.07105
▁love	-6.07432
▁let	-6.08371
▁give	-6.09448
▁mean	-6.10657
▁wait	-6.11882
▁	-6.12287
▁didnt	-6.14316
▁theres	-6.17087
▁sir	-6.18634
▁two	-6.23443
▁thing	-6.25553
▁sure	-6.30716
▁day	-6.32698
▁help	-6.33243
▁great	-6.33931
▁said	-6.34072
y	-6.34178
▁much	-6.36822
d	-6.36899
▁guys	-6.39095
▁theyre	-6.39498
▁l	-6.39515
▁stop	-6.40085
▁home	-6.43169
▁first	-6.43497
▁nothing	-6.47173
▁must	-6.47658
▁work	-6.47717
▁dad	-6.47793
▁night	-6.49616
▁life	-6.50138
▁people	-6.50311
▁even	-6.50478
▁better	-6.51155
▁uh	-6.52838
▁big	-6.53198
▁keep	-6.53231
▁maybe	-6.53557
▁anything	-6.53901
▁away	-6.54429
▁new	-6.5506
▁find	-6.55567
▁hi	-6.55609
▁ever	-6.57092
▁thought	-6.59247
▁shes	-6.60388
▁put	-6.62052
▁still	-6.62058
▁call	-6.62199
▁around	-6.63007
▁god	-6.63073
▁listen	-6.63327
▁boy	-6.6384
▁always	-6.64931
▁believe	-6.65736
▁nice	-6.66169
▁last	-6.67413
ly	-6.68729
▁kind	-6.71442
▁baby	-6.71496
▁old	-6.72274
▁hello	-6.72857
▁name	-6.72919
▁feel	-6.73017
▁place	-6.73375
▁id	-6.73474
▁three	-6.7366
▁long	-6.7378
▁father	-6.74261
▁everything	-6.74401
▁wont	-6.74511
▁ta	-6.7452
▁youve	-6.75156
▁talk	-6.75938
▁world	-6.75967
▁things	-6.76843
▁youll	-6.78439
▁stay	-6.79967
▁whoa	-6.80688
▁doesnt	-6.81143
▁play	-6.81916
▁fine	-6.83242
▁coming	-6.83931
▁years	-6.84022
▁miss	-6.84616
▁isnt	-6.84632
e	-6.84826
▁mom	-6.85658
▁huh	-6.86303
▁hold	-6.87035
▁bad	-6.89107
▁told	-6.89233
▁thanks	-6.89538
▁best	-6.91499
▁every	-6.91726
▁may	-6.92219
▁made	-6.92534
▁try	-6.928
▁ready	-6.92835
▁house	-6.92863
▁leave	-6.94006
▁remember	-6.94039
er	-6.94389
▁wrong	-6.95629
▁enough	-6.95894
▁guy	-6.96343
▁done	-6.96695
▁course	-6.97229
▁girl	-6.97715
▁morning	-6.99398
▁lot	-6.99416
▁hear	-6.99668
▁talking	-6.99686
▁understand	-7.00602
▁today	-7.01338
▁hell	-7.01449
▁show	-7.01645
▁wan	-7.01925
▁real	-7.02022
▁might	-7.0218
▁left	-7.05769
▁mind	-7.05827
▁kids	-7.06118
▁job	-7.0617
▁run	-7.06283
▁mother	-7.06644
▁watch	-7.0999
▁jack	-7.10092
▁another	-7.10102
▁next	-7.10408
▁weve	-7.12264
▁move	-7.14261
▁game	-7.14742
▁car	-7.15264
▁everybody	-7.15434
▁school	-7.15521
▁honey	-7.16078
▁excuse	-7.16079
▁happened	-7.17213
▁coach	-7.18318
▁ok	-7.18688
▁guess	-7.19039
▁son	-7.19117
▁getting	-7.19151
▁tonight	-7.20046
▁george	-7.21747
▁care	-7.21952
▁ask	-7.22064
▁wouldnt	-7.22503
▁room	-7.23286
▁trying	-7.23384
▁whole	-7.23828
▁together	-7.24177
▁family	-7.2453
▁money	-7.24885
▁looking	-7.25106
▁pretty	-7.26309
▁use	-7.26648
▁tomorrow	-7.26943
▁seen	-7.27139
▁heard	-7.27254
▁ah	-7.27449
▁turn	-7.27767
▁wanted	-7.2795
▁woman	-7.28121
▁came	-7.28544
▁minute	-7.28649
▁found	-7.29167
▁second	-7.29635
▁team	-7.31062
▁aint	-7.31848
▁live	-7.31923
▁hope	-7.32552
▁dear	-7.32582
▁meet	-7.33314
▁yet	-7.33376
▁wasnt	-7.34149
n	-7.34567
▁saw	-7.35717
▁easy	-7.36837
▁without	-7.36905
▁matter	-7.36966
▁hard	-7.37068
▁whos	-7.37252
a	-7.37282
▁knew	-7.37707
▁door	-7.37836
▁start	-7.38753
▁else	-7.3974
▁dead	-7.40005
▁worry	-7.40101
▁lost	-7.40155
▁looks	-7.40201
▁since	-7.40544
▁bring	-7.40573
▁idea	-7.40962
▁five	-7.40989
▁head	-7.41078
▁water	-7.4141
▁many	-7.41581
▁playing	-7.41781
▁ha	-7.4252
▁boys	-7.42527
▁alone	-7.42657
▁children	-7.4308
▁em	-7.43344
▁friends	-7.44731
▁everyone	-7.4491
▁late	-7.45049
▁true	-7.45243
▁friend	-7.45593
▁eat	-7.46463
o	-7.47262
▁crazy	-7.47423
▁happy	-7.47865
▁actually	-7.47869
▁cause	-7.48138
▁kill	-7.48229
▁welcome	-7.4831
▁four	-7.49203
▁beautiful	-7.49526
▁shall	-7.49656
▁afraid	-7.49661
▁havent	-7.49661
▁face	-7.49837
▁kid	-7.50257
▁went	-7.51033
r	-7.51802
▁gone	-7.52191
▁someone	-7.5312
▁open	-7.53335
▁win	-7.53504
▁used	-7.53635
▁fun	-7.53652
▁couldnt	-7.54405
▁lucky	-7.54878
▁days	-7.55167
▁wow	-7.5526
▁set	-7.55536
▁says	-7.55585
▁laughing	-7.55897
▁king	-7.56139
▁hit	-7.5618
▁hand	-7.56299
▁music	-7.56701
▁fight	-7.56902
▁men	-7.56914
▁brother	-7.5748
▁end	-7.57772
▁year	-7.57981
▁stuff	-7.58391
▁forget	-7.58663
▁already	-7.58672
▁took	-7.5967
t	-7.59699
▁cool	-7.59953
▁break	-7.60062
▁sit	-7.60403
▁somebody	-7.60677
▁close	-7.60908
al	-7.61717
▁change	-7.61922
es	-7.62127
▁wish	-7.62392
▁mary	-7.62737
▁youd	-7.63253
▁power	-7.63656
▁quite	-7.63817
▁word	-7.64194
▁business	-7.64787
▁hands	-7.65039
▁called	-7.65043
▁fire	-7.65717
▁check	-7.65823
▁far	-7.66053
▁part	-7.66175
▁chance	-7.66374
▁eyes	-7.66787
▁problem	-7.66894
ve	-7.67092
▁anyway	-7.68576
▁charlie	-7.68576
▁dream	-7.68613
▁saying	-7.69133
▁lm	-7.69295
▁young	-7.69549
▁shut	-7.69658
▁side	-7.69695
▁heart	-7.7006
▁high	-7.70661
▁hurry	-7.71354
▁probably	-7.71354
▁inside	-7.71355
▁happen	-7.71791
▁hmm	-7.71921
▁later	-7.72043
▁free	-7.72366
▁cut	-7.72532
▁hurt	-7.72662
▁dance	-7.73562
▁anyone	-7.73633
▁exactly	-7.73645
in	-7.73865
▁taking	-7.7423
▁walk	-7.74285
▁pick	-7.74637
▁soon	-7.74702
▁arent	-7.74793
▁number	-7.74875
i	-7.75657
▁minutes	-7.75708
▁perfect	-7.75811
▁special	-7.75944
▁red	-7.76241
▁save	-7.76422
▁thinking	-7.76564
▁mine	-7.7657
▁plan	-7.77008
▁wants	-7.77112
▁trouble	-7.77352
▁smurf	-7.77783
▁supposed	-7.77849
▁line	-7.78049
▁nobody	-7.78355
▁bit	-7.78454
▁blue	-7.78588
▁wheres	-7.78768
▁fly	-7.7911
▁six	-7.79588
▁daddy	-7.79779
▁stand	-7.79927
▁working	-7.80005
▁sighs	-7.8022
▁ybi	-7.8054
▁fast	-7.80654
▁wife	-7.80807
▁hate	-7.80882
▁whatever	-7.81421
▁goodbye	-7.81421
▁die	-7.81719
▁ahead	-7.82047
▁bye	-7.8268
▁city	-7.82694
▁almost	-7.83308
▁gasps	-7.83468
▁read	-7.83586
▁different	-7.83945
▁point	-7.84008
▁funny	-7.8459
▁lady	-7.8526
▁rest	-7.85268
▁sleep	-7.855
▁though	-7.85823
▁ball	-7.86189
▁safe	-7.86395
▁un	-7.86783
▁feet	-7.87197
▁dog	-7.87221
▁phone	-7.88227
▁lose	-7.88465
▁ago	-7.8852
▁ladies	-7.88525
▁moment	-7.88879
▁goes	-7.88995
▁gave	-7.892
▁pay	-7.89367
▁party	-7.89806
▁least	-7.89871
▁running	-7.89871
▁girls	-7.90681
▁telling	-7.91567
▁means	-7.91614
▁full	-7.91738
▁week	-7.92326
▁light	-7.92399
▁food	-7.9262
▁john	-7.93309
▁half	-7.93312
▁hot	-7.93659
▁earth	-7.93768
▁um	-7.94056
▁town	-7.94522
▁hair	-7.9455
▁also	-7.9473
▁field	-7.94758
▁parents	-7.94884
▁front	-7.95446
▁fred	-7.95456
▁hang	-7.95482
▁sweet	-7.96118
▁times	-7.96129
▁anybody	-7.96164
▁wonderful	-7.96183
▁makes	-7.96807
▁married	-7.96894
▁joe	-7.97489
▁trust	-7.97614
▁body	-7.9763
▁question	-7.98153
▁speak	-7.98325
▁damn	-7.98808
▁waiting	-7.99007
▁deal	-7.99069
▁dinner	-7.99088
▁behind	-7.99094
▁follow	-7.99113
▁pull	-7.99113
▁theyll	-7.9984
▁gentlemen	-7.99841
▁story	-8.00611
▁chuckles	-8.00703
▁bed	-8.01409
▁important	-8.01972
▁catch	-8.02411
▁heres	-8.03008
l	-8.03322
▁clear	-8.03333
▁ship	-8.03563
▁along	-8.03654
ie	-8.03726
▁step	-8.03972
▁send	-8.03989
or	-8.04046
▁comes	-8.04092
▁drink	-8.04686
▁ride	-8.04921
▁ooh	-8.05001
▁horse	-8.05131
▁lord	-8.05167
▁moving	-8.06021
▁laughs	-8.06221
▁s	-8.06809
▁making	-8.06825
▁ducks	-8.07366
▁started	-8.07366
▁throw	-8.07592
▁sometimes	-8.07955
▁bear	-8.08118
▁hours	-8.08297
▁space	-8.08434
▁grunts	-8.08517
▁beat	-8.08764
▁top	-8.09013
▁country	-8.09269
▁child	-8.10075
▁perhaps	-8.10085
▁captain	-8.10087
▁couple	-8.10087
▁white	-8.10094
▁met	-8.10102
▁song	-8.10146
▁asked	-8.10745
▁careful	-8.10811
▁harry	-8.1092
▁continues	-8.11448
▁quick	-8.11534
▁luck	-8.11586
▁kidding	-8.11762
▁mama	-8.11766
▁ya	-8.11854
▁ice	-8.11949
g	-8.12293
▁radio	-8.13463
▁till	-8.13469
▁book	-8.13488
▁screaming	-8.13506
▁scared	-8.13549
▁war	-8.14072
est	-8.14138
▁weird	-8.14145
▁serious	-8.14198
▁anymore	-8.14323
▁stupid	-8.14324
▁christmas	-8.14325
▁human	-8.14365
▁sister	-8.14375
▁cheering	-8.14428
▁pass	-8.14481
▁rock	-8.14574
▁ernie	-8.15194
▁air	-8.15198
▁brought	-8.1607
▁finally	-8.16112
▁general	-8.16163
▁sound	-8.16582
▁banks	-8.16698
▁promise	-8.16879
▁drive	-8.16938
▁glad	-8.16963
▁needs	-8.16999
▁daughter	-8.17054
▁itll	-8.17849
▁answer	-8.18586
▁news	-8.19095
▁killed	-8.19303
▁ow	-8.1951
▁hour	-8.20753
▁shot	-8.20775
▁land	-8.20936
▁control	-8.21448
▁outside	-8.21503
▁football	-8.21504
▁death	-8.21505
▁wake	-8.21518
able	-8.22107
▁dr	-8.22325
▁order	-8.22353
▁person	-8.22379
▁straight	-8.22413
▁grand	-8.22474
▁wed	-8.22492
▁crowd	-8.23098
▁th	-8.23254
▁touch	-8.23333
▁women	-8.2338
▁buddy	-8.23386
▁ones	-8.2339
▁tried	-8.23392
▁piece	-8.23605
▁shoot	-8.24004
▁seem	-8.24173
▁seems	-8.24176
▁strong	-8.24202
▁black	-8.24315
▁amazing	-8.24332
▁kiss	-8.24493
▁either	-8.25293
▁lead	-8.256
ies	-8.25729
▁proud	-8.26265
▁sign	-8.26341
▁wonder	-8.26754
▁sea	-8.27065
▁buy	-8.27253
▁case	-8.2735
▁secret	-8.2753
▁eye	-8.27552
▁star	-8.28224
▁living	-8.28236
▁bet	-8.28389
▁knows	-8.28873
▁scott	-8.29203
▁forever	-8.29235
▁somewhere	-8.29236
▁alive	-8.29246
▁feeling	-8.29643
▁sounds	-8.30144
▁class	-8.3016
▁magic	-8.30182
▁grandma	-8.30599
▁c	-8.31057
▁become	-8.31266
▁poor	-8.31275
▁absolutely	-8.31282
▁jump	-8.3156
▁past	-8.31904
▁months	-8.31964
▁reason	-8.3266
▁president	-8.32692
ar	-8.33174
▁super	-8.33305
▁lovely	-8.33478
▁fact	-8.33854
▁short	-8.33896
▁quit	-8.34273
▁small	-8.34289
▁clean	-8.34553
▁queen	-8.34816
▁ten	-8.35065
▁suppose	-8.35286
▁cold	-8.35358
▁taken	-8.35377
▁cat	-8.35384
▁york	-8.35454
▁papa	-8.35456
▁sort	-8.3546
▁w	-8.3592
▁b	-8.36254
▁eight	-8.36516
▁race	-8.36532
▁kelly	-8.36534
ll	-8.36542
▁groans	-8.36558
on	-8.36717
▁able	-8.36811
▁learn	-8.3683
▁count	-8.37173
▁handle	-8.37283
▁fair	-8.37413
▁sense	-8.37571
▁theyve	-8.37616
h	-8.37695
▁ring	-8.37854
▁voice	-8.38119
▁uncle	-8.38252
▁lts	-8.3842
▁smurfs	-8.38492
▁stick	-8.38568
▁deep	-8.38586
▁cute	-8.38617
▁camp	-8.38671
▁fault	-8.38715
▁blow	-8.38717
▁darling	-8.38718
▁dreams	-8.38777
▁fall	-8.38782
▁fish	-8.38918
▁re	-8.39104
p	-8.39131
▁round	-8.3924
▁husband	-8.39241
▁tough	-8.39725
▁english	-8.39803
▁dangerous	-8.39831
ers	-8.40162
▁boat	-8.40392
▁evening	-8.40554
▁quiet	-8.40706
man	-8.40706
f	-8.40892
▁shit	-8.40926
▁present	-8.4094
▁north	-8.40948
▁shouldnt	-8.4095
▁loved	-8.41579
▁hows	-8.42087
▁marshall	-8.42091
k	-8.4238
▁p	-8.42392
▁whoo	-8.43013
▁office	-8.43167
▁sick	-8.43244
▁lunch	-8.43253
▁finish	-8.43588
▁de	-8.43868
m	-8.43944
▁gets	-8.44146
▁maam	-8.44399
▁quack	-8.44399
▁hall	-8.444
▁road	-8.44403
▁simple	-8.44411
▁wild	-8.44417
▁seven	-8.4445
▁sun	-8.45017
▁happens	-8.45529
▁princess	-8.45604
▁wear	-8.4581
▁hide	-8.46794
▁mario	-8.46842
▁park	-8.47141
▁dress	-8.47162
▁marry	-8.47511
▁summer	-8.47963
▁possible	-8.4797
▁island	-8.4797
▁spend	-8.47971
▁vince	-8.47973
▁worse	-8.47973
▁words	-8.48215
▁fix	-8.4837
▁figure	-8.48538
▁truth	-8.48546
▁buzz	-8.48581
▁street	-8.48707
▁leaving	-8.4919
▁outta	-8.49193
▁kay	-8.49206
▁van	-8.49383
▁calling	-8.49613
▁join	-8.49622
▁sing	-8.5013
▁happening	-8.50158
▁bob	-8.50391
▁sent	-8.50438
le	-8.50714
ion	-8.50771
▁weeks	-8.50948
▁michael	-8.51224
▁soul	-8.51233
▁return	-8.51395
▁wash	-8.5141
▁strange	-8.51612
▁police	-8.51649
▁georgie	-8.51674
▁tired	-8.51683
▁fear	-8.52149
▁juli	-8.52581
▁shell	-8.52794
▁gun	-8.52804
▁state	-8.5293
▁smell	-8.53319
c	-8.53365
▁act	-8.53399
ic	-8.53654
▁honor	-8.53931
▁mad	-8.54002
▁blood	-8.54047
▁entire	-8.54093
▁mmm	-8.54205
▁clumsy	-8.54222
▁paddington	-8.54222
▁grunting	-8.54255
▁slow	-8.5479
▁cover	-8.54828
▁speaking	-8.55003
en	-8.55199
▁forgive	-8.55433
▁train	-8.55454
▁future	-8.55521
▁moon	-8.55541
st	-8.55991
▁lives	-8.56054
▁surprise	-8.56274
▁mouth	-8.56363
▁dark	-8.56693
▁stuck	-8.56837
▁third	-8.56845
b	-8.57396
▁attack	-8.57398
▁write	-8.575
▁grab	-8.5777
▁drop	-8.57808
▁turned	-8.5783
▁attention	-8.5817
▁hungry	-8.58172
▁richard	-8.58173
▁smurfette	-8.58181
▁g	-8.58197
▁la	-8.58305
▁laugh	-8.58395
▁meant	-8.58682
▁mess	-8.58808
us	-8.58854
▁doctor	-8.59177
nt	-8.59499
▁rather	-8.59522
▁felt	-8.59523
▁college	-8.59523
ment	-8.59932
▁longer	-8.60129
▁miles	-8.60296
▁tree	-8.60572
▁ground	-8.60605
▁officer	-8.60622
▁middle	-8.60892
▁boss	-8.60898
w	-8.61381
▁f	-8.61769
▁worked	-8.61803
▁tight	-8.62009
▁a	-8.62156
▁forgot	-8.62276
▁bryce	-8.6228
▁popper	-8.62286
▁busy	-8.62444
▁meeting	-8.62505
▁brothers	-8.62862
▁be	-8.629
▁expect	-8.62954
▁seconds	-8.6298
▁given	-8.63113
▁window	-8.63404
▁worth	-8.63498
▁eric	-8.63551
▁calm	-8.63693
▁giving	-8.63694
▁none	-8.63715
▁early	-8.63765
▁low	-8.63802
▁enjoy	-8.64358
▁bill	-8.64578
▁aah	-8.65147
▁hut	-8.65147
▁eating	-8.65154
▁asking	-8.65545
▁known	-8.65715
▁less	-8.65759
▁hero	-8.6607
▁standing	-8.66186
▁monster	-8.66324
▁french	-8.66544
▁spot	-8.66557
▁nine	-8.66561
▁afternoon	-8.66566
▁dorothy	-8.66566
▁london	-8.66566
▁definitely	-8.66571
▁upon	-8.66581
▁incredible	-8.66585
▁hed	-8.66793
▁gosh	-8.66977
▁singing	-8.67098
▁master	-8.67779
▁rules	-8.67848
▁mike	-8.67856
▁born	-8.67909
▁mission	-8.67958
▁others	-8.68037
▁arthur	-8.68039
▁nose	-8.68046
▁building	-8.68212
▁died	-8.6862
▁bird	-8.68904
▁carry	-8.69077
▁bus	-8.69119
▁favorite	-8.69284
▁age	-8.69285
▁share	-8.69333
▁steve	-8.69467
▁pardon	-8.6953
▁josh	-8.69537
▁station	-8.69541
▁terrible	-8.69553
▁completely	-8.69622
▁changed	-8.70029
▁roll	-8.70232
▁wind	-8.70263
▁knock	-8.70297
▁bag	-8.70716
▁relax	-8.70727
▁ho	-8.70839
▁system	-8.70861
▁imagine	-8.70863
▁box	-8.70923
▁smart	-8.70945
▁trip	-8.71007
▁company	-8.71045
▁davis	-8.71045
▁yesterday	-8.7105
▁army	-8.71197
▁m	-8.71364
▁in	-8.71529
▁kick	-8.71583
▁push	-8.71598
▁suit	-8.72525
▁jim	-8.72528
▁match	-8.72548
▁fantastic	-8.72583
▁awesome	-8.72583
▁kept	-8.72584
▁green	-8.72595
▁broken	-8.72636
▁law	-8.73033
▁fool	-8.73221
▁t	-8.73359
▁respect	-8.73435
▁build	-8.73695
▁flying	-8.73731
▁pain	-8.73889
▁mistake	-8.73942
▁walter	-8.73977
▁belong	-8.74015
▁frank	-8.74019
▁ben	-8.74029
▁doubt	-8.74085
▁key	-8.74101
▁baymax	-8.74146
▁history	-8.74146
▁birthday	-8.74147
▁faster	-8.74388
▁missed	-8.74389
▁watching	-8.74884
▁report	-8.74992
▁joke	-8.75464
▁brown	-8.75564
▁service	-8.75569
▁mumble	-8.75734
▁extra	-8.75734
▁hotel	-8.75759
▁west	-8.75809
▁ass	-8.76008
▁wh	-8.76537
up	-8.76652
▁teach	-8.76784
▁bomb	-8.77002
▁fat	-8.77179
▁except	-8.77289
▁caught	-8.77346
▁congratulations	-8.77346
▁jacques	-8.77346
▁nando	-8.77347
▁gerry	-8.77348
▁mommy	-8.77363
▁foot	-8.77366
▁machine	-8.7739
▁totally	-8.77395
▁certainly	-8.77435
▁saved	-8.77816
▁names	-8.78678
▁fighting	-8.78843
▁million	-8.78896
▁anywhere	-8.78985
▁normal	-8.79013
▁played	-8.79282
ch	-8.79353
▁questions	-8.79449
re	-8.79869
▁destroy	-8.802
▁board	-8.80215
▁date	-8.80397
▁corner	-8.80402
▁named	-8.80471
▁lucas	-8.80652
▁mmhmm	-8.80658
▁unless	-8.8068
▁sitting	-8.80685
▁wearing	-8.81288
▁hat	-8.8142
▁card	-8.81551
ity	-8.82007
▁charge	-8.8211
▁smile	-8.82163
▁pleasure	-8.82299
▁accident	-8.82339
▁across	-8.82347
▁defense	-8.82347
▁tv	-8.82354
▁wedding	-8.82397
▁hiro	-8.82416
▁bell	-8.82465
▁holy	-8.825
an	-8.831
▁test	-8.83395
▁brain	-8.83935
▁major	-8.84071
▁shrek	-8.84071
▁bunch	-8.84072
▁hasnt	-8.84072
▁marina	-8.84073
▁forward	-8.84082
▁club	-8.84087
▁ray	-8.84133
▁lie	-8.84343
▁rich	-8.84473
▁da	-8.84578
▁al	-8.84918
▁grow	-8.85021
▁sell	-8.85388
▁arm	-8.85399
▁horn	-8.85676
▁sweetheart	-8.85825
▁stoker	-8.85841
▁spirit	-8.85848
▁area	-8.85858
▁table	-8.85926
▁commander	-8.85949
▁screams	-8.86179
▁bar	-8.87034
▁river	-8.87608
▁neither	-8.87611
▁werent	-8.87611
▁grinch	-8.87611
▁rayburn	-8.87612
▁shh	-8.87618
▁jesus	-8.87618
▁thunder	-8.87623
▁action	-8.87666
▁spell	-8.87675
▁jamie	-8.87676
▁william	-8.87698
▁stone	-8.87727
▁chattering	-8.8773
▁explain	-8.87743
▁quickly	-8.8788
▁legs	-8.88732
th	-8.88821
▁n	-8.89048
▁double	-8.89254
▁nervous	-8.89294
▁near	-8.89308
▁prince	-8.89381
▁south	-8.89419
▁breakfast	-8.89429
▁alliance	-8.8943
▁choice	-8.89524
▁plays	-8.89628
▁besides	-8.89731
▁promised	-8.89789
ness	-8.89863
▁takes	-8.90433
▁looked	-8.90572
▁an	-8.90634
▁eggs	-8.90814
▁worried	-8.91281
▁terrific	-8.91281
▁kitchen	-8.91281
▁cream	-8.91282
▁uhhuh	-8.91282
▁henry	-8.91284
▁clothes	-8.91287
▁sophie	-8.9129
▁yep	-8.91292
▁single	-8.91321
▁sword	-8.91404
▁position	-8.91416
▁dude	-8.91427
▁animal	-8.91458
▁seat	-8.91506
▁horses	-8.91514
▁greatest	-8.91667
▁learned	-8.9176
▁american	-8.9177
▁works	-8.91862
▁loves	-8.92208
▁protect	-8.92319
ra	-8.92684
▁warm	-8.92869
▁aunt	-8.93154
▁coffee	-8.93168
▁goldberg	-8.93168
▁teeth	-8.93171
▁tooth	-8.93182
▁stopped	-8.93219
▁yall	-8.93221
▁vote	-8.9323
▁jane	-8.93255
▁map	-8.93264
▁tall	-8.93273
▁eh	-8.9329
▁wall	-8.93515
ry	-8.93529
▁rocky	-8.93553
▁pop	-8.94203
to	-8.94364
▁agree	-8.94916
▁rule	-8.95083
▁gargamel	-8.95091
▁chief	-8.95092
▁meat	-8.95092
▁swear	-8.95092
▁heh	-8.95097
▁paid	-8.95105
▁speed	-8.95109
▁band	-8.95132
▁artie	-8.95162
▁tea	-8.95217
▁thousand	-8.95319
▁picture	-8.95341
▁seeing	-8.96118
▁breath	-8.96135
z	-8.9632
▁guard	-8.96828
▁realize	-8.96911
▁broke	-8.9699
▁e	-8.97021
▁paul	-8.97024
▁visit	-8.97027
▁spanish	-8.97052
▁universe	-8.97052
▁somehow	-8.97052
▁lucy	-8.97053
▁worst	-8.97058
▁emergency	-8.97061
▁sam	-8.97061
▁annie	-8.97194
▁chicken	-8.97336
▁brave	-8.97845
▁prove	-8.98556
▁con	-8.98584
▁christ	-8.99029
▁evil	-8.99053
▁goddamn	-8.99055
▁launch	-8.9906
te	-8.9908
▁k	-8.99268
▁pal	-8.99284
▁idiot	-8.99296
▁penguin	-8.99384
▁finished	-8.99531
▁talked	-8.99568
▁complete	-8.99617
▁ii	-8.99858
▁h	-9.00475
▁ohh	-9.00621
▁holding	-9.0075
▁program	-9.00896
▁soft	-9.00897
▁artemis	-9.01093
▁majesty	-9.01093
▁upstairs	-9.01093
▁tiger	-9.01093
▁group	-9.01105
▁ivan	-9.01115
▁command	-9.01213
▁whistle	-9.0124
▁beg	-9.01348
▁katherine	-9.01387
▁champion	-9.01461
▁goodness	-9.01746
▁east	-9.0177
▁per	-9.01826
age	-9.02676
▁owe	-9.02754
▁cry	-9.02797
▁loud	-9.02841
▁missing	-9.02936
▁howd	-9.02978
▁fell	-9.03112
▁instead	-9.03176
▁napoleon	-9.03176
▁annabel	-9.03176
▁beyond	-9.03185
▁sight	-9.03187
▁amen	-9.0319
▁ought	-9.03193
▁out	-9.03395
▁fathers	-9.03536
▁sake	-9.03561
▁letter	-9.03716
▁tie	-9.0404
▁feels	-9.04716
▁freak	-9.04896
▁spy	-9.04904
▁lock	-9.04944
▁shel	-9.04946
▁dads	-9.04966
▁yo	-9.05042
▁weather	-9.05274
▁favor	-9.05301
▁spent	-9.05304
▁boris	-9.05305
▁kingdom	-9.05307
▁neck	-9.0531
▁appreciate	-9.05395
▁gold	-9.05406
▁victory	-9.05458
▁interesting	-9.05506
▁repeat	-9.05681
▁level	-9.05684
▁difference	-9.05694
▁hundred	-9.0572
▁track	-9.05779
▁nuts	-9.06174
la	-9.06199
▁lived	-9.06273
▁moved	-9.06463
▁cross	-9.06492
out	-9.06836
▁travel	-9.07128
▁offer	-9.07196
▁sad	-9.07394
▁purpose	-9.07477
▁moses	-9.07478
▁lyle	-9.07479
▁allison	-9.07479
▁barker	-9.075
ce	-9.07519
▁sandy	-9.07583
▁battle	-9.07607
▁folks	-9.07725
▁lay	-9.0773
▁locked	-9.0776
▁village	-9.07885
▁listening	-9.08206
▁rings	-9.08668
▁stars	-9.08743
ous	-9.08893
▁mention	-9.09439
▁d	-9.09492
▁bough	-9.09649
▁personal	-9.09672
▁everywhere	-9.097
▁ridiculous	-9.097
▁vanya	-9.09703
▁heck	-9.09703
▁emmet	-9.09705
▁boom	-9.09715
▁taste	-9.09734
rs	-9.09755
▁hiding	-9.09778
▁choose	-9.09835
▁shouting	-9.09839
▁starting	-9.09937
▁bank	-9.09948
▁fairy	-9.10063
▁games	-9.10065
▁score	-9.10069
▁force	-9.10087
se	-9.10115
▁leader	-9.1012
▁egg	-9.10267
▁training	-9.10476
▁lights	-9.10624
▁dare	-9.10626
▁reach	-9.1119
less	-9.11379
▁di	-9.11774
▁certain	-9.11825
▁carl	-9.11893
▁beach	-9.11972
▁excellent	-9.11972
▁twice	-9.11972
ling	-9.11973
▁enzo	-9.11974
▁carlos	-9.11983
▁katie	-9.11983
▁engine	-9.11997
▁tiny	-9.1201
▁bother	-9.12036
▁davey	-9.12113
▁pants	-9.12128
is	-9.12356
▁angel	-9.12361
▁shoes	-9.12371
▁floor	-9.12504
▁situation	-9.12538
▁giant	-9.12579
▁german	-9.12584
▁fellow	-9.12753
▁lift	-9.13482
▁ann	-9.13496
▁needed	-9.13522
▁draw	-9.13645
▁thinks	-9.13714
▁walking	-9.13759
▁plans	-9.13852
▁se	-9.14071
▁practice	-9.14114
▁wolf	-9.14158
▁books	-9.14201
▁syracuse	-9.14298
▁beginning	-9.14298
▁smoke	-9.14299
▁flight	-9.14301
▁wrote	-9.14301
▁dumb	-9.14312
▁truly	-9.14313
▁doin	-9.14319
▁sky	-9.14351
▁accept	-9.14567
▁wine	-9.14601
▁gift	-9.14634
▁figured	-9.14671
▁fan	-9.1473
▁chair	-9.14909
▁squirrel	-9.14918
▁whose	-9.14946
▁agent	-9.14966
▁camera	-9.14972
▁yard	-9.1499
▁picked	-9.15415
▁dogs	-9.15541
▁cook	-9.15881
▁i	-9.16556
▁settle	-9.16624
▁operation	-9.16625
▁peace	-9.16672
▁thatll	-9.16679
▁silly	-9.16679
▁impossible	-9.16679
▁bottom	-9.16682
▁byebye	-9.16682
▁zone	-9.16697
▁shop	-9.16701
▁press	-9.1672
▁interested	-9.16818
u	-9.16827
▁allowed	-9.16935
▁closer	-9.16941
ist	-9.17138
▁escape	-9.17152
▁store	-9.1719
▁roger	-9.17336
ur	-9.17341
▁planet	-9.17372
▁begin	-9.17433
▁lll	-9.17461
▁gas	-9.1752
▁where	-9.17963
▁victor	-9.18022
▁gods	-9.18041
▁bowl	-9.18553
▁bitch	-9.18599
▁list	-9.18963
▁sisters	-9.18978
▁afford	-9.19083
▁hospital	-9.19102
▁empty	-9.19118
▁england	-9.19118
▁saturday	-9.19118
▁nowhere	-9.19118
▁ugh	-9.1912
▁flag	-9.19122
▁killing	-9.19123
▁cale	-9.19132
▁obviously	-9.19169
▁barking	-9.19197
▁main	-9.19211
▁losing	-9.19216
▁decided	-9.19248
▁starts	-9.19328
ty	-9.19405
▁tom	-9.1943
▁julie	-9.19479
▁computer	-9.19884
▁cake	-9.1989
▁mountain	-9.19891
▁month	-9.1992
▁duck	-9.19932
▁r	-9.20021
▁goin	-9.20027
▁lt	-9.20406
▁fit	-9.20435
▁using	-9.20734
▁orders	-9.21102
▁rain	-9.21198
ive	-9.21261
▁alarm	-9.21309
▁record	-9.21447
▁heads	-9.21471
▁awful	-9.21497
▁arms	-9.21515
▁ian	-9.2158
▁large	-9.21586
▁ocean	-9.21618
▁indeed	-9.21618
▁upset	-9.21618
▁science	-9.21618
▁vacation	-9.21618
▁terry	-9.21619
▁howard	-9.21622
▁security	-9.21622
▁girlfriend	-9.21624
▁according	-9.21624
▁pretend	-9.21625
▁forest	-9.21628
▁spaceship	-9.2163
▁handsome	-9.21633
▁bobby	-9.21636
▁babe	-9.21638
▁center	-9.21661
▁immediately	-9.21661
▁usually	-9.21674
▁bought	-9.21678
▁rid	-9.21779
▁gotten	-9.21901
▁bloody	-9.21965
▁seriously	-9.21987
▁mark	-9.22021
▁bucks	-9.22215
▁trick	-9.22279
▁butt	-9.22294
▁winner	-9.2236
▁message	-9.2238
▁beast	-9.22433
▁strike	-9.22446
▁knight	-9.22462
ted	-9.22582
▁blows	-9.2296
▁liked	-9.23418
▁carol	-9.23516
▁pa	-9.23571
▁pitch	-9.23691
▁max	-9.23763
▁zoo	-9.23777
▁swing	-9.23789
▁animals	-9.23937
▁notice	-9.24009
▁dig	-9.24127
▁nothin	-9.24145
▁mate	-9.24156
▁court	-9.24177
▁poppins	-9.24182
▁duran	-9.24182
▁hadnt	-9.24182
▁bunny	-9.24182
▁danny	-9.24186
▁wolfman	-9.24207
▁whatd	-9.24229
▁danger	-9.24242
▁huge	-9.24279
▁lake	-9.24294
▁putting	-9.24311
▁shed	-9.2433
ation	-9.24538
▁quest	-9.24725
▁freeze	-9.24771
▁dressed	-9.24783
▁breathe	-9.24811
▁bite	-9.24984
▁shake	-9.25
▁bath	-9.25052
▁quarter	-9.25061
▁fellas	-9.25616
▁flowers	-9.2571
▁following	-9.25766
▁pack	-9.25993
▁reading	-9.26034
▁consider	-9.26269
▁ape	-9.26287
▁deliver	-9.2635
▁mm	-9.26367
▁blind	-9.26497
▁honest	-9.26505
▁raise	-9.26683
▁final	-9.26702
▁showed	-9.2674
▁driving	-9.26814
▁marriage	-9.26814
▁matthew	-9.26814
▁plenty	-9.26814
▁shouldve	-9.26814
▁support	-9.26814
▁donkey	-9.26814
▁roof	-9.26815
▁blast	-9.26815
▁dancing	-9.26816
▁pressure	-9.26816
▁information	-9.26817
▁brilliant	-9.26818
▁bright	-9.26818
▁tentacular	-9.2682
▁sunday	-9.26823
▁simply	-9.26829
▁amy	-9.2685
▁panting	-9.26866
▁ahh	-9.26999
▁birds	-9.2717
ng	-9.27323
▁block	-9.27451
▁risk	-9.2752
▁continue	-9.27639
▁greek	-9.27732
▁baker	-9.27752
▁flintstone	-9.27781
▁post	-9.28073
▁dis	-9.28085
▁st	-9.28177
▁v	-9.28341
▁cop	-9.28592
▁easter	-9.2864
▁ran	-9.28852
▁discuss	-9.29493
▁apart	-9.29498
▁francis	-9.29511
▁gordon	-9.29516
▁northbrook	-9.29516
▁strength	-9.29516
▁ulysses	-9.29516
▁underdog	-9.29517
▁claire	-9.29517
▁bigger	-9.29517
▁british	-9.29517
▁beauty	-9.29518
▁allnut	-9.29518
▁unbelievable	-9.29519
▁grace	-9.29519
▁nina	-9.29525
▁admiral	-9.29527
▁carried	-9.29533
▁james	-9.29541
▁weight	-9.29543
▁tony	-9.29557
▁nature	-9.29582
▁pat	-9.29619
▁sweetie	-9.29637
▁charming	-9.29746
▁leg	-9.29815
ah	-9.3004
▁siren	-9.30115
▁art	-9.30292
ne	-9.30318
▁bottle	-9.30465
▁fired	-9.30468
▁garden	-9.30509
▁season	-9.30583
▁hole	-9.30611
ting	-9.30695
▁wondering	-9.30776
▁calls	-9.30835
ish	-9.31574
▁note	-9.31797
▁bond	-9.31866
▁pie	-9.31929
▁allow	-9.32014
came	-9.32066
▁tape	-9.32096
▁difficult	-9.32104
▁waste	-9.32151
▁lots	-9.32167
▁juni	-9.32262
▁church	-9.3229
▁gloria	-9.32294
▁hockey	-9.32294
▁lovelace	-9.32294
▁mckenna	-9.32294
▁restaurant	-9.32294
▁root	-9.32294
▁taught	-9.32295
▁clarence	-9.32295
▁dying	-9.32297
▁dive	-9.32305
▁voss	-9.32306
▁comfortable	-9.32307
▁royal	-9.32307
▁groaning	-9.32314
▁highness	-9.32365
▁heading	-9.32498
▁ate	-9.32549
▁so	-9.32666
▁perfectly	-9.32898
▁throat	-9.33345
▁robot	-9.33406
▁cousin	-9.33412
▁russian	-9.3346
▁turns	-9.33773
▁missy	-9.34411
na	-9.35002
▁dave	-9.35057
▁curt	-9.3514
▁cindy	-9.35151
▁elizabeth	-9.35151
▁journey	-9.35151
▁contact	-9.35152
▁project	-9.35152
▁crime	-9.35152
▁nancy	-9.35153
▁bathroom	-9.35153
▁sonja	-9.35165
▁soup	-9.35168
▁carmen	-9.35215
▁aw	-9.35222
▁bridge	-9.35224
▁cup	-9.35227
▁problems	-9.35429
▁dollars	-9.3548
et	-9.35491
by	-9.35513
▁bro	-9.35631
▁crying	-9.35777
▁breathing	-9.35844
▁treat	-9.35866
▁hardly	-9.36078
▁acting	-9.3618
▁pulled	-9.3623
▁ends	-9.36266
▁gate	-9.36311
▁type	-9.36386
▁flower	-9.36444
▁ears	-9.36707
▁lines	-9.37466
▁heat	-9.37581
▁america	-9.37625
▁hug	-9.37913
▁curse	-9.37914
▁wet	-9.37917
▁survive	-9.37917
▁opening	-9.37942
▁loose	-9.38023
▁staff	-9.38092
▁balboa	-9.38093
▁especially	-9.38093
▁heavy	-9.38093
▁nonsense	-9.38093
▁theyd	-9.38093
▁ugly	-9.38093
▁defend	-9.38093
▁trash	-9.38093
▁charles	-9.38093
▁department	-9.38093
▁mick	-9.38093
▁bruce	-9.38095
▁assignment	-9.38096
▁chuckling	-9.38097
▁clock	-9.38103
▁winnie	-9.3811
▁shame	-9.38115
▁lying	-9.38123
▁dirty	-9.38184
ai	-9.3846
▁harm	-9.39021
▁ringing	-9.39323
▁dragon	-9.39366
▁mile	-9.39506
▁plane	-9.39781
it	-9.39797
▁paint	-9.39886
ful	-9.40172
▁yards	-9.40258
▁mi	-9.40282
▁pet	-9.40516
▁due	-9.40853
▁invite	-9.4095
▁coast	-9.41011
▁trade	-9.41047
▁fresh	-9.41081
▁cora	-9.41106
▁bread	-9.41123
▁offense	-9.41123
▁private	-9.41123
▁calvin	-9.41123
▁crap	-9.41124
▁virginia	-9.41124
▁square	-9.41124
▁vision	-9.41124
▁friday	-9.41124
▁jason	-9.41125
▁swim	-9.41126
▁austin	-9.41127
▁enemy	-9.41127
▁toula	-9.41134
▁math	-9.41144
▁uhoh	-9.41169
▁powerful	-9.41172
▁stage	-9.41173
▁hearts	-9.41239
▁dry	-9.41336
▁immortals	-9.41472
▁san	-9.41654
▁file	-9.41918
▁noise	-9.42456
▁grade	-9.42527
▁creature	-9.42528
ma	-9.4261
▁fella	-9.42629
iy	-9.42787
▁pray	-9.4368
▁focus	-9.43962
▁doc	-9.4404
▁serve	-9.44071
▁base	-9.44071
▁collect	-9.44174
▁abigail	-9.44248
▁aculos	-9.44248
▁jungle	-9.44248
▁wrestling	-9.44248
▁device	-9.44248
▁government	-9.4425
▁often	-9.4425
▁snow	-9.4425
▁meow	-9.4425
▁truck	-9.44251
▁telephone	-9.44252
▁teddy	-9.44252
▁yellow	-9.44253
▁sox	-9.44257
▁announcer	-9.44283
▁itd	-9.44283
▁milk	-9.44289
▁fourth	-9.44347
▁ma	-9.44456
▁parker	-9.445
▁billy	-9.44639
os	-9.44693
▁keeps	-9.44772
▁hawks	-9.44885
▁ear	-9.44987
▁bat	-9.45295
ate	-9.45335
▁deserve	-9.45537
ro	-9.45562
▁miracle	-9.45732
▁weapon	-9.4575
▁everythings	-9.45922
▁ed	-9.46134
▁dan	-9.46429
▁feelings	-9.46537
▁climb	-9.47005
▁player	-9.47079
▁decide	-9.47303
▁excited	-9.47345
▁staying	-9.474
▁genius	-9.47411
▁public	-9.47457
▁admit	-9.47474
▁africa	-9.47474
▁although	-9.47474
▁clyde	-9.47474
▁insane	-9.47474
▁montgomery	-9.47474
▁texas	-9.47474
▁turtle	-9.47474
▁eddie	-9.47474
▁rosie	-9.47474
▁asleep	-9.47474
▁relationship	-9.47474
▁bride	-9.47475
▁desk	-9.47475
▁candy	-9.47476
▁airport	-9.47477
▁crew	-9.47478
▁barley	-9.47478
▁poet	-9.47483
▁dropped	-9.47483
▁zero	-9.47486
▁cash	-9.47491
▁shape	-9.47495
▁fearless	-9.47503
▁self	-9.47512
▁suddenly	-9.47517
▁scare	-9.47539
▁wide	-9.47687
sh	-9.4771
▁prepare	-9.47823
▁ant	-9.4785
▁helping	-9.47887
▁spin	-9.47968
▁sooner	-9.48013
▁destroyed	-9.48017
▁powers	-9.48093
il	-9.48237
▁color	-9.48783
▁heaven	-9.48937
▁tunnel	-9.49043
▁ghost	-9.49074
ally	-9.49088
▁paper	-9.49089
▁alien	-9.49094
▁mothers	-9.4922
▁oi	-9.49358
▁killer	-9.49373
▁hanging	-9.49547
▁goal	-9.49606
▁form	-9.49756
▁sleeping	-9.49767
ical	-9.49845
ant	-9.50236
▁ideas	-9.50723
▁stole	-9.50745
▁path	-9.50768
▁orange	-9.508
▁grandpa	-9.50806
▁built	-9.50807
▁europe	-9.50807
▁fulton	-9.50807
▁herd	-9.50807
▁midnight	-9.50807
▁glory	-9.50808
▁speech	-9.50808
▁wilma	-9.50808
▁zoc	-9.50808
▁ellie	-9.50809
▁distance	-9.50811
▁onto	-9.50812
▁hazel	-9.50812
▁bravo	-9.50812
▁patton	-9.50813
▁lisa	-9.50815
▁angry	-9.50818
▁grover	-9.50823
▁lonely	-9.5083
▁panic	-9.50835
▁circus	-9.5084
▁darkness	-9.50843
▁bump	-9.50882
▁heroes	-9.50931
▁tires	-9.51013
▁united	-9.51016
▁doo	-9.51137
▁states	-9.51239
▁matters	-9.51258
▁stu	-9.51354
▁up	-9.51488
▁turning	-9.51576
▁speaks	-9.5173
▁passed	-9.51892
▁sports	-9.52024
▁rev	-9.52187
▁burn	-9.52235
▁experience	-9.52248
▁edge	-9.52459
▁decision	-9.52461
▁turner	-9.52464
▁loser	-9.52842
▁national	-9.5288
▁ex	-9.53051
▁en	-9.5316
at	-9.53172
▁doors	-9.5332
land	-9.53776
▁pictures	-9.53808
off	-9.53823
▁switch	-9.53922
▁talent	-9.53982
you	-9.54012
▁cheese	-9.54255
▁fowl	-9.54255
▁grandfather	-9.54255
▁mushroom	-9.54255
▁rough	-9.54255
▁sauvage	-9.54255
▁whiskey	-9.54255
▁tsar	-9.54256
▁luther	-9.54256
▁view	-9.54257
▁babies	-9.54258
▁averman	-9.54259
▁nope	-9.54259
▁equipment	-9.5426
▁kragle	-9.5426
▁within	-9.5426
▁tower	-9.54264
▁gentleman	-9.54267
▁colony	-9.54276
▁delicious	-9.54288
▁paulie	-9.54312
▁honking	-9.54314
▁rocket	-9.54394
▁nearly	-9.54497
▁ba	-9.54581
▁add	-9.546
▁brainy	-9.54612
▁ref	-9.54623
ke	-9.54643
▁degrees	-9.54776
▁cars	-9.54862
ance	-9.54924
▁pl	-9.54972
▁yay	-9.54989
▁trees	-9.55073
▁pounds	-9.5521
▁hop	-9.55424
▁closed	-9.5545
▁followed	-9.55566
▁falling	-9.55695
ter	-9.5573
▁fill	-9.56026
▁shark	-9.56052
▁rope	-9.56067
▁aliens	-9.56069
▁cost	-9.56088
▁wheel	-9.56126
▁creatures	-9.56192
ca	-9.56201
▁teacher	-9.56306
▁robots	-9.56378
ts	-9.56524
men	-9.56586
▁pool	-9.56632
▁feed	-9.56957
▁guns	-9.57115
▁penguins	-9.57244
▁shower	-9.5725
▁faith	-9.57454
▁challenge	-9.57576
▁indistinct	-9.577
▁inter	-9.57737
▁superhero	-9.57772
▁witch	-9.57781
▁weak	-9.57812
▁apologize	-9.57827
▁drej	-9.57827
▁famous	-9.57827
▁peyton	-9.57827
▁professor	-9.57827
▁shield	-9.57827
▁taeko	-9.57827
▁pedro	-9.57827
▁bombay	-9.57827
▁choir	-9.57827
▁chicago	-9.57827
▁ogre	-9.57828
▁llke	-9.57828
▁sarah	-9.5783
▁hova	-9.57831
▁stadium	-9.57831
▁clubber	-9.57832
▁writing	-9.57832
▁wiii	-9.57834
▁flies	-9.57839
▁energy	-9.57841
▁gross	-9.57843
▁scene	-9.57849
▁size	-9.57851
▁batman	-9.57852
ary	-9.57859
▁jackson	-9.57885
▁arrived	-9.579
▁oil	-9.5791
▁embarrassing	-9.57918
▁growling	-9.57922
cient	-9.57998
▁hooker	-9.58009
▁pru	-9.58055
▁lower	-9.58074
▁gasping	-9.58077
▁yelling	-9.58204
▁hoping	-9.58297
▁clearly	-9.58417
▁tied	-9.58435
▁pan	-9.58675
▁ruin	-9.58928
▁cheer	-9.59355
▁tears	-9.59356
▁contract	-9.59397
ine	-9.59622
▁lawyer	-9.59713
▁peanut	-9.59732
▁runs	-9.59788
▁guest	-9.59812
▁metal	-9.59908
▁stranger	-9.59935
way	-9.60122
op	-9.60182
▁sub	-9.60313
▁germans	-9.60538
▁ab	-9.60685
▁rescue	-9.60707
▁enter	-9.60783
▁x	-9.60833
ac	-9.60867
▁led	-9.60976
▁sons	-9.61153
▁punch	-9.61218
▁over	-9.61256
▁glass	-9.61476
▁sharp	-9.61513
▁azrael	-9.6153
▁david	-9.6153
▁dennis	-9.6153
▁ducal	-9.6153
▁possibly	-9.6153
▁pygar	-9.6153
▁shoeshine	-9.6153
▁threw	-9.6153
▁wadsworth	-9.6153
▁whispering	-9.6153
▁bertier	-9.6153
▁boston	-9.6153
▁giggling	-9.6153
▁merlin	-9.61531
▁exciting	-9.61531
▁sugar	-9.61531
▁mercy	-9.61531
▁target	-9.61531
▁bruno	-9.61532
▁phil	-9.61532
▁winning	-9.61533
▁downstairs	-9.61535
ia	-9.61537
▁grass	-9.61539
▁boyfriend	-9.61543
▁shine	-9.61544
▁schedule	-9.61544
▁loving	-9.61554
▁castle	-9.61557
▁involved	-9.61576
▁bigfoot	-9.61595
▁tc	-9.616
▁barn	-9.6167
▁signal	-9.6173
▁invited	-9.61748
▁prepared	-9.61767
▁pin	-9.61792
▁keys	-9.6183
▁hoops	-9.61831
▁approaching	-9.61883
▁slowly	-9.61903
▁sand	-9.61923
▁hook	-9.62505
▁hoo	-9.62946
el	-9.63066
▁jan	-9.63072
▁account	-9.63195
um	-9.632
▁older	-9.63266
lo	-9.6337
▁kim	-9.63456
▁opens	-9.63472
▁rise	-9.63547
▁style	-9.63577
▁jerk	-9.63594
▁championship	-9.63623
▁student	-9.63641
▁director	-9.63651
▁lesson	-9.63669
▁keeping	-9.63687
▁beer	-9.63801
v	-9.64042
▁pi	-9.64331
▁correct	-9.64631
▁wave	-9.64654
▁bless	-9.64673
▁steal	-9.64918
▁suggest	-9.65011
▁judge	-9.65098
ether	-9.65138
▁among	-9.65356
▁legend	-9.65375
▁criminal	-9.65376
▁language	-9.65376
▁mississippi	-9.65376
▁understood	-9.65376
▁biggest	-9.65377
▁tongue	-9.65377
▁romantic	-9.65379
▁alright	-9.6538
▁duty	-9.6538
▁tommy	-9.65381
▁horrible	-9.65384
▁dawn	-9.65385
▁supper	-9.65391
▁pure	-9.65394
▁rare	-9.65405
▁ike	-9.65466
▁pink	-9.65473
▁mixed	-9.65491
▁iove	-9.65513
▁stairs	-9.65617
▁screeching	-9.65618
▁juliet	-9.65647
id	-9.65656
▁filled	-9.65681
▁bust	-9.65685
▁ye	-9.65729
▁spit	-9.6578
▁realized	-9.65799
▁clears	-9.66006
▁plus	-9.66084
▁j	-9.66287
▁pen	-9.66469
▁knocking	-9.66553
▁mo	-9.66593
▁expecting	-9.66644
▁waited	-9.66867
▁woods	-9.66903
▁period	-9.66937
▁remind	-9.67202
▁all	-9.67303
▁landing	-9.67331
▁falls	-9.67465
▁weapons	-9.67477
▁career	-9.67529
▁bug	-9.67558
▁current	-9.67562
▁italian	-9.676
▁button	-9.67639
▁ticket	-9.67651
▁woo	-9.67683
▁pulling	-9.67786
▁greater	-9.68028
▁butts	-9.68036
▁crack	-9.68302
▁numbers	-9.68769
▁demand	-9.68871
▁health	-9.68925
▁sail	-9.68926
▁wreck	-9.69099
▁humans	-9.69137
▁natural	-9.69248
▁india	-9.69307
▁gee	-9.69341
▁sneak	-9.6935
▁advice	-9.69376
▁central	-9.69376
▁glenn	-9.69376
▁scratch	-9.69376
▁written	-9.69376
▁percent	-9.69377
▁agency	-9.69377
▁joanna	-9.69377
▁raymond	-9.69378
▁assistant	-9.69378
▁positive	-9.69378
▁resistance	-9.69379
▁poem	-9.69381
▁freedom	-9.69381
▁naked	-9.69382
▁section	-9.69383
▁orangemen	-9.69385
▁poetry	-9.69393
▁basement	-9.69401
▁portal	-9.69405
▁betty	-9.69422
▁petey	-9.69424
▁mail	-9.69434
▁safety	-9.69441
▁male	-9.69454
▁brad	-9.6946
▁beeping	-9.69462
▁fairies	-9.69477
▁carter	-9.69492
▁willing	-9.69503
▁code	-9.69507
▁prize	-9.69521
▁ca	-9.69582
▁wing	-9.69636
▁sold	-9.69767
▁deeply	-9.69846
▁mayor	-9.69907
▁surprised	-9.69911
▁uhh	-9.69934
▁towards	-9.69985
▁blame	-9.69998
▁painting	-9.70012
▁giggles	-9.70056
▁aye	-9.70112
▁leaves	-9.70165
▁fixed	-9.70315
ge	-9.70622
▁soldiers	-9.70702
▁fields	-9.70818
▁co	-9.7099
▁jumping	-9.71186
▁shooting	-9.71327
▁walked	-9.71332
▁tear	-9.71474
▁lorenzo	-9.7165
▁mask	-9.71654
▁saving	-9.71696
▁cell	-9.71709
▁heavyweight	-9.71722
▁chocolate	-9.71752
▁crocodile	-9.71755
▁tank	-9.71786
▁pleased	-9.71791
▁warrior	-9.71804
▁belt	-9.71832
▁sometime	-9.7184
▁russians	-9.71855
▁tail	-9.71905
▁cops	-9.71965
x	-9.72065
▁apes	-9.72088
li	-9.72192
ster	-9.72376
▁cares	-9.72569
▁pieces	-9.72587
▁member	-9.72657
ph	-9.72809
▁bow	-9.73044
▁americans	-9.73147
▁surely	-9.73174
▁avoid	-9.73233
▁crown	-9.7326
▁direct	-9.73296
▁shift	-9.73351
▁batter	-9.73352
▁wire	-9.7341
▁introduce	-9.73414
▁total	-9.73433
▁kit	-9.73463
▁spoke	-9.73475
▁capsule	-9.73543
▁frost	-9.73543
▁meredith	-9.73543
▁paradise	-9.73543
▁silence	-9.73543
▁stomach	-9.73543
▁tadashi	-9.73543
▁traffic	-9.73543
▁university	-9.73543
▁varsity	-9.73543
▁whispers	-9.73543
▁courage	-9.73543
▁necessary	-9.73543
▁whistling	-9.73544
▁example	-9.73545
▁harper	-9.73545
▁brian	-9.73547
▁permission	-9.73547
▁lenny	-9.73556
▁conway	-9.73558
▁liar	-9.73558
▁stepford	-9.73558
▁titanic	-9.7356
▁stories	-9.73561
▁duke	-9.73565
▁hm	-9.7357
▁alice	-9.73575
▁began	-9.73582
▁nicky	-9.73611
▁professional	-9.73612
▁auntie	-9.73615
▁model	-9.73625
▁louis	-9.73655
▁landon	-9.73674
▁indistinctly	-9.73692
▁bears	-9.73806
▁noticed	-9.73833
▁raised	-9.73898
no	-9.74052
▁riding	-9.74307
▁nana	-9.74319
▁talkin	-9.74334
▁sat	-9.74382
time	-9.74388
▁titans	-9.74476
▁trained	-9.74483
▁kissed	-9.74781
the	-9.74823
▁ted	-9.74882
▁smells	-9.7493
one	-9.75141
▁remain	-9.75299
▁suffer	-9.75369
▁wheels	-9.75602
▁adventure	-9.757
pe	-9.75703
▁yell	-9.75725
▁murder	-9.75776
▁cloud	-9.76121
▁movie	-9.76151
▁diet	-9.762
▁fielding	-9.76271
▁knights	-9.76431
▁moms	-9.76457
▁secrets	-9.7659
▁fi	-9.76816
ea	-9.7704
▁champions	-9.77112
▁answers	-9.77281
▁believed	-9.7735
▁po	-9.77381
▁nurse	-9.77477
▁farm	-9.77534
▁gain	-9.7762
▁guarantee	-9.77706
▁require	-9.77722
▁leonard	-9.77829
▁akima	-9.77891
▁applause	-9.77891
▁grandmother	-9.77891
▁opinion	-9.77891
▁ralph	-9.77891
▁responsible	-9.77891
▁shirt	-9.77891
▁tuesday	-9.77891
▁vehicle	-9.77891
▁mouse	-9.77891
▁sheldon	-9.77891
▁whoever	-9.77891
▁someday	-9.77893
▁appointment	-9.77893
▁colonel	-9.77893
▁franck	-9.77893
▁priest	-9.77893
▁judy	-9.77894
▁swimming	-9.77895
▁easier	-9.77895
▁cooper	-9.77898
▁fancy	-9.779
▁shore	-9.779
▁property	-9.779
▁precious	-9.77908
▁orion	-9.77911
▁rice	-9.77911
▁tess	-9.77919
▁apartment	-9.77921
▁meal	-9.77926
▁mood	-9.77952
▁jr	-9.77954
▁mister	-9.77958
▁homework	-9.77961
ore	-9.77964
▁nest	-9.77973
▁instructions	-9.78011
▁coat	-9.78075
▁wood	-9.78102
▁honestly	-9.78103
▁eaten	-9.7811
▁peter	-9.78229
▁scored	-9.78231
▁belongs	-9.78238
▁bringing	-9.78265
▁warning	-9.78289
as	-9.78385
▁hip	-9.78537
▁loss	-9.78601
▁lips	-9.78638
▁expected	-9.78771
▁touched	-9.792
▁lately	-9.792
ow	-9.79205
▁ga	-9.79328
▁units	-9.79342
▁row	-9.79365
▁fingers	-9.79414
ri	-9.79479
▁buzzing	-9.79557
ul	-9.79605
ey	-9.79651
▁cheat	-9.79678
▁counting	-9.79751
▁tickets	-9.79809
▁guests	-9.79965
▁pe	-9.80019
▁condition	-9.80113
ized	-9.80308
▁likes	-9.80456
▁recipe	-9.80542
▁spring	-9.80546
▁wizard	-9.80613
▁uniform	-9.80632
▁rose	-9.80655
▁devil	-9.80677
▁weekend	-9.80693
▁hearing	-9.80741
▁cave	-9.80747
▁sp	-9.81
▁joy	-9.81021
▁signs	-9.81159
▁subject	-9.8126
▁picking	-9.81398
▁ways	-9.81427
▁crash	-9.81665
▁prime	-9.81676
▁search	-9.81691
▁o	-9.81751
▁guards	-9.81836
and	-9.81893
▁el	-9.81915
▁breaking	-9.81946
▁watched	-9.81995
▁event	-9.8203
▁gather	-9.82137
▁closes	-9.8214
▁rush	-9.82141
▁pro	-9.82185
▁release	-9.82259
▁flat	-9.82349
▁tests	-9.82359
▁sandwich	-9.82382
▁mamma	-9.82397
▁somethin	-9.82405
▁gettin	-9.82411
▁wheat	-9.82413
▁social	-9.82435
▁spark	-9.82436
▁adam	-9.82436
▁effort	-9.82436
▁female	-9.82436
▁herbert	-9.82436
▁jersey	-9.82436
▁local	-9.82436
▁pabio	-9.82436
▁changing	-9.82437
▁bishop	-9.82437
▁memories	-9.82437
▁pregnant	-9.82437
▁division	-9.82439
▁jerry	-9.82439
▁stargazer	-9.82439
▁memory	-9.82439
▁humming	-9.82439
▁elsie	-9.8244
▁regent	-9.82441
▁century	-9.82443
▁responsibility	-9.82443
▁wherever	-9.82444
▁forgotten	-9.8245
▁barney	-9.8245
▁extremely	-9.82451
▁planned	-9.82457
▁puck	-9.82458
▁address	-9.82459
▁disgusting	-9.82469
▁swamp	-9.82479
▁hill	-9.82482
▁barely	-9.82505
▁magical	-9.82524
co	-9.82541
▁exclaiming	-9.82555
▁navy	-9.82557
▁milly	-9.8256
▁scary	-9.82572
▁ace	-9.82603
▁machines	-9.82656
▁latest	-9.82658
▁ron	-9.827
▁butter	-9.82702
▁failed	-9.82704
▁copy	-9.82739
▁settled	-9.82793
▁cast	-9.82805
▁nation	-9.82898
▁spike	-9.82984
▁march	-9.83014
▁lad	-9.8303
▁mon	-9.83231
▁younger	-9.83248
▁kicked	-9.8328
▁cooking	-9.83326
▁te	-9.83446
▁toes	-9.84061
▁do	-9.84228
▁split	-9.84245
oggy	-9.84255
▁yells	-9.84286
▁cos	-9.84447
▁interest	-9.84684
▁wins	-9.84855
▁les	-9.85029
▁sol	-9.85083
▁drinking	-9.8514
▁storm	-9.85179
▁sport	-9.85272
▁partner	-9.85369
▁bullet	-9.85416
▁players	-9.85421
▁cookie	-9.85491
▁u	-9.85524
▁hates	-9.85839
do	-9.85884
▁giants	-9.85932
▁sale	-9.86002
▁pee	-9.86145
just	-9.86295
▁fighter	-9.86371
▁request	-9.8638
▁hatch	-9.86386
▁fail	-9.86416
ern	-9.86474
▁gem	-9.86597
▁steam	-9.86675
me	-9.86687
▁cha	-9.8672
▁approach	-9.86744
▁bang	-9.86759
▁nut	-9.86782
▁toast	-9.86883
▁character	-9.86896
▁skin	-9.87008
▁madam	-9.8708
▁cheap	-9.87094
▁proper	-9.87102
▁drunk	-9.87194
▁knife	-9.87195
▁diana	-9.87198
▁families	-9.87198
▁germaine	-9.87198
▁however	-9.87198
▁krei	-9.87198
▁marmalade	-9.87198
▁otherwise	-9.87198
▁peasant	-9.87198
▁regular	-9.87198
▁stood	-9.87198
▁stretch	-9.87198
▁whinnying	-9.87198
▁wouid	-9.87198
▁cloe	-9.87198
▁desire	-9.87198
▁ellen	-9.87198
▁formula	-9.87198
▁sunshine	-9.87199
▁planning	-9.87201
▁complicated	-9.87203
▁rude	-9.87204
▁fuel	-9.87204
▁therapy	-9.87205
▁lonnie	-9.87208
▁francisco	-9.87209
▁whoohoo	-9.87209
▁nora	-9.8721
▁award	-9.87212
▁boone	-9.87212
▁wlli	-9.87215
▁common	-9.87217
▁touchdown	-9.87223
▁jail	-9.87226
▁holly	-9.87228
▁friendship	-9.87254
▁spread	-9.87258
▁wise	-9.87267
▁gary	-9.87268
▁mass	-9.87313
▁passion	-9.87349
▁useless	-9.87353
▁scottie	-9.87354
▁kingman	-9.87428
▁jewels	-9.875
▁personally	-9.87517
▁hammer	-9.8753
▁lou	-9.87537
▁moves	-9.87583
▁stealing	-9.87769
▁depends	-9.87943
▁fate	-9.87972
red	-9.88303
▁bastards	-9.88444
ti	-9.88555
▁prefer	-9.88577
▁gune	-9.88678
▁parking	-9.89059
▁sever	-9.89131
▁hated	-9.89519
ette	-9.89639
▁heavens	-9.89744
▁checked	-9.89758
▁z	-9.89764
▁losers	-9.89769
▁ants	-9.89787
ping	-9.90049
▁au	-9.9029
▁tapes	-9.90305
▁price	-9.90361
▁conversation	-9.90374
▁monkey	-9.90375
ton	-9.90381
▁explorer	-9.904
▁eagle	-9.90406
▁bike	-9.90416
▁issue	-9.90417
▁shoulder	-9.9045
▁finger	-9.90458
▁winter	-9.90515
▁toe	-9.90535
▁direction	-9.90546
▁page	-9.9056
oo	-9.90572
▁cab	-9.90775
▁forces	-9.90963
per	-9.91061
▁letters	-9.91223
▁dump	-9.91403
▁snap	-9.91508
▁interrupt	-9.91707
▁sex	-9.91709
▁sweat	-9.91803
▁warn	-9.91864
▁rocks	-9.91865
▁flow	-9.92012
▁brains	-9.92101
▁negro	-9.92136
▁convent	-9.92175
▁regret	-9.92185
▁log	-9.92196
▁brooklyn	-9.92198
▁debbie	-9.92198
▁deloris	-9.92198
▁gardner	-9.92198
▁gillian	-9.92198
▁insurance	-9.92198
▁magnificent	-9.92198
▁mysterious	-9.92198
▁outfit	-9.92198
▁philip	-9.92198
▁wednesday	-9.92198
▁wolfgang	-9.92198
▁fiona	-9.92198
▁foreign	-9.92198
▁kgys	-9.92198
▁lancelot	-9.92199
▁laurie	-9.92199
▁hyperspeed	-9.92199
▁mmmhmm	-9.92199
▁neighborhood	-9.92199
▁wilkins	-9.92199
▁couid	-9.92199
▁decent	-9.92199
▁gerti	-9.92199
▁brewster	-9.92199
▁someplace	-9.922
▁happiness	-9.922
▁patrick	-9.92202
▁monday	-9.92203
▁johana	-9.92203
▁governor	-9.92204
▁twitch	-9.92204
▁merry	-9.92204
▁soap	-9.92205
▁monsieur	-9.92205
▁flora	-9.92206
▁loan	-9.92208
▁negative	-9.92208
▁honeymoon	-9.92209
▁bedroom	-9.92209
▁access	-9.92211
▁pair	-9.92216
▁dust	-9.92216
▁assure	-9.92217
▁grateful	-9.92217
▁research	-9.92219
▁practically	-9.92221
▁luke	-9.92224
▁secretary	-9.92235
▁weii	-9.92237
▁moore	-9.92243
▁goalie	-9.92251
▁protection	-9.92253
▁par	-9.92262
▁dean	-9.92265
▁thee	-9.92278
▁bald	-9.92279
▁hitting	-9.923
▁fashion	-9.92408
▁hired	-9.92507
▁ld	-9.92515
▁stops	-9.9253
▁manage	-9.92803
▁engineer	-9.92814
▁burning	-9.92878
▁there	-9.92922
▁marc	-9.93005
▁higher	-9.93084
▁ned	-9.9318
▁drawing	-9.93205
▁gim	-9.93296
▁stayed	-9.93325
▁changes	-9.93353
em	-9.93384
▁worlds	-9.93471
▁growing	-9.93531
▁selling	-9.93536
▁pig	-9.94026
▁souls	-9.94027
▁blowing	-9.94321
▁places	-9.94363
▁wings	-9.94416
▁oni	-9.94823
▁odd	-9.94884
▁balls	-9.95087
▁mans	-9.95096
▁claim	-9.95133
▁points	-9.95269
▁steps	-9.95297
▁mu	-9.95355
▁unit	-9.95399
▁patient	-9.95566
▁flame	-9.9557
▁champ	-9.95585
▁nightmare	-9.95688
▁chain	-9.95704
▁ad	-9.95728
▁soldier	-9.95734
▁ke	-9.95735
▁nun	-9.95756
▁mountains	-9.9579
ha	-9.96347
▁wa	-9.96349
dy	-9.96525
down	-9.96729
▁load	-9.968
▁aha	-9.96818
▁charm	-9.97004
house	-9.97106
▁spoil	-9.97165
▁arrest	-9.97185
▁jealous	-9.97254
▁retire	-9.97263
▁refuse	-9.97285
▁prison	-9.97338
▁slate	-9.97391
▁orbit	-9.9741
▁bullshit	-9.97451
▁no	-9.97451
▁attitude	-9.97462
▁champagne	-9.97462
▁chinese	-9.97462
▁edmund	-9.97462
▁exhales	-9.97462
▁floyd	-9.97462
▁geoffrey	-9.97462
▁gibberish	-9.97462
▁hefty	-9.97462
▁jonathan	-9.97462
▁junk	-9.97462
▁lieutenant	-9.97462
▁opposite	-9.97462
▁pizza	-9.97462
▁scientist	-9.97462
▁sergeant	-9.97462
▁silver	-9.97462
▁solution	-9.97462
▁surrender	-9.97462
▁unhappy	-9.97462
▁video	-9.97462
▁wasabi	-9.97462
▁blew	-9.97462
▁washington	-9.97462
▁cotton	-9.97462
▁daniel	-9.97462
▁stammering	-9.97462
▁sobbing	-9.97462
▁surface	-9.97462
▁invisible	-9.97463
▁operator	-9.97463
▁florida	-9.97464
▁community	-9.97464
▁military	-9.97464
▁source	-9.97464
▁grew	-9.97464
▁impressive	-9.97465
▁campbell	-9.97465
▁fought	-9.97465
▁lousy	-9.97465
▁connie	-9.97466
▁behold	-9.97466
▁volcano	-9.97466
▁barbarella	-9.97469
▁fabulous	-9.97469
▁quarterback	-9.9747
▁drax	-9.97472
▁lightyear	-9.97473
▁murmuring	-9.97475
▁aboard	-9.97476
▁data	-9.97478
▁france	-9.97478
▁shopping	-9.97481
▁dropping	-9.97485
▁grizzly	-9.97486
▁fake	-9.97486
▁laughter	-9.9749
▁trapped	-9.97502
▁santa	-9.97504
▁sc	-9.97512
▁bench	-9.97531
▁whod	-9.97538
▁julius	-9.97546
▁impressed	-9.97546
▁boring	-9.97567
▁patch	-9.9769
▁forth	-9.97848
▁ruined	-9.97871
▁letting	-9.97925
▁parts	-9.98
▁aii	-9.98016
▁carefully	-9.98341
▁monsters	-9.98372
tion	-9.98401
▁members	-9.98606
▁covered	-9.98657
▁indians	-9.9866
po	-9.9868
▁joined	-9.98691
▁terms	-9.98748
▁legal	-9.98799
▁toys	-9.98941
▁teaching	-9.98996
▁mere	-9.99294
▁messing	-9.99304
▁leading	-10.0004
ize	-10.0004
go	-10.0014
▁someones	-10.0022
▁boats	-10.0023
▁ghosts	-10.0029
▁papers	-10.0029
▁seek	-10.0046
▁sa	-10.0051
▁si	-10.0078
he	-10.008
tic	-10.0082
▁pre	-10.0105
▁ar	-10.0107
▁guardian	-10.0112
▁pocket	-10.0119
▁pilot	-10.0121
▁valley	-10.0122
▁skull	-10.0128
▁robert	-10.0133
▁er	-10.0157
▁driver	-10.0159
▁jean	-10.0208
▁ski	-10.0212
▁crush	-10.0222
▁owner	-10.0224
▁design	-10.0226
cy	-10.0232
▁twist	-10.0253
▁boo	-10.0267
▁recognize	-10.0283
▁disease	-10.0284
▁chase	-10.0286
▁official	-10.0289
io	-10.0294
▁witness	-10.0296
▁usual	-10.0297
▁mmhm	-10.03
▁beindorf	-10.0302
▁caesar	-10.0302
▁collier	-10.0302
▁desperate	-10.0302
▁donnagon	-10.0302
▁dwarf	-10.0302
▁easily	-10.0302
▁emperor	-10.0302
▁japanese	-10.0302
▁jemima	-10.0302
▁kornpett	-10.0302
▁literally	-10.0302
▁morris	-10.0302
▁ouch	-10.0302
▁pharaoh	-10.0302
▁transmooker	-10.0302
▁value	-10.0302
▁zurg	-10.0302
▁scoffs	-10.0302
▁shouid	-10.0302
▁tavern	-10.0302
▁irwin	-10.0302
▁whenever	-10.0302
▁audition	-10.0302
▁granada	-10.0302
▁bennell	-10.0302
▁clue	-10.0302
▁yasmin	-10.0302
▁guppy	-10.0302
▁intelligent	-10.0302
▁rubbish	-10.0302
▁niko	-10.0302
▁garbage	-10.0302
▁pride	-10.0302
▁guide	-10.0302
▁basketball	-10.0302
▁generous	-10.0302
▁joking	-10.0302
▁pillow	-10.0302
▁feast	-10.0302
▁leerie	-10.0302
▁rico	-10.0302
▁equal	-10.0302
▁progress	-10.0302
▁dummy	-10.0303
▁actress	-10.0303
▁hyah	-10.0303
▁shaw	-10.0303
▁alba	-10.0303
▁kip	-10.0303
▁familiar	-10.0304
▁route	-10.0304
▁labor	-10.0304
▁jb	-10.0304
▁bash	-10.0304
▁eden	-10.0306
▁create	-10.0306
▁russ	-10.0307
▁chosen	-10.0308
▁yearold	-10.0309
▁sink	-10.0311
▁guilty	-10.0311
▁enchanted	-10.0312
▁spare	-10.0313
▁stolen	-10.0313
▁stopping	-10.032
▁gay	-10.0323
▁tim	-10.0325
▁healthy	-10.0327
▁steven	-10.0327
▁hah	-10.033
be	-10.036
▁searching	-10.0361
▁flip	-10.0365
▁cad	-10.0376
eth	-10.0382
▁noon	-10.0383
▁armed	-10.0393
▁tr	-10.0409
▁attacked	-10.0422
▁makeup	-10.0429
ble	-10.0436
▁harder	-10.0441
ta	-10.0442
▁joey	-10.0443
▁counter	-10.0446
▁appears	-10.0448
▁lovers	-10.0451
▁testing	-10.0453
j	-10.0457
▁goat	-10.0457
▁fe	-10.0474
▁kicking	-10.0474
▁skulls	-10.048
▁bo	-10.0481
▁victoria	-10.0517
▁kings	-10.0522
▁dar	-10.0526
▁ay	-10.0531
un	-10.0541
▁cleaning	-10.055
vi	-10.0557
▁students	-10.056
▁staring	-10.0567
▁nah	-10.0568
▁le	-10.0609
▁suck	-10.0623
▁beating	-10.0625
▁sending	-10.064
▁stink	-10.0642
▁faces	-10.0656
▁reasons	-10.0664
end	-10.0678
▁of	-10.0682
▁object	-10.0685
▁shows	-10.0688
▁tricks	-10.0693
▁paying	-10.0697
▁crystal	-10.0699
ique	-10.07
▁screen	-10.0703
▁chamber	-10.0705
▁coward	-10.0708
▁dolphin	-10.0709
▁knee	-10.0712
▁ranger	-10.0718
▁matt	-10.0724
▁fans	-10.0724
▁lap	-10.0738
▁exist	-10.0746
▁reporter	-10.0748
back	-10.0756
▁citizen	-10.0777
▁attend	-10.0812
▁jam	-10.0819
med	-10.0825
▁hurts	-10.0829
▁process	-10.0834
▁seats	-10.0842
▁gran	-10.0843
▁market	-10.0844
▁brings	-10.0848
▁borrow	-10.0858
▁stack	-10.0858
▁desert	-10.086
▁screw	-10.0861
▁disappear	-10.0862
▁vi	-10.0867
what	-10.0871
▁taxi	-10.0872
▁dirt	-10.0872
▁exact	-10.0877
▁obvious	-10.0877
▁slight	-10.0878
▁sweep	-10.0879
▁chose	-10.0883
▁expert	-10.089
▁anchor	-10.089
▁barsinister	-10.089
▁charlene	-10.089
▁disaster	-10.089
▁earlier	-10.089
▁fortune	-10.089
▁harrison	-10.089
▁hector	-10.089
▁hendricks	-10.089
▁holiday	-10.089
▁jessie	-10.089
▁license	-10.089
▁macdonald	-10.089
▁martha	-10.089
▁metaphor	-10.089
▁mirror	-10.089
▁neruda	-10.089
▁opportunity	-10.089
▁phantom	-10.089
▁rameses	-10.089
▁splendid	-10.089
▁spretzle	-10.089
▁theater	-10.089
▁trophy	-10.089
▁ufc	-10.089
▁underneath	-10.089
▁astronaut	-10.089
▁cantonese	-10.089
▁commercial	-10.089
▁imagination	-10.089
▁forbidden	-10.089
▁jones	-10.089
▁whinnies	-10.089
▁granger	-10.089
▁sherry	-10.089
▁sicily	-10.089
▁executive	-10.089
▁headquarters	-10.089
▁helen	-10.089
▁protest	-10.089
▁conference	-10.089
▁bedrock	-10.089
▁chapter	-10.089
▁superior	-10.089
▁garage	-10.089
▁attic	-10.0891
▁available	-10.0891
▁neat	-10.0891
▁owns	-10.0891
▁iook	-10.0891
▁luigi	-10.0891
▁jade	-10.0891
▁include	-10.0891
▁maiden	-10.0891
▁minor	-10.0891
▁noble	-10.0891
▁behavior	-10.0891
▁exit	-10.0891
▁chew	-10.0892
▁iike	-10.0892
▁johnny	-10.0892
▁piano	-10.0893
▁peru	-10.0893
▁diner	-10.0894
▁mental	-10.0894
▁unfortunately	-10.0895
▁callaghan	-10.0895
▁iron	-10.0895
▁cow	-10.0896
▁circumstances	-10.0896
▁junior	-10.0897
▁birth	-10.0898
▁surrounded	-10.0899
ten	-10.09
▁fallen	-10.09
▁firm	-10.0902
▁ila	-10.0905
▁provided	-10.0907
▁whooping	-10.0908
▁mum	-10.0915
▁screwed	-10.0918
▁created	-10.0919
▁awfully	-10.0921
▁arrested	-10.0922
▁warned	-10.0925
▁hire	-10.0927
line	-10.0928
▁somethings	-10.0935
▁growls	-10.0937
▁clicks	-10.0949
▁moral	-10.0952
▁destroyer	-10.0953
▁nights	-10.0961
▁bags	-10.0962
▁reached	-10.0965
▁twins	-10.0971
▁ages	-10.0973
▁tune	-10.0979
▁salt	-10.0987
▁ships	-10.0988
▁corn	-10.0997
▁heroics	-10.1003
▁thy	-10.1005
▁guts	-10.1015
▁messed	-10.1016
▁bend	-10.1021
ped	-10.1024
▁fist	-10.1024
▁returned	-10.1026
▁su	-10.1028
▁workin	-10.1043
ba	-10.1052
▁rats	-10.1052
day	-10.1055
▁signed	-10.1064
▁knees	-10.1067
▁dang	-10.1078
▁rate	-10.1105
ily	-10.1106
ian	-10.1125
▁sec	-10.1126
▁warriors	-10.1143
▁learning	-10.1148
▁moments	-10.1186
▁stor	-10.1193
▁passing	-10.1214
▁opened	-10.1253
▁skate	-10.1258
▁showing	-10.1259
▁ja	-10.1273
mo	-10.1279
▁concern	-10.1296
▁pound	-10.1299
▁title	-10.1325
▁slide	-10.1325
▁adult	-10.1332
▁apple	-10.1332
▁scholarship	-10.1336
▁masterbuilder	-10.1339
▁pipe	-10.1339
▁ch	-10.1349
▁toy	-10.1356
▁cass	-10.137
▁hurting	-10.1383
ga	-10.1395
▁winds	-10.1395
▁scar	-10.1423
▁not	-10.1428
▁caul	-10.1433
▁thrill	-10.1433
▁pops	-10.1444
▁fetch	-10.1462
over	-10.1463
▁jazz	-10.1464
ball	-10.1476
▁sauce	-10.1477
▁insist	-10.1484
▁shock	-10.1485
ka	-10.1485
▁reverse	-10.1495
▁assume	-10.1497
▁capture	-10.15
▁earn	-10.15
▁physical	-10.1501
▁grant	-10.1507
▁deck	-10.1508
▁comin	-10.1514
▁photo	-10.1515
▁fruit	-10.1515
▁apollo	-10.1515
▁carriage	-10.1515
▁cassandra	-10.1515
▁closing	-10.1515
▁concert	-10.1515
▁elephant	-10.1515
▁essence	-10.1515
▁exchange	-10.1515
▁filthy	-10.1515
▁flesh	-10.1515
▁glorious	-10.1515
▁lonnegan	-10.1515
▁museum	-10.1515
▁quarry	-10.1515
▁referee	-10.1515
▁smooth	-10.1515
▁struggle	-10.1515
▁unusual	-10.1515
▁vacuum	-10.1515
▁whimpering	-10.1515
▁mathmos	-10.1515
▁larry	-10.1515
▁mystery	-10.1515
▁racing	-10.1515
▁expensive	-10.1515
▁manticore	-10.1515
▁rotten	-10.1515
▁rommel	-10.1515
▁roman	-10.1515
▁reception	-10.1515
▁couch	-10.1515
▁authority	-10.1515
▁smiling	-10.1515
▁violence	-10.1515
▁ordinary	-10.1515
▁palace	-10.1515
▁ladder	-10.1515
▁toilet	-10.1515
▁cherry	-10.1515
▁awake	-10.1516
▁baseball	-10.1516
▁sentence	-10.1516
▁oxygen	-10.1516
ina	-10.1516
▁deaf	-10.1516
▁brick	-10.1516
▁impression	-10.1516
▁mummy	-10.1516
▁fifty	-10.1517
▁raph	-10.1517
▁colin	-10.1517
▁chef	-10.1517
▁held	-10.1517
▁pathetic	-10.1517
▁drill	-10.1517
▁heal	-10.1518
▁lila	-10.152
▁collection	-10.1521
▁microbots	-10.1521
▁laid	-10.1522
▁indiana	-10.1522
▁clay	-10.1523
▁discovered	-10.1526
▁lack	-10.1529
▁plain	-10.1531
▁louise	-10.1532
▁naturally	-10.1535
▁grown	-10.1538
▁praise	-10.1548
▁ra	-10.1548
▁bay	-10.1548
▁survived	-10.1553
▁details	-10.1555
▁typ	-10.1556
▁escaped	-10.1568
▁mistakes	-10.157
▁biscuits	-10.1578
▁whoops	-10.1579
▁suffering	-10.1583
▁wishes	-10.1585
▁solve	-10.1598
▁skills	-10.1612
▁lied	-10.162
▁rat	-10.164
▁golf	-10.1647
▁plants	-10.1666
▁bud	-10.1668
▁net	-10.1679
▁doctors	-10.1681
▁nate	-10.1681
▁fully	-10.1704
▁friendly	-10.1705
▁landed	-10.1712
▁chi	-10.1713
▁mc	-10.1731
▁che	-10.174
▁michaels	-10.1742
▁lit	-10.1779
▁vin	-10.1786
▁hits	-10.1796
side	-10.1837
▁wrap	-10.1852
▁rounds	-10.1858
ite	-10.1897
▁flintstones	-10.1936
rn	-10.1937
▁hon	-10.1941
▁gum	-10.1945
▁wound	-10.1971
▁gasp	-10.1972
▁stands	-10.1977
▁begins	-10.1983
▁sh	-10.1983
▁whale	-10.199
ov	-10.1994
▁gifts	-10.1995
▁rip	-10.1996
ship	-10.1998
▁effect	-10.1999
▁costume	-10.2
▁sucker	-10.2002
▁nerve	-10.2002
▁bone	-10.2003
▁circle	-10.2005
▁gorilla	-10.2006
▁bastard	-10.2008
▁appear	-10.2014
▁scores	-10.2018
▁cage	-10.2024
▁shots	-10.2061
▁chickens	-10.2085
▁comfort	-10.2108
▁piss	-10.2109
ho	-10.2113
▁trace	-10.2115
king	-10.2119
▁hunt	-10.2127
ham	-10.2127
▁ending	-10.2128
▁wrestle	-10.2128
▁qyack	-10.2131
▁float	-10.2139
▁chatter	-10.214
beat	-10.2142
▁study	-10.2144
▁perform	-10.2152
▁suspect	-10.2153
▁chuck	-10.2154
▁stan	-10.2156
▁particular	-10.2168
▁trail	-10.2169
▁fur	-10.2175
▁vo	-10.2177
▁runnin	-10.2179
▁gentle	-10.2179
▁express	-10.218
▁organ	-10.218
▁runner	-10.2181
▁lemon	-10.2181
▁arguing	-10.2182
▁california	-10.2182
▁chemical	-10.2182
▁confidence	-10.2182
▁dagger	-10.2182
▁destiny	-10.2182
▁donald	-10.2182
▁eminence	-10.2182
▁explanation	-10.2182
▁flew	-10.2182
▁gondorff	-10.2182
▁grip	-10.2182
▁lunatic	-10.2182
▁miserable	-10.2182
▁prescott	-10.2182
▁prophecy	-10.2182
▁reverend	-10.2182
▁sengh	-10.2182
▁silent	-10.2182
▁slept	-10.2182
▁terrified	-10.2182
▁thursday	-10.2182
▁violin	-10.2182
▁yoast	-10.2182
▁becoming	-10.2182
▁clever	-10.2182
▁shrink	-10.2182
▁steady	-10.2182
▁scale	-10.2182
▁troops	-10.2182
▁beardsley	-10.2182
▁remark	-10.2182
▁jeez	-10.2182
▁anxious	-10.2182
▁dietrich	-10.2182
▁helmet	-10.2182
▁stock	-10.2182
▁isle	-10.2182
▁felix	-10.2182
▁gotcha	-10.2182
▁senior	-10.2182
▁playoffs	-10.2182
▁curry	-10.2182
▁uther	-10.2182
▁ronny	-10.2182
▁foul	-10.2182
▁shaking	-10.2182
▁lagoon	-10.2182
▁believing	-10.2182
▁gorgeous	-10.2182
▁brotherhood	-10.2183
▁juice	-10.2183
▁tour	-10.2183
▁solid	-10.2183
▁rash	-10.2183
▁secure	-10.2183
▁monty	-10.2183
▁paris	-10.2183
▁marine	-10.2183
▁kitty	-10.2184
▁hans	-10.2184
▁puppy	-10.2184
▁bodies	-10.2184
▁strict	-10.2184
▁topsy	-10.2184
▁gundy	-10.2184
▁lamp	-10.2185
▁confused	-10.2185
▁stallion	-10.2185
▁apparently	-10.2185
▁groom	-10.2185
▁blonde	-10.2185
▁wives	-10.2185
▁pace	-10.2186
▁mice	-10.2187
▁oss	-10.2187
▁sailor	-10.2187
▁alan	-10.2188
▁golden	-10.2188
▁mall	-10.2188
▁marie	-10.2189
▁arranged	-10.2192
▁med	-10.2192
▁embarrassed	-10.2192
▁forgetting	-10.2195
ni	-10.2196
▁received	-10.2197
▁disappointed	-10.2198
▁dial	-10.2199
▁nasty	-10.2203
▁mud	-10.2205
▁tip	-10.2205
▁confirmed	-10.2206
▁frightened	-10.2206
▁emotional	-10.2211
▁pity	-10.2213
ag	-10.2218
▁classes	-10.2219
▁passes	-10.2225
irring	-10.2227
▁mint	-10.2227
▁remembered	-10.2228
▁down	-10.2234
▁agreed	-10.2244
▁il	-10.2257
▁blessing	-10.2263
▁closet	-10.2293
ade	-10.2308
▁knocked	-10.231
▁lu	-10.2314
▁prayers	-10.2316
son	-10.2318
▁shelly	-10.2321
▁windows	-10.2323
▁beard	-10.2334
▁tells	-10.2343
▁tag	-10.2375
▁ordered	-10.2389
▁fo	-10.2417
▁movies	-10.2459
lf	-10.246
▁fishing	-10.2471
▁terribl	-10.2481
▁waves	-10.2496
▁me	-10.2512
▁lick	-10.2513
iest	-10.2513
▁odds	-10.252
▁wor	-10.2525
▁finding	-10.2548
▁miracles	-10.2558
▁voices	-10.2562
▁cats	-10.2594
ound	-10.2595
▁catching	-10.2601
▁cousins	-10.2608
▁va	-10.2618
▁seasons	-10.2621
▁perkis	-10.2649
▁pu	-10.2654
▁shout	-10.2668
▁buck	-10.2675
▁rainbow	-10.2709
ill	-10.271
▁contain	-10.271
▁affair	-10.2712
▁servant	-10.2715
ets	-10.2715
▁saint	-10.2716
▁option	-10.2717
▁height	-10.2717
▁slave	-10.2718
▁result	-10.272
▁chick	-10.2725
▁term	-10.2725
▁he	-10.2744
looking	-10.2762
▁whistles	-10.2772
▁tale	-10.2792
▁bounce	-10.2794
mp	-10.28
▁artist	-10.2806
▁leo	-10.2808
▁port	-10.2809
▁meaning	-10.281
▁whip	-10.2813
▁gut	-10.2816
▁walls	-10.2819
▁stare	-10.285
▁screech	-10.285
board	-10.2853
▁williams	-10.2856
▁announce	-10.2866
▁insult	-10.2866
▁intend	-10.2866
▁celebrate	-10.2877
▁damage	-10.2877
▁divorce	-10.2878
▁wipe	-10.2883
▁immediate	-10.2883
▁absolute	-10.2884
▁weigh	-10.289
▁russia	-10.289
while	-10.2891
▁drag	-10.2892
▁council	-10.2893
▁martin	-10.2894
▁goose	-10.2895
▁twenty	-10.2896
▁fifteen	-10.2896
▁individual	-10.2896
▁pleasant	-10.2896
▁traitor	-10.2896
▁anytime	-10.2896
▁ashira	-10.2896
▁bammbamm	-10.2896
▁companion	-10.2896
▁credit	-10.2896
▁enormous	-10.2896
▁eventually	-10.2896
▁excalibur	-10.2896
▁footsteps	-10.2896
▁huddle	-10.2896
▁korso	-10.2896
▁marvelous	-10.2896
▁necklace	-10.2896
▁piease	-10.2896
▁quality	-10.2896
▁recently	-10.2896
▁reggie	-10.2896
▁resort	-10.2896
▁snyder	-10.2896
▁squeaking	-10.2896
▁stubborn	-10.2896
▁syndicate	-10.2896
▁tremendous	-10.2896
▁wyldstyle	-10.2896
▁herman	-10.2896
▁milner	-10.2896
▁authorities	-10.2896
▁activity	-10.2896
▁apology	-10.2896
▁freddie	-10.2896
▁bratitude	-10.2896
▁curious	-10.2896
▁stiles	-10.2896
▁flack	-10.2896
▁hollywood	-10.2896
▁material	-10.2896
▁miami	-10.2896
▁addition	-10.2896
▁lightning	-10.2896
▁turkey	-10.2896
▁shane	-10.2896
▁rewind	-10.2897
▁centre	-10.2897
▁confession	-10.2897
▁yup	-10.2897
▁motion	-10.2897
▁injured	-10.2897
▁chasing	-10.2897
▁sogo	-10.2897
▁tech	-10.2898
▁announcement	-10.2898
▁geez	-10.2898
▁amount	-10.2899
▁frozen	-10.2899
▁fog	-10.2899
▁precisely	-10.2899
▁potion	-10.2899
▁ripped	-10.2901
▁technically	-10.2902
▁fries	-10.2903
▁lang	-10.2904
▁dish	-10.2905
▁doomed	-10.2906
▁cia	-10.2907
▁superheroes	-10.2907
▁brand	-10.2907
▁engaged	-10.2908
▁wailing	-10.2911
▁wallet	-10.2912
▁successful	-10.2913
▁occasion	-10.2913
▁grave	-10.2915
▁taco	-10.2916
▁kite	-10.2918
▁matty	-10.2919
bo	-10.2922
▁iet	-10.2923
▁alpha	-10.2928
▁concerned	-10.2929
▁supplies	-10.2929
▁disappeared	-10.2931
▁union	-10.2932
▁wrestler	-10.2934
▁preed	-10.2934
▁this	-10.2936
▁highest	-10.2936
▁off	-10.2938
▁honks	-10.2942
▁hike	-10.2945
▁timing	-10.2955
▁frankly	-10.2957
▁talented	-10.2958
▁colored	-10.2959
▁locker	-10.2962
▁ham	-10.2964
▁entirely	-10.297
▁delivered	-10.2975
▁hint	-10.2978
▁painful	-10.2981
ver	-10.2985
▁systems	-10.2986
▁oldest	-10.3003
▁or	-10.3007
▁pills	-10.3008
▁lies	-10.3016
▁fence	-10.3026
▁remove	-10.3029
▁heels	-10.3035
▁boots	-10.3046
led	-10.3062
tor	-10.3072
▁under	-10.3078
▁provide	-10.3078
▁pr	-10.309
▁pirates	-10.3091
▁winding	-10.3124
▁carrying	-10.3127
ring	-10.313
oohoo	-10.3135
▁nuns	-10.3141
▁worker	-10.3152
ons	-10.3156
▁del	-10.3158
▁fights	-10.316
ied	-10.3162
▁thin	-10.3168
de	-10.3169
▁marrying	-10.3182
if	-10.3196
▁walker	-10.3245
▁colors	-10.3289
▁husbands	-10.3293
ok	-10.3298
di	-10.3321
▁ac	-10.3345
▁nasa	-10.3353
▁pigs	-10.3395
▁parent	-10.3448
▁bull	-10.3453
ms	-10.3454
▁vow	-10.3458
▁creep	-10.3461
▁everyones	-10.347
da	-10.3479
▁clown	-10.3484
▁shoo	-10.3486
▁titan	-10.3491
▁hen	-10.3496
▁snake	-10.3496
▁indian	-10.3498
▁you	-10.3503
▁mac	-10.3507
▁cub	-10.3517
▁dreaming	-10.3529
▁ap	-10.3534
▁walks	-10.354
▁chart	-10.3552
▁plant	-10.3553
▁kn	-10.3561
ake	-10.3562
▁thousands	-10.3572
▁zap	-10.3578
▁frighten	-10.3586
▁bid	-10.3597
▁trap	-10.3606
hi	-10.3608
▁tackle	-10.3612
▁film	-10.3616
▁fort	-10.3629
▁faint	-10.3636
▁confirm	-10.3636
national	-10.3642
ud	-10.3649
▁gumm	-10.3651
▁instant	-10.3652
▁advance	-10.3652
▁hung	-10.3655
▁tomato	-10.3659
▁herb	-10.3661
▁disgrace	-10.3664
▁favour	-10.3665
▁alexander	-10.3665
▁argue	-10.3665
▁athletic	-10.3665
▁attractive	-10.3665
▁claude	-10.3665
▁cloak	-10.3665
▁coincidence	-10.3665
▁coronation	-10.3665
▁defensive	-10.3665
▁dozen	-10.3665
▁durbeyfield	-10.3665
▁exercise	-10.3665
▁furniture	-10.3665
▁ignore	-10.3665
▁invitation	-10.3665
▁lloyd	-10.3665
▁loretta	-10.3665
▁maintain	-10.3665
▁memphis	-10.3665
▁palermo	-10.3665
▁peopie	-10.3665
▁purple	-10.3665
▁pursuit	-10.3665
▁puzzle	-10.3665
▁rhythm	-10.3665
▁steak	-10.3665
▁underground	-10.3665
▁unexpected	-10.3665
▁whisrles	-10.3665
▁bartolini	-10.3665
▁blaring	-10.3665
▁ceremony	-10.3665
▁garrett	-10.3665
▁revolution	-10.3665
▁roast	-10.3665
▁sasha	-10.3665
▁thief	-10.3665
▁whew	-10.3665
▁knowledge	-10.3665
▁gym	-10.3665
▁thatd	-10.3665
▁beloved	-10.3665
▁kidnapped	-10.3665
▁including	-10.3665
▁increase	-10.3665
▁association	-10.3665
▁wretche	-10.3665
▁plaza	-10.3665
▁robinson	-10.3665
▁beatrice	-10.3666
▁bradley	-10.3666
▁failure	-10.3666
▁depth	-10.3666
▁rejoice	-10.3666
▁construction	-10.3666
▁towel	-10.3666
▁wicked	-10.3666
▁penny	-10.3666
▁fox	-10.3666
▁technology	-10.3666
▁valuable	-10.3666
▁veer	-10.3666
▁electricity	-10.3666
▁jimmy	-10.3666
▁angle	-10.3667
▁explode	-10.3667
▁medical	-10.3667
▁starving	-10.3667
▁lunchbox	-10.3667
▁snarling	-10.3667
▁lean	-10.3668
▁toss	-10.3668
▁non	-10.3668
▁laser	-10.3668
jesse	-10.3669
▁executed	-10.3669
▁charges	-10.3669
▁concentrate	-10.3669
▁happily	-10.3669
▁inch	-10.3669
▁souther	-10.3669
▁foolish	-10.367
▁coke	-10.367
▁izzy	-10.3671
▁fascinating	-10.3671
▁china	-10.3671
▁presentation	-10.3672
▁vice	-10.3673
▁paw	-10.3673
▁pitt	-10.3674
▁witches	-10.3677
▁proof	-10.3678
▁badge	-10.3678
▁spoken	-10.3678
▁setting	-10.3681
▁pit	-10.3682
▁thus	-10.3682
▁farty	-10.3685
▁annoying	-10.3686
▁mia	-10.3691
▁delighted	-10.3691
▁unh	-10.3692
▁lamb	-10.3695
▁captured	-10.3695
▁flu	-10.3696
▁sweater	-10.3697
▁corpse	-10.3697
▁beats	-10.3701
▁designed	-10.3705
▁loaded	-10.3707
▁subtitles	-10.3715
▁cheated	-10.3715
▁chances	-10.3718
▁blessed	-10.3723
▁reports	-10.3726
▁defeat	-10.3727
▁forced	-10.3727
▁singer	-10.3729
▁rack	-10.3733
▁banging	-10.3742
▁digg	-10.3744
▁stronger	-10.3747
▁sailing	-10.3757
▁barks	-10.376
▁ali	-10.3765
▁mentioned	-10.3768
▁offered	-10.3768
▁drums	-10.3777
▁muscles	-10.3787
▁county	-10.3798
▁missions	-10.38
▁para	-10.3801
▁hy	-10.3802
▁treasure	-10.3808
ap	-10.3815
ated	-10.3815
▁safely	-10.3824
▁cutters	-10.383
▁traveling	-10.3835
erial	-10.3837
▁whas	-10.3839
▁freaking	-10.3842
ock	-10.3843
▁mist	-10.3857
▁swor	-10.3859
ard	-10.386
▁protecting	-10.3862
▁bones	-10.3878
der	-10.388
▁jumped	-10.3886
kin	-10.3912
▁ti	-10.3913
▁cr	-10.3917
▁babys	-10.3917
▁jo	-10.392
fully	-10.3925
▁transfer	-10.3929
▁shoulders	-10.3945
▁tradition	-10.3957
ven	-10.3962
▁mode	-10.3972
▁wha	-10.3974
more	-10.398
▁mob	-10.3992
eck	-10.403
▁deb	-10.4036
▁ls	-10.4047
we	-10.4094
▁bum	-10.4108
▁wished	-10.4111
our	-10.4117
▁stuffed	-10.4129
▁ended	-10.413
▁backup	-10.4133
▁mil	-10.4151
▁sim	-10.4155
ial	-10.4179
▁strikes	-10.4223
▁peel	-10.4223
▁computers	-10.4237
▁rod	-10.4239
▁bubble	-10.4276
▁angels	-10.4281
▁scream	-10.4282
▁arrive	-10.429
▁pump	-10.429
▁imp	-10.4293
▁shoots	-10.4298
▁politic	-10.4298
▁loski	-10.4315
▁newspaper	-10.4317
▁stable	-10.4317
▁psycho	-10.4318
▁durberville	-10.4318
▁tracks	-10.4322
▁hawk	-10.4331
▁seal	-10.4333
▁cutter	-10.4333
▁sal	-10.4371
▁compare	-10.4371
▁can	-10.4388
▁ne	-10.4399
▁li	-10.4406
bon	-10.4414
▁mount	-10.4416
▁the	-10.4418
▁statue	-10.4421
▁gig	-10.4423
▁ro	-10.4434
▁wi	-10.4447
▁frye	-10.4449
▁photograph	-10.4451
za	-10.4458
foot	-10.4458
▁corps	-10.4464
▁smash	-10.4466
▁wast	-10.4469
▁inform	-10.4469
▁delight	-10.447
tan	-10.4474
▁success	-10.4479
▁urgent	-10.4485
▁rent	-10.4485
▁actual	-10.4487
▁incredibl	-10.4488
▁carpathia	-10.4491
▁maria	-10.4492
▁education	-10.4493
▁mystic	-10.4493
▁conquer	-10.4495
▁rick	-10.4496
▁dick	-10.4496
▁slip	-10.4497
▁fortuna	-10.4498
▁plot	-10.4498
▁absurd	-10.4498
▁accent	-10.4498
▁adrian	-10.4498
▁amateur	-10.4498
▁ashamed	-10.4498
▁aziz	-10.4498
▁beetle	-10.4498
▁cactus	-10.4498
▁campaign	-10.4498
▁cinderella	-10.4498
▁committee	-10.4498
▁embassy	-10.4498
▁execution	-10.4498
▁farquaad	-10.4498
▁grimsdyke	-10.4498
▁heavily	-10.4498
▁labyrinth	-10.4498
▁lydia	-10.4498
▁minnesota	-10.4498
▁mulch	-10.4498
▁otter	-10.4498
▁pacific	-10.4498
▁pascal	-10.4498
▁policy	-10.4498
▁practicing	-10.4498
▁relief	-10.4498
▁satisfied	-10.4498
▁sherman	-10.4498
▁stammers	-10.4498
▁tokyo	-10.4498
▁underwear	-10.4498
▁unknown	-10.4498
▁vardon	-10.4498
▁welsh	-10.4498
▁yabbadabbadoo	-10.4498
▁byzanium	-10.4498
▁candle	-10.4498
▁doyle	-10.4498
▁ease	-10.4498
▁mustache	-10.4498
▁splash	-10.4498
▁drew	-10.4498
▁elevator	-10.4498
▁mostly	-10.4498
▁barbara	-10.4498
▁gear	-10.4498
▁picnic	-10.4498
▁seminar	-10.4498
▁chirp	-10.4499
▁tennis	-10.4499
▁mankind	-10.4499
▁compete	-10.4499
▁henderson	-10.4499
▁riley	-10.4499
▁budget	-10.4499
▁whoville	-10.4499
▁location	-10.4499
▁healthcare	-10.4499
▁district	-10.4499
▁finley	-10.4499
▁intelligence	-10.4499
▁empire	-10.4499
▁alert	-10.4499
▁capcom	-10.4499
▁shiny	-10.4499
▁downtown	-10.4499
▁therefore	-10.4499
▁hooray	-10.4499
▁behave	-10.4499
▁lump	-10.4499
▁hailey	-10.4499
▁behalf	-10.4499
▁festival	-10.4499
▁kong	-10.4499
▁blah	-10.4499
▁hippo	-10.4499
▁oliver	-10.4499
▁delightful	-10.4499
▁woke	-10.4499
▁begging	-10.4499
▁thirty	-10.45
▁ambulance	-10.45
▁represent	-10.45
▁karp	-10.45
▁fbi	-10.45
▁doorbell	-10.45
▁broad	-10.45
▁romance	-10.45
▁sunset	-10.45
▁reward	-10.45
▁spill	-10.45
▁whatll	-10.4501
▁spain	-10.4501
▁society	-10.4501
▁trial	-10.4501
▁potatoes	-10.4501
▁rehearsal	-10.4501
▁aside	-10.4501
▁daisy	-10.4502
▁erm	-10.4502
▁skinny	-10.4502
▁boof	-10.4502
▁amongst	-10.4503
▁illegal	-10.4503
▁standard	-10.4503
▁beings	-10.4503
▁cries	-10.4504
▁rubber	-10.4504
▁nigger	-10.4504
▁personality	-10.4504
▁necktie	-10.4504
▁temper	-10.4504
▁freshman	-10.4505
▁tries	-10.4505
▁approved	-10.4505
▁ciao	-10.4505
▁spotted	-10.4506
▁bold	-10.4506
▁janie	-10.4506
▁lab	-10.4507
▁uhuh	-10.4507
▁christian	-10.4507
▁roberto	-10.4508
▁nerd	-10.4508
▁promotion	-10.4508
▁sandwiches	-10.4509
▁squealing	-10.4509
▁invented	-10.451
▁manual	-10.451
▁ballet	-10.451
▁convinced	-10.4511
▁itch	-10.4511
▁worm	-10.4513
▁boot	-10.4516
▁polly	-10.4516
▁cliff	-10.4517
▁superman	-10.4518
▁forty	-10.4519
▁established	-10.452
▁myth	-10.452
▁cantrow	-10.452
▁songs	-10.4521
▁shy	-10.4523
▁released	-10.4532
▁bot	-10.4533
▁sum	-10.4535
▁chill	-10.4536
▁bombs	-10.4544
▁bare	-10.4546
▁blown	-10.4552
▁floating	-10.4557
▁hail	-10.4559
▁buzzer	-10.4568
▁beeps	-10.4569
▁burned	-10.457
▁fri	-10.457
▁finest	-10.4579
▁fame	-10.4579
▁fools	-10.4582
▁exclaims	-10.4585
▁laws	-10.4586
▁lo	-10.4604
▁entering	-10.4607
▁feeding	-10.4611
▁onions	-10.4616
▁thoughts	-10.4617
▁owners	-10.4618
nut	-10.4621
▁banker	-10.4623
com	-10.4629
▁for	-10.4633
ating	-10.4652
▁recording	-10.4658
▁brakes	-10.4663
▁feelin	-10.4671
▁pumps	-10.4678
▁cruise	-10.4681
▁offering	-10.4683
▁washed	-10.4696
▁chicks	-10.4709
▁results	-10.471
▁breaks	-10.471
▁hairy	-10.4723
▁reed	-10.4725
▁masterbuilders	-10.4741
▁gi	-10.4751
▁shade	-10.4755
▁stinks	-10.4758
▁laps	-10.4759
▁product	-10.4777
▁gene	-10.4798
▁winters	-10.4804
▁om	-10.4827
▁iii	-10.4831
▁sings	-10.4845
▁hustle	-10.4867
les	-10.4885
▁har	-10.4887
▁ju	-10.4908
ible	-10.4911
▁ping	-10.4915
ki	-10.4929
▁touching	-10.4931
▁teachers	-10.4944
ass	-10.4946
▁dip	-10.4951
▁sticks	-10.4974
▁hoped	-10.4978
▁deserves	-10.4979
▁counts	-10.4994
▁rooms	-10.4997
▁site	-10.5018
▁ln	-10.5021
uc	-10.5024
▁facts	-10.5038
▁tap	-10.5044
▁dealing	-10.5051
▁starter	-10.5054
▁slap	-10.5057
▁scum	-10.5073
▁mat	-10.5073
▁electric	-10.5132
▁agents	-10.5154
▁hiya	-10.5184
▁jock	-10.5216
▁balloon	-10.5224
▁banana	-10.5229
▁brake	-10.5232
▁heel	-10.5234
▁comb	-10.5244
▁heroic	-10.5246
▁prayer	-10.5262
▁ni	-10.5273
▁checking	-10.5276
▁moder	-10.5288
▁sta	-10.5292
ford	-10.5298
▁despi	-10.5307
ny	-10.5312
▁mar	-10.5314
gh	-10.5335
▁feather	-10.5342
pit	-10.5343
▁neighbor	-10.5359
ko	-10.5367
▁albert	-10.5371
br	-10.5371
▁cancel	-10.5375
▁display	-10.5375
place	-10.5376
▁prevent	-10.5377
▁drain	-10.5378
▁download	-10.5379
box	-10.5379
▁mix	-10.5382
ks	-10.5386
▁replace	-10.539
▁graduate	-10.539
▁sacrifice	-10.5392
▁eternal	-10.5394
▁sudden	-10.5395
ions	-10.5398
▁lars	-10.5401
▁morgan	-10.5401
▁bryan	-10.5401
▁to	-10.5402
▁orphan	-10.5406
▁stall	-10.5406
▁cruel	-10.5406
▁basket	-10.5407
▁dentist	-10.5408
▁supreme	-10.5408
through	-10.5408
▁academy	-10.5408
▁affirmative	-10.5408
▁afterwards	-10.5408
▁blares	-10.5408
▁calculations	-10.5408
▁certificate	-10.5408
▁chimpanzee	-10.5408
▁collar	-10.5408
▁corcoran	-10.5408
▁duane	-10.5408
▁egypt	-10.5408
▁enemies	-10.5408
▁evelyn	-10.5408
▁fernandes	-10.5408
▁fishfinger	-10.5408
▁heip	-10.5408
▁helicopter	-10.5408
▁ibm	-10.5408
▁isiand	-10.5408
▁jimothy	-10.5408
▁justice	-10.5408
▁kimberly	-10.5408
▁lyssa	-10.5408
▁mermaid	-10.5408
▁montrose	-10.5408
▁naughty	-10.5408
▁oclock	-10.5408
▁penalty	-10.5408
▁phoebe	-10.5408
▁presence	-10.5408
▁racehorse	-10.5408
▁reputation	-10.5408
▁rifle	-10.5408
▁routine	-10.5408
▁schwartzwalder	-10.5408
▁shotgun	-10.5408
▁splinter	-10.5408
▁trisha	-10.5408
▁vegetarian	-10.5408
▁victim	-10.5408
▁vitruvius	-10.5408
▁vodka	-10.5408
▁wisdom	-10.5408
▁largo	-10.5408
▁justin	-10.5408
▁lailailailai	-10.5408
▁audience	-10.5408
▁potential	-10.5408
▁forfeit	-10.5408
▁beaumont	-10.5408
▁conclusion	-10.5408
▁extraordinary	-10.5408
▁refund	-10.5408
▁freezing	-10.5408
▁gibb	-10.5408
▁slomo	-10.5408
▁celebration	-10.5408
▁chump	-10.5408
▁medicine	-10.5408
▁highpi	-10.5408
▁underwater	-10.5408
▁beak	-10.5408
▁worries	-10.5408
▁buried	-10.5408
▁spray	-10.5408
▁suitcase	-10.5408
▁obey	-10.5408
▁elevar	-10.5408
▁assistance	-10.5408
▁pastuzo	-10.5408
▁fridge	-10.5408
▁elise	-10.5408
▁wimp	-10.5408
▁dramatic	-10.5408
▁ojo	-10.5408
▁ducksworth	-10.5408
▁pecan	-10.5408
▁glow	-10.5408
▁sheryl	-10.5408
▁revving	-10.5408
▁adorable	-10.5408
▁sensitive	-10.5408
▁auction	-10.5408
▁grid	-10.5408
▁motor	-10.5408
▁grail	-10.5408
▁pony	-10.5408
▁stevenson	-10.5408
▁alfred	-10.5408
▁reign	-10.5408
▁twelve	-10.5408
▁leap	-10.5408
▁reject	-10.5408
▁rabies	-10.5408
▁stalk	-10.5408
▁cabin	-10.5409
▁philosophy	-10.5409
▁marty	-10.5409
▁ruffin	-10.5409
▁personnel	-10.5409
▁liz	-10.5409
▁task	-10.5409
▁brody	-10.5409
▁lazy	-10.5409
▁suicide	-10.5409
▁critical	-10.541
▁soda	-10.541
▁original	-10.541
▁hirota	-10.541
▁expression	-10.541
▁wee	-10.5411
▁slot	-10.5411
▁rumbling	-10.5411
▁disco	-10.5411
▁barrel	-10.5411
▁grandson	-10.5412
▁squad	-10.5412
▁range	-10.5412
▁accidentally	-10.5412
▁pour	-10.5413
like	-10.5413
▁williamson	-10.5413
▁romeo	-10.5413
▁formation	-10.5413
▁johnson	-10.5413
▁determined	-10.5414
▁domino	-10.5414
▁alas	-10.5414
▁dishes	-10.5415
▁knockout	-10.5415
▁palmer	-10.5415
▁thas	-10.5415
▁worthless	-10.5415
▁chest	-10.5415
▁spies	-10.5416
▁ew	-10.5416
▁growth	-10.5417
▁breakdown	-10.5417
▁mechanical	-10.5417
▁hideous	-10.5417
▁stranded	-10.5417
▁sin	-10.5417
▁mayol	-10.5418
▁qualified	-10.5418
▁coin	-10.5419
▁sore	-10.5421
▁classic	-10.5421
▁glasses	-10.5421
▁hose	-10.5422
▁solo	-10.5422
▁cargo	-10.5422
▁sniffing	-10.5423
▁acky	-10.5423
▁dining	-10.5424
▁cutting	-10.5425
▁capable	-10.5425
▁cody	-10.5425
▁cards	-10.5428
▁muttering	-10.5428
▁rear	-10.543
▁chute	-10.5431
▁clicking	-10.5433
▁advanced	-10.5433
▁grabb	-10.5434
▁cock	-10.5435
▁theme	-10.5435
gan	-10.5437
▁chanting	-10.5441
▁lifetime	-10.5442
▁nailed	-10.5448
▁ancestors	-10.5451
▁teammates	-10.5451
▁granted	-10.5451
▁louder	-10.5453
▁ki	-10.5455
▁dom	-10.5459
ler	-10.5459
▁tax	-10.546
▁served	-10.5461
▁scan	-10.5462
aw	-10.5462
▁movement	-10.5465
▁softly	-10.5468
▁manners	-10.5468
▁delivery	-10.5473
▁duel	-10.5486
▁treated	-10.5501
▁gus	-10.5501
ack	-10.5501
▁cheating	-10.5506
▁quested	-10.5511
▁belly	-10.5516
▁cracking	-10.5518
▁accepted	-10.5522
▁crossed	-10.5532
▁relatives	-10.5536
▁hills	-10.5538
▁worthy	-10.5542
ave	-10.5553
▁tone	-10.5554
▁what	-10.5558
▁chap	-10.5562
▁chat	-10.5567
▁lame	-10.5577
▁timeout	-10.5578
my	-10.5582
▁raining	-10.5584
▁measure	-10.5592
▁on	-10.5608
▁sw	-10.5616
away	-10.5636
▁slaves	-10.564
▁shown	-10.5642
▁officers	-10.5654
▁tales	-10.5654
▁deed	-10.5655
mi	-10.5662
▁surprises	-10.5693
▁rangers	-10.5694
▁indicate	-10.5703
▁covers	-10.571
▁bon	-10.5753
esy	-10.5781
▁streets	-10.579
▁mol	-10.5791
▁rein	-10.5791
▁colt	-10.5797
ron	-10.5803
▁likely	-10.5813
▁nap	-10.5822
gar	-10.5844
▁championships	-10.5848
vin	-10.5857
▁til	-10.5857
▁manor	-10.5864
▁cheers	-10.5871
▁strangers	-10.5877
▁defi	-10.59
▁lan	-10.5909
▁gro	-10.5926
ol	-10.5936
ue	-10.5951
bar	-10.5983
nce	-10.5995
oft	-10.6008
els	-10.601
▁blocks	-10.6042
ming	-10.6055
ney	-10.6056
▁grandmas	-10.6057
▁quarters	-10.6061
ou	-10.6075
▁beasts	-10.6077
▁daddys	-10.6086
▁cakes	-10.6095
▁cases	-10.611
▁bets	-10.6114
▁pirate	-10.6138
▁gl	-10.6147
▁communicate	-10.6166
▁visual	-10.6176
▁inn	-10.6186
▁lip	-10.6195
onic	-10.62
▁ooo	-10.6203
ide	-10.6205
▁cigarette	-10.6216
▁elbow	-10.6216
▁scout	-10.6218
▁league	-10.622
▁email	-10.622
▁nu	-10.6227
▁shadow	-10.6228
ps	-10.6233
▁giggle	-10.6235
▁plate	-10.6239
▁beside	-10.6239
▁shoe	-10.6245
ned	-10.6272
▁gr	-10.6273
ure	-10.6281
▁daughters	-10.6293
ent	-10.6302
oh	-10.6303
ell	-10.6307
▁sk	-10.6308
▁here	-10.6308
▁whee	-10.6315
▁fry	-10.6324
▁print	-10.6324
▁dudes	-10.6326
▁helped	-10.6336
▁wanting	-10.634
tched	-10.6342
▁bi	-10.6342
hand	-10.6342
work	-10.6347
▁complain	-10.6352
▁bleed	-10.6354
▁hack	-10.636
▁nail	-10.6365
field	-10.6367
▁cape	-10.6377
▁develop	-10.638
sky	-10.6382
▁horns	-10.6383
free	-10.6385
well	-10.6386
▁grows	-10.6388
▁guilt	-10.639
ii	-10.6395
▁tuck	-10.6397
▁surf	-10.6397
▁narnia	-10.64
▁rome	-10.6402
▁risin	-10.6404
▁commit	-10.6405
▁civil	-10.6405
tacular	-10.6406
fire	-10.6406
▁cod	-10.6406
▁gorge	-10.6406
▁loyal	-10.6407
▁oui	-10.6407
▁advantage	-10.6408
▁april	-10.6408
▁armando	-10.6408
▁arrival	-10.6408
▁avenue	-10.6408
▁beautifui	-10.6408
▁bluenote	-10.6408
▁boycott	-10.6408
▁cheerleader	-10.6408
▁competition	-10.6408
▁craven	-10.6408
▁creek	-10.6408
▁darren	-10.6408
▁despair	-10.6408
▁diamond	-10.6408
▁dorothea	-10.6408
▁dylan	-10.6408
▁explosion	-10.6408
▁explosiveskull	-10.6408
▁federal	-10.6408
▁fierce	-10.6408
▁galaxy	-10.6408
▁graduation	-10.6408
▁hawthorne	-10.6408
▁hebrew	-10.6408
▁hydrogen	-10.6408
▁innocent	-10.6408
▁jeff	-10.6408
▁julianna	-10.6408
▁kangaroo	-10.6408
▁krupp	-10.6408
▁laundry	-10.6408
▁lengyel	-10.6408
▁library	-10.6408
▁minneapolis	-10.6408
▁monitor	-10.6408
▁mumbling	-10.6408
▁mvp	-10.6408
▁nicholas	-10.6408
▁orchestra	-10.6408
▁otho	-10.6408
▁patricia	-10.6408
▁phillip	-10.6408
▁portuguese	-10.6408
▁privacy	-10.6408
▁profit	-10.6408
▁reckon	-10.6408
▁reentry	-10.6408
▁response	-10.6408
▁ricardo	-10.6408
▁signature	-10.6408
▁snack	-10.6408
▁snoring	-10.6408
▁supervisor	-10.6408
▁survival	-10.6408
▁symbol	-10.6408
▁television	-10.6408
▁thumb	-10.6408
▁tyrant	-10.6408
▁update	-10.6408
▁violet	-10.6408
▁winslow	-10.6408
▁automatic	-10.6408
▁foam	-10.6408
▁frown	-10.6408
▁horizon	-10.6408
▁incoming	-10.6408
▁munion	-10.6408
▁phoeni	-10.6408
▁rookie	-10.6408
▁spear	-10.6408
▁tattoo	-10.6408
▁colwyn	-10.6408
▁sofa	-10.6408
▁drove	-10.6408
▁resent	-10.6408
▁riot	-10.6408
▁sensor	-10.6408
▁farren	-10.6408
▁crikey	-10.6408
▁susan	-10.6408
▁employee	-10.6408
▁shining	-10.6408
▁turnip	-10.6408
▁fifth	-10.6408
▁abdullah	-10.6408
▁audible	-10.6408
▁mamaji	-10.6408
▁observe	-10.6408
▁frail	-10.6408
▁candie	-10.6408
▁stew	-10.6408
▁rumble	-10.6408
▁continent	-10.6408
▁rattle	-10.6408
▁pronounce	-10.6408
▁struck	-10.6408
▁fortress	-10.6408
▁mambo	-10.6408
▁communist	-10.6408
▁theory	-10.6408
▁excitement	-10.6408
▁furious	-10.6408
▁fuzzy	-10.6408
▁item	-10.6408
▁libert	-10.6408
▁lewis	-10.6408
▁huntington	-10.6408
▁stacy	-10.6408
▁polish	-10.6408
▁average	-10.6408
▁concept	-10.6408
▁balance	-10.6408
▁nickel	-10.6408
▁grizzlies	-10.6408
▁coyle	-10.6408
▁moonwind	-10.6408
▁judgment	-10.6408
▁diva	-10.6408
▁novel	-10.6408
▁mona	-10.6408
▁stith	-10.6409
▁clare	-10.6409
▁performance	-10.6409
▁cheerio	-10.6409
▁fever	-10.6409
▁belief	-10.6409
▁buon	-10.6409
▁possibility	-10.6409
▁educate	-10.6409
▁carpet	-10.6409
▁maniac	-10.6409
▁delos	-10.6409
▁dort	-10.6409
▁saddle	-10.6409
▁distant	-10.6409
▁exhausted	-10.6409
▁overtime	-10.6409
▁carolina	-10.6409
▁squeeze	-10.6409
▁quill	-10.6409
▁thick	-10.6409
▁youth	-10.6409
▁supply	-10.641
▁gunfire	-10.641
▁jockey	-10.641
▁cities	-10.641
▁meatball	-10.641
▁thou	-10.641
▁beef	-10.641
▁escort	-10.641
▁religion	-10.641
▁coordinates	-10.641
▁bait	-10.641
▁sunny	-10.641
▁dazzling	-10.641
▁selfish	-10.6411
▁portman	-10.6411
▁robin	-10.6411
▁firebird	-10.6411
▁arch	-10.6411
▁modest	-10.6411
▁gail	-10.6411
▁hidden	-10.6412
▁raw	-10.6412
▁messina	-10.6412
▁sacred	-10.6412
▁peak	-10.6413
▁straining	-10.6413
▁salad	-10.6414
▁text	-10.6414
▁theatre	-10.6414
▁dating	-10.6415
▁bedtime	-10.6416
▁strategy	-10.6416
▁sonny	-10.6417
▁bush	-10.6417
▁quitting	-10.6417
▁chet	-10.6417
▁cole	-10.6419
▁manager	-10.6419
▁layers	-10.642
▁andy	-10.642
▁sang	-10.642
▁moaning	-10.642
▁divided	-10.6423
▁liver	-10.6423
▁bout	-10.6426
▁campus	-10.6427
▁link	-10.6428
▁pm	-10.6428
▁creed	-10.6429
▁buckle	-10.643
▁package	-10.643
▁slightly	-10.643
▁bored	-10.6431
▁creepy	-10.6432
▁decker	-10.6433
zy	-10.6433
▁hooting	-10.6437
shot	-10.6438
▁gutsy	-10.644
▁goodnight	-10.6442
▁retired	-10.6442
▁mounted	-10.6442
▁goody	-10.6444
▁ms	-10.6454
▁tau	-10.6454
▁thrilled	-10.6455
▁zorgons	-10.6455
▁learnt	-10.6459
▁earned	-10.6459
▁scraps	-10.6461
▁parties	-10.6462
▁mid	-10.6473
sexual	-10.6473
▁loudly	-10.6473
▁searched	-10.6474
▁fu	-10.6474
▁vegetables	-10.6474
▁based	-10.6475
▁hunting	-10.6479
▁roy	-10.6484
▁fl	-10.6485
▁hooked	-10.6486
▁rd	-10.6488
▁teams	-10.6492
▁awaits	-10.6493
▁brat	-10.6502
▁jacket	-10.6512
▁cents	-10.6512
▁claws	-10.6512
▁erica	-10.6515
▁divers	-10.6516
▁packed	-10.6522
▁farming	-10.6526
▁suits	-10.6529
▁drugs	-10.6531
vital	-10.654
▁kin	-10.6545
▁gloves	-10.6551
▁climbing	-10.6561
▁customers	-10.6571
▁prisoners	-10.6574
▁hopes	-10.6595
ep	-10.6601
▁neighbors	-10.6602
▁sins	-10.6605
▁pushed	-10.6605
▁smith	-10.6609
roll	-10.6613
▁enjoyed	-10.662
▁oooh	-10.6621
▁grounded	-10.6628
▁laughed	-10.6632
▁snakes	-10.6646
▁vows	-10.6647
nd	-10.6652
▁holds	-10.6653
ig	-10.667
▁circles	-10.6685
▁cleaned	-10.6694
oy	-10.6697
▁drops	-10.6706
▁wondered	-10.6716
ett	-10.6725
▁sucks	-10.6727
▁pushing	-10.6733
▁rode	-10.6754
▁nick	-10.6761
▁nightmares	-10.6762
▁mens	-10.6778
▁bl	-10.6794
▁sch	-10.6796
▁mend	-10.6802
▁waiter	-10.6812
▁cookies	-10.6813
▁fund	-10.6817
▁caves	-10.6819
▁weekends	-10.682
▁roses	-10.682
ley	-10.6827
▁signor	-10.6838
▁clouds	-10.6839
▁caused	-10.6848
▁fighters	-10.6854
▁tanks	-10.6859
▁wears	-10.6876
▁reminds	-10.688
▁qu	-10.6884
▁chip	-10.6887
ium	-10.6922
▁badly	-10.6975
▁tunnels	-10.6976
▁lookin	-10.6979
▁uncles	-10.6996
▁ins	-10.6997
▁files	-10.7028
▁clearing	-10.7054
▁treats	-10.7057
ens	-10.7081
▁notes	-10.7094
▁holes	-10.7098
▁understanding	-10.7102
▁depend	-10.7102
▁at	-10.7143
▁ravi	-10.7166
▁seas	-10.7193
▁ust	-10.72
▁gin	-10.7213
▁sire	-10.7217
▁je	-10.7225
▁gen	-10.7244
ious	-10.7274
ita	-10.7277
▁comment	-10.728
▁mentor	-10.7281
▁estate	-10.7327
▁principal	-10.7328
▁andrea	-10.7332
▁blanket	-10.7332
▁punk	-10.7333
▁cap	-10.7333
▁blade	-10.7335
▁experiment	-10.7337
▁pearl	-10.7337
▁doll	-10.7338
▁possession	-10.7339
▁muscle	-10.7345
▁customer	-10.7346
▁toward	-10.7346
▁degree	-10.7346
▁skill	-10.735
▁pill	-10.7354
▁actor	-10.7358
▁gang	-10.736
▁prisoner	-10.7362
ook	-10.7362
▁talks	-10.739
▁chuckle	-10.7394
▁bound	-10.7405
▁skip	-10.7407
▁pad	-10.7414
rig	-10.7418
▁sr	-10.742
▁exception	-10.7425
tro	-10.7426
▁disappoint	-10.7438
ub	-10.7442
▁ai	-10.7444
lli	-10.7452
ccer	-10.7461
▁leak	-10.7468
▁stones	-10.747
▁hum	-10.7477
▁receive	-10.748
▁brush	-10.7481
▁chop	-10.7486
▁delay	-10.7486
▁poison	-10.7486
▁betray	-10.749
▁cosm	-10.749
▁establish	-10.749
▁connect	-10.7491
born	-10.7493
cliff	-10.7494
▁distract	-10.7496
▁crow	-10.7498
ber	-10.7498
▁torture	-10.7499
▁arrange	-10.7499
▁hobb	-10.7501
▁separate	-10.7501
▁propose	-10.7503
tail	-10.7505
▁chris	-10.7505
▁permanent	-10.7505
▁marsha	-10.7507
▁clubs	-10.751
▁opera	-10.7515
fortunately	-10.7516
▁demo	-10.7517
▁cor	-10.7517
▁spiritual	-10.7517
▁tragic	-10.7518
▁flash	-10.7518
▁drama	-10.7518
▁threat	-10.7519
▁brearh	-10.7519
▁mercury	-10.7519
▁patrol	-10.7519
▁anyhow	-10.7519
▁archbishop	-10.7519
▁arnold	-10.7519
▁atmosphere	-10.7519
▁awkward	-10.7519
▁bachelor	-10.7519
▁beneath	-10.7519
▁cannon	-10.7519
▁charmaine	-10.7519
▁clacktiel	-10.7519
▁cleveland	-10.7519
▁corridor	-10.7519
▁cosimo	-10.7519
▁destination	-10.7519
▁dogpile	-10.7519
▁dorsey	-10.7519
▁evacuate	-10.7519
▁exhibit	-10.7519
▁gravity	-10.7519
▁groceries	-10.7519
▁guinevere	-10.7519
▁guvnor	-10.7519
▁hilarious	-10.7519
▁investigate	-10.7519
▁ipod	-10.7519
▁irrational	-10.7519
▁kibner	-10.7519
▁lincoln	-10.7519
▁longhorns	-10.7519
▁neighbourhood	-10.7519
▁pamela	-10.7519
▁pennant	-10.7519
▁perceval	-10.7519
▁philadelphia	-10.7519
▁popcorn	-10.7519
▁primitive	-10.7519
▁rajeev	-10.7519
▁sicilian	-10.7519
▁slice	-10.7519
▁specimen	-10.7519
▁squeaks	-10.7519
▁sunrise	-10.7519
▁territory	-10.7519
▁toshio	-10.7519
▁trigger	-10.7519
▁twirl	-10.7519
▁ultimate	-10.7519
▁undefeated	-10.7519
▁urdu	-10.7519
▁wagon	-10.7519
▁widow	-10.7519
▁xavier	-10.7519
▁amusing	-10.7519
▁method	-10.7519
▁opponent	-10.7519
▁threatened	-10.7519
▁dallas	-10.7519
▁jolly	-10.7519
▁relay	-10.7519
▁motorcycle	-10.7519
▁facing	-10.7519
▁roam	-10.7519
▁mitchell	-10.7519
▁dinky	-10.7519
▁luggage	-10.7519
▁gonogo	-10.7519
▁bidding	-10.7519
▁ouimet	-10.7519
▁cheermeister	-10.7519
▁mischief	-10.7519
▁stream	-10.7519
▁unfair	-10.7519
▁constant	-10.7519
▁caddie	-10.7519
▁medlock	-10.7519
▁plastic	-10.7519
▁whyd	-10.7519
▁entry	-10.7519
▁raft	-10.7519
▁pumpkin	-10.7519
▁channel	-10.7519
▁purse	-10.7519
▁haunt	-10.7519
▁sharkboy	-10.7519
▁thomas	-10.7519
▁institute	-10.7519
▁steel	-10.7519
▁breeze	-10.7519
▁basically	-10.7519
▁franklin	-10.7519
▁greetings	-10.7519
▁allamerican	-10.7519
▁edward	-10.7519
▁oven	-10.752
▁trend	-10.752
▁holiness	-10.752
▁dawes	-10.752
▁ergo	-10.752
▁diving	-10.752
▁confident	-10.752
▁temple	-10.752
▁comic	-10.752
▁decorat	-10.752
▁fold	-10.752
▁dull	-10.752
▁spoon	-10.752
▁kansas	-10.752
▁yield	-10.752
▁bunk	-10.752
▁dedicated	-10.752
▁development	-10.7521
▁eise	-10.7521
▁fanny	-10.7521
ward	-10.7521
▁mickey	-10.7521
▁accountant	-10.7521
▁vicious	-10.7521
▁jimbo	-10.7521
▁toll	-10.7521
▁freshmen	-10.7522
▁scatter	-10.7522
▁princeton	-10.7522
▁dickon	-10.7522
▁branches	-10.7522
▁lime	-10.7522
▁swat	-10.7522
▁nursery	-10.7522
▁species	-10.7523
▁oak	-10.7523
▁objective	-10.7523
▁stealth	-10.7523
▁sack	-10.7523
▁marcus	-10.7523
▁thirsty	-10.7524
▁unlike	-10.7524
▁swell	-10.7524
▁bucket	-10.7524
▁aid	-10.7524
▁dna	-10.7524
▁abra	-10.7525
▁layla	-10.7525
▁booth	-10.7525
▁hoid	-10.7525
▁surprisingly	-10.7526
▁overman	-10.7526
▁recommend	-10.7526
▁wax	-10.7527
▁inches	-10.7527
▁canal	-10.7527
▁cameron	-10.7527
▁possessed	-10.7527
▁coughing	-10.7527
▁clattering	-10.7527
▁caleb	-10.7527
▁review	-10.7529
▁lever	-10.753
▁june	-10.753
▁daylight	-10.7531
▁sank	-10.7531
▁label	-10.7531
▁discovery	-10.7531
▁swallow	-10.7531
▁michaelson	-10.7532
▁utter	-10.7532
▁curly	-10.7533
▁seventh	-10.7533
▁ack	-10.7534
▁installed	-10.7534
▁punches	-10.7536
▁separated	-10.7537
▁statement	-10.7537
▁dreadful	-10.7537
▁robbed	-10.7537
▁recovered	-10.7538
▁rank	-10.7539
▁some	-10.7541
▁lust	-10.7541
▁graduated	-10.7541
▁replaced	-10.7541
▁tan	-10.7543
▁straighten	-10.7543
▁haha	-10.7545
▁angeles	-10.7547
▁bury	-10.7549
▁rapids	-10.7551
▁properly	-10.7552
▁aim	-10.7553
▁janet	-10.7555
▁stinky	-10.7555
▁receiver	-10.7555
▁greet	-10.7557
▁pest	-10.7557
▁dame	-10.7557
▁lend	-10.756
▁fal	-10.756
▁ticking	-10.756
▁perfection	-10.7561
▁sexy	-10.7561
▁rage	-10.7562
▁boxes	-10.7562
▁poll	-10.7567
ory	-10.7569
inous	-10.7571
▁lawn	-10.7572
▁core	-10.7575
▁fastest	-10.7577
▁coo	-10.7578
▁ton	-10.7581
▁requested	-10.7589
▁los	-10.7589
▁sniffs	-10.7594
▁thorns	-10.7594
▁limit	-10.76
▁tubes	-10.7605
▁jokes	-10.7609
▁switched	-10.7616
▁slams	-10.7616
▁magnetic	-10.7624
▁focused	-10.7628
▁wasted	-10.7633
▁anton	-10.7635
▁fir	-10.7638
▁cube	-10.7638
▁admir	-10.7651
▁trans	-10.7654
▁tend	-10.7655
▁lb	-10.7661
▁ty	-10.7677
▁dings	-10.7688
▁praying	-10.7695
▁bounds	-10.77
▁pot	-10.7701
▁bobbin	-10.7702
owned	-10.7713
ank	-10.7716
ut	-10.7723
▁plates	-10.7724
▁considering	-10.7729
▁ding	-10.7746
▁bitching	-10.7747
▁earl	-10.7752
▁fianc	-10.7757
▁formal	-10.7757
ress	-10.7758
▁rob	-10.7762
▁mor	-10.7763
rage	-10.7766
▁sha	-10.7767
▁now	-10.7781
▁nan	-10.7788
▁obs	-10.7812
▁gu	-10.7822
▁scholarships	-10.7852
▁shi	-10.7859
▁tro	-10.7873
▁exists	-10.7873
▁reporters	-10.7892
▁condo	-10.7904
ninth	-10.7909
▁issues	-10.7939
head	-10.7954
▁humble	-10.7955
▁earths	-10.7959
▁devils	-10.7983
▁conditions	-10.7985
▁workers	-10.7987
▁sets	-10.7992
ect	-10.7994
▁figures	-10.8005
ini	-10.8011
▁sticking	-10.8027
▁mop	-10.8029
▁italians	-10.8049
▁cooler	-10.8049
▁buttons	-10.805
ob	-10.8062
▁lessons	-10.8074
oid	-10.8091
▁signing	-10.8094
▁kissing	-10.8108
▁sharks	-10.8115
▁dreamed	-10.8145
bi	-10.8147
ups	-10.8155
▁sounding	-10.8155
con	-10.817
ther	-10.8187
▁image	-10.8214
▁disable	-10.8251
▁types	-10.8257
▁chan	-10.8262
▁palm	-10.827
▁rap	-10.8292
▁arts	-10.8294
lie	-10.8326
▁chin	-10.8329
▁drum	-10.8341
▁who	-10.8357
▁ka	-10.8413
ain	-10.8414
▁when	-10.842
▁squirrels	-10.8425
▁cameras	-10.8426
ction	-10.843
kov	-10.8447
▁situations	-10.8447
zz	-10.8463
her	-10.8474
▁ol	-10.8479
tal	-10.849
▁sant	-10.8493
wrapped	-10.8511
▁gal	-10.8512
▁hundreds	-10.8515
▁op	-10.8525
▁sakes	-10.8537
▁attempt	-10.8544
▁spec	-10.8553
▁twin	-10.8558
gu	-10.8569
▁cabe	-10.8572
▁string	-10.8573
▁basic	-10.8576
▁rabbit	-10.8576
▁souvenir	-10.8576
▁toad	-10.8578
▁jew	-10.8578
▁amigo	-10.8581
▁frog	-10.8582
▁cowboy	-10.8582
▁length	-10.8586
▁puff	-10.8589
▁glove	-10.8591
▁habit	-10.8591
clear	-10.8591
▁relative	-10.8591
▁shutter	-10.8594
▁engraving	-10.8594
▁demon	-10.8595
▁onion	-10.8601
art	-10.8608
▁mare	-10.8609
▁briefing	-10.8616
▁admire	-10.8616
▁cre	-10.8616
▁pod	-10.8632
ush	-10.8635
ppy	-10.8635
▁dock	-10.8641
ttering	-10.8658
ities	-10.8662
▁cal	-10.8665
gy	-10.8666
▁transport	-10.8669
▁cla	-10.8671
▁boil	-10.8683
▁suite	-10.8684
▁tent	-10.8685
▁reno	-10.8695
▁fin	-10.8698
stone	-10.8698
▁cleaner	-10.87
real	-10.8701
west	-10.8707
▁oops	-10.8709
▁entertain	-10.8714
load	-10.8719
▁breed	-10.8719
▁coop	-10.872
book	-10.8721
▁echo	-10.8722
▁fleet	-10.8728
▁bake	-10.8735
▁waters	-10.8737
▁punish	-10.8738
bridge	-10.8744
boy	-10.8744
signor	-10.8744
▁q	-10.8745
hut	-10.8745
mission	-10.8746
wall	-10.8747
reach	-10.8749
▁loosen	-10.8749
▁locate	-10.8752
▁coco	-10.8754
▁shave	-10.8756
▁luis	-10.8759
rick	-10.8763
▁torpedo	-10.8763
▁speaker	-10.8764
▁explore	-10.8764
▁exam	-10.8765
▁select	-10.8765
▁soph	-10.8766
▁thom	-10.8767
ndians	-10.8768
▁bargain	-10.8769
▁slack	-10.8769
▁streak	-10.8769
▁ambassador	-10.8769
▁argument	-10.8769
▁arriving	-10.8769
▁australia	-10.8769
▁bermuda	-10.8769
▁bubbie	-10.8769
▁capacity	-10.8769
▁capital	-10.8769
▁centuries	-10.8769
▁corral	-10.8769
▁custody	-10.8769
▁delicate	-10.8769
▁denver	-10.8769
▁detroit	-10.8769
▁distress	-10.8769
▁dwayne	-10.8769
▁episode	-10.8769
▁evidence	-10.8769
▁excellency	-10.8769
▁fleekfest	-10.8769
▁geronimo	-10.8769
▁godbole	-10.8769
▁gracias	-10.8769
▁grazie	-10.8769
▁habib	-10.8769
▁hauptmannkoenig	-10.8769
▁hawaii	-10.8769
▁howre	-10.8769
▁instrument	-10.8769
▁kablowey	-10.8769
▁kennedy	-10.8769
▁lafleur	-10.8769
▁mtv	-10.8769
▁muffinman	-10.8769
▁nantucket	-10.8769
▁nightwatcher	-10.8769
▁nikki	-10.8769
▁notify	-10.8769
▁opportunities	-10.8769
▁piscine	-10.8769
▁poldark	-10.8769
▁presume	-10.8769
▁profile	-10.8769
▁protocol	-10.8769
▁prototype	-10.8769
▁rattling	-10.8769
▁savage	-10.8769
▁semester	-10.8769
▁seymour	-10.8769
▁shaikh	-10.8769
▁solemn	-10.8769
▁steuby	-10.8769
▁stride	-10.8769
▁succeed	-10.8769
▁sullivan	-10.8769
▁superpower	-10.8769
▁tatianna	-10.8769
▁thirteen	-10.8769
▁throne	-10.8769
▁tippytoe	-10.8769
▁triangle	-10.8769
▁ukata	-10.8769
▁uncomfortable	-10.8769
▁vocalizing	-10.8769
▁welfare	-10.8769
▁whimpers	-10.8769
▁whobilation	-10.8769
▁yaeko	-10.8769
▁yeahbsolutely	-10.8769
▁chancing	-10.8769
▁extend	-10.8769
▁juicy	-10.8769
▁kerby	-10.8769
▁niece	-10.8769
▁unstable	-10.8769
▁cpr	-10.8769
▁rhonda	-10.8769
▁bicycle	-10.8769
▁miniatur	-10.8769
▁creak	-10.8769
▁hottest	-10.8769
▁complex	-10.8769
▁biology	-10.8769
▁extension	-10.8769
▁berries	-10.8769
▁incandesto	-10.8769
▁holmes	-10.8769
▁dawson	-10.8769
▁que	-10.8769
▁ruoppoio	-10.8769
▁socks	-10.8769
▁burden	-10.8769
▁flattered	-10.8769
▁funeral	-10.8769
▁yeehaw	-10.8769
▁cancer	-10.8769
▁absence	-10.8769
▁cupcake	-10.8769
▁lobby	-10.8769
▁demonstration	-10.8769
▁hungarian	-10.8769
▁brandnew	-10.8769
▁capella	-10.8769
▁frame	-10.8769
▁granddaughter	-10.8769
▁pedal	-10.8769
▁trading	-10.8769
▁entrance	-10.8769
▁colour	-10.8769
▁minister	-10.8769
▁permit	-10.8769
▁turton	-10.8769
▁irene	-10.8769
▁yummy	-10.8769
▁langley	-10.8769
▁internet	-10.8769
▁allergic	-10.8769
▁psst	-10.8769
▁sharing	-10.8769
▁quarrel	-10.8769
▁antonio	-10.8769
▁detective	-10.8769
▁slayers	-10.8769
▁sample	-10.8769
▁choke	-10.8769
▁aqua	-10.8769
▁sleepyhead	-10.8769
▁laurence	-10.8769
▁jewelry	-10.8769
▁fond	-10.8769
▁blend	-10.8769
▁gentry	-10.8769
▁resist	-10.8769
▁slipping	-10.8769
▁springfield	-10.8769
▁series	-10.8769
▁appetite	-10.877
▁blink	-10.877
▁craft	-10.877
▁cathol	-10.877
▁blob	-10.877
▁jammed	-10.877
▁clapping	-10.877
▁committed	-10.877
▁muffled	-10.877
▁loyalty	-10.877
▁trajectory	-10.877
▁brooke	-10.877
▁buff	-10.877
▁flock	-10.877
▁eighteen	-10.877
▁adjust	-10.877
▁hostage	-10.877
▁improvement	-10.877
▁programming	-10.877
▁clerk	-10.8771
▁privilege	-10.8771
▁upper	-10.8771
▁entertainment	-10.8771
▁stool	-10.8771
▁starfish	-10.8771
▁passionate	-10.8771
▁adela	-10.8771
▁reservation	-10.8771
▁bien	-10.8771
▁halt	-10.8771
▁hump	-10.8772
▁jake	-10.8772
▁broadway	-10.8772
▁mock	-10.8772
ieval	-10.8772
▁communication	-10.8772
▁pippi	-10.8773
▁honeypot	-10.8773
▁humor	-10.8773
▁peaches	-10.8773
▁fuss	-10.8773
▁logical	-10.8773
▁chili	-10.8773
▁rising	-10.8773
▁christina	-10.8773
▁turk	-10.8773
▁eleven	-10.8774
▁smoking	-10.8774
▁harmless	-10.8774
▁ego	-10.8774
▁thorne	-10.8774
▁leaf	-10.8774
ld	-10.8774
▁shelby	-10.8774
▁lightfoot	-10.8775
▁related	-10.8775
▁sincerely	-10.8775
▁foaly	-10.8775
▁harsh	-10.8775
▁charity	-10.8775
▁anger	-10.8776
▁delia	-10.8776
▁taik	-10.8776
▁rex	-10.8776
▁countdown	-10.8777
▁caf	-10.8777
▁aww	-10.8777
▁berg	-10.8778
▁shatter	-10.8778
▁realise	-10.8778
▁tease	-10.8778
▁heartbeat	-10.8778
▁temporary	-10.8778
▁morgana	-10.8778
▁roaring	-10.8778
▁apply	-10.8779
▁moron	-10.8779
▁dime	-10.8779
▁mam	-10.878
▁taft	-10.878
▁avery	-10.878
▁luisa	-10.878
▁merciful	-10.878
▁tina	-10.878
▁xl	-10.8781
▁aware	-10.8781
▁ohhh	-10.8782
▁grouchy	-10.8782
▁recovery	-10.8782
▁emily	-10.8782
▁relieved	-10.8784
▁applauding	-10.8785
▁kiddo	-10.8785
ee	-10.8786
leg	-10.8787
▁barry	-10.8788
▁suggestion	-10.879
▁sewing	-10.8791
▁buckley	-10.8793
▁lane	-10.8794
▁adopt	-10.8794
▁mansion	-10.8795
▁englishman	-10.8797
▁peeking	-10.8798
▁web	-10.8799
▁campers	-10.88
▁fil	-10.8801
▁officially	-10.8801
▁bucky	-10.8803
▁divorced	-10.8803
▁tender	-10.8804
▁inspired	-10.8805
▁donuts	-10.8806
▁deepest	-10.8806
▁lighten	-10.8807
▁pickup	-10.8807
▁sewers	-10.8807
▁tick	-10.8807
▁riders	-10.8808
▁former	-10.8808
▁downloaded	-10.8809
▁buster	-10.881
▁yetis	-10.8811
▁twisty	-10.8812
▁prey	-10.8813
▁refused	-10.8814
▁ken	-10.8816
▁boiling	-10.8817
▁kinds	-10.8819
▁gown	-10.8822
▁sparky	-10.8822
▁lib	-10.8827
▁mistaken	-10.8828
▁tools	-10.883
▁squeals	-10.8831
bra	-10.8832
▁sucked	-10.8834
▁bent	-10.8837
▁takeover	-10.8842
▁ringo	-10.8843
▁reality	-10.8844
▁kisses	-10.8847
▁wage	-10.8849
▁sadly	-10.8849
▁dee	-10.8849
▁cursed	-10.885
▁curtains	-10.8854
▁groves	-10.8855
▁sheets	-10.8855
▁debts	-10.8856
▁smarter	-10.8856
▁murdered	-10.8857
▁tricky	-10.8866
▁reminded	-10.8866
▁hugg	-10.8868
▁pounding	-10.8869
jo	-10.887
▁punched	-10.8872
▁entered	-10.8872
▁fr	-10.8873
ations	-10.8875
▁sucking	-10.8875
▁stinking	-10.8876
▁mut	-10.8877
▁compliments	-10.8879
▁missus	-10.8884
▁comp	-10.8885
▁loading	-10.8887
▁status	-10.8888
▁fed	-10.8894
▁kab	-10.8901
▁joker	-10.8902
▁waponis	-10.8903
▁toots	-10.8903
▁painted	-10.8905
▁crashing	-10.8906
for	-10.8906
ark	-10.8907
▁charged	-10.891
▁blocked	-10.8912
▁jet	-10.8916
▁marked	-10.892
▁drinks	-10.8921
▁wayne	-10.8921
af	-10.8926
▁quicker	-10.8928
▁sole	-10.8928
▁worrying	-10.8933
▁mikey	-10.8938
▁shares	-10.8968
eye	-10.898
▁bomber	-10.8985
▁maxie	-10.8987
▁coaches	-10.8996
▁shadows	-10.9002
▁will	-10.9002
▁nails	-10.9008
▁chant	-10.9018
▁casey	-10.9021
▁bananas	-10.9026
▁writer	-10.9034
▁bills	-10.9039
▁bothering	-10.9044
▁cans	-10.9048
▁painter	-10.9049
▁durbervilles	-10.9051
▁bra	-10.9058
▁crossing	-10.9061
some	-10.9064
thing	-10.9071
▁honored	-10.9072
▁controll	-10.9076
▁vol	-10.9083
▁bern	-10.9085
▁pope	-10.909
ez	-10.9094
▁leon	-10.91
▁heights	-10.91
▁options	-10.91
ith	-10.9116
▁by	-10.9123
▁nerves	-10.9125
▁tin	-10.9133
che	-10.9137
▁wit	-10.9138
▁praises	-10.9142
▁pipes	-10.9153
cus	-10.9153
▁grabs	-10.9155
▁minds	-10.916
ello	-10.9172
▁keg	-10.9177
va	-10.9177
▁hangs	-10.9178
▁valleys	-10.92
▁answered	-10.9201
ism	-10.921
▁enjoying	-10.9218
▁claims	-10.9227
▁chains	-10.9228
▁pools	-10.9233
▁mis	-10.9239
▁eagles	-10.925
val	-10.9259
▁as	-10.9267
▁mega	-10.9271
▁cleared	-10.9272
▁bullets	-10.9274
▁fa	-10.9282
igma	-10.9289
▁joining	-10.9291
▁damned	-10.9299
▁lasted	-10.9321
▁traditional	-10.9326
ef	-10.9328
▁remains	-10.9328
▁lover	-10.9344
▁crocodiles	-10.935
min	-10.9358
▁volt	-10.9398
▁jerks	-10.94
kins	-10.9423
gged	-10.9423
▁am	-10.9426
bre	-10.9435
face	-10.945
that	-10.9455
ick	-10.9457
key	-10.9466
▁forms	-10.9494
▁hopeful	-10.9497
ax	-10.9507
▁probe	-10.9507
▁zu	-10.9514
▁annu	-10.9523
▁pea	-10.9534
▁dancer	-10.9536
▁grades	-10.9551
nickers	-10.9556
ise	-10.9556
ving	-10.9556
▁gra	-10.9578
▁sue	-10.9589
▁bru	-10.959
▁cons	-10.9595
▁lawful	-10.9601
mon	-10.9625
rdy	-10.9629
▁helps	-10.963
escent	-10.9635
iii	-10.964
▁presidents	-10.9646
▁quote	-10.9655
▁iu	-10.9688
▁declare	-10.9699
▁headed	-10.9743
lles	-10.9767
▁zi	-10.9771
▁wonders	-10.9785
▁checker	-10.9789
▁chairs	-10.9807
▁we	-10.9816
ummy	-10.9817
ung	-10.9818
▁thinkin	-10.9821
▁it	-10.983
ft	-10.9843
▁br	-10.9879
cho	-10.9893
gle	-10.9911
im	-10.9912
▁sho	-10.9913
▁freaks	-10.9918
rita	-10.9929
uh	-10.9937
▁inc	-10.9948
ght	-10.9954
lake	-10.997
▁bark	-10.998
ong	-10.9992
int	-10.9993
▁survivor	-11.0005
▁trunk	-11.0005
▁rhyme	-11.001
▁sleeve	-11.001
▁temperature	-11.001
▁decade	-11.001
▁regard	-11.0017
▁villain	-11.0018
▁sel	-11.002
▁drug	-11.0022
▁musician	-11.0023
▁medal	-11.0024
▁immortal	-11.0025
ttie	-11.0028
▁dollar	-11.0028
▁tot	-11.003
▁folk	-11.0035
▁hunter	-11.0036
town	-11.0042
▁farmer	-11.005
▁ste	-11.0059
▁magnet	-11.0061
▁client	-11.0063
▁pas	-11.0063
▁auto	-11.0064
▁sm	-11.0079
▁lands	-11.008
▁inspir	-11.009
here	-11.009
▁prov	-11.0094
▁virtu	-11.0102
ethan	-11.0103
▁crawl	-11.0118
▁choices	-11.0119
are	-11.0126
▁explains	-11.0128
▁hid	-11.0129
▁spells	-11.0144
▁brag	-11.0148
▁rais	-11.0154
▁der	-11.0154
rate	-11.0156
cl	-11.0156
▁figur	-11.0159
▁repair	-11.0167
▁attach	-11.0167
▁yas	-11.0167
bird	-11.0169
▁areas	-11.017
▁tables	-11.0171
life	-11.0171
▁alter	-11.0173
▁pinch	-11.0173
proof	-11.0173
fashion	-11.0173
▁ahhh	-11.0174
normal	-11.0174
capable	-11.0175
craft	-11.0175
▁improve	-11.0176
▁steer	-11.0176
▁underestimate	-11.0178
▁eliminate	-11.0178
four	-11.0178
▁engage	-11.018
▁wealth	-11.0181
▁discipline	-11.0184
▁technical	-11.0184
▁flee	-11.0185
▁prop	-11.0191
▁fran	-11.0192
▁strip	-11.0193
pa	-11.0193
▁thrust	-11.0194
▁amuse	-11.0196
▁similar	-11.0197
ville	-11.0197
▁anniversary	-11.0197
▁aslan	-11.0197
▁attorney	-11.0197
▁automated	-11.0197
▁bagumba	-11.0197
▁beechwood	-11.0197
▁bhutan	-11.0197
▁binnacle	-11.0197
▁blitz	-11.0197
▁boomerang	-11.0197
▁caspian	-11.0197
▁caviar	-11.0197
▁ceiling	-11.0197
▁cinnamon	-11.0197
▁civilization	-11.0197
▁combination	-11.0197
▁compassion	-11.0197
▁compromise	-11.0197
▁conspiracy	-11.0197
▁currency	-11.0197
▁cynic	-11.0197
▁destined	-11.0197
▁doulton	-11.0197
▁dowager	-11.0197
▁dynamite	-11.0197
▁eberhart	-11.0197
▁einstein	-11.0197
▁evergiot	-11.0197
▁exaggerate	-11.0197
▁fitzroyce	-11.0197
▁flavor	-11.0197
▁fumble	-11.0197
▁globe	-11.0197
▁griffen	-11.0197
▁griselda	-11.0197
▁halloween	-11.0197
▁hardware	-11.0197
▁headache	-11.0197
▁horror	-11.0197
▁igrayne	-11.0197
▁inappropriate	-11.0197
▁institution	-11.0197
▁investigation	-11.0197
▁itaiy	-11.0197
▁ketchup	-11.0197
▁klonk	-11.0197
▁mackenzie	-11.0197
▁mccann	-11.0197
▁mcgill	-11.0197
▁moscow	-11.0197
▁ncaa	-11.0197
▁negotiat	-11.0197
▁nicolas	-11.0197
▁nowadays	-11.0197
▁oath	-11.0197
▁offensive	-11.0197
▁omega	-11.0197
▁override	-11.0197
▁pencil	-11.0197
▁perimeter	-11.0197
▁phase	-11.0197
▁popsicle	-11.0197
▁portugal	-11.0197
▁possibilities	-11.0197
▁pronto	-11.0197
▁razor	-11.0197
▁reckless	-11.0197
▁regatta	-11.0197
▁rewbell	-11.0197
▁rodrigo	-11.0197
▁saudi	-11.0197
▁scotland	-11.0197
▁sheriff	-11.0197
▁snorts	-11.0197
▁sorrow	-11.0197
▁squirt	-11.0197
▁supernatural	-11.0197
▁surveillance	-11.0197
▁suspension	-11.0197
▁taylor	-11.0197
▁tijada	-11.0197
▁tournament	-11.0197
▁uryens	-11.0197
▁valestra	-11.0197
▁vanilla	-11.0197
▁vaughan	-11.0197
▁vegas	-11.0197
▁volunteer	-11.0197
▁voula	-11.0197
▁wrightwood	-11.0197
▁zathura	-11.0197
▁callendar	-11.0197
▁dirk	-11.0197
▁femaie	-11.0197
▁fingerprints	-11.0197
▁fiom	-11.0197
▁infinity	-11.0197
▁kaiser	-11.0197
▁moreno	-11.0197
▁stiff	-11.0197
▁underpants	-11.0197
bonjour	-11.0197
▁atlas	-11.0197
▁reilly	-11.0197
▁spindle	-11.0197
▁fuck	-11.0197
▁financia	-11.0197
▁adios	-11.0197
▁ankle	-11.0197
▁italy	-11.0197
▁circuit	-11.0197
▁latin	-11.0197
▁lounge	-11.0197
▁reveal	-11.0197
▁amazed	-11.0197
▁portokalos	-11.0197
▁trulock	-11.0197
▁belmont	-11.0197
▁electronic	-11.0197
▁lundy	-11.0197
▁betelgeuse	-11.0197
▁slade	-11.0197
▁embrace	-11.0197
▁brace	-11.0197
▁minimum	-11.0197
▁robbins	-11.0197
▁rival	-11.0197
▁whining	-11.0197
▁inconvenience	-11.0197
▁aaron	-11.0197
▁pebbles	-11.0197
▁regency	-11.0197
▁shaft	-11.0197
▁facilities	-11.0197
▁grandchildren	-11.0197
▁flare	-11.0197
▁shaving	-11.0197
▁twentytwo	-11.0197
▁accused	-11.0197
▁violation	-11.0197
▁bengal	-11.0198
▁canada	-11.0198
▁weld	-11.0198
▁geneva	-11.0198
▁salino	-11.0198
▁wilson	-11.0198
▁illusion	-11.0198
▁malia	-11.0198
▁upgrade	-11.0198
▁revoir	-11.0198
▁shaii	-11.0198
▁studied	-11.0198
▁tribe	-11.0198
▁tsk	-11.0198
▁ammo	-11.0198
▁panicked	-11.0198
▁envy	-11.0198
▁gwenna	-11.0198
▁kenny	-11.0198
▁chubby	-11.0198
▁polite	-11.0198
▁stamp	-11.0198
▁dictator	-11.0198
▁petition	-11.0198
▁tango	-11.0198
▁liquid	-11.0198
▁cornell	-11.0198
▁newscast	-11.0198
▁madison	-11.0198
▁arise	-11.0198
▁rustling	-11.0198
▁counselor	-11.0198
▁sector	-11.0198
▁japan	-11.0198
▁description	-11.0198
▁asshole	-11.0198
▁cherish	-11.0198
gs	-11.0198
▁irish	-11.0198
▁maid	-11.0198
▁mature	-11.0198
▁inspiration	-11.0198
▁transferred	-11.0198
▁clinic	-11.0198
▁hissing	-11.0198
▁romero	-11.0198
ellow	-11.0198
▁shamus	-11.0198
▁childhood	-11.0199
▁techno	-11.0199
▁bracelet	-11.0199
▁dolores	-11.0199
▁countess	-11.0199
form	-11.0199
▁acid	-11.0199
▁facility	-11.0199
▁maud	-11.0199
▁embarrassment	-11.0199
▁haircut	-11.0199
▁jj	-11.0199
▁squash	-11.0199
▁snowball	-11.0199
▁submar	-11.0199
▁nephew	-11.0199
▁stroke	-11.0199
▁inhales	-11.0199
▁tutor	-11.0199
▁mill	-11.0199
▁punishment	-11.02
▁rumor	-11.02
▁sheep	-11.02
▁begged	-11.02
▁crick	-11.02
▁selection	-11.02
▁parade	-11.02
▁ramon	-11.02
▁disappointment	-11.02
▁moran	-11.02
▁indoor	-11.02
▁lava	-11.02
▁congratulate	-11.02
▁debut	-11.02
▁injury	-11.02
▁copper	-11.02
▁commitment	-11.02
▁furry	-11.02
▁gunshot	-11.0201
▁enid	-11.0201
▁cooperation	-11.0201
▁factory	-11.0201
▁benny	-11.0201
▁allah	-11.0201
▁gruber	-11.0201
▁damp	-11.0201
▁ayah	-11.0201
▁celebrating	-11.0201
▁bowser	-11.0202
▁councilman	-11.0202
▁telescope	-11.0202
▁clap	-11.0203
▁redstone	-11.0203
▁puke	-11.0203
▁retirement	-11.0203
▁digit	-11.0203
▁bedell	-11.0203
▁poop	-11.0203
▁management	-11.0203
▁drift	-11.0203
▁bingo	-11.0203
▁serene	-11.0204
▁gently	-11.0204
▁andi	-11.0204
▁which	-11.0204
▁offended	-11.0204
▁sequence	-11.0204
▁lsnt	-11.0204
▁slimy	-11.0204
▁chess	-11.0205
▁ames	-11.0205
▁beeper	-11.0205
▁lifeboat	-11.0205
▁dork	-11.0206
▁barber	-11.0206
▁dino	-11.0206
▁reply	-11.0206
▁grey	-11.0207
▁scotch	-11.0207
▁rama	-11.0207
▁sneakers	-11.0207
▁ridge	-11.0207
▁transmitter	-11.0207
▁erie	-11.0207
▁batteries	-11.0207
▁domin	-11.0208
city	-11.0209
▁harmony	-11.021
▁severe	-11.021
▁rusty	-11.021
▁postman	-11.0211
▁oof	-11.0211
▁larson	-11.0212
▁coverage	-11.0212
▁orbital	-11.0212
▁rape	-11.0212
▁fluffy	-11.0213
▁worn	-11.0213
▁permanently	-11.0215
▁forgiveness	-11.0215
▁tore	-11.0215
ember	-11.0215
▁dez	-11.0216
▁howling	-11.0217
▁blackout	-11.0217
lair	-11.0218
▁shallow	-11.0219
▁host	-11.0219
▁linda	-11.0219
▁switches	-11.0222
▁mayday	-11.0224
▁ripe	-11.0225
▁humanity	-11.0226
▁takin	-11.0226
▁anti	-11.0227
▁waitress	-11.0227
▁armor	-11.0229
▁punished	-11.0231
▁mild	-11.0232
▁waking	-11.0232
▁eighth	-11.0233
▁mio	-11.0233
▁endless	-11.0234
▁sixth	-11.0235
▁useful	-11.0235
▁connected	-11.0236
▁shipment	-11.0236
▁herring	-11.0238
▁disturbing	-11.0238
▁chores	-11.0239
▁dash	-11.0239
▁reasonable	-11.024
▁developed	-11.024
▁gadgets	-11.0241
▁coughs	-11.0241
▁assumed	-11.0241
▁crawling	-11.0245
▁fried	-11.0247
amore	-11.0248
▁chased	-11.0248
▁pole	-11.025
▁defeated	-11.0252
▁shovel	-11.0253
▁matches	-11.0253
▁ferr	-11.026
▁performed	-11.0263
▁pissed	-11.0263
▁yah	-11.0263
▁wounded	-11.0264
▁cam	-11.0267
▁bleeding	-11.0268
▁knuckles	-11.0269
▁noodles	-11.0269
▁managed	-11.0269
▁dresses	-11.027
▁drivein	-11.0273
▁billion	-11.0275
▁pond	-11.0277
▁hood	-11.0281
▁charmer	-11.0283
▁deserved	-11.0284
▁gua	-11.0284
▁dumped	-11.0286
▁renounc	-11.0292
rst	-11.0297
▁ribs	-11.0297
▁marshmallows	-11.0297
▁studying	-11.0305
▁wrecked	-11.0308
▁bella	-11.0317
▁slower	-11.0317
▁bur	-11.0321
▁magazines	-11.0325
▁goodlooking	-11.0326
▁trac	-11.0327
▁booing	-11.0327
▁lion	-11.0333
▁dearie	-11.0333
▁tougher	-11.0337
▁shorter	-11.0345
▁smaller	-11.0345
ative	-11.0349
▁documents	-11.0354
▁sneezes	-11.0354
▁visitors	-11.0354
▁fades	-11.0354
right	-11.0355
▁pipp	-11.0356
▁faithful	-11.0356
▁prom	-11.0359
ines	-11.0374
▁quietly	-11.0381
▁imagined	-11.0383
▁villains	-11.0383
▁farmers	-11.0391
ifyou	-11.0395
▁ruining	-11.0398
▁don	-11.0399
tte	-11.0401
▁rolls	-11.0406
▁habits	-11.041
▁jobs	-11.0416
▁tons	-11.0433
▁experiments	-11.044
▁possessions	-11.044
▁ohio	-11.0445
guel	-11.0458
▁tested	-11.0458
but	-11.0459
▁wedd	-11.046
▁bonding	-11.0462
▁buildings	-11.0462
▁speakers	-11.0463
▁tryin	-11.0465
bel	-11.0466
tra	-11.0466
ire	-11.0471
yi	-11.0475
▁untie	-11.0482
▁dreamer	-11.0483
▁fooled	-11.0487
▁feathers	-11.0489
row	-11.049
▁citizens	-11.049
▁bowling	-11.0504
ians	-11.0513
ino	-11.0523
▁reaching	-11.0524
▁newspapers	-11.0526
▁bums	-11.0533
▁honour	-11.0537
▁clowns	-11.0555
▁hens	-11.0556
▁misses	-11.0572
room	-11.0583
▁saints	-11.0584
▁servants	-11.0584
▁col	-11.0589
▁tips	-11.0595
▁tid	-11.0599
▁costumes	-11.0613
▁effects	-11.0613
ingham	-11.0663
▁dolphins	-11.0671
▁birdie	-11.0674
▁fooling	-11.0674
▁kar	-11.0697
▁exp	-11.0705
vous	-11.0711
▁strap	-11.0713
▁drivers	-11.0727
▁encourage	-11.0755
▁bou	-11.0756
▁pages	-11.0758
ence	-11.0758
▁bikes	-11.0759
▁quot	-11.0771
▁rehears	-11.0771
▁sunk	-11.0782
berry	-11.0799
▁handy	-11.0801
▁ic	-11.0802
lla	-11.0804
let	-11.0806
▁uniforms	-11.0817
▁dressing	-11.0823
▁mari	-11.0824
▁hells	-11.0837
igan	-11.0843
▁murders	-11.0845
▁finishing	-11.0847
▁adventures	-11.0851
▁dada	-11.0852
ja	-11.0857
ru	-11.0874
▁chocolates	-11.0876
▁belts	-11.0876
▁mara	-11.0885
▁pla	-11.0887
▁bugs	-11.0906
oken	-11.0921
▁amor	-11.093
▁directors	-11.0935
▁styles	-11.0935
tar	-11.0952
zer	-11.0953
▁bing	-11.0955
iver	-11.0963
▁peanuts	-11.0964
▁ropes	-11.0994
▁costs	-11.0996
▁hom	-11.1
▁decisions	-11.1024
yc	-11.1025
handed	-11.1029
▁sleeps	-11.1039
▁rocking	-11.1068
▁fer	-11.1069
ky	-11.1071
under	-11.1089
▁glue	-11.1096
▁carve	-11.1099
▁noises	-11.1113
▁pets	-11.1121
▁showers	-11.1136
▁dec	-11.1139
▁exc	-11.1141
▁queens	-11.1164
ums	-11.1179
▁qui	-11.1201
elle	-11.1205
sia	-11.1208
▁rehearse	-11.1219
▁rem	-11.1225
▁tun	-11.1229
▁gardens	-11.1232
sco	-11.1236
▁ybia	-11.1243
▁greeks	-11.1263
▁risks	-11.1264
▁bakers	-11.1266
gging	-11.1274
▁fellows	-11.1276
▁ver	-11.1276
wer	-11.1288
▁invade	-11.1294
▁quests	-11.1297
▁marks	-11.132
ept	-11.1332
▁bits	-11.1342
▁dies	-11.1354
▁schools	-11.1355
ives	-11.1365
fish	-11.1371
▁creat	-11.1376
▁rogers	-11.1383
▁bel	-11.1398
▁fee	-11.1413
▁convention	-11.1451
▁liqu	-11.1491
tie	-11.1506
ional	-11.1512
▁offers	-11.1518
▁chime	-11.1536
cia	-11.1537
▁appa	-11.1547
▁unti	-11.1561
year	-11.1564
made	-11.1565
rel	-11.1606
och	-11.1607
▁hun	-11.1613
▁reaction	-11.1622
▁gaze	-11.1623
▁idiots	-11.1627
▁jab	-11.1635
▁exclaim	-11.1641
▁reserve	-11.1641
▁click	-11.1644
▁grunt	-11.1651
ttle	-11.1652
lon	-11.1654
▁vet	-11.1656
▁cent	-11.1657
▁origin	-11.166
▁procedure	-11.1663
▁satellite	-11.1663
▁hindu	-11.1664
▁jacks	-11.1664
ya	-11.1664
▁connection	-11.1666
▁stake	-11.1667
▁fade	-11.1667
▁marchin	-11.1668
udge	-11.167
▁cheek	-11.1672
▁generation	-11.1672
▁lecture	-11.1673
▁rubble	-11.1673
▁racket	-11.1679
▁jesuit	-11.168
▁instinct	-11.168
▁grownup	-11.1681
▁toot	-11.1682
▁document	-11.1682
▁sneeze	-11.1682
▁waponi	-11.1683
▁skirt	-11.1687
▁claw	-11.1688
▁biscuit	-11.1689
▁min	-11.1695
▁app	-11.1697
ena	-11.1699
lc	-11.17
▁flex	-11.1712
▁visitor	-11.1714
▁unc	-11.1737
▁positions	-11.1749
▁drawer	-11.175
▁af	-11.1753
▁oo	-11.1761
itch	-11.1763
ail	-11.1772
▁brief	-11.1772
▁mer	-11.1778
▁drown	-11.1783
night	-11.1784
▁disturb	-11.1785
emb	-11.1788
▁groov	-11.1788
▁nip	-11.1797
▁weirdo	-11.18
▁embarrass	-11.1807
▁introduc	-11.181
▁proceed	-11.1813
▁vomit	-11.1815
▁respond	-11.1815
▁herr	-11.1816
▁recover	-11.1817
▁discover	-11.1818
▁annoy	-11.182
bury	-11.1822
▁robb	-11.1823
▁produce	-11.1823
▁invest	-11.1829
▁impress	-11.1831
▁assign	-11.1833
▁abandon	-11.1834
wood	-11.1834
▁surround	-11.1835
print	-11.1838
▁sparkl	-11.1839
birth	-11.184
smurf	-11.1841
linda	-11.1841
teen	-11.1842
▁spirits	-11.1843
▁poke	-11.1843
▁rub	-11.1844
headed	-11.1844
▁describe	-11.1845
▁achieve	-11.1845
▁grouch	-11.1845
▁fluff	-11.1845
▁convince	-11.1849
▁craz	-11.185
▁thund	-11.1855
▁instruct	-11.1857
▁region	-11.1858
▁cortez	-11.1858
▁ditch	-11.1858
▁potato	-11.1858
▁branch	-11.1859
▁peach	-11.186
▁slug	-11.186
standing	-11.1861
▁kiddin	-11.1861
▁august	-11.1861
▁cloth	-11.1861
▁livin	-11.1862
sir	-11.1862
▁translat	-11.1862
▁confess	-11.1862
▁movin	-11.1862
▁mmmmm	-11.1862
▁makin	-11.1863
▁historic	-11.1863
▁scientific	-11.1863
▁triumph	-11.1863
▁blank	-11.1863
▁specific	-11.1863
▁transform	-11.1863
▁invisi	-11.1864
▁remote	-11.1864
▁chemist	-11.1864
▁acqui	-11.1864
▁adventurous	-11.1864
▁almighty	-11.1864
▁aquamarine	-11.1864
▁attracted	-11.1864
▁banner	-11.1864
▁beckerstead	-11.1864
▁behaving	-11.1864
▁bellicec	-11.1864
▁benefit	-11.1864
▁boogie	-11.1864
▁bouchard	-11.1864
▁bronski	-11.1864
▁butler	-11.1864
▁calendar	-11.1864
▁catalyst	-11.1864
▁cauliflower	-11.1864
▁concrete	-11.1864
▁cramp	-11.1864
▁dagmar	-11.1864
▁delilah	-11.1864
▁deposit	-11.1864
▁destruction	-11.1864
▁disrespect	-11.1864
▁domestic	-11.1864
▁elmira	-11.1864
▁essential	-11.1864
▁eustace	-11.1864
▁exotic	-11.1864
▁exploding	-11.1864
▁figaro	-11.1864
▁figler	-11.1864
▁fountain	-11.1864
▁fresno	-11.1864
▁fugax	-11.1864
▁garlic	-11.1864
▁gasoline	-11.1864
▁giorno	-11.1864
▁glaive	-11.1864
▁grief	-11.1864
▁grifter	-11.1864
▁guarani	-11.1864
▁guenevere	-11.1864
▁guild	-11.1864
▁guitar	-11.1864
▁handbag	-11.1864
▁higloss	-11.1864
▁hoffman	-11.1864
▁humiliating	-11.1864
▁humility	-11.1864
▁identify	-11.1864
▁inaudible	-11.1864
▁inbedkov	-11.1864
▁interview	-11.1864
▁jacob	-11.1864
▁kathryn	-11.1864
▁klaus	-11.1864
▁marlott	-11.1864
▁menopause	-11.1864
▁miradero	-11.1864
▁nehamkin	-11.1864
▁odile	-11.1864
▁organization	-11.1864
▁outrageous	-11.1864
▁pabllto	-11.1864
▁pegasus	-11.1864
▁petachi	-11.1864
▁phew	-11.1864
▁prettypretty	-11.1864
▁principle	-11.1864
▁probiem	-11.1864
▁quadrant	-11.1864
▁refrigerator	-11.1864
▁reprogram	-11.1864
▁retain	-11.1864
▁retreat	-11.1864
▁reunion	-11.1864
▁selfdefense	-11.1864
▁senator	-11.1864
▁shepard	-11.1864
▁sidekick	-11.1864
▁sleigh	-11.1864
▁slitherpoole	-11.1864
▁smurfintine	-11.1864
▁snips	-11.1864
▁sunningdale	-11.1864
▁symphony	-11.1864
▁tatiana	-11.1864
▁temporarily	-11.1864
▁territories	-11.1864
▁tminus	-11.1864
▁tragedy	-11.1864
▁trumpet	-11.1864
▁utopia	-11.1864
▁vatsnik	-11.1864
▁vault	-11.1864
▁vietnam	-11.1864
▁vocalizes	-11.1864
▁waffle	-11.1864
▁walkietalkie	-11.1864
▁wallpaper	-11.1864
▁waltz	-11.1864
▁wardrobe	-11.1864
▁wheelchair	-11.1864
▁anesti	-11.1864
▁butterfly	-11.1864
▁crisis	-11.1864
▁dedmon	-11.1864
▁diaper	-11.1864
▁error	-11.1864
▁garner	-11.1864
▁glitter	-11.1864
▁grandparents	-11.1864
▁heir	-11.1864
▁hostile	-11.1864
▁ieft	-11.1864
▁kimono	-11.1864
▁memento	-11.1864
▁noisy	-11.1864
▁regain	-11.1864
▁repay	-11.1864
▁sahib	-11.1864
▁sponsor	-11.1864
▁wrist	-11.1864
calculate	-11.1864
▁jelly	-11.1864
▁laddie	-11.1864
▁torres	-11.1864
▁article	-11.1864
▁cartridge	-11.1864
▁cautious	-11.1864
▁hesitate	-11.1864
▁publish	-11.1864
▁dusk	-11.1864
▁earrings	-11.1864
▁ethel	-11.1864
▁thudding	-11.1864
▁eternity	-11.1864
▁pepsi	-11.1864
▁siggy	-11.1864
▁warrant	-11.1864
▁departure	-11.1864
▁submit	-11.1864
▁shuttle	-11.1864
▁yelp	-11.1864
▁amelia	-11.1864
▁elevated	-11.1864
▁fruitcake	-11.1864
▁psychiatrist	-11.1864
▁bestowed	-11.1864
▁cowabunga	-11.1864
▁recall	-11.1864
▁bullseye	-11.1864
▁eyeballs	-11.1864
▁gravy	-11.1864
▁kidnapping	-11.1864
▁beam	-11.1864
▁homecoming	-11.1864
▁farewell	-11.1864
▁insect	-11.1864
▁gracious	-11.1864
▁juanita	-11.1864
▁keegan	-11.1864
▁stella	-11.1864
▁babysitter	-11.1864
▁imaginary	-11.1864
▁plumbers	-11.1864
▁werewolf	-11.1864
▁myrna	-11.1864
▁pepper	-11.1864
▁harold	-11.1864
▁prolong	-11.1864
▁chevy	-11.1864
▁geographers	-11.1864
▁injuries	-11.1864
▁civilians	-11.1864
▁maximum	-11.1864
▁imagining	-11.1864
▁iadonai	-11.1864
▁venture	-11.1864
▁morehead	-11.1864
▁darrell	-11.1864
▁basketboy	-11.1864
▁dismiss	-11.1864
▁bronco	-11.1864
▁glide	-11.1864
▁ashore	-11.1864
▁lindy	-11.1864
▁republican	-11.1864
▁gyp	-11.1864
▁yoohoo	-11.1864
▁forbid	-11.1864
▁mistress	-11.1864
▁decorations	-11.1864
▁annihilat	-11.1864
▁spicy	-11.1864
▁casa	-11.1864
▁thomson	-11.1864
▁contrary	-11.1864
▁foley	-11.1864
▁grasp	-11.1865
▁nasik	-11.1865
▁lizard	-11.1865
▁ronnie	-11.1865
▁bunnies	-11.1865
▁disrupt	-11.1865
▁overnight	-11.1865
▁ruth	-11.1865
▁online	-11.1865
▁skating	-11.1865
▁specifically	-11.1865
▁hyper	-11.1865
▁administrator	-11.1865
▁heap	-11.1865
▁serving	-11.1865
▁backwards	-11.1865
▁delta	-11.1865
▁tyre	-11.1865
▁weakness	-11.1865
▁pinned	-11.1865
▁epic	-11.1865
▁henri	-11.1865
▁teii	-11.1865
▁depot	-11.1865
▁barkis	-11.1865
▁stress	-11.1865
▁lafa	-11.1865
▁dough	-11.1866
▁narrator	-11.1866
▁conform	-11.1866
▁combat	-11.1866
▁spun	-11.1866
▁valentines	-11.1866
▁invention	-11.1866
▁slick	-11.1866
▁expressway	-11.1866
▁motivation	-11.1866
▁hull	-11.1866
▁operate	-11.1866
culi	-11.1866
▁countries	-11.1866
▁raid	-11.1866
▁descent	-11.1866
▁internal	-11.1866
▁feedback	-11.1866
▁iong	-11.1866
▁confirmation	-11.1866
▁inspector	-11.1866
▁salesman	-11.1866
▁popular	-11.1866
▁revenge	-11.1866
▁script	-11.1866
▁restore	-11.1867
▁exactiy	-11.1867
▁rations	-11.1867
▁conduct	-11.1867
▁darby	-11.1867
▁powder	-11.1867
▁temptation	-11.1867
▁tourist	-11.1867
uki	-11.1867
▁webber	-11.1867
▁void	-11.1867
▁sentimental	-11.1867
▁cooperate	-11.1867
▁voting	-11.1867
▁legendary	-11.1867
▁scarce	-11.1868
▁genetic	-11.1868
▁tempora	-11.1868
▁chaos	-11.1868
▁spacecraft	-11.1868
▁fuse	-11.1868
▁coleman	-11.1868
▁riverside	-11.1868
now	-11.1868
▁motherinlaw	-11.1868
▁willie	-11.1868
▁lockdown	-11.1868
▁bernie	-11.1868
stein	-11.1869
▁marshal	-11.1869
▁facemaker	-11.1869
▁screwup	-11.1869
▁baptized	-11.1869
▁firewood	-11.1869
wll	-11.1869
▁twinkle	-11.1869
▁vast	-11.1869
▁vic	-11.1869
ole	-11.187
▁yawn	-11.187
▁burst	-11.187
▁aldo	-11.187
▁pow	-11.187
▁shelter	-11.187
▁gallop	-11.187
▁atom	-11.187
erlock	-11.1871
▁rally	-11.1871
▁hotshot	-11.1871
▁stripes	-11.1871
▁starboard	-11.1871
▁hoover	-11.1871
▁jaw	-11.1871
▁commandant	-11.1871
▁structure	-11.1871
▁threatening	-11.1871
▁conqueror	-11.1871
▁mel	-11.1871
▁random	-11.1871
▁cork	-11.1872
▁handbook	-11.1872
▁regulation	-11.1872
▁sip	-11.1872
▁torpedoes	-11.1872
▁appeal	-11.1872
▁departed	-11.1872
uu	-11.1872
▁cress	-11.1872
▁forged	-11.1872
▁loony	-11.1873
▁elk	-11.1873
▁grim	-11.1873
▁batch	-11.1873
▁stepped	-11.1874
▁tendon	-11.1874
▁educational	-11.1875
▁mystical	-11.1875
▁kneel	-11.1875
▁stepping	-11.1875
▁hubba	-11.1876
▁treatment	-11.1876
▁sanders	-11.1877
▁miller	-11.1877
▁mich	-11.1877
▁thia	-11.1878
▁elf	-11.1878
▁whoosh	-11.1878
▁role	-11.1879
▁erase	-11.1879
▁vain	-11.1879
▁bass	-11.1879
▁carpathian	-11.1879
▁driveway	-11.1879
▁active	-11.188
▁organized	-11.188
▁playbook	-11.188
▁moocher	-11.188
▁urge	-11.188
ternal	-11.188
▁fulltime	-11.1881
▁bind	-11.1881
▁clearance	-11.1881
▁mule	-11.1882
▁econom	-11.1882
▁du	-11.1882
▁monk	-11.1882
▁accomplished	-11.1883
▁ramp	-11.1883
▁allen	-11.1884
▁collector	-11.1884
▁descend	-11.1884
▁producer	-11.1884
▁payoff	-11.1885
ari	-11.1885
▁madness	-11.1885
▁parttime	-11.1885
▁taki	-11.1886
▁unlock	-11.1886
▁trespassing	-11.1886
▁recruiting	-11.1886
▁commenc	-11.1887
▁hunger	-11.1887
▁yash	-11.1887
▁sickness	-11.1888
▁cord	-11.1888
▁notion	-11.1888
▁triple	-11.1889
▁flown	-11.1889
▁mangled	-11.189
▁nanny	-11.189
▁disturbed	-11.1894
▁hobby	-11.1895
▁bells	-11.1895
▁hind	-11.1896
▁esp	-11.1897
▁unite	-11.1898
▁pointless	-11.1898
▁rosa	-11.1898
▁freakin	-11.1899
▁appli	-11.1899
▁particularly	-11.19
▁pian	-11.19
▁flake	-11.1901
▁flush	-11.1901
▁interfere	-11.1903
▁activated	-11.1904
▁spanking	-11.1904
▁weep	-11.1908
▁madame	-11.191
▁beaten	-11.191
▁bore	-11.191
▁pete	-11.1911
▁binding	-11.1912
▁angelo	-11.1913
▁responding	-11.1913
▁removed	-11.1918
▁bumper	-11.192
elope	-11.1921
▁lace	-11.1926
▁informed	-11.1926
▁rented	-11.1926
evita	-11.1927
▁careless	-11.1928
▁tempt	-11.1928
▁setup	-11.1928
tured	-11.1929
▁echoing	-11.193
▁martini	-11.1931
▁fainted	-11.1932
▁ml	-11.1932
▁swam	-11.1932
alta	-11.1934
▁lei	-11.1937
▁insulted	-11.1937
▁intended	-11.1937
▁tripp	-11.1939
▁teen	-11.194
▁guaranteed	-11.194
▁sensei	-11.194
stair	-11.194
▁suspected	-11.1942
▁stud	-11.1943
▁iive	-11.1946
▁buzzes	-11.1949
▁doses	-11.195
▁thoughtful	-11.1953
▁attended	-11.1954
▁rescued	-11.1954
▁wolfe	-11.1955
▁throws	-11.1956
▁spoiled	-11.1964
▁twink	-11.1964
▁hoot	-11.1966
osh	-11.1966
▁programme	-11.1966
▁millions	-11.1967
lord	-11.1968
▁mold	-11.197
▁introduced	-11.1973
▁rebels	-11.1974
▁crashed	-11.1981
▁tentacles	-11.1983
▁ce	-11.1985
▁pasta	-11.1986
▁tara	-11.1986
▁difficulty	-11.1987
▁suffered	-11.1988
▁pissing	-11.1993
▁beta	-11.1996
▁my	-11.1996
▁kindness	-11.1997
▁nervously	-11.1999
▁robes	-11.2
▁ll	-11.2007
▁practiced	-11.2007
▁whoop	-11.201
▁realm	-11.201
▁attending	-11.2011
▁continued	-11.2013
▁breasts	-11.2015
ug	-11.2017
▁pigeons	-11.2017
▁ravens	-11.2017
▁sobs	-11.2018
light	-11.2018
▁greed	-11.2022
aver	-11.2023
▁lords	-11.2024
▁browns	-11.2026
▁loudy	-11.2031
▁deer	-11.2032
▁tar	-11.2035
▁lone	-11.2038
▁okie	-11.205
▁instincts	-11.2052
▁skirts	-11.2052
▁jesuits	-11.2052
ggin	-11.2054
▁walters	-11.206
▁ely	-11.2064
ologist	-11.2068
▁rag	-11.207
▁lik	-11.2076
▁tearing	-11.2079
▁batt	-11.208
▁medals	-11.2086
▁tots	-11.2087
sty	-11.209
▁cooked	-11.2091
▁beau	-11.2091
▁hunters	-11.2093
▁inflat	-11.2106
▁rides	-11.2107
aisie	-11.211
▁lengths	-11.212
▁engravings	-11.212
▁docks	-11.2121
▁mares	-11.213
▁fins	-11.2136
▁comeback	-11.214
▁goble	-11.2146
▁chips	-11.2149
▁pearls	-11.215
▁pile	-11.2151
▁blades	-11.2155
▁plug	-11.2157
▁enchant	-11.216
mada	-11.2177
▁jen	-11.2183
▁prim	-11.2186
▁relieve	-11.2186
▁aa	-11.2188
▁retrieve	-11.219
▁packing	-11.22
den	-11.2203
▁magn	-11.2203
ink	-11.2204
▁lightly	-11.222
▁balloons	-11.2224
▁feature	-11.2226
lain	-11.2236
▁spa	-11.2251
▁et	-11.2254
▁incident	-11.2256
▁loskis	-11.2258
▁seals	-11.2259
▁compar	-11.2264
▁statues	-11.2265
▁illness	-11.2266
▁alo	-11.2279
▁smelled	-11.2289
▁charts	-11.2291
▁tomorrows	-11.231
▁affairs	-11.2328
▁contains	-11.2328
▁shouts	-11.233
▁tart	-11.233
eight	-11.2341
fo	-11.2361
▁shove	-11.2363
▁wounds	-11.2364
▁gil	-11.2383
nic	-11.2389
▁adults	-11.2398
▁chim	-11.24
ati	-11.2403
▁tru	-11.2413
▁beautifully	-11.2418
yah	-11.2425
▁gala	-11.2426
▁cowards	-11.2433
tial	-11.2434
▁crowded	-11.2448
▁pockets	-11.2468
▁deadly	-11.2475
▁pilots	-11.2485
▁chuc	-11.25
old	-11.2506
▁mutt	-11.2509
ties	-11.2535
▁monkeys	-11.2538
▁prices	-11.2538
▁conversations	-11.2538
▁explorers	-11.2541
▁mouthing	-11.2547
kung	-11.2564
▁waitin	-11.2571
▁partners	-11.2573
▁storms	-11.2575
▁interests	-11.2578
▁sales	-11.2583
▁clip	-11.2588
▁disguise	-11.259
▁vari	-11.2591
▁bb	-11.2602
▁fixing	-11.2606
▁wizards	-11.2609
▁statu	-11.261
sque	-11.2616
▁ru	-11.2616
▁and	-11.2629
▁cared	-11.2638
▁suffers	-11.265
ture	-11.2653
▁stra	-11.2656
▁tee	-11.2656
ome	-11.2673
▁cells	-11.2679
▁heavyweights	-11.2679
hop	-11.2681
▁events	-11.2706
▁phones	-11.2708
▁suns	-11.2709
▁currents	-11.2715
▁periods	-11.272
nger	-11.2742
▁imitat	-11.2751
▁prob	-11.2762
mag	-11.2766
hound	-11.2783
▁lawyers	-11.2786
iness	-11.2792
▁rad	-11.2797
uve	-11.2811
▁fills	-11.282
lete	-11.2848
mal	-11.285
▁harmon	-11.2852
▁meteor	-11.2858
your	-11.2859
▁burns	-11.286
▁experiences	-11.286
▁edges	-11.2861
▁cher	-11.2862
ery	-11.2871
post	-11.2893
pac	-11.295
cky	-11.2951
▁com	-11.2968
▁dancers	-11.2984
▁marv	-11.2985
▁treasur	-11.2987
▁char	-11.2988
▁reads	-11.2989
▁astra	-11.2993
ition	-11.3029
▁gates	-11.3038
rain	-11.3039
▁handed	-11.3044
ista	-11.3044
▁consume	-11.3049
▁ram	-11.3052
mont	-11.3067
▁throats	-11.3075
rer	-11.3083
dan	-11.3087
hro	-11.3098
ference	-11.312
▁houses	-11.3125
▁yama	-11.3129
▁eu	-11.3132
▁wand	-11.3133
een	-11.3139
▁iea	-11.3149
rie	-11.315
▁nicely	-11.3177
▁baths	-11.3181
▁ri	-11.3185
car	-11.3211
▁troubles	-11.3232
▁fits	-11.3247
▁ther	-11.3253
ete	-11.3296
▁convers	-11.3299
▁escapes	-11.33
ix	-11.3306
izing	-11.3307
▁stores	-11.3313
▁tor	-11.333
▁sto	-11.3347
▁bothers	-11.3366
▁floors	-11.3367
▁unders	-11.3374
▁engines	-11.3376
▁bites	-11.3378
▁riches	-11.3386
▁tu	-11.339
hat	-11.3416
▁bail	-11.342
▁flick	-11.3438
cation	-11.3461
▁spi	-11.3478
▁differences	-11.3478
▁controls	-11.3495
nar	-11.3522
▁katherines	-11.3553
ray	-11.3559
▁tur	-11.357
▁tab	-11.3578
▁emotion	-11.3578
ric	-11.3578
▁integrat	-11.3579
▁braves	-11.36
erge	-11.3607
▁slam	-11.3612
▁gree	-11.3615
▁cur	-11.3626
▁drives	-11.3635
lock	-11.3636
▁await	-11.3636
▁beep	-11.3636
▁promises	-11.3637
nel	-11.3647
▁generals	-11.3653
▁athlete	-11.3662
▁election	-11.3662
▁pistol	-11.3662
▁scheme	-11.3662
▁castaway	-11.3664
▁flipper	-11.3664
▁vali	-11.3665
▁bugger	-11.3665
▁airplane	-11.3666
▁chica	-11.3668
▁element	-11.367
▁ninja	-11.3671
▁pattern	-11.3671
▁tickle	-11.3675
▁skeleton	-11.3676
▁sob	-11.3678
▁if	-11.3679
▁pigeon	-11.368
▁raven	-11.3681
▁magazine	-11.3682
▁breast	-11.3683
▁compliment	-11.3684
▁barb	-11.3685
▁warhead	-11.3685
▁troll	-11.3687
▁ava	-11.369
itude	-11.3692
▁collapse	-11.3697
▁vers	-11.3698
bad	-11.3702
▁bean	-11.3702
maker	-11.3712
▁hoop	-11.3715
▁travell	-11.3718
▁pun	-11.3732
unce	-11.3736
▁nazi	-11.3737
▁ei	-11.3751
wnd	-11.3754
▁sixty	-11.3756
▁invent	-11.3758
▁wink	-11.3777
▁trea	-11.3791
▁emma	-11.3792
▁wak	-11.3796
ute	-11.3796
▁affect	-11.3808
aah	-11.3815
▁ob	-11.3816
▁spank	-11.3816
mmering	-11.3817
uff	-11.3817
▁pam	-11.3818
▁continu	-11.3821
▁wail	-11.3824
itation	-11.3832
▁rust	-11.3834
▁checks	-11.3836
▁install	-11.3836
identified	-11.3837
▁simp	-11.3838
burn	-11.3839
iate	-11.3839
american	-11.384
two	-11.384
girl	-11.384
water	-11.384
wife	-11.384
yearold	-11.3841
snake	-11.3841
jack	-11.3841
▁perfume	-11.3842
fight	-11.3842
wire	-11.3843
wise	-11.3843
think	-11.3843
know	-11.3843
▁wuss	-11.3844
seven	-11.3845
▁strateg	-11.3846
worthy	-11.3846
▁approve	-11.3846
▁peek	-11.3848
▁swift	-11.3849
▁activate	-11.385
▁doom	-11.3851
▁intercept	-11.3851
▁surprising	-11.3851
▁custom	-11.3852
▁commission	-11.3852
▁gelatin	-11.3852
▁blond	-11.3853
▁claus	-11.3855
agram	-11.3857
▁environment	-11.3858
▁coordinat	-11.3858
▁fiction	-11.3859
aturi	-11.386
▁critic	-11.3861
gone	-11.3861
▁moth	-11.3861
▁fright	-11.3862
▁eject	-11.3862
▁journal	-11.3862
▁fabric	-11.3863
▁virgin	-11.3863
ecutive	-11.3863
▁decei	-11.3864
▁dim	-11.3864
minent	-11.3864
▁candid	-11.3864
▁deetz	-11.3864
misunderstanding	-11.3864
▁allotment	-11.3864
▁andrew	-11.3864
▁assassin	-11.3864
▁avanri	-11.3864
▁avatus	-11.3864
▁background	-11.3864
▁banquet	-11.3864
▁bastogne	-11.3864
▁beagle	-11.3864
▁bleep	-11.3864
▁blindfold	-11.3864
▁brochure	-11.3864
▁buddhist	-11.3864
▁canadian	-11.3864
▁capitol	-11.3864
▁cemetery	-11.3864
▁chipmunk	-11.3864
▁cinzano	-11.3864
▁columbus	-11.3864
▁column	-11.3864
▁companies	-11.3864
▁compartment	-11.3864
▁competitive	-11.3864
▁contagious	-11.3864
▁dessert	-11.3864
▁dialogue	-11.3864
▁disagree	-11.3864
▁disobey	-11.3864
▁disposal	-11.3864
▁divine	-11.3864
▁domovoi	-11.3864
▁elected	-11.3864
▁elegant	-11.3864
▁elsewhere	-11.3864
▁emerald	-11.3864
▁evasive	-11.3864
▁executors	-11.3864
▁expedition	-11.3864
▁exterior	-11.3864
▁fantasy	-11.3864
▁firstclass	-11.3864
▁fleming	-11.3864
▁furnace	-11.3864
▁gabriel	-11.3864
▁gaffney	-11.3864
▁galleon	-11.3864
▁geometry	-11.3864
▁gregorio	-11.3864
▁guidance	-11.3864
▁hallelujah	-11.3864
▁harriet	-11.3864
▁heisman	-11.3864
▁hirschorn	-11.3864
▁hobbyhorse	-11.3864
▁hyperdrive	-11.3864
▁inferna	-11.3864
▁infiltrate	-11.3864
▁infinite	-11.3864
▁ingredient	-11.3864
▁inherit	-11.3864
▁invasion	-11.3864
▁jefferson	-11.3864
▁laboratory	-11.3864
▁larocca	-11.3864
▁latrine	-11.3864
▁leopard	-11.3864
▁lettuce	-11.3864
▁livorno	-11.3864
▁lucian	-11.3864
▁lynetta	-11.3864
▁macbride	-11.3864
▁malfunction	-11.3864
▁meerkats	-11.3864
▁messenger	-11.3864
▁milagro	-11.3864
▁miriam	-11.3864
▁molinari	-11.3864
▁mortgage	-11.3864
▁moustache	-11.3864
▁mwah	-11.3864
▁mysteries	-11.3864
▁neglect	-11.3864
▁nigel	-11.3864
▁nimrod	-11.3864
▁norwegian	-11.3864
▁observation	-11.3864
▁okajima	-11.3864
▁omelet	-11.3864
▁oppressor	-11.3864
▁orangutan	-11.3864
▁osborne	-11.3864
▁overseas	-11.3864
▁paralyzed	-11.3864
▁pennsylvania	-11.3864
▁persuade	-11.3864
▁phony	-11.3864
▁phrase	-11.3864
▁pimlico	-11.3864
▁pioneer	-11.3864
▁pondicherry	-11.3864
▁poppop	-11.3864
▁postcard	-11.3864
▁prevail	-11.3864
▁puberty	-11.3864
▁pulse	-11.3864
▁raff	-11.3864
▁rebuil	-11.3864
▁reconsider	-11.3864
▁requisition	-11.3864
▁rescuing	-11.3864
▁saajan	-11.3864
▁satisfaction	-11.3864
▁satisfy	-11.3864
▁schwedes	-11.3864
▁scrugg	-11.3864
▁sensual	-11.3864
▁shepherd	-11.3864
▁slaughter	-11.3864
▁spaghetti	-11.3864
▁spectre	-11.3864
▁squawk	-11.3864
▁squid	-11.3864
▁squire	-11.3864
▁stevie	-11.3864
▁stupendous	-11.3864
▁succor	-11.3864
▁sync	-11.3864
▁telegram	-11.3864
▁textronics	-11.3864
▁theodore	-11.3864
▁thunderlips	-11.3864
▁tiffany	-11.3864
▁touganda	-11.3864
▁tumips	-11.3864
▁tuppence	-11.3864
▁unbearable	-11.3864
▁unconscious	-11.3864
▁unicorn	-11.3864
▁unpleasant	-11.3864
▁vengeance	-11.3864
▁voskovec	-11.3864
▁whisrling	-11.3864
▁wolffstein	-11.3864
▁wondrous	-11.3864
▁yikes	-11.3864
▁yuck	-11.3864
▁angelica	-11.3864
▁apprentice	-11.3864
▁arabs	-11.3864
▁bff	-11.3864
▁cannibal	-11.3864
▁carousel	-11.3864
▁choking	-11.3864
▁congress	-11.3864
▁consequences	-11.3864
▁cylinder	-11.3864
▁dignity	-11.3864
▁gerald	-11.3864
▁gossip	-11.3864
▁joylette	-11.3864
▁lantern	-11.3864
▁legacy	-11.3864
▁necessarily	-11.3864
▁nomad	-11.3864
▁nononono	-11.3864
▁plead	-11.3864
▁psychological	-11.3864
▁tammy	-11.3864
▁teenager	-11.3864
▁unpack	-11.3864
▁walsh	-11.3864
▁whirs	-11.3864
▁wilmer	-11.3864
▁activities	-11.3864
▁aiways	-11.3864
▁canoe	-11.3864
▁casino	-11.3864
▁charging	-11.3864
▁czar	-11.3864
▁frederick	-11.3864
▁harvey	-11.3864
▁mimic	-11.3864
▁pause	-11.3864
▁scandal	-11.3864
▁serum	-11.3864
▁twerk	-11.3864
▁unchar	-11.3864
▁blouse	-11.3864
▁broadcast	-11.3864
▁ponies	-11.3864
▁postpone	-11.3864
▁wilderness	-11.3864
▁gloss	-11.3864
▁latch	-11.3864
▁reassur	-11.3864
▁swarm	-11.3864
▁andonandonandon	-11.3864
▁cartier	-11.3864
▁decay	-11.3864
▁gerwyn	-11.3864
▁narrow	-11.3864
▁references	-11.3864
▁salmonella	-11.3864
▁squander	-11.3864
plore	-11.3864
▁axehammer	-11.3864
▁briefcase	-11.3864
▁exclusive	-11.3864
▁coq	-11.3864
▁landscape	-11.3864
▁recognis	-11.3864
▁resign	-11.3864
▁whatcha	-11.3864
▁attagirl	-11.3864
▁cuckooland	-11.3864
▁instance	-11.3864
▁jerome	-11.3864
▁nuisance	-11.3864
▁berlin	-11.3864
▁bummer	-11.3864
▁conflict	-11.3864
▁llfe	-11.3864
▁sculpture	-11.3864
▁aintree	-11.3864
▁garcia	-11.3864
▁riff	-11.3864
▁autograph	-11.3864
▁diane	-11.3864
▁dulock	-11.3864
▁rouge	-11.3864
▁spatters	-11.3864
▁anonymous	-11.3864
▁influence	-11.3864
▁naoko	-11.3864
▁snoo	-11.3864
▁corrupt	-11.3864
▁kilometers	-11.3864
▁database	-11.3864
▁gokart	-11.3864
▁lavagirl	-11.3864
▁mutual	-11.3864
▁pierce	-11.3864
▁pension	-11.3864
▁constance	-11.3864
▁pancake	-11.3864
▁seventyfour	-11.3864
▁vanished	-11.3864
▁gillie	-11.3864
▁olympic	-11.3864
▁buoy	-11.3864
▁garga	-11.3864
▁scuba	-11.3864
▁sniffles	-11.3864
▁boogeyman	-11.3864
▁console	-11.3864
▁misery	-11.3864
▁clique	-11.3864
▁falcon	-11.3864
▁rivet	-11.3864
▁serpentine	-11.3864
▁chlle	-11.3864
▁detonator	-11.3864
▁doodoo	-11.3864
mobile	-11.3864
▁stomp	-11.3864
▁waik	-11.3864
▁threatens	-11.3864
▁fading	-11.3864
▁breck	-11.3864
▁bernard	-11.3864
▁irrita	-11.3864
▁importance	-11.3864
▁lungs	-11.3864
▁siena	-11.3865
▁cure	-11.3865
▁feli	-11.3865
▁parched	-11.3865
▁neutral	-11.3865
▁petals	-11.3865
▁ignorant	-11.3865
▁incisor	-11.3865
▁stanley	-11.3865
▁sandecker	-11.3865
▁wigs	-11.3865
▁rodney	-11.3865
▁curley	-11.3865
▁medium	-11.3865
▁kelp	-11.3865
▁ninny	-11.3865
▁cattle	-11.3865
hearted	-11.3865
▁babysitting	-11.3865
▁nicholson	-11.3865
▁surgeon	-11.3865
mail	-11.3865
▁marrie	-11.3865
▁radius	-11.3865
▁westworld	-11.3865
▁moose	-11.3865
kirk	-11.3865
▁marble	-11.3865
▁fizz	-11.3865
▁tri	-11.3865
▁extract	-11.3865
▁employment	-11.3865
▁ginger	-11.3865
▁lemonade	-11.3865
▁concentration	-11.3865
▁seasickness	-11.3865
▁spook	-11.3865
▁majestic	-11.3865
▁saks	-11.3865
ological	-11.3865
shire	-11.3865
▁finance	-11.3865
▁session	-11.3865
▁isa	-11.3865
▁parole	-11.3865
▁irresponsible	-11.3865
▁nanako	-11.3865
▁preserve	-11.3865
▁aisle	-11.3865
▁shona	-11.3865
▁wales	-11.3866
▁rayray	-11.3866
▁transportation	-11.3866
▁shortcut	-11.3866
▁buts	-11.3866
▁paperwork	-11.3866
▁fisherman	-11.3866
▁ernest	-11.3866
▁contribution	-11.3866
▁stlli	-11.3866
▁assess	-11.3866
▁variet	-11.3866
▁karate	-11.3866
▁thieves	-11.3866
vard	-11.3866
▁afore	-11.3866
▁bacon	-11.3866
▁operating	-11.3866
▁bodyguard	-11.3866
▁upside	-11.3866
▁victorious	-11.3866
▁overboard	-11.3866
▁iiving	-11.3866
▁abide	-11.3866
▁media	-11.3866
▁linebacker	-11.3866
▁cement	-11.3866
▁alternative	-11.3866
▁investment	-11.3866
▁lori	-11.3866
▁viii	-11.3866
▁farmhouse	-11.3866
▁vox	-11.3867
▁bratz	-11.3867
▁salary	-11.3867
▁foil	-11.3867
▁detector	-11.3867
▁chole	-11.3867
▁merge	-11.3867
▁gratitude	-11.3867
▁amusement	-11.3867
▁dope	-11.3867
▁engagement	-11.3867
▁fren	-11.3867
▁peggy	-11.3867
▁bacteria	-11.3867
▁rocco	-11.3867
▁native	-11.3867
▁swap	-11.3867
▁priority	-11.3867
ometer	-11.3867
▁culture	-11.3867
▁prettier	-11.3867
▁tenner	-11.3867
▁overdo	-11.3867
▁puppet	-11.3867
▁chimney	-11.3867
▁mason	-11.3867
▁elway	-11.3868
▁harness	-11.3868
▁arrangement	-11.3868
▁existence	-11.3868
▁whack	-11.3868
▁leadership	-11.3868
▁stylis	-11.3868
▁minion	-11.3868
▁tummy	-11.3868
▁whys	-11.3868
▁acceleration	-11.3868
▁bonus	-11.3869
▁whim	-11.3869
▁memo	-11.3869
▁vend	-11.3869
▁duh	-11.3869
▁codman	-11.3869
▁donation	-11.3869
▁priceless	-11.3869
▁alexandra	-11.3869
▁dug	-11.3869
▁happier	-11.387
▁woe	-11.387
▁feei	-11.387
▁awhile	-11.387
▁exposed	-11.387
▁fraud	-11.387
▁shant	-11.387
▁kathy	-11.387
▁authorized	-11.387
▁stove	-11.3871
▁unload	-11.3871
▁worldwide	-11.3871
▁whereas	-11.3871
▁stabilizer	-11.3871
▁bak	-11.3872
▁bible	-11.3872
▁omen	-11.3872
▁analy	-11.3872
▁anthea	-11.3872
▁hush	-11.3872
▁sightings	-11.3873
▁assuming	-11.3873
▁espn	-11.3873
▁liberate	-11.3873
▁playmate	-11.3873
▁dried	-11.3873
▁aft	-11.3874
▁beatles	-11.3874
▁deni	-11.3874
▁patty	-11.3874
▁abducted	-11.3874
▁overwhelmed	-11.3874
▁paso	-11.3874
dental	-11.3874
▁clank	-11.3874
▁ahold	-11.3874
▁thoroughly	-11.3875
▁household	-11.3875
▁gravel	-11.3875
▁perish	-11.3875
▁hydra	-11.3875
▁whore	-11.3875
▁fires	-11.3875
demn	-11.3875
▁gelatine	-11.3876
▁crest	-11.3877
▁shelley	-11.3877
▁iot	-11.3877
▁taxes	-11.3877
▁hitler	-11.3878
▁gaw	-11.3878
▁dimly	-11.3878
▁wheaties	-11.3878
▁assist	-11.3878
▁sled	-11.3879
▁pooper	-11.3879
▁sadness	-11.388
▁sober	-11.388
arette	-11.388
▁counseling	-11.3881
▁crunch	-11.3881
▁foll	-11.3881
▁skipped	-11.3881
▁torn	-11.3882
▁tasty	-11.3882
▁melting	-11.3882
proximate	-11.3882
▁ability	-11.3882
▁cried	-11.3882
urst	-11.3882
▁sideline	-11.3883
▁wool	-11.3884
▁soar	-11.3885
▁runaway	-11.3886
▁stray	-11.3886
▁startled	-11.3886
▁witnesses	-11.3887
▁mayfield	-11.3887
▁detected	-11.3887
lance	-11.3887
▁crooked	-11.3887
▁carrots	-11.3888
▁catalogues	-11.3888
▁flooded	-11.3888
▁butcher	-11.3888
▁gel	-11.3889
▁dk	-11.3889
▁partial	-11.3889
kori	-11.389
▁hometown	-11.389
▁modell	-11.389
▁vero	-11.389
▁hatches	-11.3891
erating	-11.3891
▁wandering	-11.3891
▁freeway	-11.3893
▁trim	-11.3894
▁located	-11.3895
▁coal	-11.3895
▁aver	-11.3895
▁endure	-11.3895
▁leonardo	-11.3896
▁bitter	-11.3896
▁bod	-11.3896
▁tighten	-11.3897
ronic	-11.3898
most	-11.3899
▁hol	-11.3899
▁democratic	-11.3899
▁clink	-11.3899
iro	-11.39
▁antony	-11.39
▁abandoned	-11.3901
▁assigned	-11.3901
▁identi	-11.3901
▁instantly	-11.3902
▁faceoff	-11.3903
▁brownies	-11.3904
▁archi	-11.3905
▁superb	-11.3905
▁handful	-11.3906
sloppy	-11.3906
▁madman	-11.3907
▁prospect	-11.3907
▁repaired	-11.3908
nesia	-11.3909
▁backyard	-11.391
all	-11.3911
mile	-11.3911
▁hugo	-11.3911
industrial	-11.3914
▁menu	-11.3915
▁adore	-11.3916
▁chopper	-11.3917
▁larger	-11.3917
▁involve	-11.3918
▁hopeless	-11.3919
new	-11.392
▁doe	-11.392
▁leadman	-11.392
▁betrayed	-11.3921
arian	-11.3922
▁rig	-11.3924
▁vomiting	-11.3924
▁wrestled	-11.3925
▁drowning	-11.3926
▁bred	-11.3927
▁sausages	-11.3928
▁gallons	-11.3929
▁pleasures	-11.3929
▁y	-11.393
▁unto	-11.3935
hold	-11.3935
▁tit	-11.3937
▁diseased	-11.3937
▁caus	-11.3937
▁cue	-11.3939
▁strongest	-11.3939
▁fasten	-11.3939
index	-11.3942
▁charger	-11.3943
▁tread	-11.3943
▁breeding	-11.3947
▁bigtime	-11.3947
▁slamm	-11.3948
▁crank	-11.3948
▁spine	-11.395
oved	-11.3951
▁marker	-11.3954
▁excitedly	-11.3957
▁inspire	-11.3958
▁groove	-11.3959
▁inning	-11.3959
▁flyers	-11.3962
▁required	-11.3962
▁rep	-11.3963
▁joint	-11.3965
▁battery	-11.3965
▁heed	-11.3967
▁weed	-11.3967
▁debate	-11.3968
▁shocked	-11.3968
▁hacking	-11.3968
▁complaining	-11.3969
▁missiles	-11.397
▁explosives	-11.397
▁appearances	-11.397
▁spiders	-11.397
▁gags	-11.397
▁associates	-11.3971
▁dates	-11.3972
▁deserted	-11.3975
▁brit	-11.3979
▁challenged	-11.3979
▁dana	-11.398
▁crushed	-11.3982
▁eld	-11.3982
▁forgiven	-11.3988
▁planted	-11.3989
elt	-11.3992
▁touches	-11.4001
▁parenting	-11.4004
▁lance	-11.4007
▁rushed	-11.4009
▁gathered	-11.4009
▁comrades	-11.4012
▁initials	-11.4012
▁passengers	-11.4012
▁addressed	-11.4016
▁remained	-11.4018
tters	-11.4019
▁growl	-11.4023
▁yea	-11.4023
▁honesty	-11.4026
rapping	-11.4026
▁dep	-11.403
iron	-11.4031
hal	-11.4032
▁punt	-11.4034
▁suggested	-11.4036
▁mutter	-11.4036
▁uses	-11.4039
eyed	-11.4041
▁tits	-11.4041
▁hu	-11.4042
▁hardest	-11.4044
▁limo	-11.4049
▁iand	-11.405
▁bitey	-11.405
▁trolls	-11.4055
▁beans	-11.4055
▁skeletons	-11.4055
▁nazis	-11.4056
▁warheads	-11.4057
▁helpless	-11.4058
▁crushing	-11.4058
ption	-11.4058
▁thankful	-11.4062
nne	-11.4062
sors	-11.4065
▁nipp	-11.4067
rakes	-11.4069
▁dye	-11.4071
ame	-11.4075
quin	-11.4078
▁engineering	-11.4078
▁interrupting	-11.4079
▁caper	-11.4081
▁alcohol	-11.4082
▁services	-11.4083
acco	-11.4085
▁mace	-11.4087
▁doubled	-11.4091
▁hatching	-11.4091
ries	-11.4094
▁grownups	-11.4098
▁rackets	-11.4099
▁doubts	-11.4105
▁leelailai	-11.4105
not	-11.4109
▁smiled	-11.411
▁posted	-11.4114
▁rum	-11.4114
▁remaining	-11.4121
▁exceptional	-11.4126
▁terminate	-11.4129
ida	-11.4135
▁regards	-11.4139
▁rhymes	-11.414
▁sleeves	-11.414
▁temperatures	-11.414
▁decades	-11.414
amaz	-11.4145
▁musicians	-11.4149
yard	-11.4165
▁swa	-11.4166
▁gangst	-11.4174
ator	-11.4175
▁kicks	-11.4175
▁freaked	-11.4178
▁amigos	-11.4183
▁cowboys	-11.4183
▁briefings	-11.4183
▁strings	-11.4183
nie	-11.4185
▁toads	-11.419
argh	-11.4197
inal	-11.4204
istic	-11.4204
▁pep	-11.421
▁foundation	-11.4218
▁pads	-11.4223
▁dolls	-11.4223
▁protected	-11.4225
▁correction	-11.4226
▁andreas	-11.4226
▁punks	-11.4226
▁blankets	-11.4227
▁reduce	-11.4228
net	-11.4235
▁favorites	-11.4236
tick	-11.4239
▁seated	-11.4253
ran	-11.4254
▁easyon	-11.4256
▁ity	-11.4263
▁cornered	-11.4268
▁swan	-11.427
▁ci	-11.4272
▁masters	-11.4278
vious	-11.4279
▁mars	-11.4295
▁measures	-11.4302
rit	-11.4312
hip	-11.432
▁bor	-11.4323
▁touchy	-11.4324
▁sting	-11.4329
eech	-11.434
▁lookout	-11.436
▁deals	-11.4367
star	-11.4371
▁spying	-11.4385
liness	-11.4388
wn	-11.4391
▁gia	-11.4396
▁yyou	-11.4396
can	-11.4397
▁creeps	-11.4399
▁feared	-11.4401
▁heave	-11.4401
pick	-11.4406
ab	-11.4416
▁naz	-11.4431
▁ash	-11.4434
luc	-11.4434
▁occasions	-11.4442
▁rainbows	-11.4443
rr	-11.4446
▁bam	-11.4449
▁ger	-11.4464
zi	-11.4471
▁cages	-11.4484
▁whales	-11.4488
▁kno	-11.4519
▁apples	-11.4531
▁boarding	-11.4535
▁electrical	-11.4536
▁sleepy	-11.4538
▁pointy	-11.4547
▁writes	-11.456
▁mach	-11.4568
▁towns	-11.4571
▁chambers	-11.4574
▁hating	-11.4599
▁rolling	-11.4604
▁ev	-11.4608
▁capp	-11.4612
▁lin	-11.4616
itating	-11.462
of	-11.4623
▁valenti	-11.463
▁est	-11.4635
pido	-11.4649
▁chatt	-11.4661
▁ads	-11.4662
▁champs	-11.4663
hampton	-11.4665
▁dreamy	-11.4667
▁directions	-11.4707
mish	-11.4711
▁attacking	-11.4712
▁tub	-11.4717
▁fears	-11.4721
▁shorts	-11.4724
▁contr	-11.4738
▁consum	-11.4752
ata	-11.4758
dor	-11.4761
▁tense	-11.4768
chin	-11.477
▁io	-11.477
oni	-11.4772
ically	-11.4773
▁lads	-11.4773
▁seeks	-11.4781
▁conc	-11.4782
▁cart	-11.4828
▁astr	-11.4836
▁partys	-11.484
martial	-11.4843
met	-11.4862
oud	-11.4863
▁savings	-11.4885
win	-11.4908
▁poo	-11.4908
bility	-11.4913
▁timer	-11.4927
▁judges	-11.4963
▁ang	-11.4973
▁rises	-11.4974
▁accounts	-11.4978
▁git	-11.4981
lez	-11.4982
▁gener	-11.4998
▁bu	-11.5001
ken	-11.5003
▁beers	-11.5019
▁metals	-11.502
▁contracts	-11.5021
▁trainer	-11.5026
▁ruins	-11.5027
slav	-11.5028
▁ph	-11.5053
lands	-11.5054
▁needle	-11.5062
▁abs	-11.5084
▁pra	-11.5087
ere	-11.5091
▁ber	-11.5095
shim	-11.5097
▁bol	-11.5112
ified	-11.5135
veral	-11.5137
gent	-11.5164
ashi	-11.5169
▁pol	-11.5171
vant	-11.5171
▁tube	-11.5188
▁seventy	-11.5192
dge	-11.5195
ister	-11.5207
▁bats	-11.5224
▁dragons	-11.5231
tale	-11.5246
▁rec	-11.526
▁judg	-11.5283
▁ec	-11.5315
▁measur	-11.5328
kes	-11.5331
▁clin	-11.5332
eau	-11.5359
jury	-11.5359
gled	-11.5365
lite	-11.5384
que	-11.5385
▁bottles	-11.5431
▁pint	-11.5435
▁ato	-11.5444
▁pros	-11.5453
▁hats	-11.5471
mus	-11.5478
▁alec	-11.5478
itis	-11.5482
▁bri	-11.55
ghi	-11.5519
▁shakes	-11.5523
▁ana	-11.5527
ket	-11.5529
ila	-11.5529
▁lighting	-11.5533
▁planes	-11.5536
lin	-11.5547
vy	-11.5549
▁messages	-11.557
▁winners	-11.557
▁records	-11.5584
zzy	-11.5585
nda	-11.5588
rai	-11.5592
▁robe	-11.5596
ench	-11.5598
▁seam	-11.5626
▁pant	-11.5641
▁mattered	-11.5642
tible	-11.5643
▁gott	-11.5653
▁pom	-11.5665
▁zit	-11.5668
▁cu	-11.567
nal	-11.5672
▁rin	-11.5683
▁planets	-11.5689
▁barr	-11.5692
▁ybii	-11.5694
▁accepts	-11.5712
▁employ	-11.5717
youre	-11.5721
lit	-11.573
▁din	-11.5751
zo	-11.5768
▁populat	-11.5769
tty	-11.577
mes	-11.5827
hopping	-11.583
▁villages	-11.5852
ddy	-11.5854
▁terror	-11.5877
▁repeats	-11.588
▁dares	-11.5883
▁prepar	-11.5895
▁levels	-11.5898
bastia	-11.5913
▁tut	-11.592
itting	-11.5929
alo	-11.5937
▁mes	-11.5939
dio	-11.5965
▁schl	-11.5973
spread	-11.5997
▁moo	-11.5997
▁commands	-11.6
▁bobbi	-11.6011
▁pals	-11.6018
▁terminat	-11.6032
▁pip	-11.6066
hard	-11.607
▁she	-11.6079
ich	-11.608
nia	-11.6084
bby	-11.6092
inner	-11.6102
cap	-11.6107
mage	-11.6117
▁strand	-11.6134
▁sniff	-11.6138
yre	-11.614
ode	-11.615
▁diver	-11.6153
put	-11.6162
▁relation	-11.6162
▁expense	-11.6163
▁hurricane	-11.6163
▁merchant	-11.6163
▁microphone	-11.6163
▁nickname	-11.6163
▁obstacle	-11.6163
▁typewriter	-11.6163
▁scalp	-11.6163
▁mineral	-11.6163
▁bruise	-11.6164
▁arrow	-11.6165
▁burger	-11.6167
▁hurdle	-11.6171
▁rooster	-11.6171
▁intention	-11.6173
▁radical	-11.6173
▁thorn	-11.6174
▁comrade	-11.6176
▁passenger	-11.6176
▁initial	-11.6177
▁sigh	-11.6177
▁rail	-11.618
▁tentacle	-11.618
▁marshmallow	-11.6182
▁tire	-11.6184
▁rib	-11.6185
▁curtain	-11.6186
▁grove	-11.6186
▁vegetable	-11.6186
▁complaint	-11.6187
▁sheet	-11.6188
▁subtitle	-11.6188
▁manner	-11.619
▁jewel	-11.6191
▁bun	-11.6194
▁detail	-11.6195
▁debt	-11.6203
port	-11.6203
▁carrie	-11.621
▁prod	-11.621
▁nav	-11.6225
▁trader	-11.6228
▁stair	-11.6233
▁swords	-11.624
break	-11.6244
▁chu	-11.6249
▁honk	-11.6249
▁peer	-11.6268
▁shack	-11.627
▁sup	-11.6275
pu	-11.6282
▁flood	-11.6283
stitute	-11.6291
span	-11.6292
▁illustr	-11.6293
hoohoo	-11.6297
dog	-11.6301
▁kee	-11.6302
▁react	-11.6303
▁stroll	-11.6303
▁bluff	-11.6311
▁atta	-11.6312
▁sew	-11.6319
▁escap	-11.632
▁suff	-11.6325
▁captur	-11.6325
ought	-11.6332
body	-11.6332
▁ina	-11.6332
▁endanger	-11.6333
▁retard	-11.6333
▁straw	-11.6333
▁detect	-11.6334
▁accomplish	-11.6334
▁crook	-11.6335
piece	-11.6336
esteem	-11.6336
tool	-11.6337
activated	-11.6338
june	-11.6339
review	-11.6339
play	-11.6339
▁elo	-11.634
aware	-11.634
▁lau	-11.634
level	-11.634
hammer	-11.634
second	-11.634
white	-11.634
three	-11.6341
course	-11.6341
decker	-11.6341
▁bong	-11.6342
pool	-11.6343
mate	-11.6343
hill	-11.6344
▁bridg	-11.6344
wash	-11.6345
pache	-11.6345
▁determine	-11.6346
▁stoke	-11.6347
game	-11.6347
▁organize	-11.6348
▁combine	-11.6348
▁izz	-11.6349
cock	-11.6349
▁hysterical	-11.6349
orted	-11.6349
half	-11.6349
▁zip	-11.635
▁weir	-11.635
▁thorough	-11.635
▁unfortunate	-11.6351
▁apparent	-11.6351
▁practical	-11.6351
speed	-11.6352
▁seren	-11.6353
bound	-11.6354
▁divide	-11.6355
▁micromanage	-11.6355
▁precise	-11.6355
▁scrub	-11.6356
hole	-11.6356
▁alexandr	-11.6357
▁froze	-11.6357
addle	-11.6358
▁horri	-11.6358
▁sensation	-11.6358
▁obsess	-11.6358
▁sentiment	-11.6359
pande	-11.6359
ficial	-11.6359
▁oblig	-11.6359
wind	-11.6359
▁villa	-11.636
door	-11.636
neck	-11.636
▁etc	-11.636
▁inspect	-11.636
rich	-11.6361
▁posit	-11.6361
▁backpack	-11.6361
▁believin	-11.6361
▁stoppin	-11.6361
▁obli	-11.6361
hrist	-11.6361
▁depress	-11.6362
▁religio	-11.6362
▁alternat	-11.6362
▁mangia	-11.6362
▁avail	-11.6362
▁norma	-11.6362
▁viola	-11.6362
▁numer	-11.6363
▁motto	-11.6363
▁lauren	-11.6363
▁excess	-11.6363
destruct	-11.6363
▁conr	-11.6363
▁brew	-11.6363
▁enthusias	-11.6363
▁scram	-11.6363
▁doug	-11.6363
▁slur	-11.6364
▁neuro	-11.6364
▁casual	-11.6364
▁genuine	-11.6364
▁ortho	-11.6364
▁procure	-11.6364
claren	-11.6364
responsibilities	-11.6364
rgensson	-11.6364
▁alexi	-11.6364
▁altogether	-11.6364
▁apologies	-11.6364
▁applesauce	-11.6364
▁appropriate	-11.6364
▁architect	-11.6364
▁arrivai	-11.6364
▁aspect	-11.6364
▁aspirin	-11.6364
▁atami	-11.6364
▁austria	-11.6364
▁authorization	-11.6364
▁balcony	-11.6364
▁balkan	-11.6364
▁baloney	-11.6364
▁belgian	-11.6364
▁bellveedaray	-11.6364
▁betrothed	-11.6364
▁beware	-11.6364
▁bosom	-11.6364
▁boundaries	-11.6364
▁brazil	-11.6364
▁bubbling	-11.6364
▁bypass	-11.6364
▁cabbages	-11.6364
▁cafeteria	-11.6364
▁capacitance	-11.6364
▁carlysle	-11.6364
▁cauldron	-11.6364
▁cavalry	-11.6364
▁cease	-11.6364
▁celebrit	-11.6364
▁chronicle	-11.6364
▁cloudbreather	-11.6364
▁collide	-11.6364
▁collision	-11.6364
▁commodity	-11.6364
▁commotion	-11.6364
▁competitor	-11.6364
▁concussion	-11.6364
▁congrats	-11.6364
▁conjure	-11.6364
▁conscience	-11.6364
▁convenient	-11.6364
▁cornelius	-11.6364
▁cottage	-11.6364
▁crawford	-11.6364
▁cucumber	-11.6364
▁cudgeon	-11.6364
▁deacon	-11.6364
▁deceased	-11.6364
▁dimension	-11.6364
▁disneyland	-11.6364
▁dryclean	-11.6364
▁duration	-11.6364
▁dwarves	-11.6364
▁eflat	-11.6364
▁eisenhower	-11.6364
▁elliot	-11.6364
▁encore	-11.6364
▁encounter	-11.6364
▁equation	-11.6364
▁evolving	-11.6364
▁exlax	-11.6364
▁exterminator	-11.6364
▁forecast	-11.6364
▁formidable	-11.6364
▁froyo	-11.6364
▁furlough	-11.6364
▁gauntlet	-11.6364
▁gauol	-11.6364
▁georgia	-11.6364
▁gesture	-11.6364
▁gettysburg	-11.6364
▁ghana	-11.6364
▁grushenko	-11.6364
▁handkerchief	-11.6364
▁harvest	-11.6364
▁hasbeen	-11.6364
▁heavier	-11.6364
▁hereafter	-11.6364
▁hernan	-11.6364
▁homosexual	-11.6364
▁hormones	-11.6364
▁humiliate	-11.6364
▁huzzah	-11.6364
▁hwyl	-11.6364
▁hyatt	-11.6364
▁imbecile	-11.6364
▁indisposed	-11.6364
▁integrity	-11.6364
▁intrusion	-11.6364
▁investigating	-11.6364
▁jiffy	-11.6364
▁jonah	-11.6364
▁kasserine	-11.6364
▁kimchee	-11.6364
▁krapotkin	-11.6364
▁kraut	-11.6364
▁krishna	-11.6364
▁landmark	-11.6364
▁latitude	-11.6364
▁leondegrance	-11.6364
▁lollipop	-11.6364
▁luxury	-11.6364
▁magistrate	-11.6364
▁maitland	-11.6364
▁malcolm	-11.6364
▁mannequin	-11.6364
▁massachusetts	-11.6364
▁mathematic	-11.6364
▁mechanism	-11.6364
▁meherunissa	-11.6364
▁mexico	-11.6364
▁microwave	-11.6364
▁miraculous	-11.6364
▁monstrous	-11.6364
▁mordred	-11.6364
▁muslim	-11.6364
▁muzeum	-11.6364
▁myspace	-11.6364
▁neanderthal	-11.6364
▁neighing	-11.6364
▁nicole	-11.6364
▁nominated	-11.6364
▁obedience	-11.6364
▁octagon	-11.6364
▁october	-11.6364
▁octopus	-11.6364
▁okeydoke	-11.6364
▁outlaw	-11.6364
▁outsmart	-11.6364
▁overdue	-11.6364
▁overrated	-11.6364
▁parakeet	-11.6364
▁passelevve	-11.6364
▁password	-11.6364
▁paycheck	-11.6364
▁pentagon	-11.6364
▁pervert	-11.6364
▁petrina	-11.6364
▁piatform	-11.6364
▁piracy	-11.6364
▁plague	-11.6364
▁playwright	-11.6364
▁pottery	-11.6364
▁poultry	-11.6364
▁practise	-11.6364
▁premises	-11.6364
▁proclaim	-11.6364
▁psychology	-11.6364
▁pudding	-11.6364
▁receipt	-11.6364
▁reflexes	-11.6364
▁register	-11.6364
▁reminisce	-11.6364
▁reunite	-11.6364
▁rhun	-11.6364
▁rokai	-11.6364
▁rooftops	-11.6364
▁safari	-11.6364
▁sasquatch	-11.6364
▁savor	-11.6364
▁saxophone	-11.6364
▁scranton	-11.6364
▁selfrespect	-11.6364
▁shrieking	-11.6364
▁silverware	-11.6364
▁snorting	-11.6364
▁sonofabitch	-11.6364
▁southampton	-11.6364
▁spontaneous	-11.6364
▁stamina	-11.6364
▁starkiller	-11.6364
▁stereo	-11.6364
▁stooge	-11.6364
▁strelitz	-11.6364
▁struggling	-11.6364
▁strut	-11.6364
▁suffocate	-11.6364
▁svardlov	-11.6364
▁sweatshirt	-11.6364
▁syrup	-11.6364
▁takarazuka	-11.6364
▁taormina	-11.6364
▁terrifying	-11.6364
▁toohey	-11.6364
▁trampoline	-11.6364
▁trifle	-11.6364
▁ukulele	-11.6364
▁ulanga	-11.6364
▁umbrella	-11.6364
▁unauthorized	-11.6364
▁unemployment	-11.6364
▁unnecessary	-11.6364
▁veimroo	-11.6364
▁vessel	-11.6364
▁vicinity	-11.6364
▁vulnerable	-11.6364
▁wacko	-11.6364
▁wainwright	-11.6364
▁wilhelm	-11.6364
▁willoughby	-11.6364
▁wonderfui	-11.6364
▁wrench	-11.6364
▁xander	-11.6364
▁ybidanger	-11.6364
▁ybivalue	-11.6364
▁yeerow	-11.6364
▁yourseif	-11.6364
▁acorn	-11.6364
▁bookstore	-11.6364
▁boscoe	-11.6364
▁bundt	-11.6364
▁clamoring	-11.6364
▁crust	-11.6364
▁cushion	-11.6364
▁dairy	-11.6364
▁delirious	-11.6364
▁deuce	-11.6364
▁dungeon	-11.6364
▁gbh	-11.6364
▁graphic	-11.6364
▁guiding	-11.6364
▁honeydew	-11.6364
▁imperative	-11.6364
▁inbetween	-11.6364
▁jeopardize	-11.6364
▁justjust	-11.6364
▁klein	-11.6364
▁lulu	-11.6364
▁mastermind	-11.6364
▁maywho	-11.6364
▁oppose	-11.6364
▁parlor	-11.6364
▁perpetual	-11.6364
▁psyched	-11.6364
▁puncture	-11.6364
▁ritual	-11.6364
▁simmons	-11.6364
▁subtle	-11.6364
▁testify	-11.6364
▁thread	-11.6364
▁veins	-11.6364
▁whatsoever	-11.6364
▁ballerina	-11.6364
▁cluck	-11.6364
▁clutch	-11.6364
▁convict	-11.6364
▁evangel	-11.6364
▁hashtag	-11.6364
▁horde	-11.6364
▁maury	-11.6364
▁nevertheless	-11.6364
▁peewee	-11.6364
▁pittsmore	-11.6364
▁porch	-11.6364
▁priorities	-11.6364
▁secretaries	-11.6364
▁boast	-11.6364
▁iife	-11.6364
bumb	-11.6364
▁accomplishments	-11.6364
▁bandaid	-11.6364
▁crisp	-11.6364
▁cuddl	-11.6364
▁dreary	-11.6364
▁skeptic	-11.6364
▁termites	-11.6364
▁wedgie	-11.6364
anthrop	-11.6364
▁goodwill	-11.6364
▁jingling	-11.6364
▁revolve	-11.6364
cherous	-11.6364
▁abyss	-11.6364
▁bavaria	-11.6364
▁beginners	-11.6364
▁disarm	-11.6364
▁duncan	-11.6364
▁stafford	-11.6364
▁valve	-11.6364
▁warren	-11.6364
▁zao	-11.6364
▁collaborat	-11.6364
▁sarcastic	-11.6364
▁scoring	-11.6364
▁attraction	-11.6364
▁dimitr	-11.6364
▁scanning	-11.6364
▁greasy	-11.6364
▁newlywed	-11.6364
▁cecilia	-11.6364
▁cologne	-11.6364
▁conscious	-11.6364
▁mendoza	-11.6364
▁piay	-11.6364
▁ammunition	-11.6364
▁grapes	-11.6364
▁helium	-11.6364
▁ignorance	-11.6364
▁nibbl	-11.6364
▁resume	-11.6364
▁gallery	-11.6364
▁redskins	-11.6364
▁vortex	-11.6364
▁yowl	-11.6364
▁ritz	-11.6364
▁abbey	-11.6364
▁duties	-11.6364
▁ongoing	-11.6364
▁illumination	-11.6364
▁itsa	-11.6364
▁clark	-11.6364
▁michelle	-11.6364
▁railroad	-11.6364
▁housing	-11.6364
▁skua	-11.6364
▁drool	-11.6364
▁newcomer	-11.6364
▁greyhound	-11.6364
▁jethro	-11.6364
▁cackl	-11.6364
▁spinning	-11.6364
▁hippie	-11.6364
▁twentyfive	-11.6364
▁constitution	-11.6364
▁garda	-11.6364
▁colorcoded	-11.6364
▁flashlight	-11.6364
▁elastic	-11.6364
▁content	-11.6364
▁lodge	-11.6364
▁salsa	-11.6364
▁salute	-11.6364
▁brooks	-11.6364
▁brutal	-11.6364
sanitary	-11.6364
▁botfight	-11.6364
▁guru	-11.6364
▁fortytwo	-11.6364
▁undertak	-11.6364
▁comming	-11.6364
▁deception	-11.6364
▁brink	-11.6364
▁restoration	-11.6364
▁guinea	-11.6364
▁reset	-11.6364
▁shamble	-11.6364
▁salvage	-11.6364
▁border	-11.6364
▁germs	-11.6364
▁graveyard	-11.6364
▁terminal	-11.6364
▁undone	-11.6364
▁yoyo	-11.6364
▁mingle	-11.6364
biamo	-11.6364
▁circling	-11.6364
▁dioxide	-11.6364
▁groveton	-11.6364
▁cheque	-11.6364
▁convert	-11.6364
▁gwen	-11.6364
▁simpson	-11.6364
▁textbook	-11.6364
▁leeke	-11.6364
▁uppity	-11.6364
▁tribute	-11.6365
▁basin	-11.6365
▁jeep	-11.6365
▁summon	-11.6365
▁dodgers	-11.6365
▁onward	-11.6365
▁twentyfour	-11.6365
▁brays	-11.6365
▁cocktail	-11.6365
mination	-11.6365
▁bunco	-11.6365
▁veal	-11.6365
▁bonfire	-11.6365
▁fluttering	-11.6365
▁arena	-11.6365
▁felon	-11.6365
▁donnie	-11.6365
▁raincoat	-11.6365
▁piace	-11.6365
▁decline	-11.6365
tration	-11.6365
▁humour	-11.6365
▁selfdestruct	-11.6365
▁shush	-11.6365
▁merciless	-11.6365
▁tux	-11.6365
▁cockpit	-11.6365
▁alumn	-11.6365
igator	-11.6365
▁ajob	-11.6365
▁fatima	-11.6365
▁expertise	-11.6365
▁iq	-11.6365
▁resemblance	-11.6365
▁rogan	-11.6365
▁substance	-11.6365
▁abduction	-11.6365
▁synthesizer	-11.6365
▁sphere	-11.6365
dispose	-11.6365
▁dexter	-11.6365
▁seasick	-11.6365
▁violated	-11.6365
▁booze	-11.6365
▁incline	-11.6365
▁rational	-11.6365
▁plaster	-11.6365
▁daunt	-11.6365
▁knucklehead	-11.6365
▁boosters	-11.6365
▁janitor	-11.6365
▁dizzy	-11.6365
▁hahaha	-11.6365
▁simms	-11.6365
▁tapped	-11.6365
▁slipped	-11.6365
▁elkins	-11.6365
▁favourite	-11.6365
▁korea	-11.6365
▁journalist	-11.6365
▁align	-11.6365
▁editor	-11.6365
▁hula	-11.6365
khan	-11.6365
▁floss	-11.6365
▁vista	-11.6365
▁reflection	-11.6366
▁contest	-11.6366
▁hypo	-11.6366
▁soak	-11.6366
▁suspicious	-11.6366
▁cricket	-11.6366
▁flea	-11.6366
▁granny	-11.6366
▁bloom	-11.6366
▁heartsong	-11.6366
▁beals	-11.6366
▁ridden	-11.6366
▁falter	-11.6366
▁garment	-11.6366
▁riddle	-11.6366
▁compos	-11.6366
▁crumble	-11.6366
▁acknowledge	-11.6366
▁unveil	-11.6366
▁lancers	-11.6366
▁macaro	-11.6366
▁alamo	-11.6366
▁income	-11.6366
▁flipped	-11.6366
▁quant	-11.6366
▁sushi	-11.6366
▁clayton	-11.6366
▁quiz	-11.6366
lutz	-11.6366
▁crab	-11.6366
▁tickling	-11.6367
▁curb	-11.6367
▁hlife	-11.6367
▁partnership	-11.6367
namel	-11.6367
▁vivi	-11.6367
quent	-11.6367
▁buddies	-11.6367
▁hunch	-11.6367
▁greg	-11.6367
▁paddle	-11.6367
▁ravish	-11.6367
▁poking	-11.6367
▁steward	-11.6367
▁brute	-11.6367
▁mortal	-11.6367
▁torment	-11.6367
▁corporation	-11.6367
▁underway	-11.6367
▁unemployed	-11.6367
▁pimp	-11.6367
▁spotlight	-11.6367
▁giddy	-11.6367
▁unleash	-11.6367
affe	-11.6367
▁pabl	-11.6367
▁knob	-11.6367
▁passport	-11.6367
▁pinball	-11.6367
▁moonlight	-11.6367
▁worid	-11.6367
▁dislike	-11.6367
▁disp	-11.6367
▁patsy	-11.6367
▁parson	-11.6367
▁battlefield	-11.6367
▁trina	-11.6367
▁translation	-11.6367
▁muddy	-11.6368
▁fudge	-11.6368
▁recital	-11.6368
▁plantation	-11.6368
ctical	-11.6368
▁dwell	-11.6368
▁mmmmmm	-11.6368
▁stash	-11.6368
▁napis	-11.6368
▁orphanage	-11.6368
▁conned	-11.6368
▁tram	-11.6368
▁coover	-11.6368
▁proposal	-11.6368
▁equipped	-11.6368
▁increasing	-11.6368
▁syllable	-11.6368
▁draft	-11.6368
▁joust	-11.6368
▁preferred	-11.6369
▁twinkies	-11.6369
▁scooter	-11.6369
▁expectations	-11.6369
litary	-11.6369
▁classroom	-11.6369
▁landlord	-11.6369
▁effective	-11.6369
▁vigilante	-11.6369
▁distinguished	-11.6369
▁glance	-11.6369
▁rug	-11.6369
▁noah	-11.6369
▁plow	-11.6369
▁fax	-11.6369
tiful	-11.6369
▁slugg	-11.6369
▁reload	-11.6369
▁cuss	-11.637
▁ieave	-11.637
▁lailailai	-11.637
▁papathing	-11.637
▁slavery	-11.637
▁predict	-11.637
▁chow	-11.637
▁conga	-11.637
▁menace	-11.637
▁randy	-11.637
▁soninlaw	-11.637
▁gunther	-11.637
▁reborn	-11.637
▁begun	-11.637
▁retro	-11.637
lfred	-11.6371
▁dj	-11.6371
▁cinema	-11.6371
▁penance	-11.6371
▁astro	-11.6371
▁logic	-11.6371
▁winwin	-11.6371
▁aggressive	-11.6371
▁curve	-11.6371
▁daily	-11.6371
▁roommate	-11.6372
▁sara	-11.6372
▁alley	-11.6372
▁reinstated	-11.6372
▁trampled	-11.6372
▁examined	-11.6372
▁hence	-11.6372
▁prune	-11.6372
▁multiply	-11.6372
▁crackling	-11.6373
▁shuffle	-11.6373
▁intr	-11.6373
aki	-11.6373
▁omg	-11.6373
▁acceptance	-11.6373
▁atlanta	-11.6373
▁revive	-11.6373
▁lew	-11.6373
▁poker	-11.6374
▁buckman	-11.6374
▁thud	-11.6374
chita	-11.6374
▁arf	-11.6374
▁reap	-11.6374
oda	-11.6375
▁peaceful	-11.6375
▁mead	-11.6375
▁certainiy	-11.6375
▁broom	-11.6376
▁polo	-11.6376
▁abdicat	-11.6376
▁magician	-11.6376
▁dante	-11.6376
breathing	-11.6377
▁grain	-11.6377
▁plugged	-11.6377
▁scour	-11.6377
▁wager	-11.6377
▁requirement	-11.6377
▁reassigned	-11.6377
▁puss	-11.6378
▁concluded	-11.6378
▁hedge	-11.6378
▁mercenary	-11.6378
▁certifi	-11.6378
▁publicity	-11.6379
▁ringside	-11.6379
▁alma	-11.6379
▁tung	-11.6379
▁butterfi	-11.638
chan	-11.638
▁jc	-11.638
ernity	-11.638
▁amma	-11.638
▁realistic	-11.6381
▁whove	-11.6381
▁breakaway	-11.6381
▁stain	-11.6381
▁bever	-11.6381
▁regiment	-11.6381
▁sap	-11.6381
▁dice	-11.6381
▁ledge	-11.6382
▁hallway	-11.6383
▁inlaw	-11.6383
▁unbeat	-11.6383
▁lull	-11.6383
▁hospitality	-11.6383
▁deke	-11.6384
▁napkin	-11.6384
▁loaf	-11.6384
▁shipp	-11.6384
▁narnian	-11.6384
▁teamwork	-11.6384
▁stitch	-11.6385
▁cabinet	-11.6385
▁offender	-11.6385
▁tomatoes	-11.6385
▁quitter	-11.6385
▁protective	-11.6386
▁whipped	-11.6386
▁devoted	-11.6386
▁intimidated	-11.6386
▁anointed	-11.6386
▁briefly	-11.6386
▁ninety	-11.6386
▁accu	-11.6386
▁skit	-11.6386
▁domo	-11.6387
▁bina	-11.6387
come	-11.6387
jingle	-11.6387
▁warmth	-11.6388
▁schoolwork	-11.6388
▁yore	-11.6388
▁huy	-11.6388
▁sour	-11.6389
▁settlement	-11.6389
▁meddl	-11.6389
▁dinnertime	-11.6389
▁tide	-11.639
▁allies	-11.6391
▁halftime	-11.6391
▁kent	-11.6391
▁pawn	-11.6392
▁setback	-11.6392
▁politician	-11.6393
▁tucker	-11.6393
▁promoted	-11.6393
▁shelf	-11.6393
▁described	-11.6394
▁achieved	-11.6394
▁poked	-11.6394
▁restored	-11.6395
▁faded	-11.6395
▁endangered	-11.6395
▁retarded	-11.6395
▁pyramids	-11.6395
▁dart	-11.6395
▁snarls	-11.6395
▁valet	-11.6396
▁embr	-11.6396
dabbadoo	-11.6396
▁headline	-11.6397
▁dove	-11.6397
▁hookin	-11.6398
▁identified	-11.6398
▁backstage	-11.6398
▁hick	-11.6399
illo	-11.6399
▁franca	-11.6399
▁improved	-11.64
▁underestimated	-11.64
▁haul	-11.6401
▁cleanse	-11.6402
axis	-11.6403
▁comput	-11.6403
▁vanity	-11.6403
▁panel	-11.6404
▁lark	-11.6404
▁classical	-11.6404
▁scraping	-11.6405
▁epi	-11.6405
▁pap	-11.6406
pot	-11.6407
▁cosa	-11.6408
▁consideration	-11.6409
▁urgently	-11.641
tring	-11.6411
▁grind	-11.6411
▁armies	-11.6412
ifications	-11.6413
▁challenger	-11.6413
aye	-11.6413
▁frenchman	-11.6413
▁bellies	-11.6414
▁coon	-11.6414
▁mic	-11.6414
▁sling	-11.6415
▁flooding	-11.6415
▁patel	-11.6416
▁imply	-11.6417
tangled	-11.6417
▁betch	-11.6419
▁duet	-11.6419
▁objection	-11.6419
bil	-11.6419
▁bailed	-11.6419
▁drowned	-11.6421
▁jester	-11.6421
▁altered	-11.6421
▁policeman	-11.6421
▁pinched	-11.6421
▁attached	-11.6422
▁crawled	-11.6422
pilots	-11.6423
▁bonehead	-11.6425
▁coil	-11.6425
▁achi	-11.6426
▁cheaper	-11.6426
▁toaster	-11.6427
▁chilly	-11.6429
▁operational	-11.6429
rish	-11.6429
anyon	-11.643
▁awaiting	-11.643
▁cured	-11.6431
▁cheater	-11.6431
▁skyler	-11.6431
▁hothead	-11.6433
▁bitches	-11.6434
this	-11.6434
▁proposed	-11.6434
athe	-11.6436
▁damaged	-11.6438
▁jap	-11.6439
▁pomp	-11.6439
▁eve	-11.644
▁massage	-11.6442
▁lavo	-11.6442
▁celebrated	-11.6443
▁ache	-11.6443
▁proceeding	-11.6444
▁grams	-11.6444
self	-11.6445
▁soil	-11.6445
▁tendenc	-11.6446
▁sally	-11.6447
▁pushin	-11.6447
▁rollin	-11.6448
▁ounces	-11.6449
▁goblins	-11.6449
▁mammals	-11.6449
▁robotics	-11.6449
▁roars	-11.6449
▁forks	-11.6449
▁molecules	-11.645
▁threequarters	-11.6451
▁ranked	-11.6451
nex	-11.6452
▁funnie	-11.6452
▁angela	-11.6452
▁payment	-11.6452
▁robbers	-11.6453
▁drawn	-11.6455
▁jay	-11.6455
▁render	-11.6456
▁prevented	-11.6457
▁catchman	-11.6458
▁mma	-11.6458
pid	-11.646
▁inventor	-11.6461
▁coup	-11.6462
▁boiler	-11.6467
▁correctly	-11.6467
▁sincere	-11.647
▁goof	-11.6471
▁wll	-11.6472
▁loosening	-11.6473
▁recognized	-11.6474
▁fleeting	-11.6475
▁magically	-11.6476
ever	-11.6478
▁banksie	-11.6479
▁sealed	-11.6479
guards	-11.648
▁define	-11.6487
▁leaking	-11.6488
▁disappointing	-11.6488
▁bowler	-11.649
graph	-11.6491
▁jeer	-11.6491
▁verse	-11.6494
▁hips	-11.6496
▁wired	-11.6497
▁ohhhh	-11.65
▁businessman	-11.6501
▁insisted	-11.6502
▁bal	-11.6502
▁antique	-11.6502
▁fractions	-11.6504
▁relics	-11.6504
▁moans	-11.6505
▁finishes	-11.6512
▁existed	-11.6512
▁geographic	-11.6512
▁hearse	-11.6513
ised	-11.6515
crib	-11.6515
▁jar	-11.6516
▁coy	-11.652
▁photographer	-11.6521
drop	-11.6521
▁taller	-11.6525
tics	-11.6526
▁starve	-11.6527
▁experienced	-11.6529
▁import	-11.6533
▁youngest	-11.6535
lle	-11.654
▁suz	-11.6542
▁virtue	-11.6543
▁filming	-11.6547
▁wart	-11.6554
▁hal	-11.6555
▁tackler	-11.6555
▁rails	-11.6557
▁haste	-11.6559
▁treaty	-11.6559
▁buns	-11.656
▁hurdles	-11.656
▁roosters	-11.656
▁radicals	-11.656
▁intentions	-11.656
▁complaints	-11.6563
▁boxer	-11.6565
▁hatched	-11.6566
▁ban	-11.6567
allowed	-11.6568
▁ord	-11.657
iance	-11.6572
▁carries	-11.6572
▁avoided	-11.6573
▁crowned	-11.6574
▁traders	-11.6575
▁qyacking	-11.6576
▁takedown	-11.6577
▁ano	-11.6588
▁lions	-11.6588
▁jazzing	-11.659
ign	-11.6597
▁curl	-11.6599
▁designer	-11.6602
▁contracted	-11.6603
▁marketing	-11.6605
▁ninjas	-11.6616
▁patterns	-11.6616
▁elements	-11.6616
▁tickles	-11.6617
▁buen	-11.6619
▁emotions	-11.6619
rupt	-11.662
▁jamb	-11.6624
heads	-11.6624
▁ideal	-11.6624
▁chub	-11.663
ash	-11.6631
ject	-11.6632
▁howdy	-11.6634
▁consult	-11.6634
▁distribut	-11.6635
▁sham	-11.6638
▁dumping	-11.665
▁rags	-11.6659
▁failing	-11.6665
▁cheeks	-11.6673
▁generations	-11.6673
▁rubbles	-11.6673
▁lectures	-11.6674
▁apps	-11.6678
▁carts	-11.668
▁madly	-11.668
▁conditioning	-11.6683
▁rowing	-11.6684
▁greatness	-11.6686
ulation	-11.6686
▁shooter	-11.6687
▁ut	-11.6688
▁blinded	-11.6699
▁grue	-11.6702
▁drawers	-11.6705
▁weirdos	-11.6707
▁compa	-11.6708
▁kil	-11.6709
▁bide	-11.6709
hear	-11.6709
▁skater	-11.6716
▁alarmed	-11.6718
▁hornet	-11.6719
▁demanding	-11.6722
▁broo	-11.6723
▁govern	-11.6724
▁finn	-11.6725
▁clients	-11.6729
▁survivors	-11.6729
▁trunks	-11.6729
hunk	-11.6732
▁pushy	-11.6737
▁dated	-11.6739
▁gifted	-11.674
▁lifted	-11.6746
▁hooking	-11.675
▁aged	-11.6758
▁dragg	-11.6766
▁bounc	-11.6767
▁gals	-11.6772
▁sci	-11.6772
than	-11.6773
position	-11.6782
▁demons	-11.6783
▁noo	-11.6785
▁pods	-11.6786
▁feds	-11.6786
▁jews	-11.6786
▁frogs	-11.6786
▁rabbits	-11.6786
▁souvenirs	-11.6786
▁basics	-11.6786
▁shutters	-11.6787
▁attempts	-11.6787
uty	-11.6798
▁bef	-11.6805
▁smelly	-11.6811
▁keepers	-11.6822
▁zoom	-11.6823
ik	-11.6824
mat	-11.6831
▁len	-11.6832
ators	-11.6837
▁principals	-11.6843
▁estates	-11.6843
▁actors	-11.6844
▁mentors	-11.6846
▁gent	-11.6851
▁warmed	-11.6852
▁cleaners	-11.6859
▁clic	-11.6869
▁pitcher	-11.6871
▁fare	-11.6873
action	-11.6876
▁colon	-11.6878
▁bodi	-11.6884
▁sticky	-11.6884
lai	-11.6887
butt	-11.6896
▁emails	-11.6901
▁leagues	-11.6901
▁cigarettes	-11.6901
▁elbows	-11.6901
▁scouts	-11.6901
▁importantly	-11.6901
▁schm	-11.6903
▁voil	-11.6917
rley	-11.6926
asl	-11.6927
▁oneil	-11.6931
▁swinging	-11.6932
▁playin	-11.6936
▁ais	-11.6948
▁runt	-11.6952
▁relaxed	-11.6956
▁combs	-11.6956
▁jocks	-11.6958
cum	-11.6975
▁products	-11.698
▁smit	-11.6984
obedient	-11.6991
▁lifting	-11.6997
ittle	-11.7009
mmer	-11.7009
▁scen	-11.7011
▁wav	-11.7015
▁politics	-11.7016
nizing	-11.7016
▁stables	-11.7016
▁arrives	-11.7017
▁visualiz	-11.7019
▁ness	-11.7031
how	-11.7037
itty	-11.7038
anding	-11.704
▁traditions	-11.705
bb	-11.7059
▁treasures	-11.7061
▁acted	-11.7074
agging	-11.7074
▁bulls	-11.7075
▁consen	-11.708
anni	-11.7082
▁walkon	-11.7086
▁aaaa	-11.7094
agin	-11.7096
▁cath	-11.71
oke	-11.7106
try	-11.711
▁guarding	-11.7112
▁cola	-11.7112
▁parked	-11.7115
▁rebel	-11.7118
▁mur	-11.7121
▁bubbles	-11.7125
▁artists	-11.7126
imaginable	-11.7129
▁tong	-11.7136
verge	-11.7137
▁ranch	-11.7155
▁carole	-11.7168
▁indo	-11.7173
▁with	-11.7178
▁ir	-11.7179
▁google	-11.718
ickering	-11.7183
▁gorillas	-11.7191
▁suckers	-11.7209
▁purchase	-11.7214
▁fart	-11.7219
lum	-11.722
▁titles	-11.725
▁concerns	-11.7252
▁slides	-11.7252
▁skates	-11.7265
▁ama	-11.7269
▁mole	-11.7294
▁rates	-11.7298
▁tunes	-11.7299
▁reporting	-11.7302
▁wrappe	-11.7306
▁screens	-11.7308
▁crystals	-11.7308
▁objects	-11.7311
▁matts	-11.7311
ofthe	-11.7315
melon	-11.7318
▁invad	-11.7327
jabb	-11.7337
boat	-11.734
▁prec	-11.7347
▁blo	-11.7357
▁mag	-11.7362
▁guardians	-11.737
ace	-11.7405
▁tw	-11.741
▁patients	-11.7427
▁suburb	-11.7432
anny	-11.7432
▁ripp	-11.7437
▁flames	-11.7442
▁communicat	-11.7452
▁fisher	-11.7464
elim	-11.7491
mir	-11.7493
▁secondly	-11.7495
▁scrambl	-11.7505
▁slowing	-11.7527
▁alli	-11.7536
▁budd	-11.7553
▁dor	-11.7558
▁wil	-11.757
raving	-11.7587
▁subjects	-11.7593
▁wen	-11.7599
atherin	-11.76
▁recipes	-11.7607
▁springs	-11.7611
▁cheats	-11.7616
▁cl	-11.7637
▁plat	-11.7655
▁nurses	-11.7656
anim	-11.7673
nzo	-11.7677
fat	-11.7703
▁gust	-11.7706
▁tellin	-11.7712
▁gar	-11.7716
▁tails	-11.7719
▁lorenzos	-11.7727
vit	-11.7729
▁masks	-11.7731
▁ore	-11.7741
aka	-11.7754
▁kat	-11.7766
ua	-11.7777
ocer	-11.7799
inces	-11.7803
eri	-11.782
arge	-11.7838
▁appoint	-11.786
rus	-11.7871
▁sayin	-11.7874
umming	-11.7887
▁kinder	-11.79
was	-11.7924
vil	-11.7943
bid	-11.7963
ability	-11.7967
portion	-11.7981
heim	-11.7983
▁bin	-11.7994
▁scu	-11.8
prone	-11.8042
▁cran	-11.8045
fra	-11.8047
ior	-11.8057
lush	-11.8065
▁poppe	-11.8073
▁gall	-11.8104
▁scrap	-11.813
▁ske	-11.8162
hai	-11.8179
tta	-11.8183
▁estimate	-11.8193
tortion	-11.8246
ual	-11.8247
▁consist	-11.8255
five	-11.8257
nog	-11.8262
elia	-11.8289
splitting	-11.8302
▁var	-11.8307
cut	-11.8314
nova	-11.8315
rath	-11.8318
▁scramble	-11.8352
uga	-11.8359
icked	-11.8359
▁humbl	-11.836
▁vie	-11.8376
hol	-11.8378
▁kate	-11.838
▁carbo	-11.8393
asse	-11.8422
au	-11.8423
▁complet	-11.8435
▁nurs	-11.8453
▁mod	-11.8458
▁ast	-11.8465
▁lam	-11.8491
tile	-11.85
▁gre	-11.8517
run	-11.8521
▁amp	-11.8527
▁handl	-11.8533
ight	-11.8542
▁cana	-11.8566
▁carb	-11.8572
get	-11.8575
trained	-11.8624
ency	-11.8628
▁preferabl	-11.8639
ably	-11.8691
▁jens	-11.8693
ulp	-11.8702
tel	-11.8712
cou	-11.8731
▁bart	-11.8764
cable	-11.8765
ara	-11.8766
nno	-11.8767
▁anda	-11.8814
lish	-11.8823
qualified	-11.8905
dom	-11.8905
▁pta	-11.8906
arde	-11.8934
immer	-11.8946
omb	-11.8951
aged	-11.8961
▁sti	-11.899
nine	-11.9003
▁shad	-11.9004
uel	-11.9062
▁propos	-11.9069
▁trou	-11.9079
omor	-11.9084
▁subjectiv	-11.9111
▁blam	-11.9115
▁indi	-11.9117
uf	-11.9128
▁indicat	-11.9131
erry	-11.9165
ada	-11.9166
oir	-11.9169
▁cont	-11.9182
tart	-11.9189
▁motivat	-11.9192
▁dam	-11.9192
bell	-11.92
bit	-11.9208
sley	-11.9221
rilla	-11.9259
nder	-11.927
▁clippin	-11.9309
iled	-11.9318
▁cau	-11.9328
dated	-11.9332
▁consul	-11.9334
arily	-11.9355
▁refu	-11.9356
▁squeal	-11.937
cino	-11.9383
racks	-11.9388
▁bee	-11.9408
few	-11.9419
▁lee	-11.9421
▁machin	-11.9425
doubted	-11.9428
▁matte	-11.9443
▁stir	-11.9449
lia	-11.9469
▁mini	-11.947
suit	-11.9474
▁lickin	-11.9476
▁moan	-11.9476
augh	-11.9478
▁occur	-11.9486
dale	-11.9488
▁cri	-11.9488
▁slop	-11.9491
▁cyril	-11.9496
▁vibration	-11.9497
▁giri	-11.9499
▁snob	-11.9499
▁relic	-11.9505
▁fraction	-11.9505
gway	-11.9508
▁spider	-11.9509
▁navigat	-11.951
▁explosive	-11.951
▁antiqu	-11.9513
▁knuckle	-11.9514
▁appearance	-11.9515
▁noodle	-11.9516
▁temp	-11.9516
▁associate	-11.9519
▁zorgon	-11.952
▁ancestor	-11.952
tov	-11.9526
▁dose	-11.9526
▁sai	-11.9527
▁howl	-11.9527
▁missile	-11.9527
▁teammate	-11.9531
have	-11.9534
▁ach	-11.9537
ask	-11.9538
six	-11.9543
▁supplie	-11.9543
nco	-11.9545
▁alph	-11.9545
▁stab	-11.9546
zed	-11.9549
nuck	-11.955
▁gag	-11.9551
kid	-11.9553
▁tool	-11.9557
▁decre	-11.9558
brows	-11.9562
▁koen	-11.9562
sses	-11.9566
▁qualif	-11.9568
eating	-11.9582
rched	-11.9591
▁slo	-11.96
▁industr	-11.9609
▁advis	-11.9612
▁receiv	-11.9617
▁ado	-11.9618
▁shredd	-11.962
hood	-11.9621
breath	-11.9623
▁clam	-11.9625
q	-11.9625
▁dread	-11.9636
▁bei	-11.9637
oof	-11.9638
▁profession	-11.9639
opping	-11.9641
andon	-11.9646
▁recruit	-11.9649
▁trespass	-11.9649
▁applaud	-11.965
friend	-11.9651
▁shour	-11.9653
inlaw	-11.9653
▁vent	-11.9655
▁divid	-11.9656
minute	-11.9658
▁diploma	-11.966
▁absorb	-11.9662
▁devastat	-11.9662
▁ambush	-11.9662
▁smack	-11.9666
▁slim	-11.9666
mill	-11.9666
▁possess	-11.9666
▁intimidat	-11.9666
▁devot	-11.9666
▁anoint	-11.9667
whom	-11.9667
stage	-11.9668
urge	-11.9668
wide	-11.9669
point	-11.9669
aaaa	-11.9669
accounted	-11.967
tasha	-11.967
▁alleg	-11.967
wipe	-11.9671
human	-11.9672
hubba	-11.9672
firm	-11.9672
eaten	-11.9672
folk	-11.9672
world	-11.9672
scotch	-11.9672
transmitter	-11.9672
dancer	-11.9672
temporary	-11.9672
covered	-11.9672
grave	-11.9673
grade	-11.9673
worm	-11.9673
loaf	-11.9673
hawk	-11.9673
flip	-11.9673
screen	-11.9673
▁squa	-11.9673
teacher	-11.9673
text	-11.9673
correct	-11.9674
julie	-11.9674
seek	-11.9674
center	-11.9674
tooth	-11.9674
mouth	-11.9674
week	-11.9674
▁forge	-11.9674
strange	-11.9674
walk	-11.9674
third	-11.9674
help	-11.9674
cause	-11.9674
first	-11.9674
yeah	-11.9674
▁tuscan	-11.9675
forward	-11.9675
▁skyl	-11.9675
▁rubb	-11.9675
▁happi	-11.9675
fare	-11.9676
loving	-11.9676
weii	-11.9676
charge	-11.9676
phone	-11.9677
double	-11.9677
▁grizzl	-11.9677
ilio	-11.9677
▁vale	-11.9677
▁mercenar	-11.9677
alalala	-11.9678
▁merci	-11.9678
▁conclude	-11.9678
▁uphol	-11.9678
throw	-11.9678
▁chor	-11.9679
super	-11.9679
large	-11.9679
▁electro	-11.9679
▁relate	-11.9679
coat	-11.968
▁execute	-11.968
▁emergenc	-11.968
▁confuse	-11.968
▁beyon	-11.968
lick	-11.968
▁regulat	-11.9681
force	-11.9681
▁strik	-11.9681
▁salva	-11.9681
▁pursue	-11.9681
alice	-11.9683
tight	-11.9684
moon	-11.9684
▁fulfill	-11.9684
▁accommodat	-11.9684
zel	-11.9684
▁extreme	-11.9685
▁griev	-11.9685
▁definite	-11.9685
▁shuffl	-11.9685
▁numb	-11.9686
guard	-11.9686
▁deceive	-11.9687
▁scatt	-11.9687
▁clea	-11.9688
thank	-11.9688
▁hallucinat	-11.9688
based	-11.9689
zone	-11.9689
around	-11.9689
▁armad	-11.9689
▁atlant	-11.969
igue	-11.969
▁occup	-11.9691
▁concei	-11.9691
aiiy	-11.9691
▁enforce	-11.9692
master	-11.9692
high	-11.9692
▁dum	-11.9693
dont	-11.9693
▁loon	-11.9693
uate	-11.9693
▁maze	-11.9693
▁dancin	-11.9694
▁chrom	-11.9694
▁prettie	-11.9694
▁commun	-11.9695
ualize	-11.9695
rinkle	-11.9695
▁disc	-11.9695
scription	-11.9695
▁majesti	-11.9695
minded	-11.9695
▁darlin	-11.9695
▁reflect	-11.9695
cision	-11.9695
▁punctual	-11.9695
▁ruff	-11.9695
▁inhal	-11.9695
▁restrain	-11.9696
▁esc	-11.9696
▁substan	-11.9696
▁anarch	-11.9696
▁mobiliz	-11.9696
▁orient	-11.9696
▁adel	-11.9696
▁violen	-11.9696
▁resembl	-11.9696
▁serpent	-11.9697
nfair	-11.9697
▁sprit	-11.9697
saurus	-11.9697
ourseives	-11.9697
▁dyna	-11.9697
roach	-11.9697
srael	-11.9697
▁andonandon	-11.9697
▁koushik	-11.9697
▁diabet	-11.9697
harmonic	-11.9697
lamour	-11.9697
ruck	-11.9697
▁asphyx	-11.9697
▁immigra	-11.9697
▁physiolog	-11.9697
abolic	-11.9697
effic	-11.9697
nbaum	-11.9697
ophobia	-11.9697
terrence	-11.9697
▁abroad	-11.9697
▁afterlife	-11.9697
▁akbar	-11.9697
▁akrennian	-11.9697
▁alabama	-11.9697
▁analyze	-11.9697
▁antarctic	-11.9697
▁anxiet	-11.9697
▁approval	-11.9697
▁aptitude	-11.9697
▁arabic	-11.9697
▁archaic	-11.9697
▁archbold	-11.9697
▁arthriti	-11.9697
▁ascent	-11.9697
▁assailant	-11.9697
▁babbling	-11.9697
▁bahamas	-11.9697
▁banksmackenzie	-11.9697
▁barbaric	-11.9697
▁bedazzle	-11.9697
▁beefsteak	-11.9697
▁berkeley	-11.9697
▁bizarre	-11.9697
▁bjorn	-11.9697
▁bleach	-11.9697
▁blimey	-11.9697
▁blintzes	-11.9697
▁blizzard	-11.9697
▁bloomington	-11.9697
▁blossom	-11.9697
▁boulder	-11.9697
▁bridetobe	-11.9697
▁brittany	-11.9697
▁brokaw	-11.9697
▁bubbly	-11.9697
▁bundle	-11.9697
▁burrito	-11.9697
▁butbut	-11.9697
▁cakeeater	-11.9697
▁calculator	-11.9697
▁captivity	-11.9697
▁carnivorous	-11.9697
▁catlady	-11.9697
▁cavity	-11.9697
▁centaur	-11.9697
▁centimeters	-11.9697
▁ceremonies	-11.9697
▁chariot	-11.9697
▁chepstow	-11.9697
▁clemens	-11.9697
▁climate	-11.9697
▁clobber	-11.9697
▁cockaleekie	-11.9697
▁colorado	-11.9697
▁complication	-11.9697
▁confine	-11.9697
▁confusing	-11.9697
▁confusion	-11.9697
▁congeniality	-11.9697
▁conquest	-11.9697
▁contempt	-11.9697
▁cradle	-11.9697
▁curiosity	-11.9697
▁cyborg	-11.9697
▁dammit	-11.9697
▁davies	-11.9697
▁dedication	-11.9697
▁definition	-11.9697
▁demeaning	-11.9697
▁democracy	-11.9697
▁demure	-11.9697
▁destabili	-11.9697
▁detention	-11.9697
▁determination	-11.9697
▁deux	-11.9697
▁devour	-11.9697
▁diarrhea	-11.9697
▁dictabird	-11.9697
▁dignified	-11.9697
▁dinosaur	-11.9697
▁discomfort	-11.9697
▁doorknob	-11.9697
▁doraze	-11.9697
▁dribble	-11.9697
▁duluth	-11.9697
▁dutch	-11.9697
▁eccentric	-11.9697
▁elcott	-11.9697
▁eleanor	-11.9697
▁embezzle	-11.9697
▁enquirer	-11.9697
▁entitled	-11.9697
▁errand	-11.9697
▁essay	-11.9697
▁exborneo	-11.9697
▁excellence	-11.9697
▁excelsior	-11.9697
▁exterminate	-11.9697
▁fanciful	-11.9697
▁feminine	-11.9697
▁fiasco	-11.9697
▁fiddleyio	-11.9697
▁fleaflicker	-11.9697
▁foraze	-11.9697
▁franchise	-11.9697
▁freezedried	-11.9697
▁frequent	-11.9697
▁fuzzball	-11.9697
▁gagarin	-11.9697
▁generosity	-11.9697
▁gephardt	-11.9697
▁glaze	-11.9697
▁gluten	-11.9697
▁goldilocks	-11.9697
▁graduating	-11.9697
▁grease	-11.9697
▁griffin	-11.9697
▁grissom	-11.9697
▁grumble	-11.9697
▁gurgl	-11.9697
▁haiku	-11.9697
▁harlem	-11.9697
▁heinlein	-11.9697
▁herald	-11.9697
▁hiidegarde	-11.9697
▁hitchhike	-11.9697
▁houdini	-11.9697
▁humongous	-11.9697
▁hygiene	-11.9697
▁identical	-11.9697
▁ignition	-11.9697
▁ingalls	-11.9697
▁initiation	-11.9697
▁injustice	-11.9697
▁innocence	-11.9697
▁insanity	-11.9697
▁intense	-11.9697
▁interfering	-11.9697
▁iralia	-11.9697
▁irregular	-11.9697
▁jasmine	-11.9697
▁jeopardy	-11.9697
▁jetpack	-11.9697
▁juarez	-11.9697
▁jumbo	-11.9697
▁juvenile	-11.9697
▁kenneth	-11.9697
▁kittridge	-11.9697
▁koolaid	-11.9697
▁koopas	-11.9697
▁kosta	-11.9697
▁kovacs	-11.9697
▁krull	-11.9697
▁krypton	-11.9697
▁ladyinwaiting	-11.9697
▁lazarus	-11.9697
▁leather	-11.9697
▁leprechaun	-11.9697
▁lesbian	-11.9697
▁librarian	-11.9697
▁literature	-11.9697
▁lolley	-11.9697
▁mackerel	-11.9697
▁makebelieve	-11.9697
▁malfoy	-11.9697
▁manufactur	-11.9697
▁marvellous	-11.9697
▁masculine	-11.9697
▁matllde	-11.9697
▁memorial	-11.9697
▁mexica	-11.9697
▁microchip	-11.9697
▁mikhail	-11.9697
▁misselthwaite	-11.9697
▁mistletoe	-11.9697
▁misunderstood	-11.9697
▁mittens	-11.9697
▁mitzvah	-11.9697
▁molitor	-11.9697
▁monument	-11.9697
▁mosquito	-11.9697
▁mozart	-11.9697
▁multiplication	-11.9697
▁muzzle	-11.9697
▁myseif	-11.9697
▁narragansett	-11.9697
▁nelson	-11.9697
▁nissan	-11.9697
▁nitrog	-11.9697
▁nominee	-11.9697
▁nonetheless	-11.9697
▁nuhuh	-11.9697
▁oatmeal	-11.9697
▁oppressed	-11.9697
▁overflow	-11.9697
▁overpower	-11.9697
▁overreact	-11.9697
▁pantyhose	-11.9697
▁parody	-11.9697
▁parrot	-11.9697
▁pasandas	-11.9697
▁patterson	-11.9697
▁peripheral	-11.9697
▁persuasion	-11.9697
▁phobia	-11.9697
▁phyllis	-11.9697
▁picasso	-11.9697
▁pineapple	-11.9697
▁pipsqueak	-11.9697
▁pitchfork	-11.9697
▁playground	-11.9697
▁polyester	-11.9697
▁porcupine	-11.9697
▁porridge	-11.9697
▁predicament	-11.9697
▁premature	-11.9697
▁prevlov	-11.9697
▁prioritize	-11.9697
▁prophet	-11.9697
▁provisions	-11.9697
▁pterodactyl	-11.9697
▁qualities	-11.9697
▁quarantine	-11.9697
▁raphael	-11.9697
▁rascal	-11.9697
▁reepicheep	-11.9697
▁reeves	-11.9697
▁rejuvenat	-11.9697
▁retropackage	-11.9697
▁roleplaying	-11.9697
▁roosevelt	-11.9697
▁sabotage	-11.9697
▁safekeeping	-11.9697
▁safflower	-11.9697
▁sanchez	-11.9697
▁scooch	-11.9697
▁scrim	-11.9697
▁selvam	-11.9697
▁serfs	-11.9697
▁shakespeare	-11.9697
▁shalhoop	-11.9697
▁shantytown	-11.9697
▁shoulda	-11.9697
▁shrieks	-11.9697
▁shrimp	-11.9697
▁shrunk	-11.9697
▁shudder	-11.9697
▁shunned	-11.9697
▁skyscraper	-11.9697
▁slizzard	-11.9697
▁slunk	-11.9697
▁smurfblossom	-11.9697
▁sniper	-11.9697
▁snowflake	-11.9697
▁sociology	-11.9697
▁socrates	-11.9697
▁sovereign	-11.9697
▁soysages	-11.9697
▁splutter	-11.9697
▁steadily	-11.9697
▁stepmother	-11.9697
▁stockholm	-11.9697
▁stohler	-11.9697
▁strife	-11.9697
▁suborbit	-11.9697
▁sunglasses	-11.9697
▁symptoms	-11.9697
▁talisman	-11.9697
▁taxpayer	-11.9697
▁teresa	-11.9697
▁terrace	-11.9697
▁terrier	-11.9697
▁testimony	-11.9697
▁thoroughbred	-11.9697
▁thunderstorm	-11.9697
▁thwart	-11.9697
▁tiff	-11.9697
▁tissue	-11.9697
▁tkani	-11.9697
▁tolstoy	-11.9697
▁toothbrush	-11.9697
▁topotrepolovsky	-11.9697
▁tornado	-11.9697
▁tourniquet	-11.9697
▁transfusion	-11.9697
▁trantridge	-11.9697
▁tremble	-11.9697
▁truffle	-11.9697
▁turquoise	-11.9697
▁unacceptable	-11.9697
▁uncertain	-11.9697
▁underestimating	-11.9697
▁unikitty	-11.9697
▁universal	-11.9697
▁unsuccessful	-11.9697
▁untouch	-11.9697
▁usefui	-11.9697
▁valkyrie	-11.9697
▁vandercave	-11.9697
▁vanechka	-11.9697
▁vector	-11.9697
▁velvet	-11.9697
▁venezuela	-11.9697
▁vishnu	-11.9697
▁vulgar	-11.9697
▁wagner	-11.9697
▁ynyr	-11.9697
▁yoatl	-11.9697
▁youtube	-11.9697
▁yuri	-11.9697
▁yurt	-11.9697
▁zenkman	-11.9697
▁zombie	-11.9697
▁zorbas	-11.9697
curricul	-11.9697
▁actuator	-11.9697
▁alakazoo	-11.9697
▁assault	-11.9697
▁bandido	-11.9697
▁bennett	-11.9697
▁celtic	-11.9697
▁devon	-11.9697
▁discourage	-11.9697
▁exploit	-11.9697
▁extinguish	-11.9697
▁fathom	-11.9697
▁lamplighter	-11.9697
▁lombard	-11.9697
▁obstructi	-11.9697
▁premier	-11.9697
▁snuff	-11.9697
▁teleport	-11.9697
▁vouch	-11.9697
▁wiseguy	-11.9697
▁afflict	-11.9697
▁ahahah	-11.9697
▁beads	-11.9697
▁bolander	-11.9697
▁carnivores	-11.9697
▁contemplat	-11.9697
▁coveted	-11.9697
▁dilation	-11.9697
▁doorstep	-11.9697
▁gentoos	-11.9697
▁golilla	-11.9697
▁incompa	-11.9697
▁intake	-11.9697
▁intellect	-11.9697
▁inviting	-11.9697
▁jolt	-11.9697
▁kimura	-11.9697
▁kwon	-11.9697
▁licence	-11.9697
▁madonna	-11.9697
▁markowe	-11.9697
▁mayhew	-11.9697
▁morehouse	-11.9697
▁neek	-11.9697
▁novice	-11.9697
▁nudity	-11.9697
▁operative	-11.9697
▁palmyra	-11.9697
▁paranoid	-11.9697
▁peepee	-11.9697
▁pork	-11.9697
▁protein	-11.9697
▁revolting	-11.9697
▁rupee	-11.9697
▁saloon	-11.9697
▁sciatic	-11.9697
▁sodium	-11.9697
▁stocktak	-11.9697
▁sustain	-11.9697
▁tahiti	-11.9697
▁terrain	-11.9697
▁thefts	-11.9697
▁unruly	-11.9697
▁whereabouts	-11.9697
▁wield	-11.9697
▁barrier	-11.9697
▁defrost	-11.9697
▁docile	-11.9697
▁gravitat	-11.9697
▁mcgr	-11.9697
▁muddle	-11.9697
▁nassau	-11.9697
▁reenter	-11.9697
▁siiiy	-11.9697
▁sputter	-11.9697
▁submarsble	-11.9697
▁wheezing	-11.9697
▁apprais	-11.9697
▁clog	-11.9697
▁ddid	-11.9697
▁discount	-11.9697
▁pierre	-11.9697
▁repuls	-11.9697
▁rudolph	-11.9697
▁skunk	-11.9697
▁subdue	-11.9697
▁sumner	-11.9697
▁superfl	-11.9697
▁tonsils	-11.9697
▁urine	-11.9697
hilar	-11.9697
owski	-11.9697
▁asia	-11.9697
▁forcing	-11.9697
▁hilton	-11.9697
▁madrid	-11.9697
▁parasite	-11.9697
▁scarier	-11.9697
▁visibility	-11.9697
ogogo	-11.9697
▁cardinals	-11.9697
▁ensure	-11.9697
▁pact	-11.9697
▁spectacle	-11.9697
▁spoonfuls	-11.9697
▁trousers	-11.9697
▁alisha	-11.9697
▁drinian	-11.9697
▁massacre	-11.9697
▁mistreat	-11.9697
▁prohibit	-11.9697
▁redeem	-11.9697
▁scope	-11.9697
▁simulat	-11.9697
▁staircase	-11.9697
▁tweed	-11.9697
▁anandi	-11.9697
▁functioning	-11.9697
▁disappearances	-11.9697
▁embark	-11.9697
▁impostor	-11.9697
▁lorna	-11.9697
▁pumas	-11.9697
▁francesca	-11.9697
▁iast	-11.9697
▁spleen	-11.9697
▁flirt	-11.9697
▁thrive	-11.9697
▁delusion	-11.9697
▁purd	-11.9697
▁beanstalk	-11.9697
▁finis	-11.9697
▁grits	-11.9697
▁mayhen	-11.9697
▁typists	-11.9697
▁vendetta	-11.9697
▁intensi	-11.9697
▁ohhhohh	-11.9697
▁shroud	-11.9697
mmel	-11.9697
▁accelerat	-11.9697
▁craftsman	-11.9697
▁defence	-11.9697
▁platitude	-11.9697
▁backslid	-11.9697
▁grammy	-11.9697
▁cheerleading	-11.9697
▁gerbil	-11.9697
▁oxford	-11.9697
▁cruz	-11.9697
▁nerys	-11.9697
▁recess	-11.9697
▁visible	-11.9697
▁beiong	-11.9697
▁casualties	-11.9697
▁hamstring	-11.9697
▁immun	-11.9697
▁raisins	-11.9697
▁silk	-11.9697
▁adapt	-11.9697
▁laurel	-11.9697
▁turlock	-11.9697
munition	-11.9697
▁application	-11.9698
▁boobs	-11.9698
▁righteous	-11.9698
▁briggs	-11.9698
▁cherries	-11.9698
▁cigars	-11.9698
▁precaution	-11.9698
inues	-11.9698
▁backbone	-11.9698
▁bleating	-11.9698
▁ingrid	-11.9698
▁saturn	-11.9698
▁bankruptcy	-11.9698
▁bureau	-11.9698
▁twig	-11.9698
▁wolve	-11.9698
▁bandits	-11.9698
▁zebra	-11.9698
▁toothpaste	-11.9698
▁veritabl	-11.9698
▁thirtyfive	-11.9698
▁counterfeit	-11.9698
▁petersburg	-11.9698
▁ribbon	-11.9698
▁smug	-11.9698
▁distincti	-11.9698
▁vague	-11.9698
▁pinwheel	-11.9698
▁cashier	-11.9698
▁bulldog	-11.9698
▁guran	-11.9698
▁overheard	-11.9698
▁rhin	-11.9698
▁sanctuary	-11.9698
▁creole	-11.9698
▁evaluation	-11.9698
▁harmonica	-11.9698
▁prescription	-11.9698
▁rigged	-11.9698
▁tiara	-11.9698
▁lilly	-11.9698
▁therapist	-11.9698
▁knitting	-11.9698
▁repent	-11.9698
▁confront	-11.9698
▁mixture	-11.9698
▁resourceful	-11.9698
▁quartet	-11.9698
▁clover	-11.9698
▁motorcar	-11.9698
▁grudge	-11.9698
▁mantle	-11.9698
▁stimulating	-11.9698
▁steep	-11.9698
▁bulletins	-11.9698
▁decoy	-11.9698
▁loathe	-11.9698
▁overlapping	-11.9698
▁stunning	-11.9698
▁snotty	-11.9698
▁millfield	-11.9698
▁notified	-11.9698
▁enthusiastic	-11.9698
▁magnif	-11.9698
▁neurotic	-11.9698
▁thornton	-11.9698
▁welcoming	-11.9698
▁dominated	-11.9698
▁gawking	-11.9698
▁segregation	-11.9698
▁stewart	-11.9698
▁accessoriz	-11.9698
▁crump	-11.9698
sighted	-11.9698
▁occupant	-11.9698
▁uptight	-11.9698
▁burial	-11.9698
hili	-11.9698
▁irid	-11.9698
sprained	-11.9698
▁prosper	-11.9698
▁axe	-11.9698
▁bonita	-11.9698
▁chuff	-11.9698
▁millard	-11.9698
▁offence	-11.9698
▁pending	-11.9698
▁glee	-11.9698
▁upsidedown	-11.9698
▁depriv	-11.9698
▁recreat	-11.9698
▁bienven	-11.9698
▁antenna	-11.9698
▁agility	-11.9698
▁pitiful	-11.9698
▁flourish	-11.9698
▁flour	-11.9698
▁orientation	-11.9698
▁overcome	-11.9698
▁lipstick	-11.9698
▁doggie	-11.9698
▁prominent	-11.9698
▁railway	-11.9698
▁cult	-11.9698
▁inflexible	-11.9698
▁stepsister	-11.9698
▁nutritio	-11.9698
▁contestant	-11.9698
▁fishermen	-11.9698
▁anarchist	-11.9698
▁introduction	-11.9698
easure	-11.9698
▁intuitive	-11.9698
▁tourism	-11.9698
▁organism	-11.9698
▁sinned	-11.9699
▁martinez	-11.9699
▁yahoo	-11.9699
dellver	-11.9699
ejunior	-11.9699
▁canned	-11.9699
▁purr	-11.9699
▁slurps	-11.9699
long	-11.9699
▁kolp	-11.9699
sbee	-11.9699
▁downfield	-11.9699
▁refresh	-11.9699
▁retrieval	-11.9699
▁righteousness	-11.9699
▁excessive	-11.9699
▁jules	-11.9699
▁crawley	-11.9699
▁network	-11.9699
▁carpentar	-11.9699
▁guatemalan	-11.9699
▁disturbance	-11.9699
▁mottola	-11.9699
rrent	-11.9699
▁buggy	-11.9699
▁blott	-11.9699
▁bolted	-11.9699
▁stoop	-11.9699
▁absent	-11.9699
▁numerous	-11.9699
▁slant	-11.9699
▁flint	-11.9699
▁groundhog	-11.9699
▁overall	-11.9699
▁surroundings	-11.9699
▁swirl	-11.9699
▁oink	-11.9699
▁nettie	-11.9699
▁infectious	-11.9699
▁whatwhat	-11.9699
▁earliest	-11.9699
▁delhi	-11.9699
▁bugging	-11.9699
▁merri	-11.9699
▁snooty	-11.9699
▁output	-11.9699
▁tolera	-11.9699
▁tolley	-11.9699
▁circum	-11.9699
▁shrub	-11.9699
▁yia	-11.9699
▁chorus	-11.97
▁interface	-11.97
▁filter	-11.97
▁irre	-11.97
▁sophia	-11.97
▁bribe	-11.97
▁wirh	-11.97
▁studio	-11.97
▁tapping	-11.97
▁gloom	-11.97
▁transformation	-11.97
▁civilized	-11.97
▁shiver	-11.97
▁itit	-11.97
▁windowsill	-11.97
▁upload	-11.97
▁bab	-11.97
▁drastic	-11.97
▁courtroom	-11.97
▁ceti	-11.97
▁yank	-11.97
▁huff	-11.97
▁wrinkle	-11.97
▁fatso	-11.97
▁catastrophe	-11.97
▁envelope	-11.97
▁truce	-11.97
tinct	-11.97
▁ruthless	-11.97
▁evis	-11.97
▁turold	-11.97
▁juno	-11.97
▁cawing	-11.97
▁lesions	-11.97
yweds	-11.97
▁termination	-11.97
▁salvation	-11.97
utical	-11.97
sotto	-11.97
▁heii	-11.97
▁crippl	-11.97
▁armenia	-11.97
▁depression	-11.9701
▁barren	-11.9701
▁nyah	-11.9701
hibi	-11.9701
▁spice	-11.9701
mercial	-11.9701
▁coria	-11.9701
▁creative	-11.9701
▁loco	-11.9701
▁roster	-11.9701
▁generator	-11.9701
▁seville	-11.9701
▁snapped	-11.9701
▁reduction	-11.9701
▁efficient	-11.9701
plex	-11.9701
▁selective	-11.9701
▁inertia	-11.9701
▁insure	-11.9701
▁paffe	-11.9701
▁maim	-11.9701
▁hypnotize	-11.9701
▁eyewitnesses	-11.9701
▁refugees	-11.9701
▁clockwork	-11.9701
▁hors	-11.9701
ogery	-11.9701
▁navigator	-11.9701
▁chunk	-11.9701
▁footprint	-11.9701
▁elian	-11.9701
▁personalities	-11.9701
acles	-11.9701
▁unison	-11.9701
biood	-11.9701
▁melan	-11.9701
▁affection	-11.9701
▁awol	-11.9701
▁info	-11.9702
▁limitless	-11.9702
▁polar	-11.9702
▁enchantment	-11.9702
▁drought	-11.9702
▁certifiable	-11.9702
▁evolved	-11.9702
▁patent	-11.9702
hardt	-11.9702
▁toby	-11.9702
▁achievement	-11.9702
▁mazel	-11.9702
▁litter	-11.9702
▁cruelty	-11.9702
▁semi	-11.9702
▁minus	-11.9702
▁crossfire	-11.9702
▁potty	-11.9702
▁feline	-11.9703
▁critter	-11.9703
▁darkroom	-11.9703
▁dodo	-11.9703
▁karen	-11.9703
▁occupation	-11.9703
▁ietter	-11.9703
▁churchill	-11.9703
▁disgraceful	-11.9703
▁alva	-11.9703
▁attendant	-11.9703
▁heroism	-11.9703
▁rang	-11.9703
▁drab	-11.9703
▁springtime	-11.9703
▁tyrell	-11.9703
▁audaci	-11.9703
▁angie	-11.9703
▁blowfish	-11.9703
▁seattle	-11.9703
▁eligible	-11.9703
▁plumbing	-11.9703
▁sensible	-11.9703
▁arabia	-11.9703
▁brass	-11.9704
▁beneficia	-11.9704
▁flounder	-11.9704
▁yacht	-11.9704
▁conceive	-11.9704
▁niro	-11.9704
▁abilities	-11.9704
▁enforcer	-11.9704
▁functions	-11.9704
▁cordon	-11.9704
▁frat	-11.9704
▁scurri	-11.9704
▁senor	-11.9704
▁studies	-11.9704
▁sophisticated	-11.9704
▁normai	-11.9704
▁levi	-11.9704
▁redneck	-11.9704
▁appall	-11.9704
▁tampa	-11.9704
▁meadow	-11.9704
▁housekeeper	-11.9705
▁thrusters	-11.9705
dvd	-11.9705
▁witty	-11.9705
▁burke	-11.9705
▁tension	-11.9705
vatory	-11.9705
▁bir	-11.9705
▁thanksgiving	-11.9705
▁participate	-11.9705
▁siege	-11.9705
▁bullshitting	-11.9705
▁sensational	-11.9705
▁expia	-11.9705
▁preparation	-11.9705
▁seduce	-11.9705
▁northwest	-11.9706
▁dub	-11.9706
▁dung	-11.9706
▁maxim	-11.9706
▁angelina	-11.9706
▁pike	-11.9706
▁tahoe	-11.9706
▁hallucination	-11.9706
▁midst	-11.9706
▁asian	-11.9706
▁reep	-11.9707
▁slash	-11.9707
▁clang	-11.9707
▁comedian	-11.9707
▁waist	-11.9707
▁cardboard	-11.9707
▁rockingham	-11.9707
▁monet	-11.9707
▁sept	-11.9707
▁drank	-11.9707
antana	-11.9707
ameter	-11.9707
▁denial	-11.9708
▁cheerful	-11.9708
▁dorm	-11.9708
▁runnerup	-11.9708
llison	-11.9708
▁wavering	-11.9708
▁crucify	-11.9708
equate	-11.9708
▁shaman	-11.9708
▁scrubb	-11.9708
▁seif	-11.9709
▁morality	-11.9709
▁helm	-11.9709
▁mink	-11.9709
▁containment	-11.9709
▁limb	-11.9709
▁oohee	-11.9709
▁stunned	-11.9709
▁assembled	-11.9709
▁obsession	-11.971
▁accompany	-11.971
▁masseu	-11.971
▁slime	-11.971
▁whipper	-11.971
▁bub	-11.971
▁airfield	-11.971
▁robbery	-11.971
▁straightaway	-11.971
▁lester	-11.971
▁edna	-11.971
▁shag	-11.971
▁cortezes	-11.9711
▁weaknesses	-11.9711
▁zan	-11.9711
▁preppy	-11.9711
▁chic	-11.9711
▁dragonfl	-11.9711
terate	-11.9711
▁alphabetical	-11.9711
▁foal	-11.9712
▁fink	-11.9712
▁pupa	-11.9712
▁dede	-11.9712
▁icebox	-11.9712
▁benson	-11.9712
▁dali	-11.9712
ffling	-11.9712
▁lastminute	-11.9712
▁collective	-11.9712
▁shred	-11.9712
▁redbook	-11.9712
▁salvat	-11.9712
shit	-11.9712
▁nightfall	-11.9712
▁hatred	-11.9713
▁anthe	-11.9713
▁dict	-11.9713
▁procession	-11.9713
▁meh	-11.9713
buck	-11.9713
▁wring	-11.9713
▁guin	-11.9713
▁brig	-11.9713
▁seaboard	-11.9714
▁zak	-11.9714
▁blackboard	-11.9714
▁rickie	-11.9714
▁stung	-11.9714
▁accurate	-11.9714
▁milli	-11.9715
ilated	-11.9715
▁unmi	-11.9715
▁pium	-11.9715
▁cabbie	-11.9715
▁bushkin	-11.9715
nosed	-11.9715
▁ironic	-11.9715
▁dow	-11.9716
▁herbie	-11.9716
▁curtis	-11.9716
▁judi	-11.9716
ifying	-11.9716
▁satin	-11.9716
▁recommendation	-11.9716
▁usuai	-11.9716
▁agony	-11.9716
▁tuna	-11.9716
▁lalalala	-11.9717
gantic	-11.9717
▁vertical	-11.9717
▁advertised	-11.9717
▁vested	-11.9717
▁disconnected	-11.9717
▁foggy	-11.9717
trays	-11.9717
▁roundhouse	-11.9717
▁deceived	-11.9717
▁fatter	-11.9718
▁hysterically	-11.9718
▁fearfully	-11.9718
▁turf	-11.9718
▁brushes	-11.9719
▁stance	-11.9719
▁uphold	-11.9719
▁belongings	-11.972
▁bora	-11.972
▁relaxant	-11.972
care	-11.972
▁clause	-11.972
▁gambler	-11.972
▁intruder	-11.972
▁alongside	-11.9721
▁harbor	-11.9721
▁fireplace	-11.9721
▁bert	-11.9721
▁lunchtime	-11.9721
▁meditating	-11.9721
▁restraint	-11.9721
▁nein	-11.9721
disobedience	-11.9722
▁sobe	-11.9722
dox	-11.9722
▁blindness	-11.9722
▁jai	-11.9722
▁greer	-11.9723
▁tono	-11.9723
▁honorary	-11.9723
▁alai	-11.9723
▁woof	-11.9723
nice	-11.9723
▁grub	-11.9723
▁murderers	-11.9723
dden	-11.9724
▁swiftly	-11.9724
▁narrat	-11.9724
▁pickles	-11.9724
▁wander	-11.9724
▁jove	-11.9724
▁cellar	-11.9724
annabe	-11.9726
▁halfback	-11.9726
liet	-11.9726
▁freshen	-11.9726
▁pepe	-11.9726
mia	-11.9726
▁goofy	-11.9726
▁rilla	-11.9727
▁rustle	-11.9727
▁tasha	-11.9727
cial	-11.9727
▁settlers	-11.9727
▁wedge	-11.9727
▁iead	-11.9728
▁sharpen	-11.9728
▁recycle	-11.9728
▁kidder	-11.9729
▁remodeling	-11.9729
▁clunking	-11.9729
▁denying	-11.9729
▁reconditioning	-11.9729
▁sculpting	-11.9729
▁smacked	-11.973
▁alleged	-11.973
rrying	-11.973
▁havin	-11.973
▁freddy	-11.9731
▁rous	-11.9731
▁discussion	-11.9731
▁shr	-11.9732
▁burglar	-11.9732
▁anten	-11.9733
▁lottie	-11.9733
acia	-11.9733
▁primm	-11.9733
▁bueno	-11.9733
▁dens	-11.9733
▁diego	-11.9734
▁wussy	-11.9734
ntysi	-11.9734
▁newbury	-11.9734
▁turd	-11.9735
▁tardy	-11.9736
▁esteem	-11.9736
▁tranquilizer	-11.9736
▁sorcerer	-11.9736
igious	-11.9739
▁emii	-11.9739
▁bowie	-11.9739
▁blockers	-11.974
▁manhood	-11.974
loom	-11.974
▁cosmo	-11.9741
▁justif	-11.9741
▁cameraman	-11.9742
▁christen	-11.9742
▁copies	-11.9743
▁lyrics	-11.9743
▁croissants	-11.9743
▁harpoons	-11.9743
▁hiccups	-11.9743
▁orchids	-11.9743
▁sopranos	-11.9743
▁toxins	-11.9743
▁tshirts	-11.9743
▁halfway	-11.9743
▁idiotic	-11.9743
▁democrats	-11.9743
▁strawberr	-11.9744
▁jose	-11.9744
▁ruby	-11.9745
▁numberone	-11.9745
▁considerable	-11.9745
ario	-11.9746
▁rewrit	-11.9746
spy	-11.9746
▁negroes	-11.9746
▁deadline	-11.9747
iger	-11.9747
▁childish	-11.9748
▁produced	-11.9748
▁hee	-11.9748
▁physics	-11.9749
▁shouring	-11.975
▁bathe	-11.9751
▁workload	-11.9752
ardo	-11.9752
▁passive	-11.9752
▁aching	-11.9755
▁menno	-11.9755
▁beatty	-11.9755
▁bio	-11.9755
idian	-11.9755
▁flopp	-11.9756
pity	-11.9756
▁eliminated	-11.9757
mony	-11.9757
▁shaved	-11.9757
▁crafty	-11.9759
▁eternally	-11.9759
▁moor	-11.976
▁sunup	-11.976
mptie	-11.9761
▁ahem	-11.9761
▁barge	-11.9761
▁llst	-11.9762
▁perfectiy	-11.9763
▁enable	-11.9764
▁chel	-11.9764
▁darken	-11.9764
▁rosen	-11.9765
▁tortured	-11.9766
▁goldie	-11.9766
ffy	-11.9767
▁cleanup	-11.9767
▁flushed	-11.9768
▁invested	-11.9768
▁briefed	-11.9769
▁gw	-11.977
▁sweeper	-11.9771
▁frickin	-11.9771
▁bluffing	-11.9771
ucks	-11.9771
▁lev	-11.9772
eactivate	-11.9773
▁geniuses	-11.9773
▁vir	-11.9776
▁specialty	-11.9778
▁specialist	-11.978
▁strains	-11.9782
▁lep	-11.9783
▁secondary	-11.9785
▁sala	-11.9787
▁stroller	-11.9787
▁yaw	-11.9788
ima	-11.9788
▁physically	-11.9789
▁sweetness	-11.9789
▁sacrificed	-11.9789
▁spat	-11.9789
shed	-11.979
▁pic	-11.9792
ctic	-11.9792
▁rearrang	-11.9792
▁affecting	-11.9793
▁pitches	-11.9794
▁halston	-11.9794
▁hav	-11.9794
icted	-11.9794
▁attempted	-11.9796
▁shutout	-11.9796
▁cooped	-11.9796
▁baking	-11.9796
▁illustrate	-11.9797
▁addict	-11.9798
▁swis	-11.9799
rose	-11.9801
eebie	-11.9801
avo	-11.9802
▁bully	-11.9802
▁rell	-11.9804
iddly	-11.9805
▁mage	-11.9805
▁runway	-11.9806
rher	-11.9806
▁reaches	-11.9806
▁distracted	-11.9807
▁delayed	-11.9807
▁poisoned	-11.9807
▁brushed	-11.9807
▁reminder	-11.9808
▁via	-11.9808
▁macy	-11.9809
▁qualifie	-11.9809
stery	-11.981
▁announced	-11.9812
▁commencing	-11.9813
▁ire	-11.9815
nation	-11.9816
▁howler	-11.9816
▁mcc	-11.9818
▁bellows	-11.9818
▁ambitions	-11.9821
▁enterprises	-11.9821
▁yankees	-11.9821
▁chisels	-11.9821
▁chords	-11.9821
▁altos	-11.9821
▁slippers	-11.9822
▁predictions	-11.9822
▁residents	-11.9822
▁reversed	-11.9822
camo	-11.9822
▁micromanagers	-11.9824
▁geeks	-11.9824
▁jimi	-11.9826
▁fore	-11.9827
▁grun	-11.983
▁decree	-11.9831
▁shackle	-11.9831
▁canceled	-11.9833
▁displayed	-11.9833
▁drained	-11.9833
▁sung	-11.9834
▁steering	-11.9835
arus	-11.9835
ipping	-11.9836
bbed	-11.9838
▁prest	-11.9839
▁wiped	-11.9839
shes	-11.984
▁fury	-11.984
▁soften	-11.9841
▁sic	-11.9841
▁ruler	-11.9841
▁bookies	-11.9842
▁aides	-11.9842
▁coaster	-11.9842
aby	-11.9846
▁pumped	-11.9848
▁portra	-11.9848
▁programmer	-11.9849
▁smashed	-11.985
▁jealousy	-11.9851
▁singin	-11.9851
▁alberta	-11.9853
▁entertaining	-11.9856
▁unman	-11.9856
▁sweaty	-11.9859
ntage	-11.9861
▁vowed	-11.9861
drones	-11.9862
▁jackass	-11.9862
▁nighttime	-11.9862
▁buses	-11.9865
▁toasty	-11.9867
▁sporty	-11.9869
▁taber	-11.987
▁owl	-11.9871
▁stormy	-11.9871
▁recorder	-11.9872
▁heavenly	-11.9874
suits	-11.9878
▁mentoring	-11.988
▁ordina	-11.9881
▁depending	-11.9883
exorcist	-11.9891
▁shifty	-11.9892
mot	-11.9892
asis	-11.9894
▁lass	-11.9895
▁dupe	-11.9895
▁rugge	-11.9896
▁clash	-11.9896
▁smll	-11.9899
▁snobs	-11.99
▁dew	-11.9901
▁tada	-11.9902
▁giris	-11.9902
▁cyrils	-11.9902
▁vibrations	-11.9902
locks	-11.9903
▁fixes	-11.9903
▁fend	-11.9905
▁stacked	-11.9911
▁borrowed	-11.9911
dence	-11.9915
▁ini	-11.9919
▁fishes	-11.9925
▁twisted	-11.9925
leash	-11.9927
▁compelle	-11.9927
▁warmer	-11.9932
▁saucer	-11.9932
▁julia	-11.9934
orse	-11.9937
shelves	-11.9939
▁garb	-11.994
▁mounting	-11.9949
▁lave	-11.9953
quisit	-11.9953
gets	-11.9963
▁bling	-11.9963
▁hangin	-11.9963
▁ern	-11.9964
lett	-11.9964
▁frightening	-11.9964
▁tic	-11.997
▁headon	-11.9972
uro	-11.9972
▁helpful	-11.9975
▁handic	-11.998
▁payin	-11.9982
▁bruises	-11.9984
▁burgers	-11.9984
▁expenses	-11.9984
▁minerals	-11.9984
▁arrows	-11.9984
▁hurricanes	-11.9984
▁merchants	-11.9984
▁microphones	-11.9984
▁nicknames	-11.9984
▁obstacles	-11.9984
▁scalps	-11.9984
▁typewriters	-11.9984
▁severed	-11.9985
▁strands	-11.9985
▁relations	-11.9986
▁gained	-11.999
▁roller	-11.999
rammed	-11.9991
▁sleepin	-11.9992
▁cot	-11.9992
lets	-11.9995
atura	-11.9996
nav	-11.9997
▁collaps	-12.0001
awing	-12.0006
▁risky	-12.0007
▁overlook	-12.0011
▁flyin	-12.0013
▁brav	-12.0013
▁tighter	-12.0018
aunt	-12.0018
▁gand	-12.0018
onomy	-12.0021
▁dealt	-12.0021
▁matey	-12.0023
▁peers	-12.0023
roids	-12.0026
▁walkin	-12.0027
▁fetching	-12.0029
▁thrilling	-12.0029
crimina	-12.0031
uccin	-12.0035
▁darker	-12.0036
▁petro	-12.0038
▁homeless	-12.0038
▁cuba	-12.0039
nished	-12.0042
▁adventurer	-12.0044
▁bugge	-12.005
▁processing	-12.0051
▁lens	-12.0054
quette	-12.0055
tious	-12.0056
▁coed	-12.0057
▁busted	-12.006
▁accounted	-12.0064
▁airplanes	-12.0067
▁athletes	-12.0067
▁castaways	-12.0067
▁elections	-12.0067
▁pistols	-12.0067
▁schemes	-12.0067
▁flippers	-12.0067
▁chicas	-12.0068
▁buggers	-12.0068
forsaken	-12.0073
going	-12.0078
▁breakin	-12.0078
▁poise	-12.0082
assan	-12.0083
▁formed	-12.0085
▁whistled	-12.0089
▁chopp	-12.009
▁fightin	-12.0091
▁winks	-12.0093
▁wheeze	-12.0094
▁stutter	-12.0095
▁quieter	-12.0095
▁anna	-12.0098
▁deci	-12.0098
▁claiming	-12.0099
▁dubb	-12.0107
seen	-12.0114
ador	-12.0115
▁colder	-12.0118
▁tightly	-12.0125
▁modul	-12.0126
▁despise	-12.0129
state	-12.0129
aggot	-12.0131
▁eatin	-12.0136
olds	-12.0137
▁steaming	-12.0137
▁requesting	-12.0137
look	-12.0142
▁origins	-12.0145
▁ruled	-12.0146
▁stakes	-12.015
▁procedures	-12.015
▁satellites	-12.015
▁connections	-12.0151
▁reserves	-12.0152
▁hindus	-12.0155
▁pai	-12.016
antiag	-12.0176
▁skipp	-12.0179
tysix	-12.0187
sick	-12.0197
mashed	-12.0204
▁wip	-12.0206
▁sheen	-12.0208
▁recorded	-12.0213
▁weirder	-12.0219
▁eff	-12.022
integrate	-12.0226
▁stored	-12.0229
rets	-12.023
▁listed	-12.0231
snapper	-12.0239
▁bearer	-12.0248
▁gray	-12.0255
▁gaz	-12.0256
▁charit	-12.0268
▁recit	-12.0269
▁persp	-12.0275
▁clearer	-12.0275
▁rul	-12.0279
▁dealer	-12.0302
▁wei	-12.0302
▁dispers	-12.0306
▁puffs	-12.0308
▁resolve	-12.0309
▁periodical	-12.0325
sychocardiograms	-12.0327
buk	-12.0327
acious	-12.0338
penetra	-12.0347
fall	-12.0352
aloof	-12.0352
▁loop	-12.0356
▁construct	-12.0358
▁rely	-12.0359
annie	-12.0364
▁feeder	-12.0379
▁molt	-12.039
▁vern	-12.0393
▁gai	-12.041
liable	-12.0422
▁terroris	-12.0422
▁ohho	-12.043
▁strat	-12.0432
▁jer	-12.0432
▁fares	-12.0452
▁him	-12.0461
topped	-12.0464
▁baile	-12.0475
cle	-12.0486
▁dryer	-12.0488
▁resi	-12.05
▁fant	-12.0503
▁iv	-12.0505
▁heater	-12.0505
▁bast	-12.0509
▁matri	-12.0522
talk	-12.0524
▁rapt	-12.0526
ureen	-12.0542
▁whipp	-12.0545
▁sla	-12.0563
▁yuko	-12.0616
▁pub	-12.0626
astic	-12.0632
▁lure	-12.0642
▁andr	-12.0665
▁cracker	-12.0683
roy	-12.0691
cassette	-12.0712
appari	-12.0716
▁audi	-12.0758
▁arr	-12.0774
lot	-12.0783
▁edg	-12.0797
▁pred	-12.0803
uke	-12.0831
▁morro	-12.0887
bot	-12.0894
▁roberts	-12.0899
▁heroin	-12.0913
edicated	-12.0938
▁infect	-12.0974
east	-12.1
stak	-12.1067
▁tumble	-12.108
▁promot	-12.1098
▁declar	-12.1106
ison	-12.1146
trance	-12.1152
rc	-12.1156
cadill	-12.1158
aut	-12.1181
ox	-12.1221
rgic	-12.1231
▁tort	-12.1232
▁lis	-12.1238
▁equi	-12.1256
berg	-12.1273
amma	-12.1309
etta	-12.1374
▁distort	-12.1396
▁whom	-12.1402
▁sizzle	-12.1408
▁pledge	-12.1424
version	-12.1439
▁duplicate	-12.1441
ience	-12.1452
▁disabl	-12.1461
evi	-12.1464
ady	-12.1479
▁seize	-12.1499
nny	-12.1535
▁poster	-12.1551
▁anticipate	-12.1578
▁warp	-12.164
▁respectful	-12.1665
▁inni	-12.1665
▁tak	-12.1687
iologist	-12.1708
▁trauma	-12.1752
▁wiz	-12.1762
tri	-12.1831
hank	-12.1845
skinned	-12.1887
▁mea	-12.1892
▁lefthand	-12.19
ammed	-12.1917
laid	-12.1919
anita	-12.1925
▁def	-12.1934
hog	-12.1976
oreo	-12.2003
enance	-12.2004
▁shee	-12.2005
cious	-12.2006
▁truthful	-12.2027
▁traumati	-12.2037
tric	-12.2038
▁radi	-12.207
teau	-12.2097
other	-12.2105
uge	-12.214
dad	-12.2171
▁terrib	-12.2175
▁skinn	-12.2236
liva	-12.2244
inny	-12.2262
onne	-12.2321
ired	-12.2352
shop	-12.2383
▁hami	-12.2416
wan	-12.2421
anne	-12.2427
▁disguis	-12.2467
rett	-12.2492
ocus	-12.2514
▁deli	-12.2523
▁sig	-12.2525
▁marti	-12.254
▁zo	-12.2554
odes	-12.2558
vile	-12.2612
miss	-12.2615
ku	-12.2625
▁encourag	-12.2641
▁promote	-12.2645
▁jenn	-12.2651
▁repli	-12.2688
▁mort	-12.2715
▁nob	-12.2715
mois	-12.2716
▁valentin	-12.2741
▁flap	-12.2799
▁prais	-12.2803
tant	-12.2846
cello	-12.2864
feit	-12.2864
▁infectio	-12.2911
▁clan	-12.2913
ladi	-12.2927
lapping	-12.293
▁chit	-12.2944
▁clipp	-12.2962
ndale	-12.2963
▁rut	-12.2978
▁hel	-12.2981
▁vai	-12.2985
van	-12.2988
spring	-12.3017
▁occasional	-12.3048
eeding	-12.3064
liest	-12.3098
ider	-12.31
▁provid	-12.3101
solved	-12.3102
very	-12.3112
▁prep	-12.3174
▁fav	-12.321
got	-12.3214
fore	-12.3219
▁shov	-12.3239
lut	-12.325
razi	-12.3252
hap	-12.327
last	-12.3297
▁pec	-12.3297
▁nov	-12.3317
▁yuk	-12.3355
▁bib	-12.3416
▁cruis	-12.3437
▁verb	-12.3457
▁hog	-12.3478
▁retrac	-12.349
mber	-12.3514
▁medic	-12.3553
▁inhuman	-12.356
▁remov	-12.3569
je	-12.3586
aint	-12.359
▁enchante	-12.3599
▁devi	-12.3601
▁theja	-12.3605
trap	-12.3619
▁fenc	-12.3641
duced	-12.3731
faw	-12.379
kar	-12.3824
▁swe	-12.3874
▁mig	-12.3878
elo	-12.389
▁seduc	-12.3896
ology	-12.3902
▁loui	-12.3948
him	-12.3972
avera	-12.3994
▁smo	-12.4019
loops	-12.4022
lusive	-12.4025
etera	-12.4029
xistent	-12.4038
kovic	-12.4048
examination	-12.4059
cci	-12.4127
▁infl	-12.4135
▁forsak	-12.4137
lateral	-12.4147
crackers	-12.4147
ille	-12.416
▁spl	-12.4182
amer	-12.4192
agna	-12.4211
▁rot	-12.4215
mond	-12.4222
rek	-12.4232
holders	-12.4232
▁addresse	-12.424
▁chapl	-12.4256
▁settl	-12.4281
itted	-12.4286
quis	-12.4292
▁choos	-12.4316
deli	-12.4325
▁spik	-12.4325
▁tow	-12.4328
dda	-12.4341
▁flo	-12.4352
▁legit	-12.4357
hot	-12.4364
rock	-12.438
▁aggress	-12.4392
ndri	-12.4394
▁plac	-12.4401
▁fli	-12.4409
▁compel	-12.4419
▁comme	-12.443
▁hoho	-12.4436
▁involv	-12.4457
▁huggin	-12.4462
▁cough	-12.4471
ranked	-12.4472
isti	-12.4473
hoe	-12.4475
▁slipper	-12.4479
▁roar	-12.4483
meter	-12.4488
▁vandal	-12.449
▁troubl	-12.4494
pilot	-12.4497
▁groan	-12.4497
▁enterprise	-12.4498
oya	-12.4498
▁chisel	-12.4498
▁ambition	-12.4498
▁yankee	-12.4498
▁rende	-12.4501
liente	-12.4503
▁prediction	-12.4504
▁resident	-12.4504
▁threequarter	-12.4507
▁goblin	-12.4507
▁ounce	-12.4509
approving	-12.4509
keeper	-12.4512
▁molecule	-12.4512
▁sausage	-12.4513
▁micromanager	-12.4514
▁gadget	-12.4517
▁gallon	-12.4519
eii	-12.452
mom	-12.4522
▁donut	-12.4525
▁rapid	-12.4526
▁fork	-12.453
▁robber	-12.4532
▁chord	-12.4533
▁instruction	-12.4535
▁geek	-12.4539
▁oop	-12.4542
▁bellow	-12.4544
▁sewer	-12.4552
▁alto	-12.456
▁robotic	-12.4564
▁sympath	-12.4566
▁mammal	-12.4567
▁flak	-12.4577
anza	-12.4579
coon	-12.4582
avon	-12.4585
parts	-12.4592
▁aide	-12.4593
▁fag	-12.4596
rambling	-12.4598
bies	-12.4605
▁appea	-12.4608
▁franc	-12.4616
▁stat	-12.4618
▁grin	-12.462
▁yabbadabbadabba	-12.4624
▁offend	-12.4625
luxe	-12.4628
▁butch	-12.4629
▁bog	-12.463
▁viri	-12.4632
▁mechanic	-12.4633
▁sorcer	-12.4634
▁advanc	-12.4634
ream	-12.4635
odeled	-12.4636
rnets	-12.4637
liciously	-12.4637
rocket	-12.464
▁jig	-12.4643
▁melt	-12.4643
▁sculpt	-12.4645
▁clunk	-12.4645
▁recondition	-12.4645
zak	-12.4645
▁counsel	-12.4645
▁mooch	-12.4646
ropo	-12.4646
oops	-12.4647
searching	-12.4648
▁multi	-12.4649
▁jest	-12.4651
reading	-12.4651
ddling	-12.4651
▁engrav	-12.4651
▁fascinat	-12.4652
worth	-12.4652
▁tranquiliz	-12.4652
▁disgust	-12.4652
▁activat	-12.4654
itori	-12.4655
▁theatr	-12.4655
▁recogniz	-12.4656
earned	-12.4657
plate	-12.4657
▁convinc	-12.4658
imb	-12.4658
handler	-12.4658
▁gamble	-12.466
▁intrude	-12.466
▁author	-12.466
▁atten	-12.466
earth	-12.4661
▁promis	-12.4661
turn	-12.4661
▁suppos	-12.4661
giving	-12.4661
▁enlighten	-12.4662
▁squish	-12.4662
▁suspend	-12.4662
jama	-12.4663
merci	-12.4664
▁deny	-12.4665
▁concentr	-12.4665
▁advertis	-12.4665
▁abduct	-12.4665
▁disconnect	-12.4666
▁reassign	-12.4667
blaze	-12.4667
▁overwhelm	-12.4667
conduct	-12.4668
ridge	-12.4668
▁harbo	-12.4668
▁es	-12.4668
▁engag	-12.4669
ullah	-12.467
missile	-12.467
accurate	-12.467
turf	-12.467
fury	-12.467
words	-12.4671
▁rotat	-12.4671
base	-12.4671
conductor	-12.4671
fresh	-12.4671
assuming	-12.4672
liberate	-12.4672
▁pupp	-12.4672
lawful	-12.4672
skirt	-12.4672
structure	-12.4672
threatening	-12.4672
regard	-12.4672
volt	-12.4672
random	-12.4672
which	-12.4672
sequence	-12.4672
ahhh	-12.4673
frog	-12.4673
fried	-12.4673
figur	-12.4673
eleven	-12.4673
league	-12.4673
smoking	-12.4673
wheel	-12.4673
please	-12.4673
develop	-12.4673
rumbling	-12.4673
plant	-12.4673
daisy	-12.4673
amount	-12.4673
freaking	-12.4673
talented	-12.4673
study	-12.4673
market	-12.4674
driver	-12.4674
checking	-12.4674
familiar	-12.4674
grateful	-12.4674
kicking	-12.4674
moral	-12.4674
goose	-12.4674
wreck	-12.4674
punch	-12.4674
schedule	-12.4674
flower	-12.4674
precious	-12.4674
penguin	-12.4674
plus	-12.4674
toula	-12.4674
blind	-12.4674
shift	-12.4674
season	-12.4674
▁explor	-12.4674
group	-12.4674
knock	-12.4674
yesterday	-12.4674
speak	-12.4674
jesus	-12.4674
blue	-12.4674
school	-12.4674
watching	-12.4674
difference	-12.4674
death	-12.4674
special	-12.4674
feet	-12.4674
people	-12.4674
perfect	-12.4674
true	-12.4674
winnie	-12.4674
food	-12.4674
apple	-12.4674
sweet	-12.4674
called	-12.4674
float	-12.4675
drift	-12.4675
smell	-12.4675
nails	-12.4675
▁grump	-12.4675
club	-12.4675
common	-12.4675
paying	-12.4676
allops	-12.4676
taken	-12.4676
judge	-12.4676
tumble	-12.4676
uncle	-12.4677
route	-12.4677
▁accompan	-12.4677
keit	-12.4677
green	-12.4677
bald	-12.4677
▁assemble	-12.4677
beard	-12.4678
nothing	-12.4678
▁trample	-12.4678
lava	-12.4679
bike	-12.4679
▁expose	-12.4679
shoes	-12.4679
▁reinstate	-12.4679
▁remodel	-12.4679
▁baptize	-12.4679
▁thirst	-12.4679
▁tranquili	-12.4679
▁flam	-12.4679
▁frau	-12.4679
▁authorize	-12.4679
▁societ	-12.4679
▁energ	-12.468
▁stunne	-12.468
▁excite	-12.468
maybe	-12.468
josh	-12.468
match	-12.468
▁slid	-12.4681
▁muscl	-12.4681
money	-12.4681
▁enrage	-12.4681
ourg	-12.4682
▁behavio	-12.4682
▁examine	-12.4682
wives	-12.4682
wax	-12.4683
tape	-12.4683
▁nobod	-12.4684
▁participat	-12.4685
▁triumphant	-12.4685
making	-12.4685
▁sieg	-12.4685
leaf	-12.4685
jamie	-12.4685
▁congratulat	-12.4685
▁quart	-12.4686
job	-12.4686
▁squeez	-12.4686
barb	-12.4686
turner	-12.4686
▁scoot	-12.4687
named	-12.4687
▁sacr	-12.4687
▁rava	-12.4687
vation	-12.4687
rried	-12.4687
▁ox	-12.4687
▁synthe	-12.4688
flames	-12.4688
sharpene	-12.4688
groom	-12.4688
▁chocol	-12.4689
▁papi	-12.4689
▁horribl	-12.469
▁plunge	-12.469
▁embodi	-12.469
▁cray	-12.4691
▁johan	-12.4691
▁withdraw	-12.4691
▁eyewitness	-12.4691
▁efficien	-12.4691
▁cuttin	-12.4692
oggi	-12.4692
▁og	-12.4692
▁dolor	-12.4692
tract	-12.4692
iddle	-12.4692
today	-12.4692
▁volcan	-12.4692
▁kath	-12.4693
▁thiev	-12.4693
▁clatter	-12.4693
uspicious	-12.4693
type	-12.4693
ohh	-12.4693
medic	-12.4693
▁strummin	-12.4693
▁refuge	-12.4694
▁administrat	-12.4694
▁raspberr	-12.4694
▁twel	-12.4694
▁brawl	-12.4694
▁votin	-12.4694
▁carpent	-12.4694
bella	-12.4694
parent	-12.4695
▁nichols	-12.4695
coded	-12.4695
▁commemorat	-12.4695
▁intent	-12.4695
▁dyin	-12.4695
uckley	-12.4695
▁unexpl	-12.4695
rrange	-12.4695
inct	-12.4695
▁phenom	-12.4695
robbin	-12.4695
▁allergi	-12.4695
nobl	-12.4695
▁puttin	-12.4695
▁ignora	-12.4695
▁agil	-12.4696
▁garde	-12.4696
roubles	-12.4696
unning	-12.4696
▁lalalalalala	-12.4696
▁vigilan	-12.4696
oodoo	-12.4696
▁tribu	-12.4696
ooze	-12.4696
tinent	-12.4696
ntelligence	-12.4696
ntelligent	-12.4696
mpossible	-12.4696
▁lettin	-12.4696
▁stimula	-12.4696
▁preten	-12.4696
▁resource	-12.4696
▁shakin	-12.4696
▁sanctu	-12.4696
▁kidnap	-12.4696
▁sausa	-12.4696
▁transmit	-12.4696
▁llve	-12.4697
▁republic	-12.4697
sburg	-12.4697
morr	-12.4697
ntact	-12.4697
▁ruoppo	-12.4697
abunga	-12.4697
▁vegeta	-12.4697
▁differ	-12.4697
▁illumina	-12.4697
piration	-12.4697
cogni	-12.4697
tached	-12.4697
ordinate	-12.4697
▁musket	-12.4697
▁pough	-12.4697
forgiv	-12.4697
▁blasphem	-12.4697
▁feasible	-12.4697
▁foreclos	-12.4697
▁jeopardi	-12.4697
▁mediocr	-12.4697
▁multimillion	-12.4697
▁oppressi	-12.4697
▁patriot	-12.4697
▁thejess	-12.4697
▁unconven	-12.4697
▁whwhwh	-12.4697
alibu	-12.4697
amocha	-12.4697
blower	-12.4697
cockadoodledoo	-12.4697
eatheringhamstan	-12.4697
gnatius	-12.4697
groscopic	-12.4697
inglorious	-12.4697
issimo	-12.4697
mannered	-12.4697
naissance	-12.4697
omatic	-12.4697
opouloses	-12.4697
oscope	-12.4697
quil	-12.4697
secutor	-12.4697
simplify	-12.4697
thellyinghagfish	-12.4697
vvies	-12.4697
waukee	-12.4697
▁academi	-12.4697
▁accomplice	-12.4697
▁accustomed	-12.4697
▁actuaiiy	-12.4697
▁adjoining	-12.4697
▁affectionately	-12.4697
▁aiready	-12.4697
▁airspace	-12.4697
▁alakazam	-12.4697
▁alchemy	-12.4697
▁aleynu	-12.4697
▁algernon	-12.4697
▁ancestry	-12.4697
▁announcing	-12.4697
▁ansomething	-12.4697
▁anthony	-12.4697
▁anubis	-12.4697
▁apologise	-12.4697
▁apostles	-12.4697
▁appeteas	-12.4697
▁appetiz	-12.4697
▁applicant	-12.4697
▁arachn	-12.4697
▁arcane	-12.4697
▁armaments	-12.4697
▁arsenic	-12.4697
▁artefact	-12.4697
▁artifact	-12.4697
▁artillery	-12.4697
[...]
