<unk>	0
<s>	0
</s>	0
s	-3.13938
ing	-4.53952
▁im	-4.70138
▁dont	-4.73162
▁know	-4.74762
ed	-4.75583
▁get	-4.93652
▁go	-4.9883
▁well	-4.99209
▁come	-5.05748
d	-5.09185
▁right	-5.12147
▁like	-5.12623
▁oh	-5.15327
er	-5.24737
▁got	-5.25804
▁one	-5.25894
▁youre	-5.28264
e	-5.3221
y	-5.34638
▁thats	-5.36634
▁yeah	-5.37963
▁	-5.38038
▁good	-5.38867
r	-5.39202
▁see	-5.40541
▁na	-5.47585
▁think	-5.51716
▁want	-5.53357
t	-5.5729
u	-5.58332
▁okay	-5.6432
▁yes	-5.65397
▁look	-5.65435
▁back	-5.67677
▁ill	-5.68481
▁time	-5.73331
▁us	-5.75912
▁going	-5.76666
▁gon	-5.76846
▁man	-5.77936
▁hey	-5.79519
▁take	-5.80217
n	-5.80652
▁hes	-5.87326
▁would	-5.8761
▁cant	-5.91755
▁l	-5.9346
a	-5.94294
ly	-5.95309
in	-5.97778
▁way	-5.98704
▁tell	-6.00614
▁say	-6.03062
▁mr	-6.03754
b	-6.05095
▁little	-6.05316
▁could	-6.06132
i	-6.07683
p	-6.09709
▁something	-6.10885
▁never	-6.12373
▁really	-6.1327
▁lets	-6.14778
g	-6.15106
▁mean	-6.15508
o	-6.16806
l	-6.16937
▁need	-6.16944
h	-6.17226
▁make	-6.17733
▁whats	-6.18359
▁love	-6.196
▁thank	-6.20917
▁didnt	-6.2127
▁let	-6.22807
▁music	-6.26781
▁give	-6.29452
es	-6.30484
▁two	-6.31531
▁sir	-6.31694
al	-6.31963
▁ive	-6.32157
▁please	-6.32495
c	-6.33257
▁help	-6.35227
▁said	-6.38824
▁theres	-6.39831
▁people	-6.40128
▁sorry	-6.40128
▁sure	-6.40742
f	-6.45103
w	-6.45168
▁much	-6.457
▁thing	-6.48291
▁wait	-6.48649
▁day	-6.48995
en	-6.49775
▁uh	-6.51012
m	-6.52724
le	-6.53729
▁even	-6.55459
ic	-6.56227
re	-6.586
k	-6.59011
▁work	-6.59357
▁life	-6.59785
▁y	-6.60009
▁nothing	-6.61251
or	-6.61338
▁first	-6.61407
on	-6.61696
▁keep	-6.62228
ar	-6.62342
▁maybe	-6.62577
▁b	-6.62772
▁call	-6.63906
▁de	-6.6417
▁must	-6.64198
▁better	-6.64254
▁s	-6.64402
▁god	-6.68477
▁car	-6.68763
▁boy	-6.69304
▁stop	-6.70121
▁great	-6.7024
▁shes	-6.70549
▁ever	-6.71299
▁new	-6.7147
▁talk	-6.72938
▁home	-6.7312
▁night	-6.73585
▁theyre	-6.74119
▁find	-6.74866
▁away	-6.75441
▁still	-6.76589
▁anything	-6.77135
▁always	-6.78097
▁thought	-6.78786
▁father	-6.80048
▁old	-6.80125
▁dad	-6.80441
▁hi	-6.81076
▁long	-6.81929
▁ta	-6.82991
it	-6.83274
▁believe	-6.8366
▁feel	-6.84668
▁around	-6.84688
▁id	-6.84906
▁made	-6.85676
▁guys	-6.86211
▁everything	-6.86352
il	-6.86681
▁put	-6.88012
ur	-6.88635
▁name	-6.88669
▁hear	-6.88928
▁youve	-6.89341
▁fine	-6.90268
▁money	-6.90644
ers	-6.90795
▁hell	-6.90909
▁world	-6.91298
▁f	-6.92847
ation	-6.93283
▁told	-6.94671
▁st	-6.94885
ch	-6.95035
▁p	-6.95521
▁re	-6.957
▁big	-6.95879
▁wont	-6.9604
▁youll	-6.96512
▁show	-6.97218
▁ha	-6.97847
▁things	-6.98169
▁last	-6.98245
ra	-6.98614
▁nice	-6.99101
▁hello	-7.00511
▁kind	-7.00535
▁may	-7.01088
▁remember	-7.0126
▁hold	-7.01267
▁coming	-7.01618
at	-7.01651
▁care	-7.0211
▁years	-7.02435
▁lot	-7.04235
ion	-7.04408
▁stay	-7.04437
▁doesnt	-7.0549
▁every	-7.05877
▁leave	-7.06
▁three	-7.06512
▁enough	-7.06769
▁mom	-7.0681
et	-7.07307
ter	-7.07519
▁place	-7.07548
▁might	-7.08064
▁course	-7.08064
▁listen	-7.09139
el	-7.09484
ie	-7.09487
an	-7.10426
▁head	-7.10489
▁in	-7.1049
▁try	-7.12284
▁bad	-7.13983
▁mother	-7.14258
▁play	-7.14512
ck	-7.14538
▁isnt	-7.15086
▁mind	-7.1593
▁done	-7.16302
ve	-7.16533
▁hope	-7.16867
v	-7.17032
▁w	-7.17877
▁a	-7.18136
▁girl	-7.18261
▁huh	-7.19138
▁best	-7.19812
▁wrong	-7.19956
▁la	-7.20345
▁m	-7.20461
▁weve	-7.20546
ment	-7.21266
▁son	-7.21926
▁baby	-7.22343
▁morning	-7.22636
ne	-7.22813
ll	-7.22851
▁understand	-7.2324
▁left	-7.23241
▁another	-7.23849
▁matter	-7.24155
▁thanks	-7.24247
▁th	-7.24524
la	-7.2477
▁getting	-7.25004
▁wanted	-7.26166
▁real	-7.26279
▁friend	-7.26761
ro	-7.27061
▁came	-7.27184
▁jack	-7.27283
▁house	-7.27937
▁turn	-7.28639
▁wan	-7.29267
▁ah	-7.29363
is	-7.2937
▁end	-7.29885
st	-7.29897
▁else	-7.30502
▁ready	-7.30504
▁c	-7.31147
▁move	-7.32243
▁run	-7.32341
▁door	-7.32525
▁ask	-7.32554
▁men	-7.32724
▁today	-7.32787
▁idea	-7.32875
ce	-7.33353
▁next	-7.33457
▁un	-7.33738
▁miss	-7.33942
▁bring	-7.34276
z	-7.34953
▁found	-7.35164
est	-7.35372
▁talking	-7.35744
▁g	-7.36183
▁together	-7.37224
▁kids	-7.37323
th	-7.37368
▁happened	-7.38374
▁kill	-7.38511
lo	-7.38823
ist	-7.38835
ity	-7.39058
▁live	-7.39285
▁um	-7.39411
▁open	-7.40417
▁to	-7.40548
▁start	-7.4072
ies	-7.4093
us	-7.41232
▁pay	-7.41817
am	-7.4202
▁excuse	-7.42602
▁e	-7.4303
▁j	-7.43075
▁trying	-7.43298
▁everybody	-7.43341
ent	-7.43673
▁use	-7.43713
▁hard	-7.43846
▁many	-7.43943
te	-7.4415
▁wish	-7.45258
▁seen	-7.45278
▁dog	-7.45335
▁hand	-7.45406
▁havent	-7.45593
▁went	-7.46051
▁without	-7.47122
man	-7.47553
id	-7.47724
▁em	-7.47801
▁beautiful	-7.48285
▁someone	-7.49068
im	-7.49077
ul	-7.49281
▁wasnt	-7.49857
▁far	-7.49925
▁dead	-7.50324
▁minute	-7.50332
▁woman	-7.51052
▁aint	-7.51053
um	-7.51239
na	-7.51375
▁family	-7.51857
▁four	-7.51921
▁yet	-7.52071
ate	-7.52073
▁wouldnt	-7.52089
▁bit	-7.52459
▁dr	-7.52467
able	-7.52548
▁town	-7.52699
▁sit	-7.53212
▁happy	-7.53486
▁whoa	-7.53527
▁fire	-7.53573
▁boys	-7.53709
▁saw	-7.53981
▁school	-7.54311
ant	-7.54648
▁whole	-7.54749
▁meet	-7.54959
▁guy	-7.55238
▁eat	-7.55466
▁guess	-7.55986
▁ok	-7.56099
▁young	-7.56311
▁horse	-7.56331
▁part	-7.56803
▁water	-7.56853
▁job	-7.57349
▁late	-7.5766
▁knew	-7.5768
▁laughing	-7.57983
as	-7.58049
▁second	-7.58109
▁tomorrow	-7.58109
▁r	-7.58297
ol	-7.58378
▁high	-7.58505
▁ra	-7.58611
▁read	-7.58993
▁forget	-7.59408
▁v	-7.5946
ive	-7.59467
▁heard	-7.59785
▁war	-7.60183
▁al	-7.60253
▁tonight	-7.60289
▁watch	-7.6055
▁pretty	-7.60723
▁ho	-7.6132
▁cause	-7.61614
▁gone	-7.61686
▁book	-7.62116
age	-7.62181
ry	-7.62672
▁team	-7.62998
▁ma	-7.63163
▁mrs	-7.63163
x	-7.63293
▁pa	-7.63389
▁since	-7.63409
▁brother	-7.63411
▁somebody	-7.63863
▁lost	-7.63915
▁friends	-7.6414
▁true	-7.64322
ge	-7.64493
▁room	-7.64951
▁whos	-7.65048
▁playing	-7.65135
ting	-7.65408
▁looking	-7.65494
▁mine	-7.65574
▁actually	-7.65717
▁kid	-7.66212
▁already	-7.67104
▁president	-7.67104
ig	-7.67192
▁ago	-7.67615
▁says	-7.67864
▁easy	-7.6805
▁face	-7.68088
▁light	-7.68135
▁couldnt	-7.68754
▁close	-7.68895
▁worry	-7.69004
▁ball	-7.69138
▁o	-7.69255
▁lady	-7.69528
▁rest	-7.69803
▁hurt	-7.69981
▁alone	-7.70475
▁sh	-7.70768
▁used	-7.70898
co	-7.70978
ful	-7.70992
▁year	-7.71026
▁win	-7.71084
▁youd	-7.71086
▁con	-7.71103
▁heart	-7.71119
▁bo	-7.71147
▁check	-7.71924
▁fun	-7.72407
▁ro	-7.72496
▁moment	-7.72604
▁dear	-7.7281
up	-7.73245
▁change	-7.73306
▁girls	-7.73354
▁free	-7.73397
▁honey	-7.73417
▁side	-7.73595
▁damn	-7.73919
▁wife	-7.7392
▁drink	-7.73946
▁fight	-7.7438
▁stand	-7.74429
▁everyone	-7.74463
▁mi	-7.74562
▁number	-7.74932
▁hit	-7.75025
ance	-7.75094
▁problem	-7.75222
nt	-7.7641
▁star	-7.76617
ian	-7.7688
▁business	-7.76988
▁pick	-7.77561
▁k	-7.77902
ine	-7.77969
▁mo	-7.77999
▁co	-7.7833
▁bet	-7.78438
▁took	-7.78559
▁chance	-7.7859
▁point	-7.7861
▁nobody	-7.79088
▁clear	-7.79089
▁shall	-7.79122
▁soon	-7.79762
▁five	-7.79771
▁order	-7.80695
▁sp	-7.80821
un	-7.80909
▁so	-7.8112
oo	-7.81225
▁crazy	-7.81233
▁called	-7.81315
less	-7.81609
▁line	-7.81726
▁stuff	-7.81812
▁cl	-7.81956
▁t	-7.82268
▁word	-7.82407
▁ya	-7.82569
ling	-7.82737
▁least	-7.82881
▁die	-7.83218
▁dan	-7.83304
▁laughs	-7.83363
▁se	-7.83383
▁cut	-7.836
▁days	-7.83759
ee	-7.83984
▁country	-7.84019
▁po	-7.84244
me	-7.84502
ure	-7.84516
▁doctor	-7.85669
▁eyes	-7.85736
▁speak	-7.85744
▁later	-7.86435
▁di	-7.86588
▁i	-7.86728
▁buy	-7.86811
ton	-7.87009
▁set	-7.87126
▁break	-7.87475
▁mar	-7.87795
▁exactly	-7.87958
▁white	-7.87958
▁phone	-7.87958
▁dream	-7.88305
ke	-7.8844
▁da	-7.88524
▁important	-7.8854
▁group	-7.88556
▁sl	-7.89055
▁half	-7.89192
▁daddy	-7.89204
▁game	-7.89736
▁sleep	-7.89835
▁saying	-7.89966
ta	-7.90493
▁no	-7.90889
mp	-7.91231
▁afraid	-7.91498
▁six	-7.91515
▁arent	-7.91543
▁party	-7.91565
se	-7.92037
▁bar	-7.92091
▁probably	-7.92101
▁anyone	-7.92101
▁anyway	-7.92101
▁train	-7.92362
▁wheres	-7.92676
▁whatever	-7.92707
▁full	-7.92779
▁quite	-7.92972
▁send	-7.93413
▁an	-7.93442
ness	-7.93449
ous	-7.93648
▁also	-7.93949
to	-7.94009
▁looks	-7.94271
ard	-7.94428
ell	-7.94432
▁walk	-7.94482
▁taking	-7.94552
▁captain	-7.94561
op	-7.95064
om	-7.95594
▁anybody	-7.95793
▁wow	-7.95864
▁sighs	-7.96153
he	-7.96228
▁cal	-7.96579
▁red	-7.97218
son	-7.97376
▁gun	-7.9819
▁week	-7.98511
▁sc	-7.98538
▁trouble	-7.98978
▁bear	-7.9904
▁power	-7.9963
de	-7.99737
▁nick	-7.99833
▁heh	-7.9984
▁screaming	-8.00012
ma	-8.0028
▁different	-8.00281
▁worth	-8.00282
▁killed	-8.00565
▁sign	-8.00759
▁child	-8.00939
▁rock	-8.01043
▁mama	-8.01652
▁ch	-8.01822
ty	-8.02105
▁minutes	-8.02137
▁along	-8.02269
▁children	-8.02269
▁king	-8.02274
▁deal	-8.02307
▁happen	-8.02606
▁met	-8.02795
ca	-8.02889
▁welcome	-8.02939
▁gentlemen	-8.02944
▁hmm	-8.02965
▁case	-8.03018
▁dave	-8.03029
▁chuckles	-8.03619
▁law	-8.03954
▁lo	-8.04043
mo	-8.04559
▁supposed	-8.04709
▁luck	-8.04762
▁hurry	-8.0498
▁alright	-8.04992
▁shot	-8.05022
pp	-8.05109
▁shoot	-8.05193
▁working	-8.05331
if	-8.05427
ish	-8.05656
▁air	-8.05883
▁anymore	-8.06364
▁dinner	-8.06364
▁human	-8.06433
▁hang	-8.06435
▁lose	-8.06483
▁be	-8.06707
ill	-8.06771
ow	-8.06992
▁ahead	-8.07081
▁hate	-8.07153
ir	-8.0718
▁vi	-8.07396
▁france	-8.07774
▁fact	-8.07804
▁save	-8.07931
▁ba	-8.07976
▁bell	-8.08016
ia	-8.08086
▁sa	-8.08825
▁reason	-8.09192
▁ladies	-8.09193
▁though	-8.09637
▁thinking	-8.09866
▁making	-8.09913
▁br	-8.09922
ho	-8.10509
▁street	-8.10636
▁du	-8.10737
▁makes	-8.10776
ted	-8.10829
▁theyll	-8.11365
▁story	-8.11368
▁brought	-8.11369
▁sister	-8.1137
▁gave	-8.12151
▁plan	-8.12283
▁count	-8.12792
▁almost	-8.12841
▁married	-8.12841
▁either	-8.12841
no	-8.12844
▁asked	-8.13274
▁hands	-8.13291
▁land	-8.13365
▁sun	-8.13413
▁seems	-8.13455
▁record	-8.13588
▁giant	-8.13606
▁cool	-8.1366
ip	-8.14053
▁john	-8.14338
▁behind	-8.14339
▁george	-8.14339
▁police	-8.14339
▁class	-8.14343
▁tr	-8.14514
▁he	-8.1453
▁speaking	-8.14992
ey	-8.15065
▁andrew	-8.15097
▁ooh	-8.15106
ph	-8.15209
▁dis	-8.15216
ot	-8.15713
▁ow	-8.15836
▁touch	-8.15862
out	-8.15935
▁careful	-8.16003
▁beat	-8.16307
▁scared	-8.16309
▁truth	-8.1663
▁pull	-8.16635
▁step	-8.16679
▁pass	-8.16802
▁sing	-8.16823
▁goes	-8.16887
ated	-8.16898
▁wind	-8.16965
▁follow	-8.17029
▁mad	-8.17237
▁ten	-8.17244
▁do	-8.17347
▁strong	-8.17405
▁become	-8.17405
▁funny	-8.17411
▁running	-8.17436
▁waiting	-8.17622
▁hot	-8.18007
ad	-8.18296
▁h	-8.18421
ha	-8.19267
▁cu	-8.19326
▁sam	-8.19348
▁perfect	-8.19503
▁death	-8.19769
▁bye	-8.1978
▁wonderful	-8.19804
tic	-8.1981
▁feeling	-8.1984
ence	-8.20302
▁lm	-8.20436
▁shut	-8.20569
▁lord	-8.2058
▁write	-8.20631
bo	-8.20865
do	-8.21096
▁per	-8.21367
▁applause	-8.21374
▁dark	-8.21375
▁coach	-8.214
▁heres	-8.21479
ni	-8.21495
▁roll	-8.21498
▁ex	-8.21509
▁promise	-8.21576
▁gold	-8.22108
▁secret	-8.22162
▁picture	-8.22187
▁black	-8.22187
▁lie	-8.22213
▁alive	-8.22285
▁wants	-8.22379
▁el	-8.2264
▁bed	-8.22966
▁answer	-8.23006
▁special	-8.23006
▁straight	-8.23006
▁gu	-8.23091
em	-8.23092
▁catch	-8.23113
▁sound	-8.23715
▁stupid	-8.23833
▁itll	-8.23835
▁glad	-8.23835
▁inside	-8.23882
▁report	-8.23887
▁pi	-8.24092
ac	-8.24292
▁person	-8.24526
▁french	-8.24666
▁food	-8.24668
▁fool	-8.24699
▁ar	-8.25235
ap	-8.25536
▁safe	-8.26337
▁drop	-8.26432
be	-8.26627
que	-8.26653
▁pop	-8.26995
▁fall	-8.27005
▁sometimes	-8.27029
hi	-8.27056
▁engine	-8.27209
▁clean	-8.27209
▁d	-8.27453
▁office	-8.27616
▁fault	-8.28091
▁act	-8.28109
uck	-8.28561
che	-8.28614
▁peter	-8.28686
▁club	-8.28942
▁short	-8.28945
▁quiet	-8.28959
▁poor	-8.29154
iv	-8.29373
per	-8.29691
▁wed	-8.2977
▁return	-8.29817
▁mountain	-8.29818
▁sarah	-8.29818
▁hour	-8.3014
▁fast	-8.3023
▁professor	-8.30702
▁throw	-8.30761
ng	-8.31483
▁top	-8.315
io	-8.31556
▁leaving	-8.31595
▁sort	-8.31648
▁american	-8.31835
▁able	-8.31891
▁started	-8.31999
▁ass	-8.32134
▁fl	-8.32397
▁le	-8.32399
▁sweet	-8.3241
▁husband	-8.32496
▁deep	-8.32539
ct	-8.32578
▁cap	-8.32606
▁city	-8.32668
▁join	-8.32725
▁tried	-8.32902
▁present	-8.33408
▁hair	-8.33545
dy	-8.34168
ts	-8.34376
▁learn	-8.34378
▁wake	-8.34406
▁push	-8.3444
mon	-8.34689
▁whoo	-8.34824
▁lead	-8.35008
▁sergeant	-8.35249
▁front	-8.35295
▁pro	-8.35297
▁me	-8.35368
va	-8.3545
▁sick	-8.36228
▁ii	-8.3624
▁lucy	-8.36309
▁pre	-8.36501
▁cat	-8.36578
▁blue	-8.37129
ank	-8.37401
ious	-8.37448
▁question	-8.37564
end	-8.37748
▁ride	-8.38006
▁perhaps	-8.38079
▁trust	-8.381
▁dress	-8.38127
▁piece	-8.38153
▁ti	-8.38408
ary	-8.38492
▁blood	-8.38566
▁ahh	-8.38611
ti	-8.38923
▁bl	-8.38976
▁shouldnt	-8.3904
▁million	-8.39041
▁small	-8.39041
▁sense	-8.39042
▁earth	-8.39064
▁body	-8.39094
ial	-8.39193
▁dance	-8.39253
▁past	-8.39544
▁means	-8.39841
▁hours	-8.39908
▁entire	-8.40011
▁uncle	-8.40012
▁living	-8.40015
▁hows	-8.40028
▁aah	-8.40064
les	-8.40185
ping	-8.4022
da	-8.40256
▁ed	-8.40296
▁sell	-8.40366
▁news	-8.40596
▁bill	-8.40743
▁months	-8.40815
▁wonder	-8.40868
▁goodbye	-8.40994
▁seven	-8.41013
rt	-8.4106
ba	-8.41124
▁cha	-8.41135
▁died	-8.4157
ped	-8.41691
▁voice	-8.41971
▁couple	-8.41982
▁road	-8.4204
▁hu	-8.42116
tion	-8.42334
▁up	-8.42913
▁grunting	-8.42982
▁forgive	-8.42982
▁women	-8.42982
▁fear	-8.42984
▁princess	-8.43096
▁bob	-8.43206
▁suppose	-8.4338
▁billy	-8.43469
▁cheering	-8.43619
▁times	-8.43696
▁teach	-8.43809
▁comp	-8.43834
▁david	-8.43992
▁bank	-8.44134
▁band	-8.44135
ink	-8.44406
▁arm	-8.44912
▁martin	-8.45017
▁master	-8.45022
▁fix	-8.45053
▁expect	-8.45176
▁telling	-8.45693
min	-8.45707
ci	-8.45942
▁dramatic	-8.46046
▁stick	-8.46048
▁burn	-8.46048
▁papa	-8.46051
▁outside	-8.46057
▁jo	-8.46097
▁till	-8.46101
and	-8.4621
▁joe	-8.46803
▁slow	-8.46879
po	-8.46906
▁eye	-8.46985
▁blow	-8.47122
▁moving	-8.47126
▁fell	-8.47225
row	-8.47334
▁over	-8.47357
ress	-8.4745
▁certain	-8.47875
▁song	-8.47892
▁boat	-8.48337
▁ju	-8.48812
▁drive	-8.48883
▁ringing	-8.49101
▁strange	-8.49201
▁super	-8.49226
▁camp	-8.49234
▁lives	-8.49291
▁field	-8.49397
▁pal	-8.4958
▁figure	-8.49661
▁state	-8.49701
▁fair	-8.49848
ug	-8.49874
▁woods	-8.50192
▁henry	-8.50277
▁radio	-8.50277
▁proud	-8.50279
▁cross	-8.50377
way	-8.50825
▁animal	-8.51364
▁visit	-8.51371
ga	-8.51963
by	-8.52009
▁continues	-8.5205
▁maria	-8.52138
▁rid	-8.52171
▁ru	-8.52429
▁en	-8.52439
▁absolutely	-8.52463
▁brand	-8.525
▁mark	-8.52648
▁mess	-8.52667
▁words	-8.53405
tain	-8.53464
▁hed	-8.53515
▁belong	-8.53574
▁surprise	-8.53574
▁york	-8.53575
▁jump	-8.53615
▁kiss	-8.53679
▁pr	-8.5368
nous	-8.53797
▁sounds	-8.53804
ble	-8.53903
ving	-8.53991
▁quick	-8.54456
pl	-8.54487
ally	-8.54491
▁handle	-8.54617
▁champ	-8.54652
go	-8.54837
our	-8.55171
▁serious	-8.55571
▁choice	-8.55834
▁english	-8.55834
▁parents	-8.55834
▁ga	-8.55981
▁finish	-8.56115
▁col	-8.56301
▁lts	-8.56476
time	-8.56561
▁quit	-8.56602
ake	-8.56637
ade	-8.56668
▁village	-8.56983
▁middle	-8.57008
▁frank	-8.57014
▁omi	-8.57127
▁horses	-8.57181
▁hero	-8.57227
land	-8.57306
▁ne	-8.57686
▁near	-8.5802
▁feet	-8.58148
▁attack	-8.58166
▁spend	-8.58197
▁pack	-8.58358
▁z	-8.58455
▁trip	-8.58484
▁carry	-8.58492
▁chattering	-8.58591
▁seem	-8.58628
▁out	-8.58846
▁evening	-8.59062
▁thousand	-8.59323
▁annie	-8.59323
▁crowd	-8.59323
▁wall	-8.59328
▁rather	-8.59368
▁max	-8.59445
▁bag	-8.59686
▁german	-8.59878
▁cold	-8.60025
▁ring	-8.60165
▁summer	-8.60513
▁consider	-8.60513
▁wedding	-8.60522
▁cover	-8.60559
▁marry	-8.60621
▁gre	-8.60652
▁test	-8.60681
▁cook	-8.6082
▁age	-8.6086
j	-8.61042
▁sent	-8.61066
▁enjoy	-8.61718
▁glass	-8.6172
▁yelling	-8.6172
▁forever	-8.61727
▁paper	-8.618
di	-8.62185
▁america	-8.62647
▁letter	-8.62701
▁daughter	-8.62937
▁worse	-8.62938
▁bang	-8.6298
▁key	-8.63016
▁cr	-8.6315
▁offer	-8.63303
▁sha	-8.63691
▁low	-8.63708
old	-8.63813
▁taken	-8.64099
vin	-8.64202
▁grow	-8.64217
▁wear	-8.64362
▁base	-8.64369
tor	-8.6439
ors	-8.64517
ator	-8.64667
▁ac	-8.64911
▁coffee	-8.65422
▁language	-8.65422
▁simple	-8.65422
▁future	-8.65422
▁kick	-8.65469
▁hallie	-8.65492
▁less	-8.65561
▁maam	-8.65583
▁personal	-8.65699
▁certainly	-8.65734
▁ice	-8.65741
▁player	-8.65808
men	-8.66064
▁weeks	-8.6629
one	-8.66365
▁charlie	-8.66687
▁theyve	-8.66687
▁mistake	-8.66688
▁snake	-8.66688
▁others	-8.6669
▁except	-8.66692
▁felt	-8.66697
▁foot	-8.66712
▁x	-8.66731
▁darling	-8.66747
▁for	-8.67196
▁calm	-8.67251
led	-8.67483
▁lucky	-8.67578
▁control	-8.6797
▁search	-8.6797
▁smell	-8.6797
▁lunch	-8.67971
ries	-8.67976
▁bother	-8.68014
▁paris	-8.6802
▁san	-8.68053
▁shell	-8.68059
ger	-8.68114
▁wild	-8.68237
ace	-8.68284
▁form	-8.68325
▁ad	-8.68361
▁worked	-8.68372
ward	-8.68412
▁tu	-8.68964
▁chief	-8.69269
▁protect	-8.69271
▁maddy	-8.69314
▁finger	-8.69357
▁early	-8.69399
▁finally	-8.6948
ction	-8.6949
av	-8.69541
▁birds	-8.69638
▁date	-8.69723
let	-8.69776
q	-8.69824
▁rev	-8.70225
▁all	-8.70416
▁amazing	-8.70584
▁eight	-8.70584
▁machine	-8.70584
▁mary	-8.70592
▁cup	-8.70805
▁suit	-8.70824
▁decided	-8.70891
ach	-8.71077
▁lovely	-8.7114
▁ca	-8.71752
▁ernest	-8.71917
▁samurai	-8.71917
▁werent	-8.71919
▁court	-8.7192
▁imagine	-8.71991
▁born	-8.72016
ise	-8.72399
ky	-8.72608
▁meeting	-8.72635
▁realize	-8.72705
▁finished	-8.72935
▁su	-8.7311
▁brazil	-8.73269
▁buddy	-8.73269
▁service	-8.73269
▁judge	-8.73269
▁kidding	-8.73287
▁hunt	-8.73349
▁force	-8.73392
▁green	-8.73444
▁cost	-8.73538
▁rain	-8.74066
ther	-8.74144
▁am	-8.743
▁fo	-8.74371
▁gl	-8.74466
▁grunts	-8.74639
▁somewhere	-8.74639
▁explain	-8.74639
▁possible	-8.74639
▁tough	-8.74673
▁n	-8.74676
ical	-8.74778
▁fi	-8.7479
▁begin	-8.74822
▁board	-8.75014
▁turned	-8.75586
▁ob	-8.75633
▁plane	-8.75903
▁va	-8.75924
▁flowers	-8.76015
▁known	-8.76025
▁relax	-8.76028
▁lonely	-8.76029
▁ground	-8.76037
▁round	-8.76079
▁soul	-8.76177
▁completely	-8.76195
▁unless	-8.76203
▁fish	-8.76227
▁aron	-8.7626
▁changed	-8.76337
▁miles	-8.76377
▁busy	-8.76418
ities	-8.76636
side	-8.76918
▁ab	-8.76945
▁mor	-8.76988
▁pleasure	-8.77436
▁student	-8.77436
▁heaven	-8.77436
▁shouting	-8.77437
▁self	-8.77438
▁giving	-8.7745
▁needs	-8.7746
lt	-8.77472
▁sea	-8.77529
▁ought	-8.77541
▁box	-8.77578
kin	-8.77749
▁dex	-8.77844
▁cop	-8.7786
▁tra	-8.77929
▁given	-8.78035
▁army	-8.78078
▁gra	-8.78373
▁ham	-8.78467
lin	-8.78602
▁fly	-8.78648
▁ja	-8.78848
▁respect	-8.78864
▁afternoon	-8.78864
▁birthday	-8.78864
▁majesty	-8.78864
▁smart	-8.78866
ism	-8.78964
▁none	-8.79064
▁ben	-8.79505
▁singing	-8.79546
▁lock	-8.79606
▁longer	-8.79707
▁au	-8.798
▁attention	-8.80314
▁yesterday	-8.80314
▁church	-8.80314
▁arrest	-8.80315
▁honest	-8.80315
▁queen	-8.80315
▁movie	-8.80315
▁south	-8.80321
▁park	-8.80325
▁trans	-8.80333
▁guard	-8.80377
▁joke	-8.80394
rit	-8.80419
uff	-8.8066
▁knock	-8.80713
▁leg	-8.8103
▁happening	-8.81148
▁vo	-8.81262
▁happens	-8.81266
▁seat	-8.81538
▁tom	-8.81543
▁saved	-8.81588
▁butt	-8.81664
▁aw	-8.81696
▁quixote	-8.81784
▁film	-8.81787
▁reach	-8.81898
▁brain	-8.81973
▁west	-8.82128
▁laugh	-8.82298
▁officer	-8.8257
ust	-8.82699
ii	-8.82801
fi	-8.82986
rate	-8.8306
▁mum	-8.8314
▁rich	-8.83243
▁invincible	-8.83277
▁spirit	-8.83277
▁jesus	-8.83277
▁botat	-8.83279
▁travel	-8.83279
▁window	-8.83341
▁van	-8.83577
▁missed	-8.84105
▁building	-8.84159
▁agree	-8.84174
▁christ	-8.84314
▁wa	-8.84357
▁sad	-8.84371
port	-8.84591
▁terrible	-8.84792
▁across	-8.84792
▁price	-8.84793
▁general	-8.84793
▁area	-8.84799
▁track	-8.84873
▁paid	-8.84991
▁kate	-8.8501
▁month	-8.8513
room	-8.85189
▁ran	-8.85253
▁port	-8.85406
▁hall	-8.85411
▁tea	-8.858
▁forgot	-8.86318
▁government	-8.8633
▁sweetheart	-8.8633
▁midnight	-8.86331
▁study	-8.86331
▁christmas	-8.86332
▁witch	-8.86332
▁mister	-8.86345
▁ash	-8.86548
ite	-8.86569
▁taste	-8.86667
▁watching	-8.86944
▁wine	-8.87219
fa	-8.87644
▁wi	-8.87748
well	-8.87807
zz	-8.87823
▁public	-8.87893
▁major	-8.87893
▁evil	-8.87893
▁kevin	-8.87893
▁honor	-8.87895
▁groans	-8.87897
▁horn	-8.87898
▁gasps	-8.87903
▁bought	-8.87926
▁played	-8.88031
▁missing	-8.88071
▁race	-8.8822
▁shit	-8.88244
ized	-8.88256
▁teacher	-8.883
▁calling	-8.88354
ah	-8.88486
▁gro	-8.8861
▁hal	-8.88724
▁beans	-8.88836
ze	-8.88898
▁pain	-8.89245
▁explosion	-8.8948
▁guitar	-8.8948
▁medal	-8.89492
▁treat	-8.89533
▁pete	-8.89536
▁gas	-8.8959
▁mmm	-8.89768
▁hide	-8.89799
▁mon	-8.89827
▁fill	-8.89859
▁ruin	-8.89865
mi	-8.90024
▁cow	-8.90077
▁ka	-8.90433
▁shoes	-8.90458
▁final	-8.90835
▁doubt	-8.91093
▁saturday	-8.91093
▁thunder	-8.91094
▁tommy	-8.91094
▁harry	-8.91095
▁east	-8.91109
▁grant	-8.91148
▁store	-8.91162
▁totally	-8.91198
▁anne	-8.9129
▁jay	-8.91632
oc	-8.91749
▁shh	-8.91766
▁loved	-8.92103
log	-8.92211
▁prince	-8.92545
▁account	-8.92732
▁murray	-8.92733
▁milk	-8.92734
▁charge	-8.92735
▁match	-8.92736
▁dangerous	-8.92755
▁simon	-8.92761
▁wave	-8.92832
▁sky	-8.92925
▁sitting	-8.92947
▁upon	-8.92954
▁or	-8.93069
▁moon	-8.93152
▁farm	-8.93374
▁cheer	-8.93383
▁continue	-8.93484
▁allow	-8.93567
▁pur	-8.93598
▁crying	-8.93636
▁eh	-8.93665
▁hospital	-8.94399
▁chirping	-8.94399
▁extra	-8.944
▁kelly	-8.944
▁tired	-8.94408
▁caught	-8.94409
▁hungry	-8.94418
ast	-8.94438
▁truck	-8.94455
▁rec	-8.94503
▁wing	-8.94641
▁asking	-8.94665
▁louise	-8.94772
▁hat	-8.94855
▁bus	-8.95075
▁para	-8.95249
▁tree	-8.95271
▁lay	-8.95374
ier	-8.9558
▁reed	-8.95636
▁indistinct	-8.95829
cl	-8.95869
▁grand	-8.96058
▁revolution	-8.96084
▁difference	-8.96094
▁impossible	-8.96094
▁floor	-8.96096
▁idiot	-8.96098
▁lift	-8.96103
▁favorite	-8.96105
▁jewish	-8.96117
▁peace	-8.96124
ecame	-8.96145
▁awful	-8.96148
▁exist	-8.96227
▁paul	-8.96368
▁indian	-8.96545
▁metal	-8.96579
▁bitch	-8.96622
▁pray	-8.96639
▁interested	-8.96707
▁brooks	-8.96834
▁meant	-8.96958
▁her	-8.96982
▁hoo	-8.97218
▁breath	-8.97528
ris	-8.97675
▁clouseau	-8.97818
▁instead	-8.97818
▁worried	-8.97818
▁admit	-8.97818
▁double	-8.97818
▁groaning	-8.97819
▁position	-8.9782
▁besides	-8.9782
▁beginning	-8.97822
▁north	-8.97824
▁howd	-8.97831
▁nose	-8.98076
ik	-8.98275
act	-8.98357
val	-8.98478
▁dig	-8.98723
gra	-8.98768
▁exp	-8.98997
ize	-8.99046
▁main	-8.9919
ak	-8.99335
▁rob	-8.99437
▁bon	-8.99439
▁wand	-8.99567
▁anywhere	-8.99573
▁accident	-8.99573
▁strike	-8.99573
▁within	-8.99573
▁nowhere	-8.99579
▁kept	-8.99604
▁bright	-8.9965
▁standing	-8.99728
▁sight	-8.99756
▁pin	-8.99782
hoo	-8.99791
▁bless	-9.0004
jo	-9.00063
▁scream	-9.00303
▁folks	-9.005
▁warn	-9.00827
▁walking	-9.00833
▁training	-9.00892
▁promised	-9.00919
▁wearing	-9.01092
▁soft	-9.01099
▁lf	-9.01199
▁pok	-9.01339
▁accept	-9.01358
▁faith	-9.01358
▁lieutenant	-9.01358
▁ghost	-9.01358
▁company	-9.01359
▁roaring	-9.01363
▁whether	-9.01369
▁tires	-9.01371
▁dying	-9.0138
▁starting	-9.01389
▁tj	-9.01424
▁trail	-9.0148
▁yo	-9.01671
ible	-9.02051
▁boss	-9.02067
▁build	-9.0211
▁cra	-9.02535
▁list	-9.02596
▁lived	-9.02658
▁warm	-9.02757
▁hearts	-9.02936
ez	-9.03004
▁discuss	-9.03087
▁daniel	-9.03108
▁pea	-9.03115
▁decision	-9.03176
▁marshal	-9.03177
▁deserve	-9.03177
▁prison	-9.03177
▁computer	-9.03177
▁manolo	-9.03182
▁brave	-9.03254
▁score	-9.03278
▁vote	-9.0328
▁hans	-9.03284
▁raise	-9.03383
▁united	-9.03629
▁dreams	-9.03918
▁interesting	-9.03984
▁ni	-9.04016
over	-9.04737
▁si	-9.04916
▁elephant	-9.05028
▁hundred	-9.05028
▁jenny	-9.05029
▁garden	-9.05029
▁pound	-9.05116
▁emma	-9.05197
▁needed	-9.05267
▁action	-9.05363
com	-9.05459
▁post	-9.05569
▁prove	-9.05657
▁station	-9.05839
▁questions	-9.06041
ddle	-9.06173
pping	-9.06226
▁sur	-9.06345
▁bird	-9.06384
▁shed	-9.06442
▁magic	-9.06734
▁beg	-9.06856
▁foreign	-9.06915
▁appear	-9.06915
▁appreciate	-9.06915
▁darryl	-9.06915
▁history	-9.06915
▁tight	-9.06915
▁uhhuh	-9.06915
▁comrade	-9.06915
▁pardon	-9.06916
▁monster	-9.06921
▁chuckling	-9.06931
▁sonny	-9.06962
▁trick	-9.07018
▁mention	-9.07047
▁dico	-9.07068
▁bloody	-9.07858
▁rub	-9.07947
▁pen	-9.08195
▁del	-9.08773
▁sheriff	-9.08838
▁practice	-9.08838
▁wolf	-9.08839
▁fail	-9.08841
▁island	-9.08842
▁serve	-9.08848
▁message	-9.08926
▁laughter	-9.08952
▁tense	-9.08985
▁fighting	-9.09009
▁russian	-9.09102
▁grab	-9.09161
▁tri	-9.09171
▁quickly	-9.09292
▁boo	-9.09354
tle	-9.09931
▁tapes	-9.10635
▁ski	-9.10764
▁rumbling	-9.10799
▁sunshine	-9.10799
▁breakfast	-9.10799
▁colonel	-9.10799
▁natural	-9.108
▁dirty	-9.108
▁remind	-9.108
▁mouth	-9.108
▁weird	-9.10801
▁royal	-9.10802
▁cry	-9.1082
▁fred	-9.10842
▁studio	-9.10873
▁whose	-9.10916
▁battle	-9.10957
▁surf	-9.10986
▁stopped	-9.11064
▁breathe	-9.1113
▁winter	-9.11159
▁ohh	-9.11199
▁table	-9.11212
▁note	-9.11318
▁following	-9.11524
▁problems	-9.11655
▁arms	-9.11814
▁faster	-9.1198
▁murder	-9.12109
▁flying	-9.12329
ten	-9.12629
▁learned	-9.12678
qui	-9.12757
▁derice	-9.12799
▁member	-9.12799
▁vietnamese	-9.12799
▁neither	-9.12799
▁normal	-9.12799
▁bottle	-9.12799
▁nurse	-9.12799
▁writing	-9.128
▁ryan	-9.12803
▁egg	-9.12804
▁scene	-9.12806
▁forward	-9.12826
▁national	-9.12936
▁button	-9.12982
ung	-9.13378
ley	-9.1368
▁fairy	-9.13693
for	-9.13718
mar	-9.13886
▁trees	-9.1394
▁rep	-9.14138
▁rules	-9.14628
▁legs	-9.1476
▁marriage	-9.1484
▁suggest	-9.1484
▁system	-9.1484
▁choose	-9.1484
▁donkey	-9.1484
▁sunday	-9.1484
▁weak	-9.1484
▁twice	-9.14841
▁dumb	-9.14843
▁upset	-9.14848
▁sanka	-9.14857
▁sport	-9.15044
nny	-9.15181
▁sub	-9.15225
▁dare	-9.15546
▁owe	-9.15741
▁you	-9.15877
▁fat	-9.15952
▁add	-9.16031
▁fu	-9.16225
▁scar	-9.16349
▁bi	-9.16382
▁couldve	-9.16542
▁broke	-9.1666
▁hum	-9.1672
▁listening	-9.1689
▁hyah	-9.16923
▁drunk	-9.16923
▁clothes	-9.16924
▁defeat	-9.16924
▁situation	-9.16925
▁nature	-9.1693
▁taught	-9.16931
▁angel	-9.16935
▁knee	-9.16941
▁awake	-9.16953
▁mmhmm	-9.16958
▁gang	-9.16969
▁frosty	-9.17009
▁fan	-9.1705
▁waste	-9.17059
▁sold	-9.17164
▁bomb	-9.17266
▁sake	-9.17289
▁single	-9.17352
▁seriously	-9.1741
the	-9.17607
▁cro	-9.17632
▁pe	-9.17842
▁dean	-9.18
▁guns	-9.18404
und	-9.18449
▁fit	-9.18653
▁congratulations	-9.19051
▁jeanclaude	-9.19051
▁london	-9.19051
▁swear	-9.19051
▁often	-9.19051
▁ticket	-9.19051
▁bunch	-9.19051
▁throat	-9.19052
▁remain	-9.19052
▁worst	-9.19052
▁driving	-9.19052
▁draw	-9.19053
▁loud	-9.19058
▁collect	-9.19065
▁linh	-9.19066
▁address	-9.19073
▁danny	-9.19095
▁jail	-9.19204
▁cell	-9.1929
▁staying	-9.19421
▁bra	-9.19537
▁ki	-9.19666
ition	-9.19765
print	-9.19829
vo	-9.199
▁figured	-9.20287
▁lt	-9.20569
▁bridge	-9.20834
▁complete	-9.2097
▁cons	-9.21116
▁gi	-9.21142
▁duggal	-9.21225
▁experience	-9.21225
▁nervous	-9.21225
▁friday	-9.21225
▁heavy	-9.21225
▁axel	-9.21225
▁scott	-9.21225
▁third	-9.21226
▁bobsled	-9.21227
▁lawyer	-9.21243
▁eric	-9.21264
▁large	-9.21268
▁settle	-9.21286
▁dude	-9.21351
▁nine	-9.21405
cha	-9.2155
air	-9.21744
▁where	-9.21759
▁greatest	-9.22051
▁driver	-9.22171
▁create	-9.2252
line	-9.22623
▁leo	-9.22851
▁event	-9.22916
▁div	-9.2303
▁ron	-9.23061
ship	-9.23162
ever	-9.23327
▁states	-9.23358
▁peppers	-9.23395
▁excellent	-9.23447
▁inspector	-9.23447
▁journey	-9.23447
▁particular	-9.23447
▁support	-9.23447
▁gunshot	-9.23447
▁patient	-9.23447
▁boddy	-9.23448
▁screw	-9.23448
▁bread	-9.23448
▁deliver	-9.23449
▁indeed	-9.2345
▁tower	-9.23456
▁everywhere	-9.23466
▁department	-9.23466
tan	-9.23478
▁gentleman	-9.23492
▁information	-9.23499
▁boots	-9.23501
▁fellow	-9.23518
▁pants	-9.2352
gue	-9.23522
▁chair	-9.23555
▁lion	-9.23695
▁wood	-9.23857
▁camera	-9.24109
▁gotten	-9.24123
ncy	-9.2427
▁tape	-9.24337
▁art	-9.2458
▁manage	-9.24583
▁cor	-9.24627
▁cab	-9.24801
you	-9.25228
▁anabel	-9.2572
▁conversation	-9.2572
▁difficult	-9.2572
▁especially	-9.2572
▁goddamn	-9.2572
▁kitchen	-9.2572
▁screeching	-9.2572
▁angry	-9.2572
▁allyson	-9.25721
▁beauty	-9.2573
▁steal	-9.2573
▁thud	-9.2573
▁yep	-9.25735
▁hasnt	-9.25739
▁blame	-9.25741
▁robot	-9.25778
▁wheel	-9.25786
▁chicken	-9.25789
▁immediately	-9.2579
▁lesson	-9.25974
▁madame	-9.26088
▁nearly	-9.26239
▁dry	-9.26257
▁mm	-9.26476
▁tall	-9.26589
ja	-9.26589
▁goal	-9.26685
▁rule	-9.26921
▁germans	-9.26952
▁don	-9.27021
▁wha	-9.27306
▁pan	-9.27595
▁sum	-9.27632
▁moved	-9.27669
▁off	-9.27769
▁bamboo	-9.28045
▁dooyoung	-9.28045
▁fruit	-9.28045
▁glauben	-9.28045
▁governor	-9.28045
▁jordan	-9.28045
▁clicks	-9.28045
▁bastard	-9.28045
▁qua	-9.28046
▁refuse	-9.28046
▁block	-9.28046
▁willing	-9.28079
▁musicians	-9.28082
▁apartment	-9.28092
ham	-9.28297
▁stuck	-9.28302
▁hotel	-9.28305
ka	-9.28342
▁path	-9.28386
▁tv	-9.28404
▁beer	-9.28411
▁greg	-9.28484
ept	-9.28571
▁ned	-9.28659
▁amy	-9.28854
ki	-9.28941
▁march	-9.28986
▁homer	-9.29121
▁talked	-9.29643
▁prayer	-9.2967
▁jew	-9.29896
board	-9.29988
▁cre	-9.30064
▁named	-9.30065
▁pet	-9.30144
▁bull	-9.30416
▁creature	-9.30426
▁definitely	-9.30426
▁official	-9.30426
▁steady	-9.30426
▁whistle	-9.30426
▁complain	-9.30427
▁sheep	-9.30427
▁climb	-9.30427
▁command	-9.30427
▁correct	-9.30427
▁hadnt	-9.30429
▁truly	-9.3043
▁football	-9.3044
▁soldier	-9.30447
▁wash	-9.3046
▁crack	-9.3049
▁hank	-9.30509
▁instrumental	-9.3062
▁highness	-9.30629
▁ko	-9.30722
▁broken	-9.30766
▁drum	-9.30767
▁interest	-9.30972
▁mayor	-9.31874
▁steve	-9.31952
▁growing	-9.32505
▁russia	-9.32605
▁california	-9.32865
▁fresh	-9.32865
▁jacob	-9.32865
▁thatll	-9.32866
▁suffer	-9.32866
▁charm	-9.32871
▁outta	-9.32948
▁abra	-9.3303
▁losing	-9.33032
▁flat	-9.33121
▁swan	-9.33133
▁announcer	-9.33143
▁tim	-9.33149
▁bones	-9.33196
▁stone	-9.3322
▁russ	-9.33231
▁suck	-9.33424
▁tour	-9.33664
▁ding	-9.33959
light	-9.34518
▁louis	-9.34814
back	-9.35106
▁arrange	-9.35365
▁awesome	-9.35365
▁bullshit	-9.35365
▁claude	-9.35365
▁introduce	-9.35365
▁joaquin	-9.35365
▁upstairs	-9.35365
▁teeth	-9.35365
▁cheese	-9.35365
▁perform	-9.35365
▁simply	-9.35365
▁condition	-9.35365
▁health	-9.35366
▁empty	-9.35366
▁smile	-9.35367
▁prefer	-9.35368
▁cancer	-9.35368
▁dollars	-9.35371
▁owner	-9.35375
ified	-9.35408
▁coast	-9.35436
▁alvin	-9.3547
▁grace	-9.35496
▁spot	-9.35508
▁earn	-9.35669
▁rat	-9.35682
▁coat	-9.35803
▁share	-9.36188
▁perfectly	-9.36208
▁joy	-9.36602
▁pig	-9.36852
▁ears	-9.37063
▁hardly	-9.37167
field	-9.37458
▁can	-9.37743
▁favor	-9.37914
▁apologize	-9.37929
▁orchestra	-9.37929
▁plenty	-9.37929
▁however	-9.37929
▁british	-9.3793
▁college	-9.3793
▁yellow	-9.3793
▁garret	-9.3793
▁river	-9.37932
▁center	-9.37933
▁view	-9.37933
▁james	-9.37934
▁risk	-9.37934
▁blind	-9.37935
▁blond	-9.37938
▁winner	-9.37943
▁partner	-9.37949
screen	-9.38001
▁gene	-9.3805
▁pie	-9.38146
▁doll	-9.38341
▁gage	-9.38427
▁exc	-9.38432
▁gar	-9.38649
▁closed	-9.38656
▁rose	-9.38824
▁rent	-9.38867
▁sean	-9.38884
▁bat	-9.39409
off	-9.39649
▁ear	-9.39933
▁decide	-9.39947
▁gal	-9.40037
▁who	-9.40043
▁jan	-9.40064
▁corn	-9.40304
▁copperfield	-9.40561
▁disappear	-9.40561
▁emergency	-9.40561
▁pikachu	-9.40561
▁someday	-9.40561
▁strength	-9.40561
▁resign	-9.40561
▁superhero	-9.40561
▁survive	-9.40561
▁rough	-9.40561
▁famous	-9.40561
▁contact	-9.40561
▁committee	-9.40561
▁harris	-9.40562
▁patty	-9.40562
▁freedom	-9.40562
▁julie	-9.40562
▁scoffs	-9.40562
▁charles	-9.40563
▁miep	-9.40568
▁thudding	-9.40568
▁baseball	-9.40576
▁operation	-9.40582
▁speed	-9.40583
▁proper	-9.40605
▁feed	-9.40611
▁bobby	-9.40618
▁beach	-9.40627
▁noise	-9.40642
▁incredible	-9.4066
▁wondering	-9.40774
▁enter	-9.40807
▁stormy	-9.40912
▁jim	-9.40948
▁tw	-9.40959
▁oil	-9.41159
▁jet	-9.41199
▁chris	-9.41293
▁press	-9.4132
▁shoe	-9.41654
▁nation	-9.41744
▁allowed	-9.41964
▁sale	-9.4207
▁bay	-9.42315
▁destroy	-9.42388
nut	-9.42742
▁hole	-9.43099
▁closer	-9.43125
▁chocolate	-9.43264
▁dartagnan	-9.43264
▁elliot	-9.43264
▁europe	-9.43264
▁object	-9.43264
▁junior	-9.43264
▁courage	-9.43264
▁session	-9.43265
▁pecos	-9.43266
▁loose	-9.43279
▁wilson	-9.43298
▁snap	-9.4333
▁swa	-9.43338
▁christian	-9.4334
beat	-9.43372
▁babe	-9.4338
▁load	-9.43405
▁chop	-9.43411
▁shame	-9.43419
▁suddenly	-9.4342
▁slip	-9.43463
▁size	-9.43521
▁lying	-9.43595
▁color	-9.43709
▁younger	-9.43914
▁walked	-9.44366
▁hill	-9.44439
▁mass	-9.44503
▁kim	-9.44796
▁eating	-9.44899
▁chatter	-9.45048
▁tie	-9.45225
▁notice	-9.45422
▁sleeping	-9.45461
▁breaking	-9.4558
▁chi	-9.4558
▁expected	-9.45593
▁commun	-9.45978
▁commit	-9.46041
▁asleep	-9.46041
▁private	-9.46041
▁slappy	-9.46041
▁rainbow	-9.46042
▁defend	-9.46042
▁smoke	-9.46042
▁quarter	-9.46042
▁among	-9.46043
▁split	-9.46043
▁humming	-9.46043
▁gift	-9.46046
▁whatd	-9.46047
▁miller	-9.46048
▁program	-9.46049
▁robert	-9.46049
▁robber	-9.4605
▁planning	-9.46053
▁whip	-9.46068
▁rope	-9.4607
▁com	-9.46098
▁danger	-9.46106
▁space	-9.46136
▁daniella	-9.46149
▁adam	-9.4618
▁passed	-9.46349
▁squealing	-9.46422
▁bug	-9.46687
▁leader	-9.46875
▁crap	-9.47007
▁comb	-9.47026
▁opera	-9.4722
▁cute	-9.47284
▁tail	-9.47474
fl	-9.47601
▁holy	-9.47688
chi	-9.48123
berg	-9.48373
▁dish	-9.48508
ative	-9.48592
though	-9.48725
▁gentle	-9.48824
▁opinion	-9.48899
▁possibly	-9.48899
▁trumpet	-9.48899
▁weight	-9.48899
▁kitty	-9.48899
▁pocket	-9.48899
▁wrote	-9.48899
▁otto	-9.489
▁theyd	-9.489
▁shark	-9.48901
▁paddle	-9.48975
▁season	-9.48989
▁obviously	-9.4901
▁hoping	-9.49064
▁ranch	-9.49096
▁lil	-9.49145
▁followed	-9.49244
▁falling	-9.49599
▁lee	-9.49728
▁swi	-9.49791
▁tear	-9.49793
▁destroyed	-9.49833
▁flu	-9.50251
▁ram	-9.5032
▁whe	-9.50996
▁knocking	-9.51028
work	-9.51248
down	-9.5131
▁bro	-9.51633
▁grandfather	-9.5184
▁innocent	-9.5184
▁justice	-9.5184
▁recognize	-9.5184
▁silver	-9.5184
▁sniff	-9.5184
▁aurora	-9.5184
▁enemy	-9.5184
▁require	-9.5184
▁switch	-9.5184
▁valley	-9.5184
▁ethan	-9.5184
▁request	-9.5184
▁speech	-9.5184
▁detail	-9.5184
▁depend	-9.51841
▁buzz	-9.51841
▁devil	-9.51841
▁ugh	-9.51842
▁credit	-9.51843
▁perrin	-9.51844
▁whoever	-9.51851
▁forgotten	-9.51864
▁kite	-9.52016
▁comin	-9.52037
▁neck	-9.52052
▁ray	-9.52083
▁panic	-9.52103
▁ant	-9.52238
what	-9.52314
▁prepared	-9.52425
▁putting	-9.52585
▁chip	-9.52797
▁due	-9.53508
▁map	-9.53594
▁seemed	-9.54181
right	-9.54221
▁chu	-9.54526
▁jamaica	-9.54576
▁madam	-9.54623
▁riding	-9.54724
▁cloud	-9.5487
▁equal	-9.5487
▁familiar	-9.5487
▁fantastic	-9.5487
▁farooqi	-9.5487
▁lebraque	-9.5487
▁olympic	-9.5487
▁ridiculous	-9.5487
▁whistling	-9.5487
▁afford	-9.5487
▁ancient	-9.5487
▁medicine	-9.5487
▁escape	-9.5487
▁stanley	-9.5487
▁several	-9.5487
▁pretend	-9.54871
▁kingdom	-9.54871
▁piano	-9.54872
▁barking	-9.54878
▁mommy	-9.54878
▁emily	-9.54879
▁silly	-9.5488
▁style	-9.5488
▁cash	-9.54892
▁granny	-9.54893
▁common	-9.54898
▁abby	-9.54917
▁under	-9.5492
▁guide	-9.54935
▁richard	-9.54946
▁repeat	-9.54976
▁term	-9.55091
▁market	-9.55114
▁rise	-9.55128
▁assure	-9.55138
▁involved	-9.55263
▁dick	-9.55297
▁hook	-9.55314
▁yard	-9.55608
▁siren	-9.5568
▁nu	-9.55721
▁male	-9.55949
ball	-9.56457
▁plant	-9.56565
▁nicky	-9.57137
head	-9.57245
▁prepare	-9.57376
▁direct	-9.57718
▁wouldve	-9.5795
▁adventure	-9.57995
▁buttermaker	-9.57995
▁effect	-9.57995
▁halloween	-9.57995
▁honking	-9.57995
▁mattie	-9.57995
▁military	-9.57995
▁monsieur	-9.57995
▁necessary	-9.57995
▁original	-9.57995
▁profession	-9.57995
▁restaurant	-9.57995
▁somehow	-9.57995
▁telegram	-9.57995
▁written	-9.57995
▁zarkorr	-9.57995
▁avoid	-9.57995
▁pizza	-9.57995
▁sweetmeat	-9.57995
▁clapping	-9.57995
▁video	-9.57996
▁kathy	-9.57996
▁jamie	-9.57996
▁shock	-9.57997
▁threat	-9.57997
▁limit	-9.57998
▁medical	-9.57998
▁eddie	-9.57999
▁dragonball	-9.58
▁flame	-9.58001
▁tiny	-9.58007
▁bravo	-9.58012
▁rush	-9.58022
▁fought	-9.58042
▁roger	-9.58124
▁huge	-9.58149
▁grave	-9.58186
▁anti	-9.58197
▁spell	-9.58198
▁harm	-9.58274
▁shape	-9.58617
▁concerned	-9.58739
▁grown	-9.58744
▁bite	-9.58781
▁inter	-9.58805
ummy	-9.58862
▁signal	-9.58869
▁ship	-9.58933
▁copy	-9.59075
▁actor	-9.59097
▁wise	-9.59541
▁beyond	-9.61221
▁bottom	-9.61221
▁gertrude	-9.61221
▁phoenix	-9.61221
▁security	-9.61221
▁terrific	-9.61221
▁gandhi	-9.61221
▁squeak	-9.61221
▁washington	-9.61221
▁shadow	-9.61222
▁wreck	-9.61222
▁alarm	-9.61222
▁norman	-9.61222
▁discover	-9.61223
▁threw	-9.61223
▁davy	-9.61223
▁local	-9.61224
▁grandpa	-9.61232
▁spring	-9.61251
▁voiceover	-9.61261
▁express	-9.61261
▁christine	-9.61317
▁loving	-9.61322
▁hiding	-9.61331
▁agent	-9.61351
proof	-9.61405
▁guest	-9.61485
▁cave	-9.61496
▁bigger	-9.61498
▁yall	-9.6169
▁arrived	-9.61701
▁spit	-9.61738
▁gee	-9.61878
▁jap	-9.61991
▁corner	-9.62066
▁doin	-9.62306
til	-9.62419
▁planet	-9.62512
▁agreed	-9.62562
▁realized	-9.62878
▁cape	-9.63257
▁pee	-9.64021
▁bust	-9.64163
ound	-9.64546
▁claudia	-9.64554
▁competition	-9.64554
▁coughing	-9.64554
▁counselor	-9.64554
▁example	-9.64554
▁project	-9.64554
▁sweden	-9.64554
▁uniform	-9.64554
▁yvette	-9.64554
▁design	-9.64554
▁disturb	-9.64554
▁godmother	-9.64554
▁michael	-9.64554
▁minister	-9.64554
▁purpose	-9.64554
▁represent	-9.64554
▁paradise	-9.64554
▁monday	-9.64554
▁constance	-9.64555
▁release	-9.64555
▁canterville	-9.64555
▁sancho	-9.64555
▁birth	-9.64555
▁apple	-9.64555
▁spread	-9.64556
▁provide	-9.64556
▁mount	-9.64557
▁doyle	-9.64557
▁priest	-9.64557
▁plus	-9.64558
▁jean	-9.64558
▁expert	-9.64559
▁demand	-9.64562
▁held	-9.64562
▁cantrell	-9.64565
▁irv	-9.64568
▁desert	-9.64577
▁gasping	-9.64612
▁wound	-9.64632
▁cream	-9.64642
▁aunt	-9.64665
▁howard	-9.6468
▁spare	-9.64761
▁bike	-9.64817
▁gail	-9.64864
▁cake	-9.64867
▁pair	-9.64951
▁grass	-9.65006
▁beeping	-9.65125
▁code	-9.65204
▁mission	-9.65454
▁prom	-9.65603
▁pool	-9.65788
▁bean	-9.66353
▁locked	-9.66622
▁poole	-9.67068
▁cookie	-9.67114
▁chat	-9.67835
▁sooner	-9.67945
▁brilliant	-9.68002
▁dulcinea	-9.68002
▁effort	-9.68002
▁rabbit	-9.68002
▁staff	-9.68002
▁embarrass	-9.68003
▁giggling	-9.68003
▁convince	-9.68003
▁england	-9.68003
▁punish	-9.68003
▁cahill	-9.68003
▁neighbor	-9.68003
▁howling	-9.68003
▁pride	-9.68004
▁handsome	-9.68004
▁stock	-9.68006
▁talent	-9.68007
▁umney	-9.68007
▁clay	-9.68014
▁chose	-9.68014
ezvous	-9.68019
▁broad	-9.68044
▁socialist	-9.68046
▁legend	-9.68059
▁swing	-9.68071
▁af	-9.68104
▁kane	-9.68179
▁pure	-9.68366
▁stink	-9.68384
▁loan	-9.68448
▁indistinctly	-9.68549
▁luc	-9.68633
▁manager	-9.6873
▁jewel	-9.68749
▁whispering	-9.68784
▁slowly	-9.68896
▁crashing	-9.68976
▁skin	-9.69029
▁murderer	-9.69213
▁fur	-9.69361
▁meat	-9.69399
▁wil	-9.69858
▁bowl	-9.69916
▁unit	-9.70162
▁scare	-9.70401
▁storm	-9.711
▁stole	-9.71289
just	-9.71486
▁champagne	-9.71574
▁chipmunk	-9.71574
▁clanging	-9.71574
▁international	-9.71574
▁jacques	-9.71574
▁jekyll	-9.71574
▁maleficent	-9.71574
▁miracle	-9.71574
▁musket	-9.71574
▁register	-9.71574
▁treasure	-9.71574
▁weapon	-9.71574
▁gloria	-9.71574
▁memory	-9.71574
▁civil	-9.71574
▁holiness	-9.71574
▁freak	-9.71574
▁product	-9.71574
▁damage	-9.71575
▁emotion	-9.71575
▁desire	-9.71576
▁creep	-9.71577
▁nope	-9.71581
▁iron	-9.71582
▁dancing	-9.71586
▁firing	-9.71594
▁winning	-9.71597
▁tony	-9.71607
▁odd	-9.7161
▁knight	-9.71612
▁electricity	-9.71617
▁curse	-9.71618
▁gather	-9.71629
▁pressure	-9.71631
▁beast	-9.71648
▁edward	-9.71651
▁dropped	-9.71677
▁flight	-9.7171
▁delight	-9.71765
▁dump	-9.71769
▁ego	-9.71778
▁plain	-9.71809
▁shop	-9.71812
▁june	-9.71822
▁mile	-9.71848
▁legal	-9.71853
▁tillie	-9.71876
▁mix	-9.71913
▁shine	-9.71939
▁shake	-9.72012
▁wire	-9.72056
▁arth	-9.72197
agin	-9.72279
▁booming	-9.72347
▁noticed	-9.72382
but	-9.72437
▁scary	-9.72546
▁cheat	-9.72639
▁file	-9.72914
▁fri	-9.72924
▁concern	-9.74401
▁fort	-9.7447
rick	-9.7478
yeah	-9.74816
▁usual	-9.75049
▁tip	-9.75089
▁apart	-9.75203
▁success	-9.75277
▁advice	-9.75278
▁affair	-9.75278
▁apparently	-9.75278
▁approach	-9.75278
▁attempt	-9.75278
▁bolshevik	-9.75278
▁built	-9.75278
▁employ	-9.75278
▁equipment	-9.75278
▁nonsense	-9.75278
▁produce	-9.75278
▁samadhi	-9.75278
▁shoulder	-9.75278
▁shouldve	-9.75278
▁surrender	-9.75278
▁vehicle	-9.75278
▁weather	-9.75278
▁attorney	-9.75278
▁cardinal	-9.75278
▁female	-9.75278
▁flicka	-9.75278
▁sanchez	-9.75278
▁zeena	-9.75278
▁progress	-9.75278
▁pokemon	-9.75278
▁potato	-9.75278
▁whooshing	-9.75278
▁result	-9.75278
▁capital	-9.75278
▁witness	-9.75278
▁value	-9.75278
▁convent	-9.75279
▁claim	-9.75279
▁clock	-9.75279
▁crime	-9.75279
▁exciting	-9.7528
▁issue	-9.7528
▁reckon	-9.7528
▁walter	-9.7528
▁biggest	-9.75281
▁roof	-9.75281
▁admir	-9.75281
▁habit	-9.75282
▁thou	-9.75286
▁saint	-9.75295
▁palace	-9.75343
▁nuts	-9.7536
▁lucia	-9.75369
▁artist	-9.75388
▁salt	-9.75393
izing	-9.75414
▁forest	-9.75482
▁quot	-9.75541
▁coke	-9.75562
▁ike	-9.75595
▁mike	-9.75598
▁sex	-9.75604
burg	-9.75743
▁sail	-9.75787
▁sighing	-9.75816
▁fuck	-9.75826
▁cast	-9.75829
▁batt	-9.7585
▁hm	-9.75933
▁mustard	-9.76115
▁pill	-9.76138
▁heat	-9.76565
▁disco	-9.7677
▁letting	-9.77098
▁hooh	-9.77252
▁chap	-9.77642
▁ty	-9.77694
▁paint	-9.78072
▁crash	-9.78078
▁spoke	-9.78829
▁celebrate	-9.79124
▁character	-9.79124
▁cigarette	-9.79124
▁current	-9.79124
▁energy	-9.79124
▁horrible	-9.79124
▁otherwise	-9.79124
▁peggotty	-9.79124
▁responsible	-9.79124
▁sioux	-9.79124
▁suspense	-9.79124
▁telephone	-9.79124
▁theodore	-9.79124
▁understood	-9.79124
▁measure	-9.79124
▁possess	-9.79124
▁material	-9.79124
▁bubb	-9.79125
▁jesse	-9.79125
▁frog	-9.79126
▁stories	-9.79126
▁holly	-9.79128
▁spider	-9.79128
▁western	-9.79128
▁recall	-9.79128
▁shift	-9.79128
▁labor	-9.7913
▁baker	-9.7914
▁dummy	-9.7916
▁insist	-9.79165
▁property	-9.79177
▁communist	-9.79212
▁saving	-9.79236
▁task	-9.79241
▁noble	-9.79255
▁itd	-9.79257
▁twit	-9.79287
▁began	-9.79305
▁duty	-9.79321
▁swim	-9.79321
▁grade	-9.79326
▁ruth	-9.79351
▁sweetie	-9.79497
▁jamaican	-9.795
▁passion	-9.79577
▁sand	-9.79592
▁rattl	-9.79621
▁nun	-9.79648
ault	-9.79668
▁sally	-9.79669
▁down	-9.79762
▁bridget	-9.79827
▁meal	-9.79961
▁gate	-9.80013
▁doc	-9.80198
▁gosh	-9.802
▁wet	-9.8028
▁rare	-9.80396
▁pot	-9.80411
ient	-9.8151
▁medi	-9.82336
night	-9.82553
▁announce	-9.82665
house	-9.82676
▁total	-9.8287
▁mate	-9.82917
▁boyfriend	-9.83124
▁chinook	-9.83124
▁citizen	-9.83124
▁criminal	-9.83124
▁diamond	-9.83124
▁earlier	-9.83124
▁elevator	-9.83124
▁footsteps	-9.83124
▁kruger	-9.83124
▁meredith	-9.83124
▁munchie	-9.83124
▁photograph	-9.83124
▁subject	-9.83124
▁thompson	-9.83124
▁anxious	-9.83124
▁attend	-9.83124
▁contract	-9.83124
▁gideon	-9.83124
▁gruberman	-9.83124
▁knife	-9.83124
▁rescue	-9.83124
▁suspect	-9.83124
▁ignor	-9.83124
▁birkin	-9.83124
▁creaking	-9.83124
▁splashing	-9.83124
▁election	-9.83124
▁victor	-9.83124
▁knowledge	-9.83125
▁bryant	-9.83126
▁prior	-9.83126
▁pitch	-9.83128
▁trotwood	-9.83128
▁sugar	-9.83131
▁flag	-9.83132
▁wrap	-9.83136
▁cackl	-9.83148
▁cents	-9.83157
▁investigation	-9.83159
▁mask	-9.83178
▁therell	-9.83181
▁lips	-9.83191
▁extremely	-9.83205
▁psycho	-9.83207
▁katy	-9.83222
▁doug	-9.8324
▁yearold	-9.83276
▁whereve	-9.83411
▁usually	-9.83417
▁pele	-9.83432
▁stolen	-9.83457
▁pla	-9.83465
▁qui	-9.83492
▁disappointed	-9.83504
▁taxi	-9.83569
▁unto	-9.83592
▁dust	-9.83855
▁laid	-9.83913
▁payment	-9.83973
▁organiz	-9.84024
▁spin	-9.84166
▁union	-9.84218
ribe	-9.8469
▁wipe	-9.84767
omber	-9.86645
▁arrive	-9.86672
▁shoo	-9.86715
▁africa	-9.86996
▁inform	-9.87192
▁bow	-9.87218
▁andrada	-9.8729
▁disgusting	-9.8729
▁evidence	-9.8729
▁executive	-9.8729
▁italian	-9.8729
▁jealous	-9.8729
▁kakamucho	-9.8729
▁resistance	-9.8729
▁separate	-9.8729
▁unusual	-9.8729
▁whenever	-9.8729
▁whirring	-9.8729
▁wickfield	-9.8729
▁bernie	-9.8729
▁delicious	-9.8729
▁joseph	-9.8729
▁magnet	-9.8729
▁stomach	-9.8729
▁degree	-9.87291
▁remark	-9.87291
▁campbell	-9.87291
▁popular	-9.87291
▁replace	-9.87291
▁byebye	-9.87291
▁insult	-9.87291
▁physical	-9.87291
▁croft	-9.87292
▁level	-9.87292
▁poison	-9.87292
▁sword	-9.87292
▁aware	-9.87293
▁brown	-9.87293
▁plum	-9.87294
▁type	-9.87295
▁ugly	-9.87296
▁sharp	-9.87297
▁steam	-9.87297
▁pump	-9.87298
▁delay	-9.87302
▁shopping	-9.87321
▁unfortunately	-9.87364
▁youth	-9.87424
▁eastman	-9.87443
▁trot	-9.87461
▁castle	-9.8751
▁freeze	-9.87526
ternal	-9.87546
▁crew	-9.87584
▁african	-9.87586
▁manner	-9.87613
▁rome	-9.87619
▁ox	-9.87722
▁fang	-9.87744
▁invited	-9.87864
▁jane	-9.87895
▁sandy	-9.87911
▁lily	-9.88061
▁aid	-9.88184
▁page	-9.89952
▁instrument	-9.91281
▁nothin	-9.91425
▁april	-9.91638
▁defense	-9.91638
▁downstairs	-9.91638
▁happiness	-9.91638
▁interrupt	-9.91638
▁interview	-9.91638
▁micawber	-9.91638
▁oliver	-9.91638
▁opportunity	-9.91638
▁pregnant	-9.91638
▁sandwich	-9.91638
▁steerforth	-9.91638
▁thirsty	-9.91638
▁velrans	-9.91638
▁stefan	-9.91638
▁smith	-9.91638
▁cowboy	-9.91639
▁proctor	-9.91639
▁yankee	-9.91639
▁science	-9.91639
▁jimmy	-9.91639
▁supper	-9.91639
▁watergate	-9.9164
▁shawn	-9.9164
▁troop	-9.9164
▁excited	-9.9164
▁hammer	-9.91641
▁profit	-9.91643
▁stood	-9.91643
▁bfg	-9.91647
▁ginny	-9.9166
▁trapped	-9.91662
▁snor	-9.91663
▁comfortable	-9.91684
▁candy	-9.91688
▁prize	-9.91691
▁pepper	-9.91741
▁belt	-9.91764
▁bullet	-9.91799
▁weekend	-9.91802
▁route	-9.91815
▁discussion	-9.91856
▁slight	-9.91902
▁bound	-9.91915
▁rip	-9.92047
▁heck	-9.92103
▁compare	-9.92113
mush	-9.92127
▁flower	-9.9215
▁received	-9.92154
▁tax	-9.92239
▁mere	-9.92363
▁tune	-9.92416
▁golden	-9.92489
▁bass	-9.92864
▁bath	-9.95308
▁invite	-9.95561
wood	-9.95705
▁sudden	-9.95919
▁darlin	-9.95969
▁ambassador	-9.96184
▁appointment	-9.96184
▁authority	-9.96184
▁butcher	-9.96184
▁chandler	-9.96184
▁deposit	-9.96184
▁desperate	-9.96184
▁devito	-9.96184
▁giuliano	-9.96184
▁grandmother	-9.96184
▁improve	-9.96184
▁magazine	-9.96184
▁occasion	-9.96184
▁practical	-9.96184
▁responsibility	-9.96184
▁rhythm	-9.96184
▁sheila	-9.96184
▁university	-9.96184
▁vegetable	-9.96184
▁wednesday	-9.96184
▁agnes	-9.96184
▁buried	-9.96184
▁cricket	-9.96184
▁romantic	-9.96184
▁grateful	-9.96184
▁photo	-9.96184
▁border	-9.96184
▁concert	-9.96184
▁document	-9.96184
▁duchess	-9.96184
▁reverend	-9.96184
▁crush	-9.96184
▁focus	-9.96184
▁unique	-9.96184
▁wagon	-9.96185
▁zorin	-9.96185
▁borrow	-9.96185
▁sweat	-9.96185
▁salary	-9.96185
▁miami	-9.96186
▁junk	-9.96186
▁spoil	-9.96186
▁propose	-9.96187
▁firm	-9.96187
▁decent	-9.96187
▁snow	-9.96188
▁gfg	-9.96188
▁remove	-9.96188
▁basketball	-9.96189
▁hollywood	-9.96189
▁alien	-9.9619
▁onto	-9.96191
▁zoe	-9.96192
▁steel	-9.96195
▁bathroom	-9.96199
▁barely	-9.96199
▁deny	-9.96226
▁gamb	-9.96232
▁slipper	-9.96232
▁plate	-9.96263
▁clever	-9.96266
▁blast	-9.96269
▁direction	-9.96316
▁hung	-9.96327
▁atta	-9.96365
▁champion	-9.96545
▁fake	-9.96568
▁magical	-9.9663
▁cia	-9.96641
▁spent	-9.9671
▁wide	-9.96719
▁commissioner	-9.96799
▁softly	-9.96875
▁mail	-9.97214
▁gim	-9.97283
▁gig	-9.97301
▁range	-9.97655
▁india	-9.9968
▁whisper	-9.99869
▁involve	-10.0033
oui	-10.0074
▁trap	-10.0083
▁gettin	-10.0089
▁francis	-10.009
▁journal	-10.0095
▁benefit	-10.0095
▁cheryl	-10.0095
▁eagle	-10.0095
▁earthquake	-10.0095
▁festival	-10.0095
▁individual	-10.0095
▁japanese	-10.0095
▁magnificent	-10.0095
▁oclock	-10.0095
▁political	-10.0095
▁privilege	-10.0095
▁research	-10.0095
▁scratch	-10.0095
▁shattering	-10.0095
▁stretch	-10.0095
▁szalinski	-10.0095
▁thornton	-10.0095
▁triumph	-10.0095
▁advance	-10.0095
▁affect	-10.0095
▁stokes	-10.0095
▁nixon	-10.0095
▁spanish	-10.0095
▁caravan	-10.0095
▁accent	-10.0095
▁melba	-10.0095
▁twenty	-10.0095
▁appli	-10.0095
▁italy	-10.0095
▁option	-10.0095
▁doorbell	-10.0095
▁toilet	-10.0095
▁regard	-10.0095
▁cheap	-10.0095
▁proceed	-10.0095
▁macka	-10.0095
▁slave	-10.0095
▁stamp	-10.0096
▁bleating	-10.0097
▁trash	-10.0098
▁native	-10.01
▁connect	-10.0101
▁dragon	-10.0103
▁assume	-10.0103
▁goku	-10.0104
▁grandma	-10.0105
▁mumbles	-10.0108
▁panting	-10.0108
▁comment	-10.0108
▁domin	-10.011
▁growling	-10.0112
▁coward	-10.0121
▁wallet	-10.013
▁bible	-10.0136
▁lean	-10.0146
▁rode	-10.0271
▁kai	-10.0272
put	-10.0445
▁fianc	-10.05
point	-10.0549
▁boom	-10.0563
▁social	-10.0588
▁isabel	-10.0595
▁argument	-10.0595
▁beloved	-10.0595
▁engelberg	-10.0595
▁exhales	-10.0595
▁genius	-10.0595
▁girlfriend	-10.0595
▁guarantee	-10.0595
▁height	-10.0595
▁impression	-10.0595
▁ordinary	-10.0595
▁rapunzel	-10.0595
▁republic	-10.0595
▁struggl	-10.0595
▁whiskey	-10.0595
▁patience	-10.0595
▁sacred	-10.0595
▁audition	-10.0595
▁blackmail	-10.0595
▁crunch	-10.0595
▁milady	-10.0595
▁ryker	-10.0595
▁aramis	-10.0595
▁sneak	-10.0595
▁recently	-10.0595
▁insane	-10.0595
▁vacation	-10.0595
▁spark	-10.0595
▁dutch	-10.0595
▁pilot	-10.0595
▁tooth	-10.0595
▁daisy	-10.0595
▁glory	-10.0595
▁branch	-10.0595
▁diana	-10.0595
▁duran	-10.0595
▁illusion	-10.0595
▁merry	-10.0595
▁presence	-10.0595
▁nightmare	-10.0595
▁sondra	-10.0596
▁gym	-10.0596
▁chick	-10.0596
▁wasting	-10.0596
▁uhoh	-10.0596
▁virginia	-10.0596
▁grape	-10.0597
▁polar	-10.06
▁lenny	-10.0601
▁leak	-10.0603
▁sentence	-10.0607
▁section	-10.061
▁santa	-10.0612
▁homework	-10.0616
▁toast	-10.0619
▁chuck	-10.0619
▁loop	-10.0623
▁spoken	-10.0633
serving	-10.0645
▁beck	-10.0655
▁tang	-10.067
cloth	-10.0713
ggin	-10.076
▁math	-10.0784
▁receive	-10.1059
▁studi	-10.1101
▁electric	-10.1115
▁comfort	-10.1115
▁instruct	-10.112
▁neigh	-10.1121
▁challenge	-10.1121
▁concludes	-10.1121
▁easily	-10.1121
▁marvelous	-10.1121
▁mexico	-10.1121
▁mirror	-10.1121
▁permission	-10.1121
▁principle	-10.1121
▁schedule	-10.1121
▁seltzer	-10.1121
▁squad	-10.1121
▁tuesday	-10.1121
▁abandon	-10.1121
▁enemies	-10.1121
▁giggles	-10.1121
▁modern	-10.1121
▁sobbing	-10.1121
▁tournament	-10.1121
▁victim	-10.1121
▁banana	-10.1121
▁barbara	-10.1121
▁disease	-10.1121
▁athos	-10.1121
▁distract	-10.1121
regular	-10.1121
▁fortune	-10.1121
▁becoming	-10.1121
▁crook	-10.1121
▁await	-10.1121
▁lassard	-10.1121
▁honour	-10.1121
▁changing	-10.1121
▁chakal	-10.1121
▁distance	-10.1121
▁punch	-10.1121
▁intend	-10.1121
▁wailing	-10.1121
▁factory	-10.1121
▁eerie	-10.1122
▁cathy	-10.1122
▁chiming	-10.1122
▁alice	-10.1122
▁cried	-10.1122
▁critic	-10.1122
▁toron	-10.1123
▁planned	-10.1123
▁scrap	-10.1123
▁bump	-10.1123
▁hitler	-10.1124
▁lightning	-10.1124
▁inner	-10.1125
▁recover	-10.1125
▁jazz	-10.1126
▁hissing	-10.1126
▁golf	-10.1127
▁client	-10.1127
▁harv	-10.1127
▁unlike	-10.1127
▁cattle	-10.1128
▁whoohoo	-10.1129
▁flash	-10.1129
▁zone	-10.113
▁crackling	-10.1131
▁airport	-10.1132
▁string	-10.1133
▁china	-10.1133
▁chapel	-10.1133
▁herman	-10.114
▁contain	-10.1143
▁skill	-10.1144
▁director	-10.1153
▁edge	-10.1154
▁cmon	-10.1162
▁forth	-10.1179
▁acre	-10.1185
▁dora	-10.1197
▁sometime	-10.1235
tennis	-10.1247
▁zoo	-10.1329
▁chase	-10.1431
▁organ	-10.1552
▁commission	-10.1601
▁bev	-10.1606
▁somethin	-10.1655
▁develop	-10.1669
eating	-10.167
▁athlete	-10.1676
▁audience	-10.1676
▁beneath	-10.1676
▁chelsea	-10.1676
▁clicking	-10.1676
▁confidence	-10.1676
▁describe	-10.1676
▁education	-10.1676
▁elizabeth	-10.1676
▁engaged	-10.1676
▁expensive	-10.1676
▁francois	-10.1676
▁insurance	-10.1676
▁nascimento	-10.1676
▁occur	-10.1676
▁policy	-10.1676
▁rambalcochet	-10.1676
▁regret	-10.1676
▁shakespeare	-10.1676
▁someplace	-10.1676
▁structure	-10.1676
▁supplies	-10.1676
▁terribly	-10.1676
▁texas	-10.1676
▁fortunate	-10.1676
▁twelve	-10.1676
▁eventually	-10.1676
▁routine	-10.1676
▁august	-10.1676
▁communication	-10.1676
▁conduct	-10.1676
▁scooter	-10.1676
▁signature	-10.1676
▁prevent	-10.1677
▁sophie	-10.1677
▁smack	-10.1677
▁tongue	-10.1677
▁babies	-10.1677
▁silence	-10.1677
▁quark	-10.1677
▁senator	-10.1677
▁ashamed	-10.1677
▁sherry	-10.1677
▁bodies	-10.1677
▁chimes	-10.1677
▁loyal	-10.1677
▁candle	-10.1677
▁beef	-10.1677
▁larry	-10.1677
▁moaning	-10.1677
▁johnny	-10.1677
▁fbi	-10.1678
▁lousy	-10.1678
▁blew	-10.1678
▁invad	-10.1679
▁urge	-10.1679
▁jones	-10.168
▁jerk	-10.1681
▁lamb	-10.1682
▁francisco	-10.1682
▁gown	-10.1685
▁boring	-10.1687
▁gladys	-10.1691
▁secretary	-10.1693
▁farley	-10.1694
▁safety	-10.1701
▁federa	-10.1701
like	-10.1709
▁nome	-10.1714
▁reward	-10.1719
▁trade	-10.1757
onnie	-10.1941
▁there	-10.2155
maker	-10.217
▁continu	-10.2217
▁flow	-10.2223
▁appetite	-10.2265
▁assignment	-10.2265
▁australia	-10.2265
▁butler	-10.2265
▁circle	-10.2265
▁colbert	-10.2265
▁discipline	-10.2265
▁disguise	-10.2265
▁escort	-10.2265
▁families	-10.2265
▁helmet	-10.2265
▁lincoln	-10.2265
▁patrol	-10.2265
▁positive	-10.2265
▁possibility	-10.2265
▁reservation	-10.2265
▁rochelle	-10.2265
▁sigrid	-10.2265
▁society	-10.2265
▁splendid	-10.2265
▁sutemaru	-10.2265
▁william	-10.2265
▁haldeman	-10.2265
▁lecture	-10.2265
▁mercy	-10.2265
▁neighborhood	-10.2265
▁text	-10.2265
▁warrior	-10.2265
▁assistance	-10.2265
▁circu	-10.2265
▁confess	-10.2265
▁smash	-10.2265
▁tanner	-10.2265
▁passenger	-10.2265
▁rumba	-10.2265
▁ocean	-10.2265
▁forbid	-10.2265
▁bleeding	-10.2265
▁generation	-10.2265
▁editor	-10.2265
▁drown	-10.2265
▁plastic	-10.2265
▁swimming	-10.2265
▁towel	-10.2265
▁thief	-10.2265
▁shirt	-10.2265
▁thrill	-10.2265
▁charity	-10.2265
▁fancy	-10.2265
▁cousin	-10.2265
▁warrant	-10.2265
▁retire	-10.2265
▁porthos	-10.2265
▁francs	-10.2265
▁rumor	-10.2265
▁spain	-10.2265
▁float	-10.2266
▁juice	-10.2266
▁agh	-10.2266
▁cruel	-10.2266
▁identifi	-10.2266
▁lndia	-10.2266
▁serum	-10.2266
▁lolly	-10.2266
▁minor	-10.2267
▁stomp	-10.2267
▁mood	-10.2268
▁repair	-10.2268
▁navy	-10.2269
▁fond	-10.227
while	-10.227
▁development	-10.2273
▁aye	-10.2273
▁steer	-10.2273
▁select	-10.2276
▁glue	-10.2279
▁twist	-10.228
▁peaceful	-10.2281
▁oak	-10.2282
arily	-10.2282
▁aboard	-10.2284
▁desk	-10.2287
ably	-10.2292
▁brake	-10.2294
▁chill	-10.2328
▁tosh	-10.2363
▁web	-10.2461
▁stew	-10.2504
gged	-10.2534
lash	-10.2663
ought	-10.2727
▁beep	-10.2787
town	-10.2844
▁bueno	-10.289
▁century	-10.289
▁clattering	-10.289
▁determined	-10.289
▁dynamite	-10.289
▁exercise	-10.289
▁experiment	-10.289
▁fouquet	-10.289
▁helicopter	-10.289
▁hypnoray	-10.289
▁install	-10.289
▁intelligent	-10.289
▁joshua	-10.289
▁kaguya	-10.289
▁phrase	-10.289
▁relationship	-10.289
▁sacrifice	-10.289
▁solution	-10.289
▁spenlow	-10.289
▁subtitle	-10.289
▁teenage	-10.289
▁territory	-10.289
▁ulysses	-10.289
▁wisdom	-10.289
▁establish	-10.289
▁exhaust	-10.289
▁incident	-10.289
▁miranda	-10.289
▁peacock	-10.289
▁squeeze	-10.289
▁sweep	-10.289
▁canceled	-10.289
▁destruction	-10.289
▁hidden	-10.289
▁garbage	-10.289
▁rustling	-10.289
▁tradition	-10.289
▁expedition	-10.289
▁quality	-10.289
▁olsen	-10.289
▁rotten	-10.289
▁reflect	-10.289
▁robbie	-10.289
▁divorce	-10.289
▁fifth	-10.289
▁brief	-10.289
▁illegal	-10.289
▁source	-10.289
▁closing	-10.289
▁logan	-10.289
▁instructions	-10.289
▁strip	-10.289
▁dawn	-10.289
▁solve	-10.289
▁bride	-10.289
▁reveal	-10.2891
▁santos	-10.2891
▁item	-10.2891
▁chanting	-10.2891
▁susan	-10.2892
▁attractive	-10.2892
ebod	-10.2893
▁humble	-10.2896
▁argue	-10.2898
▁swo	-10.2965
ologist	-10.3329
quot	-10.3509
born	-10.3527
▁obvious	-10.353
viva	-10.3535
▁runnin	-10.3537
▁psych	-10.3543
▁basket	-10.3556
▁disagree	-10.3556
▁ahearn	-10.3556
▁apology	-10.3556
▁athletic	-10.3556
▁available	-10.3556
▁background	-10.3556
▁basically	-10.3556
▁belief	-10.3556
▁butterfree	-10.3556
▁confused	-10.3556
▁detective	-10.3556
▁district	-10.3556
▁extraordinary	-10.3556
▁fashion	-10.3556
▁ingredient	-10.3556
▁jessica	-10.3556
▁lndistinct	-10.3556
▁manhattan	-10.3556
▁pattern	-10.3556
▁politician	-10.3556
▁politics	-10.3556
▁suicide	-10.3556
▁tattoo	-10.3556
▁uriah	-10.3556
▁villain	-10.3556
▁muffled	-10.3556
▁ability	-10.3556
▁hahaha	-10.3556
▁statue	-10.3556
▁chessy	-10.3556
▁insect	-10.3556
▁precious	-10.3556
▁jessie	-10.3556
▁relative	-10.3556
▁nucle	-10.3556
▁claire	-10.3556
▁cliff	-10.3556
▁process	-10.3556
▁centre	-10.3557
▁timmy	-10.3557
▁woke	-10.3557
▁mostly	-10.3557
▁solid	-10.3557
▁struck	-10.3557
▁balance	-10.3557
▁nerve	-10.3557
▁echo	-10.3557
▁couch	-10.3557
▁abner	-10.3557
▁mustang	-10.3557
▁rita	-10.3558
▁stairs	-10.3558
▁championship	-10.3558
▁dumas	-10.3558
▁mouse	-10.3558
▁susie	-10.3559
▁twins	-10.3559
▁pub	-10.3559
▁lick	-10.356
▁socks	-10.3561
▁interfere	-10.3562
▁jimbo	-10.3564
▁owns	-10.3568
craft	-10.3571
▁adore	-10.3579
▁hiya	-10.3603
▁vari	-10.3687
even	-10.3725
mmed	-10.3917
▁tempo	-10.4268
▁bureau	-10.4271
▁apologies	-10.4271
▁attitude	-10.4271
▁autograph	-10.4271
▁bethlehem	-10.4271
▁buckingham	-10.4271
▁bulldozer	-10.4271
▁ceremony	-10.4271
▁charmeleon	-10.4271
▁circumstances	-10.4271
▁compromise	-10.4271
▁confirm	-10.4271
▁engagement	-10.4271
▁fascinating	-10.4271
▁fitzgerald	-10.4271
▁giuseppe	-10.4271
▁impressive	-10.4271
▁including	-10.4271
▁knuckle	-10.4271
▁license	-10.4271
▁misunderstand	-10.4271
▁mysterious	-10.4271
▁mystery	-10.4271
▁persuade	-10.4271
▁precisely	-10.4271
▁scholarship	-10.4271
▁servant	-10.4271
▁smoking	-10.4271
▁specific	-10.4271
▁subpoena	-10.4271
▁target	-10.4271
▁temperature	-10.4271
▁turkey	-10.4271
▁veterans	-10.4271
▁destiny	-10.4271
▁lobster	-10.4271
▁terror	-10.4271
▁theory	-10.4271
▁trigger	-10.4271
▁ufo	-10.4271
▁whining	-10.4271
▁assistant	-10.4271
▁behave	-10.4271
▁chinese	-10.4271
▁supply	-10.4271
▁mistress	-10.4271
▁phase	-10.4271
▁costello	-10.4271
▁purchase	-10.4271
▁remote	-10.4271
▁congress	-10.4271
▁izzy	-10.4271
▁reserve	-10.4271
▁cooperat	-10.4271
▁instance	-10.4271
▁monkey	-10.4271
▁curtain	-10.4271
▁evie	-10.4271
▁cease	-10.4271
▁extend	-10.4271
▁period	-10.4271
▁error	-10.4271
▁radical	-10.4271
▁album	-10.4271
▁income	-10.4271
▁hazel	-10.4271
▁flock	-10.4271
▁thumb	-10.4271
▁mayday	-10.4271
▁shove	-10.4271
▁aisle	-10.4271
▁region	-10.4271
▁estate	-10.4271
▁burst	-10.4271
▁diane	-10.4272
▁thick	-10.4272
▁blaring	-10.4272
▁regime	-10.4272
▁claus	-10.4273
▁operator	-10.4276
▁mule	-10.4279
▁mental	-10.4299
▁dori	-10.4312
▁mud	-10.4315
▁sigh	-10.4406
▁drag	-10.4413
▁wei	-10.4654
▁squeal	-10.4933
book	-10.4993
▁fran	-10.5014
▁actual	-10.5014
▁mumbl	-10.5024
▁beau	-10.5037
▁bullfight	-10.504
▁bushwood	-10.504
▁cinderella	-10.504
▁clermont	-10.504
▁construct	-10.504
▁coughs	-10.504
▁dogtective	-10.504
▁excitement	-10.504
▁explanation	-10.504
▁filthy	-10.504
▁frightened	-10.504
▁gorgeous	-10.504
▁heavily	-10.504
▁holiday	-10.504
▁inspiration	-10.504
▁invented	-10.504
▁invitation	-10.504
▁judgment	-10.504
▁liberty	-10.504
▁lollipop	-10.504
▁muerte	-10.504
▁negotiat	-10.504
▁puppy	-10.504
▁religion	-10.504
▁shogun	-10.504
▁sinners	-10.504
▁smythe	-10.504
▁soviet	-10.504
▁suzanne	-10.504
▁thursday	-10.504
▁alexander	-10.504
▁draft	-10.504
▁essay	-10.504
▁memories	-10.504
▁negative	-10.504
▁stammer	-10.504
▁swallow	-10.504
▁ultimate	-10.504
▁orange	-10.504
▁suitcase	-10.504
▁theater	-10.504
▁alaska	-10.504
▁influen	-10.504
▁league	-10.504
▁ninja	-10.504
▁rafael	-10.504
▁imitating	-10.504
▁surgery	-10.504
ezmoi	-10.504
▁bishop	-10.504
▁brooklyn	-10.504
▁trunk	-10.504
▁bargain	-10.504
▁review	-10.504
▁vesper	-10.504
▁casual	-10.504
▁harsh	-10.504
▁reckless	-10.504
▁marcus	-10.504
▁cheek	-10.504
▁pistol	-10.504
▁punk	-10.504
▁keach	-10.504
▁fetch	-10.504
▁protest	-10.504
▁mamma	-10.504
▁urmi	-10.504
▁cruisin	-10.504
▁wicked	-10.504
▁battery	-10.5041
▁theme	-10.5041
▁zero	-10.5041
▁barrel	-10.5041
▁model	-10.5041
▁fab	-10.5043
▁thump	-10.5043
▁presum	-10.5043
▁scalp	-10.5043
▁rising	-10.5044
▁inches	-10.5044
▁liar	-10.5044
▁haunt	-10.5044
▁shining	-10.5044
▁clinic	-10.5049
ville	-10.5062
version	-10.5086
▁folk	-10.543
▁immediate	-10.5847
▁mmhm	-10.5859
▁depart	-10.5866
▁achieve	-10.5873
▁diploma	-10.5873
▁physi	-10.5873
▁advantage	-10.5873
▁amount	-10.5873
▁appeal	-10.5873
▁approve	-10.5873
▁association	-10.5873
▁average	-10.5873
▁banquet	-10.5873
▁buffalo	-10.5873
▁bunyan	-10.5873
▁campaign	-10.5873
▁caribou	-10.5873
▁carriage	-10.5873
▁celebrating	-10.5873
▁conscience	-10.5873
▁consciousness	-10.5873
▁council	-10.5873
▁dispatch	-10.5873
▁driscoll	-10.5873
▁empire	-10.5873
▁envelope	-10.5873
▁fulfill	-10.5873
▁garrincha	-10.5873
▁gurgling	-10.5873
▁happily	-10.5873
▁hartounian	-10.5873
▁headquarters	-10.5873
▁inaudible	-10.5873
▁include	-10.5873
▁independen	-10.5873
▁injured	-10.5873
▁kidnapped	-10.5873
▁lindsey	-10.5873
▁melanchol	-10.5873
▁muscle	-10.5873
▁museum	-10.5873
▁occupied	-10.5873
▁oozaru	-10.5873
▁opposed	-10.5873
▁pegasus	-10.5873
▁phantom	-10.5873
▁piccolo	-10.5873
▁practicing	-10.5873
▁recommend	-10.5873
▁sensitive	-10.5873
▁september	-10.5873
▁stephanie	-10.5873
▁transmitter	-10.5873
▁tshirt	-10.5873
▁tunnel	-10.5873
▁unhappy	-10.5873
▁widowmaker	-10.5873
▁deputies	-10.5873
▁observe	-10.5873
▁stuart	-10.5873
▁winsiow	-10.5873
▁bertha	-10.5873
▁intense	-10.5873
▁squirt	-10.5873
▁thirty	-10.5873
▁cinema	-10.5873
▁carried	-10.5873
▁ernie	-10.5873
▁smiling	-10.5873
▁refund	-10.5873
▁crisis	-10.5873
▁jotham	-10.5873
▁bounce	-10.5873
▁generous	-10.5873
▁polite	-10.5873
▁access	-10.5873
▁crystal	-10.5873
▁revenge	-10.5873
▁stroke	-10.5873
▁albert	-10.5873
▁muffin	-10.5873
▁expense	-10.5873
▁grogan	-10.5873
▁shelter	-10.5873
▁vicious	-10.5873
▁clown	-10.5873
▁disaster	-10.5873
▁morgan	-10.5873
▁curious	-10.5873
▁invest	-10.5873
▁whatll	-10.5873
▁bruno	-10.5873
▁ralph	-10.5873
▁tesla	-10.5873
▁recipe	-10.5874
▁lupus	-10.5874
▁knot	-10.5874
▁tyler	-10.5874
▁flesh	-10.5874
▁alex	-10.5874
▁sammy	-10.5874
▁slide	-10.5874
write	-10.5874
▁spear	-10.5874
▁amber	-10.5874
▁crawl	-10.5875
▁adopt	-10.5875
▁stunt	-10.5875
▁shore	-10.5876
▁bury	-10.5877
▁plug	-10.5877
▁inquir	-10.5879
▁bunt	-10.5882
aboom	-10.5889
▁disappoint	-10.6694
front	-10.6735
girl	-10.6736
piece	-10.6736
▁egypt	-10.6782
▁authentic	-10.6782
▁suspend	-10.6782
▁technical	-10.6782
▁albrecht	-10.6782
▁appropriate	-10.6782
▁channel	-10.6782
▁civilization	-10.6782
▁conference	-10.6782
▁corrupt	-10.6782
▁credentials	-10.6782
▁eclipse	-10.6782
▁elixir	-10.6782
▁essential	-10.6782
▁homesteaders	-10.6782
▁inevitable	-10.6782
▁jeff	-10.6782
▁milkywhite	-10.6782
▁murdstone	-10.6782
▁ogilvie	-10.6782
▁opposite	-10.6782
▁precinct	-10.6782
▁procedure	-10.6782
▁propaganda	-10.6782
▁prosecutor	-10.6782
▁railroad	-10.6782
▁religious	-10.6782
▁rochefort	-10.6782
▁seppala	-10.6782
▁shrieking	-10.6782
▁similar	-10.6782
▁stubborn	-10.6782
▁symbol	-10.6782
▁technique	-10.6782
▁telegraph	-10.6782
▁television	-10.6782
▁traffic	-10.6782
▁unbelievabl	-10.6782
▁universe	-10.6782
▁vacuum	-10.6782
▁whimpers	-10.6782
through	-10.6782
▁device	-10.6782
▁favour	-10.6782
▁intention	-10.6782
▁naughty	-10.6782
▁sinister	-10.6782
▁easier	-10.6782
▁messenger	-10.6782
▁miserable	-10.6782
▁preserve	-10.6782
▁reputation	-10.6782
▁whyd	-10.6782
▁injun	-10.6782
▁surgeon	-10.6782
▁plaza	-10.6782
▁faint	-10.6782
▁revoir	-10.6782
▁companion	-10.6782
▁orchid	-10.6782
▁rucio	-10.6782
▁amanda	-10.6782
▁tractor	-10.6782
▁dobson	-10.6782
▁virtu	-10.6782
▁wilderness	-10.6782
▁launch	-10.6782
▁outfit	-10.6782
▁constant	-10.6782
▁eminence	-10.6782
▁kayla	-10.6782
▁tragic	-10.6782
▁jeez	-10.6783
▁zito	-10.6783
▁permit	-10.6783
▁dragged	-10.6783
▁infant	-10.6783
▁chores	-10.6783
▁hurst	-10.6783
▁muttering	-10.6783
▁grip	-10.6783
▁chili	-10.6783
▁clack	-10.6783
▁bacon	-10.6783
▁element	-10.6783
▁ahmad	-10.6783
▁sauce	-10.6783
▁entry	-10.6783
▁strain	-10.6783
▁burger	-10.6783
▁stiles	-10.6784
▁adult	-10.6785
▁bunk	-10.6786
ological	-10.6787
▁compete	-10.6796
▁erase	-10.6798
robbing	-10.6976
▁brook	-10.7342
where	-10.7722
▁investigat	-10.7774
▁virgin	-10.7779
▁anchov	-10.7782
▁statistic	-10.7782
▁accused	-10.7782
▁airplane	-10.7782
▁ambulance	-10.7782
▁arizona	-10.7782
▁avenue	-10.7782
▁bannock	-10.7782
▁blitzer	-10.7782
▁buzhardt	-10.7782
▁catholic	-10.7782
▁central	-10.7782
▁chicago	-10.7782
▁ciolino	-10.7782
▁commercial	-10.7782
▁confident	-10.7782
▁congratulate	-10.7782
▁consequences	-10.7782
▁constitution	-10.7782
▁corporal	-10.7782
▁dammit	-10.7782
▁declared	-10.7782
▁democracy	-10.7782
▁depressed	-10.7782
▁dinosaur	-10.7782
▁fabulous	-10.7782
▁fuhrer	-10.7782
▁intelligence	-10.7782
▁kerensky	-10.7782
▁kikakee	-10.7782
▁literally	-10.7782
▁lugash	-10.7782
▁mavericks	-10.7782
▁nebraska	-10.7782
▁newspaper	-10.7782
▁november	-10.7782
▁obliged	-10.7782
▁october	-10.7782
▁pacific	-10.7782
▁parlor	-10.7782
▁phillip	-10.7782
▁presidency	-10.7782
▁primitive	-10.7782
▁remission	-10.7782
▁response	-10.7782
▁retreat	-10.7782
▁rutherford	-10.7782
▁saknussemm	-10.7782
▁species	-10.7782
▁square	-10.7782
▁succeed	-10.7782
▁tedesco	-10.7782
▁transcript	-10.7782
▁transmission	-10.7782
▁tumbleweed	-10.7782
▁volunteer	-10.7782
▁wadsworth	-10.7782
▁whiff	-10.7782
▁withdraw	-10.7782
▁yarmouth	-10.7782
▁arguing	-10.7782
▁brawley	-10.7782
▁catherine	-10.7782
▁choking	-10.7782
▁dolores	-10.7782
▁judging	-10.7782
▁moscow	-10.7782
▁profound	-10.7782
▁refuge	-10.7782
▁therefore	-10.7782
▁andrea	-10.7782
▁grind	-10.7782
▁austria	-10.7782
▁division	-10.7782
▁liberat	-10.7782
▁motorist	-10.7782
▁indicate	-10.7782
▁network	-10.7782
▁charmander	-10.7782
▁worship	-10.7782
▁convert	-10.7782
▁scotch	-10.7782
▁offense	-10.7782
▁unfair	-10.7782
▁delmann	-10.7782
▁household	-10.7782
▁rifle	-10.7782
▁saloon	-10.7782
▁corpse	-10.7782
▁anytime	-10.7782
▁turtle	-10.7782
▁traitor	-10.7782
▁polish	-10.7782
▁thisll	-10.7782
▁camus	-10.7783
▁fudge	-10.7783
▁hyde	-10.7783
▁reaction	-10.7783
▁flood	-10.7783
▁spect	-10.7783
corporate	-10.7783
▁entei	-10.7783
▁steak	-10.7783
▁article	-10.7783
▁iww	-10.7783
▁forrest	-10.7783
▁martha	-10.7783
▁addict	-10.7783
▁reduce	-10.7784
▁pierce	-10.7784
▁drama	-10.7785
▁expose	-10.7785
▁locate	-10.7792
▁violat	-10.7811
agging	-10.7917
▁glove	-10.8548
▁frost	-10.8846
aught	-10.8892
▁mutt	-10.8893
▁accomplish	-10.8893
▁chamber	-10.8893
▁continent	-10.8893
▁intellect	-10.8893
▁philosoph	-10.8893
▁abilene	-10.8893
▁amazed	-10.8893
▁antitoxin	-10.8893
▁anyhow	-10.8893
▁appointed	-10.8893
▁armistice	-10.8893
▁barcelona	-10.8893
▁beckwith	-10.8893
▁behavior	-10.8893
▁believing	-10.8893
▁bettsbridge	-10.8893
▁brezhnev	-10.8893
▁callaghan	-10.8893
▁centuries	-10.8893
▁competitive	-10.8893
▁compliment	-10.8893
▁dedicated	-10.8893
▁encourag	-10.8893
▁entrance	-10.8893
▁excellency	-10.8893
▁feather	-10.8893
▁forfeit	-10.8893
▁furniture	-10.8893
▁gratitude	-10.8893
▁hallelujah	-10.8893
▁increase	-10.8893
▁injury	-10.8893
▁institution	-10.8893
▁jenkins	-10.8893
▁library	-10.8893
▁liquid	-10.8893
▁lunatic	-10.8893
▁macauley	-10.8893
▁matrix	-10.8893
▁mckay	-10.8893
▁mclean	-10.8893
▁mexican	-10.8893
▁murdoch	-10.8893
▁nephew	-10.8893
▁peculiar	-10.8893
▁phupho	-10.8893
▁picnic	-10.8893
▁prophecy	-10.8893
▁proposal	-10.8893
▁relief	-10.8893
▁rendezvous	-10.8893
▁respond	-10.8893
▁satellite	-10.8893
▁satisfy	-10.8893
▁schroeder	-10.8893
▁scientific	-10.8893
▁snickering	-10.8893
▁squirrel	-10.8893
▁stadium	-10.8893
▁sylvia	-10.8893
▁underwear	-10.8893
▁unexpected	-10.8893
