<unk>	0
<s>	0
</s>	0
s	-2.93463
t	-4.20376
d	-4.25151
e	-4.27972
n	-4.29552
ing	-4.31316
a	-4.37638
y	-4.38923
o	-4.40502
ed	-4.41805
p	-4.6169
m	-4.63548
i	-4.65603
▁	-4.70963
er	-4.81117
r	-4.85231
u	-4.86208
b	-4.90407
▁im	-4.94305
▁know	-4.95442
l	-4.97504
g	-4.9891
▁dont	-5.02042
▁l	-5.0416
c	-5.06134
in	-5.10047
▁get	-5.18463
le	-5.18639
▁s	-5.21732
▁go	-5.23676
▁got	-5.27814
▁right	-5.28085
▁like	-5.37043
or	-5.37963
▁f	-5.40558
▁yeah	-5.41573
▁na	-5.41596
▁youre	-5.50013
▁a	-5.52272
▁c	-5.525
▁come	-5.52532
ll	-5.53486
al	-5.54537
f	-5.55994
h	-5.6126
▁man	-5.63218
ly	-5.6339
ck	-5.63959
▁thats	-5.64103
▁one	-5.67025
re	-5.68094
ar	-5.69148
▁re	-5.69158
it	-5.69312
▁want	-5.70143
▁see	-5.70278
w	-5.71062
es	-5.72258
▁well	-5.73766
▁oh	-5.75475
▁gon	-5.76313
k	-5.76315
il	-5.79029
ch	-5.79211
▁fucking	-5.8207
▁good	-5.82825
▁w	-5.8296
at	-5.83206
▁fuck	-5.84307
▁think	-5.87824
ra	-5.89583
▁de	-5.89728
en	-5.91451
▁look	-5.91511
ie	-5.92699
▁okay	-5.97055
▁st	-5.98573
ce	-5.99873
th	-6.01553
▁be	-6.03022
▁hes	-6.03637
▁us	-6.06377
an	-6.06792
▁take	-6.06924
▁o	-6.0798
▁back	-6.0816
▁pa	-6.08968
on	-6.10061
ve	-6.11745
▁ma	-6.11932
▁ro	-6.13353
▁time	-6.13385
▁tell	-6.13928
ir	-6.14688
st	-6.14798
▁say	-6.14827
v	-6.16311
▁hey	-6.16569
ri	-6.18155
li	-6.18338
te	-6.19027
▁ill	-6.2324
ic	-6.24887
▁ta	-6.25677
ur	-6.26139
ent	-6.26393
▁e	-6.26746
▁going	-6.27308
▁in	-6.28313
se	-6.28604
la	-6.28777
ro	-6.31456
ne	-6.31828
▁shit	-6.3185
▁bu	-6.32338
▁need	-6.32566
▁mean	-6.3289
▁b	-6.34021
▁yes	-6.34413
▁bo	-6.35409
▁make	-6.3665
▁po	-6.37141
el	-6.37144
▁t	-6.38979
x	-6.39244
ion	-6.39525
ow	-6.40258
▁give	-6.4265
lo	-6.42654
z	-6.42963
▁sh	-6.43376
▁let	-6.43639
▁would	-6.43734
▁cant	-6.43797
▁g	-6.44031
▁could	-6.44228
▁su	-6.45737
▁thank	-6.4578
▁ra	-6.4652
▁car	-6.46972
▁way	-6.46987
▁didnt	-6.47045
▁se	-6.4875
▁ca	-6.48873
▁wh	-6.49348
ou	-6.50236
▁something	-6.51286
ver	-6.53209
▁h	-6.53278
▁co	-6.55194
▁little	-6.5646
▁whats	-6.57885
ry	-6.58772
▁la	-6.59407
▁sp	-6.59503
ate	-6.59758
▁ho	-6.60877
per	-6.6113
▁never	-6.61413
▁k	-6.62018
▁sir	-6.62613
sh	-6.62681
▁really	-6.63515
▁two	-6.64714
ation	-6.6475
▁work	-6.64821
and	-6.664
▁con	-6.66448
▁love	-6.66812
▁lets	-6.67234
▁please	-6.67582
▁un	-6.67959
is	-6.6829
ge	-6.68476
▁so	-6.68522
am	-6.68935
▁mr	-6.69557
ad	-6.69855
▁ba	-6.69878
▁mi	-6.7051
▁to	-6.7081
ke	-6.70823
▁call	-6.71355
▁theres	-6.71408
▁th	-6.71579
▁ex	-6.71898
▁money	-6.72065
ter	-6.72842
▁day	-6.73185
▁people	-6.73479
me	-6.7449
▁fa	-6.74559
▁said	-6.74572
▁pro	-6.74633
▁di	-6.7505
vi	-6.75574
co	-6.75775
ut	-6.76175
nt	-6.76754
▁ive	-6.76851
▁sorry	-6.78349
▁ha	-6.80162
ff	-6.80198
▁put	-6.80265
▁god	-6.81997
▁name	-6.83453
▁even	-6.84328
▁guy	-6.84463
id	-6.84822
▁talk	-6.8483
▁help	-6.85313
▁thing	-6.85472
▁do	-6.85602
ard	-6.86197
et	-6.87572
▁m	-6.87748
▁boy	-6.88674
ers	-6.89372
▁mar	-6.89484
▁uh	-6.89528
▁br	-6.89991
▁pi	-6.90091
▁sure	-6.90779
de	-6.90894
▁com	-6.91121
tion	-6.91202
ho	-6.91737
▁da	-6.92117
▁wait	-6.93091
▁life	-6.93336
▁no	-6.93578
▁kill	-6.94003
▁stop	-6.94044
▁hear	-6.9405
▁hand	-6.94226
▁much	-6.94422
▁new	-6.95223
▁theyre	-6.96319
▁n	-6.96672
ies	-6.96893
▁dr	-6.96951
▁keep	-6.97483
▁anything	-6.9759
▁hi	-6.98002
age	-6.98338
▁tra	-6.98489
ine	-6.98907
▁ask	-6.99524
ist	-6.99961
▁te	-7.00015
im	-7.00284
ig	-7.00603
▁nothing	-7.01609
▁friend	-7.02046
▁big	-7.02104
▁night	-7.02634
▁cr	-7.03572
pe	-7.04327
▁son	-7.04543
▁v	-7.04794
▁me	-7.04979
if	-7.05086
ta	-7.05111
▁find	-7.05378
ma	-7.05632
▁em	-7.06844
▁kid	-7.09221
▁sa	-7.09294
ment	-7.09913
▁listen	-7.10475
▁wan	-7.10918
▁around	-7.11116
ty	-7.11498
▁ar	-7.1217
▁j	-7.12229
▁i	-7.12244
▁ass	-7.12274
man	-7.12374
▁ri	-7.12391
▁guys	-7.12954
▁away	-7.13021
ect	-7.13102
▁long	-7.13752
▁old	-7.13918
ive	-7.14101
▁home	-7.14126
est	-7.1418
▁still	-7.14738
j	-7.15485
▁wa	-7.15885
ting	-7.17254
▁first	-7.17599
ug	-7.18361
end	-7.18427
▁maybe	-7.18811
▁move	-7.19579
ant	-7.19739
▁everything	-7.19855
▁real	-7.1992
ca	-7.19992
▁feel	-7.20004
▁girl	-7.20031
▁ne	-7.20618
▁shes	-7.20727
▁hell	-7.21145
ance	-7.22193
und	-7.22229
ther	-7.22372
▁ti	-7.22463
▁vi	-7.22499
▁better	-7.22708
▁lot	-7.22961
▁ever	-7.2351
▁bad	-7.24048
▁ru	-7.24233
▁place	-7.24343
um	-7.24348
▁door	-7.24482
▁mon	-7.25372
▁years	-7.25611
▁great	-7.25828
oo	-7.2593
▁last	-7.26061
▁care	-7.26159
ii	-7.26181
▁he	-7.27054
▁for	-7.27175
▁stay	-7.27391
▁pre	-7.27699
able	-7.28051
▁cha	-7.28198
▁mo	-7.28576
▁le	-7.28808
▁ga	-7.29186
ia	-7.29482
▁aint	-7.29683
▁jo	-7.29726
▁understand	-7.29814
▁always	-7.30204
▁told	-7.30416
▁thought	-7.30734
▁id	-7.30965
▁house	-7.31187
▁pr	-7.31609
ph	-7.31699
▁baby	-7.3179
ling	-7.32012
▁three	-7.32181
▁start	-7.32201
▁father	-7.3231
▁dis	-7.32829
▁show	-7.33395
cu	-7.33553
tic	-7.33589
▁every	-7.33931
▁an	-7.34204
▁things	-7.35479
▁leave	-7.36226
▁watch	-7.36233
▁nice	-7.36238
▁pu	-7.36521
▁job	-7.36821
▁dead	-7.37034
ster	-7.37639
gu	-7.37961
▁pe	-7.38159
▁kind	-7.38755
▁gun	-7.38821
▁head	-7.39536
▁minute	-7.39588
▁believe	-7.39802
ence	-7.40993
ha	-7.41751
▁made	-7.41765
▁done	-7.42544
▁came	-7.43059
to	-7.43219
ake	-7.43222
▁wont	-7.4354
lt	-7.43862
▁gr	-7.43883
qu	-7.44099
▁fuckin	-7.44338
na	-7.44583
▁open	-7.44875
▁mother	-7.44949
▁ju	-7.45226
▁play	-7.46257
ful	-7.46542
▁ok	-7.46633
▁left	-7.46918
▁al	-7.46919
▁youve	-7.4737
son	-7.48087
ure	-7.48539
▁talking	-7.48741
▁turn	-7.4901
▁ja	-7.4928
▁youll	-7.4971
▁men	-7.50198
▁du	-7.50473
▁huh	-7.50668
mo	-7.50891
▁che	-7.50902
▁sit	-7.51366
▁remember	-7.51862
uc	-7.51932
ity	-7.52296
▁tri	-7.52482
▁laugh	-7.52591
▁doesnt	-7.52835
▁hold	-7.53595
▁live	-7.53911
▁qui	-7.5428
▁business	-7.54558
▁may	-7.56049
▁brother	-7.56062
ish	-7.5683
▁must	-7.569
▁fe	-7.57129
▁part	-7.58044
up	-7.58089
▁war	-7.58178
king	-7.58295
▁fine	-7.58608
ger	-7.5902
▁wrong	-7.59133
▁run	-7.59331
▁happened	-7.59489
▁enough	-7.59917
▁coming	-7.60259
less	-7.60982
▁deal	-7.61378
▁meet	-7.61494
▁mind	-7.6157
▁chi	-7.61695
▁cop	-7.61737
▁world	-7.61769
▁gra	-7.61966
▁miss	-7.61972
▁else	-7.62321
▁bar	-7.6235
▁col	-7.62409
▁phone	-7.62573
▁problem	-7.62842
▁family	-7.63113
▁looking	-7.63578
▁frank	-7.63655
ian	-7.63671
▁eye	-7.63915
▁getting	-7.63966
ide	-7.64586
▁wasnt	-7.64762
▁hard	-7.66049
▁hello	-7.661
▁wife	-7.66145
▁another	-7.66696
▁shot	-7.66777
▁happen	-7.67154
▁walk	-7.6758
▁close	-7.67845
time	-7.68266
▁mu	-7.68411
▁next	-7.68682
▁ad	-7.69167
▁course	-7.69253
▁wanted	-7.69395
▁win	-7.6989
▁trying	-7.70161
▁bring	-7.70255
▁morning	-7.70419
▁whos	-7.7105
▁sw	-7.71141
▁pay	-7.71421
▁found	-7.7159
▁pl	-7.71744
▁die	-7.72419
▁today	-7.72766
▁shoot	-7.72776
▁hit	-7.73237
▁woman	-7.7337
▁cut	-7.73503
▁case	-7.73799
▁shut	-7.7414
▁best	-7.74407
▁cause	-7.74583
▁drive	-7.74879
▁week	-7.75485
▁nobody	-7.75791
▁speak	-7.75794
ise	-7.76979
▁might	-7.77028
▁knew	-7.7703
▁heard	-7.77062
▁um	-7.77307
▁plan	-7.77985
▁en	-7.78065
ze	-7.78355
▁cor	-7.78581
▁jesus	-7.78596
▁police	-7.78914
mon	-7.79185
▁bitch	-7.7953
▁went	-7.79666
▁question	-7.80837
▁end	-7.81008
▁someone	-7.81155
▁free	-7.81458
▁ear	-7.81865
▁try	-7.8207
▁nick	-7.82143
va	-7.82558
▁bill	-7.83228
▁fire	-7.83531
▁pick	-7.83706
▁everybody	-7.83783
▁va	-7.83793
▁killed	-7.83809
▁bit	-7.83896
▁jack	-7.83966
▁took	-7.83968
▁wouldnt	-7.84345
▁tony	-7.84528
▁que	-7.84626
▁app	-7.84752
ize	-7.8477
▁use	-7.85092
▁john	-7.85132
▁isnt	-7.85144
▁point	-7.85172
▁goddamn	-7.85461
▁set	-7.86075
ton	-7.8608
ook	-7.86117
▁four	-7.86182
▁har	-7.87029
▁room	-7.87235
▁ya	-7.87694
▁second	-7.87858
▁idea	-7.87943
▁ready	-7.87951
▁saw	-7.87973
▁drink	-7.88569
▁whole	-7.89287
▁bra	-7.91001
▁word	-7.9144
▁person	-7.92164
▁tonight	-7.92469
▁mom	-7.9315
▁matter	-7.93211
▁ah	-7.937
▁somebody	-7.93931
▁dad	-7.93985
▁check	-7.94117
▁five	-7.94229
▁christ	-7.94301
▁face	-7.94481
▁jimmy	-7.94671
▁fight	-7.94671
▁break	-7.94671
▁gu	-7.94899
▁saying	-7.95063
▁hour	-7.95076
▁dog	-7.95209
▁pull	-7.95393
ical	-7.95515
▁pretty	-7.96926
▁without	-7.97684
▁music	-7.97711
▁line	-7.97855
▁blood	-7.98452
▁act	-7.985
▁read	-7.98578
▁happy	-7.98838
▁they	-7.99716
▁called	-7.99791
▁stand	-8.0064
▁whoa	-8.00886
▁guess	-8.0121
▁boss	-8.01212
▁playing	-8.01541
▁motherfucker	-8.01982
▁crazy	-8.01982
▁weve	-8.02009
▁alright	-8.02382
▁high	-8.02391
▁number	-8.02783
▁clean	-8.03204
▁rest	-8.03559
▁hope	-8.0376
▁ring	-8.03921
▁together	-8.03998
▁order	-8.04002
▁damn	-8.04039
▁clear	-8.04841
▁henry	-8.05234
▁half	-8.05244
▁far	-8.05342
▁anyone	-8.05641
▁alone	-8.05656
que	-8.06817
▁youd	-8.069
▁change	-8.07322
▁six	-8.08186
▁ow	-8.08819
▁excuse	-8.09439
▁stuff	-8.09446
▁million	-8.09872
▁grand	-8.10167
▁worry	-8.10309
▁since	-8.10334
▁havent	-8.11615
▁black	-8.11961
▁light	-8.12009
▁beautiful	-8.12053
▁sign	-8.1208
▁game	-8.12419
▁scream	-8.1294
▁couldnt	-8.13242
▁ye	-8.13486
▁easy	-8.13841
▁gave	-8.13929
zz	-8.14045
ust	-8.14488
▁continue	-8.14738
▁ago	-8.14872
▁hate	-8.151
▁ten	-8.15132
▁already	-8.15192
▁ball	-8.15337
▁met	-8.15907
▁supposed	-8.16071
▁bla	-8.16146
▁pass	-8.16699
▁soon	-8.168
▁touch	-8.17046
▁arm	-8.17316
▁per	-8.17661
▁danny	-8.17965
▁step	-8.1825
▁street	-8.18438
▁sleep	-8.18438
▁chance	-8.18453
▁luck	-8.18502
▁anybody	-8.18905
▁nigger	-8.18905
▁inside	-8.19398
▁forget	-8.20341
▁yet	-8.20549
ious	-8.20718
▁captain	-8.20814
▁lost	-8.20915
▁sound	-8.2117
▁pen	-8.21778
▁lord	-8.21945
▁young	-8.22271
▁answer	-8.22271
▁year	-8.22708
▁piece	-8.23763
▁eat	-8.23965
▁book	-8.24053
▁front	-8.24251
▁count	-8.25113
▁sighs	-8.25249
▁hurt	-8.25775
▁anyway	-8.26262
▁funny	-8.26278
▁cool	-8.2633
▁scar	-8.26399
▁blow	-8.26784
▁fun	-8.268
unk	-8.26924
▁tomorrow	-8.27284
▁probably	-8.278
▁ter	-8.28207
▁whatever	-8.28319
▁later	-8.2868
▁daughter	-8.28839
▁up	-8.28865
▁mess	-8.2889
▁exactly	-8.29362
▁leg	-8.29635
▁school	-8.29889
▁wonder	-8.30418
▁side	-8.30592
▁follow	-8.31485
▁send	-8.31926
▁yo	-8.32468
▁trust	-8.32564
▁couple	-8.32565
▁taking	-8.33011
▁death	-8.33154
▁though	-8.33805
▁key	-8.33807
way	-8.34912
▁inter	-8.35799
▁actually	-8.35869
▁ahead	-8.35872
▁serious	-8.35876
▁save	-8.36414
▁drop	-8.36781
▁mor	-8.36823
▁grunts	-8.36996
▁behind	-8.36996
▁white	-8.37049
▁rich	-8.37531
▁outside	-8.37564
▁state	-8.37602
▁dude	-8.37911
▁reason	-8.38148
▁story	-8.38798
▁body	-8.38847
▁making	-8.3925
▁stupid	-8.39289
▁chuckles	-8.39309
▁jordan	-8.39869
▁doctor	-8.39869
▁town	-8.39912
▁grunting	-8.41042
▁bank	-8.4108
▁power	-8.41661
▁safe	-8.42971
▁mine	-8.43571
pped	-8.43727
▁moment	-8.44028
▁wish	-8.44169
▁truth	-8.44646
▁murder	-8.44647
▁hang	-8.44707
ship	-8.44845
▁fell	-8.44873
▁promise	-8.45264
▁foot	-8.45298
▁officer	-8.45368
eep	-8.457
▁city	-8.45753
▁anymore	-8.46498
▁tommy	-8.46499
▁sick	-8.46609
▁ski	-8.47078
▁everyone	-8.47147
▁water	-8.48347
▁team	-8.48386
▁true	-8.48386
▁prison	-8.49666
▁fast	-8.50047
▁interest	-8.5042
▁bastard	-8.50959
▁lose	-8.51039
▁country	-8.51804
▁alive	-8.51884
▁america	-8.52269
▁bullshit	-8.52269
▁important	-8.52269
▁trouble	-8.52269
▁learn	-8.52293
▁kick	-8.52302
▁drug	-8.52657
▁also	-8.53143
▁office	-8.53481
▁afraid	-8.53598
▁michael	-8.53598
▁gold	-8.53885
▁child	-8.54964
▁guard	-8.55154
▁straight	-8.55625
▁asshole	-8.55627
▁sister	-8.57063
▁honey	-8.57712
press	-8.57745
▁slow	-8.58448
▁paul	-8.58495
▁club	-8.59098
▁protect	-8.59107
▁wear	-8.59175
▁hows	-8.59299
▁groans	-8.59807
▁finish	-8.59815
▁dream	-8.59816
▁truck	-8.60521
▁bullet	-8.60527
ball	-8.60647
▁welcome	-8.6124
▁figure	-8.61243
▁favor	-8.61248
▁stick	-8.61322
▁heres	-8.61351
▁different	-8.61965
▁gentlemen	-8.61965
▁broke	-8.61986
▁table	-8.6268
▁company	-8.62695
▁least	-8.62712
▁worth	-8.62714
▁itll	-8.62793
▁joke	-8.63151
▁report	-8.63435
▁either	-8.63438
▁throw	-8.63444
▁jew	-8.64192
▁eight	-8.64918
▁knock	-8.64918
▁shall	-8.65002
▁full	-8.65112
▁quiet	-8.65306
▁picture	-8.65669
▁almost	-8.6567
▁certain	-8.66427
▁along	-8.66433
▁fact	-8.66501
▁private	-8.6719
▁crime	-8.67216
▁lock	-8.67387
▁burn	-8.67398
▁hunt	-8.6797
▁gang	-8.68013
▁court	-8.68024
▁record	-8.68736
▁expect	-8.6874
▁control	-8.69517
▁hmm	-8.69599
▁voice	-8.70304
▁dollar	-8.71106
▁blue	-8.71898
wood	-8.72284
▁breath	-8.72704
▁living	-8.72705
▁horse	-8.72748
▁calm	-8.72863
▁special	-8.73516
▁french	-8.73517
▁howard	-8.73521
▁window	-8.73523
▁daddy	-8.73557
▁park	-8.73687
▁stem	-8.73811
▁radio	-8.74338
▁short	-8.74465
▁brought	-8.75162
▁perfect	-8.75163
▁swear	-8.75177
▁smell	-8.75183
▁charge	-8.76006
▁running	-8.76055
▁husband	-8.76836
▁offer	-8.77699
▁groaning	-8.78538
▁buddy	-8.78541
▁smart	-8.78542
▁sweet	-8.78544
▁machine	-8.79405
▁catch	-8.79472
▁qua	-8.79488
▁engine	-8.80272
▁floor	-8.80294
▁mitch	-8.80316
▁sort	-8.8085
▁children	-8.81156
▁lawyer	-8.82032
▁partner	-8.82096
▁mmm	-8.82104
▁chuck	-8.82893
▁respect	-8.82926
▁food	-8.82963
▁seven	-8.82971
▁green	-8.83854
▁sense	-8.83908
▁english	-8.84735
▁coffee	-8.84735
▁panting	-8.84782
▁karen	-8.85663
▁agree	-8.86602
▁kidding	-8.86692
▁thousand	-8.87513
▁become	-8.87516
▁crew	-8.87575
▁hundred	-8.88456
▁york	-8.88462
▁hurry	-8.89412
▁iike	-8.89423
▁mouth	-8.89424
▁bye	-8.89641
▁glass	-8.90378
▁married	-8.9039
▁indistinct	-8.91341
▁secret	-8.91342
▁hotel	-8.91384
▁kiss	-8.91439
▁strong	-8.92323
▁chatter	-8.92332
▁detective	-8.93312
▁choice	-8.93312
▁women	-8.93313
▁strange	-8.93315
▁driving	-8.94312
▁soft	-8.94379
▁corleone	-8.95322
▁angel	-8.95382
light	-8.95425
▁somewhere	-8.96342
▁appreciate	-8.97373
▁arrest	-8.97385
▁leaving	-8.98415
▁return	-8.98416
▁honest	-8.98437
▁movie	-8.98445
▁james	-8.98464
▁grey	-8.98551
▁surprise	-8.99467
▁relax	-8.99476
▁decide	-8.99484
▁small	-8.99487
▁dance	-8.99586
▁mistake	-9.00533
▁except	-9.00533
▁dinner	-9.01608
▁write	-9.01842
▁enjoy	-9.02693
▁pleasure	-9.02693
▁across	-9.03792
▁charlie	-9.03792
▁ladies	-9.0382
▁service	-9.04904
▁treat	-9.04921
▁agent	-9.04965
▁south	-9.05172
▁glad	-9.06078
▁explain	-9.07163
▁attack	-9.07164
▁smoke	-9.07169
▁casino	-9.07169
▁direct	-9.07174
▁dark	-9.07187
▁cross	-9.08363
▁david	-9.09492
▁anywhere	-9.10652
▁maurizio	-9.10652
▁situation	-9.10657
▁fool	-9.10693
▁moving	-9.11861
▁neighbor	-9.13047
▁complete	-9.13047
▁accident	-9.14267
▁client	-9.14282
▁hospital	-9.15501
▁shouldnt	-9.15501
▁weapon	-9.15501
▁patrick	-9.15502
▁giving	-9.15502
▁tough	-9.15505
▁ground	-9.15509
▁apartment	-9.16751
▁psych	-9.16752
▁judge	-9.16763
▁birthday	-9.18017
▁gunshot	-9.193
▁price	-9.19341
▁diamond	-9.20598
▁caught	-9.20598
▁witness	-9.20598
▁vincent	-9.20598
▁consider	-9.20599
▁concern	-9.20599
▁human	-9.2061
▁announc	-9.21914
▁italian	-9.21914
▁terrible	-9.21914
▁clothes	-9.21914
▁victim	-9.21914
▁gucci	-9.23247
▁shouting	-9.2325
▁forgive	-9.23251
▁block	-9.23259
▁ticket	-9.24602
▁patient	-9.25969
▁kept	-9.25973
▁absolutely	-9.27357
▁forgot	-9.27358
▁weird	-9.27359
▁goodbye	-9.27361
▁parents	-9.28768
▁django	-9.30194
▁animal	-9.30197
▁dangerous	-9.31643
▁possible	-9.31643
▁accept	-9.31643
▁nigga	-9.31643
▁general	-9.31644
▁public	-9.31644
▁history	-9.31644
▁knife	-9.31645
▁robber	-9.31645
▁security	-9.34607
▁virgin	-9.34607
▁confess	-9.34608
▁evidence	-9.36122
q	-9.40034
