<unk>	0
<s>	0
</s>	0
s	-4.0272
▁im	-4.45439
▁know	-4.55869
▁dont	-4.56256
▁get	-4.75652
▁go	-4.84649
▁like	-4.88273
▁right	-4.89048
▁youre	-4.96541
▁come	-5.00811
▁got	-5.01679
▁yeah	-5.04851
▁one	-5.13246
▁oh	-5.13397
▁well	-5.14556
▁thats	-5.16841
▁okay	-5.26641
▁na	-5.27542
▁want	-5.33701
▁see	-5.36646
▁good	-5.36696
▁think	-5.41028
ing	-5.41721
▁hey	-5.41951
▁back	-5.50896
▁gon	-5.51725
▁	-5.55663
▁going	-5.57018
▁man	-5.59543
▁us	-5.59717
▁yes	-5.64481
▁take	-5.6636
▁time	-5.67926
▁look	-5.70612
▁need	-5.7136
▁hes	-5.71399
▁cant	-5.72248
ed	-5.74895
▁ill	-5.79023
▁would	-5.82446
▁really	-5.82877
▁say	-5.86408
▁l	-5.86633
▁tell	-5.86892
▁could	-5.92035
▁make	-5.9712
▁way	-5.98284
▁lets	-5.98354
▁didnt	-6.00484
▁let	-6.01623
▁something	-6.01796
▁sir	-6.02121
▁whats	-6.02353
▁love	-6.04456
▁never	-6.05145
▁thank	-6.07418
▁mean	-6.09314
▁little	-6.09319
▁sorry	-6.13059
▁please	-6.17644
▁give	-6.19219
▁theres	-6.22351
d	-6.24439
▁two	-6.24784
▁people	-6.26175
▁ive	-6.26336
▁god	-6.28372
▁said	-6.28874
▁even	-6.35529
sp	-6.35584
▁thing	-6.35832
▁stop	-6.37114
▁life	-6.38979
▁nb	-6.39411
▁much	-6.39659
▁mr	-6.40454
▁wait	-6.40523
▁help	-6.4088
▁guys	-6.4167
▁uh	-6.43274
▁call	-6.43609
▁sure	-6.45658
▁theyre	-6.47669
▁home	-6.47761
▁find	-6.48179
y	-6.48621
▁anything	-6.49954
▁first	-6.50132
▁day	-6.50457
▁great	-6.51433
▁keep	-6.52503
▁shes	-6.54719
▁put	-6.55271
▁work	-6.55339
▁maybe	-6.5638
▁still	-6.581
▁must	-6.58486
▁new	-6.61998
▁nothing	-6.64061
▁hell	-6.64955
▁thought	-6.65424
▁better	-6.65504
▁last	-6.66144
▁night	-6.67945
▁ever	-6.6876
▁everything	-6.69313
▁stay	-6.69648
▁leave	-6.71899
▁name	-6.7213
ly	-6.72581
▁talk	-6.73171
▁guy	-6.73183
▁place	-6.74171
▁feel	-6.74327
▁music	-6.74553
▁always	-6.75544
▁around	-6.76467
▁away	-6.76705
▁listen	-6.77115
▁long	-6.77555
▁done	-6.79533
▁youve	-6.79765
▁hi	-6.80152
▁money	-6.80486
▁coming	-6.81248
▁world	-6.81599
▁doesnt	-6.82681
▁mom	-6.83073
e	-6.83214
▁big	-6.83631
▁believe	-6.85234
▁ready	-6.85748
▁told	-6.86195
▁boy	-6.86343
▁old	-6.86371
▁shit	-6.86935
▁dad	-6.87057
▁left	-6.87515
▁made	-6.87764
▁girl	-6.88431
▁years	-6.88784
▁kind	-6.88871
▁things	-6.8924
▁wan	-6.89739
▁three	-6.89836
▁move	-6.89862
▁thanks	-6.90428
▁lot	-6.90677
▁car	-6.90698
▁every	-6.91884
▁hear	-6.92415
▁id	-6.92574
▁kill	-6.92815
er	-6.9304
▁ta	-6.93232
▁hello	-6.9369
▁nice	-6.9395
▁might	-6.97104
▁hold	-6.97404
▁fine	-6.98097
▁youll	-6.98694
▁son	-6.99728
▁wont	-7.00068
▁enough	-7.00152
r	-7.00329
▁family	-7.01236
▁miss	-7.01273
▁playing	-7.01443
▁show	-7.01708
▁course	-7.01932
▁care	-7.02501
▁wrong	-7.03437
a	-7.03527
▁door	-7.04886
▁real	-7.06672
▁remember	-7.07143
▁best	-7.0716
▁play	-7.0744
▁talking	-7.08073
▁huh	-7.08734
▁came	-7.08743
▁wanted	-7.09232
▁tonight	-7.09375
▁house	-7.09436
▁bad	-7.09565
▁dead	-7.09898
▁today	-7.10021
▁someone	-7.1069
▁phone	-7.13112
▁um	-7.13644
▁another	-7.13652
▁woman	-7.14676
▁mind	-7.14718
▁else	-7.15006
▁mother	-7.15442
▁school	-7.15574
▁found	-7.16176
▁trying	-7.16422
▁hard	-7.18297
▁aint	-7.18472
▁next	-7.19536
▁looking	-7.20045
▁run	-7.20381
▁friend	-7.20623
▁isnt	-7.20972
▁guess	-7.21005
▁father	-7.21153
▁understand	-7.21943
▁may	-7.22288
▁getting	-7.22338
▁knew	-7.22429
▁pretty	-7.22797
▁live	-7.23201
▁job	-7.23348
▁many	-7.23605
▁room	-7.23837
▁kid	-7.24696
▁damn	-7.25094
▁sighs	-7.26612
▁bring	-7.26808
▁baby	-7.26935
▁morning	-7.27318
▁try	-7.27602
▁happened	-7.27908
▁wasnt	-7.28091
▁weve	-7.28481
▁meet	-7.29628
▁ah	-7.3081
▁whole	-7.30849
▁chuckles	-7.31441
▁watch	-7.3163
▁head	-7.32073
t	-7.32432
▁already	-7.32457
al	-7.32872
▁cause	-7.33079
▁saw	-7.33274
▁open	-7.33332
▁seen	-7.33654
▁die	-7.33778
▁ask	-7.34162
▁brother	-7.37502
▁heard	-7.37756
▁together	-7.37879
▁men	-7.37972
▁without	-7.38304
▁excuse	-7.38304
▁went	-7.38736
▁everybody	-7.38737
▁turn	-7.38829
▁actually	-7.39173
▁game	-7.40144
▁everyone	-7.41075
▁wouldnt	-7.41416
▁heart	-7.42403
▁start	-7.42517
▁second	-7.42717
▁killed	-7.43209
▁yet	-7.43607
▁took	-7.43609
▁fight	-7.43711
▁gone	-7.43952
▁lost	-7.44069
▁five	-7.44524
▁idea	-7.44684
▁fire	-7.45501
▁use	-7.46127
▁friends	-7.4618
in	-7.46587
▁mine	-7.46957
▁water	-7.47596
▁city	-7.48256
▁face	-7.48544
▁ok	-7.48729
▁alright	-7.49038
▁crazy	-7.49204
▁girls	-7.49847
▁grunts	-7.49898
▁em	-7.4991
▁true	-7.50168
o	-7.50775
▁problem	-7.50947
▁end	-7.51207
▁called	-7.51562
▁anyone	-7.51626
▁bit	-7.52033
▁tomorrow	-7.52119
▁easy	-7.52122
▁whoa	-7.52124
▁hand	-7.52764
▁check	-7.52858
▁stuff	-7.53115
▁high	-7.53887
▁saying	-7.5441
▁gun	-7.54457
▁used	-7.54463
▁hurt	-7.54553
n	-7.5469
▁hope	-7.54818
▁alone	-7.55129
▁days	-7.55249
▁lm	-7.55797
▁hands	-7.55996
▁hit	-7.56664
▁eyes	-7.56873
▁deal	-7.57176
▁welcome	-7.57184
▁havent	-7.57184
es	-7.57233
▁part	-7.57491
▁couldnt	-7.57763
▁nobody	-7.58756
▁captain	-7.59283
▁happy	-7.59816
▁wants	-7.603
▁speak	-7.60325
▁beautiful	-7.6035
▁far	-7.62399
▁whos	-7.62516
▁probably	-7.62518
▁whatever	-7.62518
▁cool	-7.62523
▁pay	-7.626
▁wheres	-7.62911
▁four	-7.63054
▁year	-7.63633
▁hot	-7.6364
▁team	-7.6365
▁looks	-7.63713
▁kids	-7.63854
▁dance	-7.64435
▁party	-7.64895
▁business	-7.65841
▁youd	-7.65872
▁shot	-7.66489
▁wife	-7.6651
▁rest	-7.66553
▁matter	-7.66735
▁shut	-7.67541
▁forget	-7.67577
▁ass	-7.67633
▁full	-7.68112
▁worry	-7.68154
▁happen	-7.68664
▁police	-7.68714
▁case	-7.68876
▁inside	-7.69017
▁young	-7.69223
▁death	-7.69325
▁says	-7.69483
i	-7.69706
▁ago	-7.69905
▁jake	-7.69909
▁minutes	-7.70936
▁un	-7.70949
▁soon	-7.71012
▁week	-7.71224
▁since	-7.71673
▁change	-7.71674
▁safe	-7.72073
▁trust	-7.72588
▁read	-7.72742
▁minute	-7.73082
▁word	-7.73086
▁point	-7.73239
▁gave	-7.74127
▁close	-7.74426
▁blood	-7.74584
▁continues	-7.74678
▁sit	-7.75182
▁fun	-7.75183
▁spanish	-7.75364
▁making	-7.75373
▁line	-7.75543
▁working	-7.75555
▁walk	-7.75622
▁drive	-7.7599
▁wish	-7.77457
▁means	-7.77756
▁drink	-7.78145
▁cut	-7.78476
▁aye	-7.78548
▁chance	-7.78819
▁somebody	-7.78823
▁clear	-7.7902
▁later	-7.79265
▁six	-7.79294
▁stand	-7.79693
▁supposed	-7.79742
▁eat	-7.79787
▁town	-7.80514
▁makes	-7.8149
▁late	-7.81629
▁speaking	-7.82338
▁break	-7.8234
on	-7.82456
▁lady	-7.82893
▁side	-7.83175
▁black	-7.83806
▁wow	-7.83814
▁funny	-7.83815
▁laughs	-7.83996
▁free	-7.84986
▁ahead	-7.85177
▁sally	-7.85208
▁grunting	-7.85256
▁met	-7.85529
▁times	-7.85611
▁afraid	-7.85867
▁sleep	-7.8612
▁taking	-7.86576
▁engine	-7.86668
▁hmm	-7.87239
▁laughing	-7.87492
▁also	-7.87963
▁red	-7.87991
▁boys	-7.8829
▁joe	-7.88514
▁least	-7.88672
▁power	-7.88726
▁moment	-7.8915
▁though	-7.89314
▁set	-7.89377
▁exactly	-7.89402
▁waiting	-7.89878
▁save	-7.89979
▁almost	-7.90106
▁air	-7.90111
▁thinking	-7.9025
▁win	-7.90612
▁story	-7.90834
▁light	-7.90878
▁needs	-7.91477
▁send	-7.92249
▁james	-7.92304
▁anymore	-7.93037
▁answer	-7.9328
▁hate	-7.93479
▁master	-7.93772
▁white	-7.94374
▁number	-7.95152
▁war	-7.9517
▁person	-7.95229
▁alive	-7.96059
▁shoot	-7.96153
▁ladies	-7.96826
▁asked	-7.97403
▁charlie	-7.97601
▁honey	-7.97602
▁died	-7.98046
▁dog	-7.9826
▁follow	-7.98332
▁enola	-7.98381
▁tried	-7.98398
▁perfect	-7.98425
▁promise	-7.98893
▁catch	-7.9951
▁book	-7.99591
▁important	-7.99838
▁different	-8.00763
▁running	-8.00763
▁jimmy	-8.00764
▁question	-8.01054
▁jo	-8.01251
l	-8.01512
▁panting	-8.01573
▁body	-8.0158
▁theyll	-8.02382
▁half	-8.02383
▁couple	-8.02384
▁screaming	-8.02445
▁arent	-8.03202
▁ooh	-8.03202
▁truth	-8.03203
▁pick	-8.03246
▁goes	-8.03712
▁behind	-8.0403
▁sent	-8.04035
▁dr	-8.04473
▁plan	-8.04609
▁lose	-8.0478
▁hang	-8.0604
▁married	-8.06554
▁reason	-8.0656
▁outside	-8.0729
▁stupid	-8.07404
▁doctor	-8.07405
▁hurry	-8.07406
▁anyway	-8.07454
▁ball	-8.0759
▁marta	-8.08273
▁hours	-8.08422
est	-8.0905
▁ride	-8.09135
▁quite	-8.09192
▁street	-8.09219
▁mrs	-8.10125
▁ship	-8.10188
▁order	-8.11116
▁sounds	-8.115
▁luck	-8.11667
▁trouble	-8.11702
▁bill	-8.11718
▁parents	-8.1192
m	-8.12529
▁control	-8.12695
▁pass	-8.12913
▁bet	-8.13161
▁child	-8.13587
▁dear	-8.13599
▁lts	-8.13648
▁la	-8.14029
▁office	-8.14429
▁food	-8.14518
▁living	-8.14519
▁jesus	-8.1452
▁country	-8.14527
▁train	-8.14561
▁voice	-8.14695
▁started	-8.15157
▁anybody	-8.1658
▁lead	-8.16977
▁straight	-8.17322
▁front	-8.17332
▁officer	-8.17642
ion	-8.17702
▁fall	-8.18073
▁america	-8.18203
▁bye	-8.18274
▁step	-8.18619
▁s	-8.18993
▁ha	-8.19201
▁sign	-8.19586
▁lives	-8.1971
▁telling	-8.19782
▁shouldnt	-8.20207
▁brought	-8.20207
▁gentlemen	-8.20208
▁moving	-8.20208
▁feet	-8.20214
▁dream	-8.20629
▁chatter	-8.20728
g	-8.20767
▁slow	-8.20962
▁c	-8.21135
▁henry	-8.21187
▁leaving	-8.2119
▁shall	-8.21211
▁cover	-8.21398
▁carl	-8.21788
▁mar	-8.21806
▁taken	-8.21869
▁buy	-8.21963
▁harlan	-8.21973
▁fast	-8.22066
▁sound	-8.22153
▁seven	-8.22177
▁tv	-8.2219
▁gets	-8.22406
▁de	-8.22575
▁camp	-8.22712
▁sun	-8.2309
▁scared	-8.23265
▁pull	-8.23394
▁cheering	-8.23406
▁ten	-8.23445
▁throw	-8.2363
ar	-8.23836
▁top	-8.23989
▁months	-8.24095
▁president	-8.24187
▁protect	-8.24381
▁lie	-8.24544
▁bed	-8.24598
▁news	-8.24699
▁till	-8.25201
▁knows	-8.25681
▁beat	-8.25877
ic	-8.26095
▁future	-8.26239
▁itll	-8.26239
▁gasps	-8.26407
▁serious	-8.2716
▁write	-8.27185
▁feeling	-8.27588
▁daddy	-8.27703
▁th	-8.28017
▁john	-8.28322
▁radio	-8.28333
▁fault	-8.28335
▁jack	-8.28725
▁million	-8.28793
able	-8.2884
▁fact	-8.29742
▁detective	-8.2985
ers	-8.29993
st	-8.30158
▁king	-8.30223
▁enjoy	-8.30451
▁children	-8.30474
▁victor	-8.31351
ies	-8.31403
▁re	-8.31407
▁careful	-8.31505
▁peter	-8.31625
▁lucky	-8.31742
▁comes	-8.3265
▁perhaps	-8.32658
▁paul	-8.32669
▁asking	-8.32715
▁able	-8.33077
▁picture	-8.33207
ting	-8.33408
▁seem	-8.33469
▁land	-8.33613
▁uncle	-8.3377
▁kidding	-8.33829
▁sometimes	-8.34084
▁miles	-8.34162
▁drop	-8.34326
▁seems	-8.34338
▁become	-8.34351
▁meant	-8.34391
▁strong	-8.34759
▁either	-8.34892
us	-8.3499
▁rock	-8.35151
▁hair	-8.3546
▁human	-8.35483
▁happens	-8.35855
▁return	-8.35857
▁somewhere	-8.36029
▁sort	-8.36047
▁heres	-8.36197
▁sense	-8.36244
▁touch	-8.36355
en	-8.3665
▁york	-8.37076
▁smart	-8.37078
▁small	-8.37079
▁fuck	-8.37148
▁women	-8.3718
▁song	-8.37333
▁hows	-8.3754
▁act	-8.37752
▁lord	-8.37828
▁maam	-8.38343
▁miller	-8.38352
▁past	-8.38605
▁figure	-8.38806
▁longer	-8.38826
▁indistinct	-8.39397
▁normal	-8.394
▁ho	-8.39434
▁sick	-8.39505
▁dinner	-8.39518
▁fair	-8.39546
▁contact	-8.39861
▁choice	-8.40217
▁eye	-8.40261
▁company	-8.40708
▁goddamn	-8.40708
▁copy	-8.40799
▁murder	-8.40974
▁worth	-8.41024
▁finish	-8.4115
▁horse	-8.41454
▁special	-8.41496
▁class	-8.41664
▁honor	-8.41887
▁birthday	-8.41913
▁bobby	-8.41914
▁relax	-8.41914
▁johnny	-8.41918
▁dangerous	-8.41918
▁ya	-8.42059
▁wed	-8.42451
▁dude	-8.42638
▁worked	-8.42693
▁weeks	-8.42864
▁buddy	-8.43133
▁goodbye	-8.43137
▁rich	-8.43142
▁early	-8.43212
▁cell	-8.43691
▁fear	-8.44162
▁bitch	-8.44342
▁others	-8.44367
▁calm	-8.44371
h	-8.4449
▁learn	-8.44867
▁sister	-8.4519
▁husband	-8.45197
▁secret	-8.45198
▁fish	-8.45642
▁questions	-8.45701
▁groans	-8.45822
ve	-8.45938
or	-8.45951
▁takes	-8.46178
p	-8.4622
▁t	-8.4628
▁american	-8.46352
▁road	-8.46657
▁low	-8.4674
▁theyve	-8.46883
▁sweetwater	-8.46883
▁north	-8.46883
▁totally	-8.46948
▁breathing	-8.4708
▁b	-8.47313
▁attack	-8.47387
▁movie	-8.47779
▁turned	-8.47796
▁ben	-8.47909
▁dark	-8.48127
▁along	-8.48164
▁finally	-8.48241
▁clean	-8.48552
le	-8.48553
▁fly	-8.49105
▁dom	-8.49195
▁english	-8.49437
▁aj	-8.49468
▁gold	-8.49509
▁state	-8.49564
▁laugh	-8.49568
▁watching	-8.4958
▁seat	-8.49757
▁join	-8.49965
c	-8.50001
▁expect	-8.50014
▁sam	-8.50258
▁loved	-8.50412
▁agent	-8.50413
▁bridge	-8.50781
▁mouth	-8.50803
▁worse	-8.50805
▁shouting	-8.5086
▁singing	-8.51073
▁test	-8.51946
▁weird	-8.51992
▁hide	-8.52109
▁driving	-8.52114
▁breathe	-8.52346
man	-8.52456
▁kiss	-8.52661
▁be	-8.52762
▁reach	-8.52928
▁sweet	-8.52928
▁piece	-8.53154
▁message	-8.53156
▁truck	-8.53158
▁handle	-8.53331
▁court	-8.53451
▁possible	-8.53464
▁forever	-8.53465
▁mad	-8.54257
▁wear	-8.54416
▁ground	-8.54511
▁bag	-8.54635
▁boss	-8.54674
▁definitely	-8.54834
▁gllllan	-8.54834
▁heavily	-8.54834
▁history	-8.54834
▁swear	-8.54834
▁none	-8.54871
▁board	-8.54882
▁bus	-8.54972
▁mess	-8.55217
▁changed	-8.55302
▁blow	-8.5536
▁crowd	-8.55883
▁bud	-8.56045
▁quiet	-8.56109
▁mm	-8.56137
▁ethan	-8.56223
▁security	-8.56223
▁south	-8.56223
▁crew	-8.56224
▁mister	-8.56233
re	-8.56552
▁words	-8.57248
▁hero	-8.57267
▁happening	-8.57271
ie	-8.57285
▁table	-8.57319
▁needed	-8.57334
▁hour	-8.57393
lng	-8.57499
▁eight	-8.57606
▁caught	-8.57631
▁richard	-8.57636
▁earth	-8.57636
▁max	-8.57639
▁map	-8.58021
▁m	-8.5817
th	-8.58332
▁force	-8.58616
▁quick	-8.58829
▁ones	-8.58839
▁peace	-8.59041
▁general	-8.5906
▁building	-8.59065
▁report	-8.59382
▁foot	-8.59492
▁in	-8.59562
▁amazing	-8.60509
▁space	-8.60533
▁tony	-8.60536
▁bats	-8.60693
▁killer	-8.60802
▁saved	-8.60929
▁target	-8.61274
▁explain	-8.61382
▁bang	-8.61538
▁window	-8.61768
▁ghost	-8.61774
▁near	-8.61858
▁poor	-8.61864
▁bat	-8.61911
▁wall	-8.61949
▁harvey	-8.6198
▁felt	-8.61983
▁glad	-8.61991
▁paid	-8.61997
▁count	-8.62
▁missed	-8.62045
▁yo	-8.62088
▁given	-8.62585
▁shoes	-8.62806
▁respect	-8.62891
▁looked	-8.63184
▁grab	-8.63253
▁rathe	-8.63253
▁walt	-8.63372
▁david	-8.63458
▁green	-8.63473
▁batman	-8.63492
▁known	-8.63577
▁ringing	-8.6373
▁folks	-8.63742
▁bearing	-8.63745
▁screams	-8.63925
▁kick	-8.64006
▁blue	-8.64837
▁g	-8.64903
▁anywhere	-8.64987
▁abby	-8.64994
▁absolutely	-8.65001
▁forgive	-8.65057
▁e	-8.65096
▁p	-8.65372
▁nick	-8.65721
▁j	-8.66046
▁band	-8.66208
▁date	-8.66239
▁stick	-8.66353
▁daughter	-8.66389
▁coach	-8.66471
▁cash	-8.66522
▁igor	-8.66526
▁major	-8.66527
▁favorite	-8.66527
▁mama	-8.66547
▁lisa	-8.66555
▁bell	-8.66559
ment	-8.6677
▁fool	-8.67116
▁short	-8.67572
▁floor	-8.67935
▁jump	-8.67977
▁boat	-8.6798
▁position	-8.68013
▁gordon	-8.68088
▁middle	-8.68088
▁clothes	-8.68093
▁film	-8.6813
b	-8.68198
as	-8.68725
▁law	-8.68766
▁box	-8.68793
▁calling	-8.69027
▁rain	-8.69161
▁surprise	-8.69344
▁race	-8.69429
▁island	-8.69545
▁range	-8.69576
▁awesome	-8.69679
▁born	-8.697
▁mandi	-8.69751
up	-8.6979
▁tires	-8.69963
▁wonder	-8.70677
▁pain	-8.7074
▁h	-8.71112
f	-8.71113
▁gym	-8.7128
▁coffee	-8.71288
▁giving	-8.71289
▁wake	-8.71291
▁personal	-8.71292
▁gary	-8.7132
▁w	-8.71341
▁hat	-8.7166
▁bank	-8.71752
▁plane	-8.71808
▁less	-8.71849
▁seeing	-8.72101
▁mark	-8.72266
▁spend	-8.72479
▁port	-8.72767
▁entire	-8.72806
▁mistake	-8.72827
▁accident	-8.7283
▁alex	-8.72928
▁aaron	-8.72928
▁kept	-8.72929
▁yall	-8.7295
▁cold	-8.7298
▁busy	-8.73108
▁wing	-8.73376
▁fix	-8.73808
▁cross	-8.73839
▁marry	-8.74162
ce	-8.74212
▁cops	-8.74223
▁f	-8.74397
▁male	-8.74523
▁hospital	-8.74581
▁werent	-8.74594
▁hasnt	-8.74595
▁soul	-8.74597
▁broken	-8.74649
▁star	-8.74777
▁r	-8.74849
▁club	-8.75094
ng	-8.75308
▁private	-8.76157
▁wonderful	-8.76159
▁machine	-8.76272
▁instead	-8.76289
▁london	-8.76289
▁exhales	-8.76292
▁yep	-8.76293
▁pool	-8.76319
▁unless	-8.76332
▁tough	-8.76359
ation	-8.76659
▁hed	-8.76733
▁player	-8.76858
▁chattering	-8.77055
▁killing	-8.77307
▁works	-8.77391
▁lt	-8.77538
▁shh	-8.77995
▁forgot	-8.78009
▁dancing	-8.78014
▁linnet	-8.78015
▁quit	-8.78043
▁hotel	-8.78045
▁round	-8.78048
▁hundred	-8.78049
▁crime	-8.78059
▁station	-8.78075
▁jet	-8.78079
▁sitting	-8.7808
▁feels	-8.78312
▁da	-8.78752
ll	-8.78844
▁cute	-8.78909
▁offer	-8.79017
▁teach	-8.79201
▁rules	-8.79211
um	-8.79292
▁shell	-8.79594
▁soft	-8.7965
▁beach	-8.79707
▁gas	-8.79727
▁cat	-8.79747
▁church	-8.79764
▁college	-8.79768
▁female	-8.79768
▁tea	-8.7979
▁amy	-8.79792
▁west	-8.79811
▁spirit	-8.79854
▁seriously	-8.79972
▁maya	-8.80209
▁abe	-8.80427
▁ow	-8.80779
▁a	-8.808
▁suit	-8.81025
▁hall	-8.8105
ness	-8.81141
▁bar	-8.81144
▁broke	-8.81245
▁deep	-8.81336
less	-8.81343
▁share	-8.81405
▁poirot	-8.81554
▁sheila	-8.81554
▁tewkesbury	-8.81554
▁local	-8.81554
▁boyfriend	-8.81587
▁darling	-8.81587
▁aunt	-8.81629
▁girlfriend	-8.81643
▁smell	-8.81667
▁d	-8.81679
▁locked	-8.81735
▁choose	-8.81755
▁crying	-8.81853
▁holding	-8.82509
▁arm	-8.82542
▁park	-8.82848
▁evening	-8.83047
▁escape	-8.83186
▁simple	-8.83291
▁scene	-8.83369
▁desert	-8.83372
▁yesterday	-8.83372
▁across	-8.83372
▁information	-8.83378
▁wayne	-8.83522
▁month	-8.83564
▁card	-8.83964
▁joes	-8.84125
▁dare	-8.85061
▁except	-8.85153
▁continue	-8.85201
▁language	-8.85224
▁worried	-8.85224
▁proud	-8.85224
▁basketball	-8.85224
▁tessa	-8.85227
▁risk	-8.85228
▁tired	-8.85244
▁store	-8.8525
▁roger	-8.85324
▁wedding	-8.85344
▁bike	-8.85607
k	-8.86027
▁record	-8.86552
▁sell	-8.86571
▁tai	-8.86742
▁lam	-8.86777
▁allow	-8.86794
▁glass	-8.87057
▁starting	-8.87078
▁blind	-8.87093
▁derek	-8.8711
▁double	-8.8711
▁scoffs	-8.8711
▁attention	-8.87112
▁irish	-8.87112
▁starboard	-8.87113
▁stuck	-8.87113
▁present	-8.87156
▁member	-8.87333
▁dogs	-8.87342
▁meeting	-8.87458
▁cheer	-8.87582
▁k	-8.88049
▁lived	-8.8812
▁lee	-8.8831
▁suck	-8.88381
▁seconds	-8.88405
ally	-8.88406
▁steal	-8.88589
▁sad	-8.88863
▁rick	-8.8892
▁stole	-8.88981
▁appreciate	-8.89033
▁purpose	-8.89033
▁smile	-8.89034
▁opens	-8.89077
▁heaven	-8.89263
▁besides	-8.89283
▁belong	-8.89289
▁stone	-8.89357
▁beer	-8.8939
▁key	-8.89394
ous	-8.89501
▁fired	-8.89857
▁owe	-8.90224
▁reading	-8.90447
▁burn	-8.90457
▁birds	-8.90579
▁frank	-8.90684
▁cheers	-8.90755
▁i	-8.90847
▁gift	-8.90941
▁charge	-8.90986
▁especially	-8.90996
▁mmm	-8.90996
▁jerry	-8.90997
▁fbi	-8.90997
▁afternoon	-8.90999
▁average	-8.91008
▁wild	-8.91023
▁area	-8.91223
▁system	-8.91283
▁letter	-8.91427
▁leader	-8.91436
▁an	-8.91448
▁sing	-8.91516
an	-8.916
▁wind	-8.91822
▁accept	-8.92177
▁search	-8.92493
▁st	-8.92572
▁match	-8.92655
▁brothers	-8.92724
▁realize	-8.92828
▁prison	-8.92868
▁fighting	-8.92911
▁loose	-8.92936
▁cars	-8.92946
▁queen	-8.92975
▁sanchez	-8.92994
▁chaplin	-8.92995
▁gotham	-8.92995
▁crown	-8.92998
▁sharon	-8.92999
▁forward	-8.93032
▁groaning	-8.9308
▁final	-8.93215
▁lll	-8.93323
▁ran	-8.94451
▁judge	-8.94824
▁strange	-8.94934
▁tour	-8.95033
▁built	-8.95035
▁difference	-8.95035
▁single	-8.95056
▁dirty	-8.95121
ity	-8.95129
▁cap	-8.95177
▁interested	-8.95196
▁dent	-8.95293
▁computer	-8.95398
▁gods	-8.95443
▁sea	-8.95542
▁spot	-8.95978
▁missing	-8.96008
▁ex	-8.96158
▁grow	-8.96912
▁jets	-8.97043
▁plans	-8.97111
▁east	-8.97118
▁evidence	-8.97118
▁rudder	-8.97118
▁whirring	-8.97118
▁british	-8.97119
▁linda	-8.9712
▁sweetie	-8.97147
▁certainly	-8.97216
▁holy	-8.97369
▁reports	-8.97451
▁field	-8.97492
▁service	-8.9754
▁cost	-8.9757
▁cher	-8.97572
▁guns	-8.9769
▁idiot	-8.97745
▁names	-8.97753
to	-8.98075
▁ji	-8.98329
▁push	-8.98416
▁breaking	-8.98525
▁experience	-8.98562
▁speed	-8.9881
▁smoke	-8.98918
▁dumb	-8.9914
▁genius	-8.99246
▁bullshit	-8.99247
▁jaden	-8.99247
▁dying	-8.99269
▁path	-8.99278
▁bigger	-8.99303
▁whoo	-8.99336
▁screeching	-8.99412
▁cop	-8.99614
▁situation	-8.9962
▁drunk	-8.99622
▁partner	-8.9971
▁bird	-8.99747
▁states	-8.99861
▁christ	-8.99881
▁age	-9.00058
▁travel	-9.00692
▁unit	-9.00988
▁pack	-9.01069
▁carry	-9.01074
▁complete	-9.01093
▁named	-9.01159
▁played	-9.01373
▁extra	-9.01418
▁swim	-9.01419
▁bernardo	-9.0142
▁heavy	-9.0142
▁pleasure	-9.0142
▁siveth	-9.0142
▁terrible	-9.01421
▁department	-9.01421
▁bourne	-9.01425
▁chief	-9.01425
▁dramatic	-9.01498
▁stage	-9.01586
ry	-9.01624
▁blues	-9.01637
▁notice	-9.0164
▁cousin	-9.01864
▁group	-9.01906
▁paper	-9.0194
age	-9.01954
▁begin	-9.01962
▁ace	-9.02018
▁magic	-9.0284
▁walking	-9.02972
ch	-9.03282
▁curse	-9.03441
▁tight	-9.03471
▁lunch	-9.03635
▁francis	-9.03641
▁michael	-9.03642
▁dodgeball	-9.03643
▁bathroom	-9.03644
▁luke	-9.03644
▁bought	-9.03646
▁gasping	-9.0374
▁hiding	-9.03747
▁ice	-9.03777
▁mars	-9.03789
▁shed	-9.0379
▁draw	-9.03987
▁social	-9.04051
▁whose	-9.04097
▁price	-9.0412
▁weapon	-9.04213
▁fit	-9.04259
▁mayor	-9.04273
u	-9.04342
la	-9.04418
▁fat	-9.0448
▁switch	-9.04918
▁honest	-9.05639
noit	-9.05706
▁loud	-9.0571
▁imagine	-9.05711
▁knock	-9.0573
▁arms	-9.05733
▁roman	-9.05896
▁lay	-9.05914
▁bouc	-9.05915
▁greyhound	-9.05915
▁throat	-9.05915
▁alarm	-9.05916
▁wailing	-9.05942
▁third	-9.05948
▁obviously	-9.05966
▁honestly	-9.06036
▁lovely	-9.06055
▁faster	-9.06142
▁putting	-9.06201
▁rat	-9.06454
▁asshole	-9.06495
▁bastard	-9.06509
▁talked	-9.06787
▁legs	-9.06967
▁where	-9.07039
▁sleeping	-9.07377
▁closes	-9.07429
▁trip	-9.07722
▁keys	-9.079
▁shaw	-9.08084
▁total	-9.08125
▁empire	-9.08241
▁study	-9.08246
▁mmhmm	-9.08256
▁ken	-9.08264
▁completely	-9.0837
▁falcone	-9.08372
▁code	-9.08562
▁ii	-9.08665
▁bite	-9.08831
▁finished	-9.08876
▁snake	-9.08901
▁shadow	-9.08918
▁soldier	-9.08924
▁ends	-9.0912
ling	-9.09617
▁carly	-9.09663
▁form	-9.09682
▁treat	-9.09804
▁standing	-9.09832
▁moved	-9.09996
▁build	-9.10181
▁se	-9.102
▁mission	-9.1035
▁roll	-9.10357
▁warm	-9.10359
ful	-9.10361
▁base	-9.10414
▁raise	-9.10423
▁mike	-9.10476
▁self	-9.10598
w	-9.1062
▁lieutenant	-9.10621
▁video	-9.10621
▁ransom	-9.10622
▁twice	-9.10622
▁repeat	-9.10623
▁bruce	-9.10623
▁inspector	-9.10623
▁pants	-9.10628
▁josie	-9.1063
▁standard	-9.10664
▁joni	-9.10699
▁losing	-9.10738
▁pete	-9.10755
▁heading	-9.10808
▁beeping	-9.10821
it	-9.1083
▁suspect	-9.11005
▁support	-9.11091
▁deserve	-9.11132
▁season	-9.11301
▁champion	-9.11347
▁type	-9.11381
▁bro	-9.11439
▁keeping	-9.11533
▁ted	-9.11593
nt	-9.11687
▁goin	-9.12006
out	-9.12351
ish	-9.12399
▁rule	-9.12488
▁prove	-9.12543
▁sky	-9.1264
▁art	-9.12643
▁suppose	-9.12865
▁strength	-9.12873
el	-9.12898
▁german	-9.12925
▁using	-9.12925
▁eve	-9.12938
▁public	-9.12953
▁witch	-9.13007
▁impossible	-9.1306
▁nope	-9.1306
▁professor	-9.1306
▁sherlock	-9.13061
▁bunch	-9.13061
▁famous	-9.13066
▁hungry	-9.13066
▁luce	-9.13067
▁silly	-9.13068
▁flight	-9.1308
▁moon	-9.1311
▁interesting	-9.13332
▁books	-9.13335
▁dollars	-9.13676
▁joke	-9.13779
▁noise	-9.13822
▁conversation	-9.13842
▁closed	-9.13846
▁camera	-9.13878
▁problems	-9.1401
▁training	-9.14242
ty	-9.14515
▁starts	-9.14723
▁dress	-9.14739
▁hole	-9.149
▁woo	-9.14906
▁weapons	-9.14921
▁per	-9.15221
z	-9.15342
▁fell	-9.15458
▁beth	-9.15487
▁rachel	-9.1556
▁beginning	-9.15561
▁zooey	-9.15561
▁chuckling	-9.15563
▁jail	-9.15563
▁nurse	-9.15566
▁storm	-9.15576
▁alan	-9.15582
▁decided	-9.15725
▁o	-9.15767
▁battle	-9.1632
▁wearing	-9.16373
▁ring	-9.1683
▁shooting	-9.17013
▁pop	-9.17066
▁co	-9.17124
▁nine	-9.1723
▁mary	-9.17618
▁punch	-9.17732
▁certain	-9.18006
▁apart	-9.18109
▁spent	-9.18125
▁knife	-9.1813
▁howard	-9.18133
▁ballet	-9.18146
▁riff	-9.18148
▁doin	-9.18159
▁lying	-9.18163
▁freak	-9.18167
▁whatd	-9.18218
▁allowed	-9.18585
▁shouts	-9.18732
▁vote	-9.18774
▁scout	-9.19046
▁thousand	-9.19049
▁al	-9.19428
▁dreams	-9.19962
▁cry	-9.2029
▁focus	-9.20436
▁sight	-9.20513
▁practice	-9.20545
▁sex	-9.20639
▁command	-9.20639
▁han	-9.2065
▁adele	-9.20756
▁treasure	-9.20756
▁within	-9.20756
▁chicago	-9.20756
▁grandpa	-9.20758
▁babe	-9.20758
▁mitch	-9.20759
▁distance	-9.20762
▁christian	-9.20767
▁corner	-9.20782
▁simon	-9.20788
▁royal	-9.20802
▁stolen	-9.2083
▁yelling	-9.2087
▁players	-9.20923
▁bear	-9.21077
▁closer	-9.21139
▁hm	-9.21269
▁san	-9.21341
▁wouldve	-9.21395
▁block	-9.21421
▁promised	-9.21442
▁doors	-9.21539
▁regret	-9.21689
ley	-9.21692
▁summer	-9.21706
▁tree	-9.21757
▁reporter	-9.21892
▁mate	-9.21927
▁feelings	-9.22445
▁games	-9.22809
is	-9.23011
▁destroy	-9.23034
▁helped	-9.23189
▁agree	-9.23243
▁post	-9.23263
▁remind	-9.23266
▁contract	-9.23276
▁daniel	-9.23432
▁gettin	-9.23435
▁circus	-9.23459
▁constable	-9.23459
▁difficult	-9.23459
▁mycroft	-9.23459
▁relationship	-9.23459
▁sergeant	-9.23459
▁upstairs	-9.23459
▁wrote	-9.23459
▁somehow	-9.2346
▁charles	-9.23462
▁worst	-9.23467
▁lane	-9.23485
▁chino	-9.23493
▁upon	-9.23494
▁powerful	-9.23502
▁brooke	-9.23506
▁brave	-9.2356
▁track	-9.23806
▁plays	-9.23866
▁figured	-9.23917
▁heads	-9.23925
▁tom	-9.24061
▁gang	-9.24394
▁sheriff	-9.24487
▁chicken	-9.24488
▁decision	-9.24495
▁pig	-9.24528
▁planet	-9.24608
▁flowers	-9.24623
ine	-9.24685
▁fu	-9.24878
▁press	-9.25448
▁arrest	-9.2592
▁crack	-9.26181
▁clark	-9.26237
▁dallas	-9.26237
▁george	-9.26237
▁insane	-9.26237
▁nervous	-9.26237
▁responsible	-9.26237
▁texas	-9.26237
▁muffle	-9.26237
▁stories	-9.26238
▁diana	-9.26238
▁maddie	-9.26239
▁shop	-9.26243
▁text	-9.26243
▁sobbing	-9.26257
▁involved	-9.26258
▁stopped	-9.26268
▁defense	-9.26273
▁breath	-9.2641
▁nose	-9.26418
▁metal	-9.2653
▁thinks	-9.26767
▁bloody	-9.26927
▁screw	-9.26973
▁survive	-9.27072
▁eagle	-9.27296
▁tongue	-9.27304
▁shirt	-9.27334
▁cake	-9.27392
▁career	-9.28166
▁spy	-9.28618
▁listening	-9.28725
▁super	-9.29053
▁apparently	-9.29094
▁doubt	-9.29094
▁duncan	-9.29094
▁kitchen	-9.29094
▁neither	-9.29094
▁plenty	-9.29094
▁truly	-9.29094
▁permission	-9.29094
▁government	-9.29096
▁whoever	-9.29096
▁alice	-9.29097
▁excellent	-9.291
▁breakfast	-9.29102
▁curly	-9.29105
▁cooper	-9.29108
▁robin	-9.2911
▁commissioner	-9.29129
▁grand	-9.29137
▁dean	-9.2914
▁main	-9.2914
▁safety	-9.29145
▁amen	-9.29148
▁usually	-9.29176
▁army	-9.29334
te	-9.29404
▁trick	-9.29791
▁remain	-9.29811
▁consider	-9.2992
▁pal	-9.29937
▁passed	-9.301
▁picked	-9.302
▁taste	-9.30252
▁dis	-9.30318
▁brain	-9.30337
▁animal	-9.30337
▁devil	-9.30355
one	-9.3056
ton	-9.30619
ia	-9.31051
▁eating	-9.31097
▁chris	-9.31135
▁v	-9.31158
▁headed	-9.31398
▁so	-9.31517
▁balls	-9.31849
▁became	-9.32035
▁congratulations	-9.32035
▁jerem	-9.32035
▁kahndaq	-9.32035
▁kennedy	-9.32035
▁loretta	-9.32035
▁french	-9.32035
▁funeral	-9.32035
▁insist	-9.32035
▁rumbling	-9.32036
▁secure	-9.32036
▁toast	-9.32036
▁shane	-9.32038
▁sara	-9.32049
▁turning	-9.32061
▁director	-9.32066
▁jay	-9.32073
▁writing	-9.32088
ate	-9.32104
▁fallen	-9.32107
▁showed	-9.32154
▁degrees	-9.32215
▁kyle	-9.32228
▁opening	-9.32231
▁deeply	-9.32236
▁softly	-9.32239
▁po	-9.32279
▁places	-9.32289
▁indistinctly	-9.32341
▁shame	-9.32463
▁tris	-9.32568
▁wondering	-9.32856
▁exist	-9.3294
▁ms	-9.33008
▁decide	-9.33046
▁flying	-9.33068
▁value	-9.33213
▁he	-9.33251
▁huge	-9.33268
▁favor	-9.33286
▁loop	-9.33315
▁mountain	-9.33348
▁horn	-9.33353
▁action	-9.33364
▁calls	-9.33364
▁russian	-9.33379
▁shoe	-9.33388
▁fan	-9.33515
▁sand	-9.33518
▁liked	-9.33548
▁fathers	-9.3357
▁hill	-9.33571
▁add	-9.33786
ta	-9.34086
▁turns	-9.34428
▁ed	-9.34779
▁mention	-9.34801
▁fill	-9.34846
▁waste	-9.34861
▁excited	-9.34923
▁somethin	-9.35036
▁nico	-9.35042
▁beyond	-9.35065
▁spider	-9.35065
▁grace	-9.35066
▁choir	-9.35066
▁buried	-9.35066
▁midnight	-9.35066
▁adam	-9.35066
▁river	-9.35067
▁shouldve	-9.35067
▁access	-9.35068
▁mitchell	-9.35069
▁foul	-9.35069
▁earlier	-9.35069
▁football	-9.35072
▁pressure	-9.35077
▁cabin	-9.35097
▁dicky	-9.35162
▁ox	-9.35166
▁stops	-9.35198
▁warning	-9.35374
▁lock	-9.3548
▁plus	-9.35512
ive	-9.3572
▁gosh	-9.35723
▁lve	-9.35772
▁messages	-9.35793
▁murdered	-9.35867
▁butt	-9.35941
▁driver	-9.35954
▁clicks	-9.35993
▁lights	-9.36053
▁tigers	-9.36101
▁color	-9.36106
▁ticket	-9.36477
▁bullet	-9.36479
▁page	-9.36485
▁guard	-9.36499
▁prefer	-9.3666
▁farm	-9.3706
▁fighter	-9.3714
rs	-9.37234
▁visit	-9.37383
▁garden	-9.37512
ian	-9.3758
▁di	-9.37769
▁borrow	-9.37854
▁streets	-9.37895
▁grant	-9.37911
▁skin	-9.37961
▁rescue	-9.37975
▁jones	-9.38029
ma	-9.38046
▁rent	-9.3813
▁speech	-9.38171
▁neck	-9.38181
▁thunder	-9.38189
▁enemy	-9.3819
▁understood	-9.3819
▁england	-9.38191
▁inhales	-9.38191
▁molly	-9.38191
▁justice	-9.38192
▁empty	-9.38192
▁firing	-9.38193
▁willing	-9.38193
▁junior	-9.38194
▁investigation	-9.38194
▁electricity	-9.38195
▁brilliant	-9.38196
▁steady	-9.38198
▁anita	-9.38199
▁fever	-9.38206
▁danger	-9.38207
▁laughter	-9.38208
▁weekend	-9.38211
▁duty	-9.38216
▁staying	-9.38231
▁convoy	-9.38236
▁national	-9.38254
cy	-9.38314
▁whispers	-9.38329
▁buzzing	-9.3838
ass	-9.38473
▁gotten	-9.38569
▁hardin	-9.38624
ist	-9.38729
▁pro	-9.38754
v	-9.38929
▁beeps	-9.39209
▁eli	-9.39431
▁fingers	-9.39535
▁device	-9.39554
▁pilot	-9.39628
▁doyle	-9.3967
▁bomb	-9.39729
▁lines	-9.40336
▁hearts	-9.4043
▁orders	-9.40987
▁harm	-9.41026
▁challenge	-9.41059
▁bother	-9.41067
▁lies	-9.4116
▁up	-9.41228
▁feed	-9.4131
▁howd	-9.41381
mo	-9.41384
▁mail	-9.41405
▁alpha	-9.41414
▁cassie	-9.41416
▁jakob	-9.41416
▁ridiculous	-9.41416
▁vegas	-9.41416
▁jazz	-9.41417
▁beauty	-9.41417
▁sweetheart	-9.41418
▁everywhere	-9.41421
▁evil	-9.41422
▁uhhuh	-9.41424
▁popular	-9.41426
▁square	-9.41428
▁secretary	-9.41433
▁elliott	-9.41435
▁aah	-9.41437
▁taught	-9.41437
▁josh	-9.41449
▁madame	-9.41473
▁wings	-9.41481
▁suddenly	-9.41502
▁chirping	-9.4154
▁hoping	-9.41564
▁meg	-9.41586
▁noticed	-9.41729
▁heat	-9.41832
▁growing	-9.42105
▁paris	-9.42184
▁harder	-9.42333
▁ward	-9.42382
▁adult	-9.42883
▁bull	-9.42901
▁package	-9.42927
▁threat	-9.42992
▁pirate	-9.43047
▁account	-9.43053
▁aw	-9.43128
▁tear	-9.43267
▁animals	-9.43318
im	-9.43429
▁helping	-9.43627
ne	-9.43814
▁rid	-9.44063
▁provide	-9.44081
▁el	-9.44303
▁matters	-9.44382
▁lift	-9.44459
▁list	-9.44586
x	-9.44592
▁dash	-9.44639
▁address	-9.44678
▁atreides	-9.44749
▁monsieur	-9.44749
▁traitor	-9.44749
▁phil	-9.44749
▁competition	-9.4475
▁japanese	-9.4475
▁afford	-9.4475
▁often	-9.4475
▁deck	-9.44751
▁cream	-9.44751
▁grew	-9.44751
▁planning	-9.44752
▁angry	-9.44753
▁solo	-9.44753
▁bright	-9.44762
▁sold	-9.44764
▁medicine	-9.44767
▁assume	-9.44774
▁grandma	-9.44776
▁crap	-9.44779
▁brian	-9.44787
▁level	-9.44868
▁invited	-9.44901
▁quickly	-9.45036
▁surprised	-9.45168
▁higher	-9.45412
il	-9.45583
▁lied	-9.45623
▁talent	-9.46092
▁falling	-9.46318
▁pre	-9.4637
▁harry	-9.46387
▁all	-9.46391
▁counselor	-9.46434
▁yards	-9.46444
▁instrument	-9.4645
▁spell	-9.46457
▁pictures	-9.46473
▁yard	-9.46498
▁chuckle	-9.46519
▁fran	-9.46526
▁hanging	-9.46538
▁fe	-9.46584
▁following	-9.46662
▁signal	-9.46666
▁meaning	-9.46931
▁ko	-9.46992
▁hunt	-9.47062
▁out	-9.47125
▁hook	-9.47262
▁papers	-9.47368
▁leads	-9.47376
▁market	-9.47736
▁bond	-9.47788
▁march	-9.47797
▁martin	-9.47999
id	-9.48038
▁christmas	-9.48132
▁jealous	-9.48165
▁split	-9.48173
▁aware	-9.48181
▁apologize	-9.48198
▁common	-9.48198
▁sanitation	-9.48198
▁ugly	-9.48198
▁written	-9.48198
▁nowhere	-9.48198
▁rough	-9.48198
▁necklace	-9.48199
▁globo	-9.48199
▁simply	-9.48201
▁suicide	-9.48204
▁wherever	-9.48205
▁emergency	-9.48206
▁style	-9.4822
▁hugh	-9.4822
▁clamoring	-9.48221
▁location	-9.4823
▁lester	-9.48254
▁goanna	-9.48257
▁twenty	-9.48263
▁nature	-9.483
▁commander	-9.48327
▁shawn	-9.48332
▁jin	-9.4841
▁original	-9.48508
▁ay	-9.48623
▁sim	-9.48727
▁due	-9.48747
▁conn	-9.48877
▁over	-9.49106
▁acting	-9.4954
▁beg	-9.49594
▁introduce	-9.49736
▁brush	-9.49939
▁character	-9.49943
▁operation	-9.49958
▁drug	-9.50035
▁criminal	-9.50049
▁dragon	-9.50051
▁hearing	-9.50358
▁fate	-9.50531
▁van	-9.51001
▁shower	-9.51003
▁paying	-9.5104
▁letters	-9.51218
▁shots	-9.51396
▁fail	-9.51467
▁blame	-9.51565
▁prepare	-9.51571
▁settle	-9.51572
▁dirt	-9.51619
▁spoke	-9.51715
▁cuba	-9.51739
▁cmon	-9.51769
▁elizabeth	-9.51769
▁energy	-9.51769
▁fortune	-9.51769
▁league	-9.51769
▁ramsey	-9.51769
▁view	-9.51769
▁wagner	-9.51769
▁hadnt	-9.51769
▁literally	-9.51769
▁pocket	-9.51769
▁border	-9.51769
▁fleur	-9.5177
▁ventura	-9.51772
▁jeanine	-9.51772
▁chair	-9.51772
▁teeth	-9.51775
▁thatll	-9.51777
▁asleep	-9.51777
▁upset	-9.51786
▁smith	-9.51795
ol	-9.51859
▁sighing	-9.51925
▁sexy	-9.51976
▁chargers	-9.52073
▁ann	-9.52147
▁salt	-9.52224
▁bringing	-9.5228
▁yells	-9.52371
▁greatest	-9.52405
▁hurts	-9.52681
▁bow	-9.52805
▁serve	-9.52817
ter	-9.52847
▁no	-9.52889
ism	-9.53018
▁grunt	-9.53355
▁leg	-9.53487
▁replace	-9.53572
▁pair	-9.53609
▁riddler	-9.53626
▁pirates	-9.5363
▁mommy	-9.53648
▁sake	-9.53657
▁apartment	-9.5367
▁rose	-9.53732
▁explosive	-9.53757
▁teacher	-9.53951
▁soldiers	-9.54391
▁paint	-9.5448
▁crash	-9.5462
▁attempt	-9.54978
▁weak	-9.55012
and	-9.55164
▁create	-9.5528
▁rex	-9.55322
▁earl	-9.5535
▁armstrong	-9.55473
▁closing	-9.55473
▁eudoria	-9.55473
▁footsteps	-9.55473
▁happiness	-9.55473
▁launch	-9.55473
▁opinion	-9.55473
▁oswald	-9.55473
▁arrakis	-9.55473
▁opportunity	-9.55473
▁xu	-9.55478
▁wolf	-9.55479
▁assistant	-9.5548
▁ratchett	-9.55486
▁mum	-9.5549
▁ellen	-9.55495
▁size	-9.55501
sh	-9.55504
▁immediately	-9.55517
▁gilly	-9.55534
▁carol	-9.55572
ah	-9.55645
▁weight	-9.55659
▁moves	-9.55687
▁iron	-9.55832
▁perfectly	-9.56057
▁dry	-9.56192
▁oil	-9.56248
▁answers	-9.56337
eful	-9.56696
▁students	-9.56814
▁learning	-9.56815
▁older	-9.56932
▁loves	-9.57016
▁quarters	-9.57144
▁drugs	-9.57274
▁fresh	-9.57348
▁note	-9.57377
tion	-9.57449
▁center	-9.57462
▁quarter	-9.57472
▁lawyer	-9.5759
▁project	-9.57619
fully	-9.57875
▁rings	-9.58003
▁ma	-9.58186
▁ls	-9.5834
▁trap	-9.58619
▁charges	-9.58737
▁shake	-9.58757
▁ships	-9.58887
▁outta	-9.5895
▁crush	-9.58988
▁suspens	-9.59123
▁riva	-9.59274
cient	-9.59305
▁program	-9.59316
▁clyde	-9.59319
▁frankenstein	-9.59319
▁gertrude	-9.59319
▁lucas	-9.59319
▁mtumbie	-9.59319
▁whether	-9.59319
▁fantastic	-9.59319
▁theyd	-9.59319
▁chinese	-9.5932
▁hidden	-9.5932
▁village	-9.5932
▁combat	-9.59325
▁freedom	-9.59328
▁daisy	-9.59328
▁property	-9.59329
▁pretend	-9.59332
▁dropped	-9.59334
▁military	-9.59344
▁roaring	-9.59346
▁anton	-9.59349
▁guilty	-9.59358
▁grid	-9.59372
▁eh	-9.59377
▁mack	-9.59378
▁marian	-9.5939
▁fuel	-9.5939
▁saving	-9.59409
▁asset	-9.59426
▁created	-9.59527
▁soo	-9.59534
▁squealing	-9.59537
▁passes	-9.59562
▁ford	-9.59577
ance	-9.59634
▁destroyed	-9.59772
▁fellas	-9.59789
▁parts	-9.59931
▁burned	-9.59944
▁leaves	-9.59974
▁lab	-9.60027
▁clearly	-9.60054
▁couldve	-9.60178
▁frances	-9.60237
et	-9.6036
time	-9.6044
▁kinda	-9.60651
ts	-9.60835
▁interest	-9.6084
▁shows	-9.60876
▁stars	-9.61158
▁finding	-9.61242
▁walked	-9.61306
▁tears	-9.6135
▁scare	-9.61375
▁explosion	-9.61444
ant	-9.61467
▁vehicle	-9.61489
▁wheel	-9.61589
▁finger	-9.61618
▁angel	-9.61658
▁castle	-9.6166
▁flower	-9.61683
▁sending	-9.61691
▁mo	-9.61741
▁skull	-9.61755
▁ended	-9.61852
▁circle	-9.62144
▁suggest	-9.6231
▁rip	-9.62394
at	-9.62796
▁foreign	-9.62813
▁avoid	-9.62826
▁spread	-9.62852
▁suits	-9.6303
▁correct	-9.63086
▁sharp	-9.63174
▁load	-9.63187
▁proper	-9.63224
▁pow	-9.63227
▁africa	-9.63264
▁russia	-9.63269
▁cast	-9.63303
▁faith	-9.63308
▁burchard	-9.63319
▁dragonfly	-9.63319
▁holmes	-9.63319
▁otherwise	-9.63319
▁tamra	-9.63319
▁particular	-9.63319
▁percent	-9.63319
▁thomas	-9.63319
▁audience	-9.63319
▁innocent	-9.63319
▁threw	-9.63319
▁fremen	-9.6332
▁grandfather	-9.6332
▁incredible	-9.6332
▁susu	-9.6332
▁pride	-9.63322
▁xian	-9.63323
▁tej	-9.63324
▁easier	-9.63324
▁enter	-9.63326
▁onto	-9.63328
▁echelon	-9.63328
▁saiwing	-9.63328
▁memory	-9.63329
▁airport	-9.63334
▁hallet	-9.63335
▁tense	-9.63345
▁jill	-9.63349
▁lonely	-9.63351
▁mercy	-9.63361
▁con	-9.63373
▁indeed	-9.6338
▁spare	-9.63395
▁bleeding	-9.63401
▁ahh	-9.63523
▁coat	-9.63547
▁mikey	-9.63578
▁research	-9.63632
▁failed	-9.63674
▁screwed	-9.6377
▁forced	-9.63883
▁towards	-9.63992
▁nuts	-9.63992
▁eggs	-9.64056
na	-9.64115
ted	-9.64167
▁automat	-9.64273
ary	-9.64411
▁u	-9.64798
ship	-9.65058
▁file	-9.65297
▁fellow	-9.65601
▁nba	-9.65614
▁fans	-9.65625
▁devils	-9.65698
▁direction	-9.6571
▁winner	-9.65721
▁victim	-9.65758
▁whistle	-9.65774
▁tip	-9.65819
▁flat	-9.65873
▁trees	-9.65912
▁checked	-9.65922
▁do	-9.65981
▁writer	-9.66103
ey	-9.6664
ha	-9.66767
▁chi	-9.67074
▁witness	-9.6709
▁drinks	-9.67122
▁cards	-9.67184
▁direct	-9.67296
▁remove	-9.67297
▁schedule	-9.67301
▁trade	-9.6735
▁usual	-9.67365
▁peregrine	-9.67368
▁lots	-9.6742
▁tall	-9.67422
▁chose	-9.67432
▁admit	-9.67446
▁nothin	-9.67457
▁clifton	-9.67486
▁emperor	-9.67486
▁equipment	-9.67486
▁expert	-9.67486
▁mirror	-9.67486
▁penguin	-9.67486
▁pregnant	-9.67486
▁puerto	-9.67486
▁warren	-9.67486
▁swimming	-9.67486
▁bottle	-9.67486
▁gillian	-9.67486
▁grandmother	-9.67487
▁central	-9.67487
▁theater	-9.67487
▁diane	-9.67488
▁whenever	-9.67488
▁duke	-9.67489
▁elwood	-9.6749
▁souls	-9.67492
▁barron	-9.67493
▁mmmhmm	-9.67493
▁noah	-9.67494
▁marriage	-9.67495
▁society	-9.67495
▁intelligence	-9.67496
▁moose	-9.67497
▁medic	-9.67499
▁planned	-9.67504
▁data	-9.67507
▁rare	-9.67509
▁revving	-9.67512
▁leo	-9.67523
▁whispering	-9.67534
▁shape	-9.6755
▁manager	-9.67558
▁held	-9.67563
ow	-9.6759
▁professional	-9.67596
▁protection	-9.67601
▁mia	-9.67603
▁approaching	-9.67666
▁hired	-9.67673
▁prepared	-9.67728
▁las	-9.67771
▁agreed	-9.67795
▁slams	-9.67917
▁lake	-9.68001
lf	-9.6821
▁cab	-9.68485
▁learned	-9.68563
▁lo	-9.68617
▁goodness	-9.68623
▁seemed	-9.68699
▁counting	-9.68759
▁pulled	-9.68822
▁wine	-9.68843
▁moments	-9.68877
▁tape	-9.6899
▁request	-9.69141
▁sirens	-9.69155
▁nights	-9.69227
▁files	-9.69268
▁collect	-9.69462
▁showing	-9.69504
▁passing	-9.69585
tic	-9.6976
▁guards	-9.69816
▁palm	-9.69892
▁droid	-9.69955
▁cares	-9.69998
▁strike	-9.7
▁winning	-9.70076
▁affair	-9.70081
▁inter	-9.70088
▁chain	-9.7009
▁pigs	-9.70119
▁option	-9.7012
▁guest	-9.70124
▁pen	-9.70152
▁sal	-9.70407
▁wave	-9.70408
▁siren	-9.7108
▁fake	-9.711
▁pr	-9.71197
▁warn	-9.71258
▁checking	-9.71323
▁cook	-9.71336
▁discuss	-9.71395
▁someones	-9.71585
▁recognize	-9.71625
▁release	-9.71631
▁clock	-9.71655
▁cheap	-9.71732
▁complicated	-9.71833
▁dauntless	-9.71833
▁johanna	-9.71833
▁mexico	-9.71833
▁oclock	-9.71833
▁grave	-9.71834
▁violence	-9.71834
▁desk	-9.71835
▁vacation	-9.71835
▁process	-9.71835
▁insurance	-9.71835
▁tommy	-9.71841
▁owner	-9.71842
▁route	-9.71845
▁romantic	-9.71846
▁mellie	-9.71847
▁fancy	-9.71848
▁loan	-9.71849
▁suzy	-9.7185
▁kevin	-9.71868
▁cow	-9.71871
▁barely	-9.7188
▁itd	-9.71883
▁extremely	-9.71885
▁capable	-9.71889
▁committed	-9.71893
▁statement	-9.71893
▁jackie	-9.71912
▁scary	-9.71921
▁cup	-9.71925
▁arrived	-9.71937
▁spit	-9.71966
▁barking	-9.7198
▁zed	-9.71982
▁hood	-9.72007
▁edge	-9.72013
▁heh	-9.72167
▁lower	-9.7218
▁nearly	-9.722
▁escaped	-9.72352
▁timeout	-9.72461
led	-9.72623
▁dads	-9.72638
▁armed	-9.72649
▁sub	-9.72684
▁knocking	-9.72691
▁traveling	-9.72737
▁spice	-9.72984
line	-9.72987
▁staring	-9.73007
▁wood	-9.73129
▁movies	-9.73202
se	-9.73232
j	-9.73313
▁powers	-9.73326
▁secrets	-9.73351
united	-9.73497
▁bones	-9.73516
do	-9.73678
▁screen	-9.74028
▁champ	-9.74143
off	-9.74487
▁subject	-9.74499
▁ocean	-9.74544
▁sword	-9.74661
▁joker	-9.74802
▁bone	-9.74814
▁murderer	-9.74873
▁drinking	-9.74932
▁points	-9.75018
▁loser	-9.75199
ot	-9.75205
▁shock	-9.75554
▁finals	-9.75608
▁bless	-9.75667
▁records	-9.75867
▁thin	-9.76021
▁cruise	-9.76046
▁concern	-9.76062
▁te	-9.7617
▁invite	-9.76181
▁sudden	-9.76258
▁coast	-9.76278
▁natural	-9.76282
▁handsome	-9.76303
back	-9.76325
▁although	-9.76379
▁byebye	-9.76379
▁exciting	-9.76379
▁possibly	-9.76379
▁salute	-9.76379
▁library	-9.76379
▁israel	-9.76379
▁university	-9.76379
▁taylor	-9.76379
▁rattling	-9.7638
▁someday	-9.7638
▁selina	-9.76382
▁aboard	-9.76385
▁universe	-9.76386
▁negro	-9.7639
▁bravo	-9.76391
▁forgotten	-9.76392
▁confused	-9.76393
▁zone	-9.76399
▁liz	-9.76402
▁wo	-9.76406
▁mob	-9.76412
▁sarah	-9.76416
▁familiar	-9.76417
▁announcer	-9.76427
▁credit	-9.76427
▁according	-9.76431
▁syd	-9.76434
▁dating	-9.76447
▁anger	-9.76483
▁fa	-9.7649
▁navy	-9.76507
▁hire	-9.7655
▁sadie	-9.76585
▁stronger	-9.76786
▁letty	-9.76836
▁county	-9.76855
▁bigge	-9.76885
▁skills	-9.77063
▁sooner	-9.77155
▁speakers	-9.77215
▁sharks	-9.77296
▁stealing	-9.77452
▁expected	-9.77499
▁joined	-9.77502
▁wise	-9.7754
▁returned	-9.77665
▁engines	-9.78145
▁whistles	-9.78284
▁jam	-9.78473
▁sons	-9.7854
ita	-9.78635
▁keeps	-9.78687
ore	-9.78894
▁stands	-9.78928
co	-9.78934
▁ruin	-9.7904
▁score	-9.79061
▁mon	-9.79156
go	-9.79203
▁tie	-9.79261
▁amount	-9.79263
king	-9.79305
▁squad	-9.79338
▁blocks	-9.7935
▁apple	-9.79389
▁mask	-9.79395
▁thousands	-9.79428
▁sport	-9.79432
▁student	-9.79434
▁mile	-9.79495
▁ear	-9.79586
▁flip	-9.79603
▁surely	-9.79753
▁mothers	-9.79756
▁mu	-9.79998
▁voices	-9.80217
▁belongs	-9.8049
▁success	-9.80499
▁dick	-9.81006
▁ignore	-9.81014
▁pure	-9.81032
▁blaze	-9.81059
▁non	-9.81089
▁effect	-9.81131
▁permit	-9.81133
▁traffic	-9.81134
▁stock	-9.81138
▁jung	-9.8114
▁abnegation	-9.81141
▁applause	-9.81141
▁bottom	-9.81141
▁downstairs	-9.81141
▁janusz	-9.81141
▁jessica	-9.81141
▁lifeboat	-9.81141
▁lukas	-9.81141
▁pardon	-9.81141
▁routine	-9.81141
▁sacred	-9.81141
▁science	-9.81141
▁advice	-9.81141
▁mostly	-9.81141
▁roof	-9.81141
▁cheese	-9.81141
▁kidnapped	-9.81141
▁blanc	-9.81141
▁nuclear	-9.81142
▁gorgeous	-9.81142
▁jeff	-9.81142
▁stacy	-9.81143
▁suspicious	-9.81144
▁clever	-9.81144
▁impressive	-9.81145
▁foster	-9.81145
▁online	-9.81145
▁federal	-9.81146
▁pizza	-9.81151
▁necessary	-9.81152
▁sugar	-9.81152
▁century	-9.81152
▁responsibility	-9.81152
▁harrison	-9.81153
▁goose	-9.81155
▁crackling	-9.81161
▁milk	-9.81161
▁panic	-9.81162
▁peterson	-9.81169
▁shift	-9.81172
▁spoken	-9.81214
▁china	-9.81243
▁healthy	-9.81264
▁sharply	-9.81287
he	-9.81335
men	-9.81348
▁received	-9.81406
▁union	-9.81475
▁based	-9.81581
▁en	-9.81711
em	-9.81803
▁n	-9.81869
▁to	-9.82161
▁hits	-9.82163
▁selling	-9.8229
▁nah	-9.82358
▁pounds	-9.82378
▁sat	-9.82499
▁blowing	-9.82708
ong	-9.82954
▁likely	-9.83
▁bust	-9.83027
▁horses	-9.83059
▁pope	-9.83069
▁awful	-9.8381
▁clears	-9.83865
▁lin	-9.8388
▁estate	-9.84312
▁trace	-9.84315
▁pa	-9.84374
▁defend	-9.84424
▁tiger	-9.84439
▁lookin	-9.84471
▁har	-9.84692
▁condition	-9.84722
ro	-9.84769
▁steps	-9.84838
▁com	-9.85208
▁wash	-9.85362
▁sucks	-9.85505
ize	-9.85579
ated	-9.85648
▁trigger	-9.85773
▁reasons	-9.85919
▁chase	-9.85941
▁dust	-9.85997
▁rise	-9.86091
▁gentle	-9.86115
▁alabama	-9.86141
▁california	-9.86141
▁gunfire	-9.86141
▁helicopter	-9.86141
▁miami	-9.86141
▁nonsense	-9.86141
▁oath	-9.86141
▁taehun	-9.86141
▁whistling	-9.86141
▁purple	-9.86141
▁among	-9.86141
▁darrin	-9.86141
▁shining	-9.86141
▁silence	-9.86141
▁locksley	-9.86143
▁papa	-9.86143
▁zero	-9.86143
▁honeymoon	-9.86144
▁title	-9.86144
▁chaos	-9.86145
▁prize	-9.86147
▁logan	-9.86149
▁adog	-9.86152
▁exchange	-9.86153
▁mystery	-9.86153
▁pink	-9.86154
▁liar	-9.86155
▁gummer	-9.86157
▁manning	-9.86158
▁whyd	-9.86158
▁gentleman	-9.86161
▁jungle	-9.86163
▁tiny	-9.86171
▁disgusting	-9.86176
▁maid	-9.86179
▁erin	-9.86188
▁temple	-9.8619
▁forest	-9.86194
▁boring	-9.86198
▁exit	-9.86209
▁jacket	-9.86223
▁emma	-9.86233
▁drill	-9.86233
▁meal	-9.86236
▁ugh	-9.86257
▁steph	-9.86263
ever	-9.86326
am	-9.8643
▁passion	-9.8644
▁concerned	-9.86491
▁entirely	-9.86521
▁event	-9.86661
▁jew	-9.86661
▁mentioned	-9.86683
▁rd	-9.86792
▁ghosts	-9.86855
▁bath	-9.87096
▁bags	-9.87287
▁bb	-9.873
ver	-9.873
▁pieces	-9.87378
▁sweets	-9.8739
▁pe	-9.87407
▁boxing	-9.87587
▁ke	-9.87821
▁expecting	-9.87886
▁memo	-9.87926
ier	-9.87967
▁ears	-9.88037
▁woods	-9.88114
land	-9.88115
▁dies	-9.88383
▁throwing	-9.88422
▁pulling	-9.88427
son	-9.88607
▁hug	-9.88964
▁goal	-9.89028
▁beep	-9.89261
▁design	-9.89283
▁spin	-9.89328
▁tracks	-9.89349
ff	-9.89483
▁official	-9.89515
oh	-9.89615
ee	-9.89707
▁grade	-9.8977
▁stranger	-9.89894
bo	-9.90761
▁aim	-9.90937
▁suffer	-9.90944
▁bump	-9.91053
▁confirm	-9.91064
▁abandon	-9.91068
▁spirits	-9.91152
▁celebrate	-9.91172
▁damage	-9.91203
▁obvious	-9.91283
▁exact	-9.91284
▁clan	-9.91296
▁hung	-9.91304
▁piss	-9.91328
▁fox	-9.91343
▁express	-9.91387
▁amon	-9.91395
▁susan	-9.91397
▁advance	-9.91404
▁cortez	-9.91404
▁curtis	-9.91404
▁distort	-9.91404
▁enemies	-9.91404
▁interview	-9.91404
▁kimsey	-9.91404
▁lorelei	-9.91404
▁malcolm	-9.91404
▁policy	-9.91404
▁surrender	-9.91404
▁agency	-9.91404
▁draft	-9.91404
▁channel	-9.91404
▁material	-9.91404
▁authorities	-9.91404
▁friday	-9.91404
▁patrick	-9.91404
▁silver	-9.91405
▁laurie	-9.91406
▁community	-9.91407
▁wasting	-9.91408
▁vince	-9.91411
physical	-9.91412
▁sunday	-9.91414
▁birth	-9.91417
▁patty	-9.91417
▁aside	-9.91418
▁slide	-9.91419
▁woolf	-9.9142
▁princess	-9.91423
▁comfortable	-9.91426
▁humming	-9.91441
▁yup	-9.91441
▁romance	-9.91441
▁bride	-9.91445
▁gate	-9.91457
by	-9.91469
▁glen	-9.91481
▁murmuring	-9.91489
▁active	-9.91502
▁kiddo	-9.91526
▁ought	-9.91535
▁coughing	-9.91539
▁roars	-9.91548
ten	-9.9156
▁mid	-9.91562
▁jane	-9.91577
▁cutting	-9.91603
▁interrupt	-9.91642
▁bella	-9.91722
▁yu	-9.91723
▁germany	-9.9174
over	-9.91832
▁raised	-9.91853
▁tube	-9.91896
▁personally	-9.91918
▁lifetime	-9.91932
▁revs	-9.91963
▁joint	-9.91967
▁min	-9.91967
▁hips	-9.91998
▁rey	-9.92195
▁bucks	-9.92206
▁fi	-9.92215
▁brings	-9.92546
▁mis	-9.92609
▁burning	-9.92627
▁jumping	-9.9294
▁wins	-9.92956
▁details	-9.93063
▁messing	-9.93154
▁moms	-9.93372
way	-9.93548
▁humans	-9.94006
▁runs	-9.94053
▁trusted	-9.94256
▁tickets	-9.94392
▁scream	-9.9448
▁dee	-9.94566
▁tap	-9.94619
▁claim	-9.94831
▁detail	-9.94907
▁climb	-9.95029
▁guide	-9.95063
▁satellite	-9.95072
▁entrance	-9.95073
▁maroni	-9.95119
▁holiday	-9.95148
▁everyones	-9.95152
▁cameras	-9.95158
▁boom	-9.95212
▁monster	-9.95233
▁click	-9.95264
▁demon	-9.95429
▁seal	-9.95452
▁inform	-9.95455
▁du	-9.95721
▁sacrifice	-9.95726
▁damned	-9.96022
▁strip	-9.96113
▁systems	-9.96119
▁pray	-9.96204
▁members	-9.963
▁fort	-9.96361
▁sail	-9.96372
▁proceed	-9.9644
▁screech	-9.96447
▁q	-9.9658
what	-9.9659
▁poison	-9.96637
▁include	-9.96744
▁divorce	-9.96752
▁teams	-9.96755
▁stations	-9.96806
▁desperate	-9.96827
▁large	-9.96839
▁sweat	-9.96911
▁gray	-9.96959
▁accent	-9.96959
▁cataleya	-9.96959
▁darius	-9.96959
▁fountain	-9.96959
▁grabelski	-9.96959
▁intercept	-9.96959
▁lestrade	-9.96959
▁madagin	-9.96959
▁mcqueen	-9.96959
▁miracle	-9.96959
▁moscow	-9.96959
▁revenge	-9.96959
▁saturday	-9.96959
▁snow	-9.96959
▁stewart	-9.96959
▁tammie	-9.96959
▁period	-9.9696
▁senior	-9.9696
▁saikwong	-9.9696
▁alert	-9.96961
▁downtown	-9.96961
▁ilse	-9.96961
▁jason	-9.96962
▁theory	-9.96962
▁washington	-9.96962
▁ramey	-9.96962
▁yellow	-9.96963
▁couch	-9.96964
▁juan	-9.96964
▁resistance	-9.96964
▁peak	-9.96964
▁bobbie	-9.96966
▁shopping	-9.96966
▁blanket	-9.96967
▁woke	-9.96967
▁troy	-9.96974
▁motion	-9.96976
▁passport	-9.96976
▁bedroom	-9.96979
▁bug	-9.96987
▁louise	-9.96989
▁prom	-9.96992
▁racing	-9.96998
▁mental	-9.97027
▁darkness	-9.97027
▁pipe	-9.97029
▁progress	-9.9703
▁me	-9.97046
▁embarrassing	-9.9705
▁changing	-9.97077
▁grown	-9.97085
▁endless	-9.97138
▁kenta	-9.97143
espite	-9.97158
▁terms	-9.97209
▁stairs	-9.9721
▁managed	-9.97211
▁pee	-9.97218
▁delivered	-9.97243
▁earned	-9.97243
▁jim	-9.97328
▁swing	-9.97374
▁quietly	-9.97462
▁rate	-9.97492
▁realized	-9.97573
▁net	-9.97619
▁labor	-9.97666
▁dressed	-9.97726
▁carefully	-9.97763
▁ate	-9.97839
▁lately	-9.9802
▁numbers	-9.98032
▁carrying	-9.9813
▁kicked	-9.98158
▁ba	-9.98181
▁blows	-9.98183
▁wet	-9.98199
▁demons	-9.98715
▁signed	-9.98843
ir	-9.9893
▁ordered	-9.98999
▁goodman	-9.99003
▁touching	-9.99201
▁options	-9.99215
▁worlds	-9.99391
▁how	-9.9951
▁leading	-9.99675
▁caused	-9.99908
▁bombs	-10.0002
▁pleased	-10.0009
▁dig	-10.001
▁picking	-10.001
▁seek	-10.0022
▁pet	-10.0052
▁reveal	-10.0061
li	-10.0086
▁print	-10.0097
▁shine	-10.0101
▁shield	-10.0104
▁lu	-10.0105
▁alien	-10.0105
▁vision	-10.0106
▁gunshot	-10.0106
▁chick	-10.0108
▁shoulder	-10.0109
▁sometime	-10.0116
▁missile	-10.0118
▁patient	-10.0119
▁temp	-10.012
▁er	-10.0127
▁changes	-10.0131
▁falls	-10.0132
▁believed	-10.0155
▁dealing	-10.0196
▁desire	-10.0209
▁heal	-10.0215
▁ra	-10.0223
▁steer	-10.0232
thorn	-10.0235
▁doctors	-10.025
▁tone	-10.0254
▁cheat	-10.0254
▁object	-10.0257
▁separate	-10.0263
▁engage	-10.0266
▁health	-10.0271
▁qui	-10.0276
▁kyl	-10.0276
▁penn	-10.0277
▁meat	-10.028
▁mmhm	-10.0281
▁blast	-10.0282
▁virgin	-10.0283
▁alfred	-10.0284
▁crystal	-10.0284
▁custody	-10.0284
▁dennis	-10.0284
▁kathy	-10.0284
▁keltus	-10.0284
▁orange	-10.0284
▁rebecca	-10.0284
▁several	-10.0284
▁vault	-10.0284
▁wreck	-10.0284
▁egypt	-10.0284
▁quinn	-10.0284
▁toretto	-10.0284
▁positive	-10.0284
▁telephone	-10.0284
▁clara	-10.0284
▁committee	-10.0284
▁staff	-10.0284
▁juice	-10.0284
▁hammer	-10.0284
▁candor	-10.0284
▁bronx	-10.0285
▁garbage	-10.0285
▁powder	-10.0285
▁antonio	-10.0285
▁virus	-10.0285
▁existence	-10.0285
▁cotton	-10.0285
▁whatre	-10.0285
▁unbelievable	-10.0285
▁glory	-10.0285
▁fought	-10.0285
▁maria	-10.0285
▁gross	-10.0285
▁bodies	-10.0285
▁raid	-10.0286
▁ridge	-10.0286
▁dishes	-10.0286
▁cowboy	-10.0286
▁freeze	-10.0286
▁began	-10.0287
▁toss	-10.0288
▁creaking	-10.0288
▁unfortunately	-10.029
▁warden	-10.029
▁corey	-10.0291
▁cruel	-10.0292
▁brand	-10.0292
▁para	-10.0292
right	-10.0293
▁angela	-10.0298
▁mistakes	-10.0298
▁deny	-10.0299
▁gay	-10.03
ax	-10.0302
▁actor	-10.0304
▁bitches	-10.0312
▁dial	-10.0314
▁thrown	-10.0317
▁ni	-10.032
▁locker	-10.0321
▁boats	-10.0328
▁warned	-10.0329
▁electrical	-10.0332
▁tied	-10.0333
▁blessing	-10.0343
▁arrested	-10.0353
▁sentence	-10.0365
▁tracking	-10.0383
▁younger	-10.0387
▁freaking	-10.0389
▁lack	-10.0389
▁loss	-10.0391
▁rolling	-10.0397
▁gl	-10.04
▁singer	-10.0405
▁fades	-10.0406
▁brakes	-10.0408
ial	-10.0416
▁searching	-10.042
▁sis	-10.0425
▁kissed	-10.0428
▁dancers	-10.0429
▁highly	-10.0433
▁hates	-10.044
▁lion	-10.0444
▁sw	-10.0486
▁anti	-10.0492
▁trained	-10.0495
▁dodge	-10.0499
▁guests	-10.0524
▁nos	-10.0527
▁followed	-10.0531
▁stayed	-10.0557
▁led	-10.0567
▁roses	-10.0567
▁criminals	-10.0577
▁judgment	-10.0585
▁ge	-10.0598
▁leto	-10.0604
▁bullets	-10.0621
▁mountains	-10.0631
▁mi	-10.0641
▁brains	-10.0642
▁tank	-10.0654
▁lau	-10.0654
▁prior	-10.0671
▁scouts	-10.0684
ur	-10.0697
light	-10.0701
▁holes	-10.0705
▁elton	-10.0723
▁basic	-10.0723
▁muscle	-10.0725
▁incident	-10.0728
▁source	-10.0728
▁motive	-10.073
▁plastic	-10.0733
▁rats	-10.0742
▁sale	-10.0751
▁opened	-10.076
▁officers	-10.0762
▁services	-10.0783
▁trainer	-10.0796
▁deliver	-10.0815
ke	-10.0816
▁complain	-10.0841
work	-10.0842
▁bikes	-10.0847
▁drawing	-10.085
▁chin	-10.0862
place	-10.0867
▁smells	-10.0869
▁refuse	-10.0889
▁earn	-10.0891
▁jerk	-10.0892
▁assure	-10.0896
▁smooth	-10.0897
▁current	-10.0897
▁weather	-10.0899
▁tomb	-10.09
▁experiment	-10.0902
▁brown	-10.0904
▁under	-10.0905
▁europe	-10.0908
▁attract	-10.0908
▁wrap	-10.0909
▁senor	-10.0909
▁algaib	-10.0909
▁centuries	-10.0909
▁colonel	-10.0909
▁curious	-10.0909
▁guitar	-10.0909
▁intelligent	-10.0909
▁journey	-10.0909
▁kalloor	-10.0909
▁nottingham	-10.0909
▁stammers	-10.0909
▁stomach	-10.0909
▁testify	-10.0909
▁whimpering	-10.0909
▁emotional	-10.0909
▁gordy	-10.0909
▁gregory	-10.0909
▁phase	-10.0909
▁political	-10.0909
▁regular	-10.0909
▁sunshine	-10.0909
▁generous	-10.0909
▁bogey	-10.0909
▁inmate	-10.0909
▁appointment	-10.0909
▁disease	-10.091
▁noble	-10.091
▁bret	-10.091
▁rush	-10.091
▁helmet	-10.091
▁western	-10.091
▁tooth	-10.0911
▁unknown	-10.0911
▁valuable	-10.0911
▁smoking	-10.0911
▁chop	-10.0911
▁aircraft	-10.0911
▁performance	-10.0911
▁belt	-10.0912
▁daily	-10.0913
▁slight	-10.0913
▁agreement	-10.0913
▁bowers	-10.0914
▁legal	-10.0915
▁eleven	-10.0918
▁african	-10.0918
▁proof	-10.0919
▁naked	-10.0925
▁homework	-10.0925
▁vera	-10.0926
▁auto	-10.0927
▁directly	-10.0928
▁momma	-10.093
▁chill	-10.093
▁setting	-10.0932
▁boxes	-10.0932
▁model	-10.0936
ard	-10.0951
▁knees	-10.0961
▁armor	-10.0965
▁gloves	-10.0972
▁boots	-10.0985
▁crashing	-10.0987
▁asses	-10.0989
▁slowly	-10.099
▁some	-10.0993
▁knocked	-10.0998
▁safer	-10.1006
▁parker	-10.1011
▁offered	-10.1026
▁crossed	-10.1033
▁pushing	-10.1045
▁williams	-10.1051
▁image	-10.1067
▁parking	-10.1068
▁attacked	-10.107
▁issues	-10.1074
▁crossing	-10.1084
▁missiles	-10.1096
▁sports	-10.11
▁sets	-10.1116
▁familys	-10.1124
▁gather	-10.1126
▁joining	-10.1131
▁ohh	-10.1144
▁chest	-10.1147
▁badly	-10.1157
▁cha	-10.1161
▁thoughts	-10.1183
▁beating	-10.1193
os	-10.1194
▁scratch	-10.1199
▁cleared	-10.1229
▁mans	-10.1231
▁drops	-10.1234
▁mighty	-10.1262
▁somebodys	-10.1267
end	-10.1278
erie	-10.1309
▁ga	-10.1312
▁drives	-10.1324
▁bears	-10.1329
ut	-10.134
▁becom	-10.1351
ors	-10.1351
▁pound	-10.1365
▁suspects	-10.1373
▁soviet	-10.1387
▁italian	-10.1387
▁issue	-10.1389
▁represent	-10.139
▁effort	-10.1391
▁tunnel	-10.1393
▁communist	-10.1394
▁clue	-10.1394
▁rocket	-10.1395
▁costume	-10.1398
▁badge	-10.1398
▁divergent	-10.14
▁kills	-10.1408
▁that	-10.1416
▁begins	-10.1418
▁dollar	-10.1421
▁twin	-10.1423
▁tent	-10.1439
ellie	-10.1443
ny	-10.1461
▁bo	-10.1464
ler	-10.1467
▁burns	-10.148
▁nation	-10.1489
▁painting	-10.149
▁si	-10.149
▁sh	-10.1503
▁bid	-10.1514
skull	-10.1535
phone	-10.1536
you	-10.1536
▁cancel	-10.1539
▁mix	-10.1541
▁spoil	-10.1543
▁rob	-10.1552
▁international	-10.1562
▁mood	-10.1566
▁madam	-10.1567
▁steve	-10.157
▁slip	-10.1572
▁orphan	-10.1575
▁atlanta	-10.1576
▁attorney	-10.1576
▁carriage	-10.1576
▁concert	-10.1576
▁courage	-10.1576
▁cricket	-10.1576
▁eventually	-10.1576
▁explanation	-10.1576
▁finnegan	-10.1576
▁flesh	-10.1576
▁gurney	-10.1576
▁hercule	-10.1576
▁intergang	-10.1576
▁kullimon	-10.1576
▁pathetic	-10.1576
▁privacy	-10.1576
▁robbery	-10.1576
▁rufus	-10.1576
▁sheep	-10.1576
▁smiling	-10.1576
▁stilgar	-10.1576
▁advantage	-10.1576
▁chanting	-10.1576
▁jesse	-10.1576
▁krest	-10.1576
▁telegram	-10.1576
▁arriving	-10.1576
▁knowledge	-10.1576
▁strict	-10.1576
▁abort	-10.1576
▁ensure	-10.1576
▁hollywood	-10.1576
▁opposite	-10.1576
▁stood	-10.1576
▁series	-10.1576
▁reverse	-10.1576
▁ordinary	-10.1576
▁argument	-10.1576
▁giant	-10.1576
▁employee	-10.1576
▁practical	-10.1576
▁danny	-10.1576
▁nsa	-10.1577
▁kingdom	-10.1577
▁punk	-10.1577
▁kenny	-10.1577
▁fifty	-10.1577
▁nephew	-10.1577
▁coward	-10.1578
▁trapped	-10.1578
▁beam	-10.1579
nce	-10.1579
▁carmine	-10.1579
▁gina	-10.158
▁johnson	-10.158
▁nasty	-10.158
▁static	-10.1581
▁technically	-10.1581
▁vice	-10.1582
▁gear	-10.1582
▁comin	-10.1583
▁winter	-10.1583
▁script	-10.1583
▁laid	-10.1585
▁sack	-10.1589
▁currently	-10.1589
▁kate	-10.1589
▁knicks	-10.1594
▁discovered	-10.1595
▁chimes	-10.1595
▁useless	-10.1599
▁wipe	-10.1602
ions	-10.1605
▁fred	-10.1605
▁trotters	-10.1606
▁hitting	-10.1608
ki	-10.1608
▁locate	-10.1617
▁challenger	-10.1617
▁knots	-10.1618
▁ruined	-10.1622
▁smaller	-10.1636
▁y	-10.1637
▁granted	-10.1646
▁closet	-10.1651
ga	-10.1652
▁deer	-10.1657
▁hunting	-10.1673
▁targets	-10.1678
de	-10.168
▁accepted	-10.1686
▁gifted	-10.1687
▁bowl	-10.1693
▁billy	-10.1696
▁appears	-10.1715
ious	-10.172
▁ropes	-10.1728
▁growls	-10.174
▁troops	-10.174
▁wounds	-10.174
▁boxer	-10.1751
▁spending	-10.1767
▁musical	-10.1781
no	-10.1785
▁monsters	-10.179
the	-10.1795
▁sauce	-10.1799
ay	-10.1803
▁kissing	-10.1812
▁friendly	-10.1813
po	-10.1816
▁listened	-10.1817
aw	-10.1825
ra	-10.1843
ide	-10.1847
▁waves	-10.1852
▁receive	-10.1858
▁victims	-10.1862
▁choices	-10.1863
▁ne	-10.1866
▁angels	-10.1873
▁equal	-10.1879
▁artist	-10.1879
▁pitch	-10.1899
▁hated	-10.1908
▁thu	-10.1943
ca	-10.1943
▁ideas	-10.1954
▁den	-10.1962
▁ways	-10.1968
▁kings	-10.1968
▁finds	-10.1995
▁fighters	-10.2002
side	-10.2039
▁shout	-10.2041
▁photograph	-10.2056
▁demand	-10.2064
▁falcon	-10.2064
▁shadows	-10.2084
▁wound	-10.2085
▁limit	-10.2087
▁lame	-10.2088
▁troop	-10.2095
be	-10.2098
▁jewel	-10.21
▁cave	-10.2103
▁pattern	-10.2107
▁connection	-10.2107
▁scientist	-10.2109
▁cam	-10.2109
▁odd	-10.2111
▁griswald	-10.2112
▁growl	-10.2113
▁tool	-10.2113
▁herb	-10.2114
▁blade	-10.2115
looking	-10.2115
▁creature	-10.2116
▁client	-10.2117
▁beast	-10.2117
▁france	-10.2123
▁mount	-10.2132
▁suite	-10.2135
mber	-10.2147
▁prisoner	-10.2153
▁cared	-10.2162
our	-10.217
ba	-10.2174
▁sneak	-10.2175
ette	-10.2179
ner	-10.2188
▁stones	-10.2196
▁rider	-10.2198
mer	-10.222
ule	-10.2226
▁spark	-10.2232
▁rub	-10.2233
▁waited	-10.2236
▁buzz	-10.224
▁punish	-10.2241
wood	-10.2242
▁sink	-10.2245
▁sec	-10.2253
▁pump	-10.2255
ble	-10.2265
▁guarantee	-10.2269
▁erase	-10.2269
▁spook	-10.2273
▁bail	-10.2274
▁rome	-10.228
▁education	-10.2282
▁opera	-10.2286
▁yea	-10.2286
op	-10.2286
▁kev	-10.2286
▁surge	-10.2287
through	-10.2287
▁doug	-10.2288
▁marina	-10.2289
▁deposit	-10.229
▁spring	-10.229
▁revolution	-10.229
▁stunt	-10.229
▁academy	-10.229
▁associate	-10.229
▁avenue	-10.229
▁babies	-10.229
▁caleb	-10.229
▁champagne	-10.229
▁easily	-10.229
▁families	-10.229
▁flew	-10.229
▁grateful	-10.229
▁hourglass	-10.229
▁jonny	-10.229
▁kenzie	-10.229
▁license	-10.229
▁lincoln	-10.229
▁modern	-10.229
▁otterbourne	-10.229
▁saint	-10.229
▁succeed	-10.229
▁technology	-10.229
▁thief	-10.229
▁unusual	-10.229
▁ambulance	-10.229
▁sniffles	-10.229
▁struggle	-10.229
▁vital	-10.229
▁motorcycle	-10.229
▁garfield	-10.229
▁attitude	-10.229
▁valka	-10.229
▁manual	-10.229
▁felix	-10.229
▁eddie	-10.229
▁lightning	-10.229
▁jeong	-10.229
▁anderson	-10.229
▁monday	-10.229
▁valley	-10.229
▁elders	-10.229
▁trash	-10.2291
▁lockdown	-10.2291
▁negative	-10.2291
▁grass	-10.2291
▁sandwich	-10.2291
▁palace	-10.2291
▁griffin	-10.2291
▁tragedy	-10.2291
▁radar	-10.2291
▁baseball	-10.2291
▁motor	-10.2291
▁blah	-10.2292
▁stream	-10.2292
▁bread	-10.2292
▁chess	-10.2292
▁oxley	-10.2293
▁pj	-10.2293
▁aria	-10.2293
▁kent	-10.2294
▁trial	-10.2294
▁halfway	-10.2295
▁basket	-10.2295
▁obsessed	-10.2296
▁charity	-10.2297
▁native	-10.2298
gged	-10.2298
▁mmmm	-10.2298
▁vow	-10.23
▁disappointed	-10.2301
▁fishman	-10.2302
▁aid	-10.2303
▁studio	-10.2303
▁golden	-10.2304
▁seventh	-10.2304
▁stopping	-10.2305
▁pity	-10.2305
▁cargo	-10.2307
▁drain	-10.2307
▁officially	-10.2307
▁bound	-10.2307
▁disappeared	-10.2315
▁heroes	-10.232
▁lungs	-10.2323
▁depends	-10.2323
▁novel	-10.233
ney	-10.2334
▁stare	-10.2338
▁walter	-10.234
▁flu	-10.2344
▁lips	-10.2349
▁deserved	-10.2352
▁cursed	-10.2357
▁daughters	-10.2359
▁pills	-10.2361
▁lance	-10.2361
▁cooking	-10.2366
▁filled	-10.2368
▁meters	-10.2378
▁ned	-10.2385
▁thy	-10.2399
▁inch	-10.2399
▁fixed	-10.2433
▁rumbles	-10.2441
▁warriors	-10.2441
▁bored	-10.2441
▁explained	-10.2451
head	-10.2454
let	-10.2461
▁clients	-10.2467
▁cl	-10.2472
▁prisoners	-10.2477
▁offering	-10.248
old	-10.2496
▁seats	-10.2503
coming	-10.2514
▁banging	-10.2518
tor	-10.252
▁husbands	-10.2549
▁sisters	-10.2549
▁wh	-10.2552
▁finishing	-10.257
▁the	-10.2588
▁wheels	-10.2612
▁lawyers	-10.2625
▁pot	-10.2633
▁rocks	-10.265
▁useful	-10.2651
▁champs	-10.2652
▁distan	-10.2657
of	-10.2698
▁pages	-10.2705
si	-10.2713
ent	-10.2722
▁millions	-10.2728
ack	-10.2755
▁sha	-10.2764
▁conversations	-10.2812
▁champions	-10.2826
▁snakes	-10.2838
▁wire	-10.2858
▁rebound	-10.2876
▁elephant	-10.2878
▁hostage	-10.2879
▁escort	-10.288
▁award	-10.288
▁terrorist	-10.2881
▁nightmare	-10.2882
▁talks	-10.2883
▁newspaper	-10.2883
▁photo	-10.2886
▁rope	-10.2886
▁william	-10.2886
▁debt	-10.2889
▁watched	-10.2891
▁faction	-10.2901
eth	-10.2904
ill	-10.2923
▁ima	-10.2925
room	-10.301
▁respond	-10.3011
house	-10.3012
▁squeal	-10.3015
▁dancer	-10.3015
town	-10.3018
▁attend	-10.3023
▁wide	-10.3025
ory	-10.3025
▁intend	-10.3027
▁honk	-10.3029
▁bra	-10.3034
▁insult	-10.3034
▁flash	-10.3039
▁violent	-10.3045
▁perform	-10.3051
ess	-10.3054
▁prince	-10.3055
▁scar	-10.3057
▁condo	-10.3057
▁cigar	-10.3059
▁describe	-10.3059
▁anytime	-10.3059
▁audrey	-10.3059
▁buttercup	-10.3059
▁cabrera	-10.3059
▁cradle	-10.3059
▁dewey	-10.3059
▁dimitri	-10.3059
▁emmett	-10.3059
▁henri	-10.3059
▁intense	-10.3059
▁kynes	-10.3059
▁luggage	-10.3059
▁maintain	-10.3059
▁mennick	-10.3059
▁messenger	-10.3059
▁mulgrut	-10.3059
▁owimoweh	-10.3059
▁piano	-10.3059
▁prescott	-10.3059
▁principal	-10.3059
▁sardaukar	-10.3059
▁stevie	-10.3059
▁survival	-10.3059
▁taihoi	-10.3059
▁technique	-10.3059
▁terrific	-10.3059
▁tournament	-10.3059
▁underneath	-10.3059
▁arielle	-10.3059
▁blew	-10.3059
▁campaign	-10.3059
▁carpet	-10.3059
▁dominic	-10.3059
▁hasnat	-10.3059
▁rusty	-10.3059
▁somali	-10.3059
▁whimpers	-10.3059
▁annika	-10.3059
▁example	-10.3059
▁therefore	-10.3059
▁bronze	-10.3059
▁barnaby	-10.3059
▁vlad	-10.3059
▁slut	-10.306
▁slipped	-10.306
▁mourn	-10.306
▁davis	-10.306
▁heck	-10.306
▁cloudland	-10.306
▁fridge	-10.306
▁failure	-10.306
▁owns	-10.306
▁behavior	-10.306
▁backwards	-10.306
▁bonnie	-10.306
▁entertainment	-10.306
▁martinez	-10.306
idge	-10.306
▁finn	-10.306
▁scum	-10.306
▁hmph	-10.306
▁skinny	-10.306
▁rude	-10.3061
▁paradise	-10.3061
▁gig	-10.3061
▁confession	-10.3061
▁stake	-10.3061
▁internet	-10.3061
▁status	-10.3061
▁surface	-10.3061
▁drove	-10.3062
▁available	-10.3062
▁bold	-10.3062
▁redford	-10.3063
▁merely	-10.3064
▁carrier	-10.3064
▁slept	-10.3065
▁mall	-10.3065
▁arguing	-10.3065
▁apply	-10.3065
▁decent	-10.3066
▁taxi	-10.3066
▁duck	-10.3066
▁booty	-10.3066
▁amity	-10.3067
▁chosen	-10.307
▁orchestra	-10.3071
▁bury	-10.3072
▁accused	-10.3072
▁shore	-10.3073
▁tail	-10.3074
▁mansion	-10.3076
▁pm	-10.3077
▁bay	-10.3077
▁solved	-10.3078
▁delivery	-10.3079
▁instructions	-10.3081
▁impressed	-10.3081
▁pan	-10.3082
ung	-10.3085
▁fl	-10.309
▁trooper	-10.3092
▁passengers	-10.3095
▁howdy	-10.3097
▁released	-10.3098
▁sealed	-10.3107
▁sniffs	-10.3109
▁finest	-10.3136
▁coughs	-10.3137
▁normally	-10.3145
▁drag	-10.3147
▁poke	-10.3152
▁focused	-10.3161
▁eject	-10.3164
▁riding	-10.3168
▁counts	-10.3169
▁walls	-10.3171
▁victory	-10.3173
▁pushed	-10.318
▁abba	-10.3189
▁noon	-10.3193
▁requires	-10.3194
▁roads	-10.3202
▁forces	-10.3204
▁buildings	-10.3204
▁dive	-10.3207
all	-10.3231
▁photos	-10.3236
▁triple	-10.3238
▁recording	-10.325
▁beasts	-10.3251
▁pas	-10.3254
▁cleaned	-10.3259
ern	-10.326
ii	-10.3264
▁manage	-10.3268
ph	-10.3318
▁covered	-10.3321
▁cleaning	-10.334
▁marks	-10.3346
ite	-10.3349
▁drums	-10.3353
▁events	-10.3376
ada	-10.338
▁on	-10.3409
ations	-10.3417
▁rene	-10.3423
▁buying	-10.3427
▁snap	-10.3428
ily	-10.3434
lo	-10.3441
▁ye	-10.3445
▁host	-10.3447
ably	-10.3459
▁ch	-10.3476
▁threats	-10.348
▁rum	-10.3485
▁lamb	-10.3517
▁russians	-10.3523
some	-10.3531
▁ln	-10.3532
▁who	-10.3533
▁breaths	-10.356
▁goody	-10.3577
com	-10.3582
▁capital	-10.3588
izing	-10.3588
▁deserves	-10.364
▁ro	-10.365
▁tradition	-10.3667
▁fr	-10.3674
▁ld	-10.3689
▁log	-10.3693
▁spa	-10.3696
▁arrive	-10.3698
▁championship	-10.3705
ring	-10.3706
▁sweep	-10.3708
▁legend	-10.3711
▁clown	-10.3712
▁cannon	-10.3713
▁result	-10.3715
▁cigarette	-10.3716
▁thrombey	-10.3717
▁uniform	-10.3717
▁appear	-10.3719
▁gum	-10.3719
▁warrior	-10.3719
▁rumble	-10.3719
▁brake	-10.3721
▁arab	-10.3721
che	-10.3722
▁tower	-10.3725
▁button	-10.3725
▁op	-10.3729
▁tao	-10.3731
▁payment	-10.3739
▁lesson	-10.374
▁computers	-10.3743
▁sire	-10.3749
▁fade	-10.3762
▁mud	-10.3766
▁asks	-10.3793
▁minds	-10.3796
▁thinkin	-10.381
ul	-10.3811
▁nail	-10.3811
▁dump	-10.3811
res	-10.3816
mmy	-10.3819
▁x	-10.3837
ral	-10.3837
beat	-10.3846
ball	-10.3847
▁weigh	-10.385
▁scam	-10.3854
▁reward	-10.386
▁shark	-10.3861
▁document	-10.3867
▁deb	-10.3868
▁crimes	-10.3875
▁tow	-10.388
▁blond	-10.3881
▁roost	-10.3882
▁trail	-10.3883
▁gil	-10.3886
▁unlike	-10.3886
▁off	-10.3888
▁affect	-10.3888
▁ru	-10.389
▁makin	-10.389
▁specific	-10.3891
▁cia	-10.3892
▁resist	-10.3892
▁anticruise	-10.3893
▁arashikage	-10.3893
▁arrival	-10.3893
▁atlantic	-10.3893
▁august	-10.3893
▁blanton	-10.3893
▁brantley	-10.3893
▁chastity	-10.3893
▁chocolate	-10.3893
▁compare	-10.3893
▁compliment	-10.3893
▁council	-10.3893
▁creek	-10.3893
▁disguise	-10.3893
▁dozen	-10.3893
▁enoch	-10.3893
▁erudite	-10.3893
▁fattuh	-10.3893
▁holtzmann	-10.3893
▁inaudible	-10.3893
▁juvenile	-10.3893
▁liberty	-10.3893
▁marquess	-10.3893
▁mexican	-10.3893
▁mousetrap	-10.3893
▁paranormal	-10.3893
▁reputation	-10.3893
▁rifle	-10.3893
▁scrawny	-10.3893
▁semester	-10.3893
▁shelter	-10.3893
▁similar	-10.3893
▁sparrow	-10.3893
▁television	-10.3893
▁territory	-10.3893
▁toilet	-10.3893
▁uboat	-10.3893
▁vandeweghe	-10.3893
▁wendy	-10.3893
▁shikaka	-10.3893
▁tramp	-10.3893
▁facing	-10.3893
▁memories	-10.3893
▁rosalie	-10.3893
▁commodore	-10.3893
▁gracias	-10.3893
▁cruising	-10.3893
▁slap	-10.3893
▁horde	-10.3893
▁protocol	-10.3893
▁steel	-10.3893
▁blaring	-10.3893
▁reservation	-10.3893
▁precious	-10.3893
▁donna	-10.3893
▁solar	-10.3893
▁blake	-10.3893
▁authority	-10.3893
▁cattle	-10.3893
▁plot	-10.3893
▁eternity	-10.3893
▁evelyn	-10.3893
▁creative	-10.3893
▁task	-10.3893
▁magnet	-10.3893
▁parade	-10.3894
▁sobs	-10.3894
▁rehearsal	-10.3894
▁garage	-10.3894
▁perez	-10.3894
▁stretch	-10.3894
▁reese	-10.3894
▁russ	-10.3894
▁carryall	-10.3894
▁chasing	-10.3894
▁instant	-10.3894
▁coco	-10.3895
▁thirsty	-10.3895
▁basically	-10.3895
▁amber	-10.3895
▁rice	-10.3895
▁sexual	-10.3895
▁solution	-10.3895
▁global	-10.3896
▁mechanic	-10.3896
▁supper	-10.3896
▁destiny	-10.3896
▁plain	-10.3897
▁coup	-10.3897
▁distraction	-10.3897
▁christine	-10.3897
▁typical	-10.3897
▁denied	-10.3898
▁darn	-10.3898
▁whore	-10.3899
▁cure	-10.3899
▁purse	-10.3899
▁gain	-10.3901
▁producer	-10.3902
▁choking	-10.3902
▁humanity	-10.3903
▁poe	-10.3903
▁junk	-10.3907
▁disturbed	-10.3908
▁farley	-10.3909
▁sailor	-10.3909
▁ticking	-10.3911
▁yearold	-10.3911
▁highway	-10.3912
▁ease	-10.3912
▁witches	-10.3913
▁shy	-10.3913
▁coal	-10.3916
▁fry	-10.3916
▁glasses	-10.3919
▁drowning	-10.3919
▁pulse	-10.3921
▁damaged	-10.3925
▁impression	-10.393
▁latest	-10.3931
▁panthers	-10.3931
▁reality	-10.3936
▁pissed	-10.3945
▁slghs	-10.3947
▁trumpets	-10.3947
▁rolly	-10.3949
▁movement	-10.3952
▁blessed	-10.3953
▁survived	-10.3955
▁requested	-10.3957
▁chips	-10.3957
▁healing	-10.3958
▁tub	-10.3959
▁scan	-10.396
▁buster	-10.3967
▁charged	-10.3988
▁ton	-10.3991
que	-10.3992
▁conduct	-10.3993
▁there	-10.3997
▁hunter	-10.4003
▁clouds	-10.4008
▁visiting	-10.4018
▁packed	-10.402
▁windows	-10.4021
▁my	-10.4026
▁tag	-10.4048
▁arrives	-10.4071
ci	-10.4074
af	-10.4074
sis	-10.4076
ome	-10.408
▁snaps	-10.408
ron	-10.4081
lton	-10.4086
▁lifes	-10.4087
ster	-10.4091
▁joey	-10.4091
▁messed	-10.4096
▁creatures	-10.4102
ps	-10.4112
per	-10.4114
▁pin	-10.4135
ile	-10.4137
▁touched	-10.4139
▁math	-10.4163
▁subtitle	-10.4166
▁mel	-10.4177
▁strangers	-10.4184
▁when	-10.4185
▁danced	-10.4212
▁engineer	-10.4222
▁magical	-10.423
▁prime	-10.4237
▁faces	-10.4237
▁losers	-10.424
▁booked	-10.4248
▁equ	-10.4261
▁mines	-10.4311
▁becomes	-10.4341
▁ver	-10.4342
▁cats	-10.4344
▁sin	-10.4347
ab	-10.4367
▁fights	-10.4379
▁chances	-10.4382
▁kit	-10.4389
uck	-10.4398
ford	-10.4413
▁for	-10.4419
▁reminds	-10.4453
▁ren	-10.4457
▁knowing	-10.446
▁units	-10.4462
▁drum	-10.4481
▁ham	-10.4483
ade	-10.4487
▁newscast	-10.4491
▁ti	-10.4493
ied	-10.4499
gu	-10.4508
▁jokes	-10.451
▁types	-10.4527
me	-10.453
iest	-10.4548
▁cal	-10.4553
▁youth	-10.4578
▁disappear	-10.4579
▁lap	-10.4582
my	-10.4597
▁edit	-10.4603
▁partners	-10.4605
▁kopernick	-10.4612
▁servant	-10.4617
▁clap	-10.4617
▁cobra	-10.4622
▁indian	-10.4622
▁sock	-10.4623
▁cheerleader	-10.4624
▁plate	-10.4624
▁citizen	-10.4624
▁tribe	-10.4631
▁folk	-10.4635
mir	-10.4646
▁thud	-10.4652
▁splash	-10.4666
▁cage	-10.468
▁cu	-10.468
▁stepp	-10.469
▁paste	-10.4699
▁egg	-10.47
▁sa	-10.4711
und	-10.4712
▁ending	-10.4718
▁electric	-10.4725
om	-10.4729
mark	-10.4755
▁dispatch	-10.4764
▁forfeit	-10.4765
▁corrupt	-10.4767
▁smack	-10.4767
like	-10.477
▁hundreds	-10.4782
isser	-10.4783
sel	-10.4784
▁scott	-10.4787
▁awake	-10.4796
▁india	-10.4798
▁invent	-10.4799
▁immortal	-10.48
▁priest	-10.4801
▁civil	-10.4801
▁thumb	-10.4802
happily	-10.4802
▁agatha	-10.4802
▁airplane	-10.4802
▁awkward	-10.4802
▁buffalo	-10.4802
▁chakobsa	-10.4802
▁chariot	-10.4802
▁civilization	-10.4802
▁compartment	-10.4802
▁daughtry	-10.4802
▁dionne	-10.4802
▁disaster	-10.4802
▁disrespect	-10.4802
▁false	-10.4802
▁hubbard	-10.4802
▁identify	-10.4802
▁including	-10.4802
▁initial	-10.4802
▁ishmael	-10.4802
▁keller	-10.4802
▁krupke	-10.4802
▁marilyn	-10.4802
▁pistol	-10.4802
▁religious	-10.4802
▁republic	-10.4802
▁scenario	-10.4802
▁shakusky	-10.4802
▁skirt	-10.4802
▁spectator	-10.4802
▁tecopa	-10.4802
▁tragic	-10.4802
▁travis	-10.4802
▁trevor	-10.4802
▁twelve	-10.4802
▁ultimate	-10.4802
▁underwear	-10.4802
▁wachootoo	-10.4802
▁delicious	-10.4802
▁delighted	-10.4802
▁marmee	-10.4802
▁hiram	-10.4802
▁astrid	-10.4802
▁illegal	-10.4802
▁dope	-10.4802
▁salad	-10.4802
▁stabbed	-10.4802
▁akator	-10.4802
▁spike	-10.4802
▁financial	-10.4802
▁paulina	-10.4802
▁scholarship	-10.4802
▁cancer	-10.4802
▁jeez	-10.4802
▁scotland	-10.4802
▁honour	-10.4802
▁boston	-10.4802
▁dragged	-10.4802
▁speck	-10.4802
▁achieve	-10.4802
▁bingo	-10.4802
▁oink	-10.4802
▁theme	-10.4802
▁cipher	-10.4802
▁hyah	-10.4802
▁malkin	-10.4802
▁digging	-10.4802
▁horrible	-10.4802
▁immune	-10.4802
▁thirty	-10.4802
▁network	-10.4803
▁knight	-10.4803
▁spill	-10.4803
▁upper	-10.4803
▁rico	-10.4803
▁checkmate	-10.4803
▁dedicated	-10.4803
▁operate	-10.4803
▁scatter	-10.4803
▁signature	-10.4803
▁commitment	-10.4804
▁thick	-10.4804
▁delete	-10.4804
▁jamis	-10.4804
▁jedi	-10.4804
▁essence	-10.4804
▁melancholy	-10.4804
▁gps	-10.4804
▁helena	-10.4804
▁magnificent	-10.4804
▁muse	-10.4804
▁precisely	-10.4805
▁halt	-10.4805
▁toll	-10.4805
▁crop	-10.4805
▁randy	-10.4806
▁pour	-10.4806
▁angle	-10.4806
▁june	-10.4806
▁lloyd	-10.4806
▁selfish	-10.4806
▁dawn	-10.4807
▁chewie	-10.4807
▁swat	-10.4808
▁painful	-10.4809
▁swore	-10.4809
▁barry	-10.4809
fir	-10.4809
▁personality	-10.481
▁hawk	-10.4811
▁bout	-10.4811
▁phillips	-10.4811
▁hesitate	-10.4811
▁appropriate	-10.4812
▁elle	-10.4812
▁recently	-10.4812
▁background	-10.4812
▁remembered	-10.4812
▁que	-10.4813
▁squeaking	-10.4813
▁emir	-10.4814
▁assist	-10.4814
▁bass	-10.4814
▁bitter	-10.4815
▁dc	-10.4815
▁inspired	-10.4815
▁vari	-10.4816
▁pie	-10.4817
▁monte	-10.4817
▁hank	-10.4818
▁piper	-10.4822
▁punches	-10.4823
▁legally	-10.4824
▁goodnight	-10.4828
▁properly	-10.4831
▁billion	-10.4832
▁sean	-10.4833
▁fourth	-10.4835
▁blown	-10.484
▁boo	-10.4844
▁giggles	-10.4845
▁era	-10.4845
▁ka	-10.4848
▁parties	-10.485
▁fleet	-10.485
▁wonders	-10.4851
▁dayton	-10.4853
▁loudly	-10.4854
▁aii	-10.4855
▁confirmed	-10.4859
▁ancestors	-10.4861
▁washed	-10.4862
▁houseman	-10.4863
io	-10.4872
▁intentions	-10.4878
ping	-10.4881
ez	-10.49
▁considered	-10.4906
▁tim	-10.4906
▁forth	-10.4908
▁successful	-10.4914
▁por	-10.4922
▁hoo	-10.4929
der	-10.4966
▁psycho	-10.4967
▁tells	-10.4971
▁guts	-10.4975
▁venture	-10.4978
▁rear	-10.4981
▁gall	-10.4984
▁wes	-10.499
▁los	-10.4995
▁uniforms	-10.4997
▁logs	-10.4999
▁packing	-10.5
▁safely	-10.5
▁bob	-10.5004
▁golf	-10.5019
▁gut	-10.5024
▁mounts	-10.5032
▁twins	-10.5048
▁teaching	-10.505
▁killers	-10.5052
▁backup	-10.5057
▁marrying	-10.5063
▁workers	-10.5067
▁agents	-10.5074
▁install	-10.5077
▁ec	-10.5084
▁gus	-10.5102
▁reporting	-10.5103
▁testing	-10.5127
▁kidd	-10.5128
ho	-10.5133
di	-10.5138
▁wanting	-10.5149
▁counter	-10.519
▁tapes	-10.5202
▁commit	-10.5202
▁ca	-10.5246
lock	-10.526
▁returns	-10.5264
▁teachers	-10.527
▁jab	-10.5273
▁operations	-10.5273
▁dragons	-10.5273
▁spells	-10.529
ically	-10.5297
▁bu	-10.5306
▁cori	-10.5308
lady	-10.531
ther	-10.5326
▁she	-10.5327
▁wor	-10.5344
▁chap	-10.535
▁remains	-10.5379
▁tricks	-10.5379
▁exceptional	-10.5384
▁carn	-10.539
▁sew	-10.5394
we	-10.5424
▁unh	-10.5443
its	-10.5462
▁est	-10.5468
▁plant	-10.5499
ell	-10.5502
ven	-10.5509
▁bastards	-10.5535
▁assassin	-10.5549
▁ol	-10.5551
▁yell	-10.5553
▁sigh	-10.5553
▁shatter	-10.5573
▁hid	-10.5578
▁flag	-10.5581
rie	-10.5582
▁hop	-10.5583
▁groan	-10.5589
▁cases	-10.5592
▁restaurant	-10.5603
▁operator	-10.5604
▁costs	-10.5604
▁require	-10.5604
▁inc	-10.561
▁bl	-10.5611
▁statue	-10.5612
▁gee	-10.5614
▁peculiar	-10.5615
▁chamber	-10.5618
▁suitcase	-10.5618
▁wachati	-10.5622
▁email	-10.5622
▁harkonnen	-10.5623
▁howe	-10.5625
▁lemon	-10.5625
▁toward	-10.5632
▁ty	-10.5636
▁nut	-10.5636
▁bets	-10.5642
▁wifes	-10.5654
▁bills	-10.5656
▁toy	-10.5658
▁cor	-10.5663
▁dan	-10.5663
▁winds	-10.5665
▁hurting	-10.5681
▁presents	-10.569
▁wa	-10.5693
▁transfer	-10.5702
▁heller	-10.5704
▁recruit	-10.5718
▁terror	-10.5734
▁flow	-10.5738
rate	-10.5745
▁drama	-10.5746
▁aunts	-10.5747
port	-10.5749
▁boil	-10.5756
▁approach	-10.576
weight	-10.5761
school	-10.5762
bag	-10.5765
▁assault	-10.5765
▁rod	-10.5765
▁nana	-10.5767
▁defeat	-10.5767
▁ap	-10.577
▁wax	-10.5771
▁improve	-10.5782
▁gasp	-10.5784
▁doll	-10.5785
▁silent	-10.5788
▁immediate	-10.579
▁actual	-10.579
▁extreme	-10.579
▁doc	-10.5791
▁fashion	-10.5799
▁lauren	-10.58
▁recommend	-10.58
▁transport	-10.58
▁loyal	-10.5801
▁site	-10.5802
▁intel	-10.5802
▁advise	-10.5802
▁akiko	-10.5802
▁albino	-10.5802
▁ambassador	-10.5802
▁anonymous	-10.5802
▁apprentice	-10.5802
▁april	-10.5802
▁arbuthnot	-10.5802
▁ashamed	-10.5802
▁bartender	-10.5802
▁bellefort	-10.5802
▁beloved	-10.5802
▁brautigan	-10.5802
▁cadena	-10.5802
▁capacity	-10.5802
▁casino	-10.5802
▁celebrating	-10.5802
▁coincidence	-10.5802
▁conference	-10.5802
▁extension	-10.5802
▁fabulous	-10.5802
▁florida	-10.5802
▁geiier	-10.5802
▁halloween	-10.5802
▁houston	-10.5802
▁iansam	-10.5802
▁jersey	-10.5802
▁jordan	-10.5802
▁kalaman	-10.5802
▁lesbian	-10.5802
▁lopez	-10.5802
▁lucille	-10.5802
▁mademoiselle	-10.5802
▁magazine	-10.5802
▁medallion	-10.5802
▁mervyn	-10.5802
▁murray	-10.5802
▁nickname	-10.5802
▁offensive	-10.5802
▁polite	-10.5802
▁qualify	-10.5802
▁recipe	-10.5802
▁religion	-10.5802
▁samurai	-10.5802
▁slaughter	-10.5802
▁stereo	-10.5802
▁surveillance	-10.5802
▁torpedo	-10.5802
▁unexpected	-10.5802
▁venganza	-10.5802
▁wrist	-10.5802
▁yuetmui	-10.5802
▁comrade	-10.5802
▁heather	-10.5802
▁orbit	-10.5802
▁personnel	-10.5802
▁presence	-10.5802
▁stephanie	-10.5802
▁visual	-10.5802
▁eighteen	-10.5802
▁firm	-10.5802
▁gossip	-10.5802
▁breeze	-10.5802
▁lazy	-10.5802
▁robert	-10.5802
▁anchor	-10.5802
▁candy	-10.5802
▁mankind	-10.5802
▁vengeance	-10.5802
▁disconnect	-10.5802
▁crisis	-10.5802
▁grocer	-10.5802
▁quote	-10.5802
▁todd	-10.5802
▁douchebag	-10.5802
▁brutal	-10.5802
▁residence	-10.5802
▁invisible	-10.5802
▁potential	-10.5802
▁sully	-10.5802
▁favourite	-10.5802
▁clink	-10.5802
▁urgent	-10.5802
▁breach	-10.5802
▁terrell	-10.5802
▁holler	-10.5802
▁marty	-10.5802
▁mysterious	-10.5802
▁panicked	-10.5802
▁julian	-10.5802
▁kelly	-10.5802
▁oana	-10.5802
▁straussman	-10.5802
▁delay	-10.5802
▁after	-10.5802
▁tyler	-10.5802
▁overnight	-10.5802
▁pearl	-10.5802
▁allison	-10.5802
▁blend	-10.5802
▁tristan	-10.5802
▁rapid	-10.5802
▁description	-10.5803
▁dimeah	-10.5803
▁bacon	-10.5803
▁embassy	-10.5803
▁dwarf	-10.5803
▁leak	-10.5803
▁section	-10.5803
▁loyalty	-10.5803
serving	-10.5803
▁subway	-10.5803
▁minister	-10.5803
▁announcement	-10.5803
▁destination	-10.5803
▁upright	-10.5803
▁lucy	-10.5803
▁rowan	-10.5803
▁laurence	-10.5803
▁geist	-10.5803
▁fork	-10.5803
▁andrew	-10.5803
▁olive	-10.5804
▁hostile	-10.5804
▁surgery	-10.5804
▁therell	-10.5804
▁marcus	-10.5804
▁dime	-10.5804
▁guano	-10.5804
▁priority	-10.5804
▁reaction	-10.5804
▁convention	-10.5804
▁fifth	-10.5804
▁pleasant	-10.5804
▁length	-10.5804
▁confidence	-10.5804
▁groom	-10.5804
▁coke	-10.5804
▁governor	-10.5805
▁soil	-10.5805
▁creation	-10.5805
▁role	-10.5805
▁chapter	-10.5805
▁dang	-10.5805
▁castro	-10.5805
▁spotted	-10.5806
▁nearby	-10.5806
▁whooping	-10.5806
▁weakness	-10.5806
▁patches	-10.5806
▁sunny	-10.5806
▁dna	-10.5807
▁quality	-10.5807
▁tune	-10.5807
▁taxes	-10.5807
▁amongst	-10.5808
▁stalker	-10.5808
▁rack	-10.5808
▁wha	-10.5808
▁lilly	-10.5809
▁waltz	-10.5809
▁balance	-10.581
▁marco	-10.581
▁tapping	-10.5811
▁hitler	-10.5811
▁circumstances	-10.5812
▁eliminated	-10.5813
▁register	-10.5814
▁worthless	-10.5815
▁dana	-10.5816
▁tab	-10.5816
▁angeles	-10.5817
▁peacefully	-10.5818
▁shuddering	-10.5819
▁larger	-10.5819
▁pile	-10.582
▁betrayed	-10.5821
▁fried	-10.5821
▁brat	-10.5822
▁shipment	-10.5823
▁mort	-10.5824
▁connected	-10.5824
▁recovered	-10.5824
▁pickup	-10.5824
▁protest	-10.5826
▁sang	-10.5827
▁dresses	-10.5828
▁row	-10.583
▁creaks	-10.5831
▁aldr	-10.5832
▁forty	-10.5832
▁penny	-10.5833
▁fur	-10.5835
▁refused	-10.5835
▁mog	-10.5835
▁hangar	-10.5836
▁cable	-10.5838
▁carter	-10.5839
▁dearest	-10.5839
▁businessman	-10.5841
▁hee	-10.5841
▁wounded	-10.5849
▁timing	-10.5851
▁baron	-10.5852
▁solve	-10.5855
▁served	-10.5861
▁settled	-10.5861
▁nd	-10.5874
un	-10.5877
▁chitt	-10.5885
▁loaded	-10.5888
▁ruth	-10.5892
▁painted	-10.5898
▁bells	-10.5902
▁cocks	-10.5905
▁visited	-10.5911
▁belly	-10.5914
▁skipp	-10.5923
▁manners	-10.5925
▁beard	-10.5929
▁zoom	-10.5937
▁rec	-10.5942
▁wizards	-10.5943
▁feeding	-10.595
▁lookout	-10.5951
▁dock	-10.5958
▁diamonds	-10.5962
▁hollows	-10.5962
▁customers	-10.5965
▁ab	-10.5965
▁bend	-10.5973
▁you	-10.5974
position	-10.5975
▁makeup	-10.5979
▁recorded	-10.5982
▁can	-10.5984
▁indians	-10.6
▁joy	-10.6005
▁thrombeys	-10.6019
▁tons	-10.6021
▁lessons	-10.6021
▁harland	-10.6021
▁goat	-10.6028
▁down	-10.6029
▁frankly	-10.6035
▁newspapers	-10.6038
▁reported	-10.6039
▁vivi	-10.6045
▁turner	-10.6049
ap	-10.6052
▁rooms	-10.6058
▁blades	-10.606
▁trucks	-10.6069
ward	-10.6073
▁divergents	-10.6076
▁fart	-10.61
▁sales	-10.6109
▁lit	-10.6115
bs	-10.6121
▁kicking	-10.6124
tical	-10.6131
▁dreamed	-10.6153
ip	-10.6154
▁lean	-10.6175
▁measure	-10.6178
▁fishing	-10.6189
▁jokers	-10.6215
▁vi	-10.6217
▁affairs	-10.6229
ick	-10.6238
▁homes	-10.6253
ized	-10.6263
▁lords	-10.6287
▁mac	-10.6305
ock	-10.6343
▁instruments	-10.6345
▁accounts	-10.6363
▁lands	-10.6367
▁scr	-10.6369
▁endure	-10.6372
test	-10.6375
▁doyles	-10.6384
▁hu	-10.6389
▁colors	-10.6405
▁horns	-10.6422
▁stat	-10.6433
▁tellin	-10.6433
▁bur	-10.6435
nsan	-10.6445
itch	-10.645
sa	-10.645
▁daddys	-10.6452
illa	-10.6468
▁gu	-10.6477
▁decisions	-10.6481
▁handed	-10.6522
▁freaks	-10.6525
▁phones	-10.653
▁graduate	-10.6531
▁forms	-10.6533
insu	-10.654
▁here	-10.6549
lic	-10.6555
▁noises	-10.6559
▁consort	-10.6562
▁gar	-10.658
▁pointing	-10.661
▁puts	-10.6655
for	-10.6659
▁kinds	-10.6671
ants	-10.6677
▁not	-10.6682
iy	-10.6696
▁brook	-10.6706
▁le	-10.6708
▁occasion	-10.6714
cha	-10.6714
▁bucket	-10.6715
▁aa	-10.6716
▁orc	-10.6716
▁accountant	-10.6716
▁superior	-10.6728
▁element	-10.6732
▁stink	-10.6732
▁diamond	-10.6737
▁hollow	-10.6737
▁worm	-10.6739
▁buck	-10.674
▁skill	-10.6743
▁parent	-10.6745
▁customer	-10.6747
▁gifts	-10.6758
▁cycl	-10.6763
▁heavens	-10.6775
▁su	-10.6776
▁tale	-10.6812
cher	-10.6815
▁contain	-10.6817
ado	-10.6821
▁bene	-10.6849
▁flee	-10.6855
▁dip	-10.6861
▁discover	-10.6864
board	-10.6866
just	-10.6866
▁chirp	-10.6869
▁brief	-10.6869
level	-10.6872
power	-10.6873
▁impress	-10.6877
▁faint	-10.6879
▁explore	-10.6883
▁severe	-10.689
▁twist	-10.689
▁propose	-10.689
▁convers	-10.6891
load	-10.6892
▁relieve	-10.6892
stone	-10.6893
▁link	-10.6896
▁custom	-10.6899
▁lime	-10.6901
▁recent	-10.6901
▁teenage	-10.6902
▁justin	-10.6904
▁tuck	-10.6904
▁elliot	-10.6906
▁stan	-10.6907
▁rhythm	-10.691
▁confess	-10.691
▁adjust	-10.6911
▁inherit	-10.6912
▁turk	-10.6912
▁terri	-10.6912
▁helm	-10.6913
▁salvat	-10.6913
▁concrete	-10.6913
▁disagree	-10.6913
▁whoohoo	-10.6913
▁ahkton	-10.6913
▁alligator	-10.6913
▁apologies	-10.6913
▁article	-10.6913
▁azul	-10.6913
▁basilwether	-10.6913
▁batteries	-10.6913
▁berko	-10.6913
▁blackmail	-10.6913
▁bragdon	-10.6913
▁cadogan	-10.6913
▁ceremony	-10.6913
▁consequences	-10.6913
▁covenant	-10.6913
▁curfew	-10.6913
▁debenham	-10.6913
▁dessert	-10.6913
▁divide	-10.6913
▁druze	-10.6913
▁encounter	-10.6913
▁facility	-10.6913
▁fierce	-10.6913
▁handkerchief	-10.6913
▁hockey	-10.6913
▁hyell	-10.6913
▁iook	-10.6913
▁juicy	-10.6913
▁jurisdiction	-10.6913
▁katherine	-10.6913
▁knives	-10.6913
▁lucifer	-10.6913
▁manhattan	-10.6913
▁memorial	-10.6913
▁mitat	-10.6913
▁nagurski	-10.6913
▁organization	-10.6913
▁outfit	-10.6913
▁oxygen	-10.6913
▁pacific	-10.6913
▁pantlng	-10.6913
▁precinct	-10.6913
▁reckless	-10.6913
▁reverend	-10.6913
▁schooi	-10.6913
▁september	-10.6913
▁shotgun	-10.6913
▁soccer	-10.6913
▁spoon	-10.6913
▁terribly	-10.6913
▁terrified	-10.6913
▁trunk	-10.6913
▁widow	-10.6913
▁autumn	-10.6913
▁battery	-10.6913
▁preparing	-10.6913
▁urine	-10.6913
▁parsons	-10.6913
▁jennifer	-10.6913
▁narrow	-10.6913
▁starving	-10.6913
▁stoppard	-10.6913
▁barbara	-10.6913
▁leslie	-10.6913
▁tuition	-10.6913
▁annual	-10.6913
▁destruction	-10.6913
▁rosie	-10.6913
▁studied	-10.6913
▁expensive	-10.6913
▁plaza	-10.6913
▁loving	-10.6913
▁louisville	-10.6913
▁donut	-10.6913
▁casper	-10.6913
▁endurance	-10.6913
▁hector	-10.6913
▁greek	-10.6913
▁robbed	-10.6913
▁rogue	-10.6913
▁download	-10.6913
▁ahoy	-10.6913
▁polish	-10.6913
▁offense	-10.6913
▁gallery	-10.6913
▁diora	-10.6913
▁enforcement	-10.6913
▁overcome	-10.6913
▁wrapped	-10.6913
▁division	-10.6913
▁recall	-10.6913
▁angelov	-10.6913
▁tasha	-10.6913
▁fairfax	-10.6913
▁notebook	-10.6913
▁donnie	-10.6914
▁amigo	-10.6914
▁dawson	-10.6914
▁flashlight	-10.6914
▁jeweller	-10.6914
▁bicycle	-10.6914
▁nascar	-10.6914
▁rebel	-10.6914
▁scent	-10.6914
▁crust	-10.6914
▁conspiracy	-10.6914
▁dixon	-10.6914
▁web	-10.6914
▁grayson	-10.6914
▁elevator	-10.6914
▁bible	-10.6915
▁prick	-10.6915
▁audio	-10.6915
▁brace	-10.6915
▁production	-10.6915
▁cities	-10.6915
▁stern	-10.6915
▁rockwell	-10.6915
▁supply	-10.6915
▁peach	-10.6915
▁dove	-10.6915
▁merci	-10.6915
▁iike	-10.6916
▁bishop	-10.6916
▁cabinet	-10.6916
▁compass	-10.6916
▁yuri	-10.6916
▁boll	-10.6916
▁rudy	-10.6916
▁extraordinary	-10.6916
▁takin	-10.6916
▁diary	-10.6916
▁lakers	-10.6916
▁moral	-10.6916
▁barber	-10.6916
▁booth	-10.6917
▁exam	-10.6917
▁fantasy	-10.6917
allelu	-10.6917
▁hardware	-10.6917
▁ohhh	-10.6917
▁sensitive	-10.6918
▁mason	-10.6918
▁grandson	-10.6918
▁abbie	-10.6919
▁assigned	-10.6919
▁godmother	-10.6919
▁injured	-10.6919
▁soup	-10.692
▁fond	-10.692
▁typing	-10.6921
▁cliff	-10.6921
▁crawler	-10.6921
case	-10.6921
▁tolerate	-10.6922
▁basement	-10.6922
▁pub	-10.6922
▁dough	-10.6922
▁kong	-10.6922
▁hospitality	-10.6922
▁medication	-10.6924
▁concept	-10.6925
▁treatment	-10.6925
▁stroke	-10.6926
▁alike	-10.6926
▁jb	-10.6926
▁creepy	-10.6927
▁huddle	-10.6928
▁hut	-10.6928
▁acceptable	-10.6928
▁bubble	-10.6929
▁unlikely	-10.693
▁exhausted	-10.693
▁nest	-10.693
▁bind	-10.693
▁stray	-10.693
▁structure	-10.693
▁tran	-10.6931
▁bald	-10.6931
▁reset	-10.6931
▁andrea	-10.6932
▁discussion	-10.6936
▁rank	-10.6937
▁marie	-10.6937
▁trib	-10.6937
▁tax	-10.6937
▁pine	-10.6937
▁victoria	-10.6938
▁norm	-10.6939
▁bench	-10.694
▁cheaper	-10.694
▁whod	-10.6942
▁clothing	-10.6943
▁che	-10.6943
▁naturally	-10.6945
▁ghostbusters	-10.6945
▁whinn	-10.6946
▁as	-10.6948
▁multipl	-10.695
▁engaged	-10.6953
▁fn	-10.6953
▁abuse	-10.6955
▁policeman	-10.6955
▁invade	-10.6956
▁intended	-10.6961
▁chased	-10.6961
▁rata	-10.6962
▁operatives	-10.6966
▁resources	-10.6966
▁limited	-10.6968
▁ray	-10.6969
▁and	-10.6971
rona	-10.6976
▁pork	-10.6977
▁poisoned	-10.6981
▁bare	-10.6981
▁tide	-10.6983
▁kindness	-10.6984
▁removed	-10.6984
▁seeds	-10.6986
▁sneaking	-10.6987
▁outlaws	-10.6987
▁ymbrynes	-10.6987
▁media	-10.6992
▁wasted	-10.6992
▁friggin	-10.7001
▁rollie	-10.7002
▁fo	-10.7008
▁ricky	-10.7009
▁del	-10.7009
▁cents	-10.7009
wich	-10.701
br	-10.7013
▁suffering	-10.7014
▁positions	-10.7014
▁cookies	-10.7015
▁fed	-10.7017
▁smarter	-10.7017
▁homeless	-10.702
▁imagined	-10.7021
▁completed	-10.7024
▁talented	-10.7027
▁dome	-10.7029
▁fugitives	-10.7029
▁slim	-10.703
▁lads	-10.7033
▁squeeze	-10.7045
▁executives	-10.7051
▁culture	-10.7055
▁goth	-10.7061
▁shove	-10.7072
▁treated	-10.7074
▁uhh	-10.7077
▁tryin	-10.7085
▁shave	-10.7089
▁filling	-10.7091
▁asun	-10.7095
▁importantly	-10.7101
ik	-10.7107
▁info	-10.7109
▁nat	-10.7114
▁lemons	-10.7115
▁melt	-10.7119
ast	-10.7122
▁hells	-10.7124
rous	-10.7124
▁vers	-10.7127
▁wars	-10.7127
▁plants	-10.7131
▁thuds	-10.7136
▁bon	-10.7153
▁tables	-10.7155
▁cigarettes	-10.7157
▁jumped	-10.7158
▁fooled	-10.716
tch	-10.7169
▁va	-10.717
▁nightmares	-10.7179
▁debts	-10.718
▁sucker	-10.7183
▁str	-10.7193
▁jobs	-10.7197
▁argue	-10.7198
▁herbs	-10.72
▁at	-10.7205
▁feelin	-10.7207
▁talkin	-10.721
▁sting	-10.7226
▁waters	-10.723
▁plastics	-10.7243
▁rap	-10.7247
▁pace	-10.7251
▁raining	-10.7255
▁patients	-10.7264
▁shoulders	-10.7265
▁reed	-10.7274
▁psych	-10.728
▁mul	-10.7281
▁officials	-10.7308
▁conditions	-10.7325
▁ding	-10.7327
oo	-10.7328
▁kar	-10.7336
▁attacking	-10.7341
den	-10.7371
▁deadly	-10.738
▁walker	-10.7382
ative	-10.7393
▁overhea	-10.7416
cat	-10.7418
▁bush	-10.7418
log	-10.7419
▁exc	-10.742
▁figures	-10.7443
▁ri	-10.7449
▁contra	-10.7465
ium	-10.7477
▁depress	-10.7487
hem	-10.751
ville	-10.7517
▁wished	-10.753
▁scale	-10.7534
bi	-10.7555
▁din	-10.7563
ular	-10.7567
▁receiv	-10.7575
vo	-10.7584
▁unite	-10.76
▁facts	-10.7609
▁loops	-10.7613
onon	-10.7635
▁am	-10.7638
▁exercise	-10.7664
▁gr	-10.7669
▁sheriffs	-10.7678
pa	-10.7694
tz	-10.7698
▁scarf	-10.7701
ito	-10.7717
▁reporters	-10.7723
▁wil	-10.7731
▁ve	-10.7734
va	-10.7736
▁helps	-10.776
edge	-10.7767
▁par	-10.7779
▁throb	-10.7783
ak	-10.7787
▁jean	-10.7796
▁rolls	-10.7797
iff	-10.7801
hold	-10.7811
▁ang	-10.7813
ence	-10.7822
da	-10.7823
▁diploma	-10.7835
▁sc	-10.7835
▁knocks	-10.7836
▁via	-10.7845
▁automatic	-10.7858
ove	-10.7871
ko	-10.7872
▁patrol	-10.7874
▁groups	-10.7877
▁houses	-10.7887
cs	-10.791
▁merc	-10.7917
▁seas	-10.7942
▁riddle	-10.7954
▁benefit	-10.7964
▁leather	-10.7964
▁riker	-10.7964
▁fee	-10.7969
▁hacker	-10.7971
▁generation	-10.7973
▁resume	-10.7973
▁monkey	-10.7973
▁wagon	-10.7973
▁root	-10.7974
▁wallet	-10.7979
▁investment	-10.7979
▁individual	-10.7981
▁adventure	-10.7981
▁temperature	-10.7981
▁classic	-10.7986
▁wizard	-10.7987
▁organ	-10.7987
▁cloud	-10.7988
▁beside	-10.7997
▁strain	-10.802
▁metro	-10.8029
▁string	-10.8035
▁ranger	-10.8057
▁boost	-10.8059
ox	-10.8066
▁threaten	-10.8087
▁rig	-10.8094
▁ange	-10.8099
▁pays	-10.8099
▁girlfriends	-10.8101
▁monitor	-10.8113
▁possess	-10.8121
▁hon	-10.8121
▁patch	-10.8122
minute	-10.8123
life	-10.8124
tail	-10.8126
drop	-10.8127
gage	-10.8129
▁retire	-10.814
▁predict	-10.814
▁preserve	-10.8141
▁arrange	-10.8143
▁capture	-10.8143
hard	-10.8144
how	-10.8144
▁torture	-10.8145
▁approve	-10.8145
▁andre	-10.8146
▁wealth	-10.8146
▁creep	-10.8147
▁accurate	-10.8147
door	-10.8149
▁constant	-10.815
▁latin	-10.815
▁essential	-10.815
▁unfortunate	-10.8151
well	-10.8151
▁smash	-10.8152
▁alik	-10.8153
▁bron	-10.8153
▁expose	-10.8153
▁absolute	-10.8154
inch	-10.8155
▁leap	-10.8156
▁actress	-10.8156
craft	-10.8159
▁jeep	-10.8159
▁chuck	-10.816
▁thi	-10.8161
▁otto	-10.8161
▁peaceful	-10.8161
▁divin	-10.8161
▁broad	-10.8162
▁tut	-10.8162
▁journal	-10.8162
▁virtu	-10.8162
▁greet	-10.8163
▁circuit	-10.8163
▁abroad	-10.8163
▁algebra	-10.8163
▁application	-10.8163
▁arizona	-10.8163
▁bargain	-10.8163
▁butcher	-10.8163
▁cheerleading	-10.8163
▁column	-10.8163
▁companion	-10.8163
▁corporation	-10.8163
▁courier	-10.8163
▁delightful	-10.8163
▁duane	-10.8163
▁environment	-10.8163
▁furniture	-10.8163
▁gesserit	-10.8163
▁hufan	-10.8163
▁incredibly	-10.8163
▁insects	-10.8163
▁intellectual	-10.8163
▁invitation	-10.8163
▁jacqueline	-10.8163
▁jakku	-10.8163
▁kamila	-10.8163
▁lapchick	-10.8163
▁lawrence	-10.8163
▁louisiana	-10.8163
▁manslaughter	-10.8163
▁mcallister	-10.8163
▁morphine	-10.8163
▁nemyt	-10.8163
▁northeast	-10.8163
▁nunca	-10.8163
▁outrun	-10.8163
▁pencil	-10.8163
▁regina	-10.8163
▁rendezvous	-10.8163
▁rubbish	-10.8163
▁sabbac	-10.8163
▁saperstein	-10.8163
▁skywalker	-10.8163
▁strategy	-10.8163
▁struggling	-10.8163
▁superhero	-10.8163
▁teresa	-10.8163
▁terrence	-10.8163
▁trophy	-10.8163
▁undercover	-10.8163
▁vulnerable	-10.8163
▁weevil	-10.8163
▁whew	-10.8163
▁ankle	-10.8163
▁coffin	-10.8163
▁importance	-10.8163
▁mcguire	-10.8163
▁mellon	-10.8163
▁miserable	-10.8163
▁prevent	-10.8163
▁session	-10.8163
▁natalie	-10.8163
▁relay	-10.8163
▁snack	-10.8163
▁albert	-10.8163
▁naomi	-10.8163
▁chittering	-10.8163
▁fraud	-10.8163
▁patriot	-10.8163
▁guido	-10.8163
▁michel	-10.8163
▁dignity	-10.8163
▁immunity	-10.8163
▁melrose	-10.8163
▁commercial	-10.8163
▁stutters	-10.8163
▁imagination	-10.8163
▁freddy	-10.8163
▁yelp	-10.8163
▁acquaintance	-10.8163
▁spiritual	-10.8163
▁underground	-10.8163
▁assuming	-10.8163
▁inevitable	-10.8163
▁eternium	-10.8163
▁creating	-10.8163
▁harvard	-10.8163
▁landscape	-10.8163
▁puke	-10.8163
▁unique	-10.8163
▁previous	-10.8163
▁temporary	-10.8163
▁delegation	-10.8163
▁organized	-10.8163
▁governess	-10.8163
▁kidnapping	-10.8163
▁prophetess	-10.8163
▁sietch	-10.8163
▁stanford	-10.8163
▁civilized	-10.8163
▁roast	-10.8163
▁canada	-10.8163
▁reference	-10.8163
▁karno	-10.8163
▁yknow	-10.8163
▁approval	-10.8163
▁waitress	-10.8163
▁imperial	-10.8163
▁seventeen	-10.8163
▁sissy	-10.8163
▁tuna	-10.8164
▁gently	-10.8164
▁upgrade	-10.8164
▁admiralty	-10.8164
▁hissing	-10.8164
▁yuck	-10.8164
▁pursuit	-10.8164
▁nude	-10.8164
▁preparation	-10.8164
▁sober	-10.8164
▁species	-10.8164
▁josephine	-10.8164
▁rising	-10.8164
▁assistance	-10.8164
▁begun	-10.8164
▁classified	-10.8164
▁delta	-10.8164
▁colombian	-10.8164
▁detain	-10.8164
▁random	-10.8164
▁wives	-10.8164
▁soho	-10.8164
▁rhythmic	-10.8164
▁debra	-10.8164
▁childhood	-10.8164
▁fluid	-10.8164
▁ocha	-10.8164
▁stiff	-10.8164
▁election	-10.8164
▁hush	-10.8165
▁willie	-10.8165
▁wales	-10.8165
▁neat	-10.8165
▁virginia	-10.8165
▁plantation	-10.8165
▁thou	-10.8165
▁recommendation	-10.8165
▁della	-10.8165
▁rehearse	-10.8165
▁specifically	-10.8165
▁norman	-10.8165
▁surrounded	-10.8165
▁youse	-10.8165
▁keel	-10.8166
▁alley	-10.8166
▁adaa	-10.8166
▁strangled	-10.8166
▁albini	-10.8166
▁puppy	-10.8166
▁kansas	-10.8166
▁identity	-10.8166
▁laundry	-10.8166
▁punishment	-10.8166
▁fruit	-10.8166
▁population	-10.8166
▁giggling	-10.8166
▁dropping	-10.8167
▁confirmation	-10.8167
▁humble	-10.8167
▁rail	-10.8167
▁frame	-10.8167
▁ram	-10.8167
▁donated	-10.8167
▁leadership	-10.8167
▁skies	-10.8168
▁ego	-10.8169
▁violation	-10.8169
▁dentist	-10.8169
▁burst	-10.8169
▁zoe	-10.8169
▁fries	-10.817
▁kim	-10.817
▁freshman	-10.817
▁surgeon	-10.8171
▁beings	-10.8171
▁hhhey	-10.8172
▁ew	-10.8172
▁snarling	-10.8172
▁possession	-10.8172
▁foolish	-10.8173
▁slot	-10.8173
▁joking	-10.8173
▁rachette	-10.8173
▁attractive	-10.8174
▁grey	-10.8174
▁steven	-10.8174
▁addition	-10.8174
▁hallway	-10.8174
▁tore	-10.8175
▁tender	-10.8175
▁growth	-10.8175
▁raging	-10.8177
▁cre	-10.8177
▁mustache	-10.8177
▁indiana	-10.8177
egie	-10.8178
▁summoned	-10.8178
▁maniac	-10.8181
▁pad	-10.8181
▁hotter	-10.8181
▁witnesses	-10.8181
▁captured	-10.8184
▁thumping	-10.8185
▁activated	-10.8185
▁relieved	-10.8186
▁sage	-10.8187
▁detected	-10.8187
▁volunteered	-10.8187
▁hopefully	-10.8189
▁resolve	-10.8189
▁soap	-10.8189
▁plum	-10.8189
▁mothership	-10.819
▁established	-10.8192
▁daw	-10.8193
▁beaten	-10.8194
▁switches	-10.8197
ise	-10.8198
▁whys	-10.82
▁fingerprints	-10.82
▁buyers	-10.8202
▁marion	-10.8203
misunderstanding	-10.8203
▁charming	-10.8203
▁issued	-10.8204
▁sonia	-10.8205
▁reasonable	-10.8205
▁formal	-10.8206
▁kneel	-10.8207
▁baii	-10.8208
▁separated	-10.8209
pping	-10.821
▁divorced	-10.8211
▁nailed	-10.8215
▁musician	-10.8215
cc	-10.8219
▁roller	-10.822
▁shutting	-10.822
▁drawer	-10.8223
▁ph	-10.8227
▁classes	-10.8228
▁dealer	-10.8233
▁prayer	-10.8233
▁martini	-10.8238
▁rode	-10.8244
▁designed	-10.8246
▁ricans	-10.8248
pri	-10.8253
▁pounding	-10.8254
▁speaker	-10.8259
vin	-10.8261
▁closest	-10.8264
▁shav	-10.8271
▁relics	-10.8272
▁owens	-10.8272
▁praying	-10.8272
▁lend	-10.8273
mhmm	-10.8275
▁wishes	-10.8286
▁hunted	-10.829
iv	-10.8291
car	-10.8296
▁rattles	-10.8296
▁clatters	-10.8297
ig	-10.8301
ger	-10.8302
▁promises	-10.8305
▁jr	-10.8308
▁carries	-10.8316
▁pyramids	-10.832
▁comments	-10.832
▁habits	-10.832
▁barks	-10.8322
▁invest	-10.8331
▁tippe	-10.8335
uch	-10.8336
▁sole	-10.8343
▁ink	-10.8344
▁funds	-10.8346
▁hats	-10.8348
▁py	-10.8348
▁rot	-10.8351
▁lighter	-10.8351
▁fund	-10.8355
eur	-10.8371
▁worms	-10.8372
▁considering	-10.8373
▁bumb	-10.838
qu	-10.8381
uv	-10.8382
▁toys	-10.8392
▁harkonnens	-10.8393
ison	-10.8394
▁ib	-10.8409
▁dressing	-10.8411
▁limo	-10.8415
▁citizens	-10.8417
▁cheerleaders	-10.8418
▁socks	-10.8418
▁plates	-10.8421
▁sins	-10.8421
▁pos	-10.8425
▁bal	-10.8427
▁ar	-10.8428
▁fil	-10.8433
▁determine	-10.8433
▁arabia	-10.8435
▁results	-10.8442
▁towers	-10.8446
▁core	-10.8447
▁function	-10.8449
▁tis	-10.8452
▁declare	-10.8457
▁sow	-10.8458
▁gardener	-10.8458
▁factions	-10.8472
▁gal	-10.8474
▁dispos	-10.8478
▁nails	-10.8478
▁grounds	-10.848
▁tools	-10.8491
▁griswalds	-10.8491
▁limits	-10.8492
▁demands	-10.8492
ker	-10.85
▁cart	-10.851
hu	-10.8511
▁costumes	-10.8516
▁badges	-10.8516
▁paintings	-10.8516
▁tests	-10.8526
▁gim	-10.8543
▁concentrate	-10.8546
▁gunshots	-10.8565
nic	-10.8565
▁os	-10.8568
▁visions	-10.8568
▁lg	-10.8573
ological	-10.8575
hand	-10.8589
▁claims	-10.859
ught	-10.8594
bie	-10.8598
▁handy	-10.8599
▁laps	-10.8601
▁kha	-10.8604
▁protected	-10.861
▁grades	-10.8618
▁americans	-10.8629
face	-10.8629
▁pi	-10.8637
hole	-10.8677
▁swords	-10.8689
▁returning	-10.8712
▁chains	-10.8716
▁worker	-10.8719
▁landing	-10.8725
ake	-10.873
omin	-10.8741
▁ties	-10.8744
manship	-10.8749
▁accelerate	-10.8761
ration	-10.8775
▁protecting	-10.8783
▁camper	-10.8791
▁nicely	-10.8792
▁explosives	-10.8793
▁notes	-10.8796
▁dreaming	-10.8804
erry	-10.8805
▁drugg	-10.8833
cla	-10.8851
▁counselors	-10.8863
▁signals	-10.8863
berg	-10.8871
▁una	-10.8884
ons	-10.8894
eek	-10.8946
ties	-10.8952
▁laws	-10.8958
▁hills	-10.8963
▁catching	-10.8964
editor	-10.8966
ache	-10.8993
zing	-10.8994
ander	-10.9007
py	-10.9009
▁cakes	-10.9014
long	-10.9026
ight	-10.9032
did	-10.9033
▁oi	-10.9036
▁chickens	-10.9039
▁powering	-10.9054
▁summers	-10.9066
tan	-10.9067
illow	-10.9076
▁tra	-10.9086
▁heroic	-10.9099
▁ja	-10.911
od	-10.9119
tri	-10.9151
vast	-10.9157
▁tri	-10.9161
▁ado	-10.9175
real	-10.918
ology	-10.9181
▁signs	-10.9182
rah	-10.9184
day	-10.9189
▁spic	-10.9191
ice	-10.92
▁assholes	-10.9217
▁emerge	-10.9247
▁declar	-10.9263
pped	-10.9273
ded	-10.9275
▁travels	-10.9281
▁resting	-10.929
▁ages	-10.9298
▁til	-10.93
ace	-10.9301
▁mas	-10.9308
ber	-10.9308
▁rep	-10.9314
▁downh	-10.9321
▁bark	-10.9325
hr	-10.9342
book	-10.9364
ves	-10.9366
lyn	-10.9375
▁troubles	-10.9385
▁slave	-10.9391
▁warrant	-10.9392
▁observ	-10.9396
▁label	-10.9397
▁maker	-10.9399
▁blank	-10.9399
▁clip	-10.9401
▁institution	-10.9401
▁alibi	-10.9401
▁communication	-10.9402
▁brick	-10.9403
▁beck	-10.9405
▁vitamin	-10.9406
▁height	-10.9406
▁symbol	-10.9411
▁pyramid	-10.9413
▁conductor	-10.9415
▁habit	-10.9415
▁executive	-10.9415
▁comment	-10.9419
▁vampire	-10.9419
▁wig	-10.9425
▁pole	-10.9431
▁carrie	-10.9433
▁employ	-10.9441
▁coin	-10.9441
▁bai	-10.9441
▁origin	-10.9464
▁alter	-10.9476
▁fella	-10.9478
▁kidnap	-10.9478
ept	-10.9478
▁meetings	-10.948
▁es	-10.9483
gging	-10.9486
down	-10.9491
▁recover	-10.9492
▁manner	-10.9494
▁distract	-10.9501
▁geez	-10.9505
▁prim	-10.9512
▁drown	-10.9512
point	-10.9533
▁crawl	-10.9533
lud	-10.9538
▁meets	-10.954
▁mini	-10.9541
star	-10.9542
▁meow	-10.9542
▁multi	-10.9542
▁glow	-10.9543
▁sch	-10.9545
strom	-10.9547
▁caus	-10.955
keep	-10.955
know	-10.9551
▁blam	-10.9552
woman	-10.9552
free	-10.9553
▁review	-10.9555
▁establish	-10.9556
▁haunt	-10.9556
demon	-10.9557
band	-10.9558
▁stash	-10.9559
▁charm	-10.956
▁bla	-10.9567
▁announce	-10.9571
▁connect	-10.9572
▁commission	-10.9573
▁elis	-10.9576
▁guilt	-10.9576
▁rounds	-10.9577
▁myth	-10.9578
▁technical	-10.9579
▁brid	-10.958
inlaw	-10.9581
za	-10.9582
▁familia	-10.9583
▁adapt	-10.9583
▁orient	-10.9584
▁branch	-10.9585
▁harvest	-10.9588
▁coop	-10.9589
▁comfort	-10.9589
iscount	-10.959
▁complex	-10.959
▁sixteen	-10.959
▁joseph	-10.959
oya	-10.9591
▁squawk	-10.9591
▁undetect	-10.9591
▁accompany	-10.9591
▁accomplice	-10.9591
▁almighty	-10.9591
▁amateur	-10.9591
▁association	-10.9591
▁bachelor	-10.9591
▁barbossa	-10.9591
▁becca	-10.9591
▁behalf	-10.9591
▁belief	-10.9591
▁blackjack	-10.9591
▁bluegrass	-10.9591
▁boggart	-10.9591
▁bootstrap	-10.9591
▁bounty	-10.9591
▁canadian	-10.9591
▁cassetti	-10.9591
▁cindy	-10.9591
▁cleveland	-10.9591
▁corporal	-10.9591
▁corporate	-10.9591
▁curtain	-10.9591
▁decalogue	-10.9591
▁distress	-10.9591
▁doubledecker	-10.9591
▁doubleteam	-10.9591
▁eleanor	-10.9591
▁encrypted	-10.9591
▁excitement	-10.9591
▁facial	-10.9591
▁faranoosh	-10.9591
▁feihung	-10.9591
▁frozen	-10.9591
▁fulfill	-10.9591
▁fwah	-10.9591
▁homicide	-10.9591
▁horizon	-10.9591
▁hydro	-10.9591
▁invincible	-10.9591
▁irena	-10.9591
▁isthmus	-10.9591
▁jerusalem	-10.9591
▁liquor	-10.9591
▁majesty	-10.9591
▁maximum	-10.9591
▁mccabe	-10.9591
▁mcpherson	-10.9591
▁mohiam	-10.9591
▁monroe	-10.9591
▁oldfashioned	-10.9591
▁pakistan	-10.9591
▁parliament	-10.9591
▁philosoph	-10.9591
▁pinafore	-10.9591
▁popcorn	-10.9591
▁portfolio	-10.9591
▁possibilities	-10.9591
▁practicing	-10.9591
▁prosecution	-10.9591
▁qzone	-10.9591
▁railroad	-10.9591
▁receipt	-10.9591
▁rejected	-10.9591
▁rookie	-10.9591
▁seminar	-10.9591
▁shazam	-10.9591
▁shriek	-10.9591
▁shrimp	-10.9591
▁southeast	-10.9591
▁spectacular	-10.9591
▁spencer	-10.9591
▁thanksgiving	-10.9591
▁thieves	-10.9591
▁tobias	-10.9591
▁trousers	-10.9591
▁tuesday	-10.9591
▁vodka	-10.9591
▁wrench	-10.9591
▁acknowledge	-10.9591
▁chloe	-10.9591
▁disorder	-10.9591
▁grandparents	-10.9591
▁ringtone	-10.9591
▁savoy	-10.9591
▁barrel	-10.9591
▁dvd	-10.9591
▁genuine	-10.9591
▁hyper	-10.9591
▁martian	-10.9591
▁yueh	-10.9591
egitimate	-10.9592
▁democra	-10.9592
▁li	-10.9592
▁daisies	-10.9592
▁satisfied	-10.9592
▁definition	-10.9592
▁hauser	-10.9592
▁refuge	-10.9592
▁whitfield	-10.9592
▁paranoi	-10.9592
▁sequence	-10.9592
▁toad	-10.9592
▁lottery	-10.9592
▁zoran	-10.9592
▁bleating	-10.9592
▁clarity	-10.9592
▁neighborhood	-10.9592
▁trading	-10.9592
▁electronic	-10.9592
▁sennett	-10.9592
tempo	-10.9592
▁chateau	-10.9592
▁dickens	-10.9592
▁felipe	-10.9592
▁bureau	-10.9592
▁xray	-10.9592
▁industrial	-10.9592
▁cocktail	-10.9592
▁throne	-10.9592
▁flank	-10.9592
▁puff	-10.9592
▁nerd	-10.9592
▁lethal	-10.9592
▁castroville	-10.9592
▁garlic	-10.9592
▁ducats	-10.9592
▁comescort	-10.9592
▁stork	-10.9592
▁parole	-10.9592
▁iq	-10.9592
▁unnecessary	-10.9592
▁slay	-10.9592
▁untie	-10.9592
▁solid	-10.9592
▁pancakes	-10.9592
▁mabel	-10.9592
▁rotten	-10.9592
▁bradley	-10.9592
▁psychological	-10.9592
▁leaf	-10.9592
▁vibe	-10.9592
▁remarkable	-10.9592
▁sniffling	-10.9592
▁leiter	-10.9592
▁baroness	-10.9592
▁grease	-10.9592
▁shatz	-10.9592
▁tusk	-10.9592
gs	-10.9592
▁bodyguard	-10.9592
▁feature	-10.9592
▁riot	-10.9592
▁downey	-10.9592
▁seoul	-10.9592
▁clay	-10.9592
▁hodge	-10.9592
▁saddle	-10.9593
▁approximately	-10.9593
▁liking	-10.9593
▁upload	-10.9593
▁flaw	-10.9593
▁fourteen	-10.9593
▁isolation	-10.9593
▁uncomfortable	-10.9593
▁beware	-10.9593
▁soda	-10.9593
▁friar	-10.9593
▁humor	-10.9593
▁chapel	-10.9593
▁bilal	-10.9593
▁upside	-10.9593
▁reform	-10.9593
▁obliged	-10.9593
▁damon	-10.9593
▁chef	-10.9594
▁roommate	-10.9594
▁detonator	-10.9594
▁mummy	-10.9594
▁salary	-10.9594
▁joyce	-10.9594
▁permitted	-10.9594
▁pillow	-10.9594
▁primus	-10.9594
▁swimmer	-10.9594
▁museum	-10.9594
▁ripping	-10.9594
▁moonlight	-10.9594
▁luis	-10.9594
▁jewelry	-10.9594
▁terry	-10.9594
▁euro	-10.9595
▁hanover	-10.9595
▁mosquitoes	-10.9595
▁acquire	-10.9595
▁chopper	-10.9595
▁slit	-10.9595
▁bonus	-10.9595
▁adorable	-10.9595
▁churchill	-10.9595
▁playground	-10.9595
▁european	-10.9595
▁attached	-10.9595
▁knit	-10.9595
▁renewal	-10.9595
▁enormous	-10.9595
▁tango	-10.9595
▁burden	-10.9595
▁tenure	-10.9596
▁fence	-10.9596
▁hex	-10.9596
▁significant	-10.9596
▁guardian	-10.9596
▁moron	-10.9596
▁engagement	-10.9596
▁goddaughter	-10.9596
▁legit	-10.9596
▁tov	-10.9596
▁operating	-10.9597
▁santa	-10.9597
▁ross	-10.9597
▁haul	-10.9597
▁shipping	-10.9597
▁legacy	-10.9598
▁jaco	-10.9598
▁tina	-10.9598
▁khan	-10.9598
▁brotherinlaw	-10.9598
▁pause	-10.9598
▁raw	-10.9599
▁largest	-10.9599
▁peru	-10.9599
▁unlock	-10.9599
▁poll	-10.9599
▁goddess	-10.96
▁carved	-10.96
▁expression	-10.96
▁cherish	-10.9601
▁ranch	-10.9601
▁fame	-10.9601
▁appetite	-10.9601
▁regional	-10.9601
▁ivan	-10.9601
▁felony	-10.9601
zzy	-10.9602
▁phrase	-10.9602
▁tomas	-10.9602
▁affection	-10.9602
▁publishing	-10.9603
▁moaning	-10.9603
▁controlled	-10.9603
▁everyday	-10.9603
▁grill	-10.9603
▁freeway	-10.9603
▁lecture	-10.9603
▁inches	-10.9604
▁jackson	-10.9604
▁convicted	-10.9604
▁centre	-10.9605
▁footage	-10.9605
▁yie	-10.9606
▁specialty	-10.9606
▁profile	-10.9607
▁lyrics	-10.9607
▁olympians	-10.9607
▁wel	-10.9607
▁supplies	-10.9607
▁experimental	-10.9608
▁auntie	-10.9608
▁clearance	-10.9609
▁minor	-10.9609
▁convinced	-10.9609
▁choke	-10.9609
▁july	-10.9609
▁embarrassed	-10.961
▁annoying	-10.961
row	-10.961
actical	-10.9611
▁tu	-10.9611
▁frightened	-10.9615
▁ability	-10.9615
▁exp	-10.9615
▁retired	-10.9616
▁appli	-10.9616
▁pic	-10.9616
▁respectable	-10.9619
▁clanking	-10.9619
▁ave	-10.962
▁version	-10.962
▁onion	-10.962
▁formation	-10.9621
▁exposed	-10.9623
▁coma	-10.9629
▁handling	-10.9629
▁threatened	-10.963
▁collection	-10.9631
▁depressed	-10.9631
▁lang	-10.9631
▁clattering	-10.9632
▁landers	-10.9632
▁cro	-10.9633
▁peregrinee	-10.9634
▁veins	-10.9634
▁uk	-10.9634
▁restless	-10.9635
▁twisted	-10.9635
▁sixth	-10.9638
▁limp	-10.9639
▁lick	-10.964
▁complaint	-10.964
▁assured	-10.9641
▁rage	-10.9642
▁wired	-10.9643
▁kin	-10.9646
▁lawn	-10.9649
▁eaten	-10.965
▁planted	-10.9655
▁hatch	-10.9657
▁hmmm	-10.9661
▁beans	-10.9662
▁conclusions	-10.9662
▁squeaks	-10.9662
▁coordinates	-10.9663
▁recognized	-10.9664
▁switcher	-10.9664
▁gathered	-10.9665
▁spoiled	-10.9666
▁vip	-10.9666
▁touches	-10.9671
▁renown	-10.9677
▁alas	-10.968
▁ador	-10.9682
▁meantime	-10.9685
▁sinking	-10.969
▁honesty	-10.9699
▁delivering	-10.9704
▁ban	-10.9714
▁bait	-10.9715
▁shortly	-10.9718
▁ambitions	-10.9718
▁pit	-10.9719
▁crushed	-10.9723
▁poorly	-10.9725
▁lifted	-10.9743
▁lining	-10.9744
▁fools	-10.9746
▁bananas	-10.9747
▁contents	-10.9747
▁lone	-10.9748
gious	-10.9749
kins	-10.9757
estimate	-10.9759
▁existed	-10.9761
▁produce	-10.9761
▁goof	-10.9764
▁spreading	-10.9769
▁symbols	-10.9775
butt	-10.9775
▁rely	-10.9775
▁conductors	-10.9776
▁talkies	-10.9777
▁tracked	-10.9777
▁dared	-10.978
▁compete	-10.9782
▁this	-10.9786
▁freaked	-10.9788
▁refere	-10.9792
▁kicks	-10.9795
▁yay	-10.9797
▁col	-10.9797
▁needle	-10.9808
▁pende	-10.9812
nte	-10.9814
▁respects	-10.9815
▁watches	-10.982
▁pd	-10.9823
▁historical	-10.9826
▁trans	-10.9827
ating	-10.9835
▁dart	-10.984
▁mass	-10.9846
owned	-10.9847
▁sl	-10.9848
▁sy	-10.985
oma	-10.9853
▁hay	-10.9854
▁emails	-10.986
▁wachatis	-10.986
▁assassins	-10.9861
▁fears	-10.9862
bri	-10.9871
▁cages	-10.9887
▁critic	-10.9894
ski	-10.9894
▁tribes	-10.9896
▁lovers	-10.9897
▁ny	-10.9899
▁marked	-10.9907
▁laying	-10.9909
erets	-10.9915
▁aqu	-10.9915
▁cannons	-10.9917
ards	-10.9917
▁buttons	-10.9918
▁lei	-10.9928
▁pained	-10.9929
▁honks	-10.993
pin	-10.9934
▁escorts	-10.9946
▁terrorists	-10.9946
▁rev	-10.9949
▁aha	-10.9958
▁sucking	-10.9967
▁novels	-10.9969
▁odds	-10.9974
▁photographs	-10.9976
▁diplomat	-10.9984
▁ske	-10.9988
ov	-10.9994
▁tested	-11
uld	-11.0007
ped	-11.0027
ou	-11.0028
▁motives	-11.0032
▁indulge	-11.0046
▁landed	-11.0055
▁prints	-11.0058
▁chicks	-11.006
▁aliens	-11.0061
▁slice	-11.0116
▁designs	-11.012
▁ad	-11.0127
▁masks	-11.0173
▁app	-11.0178
▁nap	-11.0207
▁zoo	-11.0217
rr	-11.0227
▁nu	-11.0239
ature	-11.0242
▁murders	-11.025
▁winners	-11.0264
▁contacts	-11.0274
▁je	-11.0281
▁circles	-11.0291
▁hoped	-11.0295
▁breaks	-11.0298
▁comb	-11.03
use	-11.0308
truck	-11.0324
▁signing	-11.035
▁senses	-11.0359
anda	-11.0364
▁kindly	-11.0364
ara	-11.0366
terior	-11.0375
ja	-11.0404
good	-11.041
▁talents	-11.0412
mez	-11.0414
if	-11.0429
▁mc	-11.0443
erson	-11.0444
▁lou	-11.0444
▁cuts	-11.046
▁coll	-11.0463
ky	-11.0469
▁heroin	-11.0473
▁greater	-11.0503
ru	-11.0503
anne	-11.051
▁questioning	-11.051
▁favors	-11.0528
▁caller	-11.0581
▁it	-11.0583
home	-11.0589
▁screws	-11.0594
▁planets	-11.0627
nda	-11.0634
▁regrets	-11.0646
ld	-11.0647
▁tempo	-11.0658
wn	-11.0671
nie	-11.0673
▁miner	-11.0678
▁votes	-11.0678
▁sauc	-11.0695
▁buys	-11.0712
ities	-11.0718
▁cos	-11.0719
▁chat	-11.0724
ame	-11.0733
this	-11.0741
▁nove	-11.0749
ai	-11.0752
set	-11.0764
▁les	-11.0787
▁hom	-11.0802
▁rape	-11.0803
dom	-11.0811
otic	-11.0831
▁submit	-11.0838
ption	-11.0848
▁menac	-11.0858
cho	-11.086
▁arti	-11.0866
▁prep	-11.0878
etch	-11.0879
lapping	-11.0888
ening	-11.0895
▁tire	-11.0924
▁slam	-11.0932
▁idiots	-11.0943
ka	-11.0946
▁plug	-11.0948
▁bore	-11.0949
lin	-11.0949
▁grows	-11.0956
▁carlo	-11.096
bit	-11.0992
▁ski	-11.101
▁jac	-11.1031
▁clatter	-11.1032
▁cock	-11.1035
▁cough	-11.104
▁rattle	-11.1056
▁matthew	-11.1059
▁tattoo	-11.1059
▁assignment	-11.1059
▁bracelet	-11.1059
▁await	-11.1063
▁sings	-11.1067
ure	-11.1068
▁bedouin	-11.1068
▁mobile	-11.1069
▁towel	-11.107
▁et	-11.1071
▁flame	-11.1071
▁neighbor	-11.1076
fare	-11.1077
▁content	-11.1078
▁banana	-11.1078
▁fugitive	-11.1081
▁skip	-11.1083
eo	-11.1085
▁hose	-11.1085
▁glove	-11.1087
▁leaders	-11.1088
ologist	-11.1088
▁plu	-11.1089
▁fist	-11.1092
▁ironic	-11.1094
▁tend	-11.1097
▁beers	-11.1106
▁tickle	-11.1126
▁abu	-11.1142
gh	-11.1142
▁sue	-11.1149
▁mutt	-11.1154
haki	-11.1156
▁tw	-11.1157
▁hack	-11.1159
duct	-11.1159
▁consul	-11.1169
night	-11.1173
▁volunteer	-11.1174
▁disturb	-11.1178
▁mode	-11.1179
rary	-11.1182
uk	-11.1183
▁pill	-11.1194
▁lil	-11.1206
▁flood	-11.1209
▁spray	-11.121
▁echo	-11.1213
bound	-11.1213
▁swell	-11.1213
mount	-11.1215
grade	-11.1216
track	-11.1217
mmed	-11.1218
▁lad	-11.122
uh	-11.122
▁extract	-11.1221
▁detect	-11.1222
▁grad	-11.1222
▁mam	-11.1223
▁soak	-11.1223
▁gran	-11.1224
▁cloth	-11.1227
ifer	-11.1227
▁betray	-11.1228
▁bake	-11.123
esses	-11.123
▁collapse	-11.1233
▁purchase	-11.1233
▁glue	-11.1233
▁stack	-11.1233
▁hail	-11.1233
▁swor	-11.1234
▁pest	-11.1235
▁execute	-11.1235
▁update	-11.1236
▁convince	-11.1237
▁pier	-11.1244
ddy	-11.1244
▁mocking	-11.1244
▁charit	-11.1245
▁gag	-11.1245
▁sur	-11.1248
▁flam	-11.1248
▁inject	-11.1249
▁region	-11.1251
▁matt	-11.1252
▁maz	-11.1252
ugh	-11.1252
▁leavin	-11.1253
▁garde	-11.1253
▁epic	-11.1253
▁recogni	-11.1255
▁alcohol	-11.1255
▁penis	-11.1256
▁hip	-11.1256
▁keen	-11.1256
▁transform	-11.1256
▁movin	-11.1256
▁mild	-11.1257
▁poop	-11.1257
▁gibber	-11.1257
▁accuse	-11.1257
▁starve	-11.1258
▁etern	-11.1258
▁optim	-11.1258
▁tread	-11.1258
▁advertise	-11.1258
▁inhabit	-11.1258
▁aggressive	-11.1258
▁album	-11.1258
▁arrogant	-11.1258
▁athlete	-11.1258
▁authentic	-11.1258
▁avocet	-11.1258
▁azeem	-11.1258
▁barbital	-11.1258
▁bleach	-11.1258
▁caesar	-11.1258
▁celebration	-11.1258
▁chantlng	-11.1258
▁clamouring	-11.1258
▁cockernorris	-11.1258
▁crunch	-11.1258
▁deceased	-11.1258
▁decency	-11.1258
▁despair	-11.1258
▁discharge	-11.1258
▁distinct	-11.1258
▁district	-11.1258
▁earthquake	-11.1258
▁ecstasy	-11.1258
▁expense	-11.1258
▁exwife	-11.1258
▁eyewitness	-11.1258
▁fifteen	-11.1258
▁galaxy	-11.1258
▁ganz	-11.1258
▁garcia	-11.1258
▁graziella	-11.1258
▁gretel	-11.1258
▁grief	-11.1258
▁haderach	-11.1258
▁headquarter	-11.1258
▁hermano	-11.1258
▁icbm	-11.1258
▁intimate	-11.1258
▁kazik	-11.1258
▁kiowa	-11.1258
▁leash	-11.1258
▁lebanon	-11.1258
▁lyndon	-11.1258
▁merchant	-11.1258
▁obey	-11.1258
▁ohoulihan	-11.1258
▁opponent	-11.1258
▁oscillator	-11.1258
▁overwhelming	-11.1258
▁pakhan	-11.1258
▁parlor	-11.1258
▁patience	-11.1258
▁pentagon	-11.1258
▁pioneer	-11.1258
▁piracy	-11.1258
▁platform	-11.1258
▁pledge	-11.1258
▁policies	-11.1258
▁prague	-11.1258
▁probability	-11.1258
▁procedure	-11.1258
▁promotion	-11.1258
▁quarantine	-11.1258
▁raccoon	-11.1258
▁ramirez	-11.1258
▁reckon	-11.1258
▁response	-11.1258
▁retreat	-11.1258
▁rewrite	-11.1258
▁ritual	-11.1258
▁rustling	-11.1258
▁sanctuary	-11.1258
▁schmuck	-11.1258
▁scorpion	-11.1258
▁seokhyeon	-11.1258
▁seyeong	-11.1258
▁shakespeare	-11.1258
▁shannon	-11.1258
▁slash	-11.1258
▁slinky	-11.1258
▁snoke	-11.1258
▁snorts	-11.1258
▁staples	-11.1258
▁steak	-11.1258
▁stoeger	-11.1258
▁superstud	-11.1258
▁supreme	-11.1258
▁tamtam	-11.1258
▁tequila	-11.1258
▁tokyo	-11.1258
▁tomatoes	-11.1258
▁trellis	-11.1258
▁triangle	-11.1258
▁utter	-11.1258
▁veatch	-11.1258
▁vinegar	-11.1258
▁wardrobe	-11.1258
▁washburn	-11.1258
▁wavekrest	-11.1258
▁wuertz	-11.1258
▁yeehaw	-11.1258
▁zulu	-11.1258
▁appeal	-11.1258
▁berlin	-11.1258
▁bollocks	-11.1258
▁couid	-11.1258
▁extend	-11.1258
▁margar	-11.1258
▁occurred	-11.1258
▁shawnzy	-11.1258
▁shitzu	-11.1258
▁vigilante	-11.1258
▁warehouse	-11.1258
▁alistair	-11.1258
▁entry	-11.1258
▁flattered	-11.1258
▁forcing	-11.1258
▁fortress	-11.1258
▁innocence	-11.1258
▁october	-11.1258
▁otis	-11.1258
▁oui	-11.1258
▁permanent	-11.1258
▁venus	-11.1258
▁chancellor	-11.1258
▁flirt	-11.1258
▁mildred	-11.1258
▁translate	-11.1258
▁christina	-11.1258
▁insight	-11.1258
▁medieva	-11.1258
▁mimic	-11.1258
▁mischief	-11.1258
▁serum	-11.1258
▁trey	-11.1258
▁actuary	-11.1258
▁debris	-11.1258
▁programming	-11.1258
▁wicked	-11.1258
▁departure	-11.1258
▁omar	-11.1258
▁sputter	-11.1258
▁columbia	-11.1258
▁forbidden	-11.1258
▁naughty	-11.1258
wurst	-11.1258
▁fringe	-11.1258
▁odonnell	-11.1258
▁jumpsuit	-11.1258
▁spank	-11.1258
▁transaction	-11.1258
▁barnhill	-11.1258
▁gerber	-11.1258
▁rochester	-11.1258
▁defence	-11.1258
▁slain	-11.1258
▁bunny	-11.1258
siberia	-11.1258
▁jelly	-11.1258
▁absence	-11.1258
▁underworld	-11.1258
▁twentyfive	-11.1258
▁refrigerator	-11.1258
▁vague	-11.1258
▁vicky	-11.1258
▁compound	-11.1258
kwis	-11.1258
▁watson	-11.1258
▁elimination	-11.1258
▁ladder	-11.1258
▁patterson	-11.1258
▁pumpkin	-11.1258
▁vials	-11.1258
▁thudding	-11.1259
▁hatred	-11.1259
▁amit	-11.1259
▁duvall	-11.1259
▁lupe	-11.1259
▁remote	-11.1259
▁burger	-11.1259
▁petula	-11.1259
▁haywood	-11.1259
▁motel	-11.1259
▁fascinating	-11.1259
▁altogether	-11.1259
▁medium	-11.1259
▁overdue	-11.1259
▁goob	-11.1259
▁cheek	-11.1259
▁puddle	-11.1259
▁wolves	-11.1259
▁regime	-11.1259
▁chemistry	-11.1259
▁harbor	-11.1259
▁hahaha	-11.1259
▁twentytwo	-11.1259
▁beetle	-11.1259
▁yankee	-11.1259
▁lousy	-11.1259
▁archaeologist	-11.1259
▁alfa	-11.1259
▁dreadful	-11.1259
▁globetrotters	-11.1259
▁investigating	-11.1259
▁caii	-11.1259
▁atom	-11.1259
▁polar	-11.1259
▁trilling	-11.1259
▁sandworm	-11.1259
▁consulate	-11.1259
▁fertilizer	-11.1259
▁dizzy	-11.1259
▁laura	-11.1259
▁inheritance	-11.1259
▁sector	-11.1259
▁greenwall	-11.1259
▁exclusive	-11.1259
▁hecta	-11.1259
▁basis	-11.1259
▁savage	-11.1259
▁litter	-11.1259
▁tomasz	-11.1259
urpin	-11.126
▁salome	-11.126
▁aerial	-11.126
▁drift	-11.126
▁password	-11.126
▁ouch	-11.126
▁goatee	-11.126
▁oops	-11.126
▁bonehead	-11.126
▁development	-11.126
▁sydney	-11.126
▁appearance	-11.126
▁parley	-11.126
▁contribution	-11.126
▁gerald	-11.126
▁ferry	-11.126
▁bugging	-11.126
▁frolic	-11.126
▁paddle	-11.126
▁oak	-11.126
▁rafi	-11.126
▁dictator	-11.126
▁bourget	-11.126
▁nitro	-11.126
▁grip	-11.126
▁conta	-11.126
▁chores	-11.126
▁rewind	-11.126
▁infection	-11.1261
▁peculiarity	-11.1261
▁iran	-11.1261
▁hull	-11.1261
▁baking	-11.1261
▁cries	-11.1261
▁harsh	-11.1261
▁transportation	-11.1261
▁gangster	-11.1261
▁elves	-11.1261
▁poland	-11.1261
▁ballistic	-11.1261
▁slick	-11.1262
▁tox	-11.1262
▁achievement	-11.1262
▁mayfield	-11.1262
▁drought	-11.1262
▁handwriting	-11.1262
▁collar	-11.1262
▁diving	-11.1262
▁jogging	-11.1262
▁increase	-11.1262
theless	-11.1262
▁debate	-11.1262
▁robinson	-11.1262
▁tractor	-11.1263
▁scarlett	-11.1263
▁abiga	-11.1263
▁troll	-11.1263
▁tiff	-11.1263
▁frustrating	-11.1263
▁poppy	-11.1263
▁slum	-11.1263
▁squat	-11.1263
▁architecture	-11.1264
▁freezing	-11.1264
▁programmed	-11.1264
▁satan	-11.1264
▁aries	-11.1265
▁pigeon	-11.1265
▁deaf	-11.1265
▁allowance	-11.1265
▁branches	-11.1265
▁ledge	-11.1265
▁minim	-11.1265
▁injection	-11.1266
▁entity	-11.1266
▁davidson	-11.1266
▁whoosh	-11.1266
▁countryside	-11.1266
▁influence	-11.1267
▁compromised	-11.1267
▁published	-11.1268
▁godfather	-11.1268
▁poem	-11.1268
▁vain	-11.1268
▁adaptation	-11.1268
▁pussy	-11.1269
▁rabbit	-11.1269
▁mortal	-11.1269
▁ahhh	-11.1269
▁superb	-11.1269
▁sour	-11.1269
▁furious	-11.127
▁athens	-11.127
▁massage	-11.127
▁maze	-11.1271
▁ciao	-11.1271
▁nuke	-11.1271
▁priceless	-11.1271
▁cranking	-11.1271
▁stunning	-11.1271
▁wah	-11.1271
▁winkle	-11.1271
▁howling	-11.1272
▁brew	-11.1272
▁bandit	-11.1272
▁specialist	-11.1272
▁marx	-11.1272
▁transferred	-11.1273
▁cried	-11.1273
▁condemned	-11.1274
▁dong	-11.1274
▁tries	-11.1274
▁classical	-11.1274
▁christie	-11.1275
▁inn	-11.1275
▁daum	-11.1275
▁farmers	-11.1275
▁combined	-11.1276
atz	-11.1276
ewell	-11.1276
▁haha	-11.1276
▁diner	-11.1276
▁activate	-11.1277
▁astronauts	-11.1277
▁comedy	-11.1277
▁scanner	-11.1277
▁jingle	-11.1277
▁flies	-11.1278
▁marine	-11.1279
▁protective	-11.128
▁floating	-11.128
▁attic	-11.128
▁trailer	-11.128
▁therapy	-11.1281
▁dover	-11.1281
▁reply	-11.1282
▁lala	-11.1283
▁machines	-11.1284
▁jc	-11.1284
▁passage	-11.1285
▁infected	-11.1286
▁adopted	-11.1286
▁diego	-11.1287
▁arranged	-11.1287
▁crashes	-11.1287
▁ahem	-11.1288
▁related	-11.1288
▁cuban	-11.1288
▁exclaiming	-11.1289
▁begging	-11.1289
hill	-11.1292
▁sweater	-11.1292
boy	-11.1293
▁friendship	-11.1293
las	-11.1294
▁weeping	-11.1297
▁stashed	-11.1298
mamma	-11.1299
▁coaster	-11.1299
▁cellar	-11.1301
▁moody	-11.1301
▁taha	-11.1303
▁taller	-11.1303
▁moor	-11.1306
▁ingredients	-11.1309
▁guaranteed	-11.131
▁masterman	-11.131
▁betting	-11.1311
▁explorer	-11.1313
▁barn	-11.1316
▁recruited	-11.1317
play	-11.1317
▁uhoh	-11.1319
▁laser	-11.1319
▁poet	-11.1321
▁vin	-11.1322
▁prest	-11.1324
▁hitch	-11.1326
away	-11.1326
▁dumped	-11.1329
▁dispatcher	-11.133
▁tighten	-11.1332
▁hoop	-11.1336
▁reaches	-11.1339
▁emp	-11.1341
about	-11.1342
ures	-11.1342
▁rhibs	-11.1343
ersk	-11.1345
▁mixed	-11.1347
▁prey	-11.1348
ification	-11.1348
▁gown	-11.1351
▁jonesy	-11.1351
▁photographer	-11.1352
▁sar	-11.1356
▁tricky	-11.1359
▁showtime	-11.1361
▁deeper	-11.1366
▁bribes	-11.1367
▁abandoned	-11.1372
▁paine	-11.1375
▁maneuvers	-11.1376
▁survivors	-11.1376
▁charts	-11.1376
▁flares	-11.1376
▁ohio	-11.1376
▁shorter	-11.138
▁runner	-11.1386
▁lita	-11.1387
▁bowling	-11.1388
▁mens	-11.139
▁dreamt	-11.139
▁gotcha	-11.1391
▁helpful	-11.1393
▁toes	-11.1398
▁sms	-11.1398
▁cheating	-11.1401
▁witnessed	-11.1403
▁practiced	-11.1403
▁islands	-11.1408
▁suggested	-11.141
▁instincts	-11.141
▁surprises	-11.1412
▁climbing	-11.1412
▁visitors	-11.1413
▁yorker	-11.1424
psy	-11.1431
▁pips	-11.1431
▁awoke	-11.1431
▁hardest	-11.1433
▁floors	-11.1438
put	-11.1443
▁neighbors	-11.1444
with	-11.1445
▁shocking	-11.1445
▁painter	-11.1446
▁tanker	-11.1447
ulls	-11.1449
▁borrowed	-11.1452
▁slower	-11.1453
▁judged	-11.1459
▁colored	-11.146
▁sticks	-11.1464
term	-11.1466
ini	-11.1466
rubber	-11.1468
▁bands	-11.147
▁suggesting	-11.1472
▁poles	-11.1478
▁vampires	-11.1478
▁posted	-11.1484
▁blocked	-11.1486
▁bees	-11.1496
▁punched	-11.1496
▁reminder	-11.1499
▁shared	-11.1502
▁classy	-11.1504
▁individuals	-11.1512
▁temperatures	-11.1512
drew	-11.1512
▁hopes	-11.1517
▁carla	-11.1521
ible	-11.1523
▁splashe	-11.1525
▁switched	-11.1529
▁shoots	-11.1529
▁lib	-11.1539
▁stinks	-11.1545
▁elements	-11.1546
▁provid	-11.1552
▁cracking	-11.1566
▁measures	-11.1566
▁shorts	-11.1569
ture	-11.1576
▁scramble	-11.1581
▁cobras	-11.1614
▁treating	-11.1622
▁gust	-11.1642
▁clowns	-11.1648
▁legends	-11.1648
▁payments	-11.1649
▁pip	-11.1655
▁speeding	-11.1666
▁sav	-11.1668
▁scars	-11.1676
▁rein	-11.1679
▁elephants	-11.1683
▁hostages	-11.1683
▁awards	-11.1684
▁wires	-11.1684
alada	-11.1691
▁accepting	-11.1692
ju	-11.1694
▁umm	-11.1696
▁troubled	-11.1697
done	-11.1698
▁scientists	-11.1717
▁understanding	-11.1718
▁mint	-11.172
ading	-11.1724
eah	-11.1737
▁vas	-11.1743
▁ley	-11.1748
▁clues	-11.1754
▁wai	-11.1761
▁syria	-11.1764
▁fore	-11.1777
▁contacted	-11.178
▁defin	-11.178
▁fixing	-11.1783
▁incidents	-11.1786
▁sources	-11.1786
▁garb	-11.1791
▁secondly	-11.1792
martial	-11.1797
hi	-11.1802
▁shields	-11.1817
wski	-11.1823
▁workin	-11.1826
lves	-11.1827
▁trainers	-11.1844
dict	-11.1846
ere	-11.1846
▁seals	-11.1855
▁holidays	-11.1856
▁ashe	-11.1863
▁alrighty	-11.1889
eye	-11.189
▁elect	-11.1899
av	-11.1899
▁fra	-11.1909
istic	-11.1918
gue	-11.1923
▁traces	-11.1923
dale	-11.1942
▁ju	-11.1945
▁stalin	-11.1954
uous	-11.1959
▁ruins	-11.1962
▁z	-11.1975
▁sta	-11.1979
top	-11.198
▁kan	-11.1988
ote	-11.2002
aba	-11.201
▁ant	-11.2016
▁winnings	-11.203
▁mic	-11.2051
▁fires	-11.2051
▁pat	-11.2053
ned	-11.2055
▁directions	-11.2068
▁menu	-11.2072
▁writers	-11.2087
▁exception	-11.2096
▁answered	-11.21
▁castles	-11.21
▁skulls	-11.2101
ripped	-11.2101
ility	-11.2106
▁interests	-11.2107
▁scares	-11.2117
▁covering	-11.2156
cease	-11.2177
ops	-11.218
char	-11.2184
wai	-11.2185
▁wee	-11.2216
je	-11.2245
hall	-11.2269
arm	-11.2305
tial	-11.2306
lets	-11.2309
▁pilots	-11.2314
ank	-11.2324
bc	-11.2324
▁mor	-11.2339
loo	-11.2344
▁negotiate	-11.2348
▁butts	-11.235
▁detectives	-11.2364
▁wis	-11.2366
▁mattered	-11.2367
▁jacks	-11.2396
▁sayin	-11.2397
▁indicate	-11.2398
rry	-11.2403
▁bash	-11.241
ought	-11.2419
speed	-11.2421
bar	-11.2426
drawn	-11.2429
▁capit	-11.244
▁prop	-11.2442
▁whip	-11.2444
shire	-11.2444
▁tongues	-11.2457
▁shirts	-11.2458
▁pursu	-11.2463
ula	-11.247
▁tops	-11.2478
oul	-11.2508
▁af	-11.2549
ister	-11.2553
ect	-11.2596
mine	-11.2607
uit	-11.263
former	-11.2637
▁seasons	-11.2668
list	-11.2679
▁gre	-11.2685
worthy	-11.2685
▁deco	-11.2689
lar	-11.27
▁linn	-11.2703
bre	-11.2703
▁scal	-11.2713
▁missions	-11.2725
ud	-11.2726
ken	-11.2727
▁samuel	-11.2739
▁gap	-11.2753
▁inde	-11.2758
▁dre	-11.2764
▁dia	-11.2765
hop	-11.2767
logical	-11.2769
▁syr	-11.2777
▁lover	-11.2783
▁prices	-11.2785
urn	-11.279
▁anybodys	-11.2793
▁mayors	-11.281
but	-11.2816
▁cousins	-11.2821
▁fer	-11.2829
▁packs	-11.2831
ese	-11.2865
▁viv	-11.2884
▁fields	-11.2895
▁mill	-11.2898
▁val	-11.2904
▁cheri	-11.2918
youre	-11.292
▁worship	-11.2928
seven	-11.2942
ugged	-11.295
▁stab	-11.2956
year	-11.2957
▁shred	-11.2967
▁produc	-11.2978
▁boot	-11.3005
▁areas	-11.3006
▁method	-11.301
▁knee	-11.3013
▁bee	-11.3015
▁shar	-11.3016
nal	-11.3018
▁distribut	-11.3022
▁mat	-11.3024
▁ignor	-11.3032
▁nono	-11.3035
▁sams	-11.3037
lly	-11.3038
▁arkham	-11.3059
▁candle	-11.3059
▁dorm	-11.3059
▁generator	-11.3059
▁yield	-11.3059
▁depth	-11.306
▁relative	-11.3061
▁nazi	-11.3062
▁arrangement	-11.3062
▁choo	-11.3064
▁guessed	-11.3064
tra	-11.3067
▁nerve	-11.3068
▁balloon	-11.3068
▁corpse	-11.3068
▁cent	-11.3072
▁profit	-11.3073
▁audition	-11.3074
▁heel	-11.3075
▁instinct	-11.3076
▁ambition	-11.3078
▁relic	-11.3085
▁container	-11.3088
▁shutter	-11.3089
▁cookie	-11.3091
▁visitor	-11.3092
person	-11.3097
▁intention	-11.3101
▁bunk	-11.3103
▁chang	-11.3107
▁weddings	-11.3118
▁ger	-11.3125
▁anyways	-11.313
▁tick	-11.3135
▁abs	-11.3139
▁weed	-11.314
▁tid	-11.3142
more	-11.3144
▁anticipate	-11.3148
▁author	-11.3149
▁slug	-11.3151
▁continu	-11.3153
gi	-11.3156
lich	-11.3157
▁cone	-11.3158
▁describ	-11.3159
break	-11.3159
▁entertain	-11.3169
wise	-11.317
▁disappoint	-11.3172
▁owen	-11.3175
▁camel	-11.3188
▁misunderstand	-11.3192
▁bi	-11.3196
▁charger	-11.3198
▁what	-11.32
▁lip	-11.32
▁profession	-11.3201
▁scor	-11.3201
▁hum	-11.3202
▁shares	-11.3205
▁deploy	-11.3211
▁select	-11.3214
▁bleed	-11.3214
▁peek	-11.3215
patient	-11.3217
dollar	-11.3217
type	-11.3218
forward	-11.3218
▁auction	-11.3219
who	-11.3219
called	-11.3219
bearing	-11.322
job	-11.322
mouth	-11.3221
two	-11.3221
▁adopt	-11.3221
▁accomplish	-11.3221
▁disrupt	-11.3221
cake	-11.3221
▁ambush	-11.3222
▁infect	-11.3222
▁scheme	-11.3222
▁frighten	-11.3225
▁exhaust	-11.3225
▁derail	-11.3227
▁vanish	-11.323
▁admire	-11.3231
eight	-11.3232
▁explode	-11.3235
▁relate	-11.3237
▁weep	-11.3238
▁combine	-11.3239
part	-11.3239
▁internal	-11.3243
▁convenient	-11.3245
▁develop	-11.3245
▁merv	-11.3245
▁louis	-11.3248
▁moo	-11.3248
▁discre	-11.3249
▁eliminate	-11.3249
▁violat	-11.3249
igious	-11.3249
▁qua	-11.325
▁shush	-11.3252
▁sketch	-11.3252
▁scot	-11.3252
▁potato	-11.3252
wind	-11.3254
▁baptis	-11.3254
▁prophet	-11.3254
▁intent	-11.3255
▁defect	-11.3255
▁vouch	-11.3255
▁livin	-11.3256
▁terra	-11.3256
▁casual	-11.3257
▁transit	-11.3257
▁mere	-11.3257
▁archaeolog	-11.3257
retches	-11.3258
▁hunch	-11.3258
▁favour	-11.3258
▁japan	-11.3258
▁torn	-11.3258
▁confident	-11.3258
▁obstructi	-11.3258
▁revenue	-11.3258
entangle	-11.3258
▁alliance	-11.3258
▁amazon	-11.3258
▁ambitious	-11.3258
▁anniversary	-11.3258
▁arriane	-11.3258
▁bainbridge	-11.3258
▁bangkok	-11.3258
▁bianca	-11.3258
▁blizzard	-11.3258
▁bourbon	-11.3258
▁brunette	-11.3258
▁butler	-11.3258
▁cadby	-11.3258
▁cafeteria	-11.3258
▁caliber	-11.3258
▁canaries	-11.3258
▁cauliflower	-11.3258
▁cemetery	-11.3258
▁chamberlain	-11.3258
▁chanel	-11.3258
▁charlotte	-11.3258
▁chemical	-11.3258
▁chlrp	-11.3258
▁cinderella	-11.3258
▁claire	-11.3258
▁colosseum	-11.3258
▁combination	-11.3258
▁concession	-11.3258
▁conscience	-11.3258
▁crayon	-11.3258
▁culprit	-11.3258
▁curiosity	-11.3258
▁dammit	-11.3258
▁dassault	-11.3258
▁delusion	-11.3258
▁distinguished	-11.3258
▁emotions	-11.3258
▁encouraging	-11.3258
▁encyclopedia	-11.3258
▁enthusiasm	-11.3258
▁envelope	-11.3258
▁episode	-11.3258
▁expedition	-11.3258
▁fabio	-11.3258
▁february	-11.3258
▁florence	-11.3258
▁franchise	-11.3258
▁froegers	-11.3258
▁gahjii	-11.3258
▁garaad	-11.3258
▁georgia	-11.3258
▁gilbert	-11.3258
▁gisele	-11.3258
▁godbrother	-11.3258
▁grazie	-11.3258
▁greece	-11.3258
▁guinea	-11.3258
▁happier	-11.3258
▁horrifying	-11.3258
▁impossibility	-11.3258
▁increasing	-11.3258
▁indianapolis	-11.3258
▁injuries	-11.3258
▁injury	-11.3258
▁invasion	-11.3258
▁istanbul	-11.3258
▁january	-11.3258
▁jeopardy	-11.3258
▁kenoak	-11.3258
▁kentucky	-11.3258
▁ketchup	-11.3258
▁khabarov	-11.3258
▁kilometers	-11.3258
▁knickerbocker	-11.3258
▁kremlin	-11.3258
▁kwang	-11.3258
▁lavender	-11.3258
▁lewis	-11.3258
▁lobster	-11.3258
▁malfunction	-11.3258
▁maribel	-11.3258
▁marvelous	-11.3258
▁mccarthy	-11.3258
▁metaphor	-11.3258
▁milkshake	-11.3258
▁millennium	-11.3258
▁ministry	-11.3258
▁misunderstood	-11.3258
▁morgan	-11.3258
▁muslim	-11.3258
▁obnoxious	-11.3258
▁omaha	-11.3258
▁orleans	-11.3258
▁outpost	-11.3258
▁pavilion	-11.3258
▁pemrose	-11.3258
▁penetrate	-11.3258
▁penthouse	-11.3258
▁perspective	-11.3258
▁pilgrim	-11.3258
▁plett	-11.3258
▁podoloff	-11.3258
▁politics	-11.3258
▁probation	-11.3258
▁prometheus	-11.3258
▁proposal	-11.3258
▁prosecutor	-11.3258
▁purcell	-11.3258
▁radius	-11.3258
▁rebellion	-11.3258
▁rebuild	-11.3258
▁reggie	-11.3258
▁reinforcement	-11.3258
▁retain	-11.3258
▁revelation	-11.3258
▁rhino	-11.3258
▁rhyme	-11.3258
▁rihanna	-11.3258
▁rodriguez	-11.3258
▁schrank	-11.3258
▁scientific	-11.3258
▁seashells	-11.3258
▁shepherd	-11.3258
▁sheridan	-11.3258
▁sidney	-11.3258
▁solitude	-11.3258
▁spilner	-11.3258
▁sponge	-11.3258
▁spontaneous	-11.3258
▁stiletto	-11.3258
▁striking	-11.3258
▁submarine	-11.3258
▁surviving	-11.3258
▁sympathy	-11.3258
▁tepes	-11.3258
▁terracotta	-11.3258
▁thermal	-11.3258
▁thompson	-11.3258
▁thorough	-11.3258
▁thursday	-11.3258
▁trumanlodge	-11.3258
▁unmask	-11.3258
▁variety	-11.3258
▁varsity	-11.3258
▁vocalizing	-11.3258
▁vortex	-11.3258
▁vulture	-11.3258
▁wheezing	-11.3258
▁windlesham	-11.3258
▁wouid	-11.3258
▁yoruba	-11.3258
▁zenith	-11.3258
▁bhaer	-11.3258
▁canvas	-11.3258
▁colony	-11.3258
▁congratulate	-11.3258
▁deputy	-11.3258
▁drysdale	-11.3258
▁footprints	-11.3258
▁hetty	-11.3258
▁hijack	-11.3258
▁jonson	-11.3258
▁mistress	-11.3258
▁niece	-11.3258
▁ongoing	-11.3258
▁porsche	-11.3258
▁scoop	-11.3258
▁sensors	-11.3258
▁shakily	-11.3258
▁steam	-11.3258
▁thread	-11.3258
▁website	-11.3258
▁backpack	-11.3258
▁biometric	-11.3258
▁daft	-11.3258
▁gesture	-11.3258
▁handicapp	-11.3258
▁illinois	-11.3258
▁imperium	-11.3258
▁imprison	-11.3258
▁opportunities	-11.3258
▁revolve	-11.3258
▁tanner	-11.3258
▁worries	-11.3258
▁infrared	-11.3258
▁neutralize	-11.3258
▁physics	-11.3258
▁aisle	-11.3258
▁cardinal	-11.3258
▁cpr	-11.3258
▁harmony	-11.3258
▁pervert	-11.3258
▁umbrella	-11.3258
▁campfire	-11.3258
▁fiona	-11.3258
▁replica	-11.3258
▁dunkirk	-11.3258
▁fumes	-11.3258
▁stubborn	-11.3258
▁translation	-11.3258
▁transmission	-11.3258
▁dwight	-11.3258
▁unstable	-11.3258
▁dandy	-11.3258
▁speculat	-11.3258
▁terminal	-11.3258
scope	-11.3258
▁commandeer	-11.3258
▁countries	-11.3258
▁nanny	-11.3258
▁supervisi	-11.3258
▁tardies	-11.3258
▁vinyl	-11.3258
▁heiss	-11.3258
▁motorcade	-11.3258
▁nigga	-11.3258
actu	-11.3258
▁bolt	-11.3258
▁camellia	-11.3258
▁espn	-11.3258
▁horace	-11.3258
▁lucius	-11.3258
▁boogie	-11.3258
▁renfield	-11.3258
▁casualties	-11.3258
▁ufo	-11.3258
▁astern	-11.3258
▁backyard	-11.3258
▁comms	-11.3258
▁soggy	-11.3258
▁notify	-11.3258
▁puzzle	-11.3258
wright	-11.3258
▁gadge	-11.3258
▁institute	-11.3258
▁lawsuit	-11.3258
▁overrated	-11.3258
▁jammed	-11.3258
▁twothirds	-11.3258
▁treadstone	-11.3258
▁crackles	-11.3258
▁housing	-11.3258
▁profound	-11.3258
▁mickey	-11.3258
▁inviting	-11.3259
▁interference	-11.3259
▁cappuccino	-11.3259
▁flourish	-11.3259
▁medal	-11.3259
▁apology	-11.3259
▁misery	-11.3259
▁rejection	-11.3259
▁snickering	-11.3259
▁infantry	-11.3259
▁confidential	-11.3259
▁forehead	-11.3259
▁backstage	-11.3259
▁indy	-11.3259
▁fiancee	-11.3259
▁resignation	-11.3259
▁fritz	-11.3259
▁granny	-11.3259
▁welcoming	-11.3259
▁instance	-11.3259
▁confusing	-11.3259
▁pepper	-11.3259
▁battlefield	-11.3259
▁hunchback	-11.3259
▁nancy	-11.3259
▁repay	-11.3259
▁granddad	-11.3259
▁senate	-11.3259
▁psst	-11.3259
▁glorious	-11.3259
▁rashid	-11.3259
▁broadway	-11.3259
▁upstate	-11.3259
▁recycle	-11.3259
▁renner	-11.3259
▁edwin	-11.3259
adequa	-11.3259
▁sinner	-11.3259
▁aspect	-11.3259
▁colson	-11.3259
▁nyet	-11.3259
▁dazzle	-11.3259
▁helsing	-11.3259
▁rumour	-11.3259
▁dunk	-11.3259
▁jiffy	-11.3259
▁breast	-11.3259
▁tension	-11.3259
▁gator	-11.3259
▁hazard	-11.3259
▁claw	-11.3259
▁concentration	-11.3259
▁sylvia	-11.3259
▁valentina	-11.3259
▁arse	-11.3259
▁fundraiser	-11.3259
▁slipping	-11.3259
▁antique	-11.3259
▁simulation	-11.3259
▁mookie	-11.326
▁google	-11.326
▁denver	-11.326
▁zip	-11.326
▁reaiiy	-11.326
▁waking	-11.326
▁marquez	-11.326
▁software	-11.326
▁safeguard	-11.326
▁colorado	-11.326
▁beac	-11.326
▁poise	-11.326
▁conqueror	-11.326
▁islam	-11.326
▁snatch	-11.326
▁shortcut	-11.326
▁visa	-11.326
▁tbone	-11.326
▁restore	-11.326
▁praise	-11.326
▁slavery	-11.326
▁complexity	-11.326
▁revolutionary	-11.326
▁axl	-11.326
▁category	-11.326
▁dibs	-11.326
▁campbell	-11.326
▁evacuation	-11.326
▁flapping	-11.3261
▁blackheart	-11.3261
▁reaper	-11.3261
▁jury	-11.3261
▁inbound	-11.3261
▁godforsaken	-11.3261
▁admiral	-11.3261
▁roy	-11.3261
▁porch	-11.3261
▁prai	-11.3261
▁disciples	-11.3262
▁tripping	-11.3262
▁fanny	-11.3262
▁sophia	-11.3262
lstl	-11.3262
▁spies	-11.3262
▁touchdown	-11.3262
▁birdhouse	-11.3262
▁sunset	-11.3262
▁mcu	-11.3262
▁drank	-11.3262
▁eastern	-11.3262
▁adre	-11.3262
▁withdrawal	-11.3262
▁lounge	-11.3262
▁identified	-11.3262
▁shuttle	-11.3262
▁esteemed	-11.3262
▁orphanage	-11.3262
▁buckle	-11.3263
▁donation	-11.3263
▁factionless	-11.3263
▁traveller	-11.3263
tuary	-11.3263
▁lava	-11.3263
▁prejudice	-11.3264
▁speedway	-11.3264
▁allah	-11.3264
▁migration	-11.3264
▁dozer	-11.3264
▁lacee	-11.3264
▁nausea	-11.3264
▁potatoes	-11.3264
▁stir	-11.3264
▁baseline	-11.3264
▁punt	-11.3264
▁cheque	-11.3264
▁loot	-11.3264
▁quest	-11.3265
▁demonstration	-11.3265
▁raven	-11.3265
▁shade	-11.3265
▁stem	-11.3265
▁franz	-11.3265
▁honda	-11.3266
▁kylie	-11.3266
▁oz	-11.3266
▁aww	-11.3266
▁ciass	-11.3266
▁qualified	-11.3267
▁howre	-11.3267
▁malt	-11.3267
▁charter	-11.3267
▁checkpoint	-11.3267
▁stationary	-11.3267
▁belongings	-11.3267
▁dickie	-11.3267
▁brass	-11.3268
▁nile	-11.3268
▁samir	-11.3268
▁ninety	-11.3268
▁sunlight	-11.3268
▁rash	-11.3269
▁insur	-11.3269
▁gio	-11.3269
▁slipper	-11.3269
▁arc	-11.3269
▁headache	-11.327
▁coloured	-11.327
▁doomed	-11.327
▁instructed	-11.327
▁hoover	-11.327
▁declined	-11.327
▁flown	-11.3271
▁mayday	-11.3271
▁melody	-11.3271
▁keener	-11.3271
▁relatively	-11.3272
▁neon	-11.3273
▁informant	-11.3273
▁quint	-11.3274
▁altitude	-11.3274
▁fitness	-11.3274
▁splitting	-11.3274
▁regarding	-11.3274
▁dose	-11.3275
▁smasher	-11.3276
▁accountable	-11.3276
▁buzzes	-11.3276
▁popping	-11.3277
▁banished	-11.3277
▁inner	-11.3277
▁benz	-11.3278
▁presentation	-11.3278
▁highlight	-11.3279
▁arden	-11.3279
▁disable	-11.3279
▁cocky	-11.328
▁constantly	-11.328
▁mole	-11.328
▁preach	-11.3281
▁reel	-11.3281
au	-11.3281
▁cartoons	-11.3282
▁handcuffs	-11.3282
▁hydrangeas	-11.3282
▁surrounds	-11.3282
▁rim	-11.3282
▁factory	-11.3282
▁reliable	-11.3283
▁spicy	-11.3283
▁tray	-11.3284
▁barge	-11.3285
▁gracious	-11.3285
▁madness	-11.3285
▁retarded	-11.3285
enium	-11.3285
vy	-11.3285
▁wealthy	-11.3286
▁fuse	-11.3286
▁copies	-11.3287
▁schoolwork	-11.3288
▁shhh	-11.3289
▁blonde	-11.3289
▁sickness	-11.3289
ware	-11.329
▁phd	-11.329
▁forge	-11.3291
▁flipped	-11.3291
▁hola	-11.3292
▁startled	-11.3292
▁shaken	-11.3292
lnglng	-11.3292
▁consumed	-11.3292
▁probable	-11.3293
▁ethe	-11.3294
▁schemer	-11.3294
▁romeo	-11.3295
▁digit	-11.3295
▁clanging	-11.3296
▁chewing	-11.3296
▁vibrating	-11.3296
▁eighth	-11.3296
cky	-11.3297
▁scraping	-11.3298
▁product	-11.3298
▁approved	-11.3298
▁realise	-11.3298
▁tink	-11.3299
▁trembl	-11.3299
▁bedtime	-11.33
▁bry	-11.3301
▁leon	-11.3301
▁darken	-11.3302
▁hunger	-11.3302
▁operational	-11.3303
▁ledger	-11.3303
▁required	-11.3305
erial	-11.3305
▁freakin	-11.3306
▁deploying	-11.3307
▁announced	-11.3307
▁carmen	-11.3307
▁distracted	-11.3308
▁photography	-11.3309
▁billie	-11.3309
▁desperately	-11.331
▁faye	-11.331
▁sher	-11.3312
▁drowned	-11.3313
▁tortured	-11.3313
▁eu	-11.3315
▁palmer	-11.3315
▁proven	-11.3315
▁possessed	-11.3315
▁setup	-11.3316
▁echoing	-11.3317
▁spraying	-11.3317
▁disturbing	-11.3317
▁cocking	-11.3318
▁purely	-11.3318
headed	-11.3319
tle	-11.3319
▁pastor	-11.332
▁pushes	-11.3322
▁laptops	-11.3322
▁skiffs	-11.3322
▁moans	-11.3322
▁loosen	-11.3323
erald	-11.3323
▁contained	-11.3323
▁linked	-11.3324
▁erased	-11.3324
▁strom	-11.3324
▁bigtime	-11.3325
▁beets	-11.3325
iiy	-11.3325
▁psyched	-11.3325
▁bios	-11.3326
▁shawna	-11.3327
vacu	-11.3328
▁crawling	-11.3328
▁cutie	-11.3329
lynn	-11.333
▁hopeless	-11.333
▁waxed	-11.3331
▁shattered	-11.3331
fi	-11.3331
▁stepbrother	-11.3332
▁iii	-11.3332
▁sweeton	-11.3333
▁topic	-11.3335
▁dental	-11.3336
▁correctly	-11.3336
▁veer	-11.3337
gen	-11.3338
▁included	-11.3342
ife	-11.3345
▁coaches	-11.3346
▁weighed	-11.3346
▁reign	-11.3348
▁sung	-11.3349
pending	-11.3354
kal	-11.3355
acks	-11.3357
▁irr	-11.336
▁boiling	-11.336
▁grim	-11.3361
▁louder	-11.3362
▁enterprises	-11.3363
▁sectionals	-11.3363
▁sheets	-11.3364
jo	-11.3364
▁tighter	-11.3364
▁vel	-11.3364
▁rumors	-11.3365
▁gage	-11.3368
▁mandat	-11.3368
▁dumber	-11.3371
▁pero	-11.3371
▁slo	-11.3376
▁hint	-11.3378
▁engineering	-11.3379
▁revealed	-11.3386
▁banks	-11.3389
▁scaring	-11.3392
▁responding	-11.3393
cut	-11.3393
▁detailed	-11.3394
▁screamed	-11.3394
bbling	-11.3396
▁factor	-11.3402
▁fling	-11.3405
▁gringos	-11.3405
▁civilians	-11.3405
▁demanding	-11.3406
▁exclaims	-11.3406
▁landon	-11.3408
▁rescued	-11.341
▁bent	-11.341
▁gi	-11.342
▁hog	-11.3423
▁complaining	-11.3426
▁shithead	-11.3426
▁strengthen	-11.3428
▁oppress	-11.3428
▁privately	-11.3431
erman	-11.3434
▁leech	-11.3434
▁pale	-11.3441
▁voted	-11.3442
▁hottie	-11.3445
▁bunks	-11.3447
▁profits	-11.3447
▁auditions	-11.3447
▁relatives	-11.3448
▁methods	-11.3448
▁restrain	-11.3449
▁cue	-11.3449
▁nasa	-11.3451
▁noted	-11.3452
▁meter	-11.3455
▁weirdo	-11.3459
▁mal	-11.3459
▁strapp	-11.3459
books	-11.3462
▁crashed	-11.3462
▁robbin	-11.3483
▁follows	-11.3487
▁fists	-11.3489
▁hoses	-11.3491
▁harmed	-11.3494
bol	-11.3498
ced	-11.3503
ze	-11.3504
▁seize	-11.3505
▁requesting	-11.3506
▁mist	-11.3507
nine	-11.3509
heads	-11.3513
▁tricked	-11.3519
cu	-11.3528
▁becks	-11.353
▁chip	-11.3531
▁vitamins	-11.3532
▁coins	-11.3532
▁heights	-11.3532
▁reminded	-11.3538
▁dates	-11.3539
▁desiree	-11.3543
berry	-11.3548
▁gro	-11.3553
▁cycle	-11.3563
▁sighted	-11.3563
▁bonding	-11.3566
▁marching	-11.3567
▁shooter	-11.3569
lan	-11.3569
▁organs	-11.3571
▁tee	-11.3572
▁adventures	-11.3574
▁suspected	-11.3574
▁investments	-11.3574
ways	-11.3575
▁jeans	-11.358
▁her	-11.3581
form	-11.3582
▁rangers	-11.3591
▁founders	-11.3592
▁dated	-11.3609
▁clutch	-11.3612
▁gene	-11.3615
▁superiors	-11.3617
lia	-11.3622
▁remaining	-11.3627
ester	-11.3628
▁leans	-11.363
sized	-11.364
▁matched	-11.3641
ran	-11.3645
▁pressing	-11.3646
rick	-11.3647
▁suitcases	-11.3659
▁peculiars	-11.3659
▁chambers	-11.366
▁crusade	-11.366
▁dish	-11.3662
▁lightly	-11.3665
kin	-11.3673
▁playin	-11.3676
▁consol	-11.3687
▁whit	-11.3696
▁claps	-11.37
▁servants	-11.3702
▁harp	-11.3705
▁numero	-11.3713
▁za	-11.3717
▁supposedly	-11.3717
▁io	-11.3719
▁elm	-11.372
▁documents	-11.3724
state	-11.3731
milton	-11.3731
▁ey	-11.3736
▁closely	-11.374
▁sweeps	-11.3745
▁proton	-11.3748
▁domestic	-11.3753
wer	-11.3754
▁retrieve	-11.3756
ils	-11.377
▁respected	-11.3773
▁jed	-11.3781
pen	-11.3787
▁rebounds	-11.3788
▁tails	-11.3798
ois	-11.3798
▁pens	-11.3808
▁sig	-11.3812
ical	-11.3823
▁hoi	-11.3824
▁patterns	-11.3831
▁connections	-11.3832
▁falcons	-11.3834
▁sm	-11.3845
▁laughed	-11.3848
▁andan	-11.3859
▁traditional	-11.3863
▁tunnels	-11.3874
▁efforts	-11.3874
▁communists	-11.3875
▁nations	-11.3879
▁prov	-11.3879
▁ana	-11.388
ease	-11.388
loom	-11.3885
rf	-11.3887
vp	-11.3896
sky	-11.3898
▁mag	-11.3915
▁muscles	-11.3918
▁basics	-11.3918
▁drawings	-11.3919
dia	-11.3922
▁valet	-11.3932
▁rocked	-11.3941
▁wi	-11.3943
▁begg	-11.3954
▁fooling	-11.3958
▁wei	-11.3958
▁shines	-11.3963
▁reader	-11.3963
▁reds	-11.397
win	-11.3976
▁nom	-11.3978
▁hor	-11.3989
▁infra	-11.3995
mala	-11.3995
▁ami	-11.4002
▁maronis	-11.4005
▁consume	-11.4007
▁grove	-11.4012
▁traveler	-11.4025
▁gri	-11.4035
▁flipp	-11.4038
▁cy	-11.4053
ain	-11.4054
▁nicer	-11.4055
▁zo	-11.4058
▁bru	-11.4059
▁lions	-11.4064
▁rad	-11.4065
▁reaching	-11.4068
▁schools	-11.4088
elo	-11.4088
▁estates	-11.4093
cess	-11.4098
▁pursue	-11.4121
lightspeed	-11.4131
▁squads	-11.4137
▁apples	-11.4142
▁goals	-11.4146
▁cells	-11.4154
▁carls	-11.4165
ents	-11.4176
▁oceans	-11.4181
hai	-11.4192
▁dudes	-11.4198
lum	-11.4205
air	-11.4211
▁desi	-11.4223
▁ladys	-11.4225
▁strikes	-11.4225
▁calle	-11.4228
▁negotiat	-11.4235
▁unc	-11.4245
ku	-11.4246
▁fellows	-11.4269
▁ir	-11.4269
ue	-11.4274
ania	-11.4275
eau	-11.4298
ets	-11.4305
▁excavat	-11.431
▁communis	-11.4311
▁vehicles	-11.4314
▁traps	-11.4344
▁projects	-11.435
▁jumper	-11.436
▁sender	-11.4378
cze	-11.439
▁sakes	-11.4403
▁apartments	-11.4403
ub	-11.4406
tant	-11.4407
▁serves	-11.4416
ska	-11.4419
▁hairs	-11.4441
iz	-11.4444
▁characters	-11.4448
▁br	-11.4456
yun	-11.4479
olic	-11.4483
▁harrys	-11.4493
pot	-11.4504
▁ordering	-11.4511
tempting	-11.4517
▁bulls	-11.4533
▁kitt	-11.4533
▁scrap	-11.4562
▁jos	-11.4583
▁introduc	-11.4593
rin	-11.46
▁committ	-11.4621
▁uni	-11.4622
▁ping	-11.4628
rified	-11.4658
ives	-11.4658
ency	-11.4665
ria	-11.4667
▁sands	-11.4672
▁decides	-11.4677
▁exists	-11.4678
▁actions	-11.4684
▁corn	-11.4688
▁ref	-11.4714
▁tastes	-11.4718
ude	-11.4734
imbel	-11.4747
hon	-11.4754
▁eagles	-11.4765
▁survives	-11.4769
not	-11.4773
action	-11.4797
▁determin	-11.4803
bu	-11.4807
gn	-11.4807
▁waiter	-11.4808
▁trauma	-11.4811
zz	-11.4838
def	-11.4841
bankmen	-11.4844
ella	-11.4868
lst	-11.4892
oki	-11.4893
hre	-11.4906
▁ethic	-11.4909
spotter	-11.492
▁hol	-11.4934
otsie	-11.4937
▁vo	-11.4949
▁battles	-11.4952
▁mil	-11.4958
▁pops	-11.4958
gger	-11.496
eons	-11.4978
pers	-11.4981
▁bel	-11.4997
lid	-11.5
lement	-11.5002
wan	-11.5028
▁define	-11.5033
▁hike	-11.5052
cam	-11.5071
ihu	-11.5094
▁gru	-11.5101
critical	-11.512
▁inst	-11.5123
▁sip	-11.5135
version	-11.5141
▁fits	-11.5164
▁vent	-11.5172
ica	-11.5184
ceived	-11.5187
▁evi	-11.5188
▁stifle	-11.5198
leg	-11.5198
▁il	-11.52
cus	-11.5209
▁notices	-11.5235
rid	-11.5238
▁drunks	-11.5277
▁situations	-11.5277
ibb	-11.5278
▁def	-11.528
▁glo	-11.5294
▁sle	-11.53
▁unto	-11.53
▁defi	-11.5313
▁of	-11.5322
ficial	-11.534
▁spots	-11.5344
nice	-11.5353
▁oppos	-11.5363
inc	-11.5423
▁sum	-11.5442
▁parks	-11.5447
dra	-11.5456
bbing	-11.5467
ior	-11.5477
aged	-11.5498
eter	-11.5505
▁skid	-11.5506
▁whin	-11.5518
owed	-11.5524
▁exclaim	-11.5525
▁hel	-11.5525
bird	-11.5527
▁clank	-11.5529
ipping	-11.5534
▁grap	-11.5536
▁crow	-11.554
get	-11.5542
▁qu	-11.5554
nan	-11.5556
▁admission	-11.5559
▁autograph	-11.5559
▁item	-11.556
▁shack	-11.5563
▁villain	-11.5563
▁fro	-11.5565
▁chart	-11.5565
▁suspicion	-11.5568
▁crane	-11.5568
▁liquid	-11.5568
▁gringo	-11.5573
ates	-11.5573
▁rides	-11.5575
▁civilian	-11.5575
▁maneuver	-11.5576
▁survivor	-11.5576
▁flare	-11.5578
▁tract	-11.5579
▁rican	-11.558
▁outlaw	-11.5581
▁ymbryne	-11.5581
▁ancestor	-11.5583
▁sniff	-11.5584
▁trumpet	-11.5584
▁slgh	-11.5584
▁knot	-11.5587
iness	-11.5595
▁ideal	-11.5599
▁rogers	-11.5612
▁jen	-11.562
▁cod	-11.5621
▁degree	-11.5621
▁slack	-11.5629
▁forgiven	-11.563
▁toe	-11.5634
▁biting	-11.5637
len	-11.5647
ink	-11.5648
hood	-11.5663
located	-11.5671
writer	-11.5677
▁locat	-11.5677
▁embarrass	-11.5678
▁vibrat	-11.569
▁stalk	-11.5693
born	-11.5694
bone	-11.5695
▁chew	-11.5697
▁schedul	-11.5698
ari	-11.57
▁dai	-11.5703
minent	-11.5704
▁darlings	-11.5707
▁boyfriends	-11.5708
body	-11.5709
writing	-11.5712
▁shudder	-11.5713
ffy	-11.5713
▁murmur	-11.5714
▁thump	-11.5714
probable	-11.5714
ability	-11.5714
▁remov	-11.5715
high	-11.5716
structure	-11.5716
pool	-11.5717
proof	-11.5717
yearold	-11.5717
third	-11.5717
convoy	-11.5718
bush	-11.5718
▁overreact	-11.5718
▁thankful	-11.5718
mature	-11.5719
fall	-11.5719
interest	-11.5719
wall	-11.572
baii	-11.572
coat	-11.5721
▁wretch	-11.5721
▁uncover	-11.5722
six	-11.5722
hey	-11.5722
▁dismiss	-11.5723
▁retard	-11.5724
▁hustle	-11.5726
lace	-11.5727
▁squa	-11.5728
▁ditch	-11.5729
due	-11.5729
▁regist	-11.5732
▁summon	-11.5732
▁gamble	-11.5732
made	-11.5732
▁disgrace	-11.5733
▁bars	-11.5733
▁fre	-11.5735
▁plea	-11.5736
▁authorize	-11.5739
fish	-11.5739
▁inspire	-11.5739
ggl	-11.574
▁involve	-11.574
▁holtz	-11.5741
▁therap	-11.5742
▁pharmac	-11.5742
sandra	-11.5742
▁melod	-11.5742
▁puss	-11.5742
retching	-11.5743
▁crim	-11.5744
▁independent	-11.5745
▁ugli	-11.5746
▁org	-11.5747
▁omni	-11.5747
▁blo	-11.5747
▁ratchet	-11.5748
titude	-11.575
▁demonstrat	-11.575
▁commi	-11.5751
▁korea	-11.5751
▁harris	-11.5752
▁mosquito	-11.5752
▁scarlet	-11.5752
▁julie	-11.5753
master	-11.5753
▁prohibi	-11.5753
▁atta	-11.5753
▁coz	-11.5753
▁frag	-11.5754
tested	-11.5755
▁reflect	-11.5755
▁evacuat	-11.5755
▁renew	-11.5755
▁counsel	-11.5756
▁baker	-11.5756
▁executi	-11.5756
▁sittin	-11.5756
▁conquer	-11.5756
▁sheik	-11.5756
▁mornin	-11.5756
▁writin	-11.5756
▁govern	-11.5756
▁fiction	-11.5757
sistent	-11.5757
▁hollo	-11.5757
▁cobb	-11.5758
perative	-11.5758
▁northwest	-11.5758
rique	-11.5758
▁yank	-11.5758
▁douche	-11.5758
burg	-11.5758
▁apologis	-11.5758
▁cockroach	-11.5758
▁transcend	-11.5758
nctly	-11.5758
ometry	-11.5758
ophobic	-11.5758
urban	-11.5758
▁absorb	-11.5758
▁advertising	-11.5758
▁airborne	-11.5758
▁airstrip	-11.5758
▁alkhoei	-11.5758
▁amorosa	-11.5758
▁analyst	-11.5758
▁anthony	-11.5758
▁apollyon	-11.5758
▁apologizing	-11.5758
▁appreciation	-11.5758
▁aristocrat	-11.5758
▁arnold	-11.5758
▁arthur	-11.5758
▁aspirin	-11.5758
▁assemble	-11.5758
▁athletic	-11.5758
▁attenborough	-11.5758
▁austin	-11.5758
▁automobile	-11.5758
▁awhile	-11.5758
▁backflip	-11.5758
▁bambambam	-11.5758
▁barbecue	-11.5758
▁believing	-11.5758
▁beulah	-11.5758
▁biblical	-11.5758
▁billionaire	-11.5758
▁binoculars	-11.5758
▁bronwyn	-11.5758
▁cadillac	-11.5758
▁cairo	-11.5758
▁calendar	-11.5758
▁candidate	-11.5758
▁caribbean	-11.5758
▁celtics	-11.5758
▁centimeter	-11.5758
▁chickaboom	-11.5758
▁cleopatra	-11.5758
▁clumsy	-11.5758
▁cocacola	-11.5758
▁coiiege	-11.5758
▁collision	-11.5758
▁commerce	-11.5758
▁companies	-11.5758
▁condolences	-11.5758
▁conflict	-11.5758
▁conspirators	-11.5758
▁constitution	-11.5758
▁convenience	-11.5758
▁cufflinks	-11.5758
▁daeseo	-11.5758
▁desperation	-11.5758
▁devastated	-11.5758
▁doughnut	-11.5758
▁dowry	-11.5758
▁endangered	-11.5758
▁engaging	-11.5758
▁enlighten	-11.5758
▁evaluation	-11.5758
▁extinct	-11.5758
▁ezekiel	-11.5758
▁feminine	-11.5758
▁ferndell	-11.5758
▁figuring	-11.5758
▁fingernails	-11.5758
▁forensic	-11.5758
▁giancana	-11.5758
▁gibson	-11.5758
▁gunpowder	-11.5758
▁halyburton	-11.5758
▁harassment	-11.5758
▁hhhhhey	-11.5758
▁hilarious	-11.5758
▁hobbs	-11.5758
▁identification	-11.5758
▁improvise	-11.5758
▁integrity	-11.5758
▁intermittent	-11.5758
▁intriguing	-11.5758
▁intrusi	-11.5758
▁irresponsible	-11.5758
▁judging	-11.5758
▁lavallee	-11.5758
▁leonberger	-11.5758
▁lipstick	-11.5758
▁lizzie	-11.5758
▁locustwood	-11.5758
▁lorien	-11.5758
▁lucinda	-11.5758
▁mafia	-11.5758
▁mascot	-11.5758
▁meanwhile	-11.5758
▁milligrams	-11.5758
▁molasses	-11.5758
▁mordecai	-11.5758
▁morrison	-11.5758
▁mulgrave	-11.5758
▁necessarily	-11.5758
▁nelson	-11.5758
▁nichola	-11.5758
▁norrington	-11.5758
▁nowadays	-11.5758
▁orellana	-11.5758
▁orlando	-11.5758
▁ouda	-11.5758
▁outstanding	-11.5758
▁overwhelmed	-11.5758
▁pagoda	-11.5758
▁payroll	-11.5758
▁peligro	-11.5758
▁penelope	-11.5758
▁penzance	-11.5758
▁philadelphia	-11.5758
▁physician	-11.5758
▁plainview	-11.5758
▁politician	-11.5758
▁precision	-11.5758
▁province	-11.5758
▁puppet	-11.5758
▁razvan	-11.5758
▁rebuilt	-11.5758
▁reconsider	-11.5758
▁resort	-11.5758
▁reunion	-11.5758
▁rocholl	-11.5758
▁rooney	-11.5758
▁roxanne	-11.5758
▁roxie	-11.5758
▁scissors	-11.5758
▁seatbelt	-11.5758
▁senator	-11.5758
▁shelby	-11.5758
▁shroud	-11.5758
▁siempre	-11.5758
▁singapore	-11.5758
▁sizzling	-11.5758
▁skotak	-11.5758
▁sleeve	-11.5758
▁sloppy	-11.5758
▁souffle	-11.5758
▁sporadic	-11.5758
▁squirrel	-11.5758
▁squish	-11.5758
▁stammering	-11.5758
▁stomp	-11.5758
▁sufficient	-11.5758
▁suffocat	-11.5758
▁sunrise	-11.5758
▁superstitious	-11.5758
▁surrillo	-11.5758
▁symptoms	-11.5758
▁syzor	-11.5758
▁tegrisco	-11.5758
▁theatrical	-11.5758
▁theft	-11.5758
▁treasury	-11.5758
▁trespass	-11.5758
▁tshirt	-11.5758
▁turbo	-11.5758
▁turtle	-11.5758
▁unattended	-11.5758
▁unfair	-11.5758
▁unidentified	-11.5758
▁untrained	-11.5758
▁verdell	-11.5758
▁veteran	-11.5758
▁voila	-11.5758
▁vomit	-11.5758
▁wednesday	-11.5758
▁whodunit	-11.5758
▁yakuza	-11.5758
▁yogurt	-11.5758
▁yujin	-11.5758
▁bypass	-11.5758
▁confine	-11.5758
▁embrace	-11.5758
▁fanelli	-11.5758
▁filthy	-11.5758
▁graphic	-11.5758
▁hungarian	-11.5758
▁impact	-11.5758
▁isabelle	-11.5758
▁manhunt	-11.5758
▁munch	-11.5758
▁obliterat	-11.5758
▁obtain	-11.5758
▁snuff	-11.5758
▁soomi	-11.5758
▁sperm	-11.5758
▁supervise	-11.5758
▁tennis	-11.5758
▁unleash	-11.5758
▁unpack	-11.5758
▁vessel	-11.5758
▁biscuit	-11.5758
▁cabbage	-11.5758
▁canyon	-11.5758
▁cavern	-11.5758
▁dwelling	-11.5758
▁harassed	-11.5758
▁jeffrey	-11.5758
▁mirage	-11.5758
▁montana	-11.5758
▁oooh	-11.5758
▁relations	-11.5758
▁reopen	-11.5758
▁scavenger	-11.5758
▁tropic	-11.5758
▁willis	-11.5758
▁curve	-11.5758
yyye	-11.5758
▁beverly	-11.5758
▁cuffs	-11.5758
▁curb	-11.5758
▁floss	-11.5758
▁forgiving	-11.5758
▁gootoh	-11.5758
▁manifest	-11.5758
▁noose	-11.5758
▁whereabouts	-11.5758
▁drumming	-11.5758
▁error	-11.5758
▁excellenc	-11.5758
▁giri	-11.5758
▁mosque	-11.5758
▁redeem	-11.5758
▁semi	-11.5758
▁stalling	-11.5758
▁stirred	-11.5758
▁dynamite	-11.5758
▁flavor	-11.5758
▁teammates	-11.5758
▁telegraph	-11.5758
▁evict	-11.5758
▁martha	-11.5758
▁vegetable	-11.5758
▁examiner	-11.5758
▁exposure	-11.5758
▁pudding	-11.5758
▁folder	-11.5758
▁swiss	-11.5758
▁maroon	-11.5758
▁archery	-11.5758
▁smores	-11.5758
▁whiskey	-11.5758
shrink	-11.5758
▁cdc	-11.5758
▁meshell	-11.5758
▁wormsign	-11.5758
▁lazar	-11.5758
parallel	-11.5758
▁attaboy	-11.5758
▁broadcast	-11.5758
▁bulk	-11.5758
▁cyber	-11.5758
▁exceed	-11.5758
▁domino	-11.5758
▁loneliness	-11.5758
▁resent	-11.5758
▁wifi	-11.5758
▁copilot	-11.5758
▁dori	-11.5758
▁drool	-11.5758
▁knob	-11.5758
▁errand	-11.5758
▁fortyfive	-11.5758
▁prosper	-11.5758
▁psychopath	-11.5758
▁turf	-11.5758
▁hisses	-11.5758
▁spaceships	-11.5758
▁investigator	-11.5758
▁offended	-11.5758
▁mushroom	-11.5758
▁shiver	-11.5758
▁repair	-11.5758
▁unhappy	-11.5758
▁scrub	-11.5758
▁hotshot	-11.5758
▁chunk	-11.5758
▁database	-11.5758
▁gabby	-11.5758
▁wills	-11.5758
▁tornado	-11.5758
▁infamous	-11.5758
▁inspiration	-11.5758
▁underdog	-11.5758
▁apocalypse	-11.5759
▁booze	-11.5759
▁stairway	-11.5759
▁tactics	-11.5759
▁thailand	-11.5759
▁phenomen	-11.5759
▁earpiece	-11.5759
▁britten	-11.5759
▁interrogation	-11.5759
▁radiation	-11.5759
lihood	-11.5759
▁elbow	-11.5759
▁fragile	-11.5759
▁motivation	-11.5759
▁crotch	-11.5759
▁headphones	-11.5759
▁undertake	-11.5759
▁confront	-11.5759
▁narcissism	-11.5759
▁absent	-11.5759
▁belay	-11.5759
▁cabana	-11.5759
▁centerpiece	-11.5759
▁griev	-11.5759
▁bellyache	-11.5759
▁midget	-11.5759
▁wiring	-11.5759
▁placenta	-11.5759
▁virgil	-11.5759
▁patron	-11.5759
▁canned	-11.5759
▁tsk	-11.5759
▁barbarian	-11.5759
▁prospect	-11.5759
▁monica	-11.5759
▁wager	-11.5759
▁blares	-11.5759
▁captive	-11.5759
▁festival	-11.5759
▁regardless	-11.5759
▁illusion	-11.5759
▁darcy	-11.5759
▁arrow	-11.5759
▁fudge	-11.5759
▁initiating	-11.5759
▁summerfield	-11.5759
▁unconscious	-11.5759
▁gambling	-11.5759
▁penalty	-11.5759
▁activity	-11.5759
▁sensible	-11.5759
▁famine	-11.5759
▁spectr	-11.5759
▁chute	-11.5759
▁flatulen	-11.5759
▁pronounce	-11.5759
destructive	-11.5759
▁spear	-11.5759
▁piay	-11.5759
▁duties	-11.5759
▁scram	-11.5759
▁flake	-11.5759
▁acquisition	-11.5759
▁ginger	-11.5759
klu	-11.5759
▁thugs	-11.5759
▁railway	-11.5759
▁crucial	-11.5759
▁rls	-11.5759
▁restraints	-11.5759
▁tyrell	-11.5759
▁guan	-11.5759
bet	-11.5759
▁sunscreen	-11.5759
▁sample	-11.576
▁stoke	-11.576
▁wimp	-11.576
▁tryouts	-11.576
▁compactor	-11.576
▁babysit	-11.576
▁dealership	-11.576
▁occupation	-11.576
▁display	-11.576
▁flick	-11.576
▁organism	-11.576
▁genetically	-11.576
▁greetings	-11.576
▁turkey	-11.576
▁massive	-11.576
▁fluke	-11.576
▁stumble	-11.576
▁wrapping	-11.576
▁corpus	-11.576
▁blacksmith	-11.576
▁gibberish	-11.576
▁sidewalk	-11.576
▁catastrophe	-11.576
▁interrogate	-11.576
▁timber	-11.576
▁katie	-11.576
pido	-11.576
▁feast	-11.576
▁intake	-11.576
▁nyu	-11.576
▁depositions	-11.576
▁possessive	-11.576
▁posture	-11.576
▁timmy	-11.576
▁linder	-11.576
▁milan	-11.576
▁unnatural	-11.576
▁beef	-11.576
▁teii	-11.576
▁fiend	-11.576
▁legendary	-11.5761
▁icu	-11.5761
▁shaking	-11.5761
▁karim	-11.5761
▁cartel	-11.5761
▁aboli	-11.5761
▁excel	-11.5761
▁frustration	-11.5761
▁stitches	-11.5761
▁edward	-11.5761
▁snickers	-11.5761
▁racket	-11.5761
▁bennie	-11.5761
▁brothersinlaw	-11.5761
▁rejoin	-11.5761
▁bodi	-11.5761
▁conceal	-11.5761
▁blouse	-11.5761
rrell	-11.5761
▁sherman	-11.5762
mnh	-11.5762
▁foreman	-11.5762
▁gents	-11.5762
xious	-11.5762
▁enclosed	-11.5762
▁harem	-11.5762
▁morality	-11.5762
▁clive	-11.5762
▁unarmed	-11.5762
▁lumber	-11.5762
▁keyboard	-11.5762
▁wallace	-11.5762
▁imitating	-11.5762
▁refine	-11.5762
▁pastures	-11.5762
▁providence	-11.5762
▁flute	-11.5762
▁immortality	-11.5763
▁goldberg	-11.5763
▁blackpool	-11.5763
▁pony	-11.5763
▁calculation	-11.5763
▁archive	-11.5763
▁hedge	-11.5763
▁evp	-11.5763
▁homies	-11.5763
▁biz	-11.5763
▁dripping	-11.5763
▁vest	-11.5763
▁ottoman	-11.5763
▁woah	-11.5763
▁bitterness	-11.5763
▁whitewright	-11.5763
▁prohibida	-11.5763
▁lionel	-11.5764
▁contaminate	-11.5764
▁gallup	-11.5764
▁judy	-11.5764
▁marshall	-11.5764
▁bock	-11.5764
▁acre	-11.5764
▁whoops	-11.5764
▁seams	-11.5764
amos	-11.5764
▁overtime	-11.5764
▁karen	-11.5764
▁sophie	-11.5764
▁winston	-11.5765
▁genetic	-11.5765
▁doorstep	-11.5765
▁whale	-11.5765
▁firewall	-11.5765
▁psychic	-11.5765
▁wits	-11.5765
▁waist	-11.5765
▁whim	-11.5765
▁burro	-11.5765
▁tech	-11.5765
▁brotherhood	-11.5765
▁hound	-11.5765
▁wheat	-11.5765
come	-11.5765
▁believable	-11.5765
▁compliance	-11.5765
▁enhance	-11.5765
▁jefe	-11.5765
▁muffin	-11.5765
▁hamburger	-11.5765
▁snoopy	-11.5766
▁clang	-11.5766
▁stingers	-11.5766
▁juliet	-11.5766
▁obligation	-11.5766
▁almay	-11.5766
▁mixup	-11.5766
▁beau	-11.5766
▁grinding	-11.5766
▁verifying	-11.5766
▁courthouse	-11.5766
▁salvation	-11.5766
▁francisco	-11.5766
▁mommab	-11.5766
▁expectations	-11.5767
▁construction	-11.5767
▁heartbreak	-11.5767
▁vaca	-11.5767
▁etc	-11.5767
▁glee	-11.5767
▁shaman	-11.5767
amie	-11.5767
▁addict	-11.5767
▁consistent	-11.5768
▁alongside	-11.5768
▁poetry	-11.5768
▁snapped	-11.5768
▁mouse	-11.5768
▁meas	-11.5769
▁modest	-11.5769
▁potus	-11.5769
▁casa	-11.5769
▁wanderer	-11.5769
▁dread	-11.5769
▁roland	-11.577
▁vanity	-11.577
▁caf	-11.577
▁gravity	-11.577
▁boone	-11.5771
▁valid	-11.5771
▁broom	-11.5771
▁mandy	-11.5771
▁ravage	-11.5771
▁effective	-11.5771
▁paralyze	-11.5772
▁oriental	-11.5772
▁rudel	-11.5772
▁econ	-11.5772
▁teasing	-11.5773
▁orchestral	-11.5773
tly	-11.5773
▁shelf	-11.5773
▁replacement	-11.5773
▁dug	-11.5774
▁thruster	-11.5774
▁concluded	-11.5774
▁initiated	-11.5774
▁lsnt	-11.5774
▁popped	-11.5774
▁ramp	-11.5774
▁holtzy	-11.5775
▁greedy	-11.5775
▁finance	-11.5775
▁publicity	-11.5775
yeah	-11.5775
▁bowman	-11.5775
▁conveniently	-11.5776
▁edg	-11.5776
▁barley	-11.5776
▁offers	-11.5776
▁yaah	-11.5777
▁shu	-11.5778
▁electro	-11.5778
▁abilities	-11.5778
▁shagg	-11.5778
▁lizard	-11.5779
▁pave	-11.5779
▁stripper	-11.5779
▁silk	-11.5779
▁tutor	-11.5779
▁argh	-11.5779
▁objective	-11.578
▁pela	-11.578
▁plead	-11.578
▁allen	-11.578
▁sank	-11.5781
▁publisher	-11.5782
▁pul	-11.5783
▁intimidated	-11.5783
▁firewood	-11.5784
▁sustained	-11.5784
▁whispered	-11.5784
▁moping	-11.5784
▁realistic	-11.5784
▁wander	-11.5785
▁gambler	-11.5785
▁airline	-11.5785
▁birdie	-11.5786
▁negotiation	-11.5786
▁misty	-11.5786
▁faithful	-11.5787
▁restored	-11.5787
▁bruises	-11.5789
▁colleagues	-11.5789
▁krauts	-11.5789
▁marshmallows	-11.5789
▁principles	-11.5789
▁rathtars	-11.5789
▁roadblocks	-11.5789
▁iate	-11.5789
▁greed	-11.5789
▁willy	-11.5789
▁justine	-11.579
▁grudge	-11.5791
▁overdose	-11.5791
▁fuss	-11.5791
▁becky	-11.5793
▁dismissed	-11.5793
▁updated	-11.5793
▁vested	-11.5793
▁baked	-11.5794
▁applauding	-11.5794
▁rooster	-11.5794
con	-11.5795
won	-11.5796
▁hidell	-11.5796
oever	-11.5796
▁childish	-11.5797
▁portman	-11.5797
▁depending	-11.5798
▁discovery	-11.5799
flops	-11.58
▁bund	-11.5801
▁lockon	-11.5801
▁costar	-11.5801
▁pageant	-11.5802
▁kite	-11.5803
▁vanished	-11.5803
▁entertained	-11.5804
▁huff	-11.5804
▁rosen	-11.5804
▁polka	-11.5805
▁stable	-11.5805
▁preserved	-11.5806
▁cleaner	-11.5806
your	-11.5806
▁authorized	-11.5806
▁fianc	-11.5808
▁stalking	-11.5808
▁casing	-11.5808
▁mono	-11.5809
▁vat	-11.5815
▁thor	-11.5815
▁tillie	-11.5817
▁collector	-11.5818
▁improved	-11.5818
▁sparky	-11.582
▁hein	-11.5821
▁cryin	-11.5822
▁spooky	-11.5823
▁haunted	-11.5824
▁honorable	-11.5825
▁ruby	-11.5825
▁inf	-11.5826
eeny	-11.5827
▁correction	-11.5829
▁marc	-11.5829
▁temper	-11.5829
▁rave	-11.583
iser	-11.583
▁cured	-11.5831
▁mongolia	-11.5831
▁sweetest	-11.5832
▁linger	-11.5832
▁brad	-11.5833
▁lnd	-11.5833
▁jerky	-11.5833
▁flooding	-11.5836
▁hacking	-11.5836
▁hah	-11.5837
▁campus	-11.5837
▁observed	-11.5838
▁methodical	-11.5839
▁maur	-11.584
▁tin	-11.5841
▁idol	-11.5841
▁ante	-11.5841
▁handsomely	-11.5841
▁weaker	-11.5842
▁residents	-11.5842
▁doo	-11.5842
▁kilos	-11.5842
▁buggers	-11.5842
▁chrysanthemums	-11.5842
▁crawdads	-11.5842
▁earrings	-11.5842
icion	-11.5843
▁reserves	-11.5843
▁fainted	-11.5844
▁sneeze	-11.5844
ked	-11.5844
thats	-11.5846
▁strongest	-11.5847
▁duff	-11.5849
▁judi	-11.5851
▁distracting	-11.5851
▁recovering	-11.5851
kinson	-11.5852
bell	-11.5852
▁dusty	-11.5853
▁defeated	-11.5854
▁narrat	-11.5854
▁yelled	-11.5855
▁inning	-11.5856
▁ache	-11.5857
▁resu	-11.5858
▁beaches	-11.5859
dad	-11.5862
▁corrupted	-11.5864
▁barker	-11.5864
▁monitoring	-11.5865
▁itch	-11.5865
▁whi	-11.5865
▁oped	-11.5866
▁funding	-11.5867
▁drophead	-11.587
arson	-11.587
▁bert	-11.5871
ophil	-11.5871
▁destroyer	-11.5873
▁clubs	-11.5873
▁sen	-11.5874
▁rewarded	-11.5874
ggin	-11.5876
▁imitate	-11.5878
▁batin	-11.5878
▁vol	-11.5884
▁portal	-11.5886
▁paw	-11.5887
aggie	-11.5889
▁bein	-11.5891
▁sling	-11.5892
▁shitty	-11.5892
▁recruiting	-11.5893
▁sane	-11.5893
▁pumped	-11.5894
▁movers	-11.5896
▁sponsors	-11.5897
▁neighs	-11.5897
▁barriers	-11.5897
▁sinkholes	-11.5897
▁decades	-11.5897
▁nickels	-11.5897
▁diapers	-11.5897
▁arch	-11.59
▁traded	-11.5908
birds	-11.5912
▁males	-11.5917
lined	-11.5921
▁tits	-11.5923
▁kat	-11.5924
▁healed	-11.5925
▁nod	-11.5926
▁accidents	-11.5928
▁tally	-11.5928
▁buyin	-11.5932
acho	-11.5932
▁ignored	-11.5934
▁scored	-11.5936
▁outsiders	-11.5936
▁performing	-11.5936
▁claimed	-11.5937
▁informed	-11.5937
▁climbed	-11.5938
▁mutter	-11.5938
▁scheduled	-11.5943
▁chu	-11.5943
▁bumped	-11.5945
▁legion	-11.5945
▁punishing	-11.595
▁cranes	-11.5952
▁liquids	-11.5952
▁suspicions	-11.5952
▁qa	-11.5953
▁clanks	-11.5953
▁sadly	-11.5959
fa	-11.5959
▁assassinate	-11.596
▁dunn	-11.5961
hat	-11.5962
rina	-11.5964
▁liet	-11.597
spel	-11.5972
▁presume	-11.5975
▁shocked	-11.5976
▁quicker	-11.5977
▁challenged	-11.5978
▁busted	-11.5978
sex	-11.5979
▁butter	-11.5985
▁discussed	-11.5986
nder	-11.5987
fight	-11.5988
▁sweeter	-11.599
▁cic	-11.599
▁offen	-11.5991
▁ze	-11.5992
▁quier	-11.6001
▁balloons	-11.6008
▁nerves	-11.6008
▁sailing	-11.6008
▁corpses	-11.6008
▁stabs	-11.601
▁containers	-11.6015
▁cleaners	-11.6018
▁lev	-11.602
▁aiming	-11.6022
▁missus	-11.6026
▁driven	-11.6033
▁washing	-11.6036
▁defending	-11.6041
▁rea	-11.6046
▁rosa	-11.6047
▁hooked	-11.6049
▁rains	-11.6052
▁sued	-11.6056
tically	-11.6058
filter	-11.6058
▁helpless	-11.6059
▁proved	-11.606
fab	-11.6063
▁bedouins	-11.6064
▁towels	-11.6064
▁mobiles	-11.6064
▁lowly	-11.6066
▁bothered	-11.6067
▁plugs	-11.607
▁screening	-11.607
▁realm	-11.607
▁nicky	-11.6071
▁wy	-11.6071
▁boob	-11.6073
jam	-11.6078
▁rented	-11.6079
▁hag	-11.6084
▁jumps	-11.6085
▁une	-11.609
▁swa	-11.6094
liness	-11.6094
▁gast	-11.6095
▁darts	-11.6102
▁needles	-11.6102
▁defens	-11.6103
▁ads	-11.6106
▁avoiding	-11.6109
▁gin	-11.611
▁messy	-11.6111
▁bossy	-11.6114
▁bricks	-11.612
▁institutions	-11.612
▁alibis	-11.612
▁clips	-11.612
▁blanks	-11.612
▁communications	-11.612
▁foreigner	-11.6124
▁attempting	-11.6139
rizz	-11.6139
▁jul	-11.6153
▁vandalis	-11.6163
▁strains	-11.6166
▁oss	-11.6171
▁roots	-11.6175
▁supported	-11.6176
▁wagons	-11.6176
▁resumes	-11.6176
▁generations	-11.6176
▁monkeys	-11.6177
▁strings	-11.6177
▁broker	-11.6177
▁wallets	-11.6179
▁tus	-11.6179
▁grabb	-11.6182
▁warmed	-11.6183
▁jun	-11.6186
budget	-11.6188
▁stow	-11.6191
▁tearing	-11.6191
▁timer	-11.6194
ebe	-11.6201
▁cub	-11.6203
era	-11.6216
▁locking	-11.622
▁smit	-11.6224
▁racer	-11.6226
▁iv	-11.6231
▁lust	-11.6231
▁feds	-11.6232
▁brooks	-11.6234
▁tales	-11.6235
▁cans	-11.6241
lance	-11.6245
addie	-11.6251
▁peel	-11.6252
▁spying	-11.6256
▁prec	-11.6257
etting	-11.6266
lam	-11.6267
▁handled	-11.6273
handed	-11.6274
▁pla	-11.6275
▁abid	-11.6275
▁occup	-11.6281
▁docs	-11.6282
▁statues	-11.629
▁axe	-11.6296
ray	-11.6299
▁oni	-11.6301
xo	-11.6306
▁explains	-11.6308
▁cas	-11.6316
▁devot	-11.6318
▁foundation	-11.632
iac	-11.6327
▁limb	-11.6337
▁dealers	-11.6343
▁kopernicks	-11.6347
▁fri	-11.6347
▁disappears	-11.6348
eu	-11.6349
▁warming	-11.6359
▁peas	-11.637
▁unk	-11.6376
▁switching	-11.6391
▁ev	-11.6397
▁pun	-11.6402
▁championships	-11.6404
nno	-11.6414
dan	-11.6416
▁whitey	-11.6421
▁sus	-11.6423
ades	-11.6426
shore	-11.6458
▁sparks	-11.6467
▁samuels	-11.6468
▁brit	-11.6484
▁founder	-11.6493
▁crowded	-11.6496
▁bribe	-11.6498
▁caves	-11.6519
▁jewels	-11.6519
▁mead	-11.6525
mpoo	-11.6543
▁was	-11.6558
▁represents	-11.6562
▁dav	-11.6566
▁italians	-11.6577
▁soviets	-11.6577
▁deo	-11.6578
▁rockets	-11.6581
▁riders	-11.6586
cular	-11.6599
▁wonton	-11.6607
lot	-11.6609
void	-11.6609
▁cove	-11.661
▁marker	-11.6619
▁consult	-11.6619
▁eltons	-11.6635
▁dea	-11.6639
▁images	-11.6643
▁tanks	-11.6644
▁heater	-11.6652
▁envi	-11.6653
▁tilt	-11.6659
▁don	-11.6664
his	-11.6672
▁reveals	-11.6696
roc	-11.6701
▁experienc	-11.6708
times	-11.6743
▁pipes	-11.6743
▁sacrifices	-11.6747
▁guides	-11.675
▁targeting	-11.675
▁booms	-11.6751
▁entrances	-11.6752
▁satellites	-11.6752
▁freed	-11.6756
▁sab	-11.6792
most	-11.6798
▁sounded	-11.6802
▁gen	-11.6812
ako	-11.6823
irut	-11.6825
ush	-11.6826
▁capitalist	-11.6837
lands	-11.6841
mock	-11.686
pression	-11.6861
rian	-11.6862
▁sor	-11.6873
ified	-11.6877
▁ak	-11.6887
▁just	-11.6887
inister	-11.6897
▁ai	-11.6898
▁dipp	-11.6906
ando	-11.691
▁amounts	-11.6929
▁relocat	-11.6934
▁bounc	-11.6936
▁scores	-11.694
▁mali	-11.6948
ole	-11.6963
▁wink	-11.6972
▁subjects	-11.6989
▁screens	-11.6994
nage	-11.7006
▁tit	-11.7013
▁gumm	-11.7023
▁mem	-11.7028
▁bos	-11.7029
▁spac	-11.7039
dre	-11.7039
ckle	-11.704
▁tempt	-11.7041
▁palms	-11.705
▁droids	-11.7052
▁requests	-11.7058
ady	-11.7065
▁murderers	-11.7065
▁cru	-11.7105
▁lined	-11.711
take	-11.713
▁users	-11.7135
▁alternat	-11.7137
▁behav	-11.7155
oke	-11.7168
▁explosions	-11.7169
▁gla	-11.7196
▁hallow	-11.7206
yl	-11.7208
▁ash	-11.7209
▁centers	-11.7234
▁graduat	-11.724
▁psychologi	-11.7256
pple	-11.7257
▁pairs	-11.7289
▁mommys	-11.729
▁riddlers	-11.7293
▁bows	-11.7299
ire	-11.7317
laine	-11.7319
▁rem	-11.7321
ttle	-11.7324
tted	-11.7343
har	-11.7379
▁nec	-11.7395
▁sixty	-11.7396
obi	-11.7397
▁lim	-11.7428
▁au	-11.746
pitched	-11.7467
▁packages	-11.7474
▁adults	-11.7474
▁ast	-11.7485
▁accelerat	-11.7501
sium	-11.7503
▁mend	-11.7517
min	-11.7523
▁ag	-11.7532
erature	-11.7535
▁devices	-11.7536
cal	-11.7538
manda	-11.7539
▁allerg	-11.755
▁rotate	-11.7552
bee	-11.7556
▁farms	-11.7577
▁indicat	-11.7587
dem	-11.759
ido	-11.759
▁litera	-11.7592
▁locks	-11.7606
cer	-11.7608
▁cord	-11.7609
▁devo	-11.761
▁fishie	-11.7623
ev	-11.7625
▁ac	-11.7644
▁bounce	-11.7653
▁values	-11.7658
▁fla	-11.7664
lies	-11.7667
▁wrinkl	-11.7683
rus	-11.7685
vado	-11.7689
mbie	-11.7709
▁rho	-11.7719
▁conj	-11.7731
▁det	-11.7753
▁tot	-11.7762
elle	-11.7764
▁fog	-11.7788
uhuh	-11.7789
elected	-11.7789
▁dodg	-11.7792
iological	-11.782
▁gangs	-11.7834
▁bin	-11.7846
▁prima	-11.7848
ana	-11.7851
itty	-11.7863
▁logic	-11.7898
▁leann	-11.7903
nde	-11.7941
quin	-11.7946
mart	-11.7959
itive	-11.7993
bular	-11.7999
uel	-11.8009
ggle	-11.8012
installed	-11.8026
▁sway	-11.804
▁dam	-11.8061
▁dep	-11.8073
lax	-11.8087
▁geograph	-11.8101
▁careers	-11.8114
unk	-11.812
lessly	-11.8191
▁ratio	-11.8214
ancy	-11.8225
▁dar	-11.8233
▁beh	-11.8237
▁mega	-11.8243
sticated	-11.8266
oster	-11.8284
▁vir	-11.8286
functional	-11.8288
ptic	-11.8292
settling	-11.8293
hoe	-11.8294
atin	-11.8296
bat	-11.8297
▁numer	-11.8329
▁haz	-11.8348
ico	-11.8354
ancho	-11.8362
▁pu	-11.8364
▁pur	-11.8369
rained	-11.8376
allowed	-11.8391
▁reduc	-11.8393
▁ala	-11.8394
▁communi	-11.8396
ncies	-11.8403
▁plato	-11.8404
▁spri	-11.8424
▁teen	-11.8446
▁presum	-11.8457
nat	-11.8476
▁stain	-11.8509
▁circl	-11.8514
▁historic	-11.8523
▁lace	-11.8525
▁tame	-11.8542
dding	-11.8567
vable	-11.8571
▁sho	-11.8572
▁anni	-11.858
▁refer	-11.8595
▁cot	-11.8595
▁nor	-11.86
▁compet	-11.8616
ora	-11.8616
▁bumbl	-11.8617
▁clinic	-11.8618
ench	-11.8637
▁snob	-11.8648
onnie	-11.865
nto	-11.8651
pod	-11.8662
generat	-11.8677
having	-11.8694
▁ax	-11.8705
▁homo	-11.8712
▁depend	-11.8717
imp	-11.8718
▁pam	-11.8729
rians	-11.873
▁craz	-11.8735
▁audi	-11.8746
▁rei	-11.8781
yah	-11.8794
▁sna	-11.8795
▁steril	-11.8806
ike	-11.8837
▁whisper	-11.8842
gie	-11.8843
caption	-11.8864
▁squeak	-11.8866
▁inquir	-11.8867
▁bylaw	-11.8893
▁vovnik	-11.8893
▁peasant	-11.8894
that	-11.8894
▁thigh	-11.8897
erv	-11.8898
▁reek	-11.89
▁libera	-11.89
▁neigh	-11.8901
▁barrier	-11.8901
▁diaper	-11.8902
▁sinkhole	-11.8903
▁decade	-11.8903
▁enterprise	-11.8906
▁sheet	-11.891
▁rhib	-11.891
▁carve	-11.8911
▁conclusion	-11.8912
▁sponsor	-11.8912
▁leanin	-11.8913
▁resource	-11.8915
▁coordinate	-11.8915
▁operative	-11.8917
▁passenger	-11.8918
▁rumor	-11.8919
▁trotter	-11.8919
▁panther	-11.8919
▁giggle	-11.892
▁teenager	-11.8927
▁nickel	-11.893
▁sectional	-11.8935
▁mot	-11.8936
oohoo	-11.8937
net	-11.8946
▁stair	-11.8947
eeches	-11.8948
▁pea	-11.8948
itate	-11.8956
▁maj	-11.8961
▁estra	-11.8971
gical	-11.8973
▁proto	-11.8975
▁fau	-11.8978
bble	-11.8978
▁blink	-11.898
▁haw	-11.8982
▁sap	-11.8982
mons	-11.8982
▁challeng	-11.8983
mat	-11.8984
▁modif	-11.8985
▁perk	-11.8991
▁tweet	-11.8994
iii	-11.8998
▁depart	-11.8998
▁admir	-11.9
ground	-11.9003
▁annoy	-11.9005
▁bean	-11.9009
▁choos	-11.9011
empo	-11.9012
▁chok	-11.9014
▁trem	-11.9019
itary	-11.902
illed	-11.9021
▁term	-11.9021
city	-11.9023
▁orchestrat	-11.9027
father	-11.9031
mother	-11.9031
basa	-11.9031
▁escap	-11.9032
▁regain	-11.9035
▁commenc	-11.9036
foot	-11.9037
path	-11.9038
▁interfer	-11.9038
▁convict	-11.9039
predictable	-11.9039
liberate	-11.9039
▁bluff	-11.904
field	-11.904
▁applaud	-11.9042
piece	-11.9043
frequen	-11.9044
word	-11.9044
gorge	-11.9045
heart	-11.9045
degree	-11.9046
▁tortur	-11.9046
lord	-11.9047
round	-11.9047
script	-11.9047
▁accord	-11.9047
reliable	-11.9047
product	-11.9047
cloth	-11.9048
activate	-11.9048
▁architect	-11.9048
grudge	-11.9048
▁iraq	-11.9049
stroke	-11.9049
ugging	-11.9049
appropriate	-11.905
media	-11.905
hunting	-11.905
together	-11.905
active	-11.9051
world	-11.9051
front	-11.9051
▁blindfold	-11.9051
pound	-11.9051
secret	-11.9051
finished	-11.9051
month	-11.9051
horse	-11.9051
▁manufactur	-11.9051
winning	-11.9051
killer	-11.9051
control	-11.9052
death	-11.9052
course	-11.9052
okay	-11.9052
husband	-11.9052
▁promis	-11.9053
bean	-11.9053
check	-11.9053
took	-11.9053
wanted	-11.9053
market	-11.9053
office	-11.9054
▁appoint	-11.9054
glen	-11.9055
▁thrill	-11.9055
▁float	-11.9055
speaker	-11.9056
▁obsess	-11.9056
neck	-11.9056
national	-11.9056
▁intimidat	-11.9057
▁bub	-11.9057
maid	-11.9057
tub	-11.9057
▁condemn	-11.9058
armed	-11.9058
shape	-11.9059
seeing	-11.9059
million	-11.9059
earn	-11.9059
issue	-11.906
making	-11.906
▁banish	-11.9061
meter	-11.9061
cold	-11.9061
sites	-11.9062
legal	-11.9062
box	-11.9063
mill	-11.9063
▁leftfoot	-11.9064
string	-11.9066
▁seduce	-11.9066
▁delinquen	-11.9067
cious	-11.9067
▁react	-11.9067
▁sustain	-11.9067
credit	-11.9068
tight	-11.9069
▁rabbi	-11.9069
paid	-11.9069
▁conclude	-11.9069
▁initiate	-11.9069
shit	-11.907
▁decline	-11.907
▁destin	-11.907
bug	-11.9071
▁wail	-11.9072
▁murph	-11.9072
ecture	-11.9072
centr	-11.9072
mond	-11.9072
▁stra	-11.9073
▁influen	-11.9073
escent	-11.9074
▁gravit	-11.9075
ctica	-11.9075
▁entit	-11.9075
▁legac	-11.9076
▁felon	-11.9076
▁curl	-11.9077
▁awaken	-11.9077
bomb	-11.9078
▁interfere	-11.9079
▁amaze	-11.9079
cast	-11.9079
held	-11.9079
▁precise	-11.9079
▁descend	-11.9079
sylv	-11.908
▁suz	-11.9081
bore	-11.9081
guar	-11.9082
▁humbl	-11.9083
▁hungries	-11.9083
▁shou	-11.9083
▁turin	-11.9084
▁withdraw	-11.9084
▁inventor	-11.9084
rose	-11.9085
▁brillian	-11.9085
colo	-11.9085
▁investigati	-11.9085
▁discipl	-11.9085
ject	-11.9086
▁spec	-11.9087
▁forni	-11.9087
▁should	-11.9087
▁exhal	-11.9087
▁villa	-11.9088
▁compensat	-11.9088
▁everythin	-11.9088
oids	-11.9088
▁inspect	-11.9088
▁communicat	-11.9089
▁contribut	-11.9089
▁isla	-11.9089
▁isolat	-11.9089
▁congress	-11.9089
▁helen	-11.9089
nounce	-11.9089
▁refresh	-11.9089
▁hasid	-11.9089
▁givin	-11.9089
▁chasin	-11.9089
▁civi	-11.9089
▁premed	-11.909
volved	-11.909
▁marshal	-11.909
▁chemist	-11.909
▁cri	-11.909
dential	-11.909
▁magnifi	-11.909
▁turd	-11.909
igation	-11.909
▁triumph	-11.9091
▁psychiatr	-11.9091
gori	-11.9091
azzle	-11.9091
mises	-11.9091
▁ancestr	-11.9091
scription	-11.9091
▁industr	-11.9091
rection	-11.9091
wick	-11.9091
▁cynthia	-11.9091
▁gratitude	-11.9091
ianwifefindercom	-11.9091
incarnated	-11.9091
voodoo	-11.9091
▁adjourn	-11.9091
▁adrianna	-11.9091
▁advisor	-11.9091
▁aggravat	-11.9091
▁algorithm	-11.9091
▁aligned	-11.9091
▁amalgamated	-11.9091
▁amendments	-11.9091
▁amplifie	-11.9091
▁analysis	-11.9091
▁analyze	-11.9091
▁antiquity	-11.9091
▁anxiety	-11.9091
▁apparition	-11.9091
▁artifact	-11.9091
▁assembly	-11.9091
▁assouan	-11.9091
▁athena	-11.9091
▁atmosphere	-11.9091
▁auxiliary	-11.9091
▁baghdad	-11.9091
▁bahamas	-11.9091
▁bambi	-11.9091
▁baptized	-11.9091
▁bazooka	-11.9091
▁belladonna	-11.9091
▁bendix	-11.9091
▁billingsley	-11.9091
▁birkenstock	-11.9091
▁blunt	-11.9091
▁bogart	-11.9091
▁bonfire	-11.9091
▁boogity	-11.9091
▁boundaries	-11.9091
▁bouquet	-11.9091
▁branson	-11.9091
▁brenda	-11.9091
▁buccaneer	-11.9091
▁calligraphy	-11.9091
▁cartwheel	-11.9091
▁cataclysm	-11.9091
▁caviar	-11.9091
▁ceiling	-11.9091
▁cellulite	-11.9091
▁chandelier	-11.9091
▁chauffeur	-11.9091
▁chelsea	-11.9091
▁chimpanzee	-11.9091
▁christopher	-11.9091
▁chucheong	-11.9091
▁cinema	-11.9091
▁cockpit	-11.9091
▁coconut	-11.9091
▁commuter	-11.9091
▁compel	-11.9091
▁complement	-11.9091
▁composer	-11.9091
▁concur	-11.9091
▁contingency	-11.9091
▁convincing	-11.9091
▁corridor	-11.9091
▁covid	-11.9091
▁craig	-11.9091
▁daydream	-11.9091
▁decaf	-11.9091
▁decimate	-11.9091
▁deluca	-11.9091
▁deluxe	-11.9091
▁demise	-11.9091
▁derelict	-11.9091
▁detroit	-11.9091
▁dishonest	-11.9091
▁doorknob	-11.9091
▁ducati	-11.9091
▁einstein	-11.9091
▁electromagnet	-11.9091
▁elegant	-11.9091
▁elusive	-11.9091
▁embroider	-11.9091
▁encryption	-11.9091
▁endangerment	-11.9091
▁entrancing	-11.9091
▁epidemic	-11.9091
▁eradicate	-11.9091
▁erickson	-11.9091
▁exhibit	-11.9091
▁exorcise	-11.9091
▁explicit	-11.9091
▁exploding	-11.9091
▁exploit	-11.9091
▁exquisite	-11.9091
▁external	-11.9091
▁fairbanks	-11.9091
▁fairchild	-11.9091
▁feathers	-11.9091
▁flailing	-11.9091
▁fodder	-11.9091
▁fontanez	-11.9091
▁fortunate	-11.9091
▁frazier	-11.9091
▁furnace	-11.9091
▁gabbe	-11.9091
▁galactic	-11.9091
▁galveston	-11.9091
▁gcpd	-11.9091
▁gertie	-11.9091
▁gingerbread	-11.9091
▁graverobber	-11.9091
▁greaves	-11.9091
▁guillotine	-11.9091
▁gurgling	-11.9091
▁hallucinogen	-11.9091
▁happiest	-11.9091
▁harlem	-11.9091
▁headmistress	-11.9091
▁heiio	-11.9091
▁hepburn	-11.9091
▁heritage	-11.9091
▁herpes	-11.9091
▁holliday	-11.9091
▁hurricane	-11.9091
▁huskers	-11.9091
▁hydraulic	-11.9091
▁hygiene	-11.9091
▁hypnotize	-11.9091
▁improving	-11.9091
▁inconsiderate	-11.9091
▁indefinite	-11.9091
▁indestructible	-11.9091
▁infidel	-11.9091
▁infirmary	-11.9091
▁injun	-11.9091
▁injustice	-11.9091
▁inspiring	-11.9091
▁involving	-11.9091
▁itinerary	-11.9091
▁jacuzzi	-11.9091
▁junkyard	-11.9091
▁jurassic	-11.9091
▁kanjiklub	-11.9091
▁kegel	-11.9091
▁khrushchev	-11.9091
▁kilimanjaro	-11.9091
▁knoll	-11.9091
▁lacrosse	-11.9091
▁latrine	-11.9091
▁lucid	-11.9091
▁ludicrous	-11.9091
▁lunatic	-11.9091
▁luxury	-11.9091
▁mackenzie	-11.9091
▁maggot	-11.9091
▁malphus	-11.9091
▁marjorie	-11.9091
▁marvellous	-11.9091
▁massacre	-11.9091
▁masturbat	-11.9091
▁memorized	-11.9091
▁midwest	-11.9091
▁mohammed	-11.9091
▁mulfunction	-11.9091
▁nanobots	-11.9091
▁neglect	-11.9091
▁negotiable	-11.9091
▁nickleby	-11.9091
▁nijinsky	-11.9091
▁nitrate	-11.9091
▁nobility	-11.9091
▁nuisance	-11.9091
▁nutshell	-11.9091
▁obscure	-11.9091
▁offspring	-11.9091
▁olympics	-11.9091
▁orchid	-11.9091
▁ornithopter	-11.9091
▁outnumber	-11.9091
▁overseas	-11.9091
▁paprika	-11.9091
▁parachute	-11.9091
▁paramedic	-11.9091
▁parchment	-11.9091
▁participants	-11.9091
▁peanut	-11.9091
▁perceptive	-11.9091
▁perseverance	-11.9091
▁phew	-11.9091
▁phoenix	-11.9091
▁piazza	-11.9091
▁pittsburgh	-11.9091
▁platter	-11.9091
▁possibility	-11.9091
▁predator	-11.9091
▁preposterous	-11.9091
▁prettier	-11.9091
▁privilege	-11.9091
▁puppies	-11.9091
▁rabban	-11.9091
▁racketeering	-11.9091
▁rambling	-11.9091
▁razor	-11.9091
▁recipient	-11.9091
▁reciprocal	-11.9091
▁relentless	-11.9091
▁retaliate	-11.9091
▁retaliation	-11.9091
▁riggleman	-11.9091
▁rodrig	-11.9091
▁rosalind	-11.9091
▁sarcasm	-11.9091
▁sausage	-11.9091
▁schuyler	-11.9091
▁shenanigans	-11.9091
▁shook	-11.9091
▁shrlek	-11.9091
▁siblings	-11.9091
▁simpson	-11.9091
▁sinatra	-11.9091
▁smuggled	-11.9091
▁smuggler	-11.9091
▁sniper	-11.9091
▁soiree	-11.9091
▁sombre	-11.9091
▁souvenir	-11.9091
▁sovereign	-11.9091
▁spaghetti	-11.9091
▁spalko	-11.9091
▁splendid	-11.9091
▁squids	-11.9091
▁stinchfield	-11.9091
▁stuart	-11.9091
▁suffice	-11.9091
▁superstition	-11.9091
▁surprisingly	-11.9091
▁sweatshirt	-11.9091
▁symphony	-11.9091
▁syndicate	-11.9091
▁tardiness	-11.9091
▁tarzan	-11.9091
▁temporarily	-11.9091
▁terrifying	-11.9091
▁theatre	-11.9091
▁threequarter	-11.9091
▁toothbrush	-11.9091
▁treason	-11.9091
▁trifle	-11.9091
▁tutelage	-11.9091
▁twitter	-11.9091
▁unbearable	-11.9091
▁unemployed	-11.9091
▁unexp	-11.9091
▁ungrateful	-11.9091
▁unstoppable	-11.9091
▁unthinkable	-11.9091
▁urging	-11.9091
▁uterus	-11.9091
▁utiliz	-11.9091
▁valhalla	-11.9091
▁vendetta	-11.9091
▁vigil	-11.9091
▁violin	-11.9091
▁whichever	-11.9091
▁worthwhile	-11.9091
▁wreak	-11.9091
▁youtube	-11.9091
▁zeroknot	-11.9091
▁zigzag	-11.9091
▁zodiac	-11.9091
▁aerobic	-11.9091
▁alonso	-11.9091
▁cautious	-11.9091
▁gleam	-11.9091
▁kebbel	-11.9091
▁malaise	-11.9091
▁mutual	-11.9091
▁pinecone	-11.9091
▁proportion	-11.9091
▁sculpt	-11.9091
▁strategi	-11.9091
mutilat	-11.9091
▁beatrice	-11.9091
▁beneath	-11.9091
▁bulb	-11.9091
▁clacking	-11.9091
▁clarify	-11.9091
▁dutton	-11.9091
▁enchant	-11.9091
▁extradite	-11.9091
▁figurative	-11.9091
▁gasoline	-11.9091
▁guild	-11.9091
▁gumshoe	-11.9091
▁intersect	-11.9091
▁intro	-11.9091
▁kgb	-11.9091
▁livestock	-11.9091
▁longhorn	-11.9091
▁lynch	-11.9091
▁oyster	-11.9091
▁placing	-11.9091
▁plutt	-11.9091
▁polack	-11.9091
▁postcard	-11.9091
▁ralph	-11.9091
▁skank	-11.9091
▁stool	-11.9091
▁strawberries	-11.9091
▁swamp	-11.9091
▁sympathize	-11.9091
▁torque	-11.9091
▁aggression	-11.9092
▁auditorium	-11.9092
▁clarinet	-11.9092
▁comply	-11.9092
▁controvers	-11.9092
▁fidel	-11.9092
▁geller	-11.9092
▁horror	-11.9092
▁loeb	-11.9092
▁ninth	-11.9092
▁noisy	-11.9092
▁plasma	-11.9092
▁preservati	-11.9092
▁rendered	-11.9092
▁robbers	-11.9092
▁salvage	-11.9092
▁sellsword	-11.9092
▁stockholder	-11.9092
▁stroll	-11.9092
▁aaaa	-11.9092
▁administrat	-11.9092
▁buddhis	-11.9092
▁cinna	-11.9092
▁corpsman	-11.9092
▁juror	-11.9092
▁rascal	-11.9092
▁tigre	-11.9092
▁tranquil	-11.9092
▁volcan	-11.9092
▁womb	-11.9092
▁advers	-11.9092
▁altar	-11.9092
▁buoy	-11.9092
▁cadet	-11.9092
▁impropriety	-11.9092
▁molded	-11.9092
▁perimeter	-11.9092
▁purgatory	-11.9092
▁rochelle	-11.9092
ghorn	-11.9092
▁gallows	-11.9092
▁gimbels	-11.9092
▁gunfighter	-11.9092
▁sentinel	-11.9092
▁ricard	-11.9092
▁spani	-11.9092
▁testament	-11.9092
pulsion	-11.9092
▁blurr	-11.9092
▁economy	-11.9092
▁margin	-11.9092
▁merit	-11.9092
▁neighbourhood	-11.9092
▁neurons	-11.9092
▁torment	-11.9092
▁badmouthing	-11.9092
▁bernstein	-11.9092
▁examined	-11.9092
heimer	-11.9092
imental	-11.9092
▁cripple	-11.9092
▁possum	-11.9092
▁yacht	-11.9092
▁cawing	-11.9092
▁oboe	-11.9092
▁panels	-11.9092
▁partially	-11.9092
▁poppycock	-11.9092
▁zebra	-11.9092
▁flopp	-11.9092
▁housekeeping	-11.9092
▁idaho	-11.9092
▁odor	-11.9092
▁oonagh	-11.9092
▁sermon	-11.9092
fabric	-11.9092
mistak	-11.9092
▁chrys	-11.9092
▁consumption	-11.9092
▁crook	-11.9092
▁marge	-11.9092
▁ransack	-11.9092
▁legislat	-11.9092
▁swayze	-11.9092
▁beginners	-11.9092
▁bridgett	-11.9092
▁mantoman	-11.9092
▁najee	-11.9092
▁weicome	-11.9092
▁bloodshed	-11.9092
▁forecast	-11.9092
▁buggy	-11.9092
▁narcotics	-11.9092
▁coloniz	-11.9092
▁spiral	-11.9092
▁thumbprint	-11.9092
▁abomination	-11.9092
▁barneys	-11.9092
▁laceration	-11.9092
▁precaution	-11.9092
▁volume	-11.9092
urag	-11.9092
▁narked	-11.9092
▁sorrow	-11.9092
▁sardin	-11.9092
▁steadily	-11.9092
▁disregard	-11.9092
▁mainstream	-11.9092
▁spinning	-11.9092
▁stairwell	-11.9092
▁titanium	-11.9092
▁tommysan	-11.9092
▁morgen	-11.9092
▁pillaged	-11.9092
rdie	-11.9092
▁barefoot	-11.9092
▁plunder	-11.9092
▁skateboard	-11.9092
▁conserv	-11.9092
▁canoe	-11.9092
▁giddy	-11.9092
▁funnel	-11.9092
▁jawlock	-11.9092
▁exgirlfriend	-11.9092
▁vicious	-11.9092
▁whittle	-11.9092
▁matara	-11.9092
▁toehold	-11.9092
▁dario	-11.9092
▁microwave	-11.9092
▁meticulous	-11.9092
▁bulgarian	-11.9092
▁giza	-11.9092
▁napkin	-11.9092
▁offworld	-11.9092
▁slouch	-11.9092
▁appease	-11.9092
▁lurk	-11.9092
▁metaphysical	-11.9092
▁minibar	-11.9092
▁webcam	-11.9092
jumbo	-11.9092
▁hurut	-11.9092
▁expelled	-11.9092
▁mustang	-11.9092
▁overthrow	-11.9092
▁referring	-11.9092
▁nudge	-11.9092
▁flattering	-11.9092
▁verdad	-11.9092
mperial	-11.9092
▁grain	-11.9092
▁magnify	-11.9092
▁mellow	-11.9092
▁karina	-11.9092
▁newcomer	-11.9092
▁contradict	-11.9092
▁flea	-11.9092
▁canister	-11.9092
▁drugstore	-11.9092
▁leverage	-11.9092
▁aura	-11.9092
▁heiress	-11.9092
▁benedict	-11.9092
▁dragonflies	-11.9092
▁kook	-11.9092
▁whatcha	-11.9092
▁clerk	-11.9092
▁blister	-11.9092
▁overheard	-11.9092
▁receptionist	-11.9092
▁scept	-11.9092
▁thirtyseven	-11.9092
▁bruno	-11.9092
▁columbus	-11.9092
▁plantain	-11.9092
▁arlin	-11.9092
▁reconnect	-11.9092
▁fantasies	-11.9092
▁worshipping	-11.9092
▁croak	-11.9092
▁hermi	-11.9092
▁whipped	-11.9092
▁snorting	-11.9092
▁default	-11.9092
▁fireworks	-11.9092
▁ignition	-11.9092
▁psychology	-11.9092
▁crybaby	-11.9092
▁oscar	-11.9092
▁chump	-11.9092
▁levitch	-11.9092
▁slade	-11.9092
▁beemer	-11.9092
▁voyage	-11.9092
▁jeopardi	-11.9092
▁tori	-11.9092
▁cavalry	-11.9092
▁ernie	-11.9092
▁banned	-11.9092
▁prescription	-11.9092
▁meadow	-11.9092
▁saud	-11.9092
▁plugged	-11.9092
▁psychiatrist	-11.9092
▁whatwhat	-11.9092
appro	-11.9093
▁bloke	-11.9093
▁subtle	-11.9093
▁acid	-11.9093
▁debbie	-11.9093
▁activi	-11.9093
▁papi	-11.9093
▁panties	-11.9093
▁emptiness	-11.9093
▁grievance	-11.9093
▁calais	-11.9093
▁esther	-11.9093
▁sinned	-11.9093
▁hallucinating	-11.9093
▁headlines	-11.9093
avier	-11.9093
▁fatima	-11.9093
▁moses	-11.9093
▁turdis	-11.9093
▁mambo	-11.9093
▁overcoat	-11.9093
▁gender	-11.9093
▁sarge	-11.9093
▁strait	-11.9093
▁cupcake	-11.9093
▁outcome	-11.9093
▁pollut	-11.9093
▁vertical	-11.9093
▁infern	-11.9093
▁volts	-11.9093
▁dojo	-11.9093
▁inhuman	-11.9093
ouette	-11.9093
▁sumia	-11.9093
▁temptation	-11.9093
▁mtv	-11.9093
▁patter	-11.9093
▁hormones	-11.9093
▁sofa	-11.9093
▁dominating	-11.9093
▁rainbow	-11.9093
▁rooftop	-11.9093
▁heartbroken	-11.9093
▁russell	-11.9093
▁implie	-11.9093
▁azt	-11.9093
▁skate	-11.9093
▁wellbeing	-11.9093
▁brute	-11.9093
▁goggles	-11.9093
▁academic	-11.9093
▁trolley	-11.9093
▁youyou	-11.9093
▁crescent	-11.9093
▁efficient	-11.9093
▁morse	-11.9093
▁canteen	-11.9093
▁drummer	-11.9093
▁dumpster	-11.9093
onnais	-11.9093
▁buii	-11.9093
▁peck	-11.9093
▁studies	-11.9093
▁admiration	-11.9093
▁artery	-11.9093
▁whirs	-11.9093
▁micro	-11.9093
▁chron	-11.9093
▁distra	-11.9093
▁dislocated	-11.9093
▁yip	-11.9093
▁chlorate	-11.9094
▁firecracker	-11.9094
▁swipe	-11.9094
▁entra	-11.9094
▁henchm	-11.9094
▁meditation	-11.9094
▁shards	-11.9094
▁whack	-11.9094
▁composition	-11.9094
▁mcke	-11.9094
▁whiz	-11.9094
▁syne	-11.9094
▁mentos	-11.9094
verge	-11.9094
▁bennet	-11.9094
▁scorch	-11.9094
▁steward	-11.9094
▁drastic	-11.9094
▁plow	-11.9094
▁affectionate	-11.9094
▁yummy	-11.9094
▁cooperating	-11.9094
▁embarrassment	-11.9094
▁merchandise	-11.9094
▁pouch	-11.9094
ucci	-11.9094
▁caterer	-11.9094
▁dagger	-11.9094
▁dummy	-11.9094
▁dodi	-11.9094
▁manipulation	-11.9094
▁hasidic	-11.9094
▁overboard	-11.9095
▁dependable	-11.9095
▁journalist	-11.9095
▁lalala	-11.9095
▁sociolog	-11.9095
▁inspection	-11.9095
▁unrelated	-11.9095
▁criss	-11.9095
▁disappearance	-11.9095
▁flashback	-11.9095
▁implement	-11.9095
▁iris	-11.9095
▁titan	-11.9095
▁poppin	-11.9095
▁canary	-11.9095
▁poach	-11.9095
umbawa	-11.9095
quez	-11.9095
ilio	-11.9095
▁alvin	-11.9095
austr	-11.9095
▁oversee	-11.9095
▁eww	-11.9095
▁earphone	-11.9095
▁rabies	-11.9095
▁pickwick	-11.9095
udlin	-11.9095
▁lioness	-11.9095
▁ferries	-11.9095
▁lung	-11.9096
▁masterpiece	-11.9096
▁springtime	-11.9096
▁jackpot	-11.9096
phony	-11.9096
▁reflection	-11.9096
▁overall	-11.9096
▁invaders	-11.9096
▁valve	-11.9096
▁titty	-11.9096
▁jasmin	-11.9096
kan	-11.9096
▁fading	-11.9096
▁wildlife	-11.9096
▁fisherman	-11.9096
▁twinkie	-11.9096
▁priestley	-11.9096
▁haircut	-11.9096
▁tacks	-11.9096
▁flush	-11.9096
▁input	-11.9097
▁discount	-11.9097
▁devotion	-11.9097
▁ferryman	-11.9097
▁encouraged	-11.9097
▁enslaved	-11.9097
▁fascinated	-11.9097
▁mobilized	-11.9097
▁vaccinated	-11.9097
▁benevolent	-11.9097
▁contest	-11.9097
▁firebomb	-11.9097
▁skep	-11.9097
▁raci	-11.9097
▁detector	-11.9097
minate	-11.9097
▁furtherm	-11.9097
▁clone	-11.9097
▁selection	-11.9097
▁stormtrooper	-11.9097
▁trafficking	-11.9097
▁transition	-11.9097
▁marinate	-11.9097
▁yuet	-11.9097
▁retirement	-11.9098
▁navigat	-11.9098
▁rhythmically	-11.9098
▁huston	-11.9098
▁adoption	-11.9098
▁hick	-11.9098
▁alba	-11.9098
▁recognise	-11.9098
▁toxic	-11.9098
▁webb	-11.9098
▁meek	-11.9098
dog	-11.9098
▁irl	-11.9098
▁floorboard	-11.9098
▁adjustment	-11.9098
▁robot	-11.9098
wylie	-11.9098
▁stockings	-11.9099
▁schoolmate	-11.9099
▁scooter	-11.9099
▁susanne	-11.9099
▁frequen	-11.9099
▁heighten	-11.9099
▁heir	-11.9099
cadill	-11.9099
space	-11.9099
▁rathead	-11.9099
stand	-11.9099
▁faii	-11.9099
▁behold	-11.9099
▁requirement	-11.9099
▁baggage	-11.91
▁jolly	-11.91
▁beak	-11.91
▁certified	-11.91
▁stub	-11.91
uge	-11.91
▁paperwork	-11.91
▁highborn	-11.91
▁sidearm	-11.91
▁tamp	-11.9101
▁elmi	-11.9101
▁mush	-11.9101
▁greatnana	-11.9101
▁turing	-11.9101
▁waterfall	-11.9101
▁zie	-11.9101
▁tripped	-11.9101
▁jillian	-11.9101
▁feat	-11.9101
▁usher	-11.9101
▁yoda	-11.9102
slav	-11.9102
▁antonia	-11.9102
▁clueless	-11.9102
quench	-11.9102
▁currency	-11.9102
▁fathom	-11.9102
▁conscious	-11.9102
▁doodle	-11.9102
▁shtick	-11.9102
▁oj	-11.9102
▁frenzy	-11.9102
▁prophecy	-11.9102
▁greatgreat	-11.9102
▁petition	-11.9102
▁rump	-11.9103
▁thai	-11.9103
▁prodig	-11.9103
▁conspiring	-11.9103
▁courtroom	-11.9103
▁sketches	-11.9103
illion	-11.9103
▁substan	-11.9103
▁landmark	-11.9103
▁mobility	-11.9103
▁descendant	-11.9104
▁deport	-11.9104
▁eyeball	-11.9104
▁potent	-11.9104
▁incoming	-11.9104
bby	-11.9104
▁intruder	-11.9104
▁thems	-11.9104
▁bowel	-11.9104
▁geography	-11.9104
▁viable	-11.9105
▁preferred	-11.9105
▁epi	-11.9105
▁snare	-11.9105
▁thatthat	-11.9105
▁marvin	-11.9105
▁junkies	-11.9105
▁gutter	-11.9105
▁incest	-11.9105
▁investigated	-11.9105
▁promoted	-11.9105
▁harness	-11.9106
▁criticize	-11.9106
▁jaw	-11.9106
ington	-11.9106
▁voluntary	-11.9106
▁chickie	-11.9106
▁cooperate	-11.9106
▁breed	-11.9106
▁lube	-11.9106
▁mmmmm	-11.9106
scribe	-11.9107
▁chow	-11.9107
▁cashier	-11.9107
▁nathan	-11.9107
▁blackstone	-11.9107
▁chim	-11.9107
▁buen	-11.9107
▁socket	-11.9107
▁fester	-11.9108
▁aka	-11.9108
▁cosmo	-11.9108
▁dj	-11.9108
ohan	-11.9109
llery	-11.9109
▁suv	-11.9109
▁dried	-11.9109
▁eric	-11.9109
▁silo	-11.911
▁notch	-11.911
▁acqui	-11.911
▁bir	-11.911
▁tele	-11.911
▁condom	-11.9111
▁tablet	-11.9111
▁inventory	-11.9111
▁problematic	-11.9111
▁tourist	-11.9111
▁actresses	-11.9111
▁recit	-11.9111
▁richardson	-11.9111
▁independently	-11.9111
▁developer	-11.9112
▁cascad	-11.9112
▁meds	-11.9112
▁perish	-11.9112
▁erm	-11.9112
tage	-11.9112
▁maiden	-11.9113
▁jamie	-11.9113
▁harmless	-11.9113
spire	-11.9113
▁fatty	-11.9114
▁deez	-11.9114
▁persecuted	-11.9114
▁depraved	-11.9114
▁plastered	-11.9114
▁suspended	-11.9114
▁courtship	-11.9114
▁layout	-11.9114
▁duh	-11.9114
▁osi	-11.9114
▁midst	-11.9115
▁amazed	-11.9115
▁rundown	-11.9115
▁stance	-11.9115
▁thong	-11.9115
▁icy	-11.9116
▁polo	-11.9116
▁cozy	-11.9116
▁delinquent	-11.9116
▁losin	-11.9117
▁kiddin	-11.9117
▁turnip	-11.9117
▁pooper	-11.9117
▁tory	-11.9117
▁swan	-11.9117
▁fala	-11.9118
▁impu	-11.9118
▁pato	-11.9118
▁sharpen	-11.9119
▁bex	-11.9119
▁ine	-11.9119
▁abb	-11.9119
thian	-11.9119
▁impos	-11.912
▁closure	-11.912
▁dice	-11.912
▁leia	-11.912
stein	-11.9121
▁drago	-11.9121
▁vase	-11.9121
▁household	-11.9122
spect	-11.9122
▁commandment	-11.9122
▁mockingly	-11.9122
▁threepoint	-11.9123
▁motivate	-11.9123
▁taunting	-11.9123
▁immigration	-11.9123
▁laundering	-11.9123
▁implying	-11.9123
▁architectur	-11.9123
▁ballot	-11.9123
▁accusing	-11.9123
▁groove	-11.9123
▁bubbling	-11.9124
▁superman	-11.9124
ummies	-11.9124
▁heartbeat	-11.9124
mv	-11.9125
mmen	-11.9126
▁mentor	-11.9126
▁ideally	-11.9126
laria	-11.9126
nyi	-11.9127
hank	-11.9127
▁cere	-11.9127
▁appointed	-11.9128
▁thrilled	-11.9128
▁blindness	-11.9128
▁hippie	-11.9128
▁hideout	-11.913
▁hur	-11.913
▁ragged	-11.913
▁wat	-11.913
▁tucker	-11.913
▁picket	-11.9131
▁homeboy	-11.9132
▁jackass	-11.9132
▁frequent	-11.9132
▁herd	-11.9132
lsey	-11.9133
▁quad	-11.9133
▁exploded	-11.9133
▁amid	-11.9133
ument	-11.9133
▁pong	-11.9134
▁wwhat	-11.9134
▁mytho	-11.9134
▁losses	-11.9135
▁freighter	-11.9135
▁precedes	-11.9135
▁boba	-11.9136
▁chrissakes	-11.9136
▁seminoles	-11.9136
▁lumps	-11.9136
▁elf	-11.9136
▁crackers	-11.9137
▁recovery	-11.9138
▁bloodline	-11.9138
▁abr	-11.9138
▁realtor	-11.9138
▁verse	-11.9139
▁hustler	-11.9139
▁bern	-11.9139
▁pis	-11.914
▁risen	-11.914
▁medicin	-11.9141
▁eta	-11.9142
▁executed	-11.9142
mentation	-11.9143
▁educated	-11.9143
▁uncovered	-11.9143
▁wretched	-11.9143
▁bluffing	-11.9143
▁ditched	-11.9143
▁necktie	-11.9144
▁flex	-11.9144
breaking	-11.9144
▁silently	-11.9145
low	-11.9146
▁peeled	-11.9146
nah	-11.9148
▁reid	-11.9149
▁faceoff	-11.915
▁mous	-11.9152
▁dire	-11.9152
▁fellowes	-11.9153
▁manhood	-11.9154
▁scalpe	-11.9154
▁disrupted	-11.9157
▁accomplished	-11.9157
▁ambushed	-11.9157
▁derailed	-11.9157
▁satisfact	-11.9159
▁backbone	-11.9159
▁dolly	-11.916
▁purr	-11.9161
▁penal	-11.9162
▁violently	-11.9162
ctioned	-11.9162
▁hiring	-11.9163
▁limey	-11.9163
bad	-11.9164
▁ridin	-11.9165
▁cole	-11.9165
▁mature	-11.9165
▁christmases	-11.9166
▁padd	-11.9166
▁enjoyment	-11.9167
▁fable	-11.9168
▁bog	-11.9168
▁lapd	-11.917
▁proposed	-11.917
▁eighty	-11.917
▁severed	-11.917
▁yale	-11.917
limit	-11.917
▁ali	-11.9172
▁suppress	-11.9173
▁vor	-11.9173
lish	-11.9173
▁dement	-11.9175
nows	-11.9177
ncumbe	-11.9179
▁weatherly	-11.9179
▁tuned	-11.9179
aiiy	-11.9179
▁playoff	-11.918
▁tyre	-11.9181
▁chatterlng	-11.9183
▁devi	-11.9183
asion	-11.9184
▁leftover	-11.9184
▁continuing	-11.9185
▁disappointing	-11.9185
▁entertaining	-11.9185
▁hopeful	-11.9185
▁nur	-11.9185
holy	-11.9186
▁tang	-11.9187
▁defendant	-11.9187
▁choked	-11.9187
▁reviewed	-11.9187
nna	-11.9187
▁employed	-11.9188
▁blaz	-11.9189
sanitary	-11.9189
▁peeking	-11.9189
▁rollin	-11.9195
▁handful	-11.9197
wart	-11.9197
▁fasten	-11.92
▁victories	-11.9201
▁soaked	-11.9201
▁patched	-11.9202
▁your	-11.9204
▁swelling	-11.9205
▁volunteering	-11.9205
▁modifi	-11.9206
▁pointless	-11.9207
▁glori	-11.9207
▁pierce	-11.9209
▁turnout	-11.921
▁growin	-11.921
▁servers	-11.9213
▁cuddl	-11.9213
▁pedals	-11.9214
▁applicants	-11.9214
▁stillsuits	-11.9214
▁yawns	-11.9214
▁grownups	-11.9214
▁munies	-11.9214
▁monks	-11.9214
▁firearms	-11.9214
evolution	-11.9215
morph	-11.9215
▁humilit	-11.9217
tto	-11.9218
▁funded	-11.9219
▁ripe	-11.9219
▁admirer	-11.9223
▁badass	-11.9225
▁meowing	-11.9226
▁glowing	-11.9226
true	-11.9229
▁assaulted	-11.9231
▁brownies	-11.9233
▁croc	-11.9235
lery	-11.9235
▁yah	-11.9236
fuel	-11.9237
▁quarterly	-11.9238
▁sincere	-11.9238
▁provider	-11.9239
▁queer	-11.9239
rubbing	-11.9239
▁objection	-11.9242
▁publication	-11.9242
▁mistaken	-11.9243
▁smacked	-11.9246
▁forfeited	-11.9246
ussie	-11.9249
▁threatening	-11.925
▁burnt	-11.9253
▁golan	-11.9257
▁countin	-11.9261
hoohoo	-11.9262
▁engineered	-11.9267
▁briefing	-11.9268
▁startup	-11.9268
▁containing	-11.9268
ery	-11.927
▁amus	-11.927
▁celebrated	-11.9274
nova	-11.9274
▁attended	-11.9275
▁insulted	-11.9275
▁described	-11.9276
▁excitedly	-11.9276
▁dys	-11.9276
▁sunk	-11.9276
▁gunman	-11.9276
▁kissin	-11.9279
▁slacker	-11.9279
▁rexy	-11.9279
▁supporter	-11.928
▁buses	-11.9282
▁bosses	-11.9282
▁criticiz	-11.9284
scha	-11.9285
▁messes	-11.9286
▁flowing	-11.9288
▁imminent	-11.9288
▁bailed	-11.9291
▁reeks	-11.9294
▁thighs	-11.9294
▁bylaws	-11.9294
▁vovniks	-11.9294
▁shouted	-11.9294
▁peasants	-11.9295
ikes	-11.9295
ears	-11.9296
▁corp	-11.9298
▁teenagers	-11.9299
▁faked	-11.9303
▁canceled	-11.9305
▁schwi	-11.9311
atus	-11.9314
▁tablets	-11.9319
▁simpler	-11.9321
hasi	-11.9325
▁magn	-11.9327
▁dumping	-11.9331
▁seller	-11.9333
▁dy	-11.9339
▁latch	-11.9343
▁throwin	-11.9343
ista	-11.9344
▁unfold	-11.9344
▁thoughtful	-11.9345
▁irre	-11.9345
▁ale	-11.9349
weed	-11.9351
nos	-11.9353
▁matey	-11.9355
▁sparking	-11.9357
▁hardman	-11.9359
▁tracts	-11.9372
▁manny	-11.9373
▁bethy	-11.9373
▁admissions	-11.9376
▁items	-11.9376
▁autographs	-11.9376
▁villains	-11.9376
▁crows	-11.9376
▁cruiser	-11.9379
▁triggered	-11.938
▁outsider	-11.938
▁presently	-11.9388
▁hangin	-11.9391
▁cho	-11.9394
▁eaton	-11.9394
sang	-11.9405
▁bloom	-11.9405
graph	-11.9409
▁lax	-11.941
ouses	-11.9418
▁cork	-11.9418
▁understandable	-11.9419
▁thorn	-11.943
▁weaken	-11.9435
▁steering	-11.9436
▁payp	-11.9439
▁transferr	-11.9442
▁ital	-11.9444
▁blamed	-11.9445
▁crazies	-11.9445
▁wonderfully	-11.9449
▁wishin	-11.9451
▁robe	-11.9455
▁weeds	-11.9455
▁heels	-11.9457
▁dorms	-11.9457
▁candles	-11.9457
▁generators	-11.9457
▁yields	-11.9457
▁arkhams	-11.9457
▁arrangements	-11.9457
▁depths	-11.9457
▁shutters	-11.9458
▁proceeding	-11.9458
▁nazis	-11.9458
▁takeoff	-11.9461
kus	-11.9466
▁mills	-11.9468
▁sneaker	-11.9469
▁rotat	-11.947
▁breakin	-11.9472
▁invers	-11.9472
▁trig	-11.9476
▁eatin	-11.9486
▁sil	-11.949
wee	-11.9495
▁shelly	-11.9497
▁observe	-11.9498
▁goodby	-11.95
▁cala	-11.9502
▁ahi	-11.9515
▁cones	-11.9516
chiroptera	-11.9518
ogram	-11.9519
hered	-11.9521
▁lian	-11.9525
▁awaits	-11.953
vard	-11.953
neapoli	-11.9533
osexual	-11.9536
▁tickles	-11.9536
▁matthews	-11.954
▁tattoos	-11.954
▁bracelets	-11.954
▁assignments	-11.9541
▁fores	-11.9553
▁flames	-11.9554
▁nonono	-11.956
▁bor	-11.9561
rich	-11.9568
▁summ	-11.9585
▁contr	-11.9586
veil	-11.9588
▁clinical	-11.9589
ders	-11.9592
zed	-11.9598
from	-11.9601
▁bandage	-11.9608
▁norw	-11.9615
▁warrants	-11.9623
▁slaves	-11.9623
▁cer	-11.9625
▁pressed	-11.9625
fund	-11.9633
▁shredde	-11.9634
▁kiddie	-11.9636
▁rand	-11.9645
▁spl	-11.9652
▁cello	-11.9653
bed	-11.9656
▁startin	-11.966
▁continued	-11.9661
rock	-11.9664
▁baz	-11.9677
▁marketing	-11.9694
▁cul	-11.9702
▁leathers	-11.9706
▁benefits	-11.9706
▁rikers	-11.9706
▁riddles	-11.9707
▁classics	-11.9707
▁askin	-11.9711
▁americano	-11.9711
▁worshippe	-11.9712
▁smoker	-11.9713
▁hackers	-11.9713
▁listing	-11.9718
▁shal	-11.9721
llar	-11.9727
takes	-11.973
stained	-11.9732
unc	-11.975
boro	-11.975
there	-11.9757
▁ranks	-11.9758
▁farming	-11.9761
stray	-11.9772
dp	-11.9776
▁orcs	-11.9783
▁occasions	-11.9785
▁barb	-11.9785
▁buckets	-11.9791
ota	-11.9793
▁accountants	-11.9794
alogue	-11.9796
▁overlook	-11.9804
▁fees	-11.9805
▁repl	-11.9811
▁gaz	-11.9818
▁bagg	-11.9826
▁eater	-11.9842
▁shatters	-11.9857
▁reminding	-11.9863
▁muc	-11.9863
poli	-11.9865
▁restaurants	-11.9875
▁operators	-11.9875
▁flags	-11.9875
▁hooker	-11.9875
tapped	-11.9895
▁we	-11.9896
▁duca	-11.9905
licate	-11.9912
ently	-11.9918
hel	-11.9921
▁stifl	-11.9927
▁naive	-11.9936
▁dissect	-11.9946
▁ari	-11.9951
tonic	-11.9955
▁overla	-11.9956
▁unsettl	-11.997
step	-11.9988
▁patroll	-12
▁naz	-12.0022
key	-12.0025
▁nata	-12.0037
uction	-12.0069
▁bun	-12.0071
▁youthful	-12.0087
▁timers	-12.0107
bel	-12.0111
▁submitt	-12.0112
oulder	-12.0116
▁runt	-12.0133
▁rag	-12.0152
lore	-12.0153
▁eligib	-12.0153
fill	-12.0159
▁gail	-12.021
caster	-12.0223
ros	-12.0227
linsk	-12.027
▁hellion	-12.0284
stice	-12.0289
dency	-12.031
▁clemen	-12.0325
▁sites	-12.0375
▁incorporate	-12.0384
ause	-12.0416
▁chatt	-12.0459
▁specialize	-12.0477
cusp	-12.0513
ign	-12.0514
aux	-12.0525
▁lure	-12.0531
▁aro	-12.0544
ima	-12.0544
othy	-12.0567
▁traumati	-12.0577
hyd	-12.0585
maryland	-12.0601
hamp	-12.0625
▁infiltrat	-12.0631
war	-12.0639
▁shuffl	-12.0649
crumb	-12.0656
▁wal	-12.0661
ema	-12.0676
▁prioriti	-12.0681
▁waitin	-12.0702
▁practise	-12.0708
▁exercis	-12.0736
▁flatte	-12.074
▁plague	-12.0749
fore	-12.0788
wo	-12.079
▁boul	-12.0794
▁capita	-12.0797
▁elde	-12.0806
▁avenge	-12.0826
▁calculate	-12.085
▁arr	-12.085
▁frantic	-12.0882
▁allergi	-12.0897
ossier	-12.0933
▁wea	-12.0948
▁vira	-12.0958
▁fin	-12.0999
▁jar	-12.1001
▁defian	-12.1004
ndi	-12.1055
anna	-12.1078
▁indig	-12.1106
▁dul	-12.1107
fy	-12.1155
▁missionar	-12.116
▁papp	-12.1162
▁vet	-12.1167
▁measur	-12.12
▁endur	-12.1226
gon	-12.1229
▁chor	-12.1239
▁meditat	-12.1336
▁judgmental	-12.1354
▁insider	-12.138
four	-12.1424
have	-12.1451
erton	-12.1453
rent	-12.1462
then	-12.1465
eating	-12.149
ige	-12.1491
tribution	-12.1513
tribute	-12.1518
appy	-12.152
▁scratche	-12.157
eck	-12.1603
▁sham	-12.1677
▁blentle	-12.1689
▁moss	-12.1711
▁stag	-12.1722
cio	-12.1734
▁contro	-12.1743
rity	-12.1745
rep	-12.1746
umbling	-12.1762
ann	-12.1766
▁allo	-12.1772
ift	-12.1781
▁poo	-12.1782
▁metropoli	-12.1785
ury	-12.1788
dadada	-12.1788
location	-12.1792
▁jan	-12.1817
▁format	-12.1836
aby	-12.1842
supportive	-12.1864
unda	-12.1865
tia	-12.1881
▁denis	-12.1883
lato	-12.1893
antic	-12.1905
chord	-12.1907
▁fai	-12.1925
ocio	-12.1966
▁shuffle	-12.197
aden	-12.1988
▁infiltrate	-12.1989
▁pota	-12.2059
▁justi	-12.2067
fulness	-12.2071
▁cheerful	-12.2093
▁consum	-12.2097
▁shir	-12.21
chester	-12.2119
rand	-12.2124
dated	-12.2158
▁slic	-12.2167
▁farthe	-12.2197
memor	-12.2219
ylo	-12.222
▁marksman	-12.2235
lp	-12.2256
mate	-12.2266
▁gua	-12.2272
▁tro	-12.2307
table	-12.2343
fax	-12.2344
pose	-12.2381
disposed	-12.2394
▁baa	-12.2401
▁concentrat	-12.2412
▁clu	-12.2413
▁commun	-12.246
nking	-12.2515
ulate	-12.2524
bow	-12.2533
▁pac	-12.2542
▁clau	-12.2552
▁fest	-12.2554
▁argu	-12.2615
ooter	-12.262
tract	-12.2663
ipper	-12.267
ition	-12.2711
lox	-12.2744
▁sava	-12.2766
dio	-12.2782
section	-12.2791
bbed	-12.2864
▁yyou	-12.2949
dressed	-12.2976
▁socializ	-12.2983
roo	-12.3001
nned	-12.3004
documented	-12.3012
allout	-12.3042
▁have	-12.3061
han	-12.3075
jer	-12.3087
arden	-12.3089
▁lefthand	-12.3096
ocus	-12.3103
minus	-12.3108
▁undo	-12.3117
bon	-12.3128
▁chal	-12.3137
ouri	-12.3163
stac	-12.3164
under	-12.3168
▁cont	-12.3186
▁bio	-12.3198
▁neuro	-12.3199
rator	-12.3219
▁mop	-12.3259
▁unde	-12.3267
icie	-12.3297
hoven	-12.3323
agement	-12.3334
▁tippi	-12.3349
asy	-12.337
ittie	-12.3376
▁asia	-12.3376
iotic	-12.3378
▁recon	-12.3384
they	-12.3402
ple	-12.341
▁havin	-12.3411
rk	-12.3414
gram	-12.3428
▁commend	-12.343
wish	-12.3435
pul	-12.3454
▁slime	-12.3477
eline	-12.3484
▁bik	-12.3495
hmm	-12.3502
ptuous	-12.3509
▁seaman	-12.3513
▁pose	-12.3519
pi	-12.3535
flies	-12.3542
▁indi	-12.3543
docks	-12.3556
▁kh	-12.358
▁rul	-12.3594
▁cana	-12.3604
▁bloomin	-12.3608
▁medi	-12.3608
issi	-12.3622
▁vali	-12.3641
▁quant	-12.3668
folding	-12.3703
▁quittin	-12.3703
▁robes	-12.3708
fat	-12.3776
nity	-12.378
rific	-12.3784
cture	-12.3788
tive	-12.3796
▁soot	-12.3802
ode	-12.3805
ith	-12.3826
lored	-12.3834
etz	-12.3835
nia	-12.3838
bid	-12.3855
▁creak	-12.3875
ntag	-12.3882
▁untr	-12.3882
pulses	-12.3888
▁moan	-12.3891
▁bree	-12.3892
▁applicant	-12.3894
▁stillsuit	-12.3895
▁pedal	-12.3896
▁munie	-12.3896
▁sneez	-12.3899
▁roar	-12.3902
▁chrysanthemum	-12.3903
▁crawdad	-12.3903
▁kilo	-12.3903
▁yawn	-12.3905
igning	-12.3906
▁bugger	-12.3907
▁reserve	-12.3908
tched	-12.3908
▁earring	-12.3909
▁laptop	-12.3909
▁dw	-12.391
▁resident	-12.391
▁skiff	-12.391
ivan	-12.391
▁ingredient	-12.3911
▁fingerprint	-12.3916
▁monk	-12.3917
▁firearm	-12.3917
▁brownie	-12.3918
▁grownup	-12.3919
▁ghostbuster	-12.3919
▁knick	-12.392
▁instruction	-12.3923
grant	-12.3927
ddling	-12.3938
omat	-12.3939
▁accus	-12.394
▁aut	-12.3944
▁chime	-12.3949
▁vein	-12.395
▁bubbl	-12.3958
▁publish	-12.396
▁stud	-12.3965
lation	-12.3966
monia	-12.3971
eater	-12.3972
▁beet	-12.3973
▁sancti	-12.3977
▁announc	-12.3981
ddle	-12.3991
watch	-12.3996
▁activat	-12.3997
▁rav	-12.3998
dick	-12.3998
eatable	-12.4004
lift	-12.4004
▁expos	-12.4009
▁manag	-12.4011
▁strap	-12.4014
aciously	-12.4015
ratic	-12.4015
▁intensi	-12.4017
▁equi	-12.4018
▁atti	-12.4019
▁freight	-12.4022
evense	-12.4023
when	-12.4025
kels	-12.4028
▁extravagan	-12.4029
▁charg	-12.403
▁overdo	-12.4031
daughter	-12.4032
base	-12.4034
style	-12.4034
great	-12.4034
▁connecti	-12.4036
fianc	-12.4036
relevant	-12.404
inflict	-12.404
employment	-12.404
where	-12.404
speak	-12.4041
worth	-12.4041
▁cram	-12.4042
▁taunt	-12.4042
related	-12.4043
walk	-12.4044
cycle	-12.4044
q	-12.4044
soaked	-12.4044
educated	-12.4044
closure	-12.4045
▁crank	-12.4045
▁stunn	-12.4045
▁snarl	-12.4046
▁launder	-12.4046
natural	-12.4046
minded	-12.4046
exist	-12.4046
abilities	-12.4047
faithful	-12.4047
temper	-12.4047
smith	-12.4047
▁disgust	-12.4048
intention	-12.4048
▁chic	-12.4048
▁clamor	-12.4048
barge	-12.4048
screen	-12.4048
▁sobb	-12.4048
▁humiliat	-12.4048
mission	-12.4048
pipe	-12.4048
devil	-12.4048
judged	-12.4049
profile	-12.4049
phrase	-12.4049
▁imply	-12.4049
wired	-12.4049
vampire	-12.4049
buster	-12.4049
water	-12.4049
attractive	-12.4049
hhhey	-12.405
protected	-12.405
wash	-12.405
▁educat	-12.405
cliff	-12.405
maker	-12.405
shelf	-12.405
fried	-12.405
cross	-12.405
inspired	-12.405
brief	-12.405
paste	-12.4051
weather	-12.4051
slept	-12.4051
storm	-12.4051
kissing	-12.4051
▁instruct	-12.4051
temple	-12.4051
balance	-12.4051
revving	-12.4051
scale	-12.4051
military	-12.4051
eagle	-12.4051
grandma	-12.4051
shadow	-12.4051
driver	-12.4051
focused	-12.4052
found	-12.4052
beck	-12.4052
noticed	-12.4052
average	-12.4052
certain	-12.4052
defense	-12.4052
girl	-12.4052
duty	-12.4052
country	-12.4052
married	-12.4052
white	-12.4052
ntern	-12.4052
crazy	-12.4052
stuff	-12.4052
movie	-12.4052
wrong	-12.4052
something	-12.4052
believe	-12.4052
three	-12.4052
shift	-12.4053
athens	-12.4053
basket	-12.4053
▁hipp	-12.4053
safe	-12.4054
brew	-12.4054
jacks	-12.4054
flying	-12.4054
needed	-12.4055
copy	-12.4055
▁deprav	-12.4055
▁suspend	-12.4055
▁persecut	-12.4055
▁retrac	-12.4056
decent	-12.4056
ianna	-12.4056
therapy	-12.4056
▁plaster	-12.4056
▁brea	-12.4057
cause	-12.4058
reality	-12.4058
sighted	-12.4059
▁humm	-12.4059
baby	-12.4059
argh	-12.4059
second	-12.4059
▁colour	-12.406
wwhat	-12.406
topic	-12.406
vice	-12.406
flower	-12.406
adin	-12.4061
paul	-12.4061
human	-12.4061
tif	-12.4062
▁regard	-12.4062
cock	-12.4062
force	-12.4062
heard	-12.4062
▁invo	-12.4063
loyd	-12.4064
▁feei	-12.4064
handle	-12.4064
winkle	-12.4064
engage	-12.4065
▁assign	-12.4066
fast	-12.4066
▁evaluate	-12.4066
cool	-12.4066
altitude	-12.4067
lick	-12.4068
▁venti	-12.4069
▁investigate	-12.4069
▁promote	-12.4071
▁confuse	-12.4072
▁regulat	-12.4072
▁choreograph	-12.4072
▁treacher	-12.4072
▁celebrit	-12.4072
▁doom	-12.4072
pile	-12.4073
▁injure	-12.4073
▁rehears	-12.4073
▁donate	-12.4074
blo	-12.4074
pressor	-12.4074
▁frenz	-12.4074
▁prophec	-12.4074
▁obligat	-12.4075
▁snoop	-12.4075
▁sup	-12.4076
▁laundr	-12.4076
▁hysterical	-12.4076
▁stead	-12.4076
▁melanchol	-12.4076
help	-12.4076
▁responsibilit	-12.4076
▁abig	-12.4077
▁nobod	-12.4077
▁programme	-12.4077
teen	-12.4077
▁swift	-12.4077
▁glob	-12.4077
cade	-12.4077
▁scann	-12.4078
▁pizz	-12.4078
▁qualit	-12.4078
▁exile	-12.4079
ctur	-12.4079
▁heeee	-12.4079
▁numb	-12.4079
template	-12.408
▁wond	-12.408
▁extraordinar	-12.408
▁scoot	-12.408
▁sensitiv	-12.408
▁unlik	-12.408
▁paradis	-12.408
hour	-12.4081
▁potter	-12.4081
▁preten	-12.4081
enched	-12.4082
based	-12.4082
▁identit	-12.4082
▁detonat	-12.4083
gruntl	-12.4083
▁sensation	-12.4083
▁scatt	-12.4084
▁benevolen	-12.4084
quire	-12.4084
▁mute	-12.4084
gya	-12.4084
▁bourge	-12.4084
▁battl	-12.4085
▁australia	-12.4085
▁why	-12.4085
▁ferri	-12.4085
audl	-12.4086
▁colombia	-12.4086
▁griffi	-12.4086
▁manipulati	-12.4087
▁elevat	-12.4087
▁stew	-12.4087
▁attenti	-12.4087
▁pompo	-12.4088
▁sca	-12.4088
uspicious	-12.4088
guard	-12.4088
tumble	-12.4088
▁deflect	-12.4088
financi	-12.4088
▁evasi	-12.4088
▁construct	-12.4088
▁globetrott	-12.4089
▁expansi	-12.4089
▁dancin	-12.4089
▁drivin	-12.4089
▁differ	-12.4089
▁avail	-12.4089
▁nigh	-12.4089
quisitions	-12.4089
▁plannin	-12.4089
▁requi	-12.4089
▁stam	-12.4089
avers	-12.4089
▁hallucinati	-12.409
▁strauss	-12.409
▁initiati	-12.409
▁canno	-12.409
▁confusi	-12.409
easonable	-12.409
▁fascinati	-12.409
imony	-12.409
cussion	-12.409
ramatic	-12.409
nsions	-12.409
▁confide	-12.409
riving	-12.409
▁vehic	-12.409
migo	-12.409
▁perpet	-12.409
▁caval	-12.409
credible	-12.409
ndistinct	-12.409
▁empti	-12.409
ploy	-12.409
▁ordina	-12.409
▁histori	-12.409
▁urge	-12.409
▁enforce	-12.409
anthrop	-12.409
▁reception	-12.409
agmen	-12.4091
▁ascend	-12.4091
eopard	-12.4091
elina	-12.4091
▁acquaint	-12.4091
spatch	-12.4091
ldren	-12.4091
aunted	-12.4091
mercial	-12.4091
▁chlor	-12.4091
▁scholar	-12.4091
▁brig	-12.4091
ctor	-12.4091
eparation	-12.4091
ligence	-12.4091
rpent	-12.4091
▁tort	-12.4091
▁commod	-12.4091
▁neighbour	-12.4091
purgator	-12.4091
▁occur	-12.4091
▁oona	-12.4091
▁infinite	-12.4091
emorrh	-12.4091
▁circum	-12.4091
▁comprehensi	-12.4091
▁concocti	-12.4091
▁conquist	-12.4091
▁consequen	-12.4091
▁eavesdrop	-12.4091
▁equival	-12.4091
▁hhhhhhh	-12.4091
▁hypothe	-12.4091
▁interpret	-12.4091
▁irregular	-12.4091
▁resembl	-12.4091
▁soliloqu	-12.4091
▁temperament	-12.4091
admissible	-12.4091
greatgrandfather	-12.4091
hyphen	-12.4091
istophe	-12.4091
knocker	-12.4091
minimarshmallows	-12.4091
muz	-12.4091
obedience	-12.4091
vich	-12.4091
width	-12.4091
▁abbreviat	-12.4091
▁abducted	-12.4091
▁accumulat	-12.4091
▁accuracy	-12.4091
▁affiliat	-12.4091
▁afghan	-12.4091
▁airconditione	-12.4091
▁allegiance	-12.4091
▁almanac	-12.4091
▁anchovies	-12.4091
▁annabelle	-12.4091
▁annihilate	-12.4091
▁antiplastics	-12.4091
▁antiquities	-12.4091
▁appalled	-12.4091
▁applesauce	-12.4091
▁apprehend	-12.4091
▁aquarium	-12.4091
▁arbor	-12.4091
▁arigato	-12.4091
▁arraignment	-12.4091
▁ashtray	-12.4091
▁atlantis	-12.4091
▁attachment	-12.4091
▁atuna	-12.4091
▁avalanche	-12.4091
▁bacteria	-12.4091
▁ballpark	-12.4091
▁baltimore	-12.4091
▁barricade	-12.4091
▁bassoons	-12.4091
▁beehive	-12.4091
▁belgian	-12.4091
▁belittle	-12.4091
▁benefactors	-12.4091
▁benitez	-12.4091
▁bereaved	-12.4091
▁bimbo	-12.4091
▁blushing	-12.4091
▁bluster	-12.4091
▁bouvier	-12.4091
▁brattigan	-12.4091
▁broseph	-12.4091
▁burglar	-12.4091
▁cadaver	-12.4091
▁cagney	-12.4091
▁calamity	-12.4091
▁calcutta	-12.4091
▁candidacy	-12.4091
▁caregiver	-12.4091
▁catherine	-12.4091
▁caucasian	-12.4091
▁caution	-12.4091
▁cavity	-12.4091
▁celesta	-12.4091
▁celiba	-12.4091
▁ceramic	-12.4091
▁chamuco	-12.4091
▁charlatan	-12.4091
▁chestnut	-12.4091
▁chitchat	-12.4091
▁cholera	-12.4091
▁christiaan	-12.4091
▁cielito	-12.4091
▁clutter	-12.4091
▁collateral	-12.4091
▁colonist	-12.4091
▁comprehend	-12.4091
▁confiscated	-12.4091
▁contlnue	-12.4091
▁convertible	-12.4091
▁corkscrew	-12.4091
▁corrigan	-12.4091
▁crawford	-12.4091
▁critters	-12.4091
▁crossreferenc	-12.4091
▁cuckoo	-12.4091
▁cultivate	-12.4091
▁cupholders	-12.4091
▁curriculum	-12.4091
▁cylinders	-12.4091
▁deafmute	-12.4091
▁decree	-12.4091
▁demeanor	-12.4091
▁demographic	-12.4091
▁deprogram	-12.4091
▁derringer	-12.4091
▁despotiko	-12.4091
▁destabiliz	-12.4091
▁detention	-12.4091
▁deutsch	-12.4091
▁devastating	-12.4091
▁dilemma	-12.4091
▁diminish	-12.4091
▁dinosaur	-12.4091
▁disadvantage	-12.4091
▁disclose	-12.4091
▁dishevelled	-12.4091
▁dishonor	-12.4091
▁dismember	-12.4091
▁disobey	-12.4091
▁disorient	-12.4091
▁distilled	-12.4091
▁dontworry	-12.4091
▁doodoo	-12.4091
▁doofus	-12.4091
▁dookie	-12.4091
▁dracula	-12.4091
▁ecosystem	-12.4091
▁elaborate	-12.4091
▁elizondo	-12.4091
▁enact	-12.4091
▁endeavor	-12.4091
▁energies	-12.4091
▁energize	-12.4091
▁enfants	-12.4091
▁engrave	-12.4091
▁enlarge	-12.4091
▁enrolled	-12.4091
▁ensemble	-12.4091
▁enthusiastic	-12.4091
▁etiquette	-12.4091
▁eunuch	-12.4091
▁ewoks	-12.4091
▁exboyfriend	-12.4091
▁exclusion	-12.4091
▁exocon	-12.4091
▁exuberance	-12.4091
▁facilities	-12.4091
▁faculty	-12.4091
▁fangtor	-12.4091
▁fascist	-12.4091
▁fastidious	-12.4091
▁fencing	-12.4091
▁fenderbender	-12.4091
▁ferrari	-12.4091
▁fletcher	-12.4091
▁forgave	-12.4091
▁fourfendered	-12.4091
▁freckles	-12.4091
▁fumble	-12.4091
▁fundamental	-12.4091
▁fwran	-12.4091
▁gandhi	-12.4091
▁garandan	-12.4091
▁genital	-12.4091
▁gentile	-12.4091
▁georgie	-12.4091
▁ghuri	-12.4091
▁gisborne	-12.4091
▁glimpse	-12.4091
▁glitter	-12.4091
▁glitz	-12.4091
▁glockenspiel	-12.4091
▁gramma	-12.4091
▁gravy	-12.4091
▁gulag	-12.4091
▁gurgles	-12.4091
▁gwyneth	-12.4091
▁havana	-12.4091
▁hennessy	-12.4091
▁hibernate	-12.4091
▁hillbilly	-12.4091
▁hollowgasts	-12.4091
▁hotdogging	-12.4091
▁humourlessly	-12.4091
▁hundida	-12.4091
▁hunterseeker	-12.4091
▁hysteria	-12.4091
▁immigrants	-12.4091
▁impeccable	-12.4091
▁implication	-12.4091
▁impractical	-12.4091
▁incapable	-12.4091
▁incision	-12.4091
▁incognito	-12.4091
▁incompeten	-12.4091
▁incriminat	-12.4091
▁indochina	-12.4091
▁inexperienced	-12.4091
▁infatuated	-12.4091
▁inferior	-12.4091
▁infuriat	-12.4091
▁insecurity	-12.4091
▁inshallah	-12.4091
▁interpol	-12.4091
▁intervention	-12.4091
▁intestines	-12.4091
▁intrigued	-12.4091
▁intuition	-12.4091
▁janitor	-12.4091
▁jugular	-12.4091
▁karachi	-12.4091
▁kartofel	-12.4091
▁kurds	-12.4091
▁ladyinwaiting	-12.4091
▁lalalalala	-12.4091
▁lamborghini	-12.4091
▁landsraad	-12.4091
▁lebron	-12.4091
▁lennon	-12.4091
▁librarian	-12.4091
▁litchfield	-12.4091
▁lnstain	-12.4091
▁lodging	-12.4091
▁lollipop	-12.4091
▁macabre	-12.4091
▁magistrate	-12.4091
▁marathon	-12.4091
▁massachusetts	-12.4091
▁maximize	-12.4091
▁mesopotamia	-12.4091
▁michelangelo	-12.4091
▁millennia	-12.4091
▁millisecond	-12.4091
▁mindmeld	-12.4091
▁miniipad	-12.4091
▁miraculous	-12.4091
▁misconduct	-12.4091
▁monastery	-12.4091
▁motorbike	-12.4091
▁muffdiver	-12.4091
▁natmenneske	-12.4091
▁nebraska	-12.4091
▁neuter	-12.4091
▁newlyweds	-12.4091
▁ninja	-12.4091
▁nourish	-12.4091
▁nugget	-12.4091
▁nutritionist	-12.4091
▁obama	-12.4091
▁oblivion	-12.4091
▁onkel	-12.4091
▁oregon	-12.4091
▁outclassed	-12.4091
▁outvoted	-12.4091
▁overslash	-12.4091
▁overthink	-12.4091
▁pamphlet	-12.4091
▁paparazzi	-12.4091
▁pardonnezmoi	-12.4091
▁parlour	-12.4091
▁participate	-12.4091
▁pembleton	-12.4091
▁perverse	-12.4091
▁pesticides	-12.4091
▁piatti	-12.4091
▁pildoro	-12.4091
▁pinnacle	-12.4091
▁pisani	-12.4091
▁pixies	-12.4091
▁platinum	-12.4091
▁polymath	-12.4091
▁populace	-12.4091
▁porcelain	-12.4091
▁porcupine	-12.4091
▁predecessor	-12.4091
▁premium	-12.4091
▁pretentious	-12.4091
▁preview	-12.4091
▁probate	-12.4091
▁proclaim	-12.4091
▁procreat	-12.4091
▁procure	-12.4091
▁proficient	-12.4091
▁prohibidim	-12.4091
▁prosecute	-12.4091
▁purchasing	-12.4091
▁qingqing	-12.4091
▁quarrel	-12.4091
▁raspberry	-12.4091
[...]
