<unk>	0
<s>	0
</s>	0
s	-3.91488
▁dont	-4.69909
▁oh	-4.70268
▁im	-4.72905
▁well	-4.74004
▁get	-4.90872
▁know	-4.92835
▁go	-4.93762
▁come	-4.96354
▁right	-5.01924
▁like	-5.0872
ing	-5.21859
▁one	-5.22641
▁got	-5.23217
▁thats	-5.27192
▁yes	-5.27226
▁youre	-5.28309
▁see	-5.29653
▁good	-5.43932
ed	-5.44304
▁us	-5.44359
▁ill	-5.5408
▁think	-5.55933
▁back	-5.57696
▁time	-5.60014
▁look	-5.60149
▁want	-5.66026
▁going	-5.66584
▁cant	-5.67424
▁na	-5.69052
▁take	-5.70279
▁yeah	-5.7142
▁way	-5.73434
▁hes	-5.75637
▁	-5.7657
▁never	-5.78353
▁hey	-5.81212
▁sir	-5.82651
▁say	-5.834
▁man	-5.87151
▁would	-5.88837
▁little	-5.89752
▁could	-5.92189
▁let	-5.93852
▁tell	-5.96506
d	-5.96856
▁gon	-5.97344
▁make	-5.98
▁ive	-6.02051
▁whats	-6.02826
▁love	-6.04275
y	-6.09397
▁must	-6.09611
▁theres	-6.12476
▁thank	-6.16427
▁help	-6.17796
▁mr	-6.19512
▁lets	-6.20754
▁give	-6.2193
▁wait	-6.22529
▁l	-6.22686
▁away	-6.23829
▁didnt	-6.24315
▁mean	-6.24338
▁please	-6.24548
▁two	-6.27326
▁find	-6.2781
▁boy	-6.28027
▁said	-6.28867
▁something	-6.29489
▁really	-6.31014
ly	-6.31807
▁theyre	-6.33365
▁need	-6.33532
▁day	-6.33704
▁stop	-6.34961
▁keep	-6.35374
▁much	-6.35554
▁sure	-6.37049
▁better	-6.3723
e	-6.37568
▁home	-6.39954
er	-6.41675
▁sorry	-6.42423
▁chance	-6.43367
▁old	-6.44689
▁long	-6.45324
▁anything	-6.46353
▁first	-6.49164
▁okay	-6.49165
▁youll	-6.49801
▁people	-6.5044
▁wont	-6.50441
▁life	-6.51587
▁uh	-6.53138
▁night	-6.54715
▁even	-6.54751
▁around	-6.5538
▁great	-6.56339
▁thing	-6.57
▁nothing	-6.57425
▁place	-6.58355
▁lot	-6.60555
▁shes	-6.60619
▁put	-6.61981
▁name	-6.63551
▁ever	-6.6437
▁aint	-6.66421
▁stay	-6.67131
▁leave	-6.70774
▁hear	-6.70942
▁still	-6.71836
▁new	-6.72785
▁world	-6.73202
▁everything	-6.73622
▁men	-6.74013
▁work	-6.74416
▁things	-6.74867
▁always	-6.75893
▁enough	-6.76308
▁course	-6.76313
▁ah	-6.76699
▁miss	-6.77002
▁may	-6.78763
▁every	-6.79494
▁big	-6.7969
▁isnt	-6.80555
▁id	-6.80576
▁last	-6.81016
▁talk	-6.81097
▁maybe	-6.81433
▁coming	-6.82774
▁youve	-6.84087
▁thought	-6.84566
▁girl	-6.84921
▁run	-6.84927
▁believe	-6.87829
▁huh	-6.89668
▁made	-6.89672
▁ta	-6.89749
▁three	-6.90123
▁bad	-6.90426
▁call	-6.91569
▁show	-6.91958
▁might	-6.92567
▁mother	-6.92633
▁hold	-6.94926
▁dear	-6.95165
▁nice	-6.95229
▁music	-6.96447
▁em	-6.9804
▁mind	-6.98818
▁god	-6.99183
▁father	-6.99321
▁weve	-6.99615
▁left	-6.99894
▁ha	-7.0041
▁done	-7.02823
▁told	-7.02831
a	-7.0386
▁without	-7.05007
▁doesnt	-7.05562
▁remember	-7.05562
▁care	-7.0557
▁fine	-7.07294
▁hope	-7.07307
▁hurry	-7.07819
▁kind	-7.08138
▁live	-7.08583
▁friend	-7.0861
es	-7.09639
▁seen	-7.10508
▁hello	-7.10761
▁de	-7.10833
▁gone	-7.12347
▁feel	-7.12389
▁another	-7.12481
▁bang	-7.12491
▁came	-7.13086
▁best	-7.13104
▁king	-7.13114
▁house	-7.13704
▁guys	-7.13937
t	-7.14429
▁young	-7.1484
▁move	-7.14886
▁many	-7.15069
▁pretty	-7.15512
▁years	-7.16441
▁heard	-7.16535
in	-7.17376
▁john	-7.17384
▁prince	-7.17393
▁try	-7.17417
▁understand	-7.17443
▁play	-7.17811
▁today	-7.18006
▁water	-7.18652
r	-7.19333
▁heart	-7.19704
▁shadow	-7.19916
▁matter	-7.19984
▁ready	-7.20015
▁morning	-7.20563
▁else	-7.2121
▁everybody	-7.21865
▁turn	-7.22212
▁uncle	-7.23185
▁shall	-7.23198
▁chitty	-7.2385
▁found	-7.23854
▁ask	-7.24151
▁wouldnt	-7.24587
▁listen	-7.25559
▁far	-7.25881
▁son	-7.26014
▁wrong	-7.27252
▁true	-7.27258
▁wanted	-7.27297
▁days	-7.27892
▁george	-7.27946
o	-7.28843
▁minute	-7.29585
▁watch	-7.30484
▁open	-7.30611
▁idea	-7.31454
▁sassy	-7.31497
▁whole	-7.31497
▁happened	-7.31784
▁land	-7.31941
▁hell	-7.32159
▁along	-7.32214
▁whoa	-7.32231
▁mine	-7.32405
▁friends	-7.32427
▁boys	-7.32448
▁word	-7.32522
▁someone	-7.32947
▁knew	-7.32948
▁town	-7.32959
▁dead	-7.34429
▁dog	-7.34772
▁next	-7.3517
▁yet	-7.35186
▁bring	-7.35771
▁everyone	-7.36691
▁sun	-7.37439
▁head	-7.37595
▁room	-7.37905
▁beautiful	-7.38003
▁whos	-7.38535
▁thanks	-7.39142
n	-7.39454
▁sea	-7.40053
▁stand	-7.4042
▁worry	-7.40691
▁ya	-7.41154
▁captain	-7.41351
▁laughing	-7.41491
▁goodbye	-7.42149
▁children	-7.42151
▁fire	-7.42676
▁eat	-7.42746
▁cat	-7.435
▁soon	-7.44427
▁family	-7.44588
▁city	-7.44602
al	-7.44754
▁hand	-7.45124
▁job	-7.45185
▁face	-7.45205
▁together	-7.45415
▁pig	-7.46872
▁trouble	-7.46909
▁havent	-7.47088
▁wish	-7.47095
▁meet	-7.47393
▁use	-7.47426
▁animals	-7.4785
▁alone	-7.47937
▁rest	-7.48423
▁start	-7.48562
▁kid	-7.48603
▁eyes	-7.48652
▁money	-7.48792
▁mama	-7.48792
▁general	-7.48793
▁real	-7.49267
▁lord	-7.49648
▁tomorrow	-7.49653
▁jamie	-7.49658
▁nobody	-7.50523
▁papa	-7.50597
▁getting	-7.50794
▁wheres	-7.50883
▁guess	-7.50941
▁river	-7.51264
▁professor	-7.514
▁car	-7.5215
▁four	-7.52268
▁lost	-7.52308
▁kill	-7.53161
▁couldnt	-7.53263
▁looking	-7.5328
▁waiting	-7.53354
▁hard	-7.53724
▁part	-7.53764
▁war	-7.53918
▁end	-7.53953
▁wasnt	-7.54078
▁forget	-7.54084
▁talking	-7.54302
▁side	-7.54938
▁wan	-7.5567
▁set	-7.55848
▁horse	-7.55867
▁used	-7.56006
est	-7.56346
▁trying	-7.56699
▁gold	-7.56788
▁took	-7.56832
▁youd	-7.56832
▁afraid	-7.57765
▁went	-7.57768
g	-7.57973
i	-7.58419
▁cause	-7.58429
▁door	-7.58712
▁high	-7.59434
▁saw	-7.59663
▁ahead	-7.59666
▁lady	-7.59697
▁earth	-7.60626
▁poor	-7.60628
▁song	-7.60731
▁die	-7.61172
▁bit	-7.614
▁happy	-7.61593
▁sit	-7.61612
▁dream	-7.62422
▁hi	-7.63314
▁mrs	-7.635
▁since	-7.63546
▁already	-7.63564
▁light	-7.64089
▁feet	-7.6457
▁brer	-7.64574
▁daddy	-7.6558
▁doctor	-7.66594
▁woman	-7.66598
▁till	-7.67634
▁hot	-7.67986
▁un	-7.68307
▁madam	-7.6849
▁food	-7.68667
▁tonight	-7.68667
▁excuse	-7.68667
▁happen	-7.68868
▁dance	-7.69332
▁late	-7.69516
▁change	-7.69662
▁hmm	-7.69781
▁fly	-7.70278
▁knows	-7.70703
▁wonderful	-7.7081
▁aye	-7.70813
or	-7.70845
▁full	-7.70957
▁looks	-7.71741
▁catch	-7.71842
▁theyll	-7.71861
▁joe	-7.71882
▁master	-7.72123
▁says	-7.72146
▁close	-7.72609
▁easy	-7.7295
▁ho	-7.73067
▁plan	-7.73164
▁airport	-7.73241
▁c	-7.74145
▁somebody	-7.75156
▁fun	-7.75156
▁free	-7.7516
▁ago	-7.75164
▁quite	-7.75208
▁dat	-7.75445
▁baby	-7.76284
▁glad	-7.76292
▁air	-7.76301
▁walk	-7.76492
▁anyone	-7.77416
▁ok	-7.77502
▁follow	-7.77576
▁dad	-7.77625
st	-7.78209
▁pick	-7.78413
▁la	-7.78569
▁party	-7.78847
▁fight	-7.78881
▁called	-7.7959
▁magic	-7.7963
▁ice	-7.79743
▁welcome	-7.79755
▁sweet	-7.80159
▁clear	-7.80866
▁anyway	-7.80905
▁makes	-7.81812
▁inside	-7.82096
▁behind	-7.82096
▁wife	-7.82097
▁castle	-7.82097
▁a	-7.8227
▁chatters	-7.8227
▁sing	-7.82547
▁ow	-7.83137
▁brought	-7.83299
▁kiss	-7.83809
▁means	-7.83954
▁hit	-7.84275
p	-7.84343
▁arent	-7.8452
▁business	-7.8452
▁promise	-7.84786
▁hands	-7.84867
▁rock	-7.85014
▁nemo	-7.85756
▁moment	-7.85775
▁future	-7.87004
▁send	-7.87007
▁exactly	-7.87014
▁taking	-7.87019
▁year	-7.87153
▁cut	-7.87182
▁ride	-7.87471
▁learn	-7.8773
▁attack	-7.87834
▁safe	-7.88164
▁though	-7.88193
▁crazy	-7.88276
▁pip	-7.88835
▁comes	-7.8932
▁sara	-7.89522
▁gave	-7.89556
▁sarah	-7.89587
▁break	-7.89604
▁girls	-7.89749
▁wants	-7.89901
▁goes	-7.89943
▁sleep	-7.89975
▁goin	-7.90265
▁sent	-7.90448
▁speak	-7.90681
▁seems	-7.90751
▁hurt	-7.90999
▁least	-7.92166
▁ladies	-7.92172
ion	-7.92453
▁voice	-7.929
▁guy	-7.92951
▁sound	-7.93273
▁fast	-7.93344
▁sort	-7.93391
▁ooh	-7.93501
▁five	-7.93564
▁pull	-7.93855
l	-7.94034
▁mom	-7.94848
▁colonel	-7.94851
▁probably	-7.94851
▁stupid	-7.962
▁s	-7.96218
▁wilbur	-7.9622
▁luther	-7.96221
▁trust	-7.97145
▁da	-7.97437
▁almost	-7.9761
▁gentlemen	-7.97611
▁important	-7.97613
▁shut	-7.97613
▁thou	-7.97618
▁country	-7.97621
▁read	-7.98252
▁cinderella	-7.98442
▁second	-7.98512
▁wind	-7.98811
able	-7.98981
▁bye	-7.99028
▁actually	-7.99034
▁later	-7.99137
▁screaming	-7.9914
h	-7.99327
ic	-7.99439
en	-7.9964
▁drink	-7.99808
▁laughs	-7.99896
▁sheriff	-7.99921
▁chisum	-7.99921
▁quiet	-8.00255
▁forward	-8.00447
▁rosie	-8.0045
▁white	-8.00462
▁top	-8.00534
▁peter	-8.00558
▁hang	-8.01262
▁fair	-8.01469
▁wow	-8.01913
▁billy	-8.01926
ers	-8.02731
▁shine	-8.0306
▁save	-8.03123
▁luck	-8.03143
▁perhaps	-8.03366
▁ball	-8.03398
▁grunts	-8.03497
▁wonder	-8.03798
▁killed	-8.04072
▁train	-8.04313
▁daughter	-8.04458
▁lewis	-8.04859
▁lose	-8.0489
▁yo	-8.04898
▁heres	-8.05045
▁fall	-8.05388
▁short	-8.06006
▁lovely	-8.06191
▁death	-8.06374
▁child	-8.06376
▁red	-8.06392
▁kids	-8.06701
▁smell	-8.06967
▁wed	-8.07564
▁playing	-8.07677
▁line	-8.07804
▁times	-8.07913
▁horses	-8.07982
▁lm	-8.08048
▁princess	-8.08127
▁hate	-8.08481
▁fact	-8.08886
▁minutes	-8.08953
▁game	-8.09115
▁number	-8.09158
▁remus	-8.09475
▁army	-8.09537
▁lucky	-8.09712
▁met	-8.09823
▁working	-8.09967
▁bed	-8.101
▁perfect	-8.10839
▁half	-8.10966
▁strange	-8.10976
▁win	-8.11098
▁charles	-8.11203
▁grow	-8.11685
▁point	-8.12097
▁message	-8.12343
▁reason	-8.12554
▁georgie	-8.12675
▁anywhere	-8.12675
ies	-8.12742
▁quickly	-8.1282
▁thinking	-8.13083
▁singing	-8.13406
▁words	-8.13641
▁buy	-8.13737
▁hair	-8.13826
▁st	-8.14085
▁lead	-8.143
▁delilah	-8.14314
▁theyve	-8.14314
▁folks	-8.14396
▁sometimes	-8.14524
▁saying	-8.14693
b	-8.1474
▁re	-8.15236
▁fish	-8.15388
▁damn	-8.15585
▁human	-8.15764
▁b	-8.15919
▁shell	-8.16014
▁none	-8.16042
▁low	-8.16069
▁mary	-8.1611
▁answer	-8.16907
▁pay	-8.17125
▁rain	-8.17162
▁stuff	-8.17226
▁bird	-8.17319
▁fool	-8.17404
▁dreams	-8.17539
▁special	-8.17566
▁six	-8.17654
▁chanticleer	-8.17676
▁itll	-8.17676
▁moving	-8.17685
▁gasps	-8.17827
▁lives	-8.18173
▁mark	-8.19176
▁boat	-8.19196
▁problem	-8.19207
▁ship	-8.19283
▁truth	-8.19911
▁dogs	-8.20332
▁p	-8.20495
▁machine	-8.2093
▁step	-8.20958
▁small	-8.20962
▁caleb	-8.21154
▁rainbow	-8.21154
▁whatever	-8.21155
▁also	-8.21155
▁koki	-8.21156
▁alive	-8.21163
▁making	-8.21172
▁law	-8.21212
▁sign	-8.21778
ve	-8.22075
▁straight	-8.2272
▁rabbit	-8.22793
▁fellow	-8.22819
▁calm	-8.2294
▁davy	-8.2294
▁dinner	-8.22946
▁steady	-8.22958
▁shot	-8.23002
▁supposed	-8.23191
▁expect	-8.23655
▁flying	-8.23856
▁bear	-8.24207
▁fix	-8.24325
▁feeling	-8.24425
▁drive	-8.24604
▁rose	-8.24676
▁either	-8.24758
▁school	-8.24759
▁wake	-8.24763
▁leaving	-8.24766
▁sky	-8.24767
▁write	-8.24768
▁funny	-8.2477
▁truly	-8.24776
▁foot	-8.24944
▁star	-8.25947
an	-8.26073
ar	-8.26187
▁suppose	-8.26351
▁power	-8.26526
▁question	-8.26568
▁majesty	-8.26613
▁anna	-8.26639
▁thee	-8.26643
ll	-8.2739
▁no	-8.27486
▁throw	-8.2772
▁evening	-8.27733
▁control	-8.28032
▁act	-8.28226
▁front	-8.28479
▁blue	-8.28494
▁anybody	-8.28497
▁caught	-8.28498
▁radio	-8.28502
▁rather	-8.28503
▁brave	-8.28514
▁story	-8.2852
▁cover	-8.28541
▁certainly	-8.28598
▁able	-8.2898
▁th	-8.29809
▁t	-8.29892
▁fault	-8.30422
▁north	-8.30423
▁royal	-8.30423
▁heaven	-8.30449
▁tree	-8.30464
▁scared	-8.30574
▁di	-8.30868
▁be	-8.30974
on	-8.31466
▁asked	-8.31662
▁ten	-8.32071
▁wild	-8.32188
▁dark	-8.32373
▁thomas	-8.32381
▁black	-8.32382
▁cold	-8.3239
▁married	-8.32399
▁dr	-8.32882
▁touch	-8.33307
▁return	-8.33345
le	-8.34144
▁quick	-8.34205
▁tail	-8.34307
▁couple	-8.34381
▁different	-8.34381
▁sanada	-8.34381
▁sense	-8.34381
▁secret	-8.34394
▁barking	-8.34514
▁humans	-8.34653
▁miles	-8.34796
▁count	-8.3539
▁turned	-8.35693
▁destroy	-8.3594
▁join	-8.3601
▁shh	-8.36047
▁f	-8.361
▁rat	-8.36413
▁company	-8.36422
▁sergeant	-8.36422
▁christmas	-8.36422
▁jacob	-8.36422
▁pardon	-8.36422
▁henry	-8.36423
▁honey	-8.36425
▁kim	-8.36425
▁running	-8.36459
▁carry	-8.36461
▁present	-8.36539
▁hill	-8.36558
▁week	-8.36585
▁seem	-8.3661
▁clean	-8.37066
ness	-8.37655
ful	-8.38088
▁needs	-8.38134
▁se	-8.38141
▁order	-8.38267
▁orders	-8.38306
▁near	-8.38331
▁fell	-8.38405
▁terrible	-8.38505
▁upon	-8.38523
▁exclaims	-8.3865
▁animal	-8.38717
▁ran	-8.3899
▁w	-8.39235
k	-8.39578
▁slow	-8.3987
▁dress	-8.40164
▁deal	-8.40358
▁van	-8.40627
▁across	-8.40633
▁edmond	-8.40633
▁kitty	-8.40636
▁kingdom	-8.40636
▁tried	-8.4068
▁jump	-8.4068
▁arrived	-8.40725
▁birdie	-8.40866
▁brother	-8.40879
▁hour	-8.40918
▁ones	-8.41697
▁started	-8.41714
▁hat	-8.41717
u	-8.41812
▁figure	-8.42537
▁hours	-8.42552
▁ought	-8.42715
▁silly	-8.42807
▁anymore	-8.42807
▁road	-8.42808
▁become	-8.42809
▁strong	-8.42811
▁romeo	-8.42815
▁hide	-8.42822
▁round	-8.42982
▁thy	-8.43059
▁push	-8.44021
▁check	-8.44101
▁murder	-8.4433
ment	-8.44394
▁tight	-8.44461
▁wear	-8.44464
m	-8.44545
▁garden	-8.44569
▁telling	-8.44671
▁in	-8.44877
▁band	-8.44973
▁battle	-8.45024
▁conrad	-8.45029
▁rooster	-8.45029
▁shouldnt	-8.45029
▁maam	-8.4503
▁tom	-8.45097
▁sell	-8.45152
▁mo	-8.45337
f	-8.45601
▁gun	-8.45607
▁eye	-8.45623
▁explain	-8.46251
zo	-8.46325
▁bet	-8.46672
▁sad	-8.46714
▁her	-8.46798
▁mad	-8.47011
▁born	-8.47121
▁drop	-8.47163
▁careful	-8.47208
▁south	-8.47299
▁gaia	-8.47304
▁women	-8.47304
▁clothes	-8.47313
▁indeed	-8.47314
▁moon	-8.47361
▁chuckles	-8.47594
▁spirit	-8.4769
▁lots	-8.47869
▁trip	-8.48405
▁longer	-8.48537
▁dare	-8.48574
▁reach	-8.49137
▁escape	-8.49364
▁peace	-8.49509
▁lay	-8.49572
▁doc	-8.49609
▁somewhere	-8.49627
▁stuck	-8.49627
▁others	-8.49627
c	-8.49641
▁bike	-8.49648
▁hed	-8.49887
▁mission	-8.49888
▁johnny	-8.49931
▁mountain	-8.50072
▁promised	-8.50128
re	-8.50216
ous	-8.50513
▁speaking	-8.50597
▁months	-8.51219
▁marry	-8.51431
▁tea	-8.51704
▁beat	-8.51806
▁m	-8.51954
▁sodom	-8.52004
▁shani	-8.52008
▁bridge	-8.52013
▁blood	-8.52021
▁grunting	-8.52068
▁salt	-8.52084
▁finally	-8.52115
▁awful	-8.52208
▁sighs	-8.5227
▁airplane	-8.52511
▁looked	-8.52572
▁sho	-8.52711
▁cats	-8.528
▁taken	-8.53047
us	-8.53211
▁dis	-8.53452
▁news	-8.53594
▁g	-8.5368
▁weeks	-8.54257
▁cool	-8.54281
▁blow	-8.54289
▁past	-8.54353
▁mmm	-8.54434
▁enemy	-8.54447
▁spring	-8.54447
▁valley	-8.54447
▁forever	-8.54451
▁queen	-8.54455
▁ground	-8.54456
▁journey	-8.5446
▁mayor	-8.54912
▁trumpet	-8.54975
▁e	-8.55023
▁sounds	-8.55485
▁o	-8.5573
ting	-8.55821
▁seal	-8.55917
▁protect	-8.55983
et	-8.56007
▁sick	-8.56459
▁farm	-8.5681
▁um	-8.56912
▁instead	-8.56947
▁beauty	-8.56948
▁loose	-8.56953
▁amazing	-8.56956
▁green	-8.56979
▁bank	-8.57291
▁bell	-8.57342
ty	-8.574
▁chicken	-8.57556
▁pole	-8.57587
▁book	-8.57599
▁flower	-8.57616
▁lts	-8.5861
less	-8.58645
▁outside	-8.59017
ie	-8.59034
▁delight	-8.59075
▁worth	-8.59291
▁serious	-8.59326
▁park	-8.59346
▁excellent	-8.59511
▁lieutenant	-8.59511
▁monkey	-8.5952
▁mike	-8.59524
▁map	-8.59535
▁body	-8.59553
▁living	-8.59554
▁early	-8.596
▁smart	-8.59641
▁mistake	-8.60006
▁soul	-8.60091
▁meant	-8.60372
ity	-8.60674
▁stick	-8.61165
▁pass	-8.61261
▁travel	-8.61565
▁bother	-8.61568
▁happens	-8.61623
th	-8.61691
▁charlotte	-8.62143
▁harbor	-8.62143
▁rhythm	-8.62143
▁pleasure	-8.62143
▁worse	-8.62143
▁smith	-8.62144
▁swim	-8.62148
▁eh	-8.62183
▁absolutely	-8.62189
▁lock	-8.62233
▁sight	-8.62283
▁surprise	-8.62462
▁less	-8.62516
▁darling	-8.62741
▁flip	-8.62765
▁island	-8.6281
▁husband	-8.62855
▁idiot	-8.62865
ation	-8.63921
up	-8.63933
▁grab	-8.64258
▁fox	-8.64602
▁deep	-8.64665
▁known	-8.6467
▁neither	-8.64846
▁wickens	-8.64849
▁tough	-8.64849
▁patch	-8.64863
▁field	-8.64869
▁loves	-8.6489
▁dangerous	-8.64896
ive	-8.65049
▁throat	-8.65504
▁shake	-8.65535
▁given	-8.6555
▁picture	-8.65658
▁jack	-8.65868
▁takes	-8.66061
ch	-8.66425
▁fat	-8.66499
▁knock	-8.66505
▁offer	-8.66554
w	-8.66812
nt	-8.67145
ter	-8.67426
▁difference	-8.67623
▁grandpa	-8.67623
▁matthew	-8.67623
▁attention	-8.67623
▁riley	-8.67625
▁haru	-8.6765
▁unless	-8.67674
▁table	-8.67773
▁faster	-8.6797
▁realize	-8.68161
▁president	-8.68412
▁language	-8.68506
▁camp	-8.68538
▁sister	-8.68548
▁month	-8.68558
▁fighting	-8.68944
as	-8.69689
ry	-8.69844
▁roll	-8.70054
▁ii	-8.70071
▁brothers	-8.70149
▁prepare	-8.70237
▁boss	-8.70385
▁large	-8.70423
▁contact	-8.7048
▁possible	-8.70481
▁aleu	-8.70481
▁chef	-8.70482
▁murphy	-8.70484
▁piglet	-8.7049
▁built	-8.70496
▁decided	-8.70588
▁steal	-8.70759
▁form	-8.70806
▁fear	-8.70953
▁changed	-8.712
▁piece	-8.71468
▁hundred	-8.71469
▁force	-8.7147
▁jes	-8.7156
▁herd	-8.71772
▁rich	-8.71963
▁lookin	-8.72086
▁works	-8.72113
▁lt	-8.72551
▁visit	-8.72786
▁teach	-8.72794
▁bottom	-8.73416
▁monk	-8.73419
▁monsieur	-8.73422
▁weather	-8.73422
▁alec	-8.73422
▁proud	-8.73423
▁case	-8.73425
▁outta	-8.7343
▁tib	-8.73431
▁evil	-8.73438
▁albert	-8.73441
▁within	-8.73441
▁bout	-8.73444
▁lucy	-8.73448
▁tired	-8.73455
▁phone	-8.73458
▁path	-8.73515
▁hebrews	-8.73861
▁toy	-8.74482
▁cow	-8.74529
▁gets	-8.74599
▁wall	-8.74841
▁pl	-8.75241
▁cross	-8.7544
▁build	-8.759
▁desert	-8.75948
▁shoot	-8.76051
▁command	-8.76157
▁aw	-8.76219
▁grand	-8.76395
▁nothin	-8.76401
▁thunder	-8.76452
▁werent	-8.76452
▁patou	-8.76453
▁tower	-8.76463
▁space	-8.76467
▁taste	-8.7648
▁laugh	-8.7654
▁birds	-8.76823
▁lll	-8.77049
▁ed	-8.77352
▁person	-8.77384
▁village	-8.77455
▁nose	-8.77509
▁danger	-8.77568
▁street	-8.77617
▁lived	-8.77853
▁died	-8.77966
▁happening	-8.7804
▁treat	-8.78524
▁success	-8.79086
▁cry	-8.79153
▁imagine	-8.79302
▁dig	-8.79314
▁raise	-8.79337
▁simmons	-8.79577
▁universe	-8.79577
▁valiant	-8.79577
▁english	-8.79577
▁lunch	-8.79578
▁nuys	-8.79578
▁whether	-8.79578
▁hasnt	-8.79579
▁hungry	-8.79582
▁court	-8.79582
▁barn	-8.79609
▁mouth	-8.7961
▁cup	-8.79637
▁baron	-8.79656
▁cheering	-8.79744
▁bella	-8.79758
▁d	-8.79949
▁ring	-8.80355
▁mar	-8.80705
▁guest	-8.80824
▁ticket	-8.80826
▁belong	-8.80857
▁aha	-8.80928
▁art	-8.81011
▁letter	-8.81057
▁lie	-8.81553
▁spend	-8.82216
▁honor	-8.82307
▁bright	-8.82385
man	-8.82491
▁comin	-8.82771
▁coffee	-8.82803
▁derek	-8.82803
▁murky	-8.82803
▁odette	-8.82803
▁swear	-8.82803
▁grandfather	-8.82804
▁hilili	-8.82805
▁kept	-8.82805
▁forgive	-8.82806
▁supper	-8.82806
▁hans	-8.82811
▁laughter	-8.82821
▁james	-8.82831
▁gee	-8.82831
▁judge	-8.8284
▁missed	-8.82877
▁nah	-8.83622
▁pat	-8.84323
▁elephants	-8.8445
▁flowers	-8.85303
▁ol	-8.8535
▁search	-8.85582
▁fill	-8.85714
▁beg	-8.85785
▁loud	-8.85973
▁certain	-8.85974
▁except	-8.86085
▁trees	-8.86089
▁afternoon	-8.86136
▁blunden	-8.86137
▁jomo	-8.86139
▁fresh	-8.86143
▁size	-8.86149
▁race	-8.86149
▁immediately	-8.8617
▁winter	-8.86179
▁highness	-8.8622
▁leader	-8.86467
▁lve	-8.8652
▁warm	-8.86537
▁saved	-8.86775
is	-8.87138
▁key	-8.8716
▁main	-8.87244
▁gift	-8.8756
▁thousand	-8.87594
▁savage	-8.87647
▁sweets	-8.88255
it	-8.8881
ance	-8.88837
▁forest	-8.88961
ce	-8.89013
▁con	-8.89226
▁pa	-8.89339
▁beach	-8.89489
ble	-8.8953
▁heavy	-8.89584
▁pepper	-8.89585
▁choice	-8.89585
▁french	-8.89588
▁paris	-8.89589
▁fink	-8.89592
▁marian	-8.89602
▁lonely	-8.89605
▁git	-8.89622
▁ringo	-8.89659
enty	-8.89724
▁names	-8.89822
▁dramatic	-8.89843
▁greatest	-8.90133
▁pet	-8.90483
▁ding	-8.9049
▁leg	-8.90652
▁engine	-8.90901
▁service	-8.91025
▁group	-8.91129
▁pigeon	-8.91145
▁age	-8.91285
▁planes	-8.91649
▁los	-8.91995
▁al	-8.92126
▁airports	-8.92191
▁asking	-8.92453
▁pink	-8.92953
▁entire	-8.92968
▁america	-8.93093
▁quit	-8.93154
▁capsule	-8.93156
▁chief	-8.93156
▁milk	-8.93156
▁science	-8.93156
▁somehow	-8.93156
▁francisco	-8.93156
▁foreign	-8.93157
▁inspector	-8.93158
▁stories	-8.9316
▁gentleman	-8.93164
▁handsome	-8.93166
▁giving	-8.9317
▁worried	-8.93246
▁hiding	-8.93269
▁nearly	-8.93469
▁rule	-8.93554
▁simple	-8.93591
▁shed	-8.93616
▁creatures	-8.94195
▁slaves	-8.94349
▁organ	-8.94658
▁nightmare	-8.94726
▁paper	-8.94887
▁walking	-8.9491
▁charge	-8.94991
▁hole	-8.9529
▁eating	-8.95629
▁enjoy	-8.95852
▁out	-8.96464
▁tor	-8.96524
▁cute	-8.96539
▁paul	-8.96637
▁hm	-8.96849
▁forgot	-8.96857
▁dumb	-8.96859
▁oliver	-8.9686
▁potts	-8.9686
▁zebra	-8.9686
▁hows	-8.96861
▁admit	-8.96862
▁mommy	-8.96867
▁box	-8.96914
▁joy	-8.96945
▁aah	-8.96951
▁completely	-8.96985
▁worked	-8.97029
▁shouting	-8.97056
▁dry	-8.97385
▁patient	-8.97754
▁shoes	-8.97784
▁fit	-8.9779
▁notes	-8.98259
▁yesterday	-8.98571
▁officer	-8.9871
▁guard	-8.98721
▁elephant	-8.9877
▁state	-8.98808
▁gives	-8.98811
▁glass	-8.98908
go	-8.98985
▁savages	-8.98987
▁plane	-8.99297
▁sh	-8.99642
▁trick	-8.99739
▁bless	-8.99745
▁class	-8.99904
▁pain	-9.0008
▁gather	-9.00238
▁share	-9.00401
▁serve	-9.00472
▁doubt	-9.00513
▁crowd	-9.00519
▁fort	-9.0058
ard	-9.00581
▁broke	-9.00643
▁prove	-9.00648
▁clouseau	-9.00706
▁petrie	-9.00706
▁pocahontas	-9.00706
▁noise	-9.00706
▁middle	-9.00706
▁favorite	-9.0071
▁ordinary	-9.0071
▁seven	-9.00719
▁direction	-9.00731
▁hugo	-9.00732
▁doin	-9.00746
▁broken	-9.00776
▁mister	-9.00788
▁sitting	-9.00791
▁growls	-9.00901
▁interested	-9.00954
▁cap	-9.00979
▁record	-9.01787
▁lads	-9.01835
▁loved	-9.019
▁places	-9.01906
▁arms	-9.02086
▁bag	-9.02208
ary	-9.023
▁smile	-9.02574
▁miracle	-9.02621
▁sword	-9.02658
▁unit	-9.02666
▁beast	-9.02676
▁states	-9.02684
▁color	-9.02688
▁fern	-9.02695
▁soldier	-9.02763
ever	-9.02772
▁american	-9.02791
▁legs	-9.02889
▁fella	-9.02929
▁suit	-9.02934
▁le	-9.03741
▁pray	-9.0386
▁toot	-9.04065
▁load	-9.04263
▁agree	-9.04405
▁final	-9.04526
▁plays	-9.04622
▁whoohoo	-9.04705
▁angry	-9.04706
▁aviation	-9.04706
▁cheep	-9.04706
▁disappear	-9.04706
▁dolittle	-9.04706
▁ieyasu	-9.04706
▁isabelle	-9.04706
▁tunstall	-9.04706
▁zelda	-9.04706
▁pocket	-9.04706
▁devil	-9.04707
▁delicious	-9.04708
▁monster	-9.04708
▁uhhuh	-9.04716
▁aircraft	-9.04716
▁muta	-9.0472
▁guide	-9.04722
▁aboard	-9.04725
▁buddy	-9.04729
▁truck	-9.04729
▁bigger	-9.04731
▁teeth	-9.04732
▁speed	-9.04733
▁respect	-9.04742
▁kidding	-9.04746
▁movie	-9.04755
▁strike	-9.04834
▁stars	-9.04838
▁test	-9.04848
um	-9.0492
▁crown	-9.04927
▁mate	-9.04979
na	-9.05028
▁interesting	-9.0503
▁finished	-9.05062
▁ye	-9.05767
▁wings	-9.0587
▁learned	-9.06105
▁spot	-9.06191
▁picked	-9.06234
▁accept	-9.06275
▁co	-9.06291
▁ahh	-9.06362
▁crow	-9.06458
▁crows	-9.06614
▁wid	-9.06664
▁area	-9.06825
▁indian	-9.06867
▁fur	-9.06874
▁sake	-9.06882
▁tale	-9.07114
▁worlds	-9.07164
▁west	-9.07933
▁airplanes	-9.07994
▁mountains	-9.08073
▁nurse	-9.08133
wa	-9.08172
third	-9.08315
▁wha	-9.08564
▁duke	-9.08613
▁norm	-9.08647
▁prison	-9.08683
▁soft	-9.08735
▁storm	-9.08787
▁witch	-9.088
▁flat	-9.08866
▁audience	-9.08872
▁crockett	-9.08872
▁expedition	-9.08872
▁jeremy	-9.08872
▁major	-9.08872
▁harry	-9.08872
▁history	-9.08872
▁japanese	-9.08872
▁empty	-9.08873
▁upset	-9.08873
▁taught	-9.08873
▁common	-9.08873
▁bremen	-9.08873
▁police	-9.08874
▁duty	-9.08878
▁shinn	-9.08879
▁distance	-9.08881
▁dying	-9.08881
▁dancing	-9.08885
▁cash	-9.08886
▁mice	-9.08891
▁jones	-9.08897
▁stage	-9.08898
▁everywhere	-9.08904
▁exciting	-9.08908
▁bri	-9.08925
▁hut	-9.08954
▁dirty	-9.08961
▁busy	-9.08973
▁questions	-9.08977
▁board	-9.09037
▁gettin	-9.09039
▁roses	-9.0907
▁deserve	-9.0907
▁pete	-9.09205
▁allowed	-9.09234
out	-9.09264
▁ships	-9.09304
▁ne	-9.0957
▁mi	-9.10011
▁ted	-9.10174
over	-9.1039
▁woods	-9.10666
▁breaking	-9.10668
▁indians	-9.10857
▁joke	-9.11198
▁consider	-9.11614
▁starting	-9.1164
▁gal	-9.11852
▁tune	-9.12037
▁sail	-9.12247
▁guns	-9.12544
▁crack	-9.1282
▁double	-9.12919
▁defend	-9.1302
▁handle	-9.13057
▁i	-9.13113
▁talked	-9.13158
▁crysta	-9.13174
▁spike	-9.13219
▁especially	-9.1322
▁havisham	-9.1322
▁heggs	-9.1322
▁pearl	-9.1322
▁sheep	-9.1322
▁sullivan	-9.1322
▁lupo	-9.1322
▁marvelous	-9.13222
▁fancy	-9.13223
▁felt	-9.13223
▁nope	-9.13226
▁thatll	-9.13229
▁twice	-9.13229
▁recognize	-9.13229
▁horn	-9.13229
▁paid	-9.13231
▁floor	-9.13232
▁definitely	-9.13233
▁littlefoot	-9.13252
▁bath	-9.13258
▁william	-9.1326
▁team	-9.13262
▁rope	-9.13273
▁wet	-9.13278
▁sincere	-9.13316
▁parents	-9.13354
▁calling	-9.13711
▁musical	-9.13743
▁besides	-9.13879
▁ra	-9.13928
▁bones	-9.14111
▁sooner	-9.14116
▁wearing	-9.14315
▁who	-9.14322
▁j	-9.14458
▁missing	-9.14516
▁report	-9.14556
▁screams	-9.14598
▁falling	-9.14822
▁n	-9.15127
▁fellas	-9.1542
▁summer	-9.15719
▁fathers	-9.15776
▁tar	-9.15796
▁commander	-9.15956
to	-9.16005
▁draw	-9.16018
▁gods	-9.1612
ro	-9.16216
▁sisters	-9.16271
▁ba	-9.16316
▁where	-9.1642
▁books	-9.16624
▁mess	-9.16714
▁wood	-9.16864
▁pin	-9.16973
▁fr	-9.17005
▁honest	-9.17328
▁nick	-9.17346
came	-9.17438
▁introduce	-9.17492
▁tall	-9.1756
▁thin	-9.17622
▁bunch	-9.17654
▁personal	-9.1767
▁stole	-9.17712
▁livin	-9.17715
▁christ	-9.17752
▁smoke	-9.17763
▁brilliant	-9.17766
▁humming	-9.17766
▁intend	-9.17766
▁mexico	-9.17766
▁piano	-9.17766
▁spread	-9.17766
▁support	-9.17766
▁unusual	-9.17766
▁upstairs	-9.17766
▁film	-9.17766
▁subject	-9.17766
▁snail	-9.17766
▁alex	-9.17767
▁cera	-9.17768
▁relax	-9.17768
▁cannon	-9.17768
▁mouse	-9.17768
▁jail	-9.17769
▁freedom	-9.17769
▁alright	-9.1777
▁favor	-9.1777
▁impossible	-9.1777
▁square	-9.17771
▁plain	-9.17777
▁wise	-9.17802
can	-9.17803
▁hilo	-9.17821
▁snow	-9.17831
▁stopped	-9.17844
▁uhoh	-9.17871
▁usually	-9.1788
▁mount	-9.17887
▁date	-9.17934
▁corner	-9.18141
▁mustnt	-9.18145
▁center	-9.18183
▁runt	-9.1823
x	-9.18504
▁lili	-9.18507
▁passed	-9.1853
▁crying	-9.18572
rs	-9.18625
lo	-9.18956
▁continues	-9.19306
▁nine	-9.19576
▁heads	-9.19981
▁breath	-9.19997
▁slip	-9.20235
▁treasure	-9.20388
▁gate	-9.20526
▁instrument	-9.20558
▁standing	-9.21006
▁singer	-9.21043
▁watching	-9.21353
▁bob	-9.22184
▁jealous	-9.22285
▁feed	-9.22327
▁express	-9.22424
▁faith	-9.225
▁weak	-9.22502
▁breakfast	-9.22528
▁cream	-9.22528
▁familiar	-9.22528
▁goetaborg	-9.22528
▁juliet	-9.22528
▁london	-9.22528
▁mcsween	-9.22528
▁picnic	-9.22528
▁someday	-9.22528
▁speech	-9.22528
▁strength	-9.22528
▁midnight	-9.22528
▁pleasant	-9.22528
▁broomstick	-9.22528
▁fabulous	-9.22528
▁hooray	-9.22529
▁ridiculous	-9.22529
▁goose	-9.22531
▁willie	-9.22532
▁wolf	-9.22532
▁beginning	-9.22534
▁information	-9.22534
▁calf	-9.22534
▁web	-9.22537
▁price	-9.22538
▁prudy	-9.2254
▁lena	-9.22541
▁claim	-9.22622
▁gasping	-9.22651
▁sally	-9.22654
ant	-9.22797
▁swing	-9.22805
▁closer	-9.22855
eth	-9.23234
▁bite	-9.234
age	-9.2347
led	-9.23732
ey	-9.23736
▁breathe	-9.24559
▁seed	-9.24831
▁warn	-9.24901
▁soldiers	-9.24907
▁brings	-9.25002
ia	-9.25145
▁needed	-9.25361
▁pie	-9.25374
ally	-9.25416
▁million	-9.25497
▁skin	-9.25544
▁ghost	-9.25568
▁surely	-9.25723
▁heh	-9.25887
▁leaves	-9.25943
▁finish	-9.26456
▁allow	-9.27081
▁corn	-9.27116
▁settle	-9.2723
▁burn	-9.27256
▁waste	-9.27318
▁eight	-9.27334
▁office	-9.27441
▁heavens	-9.27466
▁scare	-9.27477
▁super	-9.27516
▁farewell	-9.27528
▁harold	-9.27528
▁memory	-9.27528
▁nonsense	-9.27528
▁ocean	-9.27528
▁saizo	-9.27528
▁thieves	-9.27528
▁wrote	-9.27528
▁scrumptious	-9.27528
▁biggest	-9.27528
▁blind	-9.27528
▁zak	-9.2753
▁store	-9.27532
▁trapped	-9.27532
▁jake	-9.27532
▁fleet	-9.27534
▁balto	-9.27536
▁bread	-9.27539
▁posh	-9.2754
▁france	-9.27543
▁horrible	-9.27543
▁sunday	-9.27552
▁enter	-9.27563
▁pure	-9.27578
▁grave	-9.27584
▁seat	-9.2759
▁ahem	-9.27592
▁safety	-9.27604
▁single	-9.27632
▁keyes	-9.27661
▁pity	-9.27675
te	-9.27711
▁doris	-9.27808
▁pleased	-9.27842
▁nava	-9.28104
▁couldve	-9.28333
v	-9.28335
▁closed	-9.28774
utti	-9.28807
▁pigs	-9.2881
ta	-9.29139
▁bars	-9.29229
il	-9.29697
▁sleeping	-9.2971
▁ear	-9.30024
▁lamp	-9.30498
▁german	-9.30521
ine	-9.30633
▁belongs	-9.30651
▁position	-9.30672
▁wagon	-9.30706
▁diamond	-9.30736
▁remain	-9.30754
▁santa	-9.30781
▁pup	-9.30789
▁spell	-9.30789
▁track	-9.30805
▁servant	-9.30805
▁played	-9.3109
▁maw	-9.31333
▁note	-9.3146
▁blows	-9.31606
time	-9.31865
▁k	-9.3197
▁deliver	-9.32047
▁accident	-9.32489
▁whoo	-9.32631
▁somethin	-9.32739
▁asleep	-9.32791
▁behave	-9.32791
▁carriage	-9.32791
▁emperor	-9.32791
▁estella	-9.32791
▁jenna	-9.32791
▁kitchen	-9.32791
▁kocoum	-9.32791
▁osaka	-9.32791
▁secure	-9.32791
▁stubbins	-9.32791
▁therefore	-9.32791
▁weird	-9.32791
▁boris	-9.32791
▁merry	-9.32791
▁onto	-9.32791
▁nature	-9.32791
▁project	-9.32791
▁territory	-9.32791
▁zipadeedoda	-9.32792
▁york	-9.32792
▁glory	-9.32793
▁government	-9.32793
▁coosh	-9.32793
▁prize	-9.32794
▁pride	-9.32795
▁governor	-9.32798
▁inca	-9.32798
▁wherever	-9.32798
▁gang	-9.328
▁written	-9.32801
▁sharp	-9.32801
▁antarctica	-9.32803
▁whatd	-9.32816
▁east	-9.32817
▁flies	-9.32819
▁shape	-9.32826
▁simply	-9.32829
▁sold	-9.32859
▁camera	-9.32863
at	-9.32866
▁fruit	-9.32886
▁harm	-9.32926
▁caw	-9.32958
▁sin	-9.32982
▁chips	-9.3299
▁press	-9.32995
▁choose	-9.33077
way	-9.33142
▁surprised	-9.33323
▁complete	-9.33357
▁port	-9.33443
▁prefer	-9.33548
▁cop	-9.33602
▁due	-9.33701
land	-9.33914
▁dressed	-9.33922
▁raining	-9.34548
▁seeing	-9.35158
▁bo	-9.35261
▁den	-9.35316
▁talkin	-9.35747
▁wa	-9.35767
▁everythings	-9.35797
▁arm	-9.35801
▁hotel	-9.36243
▁stone	-9.36246
▁aunt	-9.36317
▁meeting	-9.36338
▁ma	-9.36417
▁ahhh	-9.36491
▁stranger	-9.36546
▁prisoner	-9.36558
ial	-9.36672
▁named	-9.36799
▁landing	-9.36925
▁so	-9.36946
▁non	-9.37448
▁lights	-9.37766
▁pack	-9.37766
▁climb	-9.37773
▁adventure	-9.37914
▁marc	-9.38093
▁san	-9.3812
▁he	-9.38128
▁famous	-9.38136
▁songs	-9.3814
▁ash	-9.38179
▁blame	-9.38179
▁contest	-9.38344
▁pump	-9.38345
▁atahuallpa	-9.38346
▁cheese	-9.38346
▁congratulations	-9.38346
▁emergency	-9.38346
▁groans	-9.38346
▁hannah	-9.38346
▁mcmurdo	-9.38346
▁sceptre	-9.38346
▁stanislav	-9.38346
▁sunshine	-9.38346
▁firing	-9.38346
▁ugly	-9.38346
▁saint	-9.38347
▁theyd	-9.38347
▁kibble	-9.38347
▁mmhmm	-9.38347
▁birthday	-9.38347
▁spider	-9.38347
▁tongue	-9.38347
▁among	-9.38348
▁library	-9.38348
▁maggie	-9.38348
▁colin	-9.38352
▁tommy	-9.38353
▁guilty	-9.38353
▁raven	-9.38354
▁grew	-9.38354
▁panting	-9.38355
▁nowhere	-9.38356
▁spain	-9.38357
▁mm	-9.38358
▁humble	-9.38358
▁basket	-9.38358
▁often	-9.38359
▁fuck	-9.38361
▁cake	-9.38369
▁coast	-9.38377
▁fortune	-9.38379
▁pol	-9.3838
▁aim	-9.38381
▁excited	-9.38384
▁meat	-9.38387
▁dropped	-9.38416
▁huge	-9.38434
▁indiana	-9.38475
▁survive	-9.38665
▁correct	-9.38741
▁lips	-9.38798
▁blessed	-9.38988
▁warning	-9.39022
and	-9.39168
▁base	-9.39495
▁fixed	-9.39715
▁lines	-9.39721
▁mis	-9.40976
do	-9.41067
▁bar	-9.4117
▁en	-9.41288
▁rid	-9.41589
▁tu	-9.41623
▁per	-9.41647
▁tie	-9.41723
▁duck	-9.4174
ur	-9.41869
▁target	-9.41979
▁continue	-9.42005
▁belt	-9.42116
▁saknussem	-9.42132
▁mermaid	-9.42132
▁nerve	-9.42132
▁window	-9.42156
▁station	-9.42251
▁egg	-9.42265
▁toward	-9.4227
▁finger	-9.4228
▁begin	-9.4239
▁slave	-9.42405
▁lover	-9.42463
▁brain	-9.42495
▁camel	-9.42572
▁lies	-9.42624
▁grub	-9.42785
▁mothers	-9.4295
▁ot	-9.43037
▁building	-9.43045
▁wash	-9.43195
▁helped	-9.43296
▁keeping	-9.43883
lida	-9.43935
▁seek	-9.43975
▁log	-9.44
▁sudden	-9.44045
▁natural	-9.44094
▁magi	-9.44219
▁apart	-9.44229
▁apologize	-9.44229
▁applause	-9.44229
▁bought	-9.44229
▁chocolate	-9.44229
▁college	-9.44229
▁courage	-9.44229
▁invasion	-9.44229
▁mccartney	-9.44229
▁opinion	-9.44229
▁private	-9.44229
▁sasuke	-9.44229
▁saturday	-9.44229
▁shipoopi	-9.44229
▁thief	-9.44229
▁forbidden	-9.44229
▁july	-9.44229
▁zipadeeay	-9.44229
▁bonney	-9.44229
▁navy	-9.44229
▁australia	-9.44229
▁ginny	-9.4423
▁radar	-9.4423
▁thick	-9.4423
▁cattle	-9.4423
▁hyah	-9.4423
▁fantastic	-9.4423
▁clint	-9.44232
▁club	-9.44233
▁edge	-9.44237
▁iowa	-9.4424
▁tunnel	-9.44241
▁property	-9.44241
▁therell	-9.44242
▁fetch	-9.44245
▁comfortable	-9.44247
▁filthy	-9.44249
▁tv	-9.44258
▁pool	-9.44274
▁gray	-9.44302
▁stolen	-9.44311
▁discuss	-9.4435
▁lem	-9.44364
▁rise	-9.44364
▁howdy	-9.4444
▁golden	-9.44452
▁maid	-9.44548
▁cook	-9.44613
▁rode	-9.4468
▁mood	-9.44697
▁ends	-9.44744
▁burned	-9.44748
sh	-9.44825
ley	-9.44858
▁frank	-9.44913
▁fools	-9.44982
▁rogers	-9.45014
▁uniforms	-9.45014
▁squeals	-9.45018
▁nuts	-9.45135
▁locked	-9.45224
▁tricks	-9.45287
▁buzz	-9.45581
▁me	-9.45692
▁pounds	-9.4576
▁woo	-9.45975
▁feathers	-9.46113
▁towards	-9.46229
▁attacked	-9.46329
mo	-9.46388
▁bull	-9.46539
▁dey	-9.4656
▁ghosts	-9.46595
ton	-9.46781
▁keeps	-9.47123
▁following	-9.47159
▁scream	-9.47376
▁rules	-9.47518
▁rocks	-9.47589
▁coat	-9.47691
▁dee	-9.47713
ra	-9.47821
▁rings	-9.47956
▁killing	-9.47977
da	-9.47982
▁pipe	-9.47986
▁tear	-9.48036
▁ex	-9.48115
▁feather	-9.48173
▁nation	-9.48291
▁crew	-9.48327
▁action	-9.48363
▁season	-9.48396
▁apple	-9.48421
▁chap	-9.48442
▁depend	-9.4851
rian	-9.48635
▁heading	-9.48643
ling	-9.4873
▁listening	-9.492
▁turns	-9.49484
▁rush	-9.49514
▁boom	-9.49645
▁shove	-9.49651
▁collect	-9.49849
▁tent	-9.50156
▁release	-9.50192
▁arrive	-9.50225
▁difficult	-9.5023
▁create	-9.50236
▁howd	-9.50254
▁extra	-9.5034
▁pal	-9.50345
▁bravo	-9.50479
▁caractacus	-9.50479
▁cholena	-9.50479
▁daisuke	-9.50479
▁equipment	-9.50479
▁frozen	-9.50479
▁genius	-9.50479
▁gertrude	-9.50479
▁lindenbrook	-9.50479
▁liszt	-9.50479
▁montague	-9.50479
▁polynesia	-9.50479
▁repeat	-9.50479
▁satellite	-9.50479
▁silence	-9.50479
▁slumberland	-9.50479
▁sugar	-9.50479
▁whistling	-9.50479
▁andrew	-9.50479
▁robbery	-9.50479
▁practice	-9.50479
▁fievel	-9.50479
▁langdon	-9.50479
▁peepers	-9.5048
▁iron	-9.50481
▁minister	-9.50481
▁viking	-9.50481
▁weaver	-9.50482
▁garage	-9.50483
▁opportunity	-9.50484
▁roof	-9.50485
▁japan	-9.50485
▁hush	-9.50486
▁worst	-9.50486
▁reward	-9.50487
▁clever	-9.50487
▁dawn	-9.50488
▁admiral	-9.50488
▁shame	-9.5049
▁view	-9.50491
▁system	-9.50491
▁cellar	-9.50492
▁anger	-9.50493
▁invention	-9.50493
▁maleb	-9.50494
▁grass	-9.50496
▁department	-9.50496
▁bold	-9.50498
▁mick	-9.50502
▁address	-9.50502
▁dust	-9.50509
▁incredible	-9.50518
▁page	-9.50523
▁alma	-9.50526
▁brite	-9.50536
▁sam	-9.50544
▁saving	-9.50569
▁batty	-9.5058
▁bend	-9.50663
▁goob	-9.50692
▁sp	-9.50698
▁grown	-9.50711
▁sonar	-9.50734
▁chattering	-9.5075
▁hoping	-9.50831
▁boots	-9.50937
▁holding	-9.51009
▁troops	-9.51189
▁pen	-9.5119
▁prepared	-9.512
▁wine	-9.51207
▁perfectly	-9.51222
▁lions	-9.51299
▁filled	-9.51317
▁clearly	-9.5148
▁over	-9.51638
▁shooting	-9.51661
▁am	-9.51687
ah	-9.51785
▁hardly	-9.51796
▁fe	-9.51811
▁traveling	-9.51824
▁destroyed	-9.5186
▁smells	-9.52085
▁pee	-9.52199
▁helping	-9.52528
▁eggs	-9.52612
▁begins	-9.52614
▁ca	-9.52633
▁seconds	-9.52812
▁ways	-9.53179
ate	-9.53195
▁staying	-9.53243
▁dreamed	-9.53358
ck	-9.54018
▁thinkin	-9.54361
ities	-9.54612
▁walls	-9.54692
ul	-9.54798
▁forces	-9.54838
▁coward	-9.54884
▁jess	-9.54908
▁blanket	-9.54991
▁partner	-9.54992
▁female	-9.55046
▁clan	-9.55051
▁trap	-9.55077
▁regret	-9.55081
▁flight	-9.55124
▁danby	-9.55164
▁russian	-9.55192
▁creature	-9.55204
▁pro	-9.55728
▁calls	-9.55831
▁si	-9.56184
▁interest	-9.56201
▁bum	-9.56329
ile	-9.56419
men	-9.56505
▁study	-9.56551
▁crash	-9.56594
▁hearts	-9.5662
▁avoid	-9.56643
▁fail	-9.5669
▁concern	-9.56693
▁rats	-9.56723
▁tr	-9.56803
▁regular	-9.56943
▁toast	-9.56974
▁coach	-9.57014
▁mill	-9.57016
▁mans	-9.57072
▁spoke	-9.57081
▁trail	-9.57082
▁gentle	-9.57123
▁brown	-9.57123
▁public	-9.57124
▁appreciate	-9.57145
▁bamboo	-9.57145
▁channel	-9.57145
▁conversation	-9.57145
▁credit	-9.57145
▁excitement	-9.57145
▁fathoms	-9.57145
▁garrett	-9.57145
▁halliwell	-9.57145
▁marriage	-9.57145
▁mercy	-9.57145
▁ollie	-9.57145
▁paradise	-9.57145
▁permission	-9.57145
▁presence	-9.57145
▁reynardo	-9.57145
▁spectra	-9.57145
▁turkey	-9.57145
▁wilt	-9.57145
▁winthrop	-9.57145
▁martha	-9.57145
▁yukimura	-9.57145
▁purpose	-9.57146
▁easily	-9.57146
▁alert	-9.57146
▁africa	-9.57146
▁oclock	-9.57146
▁bertie	-9.57146
▁typical	-9.57146
▁spoil	-9.57147
▁delta	-9.57147
▁drunk	-9.57147
▁monday	-9.57147
▁kick	-9.57148
▁templeton	-9.57148
▁edison	-9.57148
▁awake	-9.57149
▁mysterious	-9.5715
▁beef	-9.5715
▁molly	-9.57151
▁pressure	-9.57153
▁remarkable	-9.57154
▁alarm	-9.57156
▁blast	-9.57165
▁victory	-9.57169
▁mere	-9.5717
▁bound	-9.57181
▁chosen	-9.57185
▁weight	-9.57187
▁bugsy	-9.572
▁yep	-9.57208
▁wing	-9.5726
▁lake	-9.57271
▁exclaiming	-9.57281
▁frightened	-9.57283
▁goldie	-9.57286
▁director	-9.57303
▁invited	-9.57315
▁miley	-9.57325
▁rds	-9.57327
▁suddenly	-9.57355
▁yelling	-9.57472
▁putting	-9.57536
▁jet	-9.57538
▁fellows	-9.57629
▁list	-9.5766
▁degrees	-9.57905
▁squawks	-9.57909
▁stayed	-9.58077
▁fairy	-9.58219
cy	-9.5823
▁members	-9.5832
ens	-9.58473
dy	-9.58601
▁returned	-9.58656
ma	-9.58674
▁lad	-9.59022
▁bon	-9.59178
im	-9.59388
▁paying	-9.59408
ier	-9.59727
ning	-9.5973
▁fo	-9.59733
▁hearing	-9.59747
▁hanging	-9.59799
▁stands	-9.59856
▁boo	-9.59918
oh	-9.60247
▁hurts	-9.60375
el	-9.60795
▁dar	-9.60899
▁older	-9.60996
▁spit	-9.60997
▁keys	-9.61133
▁bow	-9.61329
▁ohh	-9.61393
▁opened	-9.61406
▁streets	-9.61538
ical	-9.61736
▁appear	-9.61778
▁hundreds	-9.6182
▁knight	-9.62033
la	-9.62214
▁cousin	-9.62246
▁brake	-9.6225
▁frog	-9.62264
▁whistle	-9.62288
▁wheel	-9.62326
▁planet	-9.62417
lf	-9.62922
▁flood	-9.63267
▁dam	-9.6344
ver	-9.63499
▁separate	-9.63538
fender	-9.63571
▁mix	-9.63626
▁lift	-9.63654
▁switch	-9.63686
▁mud	-9.6398
▁do	-9.63994
▁march	-9.64007
▁rescue	-9.64025
▁refuse	-9.6406
▁yup	-9.64088
▁receive	-9.64272
▁blanky	-9.64288
▁caribou	-9.64288
▁continent	-9.64288
▁hideyori	-9.64288
▁houston	-9.64288
▁jabadu	-9.64288
▁mmmhmm	-9.64288
▁pirates	-9.64288
▁snipes	-9.64288
▁starlite	-9.64288
▁vaslov	-9.64288
▁tokuga	-9.64288
▁sharptooth	-9.64289
▁hadnt	-9.64289
▁librarian	-9.64289
▁british	-9.64289
▁chuckling	-9.6429
▁situation	-9.64292
▁ginger	-9.64293
▁ridge	-9.64294
▁england	-9.64294
▁easier	-9.64297
▁biddy	-9.64299
▁girlfriend	-9.643
▁trom	-9.643
▁happiness	-9.64303
▁knife	-9.64303
▁military	-9.64303
▁staff	-9.64304
▁grapes	-9.64305
▁ashore	-9.64305
▁neck	-9.64307
▁foolish	-9.64311
▁according	-9.64314
▁peterson	-9.64323
▁squat	-9.64325
▁rare	-9.64336
▁suh	-9.64341
▁began	-9.64346
▁rough	-9.64357
▁wick	-9.64372
▁tony	-9.64379
▁er	-9.64384
▁ballet	-9.64386
▁usual	-9.64445
▁match	-9.64459
▁lying	-9.64467
▁hoo	-9.64474
▁willing	-9.64513
▁goodwin	-9.64546
▁bare	-9.64546
▁coughing	-9.64556
▁noticed	-9.64576
▁discovered	-9.64599
▁personally	-9.64607
▁floating	-9.64638
▁giggles	-9.64661
▁peaceful	-9.64673
▁sinking	-9.64686
▁tank	-9.64694
▁dean	-9.64703
▁ln	-9.64719
▁pinky	-9.64751
▁scene	-9.6482
▁mutt	-9.64825
▁fred	-9.64998
▁feels	-9.65208
▁wouldve	-9.65506
▁lately	-9.65624
nny	-9.65777
▁ordered	-9.65838
▁lessons	-9.65852
▁plant	-9.65878
▁goodness	-9.65904
stly	-9.66156
▁wit	-9.6647
▁bearing	-9.66536
one	-9.66585
▁brains	-9.66751
▁winds	-9.66963
▁thre	-9.67263
▁instruments	-9.67354
▁homer	-9.67373
line	-9.67492
▁reports	-9.67539
ng	-9.67546
ace	-9.67632
▁sand	-9.67782
▁ears	-9.67899
▁dive	-9.68349
▁wide	-9.68378
▁pound	-9.68815
▁gas	-9.69319
▁pieces	-9.69328
ure	-9.69683
▁champion	-9.69731
▁bringing	-9.69801
▁jehovah	-9.69823
▁concert	-9.69823
▁angel	-9.69863
ors	-9.69869
▁shop	-9.69956
▁file	-9.70059
▁type	-9.70061
▁flag	-9.70154
▁deed	-9.70355
▁zip	-9.70571
▁spirits	-9.70705
▁drown	-9.7082
▁li	-9.70926
▁hunt	-9.70954
▁h	-9.7123
▁fi	-9.71348
▁suffer	-9.714
ster	-9.71511
▁design	-9.71543
▁mention	-9.71588
▁ruin	-9.71593
▁moo	-9.71613
▁je	-9.71658
▁assume	-9.71664
▁notice	-9.71715
▁particular	-9.71787
▁witness	-9.71891
▁church	-9.71904
▁hero	-9.71911
▁motor	-9.71977
▁beneath	-9.7198
▁bureau	-9.7198
▁confidence	-9.7198
▁croak	-9.7198
▁cuckoo	-9.7198
▁david	-9.7198
▁escort	-9.7198
▁felix	-9.7198
▁grateful	-9.7198
▁however	-9.7198
▁innocent	-9.7198
▁lcarus	-9.7198
▁morpheus	-9.7198
▁nervous	-9.7198
▁niju	-9.7198
▁normandy	-9.7198
▁orleans	-9.7198
▁ouessant	-9.7198
▁possibly	-9.7198
▁request	-9.7198
▁stomach	-9.7198
▁surrender	-9.7198
▁tuesday	-9.7198
▁unique	-9.7198
▁valuable	-9.7198
▁whiskey	-9.7198
▁befo	-9.7198
▁birdsong	-9.7198
▁dawg	-9.7198
▁weekend	-9.71981
▁cheap	-9.71981
▁depth	-9.71982
▁throne	-9.71982
▁kirby	-9.71982
▁becoming	-9.71984
▁jerry	-9.71984
▁madison	-9.71985
▁local	-9.71985
▁baseball	-9.71986
▁whew	-9.71988
▁excellency	-9.71991
▁dozen	-9.71996
▁regard	-9.71996
▁humor	-9.71996
▁magnificent	-9.71997
▁lava	-9.71998
▁broom	-9.72001
▁starboard	-9.72003
▁paint	-9.72004
▁nasty	-9.72006
▁sophie	-9.7201
▁level	-9.72022
▁doggy	-9.72026
▁wedding	-9.72033
▁worthless	-9.7204
lma	-9.72043
▁range	-9.7205
▁frontier	-9.7207
▁spare	-9.72074
op	-9.72087
▁whimpering	-9.72092
son	-9.72115
gary	-9.72143
▁growling	-9.72151
▁add	-9.72229
▁ducky	-9.72286
▁eaten	-9.72392
▁magical	-9.72406
▁manners	-9.72419
▁ruined	-9.72424
tan	-9.72479
▁approaching	-9.72488
▁flooding	-9.72585
ent	-9.72759
▁sodomites	-9.72867
▁problems	-9.72876
tomi	-9.72881
▁tryin	-9.72906
▁up	-9.72987
▁crossed	-9.73141
▁enjoying	-9.7317
▁ace	-9.73188
▁loser	-9.73288
▁searching	-9.73299
▁clouds	-9.73351
▁sue	-9.73366
▁harder	-9.73477
▁reached	-9.73493
▁bowl	-9.73503
▁weapons	-9.73513
▁starts	-9.73632
▁cos	-9.73679
▁seemed	-9.73837
▁drums	-9.73843
▁code	-9.7427
bo	-9.74323
▁depends	-9.74487
▁fa	-9.74525
ny	-9.74531
▁bl	-9.74744
▁growing	-9.74746
head	-9.7477
▁liked	-9.7481
▁followed	-9.75088
▁experience	-9.75315
▁chi	-9.75351
▁ob	-9.75717
be	-9.75873
aby	-9.75946
▁hu	-9.7599
ther	-9.76407
▁minds	-9.76471
▁ump	-9.76689
▁landed	-9.76916
z	-9.77356
▁exist	-9.77689
▁pictures	-9.77778
▁bark	-9.77802
▁risk	-9.77804
▁decide	-9.7781
▁owner	-9.7817
ri	-9.78178
▁odd	-9.78213
▁runway	-9.78225
▁shoulder	-9.78233
▁acorn	-9.7827
▁chickens	-9.78281
▁scientist	-9.78301
▁tribe	-9.78342
▁drum	-9.78374
▁signal	-9.78445
▁wire	-9.78458
▁teacher	-9.7879
▁complain	-9.79052
▁insist	-9.79136
co	-9.7915
▁wo	-9.79234
▁drift	-9.79677
▁led	-9.79714
▁pour	-9.79747
▁wave	-9.7977
▁squ	-9.79792
▁chase	-9.79936
▁loft	-9.80082
▁slight	-9.80139
▁suck	-9.80144
house	-9.802
▁torpedo	-9.80218
▁grace	-9.80292
▁loyal	-9.80293
▁cockadoo	-9.80314
▁advice	-9.80314
▁afford	-9.80314
▁buffalo	-9.80314
▁capital	-9.80314
▁commotion	-9.80314
▁council	-9.80314
▁enemies	-9.80314
▁fought	-9.80314
▁giddyup	-9.80314
▁hawaii	-9.80314
▁icarus	-9.80314
▁irish	-9.80314
▁jungle	-9.80314
▁maximilian	-9.80314
▁milord	-9.80314
▁naughty	-9.80314
▁niece	-9.80314
▁security	-9.80314
▁silent	-9.80314
▁changing	-9.80314
▁holiday	-9.80314
▁salesman	-9.80314
▁powder	-9.80314
▁praise	-9.80314
▁krys	-9.80314
▁cruel	-9.80315
▁jazamapajama	-9.80315
▁precious	-9.80316
▁arrow	-9.80316
▁flew	-9.80316
▁orin	-9.80316
▁yankee	-9.80316
▁creation	-9.80317
▁propose	-9.80317
▁louis	-9.80317
▁whenever	-9.80317
▁shouldve	-9.80317
▁robinson	-9.80318
▁terrific	-9.80318
▁carried	-9.8032
▁marshall	-9.80322
▁sweetheart	-9.80323
▁section	-9.80324
▁shirt	-9.80331
▁inventor	-9.80332
▁trace	-9.80335
▁attend	-9.80336
▁pair	-9.80338
▁emotional	-9.80341
▁neighing	-9.80341
▁plate	-9.80342
▁captured	-9.80344
▁jem	-9.80347
▁cornet	-9.80347
▁clock	-9.80354
▁precisely	-9.80354
▁cities	-9.80373
▁bass	-9.80378
▁squad	-9.80382
▁hall	-9.80383
▁mocker	-9.80383
▁circus	-9.80412
▁factory	-9.80421
▁unfortunately	-9.80423
▁noon	-9.80431
▁thirsty	-9.80443
▁ohio	-9.80451
▁lack	-9.805
▁mail	-9.80505
▁stable	-9.80512
▁useless	-9.80517
▁tora	-9.80532
▁foe	-9.80535
▁wholl	-9.80576
the	-9.80579
▁jacques	-9.80581
▁charming	-9.80582
▁yall	-9.80604
▁softly	-9.80694
▁texas	-9.80753
▁ate	-9.80902
▁served	-9.80933
▁hunting	-9.80952
▁baker	-9.80975
▁quarters	-9.81073
▁cr	-9.81335
▁onethird	-9.81468
▁approach	-9.81501
arne	-9.81634
▁higher	-9.81856
▁conditions	-9.81986
id	-9.82337
▁barks	-9.82349
omp	-9.82458
ade	-9.82595
cat	-9.82764
▁daughters	-9.82833
▁danbys	-9.82872
ted	-9.82932
▁ke	-9.82977
▁fade	-9.83038
▁friendly	-9.83134
▁fingers	-9.8323
▁jesu	-9.83481
▁pre	-9.83507
▁reading	-9.83792
▁cares	-9.84062
▁sub	-9.84117
▁v	-9.84146
▁hay	-9.84183
▁seeds	-9.84345
red	-9.84563
▁guards	-9.84818
▁wee	-9.84956
▁papers	-9.85023
▁manage	-9.85059
ual	-9.85061
▁holes	-9.85061
ding	-9.85146
▁pets	-9.85198
▁post	-9.85517
em	-9.8589
tch	-9.85914
ish	-9.86037
▁cows	-9.86101
▁player	-9.86324
de	-9.86532
▁slop	-9.86579
▁remind	-9.8667
▁shows	-9.86673
▁fields	-9.86704
▁talent	-9.86827
▁dang	-9.86916
ow	-9.87136
▁obstacle	-9.87142
▁mask	-9.87151
▁bride	-9.87155
▁plans	-9.87162
▁meal	-9.87341
▁gunshot	-9.8736
▁nest	-9.87367
▁pilot	-9.87392
▁mile	-9.87414
▁lesson	-9.87523
▁turning	-9.87825
▁dancer	-9.87917
▁perform	-9.88029
▁lil	-9.88123
▁sw	-9.88138
▁shoe	-9.88146
▁ti	-9.88264
▁showed	-9.88431
▁direct	-9.88459
ern	-9.88464
▁matters	-9.88482
▁heat	-9.88531
▁snap	-9.88564
five	-9.88684
fe	-9.88749
▁sneak	-9.88836
▁abandon	-9.88958
board	-9.88986
▁cent	-9.89038
john	-9.89065
▁object	-9.89219
▁proper	-9.89221
▁babe	-9.89276
▁cave	-9.89338
▁solid	-9.89348
▁develop	-9.89377
▁vegeta	-9.89389
▁nichol	-9.89404
▁ancient	-9.89405
▁ashamed	-9.89405
▁bastard	-9.89405
▁beckett	-9.89405
▁carnival	-9.89405
▁celebrate	-9.89405
▁closing	-9.89405
▁coggins	-9.89405
▁collar	-9.89405
▁cotton	-9.89405
▁disgusting	-9.89405
▁firm	-9.89405
▁ildith	-9.89405
▁invitation	-9.89405
▁juan	-9.89405
▁mcafee	-9.89405
▁montana	-9.89405
▁outfit	-9.89405
▁puddleby	-9.89405
▁ralph	-9.89405
▁reputation	-9.89405
▁saemonnosuke	-9.89405
▁silver	-9.89405
▁splendid	-9.89405
▁vanessa	-9.89405
▁voyage	-9.89405
▁byebye	-9.89405
▁gib	-9.89405
▁stood	-9.89405
▁distress	-9.89405
▁violent	-9.89405
▁alien	-9.89405
▁example	-9.89405
▁magwitch	-9.89405
▁value	-9.89405
▁decision	-9.89405
▁charlie	-9.89406
▁account	-9.89406
▁jemima	-9.89406
▁rotten	-9.89406
▁ugh	-9.89407
▁bottle	-9.89407
▁pizza	-9.89409
▁recommend	-9.89409
▁imagination	-9.89411
▁washington	-9.89412
▁attractive	-9.89412
▁forgotten	-9.89413
▁ise	-9.89413
▁brand	-9.89413
▁disaster	-9.89414
▁palace	-9.89415
▁earlier	-9.89416
▁spent	-9.89416
▁fence	-9.8942
▁route	-9.89421
▁issue	-9.89424
▁telephone	-9.89424
▁boring	-9.89424
▁mistress	-9.89424
▁pierre	-9.89427
▁automatic	-9.89427
▁alike	-9.89431
▁yuki	-9.89432
▁split	-9.89435
▁soup	-9.89443
▁chill	-9.89443
▁enth	-9.89445
▁flatter	-9.89447
▁rudder	-9.89456
▁satisfied	-9.89456
▁halfway	-9.89459
▁havin	-9.8946
▁suspect	-9.89462
▁involved	-9.89469
▁aaah	-9.89471
▁butt	-9.89473
▁friendship	-9.89484
ddya	-9.89488
▁loving	-9.89507
▁sonny	-9.89509
▁thus	-9.8951
▁rent	-9.89513
▁darkness	-9.89521
▁plus	-9.89523
▁yeller	-9.89543
▁hunger	-9.89555
▁obviously	-9.89556
▁cutting	-9.89559
▁rear	-9.89563
yard	-9.89585
▁directly	-9.89592
▁lab	-9.89597
▁cose	-9.89618
▁tiny	-9.89628
▁larger	-9.89654
▁dash	-9.89677
▁planned	-9.89714
▁ew	-9.89718
▁busted	-9.8972
▁thrown	-9.89727
▁gotten	-9.89746
▁hah	-9.89747
▁bein	-9.89783
▁honestly	-9.89788
▁created	-9.89828
▁yah	-9.89857
▁yoohoo	-9.8991
▁meowing	-9.89921
▁gotcha	-9.89939
nd	-9.89956
▁fate	-9.90054
▁falcons	-9.90082
▁warriors	-9.90082
▁seriously	-9.9009
▁ole	-9.90121
▁sides	-9.90157
cal	-9.90219
▁critters	-9.90275
▁cooking	-9.90292
▁headin	-9.90305
▁finding	-9.90435
▁raised	-9.90451
▁escaped	-9.90525
▁tra	-9.90555
int	-9.90709
▁cost	-9.90771
▁tol	-9.90776
▁injuns	-9.90855
▁moos	-9.90866
▁bus	-9.90925
▁dollars	-9.9105
▁stealing	-9.91231
▁meows	-9.91253
▁spin	-9.91256
▁hatch	-9.91275
▁hath	-9.91318
▁ham	-9.91407
ily	-9.91437
▁balance	-9.91523
▁blowing	-9.91577
▁speaker	-9.9176
▁troubles	-9.91766
▁to	-9.92668
hhh	-9.92711
by	-9.92761
▁tin	-9.92798
▁servants	-9.93005
▁drinking	-9.93207
▁bullet	-9.93444
▁fl	-9.94028
▁cha	-9.94598
▁loss	-9.94633
▁dreaming	-9.94901
▁fu	-9.94992
▁tickets	-9.95383
ho	-9.9539
▁languages	-9.96183
▁cheer	-9.96577
▁squeak	-9.967
▁jim	-9.96737
▁twenty	-9.96801
▁meow	-9.96855
▁block	-9.969
▁opening	-9.96987
▁bells	-9.96993
▁engineer	-9.97014
▁limit	-9.97163
▁model	-9.97188
▁trumpets	-9.97188
▁shoo	-9.9724
▁snake	-9.97244
▁tiger	-9.97244
cha	-9.97254
▁vi	-9.97273
▁pri	-9.97336
▁jo	-9.97354
▁circle	-9.97369
▁condition	-9.97418
▁weapon	-9.97424
▁ga	-9.97445
▁paw	-9.9746
▁bone	-9.97487
▁lo	-9.97956
▁owe	-9.97982
▁shout	-9.98353
ot	-9.98366
▁hop	-9.98676
▁inn	-9.98677
▁betray	-9.98707
▁demand	-9.98711
▁cheat	-9.98771
▁chew	-9.98776
ship	-9.98808
▁presents	-9.98809
▁sweat	-9.9884
▁melt	-9.98852
▁vo	-9.98896
▁arrest	-9.98899
looking	-9.98911
▁chain	-9.98926
▁disturb	-9.98932
▁sink	-9.98935
▁reckon	-9.98948
▁discover	-9.98967
brain	-9.99024
▁herr	-9.9905
▁su	-9.99097
▁bill	-9.9911
▁advance	-9.99124
▁worrie	-9.99176
▁absolute	-9.99224
itles	-9.99228
ev	-9.99269
▁europe	-9.99352
▁arrange	-9.99356
▁satisfact	-9.99358
▁movin	-9.99364
▁india	-9.99376
▁jam	-9.99398
▁commit	-9.99399
▁barrel	-9.99405
▁beyond	-9.99405
▁catherine	-9.99405
▁closure	-9.99405
▁corporal	-9.99405
▁crocodile	-9.99405
▁effort	-9.99405
▁grandmother	-9.99405
▁headquarters	-9.99405
▁iceberg	-9.99405
▁intelligence	-9.99405
▁jewel	-9.99405
▁justice	-9.99405
▁kulinda	-9.99405
▁lawrence	-9.99405
▁mcewen	-9.99405
▁pacific	-9.99405
▁pizarro	-9.99405
▁responsibility	-9.99405
▁rockadoodle	-9.99405
▁sallie	-9.99405
▁stockholm	-9.99405
▁submarine	-9.99405
▁teenchy	-9.99405
▁terribly	-9.99405
▁thalberg	-9.99405
▁writing	-9.99405
▁distant	-9.99405
▁estimate	-9.99405
▁hotaru	-9.99405
▁indistinct	-9.99405
▁medlock	-9.99405
▁permanent	-9.99405
▁shift	-9.99405
▁borrow	-9.99405
▁tanya	-9.99405
▁rumbling	-9.99405
▁patience	-9.99406
▁vineyard	-9.99406
▁explosion	-9.99406
▁hidden	-9.99406
▁quack	-9.99406
▁curious	-9.99406
▁puppy	-9.99407
▁flank	-9.99407
▁argh	-9.99408
▁community	-9.99408
▁lousy	-9.99408
▁blew	-9.99408
hrer	-9.99409
▁argue	-9.99409
▁cried	-9.99409
▁sunset	-9.9941
▁solene	-9.9941
▁basically	-9.99411
▁confusion	-9.99412
▁starving	-9.99412
▁lawyer	-9.99412
▁jenny	-9.99412
▁driving	-9.99413
▁pinned	-9.99414
▁festival	-9.99414
▁insane	-9.99415
▁vacation	-9.99415
▁martin	-9.99416
▁gracious	-9.99417
▁obey	-9.99418
▁heck	-9.99418
▁chair	-9.99421
▁portia	-9.99423
▁pork	-9.99423
▁worn	-9.99423
▁pupil	-9.99423
▁herbert	-9.99424
▁toto	-9.99426
▁scrap	-9.99426
▁stock	-9.99426
▁border	-9.99429
▁golly	-9.99433
▁boyfriend	-9.99435
▁extremely	-9.99435
▁sab	-9.99437
▁liar	-9.99446
▁rude	-9.99455
▁winning	-9.99457
▁lemon	-9.99461
▁secretary	-9.9947
▁cigarette	-9.99472
▁pants	-9.99475
▁abby	-9.99482
▁subt	-9.99482
▁fifty	-9.99484
▁gutsy	-9.99491
▁rubber	-9.99497
▁darn	-9.995
▁spoken	-9.99503
▁bid	-9.99508
▁totally	-9.99514
▁steer	-9.99526
▁angeles	-9.99527
▁powerful	-9.9954
▁snarling	-9.99555
▁passion	-9.99555
▁chanting	-9.99557
▁emma	-9.99559
▁penny	-9.99561
▁scary	-9.99576
▁ashes	-9.9959
▁begging	-9.99599
▁ouch	-9.99601
▁laughin	-9.99625
▁row	-9.99627
▁mass	-9.9963
▁clam	-9.9968
▁sighing	-9.99738
▁score	-9.9977
▁measure	-9.99782
▁rescued	-9.99817
▁sniffing	-9.99856
▁spy	-9.99863
▁ass	-9.99865
▁abandoned	-9.999
▁owls	-9.99944
▁homes	-9.9995
▁beans	-9.99952
▁students	-10.0016
om	-10.0025
▁eve	-10.0029
▁buzzing	-10.0039
nder	-10.0048
▁bra	-10.0052
▁carriers	-10.0059
▁figured	-10.0071
▁hee	-10.008
▁aid	-10.0096
ut	-10.0109
▁offered	-10.011
▁ar	-10.0112
▁legal	-10.0114
▁gut	-10.0116
▁inter	-10.0118
me	-10.0124
▁hung	-10.0129
▁reasons	-10.0142
rudy	-10.0144
▁awar	-10.0148
tain	-10.0154
▁grows	-10.0155
air	-10.0162
▁tis	-10.0173
▁sal	-10.0175
▁beating	-10.0189
▁games	-10.0191
ite	-10.0192
▁expected	-10.0201
▁pop	-10.0213
▁gim	-10.0226
▁fed	-10.023
▁whistles	-10.0232
▁falls	-10.0237
ka	-10.0243
ee	-10.0253
no	-10.0253
▁russians	-10.0253
▁expecting	-10.0269
▁min	-10.0292
▁training	-10.034
▁seas	-10.0368
▁pulling	-10.0385
ff	-10.0386
▁doo	-10.0417
un	-10.0442
▁furs	-10.045
▁speaks	-10.0454
▁sore	-10.0455
▁americans	-10.0473
▁colors	-10.0473
ism	-10.0485
old	-10.0531
▁ru	-10.0538
ina	-10.0543
▁tam	-10.0573
▁somethings	-10.0605
▁guests	-10.0606
▁fortunate	-10.0611
▁buck	-10.0628
▁ohho	-10.0628
▁kin	-10.0638
tic	-10.064
usi	-10.0652
▁ab	-10.0661
▁herds	-10.0673
ped	-10.0675
▁dies	-10.0739
▁bomb	-10.0778
▁masters	-10.078
▁banks	-10.0787
ral	-10.0796
▁crook	-10.08
▁seals	-10.0802
▁yell	-10.0812
▁tour	-10.0817
▁lu	-10.083
▁beats	-10.0835
▁capulet	-10.0835
▁longneck	-10.0835
▁winner	-10.0837
▁shore	-10.0839
▁button	-10.0844
king	-10.0852
▁dollar	-10.0854
▁member	-10.0855
▁chances	-10.0857
▁cloud	-10.0857
▁gar	-10.0874
▁te	-10.0932
ne	-10.0933
stically	-10.0934
▁unc	-10.0939
▁drama	-10.0966
▁suggest	-10.0977
▁comfort	-10.0978
▁et	-10.0981
▁faint	-10.0983
▁y	-10.099
▁bump	-10.0995
▁punch	-10.1004
▁float	-10.1006
room	-10.1008
▁wast	-10.1011
▁torture	-10.1022
▁invite	-10.1025
▁dirt	-10.1029
tion	-10.103
▁obvious	-10.1033
▁symbol	-10.1039
▁branch	-10.1042
▁volcano	-10.1044
▁stubborn	-10.1049
▁august	-10.1052
▁burgomaster	-10.1052
▁champagne	-10.1052
▁character	-10.1052
▁cheechee	-10.1052
▁cheyenne	-10.1052
▁cottage	-10.1052
▁elders	-10.1052
▁exchange	-10.1052
▁fifteen	-10.1052
▁flesh	-10.1052
▁garbage	-10.1052
▁giant	-10.1052
▁groaning	-10.1052
▁guarantee	-10.1052
▁hidalgo	-10.1052
▁jeanne	-10.1052
▁lincoln	-10.1052
▁maestro	-10.1052
▁melchior	-10.1052
▁memories	-10.1052
▁merci	-10.1052
▁natalie	-10.1052
▁observe	-10.1052
▁otherwise	-10.1052
▁paisley	-10.1052
▁patrol	-10.1052
▁rachel	-10.1052
▁retreat	-10.1052
▁rothbart	-10.1052
▁saloon	-10.1052
▁scuttlebutt	-10.1052
▁shuah	-10.1052
▁sobbing	-10.1052
▁traffic	-10.1052
▁wisdom	-10.1052
▁wizard	-10.1052
▁beak	-10.1052
▁drove	-10.1052
▁roast	-10.1052
▁several	-10.1052
▁abort	-10.1052
▁onx	-10.1052
▁underground	-10.1052
▁shears	-10.1052
▁urn	-10.1052
▁ambush	-10.1052
▁chutn	-10.1052
▁surface	-10.1052
▁cheerio	-10.1052
▁sorrow	-10.1052
▁attic	-10.1052
▁afore	-10.1052
▁virginia	-10.1052
▁spanish	-10.1052
▁assistant	-10.1052
▁paratroopers	-10.1052
▁romantic	-10.1052
▁paroo	-10.1052
▁scatter	-10.1052
▁extraordinary	-10.1052
▁howl	-10.1052
▁woke	-10.1052
▁motorcar	-10.1052
▁contrary	-10.1052
▁behalf	-10.1052
▁importance	-10.1052
▁yellow	-10.1052
▁jerk	-10.1052
▁click	-10.1052
▁loop	-10.1052
▁unknown	-10.1052
▁estate	-10.1053
▁weeds	-10.1053
▁atta	-10.1053
▁junk	-10.1053
▁raid	-10.1053
▁performance	-10.1053
▁miserable	-10.1053
▁pitch	-10.1053
▁wax	-10.1054
▁strict	-10.1054
▁gratitude	-10.1054
▁motion	-10.1054
▁underneath	-10.1054
▁static	-10.1054
▁extend	-10.1054
▁southern	-10.1054
▁bedroom	-10.1055
▁sentence	-10.1055
▁tinkles	-10.1055
▁aside	-10.1055
▁tucker	-10.1055
▁superman	-10.1055
▁meanwhile	-10.1055
▁admire	-10.1055
▁parade	-10.1056
▁social	-10.1056
▁runs	-10.1057
▁swan	-10.1057
▁insult	-10.1058
▁sack	-10.1058
▁lordship	-10.1058
▁held	-10.1058
▁reservation	-10.1059
▁lick	-10.1059
▁treatment	-10.106
▁hup	-10.106
▁speck	-10.106
▁susan	-10.1061
▁heathen	-10.1061
▁screeching	-10.1062
▁chirping	-10.1062
▁whispering	-10.1062
▁juice	-10.1063
▁christian	-10.1064
▁madness	-10.1064
▁style	-10.1064
▁laid	-10.1064
▁helamites	-10.1065
▁uhuh	-10.1066
▁beeping	-10.1068
▁with	-10.1069
▁hopeless	-10.1069
▁accomplished	-10.107
▁proceed	-10.107
▁standard	-10.1071
gy	-10.1072
▁butter	-10.1072
▁bury	-10.1073
▁scale	-10.1074
▁trailer	-10.1081
▁toaster	-10.1081
▁lifetime	-10.1086
▁naturally	-10.1088
▁greed	-10.1089
▁cope	-10.1093
gue	-10.1093
ber	-10.1095
▁squealing	-10.1096
▁rein	-10.1096
▁oughta	-10.1101
▁kindness	-10.1102
▁powers	-10.1104
▁bred	-10.1112
▁ancestors	-10.1112
▁entirely	-10.1113
▁bay	-10.1122
▁pisto	-10.1122
▁shy	-10.1122
▁snort	-10.1122
▁forty	-10.1123
▁male	-10.1123
▁agreed	-10.113
▁til	-10.1136
▁kings	-10.1148
▁madly	-10.1148
▁rabbits	-10.1149
▁rub	-10.115
▁feelings	-10.1152
▁slowly	-10.1155
▁au	-10.1162
▁riding	-10.1165
we	-10.1178
he	-10.1179
▁loaded	-10.1185
▁breathing	-10.1192
bert	-10.1197
▁wounds	-10.121
▁gosh	-10.1215
▁bitch	-10.1224
▁sc	-10.1227
▁cards	-10.1233
▁lied	-10.1241
▁tellin	-10.1245
ions	-10.1246
▁cl	-10.1247
▁pe	-10.1247
▁there	-10.1249
▁yells	-10.1256
▁delighted	-10.1257
▁bombs	-10.1258
▁ringing	-10.1259
▁paws	-10.1281
▁cheers	-10.1285
▁murdered	-10.1288
▁pilots	-10.1306
▁scientists	-10.133
▁tribes	-10.1333
▁tend	-10.134
▁dealing	-10.1366
▁cleaning	-10.1374
chasing	-10.1375
▁bows	-10.1382
▁jobs	-10.1387
ball	-10.1401
▁career	-10.142
▁par	-10.1421
▁waitin	-10.1425
▁chaps	-10.1429
▁tears	-10.1437
▁hehe	-10.1447
▁pulled	-10.1448
▁prisoners	-10.1488
▁tracks	-10.1501
▁spells	-10.1502
▁wondering	-10.1503
▁germans	-10.1503
▁unite	-10.1504
▁cleared	-10.1504
▁whee	-10.1507
▁walked	-10.1522
ooo	-10.1537
▁mon	-10.1549
▁ro	-10.1551
▁lifes	-10.1557
▁sounding	-10.156
▁hurting	-10.1566
▁the	-10.1568
▁health	-10.1568
win	-10.158
lt	-10.1589
▁under	-10.1599
▁can	-10.1602
▁tales	-10.1627
ge	-10.1628
▁dem	-10.1628
▁riches	-10.1648
▁suits	-10.1649
▁ade	-10.165
ap	-10.1659
▁wool	-10.1682
ake	-10.1688
▁charges	-10.1701
ory	-10.1706
▁wh	-10.1729
▁sat	-10.1752
▁sum	-10.1762
▁headed	-10.1769
uh	-10.1775
▁arts	-10.1784
▁aa	-10.1786
▁preserve	-10.179
fish	-10.1801
ug	-10.1846
▁tells	-10.19
her	-10.1925
os	-10.1945
▁husbands	-10.1953
▁idiots	-10.1953
▁pan	-10.1994
▁sniff	-10.2044
ished	-10.2045
▁changes	-10.205
▁slipper	-10.2053
▁chatter	-10.2056
▁dan	-10.206
▁photograph	-10.2066
▁blacksmith	-10.2075
▁newspaper	-10.2075
▁lump	-10.2075
▁grain	-10.2088
▁operation	-10.2092
▁fore	-10.2097
▁cell	-10.2098
▁injun	-10.2102
▁pajama	-10.2107
▁hebrew	-10.2108
▁sailor	-10.2108
▁beside	-10.2109
▁nut	-10.2113
▁carl	-10.2116
▁fan	-10.2124
down	-10.213
▁bands	-10.2132
otage	-10.2183
▁pit	-10.2229
▁plum	-10.224
ize	-10.2243
▁bits	-10.2245
▁feast	-10.2246
▁pluck	-10.2247
▁wander	-10.2247
▁inform	-10.2252
▁challenge	-10.2253
what	-10.2255
▁poison	-10.2255
hood	-10.2255
▁adopt	-10.2256
▁taint	-10.2265
mental	-10.2266
▁hug	-10.2267
▁saddle	-10.2269
▁gain	-10.2272
▁earn	-10.2272
rank	-10.2273
▁damage	-10.2275
▁official	-10.228
▁mist	-10.2284
▁cher	-10.2288
▁russia	-10.2295
just	-10.2295
▁comb	-10.2296
▁leavin	-10.2296
▁mornin	-10.2297
▁lair	-10.2297
▁confess	-10.2297
▁makin	-10.2297
▁hospital	-10.2299
▁cigar	-10.2301
▁hexxus	-10.2302
▁swallow	-10.2302
▁wretch	-10.2302
alalalala	-10.2302
▁arnold	-10.2302
▁atlanta	-10.2302
▁attila	-10.2302
▁attitude	-10.2302
▁bargain	-10.2302
▁bonjour	-10.2302
▁bonnet	-10.2302
▁california	-10.2302
▁casino	-10.2302
▁chemistry	-10.2302
▁chorus	-10.2302
▁creek	-10.2302
▁delicate	-10.2302
▁disguise	-10.2302
▁doshy	-10.2302
▁dungeon	-10.2302
▁earthquake	-10.2302
▁expert	-10.2302
▁freak	-10.2302
▁gargery	-10.2302
▁giggling	-10.2302
▁katherine	-10.2302
▁kuramoto	-10.2302
▁leyasu	-10.2302
▁marguerite	-10.2302
▁maxwell	-10.2302
▁mlck	-10.2302
▁nodeen	-10.2302
▁okavango	-10.2302
▁population	-10.2302
▁pretend	-10.2302
▁razor	-10.2302
▁refuge	-10.2302
▁resort	-10.2302
▁shackleton	-10.2302
▁shelter	-10.2302
▁someplace	-10.2302
▁swamp	-10.2302
▁underwear	-10.2302
▁university	-10.2302
▁venture	-10.2302
▁wilson	-10.2302
▁crime	-10.2302
▁deputy	-10.2302
▁instance	-10.2302
▁knowledge	-10.2302
▁messenger	-10.2302
▁onboard	-10.2302
▁tavern	-10.2302
▁youth	-10.2302
ropoli	-10.2302
▁deleon	-10.2302
▁improve	-10.2302
▁kelly	-10.2302
▁evans	-10.2302
▁yippee	-10.2302
▁avery	-10.2302
▁sledge	-10.2302
▁animat	-10.2302
▁fireworks	-10.2302
▁necessary	-10.2302
▁stroke	-10.2302
▁dixie	-10.2302
▁funeral	-10.2302
▁password	-10.2302
▁scotland	-10.2302
▁reject	-10.2302
▁hiya	-10.2302
▁society	-10.2302
▁friday	-10.2302
▁vulgaria	-10.2302
▁decent	-10.2302
▁hunch	-10.2302
▁international	-10.2302
▁whatll	-10.2302
▁current	-10.2302
▁haircut	-10.2302
▁authority	-10.2302
▁righteous	-10.2302
▁pumpkin	-10.2302
▁trunk	-10.2302
▁cluck	-10.2302
▁bingo	-10.2302
▁drool	-10.2302
▁bolt	-10.2302
▁repay	-10.2302
▁desk	-10.2303
▁bored	-10.2303
▁margot	-10.2303
▁unbelievable	-10.2303
▁smokehouse	-10.2303
▁luxury	-10.2303
▁kidnapped	-10.2304
▁gear	-10.2304
▁lend	-10.2304
▁otto	-10.2304
▁boil	-10.2304
▁crater	-10.2304
▁shopping	-10.2304
▁eagle	-10.2304
▁advantage	-10.2304
▁gno	-10.2304
▁research	-10.2304
▁responsible	-10.2304
gative	-10.2305
▁role	-10.2305
▁muffin	-10.2305
▁recently	-10.2305
▁robin	-10.2306
▁balloon	-10.2306
▁lazy	-10.2306
▁bu	-10.2306
▁divine	-10.2307
▁polish	-10.2307
▁self	-10.2307
▁inland	-10.2307
▁arrangement	-10.2308
▁oil	-10.2308
▁habit	-10.2308
▁gamble	-10.2308
▁iceland	-10.2309
▁malo	-10.2309
▁beings	-10.2309
▁puff	-10.231
▁tempy	-10.231
▁candy	-10.231
▁haha	-10.231
▁entry	-10.231
▁sex	-10.231
▁stopping	-10.2313
uous	-10.2314
▁steele	-10.2315
▁pace	-10.2315
▁tries	-10.2315
▁dolly	-10.2317
▁goblins	-10.2317
▁heroes	-10.2318
▁pm	-10.2319
▁hose	-10.2319
day	-10.2319
▁tone	-10.232
mount	-10.2321
new	-10.2321
▁historic	-10.2323
▁deck	-10.2323
▁forth	-10.2323
▁moan	-10.2323
▁obliged	-10.2326
▁cast	-10.2326
▁bounce	-10.2327
▁sport	-10.2328
▁endless	-10.2331
▁desire	-10.2331
▁setting	-10.2331
▁dave	-10.2332
▁bubber	-10.2333
▁stream	-10.2333
our	-10.2333
▁proof	-10.2334
▁why	-10.2336
▁highway	-10.2336
▁down	-10.2339
▁useful	-10.2341
zy	-10.2343
▁honking	-10.2344
▁bando	-10.2346
▁adopted	-10.2347
▁mae	-10.2349
▁nicker	-10.2351
▁managed	-10.2352
▁godet	-10.2353
▁host	-10.2356
▁outer	-10.2363
▁hog	-10.2367
▁hunter	-10.237
▁that	-10.2376
▁cab	-10.2381
▁sneaking	-10.2382
▁concerned	-10.2389
▁tires	-10.2398
ians	-10.2404
ety	-10.2405
▁ranch	-10.2406
▁marching	-10.2407
▁fighters	-10.2413
▁sire	-10.2414
▁counter	-10.2414
▁carefully	-10.2418
▁worthy	-10.2422
ze	-10.2425
▁citizens	-10.2426
▁details	-10.2426
▁dish	-10.2433
▁tub	-10.2442
▁flu	-10.2446
▁sew	-10.2451
▁county	-10.2453
▁enjoyed	-10.2463
▁boats	-10.2466
▁messing	-10.2466
▁pic	-10.2481
▁blessing	-10.2498
▁cosm	-10.2498
▁walker	-10.2504
▁rivers	-10.2509
▁cars	-10.2509
▁pajamas	-10.2509
▁thinks	-10.2511
▁card	-10.2526
▁madame	-10.2531
▁ni	-10.2537
▁crooks	-10.2537
ad	-10.2542
▁checked	-10.2573
▁workers	-10.2574
▁pushed	-10.2574
▁ay	-10.2588
▁passing	-10.2591
▁reminds	-10.2594
▁cleaned	-10.2594
▁du	-10.2604
▁pot	-10.261
ack	-10.2616
iest	-10.2617
▁facts	-10.2632
▁teachers	-10.2637
▁pushing	-10.2646
▁angels	-10.2648
lin	-10.2673
▁frogs	-10.2676
▁appears	-10.2678
▁them	-10.2682
ned	-10.2682
mon	-10.2686
▁hates	-10.2695
▁nurs	-10.2709
roll	-10.2728
▁normal	-10.2729
▁kindly	-10.2748
▁camels	-10.2761
ac	-10.2768
▁smelling	-10.2801
▁santas	-10.2817
▁mat	-10.2831
▁ve	-10.2833
national	-10.2837
skin	-10.2861
ell	-10.2864
tin	-10.2874
▁lid	-10.2889
uff	-10.2892
▁gre	-10.2896
▁dump	-10.2907
ga	-10.291
▁ben	-10.2922
▁voices	-10.2922
▁plann	-10.2937
▁peri	-10.2947
▁bust	-10.2956
▁desp	-10.2964
▁com	-10.2973
▁spots	-10.2977
▁ended	-10.2978
▁rib	-10.303
sion	-10.3062
▁va	-10.3073
▁pigeons	-10.3074
mp	-10.3085
▁thousands	-10.3103
▁ignore	-10.3104
▁tube	-10.3105
ay	-10.3118
▁undo	-10.3123
▁opens	-10.3135
▁invade	-10.3143
ldo	-10.3163
nce	-10.3169
▁watched	-10.317
▁ad	-10.3175
▁instant	-10.3192
▁dangers	-10.3197
▁hears	-10.3207
per	-10.3221
▁picks	-10.3227
cation	-10.3238
▁explode	-10.3242
▁lass	-10.3249
▁worrying	-10.3295
▁declare	-10.3354
▁sticks	-10.3356
ren	-10.338
ata	-10.3383
▁waited	-10.3406
▁uhhh	-10.3466
▁squeal	-10.3477
▁wound	-10.3487
▁medal	-10.3504
▁pr	-10.3504
▁carpet	-10.3505
▁exercise	-10.3515
▁penguin	-10.3523
▁traitor	-10.3523
▁uniform	-10.3534
▁roger	-10.3534
▁sometime	-10.3538
▁chuckle	-10.3538
▁palm	-10.3549
▁scar	-10.355
▁for	-10.3555
▁hip	-10.3562
▁understanding	-10.3567
▁yard	-10.3581
off	-10.3584
port	-10.3585
▁steam	-10.3593
ist	-10.3596
▁bat	-10.3616
▁includ	-10.3634
rid	-10.3634
olar	-10.3638
ian	-10.3642
▁roar	-10.3654
▁ri	-10.3661
▁greet	-10.3663
▁interrupt	-10.367
ten	-10.3671
where	-10.3673
▁cough	-10.3679
▁succeed	-10.368
▁shock	-10.3683
like	-10.3684
▁grant	-10.3688
zing	-10.3688
right	-10.3689
bird	-10.3693
back	-10.3694
proof	-10.3694
stream	-10.3694
ator	-10.3696
you	-10.3696
ummy	-10.3696
oohooh	-10.3699
▁returns	-10.3703
▁wealth	-10.3704
▁jumpin	-10.3704
▁thirst	-10.3707
▁trade	-10.3709
▁stink	-10.3709
▁wipe	-10.3711
▁unfortunate	-10.3712
ni	-10.3712
▁endure	-10.3712
stone	-10.3713
▁amen	-10.3714
▁operate	-10.3717
▁actual	-10.3717
▁x	-10.3719
▁weigh	-10.3722
▁lenno	-10.3723
▁drag	-10.3724
▁transit	-10.3726
▁anders	-10.3727
▁resist	-10.3729
▁stir	-10.3729
▁digg	-10.373
▁scientific	-10.373
commanderinchief	-10.373
▁altogether	-10.373
▁ambassador	-10.373
▁anniversary	-10.373
▁babies	-10.373
▁benedict	-10.373
▁bourbon	-10.373
▁camille	-10.373
▁cavalry	-10.373
▁circumstances	-10.373
▁colleague	-10.373
▁combination	-10.373
▁compeyson	-10.373
▁device	-10.373
▁eager	-10.373
▁edinburgh	-10.373
▁empire	-10.373
▁encounter	-10.373
▁environment	-10.373
▁eulalie	-10.373
▁evidence	-10.373
▁explanation	-10.373
▁fanfare	-10.373
▁ferraday	-10.373
▁footsteps	-10.373
▁icecream	-10.373
▁kamanosuke	-10.373
▁matriarch	-10.373
▁mcgillicuddy	-10.373
▁miraculous	-10.373
▁nephew	-10.373
▁phew	-10.373
▁pushmipullyu	-10.373
▁restaurant	-10.373
▁rifle	-10.373
▁scanner	-10.373
▁sixteen	-10.373
▁species	-10.373
▁substitute	-10.373
▁tokyo	-10.373
▁weimar	-10.373
▁yuck	-10.373
▁zebedee	-10.373
▁committee	-10.373
▁disagree	-10.373
▁expense	-10.373
▁godmother	-10.373
▁mcatee	-10.373
▁rhyme	-10.373
▁annoy	-10.373
▁dithering	-10.373
▁modern	-10.373
▁period	-10.373
▁volunteer	-10.373
▁comanche	-10.373
▁echo	-10.373
▁noisy	-10.373
▁legend	-10.373
▁awesome	-10.373
▁agency	-10.373
▁bicycle	-10.373
▁practical	-10.373
▁intercept	-10.373
▁murray	-10.373
▁dishyer	-10.373
▁pitts	-10.373
▁appointment	-10.373
▁glorious	-10.373
▁worship	-10.373
▁kelsey	-10.373
▁wolves	-10.373
▁bud	-10.373
▁pebble	-10.373
▁transformation	-10.373
▁buried	-10.373
▁misha	-10.373
▁material	-10.373
▁neighborhood	-10.373
▁scoop	-10.373
▁departure	-10.373
▁initial	-10.3731
▁quarrel	-10.3731
▁brook	-10.3731
▁jimmy	-10.3731
▁tsar	-10.3731
▁spear	-10.3731
▁brief	-10.3731
▁vital	-10.3731
▁arrival	-10.3731
▁backwards	-10.3731
▁frame	-10.3731
▁formula	-10.3731
▁dickon	-10.3731
▁skill	-10.3731
▁selfish	-10.3731
▁bacon	-10.3731
▁mature	-10.3731
▁tool	-10.3731
▁rising	-10.3731
▁punishment	-10.3731
▁heap	-10.3731
▁reception	-10.3731
▁langu	-10.3731
▁twothirds	-10.3732
▁behold	-10.3732
▁source	-10.3732
▁cozy	-10.3732
▁toby	-10.3732
▁dune	-10.3732
▁chess	-10.3732
▁calver	-10.3732
▁moonlight	-10.3732
▁gomorrah	-10.3732
▁captive	-10.3732
▁thud	-10.3732
▁spaceship	-10.3733
▁thirty	-10.3733
▁divers	-10.3733
▁bluebird	-10.3733
▁civilian	-10.3733
▁notches	-10.3733
temperature	-10.3733
▁bodies	-10.3733
▁margaret	-10.3733
▁ivor	-10.3733
▁brace	-10.3733
▁cootchi	-10.3733
▁dong	-10.3734
▁sandwiches	-10.3734
▁crust	-10.3734
▁apparently	-10.3735
▁undoubtedly	-10.3735
▁alley	-10.3735
▁troublemaker	-10.3735
▁sank	-10.3736
▁exit	-10.3737
▁trial	-10.3737
▁bitter	-10.3737
▁logical	-10.3737
▁minor	-10.3737
▁alongside	-10.3737
▁greg	-10.3738
▁sour	-10.3738
▁tip	-10.3739
▁freeze	-10.3739
▁collection	-10.3739
▁torment	-10.3739
▁marie	-10.374
▁whale	-10.374
boy	-10.374
▁surrounded	-10.3741
▁consideration	-10.3742
▁lune	-10.3743
▁artist	-10.3743
▁mori	-10.3744
▁badge	-10.3744
▁mmmm	-10.3744
▁haste	-10.3745
▁doors	-10.3746
▁machinery	-10.3746
▁johnson	-10.3747
▁sixty	-10.3747
▁hyenas	-10.3748
▁plug	-10.3749
doodle	-10.3749
▁fuss	-10.3751
▁tender	-10.3753
▁protection	-10.3754
▁glow	-10.3754
▁exhausted	-10.3755
▁shred	-10.3757
▁stray	-10.376
▁zero	-10.3762
▁invented	-10.3762
▁selected	-10.3762
▁imitate	-10.3762
▁expression	-10.3763
▁bubble	-10.3765
▁fallen	-10.3766
▁embarrassing	-10.377
▁recall	-10.3771
side	-10.3771
▁oft	-10.3772
▁cowardly	-10.3774
▁lofty	-10.3775
▁mansion	-10.3777
▁wounded	-10.3777
▁hom	-10.3777
▁stairs	-10.3779
▁prophets	-10.3779
▁trombones	-10.3779
▁sch	-10.3782
▁oops	-10.3782
nows	-10.3786
▁taller	-10.3788
▁corpse	-10.3789
▁dial	-10.3791
▁refused	-10.3792
▁vast	-10.3794
▁wandering	-10.3797
▁reckoned	-10.3797
▁disturbed	-10.3797
▁dresses	-10.3797
▁customer	-10.3801
▁halt	-10.3804
▁lang	-10.3807
▁comrades	-10.3811
▁settled	-10.3814
▁wag	-10.3815
▁cord	-10.3818
▁batt	-10.3826
▁knees	-10.3843
▁neutrinos	-10.3843
▁generations	-10.3843
ied	-10.385
▁and	-10.3853
▁musicians	-10.3855
▁helpless	-10.3864
ull	-10.3868
hand	-10.3869
ington	-10.387
▁experiments	-10.3875
▁terms	-10.3875
▁af	-10.3876
▁tied	-10.388
▁climbing	-10.3886
colo	-10.3891
pt	-10.3892
▁jon	-10.3892
▁dearest	-10.3903
▁roots	-10.3906
▁lollipops	-10.3907
▁neighbors	-10.3907
▁priests	-10.3907
▁rumors	-10.3907
ties	-10.3909
▁feeding	-10.3913
tar	-10.3916
▁prayers	-10.3921
▁chat	-10.3926
▁sailing	-10.3931
▁steps	-10.3931
▁medic	-10.3932
▁chuch	-10.3939
▁successful	-10.3942
▁hol	-10.3945
▁honored	-10.3947
▁treated	-10.3955
▁stops	-10.3956
▁nicer	-10.397
▁sniffs	-10.3971
▁feared	-10.3972
▁fans	-10.3973
ft	-10.3982
gh	-10.3988
▁lighter	-10.3998
ki	-10.4002
▁mono	-10.4008
▁treating	-10.4013
ists	-10.402
▁soci	-10.4023
▁murderer	-10.4023
▁pops	-10.4023
▁teaching	-10.403
▁circles	-10.4036
aw	-10.404
▁cleaner	-10.4045
▁rio	-10.4052
▁messages	-10.4053
▁gunshots	-10.4069
sperate	-10.4071
▁numbers	-10.4083
▁classic	-10.4096
▁hopes	-10.4099
ig	-10.41
▁acorns	-10.4102
▁waves	-10.4104
am	-10.4106
ened	-10.4106
▁boob	-10.4108
▁signed	-10.4127
▁stuffed	-10.4148
▁damned	-10.4156
▁brakes	-10.4167
▁cousins	-10.4167
▁likely	-10.4171
▁handy	-10.4172
ang	-10.4173
car	-10.4185
▁wal	-10.4206
▁u	-10.4216
▁bod	-10.4225
ated	-10.423
▁sounded	-10.4261
▁concentrate	-10.4263
▁stations	-10.4268
oever	-10.4308
▁op	-10.4324
▁remains	-10.4332
▁sos	-10.4349
▁badly	-10.4357
ais	-10.4409
▁sings	-10.4448
▁jokes	-10.4466
ock	-10.4479
ke	-10.448
▁require	-10.4481
▁gene	-10.4499
ave	-10.4503
▁sakes	-10.4504
▁coo	-10.4531
▁beasts	-10.4533
away	-10.4534
ville	-10.4548
▁fri	-10.4607
▁groups	-10.4634
▁promises	-10.4652
▁not	-10.4666
▁gifts	-10.4668
▁she	-10.4675
mate	-10.4685
▁dears	-10.4699
all	-10.4722
▁ignor	-10.4737
▁mag	-10.4744
▁cu	-10.4748
▁pu	-10.477
ean	-10.4775
▁ram	-10.4831
hi	-10.4837
▁fears	-10.4843
▁buzze	-10.4859
light	-10.4912
lon	-10.4926
▁lettin	-10.4949
bit	-10.4951
let	-10.4969
▁princes	-10.4974
imp	-10.501
ca	-10.5028
ache	-10.5035
▁poles	-10.5038
▁mos	-10.5046
row	-10.5056
▁mob	-10.5079
meter	-10.5089
▁believes	-10.5095
▁sigh	-10.5105
▁jacks	-10.5113
▁peck	-10.5119
▁squawk	-10.5135
▁flow	-10.5147
▁ami	-10.5156
▁cheek	-10.5161
mighty	-10.5169
▁principle	-10.517
▁suitcase	-10.517
▁instruction	-10.5174
▁net	-10.5174
▁troop	-10.5175
▁willow	-10.5181
▁failure	-10.5182
▁moor	-10.5182
ign	-10.5182
▁villain	-10.5184
▁occasion	-10.5185
▁compliment	-10.5186
▁helicopter	-10.5186
▁passenger	-10.5189
▁neighbor	-10.5192
▁lollipop	-10.5192
▁rumor	-10.5193
▁convict	-10.5197
▁fer	-10.5199
▁degree	-10.52
▁carrier	-10.5201
▁priest	-10.5202
▁sodomite	-10.5202
oring	-10.5225
igger	-10.5243
▁provide	-10.5252
▁stretch	-10.526
ench	-10.5262
kin	-10.5265
▁prayer	-10.5269
▁bake	-10.527
work	-10.5274
▁goal	-10.5283
▁charm	-10.529
▁ge	-10.5301
▁creep	-10.5302
▁root	-10.5302
▁hmmm	-10.5302
inner	-10.5316
▁goto	-10.5324
▁hills	-10.5325
▁harvest	-10.533
▁chick	-10.5331
▁connect	-10.5338
▁defeat	-10.5341
▁rais	-10.5342
▁civil	-10.5345
▁micro	-10.535
aunt	-10.5353
▁print	-10.5354
daughter	-10.5359
eeze	-10.536
claim	-10.5361
feather	-10.5362
zero	-10.5362
mouth	-10.5362
▁schedule	-10.5368
▁honk	-10.5368
▁will	-10.5368
▁acknowledge	-10.5373
hail	-10.5373
face	-10.5374
▁phil	-10.5375
min	-10.5376
▁moves	-10.5378
▁grin	-10.5378
▁immediate	-10.5379
▁juic	-10.5379
▁steel	-10.5379
▁total	-10.5379
▁widow	-10.538
▁faithful	-10.5385
▁detect	-10.5387
▁cam	-10.5388
▁cloth	-10.5388
for	-10.5388
edient	-10.5389
maker	-10.5391
▁contract	-10.5391
▁dancin	-10.5392
▁conduct	-10.5392
▁announce	-10.5394
umblechook	-10.5394
▁bel	-10.5395
▁remove	-10.5396
▁basic	-10.5396
▁negotiat	-10.5396
▁fantas	-10.5396
ldren	-10.5396
▁represent	-10.5396
semble	-10.5397
misunderstanding	-10.5397
▁achieve	-10.5397
▁airborne	-10.5397
▁although	-10.5397
▁anvil	-10.5397
▁apology	-10.5397
▁apprentice	-10.5397
▁auxiliary	-10.5397
▁benefactor	-10.5397
▁canada	-10.5397
▁carolyne	-10.5397
▁charity	-10.5397
▁chemical	-10.5397
▁claverton	-10.5397
▁coincidence	-10.5397
▁collapse	-10.5397
▁colours	-10.5397
▁compass	-10.5397
▁conclusion	-10.5397
▁convinced	-10.5397
▁corridor	-10.5397
▁courier	-10.5397
▁destiny	-10.5397
▁disease	-10.5397
▁display	-10.5397
▁eliminate	-10.5397
▁fairfax	-10.5397
▁fashion	-10.5397
▁ferngully	-10.5397
▁goodfornothing	-10.5397
▁guitar	-10.5397
▁gullywhumper	-10.5397
▁halfbreed	-10.5397
▁hehheh	-10.5397
▁incident	-10.5397
▁kangaroo	-10.5397
▁laboratory	-10.5397
▁mechanic	-10.5397
▁mirror	-10.5397
▁mousekewitz	-10.5397
▁mystery	-10.5397
▁natchez	-10.5397
▁necessarily	-10.5397
▁november	-10.5397
▁orphan	-10.5397
▁parrot	-10.5397
▁peculiar	-10.5397
▁pharisee	-10.5397
▁philosoph	-10.5397
▁quetzamal	-10.5397
▁ragwort	-10.5397
▁rehearse	-10.5397
▁relief	-10.5397
▁rennes	-10.5397
▁samurai	-10.5397
▁shawl	-10.5397
▁siberia	-10.5397
▁specimen	-10.5397
▁studio	-10.5397
▁stuey	-10.5397
▁sublime	-10.5397
▁technical	-10.5397
▁thumb	-10.5397
▁tournament	-10.5397
▁tradition	-10.5397
▁tremaine	-10.5397
▁turtle	-10.5397
▁virtue	-10.5397
▁wednesday	-10.5397
▁whitlow	-10.5397
▁wilkes	-10.5397
▁zaneeta	-10.5397
▁zelozelos	-10.5397
▁zurich	-10.5397
▁envy	-10.5397
▁eternal	-10.5397
▁extinct	-10.5397
▁fourteen	-10.5397
▁protest	-10.5397
▁rosalie	-10.5397
▁snatch	-10.5397
▁solicit	-10.5397
▁equal	-10.5397
▁offend	-10.5397
▁pecos	-10.5397
▁sloppy	-10.5397
▁surprising	-10.5397
▁abraham	-10.5397
▁carrot	-10.5397
▁drumming	-10.5397
▁impact	-10.5397
▁yacht	-10.5397
▁explorer	-10.5397
▁limb	-10.5397
▁jelly	-10.5397
▁severe	-10.5397
▁hark	-10.5397
▁debt	-10.5397
▁drain	-10.5397
▁cliff	-10.5397
▁yawns	-10.5397
▁banana	-10.5397
▁december	-10.5397
▁mixture	-10.5397
▁residence	-10.5397
▁anyhow	-10.5397
▁vents	-10.5397
▁install	-10.5397
▁purse	-10.5397
▁laddie	-10.5397
▁morrow	-10.5397
▁confederate	-10.5397
▁gracias	-10.5397
▁helmet	-10.5397
▁mushroom	-10.5397
▁fisherman	-10.5397
▁vermin	-10.5397
▁gents	-10.5397
▁woohoo	-10.5397
burgh	-10.5397
▁destruction	-10.5397
▁forfeit	-10.5397
▁kitten	-10.5397
▁antoine	-10.5397
▁burden	-10.5397
▁network	-10.5397
▁popular	-10.5397
▁ladder	-10.5397
▁squadron	-10.5397
▁dinah	-10.5397
▁franny	-10.5397
▁vedor	-10.5397
▁confound	-10.5397
▁temple	-10.5397
▁porch	-10.5397
▁itd	-10.5397
▁urgent	-10.5397
▁hmph	-10.5397
▁survival	-10.5398
▁birth	-10.5398
▁theory	-10.5398
▁maude	-10.5398
▁overall	-10.5398
▁behavior	-10.5398
▁confirmation	-10.5398
▁batteries	-10.5398
▁rail	-10.5398
▁brew	-10.5398
▁accordion	-10.5398
▁committed	-10.5398
▁churchyard	-10.5398
▁available	-10.5398
▁clanking	-10.5398
▁denied	-10.5398
▁defenseless	-10.5398
▁morton	-10.5398
▁rattle	-10.5398
▁ike	-10.5398
▁dummies	-10.5398
▁tasty	-10.5399
▁communicate	-10.5399
▁scott	-10.5399
▁subway	-10.5399
▁tramp	-10.5399
▁positive	-10.5399
▁meeko	-10.5399
▁twink	-10.5399
▁happier	-10.5399
▁snuff	-10.5399
▁percy	-10.5399
▁litter	-10.5399
▁fraidy	-10.5399
▁lurky	-10.5399
▁whine	-10.5399
▁grade	-10.5399
▁rome	-10.5399
▁bellowes	-10.5399
▁inf	-10.5399
▁skinny	-10.54
▁alfred	-10.54
▁intruder	-10.54
▁tense	-10.54
▁whoosh	-10.54
▁swell	-10.54
▁practicing	-10.54
▁contain	-10.54
▁stew	-10.54
▁kansas	-10.5401
▁quote	-10.5401
▁sausage	-10.5401
▁steak	-10.5401
▁struck	-10.5401
▁acoming	-10.5401
▁chl	-10.5401
▁quest	-10.5401
▁slept	-10.5401
yoshi	-10.5401
▁circuit	-10.5401
▁fake	-10.5401
▁pasture	-10.5402
▁nearby	-10.5402
▁icelandic	-10.5402
▁visitors	-10.5402
▁diversion	-10.5402
▁render	-10.5402
▁yapping	-10.5402
▁grownup	-10.5402
▁ease	-10.5402
rizon	-10.5403
▁potatoes	-10.5403
▁bait	-10.5403
▁peaches	-10.5403
▁profit	-10.5403
▁facility	-10.5403
▁heir	-10.5404
▁delay	-10.5404
▁luckily	-10.5404
▁takin	-10.5404
▁dread	-10.5404
▁connection	-10.5405
▁furry	-10.5405
▁lennon	-10.5405
▁sap	-10.5405
▁commerce	-10.5405
▁woof	-10.5405
▁stur	-10.5406
▁runthrough	-10.5406
▁dug	-10.5406
▁mason	-10.5406
▁hardship	-10.5407
tabe	-10.5407
▁screen	-10.5407
▁vain	-10.5407
▁century	-10.5407
▁spooky	-10.5408
▁gum	-10.5408
▁jury	-10.5408
▁formation	-10.5409
▁moth	-10.5409
▁flash	-10.5409
oats	-10.541
▁huntin	-10.541
▁surrounding	-10.5413
▁guardian	-10.5414
▁engaged	-10.5415
▁rot	-10.5415
tically	-10.5416
▁bald	-10.5416
▁daylight	-10.5417
▁triple	-10.5417
▁sixth	-10.5417
▁hoop	-10.5418
▁candles	-10.5419
▁tide	-10.5419
▁sang	-10.5419
▁dock	-10.5419
▁instruct	-10.5421
▁hired	-10.5422
▁drawn	-10.5423
▁replaced	-10.5424
▁impressed	-10.5424
▁fame	-10.5425
▁organized	-10.5426
▁dragged	-10.5427
▁r	-10.5427
▁grey	-10.5428
▁riders	-10.5429
▁wiped	-10.543
▁hangar	-10.5433
▁properly	-10.5434
▁sucker	-10.5438
▁para	-10.5438
▁particularly	-10.5441
▁link	-10.5443
▁cheerful	-10.5445
▁advanced	-10.5445
▁blown	-10.5446
▁beaches	-10.5446
▁dah	-10.5451
▁string	-10.5452
▁pest	-10.5454
▁sunk	-10.5456
▁spose	-10.5456
▁hostile	-10.546
▁civiliz	-10.546
▁forge	-10.5461
▁earned	-10.5461
▁ohhh	-10.5465
▁roaring	-10.5466
▁compete	-10.5466
▁digging	-10.5467
▁pond	-10.5468
▁constant	-10.5471
▁lace	-10.5473
▁driver	-10.5475
▁rockin	-10.5479
▁metal	-10.5479
▁eighty	-10.5481
eer	-10.5492
▁ross	-10.5493
▁puppets	-10.5493
▁threehorns	-10.5493
▁lion	-10.5494
▁existed	-10.5496
▁stormy	-10.5499
▁loudly	-10.5501
den	-10.5503
▁verse	-10.5509
▁toes	-10.5511
▁flooded	-10.5511
▁pauly	-10.5512
▁appeared	-10.5513
▁failed	-10.5519
▁rushed	-10.5528
▁suffering	-10.553
▁feathered	-10.553
▁awaits	-10.5531
▁knots	-10.5531
▁communications	-10.5531
▁washed	-10.5538
▁kisses	-10.5539
▁fry	-10.5542
▁armed	-10.5547
▁nu	-10.5549
▁slu	-10.5558
▁rushing	-10.5563
oo	-10.5578
▁moose	-10.5579
ough	-10.5583
▁reported	-10.5583
▁belly	-10.5587
▁cracked	-10.5587
▁sailed	-10.5588
▁accepted	-10.5599
ud	-10.56
▁aft	-10.5604
▁passengers	-10.5609
▁machines	-10.5611
▁this	-10.5628
▁drawing	-10.563
▁jun	-10.5634
ect	-10.5641
▁quietly	-10.5644
▁marks	-10.5645
▁penguins	-10.5647
▁traitors	-10.5647
lock	-10.5648
▁replace	-10.5657
▁event	-10.5664
my	-10.5664
▁ton	-10.5666
▁cells	-10.5686
▁sailors	-10.5689
▁bobb	-10.571
▁shovel	-10.5712
▁crossing	-10.5747
▁workin	-10.5749
▁blocks	-10.5766
dh	-10.577
dor	-10.577
tive	-10.5785
arbles	-10.5791
▁str	-10.5792
▁bothering	-10.5798
rung	-10.583
ook	-10.5832
▁temper	-10.5851
▁explaining	-10.5868
▁cur	-10.5891
▁answered	-10.5898
▁slowing	-10.59
▁qui	-10.5902
▁toffe	-10.5932
▁pi	-10.5953
▁flights	-10.5961
▁regrets	-10.5961
▁clans	-10.5962
▁wondered	-10.5971
▁worker	-10.5979
▁gr	-10.5979
ip	-10.5982
▁sis	-10.5993
va	-10.6014
stop	-10.6029
▁hast	-10.6047
ana	-10.6062
▁pointing	-10.6063
▁po	-10.6067
atter	-10.6074
▁chisums	-10.6084
▁sheriffs	-10.6084
▁strangers	-10.6096
▁ann	-10.6105
▁und	-10.6111
▁diamonds	-10.6121
▁pups	-10.6121
▁lamps	-10.6122
ously	-10.613
▁all	-10.6137
▁millions	-10.6162
ono	-10.6172
▁gates	-10.6201
ept	-10.6221
▁dec	-10.6236
▁summers	-10.6242
▁lambs	-10.6252
▁hen	-10.6253
▁flea	-10.6265
▁commanders	-10.6265
▁sn	-10.6269
▁kissing	-10.6295
▁clearing	-10.6319
▁areas	-10.632
▁mac	-10.632
▁dim	-10.632
ying	-10.6329
▁ki	-10.6334
▁advise	-10.6347
pping	-10.6358
▁bags	-10.6372
▁ag	-10.6373
ouch	-10.6387
▁guessed	-10.639
▁officers	-10.6409
ery	-10.6457
pri	-10.6461
▁stays	-10.6485
▁engines	-10.6488
▁kidnap	-10.6498
ice	-10.652
▁inch	-10.6528
▁ku	-10.6532
▁relieve	-10.6558
▁tri	-10.659
▁letters	-10.6611
tter	-10.6615
▁tru	-10.662
▁employ	-10.6631
▁cans	-10.6655
▁lit	-10.6656
▁prime	-10.6694
ci	-10.6697
▁cart	-10.6709
come	-10.6712
▁forms	-10.6719
▁ver	-10.6726
nies	-10.6752
ler	-10.6759
vin	-10.677
cul	-10.679
▁pine	-10.6795
▁rena	-10.6824
au	-10.6834
▁islands	-10.686
ork	-10.69
ko	-10.691
ung	-10.6926
rous	-10.6928
▁dia	-10.6936
fully	-10.6937
▁rob	-10.6945
▁shhh	-10.6952
vet	-10.6965
ire	-10.698
ob	-10.7012
▁hei	-10.7019
bs	-10.7028
▁bug	-10.7044
ew	-10.7055
▁bur	-10.7063
mour	-10.7068
▁custom	-10.7068
pose	-10.7099
ado	-10.7154
▁grunt	-10.7155
▁gasp	-10.7159
▁doll	-10.7168
▁zuckerman	-10.717
▁rival	-10.717
▁rascal	-10.717
▁zone	-10.717
▁panel	-10.7172
▁suggestion	-10.7177
▁dinosaur	-10.718
▁height	-10.7181
▁prospect	-10.7181
ence	-10.7192
▁term	-10.7192
▁experiment	-10.7192
▁citizen	-10.7195
▁critter	-10.7197
▁detail	-10.7203
▁rip	-10.7204
▁sez	-10.7205
▁quarter	-10.7209
▁chin	-10.722
ini	-10.7225
bbling	-10.7231
▁ka	-10.7248
▁anti	-10.7255
more	-10.726
▁agin	-10.7261
suit	-10.7264
▁charle	-10.7268
low	-10.7272
▁ch	-10.7273
▁cape	-10.7275
top	-10.7276
oodle	-10.7291
▁embarrass	-10.7292
▁frighten	-10.7296
▁poop	-10.7311
▁corps	-10.7312
ude	-10.7317
▁goats	-10.7332
▁prepar	-10.7336
▁resign	-10.7338
▁strain	-10.734
▁invent	-10.7341
▁wreck	-10.7341
▁shatter	-10.7343
▁crawl	-10.7344
town	-10.7344
▁convert	-10.7345
▁attempt	-10.7346
▁farmer	-10.7348
▁butcher	-10.735
▁select	-10.7352
field	-10.7354
act	-10.7356
tail	-10.7358
ash	-10.7358
ward	-10.7359
▁div	-10.7361
score	-10.7361
veling	-10.7362
draw	-10.7362
▁bruise	-10.7363
talking	-10.7363
▁pronounce	-10.7363
path	-10.7364
▁roun	-10.7365
▁curse	-10.7367
▁silk	-10.7368
bred	-10.7369
▁amaze	-10.737
▁kit	-10.7371
▁aroun	-10.7371
water	-10.7372
▁secrets	-10.7373
▁gloom	-10.7373
▁dispos	-10.7373
▁organize	-10.7374
▁exact	-10.738
▁spark	-10.7381
▁haul	-10.7384
▁chris	-10.7385
fied	-10.7388
▁sensation	-10.7389
▁chanti	-10.7389
ootchi	-10.739
▁yuk	-10.739
▁heave	-10.7391
▁yahoo	-10.7395
arctic	-10.7395
▁attract	-10.7395
▁revolution	-10.7395
▁intro	-10.7397
greatgreat	-10.7397
jazama	-10.7397
reeglise	-10.7397
visibility	-10.7397
▁access	-10.7397
▁accompany	-10.7397
▁activity	-10.7397
▁afterward	-10.7397
▁altitude	-10.7397
▁apologies	-10.7397
▁appeal	-10.7397
▁argument	-10.7397
▁astronaut	-10.7397
▁beethoven	-10.7397
▁berlioz	-10.7397
▁blasphem	-10.7397
▁bomburst	-10.7397
▁bopaloo	-10.7397
▁braithwaite	-10.7397
▁catnip	-10.7397
▁chicago	-10.7397
▁colony	-10.7397
▁competition	-10.7397
▁conference	-10.7397
▁congratulate	-10.7397
▁cornelius	-10.7397
▁creaking	-10.7397
▁credentials	-10.7397
▁cricket	-10.7397
▁curiosity	-10.7397
▁dirigible	-10.7397
▁downstairs	-10.7397
▁dynamite	-10.7397
▁embrace	-10.7397
▁enormous	-10.7397
▁entrance	-10.7397
▁false	-10.7397
▁flanagan	-10.7397
▁flybynight	-10.7397
▁forswear	-10.7397
▁fuchida	-10.7397
▁girliegirl	-10.7397
▁glrl	-10.7397
▁gubgub	-10.7397
▁guhguhguhguhguh	-10.7397
▁gunpowder	-10.7397
▁hurrah	-10.7397
▁inaudible	-10.7397
▁industry	-10.7397
▁inferior	-10.7397
▁instinct	-10.7397
▁intelligent	-10.7397
▁interior	-10.7397
▁ishmael	-10.7397
▁jacquot	-10.7397
▁jinpachi	-10.7397
▁kalahari	-10.7397
▁kneedeep	-10.7397
▁lazarus	-10.7397
▁leather	-10.7397
▁license	-10.7397
▁lucille	-10.7397
▁lugleg	-10.7397
▁manhattan	-10.7397
▁marcellus	-10.7397
▁meself	-10.7397
▁motherinlaw	-10.7397
▁necklace	-10.7397
▁nomura	-10.7397
▁parlor	-10.7397
▁peanut	-10.7397
▁peasant	-10.7397
▁pheasant	-10.7397
▁phenomenon	-10.7397
▁pipsqueak	-10.7397
▁pluskat	-10.7397
▁ratcliffe	-10.7397
▁recover	-10.7397
▁remote	-10.7397
▁reverend	-10.7397
▁ribbon	-10.7397
▁roosevelt	-10.7397
▁rosaline	-10.7397
▁rupert	-10.7397
▁screenplay	-10.7397
▁seagull	-10.7397
▁sebastian	-10.7397
▁shakespeare	-10.7397
▁smiling	-10.7397
▁stagecoach	-10.7397
▁stepmother	-10.7397
▁stumble	-10.7397
▁sunrise	-10.7397
▁supplies	-10.7397
▁supreme	-10.7397
▁technique	-10.7397
▁throng	-10.7397
▁throttle	-10.7397
▁thursday	-10.7397
▁tremendous	-10.7397
▁tsuge	-10.7397
▁twelve	-10.7397
▁ungrateful	-10.7397
▁ursula	-10.7397
▁vacuum	-10.7397
▁vehicle	-10.7397
▁video	-10.7397
▁wittles	-10.7397
▁yeehoo	-10.7397
▁zabrinczski	-10.7397
▁bulb	-10.7397
▁cease	-10.7397
▁counsel	-10.7397
▁crossroad	-10.7397
▁doggone	-10.7397
▁error	-10.7397
▁keelboat	-10.7397
▁monitor	-10.7397
▁motto	-10.7397
▁mutiny	-10.7397
▁pattern	-10.7397
▁redmanor	-10.7397
▁scoffs	-10.7397
▁smoking	-10.7397
▁title	-10.7397
▁yooeeyooeeyooee	-10.7397
▁autograph	-10.7397
▁evident	-10.7397
▁gidda	-10.7397
▁harmony	-10.7397
▁maniacal	-10.7397
▁memorize	-10.7397
▁granddad	-10.7397
▁permit	-10.7397
▁summons	-10.7397
▁warrant	-10.7397
▁berry	-10.7397
▁gym	-10.7397
▁bulldoze	-10.7397
▁previous	-10.7397
▁backstage	-10.7397
▁blaring	-10.7397
▁gasket	-10.7397
▁verona	-10.7397
▁swift	-10.7397
▁sharing	-10.7397
▁brute	-10.7397
▁complex	-10.7397
▁corvier	-10.7397
▁lonesome	-10.7397
▁reinforcements	-10.7397
▁occupied	-10.7397
▁terrifying	-10.7397
▁relationship	-10.7397
▁chart	-10.7397
▁reverse	-10.7397
▁transport	-10.7397
▁zaral	-10.7397
▁sacred	-10.7397
▁berthalet	-10.7397
▁eject	-10.7397
▁toilet	-10.7397
▁opposite	-10.7397
▁waltz	-10.7397
aniu	-10.7397
▁breeze	-10.7397
▁isle	-10.7397
▁randolph	-10.7397
▁wiggins	-10.7397
▁riker	-10.7397
▁footbridge	-10.7397
▁doomed	-10.7397
▁sarge	-10.7397
▁repent	-10.7397
▁hollow	-10.7397
anza	-10.7397
udder	-10.7397
▁lebec	-10.7397
▁crush	-10.7397
▁outnumbered	-10.7397
▁annihilation	-10.7397
▁heaveho	-10.7397
▁ravine	-10.7397
▁utah	-10.7397
▁sample	-10.7397
▁existence	-10.7397
▁heeyaw	-10.7397
▁hippo	-10.7397
▁program	-10.7397
▁worthwhile	-10.7398
▁arguing	-10.7398
▁floodwater	-10.7398
▁leveller	-10.7398
▁stiff	-10.7398
▁location	-10.7398
▁mammy	-10.7398
▁overcome	-10.7398
▁joking	-10.7398
▁mallard	-10.7398
▁generous	-10.7398
▁shortcut	-10.7398
▁atlantic	-10.7398
▁commission	-10.7398
▁ayah	-10.7398
▁pulp	-10.7398
▁adrian	-10.7398
▁stress	-10.7398
▁raft	-10.7398
▁navigator	-10.7398
▁sleeve	-10.7398
▁fuel	-10.7399
▁vocali	-10.7399
▁straw	-10.7399
▁doorbell	-10.7399
▁beggar	-10.7399
▁dodg	-10.7399
▁milt	-10.7399
▁rally	-10.7399
▁whizzer	-10.7399
▁canine	-10.7399
▁betore	-10.7399
▁suspense	-10.7399
▁bratton	-10.7399
▁civilization	-10.7399
▁outrun	-10.7399
▁owns	-10.7399
pagan	-10.7399
▁hallway	-10.7399
▁wootchi	-10.7399
▁slice	-10.7399
▁yur	-10.7399
▁dude	-10.7399
▁swine	-10.7399
▁itch	-10.74
▁poet	-10.74
▁leap	-10.74
▁threesies	-10.74
▁poodle	-10.74
▁jaw	-10.74
▁process	-10.74
feit	-10.74
▁industries	-10.74
▁skies	-10.74
▁oink	-10.74
▁guardhouse	-10.74
▁task	-10.74
▁bucket	-10.7401
▁chose	-10.7401
▁allen	-10.7401
▁courthouse	-10.7401
▁literally	-10.7401
▁average	-10.7402
▁begun	-10.7402
▁bible	-10.7402
▁geez	-10.7402
cian	-10.7402
▁loyalty	-10.7402
▁caution	-10.7402
▁engagement	-10.7402
▁cutters	-10.7402
▁function	-10.7402
▁anderson	-10.7402
▁outdo	-10.7403
▁transformed	-10.7403
▁conductor	-10.7403
▁sni	-10.7403
▁unlock	-10.7403
▁toad	-10.7403
▁eventual	-10.7403
▁birdbrain	-10.7403
▁lisa	-10.7404
▁household	-10.7404
nior	-10.7404
▁astonishing	-10.7404
▁unlike	-10.7404
▁plow	-10.7404
▁production	-10.7405
▁barney	-10.7405
▁brush	-10.7405
▁gravy	-10.7405
▁stake	-10.7405
▁hull	-10.7405
▁battery	-10.7405
▁leggo	-10.7406
▁twin	-10.7406
▁purr	-10.7406
▁passage	-10.7406
▁sept	-10.7406
▁doth	-10.7406
▁brady	-10.7406
▁chest	-10.7407
▁solo	-10.7407
▁settlement	-10.7407
▁rejoice	-10.7407
acious	-10.7407
▁slime	-10.7407
▁seize	-10.7407
▁playmate	-10.7408
▁pinch	-10.7408
▁reply	-10.7408
▁chanties	-10.7408
▁cub	-10.7408
▁weakness	-10.7408
▁reeds	-10.7409
▁fireball	-10.7409
▁mutters	-10.7409
▁lame	-10.7409
▁allies	-10.741
▁possibility	-10.741
▁lighthouse	-10.741
▁statement	-10.741
▁airline	-10.741
▁shiny	-10.7411
▁cabin	-10.7411
▁kar	-10.7412
▁determined	-10.7412
▁brat	-10.7413
▁frustrated	-10.7413
▁blush	-10.7413
▁goodnight	-10.7413
▁physical	-10.7413
▁dishes	-10.7415
▁bleeding	-10.7417
▁yous	-10.7417
▁tourist	-10.7418
▁trash	-10.7418
▁solved	-10.7418
▁upper	-10.7419
▁confused	-10.7419
▁leak	-10.742
▁cage	-10.742
▁heal	-10.7421
▁philly	-10.7421
▁gloomy	-10.7421
▁here	-10.7421
▁torpedoes	-10.7421
▁cared	-10.7423
▁adore	-10.7423
▁china	-10.7423
▁disappointed	-10.7423
▁whiskers	-10.7423
▁yikes	-10.7423
▁hypocrites	-10.7423
▁fee	-10.7424
▁clark	-10.7425
▁laund	-10.7425
▁assembled	-10.7425
▁oye	-10.7427
▁market	-10.7428
▁era	-10.7429
got	-10.7429
▁hats	-10.743
▁broadcasting	-10.743
▁robe	-10.7431
▁any	-10.7431
▁stinky	-10.7432
▁wrapp	-10.7432
▁authorize	-10.7433
▁taxi	-10.7433
▁oak	-10.7434
▁sweetie	-10.7435
▁shining	-10.7436
▁miser	-10.7438
▁uhh	-10.7439
▁frightful	-10.7439
▁modest	-10.744
▁starve	-10.744
▁bumpy	-10.7442
oka	-10.7442
▁exceptional	-10.7443
▁embarrassed	-10.7444
ification	-10.7446
▁slightly	-10.7447
▁bind	-10.7448
▁removed	-10.7448
▁stabbe	-10.7448
▁reality	-10.7449
▁onesies	-10.745
▁fourth	-10.7451
▁restless	-10.7451
▁mixer	-10.7451
▁perfection	-10.7452
▁yank	-10.7452
▁cho	-10.7455
▁soak	-10.7455
▁vow	-10.7455
▁viva	-10.7456
▁realm	-10.7458
▁overlook	-10.7461
▁poi	-10.7461
▁peek	-10.7463
roy	-10.7467
▁ache	-10.7468
▁heels	-10.7469
▁results	-10.7469
▁affairs	-10.7469
▁battleships	-10.7469
▁documents	-10.7469
▁packages	-10.7469
▁rumbles	-10.7469
▁foolin	-10.7469
▁calculations	-10.747
▁subsid	-10.7471
▁chased	-10.7472
▁wearin	-10.7472
▁axe	-10.7473
▁trespasser	-10.7474
▁doggies	-10.7474
▁hound	-10.7476
▁parties	-10.748
▁tickle	-10.748
▁magician	-10.7482
▁scaring	-10.7484
▁reporter	-10.7485
▁toll	-10.7487
▁snore	-10.749
▁buster	-10.7493
▁thine	-10.7499
▁nail	-10.7503
▁rank	-10.7505
▁sole	-10.7506
▁jealousy	-10.7507
▁stare	-10.7512
▁tada	-10.7512
▁reb	-10.7514
▁gulps	-10.7517
▁missus	-10.7517
▁sweater	-10.7518
▁ideal	-10.7518
▁electric	-10.7524
▁melting	-10.7524
▁squeaking	-10.7524
▁designed	-10.7528
▁drowned	-10.753
▁tap	-10.7531
▁idle	-10.7534
▁fling	-10.7542
▁lance	-10.7542
▁singin	-10.7542
▁pouring	-10.7549
▁introduced	-10.755
▁parker	-10.7551
▁tick	-10.7554
▁wel	-10.7556
▁deeply	-10.7557
lan	-10.7561
alga	-10.7563
▁flames	-10.7564
▁drowning	-10.7565
▁cav	-10.7565
▁lily	-10.7565
▁bandits	-10.7566
▁ants	-10.758
▁collecting	-10.7602
▁rate	-10.7605
▁wasted	-10.7611
▁dolls	-10.7613
com	-10.7617
▁deny	-10.7621
▁sale	-10.7626
▁packing	-10.7629
▁cor	-10.7641
▁tro	-10.7645
▁farmers	-10.7646
▁whoops	-10.7648
▁parts	-10.7649
▁signs	-10.7656
▁compliments	-10.7661
▁helicopters	-10.7661
▁occasions	-10.7661
▁cheeks	-10.7661
▁an	-10.7665
▁dot	-10.7665
▁gathered	-10.7666
▁askin	-10.7669
▁factor	-10.7669
fusion	-10.767
▁crowded	-10.7671
▁lip	-10.7672
▁reporting	-10.7689
▁feelin	-10.7691
que	-10.7696
▁imper	-10.7696
▁rev	-10.77
▁yards	-10.7708
▁golf	-10.7708
▁wedde	-10.7719
▁que	-10.7729
▁laughed	-10.7737
▁vip	-10.7753
ide	-10.7753
▁snapp	-10.7753
▁operations	-10.7758
▁photographs	-10.7758
▁showing	-10.7768
▁kinds	-10.7782
ired	-10.7787
▁poo	-10.7787
gallant	-10.7792
ierce	-10.7799
▁by	-10.7804
ries	-10.7805
▁spending	-10.7805
▁buttons	-10.7806
if	-10.7809
▁dove	-10.7816
▁sleepy	-10.7817
twas	-10.7832
▁vac	-10.7833
▁image	-10.7841
▁redha	-10.7841
of	-10.7843
▁rig	-10.7847
▁squeaks	-10.7857
▁sow	-10.7858
▁explained	-10.7863
tains	-10.7865
▁gla	-10.7867
▁bullets	-10.7877
▁vari	-10.7879
ore	-10.788
▁sticking	-10.79
▁talents	-10.7906
▁alli	-10.7912
through	-10.7915
cker	-10.7928
▁touched	-10.7928
▁lg	-10.7948
▁odds	-10.7953
▁hid	-10.7954
▁shoulders	-10.7955
▁marrying	-10.7956
▁kir	-10.7961
▁describe	-10.797
itty	-10.7995
▁gall	-10.8012
▁hum	-10.8021
▁faces	-10.8029
▁gu	-10.804
▁keepin	-10.805
▁manor	-10.8051
ction	-10.8051
eling	-10.8058
▁hairs	-10.8098
▁females	-10.8102
dst	-10.8103
▁cowards	-10.8103
▁throwing	-10.8106
▁caused	-10.8114
▁staring	-10.8122
sons	-10.8138
▁pals	-10.8142
▁apples	-10.8153
▁eats	-10.8158
mer	-10.8159
▁sl	-10.8164
▁trusted	-10.8167
▁shines	-10.8174
▁bumb	-10.8189
illa	-10.8199
▁nerves	-10.8202
▁windows	-10.8202
▁mermaids	-10.8202
▁saknussems	-10.8202
▁fired	-10.8213
pe	-10.8252
ged	-10.8262
ando	-10.8277
yearold	-10.8278
▁cruise	-10.8284
▁nicely	-10.8295
▁wagons	-10.8303
▁roman	-10.8305
▁prim	-10.8332
▁cra	-10.8343
▁el	-10.8347
▁hated	-10.8348
▁shower	-10.8352
▁bee	-10.8354
pped	-10.8355
▁bre	-10.8395
▁units	-10.8398
▁whip	-10.8412
▁devot	-10.8414
ila	-10.8423
ale	-10.8426
▁cock	-10.8453
aton	-10.8469
arian	-10.8474
▁as	-10.8502
hh	-10.8506
▁radi	-10.8543
uce	-10.8544
rov	-10.857
ologist	-10.8581
▁gra	-10.8592
sley	-10.8594
▁whe	-10.8595
▁swords	-10.8607
▁miracles	-10.861
▁records	-10.8611
ershoot	-10.8617
▁caro	-10.863
▁pips	-10.8631
ads	-10.864
▁mus	-10.8662
▁qu	-10.8664
gal	-10.8675
▁holds	-10.8678
mit	-10.8693
mes	-10.8705
don	-10.871
ody	-10.8716
▁diet	-10.8767
▁stra	-10.8775
▁organis	-10.8792
▁sto	-10.8797
▁tart	-10.8865
oni	-10.8879
ware	-10.8881
ics	-10.8897
ized	-10.8916
wn	-10.8955
ink	-10.8969
▁mal	-10.897
▁noses	-10.8977
▁toys	-10.9001
bag	-10.9011
ious	-10.9024
▁listened	-10.903
roc	-10.9038
fa	-10.904
▁mel	-10.908
▁cure	-10.9107
ger	-10.9117
▁presidents	-10.9135
sel	-10.9135
ssel	-10.9138
▁sol	-10.9156
▁ja	-10.9156
▁we	-10.9161
bed	-10.917
ative	-10.9206
ives	-10.9221
ffel	-10.9223
tul	-10.9238
ping	-10.9245
▁goner	-10.9248
▁sons	-10.9258
ill	-10.9258
▁chu	-10.9273
▁souls	-10.9293
▁mistakes	-10.9298
mail	-10.9307
▁ignoran	-10.9336
▁ser	-10.9354
ker	-10.9357
ments	-10.9375
▁losin	-10.9378
une	-10.9398
▁longing	-10.9406
lic	-10.942
wer	-10.9425
sa	-10.9436
ole	-10.9469
▁domin	-10.9475
▁mor	-10.9484
ium	-10.9507
▁ther	-10.9518
chi	-10.9536
tz	-10.9543
▁ac	-10.9556
▁drops	-10.9579
ette	-10.958
▁boot	-10.9583
▁portla	-10.959
nk	-10.9595
most	-10.9609
ular	-10.9613
▁yea	-10.9621
▁epi	-10.9628
▁bubb	-10.9631
ray	-10.9638
irrel	-10.9639
ades	-10.9643
▁exclaim	-10.965
ld	-10.9668
▁photo	-10.967
▁muscle	-10.967
▁belief	-10.967
▁element	-10.967
▁donkey	-10.967
▁chamber	-10.967
▁particle	-10.9671
▁blade	-10.9673
▁associate	-10.9673
▁defense	-10.9676
▁slide	-10.9678
▁tire	-10.9678
▁acre	-10.9679
▁companion	-10.9683
▁flame	-10.9686
▁finer	-10.9689
▁communication	-10.969
▁knot	-10.9691
▁www	-10.9691
▁neutrino	-10.9692
▁snor	-10.9694
▁knee	-10.9694
▁await	-10.9694
▁generation	-10.9695
▁falcon	-10.9698
▁warrior	-10.9698
▁student	-10.9698
▁worm	-10.9699
▁bandit	-10.9705
tta	-10.9709
▁musician	-10.9712
bble	-10.9714
▁rocket	-10.9718
▁raw	-10.9718
stle	-10.9741
spite	-10.9742
ound	-10.9757
▁glob	-10.9757
▁nor	-10.9779
▁movement	-10.9781
▁blam	-10.9782
keeper	-10.9784
▁flap	-10.9786
▁hy	-10.979
ify	-10.979
hold	-10.9793
▁brit	-10.9802
▁hostil	-10.9803
▁disgrace	-10.9804
▁nights	-10.9804
beat	-10.9807
▁strik	-10.9808
▁moral	-10.9813
iction	-10.9814
▁bloom	-10.9817
▁continu	-10.982
▁refresh	-10.9824
eyed	-10.9825
▁amo	-10.9832
nel	-10.984
▁reveal	-10.9841
▁consent	-10.9841
shes	-10.9845
▁depart	-10.9845
▁punish	-10.9846
▁honour	-10.9846
▁twist	-10.9847
▁barb	-10.9851
▁exhaust	-10.9851
▁accomplish	-10.9852
▁scalp	-10.9854
▁proce	-10.9855
worth	-10.9858
gram	-10.9861
wick	-10.9862
▁dragg	-10.9862
▁engage	-10.9862
will	-10.9862
movie	-10.9862
point	-10.9863
phone	-10.9863
three	-10.9863
▁retrieve	-10.9863
good	-10.9863
▁assure	-10.9865
▁judg	-10.9866
▁counts	-10.9866
bourg	-10.9867
▁increase	-10.9867
bang	-10.9868
box	-10.9868
course	-10.9869
▁assemble	-10.9872
spects	-10.9874
▁confuse	-10.9875
▁stead	-10.9875
cow	-10.9876
▁sak	-10.9876
izzy	-10.9877
▁incredibl	-10.988
loved	-10.9881
▁grind	-10.9882
elle	-10.9883
▁original	-10.9883
state	-10.9883
▁craft	-10.9885
▁appro	-10.9887
▁affect	-10.9887
▁compar	-10.9887
▁potato	-10.9887
▁origin	-10.9889
▁pow	-10.9891
▁cautio	-10.9891
▁practicin	-10.9891
▁stor	-10.9892
stand	-10.9892
▁distinct	-10.9892
quat	-10.9892
uary	-10.9892
▁kiddin	-10.9892
▁intent	-10.9892
▁gomorra	-10.9893
▁darlin	-10.9893
▁remark	-10.9893
ault	-10.9894
▁muff	-10.9894
walla	-10.9895
▁transfer	-10.9896
▁threat	-10.9896
harde	-10.9896
▁interfere	-10.9896
ordan	-10.9897
▁frost	-10.9897
▁broad	-10.9897
dikadik	-10.9897
responsibilities	-10.9897
structure	-10.9897
▁activities	-10.9897
▁amidships	-10.9897
▁artillery	-10.9897
▁audio	-10.9897
▁awkward	-10.9897
▁britannia	-10.9897
▁bulk	-10.9897
▁cavalier	-10.9897
▁celebration	-10.9897
▁chickasaw	-10.9897
▁circumference	-10.9897
▁cloak	-10.9897
▁clown	-10.9897
▁cockadoodledo	-10.9897
▁conservatory	-10.9897
▁contempt	-10.9897
▁convenient	-10.9897
▁crisis	-10.9897
▁cyril	-10.9897
▁description	-10.9897
▁division	-10.9897
▁djilas	-10.9897
▁dorado	-10.9897
▁doughnut	-10.9897
▁dunkirk	-10.9897
▁elwyn	-10.9897
▁emporium	-10.9897
▁encouraging	-10.9897
▁energy	-10.9897
▁enlighten	-10.9897
▁enlist	-10.9897
▁entitled	-10.9897
▁envelope	-10.9897
▁erebus	-10.9897
▁esteem	-10.9897
▁exclusive	-10.9897
▁eyewitness	-10.9897
▁families	-10.9897
▁flounder	-10.9897
▁foraminifera	-10.9897
▁franz	-10.9897
▁glitter	-10.9897
▁grandparents	-10.9897
▁happily	-10.9897
▁heritage	-10.9897
▁hollywood	-10.9897
▁homesick	-10.9897
▁honolulu	-10.9897
▁humiliat	-10.9897
▁hurricane	-10.9897
▁hypnotized	-10.9897
▁incantation	-10.9897
▁indefinitely	-10.9897
▁influence	-10.9897
▁inherit	-10.9897
▁jaggers	-10.9897
▁jehoshaphat	-10.9897
▁jehovanh	-10.9897
▁katsunaga	-10.9897
▁learjet	-10.9897
▁length	-10.9897
▁leopard	-10.9897
▁machida	-10.9897
▁magazine	-10.9897
▁mciver	-10.9897
▁michael	-10.9897
▁mototsugu	-10.9897
▁napoleon	-10.9897
▁nellie	-10.9897
▁noggin	-10.9897
▁omaha	-10.9897
▁ominous	-10.9897
▁pappy	-10.9897
▁participate	-10.9897
▁peak	-10.9897
▁pitiful	-10.9897
▁popcorn	-10.9897
▁precaution	-10.9897
▁presumptuous	-10.9897
▁prevent	-10.9897
▁pudding	-10.9897
▁recruit	-10.9897
▁rehearsing	-10.9897
▁rendezvous	-10.9897
▁reserve	-10.9897
▁revenge	-10.9897
▁sarsaparilla	-10.9897
▁savior	-10.9897
▁scoundrel	-10.9897
▁scrawny	-10.9897
▁selfdefence	-10.9897
▁shawnee	-10.9897
▁significance	-10.9897
▁skeleton	-10.9897
▁skydancer	-10.9897
▁smooth	-10.9897
▁solemn	-10.9897
▁solution	-10.9897
▁somewhat	-10.9897
▁specifically	-10.9897
▁staircase	-10.9897
▁stammer	-10.9897
▁strawberry	-10.9897
▁surpass	-10.9897
▁suspicious	-10.9897
▁titanic	-10.9897
▁tybalt	-10.9897
▁unarmed	-10.9897
▁unhappy	-10.9897
▁unnecessary	-10.9897
▁unpack	-10.9897
▁upriver	-10.9897
▁vagabond	-10.9897
▁victim	-10.9897
▁violence	-10.9897
▁virtuos	-10.9897
▁wildlife	-10.9897
▁wrath	-10.9897
▁yamamoto	-10.9897
▁yosef	-10.9897
▁youyou	-10.9897
▁breast	-10.9897
▁caretaker	-10.9897
▁conquer	-10.9897
▁crowbar	-10.9897
▁disperse	-10.9897
▁garbled	-10.9897
▁outrage	-10.9897
▁pianist	-10.9897
▁shark	-10.9897
▁token	-10.9897
▁wingspan	-10.9897
▁automobile	-10.9897
▁caliber	-10.9897
▁francs	-10.9897
▁harpe	-10.9897
▁jersey	-10.9897
▁latimer	-10.9897
▁puppies	-10.9897
▁salesmen	-10.9897
▁eighteen	-10.9897
ahara	-10.9897
▁loony	-10.9897
▁tweet	-10.9897
▁anxious	-10.9897
▁harsh	-10.9897
▁insect	-10.9897
▁interview	-10.9897
▁altered	-10.9897
▁gordon	-10.9897
▁shiver	-10.9897
▁tomato	-10.9897
▁beeves	-10.9897
▁explosive	-10.9897
▁hurray	-10.9897
▁illegal	-10.9897
▁patriot	-10.9897
▁kramer	-10.9897
▁mattress	-10.9897
▁trills	-10.9897
▁timing	-10.9897
▁vienna	-10.9897
▁kilometers	-10.9897
▁tango	-10.9897
▁ransom	-10.9897
▁accurate	-10.9897
▁clarify	-10.9897
▁expensive	-10.9897
▁knave	-10.9897
▁weems	-10.9897
▁idol	-10.9897
▁nelly	-10.9897
▁bawd	-10.9897
▁jailbreak	-10.9897
▁pesky	-10.9897
▁decod	-10.9897
▁salvation	-10.9897
▁sustain	-10.9897
▁socks	-10.9897
▁costigan	-10.9897
▁orbit	-10.9897
▁fleabag	-10.9897
▁mourn	-10.9897
▁yeehaw	-10.9897
▁consolation	-10.9897
▁feature	-10.9897
▁appliances	-10.9897
▁harmonica	-10.9897
otamus	-10.9897
▁minerals	-10.9897
▁invisible	-10.9897
▁inviting	-10.9897
▁columbus	-10.9897
▁housing	-10.9897
▁meakin	-10.9897
▁gambling	-10.9897
▁frymore	-10.9897
▁banco	-10.9897
▁appetite	-10.9897
▁zoo	-10.9897
▁ability	-10.9897
▁mildred	-10.9897
▁flashlight	-10.9897
▁narr	-10.9897
▁snack	-10.9897
▁transmit	-10.9897
▁yassum	-10.9897
▁dispens	-10.9897
▁elite	-10.9897
▁plaster	-10.9897
skirt	-10.9897
unning	-10.9897
▁consequence	-10.9897
▁favers	-10.9897
▁reliable	-10.9897
▁britches	-10.9898
▁mumbling	-10.9898
▁banner	-10.9898
▁drummer	-10.9898
▁whipped	-10.9898
▁arise	-10.9898
▁lolli	-10.9898
▁superior	-10.9898
▁upside	-10.9898
▁freight	-10.9898
▁negotiations	-10.9898
▁indoors	-10.9898
▁occupation	-10.9898
▁clatter	-10.9898
▁permitted	-10.9898
▁trembling	-10.9898
▁vicar	-10.9898
▁divid	-10.9898
▁contestants	-10.9898
ompbomp	-10.9898
▁ninth	-10.9898
kwood	-10.9898
▁ahoy	-10.9898
▁skunk	-10.9898
▁spectacle	-10.9898
▁tubby	-10.9898
▁stirred	-10.9898
▁discre	-10.9898
▁radiant	-10.9898
▁alligator	-10.9898
▁dripping	-10.9898
▁lenape	-10.9898
▁fatso	-10.9898
▁insur	-10.9898
▁resent	-10.9898
▁trenches	-10.9898
▁investigation	-10.9899
▁gaspard	-10.9899
▁your	-10.9899
▁alliance	-10.9899
oooooo	-10.9899
▁bliss	-10.9899
▁chubby	-10.9899
▁trouser	-10.9899
▁blink	-10.9899
▁operator	-10.9899
▁slick	-10.9899
▁meatball	-10.9899
▁belloni	-10.9899
▁tonit	-10.9899
▁launch	-10.9899
▁abuse	-10.9899
▁harmoni	-10.9899
▁judgment	-10.9899
▁fond	-10.9899
▁ahahh	-10.99
destined	-10.99
▁expectations	-10.99
▁criminal	-10.99
▁possession	-10.99
▁barge	-10.99
mmine	-10.99
▁atmosphere	-10.99
▁philip	-10.99
▁ferry	-10.99
ok	-10.99
▁muddy	-10.99
▁zion	-10.99
orita	-10.99
▁britain	-10.99
▁bassoon	-10.99
▁classroom	-10.99
▁resistance	-10.99
▁stepping	-10.99
▁basis	-10.99
▁eruption	-10.99
▁beware	-10.99
▁chump	-10.99
▁drill	-10.99
▁spunk	-10.9901
▁bertha	-10.9901
▁leadership	-10.9901
▁duckling	-10.9901
▁hospitality	-10.9901
▁related	-10.9901
▁cynical	-10.9902
▁professional	-10.9902
rader	-10.9902
▁hence	-10.9902
▁unworth	-10.9902
▁reign	-10.9902
▁curtain	-10.9902
▁teddy	-10.9902
▁soil	-10.9902
▁foul	-10.9902
▁dried	-10.9903
▁rack	-10.9903
▁fray	-10.9903
▁jip	-10.9903
▁woodland	-10.9903
▁frequency	-10.9903
▁airfield	-10.9903
▁morphy	-10.9903
▁tummy	-10.9903
▁admirers	-10.9903
▁repair	-10.9903
▁shinin	-10.9904
▁betcha	-10.9904
▁coachman	-10.9904
▁batch	-10.9904
▁twosies	-10.9904
▁matt	-10.9904
▁smash	-10.9904
▁detective	-10.9904
▁chow	-10.9904
▁neglected	-10.9905
▁pill	-10.9905
▁shelf	-10.9905
▁banished	-10.9905
nap	-10.9905
▁mainland	-10.9905
▁panic	-10.9905
▁naked	-10.9905
▁ditch	-10.9905
▁rust	-10.9905
▁stall	-10.9906
▁spitting	-10.9906
▁automat	-10.9906
▁lunchtime	-10.9906
▁dull	-10.9906
▁perch	-10.9906
▁spinning	-10.9906
▁lurvy	-10.9906
▁hammering	-10.9907
▁exaggerating	-10.9907
▁shrieking	-10.9907
▁maneuvering	-10.9907
ility	-10.9907
▁taxes	-10.9907
▁bal	-10.9907
▁otf	-10.9907
▁bash	-10.9907
▁affection	-10.9907
▁childish	-10.9907
▁cramp	-10.9908
▁renny	-10.9908
▁dignity	-10.9908
▁guin	-10.9908
▁flown	-10.9908
▁logic	-10.9908
▁sunlight	-10.9908
▁waitress	-10.9909
▁keen	-10.9909
▁moat	-10.9909
▁satan	-10.9909
nito	-10.9909
▁bozo	-10.991
▁biz	-10.991
▁blender	-10.991
▁tw	-10.9911
▁appointed	-10.9911
uine	-10.9911
▁european	-10.9911
▁crank	-10.9912
▁derb	-10.9912
▁gag	-10.9912
▁grr	-10.9913
▁mc	-10.9913
▁cookies	-10.9913
▁tamar	-10.9913
▁shaft	-10.9914
▁combine	-10.9914
▁shaking	-10.9914
▁italy	-10.9915
▁puffin	-10.9915
▁lovin	-10.9915
▁indo	-10.9915
▁exposed	-10.9915
▁colorful	-10.9915
amond	-10.9916
▁agony	-10.9916
▁markings	-10.9916
▁pony	-10.9916
▁hopin	-10.9916
▁retire	-10.9916
▁yearning	-10.9916
▁billie	-10.9916
▁sparkle	-10.9917
▁injured	-10.9917
▁ske	-10.9917
▁tax	-10.9917
▁showoff	-10.9918
▁qualified	-10.9918
▁originally	-10.9918
▁fascinating	-10.9919
▁veter	-10.9919
▁woah	-10.9919
▁predict	-10.992
▁branches	-10.9921
▁reaction	-10.9921
▁volcanoes	-10.9921
▁investor	-10.9922
▁redeem	-10.9923
▁galloping	-10.9923
▁leaf	-10.9924
▁warden	-10.9925
▁bravery	-10.9925
▁kite	-10.9926
▁produced	-10.9926
▁hideous	-10.9927
▁luna	-10.9927
▁complaint	-10.9927
▁pester	-10.9927
xic	-10.9929
▁prof	-10.9929
▁sadness	-10.993
▁tooth	-10.993
▁misery	-10.993
▁commenc	-10.9931
▁cookin	-10.9931
▁notion	-10.9931
▁confirmed	-10.9931
▁established	-10.9931
▁billows	-10.9932
▁amaryllis	-10.9932
▁salutations	-10.9932
▁shillings	-10.9932
▁sprinkles	-10.9932
▁varmints	-10.9932
▁crops	-10.9932
▁inhabitants	-10.9932
▁patron	-10.9935
▁shr	-10.9935
▁kidney	-10.9935
▁creepy	-10.9936
▁tape	-10.9936
▁cheeky	-10.9936
▁mur	-10.9937
▁diego	-10.9939
hq	-10.994
▁stupidity	-10.994
rica	-10.994
▁gen	-10.994
▁sneez	-10.9941
▁realise	-10.9942
▁travelers	-10.9942
▁scheduled	-10.9943
▁departed	-10.9945
▁punished	-10.9945
▁petitioner	-10.9946
some	-10.9948
▁photography	-10.9951
▁endured	-10.9951
▁hash	-10.9951
▁vet	-10.9952
▁slippery	-10.9952
headed	-10.9954
▁active	-10.9955
▁hitch	-10.9957
▁unsh	-10.9958
▁mall	-10.9959
▁grinding	-10.9959
▁damaged	-10.996
▁unbea	-10.9963
▁sar	-10.9965
▁takeoff	-10.9967
▁sump	-10.997
▁ze	-10.9972
▁resigning	-10.9975
▁frightening	-10.9975
▁miller	-10.9976
▁risky	-10.998
▁marrie	-10.9983
▁granted	-10.9987
▁regularly	-10.9987
▁coins	-10.9992
▁sandy	-10.9992
▁politics	-10.9993
▁scouts	-10.9993
▁pecking	-10.9994
tany	-10.9995
▁accuse	-10.9996
dure	-10.9999
▁stripe	-11
▁poisoned	-11.0001
▁referr	-11.0001
▁oui	-11.0001
nh	-11.0003
▁mightnt	-11.0004
▁scratch	-11.0006
put	-11.0006
▁difficulty	-11.0007
▁pale	-11.0007
▁ripe	-11.0013
▁punched	-11.0014
▁fainted	-11.0015
▁meantime	-11.0015
▁crooked	-11.0016
▁cable	-11.0016
▁shade	-11.0018
▁carve	-11.0023
▁poke	-11.0025
▁informed	-11.0029
▁lampy	-11.0031
rade	-11.0031
▁beauti	-11.0032
▁eatable	-11.0032
quisit	-11.0032
▁fishin	-11.0034
▁released	-11.0035
▁product	-11.0035
ht	-11.004
▁globe	-11.0041
▁directed	-11.0043
rugged	-11.0044
▁nicky	-11.005
▁bleats	-11.0054
▁stamps	-11.0055
▁relatives	-11.0055
▁mortars	-11.0055
▁mast	-11.0055
▁chores	-11.0055
▁intentions	-11.0056
▁hangin	-11.0056
▁insisted	-11.0057
▁drinkin	-11.0058
▁award	-11.006
▁ut	-11.0063
▁engineering	-11.0066
▁unto	-11.0069
▁mentioned	-11.007
ores	-11.0078
▁import	-11.0085
▁prospero	-11.009
▁throws	-11.0091
▁colli	-11.0095
▁ray	-11.0096
▁plumb	-11.0097
▁fightin	-11.0097
▁complaining	-11.0099
cious	-11.0102
▁tailor	-11.0108
▁ant	-11.011
▁cooler	-11.0111
▁ain	-11.0112
aye	-11.0113
▁companions	-11.0116
▁worms	-11.0118
▁damp	-11.0123
▁perp	-11.0125
▁handled	-11.0126
▁bond	-11.0129
▁painting	-11.013
▁switching	-11.0133
▁doves	-11.0145
▁ji	-11.0146
▁crashing	-11.0151
▁studying	-11.0151
▁sadly	-11.0154
▁when	-11.0155
▁core	-11.0155
▁delivered	-11.0156
▁foxy	-11.0159
▁declar	-11.0163
▁bugs	-11.0164
▁sets	-11.0166
▁sticky	-11.0166
▁morale	-11.0167
hugging	-11.0168
▁weeee	-11.0176
▁youngest	-11.0177
▁prospects	-11.0181
▁heights	-11.0182
▁dinosaurs	-11.0182
▁bears	-11.0186
▁painful	-11.0187
▁imagined	-11.0188
urb	-11.0189
▁standin	-11.0193
▁fig	-11.0194
▁seated	-11.0198
mine	-11.0198
▁penn	-11.0202
▁academ	-11.0203
ppe	-11.0209
▁chim	-11.0211
▁tai	-11.0228
▁luc	-11.0234
wee	-11.0237
▁burning	-11.024
oot	-11.0242
▁events	-11.0243
▁shorter	-11.0245
▁willows	-11.0246
▁failures	-11.0246
▁villains	-11.0246
▁capes	-11.0252
▁sha	-11.0262
▁primar	-11.027
▁playin	-11.027
▁shortly	-11.028
▁my	-11.0284
▁lone	-11.0299
▁keyed	-11.0304
▁exercises	-11.0312
▁tooting	-11.0329
▁ohoh	-11.0344
▁tubes	-11.0349
▁sadd	-11.036
▁braz	-11.037
▁grains	-11.0375
antic	-11.039
▁swor	-11.0397
▁knocked	-11.0398
▁roo	-11.0405
▁answers	-11.0428
▁tinkl	-11.0433
▁forester	-11.0438
▁capulets	-11.0439
▁longnecks	-11.0439
▁winners	-11.0441
▁guts	-11.045
▁lightly	-11.0482
▁morse	-11.0486
▁measures	-11.0494
▁forming	-11.0497
▁snakes	-11.0505
▁tigers	-11.0505
viet	-11.0518
iot	-11.0524
med	-11.0525
▁lighten	-11.0528
kov	-11.053
pen	-11.053
oof	-11.0543
inch	-11.0543
▁bla	-11.0546
nch	-11.0563
▁sta	-11.0564
▁cain	-11.0567
▁meals	-11.057
▁concept	-11.0588
▁aqu	-11.059
mortal	-11.059
▁dancers	-11.0608
cra	-11.0612
▁vers	-11.0615
heads	-11.0627
▁wires	-11.0632
▁signals	-11.0636
▁owners	-11.0639
▁exists	-11.0641
▁drawer	-11.0647
▁din	-11.0696
▁concerts	-11.0702
▁jehovahs	-11.0702
▁shops	-11.0703
▁gardener	-11.0715
ron	-11.0716
awnin	-11.0718
▁overhea	-11.0754
▁wheels	-11.0767
▁planets	-11.0769
ez	-11.0775
▁nap	-11.0788
▁spits	-11.0789
▁touching	-11.0793
lobs	-11.0807
▁advertise	-11.0813
▁yay	-11.0825
▁traps	-11.0833
ail	-11.0835
▁blankets	-11.0836
▁partners	-11.0839
ane	-11.0839
limp	-11.0847
▁span	-11.0867
▁mut	-11.0893
▁crews	-11.0903
▁seasons	-11.0912
▁translat	-11.0965
▁belts	-11.0971
ours	-11.0984
▁fishing	-11.0986
▁buying	-11.0997
mois	-11.1001
▁spor	-11.1007
ima	-11.1009
utob	-11.1013
how	-11.1021
▁aunts	-11.1036
▁hotels	-11.1039
▁br	-11.1044
▁begg	-11.1044
pence	-11.1052
▁ox	-11.1065
ological	-11.1067
▁reliev	-11.1087
▁positions	-11.1107
ski	-11.1118
▁cinderellas	-11.1125
lash	-11.1142
olly	-11.1171
▁skins	-11.1171
nks	-11.1184
▁rooms	-11.1189
▁mum	-11.1195
ants	-11.1211
▁mu	-11.1218
anc	-11.1227
aver	-11.1237
▁experienc	-11.1243
▁treasures	-11.1246
▁pies	-11.1258
here	-11.1268
▁tre	-11.1271
▁medi	-11.1282
uction	-11.1285
forgiv	-11.1313
dl	-11.1316
▁lefty	-11.1333
▁ape	-11.1338
lutter	-11.1339
▁singers	-11.1349
▁sm	-11.1359
ums	-11.1392
▁thru	-11.1415
▁advis	-11.1427
▁pla	-11.143
▁pur	-11.1458
▁accepts	-11.1459
eneva	-11.149
done	-11.1498
▁pas	-11.1499
▁carol	-11.1516
▁smiles	-11.1524
roth	-11.1525
▁wat	-11.1527
▁breaks	-11.1569
stern	-11.1575
▁lamb	-11.1586
▁yesterdays	-11.1594
▁dori	-11.1602
▁dumm	-11.1631
▁devote	-11.1632
▁yer	-11.1635
gged	-11.1652
▁nightmares	-11.1665
iva	-11.169
unds	-11.1724
hole	-11.1731
▁services	-11.1737
rging	-11.1737
▁lala	-11.1742
lyn	-11.1748
hal	-11.175
ham	-11.1752
▁ages	-11.1761
tale	-11.1775
oul	-11.1803
gel	-11.1824
aaaah	-11.1832
▁auto	-11.1845
▁rul	-11.1861
▁curl	-11.1885
▁ret	-11.1888
▁translate	-11.1911
tide	-11.1913
▁tat	-11.1915
hair	-11.1929
▁ahha	-11.1931
vers	-11.1953
▁ending	-11.1969
tted	-11.1997
gen	-11.2005
▁villages	-11.2025
▁persons	-11.2031
▁rom	-11.2041
▁fift	-11.2045
▁lop	-11.2061
uc	-11.2078
▁flo	-11.2094
▁slippe	-11.2103
ating	-11.211
iness	-11.2128
ible	-11.2135
▁truthful	-11.2143
▁tab	-11.2144
▁steals	-11.2165
▁walks	-11.2189
nin	-11.2215
▁formal	-11.2238
▁abo	-11.2255
▁chum	-11.2281
▁vig	-11.2285
mi	-11.2298
▁gua	-11.2315
▁shakes	-11.2316
mel	-11.2318
mar	-11.2319
well	-11.2329
▁yum	-11.2332
ception	-11.2339
▁throats	-11.2347
▁shazama	-11.2367
▁darlings	-11.2395
▁surprises	-11.2404
its	-11.2407
onga	-11.2408
wow	-11.2412
▁wor	-11.2435
jacket	-11.2436
▁enchant	-11.2459
tou	-11.246
▁cod	-11.2462
▁marg	-11.2493
ister	-11.2566
uz	-11.2573
ex	-11.2583
ui	-11.2583
unting	-11.2628
ouse	-11.2638
▁som	-11.2639
shoot	-11.264
rough	-11.2641
iana	-11.2671
ssy	-11.2695
ison	-11.2698
▁handc	-11.2709
gging	-11.2719
▁shin	-11.2721
▁aide	-11.273
▁unh	-11.2753
art	-11.2761
▁ind	-11.2762
▁johnnys	-11.2774
▁cue	-11.2784
cycle	-11.2797
▁trop	-11.2803
pers	-11.2803
weed	-11.2807
▁ste	-11.2816
▁academi	-11.2819
▁oblig	-11.285
eeeee	-11.2861
ches	-11.2885
ool	-11.2893
oda	-11.2906
▁pad	-11.2908
▁thi	-11.2916
▁murders	-11.2938
▁rav	-11.2941
ova	-11.2942
ttle	-11.2951
▁gardens	-11.2952
rable	-11.2953
▁clip	-11.2955
▁checks	-11.2959
ighted	-11.2963
lch	-11.2974
▁sav	-11.2975
▁rounds	-11.2978
▁horr	-11.2988
▁appli	-11.2991
▁rep	-11.2995
▁cultur	-11.3001
ans	-11.3003
▁method	-11.3004
▁mammal	-11.3005
▁runner	-11.3005
▁crumb	-11.3006
▁studie	-11.3007
▁vision	-11.3007
▁gull	-11.3008
▁ce	-11.3011
▁relative	-11.3014
▁grandma	-11.3015
▁mortar	-11.3017
▁chore	-11.3018
▁gulp	-11.302
▁intention	-11.302
▁puppet	-11.3023
▁threehorn	-11.3026
▁comrade	-11.3027
cycl	-11.3028
▁ancestor	-11.3029
▁temp	-11.3029
▁stamp	-11.303
▁provid	-11.3032
▁giggle	-11.3033
▁texa	-11.3036
▁squa	-11.3037
▁manner	-11.3045
▁highland	-11.3046
▁mcc	-11.3049
▁folk	-11.305
stol	-11.3051
▁fad	-11.3059
▁nee	-11.3062
▁explo	-11.307
▁growl	-11.3083
pot	-11.3086
scope	-11.3087
tile	-11.3089
insula	-11.309
▁trespass	-11.3094
called	-11.3098
▁deals	-11.3099
▁typ	-11.3099
▁cobb	-11.3101
▁lis	-11.3107
▁toe	-11.3109
▁strip	-11.3112
▁ink	-11.3114
▁threaten	-11.3116
▁whiz	-11.3122
▁bean	-11.3123
▁ref	-11.3128
▁lou	-11.3139
▁bunk	-11.3141
▁stab	-11.3145
▁bragg	-11.3151
▁mock	-11.3159
hell	-11.3159
▁manufactur	-11.3161
▁author	-11.3164
▁clar	-11.3165
mier	-11.3166
▁occur	-11.3166
▁owl	-11.3166
▁sweep	-11.3167
▁consum	-11.3167
▁petition	-11.3169
▁descend	-11.317
foot	-11.3171
▁broadcast	-11.3171
last	-11.3172
anna	-11.3175
▁gleam	-11.3175
▁anchor	-11.3177
▁snarl	-11.3177
▁caus	-11.3178
▁chant	-11.3179
▁beep	-11.318
▁confirm	-11.3181
▁intr	-11.3181
▁establish	-11.3182
▁disappoint	-11.3183
controll	-11.3184
identifi	-11.3184
▁weep	-11.3185
burger	-11.3186
▁spi	-11.3188
decisive	-11.319
southeast	-11.319
seven	-11.319
oooooh	-11.319
eight	-11.3191
eaten	-11.3192
informed	-11.3192
leaf	-11.3192
heart	-11.3193
civiliz	-11.3193
two	-11.3194
upper	-11.3194
natural	-11.3194
guard	-11.3196
storm	-11.3196
imate	-11.3196
bike	-11.3196
horse	-11.3196
world	-11.3196
scale	-11.3196
free	-11.3196
active	-11.3196
▁privilege	-11.3197
six	-11.3197
hela	-11.3198
legs	-11.3198
green	-11.3199
guts	-11.3199
type	-11.3199
▁baptize	-11.32
▁despise	-11.32
listen	-11.32
▁graduate	-11.3201
stray	-11.3202
▁acquire	-11.3202
tada	-11.3202
▁involve	-11.3204
range	-11.3205
▁ital	-11.3206
▁possibilit	-11.3206
moth	-11.3207
born	-11.3207
▁rug	-11.3208
ario	-11.3208
mile	-11.3209
▁wond	-11.3209
wait	-11.3209
wash	-11.321
kate	-11.321
▁trib	-11.321
▁solve	-11.3211
▁sass	-11.3211
▁rejoic	-11.3212
▁precise	-11.3212
▁blend	-11.3212
▁commerc	-11.3212
gun	-11.3212
▁ingr	-11.3213
hut	-11.3213
▁slim	-11.3213
▁numb	-11.3214
▁bububu	-11.3216
▁spook	-11.3217
▁billi	-11.3217
aid	-11.322
lante	-11.3221
handed	-11.3221
▁sandwich	-11.3221
▁villa	-11.3221
▁magnificen	-11.3222
▁gaze	-11.3222
▁trim	-11.3222
▁ambitio	-11.3223
icken	-11.3224
▁cynic	-11.3224
▁volcan	-11.3224
▁profession	-11.3224
▁acomin	-11.3225
▁trans	-11.3225
▁givin	-11.3225
imerakazam	-11.3225
▁corrupt	-11.3226
▁react	-11.3226
▁marshal	-11.3227
▁acqui	-11.3227
ruly	-11.3228
▁atlanti	-11.3228
▁effect	-11.3228
▁contra	-11.3228
vail	-11.3229
▁bounc	-11.3229
▁possess	-11.3229
quishe	-11.3229
▁triumph	-11.3229
▁vulgar	-11.3229
iculous	-11.3229
▁liqu	-11.3229
▁reconn	-11.323
▁defin	-11.323
▁multipl	-11.323
▁observat	-11.323
convenience	-11.323
sburg	-11.323
▁abomination	-11.323
▁abroad	-11.323
▁absolve	-11.323
▁accent	-11.323
▁advancing	-11.323
▁aerodynamic	-11.323
▁aggravati	-11.323
▁album	-11.323
▁alibi	-11.323
▁ammunition	-11.323
▁anonym	-11.323
▁antenna	-11.323
▁arabella	-11.323
▁assignment	-11.323
▁barracks	-11.323
▁bathtub	-11.323
▁bazaar	-11.323
▁believing	-11.323
▁blonde	-11.323
▁bloodthirsty	-11.323
▁brigadier	-11.323
▁brrrr	-11.323
▁bullfrog	-11.323
▁burglar	-11.323
▁buttermilk	-11.323
▁cabaret	-11.323
▁calendar	-11.323
▁canadian	-11.323
▁canopy	-11.323
▁celebrating	-11.323
▁centimes	-11.323
▁challenging	-11.323
▁chaplain	-11.323
▁chestnut	-11.323
▁chivalr	-11.323
▁cirque	-11.323
▁clarinet	-11.323
▁classified	-11.323
▁clutterbuck	-11.323
▁compromise	-11.323
▁conflict	-11.323
▁consult	-11.323
▁contribute	-11.323
▁cyanide	-11.323
▁cyrus	-11.323
▁dagoult	-11.323
▁daughterinlaw	-11.323
▁davis	-11.323
▁dawdle	-11.323
▁democra	-11.323
▁destination	-11.323
▁dimension	-11.323
▁disrupt	-11.323
▁distinguished	-11.323
▁divorce	-11.323
▁domestic	-11.323
▁downriver	-11.323
▁downwind	-11.323
▁dynamic	-11.323
▁eccentric	-11.323
▁edbrooke	-11.323
▁education	-11.323
▁eisenhower	-11.323
▁electronic	-11.323
▁enterprise	-11.323
▁excess	-11.323
▁facial	-11.323
▁fertilizer	-11.323
▁fingernails	-11.323
▁fissure	-11.323
▁frequently	-11.323
▁frittering	-11.323
▁ghastly	-11.323
▁giddyap	-11.323
▁glendarach	-11.323
▁glitterbots	-11.323
▁goepner	-11.323
▁grammar	-11.323
▁grief	-11.323
▁grotty	-11.323
▁grumpy	-11.323
▁hahahahaha	-11.323
▁haleiwa	-11.323
▁handkerchief	-11.323
▁harrington	-11.323
▁hehhehheh	-11.323
▁himalayan	-11.323
▁honeymoon	-11.323
▁individuals	-11.323
▁indubitably	-11.323
▁ingenious	-11.323
▁jabbering	-11.323
▁jeanbob	-11.323
▁jeepers	-11.323
▁jerusalem	-11.323
▁juarez	-11.323
▁juarista	-11.323
▁juzo	-11.323
▁lammas	-11.323
▁legitimate	-11.323
▁lindbergh	-11.323
▁liverpool	-11.323
▁lmeratazam	-11.323
▁locomotive	-11.323
▁magistrate	-11.323
▁manifestation	-11.323
▁marshmallow	-11.323
▁mebbe	-11.323
▁mechanism	-11.323
▁melancholy	-11.323
▁menthol	-11.323
▁merchandise	-11.323
▁merchant	-11.323
▁mercutio	-11.323
▁misslethwaite	-11.323
▁mochizuki	-11.323
▁morichika	-11.323
▁nicole	-11.323
▁nimble	-11.323
▁nowadays	-11.323
▁obstruct	-11.323
▁offense	-11.323
▁oldfashioned	-11.323
▁orchestra	-11.323
▁orient	-11.323
▁ostrovsky	-11.323
▁overseas	-11.323
▁parachute	-11.323
▁peabody	-11.323
▁pemsel	-11.323
▁pestilence	-11.323
▁phantasmagori	-11.323
▁phase	-11.323
▁phillips	-11.323
▁pneumatic	-11.323
▁porridge	-11.323
▁postpone	-11.323
▁premium	-11.323
▁privacy	-11.323
▁promotion	-11.323
▁proportioned	-11.323
▁protein	-11.323
▁provisions	-11.323
▁pseudopod	-11.323
▁puberty	-11.323
▁purchase	-11.323
▁quaint	-11.323
▁quality	-11.323
▁regroup	-11.323
▁rehearsal	-11.323
▁republic	-11.323
▁resolve	-11.323
▁resource	-11.323
▁reuben	-11.323
▁revoir	-11.323
▁rhinoceros	-11.323
▁rojas	-11.323
▁routine	-11.323
▁rundstedt	-11.323
▁scartaris	-11.323
▁sekigahara	-11.323
▁sensible	-11.323
▁soninlaw	-11.323
▁sparrow	-11.323
▁stereo	-11.323
▁strategy	-11.323
▁subordinates	-11.323
▁superficial	-11.323
▁supply	-11.323
▁supposing	-11.323
▁switzerland	-11.323
▁sycamore	-11.323
▁symphony	-11.323
▁talktalk	-11.323
▁temporarily	-11.323
▁terror	-11.323
▁thyself	-11.323
▁timid	-11.323
▁toodleoo	-11.323
▁tortoise	-11.323
▁tranquilizers	-11.323
▁treacherous	-11.323
▁tremble	-11.323
▁trolley	-11.323
▁turbine	-11.323
▁ultra	-11.323
▁underestimate	-11.323
▁unexpected	-11.323
▁unicorn	-11.323
▁unpredictable	-11.323
▁violat	-11.323
▁virtuous	-11.323
▁vodka	-11.323
▁wheelchair	-11.323
▁whirring	-11.323
▁willerstein	-11.323
▁woooah	-11.323
▁yield	-11.323
▁zambezi	-11.323
▁zenkuro	-11.323
▁abrupt	-11.323
▁appalling	-11.323
▁beetle	-11.323
▁chrome	-11.323
▁compound	-11.323
▁diploma	-11.323
▁dispatch	-11.323
▁econom	-11.323
▁gnaw	-11.323
▁museum	-11.323
▁notorious	-11.323
▁psych	-11.323
ontext	-11.323
▁acquaint	-11.323
▁barrier	-11.323
▁ceiling	-11.323
▁conceal	-11.323
▁conspiracy	-11.323
▁content	-11.323
▁dixon	-11.323
▁dresden	-11.323
▁duchess	-11.323
▁gesture	-11.323
▁inquir	-11.323
▁inspire	-11.323
▁ireland	-11.323
▁kilyar	-11.323
▁livestock	-11.323
▁nuthin	-11.323
▁penalty	-11.323
▁poverty	-11.323
▁presume	-11.323
▁sprout	-11.323
▁turf	-11.323
▁workshop	-11.323
abilities	-11.323
ritis	-11.323
▁attached	-11.323
▁berlin	-11.323
▁bueno	-11.323
▁caesar	-11.323
▁canyon	-11.323
▁ethel	-11.323
▁inclin	-11.323
▁naja	-11.323
▁onward	-11.323
▁oyster	-11.323
▁scamp	-11.323
▁transmission	-11.323
▁almaelou	-11.323
▁appreciati	-11.323
▁bloke	-11.323
▁finance	-11.323
▁gross	-11.323
▁scaredycat	-11.323
▁stagg	-11.323
flicted	-11.323
▁constable	-11.323
▁dorm	-11.323
▁solitude	-11.323
▁stacey	-11.323
▁wight	-11.323
▁attire	-11.323
▁bungie	-11.323
▁exceed	-11.323
▁gently	-11.323
▁harley	-11.323
▁impost	-11.323
▁item	-11.323
▁marvellous	-11.323
▁sleighbell	-11.323
▁angola	-11.323
▁bunion	-11.323
▁devastat	-11.323
▁thump	-11.323
▁virtual	-11.323
▁focus	-11.323
▁gallows	-11.323
▁gossip	-11.323
▁luncheon	-11.323
▁stacked	-11.323
▁untie	-11.323
▁yawning	-11.323
▁zuma	-11.323
▁cinnamon	-11.323
▁flirt	-11.323
▁haydn	-11.323
▁kirsty	-11.323
▁recit	-11.323
▁seduce	-11.323
▁adorable	-11.323
▁santiano	-11.323
▁vista	-11.323
▁decoy	-11.323
▁dissolv	-11.323
▁racing	-11.323
▁unstable	-11.323
▁dragons	-11.323
▁sym	-11.323
▁anyplace	-11.323
▁intact	-11.323
▁marketplace	-11.323
wield	-11.323
▁acute	-11.323
▁reference	-11.323
▁fiddling	-11.323
▁gentlewoman	-11.323
shuffle	-11.323
▁hovering	-11.323
▁exclamation	-11.323
▁persever	-11.323
▁swimming	-11.323
lubber	-11.323
▁bicker	-11.323
▁converse	-11.323
▁perilous	-11.323
▁stokey	-11.323
▁critic	-11.323
▁wolverine	-11.323
▁ritual	-11.323
▁allerg	-11.323
▁typesett	-11.323
▁herald	-11.323
▁phd	-11.323
▁gussy	-11.323
▁griev	-11.3231
▁marines	-11.3231
inja	-11.3231
stutter	-11.3231
▁conform	-11.3231
▁elevator	-11.3231
▁identical	-11.3231
▁husky	-11.3231
▁reyn	-11.3231
▁hawk	-11.3231
▁otfice	-11.3231
▁assistance	-11.3231
▁whatcha	-11.3231
▁winston	-11.3231
▁antarctic	-11.3231
▁smack	-11.3231
▁promote	-11.3231
▁masque	-11.3231
▁proposition	-11.3231
▁chickama	-11.3231
▁sheila	-11.3231
▁fiddle	-11.3231
▁hirom	-11.3231
▁injecti	-11.3231
▁vessel	-11.3231
▁arthur	-11.3231
▁interference	-11.3231
▁muttering	-11.3231
▁hideandseek	-11.3231
▁insignificant	-11.3231
▁jamison	-11.3231
▁nibble	-11.3231
▁jackass	-11.3231
▁sermon	-11.3231
▁wardroom	-11.3231
▁hicks	-11.3231
▁misunderstood	-11.3231
▁pucker	-11.3231
▁upsidedown	-11.3231
▁zealand	-11.3231
▁slack	-11.3231
▁buns	-11.3231
▁lovat	-11.3231
▁elev	-11.3231
▁nuclear	-11.3231
▁quake	-11.3231
▁solomon	-11.3231
▁austria	-11.3231
▁salute	-11.3231
▁slap	-11.3231
▁reinversi	-11.3231
▁requit	-11.3231
▁magnit	-11.3231
▁underwater	-11.3231
▁mopani	-11.3231
▁trend	-11.3231
▁quilt	-11.3231
tacles	-11.3231
▁fanci	-11.3231
▁paddle	-11.3231
▁teenagers	-11.3231
chiev	-11.3231
▁cooperation	-11.3231
▁holler	-11.3231
▁perkins	-11.3231
▁scholar	-11.3231
▁duties	-11.3231
▁nevada	-11.3231
▁avenue	-11.3231
▁tsk	-11.3231
▁minuet	-11.3231
▁biochemist	-11.3231
▁salud	-11.3231
▁triumphant	-11.3231
▁scotch	-11.3231
▁meadow	-11.3231
▁adjust	-11.3231
▁descent	-11.3231
▁convictions	-11.3231
▁scull	-11.3231
▁aaaaaaaaa	-11.3231
▁dickens	-11.3231
▁scottish	-11.3231
▁robot	-11.3231
▁vamp	-11.3231
▁muck	-11.3232
▁mild	-11.3232
▁carbolic	-11.3232
▁pods	-11.3232
yama	-11.3232
usu	-11.3232
▁rebel	-11.3232
▁thirtyfive	-11.3232
▁neva	-11.3232
▁pastime	-11.3232
homa	-11.3232
▁locate	-11.3232
▁missiles	-11.3232
▁shrine	-11.3232
▁karate	-11.3232
▁riff	-11.3232
nscription	-11.3232
▁whatre	-11.3232
▁distract	-11.3232
▁jocko	-11.3232
▁helen	-11.3232
▁pledge	-11.3232
▁totem	-11.3232
zac	-11.3232
▁ragged	-11.3232
▁heartbreak	-11.3232
▁cornfield	-11.3232
▁lenin	-11.3232
▁infra	-11.3232
▁playground	-11.3232
shire	-11.3232
▁chimney	-11.3232
▁gopher	-11.3232
▁effective	-11.3232
▁retract	-11.3232
▁rufe	-11.3232
▁knob	-11.3232
▁output	-11.3232
▁benefit	-11.3232
▁elegant	-11.3232
▁prettiest	-11.3232
▁psst	-11.3232
▁bumbum	-11.3232
▁benning	-11.3232
▁reflexes	-11.3232
▁toggle	-11.3232
▁simon	-11.3232
▁kilo	-11.3233
▁barren	-11.3233
iddy	-11.3233
▁hooooo	-11.3233
▁revolutionary	-11.3233
▁analyze	-11.3233
ulsion	-11.3233
▁injuries	-11.3233
▁seesaw	-11.3233
▁occasionally	-11.3233
▁rustling	-11.3233
▁claw	-11.3233
▁whimper	-11.3233
▁kimmel	-11.3233
▁myth	-11.3233
▁flour	-11.3233
▁nooo	-11.3233
▁abel	-11.3233
▁medicine	-11.3233
▁lode	-11.3233
▁laura	-11.3233
▁detonator	-11.3233
▁editor	-11.3233
▁hungarian	-11.3233
▁sinned	-11.3233
▁bayou	-11.3233
▁rabble	-11.3234
▁alaba	-11.3234
berries	-11.3234
▁jeff	-11.3234
▁tweed	-11.3234
▁riddle	-11.3234
▁utter	-11.3234
▁coke	-11.3234
▁polite	-11.3234
oooahh	-11.3234
saynwittgenstein	-11.3234
tynine	-11.3234
▁vibrat	-11.3234
▁refinement	-11.3234
▁reinforce	-11.3234
▁brawl	-11.3234
▁formalities	-11.3234
▁approval	-11.3234
▁corruption	-11.3234
▁probe	-11.3234
▁executioner	-11.3234
▁descendant	-11.3234
▁dough	-11.3234
▁elm	-11.3235
▁scorn	-11.3235
▁craven	-11.3235
▁steven	-11.3235
▁struggle	-11.3235
▁hesitate	-11.3235
▁fester	-11.3235
▁fliers	-11.3235
▁ruck	-11.3235
▁geese	-11.3235
affe	-11.3235
▁uncover	-11.3235
gghh	-11.3235
▁deli	-11.3235
▁composer	-11.3235
duran	-11.3235
▁anon	-11.3235
▁mumblechook	-11.3235
▁chapel	-11.3236
▁waterfall	-11.3236
▁devotion	-11.3236
▁hydr	-11.3236
▁raspberry	-11.3236
▁technology	-11.3236
▁baking	-11.3236
quisition	-11.3236
▁disturbance	-11.3236
ecu	-11.3236
▁dislike	-11.3236
▁overdo	-11.3236
▁herbs	-11.3237
▁overtime	-11.3237
settling	-11.3237
▁parry	-11.3237
▁astern	-11.3237
▁vegetable	-11.3237
▁invest	-11.3237
▁suis	-11.3237
▁jap	-11.3237
▁genda	-11.3237
▁sacrificed	-11.3237
▁maria	-11.3237
▁midst	-11.3237
▁beam	-11.3237
▁monty	-11.3237
▁railway	-11.3237
▁abso	-11.3237
ember	-11.3237
▁hump	-11.3237
▁admir	-11.3237
▁cowell	-11.3238
▁bleat	-11.3238
▁karen	-11.3238
▁overtur	-11.3238
▁straightaway	-11.3238
▁regal	-11.3238
▁mush	-11.3238
▁but	-11.3238
▁chuck	-11.3238
▁groom	-11.3238
▁loch	-11.3239
▁flock	-11.3239
▁scent	-11.3239
▁margin	-11.3239
▁grande	-11.3239
▁wuh	-11.3239
▁tolerate	-11.3239
▁produce	-11.3239
▁execute	-11.3239
▁nugget	-11.3239
▁shield	-11.3239
▁shroud	-11.3239
▁suicide	-11.3239
▁loaf	-11.3239
▁crisp	-11.3239
▁plot	-11.3239
▁courtesy	-11.3239
▁eee	-11.324
▁construction	-11.324
▁armor	-11.324
▁frey	-11.324
▁depot	-11.324
▁rash	-11.324
▁rim	-11.324
▁polecat	-11.324
▁background	-11.324
▁sittin	-11.3241
▁drap	-11.3241
▁eco	-11.3241
▁hightail	-11.3241
▁spiritual	-11.3241
pines	-11.3241
rated	-11.3241
▁transition	-11.3241
▁firstclass	-11.3241
▁dedicated	-11.3241
▁eddy	-11.3241
▁wail	-11.3242
▁mixup	-11.3242
▁buff	-11.3242
osity	-11.3242
▁brownie	-11.3243
▁publicity	-11.3243
▁confession	-11.3243
▁heavily	-11.3243
▁soda	-11.3243
▁hatred	-11.3243
▁rh	-11.3243
▁traf	-11.3243
rping	-11.3243
▁omen	-11.3244
▁ilk	-11.3244
▁clum	-11.3244
▁mold	-11.3244
elope	-11.3244
▁electrician	-11.3244
▁abetting	-11.3244
▁unno	-11.3245
▁deputi	-11.3245
▁thad	-11.3245
▁flit	-11.3245
▁gig	-11.3245
▁choosing	-11.3246
▁barf	-11.3246
▁noooo	-11.3246
▁horseback	-11.3246
▁outlaw	-11.3246
▁sauc	-11.3246
lsey	-11.3246
▁teeny	-11.3246
logue	-11.3246
gills	-11.3247
▁peru	-11.3247
▁trimm	-11.3247
▁runnin	-11.3248
▁dwell	-11.3248
▁moron	-11.3248
oked	-11.3248
▁wooow	-11.3249
▁grumbl	-11.3249
▁mead	-11.325
▁shit	-11.325
▁seventh	-11.3252
▁precede	-11.3252
▁hooter	-11.3252
▁whore	-11.3253
borg	-11.3253
▁lef	-11.3253
mulat	-11.3253
▁trott	-11.3253
▁patie	-11.3254
▁agent	-11.3254
▁kur	-11.3254
▁at	-11.3254
vier	-11.3254
bomp	-11.3254
▁draft	-11.3255
▁breach	-11.3255
▁clay	-11.3255
▁neat	-11.3255
▁dese	-11.3256
▁armies	-11.3256
▁mab	-11.3256
▁forsaken	-11.3256
▁betrayal	-11.3256
▁enable	-11.3257
▁bedtime	-11.3257
hound	-11.3257
▁billion	-11.3258
▁bombo	-11.3258
▁moses	-11.3258
▁yodo	-11.3258
▁wonderland	-11.3258
▁yyou	-11.3258
▁correction	-11.3259
▁ramp	-11.3259
▁rustle	-11.3259
▁anticipated	-11.326
▁madman	-11.326
▁escala	-11.3261
▁baptized	-11.3261
▁despised	-11.3261
▁tucked	-11.3261
▁entertained	-11.3261
▁knicker	-11.3261
▁num	-11.3261
▁acquired	-11.3261
▁vasc	-11.3262
▁lizzy	-11.3263
▁shooin	-11.3263
▁pon	-11.3264
▁exploit	-11.3264
erick	-11.3264
▁mouthful	-11.3264
asis	-11.3265
urgeo	-11.3265
▁urged	-11.3265
daisy	-11.3265
▁hometown	-11.3266
▁youse	-11.3266
▁spill	-11.3266
kind	-11.3268
▁entertaining	-11.3269
▁owned	-11.3269
▁farther	-11.3269
▁southeast	-11.327
▁vanity	-11.3271
▁decisive	-11.3271
▁mandat	-11.3271
▁scope	-11.3271
lene	-11.3271
▁rice	-11.3272
▁container	-11.3272
▁wern	-11.3272
▁widower	-11.3272
▁sunny	-11.3273
▁increased	-11.3273
▁homework	-11.3274
▁symbolic	-11.3274
▁cologne	-11.3274
▁wah	-11.3275
▁rab	-11.3276
▁clang	-11.3276
▁clara	-11.3277
▁sur	-11.3278
▁faithfully	-11.3279
▁honorable	-11.3279
tel	-11.328
made	-11.3281
▁roubles	-11.3281
▁fiends	-11.3281
▁bushwhackers	-11.3281
▁columns	-11.3281
▁guineas	-11.3281
▁threatened	-11.3282
▁shrieks	-11.3282
▁lung	-11.3282
▁repuls	-11.3282
▁kate	-11.3283
▁pointless	-11.3285
▁bitterly	-11.3285
▁ahold	-11.3285
▁rever	-11.3286
▁cursed	-11.3287
▁sne	-11.3288
icent	-11.3289
open	-11.329
▁officially	-11.3293
▁mona	-11.3294
▁weeping	-11.3295
▁ven	-11.3296
▁grandson	-11.3296
eached	-11.3296
▁occurr	-11.3296
▁carla	-11.3296
▁amazed	-11.3296
▁cargo	-11.3297
▁wealthy	-11.3297
▁beaten	-11.3298
look	-11.3301
▁honoured	-11.3301
▁twisted	-11.3301
▁faintly	-11.3302
▁sweeping	-11.3303
hour	-11.3303
▁hire	-11.3303
celle	-11.3304
▁grim	-11.3305
▁picket	-11.3306
▁receiv	-11.3308
▁controller	-11.3308
▁indicate	-11.331
▁reminder	-11.3312
▁option	-11.3313
▁proven	-11.3313
loo	-11.3314
▁hint	-11.3314
▁destroyers	-11.3315
▁oi	-11.3318
▁seaman	-11.3318
gedy	-11.3319
▁spine	-11.3319
▁bunker	-11.332
▁attempted	-11.3321
▁hauled	-11.3321
▁laird	-11.3322
▁nailed	-11.3322
▁portion	-11.3322
▁lust	-11.3323
▁bi	-11.3324
▁plank	-11.3324
▁prom	-11.3325
▁witches	-11.3328
▁unload	-11.333
mala	-11.333
ashed	-11.3331
▁cherish	-11.3333
ari	-11.3336
▁capt	-11.3339
▁shootin	-11.334
▁mistaken	-11.3341
▁printed	-11.3341
▁labor	-11.3342
▁charmed	-11.3343
▁tray	-11.3345
▁straining	-11.3345
▁nit	-11.3345
▁tata	-11.3346
ately	-11.3348
itable	-11.3348
▁crawling	-11.3348
▁demi	-11.3353
agic	-11.3353
▁mental	-11.3354
▁ere	-11.3356
▁carlo	-11.3357
▁oppos	-11.3359
sund	-11.3361
▁succeeded	-11.3361
▁grap	-11.3363
▁cobble	-11.3363
▁blowin	-11.3365
▁connected	-11.3366
▁dew	-11.3368
▁status	-11.337
▁sheets	-11.337
▁concludes	-11.337
▁pilgrims	-11.337
▁pioneers	-11.337
▁propellers	-11.337
▁regions	-11.337
▁adults	-11.337
▁crates	-11.337
▁scots	-11.337
▁squawking	-11.3372
▁dumped	-11.3372
▁commandos	-11.3376
nuck	-11.3378
▁exceptions	-11.3378
▁troopers	-11.3379
▁fog	-11.338
▁gin	-11.338
▁roy	-11.3381
▁deem	-11.3382
▁tainted	-11.3382
▁passes	-11.3386
▁brig	-11.3388
▁fli	-11.3389
punk	-11.3389
▁accus	-11.3394
▁teat	-11.3395
gestion	-11.3396
▁lawn	-11.3402
▁oblige	-11.3403
mage	-11.3417
▁hallowe	-11.3417
ptions	-11.3418
▁bin	-11.3419
ury	-11.3421
▁arrested	-11.3423
▁delivery	-11.3423
ecks	-11.3424
▁blocked	-11.3426
▁germany	-11.3426
▁doubter	-11.3426
cer	-11.3433
▁hook	-11.3433
itated	-11.3436
▁cuff	-11.3438
ading	-11.3439
▁valve	-11.3441
▁caper	-11.3442
ilize	-11.3445
▁talented	-11.3446
▁reminded	-11.3447
▁hal	-11.3448
▁gaz	-11.3448
▁hooks	-11.3449
▁bugg	-11.3452
▁accidental	-11.3453
▁honesty	-11.3456
▁studies	-11.3458
▁crumbs	-11.3461
▁grandmas	-11.3462
▁mammals	-11.3462
▁methods	-11.3462
▁highlands	-11.3462
▁visions	-11.3462
▁cultural	-11.3464
▁runners	-11.3469
▁chewing	-11.3473
▁jer	-11.3473
▁betraying	-11.3473
▁cheating	-11.3473
▁inning	-11.3473
lant	-11.3474
▁dukey	-11.3476
▁depress	-11.3476
▁manager	-11.3479
▁payment	-11.3479
tack	-11.3481
▁brightly	-11.3489
oaring	-11.349
▁sewer	-11.3491
▁haaa	-11.3491
nant	-11.3492
▁sleepin	-11.3494
▁tricky	-11.3496
▁safer	-11.3501
iter	-11.3503
ations	-11.3507
▁continued	-11.3508
▁catchin	-11.351
▁del	-11.3511
▁blamed	-11.3517
god	-11.3517
▁examin	-11.352
▁mid	-11.3523
▁horri	-11.3524
▁drifting	-11.3525
▁avoided	-11.3525
▁robb	-11.3531
▁walkin	-11.3532
▁planted	-11.3535
▁shared	-11.3546
▁chos	-11.3548
aged	-11.3552
▁screamed	-11.3552
▁flyin	-11.3553
▁acres	-11.3554
▁beliefs	-11.3554
▁donkeys	-11.3554
▁particles	-11.3554
▁chambers	-11.3554
▁elements	-11.3554
▁photos	-11.3554
▁muscles	-11.3554
▁rockets	-11.3555
▁blades	-11.3556
▁associates	-11.3557
▁pounding	-11.3557
▁sor	-11.3558
▁slides	-11.3561
▁defenses	-11.3561
ami	-11.3566
▁paste	-11.3568
▁movements	-11.357
▁vote	-11.3574
▁eminen	-11.358
▁borne	-11.3581
uffs	-11.3581
▁territ	-11.3582
sized	-11.3584
lves	-11.3593
lapping	-11.3593
▁needle	-11.3597
▁irre	-11.36
▁che	-11.36
▁lifting	-11.3602
▁mode	-11.3614
▁heath	-11.3619
tons	-11.3619
▁braw	-11.3621
▁wilder	-11.3622
▁kis	-11.3626
▁dreamers	-11.3629
▁slee	-11.3634
▁tearing	-11.3635
▁rivals	-11.3648
▁zones	-11.3648
▁rascals	-11.3648
▁zuckermans	-11.3648
▁panels	-11.3648
▁suggestions	-11.365
▁customs	-11.3653
▁washing	-11.3656
▁warned	-11.3657
zi	-11.3658
▁smaller	-11.3669
▁messed	-11.3671
▁fighter	-11.3688
sign	-11.3695
cipher	-11.3702
fire	-11.371
▁rese	-11.3726
posit	-11.3729
▁ros	-11.3731
▁finishing	-11.3736
▁convicts	-11.3737
▁principles	-11.3743
▁suitcases	-11.3743
▁flows	-11.3743
▁instructions	-11.3744
▁pecks	-11.3748
sis	-11.375
igs	-11.375
▁disp	-11.3753
▁provides	-11.3762
oes	-11.3764
uddle	-11.3774
▁boomer	-11.3774
ask	-11.3774
heel	-11.3776
▁dreamer	-11.3782
oe	-11.3785
urgeon	-11.3787
itious	-11.3799
▁defending	-11.3812
▁choppe	-11.3812
▁replies	-11.382
▁fairly	-11.3821
aki	-11.3828
▁palms	-11.383
▁carpets	-11.3833
fy	-11.3834
▁medals	-11.3838
▁hips	-11.384
▁haunt	-11.3847
▁spott	-11.3866
▁declares	-11.3869
▁praying	-11.3869
▁wes	-11.3891
▁fol	-11.3891
▁deserted	-11.3901
▁lookie	-11.3911
▁outing	-11.3917
pril	-11.3918
▁holdin	-11.3924
▁lumps	-11.3934
▁blacksmiths	-11.3934
▁newspapers	-11.3934
▁shal	-11.3935
▁slippers	-11.394
▁rolled	-11.3944
pache	-11.3945
▁callin	-11.3948
▁poster	-11.3948
▁zipad	-11.3959
▁ala	-11.3967
▁ban	-11.3971
▁lin	-11.3972
tonic	-11.3985
▁thr	-11.3997
▁infect	-11.3997
brow	-11.3998
▁sob	-11.4002
▁bumps	-11.4004
▁oct	-11.4017
▁tours	-11.4037
▁shores	-11.404
▁gand	-11.4041
eff	-11.4042
▁grabb	-11.4052
▁yon	-11.4062
▁missin	-11.4068
▁cand	-11.4069
key	-11.4075
▁conv	-11.4083
kins	-11.4097
▁recorder	-11.4101
▁rous	-11.4101
▁preserv	-11.411
▁visiting	-11.4112
▁limits	-11.412
▁models	-11.4128
▁whi	-11.4147
▁dropp	-11.4162
▁offering	-11.4171
iiii	-11.4174
▁knocking	-11.4179
▁engineers	-11.4183
▁cove	-11.4193
▁don	-11.4208
▁controll	-11.4212
sual	-11.4222
▁proposal	-11.4222
▁spa	-11.4224
▁nests	-11.4226
▁masks	-11.4227
▁obstacles	-11.4227
▁brides	-11.4238
▁posts	-11.4245
▁joined	-11.4249
▁cann	-11.4258
▁ko	-11.426
▁twentyfi	-11.4275
▁protecting	-11.4283
▁indi	-11.4285
▁subs	-11.429
▁signor	-11.4295
vigor	-11.4304
▁tighten	-11.4308
lar	-11.4312
▁gam	-11.4315
▁risks	-11.4328
rice	-11.4332
▁decides	-11.4337
▁opener	-11.4338
▁runways	-11.4339
▁alas	-11.4341
jah	-11.4354
▁experiences	-11.4359
▁submi	-11.4366
▁beautifully	-11.4372
idge	-11.4382
▁checking	-11.4416
▁champions	-11.4421
▁files	-11.4421
▁demonstrat	-11.4425
▁formalit	-11.4428
take	-11.4432
▁types	-11.4432
▁sands	-11.4451
▁danced	-11.4451
▁fielder	-11.4465
name	-11.4474
▁owes	-11.4492
▁stro	-11.4496
tangled	-11.4505
▁sticker	-11.4508
zar	-11.4514
▁knights	-11.4527
▁counting	-11.4531
gate	-11.4539
▁forgi	-11.454
▁returning	-11.456
aded	-11.4601
▁bums	-11.4603
▁ent	-11.4625
▁fab	-11.463
▁layer	-11.4658
ider	-11.4659
▁wester	-11.4661
▁awe	-11.4708
▁emb	-11.4728
▁tee	-11.4728
▁actions	-11.4743
▁explod	-11.4753
▁employe	-11.4763
▁ward	-11.4771
ugs	-11.4775
iers	-11.4792
▁bucks	-11.4804
ways	-11.4813
▁targets	-11.4835
▁buildings	-11.4837
▁ducks	-11.4839
▁corr	-11.4864
▁holder	-11.4886
▁slope	-11.4924
senti	-11.493
▁salar	-11.4936
▁stones	-11.4941
ripped	-11.4984
vive	-11.4984
▁sins	-11.5021
▁tun	-11.5033
asa	-11.5062
▁pipes	-11.5113
▁za	-11.5187
▁cla	-11.5189
awa	-11.5199
▁ties	-11.521
eaves	-11.5218
ving	-11.5283
ander	-11.5305
glasses	-11.5332
▁chil	-11.5344
eville	-11.5373
roused	-11.5397
▁bushe	-11.5445
nando	-11.5457
▁fif	-11.5486
epid	-11.549
▁iii	-11.5502
mped	-11.5521
ener	-11.5562
long	-11.5591
itte	-11.5592
▁intrigue	-11.56
▁gl	-11.5607
taka	-11.5621
rig	-11.5725
uma	-11.5777
▁bli	-11.58
rge	-11.5832
elvin	-11.5866
ora	-11.5912
cee	-11.5955
▁cro	-11.5955
abby	-11.5959
trap	-11.6002
bony	-11.6003
▁hugg	-11.6032
▁oversho	-11.6064
dom	-11.6084
ph	-11.6169
▁glo	-11.6177
▁hav	-11.6192
▁cran	-11.6224
▁ci	-11.6229
▁concentrat	-11.6254
tes	-11.6296
▁gri	-11.631
▁imagin	-11.6333
plin	-11.6337
▁chip	-11.6338
▁disc	-11.6344
▁impatient	-11.6357
▁busi	-11.6359
illion	-11.6389
ckle	-11.6394
▁vou	-11.6418
tti	-11.6481
▁lau	-11.6504
▁nin	-11.6504
tsu	-11.652
nroll	-11.6533
ira	-11.6595
mam	-11.6612
▁grip	-11.6635
niner	-11.6636
tang	-11.664
ox	-11.6659
▁woooo	-11.6675
pajama	-11.6678
gre	-11.6698
lum	-11.6706
arse	-11.6724
nation	-11.6738
▁bush	-11.6759
▁measur	-11.6801
assie	-11.6815
▁mort	-11.683
tempered	-11.6847
nard	-11.685
ress	-11.6853
▁divin	-11.6957
▁faa	-11.6983
angled	-11.7011
ute	-11.7015
ume	-11.7035
nfection	-11.7094
rious	-11.711
▁eas	-11.7139
▁what	-11.714
▁stark	-11.7149
▁candi	-11.7164
rb	-11.7168
▁bagg	-11.7173
ferred	-11.7201
hhhh	-11.7267
opper	-11.7331
▁ax	-11.7365
aaaa	-11.7367
aging	-11.737
ners	-11.7375
owed	-11.7381
tious	-11.7385
▁complet	-11.7389
erous	-11.739
nev	-11.7392
▁bac	-11.7397
▁accu	-11.7403
but	-11.7411
sol	-11.7424
▁pier	-11.7431
▁ou	-11.744
▁nursin	-11.7456
▁dip	-11.7486
rait	-11.7487
▁tack	-11.7495
▁tact	-11.7497
oooh	-11.7523
lovin	-11.7525
▁visi	-11.7536
rich	-11.7538
▁z	-11.7552
aying	-11.7575
▁ski	-11.7578
▁harv	-11.7587
ipher	-11.7597
aaah	-11.7615
▁tink	-11.7642
▁spo	-11.765
rock	-11.7653
▁swo	-11.767
ooow	-11.7671
ney	-11.7705
▁fascinat	-11.7709
integrat	-11.7712
hu	-11.7745
tian	-11.7758
rav	-11.7762
wart	-11.7766
▁exam	-11.7779
▁scen	-11.7792
▁chop	-11.7796
hoohoohoo	-11.7799
▁simpl	-11.7802
▁prosper	-11.7802
▁conscious	-11.7803
▁posi	-11.7812
io	-11.7813
▁blea	-11.7818
▁vie	-11.782
seen	-11.7826
▁bog	-11.7831
killer	-11.7838
▁electri	-11.7839
j	-11.784
get	-11.7848
▁whisper	-11.7871
olic	-11.7886
▁simp	-11.7888
▁mai	-11.7891
nie	-11.7905
entry	-11.7907
quis	-11.7912
umption	-11.7914
sha	-11.7919
▁persua	-11.792
nal	-11.7921
▁beau	-11.7932
▁expan	-11.7934
▁clap	-11.795
shod	-11.795
wler	-11.7952
▁exception	-11.796
▁troub	-11.7961
▁rod	-11.7967
hend	-11.7981
▁biscuit	-11.7983
▁cymbal	-11.7983
▁overflow	-11.7983
▁shepherd	-11.7983
▁mathematic	-11.7983
▁rapid	-11.7984
▁scratchin	-11.7987
▁refreshment	-11.7989
▁flint	-11.799
▁mule	-11.7992
▁squire	-11.7995
▁ev	-11.7997
▁vine	-11.7997
▁scot	-11.7998
▁appearance	-11.7999
▁clue	-11.8005
▁adult	-11.8006
▁pilgrim	-11.8006
▁propeller	-11.8006
▁pioneer	-11.8006
▁conclude	-11.8006
▁clu	-11.8007
igan	-11.8008
▁region	-11.8009
▁sheet	-11.8015
▁politic	-11.8017
riend	-11.8018
▁document	-11.8022
▁result	-11.8022
▁doggie	-11.8022
▁affair	-11.8022
▁rumble	-11.8023
▁scout	-11.8023
▁crate	-11.8024
▁calculation	-11.8026
▁trombone	-11.8028
erial	-11.8028
▁generat	-11.8031
▁prophet	-11.8032
otic	-11.8032
▁jacque	-11.8034
▁package	-11.8036
▁statu	-11.8038
▁battleship	-11.8039
▁blaze	-11.8041
▁parent	-11.8043
▁oop	-11.8049
▁stair	-11.805
▁desir	-11.8055
▁fug	-11.8062
inkling	-11.8063
due	-11.8063
▁lov	-11.8066
planes	-11.807
▁clearance	-11.808
▁trooper	-11.8081
▁operat	-11.8082
sails	-11.8084
▁remov	-11.8087
chik	-11.8089
unch	-11.8092
▁boun	-11.8097
▁slav	-11.8099
rth	-11.81
▁grove	-11.8102
numbered	-11.8105
tches	-11.8107
▁thrill	-11.8107
shells	-11.8119
▁entertain	-11.8122
huh	-11.8124
oby	-11.8126
▁heel	-11.8127
▁surround	-11.8128
▁wrap	-11.8128
▁excit	-11.8135
found	-11.8135
▁recogni	-11.8137
▁val	-11.8142
night	-11.8146
hhuh	-11.8146
bber	-11.8147
wen	-11.8147
▁grav	-11.8148
ummin	-11.8149
▁gainin	-11.8153
oopsie	-11.8154
eating	-11.8154
▁doubl	-11.8159
▁grasp	-11.8161
▁styl	-11.8162
categori	-11.8167
ugg	-11.817
▁revi	-11.8171
rufus	-11.8172
▁gallop	-11.8173
▁tuck	-11.8173
ohhoh	-11.8174
▁coin	-11.8174
▁screech	-11.8175
▁chirp	-11.8175
▁slaughter	-11.8175
▁scur	-11.8176
▁register	-11.8176
▁bleed	-11.8176
class	-11.818
owned	-11.818
fall	-11.8181
▁hoar	-11.8181
▁miniatur	-11.8183
▁introduc	-11.8184
▁frustrat	-11.8184
defeated	-11.8186
spoon	-11.8186
kaya	-11.8186
generat	-11.8187
▁commando	-11.8187
keep	-11.8187
craft	-11.8188
arms	-11.8189
prop	-11.819
level	-11.819
draft	-11.819
connected	-11.819
forsaken	-11.819
lifting	-11.819
strip	-11.8191
lili	-11.8191
known	-11.8192
place	-11.8192
worm	-11.8192
reaction	-11.8192
lick	-11.8192
whip	-11.8192
wood	-11.8193
shaft	-11.8193
shaking	-11.8193
throats	-11.8193
constant	-11.8194
screen	-11.8194
fight	-11.8194
why	-11.8195
satisfied	-11.8195
burn	-11.8195
plus	-11.8195
church	-11.8196
lks	-11.8196
apple	-11.8196
fortune	-11.8196
adventure	-11.8196
coast	-11.8196
breath	-11.8196
▁qualifi	-11.8196
witch	-11.8196
wise	-11.8196
double	-11.8196
bank	-11.8196
held	-11.8196
▁rubb	-11.8196
built	-11.8196
power	-11.8196
journey	-11.8196
flower	-11.8196
tick	-11.8196
blood	-11.8196
jump	-11.8196
tight	-11.8197
waves	-11.8197
damn	-11.8197
making	-11.8197
thousand	-11.8197
anything	-11.8197
father	-11.8197
▁cripple	-11.8197
▁encourage	-11.8197
space	-11.8197
▁confine	-11.8198
sounding	-11.8198
charge	-11.8198
large	-11.8198
penny	-11.8199
write	-11.82
wide	-11.8201
▁defens	-11.8201
yyyy	-11.8202
maid	-11.8203
forth	-11.8203
▁rudd	-11.8203
▁slid	-11.8203
coat	-11.8204
noticed	-11.8204
▁slam	-11.8204
meat	-11.8205
boat	-11.8205
cut	-11.8206
fair	-11.8206
rode	-11.8206
pants	-11.8206
wipe	-11.8206
▁should	-11.8207
▁facilit	-11.8207
renal	-11.8207
▁ultimate	-11.8207
rope	-11.8207
block	-11.8207
▁urge	-11.8208
pole	-11.8208
▁anticipate	-11.8208
▁victor	-11.8208
▁filth	-11.8208
crosse	-11.8208
sweet	-11.8208
pool	-11.8209
certain	-11.8209
position	-11.8209
▁deci	-11.8209
parte	-11.821
shake	-11.821
china	-11.821
▁determine	-11.821
▁heavi	-11.821
▁apparent	-11.8211
▁undoubted	-11.8211
▁recent	-11.8211
▁extreme	-11.8212
▁dignit	-11.8212
▁seiz	-11.8212
▁definit	-11.8213
▁int	-11.8213
pip	-11.8214
teeth	-11.8214
evil	-11.8214
bay	-11.8215
▁centur	-11.8215
hall	-11.8215
finger	-11.8215
dressed	-11.8216
cognit	-11.8217
▁enca	-11.8217
ushing	-11.8217
▁horribl	-11.8218
▁demonstrate	-11.8218
tutor	-11.8219
ntry	-11.8219
▁secre	-11.8219
join	-11.822
hay	-11.822
▁industri	-11.8221
▁jur	-11.8221
▁peach	-11.8222
▁compose	-11.8223
▁meek	-11.8223
▁festiv	-11.8224
circl	-11.8224
▁whim	-11.8225
▁drivin	-11.8225
▁trave	-11.8225
▁navigat	-11.8225
▁communi	-11.8225
hubby	-11.8226
▁inspect	-11.8226
▁flee	-11.8226
▁investigat	-11.8226
corporate	-11.8226
▁birt	-11.8226
▁convent	-11.8227
▁gir	-11.8227
▁earlie	-11.8227
runk	-11.8227
aahhh	-11.8227
script	-11.8227
▁spectac	-11.8227
▁steep	-11.8228
ormula	-11.8228
▁libra	-11.8228
duct	-11.8228
▁occup	-11.8228
▁situat	-11.8228
▁poss	-11.8228
▁borde	-11.8228
▁conscien	-11.8228
izza	-11.8228
▁extraordina	-11.8228
▁heeya	-11.8229
sequence	-11.8229
▁glide	-11.8229
▁confident	-11.8229
while	-11.8229
▁zipadee	-11.8229
unite	-11.8229
▁religio	-11.8229
couraged	-11.8229
nounce	-11.8229
understood	-11.8229
ndles	-11.8229
▁paja	-11.8229
▁virgin	-11.8229
▁austral	-11.8229
▁gener	-11.8229
▁marvel	-11.8229
▁steve	-11.8229
▁jud	-11.8229
ggler	-11.8229
liza	-11.823
▁confi	-11.823
constru	-11.823
▁relation	-11.823
lloping	-11.823
bean	-11.823
▁distr	-11.823
▁teenage	-11.823
escent	-11.823
ology	-11.823
▁sleigh	-11.823
▁phrase	-11.823
▁schwarz	-11.823
osphere	-11.823
calib	-11.823
▁alternat	-11.823
▁ambula	-11.823
▁brutal	-11.823
▁bumbumbum	-11.823
▁compensat	-11.823
▁contemplat	-11.823
▁dehydrat	-11.823
▁dillydally	-11.823
▁jeopard	-11.823
▁justify	-11.823
▁overwhelm	-11.823
▁punctual	-11.823
▁railroad	-11.823
▁regulat	-11.823
advertently	-11.823
aguchi	-11.823
carcinogenic	-11.823
fficient	-11.823
finder	-11.823
heimer	-11.823
hereafter	-11.823
lezvous	-11.823
newfoundlander	-11.823
obab	-11.823
synchronize	-11.823
▁abolish	-11.823
▁acrobat	-11.823
▁addition	-11.823
▁adjourned	-11.823
▁admission	-11.823
▁aeronautics	-11.823
▁agricultur	-11.823
▁ajob	-11.823
▁akagi	-11.823
▁andiron	-11.823
▁ankle	-11.823
▁apologizing	-11.823
▁archeologist	-11.823
▁attachment	-11.823
▁authentic	-11.823
▁auxiliaries	-11.823
▁aviator	-11.823
▁azaleas	-11.823
▁aztec	-11.823
▁bachelor	-11.823
▁bagpipes	-11.823
▁banjo	-11.823
▁battlewagons	-11.823
▁benevolence	-11.823
▁benevolent	-11.823
▁benvolio	-11.823
▁beseech	-11.823
▁birdzilla	-11.823
▁bishop	-11.823
▁blossom	-11.823
▁brotherinlaw	-11.823
▁brunette	-11.823
▁bulldog	-11.823
▁buttonhook	-11.823
▁candidate	-11.823
▁catastrophe	-11.823
▁catastrophic	-11.823
▁cheetah	-11.823
▁clodhopper	-11.823
▁cloister	-11.823
▁cobwebs	-11.823
▁cockroach	-11.823
▁competitor	-11.823
▁complicated	-11.823
▁composing	-11.823
▁concierge	-11.823
▁conquest	-11.823
▁convincing	-11.823
▁coordinates	-11.823
▁cornhuskers	-11.823
▁corresponden	-11.823
▁counterattack	-11.823
▁custody	-11.823
▁dagger	-11.823
▁debris	-11.823
▁delgado	-11.823
▁delsarte	-11.823
▁demolition	-11.823
▁dessert	-11.823
▁detached	-11.823
▁dingdong	-11.823
▁disoriented	-11.823
▁distort	-11.823
▁domyoji	-11.823
▁doorsteps	-11.823
▁dubois	-11.823
▁dubuque	-11.823
▁dunno	-11.823
▁duplicat	-11.823
▁dwarf	-11.823
▁einstein	-11.823
▁emerald	-11.823
▁empress	-11.823
▁enchilada	-11.823
▁enclos	-11.823
▁endeavor	-11.823
▁entrust	-11.823
▁erique	-11.823
▁ethiop	-11.823
▁eureka	-11.823
▁evolve	-11.823
▁exhilarat	-11.823
▁famished	-11.823
▁faretheewell	-11.823
▁favour	-11.823
▁fencing	-11.823
▁fivequebecsie	-11.823
▁flavor	-11.823
▁flimflam	-11.823
▁folklore	-11.823
▁formidable	-11.823
▁francois	-11.823
▁frazzle	-11.823
▁georgia	-11.823
▁gibberish	-11.823
▁gikkingen	-11.823
▁glenda	-11.823
▁grasshopper	-11.823
▁gymnasium	-11.823
▁harunaga	-11.823
▁havoc	-11.823
▁hereditary	-11.823
▁herpolsheimers	-11.823
▁hickam	-11.823
▁hissef	-11.823
▁idolatry	-11.823
▁immaterial	-11.823
▁improving	-11.823
▁indecent	-11.823
▁independence	-11.823
▁independent	-11.823
▁innocence	-11.823
▁interpol	-11.823
▁intervention	-11.823
▁invincible	-11.823
▁isaac	-11.823
▁isolated	-11.823
▁journal	-11.823
▁kaminsky	-11.823
▁kekchi	-11.823
▁kentner	-11.823
▁kentucky	-11.823
▁knuckles	-11.823
▁kohler	-11.823
▁krunklehorn	-11.823
▁kudoyama	-11.823
▁landmark	-11.823
▁landscape	-11.823
▁landslide	-11.823
▁lasagna	-11.823
▁latitude	-11.823
▁lecture	-11.823
▁libel	-11.823
▁luftwaffe	-11.823
▁lumberyard	-11.823
▁mackerel	-11.823
▁magnifier	-11.823
▁marseilles	-11.823
▁mavis	-11.823
▁mcbane	-11.823
▁mcbrusque	-11.823
▁mclntosh	-11.823
▁mercenaries	-11.823
▁mexican	-11.823
▁mislaid	-11.823
▁mistreated	-11.823
▁mitgang	-11.823
▁moisture	-11.823
▁monolith	-11.823
▁montez	-11.823
▁moonshine	-11.823
▁motivat	-11.823
▁neighbour	-11.823
▁newsflash	-11.823
▁nobility	-11.823
▁novelty	-11.823
▁obliterate	-11.823
▁offshore	-11.823
▁onstage	-11.823
▁ooeeooahah	-11.823
▁optimistic	-11.823
▁ornament	-11.823
▁orner	-11.823
▁outgrow	-11.823
▁overconfident	-11.823
▁overload	-11.823
▁pachyderm	-11.823
▁pantaloons	-11.823
▁parachutist	-11.823
▁pencil	-11.823
▁persecut	-11.823
▁phenomenal	-11.823
▁philadelphia	-11.823
▁phony	-11.823
▁pimples	-11.823
▁platform	-11.823
▁pontiff	-11.823
▁pontoon	-11.823
▁porcupine	-11.823
▁potiniere	-11.823
▁predators	-11.823
▁prefect	-11.823
▁prerogative	-11.823
▁prodigy	-11.823
▁proprietors	-11.823
▁pterodid	-11.823
▁quadruped	-11.823
▁qualities	-11.823
▁quarantine	-11.823
▁quoth	-11.823
▁reassure	-11.823
▁rebellion	-11.823
▁receipt	-11.823
▁recipe	-11.823
▁recreation	-11.823
▁redfern	-11.823
▁refuel	-11.823
▁revitalize	-11.823
▁reykjavik	-11.823
▁ripples	-11.823
▁rokuro	-11.823
▁sanitation	-11.823
▁satisfy	-11.823
▁satishouse	-11.823
▁sauerkraut	-11.823
▁saxon	-11.823
▁saxophone	-11.823
▁seventyfive	-11.823
▁shapiro	-11.823
▁shrift	-11.823
▁shrub	-11.823
▁signature	-11.823
▁simulator	-11.823
▁skirmish	-11.823
▁splendor	-11.823
▁sprawl	-11.823
▁stimson	-11.823
▁stowaways	-11.823
▁straightforward	-11.823
▁stunned	-11.823
▁sulpitius	-11.823
▁summerjob	-11.823
▁superintendent	-11.823
▁television	-11.823
▁temporary	-11.823
▁tendril	-11.823
▁tenshun	-11.823
▁thunderclap	-11.823
▁trifle	-11.823
▁truncheon	-11.823
▁turmoil	-11.823
▁twiddlydee	-11.823
▁twobyfour	-11.823
▁ultimatum	-11.823
▁uncomfortabl	-11.823
▁unimaginable	-11.823
▁unlimited	-11.823
▁unpopular	-11.823
▁upsydaisy	-11.823
▁urchin	-11.823
▁urrr	-11.823
▁violin	-11.823
▁vulnerable	-11.823
▁wampum	-11.823
▁watanabe	-11.823
▁welfare	-11.823
▁yagoobian	-11.823
▁zackly	-11.823
▁zulu	-11.823
coli	-11.823
▁certificate	-11.823
▁cocoon	-11.823
▁computer	-11.823
▁conceive	-11.823
▁cushion	-11.823
▁grafter	-11.823
▁graphic	-11.823
▁leonard	-11.823
▁linguist	-11.823
▁machete	-11.823
▁poacher	-11.823
▁preacher	-11.823
▁ringleader	-11.823
▁seventeen	-11.823
▁survey	-11.823
▁valentin	-11.823
populat	-11.823
vius	-11.823
▁accelerati	-11.823
▁ackack	-11.823
▁arose	-11.823
▁arrrgh	-11.823
▁assassin	-11.823
▁bandleader	-11.823
▁blarney	-11.823
▁blindfold	-11.823
▁blowhard	-11.823
▁bonbon	-11.823
▁bowtie	-11.823
▁burnford	-11.823
▁celebrit	-11.823
▁ceremon	-11.823
▁choir	-11.823
▁concoct	-11.823
▁courtmartial	-11.823
▁devise	-11.823
▁dolphin	-11.823
▁domain	-11.823
▁endurance	-11.823
▁figuring	-11.823
▁gourmet	-11.823
▁intellectual	-11.823
▁irk	-11.823
▁isolation	-11.823
▁junior	-11.823
▁lodge	-11.823
▁monarch	-11.823
▁mvp	-11.823
▁nakoma	-11.823
▁outmaneuver	-11.823
▁quelea	-11.823
▁reckless	-11.823
▁rector	-11.823
▁reluctant	-11.823
▁scrawl	-11.823
▁seasick	-11.823
▁shipwreck	-11.823
▁sicily	-11.823
▁siege	-11.823
▁sought	-11.823
▁strategi	-11.823
▁sync	-11.823
▁taranto	-11.823
▁temperament	-11.823
▁terminal	-11.823
▁tinancial	-11.823
▁ugli	-11.823
▁volcanologists	-11.823
▁waaaoooo	-11.823
▁wherefore	-11.823
▁yoshida	-11.823
cometumble	-11.823
▁angri	-11.823
▁blueprints	-11.823
▁daisies	-11.823
▁debate	-11.823
▁dictat	-11.823
▁disclose	-11.823
▁educate	-11.823
▁gasoline	-11.823
▁outtalk	-11.823
▁poult	-11.823
▁sanct	-11.823
▁sheesh	-11.823
▁stunt	-11.823
▁trustworthy	-11.823
▁urse	-11.823
▁whwhwh	-11.823
▁arduous	-11.823
▁bardot	-11.823
▁ebb	-11.823
▁merri	-11.823
▁missouri	-11.823
▁pathetic	-11.823
▁plastic	-11.823
▁priller	-11.823
▁prosecut	-11.823
▁ronan	-11.823
▁slots	-11.823
▁hawkeye	-11.823
rapture	-11.823
▁dismay	-11.823
▁flipfl	-11.823
▁hallelujah	-11.823
▁intensif	-11.823
▁mayhem	-11.823
▁mesilla	-11.823
▁mystif	-11.823
▁omelet	-11.823
▁residents	-11.823
▁shaved	-11.823
▁tyler	-11.823
bullseye	-11.823
▁chinese	-11.823
▁cusco	-11.823
▁halloa	-11.823
▁hoax	-11.823
▁oaf	-11.823
▁billboards	-11.823
▁nomad	-11.823
▁scepter	-11.823
▁sherry	-11.823
nacle	-11.823
▁exploring	-11.823
▁sunpu	-11.823
▁tansy	-11.823
laborat	-11.823
▁clyde	-11.823
▁molting	-11.823
▁persist	-11.823
▁phraseology	-11.823
▁straddle	-11.823
▁adulterous	-11.823
▁ethnolog	-11.823
▁geranium	-11.823
▁resume	-11.823
▁suspend	-11.823
▁tolerable	-11.823
maturity	-11.823
▁bosom	-11.823
▁joseph	-11.823
▁sweden	-11.823
▁amusing	-11.823
▁consists	-11.823
▁fattest	-11.823
▁yelp	-11.823
▁activat	-11.823
▁backbone	-11.823
▁impertinen	-11.823
▁sludge	-11.823
▁frown	-11.823
▁ninetyeight	-11.823
▁gyup	-11.823
▁oldtimer	-11.823
▁terminate	-11.823
▁benji	-11.823
▁hahahaha	-11.823
▁sunburned	-11.823
▁tribute	-11.823
▁jingle	-11.823
▁massacre	-11.823
▁offcourse	-11.823
▁horsy	-11.823
▁mitt	-11.823
▁jasper	-11.823
▁prizewinn	-11.823
▁burps	-11.823
▁grudge	-11.823
▁assets	-11.823
▁expire	-11.823
▁eyeballs	-11.823
▁offence	-11.823
▁schulz	-11.823
▁daresay	-11.823
bearer	-11.823
▁murama	-11.823
▁tyranny	-11.823
▁juggle	-11.823
▁jule	-11.823
▁teeger	-11.823
▁sulk	-11.823
▁utilize	-11.823
endous	-11.823
▁antelope	-11.823
▁devery	-11.823
▁fizz	-11.823
▁hankerin	-11.823
▁hogtie	-11.823
▁pregnan	-11.823
▁tiring	-11.823
nkets	-11.8231
▁apo	-11.8231
▁headphones	-11.8231
▁claude	-11.8231
▁logbook	-11.8231
osuke	-11.8231
▁bangalore	-11.8231
▁snowmobile	-11.8231
▁survivors	-11.8231
▁compadre	-11.8231
▁reconnect	-11.8231
▁dooms	-11.8231
▁simm	-11.8231
▁butler	-11.8231
▁monument	-11.8231
▁myselt	-11.8231
smokin	-11.8231
▁morgen	-11.8231
▁refill	-11.8231
▁uberta	-11.8231
▁govern	-11.8231
▁myse	-11.8231
▁parkleys	-11.8231
▁giles	-11.8231
▁voic	-11.8231
jell	-11.8231
nnia	-11.8231
▁chloe	-11.8231
▁exhibiti	-11.8231
lization	-11.8231
▁glug	-11.8231
▁rubio	-11.8231
▁sevenleague	-11.8231
▁exalt	-11.8231
▁galax	-11.8231
▁hercule	-11.8231
▁horrify	-11.8231
▁verify	-11.8231
▁illusion	-11.8231
wawawa	-11.8231
▁arrogance	-11.8231
▁ninetyfive	-11.8231
▁raisins	-11.8231
▁ballast	-11.8231
▁baptis	-11.8231
▁curts	-11.8231
▁swirl	-11.8231
▁midday	-11.8231
▁cinder	-11.8231
▁outset	-11.8231
▁stewart	-11.8231
▁tiresome	-11.8231
▁treac	-11.8231
▁toothache	-11.8231
▁frostbit	-11.8231
▁notify	-11.8231
▁lyric	-11.8231
▁pothole	-11.8231
▁lasz	-11.8231
▁crunch	-11.8231
▁dratt	-11.8231
▁talons	-11.8231
▁backwoods	-11.8231
▁jeering	-11.8231
▁towel	-11.8231
▁finesse	-11.8231
▁overnight	-11.8231
▁costume	-11.8231
▁nantes	-11.8231
▁purchasing	-11.8231
solate	-11.8231
▁checkbook	-11.8231
▁reced	-11.8231
▁inspiration	-11.8231
▁washburn	-11.8231
▁hostess	-11.8231
▁discord	-11.8231
▁renaud	-11.8231
cumen	-11.8231
▁bizarr	-11.8231
▁gagging	-11.8231
▁impartial	-11.8231
▁shrink	-11.8231
▁whereabouts	-11.8231
▁gooey	-11.8231
▁plague	-11.8231
nderson	-11.8231
▁elated	-11.8231
▁quad	-11.8231
▁district	-11.8231
▁fabrication	-11.8231
▁speculation	-11.8231
▁blouse	-11.8231
▁lunatic	-11.8231
▁liquid	-11.8231
▁confidential	-11.8231
▁puzzle	-11.8231
▁stalin	-11.8231
▁atla	-11.8232
▁quay	-11.8232
▁reform	-11.8232
▁fraterni	-11.8232
▁reflection	-11.8232
▁brewery	-11.8232
▁loath	-11.8232
▁embassies	-11.8232
▁sinners	-11.8232
▁wring	-11.8232
ridden	-11.8232
▁lalala	-11.8232
▁germinat	-11.8232
▁gliders	-11.8232
▁contribution	-11.8232
▁unshot	-11.8232
▁vault	-11.8232
▁conscience	-11.8232
▁lynchin	-11.8232
▁narrow	-11.8232
▁uphold	-11.8232
▁hesitation	-11.8232
▁midway	-11.8232
▁beckman	-11.8232
▁transferred	-11.8232
▁convey	-11.8232
▁supernatural	-11.8232
▁inventco	-11.8232
▁sphere	-11.8232
▁superstitio	-11.8232
▁insensitive	-11.8232
▁roam	-11.8232
▁scorch	-11.8232
spidey	-11.8232
▁prodigi	-11.8232
▁rampant	-11.8232
▁splash	-11.8232
▁fragran	-11.8232
▁kiev	-11.8232
▁pleading	-11.8232
▁dj	-11.8232
▁coronation	-11.8232
▁upward	-11.8232
opher	-11.8232
penetra	-11.8232
▁poking	-11.8233
▁ruse	-11.8233
▁troubie	-11.8233
▁scuse	-11.8233
▁ayuh	-11.8233
▁prosperity	-11.8233
▁jose	-11.8233
recracker	-11.8233
▁religious	-11.8233
▁quiz	-11.8233
▁whwhat	-11.8233
▁gunfight	-11.8233
▁glue	-11.8233
▁poem	-11.8233
▁sixtyfive	-11.8233
▁crucial	-11.8233
▁boredom	-11.8233
▁entertainment	-11.8233
▁fuse	-11.8233
▁incoming	-11.8233
▁specifica	-11.8233
▁afear	-11.8233
▁befriend	-11.8233
giz	-11.8233
▁mineowners	-11.8233
▁romania	-11.8233
▁inferno	-11.8233
▁steeple	-11.8233
article	-11.8233
▁befall	-11.8233
▁beckon	-11.8233
▁magnet	-11.8233
▁glance	-11.8233
▁meaningless	-11.8234
▁fragment	-11.8234
▁random	-11.8234
▁kinsman	-11.8234
▁petain	-11.8234
▁vince	-11.8234
▁terrain	-11.8234
▁potent	-11.8234
▁bluff	-11.8234
▁dumpster	-11.8234
▁bunny	-11.8234
▁disinterest	-11.8234
▁swolle	-11.8234
▁chute	-11.8234
▁seemingly	-11.8234
▁halfwit	-11.8234
▁senor	-11.8234
▁parading	-11.8234
▁fumi	-11.8234
▁behal	-11.8234
▁claustrophobia	-11.8234
▁winnie	-11.8234
▁spiketail	-11.8234
▁asia	-11.8234
▁clinic	-11.8234
raig	-11.8234
▁stationery	-11.8234
ohwaaaa	-11.8235
▁identi	-11.8235
▁grange	-11.8235
▁strich	-11.8235
▁drugs	-11.8235
▁edith	-11.8235
gara	-11.8235
▁grimm	-11.8235
▁ledge	-11.8235
▁awakened	-11.8235
▁investment	-11.8235
▁furious	-11.8235
▁russell	-11.8235
▁convention	-11.8235
buscad	-11.8235
▁pidge	-11.8235
▁blong	-11.8235
▁bias	-11.8235
▁wrinkl	-11.8235
▁braid	-11.8235
▁embar	-11.8235
▁crosseyed	-11.8235
▁borderline	-11.8235
bell	-11.8235
▁avail	-11.8235
▁frau	-11.8235
▁optic	-11.8235
▁revel	-11.8235
▁respectfully	-11.8235
▁sweetmaking	-11.8235
udent	-11.8235
▁ssss	-11.8235
▁crave	-11.8235
▁shrive	-11.8235
▁fiev	-11.8236
▁strand	-11.8236
▁freefall	-11.8236
elican	-11.8236
▁communist	-11.8236
▁swordsman	-11.8236
▁shotgun	-11.8236
▁butterfl	-11.8236
ovsky	-11.8236
▁undressed	-11.8236
▁unfair	-11.8236
▁alice	-11.8236
▁underway	-11.8236
rences	-11.8236
▁halfhour	-11.8236
▁lark	-11.8236
▁trois	-11.8236
▁teli	-11.8237
▁stripped	-11.8237
▁tidy	-11.8237
▁reside	-11.8237
▁gru	-11.8237
▁soap	-11.8237
choo	-11.8237
▁moping	-11.8237
▁chide	-11.8237
▁decoration	-11.8237
▁redhanded	-11.8237
▁electricity	-11.8237
▁swimmer	-11.8237
▁depression	-11.8237
▁flute	-11.8237
▁bien	-11.8237
ocating	-11.8237
etera	-11.8237
▁decre	-11.8237
▁robbers	-11.8238
albert	-11.8238
▁dazz	-11.8238
▁zeb	-11.8238
▁roster	-11.8238
▁theater	-11.8238
▁drumstick	-11.8238
▁feline	-11.8238
▁abominable	-11.8238
▁improvise	-11.8238
lax	-11.8238
▁furball	-11.8238
▁batman	-11.8238
▁battlefield	-11.8238
▁salva	-11.8239
eces	-11.8239
▁daybreak	-11.8239
▁definite	-11.8239
holder	-11.8239
▁pul	-11.8239
▁humbly	-11.8239
▁meddle	-11.8239
▁climate	-11.8239
▁feng	-11.8239
▁motive	-11.8239
▁yaaa	-11.8239
▁jab	-11.8239
▁humph	-11.8239
▁braggin	-11.8239
▁specialized	-11.8239
▁regi	-11.824
▁magno	-11.824
▁devou	-11.824
▁rite	-11.824
▁wowwee	-11.824
▁twofour	-11.824
▁twig	-11.824
▁crab	-11.824
▁feat	-11.824
▁announcement	-11.824
▁dodo	-11.824
▁bellow	-11.824
▁housemaid	-11.824
▁liberty	-11.8241
▁beva	-11.8241
▁shimmy	-11.8241
▁testimony	-11.8241
▁zag	-11.8241
▁distinction	-11.8241
▁marbles	-11.8241
▁kneel	-11.8241
▁foil	-11.8241
▁carving	-11.8241
▁hahaha	-11.8241
tsushi	-11.8241
▁calculat	-11.8241
▁coron	-11.8241
▁yeow	-11.8242
▁tow	-11.8242
▁fuzzy	-11.8242
▁tempest	-11.8242
▁fourseven	-11.8242
▁once	-11.8242
▁rega	-11.8242
dilly	-11.8242
▁of	-11.8242
papa	-11.8242
▁incorporated	-11.8242
▁fractured	-11.8242
▁scrambled	-11.8242
▁amused	-11.8243
▁starlight	-11.8243
tribution	-11.8243
▁keyboard	-11.8243
▁kra	-11.8243
▁stepdaughter	-11.8243
▁russel	-11.8243
▁funnel	-11.8243
rison	-11.8243
▁conti	-11.8243
▁ambition	-11.8243
▁denial	-11.8243
▁bombie	-11.8244
▁crackin	-11.8244
equipped	-11.8244
▁beggin	-11.8244
▁vice	-11.8244
▁tardy	-11.8244
▁sac	-11.8244
crease	-11.8244
▁capri	-11.8245
▁guardsman	-11.8245
▁rangers	-11.8245
▁twentyfour	-11.8245
▁terrif	-11.8245
▁chimp	-11.8246
▁bloomin	-11.8246
▁eber	-11.8246
▁cancer	-11.8246
▁lobby	-11.8246
▁rage	-11.8246
▁blehbleh	-11.8246
▁parallel	-11.8246
▁percent	-11.8246
▁strife	-11.8246
▁alpha	-11.8246
▁lester	-11.8246
▁zeal	-11.8246
▁lemming	-11.8246
▁screw	-11.8247
▁rum	-11.8247
▁forcing	-11.8247
▁bloat	-11.8247
▁detection	-11.8247
▁stubbornness	-11.8247
▁neur	-11.8247
▁hahah	-11.8247
cular	-11.8247
▁posse	-11.8248
▁obligation	-11.8248
▁vaporize	-11.8248
sherman	-11.8248
▁encamp	-11.8248
▁kimerakazam	-11.8248
▁payday	-11.8248
▁risers	-11.8248
▁andersen	-11.8248
▁stoppin	-11.8249
▁nightfall	-11.8249
▁loxy	-11.8249
▁development	-11.8249
talki	-11.825
▁shellfish	-11.825
▁overhear	-11.825
▁amiss	-11.825
▁interruption	-11.825
▁revolv	-11.825
▁yessum	-11.825
▁skipped	-11.8251
▁petit	-11.8251
▁obsessed	-11.8251
▁palmers	-11.8251
▁instructor	-11.8251
idential	-11.8251
▁macke	-11.8251
▁notch	-11.8251
▁stroll	-11.8251
▁contractor	-11.8252
tterson	-11.8252
▁fork	-11.8252
▁buc	-11.8252
▁happie	-11.8252
▁refine	-11.8252
▁ninete	-11.8252
▁sensational	-11.8252
▁graceful	-11.8252
▁clink	-11.8253
▁burst	-11.8253
▁allowance	-11.8253
▁ultimately	-11.8253
▁decade	-11.8253
▁tote	-11.8253
▁hidin	-11.8253
▁detonat	-11.8254
bru	-11.8254
▁producer	-11.8254
bubububu	-11.8254
▁bestow	-11.8254
ashi	-11.8254
▁crawlin	-11.8254
moor	-11.8254
▁beck	-11.8255
▁ahhhhh	-11.8255
bec	-11.8255
▁bottomland	-11.8255
▁hoist	-11.8255
▁dick	-11.8255
▁lurking	-11.8256
▁transforming	-11.8256
▁sneezes	-11.8256
▁rd	-11.8256
▁midget	-11.8256
▁pep	-11.8256
▁slamm	-11.8257
▁bombers	-11.8257
▁maddy	-11.8258
ammy	-11.8258
▁conover	-11.8258
▁perf	-11.8258
▁satisfaction	-11.8259
psy	-11.8259
▁mik	-11.8259
▁strat	-11.8259
▁approv	-11.8259
▁unjust	-11.8259
▁pish	-11.8259
▁pail	-11.826
aaaaa	-11.826
▁bail	-11.826
▁marcus	-11.826
cens	-11.8261
▁submissi	-11.8261
gators	-11.8261
▁creator	-11.8261
▁twoniner	-11.8262
▁cocka	-11.8263
▁chic	-11.8263
▁mimic	-11.8263
▁rosebu	-11.8263
▁crippled	-11.8263
▁mince	-11.8264
▁impart	-11.8264
▁confined	-11.8264
nator	-11.8264
▁turnip	-11.8264
▁batter	-11.8264
▁boatmen	-11.8265
▁encouraged	-11.8265
▁hoho	-11.8265
▁crimin	-11.8265
▁redline	-11.8265
▁desirest	-11.8265
cine	-11.8265
▁sinful	-11.8266
▁cheerlead	-11.8266
▁seaside	-11.8266
▁flamingo	-11.8266
▁requirement	-11.8266
▁cite	-11.8267
urvy	-11.8268
▁strangl	-11.8268
lamit	-11.8269
▁tele	-11.8269
ency	-11.8269
▁craz	-11.8269
▁edit	-11.827
▁solidor	-11.827
▁balt	-11.827
▁catfish	-11.827
▁clump	-11.8271
▁piggy	-11.8271
▁sundown	-11.8271
▁ninety	-11.8272
▁hur	-11.8273
▁hunk	-11.8273
▁greeting	-11.8274
▁warmth	-11.8275
▁momma	-11.8275
rowl	-11.8275
▁agreement	-11.8275
▁kaya	-11.8275
onson	-11.8275
▁disobe	-11.8275
rench	-11.8276
zers	-11.8276
▁impress	-11.8276
upon	-11.8276
▁miniaturize	-11.8278
▁richter	-11.8278
▁pulse	-11.8278
▁aero	-11.8279
cast	-11.828
▁emery	-11.828
▁huff	-11.8281
▁math	-11.8281
▁anto	-11.8281
▁oversee	-11.8281
▁tasteless	-11.8282
▁org	-11.8282
▁cass	-11.8282
▁trickle	-11.8282
▁furni	-11.8283
▁armory	-11.8283
▁storekeeper	-11.8284
▁satin	-11.8284
▁wooh	-11.8284
▁jug	-11.8285
▁privileged	-11.8285
▁registered	-11.8285
▁slaughtered	-11.8285
▁battered	-11.8285
▁thrilled	-11.8286
▁seekers	-11.8286
▁whispered	-11.8287
▁spies	-11.8288
fusa	-11.8289
irl	-11.8289
ushi	-11.8292
▁erra	-11.8292
▁conver	-11.8292
▁categor	-11.8293
▁showdown	-11.8294
▁engl	-11.8294
▁sandal	-11.8294
▁cel	-11.8295
laws	-11.8295
▁crafty	-11.8295
ierra	-11.8296
▁vir	-11.8296
▁babysitting	-11.8296
▁lind	-11.8298
▁crystal	-11.8298
dez	-11.8298
▁zi	-11.8298
▁jan	-11.8298
ctur	-11.8299
▁grasping	-11.83
living	-11.83
▁thrilling	-11.83
pedia	-11.83
tell	-11.8301
tory	-11.8301
than	-11.8301
▁spoon	-11.8301
migration	-11.8302
▁puttin	-11.8302
▁dispose	-11.8302
▁bestowed	-11.8303
▁mayday	-11.8303
▁tingle	-11.8303
▁drownin	-11.8303
▁chaser	-11.8304
▁burger	-11.8304
▁prop	-11.8305
▁oooooh	-11.8306
▁graduated	-11.8306
stine	-11.8306
▁tel	-11.8306
▁calve	-11.8306
▁assured	-11.8307
▁retrieved	-11.8307
icho	-11.8309
yyou	-11.831
tize	-11.831
▁taut	-11.8311
▁kn	-11.8312
ador	-11.8313
▁silky	-11.8314
met	-11.8314
▁haunted	-11.8314
▁whinn	-11.8315
▁whoop	-11.8316
▁demonstrated	-11.8317
▁bop	-11.8318
▁booty	-11.8319
▁roarer	-11.832
▁berth	-11.832
mistak	-11.832
▁gleamed	-11.8321
▁bugged	-11.8321
▁dela	-11.8321
▁anchored	-11.8321
tract	-11.8322
▁pillows	-11.8322
▁insignias	-11.8322
▁representatives	-11.8322
▁violets	-11.8322
▁baboons	-11.8322
▁lisps	-11.8322
▁prototypes	-11.8322
▁synagogues	-11.8322
▁vassals	-11.8322
▁warthogs	-11.8322
▁ruffians	-11.8323
▁barber	-11.8323
▁harness	-11.8323
▁churches	-11.8323
▁witnesses	-11.8323
▁logistics	-11.8323
▁maneuvers	-11.8323
▁respons	-11.8324
▁scor	-11.8324
▁screamin	-11.8324
▁descended	-11.8325
probable	-11.8325
commend	-11.8326
▁carav	-11.8326
phoni	-11.8326
▁heroic	-11.8327
▁squirm	-11.8328
▁bruised	-11.8329
▁pronounced	-11.8329
▁stan	-11.8329
coming	-11.8331
▁hasty	-11.8331
▁decid	-11.8333
▁grabbing	-11.8335
oyot	-11.8338
▁coaches	-11.8338
▁indicated	-11.8338
▁arth	-11.8338
hit	-11.8342
wit	-11.8342
▁exaggerate	-11.8344
▁manufacturing	-11.8344
▁mocking	-11.8345
▁threatening	-11.8345
▁realistic	-11.8345
▁premiere	-11.8347
▁cance	-11.8348
▁nevermore	-11.8349
▁successor	-11.835
▁lew	-11.8351
▁hoot	-11.8351
▁budd	-11.8351
▁orange	-11.8351
▁bragging	-11.8353
▁bona	-11.8353
▁wither	-11.8353
▁goldminin	-11.8353
▁objection	-11.8357
▁revealed	-11.8357
▁consented	-11.8357
▁scalped	-11.8358
▁hopelessly	-11.8359
▁pickup	-11.8362
▁fright	-11.8367
▁digit	-11.837
sks	-11.8371
pulse	-11.8371
▁acknowledged	-11.8372
▁amend	-11.8373
▁vivi	-11.8374
▁teen	-11.8377
lous	-11.8379
aire	-11.8383
adio	-11.8383
▁supplement	-11.8386
▁fold	-11.8389
▁bunches	-11.839
bee	-11.839
▁refreshing	-11.8391
▁shattered	-11.8393
▁wrecked	-11.8393
▁converted	-11.8393
▁butchered	-11.8394
▁por	-11.8396
▁blooming	-11.8397
▁brad	-11.8398
▁misty	-11.8398
▁bonehead	-11.8398
▁off	-11.84
▁saddled	-11.84
oons	-11.84
▁microscop	-11.84
rowed	-11.8401
▁watchman	-11.8406
jane	-11.8408
▁tempt	-11.8408
▁fertil	-11.8409
metic	-11.841
▁everytime	-11.841
▁rin	-11.8411
▁balm	-11.8411
skull	-11.8411
▁refer	-11.8412
▁identifi	-11.8414
ission	-11.8415
▁kok	-11.8421
poo	-11.8425
▁jac	-11.8427
▁mille	-11.8429
▁reachin	-11.8429
▁operated	-11.8429
▁savor	-11.8431
▁troup	-11.8435
▁puss	-11.8436
neys	-11.8437
▁ado	-11.8438
▁tortured	-11.8438
nking	-11.8439
mated	-11.8439
asta	-11.8439
▁snar	-11.844
▁pry	-11.8443
vant	-11.8443
▁disgraceful	-11.8445
ancer	-11.8447
▁trader	-11.8447
▁seaplane	-11.8447
working	-11.8449
▁injur	-11.8451
▁chicka	-11.8454
ngers	-11.8458
▁spir	-11.8458
▁clogg	-11.8465
▁shocked	-11.8467
▁interrupted	-11.8467
▁challenger	-11.8469
▁sled	-11.847
▁lite	-11.8471
▁defeated	-11.8476
▁shor	-11.848
▁blazes	-11.8482
▁creeping	-11.8483
▁rapids	-11.8483
▁clearances	-11.8483
▁mules	-11.8483
▁heron	-11.8483
▁appearances	-11.8483
▁biscuits	-11.8483
▁cymbals	-11.8483
▁mathematics	-11.8483
▁overflows	-11.8483
▁shepherds	-11.8483
▁flints	-11.8483
▁harvesting	-11.8483
▁vines	-11.8483
igans	-11.8484
▁greetings	-11.8484
▁refreshments	-11.8484
hamp	-11.8485
▁whispers	-11.8486
bor	-11.8487
▁beatin	-11.8487
▁squires	-11.8487
▁bosses	-11.8488
▁undertak	-11.8491
▁clues	-11.8495
▁famously	-11.8497
▁kai	-11.8504
▁gained	-11.8504
▁plucked	-11.8504
▁feasted	-11.8504
▁mater	-11.8508
oooow	-11.8509
ndown	-11.851
▁lens	-11.8511
▁marce	-11.8519
▁banker	-11.852
oming	-11.8521
adow	-11.8528
friend	-11.8528
rested	-11.8539
▁generate	-11.8545
▁kinsm	-11.8546
▁bombed	-11.8547
raging	-11.8549
▁persuad	-11.855
▁mccl	-11.8561
▁comf	-11.8562
▁brie	-11.8563
▁assumed	-11.8563
▁prey	-11.8565
xo	-11.8566
ona	-11.8569
▁expectin	-11.857
▁drivein	-11.8573
▁prest	-11.8578
▁chained	-11.8579
▁wooooooo	-11.8579
▁shouted	-11.858
▁starr	-11.8581
▁swi	-11.8585
▁mea	-11.8591
▁musk	-11.8597
▁bankers	-11.8599
pin	-11.8602
dial	-11.8604
▁assum	-11.8609
▁nominat	-11.8616
▁yass	-11.8617
▁boodleb	-11.8624
▁comforting	-11.8624
▁suggesting	-11.8624
fal	-11.863
▁foresee	-11.8635
▁gulls	-11.8636
▁eaters	-11.8641
▁specialist	-11.8644
▁tore	-11.8645
▁include	-11.8646
▁fled	-11.865
▁crane	-11.8651
shui	-11.8657
aching	-11.8657
▁complained	-11.8657
▁brighter	-11.8657
▁lout	-11.8662
cely	-11.8667
▁liner	-11.8671
▁demanding	-11.8671
▁herring	-11.8672
ibles	-11.8674
sky	-11.8674
appliance	-11.8674
consciousness	-11.8676
▁lever	-11.868
▁pickin	-11.8682
whoohoohoo	-11.8683
▁tally	-11.8693
▁halfa	-11.87
▁pounded	-11.8701
nnie	-11.8713
teous	-11.8715
▁puk	-11.8718
rita	-11.8719
▁princesses	-11.8719
▁spli	-11.872
thwart	-11.872
▁hyp	-11.8721
ishing	-11.8726
▁fascinate	-11.8728
▁mixed	-11.8728
▁stretcher	-11.8732
▁sel	-11.8733
▁kissin	-11.8743
uper	-11.8755
zed	-11.8755
▁babysitt	-11.8755
▁insisting	-11.8764
booga	-11.8766
▁wwwh	-11.8768
ppressed	-11.8769
▁cath	-11.8776
patiently	-11.8781
▁hood	-11.8785
▁doubled	-11.8789
▁learnt	-11.879
gerin	-11.8792
▁drea	-11.8794
tro	-11.8795
▁sorta	-11.8795
▁whitt	-11.88
plex	-11.8802
▁indicat	-11.8812
▁mack	-11.8814
table	-11.8816
▁tho	-11.8818
peck	-11.8825
▁happenin	-11.8825
▁steamer	-11.8827
▁adventurer	-11.8847
▁seze	-11.8857
▁perish	-11.8862
▁bubbl	-11.8863
▁accordi	-11.8885
▁squishe	-11.8898
void	-11.8898
kids	-11.8901
▁separat	-11.8907
▁ration	-11.893
ritan	-11.8968
▁expans	-11.8979
aaaaaaa	-11.8989
▁protector	-11.8994
asso	-11.8999
▁eatin	-11.9009
ooooh	-11.902
phy	-11.9024
▁worryin	-11.9028
▁tactic	-11.903
pla	-11.9057
lov	-11.9057
▁swindl	-11.9074
nickers	-11.9087
▁bandage	-11.9091
▁landin	-11.9111
▁harve	-11.9115
▁expos	-11.9117
▁scal	-11.9176
▁flapp	-11.9187
▁turnin	-11.9191
▁performer	-11.9204
▁prec	-11.9208
kask	-11.9213
eph	-11.9219
mph	-11.9234
▁minu	-11.9249
▁actor	-11.9253
▁dominan	-11.9261
inches	-11.9284
memori	-11.9318
egacy	-11.9362
rama	-11.937
▁sou	-11.9387
▁dammi	-11.9417
reservation	-11.942
▁easie	-11.945
verna	-11.9486
▁outsider	-11.9545
▁sicken	-11.9578
padre	-11.9605
enchanted	-11.963
imply	-11.9663
diary	-11.9691
▁woooow	-11.9716
flight	-11.9775
version	-11.98
hang	-11.9818
▁wewe	-11.9819
▁smit	-11.9826
▁exp	-11.9837
azamapajama	-11.9839
lva	-11.984
▁sof	-11.9844
▁conne	-11.9892
tible	-11.9892
ctable	-11.9908
▁grubb	-11.9911
▁inde	-11.9972
lat	-12.0029
▁sandba	-12.0047
▁sle	-12.0056
▁dunde	-12.0077
diction	-12.0148
▁fla	-12.0155
▁whinin	-12.0187
ritz	-12.0203
▁hoars	-12.0269
▁pope	-12.0277
▁wedge	-12.0331
▁tot	-12.0331
▁panch	-12.0335
eologist	-12.0351
maze	-12.0386
cam	-12.0401
▁wiggl	-12.0491
hooh	-12.0554
ggies	-12.0567
cara	-12.058
limey	-12.0587
▁dangle	-12.0588
▁rambl	-12.0613
oral	-12.0671
ince	-12.0724
▁lope	-12.0735
uuu	-12.0768
aski	-12.0772
hopping	-12.0818
spel	-12.0837
▁considerat	-12.0851
rouser	-12.0855
ope	-12.0954
utz	-12.098
ssen	-12.0989
▁magn	-12.0989
usa	-12.101
ramp	-12.1021
unya	-12.103
oose	-12.1039
ntaneous	-12.1052
▁unsu	-12.1103
▁invad	-12.1144
oaaaah	-12.1205
ois	-12.1215
link	-12.128
▁copie	-12.1323
famous	-12.1377
mite	-12.1389
▁sensitiv	-12.1395
▁palat	-12.141
lia	-12.1422
ounds	-12.1423
▁dinn	-12.1452
carin	-12.148
▁sato	-12.1498
agement	-12.1517
▁griz	-12.1563
▁restor	-12.1641
▁summ	-12.1654
ik	-12.1709
▁viv	-12.173
▁chit	-12.1755
▁intrigu	-12.1771
hhhhhh	-12.1813
oatskin	-12.1865
bbit	-12.19
▁ohhohh	-12.1911
quette	-12.1949
▁cru	-12.1996
ggage	-12.1997
ppen	-12.204
atin	-12.2088
▁scru	-12.209
geograph	-12.2123
arable	-12.2219
▁tyin	-12.2231
oquette	-12.2239
▁dumplin	-12.2307
agi	-12.2309
▁requir	-12.2314
▁scr	-12.2333
umph	-12.2364
▁clipp	-12.2488
lasses	-12.2604
healthy	-12.279
▁infam	-12.2824
sensitive	-12.2838
bustin	-12.2872
tual	-12.2891
nous	-12.2979
▁bumblin	-12.2981
▁untru	-12.2982
▁opportun	-12.3001
inister	-12.3075
izzl	-12.3083
▁platte	-12.311
udge	-12.3116
mpressed	-12.3144
pec	-12.3169
▁vib	-12.317
ura	-12.3177
sque	-12.319
▁fie	-12.32
▁spe	-12.3246
▁cruis	-12.3264
▁annu	-12.3277
oxy	-12.3338
radic	-12.3376
drew	-12.3639
▁lime	-12.3786
campus	-12.3967
▁wiggle	-12.3983
rude	-12.3995
▁advertis	-12.4053
▁malay	-12.415
▁demonstrati	-12.4187
cept	-12.4228
▁trippin	-12.434
umbling	-12.4418
iii	-12.4472
aska	-12.4498
vel	-12.4642
proposals	-12.4862
iff	-12.4927
lipped	-12.5021
giving	-12.5087
▁describ	-12.5111
▁balanc	-12.5126
llin	-12.5182
mash	-12.5217
▁despera	-12.5337
▁approache	-12.5362
opping	-12.5366
pani	-12.5398
▁hungar	-12.542
▁tavor	-12.5424
akin	-12.5454
octo	-12.5459
▁sociologi	-12.5462
media	-12.5504
▁tole	-12.5586
▁comme	-12.5699
▁tangle	-12.575
normally	-12.5786
con	-12.5793
▁reli	-12.5804
ocket	-12.5813
▁interlo	-12.5836
▁apr	-12.5862
memor	-12.5925
placement	-12.5925
▁replie	-12.6069
q	-12.7985
