<unk>	0
<s>	0
</s>	0
s	-3.81389
▁im	-4.47051
▁dont	-4.52492
▁know	-4.56812
▁get	-4.74009
▁go	-4.85766
▁right	-4.86648
▁like	-4.90824
▁got	-4.91704
▁youre	-4.99904
▁come	-5.00248
▁yeah	-5.03912
▁oh	-5.0885
▁well	-5.1119
▁one	-5.14872
▁thats	-5.15939
▁na	-5.2449
▁good	-5.32813
▁want	-5.34262
▁see	-5.36395
▁okay	-5.41088
▁think	-5.43528
▁gon	-5.50106
▁man	-5.50184
▁hey	-5.51164
▁back	-5.52143
▁going	-5.60427
▁hes	-5.61214
▁look	-5.614
▁time	-5.63551
▁yes	-5.64414
▁take	-5.65061
▁us	-5.65388
ing	-5.6742
▁ill	-5.71746
▁cant	-5.79664
▁tell	-5.80296
▁say	-5.8625
ed	-5.86297
▁would	-5.86378
▁need	-5.89343
▁way	-5.93749
▁could	-5.96412
▁l	-5.97261
▁really	-5.9765
▁	-5.98504
▁didnt	-5.98859
▁make	-5.9962
▁something	-6.02183
▁whats	-6.02417
▁never	-6.02776
▁let	-6.04124
▁lets	-6.0448
▁little	-6.0559
▁mean	-6.08522
▁please	-6.10861
▁sir	-6.1123
▁thank	-6.13521
▁give	-6.13538
▁theres	-6.14743
▁sorry	-6.17127
▁love	-6.17678
▁ive	-6.18955
▁two	-6.20459
▁people	-6.21779
▁mr	-6.23061
▁fucking	-6.23727
▁said	-6.27089
▁thing	-6.29858
▁fuck	-6.30762
d	-6.32388
▁help	-6.33557
y	-6.33714
▁god	-6.34207
▁uh	-6.38008
▁sure	-6.3907
▁much	-6.39864
▁shit	-6.39958
▁theyre	-6.42441
▁even	-6.43076
▁wait	-6.44882
▁put	-6.45161
▁find	-6.45482
▁stop	-6.4709
▁call	-6.48372
▁day	-6.48993
▁first	-6.49325
▁life	-6.49546
▁keep	-6.50392
▁anything	-6.50598
▁nothing	-6.51889
▁guys	-6.54224
▁home	-6.54866
▁work	-6.57328
▁still	-6.57592
▁shes	-6.58612
▁new	-6.58779
▁money	-6.60282
▁night	-6.61319
▁away	-6.61655
▁great	-6.61817
▁talk	-6.62117
▁name	-6.63579
▁maybe	-6.63981
▁ever	-6.66024
▁better	-6.67593
▁around	-6.67755
▁guy	-6.67761
▁thought	-6.69864
▁always	-6.70447
▁long	-6.71068
▁ta	-6.71686
▁last	-6.73459
▁stay	-6.73975
▁must	-6.74044
er	-6.75246
▁big	-6.76583
▁leave	-6.77007
▁hell	-6.77063
▁youve	-6.77607
▁told	-6.79297
▁old	-6.79598
▁everything	-6.79914
▁years	-6.81304
e	-6.81866
▁things	-6.81873
▁place	-6.82089
▁nice	-6.82378
▁car	-6.82739
▁id	-6.82832
▁listen	-6.83294
▁wan	-6.83677
▁feel	-6.8371
▁boy	-6.84266
▁wont	-6.84804
▁every	-6.84937
▁kill	-6.85803
▁three	-6.85908
▁hear	-6.86611
▁believe	-6.87035
▁bad	-6.87702
▁youll	-6.8814
▁coming	-6.88219
▁done	-6.89281
▁doesnt	-6.89816
ly	-6.89927
▁move	-6.90953
▁made	-6.91206
▁lot	-6.92336
▁world	-6.93711
▁aint	-6.94383
▁understand	-6.94685
a	-6.94933
▁father	-6.94959
o	-6.9512
▁hello	-6.95352
▁girl	-6.95573
▁kind	-6.96225
in	-6.96382
▁house	-6.96567
▁hi	-6.96823
▁left	-6.97255
▁dad	-6.97328
▁hold	-6.97436
▁fine	-6.97623
▁remember	-6.98149
▁huh	-6.98282
▁son	-6.99923
▁real	-7.00123
▁baby	-7.00891
▁dead	-7.01774
▁thanks	-7.03154
▁door	-7.0523
▁enough	-7.05531
▁show	-7.05895
▁music	-7.06003
▁course	-7.06327
▁care	-7.0636
▁might	-7.08083
▁talking	-7.08145
▁mother	-7.08398
▁wrong	-7.08748
▁run	-7.0884
▁may	-7.08858
▁another	-7.09899
▁isnt	-7.10396
▁family	-7.10399
▁today	-7.10814
▁ready	-7.11243
▁best	-7.11322
▁friend	-7.11366
▁ask	-7.11423
▁job	-7.12019
▁wanted	-7.13572
▁mind	-7.14022
▁looking	-7.14213
▁ok	-7.15975
▁getting	-7.16371
▁morning	-7.16479
▁someone	-7.17217
▁came	-7.17485
▁happened	-7.18324
▁else	-7.1853
▁found	-7.18875
▁next	-7.19434
t	-7.19895
▁trying	-7.2041
▁try	-7.20846
▁men	-7.2204
▁seen	-7.22264
▁ah	-7.22813
▁open	-7.23194
▁watch	-7.23506
▁head	-7.23628
▁mom	-7.23831
▁wasnt	-7.24565
▁kid	-7.25331
▁woman	-7.26211
▁play	-7.27205
▁wouldnt	-7.27417
▁phone	-7.28369
▁bring	-7.29551
▁guess	-7.30244
▁tonight	-7.30787
▁meet	-7.31163
▁room	-7.31247
▁weve	-7.31298
▁cause	-7.31631
▁um	-7.31663
▁many	-7.31947
▁whole	-7.32224
▁knew	-7.32327
▁heard	-7.32505
▁together	-7.32845
▁em	-7.3307
▁hard	-7.33183
▁pretty	-7.33262
▁hand	-7.33591
▁went	-7.33787
▁saw	-7.33998
r	-7.35088
▁playing	-7.35632
▁miss	-7.35635
▁start	-7.35712
▁turn	-7.37816
▁live	-7.38572
▁gone	-7.39129
▁without	-7.39178
▁excuse	-7.39734
▁school	-7.40125
▁took	-7.41419
▁friends	-7.42804
▁bit	-7.43097
es	-7.44723
▁saying	-7.44762
▁whoa	-7.44884
▁whos	-7.45317
▁end	-7.4576
▁five	-7.45831
▁matter	-7.45896
▁everybody	-7.46498
▁die	-7.46719
▁business	-7.4674
▁use	-7.46953
▁days	-7.46979
▁brother	-7.47562
▁called	-7.4874
▁face	-7.49253
▁shut	-7.4941
▁happy	-7.49441
▁hope	-7.49483
▁already	-7.4956
▁second	-7.49811
▁youd	-7.5056
▁problem	-7.51206
▁wife	-7.51279
▁says	-7.51629
▁idea	-7.52199
▁kids	-7.52666
▁hit	-7.52672
▁lost	-7.52691
▁used	-7.52783
▁check	-7.5336
▁four	-7.5344
▁fire	-7.5357
▁tomorrow	-7.53701
▁yet	-7.53707
▁sit	-7.53841
▁alone	-7.54218
▁killed	-7.54381
▁havent	-7.54602
l	-7.54683
▁damn	-7.54972
n	-7.55011
▁crazy	-7.55642
▁minute	-7.55891
▁ass	-7.56211
▁fight	-7.56223
▁hands	-7.5638
▁pay	-7.56399
▁true	-7.56981
▁gun	-7.57416
▁lm	-7.57621
▁beautiful	-7.59265
▁police	-7.59327
▁easy	-7.59368
▁everyone	-7.59595
▁nobody	-7.60299
▁deal	-7.60774
▁couldnt	-7.61192
▁anyone	-7.61285
▁stuff	-7.61418
▁minutes	-7.61719
▁worry	-7.61776
▁case	-7.61889
▁ago	-7.62394
▁heart	-7.62751
▁city	-7.62967
▁dog	-7.62994
▁forget	-7.63934
▁cut	-7.64667
▁jesus	-7.64803
▁actually	-7.64951
▁since	-7.65345
▁la	-7.65595
▁shot	-7.65624
al	-7.65766
▁somebody	-7.65772
▁wheres	-7.65839
▁year	-7.65875
▁mine	-7.66109
▁looks	-7.66266
▁eat	-7.67396
▁close	-7.68431
▁inside	-7.68447
▁later	-7.68833
▁chuckles	-7.69063
▁probably	-7.69341
▁high	-7.69535
▁part	-7.69819
▁black	-7.69878
▁point	-7.70082
▁captain	-7.70093
▁read	-7.70453
▁water	-7.70662
▁young	-7.70866
▁stand	-7.7151
▁word	-7.71976
▁set	-7.72013
▁working	-7.72058
▁game	-7.72315
▁far	-7.73087
▁hurt	-7.73392
▁town	-7.73484
▁line	-7.73919
▁power	-7.74235
▁drink	-7.75017
▁side	-7.75136
▁gave	-7.75524
▁taking	-7.75853
▁late	-7.75874
▁soon	-7.76052
▁rest	-7.76165
▁eyes	-7.76566
▁happen	-7.76616
▁fuckin	-7.76681
▁girls	-7.76701
▁six	-7.76834
▁sighs	-7.76879
▁sleep	-7.77098
▁change	-7.77692
▁wants	-7.77792
▁chance	-7.77832
▁walk	-7.79267
▁cool	-7.79444
▁welcome	-7.79586
▁story	-7.79588
▁john	-7.79745
▁alright	-7.80086
▁whatever	-7.81091
▁boys	-7.81399
▁goes	-7.81411
g	-7.81577
▁exactly	-7.81778
▁children	-7.82108
▁supposed	-7.82421
▁anyway	-7.82619
▁trust	-7.82684
▁bitch	-7.82924
i	-7.83063
▁wish	-7.83654
▁week	-7.83964
▁frank	-7.84048
▁lord	-7.84086
▁pick	-7.8415
▁ahead	-7.84176
▁death	-7.84348
▁half	-7.84576
▁making	-7.84716
▁number	-7.85056
▁white	-7.85065
▁fun	-7.85135
▁thinking	-7.85648
▁ha	-7.85969
▁afraid	-7.86101
▁shoot	-7.86171
▁though	-7.8638
▁clear	-7.87227
▁grunts	-7.87694
▁hurry	-7.88069
c	-7.88298
▁tony	-7.88627
▁laughing	-7.89136
▁red	-7.89427
▁behind	-7.90076
▁free	-7.90086
▁war	-7.91015
▁hmm	-7.91656
▁funny	-7.91941
▁safe	-7.92495
▁hate	-7.92961
▁stupid	-7.93051
▁met	-7.93068
▁anybody	-7.9307
▁alive	-7.93075
▁send	-7.93612
▁break	-7.93653
▁important	-7.93922
▁front	-7.94027
▁almost	-7.94601
▁light	-7.94627
▁truth	-7.94794
▁arent	-7.94795
▁honey	-7.94796
▁blood	-7.94813
▁party	-7.94826
▁goddamn	-7.95483
▁save	-7.95589
▁dr	-7.95712
▁outside	-7.95766
▁buy	-7.95887
▁jack	-7.96047
▁also	-7.96157
▁full	-7.96171
▁makes	-7.96276
▁person	-7.96435
▁boss	-7.96495
▁least	-7.96552
▁top	-7.97185
▁anymore	-7.97338
ers	-7.97385
▁different	-7.97434
▁ten	-7.98211
▁lose	-7.98904
▁trouble	-7.99132
▁country	-7.99139
▁means	-7.99147
▁drive	-7.99176
▁question	-7.99239
p	-7.99349
▁asked	-7.99811
m	-7.99814
▁shall	-7.99943
▁miles	-8.00061
▁hot	-8.00205
▁pull	-8.00387
▁waiting	-8.00524
▁started	-8.00689
▁speak	-8.00846
▁moment	-8.01177
▁de	-8.01759
▁quite	-8.02268
▁couple	-8.02631
▁answer	-8.0264
▁voice	-8.0307
▁mrs	-8.03234
▁dear	-8.03278
▁bed	-8.04155
▁times	-8.0416
▁ya	-8.04605
▁street	-8.04998
▁office	-8.05091
▁hours	-8.05119
▁team	-8.05239
▁win	-8.05527
▁lady	-8.05847
man	-8.05895
▁continues	-8.06569
▁theyll	-8.07117
▁bet	-8.07304
on	-8.07316
▁ooh	-8.07996
▁follow	-8.08261
▁king	-8.08312
▁gentlemen	-8.08438
▁tried	-8.08913
▁promise	-8.09329
▁body	-8.09338
▁christmas	-8.09551
▁bill	-8.0973
▁clean	-8.09913
▁charlie	-8.10225
▁master	-8.10369
▁wow	-8.10454
▁air	-8.10478
▁along	-8.109
▁brought	-8.10904
▁laughs	-8.1102
▁telling	-8.11105
▁dance	-8.11332
▁itll	-8.11361
▁perfect	-8.12157
▁plan	-8.12605
▁daughter	-8.1272
▁dude	-8.12743
▁un	-8.12823
▁reason	-8.12954
▁jimmy	-8.1297
▁doctor	-8.1321
▁sometimes	-8.13373
▁hang	-8.13419
▁months	-8.13509
▁heres	-8.13859
▁food	-8.139
▁book	-8.1397
▁news	-8.14102
▁control	-8.14585
▁henry	-8.14604
▁living	-8.14842
▁touch	-8.15101
▁fast	-8.15105
f	-8.15946
▁grunting	-8.16062
▁screaming	-8.16569
▁sister	-8.1682
▁needs	-8.17202
▁sick	-8.17226
▁married	-8.17471
▁christ	-8.17635
▁comes	-8.17637
h	-8.18075
▁running	-8.1846
▁joe	-8.18525
▁daddy	-8.18879
▁taken	-8.19364
▁special	-8.19823
▁died	-8.19867
▁c	-8.20177
▁million	-8.20346
▁scared	-8.20536
▁york	-8.20582
▁th	-8.20936
▁lts	-8.20963
▁sound	-8.21305
▁sent	-8.21461
▁order	-8.21476
▁tom	-8.21704
▁seems	-8.21833
▁piece	-8.21882
▁catch	-8.22048
▁ride	-8.22127
▁dinner	-8.22187
▁beat	-8.22526
▁paul	-8.2277
▁tv	-8.23215
▁husband	-8.23456
▁bye	-8.23723
▁eye	-8.23875
▁hows	-8.24501
▁peter	-8.24824
▁n	-8.25147
▁luck	-8.254
▁till	-8.25568
▁sign	-8.2571
▁lives	-8.25836
▁ball	-8.25884
▁gasps	-8.26037
▁straight	-8.2657
▁child	-8.26668
or	-8.2688
ic	-8.27241
▁step	-8.27309
▁sweet	-8.27454
▁speaking	-8.27843
ie	-8.28328
▁slow	-8.28458
▁women	-8.2848
▁ladies	-8.28483
▁serious	-8.2865
▁goodbye	-8.28751
▁buddy	-8.28753
▁either	-8.29022
▁hour	-8.291
▁wake	-8.293
▁feeling	-8.29433
en	-8.29479
▁shouldnt	-8.30117
le	-8.30482
▁dark	-8.31779
b	-8.31801
▁pass	-8.31937
▁company	-8.32342
▁kidding	-8.3264
▁hair	-8.3275
▁leaving	-8.33191
▁feet	-8.33202
▁radio	-8.33473
▁happens	-8.33571
▁sense	-8.33766
▁worth	-8.34152
▁cold	-8.34226
▁drop	-8.34269
▁dream	-8.34407
▁past	-8.34763
▁quiet	-8.34806
▁james	-8.3521
ll	-8.35427
▁cop	-8.35507
▁engine	-8.35867
▁fact	-8.3595
▁knows	-8.36311
▁parents	-8.3635
▁sounds	-8.36469
▁ring	-8.36575
▁rock	-8.36996
z	-8.37007
▁somewhere	-8.37242
▁asking	-8.37541
▁earth	-8.37542
▁none	-8.3758
▁table	-8.37926
▁gold	-8.38086
▁learn	-8.38108
re	-8.38348
▁picture	-8.38416
▁human	-8.38423
▁become	-8.3843
▁moving	-8.38434
▁road	-8.3847
▁land	-8.38505
▁lie	-8.38903
▁b	-8.39104
▁officer	-8.39125
▁throw	-8.39296
▁fall	-8.39315
▁weeks	-8.39986
▁quick	-8.40029
▁small	-8.40126
▁murder	-8.40179
▁able	-8.40732
▁glad	-8.41159
▁lucky	-8.41364
est	-8.41441
▁choice	-8.41863
▁less	-8.42148
▁calling	-8.42248
up	-8.42271
▁write	-8.42583
▁blue	-8.42836
▁gets	-8.42837
▁worked	-8.43235
▁eight	-8.43314
▁sam	-8.4342
▁careful	-8.43591
▁hed	-8.43609
us	-8.43624
▁sort	-8.43648
▁floor	-8.4365
▁panting	-8.43651
ar	-8.44025
▁secret	-8.44408
▁maam	-8.44598
▁e	-8.44726
▁horse	-8.4474
▁boat	-8.44755
▁general	-8.44811
▁train	-8.44816
▁lll	-8.45201
▁poor	-8.45789
▁perhaps	-8.45876
▁seem	-8.46165
▁seven	-8.46206
▁president	-8.46523
▁yo	-8.46546
▁lead	-8.46552
▁bag	-8.46587
▁michael	-8.46847
▁calm	-8.46857
▁fair	-8.47205
▁watching	-8.4736
▁smart	-8.47385
▁mouth	-8.47522
k	-8.47732
▁movie	-8.48028
▁fault	-8.48157
▁known	-8.48163
▁questions	-8.48298
▁sun	-8.4845
▁evening	-8.48804
▁future	-8.48818
▁cover	-8.4887
▁blow	-8.48987
▁wed	-8.49065
▁groans	-8.49226
▁strong	-8.49345
▁wonder	-8.49458
▁short	-8.49922
▁finish	-8.50205
▁relax	-8.50544
▁song	-8.50601
▁others	-8.50828
▁uncle	-8.50845
▁wonderful	-8.50901
▁mike	-8.50993
▁bank	-8.51005
▁mad	-8.51071
▁forever	-8.51168
▁born	-8.51188
▁figure	-8.51292
▁p	-8.51322
▁race	-8.51427
▁coffee	-8.51507
▁wear	-8.5154
▁respect	-8.51542
▁finally	-8.51562
na	-8.51588
▁bar	-8.51707
▁green	-8.51845
▁harry	-8.51849
▁act	-8.51897
▁holy	-8.51944
ies	-8.52372
▁ground	-8.5253
▁rather	-8.52537
▁detective	-8.52881
▁roger	-8.52887
▁da	-8.52965
▁ow	-8.53541
▁pain	-8.53564
▁swear	-8.53573
▁handle	-8.53693
▁theyve	-8.53921
▁johnny	-8.53931
▁expect	-8.53999
▁return	-8.54026
▁meant	-8.54077
▁fear	-8.54325
▁stick	-8.54862
▁kiss	-8.55007
u	-8.55308
▁happening	-8.55359
▁enjoy	-8.55769
▁possible	-8.56037
▁ship	-8.56113
v	-8.56246
▁fish	-8.56345
▁cash	-8.5639
▁bullshit	-8.56395
▁attack	-8.56488
▁h	-8.56544
▁state	-8.56752
▁law	-8.5684
▁fly	-8.56846
▁cat	-8.56951
▁record	-8.57056
▁birthday	-8.57113
▁dangerous	-8.5712
▁count	-8.57243
▁building	-8.57378
▁looked	-8.57387
▁chief	-8.57474
▁hide	-8.57924
▁motherfucker	-8.58285
▁cops	-8.58301
▁ones	-8.58332
▁st	-8.58385
▁roll	-8.58556
▁longer	-8.58581
▁yall	-8.58606
▁names	-8.58871
▁needed	-8.59003
▁message	-8.59038
▁given	-8.59398
▁cheering	-8.59413
it	-8.59495
▁crowd	-8.60071
▁weird	-8.60261
▁american	-8.60363
▁window	-8.60551
▁english	-8.60783
▁an	-8.61084
▁class	-8.61086
▁machine	-8.61299
▁loved	-8.61314
▁key	-8.61347
▁r	-8.61499
▁hospital	-8.61515
▁broke	-8.61561
▁mistake	-8.61639
an	-8.6187
▁j	-8.62035
▁crime	-8.62083
to	-8.62086
▁protect	-8.62356
▁words	-8.62548
▁present	-8.62573
▁sell	-8.62725
▁date	-8.62791
▁foot	-8.63077
▁laugh	-8.63377
▁across	-8.63434
▁worse	-8.63435
▁paper	-8.63644
▁early	-8.63923
▁ho	-8.64037
▁truck	-8.64044
▁strange	-8.64128
▁french	-8.64209
▁america	-8.6425
▁aye	-8.64251
▁v	-8.64508
▁doc	-8.64559
▁prison	-8.64834
▁box	-8.64886
▁turned	-8.652
▁tough	-8.65373
▁security	-8.65382
▁seat	-8.65506
▁club	-8.65625
▁bell	-8.65638
▁private	-8.6566
ity	-8.65761
▁deep	-8.65946
▁north	-8.66158
▁round	-8.66159
▁s	-8.66475
▁except	-8.66485
▁pop	-8.66492
▁hotel	-8.66584
▁g	-8.66627
▁month	-8.66831
▁asshole	-8.66841
▁island	-8.66853
▁peace	-8.66934
▁felt	-8.6695
▁caught	-8.66952
▁paid	-8.66973
▁near	-8.67221
▁sitting	-8.67395
▁rich	-8.67595
▁court	-8.67685
▁join	-8.67875
st	-8.67879
▁mary	-8.6789
▁ice	-8.68122
▁shell	-8.68151
ve	-8.6823
▁smell	-8.68269
▁spanish	-8.68554
▁screams	-8.68814
▁werent	-8.68959
▁danny	-8.69366
▁giving	-8.69368
▁spend	-8.69843
▁dick	-8.69945
ment	-8.69962
▁anywhere	-8.70183
▁terrible	-8.70208
▁chatter	-8.70251
▁meeting	-8.70253
▁honor	-8.70303
▁mark	-8.7043
▁hundred	-8.70558
▁quit	-8.70558
▁mmm	-8.70595
▁grand	-8.70609
ion	-8.70748
▁wall	-8.70791
▁jump	-8.70799
▁offer	-8.70858
▁mama	-8.70906
▁pleasure	-8.71008
▁unless	-8.71033
▁f	-8.71558
▁fool	-8.71606
▁clothes	-8.71848
▁outta	-8.71873
▁brothers	-8.72428
able	-8.72474
▁star	-8.72525
ra	-8.72537
el	-8.72614
▁tired	-8.72718
▁suppose	-8.72928
▁surprise	-8.72939
▁explain	-8.72983
▁singing	-8.73004
▁david	-8.731
▁tommy	-8.73105
▁report	-8.73188
▁busy	-8.7325
▁fat	-8.73255
▁missed	-8.73361
▁saved	-8.73489
▁works	-8.7358
▁takes	-8.73696
▁carl	-8.73774
▁glass	-8.7389
▁al	-8.73893
▁worried	-8.73949
▁nick	-8.74082
▁appreciate	-8.74193
▁proud	-8.74271
▁folks	-8.74287
▁totally	-8.74427
▁cross	-8.74544
▁wind	-8.7455
▁thousand	-8.7467
▁amazing	-8.74806
▁absolutely	-8.74819
▁card	-8.75014
▁que	-8.75193
▁seeing	-8.75198
▁changed	-8.75727
▁park	-8.7611
▁grab	-8.76112
▁lt	-8.76119
▁ringing	-8.76171
▁push	-8.76348
▁south	-8.76515
▁shh	-8.76523
▁history	-8.76541
▁middle	-8.76541
▁information	-8.76544
▁george	-8.76554
▁arm	-8.76937
▁personal	-8.76963
ro	-8.77346
▁kept	-8.77423
▁low	-8.77474
▁indistinct	-8.77763
▁attention	-8.77863
is	-8.77867
▁mess	-8.77951
▁sing	-8.78544
▁wild	-8.78851
▁afternoon	-8.79202
▁knock	-8.79209
▁beer	-8.79549
▁se	-8.79633
▁simple	-8.80065
▁force	-8.80092
▁forgive	-8.80093
ch	-8.80096
▁driving	-8.80107
▁station	-8.80297
▁entire	-8.80458
▁test	-8.80497
▁missing	-8.80633
▁agent	-8.80745
▁k	-8.80749
▁copy	-8.80832
▁jim	-8.80911
▁judge	-8.81003
▁seconds	-8.81006
▁re	-8.81007
▁darling	-8.81019
▁shouting	-8.81079
▁max	-8.81451
▁groaning	-8.81491
▁share	-8.81498
▁bastard	-8.81671
▁imagine	-8.81755
▁d	-8.8183
▁sea	-8.8185
▁jake	-8.8194
▁owe	-8.8217
▁rain	-8.82362
▁situation	-8.82399
▁bob	-8.82544
ling	-8.827
▁dogs	-8.82836
▁major	-8.82846
▁rules	-8.8304
▁normal	-8.83234
▁tires	-8.83262
▁aah	-8.83339
▁steal	-8.8345
▁dollars	-8.83721
▁lock	-8.83791
▁a	-8.83985
▁cell	-8.84352
▁spot	-8.84543
th	-8.84599
▁system	-8.85023
▁position	-8.85041
▁difference	-8.85222
▁lovely	-8.85249
▁carry	-8.85439
▁hat	-8.85517
▁summer	-8.85534
▁board	-8.85895
▁mm	-8.86268
ation	-8.86447
▁smoke	-8.86481
▁jail	-8.86674
▁certainly	-8.86756
▁kick	-8.86854
▁talked	-8.86871
▁fell	-8.86876
▁rat	-8.86917
at	-8.8708
▁space	-8.87144
▁single	-8.87223
less	-8.87372
▁hasnt	-8.87638
▁west	-8.87658
▁charge	-8.87814
▁crew	-8.87978
▁eh	-8.88291
▁fighting	-8.88409
▁service	-8.88484
▁finished	-8.88538
▁bridge	-8.88569
▁accident	-8.88615
▁definitely	-8.88624
▁ben	-8.88764
te	-8.88899
▁target	-8.88992
▁bus	-8.89044
▁teach	-8.89072
▁dumb	-8.89105
▁church	-8.8911
▁wedding	-8.89123
▁walking	-8.89138
▁cute	-8.89265
▁burn	-8.89365
ting	-8.89413
▁crying	-8.89454
▁sad	-8.89519
▁river	-8.89614
▁bought	-8.89614
▁favorite	-8.89619
▁broken	-8.89694
▁camp	-8.89878
▁forgot	-8.9011
▁cry	-8.90246
▁ran	-8.90362
▁aunt	-8.90436
▁shoes	-8.90613
▁killing	-8.90706
il	-8.90938
▁hungry	-8.91125
▁fucked	-8.91312
▁breathing	-8.91365
▁lawyer	-8.91551
▁standing	-8.91735
▁suit	-8.92158
▁soul	-8.92493
▁stole	-8.92598
▁yesterday	-8.92651
▁seriously	-8.92843
w	-8.92865
▁age	-8.92894
▁mar	-8.92931
▁spirit	-8.93138
▁area	-8.93141
▁flight	-8.9317
▁pa	-8.93299
ter	-8.93327
▁college	-8.93685
▁yep	-8.93695
▁starting	-8.93777
▁favor	-8.94187
▁scene	-8.94203
▁bunch	-8.94213
▁grow	-8.94285
▁plane	-8.94313
▁dave	-8.94353
▁lunch	-8.94722
▁professor	-8.94729
▁field	-8.94802
ri	-8.95031
▁upon	-8.95266
▁army	-8.95467
▁blind	-8.95497
▁stone	-8.9558
▁killer	-8.95653
▁bird	-8.95687
▁drunk	-8.9579
▁decided	-8.95895
▁contact	-8.96053
▁dress	-8.96199
▁certain	-8.96204
▁per	-8.96262
▁public	-8.96299
▁guard	-8.9633
▁danger	-8.96334
▁mountain	-8.96412
▁press	-8.9655
▁ii	-8.96689
▁reach	-8.96712
▁coach	-8.96853
▁super	-8.969
▁tea	-8.96906
▁lay	-8.96927
▁pal	-8.97036
▁honest	-8.97116
▁lived	-8.97183
▁hole	-8.97262
▁instead	-8.97389
▁gods	-8.97529
▁tree	-8.97538
ma	-8.97557
▁wayne	-8.97634
▁beach	-8.97865
▁throat	-8.9793
▁mommy	-8.97948
▁hero	-8.98026
▁letter	-8.9824
▁cost	-8.98394
▁laura	-8.98479
▁marry	-8.98685
▁doin	-8.98856
▁dare	-8.99015
▁mitch	-8.99019
▁warm	-8.99428
▁fix	-8.99502
▁price	-8.99557
▁mate	-8.99687
▁goin	-8.9983
▁lf	-8.99854
▁address	-9.00058
▁london	-9.00122
▁evil	-9.00124
▁joke	-9.00156
▁mmhmm	-9.00165
▁putting	-9.00302
▁ace	-9.00634
▁queen	-9.00764
▁nigger	-9.00791
▁list	-9.00795
▁doubt	-9.00804
ist	-9.01039
▁bloody	-9.01184
▁forward	-9.01236
▁sight	-9.01289
▁group	-9.01373
▁realize	-9.01655
▁gift	-9.01656
rs	-9.01658
▁command	-9.01729
▁heaven	-9.01845
▁bear	-9.02016
ness	-9.02084
▁soft	-9.02262
▁in	-9.02266
▁lights	-9.02316
▁enemy	-9.02362
▁third	-9.02362
▁uhhuh	-9.02363
▁apartment	-9.02375
▁completely	-9.0244
▁pro	-9.02622
▁prove	-9.02712
▁sex	-9.02769
▁t	-9.02828
▁neither	-9.02931
▁heavy	-9.02937
▁store	-9.03119
▁code	-9.03149
▁locked	-9.03271
▁visit	-9.03419
▁built	-9.03502
▁sweetheart	-9.03502
▁nine	-9.03517
▁double	-9.03622
▁sake	-9.03703
▁fit	-9.03923
▁whose	-9.04035
▁especially	-9.04077
▁gang	-9.04082
▁duke	-9.04087
▁listening	-9.04263
▁idiot	-9.0428
▁partner	-9.04285
▁arrest	-9.04376
ta	-9.04425
▁balls	-9.04655
▁stuck	-9.04659
▁art	-9.04832
ne	-9.04851
▁computer	-9.04867
▁jo	-9.04989
▁driver	-9.05061
▁guns	-9.05079
ful	-9.05249
▁pants	-9.05258
▁reading	-9.05371
▁mission	-9.05398
▁speed	-9.05503
▁notice	-9.05642
▁rid	-9.05866
▁breathe	-9.05922
▁holding	-9.06187
▁tight	-9.06267
▁billy	-9.06281
▁search	-9.06375
▁jordan	-9.06409
▁howard	-9.06413
▁band	-9.06457
ton	-9.0658
▁destroy	-9.06628
▁trip	-9.06636
out	-9.06774
▁problems	-9.06838
▁choose	-9.07007
▁lying	-9.07022
▁feels	-9.07211
ia	-9.07234
▁stan	-9.07456
▁pack	-9.07545
▁fired	-9.07835
▁rings	-9.08044
▁hall	-9.0809
▁nothin	-9.08155
▁orders	-9.08401
▁keys	-9.0845
▁ghost	-9.0849
▁girlfriend	-9.08495
▁corner	-9.08554
▁picked	-9.08563
▁buzz	-9.08753
▁beginning	-9.08802
▁east	-9.08809
▁closed	-9.08919
▁shop	-9.08934
▁camera	-9.09214
▁waste	-9.09224
▁department	-9.09405
▁continue	-9.09546
▁quickly	-9.09606
▁accept	-9.09707
▁track	-9.09947
▁neck	-9.09953
▁nose	-9.09988
▁government	-9.10014
li	-9.10292
lo	-9.10299
▁sheriff	-9.10354
▁besides	-9.10512
▁chattering	-9.10519
▁strength	-9.10555
▁cake	-9.10662
▁interesting	-9.10859
▁moved	-9.10998
▁bro	-9.11113
co	-9.11114
▁fathers	-9.11185
▁knife	-9.11253
▁fbi	-9.11255
▁local	-9.11258
▁moon	-9.11349
▁magic	-9.11357
ous	-9.11469
▁dragon	-9.11629
▁brain	-9.11656
▁arms	-9.11746
▁wearing	-9.11858
▁congratulations	-9.11865
▁language	-9.11865
▁gas	-9.11899
▁bigger	-9.11908
▁stopped	-9.11956
▁speaks	-9.12009
as	-9.12129
▁starts	-9.12138
▁final	-9.12171
▁animal	-9.12249
▁bullet	-9.12259
▁named	-9.12325
▁beyond	-9.1249
▁liked	-9.12516
▁san	-9.12517
▁rule	-9.1254
▁dirty	-9.12586
um	-9.12618
▁shed	-9.12673
▁extra	-9.12768
ur	-9.12799
▁post	-9.12832
▁allow	-9.12836
la	-9.12872
▁prince	-9.13061
▁fresh	-9.13086
▁innocent	-9.13119
▁papers	-9.13438
▁chicken	-9.13549
▁loud	-9.13618
▁jerry	-9.13752
▁charles	-9.13755
▁everywhere	-9.13756
▁bobby	-9.13764
▁smile	-9.1382
▁agree	-9.14193
sh	-9.1432
▁mickey	-9.14391
▁po	-9.14533
▁w	-9.14615
▁build	-9.1469
▁howd	-9.14852
ant	-9.15003
▁spent	-9.15032
▁sweetie	-9.15104
▁ron	-9.15483
ive	-9.15646
▁impossible	-9.15675
▁support	-9.15675
▁mister	-9.1571
▁hill	-9.15977
▁states	-9.16042
▁cooper	-9.16143
id	-9.16143
▁soldier	-9.16163
▁shooting	-9.16267
▁brown	-9.16305
▁lieutenant	-9.16325
▁distance	-9.16332
▁sleeping	-9.16382
▁con	-9.16523
▁ticket	-9.16826
ty	-9.16942
▁within	-9.16978
▁battle	-9.16988
ate	-9.17065
▁papa	-9.17084
ry	-9.17115
▁interested	-9.17183
▁bang	-9.17314
▁figured	-9.17323
ce	-9.17468
▁where	-9.17556
▁evidence	-9.17636
▁whatd	-9.17658
▁cars	-9.18227
▁kitchen	-9.18298
▁princess	-9.18347
▁yelling	-9.18438
se	-9.18699
▁marty	-9.18853
▁maya	-9.18873
▁match	-9.18908
▁brave	-9.18912
▁bomb	-9.19227
▁plays	-9.19677
▁skin	-9.19706
no	-9.20039
▁horn	-9.20044
▁escape	-9.20132
men	-9.2014
▁empty	-9.20312
▁worst	-9.20313
▁frodo	-9.20313
▁base	-9.2033
▁obviously	-9.2036
do	-9.20525
▁suck	-9.20832
▁dig	-9.2092
▁learned	-9.20967
▁cards	-9.20974
▁birds	-9.20988
▁amanda	-9.20992
▁stories	-9.20992
▁strike	-9.20992
▁wrote	-9.20992
▁legs	-9.21024
▁books	-9.213
▁faster	-9.21324
ine	-9.21328
▁following	-9.21354
▁pig	-9.21642
▁type	-9.21671
▁upset	-9.21677
▁powerful	-9.21728
▁tape	-9.21777
▁risk	-9.21788
▁hunt	-9.21843
▁greatest	-9.21979
▁taste	-9.22157
▁places	-9.22194
ii	-9.22211
▁treat	-9.22238
▁beauty	-9.22368
▁dying	-9.2237
▁theyd	-9.22378
▁bud	-9.22397
▁wouldve	-9.22865
▁excited	-9.22957
▁beg	-9.23008
▁leg	-9.23046
▁breakfast	-9.23061
▁genius	-9.23061
▁center	-9.23094
▁christian	-9.2311
▁map	-9.23266
▁breath	-9.23285
over	-9.23455
▁raise	-9.23582
▁weapon	-9.23735
▁plus	-9.23764
▁male	-9.23836
▁bread	-9.24471
▁gasping	-9.24566
▁lve	-9.24919
am	-9.24922
▁promised	-9.25031
▁opens	-9.25121
▁thatll	-9.25176
▁conversation	-9.25192
▁involved	-9.25199
▁calls	-9.25307
▁nicky	-9.25468
ted	-9.25732
▁staying	-9.25759
▁played	-9.25768
▁sunday	-9.25897
▁iike	-9.25907
▁begin	-9.26013
▁anna	-9.26085
▁boom	-9.26107
▁kinda	-9.26132
▁horses	-9.26341
▁ought	-9.26526
▁bruce	-9.26607
▁enola	-9.26607
▁plenty	-9.26607
▁wondering	-9.26617
▁bond	-9.26786
▁united	-9.26823
▁nah	-9.27206
▁became	-9.27332
▁alarm	-9.27336
▁stage	-9.27351
▁criminal	-9.27401
▁using	-9.2741
▁vegas	-9.27435
▁action	-9.27436
▁gate	-9.27452
▁aii	-9.27486
age	-9.27562
▁dreams	-9.27572
ass	-9.27588
▁trick	-9.27667
▁breaking	-9.27894
et	-9.27898
▁rose	-9.28126
▁note	-9.28272
▁account	-9.2851
▁complete	-9.28522
▁difficult	-9.28616
▁range	-9.2877
▁heavily	-9.28797
▁passed	-9.28798
▁teeth	-9.28799
▁bathroom	-9.288
▁chuckling	-9.28804
▁silly	-9.28812
▁weekend	-9.28817
▁mum	-9.29027
▁pulled	-9.29068
▁allowed	-9.29127
▁victor	-9.29313
ee	-9.29342
▁drugs	-9.2936
▁deserve	-9.29467
▁shake	-9.29536
▁castle	-9.2958
▁sky	-9.29588
▁travel	-9.29678
▁aw	-9.30045
▁belong	-9.3012
▁pocket	-9.30284
▁sergeant	-9.30286
▁taught	-9.30286
▁dancing	-9.30292
▁i	-9.3057
▁heads	-9.30669
▁grace	-9.30693
ian	-9.30694
▁huge	-9.30776
▁loose	-9.30878
▁split	-9.31022
▁upstairs	-9.31036
▁hadnt	-9.31036
os	-9.31161
▁helped	-9.31195
▁fill	-9.31207
be	-9.31421
▁co	-9.31555
▁whoo	-9.31656
by	-9.31779
▁cream	-9.31795
▁merry	-9.31798
▁usually	-9.31869
▁gary	-9.31878
▁season	-9.31979
▁eating	-9.32038
▁loves	-9.32087
▁film	-9.32209
▁paris	-9.32263
▁nervous	-9.32452
▁feed	-9.32479
▁francis	-9.32546
▁credit	-9.32557
▁apologize	-9.32557
▁cap	-9.32591
▁pictures	-9.32596
▁cup	-9.32635
▁nigga	-9.3274
▁drug	-9.3275
▁cab	-9.32751
▁mothers	-9.32772
▁bringing	-9.32825
▁keeping	-9.32829
▁yi	-9.33161
▁awful	-9.33236
▁project	-9.33248
▁flying	-9.33286
▁numbers	-9.3329
▁purpose	-9.33327
▁nowhere	-9.33327
▁laughter	-9.33353
▁turning	-9.33393
▁bucks	-9.33419
▁hiding	-9.33473
▁russian	-9.33552
▁block	-9.33684
ff	-9.33809
▁dry	-9.34045
▁bright	-9.34077
▁chair	-9.34078
▁level	-9.34151
▁consider	-9.34223
im	-9.34359
▁planet	-9.34366
▁bite	-9.34396
nt	-9.34449
▁bat	-9.34615
▁closes	-9.34838
▁contract	-9.34848
▁apart	-9.34869
▁emergency	-9.34883
▁scoffs	-9.34883
▁sobbing	-9.34883
▁stem	-9.34903
▁jones	-9.34907
▁ed	-9.35074
▁decision	-9.35118
▁fellow	-9.35128
▁mo	-9.35152
▁snow	-9.35643
▁dramatic	-9.35666
▁storm	-9.3567
▁karen	-9.35671
▁famous	-9.35672
▁spell	-9.35672
▁simply	-9.35675
▁el	-9.35757
one	-9.35882
de	-9.35898
▁losing	-9.35904
▁richard	-9.35927
▁wing	-9.35927
▁fingers	-9.35931
▁heat	-9.35995
me	-9.36143
▁wine	-9.36304
▁regret	-9.36379
▁robin	-9.36417
▁cheers	-9.3644
▁self	-9.36456
▁angry	-9.36465
▁often	-9.36468
▁ugh	-9.36518
▁manager	-9.36537
▁main	-9.36603
▁due	-9.3671
▁games	-9.36903
▁cam	-9.37052
▁form	-9.37208
▁program	-9.37249
▁tongue	-9.37264
▁whether	-9.37264
▁pressure	-9.3727
▁noise	-9.3756
▁couldve	-9.37787
ga	-9.37967
▁view	-9.38059
▁announcer	-9.38092
▁sold	-9.38144
ad	-9.38189
▁bless	-9.38301
▁si	-9.38483
▁ends	-9.38503
▁bother	-9.3858
▁fi	-9.38615
▁survive	-9.38702
▁awesome	-9.38871
▁whoever	-9.38884
▁grey	-9.38885
▁van	-9.38886
▁nuts	-9.39094
▁butt	-9.39165
▁boyfriend	-9.39217
▁cousin	-9.39218
▁closer	-9.39267
▁sand	-9.39387
▁reporter	-9.39439
▁turns	-9.39636
▁acting	-9.39697
▁california	-9.39703
▁fortune	-9.39703
▁investigation	-9.39704
▁zero	-9.39727
▁national	-9.39729
▁golden	-9.39773
▁lots	-9.39998
▁whistle	-9.40068
▁garden	-9.40081
▁showed	-9.40119
▁repeat	-9.40178
▁path	-9.40287
▁add	-9.40495
▁wolf	-9.40504
▁apollo	-9.40529
▁monsieur	-9.40529
▁responsible	-9.40529
▁justice	-9.4053
▁pardon	-9.4053
▁nope	-9.40536
▁pool	-9.40565
▁annie	-9.40569
ho	-9.40603
off	-9.40938
▁mac	-9.41027
ha	-9.41091
▁points	-9.41188
▁fake	-9.41284
▁meat	-9.41368
▁held	-9.4138
▁color	-9.41479
▁union	-9.41485
▁softly	-9.41512
▁noticed	-9.41619
go	-9.4172
▁parker	-9.41844
▁rocky	-9.41862
ul	-9.41888
▁faith	-9.41913
▁desert	-9.41914
▁walked	-9.41939
▁release	-9.42027
▁experience	-9.42036
oo	-9.42124
▁ridiculous	-9.42203
▁biggest	-9.42203
▁cheese	-9.42204
▁twice	-9.42204
▁common	-9.42211
▁kane	-9.42212
▁stars	-9.42222
▁bottom	-9.42962
▁female	-9.43051
▁patrick	-9.43051
▁harm	-9.43073
▁weight	-9.43155
▁german	-9.4331
▁draw	-9.43371
▁condition	-9.4349
▁correct	-9.43701
▁admit	-9.43895
▁memory	-9.43907
▁colonel	-9.43907
▁morgan	-9.43909
▁er	-9.44329
▁mi	-9.44433
▁player	-9.44491
▁lee	-9.44554
▁decide	-9.44589
▁total	-9.44675
▁letters	-9.44685
▁freedom	-9.44767
▁weapons	-9.44785
▁immediately	-9.44796
▁training	-9.44819
▁amen	-9.44831
▁m	-9.44883
▁joy	-9.45102
▁gotten	-9.45108
▁dressed	-9.45224
▁signal	-9.45408
▁higher	-9.45432
▁corleone	-9.45637
▁babe	-9.45643
▁forgotten	-9.45643
▁hm	-9.45807
▁beeping	-9.45814
▁animals	-9.45974
▁wheel	-9.46105
▁wa	-9.46239
▁mayor	-9.46268
the	-9.4633
▁blame	-9.46333
son	-9.46484
ow	-9.4649
▁dope	-9.46512
▁milk	-9.46568
▁grave	-9.46627
land	-9.46678
▁surprised	-9.46887
▁pilot	-9.47043
▁guest	-9.47061
▁boo	-9.47115
▁clicks	-9.47372
▁threw	-9.47399
▁shouldve	-9.47402
▁duty	-9.47407
▁clock	-9.47409
▁writing	-9.47452
▁falling	-9.47508
▁arrived	-9.47514
▁pray	-9.47532
▁walter	-9.47532
▁over	-9.4754
▁pete	-9.47565
▁cook	-9.47627
▁interest	-9.48275
▁defense	-9.48292
▁however	-9.48292
▁thomas	-9.48292
▁video	-9.48292
▁relationship	-9.48292
▁remind	-9.48308
▁rise	-9.48318
▁batman	-9.48328
▁row	-9.48381
▁drinking	-9.48405
▁o	-9.48503
▁letting	-9.48727
▁pure	-9.48764
▁helping	-9.48926
▁streets	-9.49011
▁teacher	-9.49082
▁somethin	-9.49153
ish	-9.49159
▁social	-9.4918
▁otherwise	-9.49193
▁sugar	-9.49193
▁pride	-9.49195
▁football	-9.49202
▁marta	-9.49214
▁crap	-9.49222
▁guilty	-9.49248
▁suddenly	-9.49253
time	-9.49291
▁hearing	-9.49324
▁honestly	-9.49363
▁bath	-9.4942
▁wood	-9.49692
▁tour	-9.49787
▁member	-9.49795
ary	-9.49801
▁finger	-9.49803
▁feelings	-9.49941
▁natural	-9.5
▁shirt	-9.50102
▁coat	-9.50119
▁lisa	-9.50172
▁switch	-9.50206
▁size	-9.50356
▁shame	-9.50423
▁prefer	-9.50521
▁destroyed	-9.50536
▁iii	-9.5059
▁fellas	-9.50622
▁italian	-9.50722
▁lift	-9.50724
▁lake	-9.50742
▁miller	-9.50767
▁thinks	-9.50983
▁marriage	-9.51019
▁willing	-9.51025
▁village	-9.51028
▁weather	-9.5103
▁barking	-9.51094
▁rent	-9.51215
que	-9.51276
▁screw	-9.51318
▁shower	-9.51351
▁woods	-9.51461
▁out	-9.51463
▁heading	-9.51525
▁pretend	-9.51602
▁punch	-9.51611
▁winner	-9.51687
▁audience	-9.51945
▁kevin	-9.51952
▁chocolate	-9.51954
▁no	-9.5196
▁forest	-9.51963
▁medical	-9.51967
bo	-9.52164
▁wet	-9.52191
▁angel	-9.52267
▁remain	-9.52279
▁est	-9.52367
▁patient	-9.52627
▁tim	-9.52738
▁older	-9.52766
▁twenty	-9.52875
▁harvey	-9.5288
▁ugly	-9.5288
▁truly	-9.52895
▁dropped	-9.52901
▁career	-9.52924
▁pair	-9.52927
▁tower	-9.53007
▁para	-9.53238
▁vehicle	-9.53587
▁roman	-9.53594
▁prepare	-9.53644
▁trees	-9.53757
▁desk	-9.53834
▁steady	-9.53834
▁airport	-9.53835
▁brian	-9.53836
▁grandpa	-9.53838
▁bow	-9.54035
▁port	-9.54237
▁suspect	-9.54274
you	-9.54275
▁le	-9.54362
▁devil	-9.54385
▁weak	-9.54584
▁lies	-9.546
▁gettin	-9.54744
ba	-9.54759
▁excellent	-9.54776
▁telephone	-9.54776
▁afford	-9.54776
▁precious	-9.54776
▁inspector	-9.54778
▁miami	-9.54779
▁fancy	-9.54781
▁winning	-9.54812
▁stolen	-9.54875
▁invited	-9.54902
▁hoping	-9.5495
bi	-9.55088
▁farm	-9.55252
▁chris	-9.55372
and	-9.55421
pe	-9.55462
▁selling	-9.55631
▁rome	-9.55635
▁lookin	-9.5565
▁doors	-9.55652
▁large	-9.55656
▁witch	-9.55689
▁legal	-9.55713
▁bike	-9.55717
▁saturday	-9.55737
▁insane	-9.55737
▁meal	-9.55759
▁protection	-9.55779
▁pen	-9.55782
▁plans	-9.55813
▁carol	-9.55847
he	-9.55913
▁there	-9.56056
if	-9.56063
▁eu	-9.56188
em	-9.56212
▁pot	-9.563
▁settle	-9.56513
▁bottle	-9.56529
j	-9.56548
▁tip	-9.56633
mo	-9.56704
▁whirring	-9.56709
▁flat	-9.5673
▁walt	-9.56756
▁leader	-9.56877
▁ch	-9.56895
▁concerned	-9.56948
▁birdie	-9.56954
▁crash	-9.56996
▁movies	-9.57091
▁hanging	-9.5716
▁paying	-9.57259
▁tie	-9.57387
▁martin	-9.57422
▁mention	-9.57445
▁champion	-9.57529
▁ear	-9.57587
ent	-9.57611
▁rough	-9.57689
▁roof	-9.57689
▁jill	-9.57722
▁coughing	-9.57741
▁safety	-9.57744
▁ex	-9.57751
▁seemed	-9.57841
▁paint	-9.57875
ut	-9.57944
▁piss	-9.58054
▁load	-9.58126
▁crack	-9.58157
▁oil	-9.58223
per	-9.58271
▁louis	-9.58475
▁operation	-9.58491
▁fan	-9.58531
▁shoulder	-9.5856
▁shape	-9.58599
▁maria	-9.5862
▁spoke	-9.58625
▁kingdom	-9.58679
▁nature	-9.58683
▁launch	-9.58688
▁handsome	-9.5871
▁trial	-9.58716
▁dust	-9.58724
▁daughters	-9.5875
▁director	-9.5878
▁hook	-9.58819
▁nurse	-9.58837
▁bags	-9.58914
▁pounds	-9.59147
▁joey	-9.59402
ng	-9.59444
▁harlan	-9.59497
▁among	-9.59669
▁indeed	-9.59679
▁toast	-9.59679
▁luke	-9.59681
▁earlier	-9.59685
▁dawn	-9.59685
▁beeps	-9.59943
▁blows	-9.6001
▁tank	-9.60072
▁wash	-9.60078
▁ay	-9.60108
▁crown	-9.60284
▁unit	-9.60353
di	-9.60456
▁sean	-9.60523
▁sons	-9.60542
▁jean	-9.60579
▁heh	-9.6058
▁character	-9.60581
▁photo	-9.60592
▁file	-9.60607
▁access	-9.60686
▁easier	-9.60689
▁thunder	-9.60689
▁wailing	-9.60689
▁asleep	-9.60689
▁negative	-9.6069
▁bodies	-9.60694
▁liar	-9.60697
▁lonely	-9.60711
▁market	-9.60735
▁tickets	-9.60928
▁sue	-9.60965
ig	-9.61135
▁ears	-9.61355
▁pre	-9.61416
▁trap	-9.6154
ol	-9.61546
▁scare	-9.61594
▁snake	-9.61629
▁usual	-9.61675
▁hardly	-9.61677
▁emperor	-9.61709
▁border	-9.6171
▁property	-9.61719
les	-9.61785
▁nobodys	-9.61881
▁nearly	-9.6197
▁di	-9.62341
▁witness	-9.62392
ot	-9.62415
▁believed	-9.62444
▁focus	-9.62456
▁goodness	-9.626
▁smith	-9.62601
▁guards	-9.62683
▁monster	-9.62686
▁headed	-9.62721
▁horrible	-9.6274
▁somehow	-9.6274
▁television	-9.6274
▁aware	-9.62744
▁comin	-9.62744
▁stock	-9.62745
▁lucy	-9.62784
▁trade	-9.62823
▁ray	-9.62843
▁harder	-9.62844
▁eli	-9.6286
lng	-9.62865
▁scary	-9.6291
▁checked	-9.62932
▁hired	-9.62948
▁followed	-9.63018
▁yells	-9.63074
▁page	-9.6308
▁request	-9.63152
▁lower	-9.6328
▁sisters	-9.63477
▁bats	-9.63492
▁records	-9.6362
▁en	-9.63696
▁victim	-9.63752
▁advice	-9.63782
▁journey	-9.63782
▁league	-9.63782
▁square	-9.63782
▁earl	-9.6379
▁friday	-9.63791
▁gordon	-9.63796
▁spiderman	-9.63813
▁toy	-9.63872
▁agreed	-9.64076
▁hurts	-9.64132
ou	-9.64269
ir	-9.64294
▁opening	-9.64373
▁eggs	-9.64385
▁moms	-9.64422
ance	-9.64435
▁climb	-9.64489
▁exist	-9.64539
▁talkin	-9.64604
▁recognize	-9.64651
▁sharp	-9.64704
▁murdered	-9.64748
▁spider	-9.64785
▁chicago	-9.64834
▁necessary	-9.64834
▁permission	-9.64834
▁license	-9.64834
▁speech	-9.64834
▁standard	-9.64874
line	-9.64893
▁professional	-9.64902
▁whispering	-9.64924
▁laid	-9.64964
▁amy	-9.64989
▁rob	-9.65062
head	-9.6511
▁discuss	-9.65229
▁matters	-9.65326
ke	-9.65506
▁study	-9.65578
house	-9.65722
▁chill	-9.65746
▁applause	-9.65898
▁energy	-9.65898
▁opportunity	-9.65898
▁irish	-9.65902
▁shoe	-9.65935
▁screeching	-9.66093
▁gosh	-9.66164
▁joint	-9.6621
da	-9.66257
vi	-9.6632
▁gives	-9.66445
▁bo	-9.66698
▁lied	-9.66745
▁practice	-9.66791
tic	-9.66836
▁hug	-9.66856
▁cheap	-9.66856
▁attorney	-9.66973
▁casino	-9.66973
▁understood	-9.66973
▁british	-9.66975
▁closing	-9.66975
▁exhales	-9.6698
▁mask	-9.67032
▁royal	-9.67032
▁scar	-9.67062
▁anne	-9.67193
▁indistinctly	-9.67221
pa	-9.67221
▁soldiers	-9.6725
ped	-9.6726
▁do	-9.67344
▁taxi	-9.67434
▁cheer	-9.67568
▁clearly	-9.67583
▁ohh	-9.67589
▁knocking	-9.67789
▁so	-9.67805
▁stops	-9.67938
▁derek	-9.6806
▁houston	-9.6806
▁staff	-9.6806
▁interview	-9.68061
▁itd	-9.68142
▁lance	-9.68336
▁ms	-9.68358
▁suggest	-9.68474
▁freak	-9.68516
▁serve	-9.68664
▁riding	-9.68699
▁sending	-9.68908
▁rescue	-9.68977
▁everythings	-9.69047
▁swim	-9.69147
▁screen	-9.69159
▁universe	-9.69159
▁fought	-9.69161
▁juice	-9.69163
▁onto	-9.69169
▁officers	-9.69214
▁wise	-9.69254
▁prize	-9.69265
▁prepared	-9.69369
▁passing	-9.69391
▁failed	-9.69393
▁gotham	-9.69448
▁pan	-9.69536
▁ideas	-9.69585
▁sh	-9.69602
ca	-9.69894
▁rush	-9.69925
▁grant	-9.70043
▁rumbling	-9.7027
▁science	-9.7027
▁several	-9.7027
▁stairs	-9.70271
▁written	-9.70271
▁neighborhood	-9.70271
▁grew	-9.70272
▁familiar	-9.7028
▁comfortable	-9.7028
▁alex	-9.70282
▁package	-9.70288
▁owner	-9.70393
▁pieces	-9.70575
▁sexy	-9.70617
▁mikey	-9.70854
ts	-9.70929
▁clears	-9.70971
▁dom	-9.71004
▁non	-9.71026
▁spread	-9.71068
ier	-9.71172
▁stayed	-9.71179
▁brand	-9.71249
▁spare	-9.71276
▁silence	-9.71291
▁proper	-9.71329
▁thief	-9.71394
▁funeral	-9.71394
▁gorgeous	-9.71395
▁although	-9.71395
▁mostly	-9.71402
▁aj	-9.71675
▁everybodys	-9.7175
▁keeps	-9.71799
▁poison	-9.72245
▁pe	-9.72299
ley	-9.72392
▁concern	-9.72396
▁cast	-9.72474
▁honour	-9.72514
▁candy	-9.72525
▁pregnant	-9.7253
▁daniel	-9.7253
▁gym	-9.7253
▁clever	-9.72531
▁saving	-9.72532
▁suitcase	-9.72532
▁bravo	-9.72533
▁lionel	-9.72537
▁gentleman	-9.7255
▁incredible	-9.72566
▁earn	-9.72577
▁newspaper	-9.7269
▁frankie	-9.72697
▁gunshot	-9.72705
▁powers	-9.72722
▁cares	-9.7276
▁salt	-9.72809
▁warning	-9.72819
▁blessing	-9.7301
▁enter	-9.73217
▁jerk	-9.73323
▁niggers	-9.7344
▁dirt	-9.73507
▁eve	-9.73552
▁original	-9.73583
▁ruin	-9.73603
▁process	-9.73608
▁den	-9.7363
▁jealous	-9.7368
▁maurizio	-9.7368
▁regular	-9.7368
▁treasure	-9.7368
▁insurance	-9.73681
▁mercy	-9.73682
▁positive	-9.73682
▁piano	-9.73685
▁gross	-9.73689
▁event	-9.73722
▁statement	-9.73733
▁tiny	-9.73765
ai	-9.73773
▁rocket	-9.73827
▁beast	-9.73871
▁deck	-9.73911
▁dollar	-9.7396
▁deeply	-9.73978
▁deliver	-9.74008
▁slowly	-9.74113
▁fa	-9.74253
ard	-9.74272
▁fate	-9.7452
▁direct	-9.7459
▁guarantee	-9.7466
▁byebye	-9.74843
▁fantastic	-9.74843
▁possibly	-9.74843
▁rachel	-9.74843
▁mitchell	-9.7485
▁dis	-9.74859
▁score	-9.74865
▁angela	-9.75
▁x	-9.75056
▁button	-9.75094
▁sal	-9.75186
▁ln	-9.75423
ism	-9.75428
▁shows	-9.755
▁bearing	-9.75546
▁sooner	-9.75687
▁dump	-9.7574
▁badge	-9.75766
▁runs	-9.75851
▁robert	-9.7587
▁opened	-9.75959
▁brenda	-9.76019
▁example	-9.76019
▁footsteps	-9.76019
▁loretta	-9.76019
▁oclock	-9.76019
▁opinion	-9.76019
▁babies	-9.76019
▁england	-9.76019
▁ethan	-9.76022
▁bedroom	-9.76036
▁military	-9.76038
▁tall	-9.76229
▁jam	-9.76245
▁andy	-9.76303
dy	-9.7635
▁flowers	-9.76357
▁sale	-9.76604
▁whispers	-9.76654
▁los	-9.76669
ph	-9.76757
▁joel	-9.76818
▁borrow	-9.76923
way	-9.76984
▁freeze	-9.77053
▁mail	-9.77184
▁ted	-9.77209
▁flesh	-9.77209
▁eagle	-9.77209
▁foreign	-9.77209
▁subject	-9.77209
▁whyd	-9.7721
▁hidden	-9.77211
▁monday	-9.77212
▁proof	-9.77241
▁eric	-9.77247
▁disgusting	-9.77256
▁created	-9.77363
▁lane	-9.77378
▁chi	-9.77444
▁prick	-9.77469
▁shadow	-9.77481
▁personally	-9.77518
▁lo	-9.77577
▁disappear	-9.77773
▁wings	-9.78047
ite	-9.78051
▁hung	-9.78081
▁knees	-9.7812
▁introduce	-9.78233
red	-9.78246
▁counting	-9.78337
▁answers	-9.78396
▁traffic	-9.7841
▁mas	-9.78412
▁average	-9.78414
▁avoid	-9.78414
▁guitar	-9.78414
▁medicine	-9.78417
▁pussy	-9.78441
▁secretary	-9.78443
un	-9.7849
▁sally	-9.78542
▁grown	-9.78543
▁sm	-9.78712
▁moves	-9.79
▁county	-9.79005
▁lately	-9.79185
▁march	-9.79351
ab	-9.79372
▁picking	-9.79572
▁trigger	-9.79634
▁tear	-9.79637
▁yellow	-9.7964
▁according	-9.79648
▁fuel	-9.79655
▁pigs	-9.79752
▁ordered	-9.79767
▁pat	-9.79813
▁client	-9.7997
ated	-9.79994
▁yard	-9.80044
▁filled	-9.80102
▁mei	-9.80123
▁plant	-9.80338
ki	-9.80375
▁pie	-9.804
▁armed	-9.80422
▁sail	-9.80501
▁swing	-9.80632
▁chest	-9.80709
lin	-9.80754
▁brilliant	-9.80868
▁downstairs	-9.80868
▁vacation	-9.80868
▁kennedy	-9.80869
▁pizza	-9.80869
▁cunt	-9.80872
▁expensive	-9.80873
▁alice	-9.80877
▁apparently	-9.8088
▁blast	-9.80883
▁began	-9.809
▁grandma	-9.80906
▁jackson	-9.80922
▁bust	-9.80931
▁gear	-9.80946
▁simon	-9.80948
▁madame	-9.80973
▁squealing	-9.81052
om	-9.81142
▁sword	-9.81226
▁charges	-9.81245
▁sport	-9.81261
▁blessed	-9.813
ill	-9.81419
▁sweat	-9.81476
▁metal	-9.81506
▁burned	-9.81571
▁ba	-9.81634
▁students	-9.81665
▁all	-9.81703
▁ji	-9.81746
▁finding	-9.81754
ized	-9.81788
▁parts	-9.81796
▁woo	-9.81899
▁pink	-9.81917
▁curse	-9.8194
ens	-9.81967
▁reports	-9.82091
ag	-9.821
▁percent	-9.82113
▁benoit	-9.82118
▁empire	-9.82118
▁exciting	-9.82118
▁dallas	-9.82119
▁molly	-9.82121
▁linda	-9.82121
▁hachi	-9.8214
x	-9.82278
▁approaching	-9.82355
▁wounded	-9.82366
▁ahh	-9.82432
▁sometime	-9.82442
▁spring	-9.82517
▁paulie	-9.82522
▁robot	-9.82529
▁rats	-9.82555
▁du	-9.82566
▁ended	-9.82569
▁commander	-9.82601
▁arrested	-9.82732
▁trace	-9.83024
▁mountains	-9.8316
▁assume	-9.83201
▁divorce	-9.83203
▁majesty	-9.83384
▁mexico	-9.83384
▁responsibility	-9.83384
▁someday	-9.83384
▁suicide	-9.83384
▁ryan	-9.83385
▁baroness	-9.83385
▁lab	-9.83388
▁theater	-9.83389
▁zone	-9.83392
▁am	-9.83444
▁te	-9.83681
▁raised	-9.83712
▁manage	-9.83776
▁quietly	-9.83833
▁guests	-9.83889
▁abe	-9.84058
▁mile	-9.84098
▁ld	-9.84159
▁jamie	-9.842
▁carrying	-9.84294
▁schedule	-9.84483
▁pet	-9.84484
▁scream	-9.84496
▁expecting	-9.84629
▁success	-9.84652
▁garbage	-9.84666
▁squad	-9.84666
▁shift	-9.84667
▁buried	-9.84668
▁awake	-9.8467
▁aside	-9.8468
▁exit	-9.84703
▁cj	-9.84703
▁cage	-9.84721
▁johnson	-9.84732
▁zoo	-9.84733
▁meaning	-9.84742
▁talent	-9.84837
▁cabin	-9.84911
▁bum	-9.84918
▁showing	-9.84966
▁mentioned	-9.85037
▁shots	-9.85107
▁student	-9.85134
▁rip	-9.85184
▁plate	-9.85188
▁wide	-9.85197
ah	-9.85388
▁seek	-9.85421
we	-9.85504
io	-9.85515
▁bay	-9.85542
▁tone	-9.85664
▁parking	-9.85678
▁sl	-9.85681
▁returned	-9.85706
▁vi	-9.85756
▁murph	-9.85787
▁flash	-9.85958
▁text	-9.85962
▁arthur	-9.85965
▁federal	-9.85965
▁mirror	-9.85965
▁stomach	-9.85965
▁texas	-9.85965
▁coast	-9.85965
▁puppy	-9.85966
▁chinese	-9.85966
▁basketball	-9.85967
▁operator	-9.85967
▁harley	-9.85968
▁teddy	-9.85972
▁giant	-9.85973
▁jazz	-9.85976
▁estate	-9.85992
▁hood	-9.86242
▁fu	-9.86266
▁victory	-9.86276
▁han	-9.8635
▁thousands	-9.86377
▁wave	-9.86493
▁forced	-9.86506
▁bastards	-9.86729
▁pulling	-9.86821
▁mu	-9.86831
ally	-9.86854
▁insist	-9.86996
▁rate	-9.87061
▁secure	-9.871
▁mood	-9.87157
▁fail	-9.87158
▁chase	-9.87191
▁gucci	-9.87281
▁junior	-9.87281
▁research	-9.87281
▁literally	-9.87282
▁planned	-9.87302
▁planning	-9.87308
▁recall	-9.87331
▁drinks	-9.87333
▁shine	-9.87339
▁dent	-9.87341
▁coke	-9.87374
▁rocks	-9.87437
▁richie	-9.87525
▁vote	-9.87595
▁bullets	-9.87782
▁uniform	-9.878
▁jew	-9.87818
▁sat	-9.87846
▁sin	-9.8795
▁joker	-9.8796
▁goal	-9.88004
▁deer	-9.88049
▁bi	-9.8805
▁fra	-9.88374
▁led	-9.88379
▁value	-9.8843
▁damage	-9.88433
mp	-9.88484
▁rick	-9.88486
▁rare	-9.88541
▁chose	-9.88561
▁alpha	-9.88614
▁abby	-9.88614
▁families	-9.88614
▁motorcycle	-9.88614
▁ocean	-9.88614
▁popular	-9.88614
▁clark	-9.88614
▁gerry	-9.88614
▁japanese	-9.88615
▁downtown	-9.88615
▁aaron	-9.88615
▁tyler	-9.88617
▁vincent	-9.88617
▁basically	-9.88618
▁route	-9.8862
▁cruella	-9.88621
▁nasty	-9.88641
▁barely	-9.88653
▁unfortunately	-9.88654
▁belt	-9.88673
ious	-9.8904
▁threat	-9.89096
▁tied	-9.89191
▁egg	-9.8923
▁ways	-9.89322
▁kicked	-9.89392
▁stranger	-9.89411
▁andi	-9.89422
▁proceed	-9.89619
ring	-9.89638
▁ate	-9.89674
▁expected	-9.897
▁bone	-9.89727
▁players	-9.89752
▁invite	-9.89786
▁health	-9.89795
ina	-9.8981
▁silver	-9.89963
▁champagne	-9.89965
▁muffled	-9.89966
▁blew	-9.89967
▁reggie	-9.89968
▁assistant	-9.8997
▁sweetwater	-9.89975
▁emily	-9.8998
▁victims	-9.90004
▁received	-9.90062
▁dre	-9.90079
▁chop	-9.90109
▁siren	-9.90327
▁details	-9.90416
▁miracle	-9.90554
▁shield	-9.90565
▁whore	-9.90572
▁iron	-9.90663
▁drove	-9.90669
ver	-9.90687
▁nights	-9.90713
▁degrees	-9.90932
▁stealing	-9.90956
ize	-9.91285
▁anderton	-9.91335
▁trash	-9.91337
▁trunk	-9.91337
▁amount	-9.91337
▁toilet	-9.91337
▁alert	-9.91338
▁smoking	-9.91338
▁foul	-9.91339
▁impressive	-9.9134
▁fella	-9.91345
▁vision	-9.91355
▁loan	-9.91391
▁doll	-9.91448
▁fallen	-9.9145
▁sandy	-9.91646
▁claim	-9.917
▁cos	-9.91714
va	-9.91715
▁stronger	-9.91813
▁tail	-9.91863
▁restaurant	-9.9196
▁knight	-9.9198
▁banging	-9.92051
▁writer	-9.92063
▁depends	-9.92258
▁burning	-9.92279
▁sirens	-9.92374
▁loser	-9.92572
▁towards	-9.92649
▁madam	-9.92655
br	-9.92696
▁easily	-9.92724
▁equipment	-9.92724
▁knowledge	-9.92724
▁mercedes	-9.92724
▁whimpering	-9.92724
▁whistling	-9.92724
▁donkey	-9.92725
▁hollywood	-9.92725
▁jacob	-9.92725
▁midnight	-9.92725
▁device	-9.92725
▁stood	-9.92729
▁wherever	-9.92734
▁fetch	-9.92739
▁blowing	-9.9275
▁honking	-9.92778
▁files	-9.92868
▁emma	-9.92894
▁friendly	-9.93041
▁disappeared	-9.93051
▁model	-9.93054
ble	-9.93167
ka	-9.93171
ni	-9.93181
▁sec	-9.93322
▁perfectly	-9.93343
▁quarter	-9.93416
▁winter	-9.9348
▁buzzing	-9.93514
▁lesson	-9.9355
▁tax	-9.93617
▁sports	-9.93701
▁be	-9.93738
▁clients	-9.93745
▁create	-9.93956
▁cow	-9.93979
▁refuse	-9.93997
▁desperate	-9.94029
▁obvious	-9.94031
▁elevator	-9.94133
▁florida	-9.94133
▁giggling	-9.94133
▁violence	-9.94133
▁adventure	-9.94133
▁whenever	-9.94133
▁exchange	-9.94133
▁hammer	-9.94134
▁mmmhmm	-9.94136
▁eddie	-9.94137
▁unbelievable	-9.94138
▁joking	-9.94142
▁cmon	-9.94148
▁style	-9.94172
▁factory	-9.94229
▁jacket	-9.94309
▁ju	-9.94376
▁touched	-9.94397
▁loaded	-9.94537
▁wound	-9.94567
za	-9.9467
▁reg	-9.94695
side	-9.94724
▁official	-9.94747
▁ren	-9.94792
▁cigarette	-9.94858
▁dads	-9.9496
ex	-9.95081
▁aim	-9.95122
rie	-9.95132
▁smash	-9.95274
▁pin	-9.95291
oh	-9.95296
▁belongs	-9.9532
▁spy	-9.95339
▁murderer	-9.9539
▁watched	-9.95488
▁slip	-9.95542
▁to	-9.95549
▁expert	-9.95561
▁advantage	-9.95561
▁destiny	-9.95561
▁django	-9.95561
▁lawrence	-9.95561
▁jeez	-9.95562
▁appointment	-9.95563
▁available	-9.95563
▁couch	-9.95564
▁riley	-9.95564
▁complicated	-9.95568
▁committed	-9.95568
▁surface	-9.9557
▁jewish	-9.95579
▁capable	-9.95592
▁background	-9.95599
▁plain	-9.956
▁toss	-9.95611
▁noodles	-9.95671
▁throwing	-9.95737
▁bout	-9.95803
▁pound	-9.96043
▁france	-9.9634
▁debt	-9.96377
ey	-9.96392
▁priest	-9.96402
▁bones	-9.96464
▁growing	-9.96498
ping	-9.96658
▁pleased	-9.96697
▁loss	-9.96709
▁u	-9.96762
▁steve	-9.96885
ac	-9.96937
▁sandwich	-9.96949
▁holiday	-9.9701
▁soccer	-9.9701
▁susan	-9.97011
▁theory	-9.97013
▁lauda	-9.97016
▁section	-9.97044
▁mason	-9.97056
▁darkness	-9.97074
▁changing	-9.97079
▁units	-9.9717
▁lines	-9.97317
▁por	-9.97389
▁carefully	-9.97551
▁guts	-9.97582
der	-9.97597
▁os	-9.97671
▁mal	-9.97881
▁checking	-9.97951
▁warn	-9.98043
▁mix	-9.9819
▁remove	-9.98305
▁meg	-9.98306
▁trained	-9.98315
▁ambulance	-9.98481
▁explosiveskull	-9.98481
▁grandfather	-9.98481
▁nonsense	-9.98481
▁illegal	-9.98481
▁ransom	-9.98481
▁firm	-9.98481
▁kyle	-9.98481
▁fifth	-9.98482
▁sharon	-9.98482
▁aiex	-9.98483
▁valley	-9.98486
▁governor	-9.98488
▁role	-9.98495
▁stephen	-9.98507
▁weii	-9.98516
mi	-9.98538
▁marion	-9.98556
▁sonny	-9.98573
▁signed	-9.98573
▁bound	-9.98577
▁angeles	-9.98582
▁yearold	-9.98584
▁bleeding	-9.98686
▁pity	-9.98719
▁ko	-9.9872
▁cock	-9.98876
ci	-9.98891
▁screwed	-9.98933
▁cameras	-9.99213
▁artist	-9.99266
▁fairy	-9.99284
iy	-9.99313
▁circle	-9.99316
op	-9.99319
▁cowboy	-9.99322
▁direction	-9.99331
▁attempt	-9.99335
▁suffer	-9.99346
ner	-9.99422
ny	-9.99445
end	-9.99468
▁yards	-9.99563
▁messages	-9.99565
▁sneak	-9.99588
back	-9.99854
▁phil	-9.99878
▁campaign	-9.99974
▁gandalf	-9.99974
▁happiness	-9.99974
▁including	-9.99974
▁society	-9.99974
▁someplace	-9.99974
tter	-9.99983
▁sarah	-10
▁woke	-10.0003
▁kate	-10.001
▁lester	-10.001
▁fourth	-10.0014
▁mud	-10.0018
▁hut	-10.0021
▁ka	-10.0021
▁laser	-10.0022
▁charming	-10.0024
▁pissed	-10.004
▁hire	-10.0044
ore	-10.0049
▁tense	-10.0067
▁wire	-10.0067
▁asses	-10.0068
▁vice	-10.007
▁fixed	-10.0074
▁sara	-10.0075
▁worlds	-10.0081
ial	-10.0084
▁fe	-10.0085
ky	-10.0087
▁odd	-10.0087
▁steps	-10.0121
ung	-10.0124
▁bull	-10.013
led	-10.0134
▁ad	-10.0135
▁mental	-10.0138
▁physical	-10.0138
▁exact	-10.0139
▁sudden	-10.0139
▁central	-10.0149
▁enemies	-10.0149
▁schultz	-10.0149
▁intelligence	-10.0149
▁martha	-10.0149
▁maid	-10.0149
▁odie	-10.0149
▁firing	-10.015
▁confused	-10.0152
▁drill	-10.0153
▁fred	-10.016
▁rub	-10.0162
▁sucks	-10.0165
sa	-10.0165
▁dreaming	-10.0176
▁solo	-10.0181
▁mustve	-10.0195
▁prisoners	-10.0198
ence	-10.0207
▁dealing	-10.0219
ding	-10.0223
▁americans	-10.0251
▁offered	-10.0253
▁pills	-10.0263
▁site	-10.0276
▁covered	-10.0279
ise	-10.0279
▁shouts	-10.0281
▁guide	-10.0286
▁particular	-10.0293
▁jet	-10.0297
▁palm	-10.0299
▁joseph	-10.0302
▁miguel	-10.0303
▁political	-10.0303
▁humming	-10.0303
▁orange	-10.0303
▁senator	-10.0303
▁slept	-10.0303
▁garfield	-10.0303
▁authority	-10.0303
▁slide	-10.0303
▁edge	-10.0304
▁fifty	-10.0305
▁chef	-10.0305
▁barry	-10.0308
▁ni	-10.0308
▁boring	-10.031
▁jay	-10.0313
▁bury	-10.0313
▁pm	-10.0318
▁lawyers	-10.0327
▁shy	-10.0327
▁giggles	-10.0328
▁fran	-10.0328
▁sink	-10.033
▁cha	-10.033
▁ken	-10.033
▁somebodys	-10.0342
▁william	-10.0353
▁joni	-10.0355
▁demon	-10.036
▁pi	-10.0374
▁pipe	-10.0376
hi	-10.0384
▁badly	-10.0385
▁shock	-10.0397
▁connection	-10.0402
▁diamond	-10.0403
▁z	-10.041
ship	-10.0418
▁challenge	-10.0429
▁crush	-10.043
▁reward	-10.0431
▁wick	-10.0434
▁doug	-10.0443
▁thin	-10.0449
▁fucker	-10.0451
▁fox	-10.0453
▁community	-10.0459
▁keller	-10.0459
▁material	-10.0459
▁mystery	-10.0459
▁ramsey	-10.0459
▁fruit	-10.0459
▁loop	-10.046
▁sammy	-10.0461
▁spit	-10.0461
▁location	-10.0461
cient	-10.0461
▁warden	-10.0467
▁panic	-10.0468
▁anger	-10.0469
▁commissioner	-10.0473
▁ford	-10.0483
▁defend	-10.0496
▁lad	-10.0521
▁brains	-10.0522
▁ross	-10.0523
▁leads	-10.0532
▁cave	-10.0535
▁print	-10.0536
▁seal	-10.0536
▁spin	-10.0541
▁lou	-10.0545
vo	-10.0547
▁ca	-10.0557
▁detail	-10.0566
▁faces	-10.0571
▁twin	-10.0572
▁actor	-10.0574
ler	-10.0582
field	-10.0589
▁sentence	-10.0602
▁criminals	-10.0604
▁mmhm	-10.0605
▁object	-10.061
▁cuba	-10.0616
▁reasons	-10.0616
▁circus	-10.0618
▁period	-10.0618
▁phoenix	-10.0618
▁lynn	-10.0618
▁theme	-10.0618
▁aboard	-10.0619
▁electricity	-10.0619
▁brody	-10.0619
▁swimming	-10.0619
▁virus	-10.062
▁confession	-10.062
▁data	-10.0624
▁ne	-10.0625
▁matt	-10.0629
▁walls	-10.0632
▁stopping	-10.0635
▁uhoh	-10.0636
▁beth	-10.0641
med	-10.0643
▁yell	-10.0655
gu	-10.067
▁subtitles	-10.0676
ock	-10.0677
▁engineer	-10.0692
▁surely	-10.0695
▁fort	-10.0701
▁up	-10.0703
▁collect	-10.0706
▁chain	-10.0736
▁motherfuckers	-10.0741
▁interrupt	-10.0744
▁ships	-10.0762
▁gu	-10.0768
▁courage	-10.0778
▁calvin	-10.0779
▁pattern	-10.0779
▁stephanie	-10.0779
▁saint	-10.0779
▁claire	-10.0779
▁loving	-10.078
▁basic	-10.078
▁whatre	-10.078
▁diana	-10.078
▁naked	-10.078
▁thumb	-10.078
▁heck	-10.078
▁twelve	-10.078
▁teii	-10.078
▁rude	-10.078
▁title	-10.0782
▁mount	-10.0782
▁toys	-10.0784
▁chirping	-10.0786
▁penny	-10.0787
▁gina	-10.0789
▁setting	-10.0794
▁glasses	-10.0802
▁anti	-10.0804
▁woody	-10.0811
▁dies	-10.0816
▁aid	-10.0821
▁bowl	-10.0827
▁manny	-10.0837
▁drawing	-10.0844
▁ma	-10.086
▁reached	-10.0865
▁fighter	-10.087
▁bra	-10.0878
▁chances	-10.0888
▁effort	-10.0892
▁complain	-10.09
▁buying	-10.09
▁mob	-10.0902
po	-10.0906
rr	-10.0909
▁jane	-10.0926
▁whip	-10.0927
ay	-10.0936
▁mornin	-10.0939
▁europe	-10.094
▁progress	-10.0942
▁wrap	-10.0942
▁becoming	-10.0943
▁mitsuha	-10.0943
▁sheila	-10.0943
▁thursday	-10.0943
▁igor	-10.0943
▁glory	-10.0943
▁las	-10.0943
▁kenny	-10.0943
▁motion	-10.0944
▁garage	-10.0944
▁voc	-10.0944
▁romantic	-10.0944
▁counselor	-10.0945
▁racing	-10.0946
▁colin	-10.0947
▁growling	-10.0948
▁rancho	-10.0949
▁grass	-10.095
▁spoken	-10.0952
▁mick	-10.0952
▁circumstances	-10.0956
▁dash	-10.0958
▁moments	-10.0959
▁healthy	-10.0964
▁fans	-10.0965
▁shaw	-10.098
▁tune	-10.0982
▁sen	-10.0988
▁su	-10.099
▁pole	-10.0997
▁realized	-10.1008
▁habit	-10.1031
▁appear	-10.1034
▁mistakes	-10.1039
▁machines	-10.1042
▁jews	-10.1042
▁hated	-10.1042
▁joes	-10.1043
▁windows	-10.1049
▁monkey	-10.1059
▁thy	-10.106
▁adult	-10.1062
▁duck	-10.1064
▁hearts	-10.107
▁lips	-10.1071
▁grade	-10.1073
▁scratch	-10.1074
▁flower	-10.108
▁neo	-10.1081
▁chuck	-10.1081
▁gra	-10.1086
▁beep	-10.1087
▁celebrate	-10.1092
che	-10.1092
▁provide	-10.1095
▁flag	-10.1098
▁fishing	-10.1101
▁clamoring	-10.111
▁grateful	-10.111
▁invisible	-10.111
▁necklace	-10.111
▁terrific	-10.111
▁whimpers	-10.111
▁boston	-10.111
▁bloom	-10.111
▁niki	-10.111
▁punk	-10.1111
▁series	-10.1111
▁jungle	-10.1112
of	-10.1113
▁anson	-10.1113
▁rice	-10.1115
▁extremely	-10.1116
▁bail	-10.1117
▁motherfucking	-10.1117
▁hitting	-10.1129
og	-10.1131
cy	-10.1135
▁engines	-10.1142
▁crewe	-10.1162
▁brad	-10.1169
her	-10.1183
ning	-10.1189
▁hunting	-10.1193
▁searching	-10.1207
▁highly	-10.1224
tt	-10.1229
▁apple	-10.1234
▁scout	-10.1236
▁alien	-10.1236
▁gum	-10.1236
▁tears	-10.1238
▁rope	-10.1241
▁nut	-10.1242
▁jobs	-10.1246
▁doctors	-10.1274
▁express	-10.1276
▁fashion	-10.1277
▁daphne	-10.1279
▁explosion	-10.1279
▁taylor	-10.1279
▁incident	-10.1279
▁attitude	-10.1279
▁competition	-10.1279
▁fiona	-10.1279
▁linnet	-10.1279
▁cease	-10.1279
▁costume	-10.1279
▁nuclear	-10.1279
▁bunny	-10.1279
▁tessa	-10.1279
▁supper	-10.1279
▁combat	-10.128
▁youth	-10.128
▁birth	-10.128
▁shopping	-10.1281
▁he	-10.1282
▁jan	-10.1284
▁soup	-10.1285
▁embarrassed	-10.1287
▁gim	-10.1287
▁hates	-10.129
▁spark	-10.1291
▁leaves	-10.1291
▁highway	-10.1293
▁lina	-10.1321
day	-10.1324
▁appears	-10.1326
ns	-10.1334
▁souls	-10.1336
▁diamonds	-10.1341
▁ye	-10.1374
▁pit	-10.1378
▁someones	-10.1389
▁singer	-10.1408
▁helen	-10.1439
den	-10.1446
qu	-10.1447
▁flip	-10.145
▁thirty	-10.1451
▁morpheus	-10.1451
▁policy	-10.1451
▁scrooge	-10.1451
▁upbeat	-10.1451
▁cancer	-10.1452
▁doyle	-10.1452
▁truman	-10.1452
▁fever	-10.1453
▁jury	-10.1453
▁grandmother	-10.1454
▁sadiel	-10.1455
▁robbery	-10.1457
▁prisoner	-10.1463
▁gay	-10.1465
▁mandi	-10.1466
▁bride	-10.1468
▁discovered	-10.147
▁useless	-10.1472
▁issues	-10.148
▁lifetime	-10.1481
▁butter	-10.1489
▁entirely	-10.149
▁ti	-10.1501
▁ward	-10.1513
fi	-10.1514
▁bitches	-10.1516
▁virgin	-10.1526
▁kings	-10.1529
ger	-10.1532
▁champ	-10.1553
▁terms	-10.156
▁attacked	-10.1589
▁deposit	-10.1597
▁intend	-10.1599
ell	-10.1599
▁cher	-10.1601
▁suspensefu	-10.1603
ball	-10.1607
▁ignore	-10.1608
▁voices	-10.1609
▁creed	-10.1619
▁custody	-10.1627
▁delicious	-10.1627
▁eventually	-10.1627
▁ordinary	-10.1627
▁tewkesbury	-10.1627
▁distant	-10.1627
▁outfit	-10.1627
▁patrol	-10.1627
▁presence	-10.1627
▁international	-10.1627
▁starving	-10.1627
▁narrat	-10.1627
▁ginger	-10.1627
▁becomes	-10.1628
▁carly	-10.163
▁medal	-10.1631
▁filthy	-10.1632
▁hatch	-10.1637
▁cube	-10.1639
▁prime	-10.1641
▁bates	-10.1642
▁yah	-10.165
▁thrown	-10.1658
▁cleaned	-10.1671
▁knowing	-10.1676
▁painting	-10.1695
ib	-10.1714
▁ls	-10.1731
▁slave	-10.1749
ps	-10.1756
▁caused	-10.176
tra	-10.1762
ob	-10.1767
▁comfort	-10.1768
▁traitor	-10.177
▁tunnel	-10.177
▁assault	-10.1776
▁smooth	-10.178
▁separate	-10.1787
▁approach	-10.1794
▁anthony	-10.1806
▁motel	-10.1806
▁routine	-10.1806
▁velma	-10.1806
▁behavior	-10.1806
▁curious	-10.1806
▁mysterious	-10.1806
▁stallion	-10.1806
▁coward	-10.1807
▁fl	-10.1809
▁carried	-10.181
▁recently	-10.181
▁embarrassing	-10.1815
▁impressed	-10.1822
▁under	-10.1822
▁cutting	-10.1823
▁dean	-10.1826
▁nest	-10.1826
▁chips	-10.1827
▁clicking	-10.1833
▁hits	-10.1836
▁smells	-10.1842
▁ruined	-10.1849
▁escaped	-10.1854
▁assholes	-10.1859
▁cleaning	-10.1898
▁dan	-10.1899
fully	-10.1914
▁partners	-10.1925
▁issue	-10.1941
▁likely	-10.1943
▁nightmare	-10.1954
work	-10.1955
▁clown	-10.1956
▁pitch	-10.1964
king	-10.1969
▁terribl	-10.1977
▁tu	-10.198
▁cure	-10.1981
▁prophet	-10.1987
▁avenue	-10.1987
▁envelope	-10.1987
▁felix	-10.1987
▁library	-10.1987
▁malcolm	-10.1987
▁politics	-10.1987
▁shirley	-10.1987
▁accent	-10.1987
▁blaring	-10.1988
▁washington	-10.1988
▁university	-10.1988
▁scarlet	-10.1988
▁humans	-10.1988
▁mouse	-10.1988
▁online	-10.1988
▁false	-10.1988
▁fund	-10.1988
▁starboard	-10.1988
▁status	-10.1988
▁brush	-10.1989
▁decent	-10.1989
▁owns	-10.199
▁soren	-10.199
▁chewie	-10.1991
▁santa	-10.1991
▁haha	-10.2
▁monte	-10.2004
▁pump	-10.2005
▁lack	-10.2011
▁lover	-10.2012
▁former	-10.2014
▁off	-10.203
▁mass	-10.2042
▁beating	-10.2048
▁jackie	-10.2056
▁jets	-10.2058
▁waited	-10.2061
▁tent	-10.2069
▁traveling	-10.2072
▁tracks	-10.2072
▁sp	-10.2106
▁forces	-10.2107
▁teams	-10.2121
▁inc	-10.2121
▁bid	-10.2124
▁screech	-10.2139
▁cats	-10.2144
▁tiger	-10.2146
▁scott	-10.2151
▁roses	-10.2154
▁chuckle	-10.2155
▁assure	-10.2159
▁rolling	-10.216
▁strip	-10.2165
▁russia	-10.2168
▁solve	-10.2168
▁gentle	-10.2168
▁blanc	-10.2172
▁passion	-10.2172
▁century	-10.2173
▁channel	-10.2173
▁dozen	-10.2173
▁elephant	-10.2173
▁gerald	-10.2173
▁imagination	-10.2173
▁inhales	-10.2173
▁memories	-10.2173
▁surrender	-10.2173
▁anytime	-10.2173
▁symbol	-10.2173
▁lebowski	-10.2173
▁steak	-10.2173
▁donnie	-10.2173
▁silent	-10.2173
▁pepper	-10.2173
▁gustave	-10.2173
▁brick	-10.2173
▁gunfire	-10.2176
▁alley	-10.2176
▁rooster	-10.218
▁chosen	-10.218
▁whod	-10.2183
▁tai	-10.2184
▁bored	-10.2185
▁disappointed	-10.2186
▁spirits	-10.2189
▁photos	-10.219
ten	-10.2217
▁finest	-10.2222
▁forth	-10.2224
▁exercise	-10.2232
▁image	-10.224
▁touching	-10.2254
▁fee	-10.2256
▁corn	-10.2257
▁sa	-10.2276
▁wh	-10.2296
▁gee	-10.2305
▁effect	-10.2334
▁rifle	-10.2335
▁counter	-10.2335
tu	-10.2339
ita	-10.2344
▁junk	-10.2346
▁hills	-10.2347
▁falls	-10.2349
▁violent	-10.2351
▁favour	-10.2361
▁committee	-10.2361
▁deputy	-10.2361
▁judgment	-10.2361
▁lewis	-10.2361
▁patrizia	-10.2361
▁revenge	-10.2361
▁trevor	-10.2361
▁entrance	-10.2361
▁mallory	-10.2361
▁charley	-10.2362
▁chaplin	-10.2362
▁ronnie	-10.2362
▁motor	-10.2362
▁jules	-10.2362
▁solid	-10.2362
▁bucket	-10.2365
▁basement	-10.2366
▁leading	-10.237
▁moron	-10.2371
▁chip	-10.2382
▁weed	-10.2386
▁learning	-10.2388
tor	-10.2395
▁movement	-10.2408
▁busted	-10.2408
▁par	-10.2408
▁for	-10.241
▁services	-10.2414
▁metro	-10.2417
▁lam	-10.2419
▁bells	-10.2429
▁millions	-10.2429
▁based	-10.2429
▁lads	-10.2434
▁seats	-10.2434
▁tr	-10.2443
▁net	-10.2457
▁tri	-10.2459
tion	-10.2459
▁hon	-10.2478
▁reed	-10.2479
▁knocked	-10.2481
▁trusted	-10.2484
▁sub	-10.2496
ville	-10.2498
▁pee	-10.25
pin	-10.2505
▁younger	-10.2507
▁arrive	-10.2508
▁trail	-10.2514
▁staring	-10.2516
▁rot	-10.2521
▁inform	-10.2523
▁confirm	-10.2524
▁dodge	-10.253
▁chick	-10.2532
▁gates	-10.2537
▁charm	-10.2538
▁profit	-10.2553
▁oi	-10.2553
ical	-10.2553
▁armstrong	-10.2553
▁cocksucker	-10.2553
▁keaton	-10.2553
▁pathetic	-10.2553
▁poirot	-10.2553
▁shrek	-10.2553
▁suzy	-10.2553
▁tuesday	-10.2553
▁pistol	-10.2554
▁plastic	-10.2554
▁superior	-10.2554
▁foster	-10.2554
▁warrant	-10.2554
▁farewell	-10.2554
▁stuart	-10.2554
▁faint	-10.2554
▁soap	-10.2554
▁failure	-10.2554
▁kitty	-10.2554
▁charity	-10.2554
▁chopper	-10.2555
▁steel	-10.2555
▁radar	-10.2555
▁benny	-10.2555
▁murmuring	-10.2559
▁q	-10.256
▁studio	-10.2563
▁yup	-10.2563
▁friendship	-10.2564
com	-10.2566
for	-10.2568
▁lon	-10.2574
▁suits	-10.2575
▁mumbles	-10.2577
▁cl	-10.2586
▁served	-10.2592
▁passes	-10.2596
ja	-10.2607
▁scan	-10.2608
▁wasted	-10.2611
▁media	-10.2614
▁ned	-10.2617
▁coughs	-10.262
su	-10.2627
ned	-10.2638
▁fart	-10.2638
▁au	-10.2641
▁che	-10.2646
ada	-10.2655
▁sol	-10.2665
▁cents	-10.2669
▁sins	-10.2673
ru	-10.2689
▁tap	-10.27
▁stands	-10.2704
tre	-10.271
▁ra	-10.2711
▁reveal	-10.2721
▁val	-10.2726
▁boots	-10.2729
▁desire	-10.2731
▁convince	-10.2731
▁servant	-10.2732
▁creature	-10.2734
▁mia	-10.2736
air	-10.2749
▁crystal	-10.275
▁identity	-10.275
▁jersey	-10.275
▁palace	-10.275
▁rattling	-10.275
▁senior	-10.275
▁unusual	-10.275
▁conference	-10.275
▁opposite	-10.275
▁wasting	-10.275
▁reverend	-10.275
▁maggie	-10.275
▁russell	-10.275
▁powder	-10.275
▁paolo	-10.275
▁navy	-10.275
▁daily	-10.275
▁frozen	-10.2751
▁choir	-10.2751
▁jaden	-10.2751
▁kong	-10.2751
▁possession	-10.2751
▁thick	-10.2752
▁broad	-10.2752
▁anita	-10.2752
▁confidence	-10.2752
▁brings	-10.2752
▁gi	-10.2756
▁fully	-10.2758
ue	-10.2758
▁superman	-10.2761
▁ridge	-10.2762
▁mid	-10.2763
▁reasonable	-10.2763
▁wallet	-10.2769
▁math	-10.2775
▁provided	-10.2776
▁confirmed	-10.2778
▁songs	-10.2794
▁leon	-10.2805
▁on	-10.2817
bs	-10.2829
ions	-10.2839
▁gar	-10.2839
▁accepted	-10.2842
▁hop	-10.2844
ls	-10.2854
mer	-10.2857
▁gaz	-10.286
ew	-10.2864
▁ann	-10.2877
▁rec	-10.2884
▁troop	-10.289
▁slim	-10.2933
▁helicopter	-10.2936
▁dial	-10.2941
▁behalf	-10.295
▁creasy	-10.295
▁detroit	-10.295
▁electronic	-10.295
▁revving	-10.295
▁rudder	-10.295
▁tragedy	-10.295
▁warehouse	-10.295
▁argue	-10.295
▁deuce	-10.295
▁whiskey	-10.295
▁jonah	-10.295
▁diane	-10.295
▁cr	-10.2951
▁technology	-10.2951
▁salad	-10.2951
▁doorbell	-10.2952
▁bible	-10.2952
▁norman	-10.2952
▁function	-10.2952
▁task	-10.2953
▁yaya	-10.2961
▁shore	-10.2961
▁moral	-10.2963
▁sighing	-10.2965
▁directly	-10.2967
▁fry	-10.2972
▁down	-10.2974
und	-10.2974
▁managed	-10.2979
▁boxes	-10.2981
▁auto	-10.2987
▁reality	-10.2997
▁earned	-10.3005
▁mor	-10.3005
▁rap	-10.3006
▁considered	-10.3023
▁pad	-10.3032
▁mam	-10.3033
▁rd	-10.3049
jo	-10.3061
▁cleared	-10.3064
▁med	-10.3067
▁crawl	-10.3069
▁sim	-10.3073
▁falcone	-10.308
▁gather	-10.3091
▁blues	-10.3094
▁ar	-10.3095
iest	-10.3101
▁testing	-10.3101
▁bon	-10.3105
▁pushing	-10.3108
▁ap	-10.3109
▁clouds	-10.3111
▁respond	-10.3119
hand	-10.3121
▁confess	-10.3122
▁lap	-10.3123
▁replace	-10.3135
▁jon	-10.3136
▁drag	-10.3137
ette	-10.3139
▁mexican	-10.3143
▁result	-10.3146
▁cruel	-10.3151
▁stones	-10.3152
ge	-10.3152
▁brief	-10.3154
▁agatha	-10.3154
▁bernardo	-10.3154
▁bourne	-10.3154
▁district	-10.3154
▁generous	-10.3154
▁miserable	-10.3154
▁paddington	-10.3154
▁sanchez	-10.3154
▁agency	-10.3154
▁extraordinary	-10.3154
▁escort	-10.3154
▁granny	-10.3154
▁suspicious	-10.3154
▁balance	-10.3154
▁suzanne	-10.3154
▁network	-10.3154
▁dodgeball	-10.3154
▁sauce	-10.3154
▁noble	-10.3155
▁chasing	-10.3155
▁rug	-10.3158
▁booth	-10.3159
▁halfway	-10.316
▁invented	-10.3163
▁justin	-10.3164
▁monsters	-10.3164
▁troops	-10.3166
▁wipe	-10.3167
ber	-10.3171
▁roaring	-10.3171
fa	-10.3172
▁gray	-10.3174
▁blown	-10.3187
▁fr	-10.3204
▁casey	-10.3208
▁nation	-10.3209
▁fed	-10.3248
▁design	-10.3264
▁cable	-10.3272
▁reported	-10.3291
▁teaching	-10.3296
▁stretch	-10.3314
▁remembered	-10.3318
▁dealer	-10.332
down	-10.3326
▁customers	-10.3335
▁measure	-10.3342
▁riders	-10.3343
▁sacrifice	-10.3343
▁noon	-10.3343
▁baker	-10.3347
▁thoughts	-10.3348
▁adam	-10.3358
▁option	-10.3359
▁commit	-10.3359
▁pirate	-10.3359
▁complex	-10.336
▁transfer	-10.3361
▁choking	-10.3362
▁disaster	-10.3362
▁maintain	-10.3362
▁siveth	-10.3362
▁underneath	-10.3362
▁valuable	-10.3362
▁coincidence	-10.3362
▁soze	-10.3362
▁larry	-10.3362
▁ease	-10.3362
▁tryin	-10.3362
▁shining	-10.3362
▁auction	-10.3363
▁unknown	-10.3363
▁performance	-10.3363
▁shane	-10.3363
▁slipped	-10.3363
▁chapter	-10.3363
▁toby	-10.3363
▁cassie	-10.3364
▁generation	-10.3365
▁franklin	-10.3369
▁ir	-10.3375
▁specific	-10.3383
▁straighten	-10.3386
▁lois	-10.3387
▁chewing	-10.3394
▁instructions	-10.3397
▁psycho	-10.3403
▁bills	-10.3413
▁minds	-10.3418
ging	-10.3421
▁backup	-10.3424
▁swat	-10.3434
lock	-10.3437
▁mel	-10.3442
▁systems	-10.3452
▁mer	-10.3458
▁leo	-10.3464
gh	-10.3478
▁crimes	-10.3478
▁pushed	-10.3499
▁bend	-10.3507
▁tars	-10.3509
cho	-10.3517
▁blocks	-10.3518
▁skills	-10.3527
lie	-10.3528
▁offering	-10.3537
▁bug	-10.3549
▁attend	-10.3551
▁tricks	-10.3554
just	-10.3561
▁describe	-10.3563
▁locker	-10.3565
ft	-10.3565
▁me	-10.3566
▁actual	-10.3566
cl	-10.3566
▁pow	-10.3568
▁clue	-10.3573
▁muscle	-10.3574
▁abigail	-10.3575
▁greyhound	-10.3575
▁judah	-10.3575
▁modern	-10.3575
▁murray	-10.3575
▁nephew	-10.3575
▁surrounded	-10.3575
▁wendy	-10.3575
▁wonka	-10.3575
▁kathy	-10.3575
▁spook	-10.3575
▁source	-10.3575
▁riff	-10.3575
▁legend	-10.3575
▁delta	-10.3576
▁scrap	-10.3576
▁neighbor	-10.3576
▁sis	-10.3576
▁neil	-10.3576
▁tool	-10.3577
▁francisco	-10.3578
▁russ	-10.3579
▁host	-10.3581
▁hoover	-10.3581
▁clay	-10.3583
▁reverse	-10.3584
▁china	-10.3586
▁alan	-10.3586
▁bun	-10.3587
▁fredo	-10.359
▁ac	-10.3592
▁homework	-10.3592
▁quote	-10.3592
▁marks	-10.3596
▁hundreds	-10.3596
▁tube	-10.3597
▁naturally	-10.3599
▁latest	-10.3601
ure	-10.3602
▁landing	-10.3604
▁hup	-10.363
▁gut	-10.3639
▁pops	-10.364
▁cooking	-10.3657
▁cheat	-10.3663
▁treated	-10.3663
▁tara	-10.3667
ade	-10.3678
▁steph	-10.3685
▁tag	-10.3685
my	-10.3689
▁raid	-10.369
▁at	-10.3694
▁secrets	-10.3703
▁changes	-10.3704
ets	-10.3707
▁ty	-10.3716
ang	-10.3718
▁perform	-10.3729
▁pace	-10.3733
▁ending	-10.376
▁demand	-10.3761
▁abandon	-10.3764
▁click	-10.3765
▁recording	-10.3779
▁tools	-10.379
▁transport	-10.3791
▁loyal	-10.3791
▁permit	-10.3791
▁automated	-10.3792
▁convoy	-10.3792
▁lorraine	-10.3792
▁offense	-10.3792
▁caesar	-10.3792
▁magnificent	-10.3792
▁cliff	-10.3792
▁solution	-10.3792
▁kidnapped	-10.3792
▁andrew	-10.3793
▁conlon	-10.3793
▁bobble	-10.3794
▁begging	-10.3794
▁rosie	-10.3794
▁passport	-10.3794
▁pirates	-10.3795
▁terrorist	-10.3797
▁vow	-10.3797
▁technically	-10.3797
▁events	-10.3798
▁personality	-10.3801
▁parent	-10.3801
▁bump	-10.3804
▁officially	-10.3808
▁bars	-10.3811
▁halt	-10.3813
▁fleet	-10.3819
▁prayer	-10.3826
▁bombs	-10.3828
nd	-10.3836
▁ph	-10.3839
▁nash	-10.3839
▁suffering	-10.3842
▁suspects	-10.3843
▁washed	-10.3854
rt	-10.3858
▁nos	-10.3864
▁members	-10.3865
▁tits	-10.3873
▁odds	-10.3881
▁tc	-10.3884
▁ol	-10.3885
▁musician	-10.3891
▁inter	-10.3893
▁you	-10.39
ator	-10.3912
▁whistles	-10.3918
▁rooms	-10.3926
▁houses	-10.3945
▁hoo	-10.3959
▁photograph	-10.3962
cu	-10.3963
▁laws	-10.3975
▁spending	-10.3977
room	-10.3983
▁mon	-10.3984
▁com	-10.3984
▁checks	-10.3985
▁lean	-10.3988
▁hunter	-10.3989
▁protecting	-10.3991
▁chino	-10.3991
▁advance	-10.3996
▁recommend	-10.4013
▁revolution	-10.4014
▁balboa	-10.4014
▁brooklyn	-10.4014
▁commercial	-10.4014
▁cruz	-10.4014
▁desalvo	-10.4014
▁frankenstein	-10.4014
▁guinea	-10.4014
▁monroe	-10.4014
▁paradise	-10.4014
▁reputation	-10.4014
▁shelter	-10.4014
▁umbrella	-10.4014
▁sunshine	-10.4014
▁wives	-10.4014
▁turkey	-10.4015
▁dagger	-10.4015
▁salute	-10.4015
▁signature	-10.4015
▁steam	-10.4016
▁defendant	-10.4016
▁web	-10.4016
▁poop	-10.4016
▁peak	-10.4016
▁jeanne	-10.4017
▁merely	-10.4017
▁impression	-10.4017
▁indian	-10.4018
▁grid	-10.4019
▁cries	-10.4019
▁nicole	-10.4021
▁ballet	-10.4022
▁magazine	-10.4022
▁toward	-10.4027
▁rabbit	-10.4028
▁whooping	-10.4029
▁tan	-10.4032
▁yea	-10.4032
▁string	-10.4033
▁marine	-10.4033
▁trapped	-10.4035
▁baron	-10.4037
stone	-10.4038
▁pile	-10.4041
▁banks	-10.4054
▁nora	-10.4057
▁min	-10.4066
▁remains	-10.4076
gi	-10.4089
▁squeeze	-10.4092
▁ew	-10.4098
aw	-10.4119
▁ghosts	-10.413
ack	-10.4146
ven	-10.4164
▁jumped	-10.4169
▁chin	-10.4172
▁joined	-10.4174
ile	-10.4194
▁lit	-10.42
▁toe	-10.4204
▁cancel	-10.4212
▁br	-10.4212
▁twist	-10.4219
▁chew	-10.422
▁squeal	-10.422
▁grunt	-10.4226
▁landed	-10.4228
▁limit	-10.4228
▁emotional	-10.4233
ub	-10.4236
▁civil	-10.4237
▁education	-10.4237
▁alcohol	-10.4239
▁arguing	-10.4242
▁buffalo	-10.4242
▁cassandra	-10.4242
▁facility	-10.4242
▁fifteen	-10.4242
▁financial	-10.4242
▁kristoff	-10.4242
▁reckon	-10.4242
▁sherlock	-10.4242
▁skull	-10.4242
▁soviet	-10.4242
▁yknow	-10.4242
▁smiling	-10.4242
▁peanut	-10.4242
▁clementine	-10.4242
▁principal	-10.4242
▁repair	-10.4242
▁internet	-10.4242
▁marcus	-10.4242
▁bailey	-10.4242
▁goose	-10.4243
▁reese	-10.4243
▁skinny	-10.4243
▁angle	-10.4245
ito	-10.4245
▁dropping	-10.4246
▁ability	-10.425
▁experiment	-10.425
▁frightened	-10.425
▁fried	-10.4251
▁comment	-10.4257
▁blade	-10.4258
▁engaged	-10.4259
▁mc	-10.4261
▁arab	-10.4262
▁tris	-10.4263
▁connected	-10.4265
▁abandoned	-10.4271
▁core	-10.4272
ei	-10.4275
▁mustnt	-10.4277
▁settled	-10.4284
▁til	-10.4286
▁billion	-10.4289
ron	-10.429
▁warned	-10.429
▁policeman	-10.4296
▁greater	-10.4297
▁delivered	-10.4298
▁ee	-10.4318
▁charged	-10.4326
▁ram	-10.4328
▁corpse	-10.4329
▁smaller	-10.4329
▁va	-10.4339
▁everyones	-10.4348
▁cart	-10.435
chi	-10.4354
▁cigarettes	-10.4355
▁safely	-10.4366
▁tracking	-10.437
nie	-10.4371
▁slams	-10.4376
▁agents	-10.4384
▁parked	-10.4391
▁sum	-10.4395
▁thinkin	-10.4443
boy	-10.4448
▁taik	-10.4452
▁begins	-10.4464
▁sexual	-10.4464
▁tend	-10.4465
▁africa	-10.4468
▁negro	-10.4468
▁haku	-10.4474
▁allison	-10.4474
▁liberty	-10.4474
▁matthew	-10.4474
▁procedure	-10.4474
▁spray	-10.4474
▁survival	-10.4474
▁adele	-10.4474
▁article	-10.4474
▁crisis	-10.4474
▁concert	-10.4474
▁division	-10.4474
▁organization	-10.4474
▁ashamed	-10.4474
▁sacred	-10.4474
▁revs	-10.4474
▁urgent	-10.4474
▁motive	-10.4475
▁review	-10.4475
▁resist	-10.4475
▁nancy	-10.4475
▁jeff	-10.4475
▁formula	-10.4475
▁scum	-10.4475
▁toes	-10.4475
▁championship	-10.4475
▁reaction	-10.4476
▁selfish	-10.4476
▁fence	-10.4477
▁blanket	-10.4478
▁flies	-10.4478
▁fields	-10.4479
▁wore	-10.4479
▁lightning	-10.4479
▁agreement	-10.448
tes	-10.4487
▁witnesses	-10.4488
▁curly	-10.4489
▁troy	-10.449
▁hail	-10.4492
▁creatures	-10.4493
▁properly	-10.4495
▁phones	-10.4496
▁villain	-10.4496
▁marian	-10.4497
▁lick	-10.4499
▁nap	-10.4503
port	-10.4508
▁damned	-10.4513
▁finds	-10.4519
▁mann	-10.452
hu	-10.4542
▁dragons	-10.457
▁von	-10.4571
▁trucks	-10.4574
▁barks	-10.4579
▁packed	-10.4586
▁hack	-10.4587
▁luce	-10.4598
▁forty	-10.4598
▁ze	-10.4599
hole	-10.4599
▁fighters	-10.4614
▁strangers	-10.4619
▁dings	-10.462
ire	-10.4638
▁doo	-10.4643
ept	-10.4659
ans	-10.4663
▁jumping	-10.467
▁foi	-10.4672
▁sayin	-10.4675
▁gunshots	-10.4678
▁leak	-10.4679
▁invest	-10.4682
mm	-10.4687
▁cruise	-10.469
▁commission	-10.469
▁engage	-10.4693
▁link	-10.4698
▁holes	-10.47
▁nail	-10.4701
▁app	-10.4704
ming	-10.4707
ava	-10.4711
▁academy	-10.4712
▁mechanic	-10.4712
▁struggle	-10.4712
▁supply	-10.4712
▁typical	-10.4712
▁wagon	-10.4712
▁wouid	-10.4712
▁sweep	-10.4712
▁underwear	-10.4712
▁polite	-10.4713
▁oscar	-10.4713
▁jason	-10.4713
▁medication	-10.4713
agol	-10.4714
▁elsa	-10.4714
▁beef	-10.4715
▁randy	-10.4715
▁dishes	-10.4716
▁thatd	-10.4718
▁pr	-10.4721
▁starling	-10.4721
▁darn	-10.4721
▁hola	-10.4722
▁dating	-10.4722
▁soda	-10.4722
▁tribe	-10.4727
▁taki	-10.473
▁lame	-10.473
▁whale	-10.4731
▁blonde	-10.4732
▁manual	-10.4733
▁native	-10.4734
▁gangster	-10.4739
▁affair	-10.4739
▁mall	-10.474
▁pope	-10.4741
▁erin	-10.4741
▁gl	-10.4742
▁bee	-10.4747
▁deny	-10.4755
▁mixed	-10.4758
▁rage	-10.4762
▁ton	-10.4763
▁devils	-10.4768
▁lala	-10.4778
▁of	-10.4779
ors	-10.4783
▁planes	-10.4783
▁homeless	-10.4785
▁helpful	-10.4786
▁rear	-10.4794
▁bothering	-10.4813
▁considering	-10.4818
▁belly	-10.4826
▁tradition	-10.485
▁frankly	-10.4855
▁wins	-10.4865
▁buck	-10.487
▁idiots	-10.4872
▁drivers	-10.4882
▁my	-10.4882
▁russians	-10.4893
▁heavens	-10.4894
▁flow	-10.49
ctor	-10.4905
▁crossing	-10.4906
▁boyle	-10.4911
▁sc	-10.4915
right	-10.4918
▁bleed	-10.4922
▁des	-10.4925
▁swallow	-10.4927
▁dispatch	-10.4928
▁stink	-10.493
▁tao	-10.4936
▁torture	-10.4938
ix	-10.4939
▁tow	-10.4939
▁log	-10.4944
▁equal	-10.4946
▁occasion	-10.4951
▁anderson	-10.4956
▁corporation	-10.4956
▁despite	-10.4956
▁elizabeth	-10.4956
▁explanation	-10.4956
▁lecter	-10.4956
▁satellite	-10.4956
▁struck	-10.4956
▁violin	-10.4956
▁random	-10.4956
▁pyle	-10.4956
▁western	-10.4956
▁worship	-10.4956
▁authorities	-10.4956
▁sheep	-10.4956
▁stiff	-10.4956
▁statue	-10.4956
▁cotton	-10.4956
▁addition	-10.4956
▁sniffles	-10.4957
▁flew	-10.4957
▁rudy	-10.4957
▁enforcement	-10.4957
▁albert	-10.4957
▁smack	-10.4957
▁resistance	-10.4957
▁broadway	-10.4957
▁fridge	-10.4957
▁loki	-10.4957
▁fletcher	-10.4957
▁mummy	-10.4958
▁construction	-10.4958
▁blah	-10.4959
▁growls	-10.4959
▁diary	-10.4959
▁aqui	-10.4959
▁shout	-10.4959
▁it	-10.4962
▁castro	-10.4962
▁wholl	-10.4964
▁fools	-10.4966
▁retired	-10.4966
▁tries	-10.4967
▁apply	-10.4967
▁betty	-10.4968
▁labor	-10.4975
▁platt	-10.4977
▁gig	-10.4978
▁corps	-10.4979
▁betrayed	-10.4979
▁heroes	-10.4984
▁communist	-10.4987
▁towel	-10.4988
▁shotgun	-10.499
▁wifes	-10.4992
▁gasp	-10.4992
▁delivery	-10.4994
▁hurting	-10.4998
▁customer	-10.5
▁kay	-10.5015
rate	-10.5015
▁ranger	-10.5016
▁painful	-10.5016
kin	-10.5023
▁sire	-10.5051
looking	-10.5067
ak	-10.508
▁tin	-10.5085
ara	-10.5104
bu	-10.5108
au	-10.511
▁thuds	-10.5111
▁opera	-10.5133
▁citizens	-10.5138
▁understanding	-10.514
▁clem	-10.5144
▁rape	-10.5151
ach	-10.5152
ax	-10.5155
▁reporting	-10.5156
▁olive	-10.5162
face	-10.5164
▁wha	-10.517
▁iook	-10.5172
book	-10.5181
▁receive	-10.5182
foot	-10.5189
▁unlike	-10.5198
▁conduct	-10.5199
▁neighbors	-10.5205
▁hawk	-10.5205
▁plot	-10.5205
▁amigo	-10.5206
▁argument	-10.5206
▁companies	-10.5206
▁extend	-10.5206
▁fabulous	-10.5206
▁faggot	-10.5206
▁hannibal	-10.5206
▁hobbes	-10.5206
▁honeymoon	-10.5206
▁intense	-10.5206
▁isabella	-10.5206
▁marmalade	-10.5206
▁marvelous	-10.5206
▁messenger	-10.5206
▁randall	-10.5206
▁sulley	-10.5206
▁undercover	-10.5206
▁wizard	-10.5206
▁wrist	-10.5206
▁distort	-10.5206
▁testify	-10.5206
▁dennis	-10.5206
▁beloved	-10.5206
▁underground	-10.5206
▁minister	-10.5206
▁surgery	-10.5207
▁golf	-10.5207
▁judy	-10.5207
▁simba	-10.5207
▁kidnapping	-10.5207
▁cannon	-10.5208
▁baseball	-10.5208
▁willie	-10.5208
ois	-10.5208
▁praise	-10.521
▁creaking	-10.521
▁root	-10.5213
▁useful	-10.5213
▁willy	-10.5216
lies	-10.5218
▁squeaking	-10.5218
▁worthless	-10.5219
▁active	-10.522
▁preacher	-10.5223
▁burger	-10.5228
▁matty	-10.5235
▁bitter	-10.5236
▁horns	-10.5239
▁fold	-10.5239
▁parties	-10.5241
▁banana	-10.5244
▁scientist	-10.5244
tro	-10.5245
▁shark	-10.5246
▁mighty	-10.5248
▁award	-10.5249
▁missile	-10.5253
wa	-10.5258
▁germany	-10.5259
▁beans	-10.5259
▁tips	-10.5263
let	-10.5268
mon	-10.5269
▁sobs	-10.5273
▁kit	-10.5274
▁angels	-10.5277
ya	-10.5277
▁owl	-10.5283
▁op	-10.5285
▁freaking	-10.5286
▁walks	-10.5288
▁crow	-10.5291
▁chap	-10.5292
ably	-10.5294
car	-10.5309
▁mis	-10.5313
▁tro	-10.5319
▁passengers	-10.5326
▁tub	-10.5331
▁pia	-10.5338
▁stu	-10.534
ora	-10.534
▁lu	-10.5343
▁boats	-10.5347
▁closet	-10.5357
ick	-10.5359
▁hoped	-10.5363
ities	-10.5364
▁laying	-10.5371
▁crossed	-10.5374
▁fires	-10.5386
▁ke	-10.5387
▁breaks	-10.5396
▁insult	-10.5398
▁stab	-10.54
▁shadows	-10.5404
▁enjoyed	-10.5409
▁kissed	-10.5411
▁ga	-10.542
▁joining	-10.5424
mos	-10.5424
▁accounts	-10.5431
▁dime	-10.5431
▁defeat	-10.5434
▁current	-10.5452
▁mag	-10.5453
fucking	-10.5456
▁august	-10.546
▁clip	-10.5462
▁cigar	-10.5462
▁disease	-10.5463
▁gambling	-10.5463
▁laundry	-10.5463
▁purple	-10.5463
▁stream	-10.5463
▁surveillance	-10.5463
▁vaughn	-10.5463
▁gently	-10.5463
▁hyah	-10.5463
▁mordor	-10.5463
▁tattoo	-10.5463
▁otto	-10.5463
▁madeleine	-10.5463
▁facing	-10.5463
▁fireworks	-10.5463
▁kelly	-10.5463
▁humble	-10.5463
▁rotten	-10.5463
▁leonard	-10.5463
▁doobi	-10.5463
▁thieves	-10.5463
▁slice	-10.5464
▁grail	-10.5465
▁childhood	-10.5465
▁raju	-10.5465
▁practically	-10.5465
▁hutch	-10.5466
▁josie	-10.5466
▁chanting	-10.5468
▁josh	-10.5469
▁african	-10.547
▁fuss	-10.5472
▁allen	-10.5474
▁moaning	-10.5476
▁organ	-10.5486
▁convinced	-10.5486
▁butcher	-10.5488
▁sounded	-10.5492
▁tire	-10.5492
▁louise	-10.5492
▁this	-10.5495
▁designed	-10.5498
▁here	-10.55
▁coco	-10.5502
what	-10.5503
res	-10.5504
▁email	-10.5506
▁eaten	-10.5507
val	-10.5507
▁nerve	-10.5508
▁individual	-10.5509
▁beside	-10.5512
▁sets	-10.552
▁diet	-10.5524
▁targets	-10.5528
qui	-10.554
▁stare	-10.556
▁paula	-10.5564
ula	-10.5568
▁wheels	-10.5572
▁gloves	-10.5574
▁lucas	-10.5577
uc	-10.5582
▁wil	-10.5607
▁packing	-10.5612
▁et	-10.5617
▁mat	-10.5618
▁lighter	-10.5619
▁tests	-10.5624
▁answering	-10.5625
▁or	-10.5627
▁brakes	-10.5637
▁tuck	-10.5644
▁heroin	-10.5647
ties	-10.5659
▁rep	-10.5665
▁yay	-10.5669
▁discover	-10.568
▁speakers	-10.5684
▁signs	-10.5688
las	-10.5706
ko	-10.5709
▁potential	-10.5715
▁kissing	-10.5717
▁dreamed	-10.572
▁peaceful	-10.5723
▁plug	-10.5724
▁concentrate	-10.5726
▁dwarf	-10.5726
▁hannah	-10.5726
▁hudson	-10.5726
▁intelligent	-10.5726
▁mycroft	-10.5726
▁patience	-10.5726
▁patterson	-10.5726
▁privacy	-10.5726
▁reynolds	-10.5726
▁throughout	-10.5726
▁coffin	-10.5726
▁clarice	-10.5726
▁droid	-10.5726
▁stamp	-10.5726
▁freezing	-10.5726
▁unique	-10.5726
▁headquarters	-10.5726
▁bugger	-10.5726
▁javi	-10.5726
▁oath	-10.5726
▁whatll	-10.5727
▁zooey	-10.5727
▁paso	-10.5727
▁gondor	-10.5727
▁communication	-10.5727
▁exam	-10.5727
▁bouc	-10.5728
▁drain	-10.5729
▁burst	-10.5729
▁electrical	-10.573
▁kickass	-10.5731
▁vito	-10.5731
▁nico	-10.5732
▁precisely	-10.5732
▁spain	-10.5736
▁currently	-10.5736
▁haul	-10.5738
▁particularly	-10.5743
▁stable	-10.5744
▁fur	-10.5745
▁unable	-10.5745
▁tigers	-10.5765
gie	-10.5765
▁highest	-10.5766
▁mende	-10.5774
▁drives	-10.5775
▁spa	-10.5776
▁assignment	-10.5777
▁tapes	-10.5782
▁folk	-10.5785
▁ham	-10.5789
▁neat	-10.5814
▁sniffs	-10.5823
▁cloud	-10.5832
▁feeding	-10.5847
▁bur	-10.5851
▁aha	-10.5856
▁quarters	-10.5866
▁cubs	-10.5874
two	-10.5882
▁hum	-10.5884
▁musical	-10.5887
▁rider	-10.5904
▁honored	-10.5911
▁und	-10.5911
▁manners	-10.5922
use	-10.5928
▁ele	-10.5929
▁nic	-10.5931
▁niggas	-10.5931
▁messing	-10.5933
▁counts	-10.5938
▁barn	-10.5939
arm	-10.5956
▁bargain	-10.596
row	-10.5961
▁placed	-10.5963
▁lions	-10.5965
▁sur	-10.5966
▁hardin	-10.5966
▁succeed	-10.5967
ied	-10.5977
▁increase	-10.5977
like	-10.5978
▁permanent	-10.5985
▁extreme	-10.5986
▁successful	-10.5988
ov	-10.5988
▁blank	-10.5992
▁council	-10.5993
free	-10.5993
▁novel	-10.5995
▁alfred	-10.5996
▁almighty	-10.5996
▁display	-10.5996
▁divide	-10.5996
▁fountain	-10.5996
▁luggage	-10.5996
▁multiple	-10.5996
▁nineveh	-10.5996
▁rayleen	-10.5996
▁sensitive	-10.5996
▁trinity	-10.5996
▁travis	-10.5996
▁kray	-10.5996
▁rothstein	-10.5996
▁craft	-10.5996
▁phase	-10.5996
▁scumbag	-10.5996
▁quality	-10.5996
▁breast	-10.5996
▁burden	-10.5996
▁overnight	-10.5996
▁sarge	-10.5997
▁winston	-10.5998
▁commitment	-10.5998
▁paperwork	-10.5999
▁attractive	-10.5999
▁weakness	-10.6
▁cabinet	-10.6
▁sack	-10.6
▁obsessed	-10.6001
▁spotted	-10.6002
▁nearby	-10.6002
▁beam	-10.6003
▁marshall	-10.6003
▁passage	-10.6005
▁bush	-10.6007
▁internal	-10.6009
▁nathan	-10.601
▁marie	-10.6011
▁piper	-10.6015
▁dune	-10.6018
▁tale	-10.6022
▁gap	-10.6022
▁chad	-10.603
▁skill	-10.6032
▁ant	-10.6034
▁include	-10.6035
az	-10.6035
▁creep	-10.6037
▁finn	-10.6041
▁carson	-10.6047
▁normally	-10.6056
▁survived	-10.6057
▁howl	-10.6058
▁rebel	-10.6058
▁released	-10.6058
▁lungs	-10.6066
▁granted	-10.6066
▁driven	-10.6069
▁deeper	-10.6078
bel	-10.609
▁coin	-10.6091
▁dee	-10.6094
▁interests	-10.6097
▁kills	-10.6113
▁teachers	-10.6114
▁fore	-10.6115
▁cu	-10.6116
▁lip	-10.6129
▁treating	-10.6132
▁cared	-10.6144
▁ou	-10.6155
▁visiting	-10.6161
▁wi	-10.6166
▁messed	-10.6172
▁ey	-10.6178
▁bu	-10.6195
▁protected	-10.6204
▁connect	-10.6213
▁capital	-10.6224
board	-10.6237
▁roads	-10.6237
▁stress	-10.6245
wood	-10.6245
▁tons	-10.6248
▁whack	-10.6251
▁lively	-10.6252
▁disguise	-10.6255
▁enjoying	-10.6262
▁knee	-10.6263
uck	-10.6267
▁basket	-10.6273
▁draft	-10.6274
▁airplane	-10.6274
▁audrey	-10.6274
▁executive	-10.6274
▁fantasy	-10.6274
▁hiccup	-10.6274
▁invitation	-10.6274
▁length	-10.6274
▁lobster	-10.6274
▁pencil	-10.6274
▁ralph	-10.6274
▁rebecca	-10.6274
▁sanitation	-10.6274
▁spoon	-10.6274
▁southern	-10.6274
▁territory	-10.6274
▁knuckles	-10.6274
▁sauron	-10.6274
▁robbed	-10.6274
▁norton	-10.6274
▁puff	-10.6274
▁purse	-10.6274
▁barnier	-10.6274
▁backwards	-10.6275
▁jewelry	-10.6275
▁elves	-10.6275
▁punishment	-10.6275
▁leap	-10.6275
▁broadcast	-10.6275
▁hahaha	-10.6275
▁ellen	-10.6275
▁surgeon	-10.6275
▁structure	-10.6276
▁chaos	-10.6276
▁scam	-10.6276
▁minor	-10.6276
▁juan	-10.6276
▁humor	-10.6277
▁brooke	-10.6277
▁marshal	-10.6277
▁jaw	-10.6277
▁collection	-10.6278
▁crackling	-10.6278
▁civilian	-10.6279
▁connie	-10.6279
▁poker	-10.628
▁organized	-10.6281
ker	-10.6283
▁erase	-10.6283
▁exclaiming	-10.6284
▁bench	-10.6288
▁ana	-10.6288
▁producer	-10.6289
▁yelps	-10.6296
▁ink	-10.6296
▁bella	-10.6298
▁riot	-10.6299
▁removed	-10.6308
▁fade	-10.6311
▁ricky	-10.6311
▁nate	-10.6312
▁divorced	-10.6314
▁herb	-10.6323
pla	-10.6327
ward	-10.6327
▁drago	-10.6347
▁sock	-10.6349
▁sew	-10.6354
ap	-10.6358
▁bosses	-10.6362
▁beard	-10.6365
▁catching	-10.6371
▁safer	-10.6372
ham	-10.6373
▁reminds	-10.6374
▁inch	-10.6376
▁usa	-10.6377
▁payment	-10.6377
ik	-10.6404
▁pill	-10.6415
▁sheets	-10.6426
▁roars	-10.6427
act	-10.6433
▁assassin	-10.6436
top	-10.6443
▁gr	-10.6443
▁snap	-10.6458
▁yu	-10.6464
▁williams	-10.6465
pen	-10.6472
▁bears	-10.6479
▁socks	-10.6489
▁drown	-10.6496
ative	-10.6499
▁triple	-10.6502
▁makeup	-10.6503
▁boot	-10.6504
▁sharks	-10.6514
▁io	-10.6516
▁lion	-10.652
▁echo	-10.6529
▁spoil	-10.6531
▁hid	-10.6532
▁sch	-10.6534
wise	-10.6534
▁associate	-10.6541
▁guilt	-10.6542
▁ultimate	-10.6549
▁sticking	-10.6549
▁journal	-10.6558
▁douche	-10.6559
▁atlanta	-10.656
▁bounty	-10.656
▁dixon	-10.656
▁dynamite	-10.656
▁eazy	-10.656
▁gravity	-10.656
▁happily	-10.656
▁instance	-10.656
▁jakob	-10.656
▁kahndaq	-10.656
▁monitor	-10.656
▁protocol	-10.656
▁purchase	-10.656
▁reservation	-10.656
▁therefore	-10.656
▁clyde	-10.656
▁constable	-10.656
▁holmes	-10.656
▁hoffa	-10.656
▁protest	-10.656
▁aisle	-10.656
▁duncan	-10.656
▁temperature	-10.656
▁briefcase	-10.656
▁glorious	-10.656
▁vault	-10.656
▁orbit	-10.656
▁raymond	-10.656
▁bacon	-10.656
▁blake	-10.656
▁bingo	-10.656
▁appearance	-10.6561
▁denver	-10.6561
▁flush	-10.6561
▁violation	-10.6561
▁lands	-10.6561
▁celebrating	-10.6563
▁potatoes	-10.6564
▁european	-10.6566
▁pub	-10.6566
▁stepped	-10.6567
▁thou	-10.6567
▁prom	-10.6569
▁taxes	-10.6572
▁wee	-10.6574
▁creepy	-10.6578
▁factor	-10.658
▁assist	-10.6586
▁cia	-10.6587
▁temper	-10.6588
▁kiddo	-10.6591
▁shutter	-10.6592
▁ruby	-10.6594
▁bron	-10.6597
▁cargo	-10.6597
▁momma	-10.66
▁operations	-10.6601
izing	-10.6603
▁pita	-10.6605
▁foundation	-10.6605
▁cheating	-10.6606
▁senor	-10.6607
▁kindness	-10.6609
▁dumped	-10.6629
▁gotcha	-10.6631
▁chamber	-10.6636
▁hostage	-10.6636
▁citizen	-10.6639
▁needle	-10.664
ug	-10.6642
con	-10.6648
izz	-10.6653
▁ri	-10.6656
▁answered	-10.6659
▁timing	-10.6666
▁imagined	-10.6674
▁li	-10.6679
▁flu	-10.6692
▁cal	-10.6698
▁knights	-10.6716
lam	-10.6726
bar	-10.673
▁stations	-10.6736
▁kin	-10.6756
ook	-10.6758
ction	-10.677
▁dive	-10.6772
▁fades	-10.6779
▁hips	-10.6784
▁convention	-10.6785
▁gal	-10.6792
▁buildings	-10.6794
▁jokes	-10.6796
uh	-10.6806
▁deserves	-10.681
▁newspapers	-10.6812
▁stinks	-10.6815
▁boxing	-10.6817
▁temp	-10.6822
▁toll	-10.6824
▁register	-10.6826
▁notes	-10.6828
▁arrange	-10.6834
▁paw	-10.6836
▁custom	-10.6838
ino	-10.6844
▁riva	-10.6845
▁returning	-10.6846
▁not	-10.6847
▁sting	-10.6849
▁terror	-10.6852
▁patch	-10.6853
▁aircraft	-10.6854
▁ambush	-10.6854
▁awkward	-10.6854
▁brandnew	-10.6854
▁breeze	-10.6854
▁destruction	-10.6854
▁enormous	-10.6854
▁iittie	-10.6854
▁industry	-10.6854
▁inmate	-10.6854
▁maneuver	-10.6854
▁nelson	-10.6854
▁paranoid	-10.6854
▁response	-10.6854
▁retreat	-10.6854
▁snack	-10.6854
▁uncomfortable	-10.6854
▁fraud	-10.6854
▁conquer	-10.6854
▁wallace	-10.6854
▁choke	-10.6854
▁greek	-10.6854
▁harold	-10.6854
▁candie	-10.6854
▁medium	-10.6854
▁fleur	-10.6854
▁sunset	-10.6854
▁polish	-10.6854
▁vader	-10.6854
▁foley	-10.6854
▁jedi	-10.6854
▁breach	-10.6855
▁election	-10.6855
▁donna	-10.6855
▁purge	-10.6856
▁hesitate	-10.6856
▁makin	-10.6856
▁swell	-10.6856
▁patty	-10.6856
▁parade	-10.6857
▁plantation	-10.6857
▁hayes	-10.6857
▁bribe	-10.686
▁rex	-10.6861
▁grounds	-10.6863
▁publicity	-10.6864
▁dna	-10.6867
▁greedy	-10.6867
▁obey	-10.6868
▁exhausted	-10.6869
▁bald	-10.687
▁delighted	-10.687
▁takin	-10.6872
▁victoria	-10.6872
ox	-10.6878
▁sharply	-10.6883
ado	-10.689
▁setup	-10.6897
cha	-10.6901
eyed	-10.6923
▁ja	-10.6927
▁lila	-10.6934
▁patients	-10.6934
▁edmund	-10.6936
▁relative	-10.6938
▁document	-10.6939
all	-10.6941
▁greetings	-10.6943
fire	-10.6945
▁degree	-10.6946
lein	-10.6951
▁hans	-10.6955
▁chat	-10.6958
je	-10.6958
▁sucker	-10.699
▁taro	-10.7007
▁guardians	-10.7017
▁cookies	-10.7022
▁dancer	-10.7027
▁sk	-10.703
▁judges	-10.7032
▁manner	-10.7038
▁waves	-10.7042
▁forms	-10.7042
▁requires	-10.7049
▁demons	-10.7056
▁uns	-10.7061
▁fellows	-10.7064
▁hip	-10.708
▁murders	-10.7093
▁gain	-10.7104
▁beasts	-10.7107
▁mist	-10.7111
hood	-10.7119
▁sticks	-10.7126
▁wreck	-10.7127
▁betray	-10.7128
maker	-10.7133
▁wealth	-10.7139
▁immediate	-10.7147
▁orchestra	-10.7151
▁ver	-10.7151
▁branch	-10.7151
▁eject	-10.7155
▁admiral	-10.7156
▁occur	-10.7156
▁confident	-10.7156
▁misunderstand	-10.7157
▁appropriate	-10.7157
▁baggins	-10.7157
▁description	-10.7157
▁globo	-10.7157
▁homicide	-10.7157
▁juvenile	-10.7157
▁melody	-10.7157
▁orleans	-10.7157
▁oswald	-10.7157
▁peculiar	-10.7157
▁penguin	-10.7157
▁possibility	-10.7157
▁profile	-10.7157
▁psychiatrist	-10.7157
▁rehearsal	-10.7157
▁similar	-10.7157
▁sullivan	-10.7157
▁tokyo	-10.7157
▁totoro	-10.7157
▁vengeance	-10.7157
▁wednesday	-10.7157
▁widow	-10.7157
▁appeal	-10.7157
▁gracie	-10.7157
▁sherman	-10.7157
▁activity	-10.7157
▁alicia	-10.7157
▁stabbed	-10.7157
▁actress	-10.7157
▁apology	-10.7157
▁imperial	-10.7157
▁estella	-10.7157
▁adrian	-10.7157
▁museum	-10.7157
▁whys	-10.7157
▁colorado	-10.7158
▁halloween	-10.7158
▁olaf	-10.7158
▁kara	-10.7158
▁loyalty	-10.7158
▁caii	-10.7159
▁maddie	-10.7159
▁severe	-10.7159
▁benji	-10.7159
▁investment	-10.7159
▁dentist	-10.716
▁owned	-10.716
▁satisfied	-10.716
▁romance	-10.7161
▁clattering	-10.7162
▁giuseppe	-10.7162
▁oui	-10.7162
▁fond	-10.7162
▁fries	-10.7162
▁upper	-10.7163
▁devon	-10.7164
▁treatment	-10.7164
▁stroke	-10.7165
▁delay	-10.7166
▁verbal	-10.7166
▁husbands	-10.7168
▁hitler	-10.7168
▁hong	-10.717
▁drone	-10.7171
▁tech	-10.7173
▁classic	-10.7173
▁comp	-10.7174
▁uhuh	-10.7174
▁tempo	-10.7176
▁quest	-10.7178
▁sixth	-10.7184
▁consequences	-10.7187
ria	-10.7191
▁ages	-10.7194
▁rode	-10.7195
▁murphy	-10.7199
▁introduced	-10.7203
▁thee	-10.7206
▁zip	-10.7206
▁loudly	-10.7206
▁brat	-10.7209
ord	-10.7211
▁wicked	-10.7212
▁honks	-10.7228
▁res	-10.7231
▁meantime	-10.7235
▁soo	-10.7237
▁coordinates	-10.7243
▁lend	-10.7249
han	-10.7252
ute	-10.7258
▁orcs	-10.7263
▁wishes	-10.7267
▁pretending	-10.7271
zo	-10.7277
▁jamies	-10.7281
▁asset	-10.7289
▁hobbits	-10.7299
▁cor	-10.73
▁feelin	-10.7301
▁frances	-10.7303
▁ter	-10.7308
can	-10.7308
▁ser	-10.7317
▁initial	-10.734
▁cousins	-10.734
▁hairy	-10.7352
▁computers	-10.7354
▁bello	-10.7363
▁bb	-10.7367
▁int	-10.7369
▁the	-10.7371
▁handed	-10.7374
tch	-10.738
▁les	-10.7383
▁affect	-10.7394
▁queens	-10.7406
▁heal	-10.7413
▁sales	-10.7417
mark	-10.7442
▁mil	-10.7443
▁rag	-10.7449
▁approve	-10.7454
▁absolute	-10.7459
▁electric	-10.7463
▁script	-10.7469
▁accurate	-10.7469
▁anxious	-10.7469
▁cackling	-10.7469
▁conflict	-10.7469
▁cortez	-10.7469
▁crawford	-10.7469
▁dibble	-10.7469
▁disagree	-10.7469
▁fortunate	-10.7469
▁inaudible	-10.7469
▁influence	-10.7469
▁jennifer	-10.7469
▁kludd	-10.7469
▁shouid	-10.7469
▁spencer	-10.7469
▁struggling	-10.7469
▁thread	-10.7469
▁wagner	-10.7469
▁bishop	-10.7469
▁chancellor	-10.7469
▁pleasant	-10.7469
▁sixteen	-10.7469
▁hollow	-10.7469
▁impact	-10.7469
▁jerem	-10.7469
▁whining	-10.7469
▁balloon	-10.7469
▁beneath	-10.7469
▁application	-10.7469
▁locksley	-10.7469
▁parole	-10.7469
▁investigating	-10.7469
▁studied	-10.7469
▁bubble	-10.7469
▁behave	-10.7469
▁cocktail	-10.7469
▁kilo	-10.747
▁assistance	-10.747
▁slap	-10.747
▁denied	-10.747
▁propose	-10.747
▁species	-10.747
▁entertainment	-10.747
▁jurisdiction	-10.747
▁harrison	-10.7471
▁rising	-10.7471
▁wiii	-10.7471
away	-10.7471
▁cherry	-10.7471
▁altitude	-10.7471
▁culture	-10.7473
▁youse	-10.7473
▁virginie	-10.7474
▁bait	-10.7474
▁speck	-10.7474
▁foolish	-10.7475
▁expression	-10.7475
▁glen	-10.7476
▁katie	-10.7478
▁jesse	-10.7478
▁mack	-10.7478
▁impress	-10.7479
▁brass	-10.7479
▁onion	-10.7482
▁ark	-10.7483
▁deaf	-10.7483
▁fitz	-10.7483
▁feds	-10.7484
▁sniper	-10.7485
▁mayday	-10.7485
▁rv	-10.7486
▁liesl	-10.7489
ice	-10.7491
▁threatened	-10.7491
▁serving	-10.7492
ians	-10.7492
▁lamp	-10.7495
▁tellin	-10.7497
▁casa	-10.75
▁talks	-10.7501
▁quid	-10.7501
▁herr	-10.7502
▁limited	-10.7508
pan	-10.7511
▁tomb	-10.7511
▁oughta	-10.7512
▁stinking	-10.7513
▁shave	-10.7515
▁ru	-10.7515
▁qui	-10.7519
▁abuse	-10.7522
▁lawn	-10.7527
▁neb	-10.7528
▁promises	-10.7532
▁depend	-10.7538
▁deserved	-10.7547
ain	-10.7552
▁pulse	-10.7553
▁armor	-10.7554
▁requested	-10.7556
▁focused	-10.7557
▁howdy	-10.7557
▁operate	-10.7558
▁ducks	-10.7558
▁pap	-10.7562
▁lamb	-10.757
▁compliment	-10.7574
▁worm	-10.7574
▁guessing	-10.7576
▁dip	-10.7577
▁brake	-10.7577
▁smarter	-10.7582
▁workers	-10.7584
▁explosives	-10.7585
▁belonged	-10.759
▁drum	-10.76
▁pens	-10.7602
▁sheriffs	-10.7611
▁presents	-10.7619
▁lessons	-10.7635
▁and	-10.7649
▁shove	-10.7649
▁who	-10.765
▁ent	-10.7654
▁jewels	-10.7663
ame	-10.7667
▁losers	-10.7672
ester	-10.7676
▁watches	-10.7677
▁shown	-10.7685
▁reporters	-10.7686
▁kicking	-10.7695
▁boarding	-10.7698
ney	-10.7701
bit	-10.7708
▁bounce	-10.7722
▁ob	-10.7724
old	-10.7724
▁fo	-10.7725
▁shawn	-10.7728
▁disturb	-10.7728
▁boil	-10.7733
fuck	-10.7736
▁missiles	-10.7741
▁recover	-10.7747
▁can	-10.7747
▁clan	-10.7752
▁costs	-10.7752
▁regard	-10.7757
▁peel	-10.7757
▁speaker	-10.7757
light	-10.7759
▁workin	-10.776
▁ditch	-10.7763
▁pour	-10.7765
three	-10.7767
▁float	-10.7769
▁blades	-10.7769
▁compete	-10.778
▁era	-10.7781
▁ag	-10.7781
▁steer	-10.7781
▁tw	-10.7783
▁roy	-10.7785
▁eleven	-10.7791
▁trapp	-10.7791
▁vietnam	-10.7792
▁amsterdam	-10.7792
▁bilbo	-10.7792
▁dignity	-10.7792
▁divine	-10.7792
▁fremen	-10.7792
▁gabriel	-10.7792
▁harvard	-10.7792
▁klaus	-10.7792
▁manhattan	-10.7792
▁maverick	-10.7792
▁mcfly	-10.7792
▁moscow	-10.7792
▁naughty	-10.7792
▁primary	-10.7792
▁purrbles	-10.7792
▁savage	-10.7792
▁sinclair	-10.7792
▁swamp	-10.7792
▁taehun	-10.7792
▁technique	-10.7792
▁tournament	-10.7792
▁transmission	-10.7792
▁froggy	-10.7792
▁preparing	-10.7792
▁muttering	-10.7792
▁narcotics	-10.7792
▁swiss	-10.7792
▁telegram	-10.7792
▁headache	-10.7792
▁darius	-10.7792
▁temporary	-10.7792
▁bracelet	-10.7792
▁religion	-10.7792
▁whew	-10.7792
▁piease	-10.7792
▁unhappy	-10.7793
▁transferred	-10.7793
▁lousy	-10.7793
▁edward	-10.7793
▁existence	-10.7793
▁injured	-10.7793
▁latin	-10.7793
▁subway	-10.7794
▁helmet	-10.7794
▁digging	-10.7794
▁sector	-10.7795
▁trent	-10.7795
▁pension	-10.7795
▁porch	-10.7795
▁wax	-10.7795
▁static	-10.7795
▁rack	-10.7795
▁aa	-10.7796
▁unlock	-10.7796
▁appetite	-10.7797
▁inches	-10.7799
▁wrapped	-10.7799
▁skies	-10.78
▁riddler	-10.78
▁determined	-10.7801
▁marla	-10.7801
▁jung	-10.7803
▁inner	-10.7804
▁limo	-10.7805
▁dover	-10.7806
▁coal	-10.7812
▁accused	-10.7813
▁ticking	-10.7815
▁mmmm	-10.7817
▁replaced	-10.7821
arious	-10.7823
▁stake	-10.7823
▁goodnight	-10.7825
▁troubles	-10.7835
unk	-10.7839
▁represent	-10.7839
▁informed	-10.784
▁evey	-10.7842
▁classes	-10.7846
▁oops	-10.7846
pie	-10.7856
▁defending	-10.7863
some	-10.7868
▁entered	-10.7873
▁romans	-10.7874
▁aliens	-10.7877
▁shitty	-10.7878
▁snaps	-10.7882
▁require	-10.789
▁nd	-10.789
▁wanting	-10.7894
▁painted	-10.7896
▁lin	-10.7903
▁prints	-10.7903
wn	-10.7907
▁whoops	-10.7912
ux	-10.7916
▁cases	-10.7931
▁pork	-10.7942
▁conditions	-10.7952
▁farmer	-10.7955
▁wounds	-10.7956
pping	-10.7979
▁camel	-10.7987
lia	-10.8008
▁comb	-10.8011
▁explained	-10.8013
▁owes	-10.8021
wing	-10.8025
ich	-10.8026
▁choices	-10.8029
nder	-10.8038
▁geez	-10.8038
▁suite	-10.808
ible	-10.8106
▁doom	-10.8106
▁cheek	-10.8107
stand	-10.8108
▁unfortunate	-10.8115
▁remote	-10.8116
▁weep	-10.8117
▁rhythm	-10.8122
▁poke	-10.8124
▁tooth	-10.8125
▁afterwards	-10.8125
▁album	-10.8125
▁atlantic	-10.8125
▁believing	-10.8125
▁descend	-10.8125
▁eternal	-10.8125
▁godfather	-10.8125
▁groove	-10.8125
▁independent	-10.8125
▁milady	-10.8125
▁perimeter	-10.8125
▁rainbow	-10.8125
▁unexpected	-10.8125
▁wisdom	-10.8125
▁darien	-10.8125
▁grief	-10.8125
▁leather	-10.8125
▁roulet	-10.8125
▁sionis	-10.8125
▁stacy	-10.8125
▁turtle	-10.8125
▁astro	-10.8125
▁error	-10.8125
▁ramona	-10.8125
▁lazy	-10.8125
▁jenny	-10.8125
▁civilization	-10.8125
▁mildred	-10.8125
▁laurie	-10.8125
▁shrink	-10.8125
▁bronx	-10.8126
▁burke	-10.8126
▁eerie	-10.8126
▁blink	-10.8126
▁wilson	-10.8126
▁ruthless	-10.8126
▁rebound	-10.8126
▁shaking	-10.8126
▁compton	-10.8126
▁lobby	-10.8127
▁biff	-10.8127
▁elliott	-10.8128
▁frog	-10.8128
▁shire	-10.8128
▁dimension	-10.8128
▁begun	-10.8128
▁soil	-10.8129
▁angeline	-10.8129
▁thirsty	-10.813
▁finishing	-10.813
▁temple	-10.813
▁bugs	-10.813
▁exists	-10.8131
▁options	-10.8131
▁dante	-10.8134
▁nba	-10.8134
ppy	-10.8136
▁results	-10.8139
▁bowers	-10.8139
▁annoying	-10.8142
▁thumping	-10.8142
▁pacific	-10.8143
▁required	-10.8144
▁nearest	-10.8144
▁arranged	-10.8146
▁witches	-10.8147
▁clothing	-10.8148
▁ahem	-10.8151
▁bent	-10.8155
▁ce	-10.8156
▁ven	-10.8156
▁bunk	-10.8157
▁peregrine	-10.8161
▁endless	-10.8166
▁cole	-10.8172
▁supplies	-10.8173
▁cursed	-10.8174
▁shoulders	-10.8176
▁refused	-10.8176
▁hellno	-10.8182
▁clowns	-10.8183
▁ec	-10.8187
▁louder	-10.8189
▁suffered	-10.819
▁gin	-10.8191
▁collecting	-10.8197
▁rides	-10.8199
▁hardest	-10.8199
▁drops	-10.8202
▁exclaims	-10.8204
▁completed	-10.8213
nce	-10.8219
▁loading	-10.8243
sse	-10.8244
▁falcon	-10.8248
▁conn	-10.8249
▁sausage	-10.825
▁barrel	-10.8251
▁waiter	-10.8251
▁hells	-10.8252
▁listened	-10.8252
▁lapd	-10.8253
▁thud	-10.8253
cat	-10.8254
die	-10.8258
▁bolt	-10.8264
▁term	-10.8266
▁positions	-10.8266
▁dicky	-10.8273
▁searched	-10.8289
thorn	-10.8295
nc	-10.831
▁killers	-10.8313
▁shields	-10.8317
ery	-10.8323
well	-10.8329
▁lookout	-10.8337
▁don	-10.8342
berg	-10.8346
▁worthy	-10.8346
she	-10.8361
ese	-10.8361
▁gene	-10.8367
▁vern	-10.8372
▁groups	-10.8386
▁hump	-10.8386
▁recorded	-10.8394
▁pla	-10.8394
ister	-10.8396
ui	-10.84
▁recruit	-10.8405
▁nu	-10.8414
▁winds	-10.8428
▁admire	-10.8436
▁rosa	-10.8436
water	-10.8438
▁actions	-10.8443
▁vanish	-10.8445
weight	-10.8447
phone	-10.8449
▁concept	-10.8452
▁dimitr	-10.8466
▁motherfuckin	-10.8466
▁livin	-10.8466
▁grocer	-10.8468
▁julie	-10.8469
nch	-10.8469
▁aggressive	-10.847
▁alabama	-10.847
▁anonymous	-10.847
▁apologies	-10.847
▁april	-10.847
▁atreides	-10.847
▁autograph	-10.847
▁belief	-10.847
▁catherine	-10.847
▁curtis	-10.847
▁destination	-10.847
▁fontaine	-10.847
▁furniture	-10.847
▁ghetto	-10.847
▁horizon	-10.847
▁horror	-10.847
▁jessica	-10.847
▁johanna	-10.847
▁lincoln	-10.847
▁liquor	-10.847
▁marsellus	-10.847
▁mathilda	-10.847
▁observation	-10.847
▁oconnor	-10.847
▁receipt	-10.847
▁snoring	-10.847
▁sophie	-10.847
▁stammers	-10.847
▁strickland	-10.847
▁strict	-10.847
▁bollocks	-10.847
▁dolphin	-10.847
▁gracias	-10.847
▁personnel	-10.847
▁eastern	-10.847
▁stewart	-10.847
▁rookie	-10.847
▁decade	-10.847
▁jelly	-10.847
▁tutsi	-10.847
▁skirt	-10.847
▁vicious	-10.847
▁aaah	-10.847
▁corrie	-10.847
▁festival	-10.8471
▁scheme	-10.8471
▁spock	-10.8471
▁hush	-10.8471
▁griffin	-10.8471
▁basis	-10.8472
▁arno	-10.8472
▁toad	-10.8472
▁kali	-10.8472
▁version	-10.8473
▁unload	-10.8473
▁quinn	-10.8473
▁barber	-10.8473
▁betsie	-10.8473
▁axel	-10.8474
▁management	-10.8475
▁production	-10.8475
▁accountant	-10.8475
▁prayers	-10.8475
▁raw	-10.8475
▁poem	-10.8476
▁aldo	-10.8479
▁sosa	-10.8479
▁grows	-10.8479
▁alma	-10.8481
▁marina	-10.8481
▁discussion	-10.8481
▁madness	-10.8483
▁deland	-10.8484
▁seventh	-10.8485
▁adopted	-10.8489
▁cried	-10.849
ake	-10.8492
▁hee	-10.8493
▁challenger	-10.8494
▁je	-10.8494
▁maniac	-10.8494
▁tender	-10.8497
▁hiya	-10.85
▁thus	-10.8502
▁arrives	-10.8508
▁ie	-10.851
▁bare	-10.8512
▁coma	-10.8517
▁hah	-10.8521
▁burnt	-10.8524
▁fights	-10.8525
▁clap	-10.8529
▁disco	-10.853
▁stays	-10.8532
▁hutu	-10.8532
▁lex	-10.8534
▁bottles	-10.8535
▁trailer	-10.8543
our	-10.855
▁bets	-10.8556
▁vehicles	-10.8558
▁bla	-10.8565
▁jr	-10.8571
▁ber	-10.8574
▁cooperate	-10.8578
▁waters	-10.858
▁millers	-10.8584
▁twins	-10.8591
▁ding	-10.8592
▁crashing	-10.8594
▁kinds	-10.8604
▁intention	-10.861
▁height	-10.861
▁jewel	-10.8613
▁bl	-10.8616
▁jin	-10.8621
ev	-10.8644
▁officials	-10.8646
▁environment	-10.866
▁wo	-10.8663
▁nazis	-10.8668
ory	-10.8675
▁goat	-10.868
▁lovers	-10.8683
win	-10.8686
▁talents	-10.8701
▁ge	-10.8717
▁gen	-10.8719
oi	-10.8719
ath	-10.872
▁uhh	-10.8723
▁dea	-10.873
▁del	-10.8753
▁rank	-10.8757
▁moe	-10.876
▁cent	-10.877
shit	-10.8777
▁jad	-10.8783
▁surf	-10.8784
▁exc	-10.879
▁intercept	-10.8797
▁nails	-10.8798
school	-10.8802
box	-10.8806
▁hustle	-10.8808
▁zoom	-10.8809
▁graduate	-10.881
▁barrie	-10.881
▁attacking	-10.881
▁indians	-10.8811
▁bert	-10.8811
▁coop	-10.8811
its	-10.8814
▁incredibl	-10.8816
▁mert	-10.882
▁superhero	-10.8821
▁counsel	-10.8823
▁skip	-10.8824
▁ellis	-10.8824
▁wander	-10.8824
▁prevent	-10.8825
▁contest	-10.8826
▁drama	-10.8826
▁aragorn	-10.8827
▁bernstein	-10.8827
▁centuries	-10.8827
▁chemical	-10.8827
▁colleague	-10.8827
▁couid	-10.8827
▁december	-10.8827
▁divergent	-10.8827
▁einstein	-10.8827
▁exclusive	-10.8827
▁galaxy	-10.8827
▁horace	-10.8827
▁knives	-10.8827
▁lunatic	-10.8827
▁mortgage	-10.8827
▁mtumbie	-10.8827
▁nixon	-10.8827
▁precrime	-10.8827
▁rosebud	-10.8827
▁skywalker	-10.8827
▁strategy	-10.8827
▁sunrise	-10.8827
▁tremendous	-10.8827
▁worries	-10.8827
▁juicy	-10.8827
▁stubborn	-10.8827
▁roast	-10.8827
▁session	-10.8827
▁vital	-10.8827
▁buddies	-10.8827
▁stevie	-10.8827
▁stallworth	-10.8827
▁narrow	-10.8827
▁carpet	-10.8827
▁picnic	-10.8827
▁creating	-10.8827
▁davis	-10.8827
▁naomi	-10.8827
▁alexander	-10.8827
▁celebration	-10.8827
▁binky	-10.8827
▁popcorn	-10.8827
▁proposition	-10.8828
▁adorable	-10.8828
▁perkins	-10.8828
▁susu	-10.8828
▁ferry	-10.8828
▁grabbed	-10.8828
▁bobblehead	-10.8828
▁elwood	-10.8828
▁templeton	-10.8828
▁announcement	-10.8829
▁greg	-10.8829
▁classified	-10.8829
▁beings	-10.8829
▁lockdown	-10.883
▁tuna	-10.8831
▁pearl	-10.8831
▁racket	-10.8832
▁farhan	-10.8832
▁xu	-10.8833
▁roth	-10.8834
▁dedicated	-10.8834
▁collar	-10.8835
ised	-10.8837
▁hallway	-10.8837
▁inspired	-10.8838
▁airline	-10.8838
▁sore	-10.8839
▁haunted	-10.8843
▁captured	-10.8843
▁gil	-10.8848
▁merci	-10.885
▁snakes	-10.8856
▁brutal	-10.8856
▁vanished	-10.8857
▁highness	-10.8857
▁kg	-10.8858
▁mona	-10.8858
▁disturbed	-10.8859
▁registered	-10.8862
▁solved	-10.8862
▁forgetting	-10.8863
▁ku	-10.8865
▁herd	-10.8869
▁dresses	-10.887
▁nailed	-10.8872
ran	-10.8872
▁mistaken	-10.8879
pper	-10.8893
▁photographer	-10.8894
vel	-10.8895
▁sealed	-10.8896
▁slaves	-10.8898
ez	-10.8901
▁burns	-10.8901
▁lara	-10.8905
▁tickle	-10.8905
▁hu	-10.8909
▁trooper	-10.8912
▁businessman	-10.8925
ified	-10.8929
▁ash	-10.8935
▁weigh	-10.8936
▁mini	-10.8937
▁honesty	-10.8948
▁mode	-10.8959
▁rumors	-10.8968
▁fist	-10.897
▁ski	-10.8977
▁item	-10.898
▁slam	-10.8986
ck	-10.8986
▁deals	-10.8988
▁ohio	-10.9002
▁dates	-10.9005
▁germans	-10.9007
▁uma	-10.901
▁trains	-10.9014
▁bombing	-10.9014
pre	-10.9019
▁seeking	-10.902
▁colors	-10.902
▁claims	-10.9023
▁drawer	-10.9027
▁gag	-10.9028
▁warriors	-10.9033
▁shares	-10.9034
ram	-10.904
eck	-10.9043
▁timeout	-10.905
▁nicely	-10.9056
▁meters	-10.9063
▁ape	-10.9066
▁char	-10.9072
▁sides	-10.9074
▁robots	-10.9078
▁worker	-10.9088
gun	-10.9095
▁raining	-10.9099
▁gifts	-10.9102
▁dancers	-10.9111
bag	-10.9116
▁menu	-10.9116
▁stat	-10.9121
▁prep	-10.9122
ido	-10.9124
ong	-10.9126
▁naive	-10.9126
▁cue	-10.9127
▁wondered	-10.914
▁travels	-10.914
▁comm	-10.9142
▁disrespect	-10.9161
▁blond	-10.9165
called	-10.9167
▁condo	-10.9169
ight	-10.917
▁spill	-10.9171
load	-10.9171
mouth	-10.9172
▁rigg	-10.9181
▁constant	-10.9187
▁waitress	-10.9192
▁institution	-10.9193
▁vain	-10.9194
▁grease	-10.9196
▁alliance	-10.9197
▁amateur	-10.9197
▁anyhow	-10.9197
▁arizona	-10.9197
▁arrival	-10.9197
▁attached	-10.9197
▁beverly	-10.9197
▁burchard	-10.9197
▁conspiracy	-10.9197
▁curtain	-10.9197
▁dolores	-10.9197
▁eudoria	-10.9197
▁global	-10.9197
▁hamilton	-10.9197
▁hanratty	-10.9197
▁identify	-10.9197
▁kansas	-10.9197
▁lieberman	-10.9197
▁lifeguard	-10.9197
▁montoya	-10.9197
▁negotiate	-10.9197
▁october	-10.9197
▁proposal	-10.9197
▁reliable	-10.9197
▁relief	-10.9197
▁tragic	-10.9197
▁trousers	-10.9197
▁vomit	-10.9197
▁willow	-10.9197
▁incoming	-10.9197
▁reckless	-10.9197
▁stereo	-10.9197
▁phillip	-10.9197
▁clerk	-10.9197
▁courtesy	-10.9198
▁reference	-10.9198
▁turkish	-10.9198
▁akim	-10.9198
▁flare	-10.9198
▁hissing	-10.9198
▁blend	-10.9198
▁muito	-10.9198
▁batteries	-10.9199
▁prior	-10.9199
▁pierre	-10.9199
▁entry	-10.9199
▁crop	-10.9199
▁haircut	-10.9199
▁pumpkin	-10.92
▁noah	-10.92
▁brace	-10.92
▁rhythmic	-10.92
▁echelon	-10.92
▁stain	-10.92
▁ouch	-10.92
▁lightyear	-10.92
▁centre	-10.92
▁therapy	-10.9201
▁scotch	-10.9201
▁marble	-10.9201
▁sven	-10.9201
tan	-10.9202
▁sunny	-10.9203
▁alike	-10.9203
▁carrier	-10.9203
▁june	-10.9204
▁leia	-10.9205
▁caine	-10.9206
▁mable	-10.9206
▁booze	-10.9207
▁intruder	-10.9208
▁ciao	-10.921
art	-10.9214
▁shipment	-10.9215
▁clanging	-10.9215
▁curl	-10.9218
▁label	-10.9219
iva	-10.9221
▁breed	-10.9223
▁mamas	-10.9223
▁product	-10.9224
wo	-10.9231
▁matches	-10.9232
▁chen	-10.9233
▁pond	-10.9234
▁ban	-10.9234
▁relations	-10.9235
▁beaten	-10.9235
▁mustard	-10.9236
▁floating	-10.9237
▁pinch	-10.9241
▁echoing	-10.9242
▁hopes	-10.9243
▁fingerprints	-10.9243
▁eva	-10.9244
▁twisted	-10.9244
▁rein	-10.9249
▁dang	-10.925
▁mint	-10.9251
ju	-10.9258
rin	-10.9263
▁funds	-10.9265
▁whens	-10.9273
▁keyser	-10.9274
▁blo	-10.9279
▁insisted	-10.9279
▁rely	-10.9282
▁sha	-10.9293
▁zed	-10.9295
▁touches	-10.9296
▁rad	-10.9311
▁pale	-10.9312
▁switched	-10.9315
mar	-10.9316
▁scaring	-10.9317
▁daddys	-10.9318
▁proved	-10.9319
mine	-10.932
▁deadly	-10.9326
▁persons	-10.9331
▁letty	-10.9339
▁fuckers	-10.9341
▁bas	-10.9361
▁benefit	-10.9361
▁orphan	-10.9363
▁employee	-10.9365
▁warrior	-10.9365
▁rumble	-10.9365
▁await	-10.9366
▁if	-10.9374
▁strap	-10.9374
▁nazi	-10.9377
▁methods	-10.9378
job	-10.9378
▁visitor	-10.9382
▁sucking	-10.9389
▁elements	-10.9394
▁visual	-10.9402
▁tab	-10.9403
▁cub	-10.9416
▁contain	-10.9431
▁murderers	-10.9432
cia	-10.9433
▁wig	-10.9436
ugh	-10.9447
▁questioning	-10.9458
▁plants	-10.9491
ius	-10.9496
▁magical	-10.9496
▁coins	-10.9496
ude	-10.952
ide	-10.9523
▁pol	-10.954
▁cape	-10.9542
walk	-10.9552
piece	-10.9552
▁kat	-10.9557
▁maker	-10.9561
▁achieve	-10.9562
▁greed	-10.9564
▁surprises	-10.9565
▁frame	-10.9566
▁seize	-10.9568
▁recent	-10.9575
▁potato	-10.9576
▁movin	-10.9578
▁kurt	-10.9581
▁arriving	-10.9582
▁athlete	-10.9582
▁barbara	-10.9582
▁ceremony	-10.9582
▁conscience	-10.9582
▁endurance	-10.9582
▁gertrude	-10.9582
▁griswald	-10.9582
▁harbor	-10.9582
▁itomori	-10.9582
▁kelani	-10.9582
▁lelaina	-10.9582
▁leprechaun	-10.9582
▁marilyn	-10.9582
▁philadelphia	-10.9582
▁precinct	-10.9582
▁probiem	-10.9582
▁puzzle	-10.9582
▁robbie	-10.9582
▁saburo	-10.9582
▁saruman	-10.9582
▁spacecraft	-10.9582
▁thanksgiving	-10.9582
▁unfair	-10.9582
▁witwer	-10.9582
▁canyon	-10.9582
▁carriage	-10.9582
▁fbl	-10.9582
▁refresh	-10.9582
▁xray	-10.9582
▁anchor	-10.9582
▁throne	-10.9582
▁tamra	-10.9582
▁heip	-10.9582
▁mustache	-10.9582
▁ventura	-10.9582
▁wolves	-10.9582
▁countries	-10.9582
▁religious	-10.9582
▁lottery	-10.9582
▁ambition	-10.9582
▁ankle	-10.9582
▁rohan	-10.9582
▁magnet	-10.9582
▁mischa	-10.9582
▁theft	-10.9582
▁behold	-10.9583
▁untie	-10.9583
▁zach	-10.9583
▁specifically	-10.9583
▁morrie	-10.9583
▁pillow	-10.9583
▁oak	-10.9583
▁pursuit	-10.9583
▁terry	-10.9583
▁cheque	-10.9584
▁reform	-10.9584
▁dragged	-10.9584
▁massage	-10.9584
▁kiii	-10.9584
▁massive	-10.9584
▁salary	-10.9585
▁engagement	-10.9585
▁attic	-10.9585
▁warren	-10.9586
▁groom	-10.9586
▁minus	-10.9586
▁indy	-10.9586
▁leeds	-10.9586
▁mav	-10.9587
▁dimitri	-10.9587
▁scottie	-10.9587
▁bonus	-10.9587
▁beak	-10.9588
▁sober	-10.9589
▁mobile	-10.9589
▁connor	-10.959
▁largest	-10.959
▁footage	-10.9592
▁classical	-10.9592
▁drew	-10.9593
▁bronze	-10.9595
▁pages	-10.9598
▁located	-10.96
▁teenager	-10.9601
▁related	-10.9602
▁tortured	-10.9611
▁resources	-10.9613
▁advanced	-10.9614
▁ego	-10.9615
▁dicks	-10.9615
▁facts	-10.9617
▁nicer	-10.9618
▁sadie	-10.9621
▁norm	-10.9634
▁gathered	-10.9637
▁ange	-10.9638
form	-10.964
▁rescued	-10.9647
▁gook	-10.9652
▁lace	-10.9653
▁prey	-10.9656
▁dock	-10.9657
▁spice	-10.9666
▁fuse	-10.9667
▁closest	-10.9672
▁poisoned	-10.968
▁martini	-10.9688
▁knots	-10.9701
▁studying	-10.9709
hold	-10.9722
▁jar	-10.9724
▁jingles	-10.9726
▁cord	-10.973
▁fer	-10.9732
▁whisper	-10.9732
▁roar	-10.9733
▁haller	-10.9737
▁kindly	-10.9745
▁arr	-10.9746
▁cocks	-10.9753
▁enterprise	-10.9762
▁instinct	-10.9762
▁sample	-10.9764
▁sheet	-10.9766
▁sailor	-10.9771
▁guardian	-10.9772
▁cookie	-10.9777
▁dia	-10.9781
▁girlfriends	-10.9782
▁qua	-10.9786
▁tur	-10.9786
▁differently	-10.9787
▁lightly	-10.9792
▁ian	-10.9794
▁samples	-10.9796
wi	-10.9803
▁orphans	-10.9805
▁exception	-10.984
▁bin	-10.9854
▁marked	-10.9855
▁lib	-10.9861
▁laughed	-10.9875
▁rolled	-10.989
▁ro	-10.9905
▁seventeen	-10.9905
▁disappoint	-10.9916
ification	-10.9921
▁evacuate	-10.9934
▁threaten	-10.9942
▁produce	-10.9942
▁thrill	-10.9953
bound	-10.9955
▁profession	-10.9956
▁hog	-10.9959
▁contacts	-10.9964
▁capture	-10.9964
▁ohhh	-10.9966
▁familys	-10.9967
▁sw	-10.9968
▁ela	-10.997
lan	-10.997
▁instant	-10.9971
▁precise	-10.9972
▁conversations	-10.9972
▁slight	-10.9973
▁thrust	-10.9978
▁torn	-10.9982
▁accomplice	-10.9982
▁amelia	-10.9982
▁bartender	-10.9982
▁bicycle	-10.9982
▁capacity	-10.9982
▁celebrity	-10.9982
▁certificate	-10.9982
▁dewald	-10.9982
▁dorothy	-10.9982
▁fugitive	-10.9982
▁liquid	-10.9982
▁lopez	-10.9982
▁mafia	-10.9982
▁maximum	-10.9982
▁meanwhile	-10.9982
▁nikki	-10.9982
▁november	-10.9982
▁penalty	-10.9982
▁population	-10.9982
▁promotion	-10.9982
▁racist	-10.9982
▁receiving	-10.9982
▁saturn	-10.9982
▁shakespeare	-10.9982
▁sorrow	-10.9982
▁switzerland	-10.9982
▁absurd	-10.9982
▁ceiling	-10.9982
▁essence	-10.9982
▁peggy	-10.9982
▁dragonfly	-10.9982
▁zasa	-10.9982
▁bruise	-10.9982
▁narnia	-10.9982
▁trauma	-10.9982
▁chalk	-10.9982
▁fascinating	-10.9982
▁mortal	-10.9982
▁disconnect	-10.9982
▁goanna	-10.9982
▁transform	-10.9982
▁meteorite	-10.9982
▁righteous	-10.9983
▁thudding	-10.9983
▁solomon	-10.9983
▁japan	-10.9983
▁occurred	-10.9983
▁martinez	-10.9983
▁straw	-10.9983
▁elaine	-10.9983
▁overboard	-10.9983
▁boogie	-10.9983
ium	-10.9983
▁saddle	-10.9983
cent	-10.9984
▁tej	-10.9984
▁audition	-10.9985
▁heist	-10.9985
▁xian	-10.9985
▁midget	-10.9986
▁shade	-10.9986
cal	-10.9986
▁cities	-10.9987
▁ranch	-10.9987
▁touchdown	-10.9988
▁identified	-10.9988
▁popping	-10.999
▁dumbass	-10.999
▁controlled	-10.999
▁solar	-10.9991
▁waltz	-10.9992
▁lifeboat	-10.9992
bur	-10.9993
▁hopefully	-10.9995
▁tack	-10.9995
▁stunt	-10.9996
▁nickel	-10.9998
▁dismissed	-11
▁campus	-11.0001
gen	-11.0001
▁sickness	-11.0003
▁mara	-11.0004
▁developed	-11.0005
▁penn	-11.0005
▁hose	-11.001
lm	-11.0011
▁july	-11.0011
▁sang	-11.0016
▁blaze	-11.0018
lly	-11.0021
▁separated	-11.0023
▁figures	-11.0027
▁lily	-11.0028
▁junkie	-11.0028
▁legally	-11.0029
▁tut	-11.0029
▁trans	-11.0032
▁billboards	-11.0041
▁chimes	-11.005
▁pl	-11.0051
▁oliver	-11.0055
▁shoo	-11.0056
ala	-11.0057
▁singin	-11.0066
▁rum	-11.0072
▁talented	-11.0072
▁shocking	-11.0072
▁sneaking	-11.0076
aka	-11.008
▁pointing	-11.0082
ever	-11.0083
▁carter	-11.0091
▁marching	-11.0098
▁carries	-11.0105
▁monkeys	-11.0105
▁shortly	-11.0108
▁buster	-11.011
▁mit	-11.0117
▁chains	-11.0117
▁colored	-11.0121
▁banker	-11.0122
▁cracking	-11.0125
▁emotions	-11.0132
▁beers	-11.0133
▁rem	-11.0136
▁switching	-11.0137
▁praying	-11.0141
▁shovel	-11.0141
▁es	-11.0149
▁der	-11.015
▁rey	-11.0153
ren	-11.0158
▁goddamned	-11.0168
▁filling	-11.0169
▁ammo	-11.0175
▁mach	-11.0177
▁debts	-11.0179
▁resident	-11.018
door	-11.0181
▁circuit	-11.0181
▁element	-11.0183
▁formal	-11.019
▁flo	-11.0195
▁inn	-11.02
▁rumbles	-11.0214
pu	-11.0216
▁misses	-11.022
zer	-11.0223
star	-11.0229
▁intentions	-11.0232
▁bass	-11.024
▁hooker	-11.0246
net	-11.0247
▁sole	-11.0253
▁stores	-11.0264
▁farmers	-11.0266
▁indicate	-11.0268
▁israel	-11.0275
▁acted	-11.0327
ization	-11.0341
▁comic	-11.0343
▁affairs	-11.0352
▁nun	-11.0356
town	-11.0357
don	-11.036
▁comet	-11.0364
▁greet	-11.0364
bird	-11.0373
▁explains	-11.0376
seven	-11.0376
four	-11.0378
▁strings	-11.038
▁explode	-11.038
▁advise	-11.038
▁announce	-11.0381
▁har	-11.0384
▁luis	-11.0392
▁tomato	-11.0392
▁maze	-11.0393
▁sources	-11.0398
▁marsh	-11.0398
▁snoop	-11.0399
▁astrid	-11.0399
▁becca	-11.0399
▁broomhilda	-11.0399
▁cleveland	-11.0399
▁collapse	-11.0399
▁column	-11.0399
▁coyote	-11.0399
▁cricket	-11.0399
▁guidance	-11.0399
▁harvest	-11.0399
▁jacqueline	-11.0399
▁jerusalem	-11.0399
▁maretto	-11.0399
▁oxygen	-11.0399
▁pellet	-11.0399
▁radiation	-11.0399
▁recognise	-11.0399
▁residence	-11.0399
▁september	-11.0399
▁sequence	-11.0399
▁snatch	-11.0399
▁stratton	-11.0399
▁supreme	-11.0399
▁suspicion	-11.0399
▁tatiana	-11.0399
▁tobias	-11.0399
▁vatican	-11.0399
▁verify	-11.0399
▁whoohoo	-11.0399
▁wilhelm	-11.0399
▁wolken	-11.0399
▁mistress	-11.0399
▁selina	-11.0399
▁knicks	-11.0399
▁ninth	-11.0399
▁vessel	-11.0399
▁bloodshy	-11.0399
▁marquis	-11.0399
▁matrix	-11.0399
▁eighteen	-11.0399
▁puerto	-11.0399
▁plague	-11.0399
▁darrin	-11.0399
▁rogue	-11.0399
▁bubba	-11.0399
▁misery	-11.0399
▁ruth	-11.0399
▁commence	-11.0399
▁psst	-11.0399
▁donald	-11.0399
▁feast	-11.0399
▁bonnie	-11.0399
▁sharing	-11.0399
▁hostile	-11.0399
▁moses	-11.04
▁crane	-11.04
▁spiritual	-11.04
▁jolly	-11.04
▁grip	-11.04
▁fluid	-11.04
▁ernie	-11.04
▁ladder	-11.04
▁sinner	-11.04
▁tango	-11.04
▁donation	-11.04
▁klan	-11.04
▁grimm	-11.0401
▁clara	-11.0401
▁ripped	-11.0401
▁cult	-11.0401
▁ripper	-11.0401
▁pony	-11.0402
place	-11.0402
▁multi	-11.0402
▁leland	-11.0402
▁heir	-11.0403
▁memo	-11.0403
▁jeanine	-11.0403
▁abs	-11.0403
▁fork	-11.0403
▁keen	-11.0403
▁governess	-11.0404
▁coup	-11.0405
▁modest	-11.0405
▁popped	-11.0406
▁logan	-11.0406
▁grownup	-11.0407
▁scarf	-11.0408
▁dough	-11.0408
▁tate	-11.0408
▁tore	-11.0409
▁assigned	-11.0412
▁tailor	-11.0412
▁acts	-11.0413
▁applauding	-11.0413
▁hugh	-11.0413
▁becky	-11.0413
▁peg	-11.0414
▁elected	-11.0414
▁dish	-11.0415
▁dug	-11.0415
▁scattered	-11.0415
▁mansion	-11.0415
▁arse	-11.0417
▁accomplished	-11.0418
▁heroic	-11.0422
▁after	-11.0423
▁everyday	-11.0426
▁betting	-11.0426
▁included	-11.0427
▁diego	-11.0429
▁ancestors	-11.0432
▁cane	-11.0434
▁sua	-11.0437
▁flavor	-11.0438
▁assured	-11.044
▁jc	-11.0441
▁clatters	-11.0441
▁races	-11.0445
▁shutting	-11.0448
▁queenan	-11.0448
▁hopeless	-11.0449
▁historical	-11.0451
but	-11.0451
▁pickup	-11.0454
▁damaged	-11.0457
▁chased	-11.0459
▁handling	-11.0461
▁gam	-11.0468
▁dot	-11.048
▁tunnels	-11.0482
▁goodlooking	-11.0484
▁loosen	-11.0489
▁redhead	-11.0495
yard	-11.0495
▁mau	-11.0507
ult	-11.052
▁candles	-11.0536
eur	-11.0549
iii	-11.055
▁blocked	-11.0556
▁pode	-11.0562
▁quicker	-11.0563
▁luc	-11.0564
▁pu	-11.0572
▁cells	-11.0576
▁iet	-11.0576
▁sucked	-11.0577
▁rod	-11.058
▁posted	-11.0593
▁arrangements	-11.0612
▁content	-11.0612
rian	-11.0613
▁bodyguard	-11.0613
▁ref	-11.0613
▁pine	-11.0614
▁resume	-11.0615
▁arrow	-11.0616
▁arrangement	-11.0618
▁stack	-11.0624
▁she	-11.0627
▁trips	-11.0639
▁schools	-11.064
▁employees	-11.0641
made	-11.0643
▁lords	-11.0646
istic	-11.0647
▁sends	-11.0647
▁threats	-11.0651
▁tre	-11.0655
▁tested	-11.0667
▁qu	-11.0674
▁reaching	-11.0676
▁acknowledge	-11.0676
▁shooter	-11.0679
▁mill	-11.0688
▁closely	-11.0696
▁esta	-11.0713
pitched	-11.0723
▁tra	-11.0727
▁lev	-11.0733
▁cali	-11.0735
▁rebels	-11.0737
▁unh	-11.0758
▁relaxed	-11.0763
inch	-11.0763
▁flood	-11.0769
▁wink	-11.0776
▁fame	-11.0782
▁gamble	-11.0794
▁tales	-11.0797
▁spic	-11.0801
ridge	-11.0801
power	-11.0802
▁ai	-11.081
level	-11.0811
▁retire	-11.0814
▁expose	-11.0816
this	-11.0816
▁moo	-11.082
▁ic	-11.0822
▁technical	-11.0823
▁essential	-11.0826
▁medic	-11.0828
▁deb	-11.083
▁automatic	-11.0833
▁krypto	-11.0833
▁arrakis	-11.0833
▁barbecue	-11.0833
▁blackmail	-11.0833
▁catholic	-11.0833
▁companion	-11.0833
▁darlene	-11.0833
▁deploy	-11.0833
▁embrace	-11.0833
▁encounter	-11.0833
▁frederick	-11.0833
▁ikioi	-11.0833
▁minimum	-11.0833
▁ofelia	-11.0833
▁offensive	-11.0833
▁quilok	-11.0833
▁railroad	-11.0833
▁ribbon	-11.0833
▁saiwing	-11.0833
▁shrimp	-11.0833
▁slaughter	-11.0833
▁spectacular	-11.0833
▁susie	-11.0833
▁terrified	-11.0833
▁throttle	-11.0833
▁underestimate	-11.0833
▁verdict	-11.0833
▁koskov	-11.0834
▁submit	-11.0834
▁thatcher	-11.0834
▁causing	-11.0834
▁jasper	-11.0834
▁karl	-11.0834
▁relay	-11.0834
▁coisa	-11.0834
▁isso	-11.0834
▁aslan	-11.0834
▁crust	-11.0834
▁ensure	-11.0834
▁nickname	-11.0834
▁delicate	-11.0834
▁ponies	-11.0834
▁sicily	-11.0834
▁norcut	-11.0834
▁pacino	-11.0834
▁vinnie	-11.0834
▁lizard	-11.0834
▁drift	-11.0834
▁leslie	-11.0834
▁banner	-11.0834
▁plaza	-11.0834
▁janice	-11.0834
▁contrary	-11.0834
▁gummer	-11.0834
▁puke	-11.0834
▁yankee	-11.0834
▁tracy	-11.0834
▁typing	-11.0835
▁upside	-11.0835
▁canary	-11.0835
▁panties	-11.0835
▁blair	-11.0835
▁vouch	-11.0835
▁sentimental	-11.0835
▁ratchett	-11.0835
▁motes	-11.0835
▁adoption	-11.0836
▁priority	-11.0836
▁woolf	-11.0836
▁drank	-11.0836
▁omar	-11.0836
▁kurtz	-11.0836
▁senate	-11.0836
▁reactor	-11.0836
▁chapel	-11.0836
▁invention	-11.0837
▁affection	-11.0837
▁franco	-11.0837
▁tide	-11.0837
▁pikey	-11.0838
▁salesman	-11.0838
▁shuddering	-11.0839
▁itch	-11.084
▁narrator	-11.084
▁wade	-11.084
▁heiio	-11.0841
▁dreadful	-11.0842
▁vida	-11.0843
▁ahhh	-11.0843
▁region	-11.0843
▁dice	-11.0844
▁bold	-11.0845
▁breaths	-11.0845
ford	-11.0849
▁cameron	-11.0849
▁presentation	-11.085
▁snowman	-11.0852
▁plead	-11.0853
dale	-11.0853
▁compared	-11.0854
▁layla	-11.0856
▁potion	-11.0857
oli	-11.0857
▁endure	-11.0857
▁lago	-11.0859
▁possessed	-11.086
▁barrier	-11.0861
▁drawn	-11.0862
▁tastes	-11.0863
ari	-11.0868
▁dc	-11.0869
▁threatening	-11.0874
▁plank	-11.0874
▁bog	-11.0875
▁define	-11.0876
▁creaks	-11.0878
▁buzzes	-11.0879
▁healing	-11.0882
▁correctly	-11.0887
▁rosen	-11.0887
kill	-11.089
thats	-11.0892
▁awfully	-11.0895
lar	-11.0896
▁cres	-11.0908
▁champions	-11.0909
nine	-11.091
▁heavenly	-11.0915
▁elvis	-11.0915
▁attempted	-11.0919
▁ax	-11.0928
▁raped	-11.093
▁addy	-11.0932
▁politicians	-11.0937
▁bem	-11.0938
▁psych	-11.094
▁catches	-11.0943
▁tis	-11.0944
▁ofthe	-11.0949
rio	-11.0951
▁kneel	-11.096
▁crashed	-11.0964
▁reminded	-11.0976
more	-11.0989
▁faithful	-11.0989
cut	-11.0995
▁auntie	-11.0996
▁bookies	-11.0996
▁sigh	-11.1
▁screwing	-11.1
gram	-11.1001
with	-11.1005
▁pilots	-11.1014
▁tem	-11.1028
▁porn	-11.1033
ways	-11.1034
▁volunteer	-11.1037
▁carlos	-11.1057
▁lemon	-11.1069
▁method	-11.107
▁passenger	-11.1072
▁accuse	-11.1073
▁flame	-11.1076
▁claws	-11.1084
▁complaint	-11.1087
▁visitors	-11.1089
lud	-11.1104
▁mines	-11.1106
▁knocks	-11.1119
▁noises	-11.112
▁iim	-11.1123
▁lone	-11.1124
fin	-11.1128
▁drums	-11.1129
▁prop	-11.1134
burg	-11.1134
▁cans	-11.1139
▁handy	-11.1142
ome	-11.1151
▁interfere	-11.1151
▁swords	-11.1157
▁lando	-11.116
▁corp	-11.1163
▁chambers	-11.1167
▁commands	-11.1169
yearold	-11.1175
▁vers	-11.1181
▁wars	-11.1182
▁clo	-11.1183
▁sixty	-11.1189
▁pays	-11.1217
▁sar	-11.1229
▁flee	-11.1238
▁trainer	-11.1239
▁entertain	-11.1251
ida	-11.1256
▁carlo	-11.1256
class	-11.1259
▁limits	-11.1259
life	-11.1259
year	-11.1261
bone	-11.1267
▁rabbits	-11.1268
▁observe	-11.1269
▁encourage	-11.1269
▁execute	-11.127
▁masks	-11.1276
▁virg	-11.1277
▁creative	-11.1278
▁ci	-11.1285
▁india	-11.1285
▁orl	-11.1285
▁kidnap	-11.1286
▁reflect	-11.1286
▁dove	-11.1287
▁swap	-11.1288
▁advisor	-11.1288
▁apprentice	-11.1288
▁approval	-11.1288
▁aronoff	-11.1288
▁attaboy	-11.1288
▁columbia	-11.1288
▁combination	-11.1288
▁comrade	-11.1288
▁conceal	-11.1288
▁convenient	-11.1288
▁corporal	-11.1288
▁defence	-11.1288
▁dessert	-11.1288
▁ferrari	-11.1288
▁gossip	-11.1288
▁gracious	-11.1288
▁hawaii	-11.1288
▁heartbeat	-11.1288
▁ignition	-11.1288
▁injury	-11.1288
▁janusz	-11.1288
▁mcqueen	-11.1288
▁montana	-11.1288
▁parlor	-11.1288
▁puppies	-11.1288
▁recipe	-11.1288
▁samurai	-11.1288
▁santiago	-11.1288
▁semester	-11.1288
▁treason	-11.1288
▁violet	-11.1288
▁globe	-11.1288
▁mutual	-11.1288
▁teresa	-11.1288
▁lukas	-11.1288
▁hildi	-11.1288
▁terminal	-11.1288
▁affirmative	-11.1288
▁convert	-11.1288
▁chariot	-11.1288
▁daesu	-11.1288
▁doris	-11.1288
▁gollum	-11.1288
▁todd	-11.1288
▁sylvia	-11.1288
▁annual	-11.1288
▁crank	-11.1288
▁jimmie	-11.1288
▁serial	-11.1289
▁mellie	-11.1289
▁argh	-11.1289
▁dummy	-11.1289
▁welsh	-11.1289
▁vince	-11.1289
▁duties	-11.1289
▁reaiiy	-11.1289
▁debate	-11.1289
▁rubber	-11.1289
▁pierce	-11.1289
▁income	-11.1289
▁moose	-11.1289
▁robbing	-11.1289
▁creation	-11.1289
▁oven	-11.129
▁messala	-11.129
▁reset	-11.129
▁waking	-11.129
▁armour	-11.129
▁eliza	-11.129
▁poll	-11.1291
▁operating	-11.1291
▁vibe	-11.1291
▁todo	-11.1291
▁mj	-11.1292
▁dominic	-11.1293
▁fax	-11.1293
▁marley	-11.1294
▁chapman	-11.1294
▁strangled	-11.1295
▁regan	-11.1296
▁spiders	-11.1296
▁opal	-11.1297
▁instrumental	-11.1298
▁grandson	-11.1298
▁alongside	-11.1298
▁lime	-11.1299
▁favors	-11.1301
▁protective	-11.1301
▁chargers	-11.1301
▁carmine	-11.1302
▁beats	-11.1303
▁covering	-11.1304
▁objection	-11.1308
▁barker	-11.131
▁indiana	-11.131
▁eron	-11.1311
▁clanking	-11.1312
▁como	-11.1313
▁plum	-11.1316
▁silk	-11.1318
▁copies	-11.1322
▁karate	-11.1324
pot	-11.1327
gging	-11.1329
▁recovered	-11.1329
▁julian	-11.133
ead	-11.1331
▁spoiled	-11.1334
▁proven	-11.1335
▁pawn	-11.1335
▁howling	-11.1346
▁nada	-11.1353
▁cured	-11.1356
▁grit	-11.1356
▁shocked	-11.1373
lon	-11.1375
▁faction	-11.1375
▁we	-11.138
▁nono	-11.1383
▁dos	-11.1384
▁experienced	-11.1398
▁yum	-11.1398
▁ropes	-11.141
▁scouts	-11.141
▁apples	-11.1417
▁grades	-11.1424
▁boxer	-11.1425
▁jos	-11.1426
ante	-11.1428
▁mp	-11.1437
▁sewer	-11.1438
jah	-11.1439
▁climbing	-11.1441
▁requesting	-11.1443
▁chickens	-11.1445
▁hank	-11.1447
▁brit	-11.145
are	-11.145
▁cora	-11.145
▁bothered	-11.1452
▁consult	-11.1455
▁remaining	-11.1461
▁connections	-11.1462
▁asks	-11.1465
▁her	-11.1466
▁shared	-11.1474
▁mop	-11.1476
▁expenses	-11.148
▁att	-11.1484
▁instruments	-11.1488
▁arch	-11.1491
▁ere	-11.15
▁wally	-11.1502
▁exceptional	-11.1535
▁hobbit	-11.1543
▁conclusion	-11.1543
▁costello	-11.1544
▁hmmm	-11.1544
▁ali	-11.1554
▁una	-11.1555
▁spine	-11.1561
▁vic	-11.1562
▁kim	-11.1564
itz	-11.158
▁fixing	-11.1583
▁bam	-11.1583
▁pip	-11.1591
▁plates	-11.1596
ane	-11.1598
▁bind	-11.16
▁sakes	-11.1608
▁fooled	-11.161
▁springs	-11.1612
▁pd	-11.162
▁laps	-11.1621
▁childs	-11.1624
acc	-11.1635
▁tick	-11.1662
▁bark	-11.1667
▁nerves	-11.168
▁throws	-11.1682
▁pulls	-11.1685
▁distract	-11.1695
▁punish	-11.1698
q	-11.1699
era	-11.1708
▁cracker	-11.1709
▁gangsters	-11.1712
▁troubled	-11.1714
▁possess	-11.1723
▁instrumenta	-11.1728
▁stash	-11.1735
▁install	-11.1735
▁soak	-11.1737
wan	-11.1739
tempo	-11.1739
▁cre	-11.1741
▁marines	-11.1743
▁ninety	-11.1748
eye	-11.1752
speed	-11.1752
▁declare	-11.1752
▁mala	-11.1756
▁restore	-11.1759
▁sittin	-11.176
▁runnin	-11.1761
▁abort	-11.1763
▁disgrace	-11.1763
▁jab	-11.1763
▁alodor	-11.1764
▁australia	-11.1764
▁cadillac	-11.1764
▁carpenter	-11.1764
▁cocaine	-11.1764
▁concrete	-11.1764
▁deceased	-11.1764
▁eboshi	-11.1764
▁economic	-11.1764
▁escalante	-11.1764
▁excitement	-11.1764
▁fenster	-11.1764
▁godmother	-11.1764
▁hurricane	-11.1764
▁immunity	-11.1764
▁ketchup	-11.1764
▁laeddis	-11.1764
▁mandrake	-11.1764
▁mcmanus	-11.1764
▁michigan	-11.1764
▁necessarily	-11.1764
▁nottingham	-11.1764
▁oracle	-11.1764
▁outstanding	-11.1764
▁philosophy	-11.1764
▁phrase	-11.1764
▁piranha	-11.1764
▁possibilities	-11.1764
▁quarrel	-11.1764
▁ranchhoddas	-11.1764
▁rattlesnake	-11.1764
▁rehearse	-11.1764
▁rendezvous	-11.1764
▁republic	-11.1764
▁rufus	-11.1764
▁samuel	-11.1764
▁satisfaction	-11.1764
▁sollozzo	-11.1764
▁somewhat	-11.1764
▁splendid	-11.1764
▁strangways	-11.1764
▁temptation	-11.1764
▁tequila	-11.1764
▁timothy	-11.1764
▁triumph	-11.1764
▁tyrone	-11.1764
▁willoughby	-11.1764
▁byron	-11.1764
▁howre	-11.1764
▁jubal	-11.1764
▁pledge	-11.1764
▁veins	-11.1764
▁evelyn	-11.1764
▁laurel	-11.1764
▁caretaker	-11.1764
▁pigeon	-11.1764
▁iife	-11.1764
▁roommate	-11.1764
▁bobbie	-11.1764
▁shuttle	-11.1764
▁stomp	-11.1764
▁beckett	-11.1764
▁pedro	-11.1764
▁assuming	-11.1764
▁bureau	-11.1764
▁beacon	-11.1764
▁rascal	-11.1764
▁gordy	-11.1764
▁fisk	-11.1765
▁mushroom	-11.1765
▁creek	-11.1765
▁vietnamese	-11.1765
▁beware	-11.1765
▁representative	-11.1765
▁upgrade	-11.1765
▁twentyfive	-11.1765
▁flaw	-11.1765
▁alternative	-11.1765
▁salvation	-11.1765
▁outrageous	-11.1765
▁feature	-11.1765
▁update	-11.1765
▁vamos	-11.1765
▁donny	-11.1765
chang	-11.1765
▁flashlight	-11.1765
▁remarkable	-11.1765
▁stirling	-11.1765
▁piggy	-11.1765
▁slick	-11.1765
▁civilized	-11.1765
▁orphanage	-11.1765
▁slack	-11.1765
▁establishment	-11.1766
▁ilse	-11.1766
▁seattle	-11.1766
▁favourite	-11.1766
▁development	-11.1766
▁meow	-11.1766
▁stripper	-11.1766
▁worn	-11.1766
▁practicing	-11.1766
▁achievement	-11.1766
▁innit	-11.1766
▁fading	-11.1766
▁shortcut	-11.1766
▁lalala	-11.1767
▁wong	-11.1767
▁slop	-11.1767
▁google	-11.1767
▁myth	-11.1767
▁hmph	-11.1768
▁inquirer	-11.1768
▁cockroaches	-11.1768
▁vast	-11.1768
▁joob	-11.1769
▁crab	-11.1769
▁qualified	-11.177
▁hatred	-11.177
▁lecture	-11.1771
▁tourist	-11.1771
▁leaf	-11.1771
▁panel	-11.1772
▁aww	-11.1773
▁giles	-11.1775
▁soar	-11.1775
▁cooperation	-11.1775
▁amon	-11.1775
▁household	-11.1776
▁abu	-11.1779
▁programmed	-11.178
▁peterson	-11.178
▁archery	-11.1781
▁payback	-11.1781
▁clearance	-11.1782
▁bedtime	-11.1782
▁snarling	-11.1782
▁tapping	-11.1784
▁grenade	-11.1784
▁intel	-11.1787
▁established	-11.1787
▁operational	-11.1788
▁penis	-11.1788
▁volt	-11.1789
▁retarded	-11.179
▁shushing	-11.1791
▁approved	-11.1792
▁bunker	-11.1793
▁humanity	-11.1793
▁trim	-11.1795
▁larger	-11.1798
▁rarely	-11.1802
▁types	-11.1804
▁claus	-11.181
▁scotty	-11.1811
▁backyard	-11.1811
▁showtime	-11.1812
▁steering	-11.1816
▁via	-11.1816
▁bane	-11.1819
▁drowning	-11.1823
▁hint	-11.1828
▁cheated	-11.183
▁carrots	-11.1835
▁taiking	-11.1837
how	-11.184
▁guaranteed	-11.1841
▁diner	-11.1842
▁intended	-11.1844
▁morg	-11.1845
▁gathering	-11.1847
▁crawling	-11.1847
▁meter	-11.1847
▁waitin	-11.1847
▁peek	-11.1852
▁stonea	-11.1855
▁claimed	-11.1865
ami	-11.1876
▁pounding	-11.1881
▁borrowed	-11.1882
▁islands	-11.1884
▁luca	-11.1885
dle	-11.1886
▁liver	-11.1888
▁survivors	-11.1889
▁proceeding	-11.1889
▁risky	-11.1892
rent	-11.1892
nut	-11.1895
ok	-11.1896
▁lined	-11.19
▁sailing	-11.1901
▁cracked	-11.1906
▁entering	-11.1911
night	-11.192
▁rented	-11.192
▁continued	-11.1926
▁boobs	-11.193
▁unto	-11.193
stick	-11.1934
▁hal	-11.1936
▁oid	-11.1943
▁americas	-11.1949
▁soc	-11.195
tte	-11.1961
▁messy	-11.1963
▁sco	-11.1965
▁spots	-11.1967
▁ros	-11.1973
▁cri	-11.1979
▁liz	-11.1979
too	-11.1981
ico	-11.1997
fo	-11.2
▁sita	-11.2001
ando	-11.2003
▁scale	-11.2009
▁hen	-11.2009
▁caller	-11.201
▁resumes	-11.201
▁residents	-11.2021
▁seu	-11.2022
▁vip	-11.2041
▁tot	-11.2042
▁walkin	-11.2044
▁ao	-11.2045
▁rattle	-11.2047
▁glove	-11.2048
▁carbon	-11.2049
▁thug	-11.205
▁dar	-11.2058
▁illness	-11.2061
▁uniforms	-11.2066
▁mustang	-11.2071
▁instrument	-11.2075
▁mul	-11.2076
oden	-11.2079
▁defi	-11.208
▁consul	-11.2082
▁stra	-11.2083
▁mak	-11.2085
▁lil	-11.2091
▁fits	-11.2093
▁sid	-11.2094
▁amor	-11.2095
▁worms	-11.2098
▁decisions	-11.2112
▁ste	-11.2127
▁suckers	-11.2147
▁fooling	-11.2174
good	-11.2183
point	-11.2183
▁develop	-11.2198
▁concerns	-11.2199
▁tables	-11.22
▁clearing	-11.2214
ologist	-11.2219
▁splash	-11.2222
▁returns	-11.2225
▁cla	-11.2227
▁attract	-11.2229
▁enchant	-11.2229
▁adopt	-11.2233
▁melt	-11.2235
born	-11.2237
around	-11.2239
▁ras	-11.224
▁delight	-11.224
▁flatter	-11.2243
▁marker	-11.2244
▁involve	-11.2245
▁activate	-11.2246
▁should	-11.2247
▁tar	-11.2248
tory	-11.225
▁previous	-11.2253
maid	-11.2254
▁thorough	-11.2254
▁wears	-11.2255
▁loca	-11.2257
▁gordo	-11.2257
▁congress	-11.2261
▁watchin	-11.2261
▁adapt	-11.2263
▁heave	-11.2263
▁knox	-11.2264
▁gala	-11.2264
▁accelerate	-11.2264
▁bachelor	-11.2264
▁banished	-11.2264
▁bonjour	-11.2264
▁brigitta	-11.2264
▁clarence	-11.2264
▁dwayne	-11.2264
▁eternity	-11.2264
▁fragile	-11.2264
▁generator	-11.2264
▁genuine	-11.2264
▁gesture	-11.2264
▁goldfarb	-11.2264
▁hallelu	-11.2264
▁hockey	-11.2264
▁immortal	-11.2264
▁injuries	-11.2264
▁january	-11.2264
▁macready	-11.2264
▁ominous	-11.2264
▁opponent	-11.2264
▁overlapping	-11.2264
▁schmuck	-11.2264
▁scotland	-11.2264
▁substance	-11.2264
▁sworn	-11.2264
▁tenneray	-11.2264
▁tribune	-11.2264
▁trophy	-11.2264
▁vacuum	-11.2264
▁vienna	-11.2264
▁volume	-11.2264
▁cobra	-11.2264
▁ninja	-11.2264
▁preserve	-11.2264
▁importance	-11.2264
▁welfare	-11.2264
▁cartoon	-11.2264
▁illinois	-11.2264
▁ogre	-11.2264
▁nanny	-11.2264
▁northern	-11.2264
▁whitney	-11.2264
▁dumpster	-11.2264
▁doughnut	-11.2264
▁departure	-11.2264
▁gallery	-11.2264
▁gahhh	-11.2264
▁matata	-11.2264
▁scholarship	-11.2265
▁serena	-11.2265
▁antonio	-11.2265
▁pippin	-11.2265
▁cattle	-11.2265
▁expectations	-11.2265
▁serge	-11.2265
▁canada	-11.2265
▁bogey	-11.2265
▁overcome	-11.2265
▁refrigerator	-11.2265
▁peasant	-11.2265
▁spike	-11.2265
▁gringo	-11.2265
▁sissy	-11.2265
▁camelot	-11.2265
▁delightful	-11.2265
▁boris	-11.2265
▁wildhorn	-11.2266
▁superstar	-11.2266
▁poppy	-11.2266
▁retirement	-11.2266
▁atom	-11.2266
▁edith	-11.2266
▁toothless	-11.2266
▁napkin	-11.2267
▁razor	-11.2267
▁starve	-11.2267
▁lockwood	-11.2267
▁mansfield	-11.2267
▁effective	-11.2267
▁kemo	-11.2268
▁mush	-11.2268
▁finch	-11.2268
▁budget	-11.2268
▁hakuna	-11.2269
▁barron	-11.2269
▁adog	-11.227
▁loot	-11.227
▁devo	-11.2272
▁elton	-11.2272
▁dora	-11.2275
▁spies	-11.2275
▁chess	-11.2277
▁receiver	-11.2278
▁growth	-11.2278
▁semi	-11.2279
▁mic	-11.2281
▁conductor	-11.2282
▁oneil	-11.2282
▁fag	-11.2284
▁digest	-11.2285
▁chairman	-11.2286
▁jive	-11.2286
▁specialty	-11.2287
▁tighten	-11.2287
▁suggestion	-11.2288
▁jackass	-11.2291
▁sniffing	-11.2294
▁helicopters	-11.2299
▁booty	-11.2303
▁geek	-11.2306
▁servants	-11.231
▁restless	-11.2311
▁gambler	-11.2311
▁col	-11.2317
▁beck	-11.2319
▁traveler	-11.2319
▁dearest	-11.232
▁insulted	-11.2321
▁vin	-11.2322
▁logical	-11.2324
▁tolling	-11.2324
▁romeo	-11.2329
▁papi	-11.233
▁racer	-11.2333
▁badass	-11.2343
▁sau	-11.2343
▁archer	-11.2343
▁demanding	-11.2345
▁chester	-11.2347
▁relics	-11.235
▁evans	-11.2351
▁designer	-11.2354
▁kisses	-11.2355
▁ira	-11.2364
▁elf	-11.2373
▁precogs	-11.2373
▁rig	-11.2374
▁bounc	-11.2374
▁rash	-11.2379
▁bowling	-11.2382
▁freaked	-11.2398
▁dim	-11.2399
▁sabe	-11.2399
aid	-11.2402
▁discussed	-11.2403
▁planted	-11.2406
▁georg	-11.2408
▁swinging	-11.2409
key	-11.2415
▁cloth	-11.2418
▁colt	-11.2421
▁kicks	-11.2427
cus	-11.2431
▁delete	-11.2435
▁shitting	-11.2442
▁finals	-11.2449
ttle	-11.2455
▁walker	-11.2458
▁wires	-11.2481
▁cowboys	-11.2491
▁nod	-11.2498
▁worrying	-11.25
iate	-11.2503
▁noses	-11.2509
▁mills	-11.2519
▁gifted	-11.2527
▁but	-11.2534
ural	-11.2542
▁importantly	-11.2544
▁robber	-11.2553
▁arc	-11.2554
▁sweets	-11.2557
▁virginia	-11.2567
▁expense	-11.2572
▁troll	-11.2579
▁butts	-11.2588
▁marrying	-11.2594
▁represents	-11.2606
▁richards	-11.2616
▁codes	-11.2623
▁georgia	-11.2627
iness	-11.2631
▁fam	-11.2634
▁documents	-11.2636
▁cooler	-11.2652
▁ani	-11.2658
▁seated	-11.2661
▁payments	-11.2663
▁buttons	-11.2697
path	-11.2706
▁scientists	-11.2709
▁blu	-11.2714
▁turnin	-11.2715
ood	-11.2721
▁rangers	-11.2733
ther	-11.2736
▁villains	-11.2745
▁georgi	-11.2747
six	-11.2748
▁mille	-11.2751
▁freaks	-11.2752
▁clink	-11.2757
break	-11.2759
▁fulfill	-11.2761
▁retard	-11.2762
▁exhaust	-11.2762
▁serves	-11.2764
track	-11.2766
making	-11.2769
▁rust	-11.2773
▁locate	-11.2775
grade	-11.2777
aries	-11.2779
▁demands	-11.2782
uch	-11.2783
▁resign	-11.2789
▁reception	-11.2789
▁confront	-11.2789
▁yank	-11.279
▁adjust	-11.279
▁advertising	-11.2791
▁appreciation	-11.2791
▁aspirin	-11.2791
▁bathtub	-11.2791
▁belfort	-11.2791
▁biscuit	-11.2791
▁candidate	-11.2791
▁cavalry	-11.2791
▁clifton	-11.2791
▁concentration	-11.2791
▁confusion	-11.2791
▁convincing	-11.2791
▁corporate	-11.2791
▁damascus	-11.2791
▁despair	-11.2791
▁dwight	-11.2791
▁emmett	-11.2791
▁fiddle	-11.2791
▁gibson	-11.2791
▁greece	-11.2791
▁griffith	-11.2791
▁hercule	-11.2791
▁intimate	-11.2791
▁jefferson	-11.2791
▁knauer	-11.2791
▁lesbian	-11.2791
▁malfunction	-11.2791
▁memorial	-11.2791
▁messiah	-11.2791
▁ministry	-11.2791
▁negotiation	-11.2791
▁olympic	-11.2791
▁override	-11.2791
▁persuade	-11.2791
▁poiice	-11.2791
▁preparation	-11.2791
▁prospect	-11.2791
▁ritual	-11.2791
▁rizzo	-11.2791
▁rubbish	-11.2791
▁saikwong	-11.2791
▁schraeder	-11.2791
▁sleeve	-11.2791
▁snitch	-11.2791
▁spectators	-11.2791
▁storage	-11.2791
▁tattaglia	-11.2791
▁thompson	-11.2791
▁vocalizing	-11.2791
▁vodka	-11.2791
▁wazowski	-11.2791
▁depth	-11.2791
▁garrad	-11.2791
▁massacre	-11.2791
▁pancakes	-11.2791
▁reinforcements	-11.2791
▁sloppy	-11.2791
▁fierce	-11.2791
▁lounge	-11.2791
▁marvin	-11.2791
▁payroll	-11.2791
▁spud	-11.2791
▁scandal	-11.2791
▁tammie	-11.2791
▁patriot	-11.2791
▁landscape	-11.2791
▁backstage	-11.2791
▁cardinal	-11.2791
▁epps	-11.2791
▁begged	-11.2791
▁distress	-11.2791
▁maroni	-11.2791
▁romilly	-11.2791
▁italy	-11.2791
▁brittle	-11.2791
▁collins	-11.2791
▁caution	-11.2791
▁redeem	-11.2791
▁evacuation	-11.2791
▁dizzy	-11.2791
▁hay	-11.2791
▁forbidden	-11.2791
▁caf	-11.2791
▁ounce	-11.2791
▁demonstration	-11.2791
▁obligation	-11.2791
▁interrogation	-11.2791
▁raft	-11.2791
▁mailbox	-11.2791
▁alibi	-11.2791
▁berlin	-11.2791
▁strapped	-11.2791
▁jarmo	-11.2792
▁sought	-11.2792
▁studies	-11.2792
▁muscles	-11.2792
▁oooh	-11.2792
▁approximately	-11.2792
▁hazen	-11.2792
▁viking	-11.2792
▁tread	-11.2792
▁occupied	-11.2792
▁editor	-11.2792
▁inspection	-11.2792
▁renner	-11.2792
umb	-11.2793
▁ellie	-11.2793
▁luckily	-11.2793
▁mutters	-11.2793
▁scrub	-11.2793
▁choo	-11.2794
▁congressman	-11.2794
▁percentage	-11.2795
▁continental	-11.2795
▁watergate	-11.2795
▁detector	-11.2795
▁scent	-11.2795
▁augustus	-11.2795
▁mais	-11.2796
▁accidentally	-11.2796
olo	-11.2797
▁flora	-11.2797
▁frost	-11.2798
▁minton	-11.2798
▁drax	-11.2798
▁dj	-11.2799
▁wales	-11.28
▁ashes	-11.28
▁harmless	-11.28
▁holly	-11.28
▁unger	-11.28
▁amongst	-11.2801
▁avi	-11.2801
▁commie	-11.2801
▁yoda	-11.2802
abie	-11.2803
▁decline	-11.2803
▁eliminated	-11.2803
▁slightly	-11.2804
▁fhe	-11.2804
▁constantly	-11.2805
▁forgiveness	-11.2805
▁charly	-11.2806
▁slavery	-11.2806
▁convicted	-11.2807
▁shallow	-11.2812
▁executed	-11.2812
▁asha	-11.2813
▁sandwiches	-11.2814
▁dwell	-11.2814
▁advised	-11.2814
▁detected	-11.2815
▁fuckedup	-11.2816
▁daylight	-11.2816
▁respectable	-11.2817
▁portal	-11.2818
▁postman	-11.2818
▁stray	-11.2818
▁hustler	-11.2819
▁portion	-11.2821
▁pur	-11.2822
▁mocking	-11.2824
rim	-11.2826
▁tenma	-11.2826
▁areas	-11.2827
▁punches	-11.2827
▁discovery	-11.2827
▁wit	-11.2831
▁dunk	-11.2833
▁corey	-11.2834
▁steven	-11.2839
▁wrecked	-11.2841
▁fastest	-11.2843
▁drowned	-11.2845
▁issued	-11.2845
▁bender	-11.2849
▁critical	-11.2858
▁dana	-11.2861
▁performed	-11.2862
▁brooks	-11.2864
▁bri	-11.2865
▁legion	-11.2865
▁scheduled	-11.2868
▁freezer	-11.2868
▁meetings	-11.2869
▁shatters	-11.2869
▁fled	-11.2881
▁ration	-11.2889
▁ally	-11.289
▁filed	-11.2892
▁vitamins	-11.2893
ipple	-11.2894
who	-11.2894
▁bikes	-11.2896
▁feathers	-11.2898
▁bal	-11.2899
▁sadly	-11.2903
▁engineering	-11.2907
long	-11.291
▁seth	-11.2911
▁bridges	-11.2915
▁cuffs	-11.2917
▁fog	-11.2918
▁vai	-11.2926
▁ideal	-11.2931
▁dreamt	-11.2933
uk	-11.2934
ual	-11.2934
mber	-11.2935
▁existed	-11.2938
▁hacker	-11.2941
▁sweating	-11.2941
▁astronauts	-11.2942
▁adults	-11.2946
▁gus	-11.2952
▁clubs	-11.2953
▁signing	-11.2953
▁leaders	-11.2954
▁suspected	-11.2954
▁efforts	-11.2958
▁reminder	-11.2961
▁suggesting	-11.2962
▁washing	-11.2976
▁oldest	-11.2996
▁sou	-11.3003
▁mustangs	-11.3027
▁signals	-11.3035
ology	-11.3037
▁claw	-11.3041
▁tracked	-11.3046
▁corners	-11.3056
▁visited	-11.3064
▁fabric	-11.3068
▁winters	-11.3078
▁bio	-11.3079
headed	-11.3094
▁handled	-11.3103
▁items	-11.3113
▁pai	-11.3119
▁quer	-11.3122
▁heights	-11.3125
▁rumor	-11.3132
▁eyeball	-11.3134
▁barrels	-11.3137
▁jokers	-11.3139
▁replica	-11.3151
▁sil	-11.3152
gate	-11.3153
▁cleaner	-11.3154
▁thankful	-11.3173
▁grin	-11.3177
▁remo	-11.3181
▁hostages	-11.3199
▁lighting	-11.3215
▁doubts	-11.3217
▁creeps	-11.3224
▁gro	-11.3231
▁danced	-11.3232
▁sung	-11.3235
▁explaining	-11.324
ani	-11.3241
▁individuals	-11.3245
▁scores	-11.325
▁ruins	-11.3262
▁belle	-11.328
▁corrupt	-11.3284
▁bridget	-11.3291
▁owners	-11.3296
shot	-11.3298
cap	-11.3301
worth	-11.3302
fish	-11.3304
▁boost	-11.3306
▁predict	-11.3306
▁flirt	-11.3311
▁offend	-11.3315
▁mock	-11.3318
▁crook	-11.3318
▁teenage	-11.3319
▁plea	-11.332
girl	-11.3321
master	-11.3324
▁arabia	-11.3324
woman	-11.3325
▁cripple	-11.3328
▁filth	-11.3328
cake	-11.3335
▁korea	-11.3336
▁steward	-11.3339
▁sensation	-11.3341
▁givin	-11.3342
▁yyou	-11.3344
▁lauren	-11.3345
▁abnegation	-11.3346
▁algaib	-11.3346
▁ashitaka	-11.3346
▁association	-11.3346
▁baltimore	-11.3346
▁brotherinlaw	-11.3346
▁calculus	-11.3346
▁chandler	-11.3346
▁clutch	-11.3346
▁compartment	-11.3346
▁crunch	-11.3346
▁dinosaur	-11.3346
▁earthquake	-11.3346
▁extension	-11.3346
▁felipe	-11.3346
▁finnegan	-11.3346
▁fluffy	-11.3346
▁forfeit	-11.3346
▁handcuff	-11.3346
▁havana	-11.3346
▁ignorant	-11.3346
▁increasing	-11.3346
▁innocence	-11.3346
▁inspiration	-11.3346
▁jamboree	-11.3346
▁keltus	-11.3346
▁landlord	-11.3346
▁llewelyn	-11.3346
▁lucille	-11.3346
▁mcallister	-11.3346
▁meatloaf	-11.3346
▁moustafa	-11.3346
▁oldfashioned	-11.3346
▁pittsburgh	-11.3346
▁platform	-11.3346
▁prosecution	-11.3346
▁reserve	-11.3346
▁scenario	-11.3346
▁schooi	-11.3346
▁stammering	-11.3346
▁submarine	-11.3346
▁supervisor	-11.3346
▁swift	-11.3346
▁talbot	-11.3346
▁tangiers	-11.3346
▁terrifying	-11.3346
▁thrombey	-11.3346
▁toretto	-11.3346
▁tuddy	-11.3346
▁viggo	-11.3346
▁virtue	-11.3346
▁vulture	-11.3346
▁wardrobe	-11.3346
▁waternoose	-11.3346
▁chloe	-11.3346
▁dylan	-11.3346
▁enoch	-11.3346
▁kimsey	-11.3346
▁legacy	-11.3346
▁motto	-11.3346
▁promising	-11.3346
▁scientific	-11.3346
▁subtle	-11.3346
▁arnold	-11.3346
▁candor	-11.3346
▁loaf	-11.3346
▁niece	-11.3346
▁whereabouts	-11.3346
▁wilderness	-11.3346
▁caravan	-11.3346
▁fortress	-11.3346
▁investigate	-11.3346
▁mayhem	-11.3346
▁shivering	-11.3346
▁davies	-11.3346
▁newscast	-11.3346
▁pervert	-11.3346
▁daisy	-11.3346
▁yacht	-11.3346
▁iast	-11.3346
▁somali	-11.3346
▁gordie	-11.3346
▁oppress	-11.3346
▁illusion	-11.3346
▁inheritance	-11.3346
▁prank	-11.3346
▁compound	-11.3346
▁venice	-11.3346
▁gamora	-11.3346
▁lemonade	-11.3346
▁cloak	-11.3347
▁syd	-11.3347
▁shiny	-11.3347
▁holland	-11.3347
▁isto	-11.3347
▁avenge	-11.3347
▁southeast	-11.3347
▁brew	-11.3347
▁confine	-11.3347
▁panther	-11.3347
▁nunca	-11.3347
▁manuel	-11.3347
▁woah	-11.3347
▁repay	-11.3347
▁hector	-11.3347
▁diaper	-11.3347
▁furious	-11.3347
▁blush	-11.3347
▁ramey	-11.3347
▁grill	-11.3347
▁spinning	-11.3348
▁curve	-11.3348
▁groot	-11.3348
▁flawless	-11.3348
▁gamma	-11.3348
▁nerd	-11.3348
▁chatur	-11.3348
▁contribution	-11.3348
▁tension	-11.3348
▁regardless	-11.3349
▁acid	-11.3349
▁dining	-11.3349
▁slut	-11.3349
▁obliged	-11.335
▁sunlight	-11.335
▁vulnerable	-11.335
▁lifestyle	-11.335
▁turf	-11.335
▁confirmation	-11.335
▁shook	-11.335
▁stalker	-11.335
▁whine	-11.3351
▁measurement	-11.3351
▁diaz	-11.3351
▁tyto	-11.3351
▁shrieking	-11.3351
▁authorized	-11.3351
▁shep	-11.3351
▁distraction	-11.3351
▁gutter	-11.3351
▁venture	-11.3352
about	-11.3352
▁farther	-11.3352
▁aria	-11.3352
▁gran	-11.3353
▁madden	-11.3353
▁scooter	-11.3354
▁dried	-11.3354
▁combined	-11.3355
▁hence	-11.3355
▁dickhead	-11.3355
▁deed	-11.3356
▁pushkin	-11.3358
▁pause	-11.3358
▁recon	-11.3358
▁patches	-11.3358
▁elite	-11.3358
▁hysterical	-11.3359
▁adams	-11.3361
▁taint	-11.3361
▁kenta	-11.3361
▁alter	-11.3362
▁copper	-11.3362
▁colony	-11.3363
▁ox	-11.3367
▁continuing	-11.3367
▁jabba	-11.337
▁alas	-11.3371
▁achieved	-11.3373
▁hospitality	-11.3373
▁gruber	-11.3373
▁grind	-11.3374
▁spank	-11.3375
▁straining	-11.3375
▁parttime	-11.3375
▁flattered	-11.3378
▁attracted	-11.3378
▁cuban	-11.3378
▁runner	-11.3381
▁clinking	-11.3383
▁refer	-11.3384
▁moss	-11.3384
▁punished	-11.3387
▁risks	-11.3389
▁helena	-11.3389
▁spite	-11.339
▁insects	-11.3391
▁realise	-11.3391
▁cows	-11.3395
▁poet	-11.3395
▁deadline	-11.3396
▁eighth	-11.3399
▁callin	-11.34
▁funk	-11.3401
mond	-11.3405
illa	-11.3405
▁characters	-11.3407
▁your	-11.3412
eek	-11.3413
tail	-11.3413
▁tanks	-11.3413
▁subs	-11.3414
▁cocky	-11.3415
▁dame	-11.3419
▁narc	-11.3421
▁noone	-11.3422
▁resting	-11.3424
▁voted	-11.3425
▁poe	-11.3425
▁courts	-11.3425
▁secured	-11.3426
▁confessed	-11.3426
▁assumed	-11.3429
▁pinky	-11.343
▁scares	-11.3433
▁buckle	-11.3437
▁sod	-11.3437
▁appeared	-11.3445
dest	-11.3445
ego	-11.3451
▁rewarded	-11.3451
▁christal	-11.3461
▁traitors	-11.3461
▁smashed	-11.3461
▁blamed	-11.3467
▁stutters	-11.3468
▁container	-11.3477
▁sweater	-11.3482
▁toots	-11.3483
▁af	-11.3485
▁goodman	-11.3488
▁ruler	-11.3496
▁suggested	-11.3497
▁horny	-11.3499
▁hooked	-11.3512
▁smiles	-11.3532
▁generally	-11.3533
▁ties	-11.3534
▁discussing	-11.3534
▁zap	-11.3536
▁summers	-11.3548
▁cann	-11.3552
▁cello	-11.3555
ura	-11.3555
ima	-11.3561
▁patron	-11.3562
▁manning	-11.3573
▁robbers	-11.3584
▁flap	-11.3587
aba	-11.359
ku	-11.3592
▁appreciated	-11.3594
▁thugs	-11.3596
▁brid	-11.36
▁circles	-11.36
▁sho	-11.3629
▁arrows	-11.3635
▁stacks	-11.3635
horn	-11.3638
ank	-11.3639
bat	-11.3643
▁il	-11.3646
▁cone	-11.3646
▁circuits	-11.3648
hot	-11.3664
▁ki	-11.3668
▁vil	-11.3674
▁whores	-11.3675
▁miracles	-11.3676
▁sniff	-11.368
▁weighs	-11.3684
▁destroying	-11.3686
▁fig	-11.3692
▁boyfriends	-11.3693
▁supposedly	-11.3698
▁bothers	-11.3701
▁votes	-11.3704
eight	-11.3704
▁pod	-11.3705
▁emotion	-11.3711
▁jingle	-11.3717
▁explosive	-11.3717
▁subtitle	-11.3719
▁dressing	-11.3724
▁lau	-11.3729
▁bandit	-11.3732
▁inf	-11.3747
▁vent	-11.3765
▁relatives	-11.3766
hen	-11.3772
▁metall	-11.3784
▁beautifully	-11.3791
▁batt	-11.3794
▁seasons	-11.3806
▁counted	-11.3807
▁whoop	-11.3814
bol	-11.3825
▁valet	-11.3829
table	-11.383
ano	-11.383
▁author	-11.3831
▁ang	-11.3835
▁respected	-11.3835
▁colon	-11.3838
▁tit	-11.3842
▁bananas	-11.3844
▁reai	-11.385
▁owls	-11.3852
run	-11.3852
▁clinic	-11.3859
▁preach	-11.386
▁bonds	-11.3868
▁fianc	-11.387
▁om	-11.3874
iac	-11.3877
▁rom	-11.3884
▁pals	-11.3891
body	-11.3902
▁establish	-11.3904
▁breaker	-11.3904
minute	-11.3909
hunt	-11.3912
nia	-11.3913
▁fang	-11.3914
▁photographs	-11.3914
▁bake	-11.3914
▁felon	-11.3917
▁inspire	-11.3917
van	-11.3918
▁turner	-11.3922
▁numb	-11.3924
▁stitch	-11.3928
▁heii	-11.3928
▁react	-11.393
▁defect	-11.3933
▁resolve	-11.3933
▁philip	-11.3934
▁forbid	-11.3934
▁squash	-11.3934
▁activities	-11.3934
▁awhile	-11.3934
▁baxter	-11.3934
▁beethoven	-11.3934
▁bleach	-11.3934
▁cavalier	-11.3934
▁charlotte	-11.3934
▁chihiro	-11.3934
▁columbus	-11.3934
▁courier	-11.3934
▁crucifixion	-11.3934
▁curfew	-11.3934
▁dracone	-11.3934
▁dufresne	-11.3934
▁enhance	-11.3934
▁errand	-11.3934
▁execution	-11.3934
▁grabelski	-11.3934
▁gurney	-11.3934
▁institute	-11.3934
▁jonathan	-11.3934
▁joshua	-11.3934
▁kirk	-11.3934
▁lansky	-11.3934
▁lloyd	-11.3934
▁maximus	-11.3934
▁melissa	-11.3934
▁mercury	-11.3934
▁olivia	-11.3934
▁precaution	-11.3934
▁prosecutor	-11.3934
▁regulations	-11.3934
▁rwanda	-11.3934
▁samantha	-11.3934
▁sardaukar	-11.3934
▁souvenir	-11.3934
▁suribachi	-11.3934
▁sybok	-11.3934
▁vagina	-11.3934
▁voodoo	-11.3934
▁applied	-11.3934
▁cairo	-11.3934
▁disorder	-11.3934
▁elegant	-11.3934
▁louisiana	-11.3934
▁madagin	-11.3934
▁orient	-11.3934
▁fourteen	-11.3934
▁phony	-11.3934
▁tolerate	-11.3934
▁visible	-11.3934
▁panicked	-11.3934
▁doodoo	-11.3934
▁insight	-11.3934
▁alvin	-11.3934
▁estimate	-11.3934
▁layeeodl	-11.3934
▁elevate	-11.3934
▁mattress	-11.3934
▁coroner	-11.3934
▁friedrich	-11.3934
▁exwife	-11.3934
▁mankind	-11.3935
▁squawking	-11.3935
▁underworld	-11.3935
▁administration	-11.3935
▁rumour	-11.3935
▁tingle	-11.3935
▁coconut	-11.3935
▁fungus	-11.3935
▁lethal	-11.3935
▁baldwin	-11.3935
▁scramble	-11.3935
▁discount	-11.3935
▁outlaw	-11.3935
▁dorm	-11.3935
▁scoop	-11.3935
▁colette	-11.3935
▁crumb	-11.3935
▁cecil	-11.3935
▁northeast	-11.3935
▁carved	-11.3935
▁pablo	-11.3935
▁retrac	-11.3935
▁confidential	-11.3935
▁flick	-11.3935
▁owlets	-11.3935
▁dragging	-11.3935
▁bloke	-11.3935
▁ahoy	-11.3935
▁genetic	-11.3935
▁suge	-11.3936
▁employment	-11.3936
▁harsh	-11.3936
▁fiction	-11.3936
▁massey	-11.3936
▁cloudland	-11.3936
▁raising	-11.3936
▁shack	-11.3936
▁tapped	-11.3936
▁jammed	-11.3937
▁lionesses	-11.3937
▁micro	-11.3937
▁rejection	-11.3937
▁intellectual	-11.3937
▁freddy	-11.3937
▁piace	-11.3937
▁handwriting	-11.3937
▁whim	-11.3937
▁clues	-11.3937
▁elsewhere	-11.3937
▁lamont	-11.3937
▁membership	-11.3937
▁disappearance	-11.3938
▁spur	-11.3938
▁blackjack	-11.3938
▁exley	-11.3938
▁ramos	-11.3938
▁transportation	-11.3938
▁candyland	-11.3939
▁curb	-11.3939
▁hazel	-11.3939
▁depot	-11.3939
▁rico	-11.3939
▁improve	-11.3939
▁educated	-11.3939
▁peach	-11.394
▁imitate	-11.394
▁countdown	-11.394
▁yessir	-11.394
▁iong	-11.3941
▁tackle	-11.3941
▁attraction	-11.3941
▁gps	-11.3941
▁ivan	-11.3942
▁fal	-11.3943
▁jock	-11.3943
▁windsor	-11.3943
▁rally	-11.3944
▁dino	-11.3944
▁agh	-11.3944
▁depressed	-11.3944
▁relieved	-11.3945
▁settlement	-11.3945
▁slot	-11.3945
▁brotherhood	-11.3946
▁shattered	-11.3946
▁depressing	-11.3946
ility	-11.3946
▁dull	-11.3946
▁pj	-11.3947
▁distinguished	-11.3947
unar	-11.3948
▁wage	-11.3948
▁luisa	-11.3949
▁hiram	-11.395
▁acceptable	-11.3951
▁scalp	-11.3951
▁legit	-11.3952
▁felony	-11.3952
▁wooden	-11.3954
▁hideout	-11.3954
▁rusty	-11.3955
▁mug	-11.3955
▁maps	-11.3956
▁stalling	-11.3957
▁stuffed	-11.3957
▁cutler	-11.3957
▁reel	-11.3957
▁rapid	-11.3958
▁honorable	-11.3959
▁exposed	-11.3959
▁christine	-11.396
▁slum	-11.396
▁collector	-11.3962
▁tray	-11.3962
▁recovery	-11.3968
▁funky	-11.397
▁grinding	-11.3972
▁posters	-11.3972
▁brandt	-11.3975
▁freeway	-11.3982
handed	-11.3984
ken	-11.3987
▁traps	-11.3988
▁wandering	-11.3993
▁lyrics	-11.3995
▁fro	-11.3996
▁weeping	-11.3998
▁pouring	-11.3999
▁disturbing	-11.3999
▁chicks	-11.4004
▁handful	-11.4004
▁lining	-11.4008
▁kite	-11.4009
▁elders	-11.4009
▁roberto	-11.4012
▁traced	-11.4022
▁performing	-11.4031
▁shithead	-11.4033
▁responding	-11.4037
▁recognized	-11.404
▁grove	-11.4046
▁dialing	-11.405
▁taco	-11.4059
▁ura	-11.4061
▁interrupting	-11.4065
▁pastor	-11.4071
▁warmer	-11.4076
▁limb	-11.4081
tti	-11.4082
▁quo	-11.4088
ration	-11.409
▁pum	-11.4091
▁mule	-11.4101
▁slowing	-11.4101
▁winners	-11.4117
▁squeaks	-11.4119
▁spreading	-11.4123
▁punched	-11.4124
▁fairly	-11.4128
ini	-11.4131
▁vegetables	-11.4132
▁pri	-11.4137
▁tours	-11.4144
tech	-11.4145
▁bel	-11.4146
▁added	-11.4148
▁ordering	-11.4154
▁info	-11.4155
▁caves	-11.4157
▁smoked	-11.4167
indo	-11.4177
ello	-11.4179
▁weirdo	-11.418
▁champs	-11.4189
▁deeds	-11.4191
▁ringo	-11.4193
▁sync	-11.42
▁beau	-11.4202
▁artists	-11.4207
aught	-11.4214
fold	-11.4217
▁flames	-11.4234
▁boob	-11.4257
▁wool	-11.4259
▁models	-11.4262
iu	-11.4264
▁blinded	-11.4268
▁restaurants	-11.4272
har	-11.4275
▁awaits	-11.4279
▁carla	-11.4284
▁products	-11.4287
▁ranks	-11.4307
▁cough	-11.431
▁comedy	-11.4314
▁pursue	-11.4315
watch	-11.4318
▁quin	-11.4328
▁fol	-11.4335
▁antique	-11.4342
▁smelled	-11.4372
kins	-11.4376
dra	-11.4397
▁pra	-11.4427
▁ripe	-11.4428
hhh	-11.4429
rah	-11.4438
▁forg	-11.4451
other	-11.4454
gar	-11.4471
▁logs	-11.4482
essa	-11.4486
▁embarrass	-11.4495
▁orc	-11.4516
eth	-11.4517
come	-11.452
▁cur	-11.4522
▁detect	-11.4522
▁trespass	-11.4524
▁shush	-11.4525
▁glow	-11.4526
▁invent	-11.4526
boat	-11.4528
▁accomplish	-11.4529
▁colour	-11.453
▁dismiss	-11.4531
▁haunt	-11.4531
rink	-11.4532
▁addict	-11.4533
▁playin	-11.4533
flower	-11.4534
range	-11.4538
wall	-11.4538
burn	-11.4539
▁determine	-11.4541
▁slipper	-11.4544
coco	-11.4546
▁terrorists	-11.4549
▁tru	-11.4551
▁andre	-11.4554
gro	-11.4555
▁feei	-11.4555
▁helm	-11.4556
▁surge	-11.4557
▁construct	-11.4558
▁aqu	-11.4558
▁manipulat	-11.4558
▁wheat	-11.4559
▁sponsor	-11.4559
▁admission	-11.4559
▁alessandra	-11.4559
▁allergic	-11.4559
▁alligator	-11.4559
▁ambassador	-11.4559
▁anticipate	-11.4559
▁audio	-11.4559
▁bruno	-11.4559
▁cafeteria	-11.4559
▁cataleya	-11.4559
▁caviar	-11.4559
▁cemetery	-11.4559
▁christopher	-11.4559
▁clarity	-11.4559
▁clumsy	-11.4559
▁competitive	-11.4559
▁corliss	-11.4559
▁cynthia	-11.4559
▁dauntless	-11.4559
▁definition	-11.4559
▁deflect	-11.4559
▁ebenezer	-11.4559
▁embassy	-11.4559
▁equation	-11.4559
▁exotic	-11.4559
▁facial	-11.4559
▁ffynnon	-11.4559
▁footprint	-11.4559
▁grazie	-11.4559
▁happier	-11.4559
▁hourglass	-11.4559
▁huddle	-11.4559
▁indulge	-11.4559
▁investigator	-11.4559
▁judicial	-11.4559
▁katherine	-11.4559
▁kopernick	-11.4559
▁legitimate	-11.4559
▁lestrade	-11.4559
▁mademoiselle	-11.4559
▁merchant	-11.4559
▁meredith	-11.4559
▁miiiion	-11.4559
▁octopus	-11.4559
▁overseas	-11.4559
▁parallel	-11.4559
▁parliament	-11.4559
▁prejudice	-11.4559
▁prevail	-11.4559
▁qualify	-11.4559
▁recognition	-11.4559
▁roadblock	-11.4559
▁rodriguez	-11.4559
▁shelby	-11.4559
▁shepherd	-11.4559
▁significant	-11.4559
▁simpson	-11.4559
▁snorting	-11.4559
▁spaghetti	-11.4559
▁sufficient	-11.4559
▁suspended	-11.4559
▁testimony	-11.4559
▁tobacco	-11.4559
▁vampire	-11.4559
▁wachati	-11.4559
▁wachootoo	-11.4559
▁whinnies	-11.4559
▁yubaba	-11.4559
▁authentic	-11.4559
▁bullseye	-11.4559
▁enlighten	-11.4559
▁ongoing	-11.4559
▁prairie	-11.4559
▁shelf	-11.4559
▁spear	-11.4559
▁urine	-11.4559
▁watson	-11.4559
▁ezra	-11.4559
▁sliding	-11.4559
▁wlll	-11.4559
▁bueno	-11.4559
▁canvas	-11.4559
▁detach	-11.4559
▁eager	-11.4559
▁flint	-11.4559
▁loony	-11.4559
▁dvd	-11.4559
▁neighbourhood	-11.4559
▁vigilante	-11.4559
▁manifest	-11.4559
▁sponge	-11.4559
▁crisp	-11.4559
▁seminar	-11.4559
▁iisten	-11.4559
▁stern	-11.4559
▁teamsters	-11.4559
▁anniversary	-11.456
▁hiphop	-11.456
▁marijuana	-11.456
▁operative	-11.456
▁tramp	-11.456
▁tuition	-11.456
▁rodney	-11.456
▁gregory	-11.456
▁kettle	-11.456
▁tissue	-11.456
▁flank	-11.456
▁abagnale	-11.456
▁beaver	-11.456
▁celia	-11.456
▁slurping	-11.456
▁ducard	-11.456
▁craig	-11.456
▁token	-11.456
▁paddle	-11.456
▁butler	-11.456
▁expedition	-11.456
▁blares	-11.456
▁hunch	-11.456
▁fiji	-11.456
▁freddie	-11.456
▁geneva	-11.456
▁chacon	-11.456
▁depression	-11.456
▁trusting	-11.456
▁liking	-11.456
▁atmosphere	-11.456
▁beggar	-11.456
▁babysitter	-11.456
▁mabel	-11.456
▁upright	-11.456
▁devoted	-11.4561
▁absent	-11.4561
▁jeep	-11.4561
▁documentary	-11.4561
▁descent	-11.4561
▁sofa	-11.4561
▁wrapping	-11.4561
▁foam	-11.4561
▁slay	-11.4561
▁youyou	-11.4562
▁cruising	-11.4562
▁flipped	-11.4562
▁sensor	-11.4562
▁buii	-11.4562
▁permitted	-11.4562
▁perez	-11.4562
▁margie	-11.4563
▁slightest	-11.4563
▁chug	-11.4563
▁morse	-11.4563
▁improvement	-11.4564
▁toid	-11.4564
▁cartel	-11.4564
▁overhead	-11.4564
▁partnership	-11.4564
▁courtroom	-11.4564
itating	-11.4564
▁portland	-11.4565
▁grimes	-11.4565
▁conviction	-11.4565
▁petty	-11.4565
now	-11.4565
▁marx	-11.4566
▁sidewalk	-11.4567
▁conta	-11.4567
▁shelley	-11.4568
▁teasing	-11.4568
▁waist	-11.4569
▁dickens	-11.4569
▁inherited	-11.4572
▁improvise	-11.4572
▁broom	-11.4572
▁kidney	-11.4574
▁dong	-11.4574
▁lamar	-11.4575
▁chart	-11.4577
▁skipper	-11.4578
▁stealth	-11.4579
▁nsa	-11.458
▁summoned	-11.4581
▁explorer	-11.4587
▁nations	-11.4588
▁produced	-11.4589
▁gale	-11.459
▁employer	-11.459
▁sour	-11.4592
▁rental	-11.4593
▁grain	-11.4595
▁vu	-11.4596
▁linger	-11.4598
▁volunteered	-11.46
▁physically	-11.4603
▁philly	-11.4604
▁skate	-11.4605
▁trio	-11.4605
▁desperately	-11.4607
▁neighbours	-11.461
▁cosmo	-11.4615
▁silencer	-11.4619
▁jeans	-11.4622
▁viva	-11.4622
▁nor	-11.4623
▁louisa	-11.4624
▁correction	-11.4631
▁protector	-11.4632
▁swallowed	-11.4635
▁bottomly	-11.4638
▁wired	-11.4639
▁uk	-11.4642
▁rifles	-11.4648
▁effects	-11.4648
▁moody	-11.4649
▁flowing	-11.4652
▁vargas	-11.4653
▁revealed	-11.4654
▁lair	-11.4671
▁careless	-11.4678
ata	-11.4684
▁spi	-11.4689
▁complaining	-11.4697
▁booked	-11.4698
▁missus	-11.4698
okie	-11.47
ily	-11.4703
▁carat	-11.4707
▁sup	-11.4708
▁teth	-11.4709
▁cling	-11.4716
▁dela	-11.4717
▁greatness	-11.4718
▁tricky	-11.4719
▁sow	-11.4734
▁privilege	-11.4737
▁dayton	-11.4738
▁oni	-11.4744
▁dealers	-11.4755
▁principles	-11.4755
▁lifted	-11.4763
▁prefers	-11.4765
▁pea	-11.4769
▁italians	-11.4769
take	-11.4769
▁paste	-11.4772
▁moans	-11.4773
▁cooked	-11.478
▁antiques	-11.4785
▁lure	-11.4789
▁neednt	-11.4793
▁actors	-11.4796
▁yorker	-11.4797
▁eyeballs	-11.4814
▁questioned	-11.482
▁are	-11.4832
nte	-11.4833
▁linen	-11.4843
▁killin	-11.4853
ency	-11.4857
▁cp	-11.4864
▁ramp	-11.4873
hard	-11.4885
▁lim	-11.4896
▁instincts	-11.4917
▁sailors	-11.4919
▁shi	-11.4921
hop	-11.4937
eau	-11.496
cker	-11.4963
▁fails	-11.497
▁sausages	-11.4976
▁tease	-11.4977
▁wished	-11.4981
▁mont	-11.4981
▁pressing	-11.4986
▁moan	-11.4986
▁riddle	-11.4991
gawa	-11.4994
▁compliments	-11.5003
▁cove	-11.5003
▁vegetable	-11.5006
▁candle	-11.5008
▁tyre	-11.5016
▁yii	-11.5018
▁hardy	-11.5022
▁cd	-11.5032
▁fightin	-11.5035
part	-11.5035
cop	-11.5044
▁este	-11.5047
▁presented	-11.5054
▁whir	-11.5073
home	-11.5078
▁pricks	-11.5081
count	-11.5089
▁coll	-11.509
▁gall	-11.5095
▁andys	-11.5096
▁uni	-11.5107
▁critic	-11.5109
eater	-11.5124
▁robe	-11.5125
ente	-11.5136
▁shotguns	-11.5141
god	-11.5149
pose	-11.516
▁employ	-11.5161
atta	-11.5168
▁dart	-11.5168
mble	-11.5173
▁strain	-11.5174
▁sei	-11.5176
▁bees	-11.5185
▁what	-11.5185
▁annoy	-11.5192
▁thump	-11.5192
▁reject	-11.5194
▁clank	-11.5196
pound	-11.5202
▁refuge	-11.5208
▁pimp	-11.5214
▁programme	-11.5216
band	-11.5217
▁judea	-11.5218
▁flam	-11.5219
▁torch	-11.522
▁sneez	-11.522
▁origin	-11.5221
▁delusion	-11.5221
▁withdraw	-11.5221
▁disrupt	-11.5223
▁nightclub	-11.5224
▁intent	-11.5226
▁architect	-11.5226
▁compassion	-11.5226
▁pilgrim	-11.5226
▁abroad	-11.5226
▁accompany	-11.5226
▁acquaintance	-11.5226
▁altogether	-11.5226
▁arendelle	-11.5226
▁autopsy	-11.5226
▁bacall	-11.5226
▁barzini	-11.5226
▁bernadette	-11.5226
▁bertrand	-11.5226
▁collignon	-11.5226
▁cypher	-11.5226
▁dauphin	-11.5226
▁deception	-11.5226
▁dowry	-11.5226
▁eyebrow	-11.5226
▁faramir	-11.5226
▁felicia	-11.5226
▁glitter	-11.5226
▁grumpy	-11.5226
▁gurgling	-11.5226
▁harkonnen	-11.5226
▁hasnat	-11.5226
▁hobby	-11.5226
▁infiltrat	-11.5226
▁ingredient	-11.5226
▁invasion	-11.5226
▁invincible	-11.5226
▁inviting	-11.5226
▁kullimon	-11.5226
▁kwame	-11.5226
▁kynes	-11.5226
▁lorelei	-11.5226
▁ludwig	-11.5226
▁luxury	-11.5226
▁maguire	-11.5226
▁microwave	-11.5226
▁midwest	-11.5226
▁miniboss	-11.5226
▁nowadays	-11.5226
▁obstacle	-11.5226
▁obtain	-11.5226
▁owimoweh	-11.5226
▁perfume	-11.5226
▁perspective	-11.5226
▁profound	-11.5226
▁prophecy	-11.5226
▁reconsider	-11.5226
▁rodolfo	-11.5226
▁sahib	-11.5226
▁scissors	-11.5226
▁separation	-11.5226
▁shinyoung	-11.5226
▁shrubbery	-11.5226
▁sicilian	-11.5226
▁stilgar	-11.5226
▁sweeney	-11.5226
▁tennessee	-11.5226
▁theatre	-11.5226
▁tshirt	-11.5226
▁tumnus	-11.5226
▁unacceptable	-11.5226
▁unemployed	-11.5226
▁variety	-11.5226
▁whichever	-11.5226
▁willard	-11.5226
▁ymbryne	-11.5226
▁assemble	-11.5226
▁carlisle	-11.5226
▁contradict	-11.5226
▁federation	-11.5226
▁komay	-11.5226
▁nylon	-11.5226
▁sprinkle	-11.5226
▁survey	-11.5226
▁veteran	-11.5226
▁buddha	-11.5226
▁cindy	-11.5226
▁predator	-11.5226
▁saloon	-11.5226
▁sperm	-11.5226
▁nevertheless	-11.5226
▁sushi	-11.5226
▁altar	-11.5226
▁horde	-11.5226
▁conclude	-11.5226
▁gorilla	-11.5226
▁carolyn	-11.5226
▁reign	-11.5226
▁hottest	-11.5226
▁penetrate	-11.5226
▁bloodshed	-11.5226
▁carlotta	-11.5226
▁strawberry	-11.5226
▁loneliness	-11.5226
▁iraq	-11.5226
▁flea	-11.5226
▁interstate	-11.5226
▁fanfare	-11.5226
▁annika	-11.5226
▁durden	-11.5226
▁skunk	-11.5226
▁yummy	-11.5227
▁roach	-11.5227
▁holler	-11.5227
▁pearson	-11.5227
▁blaming	-11.5227
▁stoke	-11.5227
▁finance	-11.5227
▁fleck	-11.5227
▁swore	-11.5227
▁smitty	-11.5227
▁outrun	-11.5227
▁trading	-11.5227
▁blunt	-11.5227
▁obsession	-11.5227
▁iq	-11.5227
▁rogas	-11.5227
▁swish	-11.5227
▁minions	-11.5227
▁roland	-11.5227
▁chunk	-11.5227
▁hmong	-11.5227
▁forehead	-11.5228
▁roam	-11.5228
▁sniffling	-11.5228
▁deborah	-11.5228
▁mature	-11.5228
▁mold	-11.5228
▁punt	-11.5228
▁psychotic	-11.5228
▁stella	-11.5228
▁swimmer	-11.5228
▁notebook	-11.5229
▁february	-11.5229
▁aight	-11.5229
▁fiber	-11.5229
▁timber	-11.5229
▁leadership	-11.5229
▁quant	-11.5229
▁chopped	-11.5229
▁whiskers	-11.5229
▁esther	-11.5229
▁pickett	-11.5229
▁heather	-11.523
▁porque	-11.523
▁iove	-11.523
▁stroll	-11.523
▁tanner	-11.523
▁abba	-11.523
▁jayson	-11.523
▁strangler	-11.523
▁psychic	-11.523
▁chump	-11.523
▁mimic	-11.523
▁garw	-11.5231
▁digger	-11.5231
▁objective	-11.5231
▁austrian	-11.5231
▁serk	-11.5231
▁dube	-11.5231
▁landmark	-11.5231
▁ballister	-11.5231
▁hound	-11.5232
▁vibrating	-11.5232
▁polar	-11.5232
▁frequency	-11.5232
▁condom	-11.5233
▁humiliated	-11.5233
▁stanley	-11.5233
▁robinson	-11.5234
▁urge	-11.5234
▁valve	-11.5234
▁hyper	-11.5234
▁chow	-11.5235
▁meaningless	-11.5235
▁shipping	-11.5236
▁auf	-11.5236
▁formation	-11.5238
▁mamma	-11.5239
▁splitting	-11.5239
▁intro	-11.5239
▁edit	-11.5239
▁bien	-11.5239
▁sway	-11.524
▁harper	-11.5241
▁juliet	-11.5241
suit	-11.5241
▁facebook	-11.5242
▁barish	-11.5242
▁condemned	-11.5243
▁sheer	-11.5243
▁loco	-11.5244
hine	-11.5244
▁priceless	-11.5244
▁deke	-11.5247
▁wolfie	-11.5248
▁bitten	-11.5249
▁rival	-11.525
▁sac	-11.5251
▁dopeman	-11.5252
▁majority	-11.5253
▁sharpen	-11.5254
▁edie	-11.5256
ature	-11.5258
▁magician	-11.526
▁kent	-11.526
▁esc	-11.5261
▁crooked	-11.5261
▁offended	-11.5261
▁declared	-11.5263
▁mild	-11.5266
▁wealthy	-11.5267
▁installed	-11.5267
▁tina	-11.5268
▁weaken	-11.5269
gua	-11.5273
state	-11.5274
▁announced	-11.5275
▁shaken	-11.5277
▁hiring	-11.5278
▁spilled	-11.5279
▁eta	-11.5279
▁headline	-11.5285
▁limp	-11.5286
▁fishman	-11.5289
▁turd	-11.5289
▁pint	-11.5295
▁crocodiles	-11.5296
▁creedy	-11.5297
▁sleepy	-11.5297
▁whacked	-11.5297
▁safest	-11.5298
▁ignored	-11.5298
▁representing	-11.5299
▁depending	-11.5301
▁weakly	-11.5301
▁tucked	-11.5302
▁cheaper	-11.5302
▁described	-11.5303
▁defeated	-11.5303
▁agora	-11.5307
▁pam	-11.5315
▁suspense	-11.5319
▁leaking	-11.5327
▁riches	-11.5327
ewer	-11.533
▁mining	-11.5339
▁homeland	-11.5342
ji	-11.5342
▁rei	-11.5342
▁refugees	-11.5349
▁collected	-11.535
▁nightmares	-11.5352
▁mathematics	-11.5356
▁sincere	-11.5357
▁contra	-11.5359
▁images	-11.536
tive	-11.537
▁convers	-11.5376
▁intern	-11.5378
▁difficulty	-11.5397
type	-11.5403
▁geezer	-11.5415
▁gru	-11.542
▁elbows	-11.542
▁witnessed	-11.5421
▁haste	-11.5431
rica	-11.5435
▁fasten	-11.5444
▁rushing	-11.5444
amin	-11.5448
▁pier	-11.5452
tile	-11.5457
urg	-11.5461
▁charts	-11.5463
▁shorter	-11.5471
▁pissing	-11.5472
▁fin	-11.5483
▁bandits	-11.5486
▁helpless	-11.5491
eryl	-11.5496
agged	-11.55
▁umm	-11.5532
▁directions	-11.5539
▁realm	-11.5543
▁lid	-11.5544
▁server	-11.5547
▁discipline	-11.5556
▁ak	-11.5558
▁painter	-11.5562
▁lemons	-11.5562
▁sticky	-11.5583
▁dated	-11.5592
▁knot	-11.5593
rum	-11.5594
igan	-11.5599
minded	-11.5607
liness	-11.5609
▁enterprises	-11.561
rez	-11.5613
▁extract	-11.5616
▁mash	-11.5626
▁syn	-11.5647
ndo	-11.5649
▁camper	-11.5665
dar	-11.5668
▁squeak	-11.5685
dog	-11.5689
ika	-11.5697
▁dec	-11.5704
▁cain	-11.5704
▁tracker	-11.5705
verge	-11.5705
▁squirrel	-11.5718
▁forge	-11.5718
▁principle	-11.5724
▁bom	-11.5727
▁dur	-11.5733
▁spar	-11.5733
▁heel	-11.5737
▁vet	-11.5738
▁locking	-11.5749
▁carrie	-11.575
▁tran	-11.5774
▁greeting	-11.5783
▁skid	-11.579
▁chang	-11.5794
▁jac	-11.5798
▁assignments	-11.5801
▁emails	-11.5817
▁fri	-11.5817
mart	-11.5829
bed	-11.5842
▁communists	-11.5848
▁towels	-11.585
▁historic	-11.585
▁spec	-11.5855
▁disse	-11.5862
bert	-11.587
▁butch	-11.5872
▁frighten	-11.5876
inary	-11.5883
ware	-11.5892
▁arabs	-11.5898
▁comments	-11.5898
▁experiments	-11.5898
▁squeals	-11.59
get	-11.5901
▁bree	-11.5901
▁herm	-11.5904
that	-11.5904
▁sustain	-11.5911
▁scatter	-11.5912
ability	-11.5913
▁magazines	-11.5914
john	-11.5915
yeah	-11.5915
▁amaze	-11.5922
▁burglar	-11.5922
▁relate	-11.5922
▁retain	-11.5928
char	-11.5929
dollar	-11.5932
▁cockroach	-11.5934
cock	-11.5935
▁havin	-11.5937
▁harris	-11.5937
▁rog	-11.5938
▁enforce	-11.5939
▁transmit	-11.5939
▁casual	-11.5939
▁compare	-11.594
▁blossom	-11.594
▁expand	-11.594
▁forecast	-11.594
▁fragment	-11.594
▁marvellous	-11.594
▁scorch	-11.594
greatgrandfather	-11.594
▁airborne	-11.594
▁alleged	-11.594
▁belfast	-11.594
▁bieber	-11.594
▁bracket	-11.594
▁buchanan	-11.594
▁calculation	-11.594
▁calendar	-11.594
▁celtics	-11.594
▁chanchad	-11.594
▁chimney	-11.594
▁cicero	-11.594
▁cycle	-11.594
▁database	-11.594
▁defensive	-11.594
▁detonator	-11.594
▁dialogue	-11.594
▁dimple	-11.594
▁dungeon	-11.594
▁elaborate	-11.594
▁exquisite	-11.594
▁frustration	-11.594
▁fundraiser	-11.594
▁garnett	-11.594
▁gunpowder	-11.594
▁gypsy	-11.594
▁heinrich	-11.594
▁heritage	-11.594
▁hyena	-11.594
▁imbecile	-11.594
▁immune	-11.594
▁industrial	-11.594
▁integrity	-11.594
▁intergang	-11.594
▁involving	-11.594
▁isengard	-11.594
▁isildur	-11.594
▁jumpathon	-11.594
▁kindergarten	-11.594
▁limousine	-11.594
▁mackenzie	-11.594
▁maggot	-11.594
▁mcpherson	-11.594
▁melanie	-11.594
▁misunderstood	-11.594
▁monstrous	-11.594
▁mufasa	-11.594
▁nuisance	-11.594
▁occupation	-11.594
▁premature	-11.594
▁prostitute	-11.594
▁puddle	-11.594
▁puppet	-11.594
▁quarantine	-11.594
▁reeves	-11.594
▁reunion	-11.594
▁revelation	-11.594
▁savior	-11.594
▁shrine	-11.594
▁solitary	-11.594
▁sutler	-11.594
▁therapist	-11.594
▁thunderclap	-11.594
▁tirzah	-11.594
▁torpedo	-11.594
▁transaction	-11.594
▁translation	-11.594
▁twilight	-11.594
▁uncover	-11.594
▁unpredictable	-11.594
▁vague	-11.594
▁veronica	-11.594
▁veruca	-11.594
▁wangdu	-11.594
▁wiedersehen	-11.594
▁yourseif	-11.594
▁cabbage	-11.594
▁deceive	-11.594
▁greta	-11.594
▁handshake	-11.594
▁klingon	-11.594
▁marquess	-11.594
▁penthouse	-11.594
▁ocp	-11.594
▁physics	-11.594
▁zeena	-11.594
▁courtesan	-11.594
▁krest	-11.594
▁scram	-11.594
▁vlad	-11.594
▁website	-11.594
▁amusing	-11.594
▁granddad	-11.594
▁floyd	-11.594
▁waving	-11.594
▁presume	-11.594
▁exceed	-11.594
▁spades	-11.594
▁orlando	-11.5941
▁meyer	-11.5941
▁psychological	-11.5941
▁launder	-11.5941
▁emerge	-11.5941
▁brewery	-11.5941
▁hydro	-11.5941
▁lonesome	-11.5941
▁lipstick	-11.5941
▁francs	-11.5941
▁sheik	-11.5941
▁tennis	-11.5941
▁luther	-11.5941
▁quando	-11.5941
▁upstate	-11.5941
▁hicks	-11.5941
▁morgue	-11.5941
▁solando	-11.5941
▁goofy	-11.5941
▁charging	-11.5941
▁rican	-11.5941
▁interference	-11.5941
▁absence	-11.5941
▁interior	-11.5941
▁guido	-11.5941
▁gazzo	-11.5941
▁upload	-11.5941
▁tolan	-11.5941
▁automatically	-11.5941
▁quack	-11.5941
▁arielle	-11.5941
▁injection	-11.5941
▁gagging	-11.5941
▁vanilla	-11.5941
▁thermal	-11.5942
▁comedian	-11.5942
▁wimp	-11.5942
▁lease	-11.5942
▁ethic	-11.5942
▁radioactive	-11.5942
▁organism	-11.5942
▁blueberry	-11.5942
▁steep	-11.5942
▁captive	-11.5942
▁password	-11.5942
▁fudge	-11.5942
▁transferring	-11.5942
▁retail	-11.5942
▁corruption	-11.5942
▁harness	-11.5943
▁baking	-11.5943
▁utter	-11.5943
▁undone	-11.5943
▁merciful	-11.5943
▁revolutionary	-11.5943
▁rizzio	-11.5943
▁legendary	-11.5943
▁reflection	-11.5943
▁turk	-11.5943
▁deliberately	-11.5943
▁transition	-11.5943
▁whipped	-11.5943
▁denial	-11.5943
▁glue	-11.5943
▁disappointment	-11.5943
▁arson	-11.5943
▁ripping	-11.5944
▁rodent	-11.5944
▁playground	-11.5944
▁tasty	-11.5944
▁oof	-11.5944
▁attendant	-11.5944
▁cement	-11.5944
▁amber	-11.5944
▁tuco	-11.5945
▁entitled	-11.5945
▁kgb	-11.5945
▁rotting	-11.5946
▁redford	-11.5947
▁terrain	-11.5947
▁knit	-11.5947
▁rational	-11.5947
▁royalty	-11.5948
▁milano	-11.5948
▁allowance	-11.5948
▁stew	-11.5948
▁pac	-11.5949
▁conners	-11.5949
▁hijack	-11.5949
▁tomatoes	-11.5951
▁eise	-11.5951
▁sincerely	-11.5952
▁stir	-11.5952
▁consumed	-11.5952
▁gourd	-11.5952
▁courthouse	-11.5953
▁indio	-11.5953
▁infant	-11.5953
▁nightfall	-11.5953
▁korean	-11.5953
▁richardson	-11.5953
▁stepping	-11.5954
▁slit	-11.5956
▁realistic	-11.5956
▁charter	-11.5957
▁flown	-11.5957
▁examiner	-11.5957
▁shattering	-11.5958
▁asian	-11.5958
▁wretched	-11.5959
▁peril	-11.5959
▁samson	-11.5961
▁driveway	-11.5962
imelda	-11.5962
▁seller	-11.5963
▁batter	-11.5963
▁hansen	-11.5966
▁demo	-11.5966
▁hometown	-11.5966
▁designs	-11.5968
▁mice	-11.5968
▁dental	-11.5968
▁quitting	-11.5968
▁communicate	-11.5969
▁mentor	-11.597
▁gunner	-11.597
▁unlikely	-11.5971
▁baked	-11.5972
▁clang	-11.5972
▁activated	-11.5973
▁goodwill	-11.5974
▁startled	-11.5974
▁hornet	-11.5975
▁vera	-11.5978
▁mexicans	-11.5979
▁lust	-11.5981
rig	-11.5982
▁shaved	-11.5983
▁gram	-11.5986
▁jb	-11.5988
▁erased	-11.599
▁soaked	-11.5991
▁richest	-11.5991
▁betsy	-11.5994
▁georgie	-11.5996
▁entertaining	-11.5996
▁flooding	-11.5999
▁freakin	-11.6001
▁roller	-11.6007
▁originally	-11.6008
▁palmer	-11.6011
▁bore	-11.6011
▁madman	-11.6012
▁grim	-11.6013
▁docking	-11.6014
▁skilled	-11.6018
▁meu	-11.602
▁linked	-11.603
▁teammates	-11.6032
stein	-11.6034
▁booster	-11.6036
▁bigtime	-11.6038
▁lighten	-11.604
▁bumped	-11.6042
▁hangman	-11.6045
▁lineup	-11.6048
▁cramp	-11.605
▁verse	-11.6052
▁excitedly	-11.6052
▁youngest	-11.6054
▁scored	-11.6058
▁taff	-11.606
▁liter	-11.6061
▁mhm	-11.6073
▁jai	-11.6073
flat	-11.6075
▁printed	-11.6075
▁warner	-11.6077
▁crushed	-11.6078
▁neighs	-11.6083
▁ribs	-11.609
▁dodg	-11.609
▁vou	-11.6092
▁marce	-11.6092
▁pyramids	-11.6099
▁rhymes	-11.6099
▁boars	-11.61
▁mega	-11.6102
your	-11.6115
▁rang	-11.612
▁hoot	-11.6122
▁readers	-11.6129
▁kik	-11.6129
▁donuts	-11.6133
▁dose	-11.6143
▁placement	-11.6144
▁campo	-11.615
▁translates	-11.615
▁hunger	-11.6154
▁tearing	-11.616
▁ruled	-11.6161
hair	-11.6163
▁delivering	-11.6166
▁heels	-11.6168
mhmm	-11.6173
tonic	-11.6178
▁prayed	-11.6184
▁riddles	-11.6184
▁ado	-11.6188
▁fare	-11.6188
▁kh	-11.6193
▁cav	-11.6197
▁deserted	-11.6198
▁peas	-11.6199
▁yithe	-11.6205
▁layer	-11.6212
▁fangs	-11.6214
▁zi	-11.6225
▁rainy	-11.6235
mba	-11.6236
▁traveled	-11.6236
▁wah	-11.6239
▁bran	-11.6241
▁judged	-11.6242
▁traditional	-11.6265
▁takeoff	-11.6268
▁blocking	-11.6278
▁enc	-11.6279
▁pickle	-11.6285
▁conclusions	-11.6285
rang	-11.6303
▁mute	-11.6304
▁moth	-11.6306
▁that	-11.631
▁cope	-11.6311
▁bodyguards	-11.632
▁risking	-11.6321
▁mt	-11.6325
▁terri	-11.6327
▁dots	-11.6333
▁contacted	-11.6348
hill	-11.6349
ori	-11.6357
▁oft	-11.6363
nick	-11.6365
▁pose	-11.6371
▁benefits	-11.6371
▁hub	-11.6382
▁gags	-11.6383
▁speeding	-11.6391
▁chic	-11.6402
▁prec	-11.6409
▁nathe	-11.6416
▁wal	-11.6417
▁drawers	-11.6421
was	-11.6429
izer	-11.6441
nows	-11.6442
▁ib	-11.6446
▁affects	-11.6464
card	-11.6484
▁translate	-11.6488
▁elbow	-11.6489
▁astronaut	-11.649
▁edmunds	-11.6491
position	-11.6494
zel	-11.6495
▁coordinate	-11.65
ander	-11.651
post	-11.653
▁includes	-11.6544
▁bor	-11.6545
▁dam	-11.6559
▁feared	-11.6563
keep	-11.6576
▁doe	-11.6576
▁bea	-11.6576
▁bookie	-11.6579
▁awards	-11.6586
▁diver	-11.6586
▁writ	-11.6589
▁elect	-11.6595
▁cass	-11.6597
ider	-11.6602
▁tel	-11.6605
faced	-11.6608
rge	-11.6613
zza	-11.6631
law	-11.6651
war	-11.6662
▁chirp	-11.6675
aah	-11.6676
▁aro	-11.6677
▁roost	-11.6679
american	-11.6683
buster	-11.6684
control	-11.6684
horse	-11.6684
smith	-11.6685
scope	-11.6686
▁pronounce	-11.6691
case	-11.6691
▁confuse	-11.6692
▁promote	-11.6692
▁puss	-11.67
▁familia	-11.6703
jack	-11.6703
▁jess	-11.6704
▁whisk	-11.6705
▁drivin	-11.6705
▁egypt	-11.6706
iological	-11.6707
▁margaret	-11.6708
▁excess	-11.6709
▁consist	-11.6709
▁scholar	-11.6709
▁meteor	-11.6709
▁abbey	-11.671
▁altobello	-11.671
▁amulet	-11.671
▁analysis	-11.671
▁arashikage	-11.671
▁arbogast	-11.671
▁autumn	-11.671
▁baptist	-11.671
▁bizarre	-11.671
▁blimey	-11.671
▁budapest	-11.671
▁cannibal	-11.671
▁carnival	-11.671
▁climate	-11.671
▁cognac	-11.671
▁condolences	-11.671
▁congratulate	-11.671
▁consigliere	-11.671
▁copilot	-11.671
▁covenant	-11.671
▁crossbow	-11.671
▁crusade	-11.671
▁cuckoo	-11.671
▁dammit	-11.671
▁democracy	-11.671
▁discreet	-11.671
▁distribution	-11.671
▁domenico	-11.671
▁dwarves	-11.671
▁eleanor	-11.671
▁ernesto	-11.671
▁eskimo	-11.671
▁exorcism	-11.671
▁facilities	-11.671
▁fanucci	-11.671
▁florence	-11.671
▁frequent	-11.671
▁galahad	-11.671
▁gauge	-11.671
▁glitch	-11.671
▁gunnison	-11.671
▁immigrant	-11.671
▁immobiliare	-11.671
▁impatient	-11.671
▁inappropriate	-11.671
▁inevitable	-11.671
▁initiative	-11.671
▁innovative	-11.671
▁irresponsible	-11.671
▁jigsaw	-11.671
▁judging	-11.671
▁kalloor	-11.671
▁karras	-11.671
▁leparq	-11.671
▁mechanism	-11.671
▁militia	-11.671
▁mousetrap	-11.671
▁oasis	-11.671
▁ofrenda	-11.671
▁okkoto	-11.671
▁oklahoma	-11.671
▁otterbourne	-11.671
▁pakistan	-11.671
▁participate	-11.671
▁patricia	-11.671
▁pessoa	-11.671
▁psychiatric	-11.671
▁rasputin	-11.671
▁reopen	-11.671
▁satsuki	-11.671
▁scorpion	-11.671
▁scrawny	-11.671
▁sempre	-11.671
▁snickers	-11.671
▁snorts	-11.671
▁snuck	-11.671
▁sonofabitch	-11.671
▁spleen	-11.671
▁squirt	-11.671
▁swedish	-11.671
▁sympathy	-11.671
▁symphony	-11.671
▁telegraph	-11.671
▁trixie	-11.671
▁ungrateful	-11.671
▁urban	-11.671
▁vegetarian	-11.671
▁vulcan	-11.671
▁weasel	-11.671
▁wiseguys	-11.671
▁advertise	-11.671
▁aldrin	-11.671
▁barnaby	-11.671
▁caleb	-11.671
▁cipher	-11.671
▁closure	-11.671
▁disobey	-11.671
▁filter	-11.671
▁garcin	-11.671
▁kassar	-11.671
▁kenzie	-11.671
▁lilliput	-11.671
▁module	-11.671
▁paramedic	-11.671
▁parcher	-11.671
▁probation	-11.671
▁ragsdale	-11.671
▁reboot	-11.671
▁reindeer	-11.671
▁soninlaw	-11.671
▁starvation	-11.671
▁treacher	-11.671
▁voight	-11.671
ctical	-11.671
▁eversmann	-11.671
▁itsits	-11.671
▁madison	-11.671
▁panama	-11.671
▁pilate	-11.671
▁seduce	-11.671
▁sensible	-11.671
▁amendment	-11.671
▁envy	-11.671
▁ghostbusters	-11.671
▁torment	-11.671
▁fidel	-11.671
▁diving	-11.671
▁tatsi	-11.671
▁whatsoever	-11.671
▁yield	-11.671
▁backpack	-11.671
▁porsche	-11.671
▁resort	-11.671
▁slash	-11.671
▁antarctic	-11.671
▁calculate	-11.671
▁tweet	-11.671
▁patsey	-11.671
▁asap	-11.671
▁kryptonite	-11.671
▁hamster	-11.671
▁heartache	-11.671
▁millionaire	-11.671
▁hamburger	-11.671
▁lainie	-11.671
▁morphine	-11.671
▁grammar	-11.671
▁poopsie	-11.671
▁bruv	-11.671
▁microphone	-11.671
▁gel	-11.671
▁muslim	-11.671
▁patrice	-11.671
▁arrius	-11.671
▁dripping	-11.671
▁oldtimer	-11.671
▁opium	-11.671
▁tractor	-11.671
▁devotion	-11.671
▁intact	-11.671
▁nazg	-11.671
▁hippie	-11.671
▁shaft	-11.671
▁evolutionary	-11.671
▁yuck	-11.671
▁baywatch	-11.671
▁bundle	-11.671
▁garcia	-11.671
▁homie	-11.671
▁dunno	-11.671
▁fuji	-11.671
▁laptop	-11.671
▁dork	-11.6711
▁commend	-11.6711
▁whwhat	-11.6711
▁jeweller	-11.6711
▁cohen	-11.6711
▁heap	-11.6711
▁nitro	-11.6711
▁software	-11.6711
▁providence	-11.6711
▁referee	-11.6711
▁snuff	-11.6711
▁peacekeeper	-11.6711
▁bugging	-11.6711
▁instructor	-11.6711
▁whatve	-11.6712
▁transit	-11.6712
▁remark	-11.6712
▁rustling	-11.6712
▁ashore	-11.6712
▁azul	-11.6712
▁inbound	-11.6712
▁paddy	-11.6712
▁collider	-11.6712
▁numero	-11.6712
▁quarterback	-11.6712
▁dandy	-11.6712
▁babysit	-11.6712
▁timmy	-11.6712
▁apiece	-11.6713
▁rail	-11.6713
▁journalist	-11.6713
▁disposal	-11.6713
▁wept	-11.6713
▁cherish	-11.6713
▁faun	-11.6714
▁hatchet	-11.6714
▁vase	-11.6714
▁fellowship	-11.6714
▁elderly	-11.6714
▁hotshot	-11.6714
▁shuffle	-11.6715
▁kobe	-11.6715
▁recommendation	-11.6715
▁gimli	-11.6715
▁preferred	-11.6715
▁lobo	-11.6715
▁committing	-11.6715
ulein	-11.6715
▁blondie	-11.6715
▁courageous	-11.6715
▁slur	-11.6716
▁omice	-11.6716
▁wack	-11.6716
▁pillar	-11.6716
▁baii	-11.6716
▁rory	-11.6716
▁replacement	-11.6716
▁celeste	-11.6716
▁terrorism	-11.6716
▁morality	-11.6717
▁huntley	-11.6717
▁hardware	-11.6717
▁quill	-11.6717
▁midst	-11.6718
▁exile	-11.6718
▁instructed	-11.6718
▁dragonhead	-11.6718
▁flock	-11.6718
▁collier	-11.6718
▁councilman	-11.6719
▁guano	-11.6719
▁mourning	-11.6719
▁entra	-11.672
▁twink	-11.6721
▁satan	-11.6722
▁mixup	-11.6722
▁alcoholic	-11.6722
▁infected	-11.6722
▁published	-11.6722
▁bravery	-11.6723
▁rj	-11.6725
▁megan	-11.6725
▁branches	-11.6726
▁archie	-11.6727
▁scenery	-11.6727
▁lilly	-11.6727
▁insur	-11.6729
▁battery	-11.673
▁appointed	-11.673
▁nwa	-11.6732
youre	-11.6733
▁gettys	-11.6733
▁cellul	-11.6734
▁invaded	-11.6734
cam	-11.6734
▁suitable	-11.6736
▁stripes	-11.6737
▁scope	-11.6737
▁rebuild	-11.6738
pool	-11.6739
▁departing	-11.6739
▁opt	-11.674
▁restored	-11.674
omb	-11.6741
▁farley	-11.6742
▁rejected	-11.6743
▁cosm	-11.6744
▁lvan	-11.6745
▁joan	-11.675
▁graduated	-11.675
▁specialist	-11.6751
thor	-11.6751
▁ascen	-11.6753
▁tinker	-11.6753
▁hunk	-11.6754
▁maiden	-11.6754
▁deepest	-11.6757
▁distracted	-11.6758
▁nein	-11.6758
▁melted	-11.6759
▁shootout	-11.6764
▁switches	-11.6765
▁clamp	-11.6767
▁bucky	-11.6769
▁policemen	-11.6772
▁shudders	-11.6773
▁blackout	-11.6773
rod	-11.6775
▁justif	-11.6778
▁sweetest	-11.6779
▁slimy	-11.6782
▁slaver	-11.6783
▁healed	-11.6783
▁wiped	-11.6784
▁stinker	-11.6789
▁recruiting	-11.679
▁taller	-11.679
▁provisions	-11.6791
▁barf	-11.6793
▁succeeded	-11.6795
▁regarding	-11.6795
▁raging	-11.68
▁sentenced	-11.6803
▁yale	-11.6804
▁invested	-11.6806
▁passionate	-11.6809
▁teaches	-11.6812
▁mainly	-11.6815
▁irony	-11.6816
▁topic	-11.6818
▁stretched	-11.6821
▁iooking	-11.6821
▁tracey	-11.6825
▁euros	-11.6827
▁dele	-11.6828
▁leaning	-11.6836
▁damp	-11.6837
▁cori	-11.6839
▁assaulted	-11.6839
▁brandy	-11.684
fall	-11.6848
▁flyn	-11.6854
▁bene	-11.686
bil	-11.686
▁cryin	-11.6861
▁jen	-11.6862
▁carne	-11.6863
▁serv	-11.6866
▁peck	-11.6872
▁tighter	-11.6872
pass	-11.6877
▁trumpets	-11.6882
▁chitt	-11.6886
▁anton	-11.689
tima	-11.6897
liest	-11.6899
five	-11.6905
▁crawler	-11.6906
▁lotion	-11.6909
▁cheerleaders	-11.6918
▁sic	-11.6919
▁ave	-11.6923
verse	-11.6924
▁sob	-11.6926
▁tasted	-11.6929
▁ante	-11.6934
▁overlook	-11.6935
▁smiley	-11.694
▁smiled	-11.6944
▁tee	-11.6958
▁levin	-11.6959
▁rim	-11.696
lves	-11.6962
▁pb	-11.6965
▁reno	-11.6971
▁stoned	-11.6992
▁adore	-11.7014
eep	-11.7021
▁hangin	-11.7043
▁trolls	-11.7044
▁colder	-11.7046
▁ola	-11.7048
▁clam	-11.705
▁hunted	-11.7051
▁repeating	-11.7054
▁pais	-11.7056
▁slower	-11.7065
idi	-11.7066
▁dome	-11.7072
▁hol	-11.708
▁filming	-11.7082
▁binds	-11.7083
▁costellos	-11.7084
rip	-11.7085
▁accounting	-11.7096
tha	-11.7098
▁polo	-11.7101
▁volunteers	-11.7103
▁complaints	-11.7106
▁breakin	-11.7117
▁contents	-11.7121
▁ming	-11.713
▁comics	-11.7133
▁shred	-11.7144
▁av	-11.7147
▁sermon	-11.7153
isser	-11.7154
▁desculp	-11.7155
dress	-11.7161
itis	-11.7171
▁gardener	-11.7175
▁destroyer	-11.7181
▁dazzle	-11.7182
▁recorder	-11.7201
▁copa	-11.7213
▁fatal	-11.7219
ition	-11.7238
▁squeez	-11.7248
▁poise	-11.7274
onic	-11.7291
▁mow	-11.7293
▁algum	-11.7309
▁aaa	-11.731
▁cheerleader	-11.7321
onde	-11.7324
▁survivor	-11.7324
▁donut	-11.7324
▁heater	-11.733
▁theo	-11.7335
▁deactivate	-11.7349
▁cron	-11.7362
▁sip	-11.7389
▁superb	-11.7435
▁gir	-11.7442
nha	-11.7444
▁mmmmm	-11.7449
uous	-11.7456
▁lung	-11.7478
press	-11.7481
▁whee	-11.7483
there	-11.7488
spire	-11.7506
keeper	-11.7508
▁plac	-11.7508
▁disgust	-11.7509
▁endanger	-11.7513
▁download	-11.7514
▁signor	-11.7514
▁summon	-11.7515
serving	-11.7517
plant	-11.7518
▁rever	-11.752
pants	-11.752
shore	-11.7522
▁reduce	-11.7524
▁compromise	-11.7524
▁govern	-11.7529
▁hike	-11.7529
▁scoot	-11.7532
▁dread	-11.7538
believable	-11.754
▁conserv	-11.754
▁skippe	-11.7541
▁domestic	-11.7542
▁alejandro	-11.7543
▁analog	-11.7543
▁artificial	-11.7543
▁asylum	-11.7543
▁boromir	-11.7543
▁bourbon	-11.7543
▁buttercup	-11.7543
▁bypass	-11.7543
▁cadena	-11.7543
▁caribbean	-11.7543
▁catherlne	-11.7543
▁chauffeur	-11.7543
▁chorus	-11.7543
▁chubby	-11.7543
▁cinderella	-11.7543
▁claudia	-11.7543
▁compensation	-11.7543
▁confusing	-11.7543
▁convenience	-11.7543
▁cottage	-11.7543
▁crotch	-11.7543
▁crucified	-11.7543
▁daggett	-11.7543
▁deciding	-11.7543
▁depois	-11.7543
▁detention	-11.7543
▁diagusta	-11.7543
▁dilemma	-11.7543
▁eglantine	-11.7543
▁erudite	-11.7543
▁exhusband	-11.7543
▁eyewitness	-11.7543
▁fattuh	-11.7543
▁feminine	-11.7543
▁fingernails	-11.7543
▁forensic	-11.7543
▁giddy	-11.7543
▁gratitude	-11.7543
▁gregoire	-11.7543
▁groovy	-11.7543
▁gypsies	-11.7543
▁harbour	-11.7543
▁hazard	-11.7543
▁hehheh	-11.7543
▁humiliating	-11.7543
▁hungarian	-11.7543
▁hyperdrive	-11.7543
▁infirmary	-11.7543
▁injustice	-11.7543
▁input	-11.7543
▁jupiter	-11.7543
▁kentucky	-11.7543
▁kobayashi	-11.7543
▁kraut	-11.7543
▁krupke	-11.7543
▁kuribayashi	-11.7543
▁legolas	-11.7543
▁llorona	-11.7543
▁medieval	-11.7543
▁melancholy	-11.7543
▁mulgrut	-11.7543
▁nevada	-11.7543
▁notify	-11.7543
▁onlooker	-11.7543
▁oompaloompa	-11.7543
▁pajamas	-11.7543
▁paralyzed	-11.7543
▁pentagon	-11.7543
▁peopie	-11.7543
▁platoon	-11.7543
▁poodle	-11.7543
▁premises	-11.7543
▁prescription	-11.7543
▁primitive	-11.7543
▁pumbaa	-11.7543
▁registration	-11.7543
▁renounce	-11.7543
▁retrieve	-11.7543
▁ricochet	-11.7543
▁rocco	-11.7543
▁rolfe	-11.7543
▁sanctuary	-11.7543
▁santino	-11.7543
▁significance	-11.7543
▁simpkins	-11.7543
▁simulation	-11.7543
▁sizzling	-11.7543
▁sketch	-11.7543
▁sputtering	-11.7543
▁stadium	-11.7543
▁stockbroker	-11.7543
▁supermarket	-11.7543
▁surrounding	-11.7543
▁symptom	-11.7543
▁technician	-11.7543
▁torrance	-11.7543
▁toxic	-11.7543
▁unbearable	-11.7543
▁unnecessary	-11.7543
▁vandeweghe	-11.7543
▁whinny	-11.7543
▁whitaker	-11.7543
▁wrestle	-11.7543
▁xanadu	-11.7543
▁zhang	-11.7543
▁aerial	-11.7543
▁humbly	-11.7543
▁leash	-11.7543
▁leisure	-11.7543
▁merrily	-11.7543
▁prelim	-11.7543
▁probable	-11.7543
▁pupil	-11.7543
▁rewind	-11.7543
▁suburb	-11.7543
▁valerie	-11.7543
▁gospel	-11.7543
▁jeffrey	-11.7543
▁lardass	-11.7543
▁vlog	-11.7543
▁lodge	-11.7543
▁thrive	-11.7543
▁trotters	-11.7543
▁hidetora	-11.7543
securities	-11.7543
▁buena	-11.7543
▁ironworks	-11.7543
▁collines	-11.7543
▁cyber	-11.7543
▁encontr	-11.7543
▁analyze	-11.7543
▁casper	-11.7543
▁judas	-11.7543
▁hyman	-11.7543
▁velocity	-11.7543
▁demany	-11.7543
▁oxford	-11.7543
▁prodig	-11.7543
▁lulu	-11.7543
▁aiways	-11.7543
▁skateboard	-11.7543
▁stunned	-11.7543
▁heavier	-11.7543
▁firearms	-11.7543
▁monica	-11.7543
▁britain	-11.7543
▁jeong	-11.7543
▁expired	-11.7543
▁circulation	-11.7543
▁flourish	-11.7543
▁douchebag	-11.7543
▁granville	-11.7543
▁arsehole	-11.7543
▁charities	-11.7544
▁uhuhuh	-11.7544
▁caliber	-11.7544
▁declaration	-11.7544
▁skeleton	-11.7544
▁decree	-11.7544
▁prowl	-11.7544
▁outpost	-11.7544
▁banned	-11.7544
▁underwater	-11.7544
▁decoration	-11.7544
▁consciousness	-11.7544
▁scoring	-11.7544
▁hayley	-11.7544
▁intersection	-11.7544
▁womb	-11.7544
▁cupcake	-11.7544
▁acres	-11.7544
▁gould	-11.7544
▁truce	-11.7544
▁infantry	-11.7544
▁clapping	-11.7544
▁dutch	-11.7544
▁slug	-11.7544
▁drool	-11.7544
▁poetry	-11.7545
▁disturbance	-11.7545
▁michelle	-11.7545
▁blindfold	-11.7545
▁bamba	-11.7545
▁hunh	-11.7545
▁libby	-11.7545
▁valka	-11.7545
▁embarrassment	-11.7545
▁resignation	-11.7545
▁lawsuit	-11.7545
▁superpower	-11.7545
▁leftovers	-11.7545
▁contestant	-11.7546
▁underway	-11.7546
▁tasha	-11.7546
▁moonlight	-11.7546
▁tidy	-11.7546
▁louisville	-11.7546
▁programming	-11.7546
▁ritz	-11.7546
▁reload	-11.7546
▁poach	-11.7547
▁wwhat	-11.7547
▁dominick	-11.7547
▁amuse	-11.7547
▁carryall	-11.7547
▁ruling	-11.7547
▁snowball	-11.7547
▁flux	-11.7547
▁nuke	-11.7547
▁ambi	-11.7548
▁informant	-11.7548
▁groceries	-11.7548
▁retro	-11.7548
▁battlefield	-11.7549
▁tipped	-11.7549
▁offenders	-11.7549
▁delusional	-11.7549
▁stockings	-11.7549
▁coupon	-11.755
▁generate	-11.755
▁jackpot	-11.755
▁distr	-11.755
▁iv	-11.755
▁marsha	-11.755
▁surprisingly	-11.7551
▁chink	-11.7551
▁diplomat	-11.7551
▁guan	-11.7552
▁mennick	-11.7552
▁organic	-11.7552
▁twp	-11.7552
▁caption	-11.7552
▁regional	-11.7552
▁housekeeper	-11.7553
▁muse	-11.7553
▁admitted	-11.7553
▁lsnt	-11.7554
▁institutional	-11.7554
▁stewardess	-11.7554
▁disabled	-11.7555
▁jamis	-11.7555
▁hedge	-11.7556
▁franz	-11.7556
▁cozy	-11.7556
▁melon	-11.7557
▁lakers	-11.7557
▁acquired	-11.7557
▁omni	-11.7559
▁gallon	-11.7559
▁consideration	-11.7559
▁princeton	-11.756
▁notion	-11.756
▁donated	-11.756
▁compromised	-11.7562
▁marco	-11.7562
▁stalking	-11.7563
▁rio	-11.7563
▁ledger	-11.7566
▁mailman	-11.7567
▁slippery	-11.7567
▁gem	-11.7568
▁coverage	-11.7568
▁swan	-11.7569
▁machinery	-11.7569
▁neighing	-11.757
▁departed	-11.757
▁playboy	-11.757
▁berry	-11.757
▁hideous	-11.7571
▁crippled	-11.7571
▁piay	-11.7572
▁maple	-11.7574
▁woodsman	-11.7575
prop	-11.7576
▁sank	-11.7576
▁morte	-11.7577
▁reply	-11.7577
▁fulltime	-11.7578
▁piaying	-11.7578
did	-11.7579
▁equally	-11.758
▁exploded	-11.7581
▁addicted	-11.7582
▁crater	-11.7583
▁cellar	-11.7585
▁ringer	-11.7586
▁freshman	-11.7588
▁ceo	-11.759
▁violently	-11.7591
▁stretcher	-11.7592
▁shrieks	-11.7593
▁mere	-11.7593
borough	-11.7595
▁flirting	-11.7597
▁yella	-11.7597
▁homeboy	-11.7599
▁stud	-11.7599
▁crashes	-11.7599
gia	-11.76
ummy	-11.76
▁flooded	-11.76
▁bein	-11.7603
▁strongest	-11.7604
▁thrilled	-11.7605
▁organize	-11.7606
▁shithole	-11.7606
▁perfection	-11.7607
▁fury	-11.761
▁rigged	-11.761
▁kilometers	-11.7612
▁germs	-11.7612
▁mesm	-11.7613
▁doomed	-11.7619
▁goldie	-11.762
were	-11.7622
▁armored	-11.7622
▁skiing	-11.7627
▁pointless	-11.7628
▁gorge	-11.7629
▁hangar	-11.7629
▁mod	-11.7633
▁boiling	-11.7637
they	-11.764
▁reaches	-11.7646
▁bully	-11.7648
▁celebrated	-11.7649
▁niner	-11.7649
▁brock	-11.7649
▁hacked	-11.765
▁valentines	-11.7651
▁connecting	-11.7653
▁mmmmmm	-11.7653
▁bash	-11.7655
▁deve	-11.7656
▁icon	-11.7662
▁wheeler	-11.7662
▁valued	-11.7664
▁peep	-11.7665
▁crate	-11.7667
▁runway	-11.7668
▁surfer	-11.7673
talk	-11.7673
check	-11.7685
▁artie	-11.7695
▁smithy	-11.7697
▁stillson	-11.77
▁tito	-11.77
▁yelled	-11.7701
▁harland	-11.7708
roc	-11.7714
▁nom	-11.7714
boo	-11.7717
nor	-11.7721
have	-11.7724
▁mutt	-11.7725
▁shiv	-11.7729
▁tart	-11.7736
▁funding	-11.7736
▁whirl	-11.7741
▁angelo	-11.7742
▁fling	-11.7743
▁cocking	-11.7749
▁attempting	-11.7749
ggin	-11.7751
▁tov	-11.7762
▁gown	-11.7763
▁modeling	-11.7766
▁rollin	-11.7772
▁treaty	-11.7774
bell	-11.7789
escent	-11.7791
hell	-11.7793
▁hue	-11.7793
▁bain	-11.7802
▁amid	-11.7802
▁interfer	-11.7802
nium	-11.7805
▁org	-11.7807
▁squirrels	-11.7811
▁dun	-11.7821
▁tyres	-11.7828
▁poorly	-11.783
▁grad	-11.7833
▁badger	-11.7838
▁bou	-11.7852
▁contribute	-11.7855
▁minh	-11.788
▁rotate	-11.7882
▁harl	-11.789
lux	-11.7891
▁booing	-11.7892
▁tricked	-11.7893
▁provoke	-11.7907
rick	-11.7907
▁socs	-11.7921
▁rattles	-11.7925
▁tum	-11.794
▁wham	-11.7949
▁moro	-11.7952
▁iose	-11.7967
▁buyin	-11.7979
nst	-11.7982
▁tanker	-11.7992
▁unite	-11.7999
▁ip	-11.8015
▁taped	-11.8016
fund	-11.8037
▁tele	-11.8043
▁did	-11.8064
▁gosta	-11.8071
kov	-11.8112
ution	-11.8116
▁pic	-11.8159
▁mast	-11.816
▁honk	-11.8193
▁toot	-11.8194
ridden	-11.8198
▁exclaim	-11.82
▁groan	-11.8206
▁ferri	-11.821
▁stark	-11.822
tak	-11.8222
▁sued	-11.8232
▁politician	-11.8233
▁cuff	-11.8235
▁conc	-11.8263
ella	-11.8265
▁logo	-11.8271
▁ale	-11.8287
▁beni	-11.8294
▁smit	-11.8328
▁axe	-11.835
dded	-11.8354
▁continu	-11.837
▁syr	-11.8378
▁depart	-11.839
▁burge	-11.8394
tta	-11.8409
aiss	-11.841
▁explore	-11.8411
▁convict	-11.8415
▁snarl	-11.8417
▁stall	-11.8421
▁assign	-11.8422
stroke	-11.8426
related	-11.8426
berry	-11.8428
bank	-11.843
interest	-11.8432
bbing	-11.8432
▁ledge	-11.8433
▁dedicate	-11.8434
person	-11.8436
▁villa	-11.8438
▁infinite	-11.8441
▁voil	-11.8442
▁practical	-11.8442
▁audit	-11.8445
▁austria	-11.8445
▁dancin	-11.8448
▁raj	-11.8448
▁puttin	-11.8449
▁commod	-11.845
▁indict	-11.845
▁interpret	-11.845
▁evolution	-11.8451
▁satisfy	-11.8452
▁administer	-11.8452
▁bankrupt	-11.8452
▁garrison	-11.8452
▁holtzmann	-11.8452
▁obrien	-11.8452
▁overthrow	-11.8452
▁reassign	-11.8452
▁squish	-11.8452
▁unpack	-11.8452
▁absorb	-11.8452
▁ammunition	-11.8452
▁anneclaire	-11.8452
▁aristocrat	-11.8452
▁arrogant	-11.8452
▁arwen	-11.8452
▁aspect	-11.8452
▁baptized	-11.8452
▁behaving	-11.8452
▁billionaire	-11.8452
▁boulevard	-11.8452
▁cackles	-11.8452
▁cactus	-11.8452
▁cappuccino	-11.8452
▁caucasian	-11.8452
▁centimeter	-11.8452
▁cereal	-11.8452
▁chamaco	-11.8452
▁chitchat	-11.8452
▁civic	-11.8452
▁compensate	-11.8452
▁contaminate	-11.8452
▁corridor	-11.8452
▁crimson	-11.8452
▁daughtry	-11.8452
▁distinct	-11.8452
▁doorknob	-11.8452
▁dufayel	-11.8452
▁efficient	-11.8452
▁episode	-11.8452
▁escaping	-11.8452
▁esteemed	-11.8452
▁eternium	-11.8452
▁ferguson	-11.8452
▁fixerupper	-11.8452
▁foretold	-11.8452
▁frustrating	-11.8452
▁gizzard	-11.8452
▁grandchildren	-11.8452
▁gretel	-11.8452
▁gretl	-11.8452
▁grieve	-11.8452
▁handkerchief	-11.8452
▁happiest	-11.8452
▁hebrew	-11.8452
▁hubbard	-11.8452
▁humiliation	-11.8452
▁identical	-11.8452
▁insanity	-11.8452
▁intrusion	-11.8452
▁jernigan	-11.8452
▁jerome	-11.8452
▁kujan	-11.8452
▁liberation	-11.8452
▁librarian	-11.8452
▁lorenzo	-11.8452
▁lydia	-11.8452
▁macneil	-11.8452
▁manufacture	-11.8452
▁marseille	-11.8452
▁meditation	-11.8452
▁mellow	-11.8452
▁miranda	-11.8452
▁multiply	-11.8452
▁nielson	-11.8452
▁norwegian	-11.8452
▁obnoxious	-11.8452
▁opportunities	-11.8452
▁orgocorp	-11.8452
▁pagogo	-11.8452
▁pamela	-11.8452
▁panache	-11.8452
▁paxian	-11.8452
▁pembry	-11.8452
▁pennsylvania	-11.8452
▁pentangeli	-11.8452
▁portrait	-11.8452
▁portuguese	-11.8452
▁poverty	-11.8452
▁producing	-11.8452
▁propaganda	-11.8452
▁prothero	-11.8452
▁province	-11.8452
▁raccoon	-11.8452
▁ramirez	-11.8452
▁randazzo	-11.8452
▁rebellion	-11.8452
▁remorse	-11.8452
▁renewal	-11.8452
▁roxanne	-11.8452
▁screenplay	-11.8452
▁sennett	-11.8452
▁shawshank	-11.8452
▁shazam	-11.8452
▁shikaka	-11.8452
▁singular	-11.8452
▁sophia	-11.8452
▁sophisticated	-11.8452
▁stranded	-11.8452
▁strategic	-11.8452
▁suspension	-11.8452
▁tactics	-11.8452
▁talvez	-11.8452
▁tiffany	-11.8452
▁unidentified	-11.8452
▁unpleasant	-11.8452
▁vickie	-11.8452
▁welcoming	-11.8452
▁wheelchair	-11.8452
▁whiz	-11.8452
▁wladek	-11.8452
▁yoohoo	-11.8452
▁youtube	-11.8452
▁zombie	-11.8452
▁zsasz	-11.8452
▁cicci	-11.8452
▁cierra	-11.8452
▁dionne	-11.8452
▁dorrie	-11.8452
▁jefferies	-11.8452
▁mackerel	-11.8452
▁parrot	-11.8452
▁wheezing	-11.8452
▁dignam	-11.8452
▁gravy	-11.8452
▁gulf	-11.8452
▁herald	-11.8452
▁hilarious	-11.8452
▁hooray	-11.8452
▁retching	-11.8452
▁shaving	-11.8452
▁snot	-11.8452
▁squid	-11.8452
▁cinque	-11.8452
▁natalie	-11.8452
▁oink	-11.8452
▁postpone	-11.8452
▁sedative	-11.8452
▁wesley	-11.8452
▁woohoo	-11.8452
▁licence	-11.8452
▁oana	-11.8452
▁unarmed	-11.8452
▁wesson	-11.8452
▁jesper	-11.8452
▁noisy	-11.8452
▁reemer	-11.8452
▁wiggle	-11.8452
▁detain	-11.8452
▁excavat	-11.8452
▁settling	-11.8452
▁wendell	-11.8452
▁harmony	-11.8452
▁prototype	-11.8452
▁plaster	-11.8452
▁playmate	-11.8452
▁fisherman	-11.8452
▁proving	-11.8452
▁begbie	-11.8452
▁insert	-11.8452
▁decency	-11.8452
▁knob	-11.8452
▁barbie	-11.8452
▁drugged	-11.8452
▁lepers	-11.8452
▁oakmont	-11.8452
▁sym	-11.8452
▁britons	-11.8452
▁campsite	-11.8452
▁turnip	-11.8452
▁tusk	-11.8452
▁grudge	-11.8452
▁homecoming	-11.8452
▁particle	-11.8452
▁solitude	-11.8452
▁contend	-11.8452
▁cobbler	-11.8452
▁brainerd	-11.8452
▁casualties	-11.8452
▁mineral	-11.8452
▁stool	-11.8452
▁whatwhat	-11.8452
▁beauties	-11.8452
▁elster	-11.8452
▁downhill	-11.8452
▁radius	-11.8452
▁selfdestruct	-11.8452
▁unstable	-11.8452
▁traction	-11.8452
▁psychopath	-11.8453
▁intervene	-11.8453
▁pedal	-11.8453
▁petition	-11.8453
▁townsend	-11.8453
▁recess	-11.8453
▁decay	-11.8453
▁memoriz	-11.8453
▁supervision	-11.8453
▁uboat	-11.8453
▁errol	-11.8453
▁plumber	-11.8453
▁intensi	-11.8453
▁nebula	-11.8453
▁smother	-11.8453
▁chemistry	-11.8453
▁referring	-11.8453
▁rosalie	-11.8453
▁shag	-11.8453
▁radical	-11.8453
▁concur	-11.8453
▁philippe	-11.8453
▁jaime	-11.8453
▁outbreak	-11.8453
▁evaluation	-11.8453
▁postcard	-11.8453
▁kitten	-11.8453
▁gallant	-11.8454
▁burial	-11.8454
▁exhibition	-11.8454
▁slain	-11.8454
▁graveyard	-11.8454
▁dependent	-11.8454
▁guru	-11.8454
▁snapped	-11.8454
▁lump	-11.8454
▁pappa	-11.8454
▁pluck	-11.8454
▁salmon	-11.8454
▁volcano	-11.8454
▁tarde	-11.8454
▁operatic	-11.8454
▁confrontation	-11.8455
▁wellbeing	-11.8455
▁workshop	-11.8455
▁skylight	-11.8455
▁monaco	-11.8455
▁adjustment	-11.8455
▁abortion	-11.8455
▁digits	-11.8455
▁allenby	-11.8455
▁slink	-11.8456
▁milton	-11.8456
▁rolex	-11.8456
▁chronicle	-11.8456
▁mound	-11.8456
▁frantic	-11.8456
▁belgian	-11.8456
▁bryan	-11.8456
▁angus	-11.8456
▁capcom	-11.8456
▁gloria	-11.8457
▁assassination	-11.8457
▁tsk	-11.8457
▁chute	-11.8457
▁beachport	-11.8457
▁wingfield	-11.8457
▁entity	-11.8457
▁eww	-11.8458
▁raven	-11.8458
▁paycheck	-11.8458
▁minority	-11.8458
▁keel	-11.8458
▁rockwell	-11.8459
▁josephine	-11.8459
▁withdrawal	-11.8459
▁marge	-11.8459
▁jibe	-11.8459
▁drip	-11.8459
▁muffin	-11.846
▁classroom	-11.846
▁malkin	-11.846
▁profitable	-11.846
▁occasional	-11.846
▁sneezes	-11.8461
▁fazer	-11.8461
▁merit	-11.8461
▁nude	-11.8461
▁partially	-11.8462
▁hagen	-11.8462
▁motivated	-11.8462
▁fuzzy	-11.8462
▁guardsmen	-11.8462
▁starship	-11.8462
▁meaningful	-11.8462
▁entre	-11.8463
▁liege	-11.8463
▁donor	-11.8463
▁rumi	-11.8463
▁monk	-11.8463
▁damon	-11.8464
▁jiro	-11.8464
▁yelping	-11.8464
▁joyce	-11.8464
▁phu	-11.8465
▁ache	-11.8466
▁poland	-11.8466
▁amity	-11.8466
▁raz	-11.8466
▁bandage	-11.8469
▁outra	-11.8469
▁padre	-11.847
▁stanton	-11.8471
▁sasha	-11.8472
▁controller	-11.8473
▁honky	-11.8473
▁sak	-11.8473
▁promoted	-11.8474
▁bushes	-11.8474
▁countryside	-11.8476
▁fitting	-11.8476
▁sadness	-11.8476
▁yaah	-11.8477
▁rossi	-11.8478
▁negroes	-11.8478
▁elk	-11.8478
▁duh	-11.8479
▁salon	-11.8479
▁aiden	-11.8482
▁cra	-11.8482
▁barco	-11.8484
▁firstclass	-11.8485
▁ultimately	-11.8487
▁tappy	-11.8488
bug	-11.8488
▁tooting	-11.8488
▁compet	-11.849
▁encouraged	-11.849
▁observed	-11.849
▁employed	-11.8493
junction	-11.8493
▁tink	-11.8494
udge	-11.8497
▁frightening	-11.8498
▁iearn	-11.8499
▁seagulls	-11.8506
▁ella	-11.8507
▁preaching	-11.8508
▁bumper	-11.8509
▁stashed	-11.8509
▁seized	-11.851
link	-11.8511
▁standby	-11.8511
▁wiser	-11.8512
▁misty	-11.8513
▁emir	-11.8514
ett	-11.8517
▁mentally	-11.8518
▁gail	-11.8522
▁weighed	-11.8527
▁contractor	-11.8529
▁hotter	-11.8529
▁boiler	-11.8532
▁epic	-11.8532
▁evict	-11.8533
▁containing	-11.854
▁malt	-11.8546
▁cutter	-11.8549
▁projection	-11.8549
▁stressed	-11.8552
▁foe	-11.8558
▁eg	-11.8563
▁duell	-11.8564
▁strengthen	-11.8564
▁beaches	-11.8564
▁chuckie	-11.8565
▁guided	-11.8567
▁canceled	-11.8574
▁dine	-11.8577
▁landers	-11.8579
▁dynamic	-11.858
why	-11.8581
▁lever	-11.8582
▁insulting	-11.8583
▁nervously	-11.8584
▁coolest	-11.8587
▁lax	-11.859
▁stun	-11.8592
▁crosses	-11.8594
▁hacking	-11.8594
iggy	-11.8597
▁simpler	-11.86
▁bravely	-11.8603
▁hare	-11.8609
▁practiced	-11.8618
▁fishes	-11.8622
▁capitalist	-11.8623
▁tada	-11.8624
▁sooth	-11.8626
▁lita	-11.8636
▁sane	-11.8636
▁comforting	-11.8641
▁oy	-11.8649
▁cb	-11.8652
▁testament	-11.8652
▁scratching	-11.8654
▁jeopardize	-11.8659
▁faked	-11.8666
▁screamed	-11.8669
wear	-11.8676
haz	-11.8685
▁newton	-11.8686
▁proudly	-11.8689
▁spying	-11.8689
▁aiming	-11.869
▁cater	-11.8692
vasive	-11.8692
▁dal	-11.8692
▁hitch	-11.8696
▁cheerful	-11.8701
▁armand	-11.8702
▁failing	-11.8708
▁flyin	-11.871
▁privately	-11.8711
▁viv	-11.8714
▁rita	-11.8715
▁ador	-11.8719
▁seeds	-11.8726
▁disappearing	-11.8733
▁jerking	-11.8746
▁whit	-11.8749
▁indicat	-11.8751
▁specialize	-11.8757
▁pursu	-11.8762
lined	-11.8807
▁ironic	-11.8816
▁christie	-11.8829
blo	-11.8845
▁buzzer	-11.8848
▁rin	-11.8858
▁wrinkl	-11.8888
lap	-11.8895
▁vat	-11.8978
▁nem	-11.8981
raided	-11.9004
ovi	-11.9049
▁bub	-11.9072
cru	-11.9111
avor	-11.9125
▁amp	-11.9134
▁devia	-11.9144
▁gust	-11.915
▁stutter	-11.9198
fel	-11.9199
root	-11.9203
▁dale	-11.9203
▁aal	-11.9205
▁chu	-11.9206
▁gaze	-11.921
▁boar	-11.9229
▁pyramid	-11.923
▁rhyme	-11.923
▁trumpet	-11.9231
▁precog	-11.9233
▁sr	-11.9239
▁feather	-11.9247
▁shem	-11.9256
▁bathe	-11.926
▁nno	-11.9264
▁nurs	-11.9279
▁deai	-11.932
▁invade	-11.9349
▁neuro	-11.935
▁improv	-11.9359
▁julia	-11.936
mont	-11.9362
▁hoop	-11.9365
clean	-11.9378
▁gunfight	-11.9387
▁announc	-11.9389
▁esp	-11.9389
▁provid	-11.9403
▁grub	-11.941
butt	-11.9415
▁applaud	-11.9417
word	-11.9418
▁bluff	-11.9418
▁hors	-11.9424
▁examine	-11.9426
world	-11.9426
knock	-11.9427
▁buff	-11.9427
security	-11.9427
white	-11.9427
people	-11.9427
course	-11.9427
view	-11.9428
▁asia	-11.9428
fight	-11.943
▁smuggle	-11.9431
friendly	-11.9432
▁relieve	-11.9434
▁rabbi	-11.9435
▁donate	-11.9436
▁premier	-11.944
▁apparent	-11.9442
▁elliot	-11.9444
▁inspect	-11.9446
▁froze	-11.9447
▁exhal	-11.9447
▁leavin	-11.9448
▁debora	-11.945
▁bean	-11.945
▁consol	-11.9451
▁laydeeodl	-11.9451
▁squaw	-11.9452
ometry	-11.9452
▁guild	-11.9452
▁outrage	-11.9452
▁depriv	-11.9452
▁acconetti	-11.9452
▁acquisition	-11.9452
▁albino	-11.9452
▁allegiance	-11.9452
▁allergies	-11.9452
▁allomere	-11.9452
▁apprehend	-11.9452
▁artillery	-11.9452
▁assumption	-11.9452
▁asteroid	-11.9452
▁attachment	-11.9452
▁barnacle	-11.9452
▁basilwether	-11.9452
▁bellefort	-11.9452
▁blanton	-11.9452
▁brunette	-11.9452
▁certified	-11.9452
▁choochoo	-11.9452
▁cleopatra	-11.9452
▁collateral	-11.9452
▁collision	-11.9452
▁competitor	-11.9452
▁concierge	-11.9452
▁cratchit	-11.9452
▁crucial	-11.9452
▁daedalus	-11.9452
▁debbie	-11.9452
▁delegation	-11.9452
▁desperation	-11.9452
▁dialect	-11.9452
▁disadvantage	-11.9452
▁disciple	-11.9452
▁disqualified	-11.9452
▁disregard	-11.9452
▁druze	-11.9452
▁elefun	-11.9452
▁emphasis	-11.9452
▁enthusiasm	-11.9452
▁equin	-11.9452
▁espresso	-11.9452
▁extinct	-11.9452
▁extinguish	-11.9452
▁fernando	-11.9452
▁flakka	-11.9452
▁gargantua	-11.9452
▁gestapo	-11.9452
▁gigantic	-11.9452
▁guillermo	-11.9452
▁gylfie	-11.9452
▁humvees	-11.9452
▁ignoring	-11.9452
▁impeccable	-11.9452
▁incorrect	-11.9452
▁independence	-11.9452
▁indestructible	-11.9452
▁inquiry	-11.9452
▁insecure	-11.9452
▁insignificant	-11.9452
▁inspiring	-11.9452
▁interahamwe	-11.9452
▁intriguing	-11.9452
▁introduction	-11.9452
▁isabelle	-11.9452
▁ishmael	-11.9452
▁jakku	-11.9452
▁judith	-11.9452
▁kalaman	-11.9452
▁kananga	-11.9452
▁laszlo	-11.9452
▁lchimonji	-11.9452
▁lebron	-11.9452
▁lundegaard	-11.9452
▁lyze	-11.9452
▁mainframe	-11.9452
▁mccain	-11.9452
▁mclaren	-11.9452
▁mervyn	-11.9452
▁mikayla	-11.9452
▁millennium	-11.9452
▁millimeter	-11.9452
▁miyamizu	-11.9452
▁molasses	-11.9452
▁moneypenny	-11.9452
▁montreal	-11.9452
▁mozart	-11.9452
▁neglect	-11.9452
▁nitwit	-11.9452
▁notorious	-11.9452
▁obiwan	-11.9452
▁overwhelming	-11.9452
▁phenomenon	-11.9452
▁pneumonia	-11.9452
▁presscott	-11.9452
▁pretzel	-11.9452
▁probability	-11.9452
▁qzone	-11.9452
▁rastogi	-11.9452
▁rebuilt	-11.9452
▁recycle	-11.9452
▁retches	-11.9452
▁rewrite	-11.9452
▁rivendell	-11.9452
▁salvage	-11.9452
▁sarcastic	-11.9452
▁scavenger	-11.9452
▁scoundrel	-11.9452
▁scully	-11.9452
▁shakusky	-11.9452
▁shampoo	-11.9452
▁southpaw	-11.9452
▁specimen	-11.9452
▁striking	-11.9452
▁subpoena	-11.9452
▁substantial	-11.9452
▁substitute	-11.9452
▁supervillain	-11.9452
▁threshold	-11.9452
▁ticktock	-11.9452
▁tirith	-11.9452
▁toothpaste	-11.9452
▁transparent	-11.9452
▁tumbling	-11.9452
▁unleash	-11.9452
▁vallelonga	-11.9452
▁videotape	-11.9452
▁vinegar	-11.9452
▁whiff	-11.9452
▁windshield	-11.9452
▁wisconsin	-11.9452
▁wrath	-11.9452
▁xerife	-11.9452
▁yeehaw	-11.9452
▁zazu	-11.9452
▁assurance	-11.9452
▁austin	-11.9452
▁benhur	-11.9452
▁cabrera	-11.9452
▁canaris	-11.9452
▁crease	-11.9452
▁damien	-11.9452
▁extent	-11.9452
▁inferior	-11.9452
▁lancelot	-11.9452
▁metaphor	-11.9452
▁moguy	-11.9452
▁morehouse	-11.9452
▁mumbling	-11.9452
▁solemn	-11.9452
▁yakul	-11.9452
▁athens	-11.9452
▁dmv	-11.9452
▁duchess	-11.9452
▁hairdresser	-11.9452
▁livestock	-11.9452
▁missouri	-11.9452
▁plumbing	-11.9452
▁renteria	-11.9452
▁thigh	-11.9452
▁gwen	-11.9452
▁imperative	-11.9452
▁appraise	-11.9452
▁despise	-11.9452
▁grutas	-11.9452
▁oyster	-11.9452
▁raspberry	-11.9452
▁wield	-11.9452
▁birch	-11.9452
▁firecracker	-11.9452
▁dewey	-11.9452
▁irena	-11.9452
▁nigeria	-11.9452
▁otis	-11.9452
▁fulton	-11.9452
▁democrat	-11.9452
▁fertilizer	-11.9452
▁iansam	-11.9452
▁noose	-11.9452
▁pattering	-11.9452
▁propriet	-11.9452
▁refined	-11.9452
▁toothbrush	-11.9452
▁alvarez	-11.9452
▁jamaica	-11.9452
▁parsons	-11.9452
▁brower	-11.9452
▁earrings	-11.9452
▁imprisoned	-11.9452
▁shears	-11.9452
▁bliss	-11.9452
▁literature	-11.9452
▁maroon	-11.9452
▁nishi	-11.9452
▁alternat	-11.9452
▁bleating	-11.9452
▁lazar	-11.9452
▁dietrich	-11.9452
▁overhear	-11.9452
▁cradle	-11.9452
▁lynch	-11.9452
▁capabilities	-11.9452
▁goblin	-11.9452
▁hydrogen	-11.9452
▁expelled	-11.9452
▁housing	-11.9452
▁inventory	-11.9452
▁fuchs	-11.9452
▁liability	-11.9452
pop	-11.9452
▁sydney	-11.9452
▁funnel	-11.9452
▁renown	-11.9452
▁inclined	-11.9452
▁extortion	-11.9452
▁lucius	-11.9452
▁stunning	-11.9452
▁architecture	-11.9452
▁handicapped	-11.9452
▁haywood	-11.9452
▁expi	-11.9452
▁cooing	-11.9453
▁oars	-11.9453
▁tornado	-11.9453
▁mcq	-11.9453
▁commandments	-11.9453
▁dimmy	-11.9453
▁ponyboy	-11.9453
▁berko	-11.9453
▁wormhole	-11.9453
▁lenin	-11.9453
▁iowa	-11.9453
▁riker	-11.9453
▁asun	-11.9453
▁drummer	-11.9453
▁warsaw	-11.9453
▁leiter	-11.9453
▁reelection	-11.9453
▁twentysix	-11.9454
▁wither	-11.9454
▁compassionate	-11.9454
▁furball	-11.9454
▁upward	-11.9454
▁vibrates	-11.9454
▁labour	-11.9454
▁campbell	-11.9454
▁scorn	-11.9454
▁indictment	-11.9454
▁transmitter	-11.9454
▁frannie	-11.9454
▁sharkey	-11.9454
▁morrison	-11.9454
▁dimeah	-11.9454
▁skylar	-11.9454
ainda	-11.9454
▁consultant	-11.9454
▁breakthrough	-11.9455
▁hooah	-11.9455
▁gents	-11.9455
▁zipper	-11.9455
▁stanford	-11.9455
▁bummer	-11.9455
▁twentytwo	-11.9455
▁yung	-11.9455
▁edwin	-11.9455
▁trend	-11.9455
▁arise	-11.9455
▁purity	-11.9455
▁geist	-11.9456
▁trenches	-11.9456
utical	-11.9456
▁flashback	-11.9456
▁undress	-11.9456
▁egyptian	-11.9456
▁mijo	-11.9456
▁twinkle	-11.9456
▁ficar	-11.9456
▁cornish	-11.9456
▁grayson	-11.9456
▁representation	-11.9457
▁spotlight	-11.9457
▁nascar	-11.9457
▁casing	-11.9457
▁ripley	-11.9457
▁corpus	-11.9457
▁phuc	-11.9458
▁cruelty	-11.9458
▁rosato	-11.9458
▁carolina	-11.9458
▁poetic	-11.9458
▁poking	-11.9458
▁restrain	-11.9458
▁rustic	-11.9458
▁horseshit	-11.9458
▁ballistic	-11.9459
▁rapist	-11.9459
▁clover	-11.9459
▁doorstep	-11.9459
▁deathbed	-11.9459
▁travelled	-11.9459
▁abilities	-11.9459
▁pester	-11.9459
▁muthafucka	-11.9459
▁choi	-11.9459
▁colombian	-11.946
worthy	-11.946
▁litter	-11.946
▁feat	-11.9461
▁isolated	-11.9461
▁render	-11.9461
▁moria	-11.9461
▁daft	-11.9461
▁ellison	-11.9461
▁spaceship	-11.9462
▁belongings	-11.9463
▁sundown	-11.9463
▁stitches	-11.9463
▁betcha	-11.9463
▁checkpoint	-11.9464
▁respectfully	-11.9464
▁churchill	-11.9464
▁arabic	-11.9464
▁firepower	-11.9465
▁pasa	-11.9466
▁occasionally	-11.9466
▁valor	-11.9466
▁terminated	-11.9467
▁horseback	-11.9468
▁perish	-11.9468
▁awesomeness	-11.9468
▁wager	-11.9469
▁conscious	-11.9469
▁romero	-11.9469
▁nino	-11.9469
▁biki	-11.9469
▁probe	-11.9469
▁jimbo	-11.947
▁kingpin	-11.947
▁latch	-11.947
▁stationary	-11.947
▁acha	-11.947
▁rapidly	-11.947
▁herbal	-11.947
▁coot	-11.9471
▁weeknd	-11.9472
▁filing	-11.9472
▁srt	-11.9473
drop	-11.9474
▁batch	-11.9475
▁trish	-11.9476
▁hep	-11.9476
▁whooshing	-11.9476
▁brute	-11.9477
▁stow	-11.9477
▁amazed	-11.9479
▁instantly	-11.9479
▁fatty	-11.948
▁covey	-11.9481
▁compel	-11.9482
▁dally	-11.9482
▁barge	-11.9483
▁roe	-11.9486
▁cuddle	-11.9486
▁brownies	-11.9487
▁vest	-11.9487
▁partial	-11.9487
▁bluffing	-11.9488
▁benz	-11.9488
▁stuttering	-11.9488
▁pear	-11.949
▁nausea	-11.9493
▁sustained	-11.9494
▁brighton	-11.9496
▁hangover	-11.9499
gger	-11.95
shaped	-11.95
▁taser	-11.95
▁criticize	-11.9501
▁lacey	-11.9501
▁emotionally	-11.9502
▁dumbest	-11.9502
▁armies	-11.9504
▁peacefully	-11.9504
▁predicted	-11.9506
▁corrupted	-11.9507
▁feeiing	-11.951
▁glowing	-11.951
▁shoved	-11.9513
▁improved	-11.9514
pole	-11.9515
▁pursued	-11.9515
▁yuri	-11.9515
▁cocoa	-11.9516
▁southie	-11.9516
▁fairies	-11.9522
▁controlling	-11.9523
▁enchanting	-11.9525
▁developing	-11.9526
hyde	-11.9526
▁faceoff	-11.9526
▁melting	-11.9533
▁iate	-11.9537
▁photography	-11.9539
▁recruited	-11.9541
▁they	-11.9544
▁disappointing	-11.9544
▁represented	-11.9546
▁measured	-11.9546
▁sacrificed	-11.9546
▁bakery	-11.9547
▁ditched	-11.9547
▁terra	-11.9553
▁gained	-11.9554
▁disrespectful	-11.9555
▁hind	-11.9555
abilis	-11.9563
▁sage	-11.9563
▁pry	-11.9565
▁dispatcher	-11.9574
▁gaining	-11.9575
matic	-11.9575
omis	-11.9575
▁challenged	-11.9578
▁demonstrate	-11.9587
▁illustrat	-11.9588
▁bargaining	-11.959
▁vivi	-11.959
▁switcher	-11.9591
▁attended	-11.9596
gious	-11.9616
▁ridin	-11.9625
▁salty	-11.9632
▁verifi	-11.9632
▁chilly	-11.9636
▁knott	-11.9639
▁layin	-11.9644
▁janie	-11.9647
▁peeing	-11.9651
▁martyr	-11.9651
▁tally	-11.9662
▁hehe	-11.9664
▁buyers	-11.9668
▁spared	-11.9673
▁slate	-11.9674
▁romi	-11.968
▁oz	-11.9698
▁bol	-11.9708
jam	-11.9712
▁carro	-11.9717
▁dispos	-11.9733
▁cec	-11.9757
racy	-11.9766
▁violat	-11.9768
uction	-11.9778
▁visa	-11.9794
▁nip	-11.9806
▁accus	-11.985
▁delro	-11.9867
▁cram	-11.9878
▁joo	-11.9879
▁stumble	-11.9898
craz	-11.9903
▁assassinate	-11.9908
▁mastermind	-11.9918
▁desculpe	-11.9943
from	-11.9945
▁dispose	-11.995
▁capt	-11.9951
▁rib	-11.9953
acho	-11.9959
▁wel	-11.9971
▁kum	-11.9986
than	-11.9991
hana	-11.9997
fat	-12.0015
▁amar	-12.0038
▁span	-12.0056
ought	-12.0068
▁boll	-12.0081
▁derail	-12.0087
▁tilt	-12.0097
aiiy	-12.0101
▁cutie	-12.0109
far	-12.0126
▁shhh	-12.0135
active	-12.0148
wich	-12.0159
ptic	-12.0183
▁flyer	-12.0188
uv	-12.0205
hall	-12.0211
▁ooo	-12.0215
▁wedge	-12.0227
▁mae	-12.0233
▁puls	-12.0263
▁vile	-12.0265
yama	-12.028
▁neigh	-12.0306
▁wasp	-12.0308
▁spun	-12.0343
▁vitamin	-12.0344
▁mathematic	-12.0345
anni	-12.035
▁elvi	-12.0352
▁sap	-12.037
quit	-12.0394
rivi	-12.04
▁neutral	-12.0423
▁pep	-12.043
▁interrogate	-12.0434
rrell	-12.0441
▁etc	-12.0447
earned	-12.045
▁jose	-12.0458
▁logic	-12.0468
▁valid	-12.0502
▁describ	-12.0504
▁gallo	-12.0517
▁consume	-12.0522
▁cot	-12.0527
▁murmur	-12.0529
▁select	-12.0532
▁intimidat	-12.0532
▁wretch	-12.0534
▁condemn	-12.0534
▁intrude	-12.0534
known	-12.0535
wheel	-12.0537
secret	-12.0538
▁strangle	-12.0538
▁chlor	-12.0538
▁garde	-12.054
thank	-12.0543
▁discharge	-12.0544
bridge	-12.0544
▁thirst	-12.0545
▁coordinat	-12.0546
▁diploma	-12.0547
▁dop	-12.0547
▁acquire	-12.0548
▁combine	-12.0549
▁styl	-12.0551
▁surprising	-12.0553
▁inquire	-12.0554
string	-12.0555
▁eliminate	-12.0558
▁cruisin	-12.0559
▁bret	-12.056
hour	-12.056
▁chasin	-12.0561
▁michel	-12.0561
▁muff	-12.0561
▁lovin	-12.0561
▁evaluat	-12.0561
▁reelect	-12.0561
▁chemist	-12.0562
after	-12.0562
▁trump	-12.0563
▁pluto	-12.0563
▁archaeologi	-12.0563
▁persecut	-12.0563
▁choreograph	-12.0563
▁counterfeit	-12.0563
▁exploit	-12.0563
▁exterminat	-12.0563
▁oblivio	-12.0563
▁revolt	-12.0563
▁stimulat	-12.0563
▁streak	-12.0563
▁tweak	-12.0563
▁unmask	-12.0563
▁wrench	-12.0563
▁abbie	-12.0563
▁abolition	-12.0563
▁adjourned	-12.0563
▁agencies	-12.0563
▁alleluia	-12.0563
▁anomaly	-12.0563
▁anticruise	-12.0563
▁arbuthnot	-12.0563
▁archbishop	-12.0563
▁azazel	-12.0563
▁barricade	-12.0563
▁beaucoup	-12.0563
▁beautifui	-12.0563
▁beiieve	-12.0563
▁bourget	-12.0563
▁burrito	-12.0563
▁cambodia	-12.0563
▁canadian	-12.0563
▁carmichael	-12.0563
▁cassetti	-12.0563
▁centurion	-12.0563
▁chastity	-12.0563
▁cheetah	-12.0563
▁cinnamon	-12.0563
▁claustrophobi	-12.0563
▁cockpit	-12.0563
▁colossal	-12.0563
▁comanche	-12.0563
▁commerce	-12.0563
▁configuration	-12.0563
▁constitution	-12.0563
▁contingency	-12.0563
▁controversial	-12.0563
▁crucify	-12.0563
▁culdesac	-12.0563
▁dawson	-12.0563
▁deduct	-12.0563
▁devastated	-12.0563
▁dictionary	-12.0563
▁discretion	-12.0563
▁dmitri	-12.0563
▁eivira	-12.0563
▁emerald	-12.0563
▁encouraging	-12.0563
▁engaging	-12.0563
▁eugene	-12.0563
▁excellency	-12.0563
▁fairfax	-12.0563
▁ferocious	-12.0563
▁fontane	-12.0563
▁franchise	-12.0563
▁fundamental	-12.0563
▁generosity	-12.0563
▁glacier	-12.0563
▁gloop	-12.0563
▁gourmet	-12.0563
▁graduation	-12.0563
▁hamegg	-12.0563
▁hehhehheh	-12.0563
▁hillbilly	-12.0563
▁hockney	-12.0563
▁horrifying	-12.0563
▁immigration	-12.0563
▁imperfect	-12.0563
▁improbable	-12.0563
▁indefinite	-12.0563
▁infrared	-12.0563
▁inhabit	-12.0563
▁intervention	-12.0563
▁isolation	-12.0563
▁itinerary	-12.0563
▁janitor	-12.0563
▁jedediah	-12.0563
▁jeremiah	-12.0563
▁jukebox	-12.0563
▁khaki	-12.0563
▁kirsten	-12.0563
▁kowalski	-12.0563
▁lasagna	-12.0563
▁lollipop	-12.0563
▁magnum	-12.0563
▁maharaja	-12.0563
▁maintenance	-12.0563
▁malibu	-12.0563
▁manslaughter	-12.0563
▁massachusetts	-12.0563
▁mcguire	-12.0563
▁microprocessor	-12.0563
▁migraine	-12.0563
▁miriam	-12.0563
▁motivation	-12.0563
▁muertos	-12.0563
▁musubi	-12.0563
▁navigation	-12.0563
▁negotiating	-12.0563
▁negotiator	-12.0563
▁okudera	-12.0563
▁olympian	-12.0563
▁organisation	-12.0563
▁ozzie	-12.0563
▁paranoia	-12.0563
▁paranormal	-12.0563
▁peirce	-12.0563
▁phantom	-12.0563
▁physician	-12.0563
▁platinum	-12.0563
▁poulain	-12.0563
▁raquel	-12.0563
▁recipient	-12.0563
▁redemption	-12.0563
▁refrain	-12.0563
▁relentless	-12.0563
▁rosalind	-12.0563
▁rouge	-12.0563
▁sargnt	-12.0563
▁schofield	-12.0563
▁seldom	-12.0563
▁sheffield	-12.0563
▁sidekick	-12.0563
▁snowflake	-12.0563
▁spaniard	-12.0563
▁stensland	-12.0563
▁stossel	-12.0563
▁strawberries	-12.0563
▁sweatshirt	-12.0563
▁taihoi	-12.0563
▁temporarily	-12.0563
▁terminator	-12.0563
▁torturing	-12.0563
▁trajectory	-12.0563
▁treasury	-12.0563
▁trembling	-12.0563
▁tunnei	-12.0563
▁unavailable	-12.0563
▁unconditional	-12.0563
▁unemployment	-12.0563
▁universal	-12.0563
▁unwanted	-12.0563
▁vendetta	-12.0563
▁virtual	-12.0563
▁vulgar	-12.0563
▁worldwide	-12.0563
▁yuetmui	-12.0563
▁yulian	-12.0563
▁abide	-12.0563
▁baggage	-12.0563
▁beuler	-12.0563
▁brunch	-12.0563
▁cirk	-12.0563
▁degenerate	-12.0563
▁demise	-12.0563
▁drapes	-12.0563
▁fatherinlaw	-12.0563
▁garlic	-12.0563
▁gasoline	-12.0563
▁imaginary	-12.0563
▁mandatory	-12.0563
▁mccoy	-12.0563
▁nineteen	-12.0563
▁odette	-12.0563
▁overdue	-12.0563
▁redneck	-12.0563
▁referral	-12.0563
▁rhib	-12.0563
▁selden	-12.0563
▁shatz	-12.0563
▁sphere	-12.0563
responsibilities	-12.0563
▁agenda	-12.0563
▁chanel	-12.0563
▁dawg	-12.0563
▁fuentes	-12.0563
▁gerber	-12.0563
▁lavash	-12.0563
▁noyce	-12.0563
▁piercing	-12.0563
▁stork	-12.0563
▁subdue	-12.0563
▁zeller	-12.0563
▁bigenders	-12.0563
▁deranged	-12.0563
▁drugstore	-12.0563
▁skating	-12.0563
▁sledge	-12.0563
▁zulu	-12.0563
▁ayabe	-12.0563
▁grandparents	-12.0563
▁howie	-12.0563
▁checkmate	-12.0563
▁hardcore	-12.0563
▁housekeeping	-12.0563
▁stoppard	-12.0563
▁viral	-12.0563
▁yolanda	-12.0563
▁antoine	-12.0563
▁chittering	-12.0563
▁staging	-12.0563
▁trilling	-12.0563
▁plutonium	-12.0563
▁stove	-12.0563
▁dennings	-12.0563
▁larkhill	-12.0563
▁ringtone	-12.0563
▁tiptoe	-12.0563
▁grift	-12.0563
▁youngsters	-12.0563
▁optimistic	-12.0563
▁bosom	-12.0563
▁huntress	-12.0563
▁examining	-12.0563
▁jingling	-12.0563
▁guildford	-12.0563
▁hauser	-12.0563
▁menacing	-12.0563
▁digital	-12.0563
▁geometry	-12.0563
▁hermano	-12.0563
▁qualities	-12.0563
▁veil	-12.0563
▁fringe	-12.0563
▁multiverse	-12.0563
▁tribute	-12.0563
▁unaware	-12.0563
▁automobile	-12.0563
▁trifle	-12.0563
▁abduction	-12.0563
▁complication	-12.0563
▁miniature	-12.0563
▁pucker	-12.0563
▁fracture	-12.0563
▁rubbing	-12.0563
credible	-12.0563
siberia	-12.0563
▁reptile	-12.0563
▁prevision	-12.0564
▁skank	-12.0564
▁juvie	-12.0564
▁titties	-12.0564
▁veal	-12.0564
▁imitation	-12.0564
▁balcon	-12.0564
dolph	-12.0564
▁attain	-12.0564
▁lugar	-12.0564
▁cahill	-12.0564
▁twitch	-12.0564
▁underdog	-12.0564
▁kaiser	-12.0564
▁grond	-12.0564
▁odlayee	-12.0564
▁ieave	-12.0564
▁blouse	-12.0564
▁hancock	-12.0564
▁hunchback	-12.0564
▁prophetess	-12.0564
[...]
