<unk>	0
<s>	0
</s>	0
s	-3.67055
▁im	-4.52086
▁dont	-4.59125
▁know	-4.72163
▁get	-4.75356
▁go	-4.75837
▁oh	-4.90213
▁right	-4.90492
▁come	-4.93109
▁got	-4.99365
▁well	-5.00676
▁like	-5.02332
▁youre	-5.09099
▁thats	-5.19226
▁one	-5.19457
▁yeah	-5.21365
ing	-5.25517
▁good	-5.27267
▁think	-5.32787
▁see	-5.39458
▁na	-5.40397
▁want	-5.43853
ed	-5.45254
▁yes	-5.50846
▁look	-5.52358
▁hey	-5.53278
▁ill	-5.56179
▁okay	-5.56948
▁back	-5.57902
▁us	-5.62918
▁gon	-5.6419
▁going	-5.6464
▁time	-5.65758
▁hes	-5.71603
▁take	-5.74489
▁cant	-5.75524
▁say	-5.8182
▁man	-5.85658
▁would	-5.86023
▁lets	-5.90732
▁way	-5.9111
▁never	-5.92664
▁really	-5.93459
▁little	-5.94243
d	-5.94587
▁thank	-5.95821
▁tell	-5.95957
▁could	-5.96408
▁mr	-5.96727
y	-5.99422
▁ive	-5.99747
▁sir	-6.01411
▁whats	-6.02248
▁make	-6.0405
▁let	-6.06781
▁something	-6.08176
▁l	-6.11261
▁didnt	-6.13822
▁theres	-6.15454
▁need	-6.1593
▁sorry	-6.16008
▁give	-6.17471
▁love	-6.17975
▁help	-6.21296
▁please	-6.2199
▁wait	-6.22309
▁	-6.23002
▁mean	-6.23011
▁two	-6.24127
▁sure	-6.29804
▁much	-6.3675
▁theyre	-6.37037
e	-6.37114
ly	-6.37915
er	-6.38237
▁uh	-6.38602
▁said	-6.38629
▁must	-6.38909
▁thing	-6.38938
▁people	-6.40098
▁night	-6.41467
▁stop	-6.44733
▁find	-6.45222
▁day	-6.4649
▁home	-6.46528
▁first	-6.50215
▁guys	-6.50768
▁great	-6.51155
▁life	-6.53369
▁away	-6.53557
▁put	-6.56966
▁boy	-6.57793
▁even	-6.57832
▁keep	-6.58634
▁ever	-6.58877
▁thought	-6.59704
▁old	-6.6022
▁big	-6.62204
▁anything	-6.62579
▁call	-6.62746
▁shes	-6.62998
▁work	-6.63645
▁new	-6.63745
▁always	-6.63885
▁still	-6.64448
▁wont	-6.6445
▁better	-6.65023
▁nothing	-6.66359
▁id	-6.67356
▁god	-6.69164
▁youve	-6.70885
▁maybe	-6.70893
▁youll	-6.71087
▁hello	-6.71156
▁ta	-6.7174
▁long	-6.72761
▁coming	-6.73157
▁everything	-6.73331
▁hi	-6.73352
▁last	-6.74391
▁name	-6.7473
▁told	-6.75207
t	-6.75375
▁dad	-6.76205
▁house	-6.76368
▁things	-6.78523
▁place	-6.79844
▁nice	-6.79945
▁talk	-6.8136
▁move	-6.82536
▁around	-6.83307
▁stay	-6.83512
▁thanks	-6.84283
▁isnt	-6.85148
▁play	-6.8576
▁fine	-6.86818
▁hear	-6.87032
▁leave	-6.87653
▁every	-6.87816
r	-6.88112
▁hold	-6.88675
in	-6.90565
▁ready	-6.90995
▁girl	-6.91153
▁hell	-6.91312
▁may	-6.91968
▁doesnt	-6.92122
▁made	-6.92704
▁believe	-6.93364
▁huh	-6.93375
▁run	-6.94216
▁kind	-6.95053
▁listen	-6.96025
▁money	-6.9645
▁course	-6.9645
▁bad	-6.97336
▁lot	-6.9842
a	-6.98549
▁feel	-6.99171
▁ok	-6.99615
▁mom	-6.99754
▁miss	-6.99836
▁world	-7.00026
▁weve	-7.00159
▁remember	-7.00814
n	-7.01063
▁father	-7.01644
▁years	-7.01677
i	-7.01702
▁understand	-7.01817
▁car	-7.025
▁left	-7.02617
▁enough	-7.02617
▁wrong	-7.03729
▁mother	-7.03939
▁might	-7.05174
▁real	-7.05186
▁room	-7.05435
▁whoa	-7.06576
▁three	-7.06858
▁guy	-7.07347
▁show	-7.07706
▁mind	-7.08374
o	-7.10293
▁wan	-7.10453
▁school	-7.10522
▁done	-7.10688
▁happened	-7.10889
▁wanted	-7.12326
▁next	-7.128
▁watch	-7.14022
▁care	-7.15978
▁another	-7.16227
es	-7.16623
▁else	-7.17185
▁try	-7.17267
▁son	-7.17427
▁together	-7.17825
▁best	-7.18156
▁friend	-7.18466
▁came	-7.20385
▁meet	-7.20585
▁today	-7.20799
▁talking	-7.20869
▁excuse	-7.21098
▁wouldnt	-7.21805
▁dead	-7.21925
▁ask	-7.22856
▁guess	-7.23115
▁ah	-7.2358
▁live	-7.23852
▁ha	-7.24615
▁head	-7.24634
▁playing	-7.25238
▁getting	-7.25432
▁music	-7.25786
▁pretty	-7.26219
▁men	-7.2652
▁family	-7.2657
▁tonight	-7.26922
▁hope	-7.27453
▁start	-7.27613
▁morning	-7.27632
▁baby	-7.27988
al	-7.28175
▁chuckles	-7.28446
▁fire	-7.29531
▁minute	-7.29917
▁someone	-7.30758
▁hard	-7.3182
▁friends	-7.3328
▁kid	-7.33704
▁seen	-7.34124
▁wasnt	-7.34618
▁turn	-7.35209
▁found	-7.3647
▁story	-7.36938
c	-7.37782
▁bring	-7.38519
▁idea	-7.38559
▁saw	-7.38906
▁yet	-7.38907
▁heard	-7.38937
▁kids	-7.39061
▁gone	-7.39137
▁havent	-7.39297
▁george	-7.39699
▁laughing	-7.39816
▁without	-7.40502
▁tomorrow	-7.40502
▁kill	-7.40543
▁use	-7.4079
▁many	-7.40853
▁happy	-7.40907
▁hand	-7.41313
▁mrs	-7.41646
▁lost	-7.41733
▁em	-7.42748
▁door	-7.43063
▁wish	-7.43271
▁days	-7.43461
▁trying	-7.43628
▁whole	-7.44209
▁everyone	-7.45066
▁worry	-7.46657
▁bit	-7.46693
▁knew	-7.46754
▁looking	-7.46884
▁eat	-7.46965
▁everybody	-7.47425
▁matter	-7.47435
▁shut	-7.48054
▁youd	-7.48065
p	-7.49403
▁mine	-7.49833
▁whos	-7.49862
▁alone	-7.52056
▁children	-7.52964
▁easy	-7.52967
▁check	-7.53392
▁went	-7.53427
▁actually	-7.53433
▁true	-7.53914
▁second	-7.54266
▁game	-7.5427
g	-7.54301
▁took	-7.54347
▁job	-7.54348
▁five	-7.5436
▁since	-7.54759
▁face	-7.55271
▁water	-7.55282
▁end	-7.55291
▁number	-7.55745
▁dear	-7.5577
▁town	-7.57182
▁king	-7.5748
▁business	-7.5813
▁problem	-7.58151
▁open	-7.58688
▁aint	-7.59099
▁dr	-7.59375
▁anyone	-7.59586
▁wow	-7.59586
▁beautiful	-7.60077
▁damn	-7.6063
▁red	-7.60881
▁heart	-7.60906
▁young	-7.61395
▁soon	-7.61402
▁trouble	-7.61562
▁woman	-7.61563
▁brother	-7.61655
▁wheres	-7.61742
▁looks	-7.6202
▁lm	-7.62273
▁wife	-7.62564
▁hurry	-7.63069
▁afraid	-7.63069
▁laughs	-7.63278
▁grunts	-7.63279
▁hit	-7.63337
▁shall	-7.63578
▁cause	-7.63824
▁four	-7.6408
▁ray	-7.64088
▁stuff	-7.6409
▁un	-7.64363
▁somebody	-7.646
▁cool	-7.64601
▁couldnt	-7.64653
l	-7.6473
▁already	-7.65115
▁stand	-7.65405
▁used	-7.65521
▁called	-7.65772
▁late	-7.6586
▁line	-7.6597
▁dog	-7.66395
▁eyes	-7.66811
▁close	-7.67164
▁ago	-7.67214
▁phone	-7.67221
u	-7.67247
▁die	-7.67318
▁pay	-7.6832
m	-7.68524
▁year	-7.69042
en	-7.69088
▁set	-7.69313
▁anyway	-7.69338
▁honey	-7.69341
▁far	-7.69432
▁party	-7.69564
▁um	-7.6995
▁doctor	-7.70226
▁fight	-7.70533
▁dance	-7.70584
▁sit	-7.70656
▁read	-7.71886
▁forget	-7.72048
ers	-7.72202
▁break	-7.72449
▁howard	-7.72627
▁later	-7.72786
▁light	-7.72829
on	-7.72979
▁pull	-7.7392
▁pick	-7.74149
▁funny	-7.74316
▁supposed	-7.74464
▁boys	-7.74616
▁crazy	-7.74881
▁sleep	-7.7493
est	-7.75352
▁arent	-7.75455
▁parents	-7.75704
▁chance	-7.75961
▁hurt	-7.75993
▁sighs	-7.76105
▁high	-7.76772
b	-7.77138
▁gentlemen	-7.77185
▁thinking	-7.7723
▁joe	-7.77238
or	-7.77411
▁girls	-7.77626
▁part	-7.78209
▁hmm	-7.78311
▁side	-7.78698
▁lady	-7.79597
▁fun	-7.79788
▁happen	-7.79788
▁exactly	-7.80159
▁working	-7.80584
▁stupid	-7.80746
▁half	-7.80751
▁city	-7.80758
▁hands	-7.81306
▁cut	-7.81358
▁taking	-7.81984
▁book	-7.82025
re	-7.82054
▁continues	-7.82131
▁change	-7.82421
ic	-7.82869
▁rest	-7.83223
▁learn	-7.83281
▁fast	-7.8366
▁welcome	-7.83813
▁cheering	-7.83851
▁john	-7.84421
▁behind	-7.84438
▁computer	-7.84438
▁free	-7.84445
ar	-7.8474
▁gasps	-7.84827
▁heres	-7.85295
ie	-7.85476
▁child	-7.85698
▁quite	-7.86392
▁ahead	-7.86985
▁clear	-7.87007
▁minutes	-7.87394
▁important	-7.87625
▁inside	-7.87629
▁moment	-7.87894
▁probably	-7.88273
▁screaming	-7.88412
▁cat	-7.88519
▁point	-7.88529
▁waiting	-7.89018
▁making	-7.89588
▁walk	-7.89898
▁bed	-7.90698
▁six	-7.90905
▁bye	-7.90914
▁least	-7.91585
▁full	-7.92015
▁luck	-7.9203
▁news	-7.92771
▁lose	-7.92865
▁question	-7.93262
ve	-7.93551
▁says	-7.93792
▁hate	-7.93908
▁duck	-7.94063
▁throw	-7.94221
▁whatever	-7.94315
▁ladies	-7.94322
▁aah	-7.9433
w	-7.94571
ion	-7.95002
▁goodbye	-7.9501
▁chip	-7.95037
▁save	-7.95469
▁sweet	-7.95668
▁special	-7.95711
▁itll	-7.95714
▁ooh	-7.95716
▁country	-7.95719
▁p	-7.95742
▁hot	-7.95761
▁sea	-7.95875
▁b	-7.96382
▁wonderful	-7.96451
▁green	-7.97124
▁hang	-7.97226
▁plan	-7.97366
▁sound	-7.97562
▁week	-7.97566
▁word	-7.9757
▁ow	-7.97648
▁makes	-7.97683
▁almost	-7.97836
▁brought	-7.97836
▁re	-7.98141
▁met	-7.9854
▁send	-7.98763
▁frank	-7.9908
▁police	-7.99249
▁puss	-7.99281
▁gave	-7.99957
▁anymore	-8.0001
▁death	-8.00013
▁boss	-8.00023
▁s	-8.00345
▁nobody	-8.00547
f	-8.00727
▁theyll	-8.00747
▁carl	-8.01289
k	-8.01316
▁along	-8.01488
▁crowd	-8.01493
▁anybody	-8.02233
▁different	-8.02233
▁sort	-8.02234
▁trust	-8.02235
▁hair	-8.02256
▁deal	-8.02516
st	-8.02575
▁lts	-8.02815
▁earth	-8.02956
▁henry	-8.02986
▁g	-8.03506
▁rock	-8.03524
▁million	-8.0362
▁couple	-8.03744
▁land	-8.04456
▁drink	-8.04652
▁promise	-8.05025
▁speak	-8.05131
▁grunting	-8.05342
▁though	-8.05949
▁sister	-8.05976
▁captain	-8.0605
▁dale	-8.06066
▁catch	-8.0633
▁write	-8.06713
▁power	-8.06777
▁air	-8.06866
▁saying	-8.06955
▁small	-8.07444
▁safe	-8.07464
▁ball	-8.07734
▁dream	-8.08038
▁perfect	-8.08242
▁secret	-8.08418
▁dude	-8.08431
▁asked	-8.08611
▁bob	-8.08644
ch	-8.09144
▁dinner	-8.09213
▁wants	-8.09472
▁touch	-8.09868
able	-8.09906
▁lord	-8.1002
▁food	-8.10031
ies	-8.1022
le	-8.10568
▁reason	-8.10799
▁control	-8.10837
▁glad	-8.1085
▁answer	-8.11268
▁quiet	-8.11474
man	-8.11611
▁shoot	-8.1201
▁hours	-8.12277
▁win	-8.12371
▁drive	-8.12393
▁perhaps	-8.12478
▁tried	-8.12481
▁general	-8.12484
▁th	-8.12589
▁officer	-8.12645
▁ya	-8.13135
us	-8.13304
▁white	-8.13313
▁daddy	-8.13342
▁war	-8.13346
▁c	-8.13767
▁sick	-8.13846
▁de	-8.14006
▁fact	-8.14063
▁goes	-8.14871
▁living	-8.15003
▁bet	-8.15107
▁black	-8.15626
▁hows	-8.15855
tor	-8.15926
▁follow	-8.16632
▁either	-8.16716
▁also	-8.16717
▁drop	-8.16727
▁sent	-8.16734
▁killed	-8.16756
▁horse	-8.1691
▁seems	-8.17231
▁quick	-8.17238
▁team	-8.17818
▁case	-8.18474
▁yi	-8.18494
▁st	-8.18631
▁daughter	-8.18704
▁ship	-8.18717
▁buy	-8.18873
an	-8.20177
▁evil	-8.20241
▁president	-8.20243
▁front	-8.20247
▁darling	-8.20251
▁step	-8.20521
▁a	-8.20628
▁blue	-8.21172
▁lovely	-8.21527
▁song	-8.21595
▁ride	-8.21739
▁means	-8.21883
▁growling	-8.22105
▁wonder	-8.22314
▁sometimes	-8.22497
▁rather	-8.22968
▁kurt	-8.22968
▁till	-8.23148
▁sounds	-8.23324
▁times	-8.23606
▁camp	-8.23863
▁married	-8.23898
▁mary	-8.23966
▁k	-8.24012
▁died	-8.24457
▁outside	-8.24832
▁finally	-8.24903
▁groans	-8.24935
▁seem	-8.25594
▁gun	-8.25789
▁hour	-8.26034
▁star	-8.26314
▁coach	-8.26639
▁person	-8.26653
▁uncle	-8.26724
▁suppose	-8.27425
▁office	-8.27571
▁karen	-8.27685
▁shot	-8.27706
h	-8.27778
▁ten	-8.28397
ter	-8.28484
▁count	-8.28561
▁truth	-8.28657
▁hotel	-8.28685
▁fred	-8.28808
ment	-8.28884
▁knows	-8.28909
▁straight	-8.29637
▁leaving	-8.29639
▁top	-8.29783
▁lives	-8.30091
z	-8.30557
▁poor	-8.30638
▁mud	-8.30758
▁telling	-8.30983
▁wizard	-8.31627
▁screams	-8.31643
▁bees	-8.32155
ive	-8.32278
▁seven	-8.32637
▁running	-8.32642
▁cold	-8.32673
▁loved	-8.3281
▁started	-8.32837
▁singing	-8.3307
▁feeling	-8.33144
▁piece	-8.33289
▁class	-8.33542
▁harry	-8.33657
▁needs	-8.33726
▁sign	-8.34184
▁fish	-8.34196
▁wed	-8.342
▁cats	-8.34393
▁shouldnt	-8.34688
▁alive	-8.34707
▁road	-8.34728
▁beat	-8.34849
▁able	-8.34971
▁lunch	-8.36771
▁david	-8.36782
v	-8.36956
▁scared	-8.3698
is	-8.37228
▁others	-8.37846
se	-8.38035
▁in	-8.38039
▁fall	-8.38105
▁gene	-8.38171
▁pass	-8.38253
▁finish	-8.38498
▁human	-8.38649
▁eye	-8.38664
▁smell	-8.38673
▁slow	-8.38751
▁happening	-8.38767
il	-8.38823
▁witch	-8.38841
▁chief	-8.38922
▁theyve	-8.38925
▁taken	-8.39117
▁mad	-8.39718
▁body	-8.40011
▁n	-8.40049
ra	-8.40644
▁ones	-8.40863
▁dangerous	-8.41115
▁mmm	-8.41162
▁ho	-8.41237
▁faster	-8.41405
▁bill	-8.41738
▁ben	-8.41761
▁deep	-8.4187
▁serious	-8.42047
▁dark	-8.42217
▁maam	-8.42225
▁moving	-8.42225
▁potter	-8.42235
▁date	-8.42272
el	-8.42351
▁wear	-8.42649
▁kiss	-8.42826
▁miles	-8.43001
▁figure	-8.4308
▁strange	-8.43227
▁buddy	-8.43344
▁calm	-8.4337
▁wake	-8.43381
▁peach	-8.43412
▁months	-8.43413
▁somewhere	-8.44479
▁mama	-8.44659
▁brain	-8.45177
▁ground	-8.45197
▁careful	-8.45513
▁dorothy	-8.45628
▁push	-8.45628
▁christmas	-8.45628
▁women	-8.45629
▁boat	-8.4565
▁none	-8.45967
▁words	-8.4608
▁wind	-8.46198
▁return	-8.46357
▁yo	-8.46414
▁charge	-8.46533
out	-8.46663
▁greg	-8.46789
▁jeremy	-8.46791
▁marry	-8.46795
ation	-8.47226
▁grow	-8.47275
▁ch	-8.47278
it	-8.47521
ting	-8.47599
ur	-8.4818
▁billy	-8.48239
▁saved	-8.48446
▁aunt	-8.48667
ll	-8.4901
▁jack	-8.49133
▁forgot	-8.49143
▁building	-8.49479
▁handle	-8.49782
▁cover	-8.50016
▁meant	-8.50245
▁books	-8.50312
▁pleasure	-8.50362
▁weird	-8.50362
▁rowley	-8.50365
▁tired	-8.50387
▁shh	-8.50555
▁lll	-8.50595
▁train	-8.50676
▁lucky	-8.50808
▁relax	-8.51131
▁stick	-8.51389
▁rich	-8.51527
▁coffee	-8.51582
▁giving	-8.51583
▁shell	-8.51586
▁become	-8.51591
▁law	-8.51599
▁picture	-8.51603
▁happens	-8.51623
▁sing	-8.51652
▁map	-8.51723
▁roll	-8.51738
▁tom	-8.5233
▁order	-8.52431
▁fly	-8.52532
▁short	-8.52633
▁master	-8.52821
▁christian	-8.52864
▁reach	-8.52894
▁bank	-8.52894
▁shouting	-8.52906
▁key	-8.52909
▁turned	-8.52951
▁chattering	-8.53014
▁bear	-8.53305
ri	-8.53732
▁except	-8.53966
▁company	-8.54067
▁york	-8.54067
▁born	-8.54121
▁window	-8.54161
▁tea	-8.54424
te	-8.54785
▁sense	-8.55243
ish	-8.55286
▁grand	-8.55306
▁foot	-8.55319
▁proud	-8.55333
▁forever	-8.55334
▁round	-8.55336
▁cheese	-8.55336
▁kidding	-8.5534
▁manny	-8.55423
▁jellicle	-8.55447
▁street	-8.55455
▁worked	-8.55641
▁names	-8.5574
▁across	-8.56614
▁kermit	-8.56614
▁major	-8.56614
▁middle	-8.56614
▁security	-8.56614
▁friday	-8.56615
▁birthday	-8.56615
▁hungry	-8.56621
▁summer	-8.56622
▁queen	-8.56623
▁oz	-8.56632
▁clean	-8.56897
▁expect	-8.56952
▁leg	-8.5789
▁present	-8.5789
▁alex	-8.57913
▁brenda	-8.57913
▁fault	-8.57913
▁feet	-8.57935
▁wild	-8.58008
▁voice	-8.58082
at	-8.58083
▁quickly	-8.5817
▁eight	-8.58179
▁comes	-8.58326
▁con	-8.58447
ness	-8.58513
▁magic	-8.59061
▁evening	-8.59108
▁explain	-8.59229
▁jesus	-8.59229
▁gary	-8.59286
▁e	-8.59375
▁busy	-8.59433
▁join	-8.59489
▁questions	-8.59942
▁engine	-8.60258
▁worth	-8.60301
▁choice	-8.60562
▁worse	-8.60562
▁ellie	-8.60563
▁shit	-8.60575
▁la	-8.6092
▁finished	-8.61101
▁dollars	-8.61288
▁aw	-8.61431
▁commenta	-8.61468
less	-8.61506
▁blow	-8.61583
▁butt	-8.61643
▁near	-8.61735
to	-8.61908
▁gadget	-8.61912
▁granny	-8.61914
▁scott	-8.61914
▁terrible	-8.61952
▁radio	-8.61963
▁table	-8.61999
▁known	-8.62268
▁hed	-8.62349
▁box	-8.62701
x	-8.6282
▁attack	-8.62851
▁longer	-8.63026
▁strong	-8.63067
▁player	-8.63181
▁past	-8.63265
▁harold	-8.63284
▁spend	-8.63287
ling	-8.63438
▁animal	-8.63615
▁enjoy	-8.63705
▁lead	-8.64004
▁board	-8.64178
▁blood	-8.64424
▁art	-8.64544
▁goddamn	-8.64686
▁alan	-8.64694
▁unless	-8.64723
▁certainly	-8.64812
▁tim	-8.64971
▁whoo	-8.64984
▁pain	-8.65021
▁field	-8.65081
▁report	-8.65293
▁works	-8.65337
▁fear	-8.65622
up	-8.65826
▁seat	-8.65934
▁hero	-8.66
▁caught	-8.66081
▁bailey	-8.66082
▁mike	-8.66089
▁tv	-8.66098
▁mouse	-8.66125
▁cute	-8.66194
▁bird	-8.66305
▁speaking	-8.67035
▁cry	-8.67078
▁calling	-8.67163
▁space	-8.6751
▁susan	-8.6751
▁wilma	-8.67512
▁stuck	-8.67514
▁absolutely	-8.67533
▁super	-8.67559
li	-8.67582
▁josh	-8.67699
▁chicken	-8.6795
ac	-8.68018
th	-8.681
▁letter	-8.68306
▁bar	-8.68449
▁ran	-8.68515
▁tight	-8.68782
ul	-8.68893
▁alexander	-8.68959
▁alvin	-8.68959
▁post	-8.69053
▁trip	-8.69073
▁weeks	-8.69521
▁planet	-8.69543
▁o	-8.69638
ity	-8.6983
▁killer	-8.69835
ta	-8.69986
▁entire	-8.70253
▁grandma	-8.70415
▁van	-8.70498
▁lt	-8.70948
▁tree	-8.70977
▁bag	-8.71067
▁asking	-8.71205
▁jump	-8.71223
▁kick	-8.71494
▁less	-8.71569
▁surprise	-8.7166
▁fat	-8.71707
▁bell	-8.7179
▁fell	-8.71807
▁f	-8.71898
▁tough	-8.71923
▁heh	-8.71971
▁monster	-8.72506
▁eh	-8.72583
la	-8.72625
▁h	-8.72845
ful	-8.73011
▁imagine	-8.73178
▁princess	-8.73402
▁attention	-8.73437
▁possible	-8.73437
▁favorite	-8.73441
▁dreams	-8.73506
▁sad	-8.73532
▁fool	-8.73597
▁cop	-8.73898
▁island	-8.74055
▁tr	-8.74058
▁sun	-8.74142
▁fair	-8.74512
▁looked	-8.74564
▁brothers	-8.74695
▁share	-8.74714
▁protect	-8.74893
▁afternoon	-8.74975
▁amazing	-8.74975
▁meimei	-8.74975
▁third	-8.74975
▁boots	-8.74984
▁act	-8.75117
▁holy	-8.7524
▁ass	-8.75287
▁awful	-8.75492
▁dress	-8.75512
▁thousand	-8.75648
▁pig	-8.75709
▁meeting	-8.75848
you	-8.75995
by	-8.76031
▁given	-8.76177
et	-8.76466
▁gold	-8.7652
▁swear	-8.76538
▁wedding	-8.7654
▁decided	-8.76664
▁joke	-8.77023
▁ar	-8.7706
▁wearing	-8.77263
▁owe	-8.77273
▁mouth	-8.77604
ent	-8.77638
▁unit	-8.77652
▁pal	-8.78027
▁felt	-8.78125
▁anywhere	-8.78125
▁service	-8.78133
▁mister	-8.78149
▁panting	-8.78198
ro	-8.78379
▁hunt	-8.78379
▁offer	-8.78873
▁fix	-8.79309
▁bee	-8.79442
▁rescue	-8.79468
▁smart	-8.79568
▁martin	-8.79646
▁doug	-8.7967
▁throat	-8.79738
▁north	-8.79738
▁broken	-8.79824
▁appreciate	-8.79846
▁yelling	-8.79867
▁warner	-8.79879
▁besides	-8.80045
▁movie	-8.80133
▁bus	-8.80273
▁dis	-8.80392
▁husband	-8.80555
um	-8.80938
▁broke	-8.8129
▁race	-8.81376
▁battle	-8.81378
▁excellent	-8.81378
▁upon	-8.81416
▁dirty	-8.81441
▁hide	-8.81447
▁nose	-8.81454
▁doubt	-8.81468
me	-8.82034
▁grab	-8.82093
▁horn	-8.82106
▁mistake	-8.82141
▁pop	-8.82185
ne	-8.82533
▁sell	-8.82539
▁lived	-8.82645
▁missing	-8.82901
▁arm	-8.82904
▁machine	-8.83031
▁yesterday	-8.83044
▁papa	-8.8305
▁football	-8.8305
▁area	-8.83051
▁age	-8.83086
▁sitting	-8.83109
▁press	-8.83135
▁early	-8.83163
ten	-8.83503
▁j	-8.83683
▁changed	-8.83756
▁missed	-8.84015
▁camera	-8.8408
▁rid	-8.84227
▁certain	-8.84554
▁beach	-8.84651
▁prince	-8.84679
▁angus	-8.84739
▁kitchen	-8.84739
▁private	-8.84739
▁practice	-8.8474
▁forward	-8.8474
▁forgive	-8.84741
▁nope	-8.84742
▁truck	-8.84746
▁test	-8.84759
▁walter	-8.84766
▁groaning	-8.8478
▁stopped	-8.84797
▁totally	-8.84832
▁laugh	-8.85212
▁form	-8.8547
▁mark	-8.85564
▁frog	-8.85748
▁cops	-8.85749
▁dogs	-8.85762
ry	-8.86257
▁ii	-8.86335
▁spot	-8.86434
▁zach	-8.86457
▁impossible	-8.86463
▁sword	-8.86496
ine	-8.8727
▁paper	-8.87537
▁bomb	-8.87541
▁egg	-8.87542
ce	-8.87914
▁fu	-8.87984
▁state	-8.88121
▁river	-8.8821
▁history	-8.88218
▁system	-8.88218
▁uhhuh	-8.88218
▁definitely	-8.8822
▁floor	-8.88223
▁action	-8.8831
▁spy	-8.88405
▁peter	-8.88474
▁mess	-8.88774
▁wall	-8.8918
▁wondering	-8.89217
▁message	-8.89336
▁lake	-8.89481
▁carry	-8.8957
age	-8.89702
ant	-8.89732
▁honor	-8.89983
▁scene	-8.89987
▁ernie	-8.90003
▁ought	-8.90003
▁future	-8.90007
▁nine	-8.90025
▁todd	-8.90063
▁low	-8.90074
▁station	-8.90109
▁ice	-8.90113
▁james	-8.90144
na	-8.90285
ous	-8.90315
▁simple	-8.90409
▁pa	-8.90429
▁higher	-8.90525
▁bitch	-8.9054
▁fit	-8.90578
▁plans	-8.90703
▁shoes	-8.90707
▁watching	-8.91203
▁mention	-8.91417
▁mm	-8.91679
ow	-8.91682
▁hasnt	-8.91823
▁zack	-8.91825
▁carmen	-8.91881
▁single	-8.91918
▁army	-8.92099
▁seconds	-8.92148
▁growls	-8.92217
▁goin	-8.92474
▁i	-8.92653
▁monkey	-8.9307
▁hundred	-8.93078
▁heaven	-8.93082
am	-8.93399
▁al	-8.93426
▁public	-8.93654
▁french	-8.93663
▁peace	-8.93665
▁accident	-8.93671
▁swim	-8.93672
▁angry	-8.93673
▁south	-8.93674
▁werent	-8.93674
▁west	-8.93716
▁size	-8.93848
▁lie	-8.93877
▁r	-8.93958
▁folks	-8.94074
▁ringing	-8.94097
▁mei	-8.94123
▁lights	-8.94242
▁ahh	-8.94285
▁crying	-8.94353
▁record	-8.94498
▁trick	-8.94748
▁mate	-8.94926
▁american	-8.95061
▁over	-8.95183
ist	-8.95197
▁realize	-8.95326
▁heads	-8.95349
▁dennis	-8.9556
▁situation	-8.9556
▁washington	-8.9556
▁yep	-8.95578
▁dare	-8.95614
▁anna	-8.95624
▁gets	-8.95681
▁up	-8.95819
▁pete	-8.95874
▁bloody	-8.95901
▁interesting	-8.95964
ary	-8.96048
▁continue	-8.96115
▁park	-8.96291
▁arms	-8.96432
ung	-8.96668
▁mountain	-8.96946
▁build	-8.96964
▁treat	-8.97023
▁escape	-8.97208
▁birds	-8.97211
▁mighty	-8.9724
▁indistinct	-8.97311
▁christ	-8.97445
▁leo	-8.97473
▁famous	-8.97483
▁hannah	-8.97483
▁instead	-8.97483
▁kept	-8.97483
▁bridge	-8.97485
▁legend	-8.97492
▁band	-8.97501
▁theyd	-8.97521
▁interested	-8.97822
▁crash	-8.98472
▁w	-8.98799
▁el	-8.98925
▁roger	-8.98945
▁soul	-8.98974
▁horses	-8.99049
▁hill	-8.99161
▁se	-8.99207
ca	-8.99211
▁talked	-8.99228
▁glass	-8.99369
▁hat	-8.99392
▁hospital	-8.99426
▁kevin	-8.99444
▁marnie	-8.99444
▁melissa	-8.99444
▁wrote	-8.99444
▁clever	-8.99446
▁often	-8.99457
▁outta	-8.99459
▁sake	-8.99459
▁mommy	-8.99482
▁moon	-8.99529
▁ohh	-8.99774
▁beer	-8.99833
▁gus	-8.99955
▁breath	-9.00183
▁eggs	-9.00215
▁huge	-9.00359
▁cook	-9.0039
▁track	-9.00427
▁stars	-9.00518
▁club	-9.00823
▁fired	-9.00883
▁animals	-9.0096
▁bastard	-9.00988
▁walking	-9.01
▁begin	-9.01066
▁stone	-9.011
▁quit	-9.01269
▁cell	-9.01324
po	-9.01339
▁juni	-9.01411
▁large	-9.01459
▁chess	-9.01459
▁mmhmm	-9.0146
ho	-9.01464
▁indeed	-9.015
▁danger	-9.01508
▁teach	-9.01542
▁tony	-9.01607
ma	-9.01705
▁tail	-9.01738
▁ab	-9.01915
▁max	-9.02008
ance	-9.02159
▁bother	-9.02946
▁card	-9.0295
▁speed	-9.02956
▁cross	-9.0306
▁ma	-9.03426
▁per	-9.03454
▁court	-9.03476
▁standing	-9.03476
▁bottom	-9.03485
▁college	-9.03485
▁lloyd	-9.03485
▁sergeant	-9.03485
▁bright	-9.03496
▁corner	-9.03541
▁woods	-9.03679
▁double	-9.03716
▁suit	-9.03819
▁closer	-9.03895
▁dar	-9.03977
▁killing	-9.04055
▁mo	-9.04529
▁needed	-9.04728
▁not	-9.0506
▁allow	-9.05146
▁idiot	-9.05194
▁plane	-9.05269
▁waste	-9.05299
lo	-9.0536
▁paul	-9.05477
▁bite	-9.05496
▁personal	-9.05529
▁congratulations	-9.05568
▁crusoe	-9.05568
▁difficult	-9.05568
▁rudy	-9.05568
▁spongebob	-9.05568
▁thunder	-9.05568
▁wolf	-9.05569
▁vegas	-9.05569
▁aye	-9.0557
▁code	-9.05589
▁forest	-9.05603
▁sky	-9.05618
▁rangers	-9.05814
▁greatest	-9.06127
▁ba	-9.06336
▁papers	-9.06389
▁whose	-9.06391
▁knock	-9.06637
▁t	-9.06846
▁rain	-9.07163
▁steal	-9.07166
▁final	-9.07225
▁gift	-9.07376
▁base	-9.07424
▁normal	-9.07506
▁arthur	-9.07696
▁bunch	-9.07696
▁driving	-9.07696
▁soccer	-9.07696
▁worried	-9.07696
▁upset	-9.07696
▁block	-9.077
▁kitty	-9.07701
▁candy	-9.07701
▁richard	-9.07704
▁france	-9.07709
▁everywhere	-9.07712
▁robin	-9.07722
▁dave	-9.07726
▁ugh	-9.07733
▁prove	-9.07745
▁locked	-9.0806
as	-9.08592
▁no	-9.08962
▁si	-9.09035
im	-9.09339
tic	-9.09581
▁extra	-9.09717
co	-9.09756
▁awesome	-9.0987
▁decision	-9.0987
▁otis	-9.0987
▁alarm	-9.09872
▁thatll	-9.09872
▁blame	-9.09877
▁paid	-9.09892
▁betty	-9.09896
▁lee	-9.0991
▁out	-9.10061
▁ln	-9.10081
▁moved	-9.10186
▁games	-9.10237
▁eating	-9.10323
▁promised	-9.10668
▁starting	-9.10905
▁risk	-9.11278
▁sh	-9.11413
▁search	-9.11548
▁draw	-9.11583
▁destroy	-9.11662
▁howd	-9.11824
▁doin	-9.1197
▁wh	-9.11975
▁warm	-9.1199
go	-9.1209
▁english	-9.12092
▁heavy	-9.12092
▁language	-9.12092
▁view	-9.12092
▁rumbling	-9.12092
▁girlfriend	-9.12094
▁group	-9.12095
▁merr	-9.12105
▁dumb	-9.12108
ts	-9.12118
▁sam	-9.12272
▁feed	-9.12364
▁surprised	-9.12485
▁shed	-9.12567
▁mission	-9.12595
▁seeing	-9.12721
▁fill	-9.12901
▁force	-9.1381
ard	-9.14019
▁contact	-9.1416
▁of	-9.14171
▁madam	-9.14215
▁guard	-9.14216
▁smile	-9.14253
▁month	-9.14261
▁sp	-9.14327
▁especially	-9.14365
▁shouldve	-9.14365
▁worst	-9.14365
▁robert	-9.14366
▁vacation	-9.1437
▁operation	-9.14377
▁cake	-9.14382
▁fellow	-9.14385
▁tuck	-9.1439
▁center	-9.1441
▁ring	-9.14423
▁involved	-9.14453
▁exclaims	-9.14627
▁so	-9.14731
▁farm	-9.14884
▁named	-9.14918
▁breathing	-9.14965
▁gosh	-9.15238
▁cl	-9.15576
ate	-9.15583
▁pro	-9.15613
▁pack	-9.1568
ia	-9.1608
▁accept	-9.1622
▁loud	-9.16342
▁raise	-9.16425
▁fighting	-9.16575
▁position	-9.16592
ir	-9.16614
▁village	-9.16677
▁church	-9.16683
▁hole	-9.16688
▁travis	-9.1669
▁teeth	-9.16691
▁department	-9.16693
▁breakfast	-9.16695
▁meh	-9.167
▁twenty	-9.16702
▁clothes	-9.16703
▁national	-9.16721
id	-9.16849
▁list	-9.16968
▁seriously	-9.17053
▁gas	-9.17805
▁store	-9.17816
▁burn	-9.18038
▁do	-9.18085
ated	-9.18174
▁scream	-9.18517
and	-9.18758
de	-9.18955
▁film	-9.18977
▁noise	-9.1899
▁jill	-9.19018
▁beatrix	-9.19071
▁evidence	-9.19071
▁london	-9.19071
▁neither	-9.19071
▁ridiculous	-9.19071
▁harper	-9.19071
▁kingdom	-9.19071
▁foster	-9.19074
▁grace	-9.19074
▁rogo	-9.19081
▁cash	-9.191
▁andy	-9.19116
▁obviously	-9.19156
▁sight	-9.19191
▁sub	-9.19211
▁lifting	-9.19444
▁respect	-9.19446
▁lve	-9.19867
ted	-9.19888
▁shouts	-9.19898
▁goodness	-9.20033
▁due	-9.20182
mo	-9.20573
▁interest	-9.20587
▁visit	-9.2093
▁command	-9.2116
▁experience	-9.21264
▁soft	-9.21339
▁keys	-9.21392
▁brown	-9.21475
▁crime	-9.21477
▁committee	-9.2151
▁hamilton	-9.2151
▁nicole	-9.2151
▁speech	-9.2151
▁ugly	-9.2151
▁ronnie	-9.21511
▁desert	-9.21512
▁alright	-9.21514
▁stargirl	-9.21515
▁silly	-9.21532
▁monty	-9.21535
▁ella	-9.21548
▁wash	-9.2159
▁v	-9.21657
▁beeping	-9.217
▁lo	-9.21735
▁lab	-9.21877
▁cost	-9.21932
▁takes	-9.22048
ge	-9.22075
▁mayor	-9.22085
ock	-9.22098
ian	-9.22353
▁trees	-9.23096
sh	-9.23248
▁lock	-9.23316
ay	-9.23429
▁agree	-9.23719
▁keeps	-9.23748
▁taste	-9.23749
▁notice	-9.23752
▁lay	-9.23974
▁brave	-9.23995
▁favor	-9.24004
▁asleep	-9.2401
▁daniel	-9.2401
▁england	-9.2401
▁twice	-9.2401
▁upstairs	-9.2401
▁byebye	-9.2401
▁pardon	-9.2401
▁amanda	-9.24011
▁spring	-9.24016
▁stories	-9.24016
▁information	-9.24017
▁shake	-9.24018
▁built	-9.24018
▁shop	-9.2402
▁drunk	-9.24021
▁chuckling	-9.24022
▁batman	-9.24034
▁rabbit	-9.24056
▁powerful	-9.24063
time	-9.2408
▁fay	-9.24146
▁dying	-9.24163
▁roy	-9.2418
▁losing	-9.24187
do	-9.24636
▁wa	-9.2485
▁ted	-9.24892
▁showed	-9.25153
▁falling	-9.25238
▁reporter	-9.25362
▁da	-9.26048
▁prepare	-9.26336
▁honest	-9.26421
▁fahmarr	-9.26574
▁jerry	-9.26574
▁plenty	-9.26574
▁theatre	-9.26574
▁dancing	-9.26574
▁within	-9.26574
▁nancy	-9.26575
▁beginning	-9.26575
▁program	-9.26575
▁bigger	-9.26576
▁nowhere	-9.26576
▁common	-9.26577
▁garden	-9.26581
▁simply	-9.26592
▁truly	-9.26606
▁fr	-9.26612
▁season	-9.26616
▁spirit	-9.26683
▁bond	-9.26701
▁squeaking	-9.26812
▁pants	-9.27098
▁ro	-9.27153
one	-9.27284
ick	-9.27799
ty	-9.27842
▁dry	-9.27925
▁monsters	-9.28179
▁feels	-9.28565
▁arrest	-9.28772
▁legs	-9.28837
▁breaking	-9.2906
▁loose	-9.29141
▁pictures	-9.2916
led	-9.29161
▁fresh	-9.29175
▁account	-9.29191
▁harm	-9.29199
▁advance	-9.29206
▁audience	-9.29206
▁brilliant	-9.29206
▁bruce	-9.29206
▁charlie	-9.29206
▁emergency	-9.29206
▁floop	-9.29206
▁ocean	-9.29206
▁patrick	-9.29206
▁support	-9.29206
▁devil	-9.29206
▁kelly	-9.29206
▁price	-9.29207
▁lawyer	-9.29209
▁giant	-9.29211
▁fancy	-9.29214
▁clock	-9.29217
▁dropped	-9.29222
▁circle	-9.29263
▁barking	-9.29269
▁tu	-9.29273
▁whered	-9.2931
▁gate	-9.29314
▁tie	-9.2934
▁strike	-9.29361
▁whistle	-9.29369
ha	-9.294
▁match	-9.29443
▁whispering	-9.29507
▁nearly	-9.29544
▁gasping	-9.29555
▁uhh	-9.29662
ol	-9.29787
em	-9.29901
▁ca	-9.30106
ot	-9.30198
▁breathe	-9.30205
▁nah	-9.30434
cy	-9.30721
▁to	-9.30869
▁bath	-9.30915
rs	-9.3106
▁whales	-9.31139
▁en	-9.3114
head	-9.31233
▁blows	-9.31347
▁study	-9.31372
▁scare	-9.31628
▁snow	-9.31634
▁announce	-9.31751
side	-9.31756
▁macavity	-9.31909
▁merlin	-9.31909
▁mitchell	-9.31909
▁violet	-9.31909
▁punch	-9.31909
▁wicked	-9.31909
▁hadnt	-9.31909
▁piggy	-9.31909
▁biggest	-9.31909
▁british	-9.31912
▁prefer	-9.31913
▁choose	-9.31913
▁property	-9.31916
▁crew	-9.31918
▁mice	-9.3192
▁memory	-9.31934
▁incredible	-9.31934
▁aaah	-9.31946
▁excited	-9.3195
▁sold	-9.31997
▁suddenly	-9.32015
▁dame	-9.32022
▁whatd	-9.3204
▁boo	-9.32092
▁cole	-9.32147
way	-9.32154
▁student	-9.32197
▁ac	-9.32205
▁heat	-9.323
▁deserve	-9.32371
▁figured	-9.32548
▁staying	-9.32604
▁lf	-9.32789
▁states	-9.3298
nt	-9.33065
we	-9.33208
men	-9.3327
▁closed	-9.33271
he	-9.33278
▁pat	-9.3329
oo	-9.33542
ee	-9.33785
▁liked	-9.33914
▁picked	-9.33991
▁tickets	-9.34032
▁remind	-9.34056
son	-9.34101
▁remain	-9.34146
▁freak	-9.34147
per	-9.34458
▁nervous	-9.34509
▁problems	-9.34564
un	-9.34611
▁majesty	-9.34686
▁necessary	-9.34686
▁whimpers	-9.34686
▁regret	-9.34686
▁jones	-9.34687
▁trade	-9.34695
▁elizabeth	-9.34695
▁shame	-9.34699
▁written	-9.34701
▁tour	-9.34703
▁paris	-9.34705
▁maddy	-9.34709
▁mail	-9.34718
▁laughter	-9.34728
▁toast	-9.34728
▁thas	-9.34735
▁lying	-9.34739
▁milk	-9.34748
▁rope	-9.3478
▁honestly	-9.34873
▁softly	-9.34883
▁ed	-9.34985
ba	-9.35049
▁co	-9.35063
▁chipmunks	-9.35222
▁teacher	-9.35271
▁fi	-9.3529
ton	-9.35859
▁pre	-9.35922
op	-9.36367
▁starts	-9.36565
▁judge	-9.36619
▁loves	-9.36765
▁movies	-9.36844
▁flowers	-9.36877
▁played	-9.3697
▁dads	-9.37185
▁introduce	-9.37272
▁pet	-9.37328
▁fletch	-9.37374
▁cow	-9.37418
▁america	-9.37451
▁rule	-9.37526
▁brace	-9.37541
▁alphonse	-9.37543
▁fantastic	-9.37543
▁genius	-9.37543
▁interview	-9.37543
▁justice	-9.37543
▁keller	-9.37543
▁sweetheart	-9.37543
▁mostly	-9.37544
▁sugar	-9.37544
▁blind	-9.37544
▁telephone	-9.37544
▁local	-9.37547
▁spent	-9.37561
▁apartment	-9.37565
▁weekend	-9.37566
▁neck	-9.37573
▁loan	-9.37576
▁crane	-9.37586
▁wheel	-9.37587
▁royal	-9.37625
▁project	-9.37639
▁signal	-9.37741
land	-9.37916
▁ate	-9.37942
▁partner	-9.37963
▁wally	-9.37999
▁nuts	-9.38087
▁vi	-9.38143
▁d	-9.38178
▁it	-9.38274
▁lad	-9.38393
▁passed	-9.38702
▁wings	-9.38763
▁travel	-9.39103
▁fathers	-9.39104
▁ex	-9.39201
▁bucks	-9.39248
▁murder	-9.3925
▁shooting	-9.39394
▁rat	-9.39401
les	-9.39588
no	-9.39797
▁crack	-9.39973
ke	-9.39988
ial	-9.40122
▁warne	-9.40282
▁reading	-9.40301
▁complete	-9.40313
▁jj	-9.4045
▁became	-9.40485
▁conversation	-9.40485
▁courage	-9.40485
▁lieutenant	-9.40485
▁mmmhmm	-9.40485
▁pocket	-9.40485
▁science	-9.40485
▁species	-9.40485
▁squawking	-9.40485
▁taught	-9.40485
▁theodore	-9.40485
▁universe	-9.40485
▁smoke	-9.40485
▁winnie	-9.40485
▁linda	-9.40485
▁tongue	-9.40486
▁jason	-9.40489
▁clue	-9.40491
▁jail	-9.40492
▁willing	-9.40492
▁panda	-9.40495
▁iron	-9.40502
▁market	-9.40513
▁johnny	-9.40514
▁hut	-9.40518
▁comin	-9.40524
▁crown	-9.40527
▁wet	-9.40544
▁belong	-9.40545
▁type	-9.40553
▁yall	-9.40562
▁arrived	-9.4063
▁crap	-9.40643
▁ear	-9.40774
▁prepared	-9.40859
▁dig	-9.40883
▁tip	-9.40884
▁eagle	-9.40978
▁turns	-9.40982
▁yard	-9.40991
▁guest	-9.4107
▁allowed	-9.411
▁butter	-9.41163
▁pe	-9.41249
▁acting	-9.41509
▁yells	-9.41589
▁flying	-9.41751
▁places	-9.41846
▁pray	-9.42319
ga	-9.4258
be	-9.42672
▁ls	-9.42916
▁su	-9.42953
▁print	-9.4308
▁health	-9.43265
▁hung	-9.43347
▁orders	-9.43408
▁players	-9.43447
▁perform	-9.43503
▁daphne	-9.43515
▁dracula	-9.43515
▁female	-9.43515
▁focus	-9.43515
▁haldeman	-9.43515
▁lerigot	-9.43515
▁monroe	-9.43515
▁restaurant	-9.43515
▁someday	-9.43516
▁weak	-9.43516
▁possibly	-9.43518
▁cream	-9.43519
▁note	-9.43521
▁turbo	-9.43523
▁bike	-9.43525
▁alien	-9.43534
▁lonely	-9.43544
▁professional	-9.43555
▁uhoh	-9.43568
▁exciting	-9.43572
▁direction	-9.43586
▁usually	-9.4364
▁row	-9.43652
▁aim	-9.43689
▁completely	-9.43693
▁opening	-9.43713
▁beg	-9.43727
▁nature	-9.4375
▁coughing	-9.43787
▁richie	-9.43802
▁wood	-9.4399
▁helping	-9.44012
▁source	-9.44102
▁bi	-9.44594
▁pieces	-9.44677
▁feelings	-9.44855
▁fl	-9.45046
▁philip	-9.45215
ized	-9.45234
▁hanging	-9.45795
▁bow	-9.45952
▁sail	-9.46033
▁notes	-9.46128
▁keeping	-9.46226
▁natural	-9.4646
▁total	-9.46481
▁stole	-9.46559
▁listening	-9.46619
▁applause	-9.4664
▁literally	-9.4664
▁stanwyk	-9.4664
▁costume	-9.4664
▁credit	-9.4664
▁address	-9.46642
▁danny	-9.46643
▁dump	-9.46645
▁bathroom	-9.46645
▁duty	-9.46649
▁aboard	-9.46651
▁comfortable	-9.46652
▁hooch	-9.46653
▁pressure	-9.46656
▁mum	-9.46673
▁minion	-9.46683
▁tomatoes	-9.46694
▁disgusting	-9.46699
▁coat	-9.46703
▁factory	-9.46724
▁belt	-9.46725
▁barn	-9.46753
ai	-9.46896
▁german	-9.47124
▁sale	-9.47238
▁destroyed	-9.4725
ec	-9.47257
▁cal	-9.47297
▁bottle	-9.47307
▁ticket	-9.47387
▁flower	-9.47413
▁fan	-9.47467
▁dressed	-9.47516
ill	-9.47662
▁lately	-9.47695
io	-9.47752
▁kinda	-9.47828
▁denys	-9.47892
▁helped	-9.47995
▁training	-9.47997
▁fellas	-9.47998
▁m	-9.48064
▁climb	-9.48072
▁songs	-9.48789
▁bat	-9.4887
▁fingers	-9.49028
▁ears	-9.4928
▁pretend	-9.49326
▁chatter	-9.49361
▁decide	-9.49604
▁correct	-9.49681
▁mel	-9.49759
▁champ	-9.49771
▁jam	-9.49803
▁advice	-9.49866
▁challenge	-9.49866
▁enemy	-9.49866
▁randall	-9.49866
▁stahr	-9.49866
▁strength	-9.49866
▁switch	-9.49866
▁terrific	-9.49866
▁whimpering	-9.49866
▁beverly	-9.49866
▁grave	-9.49866
▁hubbell	-9.49866
▁bedders	-9.49867
▁norman	-9.49875
▁filthy	-9.49887
▁spell	-9.4989
▁daffy	-9.49895
▁began	-9.49896
▁tower	-9.49899
▁nasty	-9.49902
▁secretary	-9.4992
▁fourth	-9.49975
▁hook	-9.49987
▁z	-9.50059
▁bligh	-9.5031
▁bro	-9.50426
▁bust	-9.5065
▁knight	-9.50672
▁finger	-9.50712
▁cup	-9.5074
▁po	-9.50763
▁surely	-9.50808
▁string	-9.50834
▁pea	-9.51079
▁expecting	-9.51194
▁brains	-9.51208
▁wouldve	-9.51278
▁gu	-9.5134
tion	-9.51635
▁following	-9.51856
ions	-9.52024
▁poison	-9.5263
back	-9.52641
▁lift	-9.52678
▁lads	-9.52685
▁creep	-9.52946
▁can	-9.52952
▁tires	-9.53158
▁bought	-9.53199
▁empty	-9.53199
▁felix	-9.53199
▁marriage	-9.53199
▁pizza	-9.53199
▁precious	-9.53199
▁reavis	-9.53199
▁spanish	-9.53199
▁whether	-9.53199
▁opinion	-9.53199
▁scoffs	-9.53199
▁woodward	-9.53203
▁witness	-9.53204
▁jim	-9.53208
▁difference	-9.5321
▁flat	-9.53217
▁touchdown	-9.53218
▁stock	-9.53242
▁jacket	-9.53243
▁baker	-9.53256
▁lars	-9.53259
▁rent	-9.53275
▁quarter	-9.5328
▁weight	-9.53327
▁hall	-9.53378
▁invited	-9.53398
▁exhales	-9.53415
▁witches	-9.53463
▁metal	-9.5353
▁je	-9.53561
▁x	-9.53683
fi	-9.53696
▁realized	-9.53766
▁ranch	-9.53844
▁an	-9.53926
▁vote	-9.54054
our	-9.54166
▁whale	-9.54178
▁paint	-9.54373
▁plus	-9.54426
▁dick	-9.54523
▁plant	-9.54557
▁file	-9.54813
▁hug	-9.55107
▁creatures	-9.5523
ad	-9.55391
▁doors	-9.55723
▁be	-9.55971
dy	-9.56219
ran	-9.56363
▁organ	-9.5638
▁older	-9.56387
ship	-9.56388
off	-9.56392
▁proper	-9.56473
▁discuss	-9.56548
▁africa	-9.56555
▁sand	-9.56598
▁electric	-9.56618
▁apart	-9.56624
▁anthony	-9.56647
▁appointment	-9.56647
▁bunny	-9.56647
▁eleanor	-9.56647
▁georgia	-9.56647
▁license	-9.56647
▁shirt	-9.56647
▁shoulder	-9.56647
▁sloan	-9.56647
▁tiktok	-9.56647
▁defeat	-9.56647
▁launch	-9.56647
▁beauty	-9.5665
▁colonel	-9.56651
▁wire	-9.56651
▁social	-9.56651
▁curious	-9.56651
▁purpose	-9.56651
▁giggles	-9.56652
▁admit	-9.56652
▁roof	-9.56654
▁yellow	-9.56654
▁inspector	-9.56655
▁bread	-9.56655
▁heck	-9.56656
▁sunday	-9.56657
▁knife	-9.56658
▁marion	-9.5673
▁oil	-9.5674
▁manager	-9.56769
▁julie	-9.56796
▁prize	-9.56799
▁rings	-9.56907
▁ann	-9.56965
▁under	-9.57047
▁disappeared	-9.57049
ber	-9.5706
▁mile	-9.57833
▁stage	-9.57852
▁turning	-9.57864
▁sports	-9.58041
▁friendly	-9.58519
ey	-9.58583
▁pigs	-9.58647
▁lies	-9.58782
▁ad	-9.58833
▁lion	-9.5901
om	-9.5908
ps	-9.59392
▁faith	-9.59402
ure	-9.5951
▁nick	-9.59676
▁du	-9.59882
▁jellicles	-9.59891
▁survive	-9.59983
▁pan	-9.59988
▁prison	-9.60012
ney	-9.60061
▁chuck	-9.60173
▁self	-9.60183
▁neighbor	-9.60216
▁airport	-9.60219
▁austin	-9.60219
▁cruel	-9.60219
▁positive	-9.60219
▁studio	-9.60219
▁value	-9.60219
▁writing	-9.60219
▁steiner	-9.60219
▁sponge	-9.60219
▁jenning	-9.6022
▁kidnapped	-9.60221
▁split	-9.60221
▁spread	-9.60221
▁buried	-9.60222
▁apologize	-9.60222
▁onto	-9.60226
▁bride	-9.60228
▁fever	-9.60228
▁jerk	-9.6023
▁loving	-9.60234
▁original	-9.60237
▁unbelievable	-9.60242
▁soup	-9.60246
▁handsome	-9.60256
▁katie	-9.60257
▁page	-9.60317
▁manage	-9.60381
▁viva	-9.60456
▁mustnt	-9.60471
▁ford	-9.60472
▁gr	-9.60537
▁indistinctly	-9.60543
▁bowl	-9.6056
ash	-9.60575
▁failed	-9.60596
▁noticed	-9.60599
▁warning	-9.60692
▁jan	-9.60743
▁moves	-9.6077
▁rec	-9.60784
▁tall	-9.60857
▁pound	-9.60859
▁exist	-9.60907
▁wine	-9.60994
▁bringing	-9.61336
▁bo	-9.61354
▁diamond	-9.61405
▁sooner	-9.61459
▁leader	-9.61474
▁path	-9.61729
und	-9.61741
king	-9.61891
▁del	-9.62031
▁all	-9.62139
bl	-9.6253
▁ruin	-9.62939
▁seats	-9.62946
▁panic	-9.63044
▁mar	-9.6308
gg	-9.63118
▁consider	-9.63229
▁rules	-9.63359
▁disappear	-9.63479
▁opens	-9.63538
▁sleeping	-9.63587
▁picking	-9.63611
▁release	-9.63647
▁settle	-9.63658
▁zoo	-9.6372
▁angel	-9.63751
▁photo	-9.63783
▁alpha	-9.63921
▁attempt	-9.63923
▁cackling	-9.63923
▁effort	-9.63923
▁emerald	-9.63923
▁garbage	-9.63923
▁guitar	-9.63923
▁sheriff	-9.63923
▁snoring	-9.63923
▁steel	-9.63924
▁shape	-9.63925
▁planning	-9.63925
▁penny	-9.63928
▁blart	-9.63928
▁awake	-9.63929
▁score	-9.63929
▁gang	-9.63932
▁gross	-9.63938
▁tommy	-9.63939
▁trash	-9.63951
▁script	-9.63957
▁square	-9.63964
▁emily	-9.63977
▁cast	-9.63993
▁stine	-9.64049
bo	-9.64079
▁joy	-9.6417
ah	-9.64179
va	-9.64188
▁charming	-9.64211
wa	-9.64291
▁lance	-9.64356
ea	-9.64436
▁holding	-9.64466
lin	-9.64546
▁perfectly	-9.64745
▁zoot	-9.64854
▁com	-9.64896
▁falls	-9.6492
▁nobodys	-9.64946
▁serve	-9.6495
▁native	-9.65233
▁ghost	-9.65273
▁pie	-9.65292
▁blowing	-9.65379
▁stops	-9.6539
▁prisoner	-9.65393
▁talkin	-9.65566
▁seemed	-9.65661
▁hatch	-9.6581
ver	-9.6592
▁bugs	-9.66111
q	-9.66207
▁lots	-9.66623
ng	-9.66869
▁cos	-9.66897
▁guests	-9.67053
ip	-9.67082
▁di	-9.67108
aw	-9.67223
▁students	-9.67357
j	-9.67459
▁direct	-9.67472
what	-9.67497
▁dust	-9.67562
james	-9.67567
▁east	-9.67569
▁gettin	-9.67733
▁snap	-9.67765
▁stomach	-9.67768
▁bernstein	-9.67769
▁bookshop	-9.67769
▁bravo	-9.67769
▁campaign	-9.67769
▁dixon	-9.67769
▁easier	-9.67769
▁energy	-9.67769
▁equipment	-9.67769
▁instrument	-9.67769
▁surrender	-9.67769
▁thomas	-9.67769
▁somehow	-9.67769
▁crawl	-9.6777
▁afford	-9.6777
▁held	-9.67773
▁ladder	-9.67778
▁flight	-9.67783
▁model	-9.67785
▁immediately	-9.67799
▁castle	-9.678
▁hiding	-9.678
▁pawn	-9.678
▁forgotten	-9.67818
▁coast	-9.67818
▁toby	-9.67855
▁african	-9.67872
▁stolen	-9.67883
▁shine	-9.67892
▁ms	-9.6792
▁fletcher	-9.67999
▁skin	-9.68028
▁deck	-9.68062
▁hoping	-9.6807
for	-9.68374
▁sa	-9.68426
▁main	-9.68474
ley	-9.68605
▁gasp	-9.68863
▁event	-9.69051
ons	-9.69191
▁wave	-9.69345
▁maya	-9.69572
ence	-9.69598
ble	-9.69704
▁par	-9.69834
▁las	-9.69835
▁guns	-9.70049
ious	-9.70114
▁lines	-9.70211
▁ghosts	-9.70328
▁les	-9.7077
▁nights	-9.70798
▁enter	-9.70808
ut	-9.70853
▁warn	-9.70879
der	-9.70985
▁fund	-9.71029
▁suffer	-9.71208
▁suggest	-9.71247
▁screw	-9.71334
▁br	-9.71413
▁officers	-9.71433
▁schedule	-9.71493
▁pin	-9.71612
▁bu	-9.71672
ite	-9.71691
▁add	-9.71736
▁joseph	-9.71754
▁slip	-9.71758
▁sharp	-9.71768
▁bernard	-9.71769
▁character	-9.71769
▁chocolate	-9.71769
▁delicious	-9.71769
▁fought	-9.71769
▁helicopter	-9.71769
▁innocent	-9.71769
▁insane	-9.71769
▁journey	-9.71769
▁league	-9.71769
▁saturday	-9.71769
▁shrieking	-9.71769
▁slappy	-9.71769
▁squawks	-9.71769
▁grew	-9.71769
▁steam	-9.71769
▁toilet	-9.71769
▁text	-9.71769
▁boyfriend	-9.71769
▁whooping	-9.7177
▁william	-9.7177
▁underwater	-9.71772
▁simon	-9.71776
▁pool	-9.71779
▁zone	-9.71781
▁defense	-9.71785
▁nickel	-9.71798
▁giggling	-9.71802
▁desk	-9.71812
▁wide	-9.71817
▁rosen	-9.7185
▁scary	-9.71868
▁roaring	-9.71868
▁champion	-9.71882
mp	-9.71893
▁frightened	-9.71902
▁carol	-9.71952
▁refuse	-9.71966
▁herring	-9.71974
▁calls	-9.72131
▁ian	-9.72158
▁ruined	-9.72239
▁magical	-9.72255
▁curse	-9.7226
▁troops	-9.72293
▁jd	-9.72383
▁begins	-9.72669
▁au	-9.72721
▁headed	-9.72773
ny	-9.72774
▁mothers	-9.72803
▁net	-9.72908
▁records	-9.72945
▁fail	-9.72968
▁fur	-9.73099
▁und	-9.73369
▁appears	-9.73391
▁tiger	-9.73401
▁buck	-9.73434
▁creature	-9.73444
▁button	-9.73534
▁growing	-9.73598
pping	-9.73781
▁followed	-9.73814
▁driver	-9.73948
▁stink	-9.73973
▁cares	-9.74254
▁gods	-9.7445
▁gum	-9.74974
▁u	-9.75002
▁grant	-9.755
▁ended	-9.7555
▁shows	-9.75559
▁ideas	-9.75591
▁load	-9.75611
▁sacrifice	-9.75713
que	-9.75742
house	-9.75742
▁usual	-9.75765
away	-9.75794
▁andre	-9.75836
▁foreign	-9.7588
▁among	-9.759
▁nurse	-9.75928
▁adult	-9.75935
▁bullshit	-9.75935
▁california	-9.75935
▁clarence	-9.75935
▁cloud	-9.75935
▁coconut	-9.75935
▁community	-9.75935
▁condition	-9.75935
▁defend	-9.75935
▁niki	-9.75935
▁opportunity	-9.75935
▁scarecrow	-9.75935
▁shaolin	-9.75935
▁shift	-9.75935
▁target	-9.75935
▁trevor	-9.75935
▁whirring	-9.75935
▁dawn	-9.75935
▁chanting	-9.75936
▁demand	-9.75936
▁gorilla	-9.75936
▁mystery	-9.75937
▁acres	-9.75937
▁doll	-9.75937
▁louis	-9.75937
▁flood	-9.75939
▁repeat	-9.75939
▁rough	-9.75939
▁formula	-9.75939
▁assistant	-9.7594
▁uhuh	-9.7594
▁imagination	-9.75944
▁detective	-9.75946
▁motion	-9.7595
▁beyond	-9.75953
▁eric	-9.75953
▁meat	-9.75956
▁jesse	-9.75982
▁fearless	-9.75992
▁dramatic	-9.76013
▁heavily	-9.76065
▁rise	-9.76075
▁tiny	-9.76089
▁received	-9.76173
▁sniffing	-9.76176
▁tune	-9.76224
▁hired	-9.76271
▁mortal	-9.76288
▁cars	-9.76327
▁pleased	-9.76333
pa	-9.76354
just	-9.76446
▁san	-9.76471
▁gee	-9.76511
▁busted	-9.76517
▁copy	-9.76631
▁painting	-9.76655
▁tub	-9.76776
▁letting	-9.76789
▁bug	-9.77137
▁cooper	-9.77142
▁americans	-9.77196
▁le	-9.7722
▁using	-9.77246
ern	-9.77316
end	-9.77338
ev	-9.77419
▁covered	-9.77464
▁oi	-9.77523
▁muppets	-9.77623
▁beast	-9.77703
▁robot	-9.77705
▁current	-9.77724
ab	-9.77727
▁horns	-9.77925
pp	-9.78159
▁shower	-9.78412
ach	-9.78517
▁letters	-9.78902
▁marshal	-9.78977
ism	-9.78986
ied	-9.79093
▁ham	-9.79102
▁germans	-9.79277
ily	-9.79361
hh	-9.79479
▁rats	-9.79563
▁port	-9.79588
▁request	-9.79833
▁talent	-9.79871
▁doc	-9.79952
▁sudden	-9.80111
▁inter	-9.80138
▁object	-9.80257
▁ingrid	-9.80283
▁intelligence	-9.80283
▁miami	-9.80283
▁miracle	-9.80283
▁penguin	-9.80283
▁principal	-9.80283
▁research	-9.80283
▁sarah	-9.80283
▁screen	-9.80283
▁sefton	-9.80283
▁utah	-9.80283
▁weather	-9.80283
▁fbi	-9.80283
▁freedom	-9.80283
▁jeez	-9.80283
▁larue	-9.80283
▁false	-9.80283
▁nightmare	-9.80283
▁palace	-9.80283
▁aware	-9.80283
▁alert	-9.80284
▁philsie	-9.80284
▁borrow	-9.80284
▁japan	-9.80284
▁wherever	-9.80287
▁section	-9.80289
▁gadgetmobile	-9.80289
▁lisa	-9.80291
▁dj	-9.80294
▁billina	-9.80299
▁guardian	-9.80302
▁coward	-9.80307
▁style	-9.80316
▁jean	-9.80318
▁discovered	-9.80332
▁recently	-9.80333
▁safety	-9.80338
▁director	-9.80338
▁chill	-9.80343
▁perro	-9.80348
▁cage	-9.80375
▁bandit	-9.80379
▁bay	-9.80386
▁chase	-9.80433
▁app	-9.8048
▁meaning	-9.80537
ches	-9.80577
▁pity	-9.80589
▁settled	-9.80596
▁babe	-9.80604
▁sandy	-9.80612
▁charles	-9.80685
▁sisters	-9.80722
▁horner	-9.80734
▁agreed	-9.8075
▁mood	-9.80877
▁odd	-9.8101
▁sl	-9.8101
▁knocking	-9.81394
▁crashing	-9.8148
▁drugs	-9.81482
▁finding	-9.81586
▁towards	-9.81591
use	-9.81601
▁tears	-9.81612
▁expected	-9.81772
▁var	-9.81808
▁ordered	-9.81833
▁ld	-9.81839
gie	-9.82108
▁priest	-9.82243
▁everybodys	-9.82282
▁member	-9.82306
▁color	-9.82318
▁harder	-9.82331
▁agent	-9.82351
▁dollar	-9.8242
▁va	-9.82535
▁sc	-9.82679
▁kit	-9.82716
▁skip	-9.82716
ical	-9.82755
ham	-9.82764
▁lookin	-9.82856
▁adventure	-9.83042
▁lions	-9.83741
▁pen	-9.83824
ld	-9.83946
ack	-9.83953
▁success	-9.84163
ped	-9.84202
▁stretch	-9.84297
▁whisper	-9.84307
▁rub	-9.84391
▁streets	-9.84397
▁mis	-9.84414
▁mu	-9.84424
line	-9.84497
▁express	-9.84733
uff	-9.84733
▁spoke	-9.84735
▁rum	-9.84744
▁somethin	-9.84777
▁europe	-9.848
▁behave	-9.84829
▁centipede	-9.84829
▁champagne	-9.84829
▁destiny	-9.84829
▁elevator	-9.84829
▁fetch	-9.84829
▁grandmother	-9.84829
▁hollywood	-9.84829
▁lorraine	-9.84829
▁nonsense	-9.84829
▁otherwise	-9.84829
▁separate	-9.84829
▁simmons	-9.84829
▁snail	-9.84829
▁uniform	-9.84829
▁holmes	-9.84829
▁theater	-9.84829
▁threw	-9.84829
▁complex	-9.84829
▁fryer	-9.84829
▁steer	-9.84831
▁referee	-9.84832
▁proctor	-9.84832
▁winner	-9.84833
▁limit	-9.84834
▁trapped	-9.84836
▁insist	-9.84837
▁swimming	-9.84841
▁level	-9.84844
▁planned	-9.84851
ise	-9.84858
▁bedroom	-9.84861
▁barney	-9.84862
ona	-9.84921
▁bess	-9.84924
▁madeline	-9.84926
▁gim	-9.84927
▁boring	-9.85011
▁bully	-9.85018
▁storm	-9.85022
▁ends	-9.85028
▁sweetie	-9.85095
▁grown	-9.85177
▁laser	-9.8526
▁gotcha	-9.85301
▁toy	-9.85387
▁stronger	-9.85404
▁fate	-9.85414
▁checking	-9.85447
▁hurts	-9.85453
▁hood	-9.85469
▁painful	-9.85568
▁slowly	-9.85579
▁pink	-9.85732
▁burning	-9.85855
▁noon	-9.8598
▁comment	-9.864
▁rose	-9.865
▁waited	-9.86622
the	-9.86694
▁te	-9.86711
▁frogs	-9.86769
▁wondered	-9.87027
▁criminal	-9.87046
▁lesson	-9.87221
▁worlds	-9.87234
▁career	-9.87336
▁counting	-9.87358
▁bone	-9.87367
▁rep	-9.87747
▁walked	-9.87881
▁ne	-9.8809
▁reports	-9.88233
▁mon	-9.88238
ating	-9.88263
ines	-9.88411
▁pulled	-9.88431
▁collect	-9.88459
▁sid	-9.88675
▁bless	-9.88749
▁confirm	-9.89071
▁sink	-9.89072
▁wee	-9.89301
▁fo	-9.89406
▁obvious	-9.8942
▁bl	-9.89449
▁freeze	-9.89465
▁march	-9.8948
▁australia	-9.89496
▁tomato	-9.89519
▁nothin	-9.8954
▁ge	-9.89553
com	-9.89569
▁apparently	-9.89591
▁aylwood	-9.89591
▁ceremony	-9.89591
▁claim	-9.89591
▁clemson	-9.89591
▁concert	-9.89591
▁disease	-9.89591
▁fortune	-9.89591
▁glinda	-9.89591
▁however	-9.89591
▁insurance	-9.89591
▁intelligent	-9.89591
▁jealous	-9.89591
▁jeanluc	-9.89591
▁mavis	-9.89591
▁museum	-9.89591
▁pancake	-9.89591
▁patient	-9.89591
▁regular	-9.89591
▁romantic	-9.89591
▁scolex	-9.89591
▁subject	-9.89591
▁ultimate	-9.89591
▁video	-9.89591
▁wryn	-9.89591
▁distance	-9.89591
▁thief	-9.89591
▁saint	-9.89591
▁spike	-9.89591
▁drew	-9.89591
▁silence	-9.89592
▁piano	-9.89592
▁humming	-9.89593
▁concentrate	-9.89595
▁supper	-9.89596
▁popular	-9.89596
▁honking	-9.89596
▁garage	-9.89598
▁assignment	-9.896
▁lewis	-9.89601
▁therell	-9.89602
▁duke	-9.89602
▁rotten	-9.89603
▁daisy	-9.89606
▁adam	-9.89607
▁bonnet	-9.8961
▁geez	-9.89619
▁freddy	-9.8963
▁meal	-9.89645
▁barely	-9.89648
▁basement	-9.89649
▁china	-9.89675
▁johnson	-9.89677
▁unfortunately	-9.8968
▁friendship	-9.89704
▁mmmm	-9.8975
▁mass	-9.89766
▁created	-9.89784
▁saving	-9.89787
▁hitting	-9.89804
▁faces	-9.89804
▁ash	-9.89913
ze	-9.89918
▁designed	-9.89984
▁personally	-9.90015
▁prey	-9.90045
▁male	-9.90113
ordinary	-9.90152
▁roars	-9.90157
▁putting	-9.90196
▁millions	-9.90415
▁rocks	-9.90427
▁gloves	-9.90528
cks	-9.90687
▁cards	-9.90709
▁smells	-9.90725
▁cooking	-9.90878
▁carrying	-9.91032
▁cheers	-9.91049
▁elm	-9.91101
▁heavens	-9.91166
let	-9.91249
ify	-9.91433
▁li	-9.915
▁goal	-9.91639
of	-9.9182
▁prom	-9.91974
▁candle	-9.92077
▁sometime	-9.92124
▁deadly	-9.92143
▁thousands	-9.92398
my	-9.92536
▁fa	-9.9257
ring	-9.92577
▁image	-9.92616
▁bags	-9.92721
▁pounds	-9.92937
▁sending	-9.93178
fe	-9.93254
▁deliver	-9.93291
▁who	-9.93436
▁gather	-9.93585
▁chi	-9.93767
ight	-9.93869
▁concern	-9.94152
▁shock	-9.94162
zz	-9.94208
▁helen	-9.94454
▁twin	-9.94551
▁access	-9.94591
▁boggis	-9.94591
▁brittany	-9.94591
▁bruno	-9.94591
▁buffalo	-9.94591
▁celia	-9.94591
▁confess	-9.94591
▁daxiat	-9.94591
▁disturb	-9.94591
▁galaxy	-9.94591
▁illegal	-9.94591
▁possum	-9.94591
▁result	-9.94591
▁satellite	-9.94591
▁senior	-9.94591
▁spider	-9.94591
▁thursday	-9.94591
▁changing	-9.94591
▁government	-9.94591
▁period	-9.94591
▁throne	-9.94591
▁eddie	-9.94591
▁slave	-9.94591
▁lassard	-9.94591
▁morris	-9.94591
▁bradford	-9.94592
▁fond	-9.94592
▁lightning	-9.94595
▁journalist	-9.94596
▁ericka	-9.94596
▁memories	-9.94597
▁hissing	-9.94598
▁greetings	-9.94602
▁delay	-9.94605
▁stood	-9.94606
▁junk	-9.94608
▁mercy	-9.94611
▁grandpa	-9.94611
▁quality	-9.94612
▁commandant	-9.94619
▁wore	-9.9462
▁chain	-9.94633
▁guilty	-9.94675
mit	-9.94685
▁confused	-9.94695
▁bobby	-9.94695
▁waters	-9.94744
▁apple	-9.94756
▁according	-9.94767
▁role	-9.94812
▁ver	-9.94858
▁boom	-9.94862
▁buzzing	-9.9493
▁guards	-9.94964
▁bump	-9.94996
▁lower	-9.95078
▁fake	-9.95132
▁eaten	-9.95141
▁raised	-9.95172
▁fore	-9.95178
▁forces	-9.95244
umble	-9.95307
ible	-9.95354
▁hire	-9.95369
▁deeply	-9.95394
▁mc	-9.95401
▁arrested	-9.9543
▁fairy	-9.95433
▁rams	-9.95472
▁zing	-9.95587
▁non	-9.95588
▁wishes	-9.95631
▁knocked	-9.95637
ther	-9.95666
▁cu	-9.95908
rt	-9.95953
▁offered	-9.95972
▁clearly	-9.95983
▁cr	-9.9608
▁tricks	-9.96114
▁highly	-9.96135
▁doctors	-9.96482
▁novel	-9.96512
▁float	-9.96748
▁vampires	-9.96768
▁matters	-9.96793
nce	-9.97108
ving	-9.97248
▁spare	-9.97272
▁dragon	-9.97298
▁cousin	-9.97299
▁touched	-9.97359
▁houses	-9.97439
ral	-9.97528
▁likely	-9.97563
▁stranger	-9.97826
mu	-9.98023
▁pot	-9.98099
▁daughters	-9.98431
▁fans	-9.98637
red	-9.98666
▁rush	-9.99211
▁design	-9.99235
▁develop	-9.99379
▁checked	-9.99494
room	-9.99504
▁windows	-9.9951
▁sweat	-9.99542
▁arrive	-9.99591
field	-9.9965
▁particular	-9.99676
▁trail	-9.99677
▁rob	-9.99721
ball	-9.99742
beat	-9.99755
▁brundish	-9.99854
▁communist	-9.99854
▁disguise	-9.99854
▁eclipse	-9.99854
▁fidgit	-9.99854
▁guide	-9.99854
▁happiness	-9.99854
▁library	-9.99854
▁malfunction	-9.99854
▁michael	-9.99854
▁military	-9.99854
▁nixon	-9.99854
▁parrish	-9.99854
▁poseidon	-9.99854
▁routine	-9.99854
▁traffic	-9.99854
▁vehicle	-9.99854
▁krab	-9.99854
▁watergate	-9.99854
▁hidden	-9.99854
▁bodies	-9.99854
▁moaning	-9.99854
▁harris	-9.99855
▁whenever	-9.99855
▁silver	-9.99855
▁urgent	-9.99856
▁horrible	-9.99856
▁whoever	-9.99856
▁option	-9.99857
▁winning	-9.99857
▁monday	-9.99858
▁headquarters	-9.9986
▁divorce	-9.9986
▁mummy	-9.99863
▁blew	-9.99865
▁lazy	-9.99867
▁raymond	-9.99868
▁churchill	-9.99871
▁title	-9.99872
▁chick	-9.99873
▁russian	-9.99882
▁creation	-9.99884
▁owner	-9.99887
▁steady	-9.99888
▁stake	-9.99894
▁numbers	-9.999
▁nome	-9.99902
▁pair	-9.99904
▁complicated	-9.99906
▁pure	-9.99909
▁swarm	-9.99911
▁precisely	-9.99915
▁skull	-9.99915
▁proof	-9.99916
▁squad	-9.99933
▁anger	-9.9994
▁millie	-9.99951
▁angelo	-9.99977
▁commissioner	-9.99978
▁offense	-9.99983
▁gale	-9.99997
▁squealing	-10.0001
▁reverse	-10.0007
▁clicking	-10.0007
ming	-10.0013
▁chopper	-10.0016
▁the	-10.0024
art	-10.0025
▁unh	-10.0031
▁ending	-10.0045
▁cure	-10.0049
ast	-10.0053
▁carefully	-10.0074
▁nation	-10.0089
ue	-10.0096
▁bon	-10.0105
▁cur	-10.012
▁guts	-10.0122
▁lied	-10.014
▁suck	-10.0145
▁aha	-10.0151
▁medic	-10.0153
▁riding	-10.0154
▁attacked	-10.0157
▁pills	-10.0158
▁walls	-10.0189
▁bombs	-10.02
▁coughs	-10.0216
▁ve	-10.0256
▁caused	-10.0269
▁plate	-10.0289
▁trap	-10.0291
▁landed	-10.0295
▁parent	-10.0296
▁coin	-10.0302
▁moo	-10.0341
▁touching	-10.0342
▁drinking	-10.036
▁steps	-10.036
▁landing	-10.0363
ong	-10.0384
bed	-10.0388
ize	-10.0398
your	-10.0422
▁tape	-10.0449
stone	-10.0477
che	-10.048
▁closes	-10.0486
▁squeak	-10.0489
ves	-10.049
▁kings	-10.0505
▁flush	-10.0506
▁guarantee	-10.0513
▁recognize	-10.0513
▁require	-10.0514
down	-10.0515
wood	-10.0515
▁solve	-10.0515
road	-10.0519
book	-10.0521
▁led	-10.0521
▁rare	-10.0524
▁heavi	-10.0524
▁bears	-10.0526
▁pump	-10.0541
▁benefit	-10.0541
▁division	-10.0541
▁entrance	-10.0541
▁escort	-10.0541
▁fabulous	-10.0541
▁florence	-10.0541
▁florida	-10.0541
▁frankenstein	-10.0541
▁insult	-10.0541
▁jenny	-10.0541
▁kansas	-10.0541
▁maligore	-10.0541
▁material	-10.0541
▁mirror	-10.0541
▁newspaper	-10.0541
▁pamela	-10.0541
▁policy	-10.0541
▁potential	-10.0541
▁professor	-10.0541
▁rudolph	-10.0541
▁several	-10.0541
▁shelter	-10.0541
▁society	-10.0541
▁twelve	-10.0541
▁ouch	-10.0541
▁responsibility	-10.0541
▁eerie	-10.0541
▁process	-10.0541
▁contract	-10.0541
▁desire	-10.0541
▁gain	-10.0541
▁attitude	-10.0541
▁anytime	-10.0541
▁competition	-10.0541
▁towel	-10.0541
▁turkey	-10.0541
▁kitka	-10.0541
▁savage	-10.0542
▁slipped	-10.0542
▁colson	-10.0542
▁zero	-10.0542
▁firing	-10.0542
▁cabin	-10.0542
▁dominic	-10.0542
▁otto	-10.0542
▁gray	-10.0543
▁device	-10.0543
▁jewish	-10.0543
▁wreck	-10.0543
▁shark	-10.0543
▁capture	-10.0543
▁dummy	-10.0543
▁gentleman	-10.0543
▁alice	-10.0543
▁mmmmmm	-10.0544
▁selfish	-10.0544
▁blah	-10.0544
▁fox	-10.0544
▁abby	-10.0545
▁plain	-10.0546
▁wipe	-10.0548
▁circumstances	-10.0549
▁define	-10.0551
▁exclaiming	-10.0555
▁sec	-10.0557
▁screeching	-10.0558
▁sighing	-10.0558
▁dean	-10.056
▁lois	-10.056
▁marty	-10.0562
▁jay	-10.0563
▁den	-10.0565
▁glasses	-10.0565
▁useless	-10.0568
▁cable	-10.0572
▁for	-10.0577
▁equal	-10.0579
▁attend	-10.059
hi	-10.0593
▁outfit	-10.0601
▁screwed	-10.0602
▁belle	-10.061
sa	-10.0621
work	-10.0624
▁rip	-10.0626
▁gifts	-10.0626
▁sons	-10.0636
▁stands	-10.0675
▁seek	-10.0676
▁county	-10.069
▁sniffs	-10.0696
day	-10.072
▁someones	-10.0731
▁loss	-10.0744
▁mi	-10.0744
▁nails	-10.0749
▁at	-10.0773
fer	-10.0775
zing	-10.0777
gu	-10.0783
▁diet	-10.0786
ui	-10.0803
▁tells	-10.082
▁bang	-10.0821
▁pit	-10.0822
ette	-10.0824
▁cough	-10.0825
▁grunt	-10.083
▁heading	-10.0831
ged	-10.0837
▁plays	-10.0842
▁bones	-10.0853
▁thin	-10.0865
▁emoji	-10.087
▁mammoth	-10.0871
▁issue	-10.0874
▁inf	-10.0876
▁ye	-10.0877
▁vampire	-10.0878
▁actor	-10.0897
▁fella	-10.0918
▁goat	-10.0925
hu	-10.0988
▁gives	-10.1
▁mal	-10.1017
▁minds	-10.1018
▁belongs	-10.1025
▁pee	-10.1026
ice	-10.1028
▁stayed	-10.1045
ier	-10.1058
▁sal	-10.1066
▁snarl	-10.1076
▁bel	-10.1081
▁rap	-10.1082
▁assure	-10.1104
▁invite	-10.1107
▁mill	-10.1108
wee	-10.111
▁terribl	-10.1112
▁wing	-10.1118
▁mmhm	-10.1125
▁reelect	-10.1125
▁adorable	-10.1129
▁ancient	-10.1129
▁april	-10.1129
▁chicago	-10.1129
▁cortez	-10.1129
▁creaking	-10.1129
▁devereaux	-10.1129
▁doberman	-10.1129
▁fifth	-10.1129
▁grandfather	-10.1129
▁holiday	-10.1129
▁hustle	-10.1129
▁jacob	-10.1129
▁jungle	-10.1129
▁nerak	-10.1129
▁olaf	-10.1129
▁permission	-10.1129
▁quentin	-10.1129
▁ritual	-10.1129
▁rodrick	-10.1129
▁someplace	-10.1129
▁succeed	-10.1129
▁tragedy	-10.1129
▁university	-10.1129
▁unusual	-10.1129
▁valley	-10.1129
▁victim	-10.1129
▁expert	-10.1129
▁arena	-10.1129
▁cancer	-10.1129
▁international	-10.1129
▁destruction	-10.1129
▁scholarship	-10.1129
▁avoid	-10.1129
▁dashwood	-10.1129
▁accent	-10.113
▁chubby	-10.113
▁constantine	-10.113
▁activity	-10.113
▁whistling	-10.113
▁martian	-10.113
▁wilson	-10.113
▁trace	-10.113
▁quest	-10.113
▁phil	-10.113
▁ohara	-10.113
▁stopping	-10.113
▁logan	-10.1131
▁punishment	-10.1131
▁brick	-10.1131
▁secure	-10.1131
▁bucket	-10.1131
▁sunny	-10.1132
▁edge	-10.1132
▁fence	-10.1132
▁liar	-10.1133
▁sentence	-10.1134
▁investigation	-10.1134
▁chair	-10.1135
▁artist	-10.1135
▁aside	-10.1136
▁potion	-10.1137
▁merely	-10.1137
▁solo	-10.1137
▁spies	-10.1138
▁thatd	-10.1138
▁surrounded	-10.1138
▁celebrate	-10.1139
▁darkness	-10.114
▁bound	-10.1141
▁cellar	-10.1142
▁diego	-10.1142
▁marine	-10.1143
▁tolly	-10.1144
▁greet	-10.1145
▁bleeding	-10.1147
▁ahhh	-10.1148
▁haha	-10.1148
▁zip	-10.1149
▁drac	-10.115
▁sally	-10.1151
▁host	-10.1156
▁chest	-10.1157
▁rot	-10.1159
▁bury	-10.116
▁bush	-10.1164
▁fe	-10.1173
▁impressed	-10.1176
▁snarling	-10.1183
▁he	-10.1183
jo	-10.1201
▁chances	-10.1203
▁cap	-10.1214
fully	-10.1221
▁breakin	-10.1234
▁burned	-10.124
▁packed	-10.1243
▁locker	-10.1248
▁belly	-10.125
▁owls	-10.1262
▁chat	-10.1265
▁ming	-10.1272
▁messed	-10.1278
▁stealing	-10.128
▁armed	-10.1287
▁sw	-10.1298
▁parking	-10.1298
▁kim	-10.1301
▁bull	-10.1301
▁jumped	-10.1307
▁hon	-10.1307
▁tryin	-10.1317
▁singer	-10.1318
▁am	-10.1319
▁dings	-10.1322
▁hunting	-10.1331
▁maria	-10.1332
▁site	-10.1333
▁sits	-10.1336
▁provide	-10.134
▁returned	-10.1358
▁beeps	-10.1359
▁enjoying	-10.1363
▁fully	-10.1379
▁writers	-10.1381
▁dent	-10.1398
▁siren	-10.1419
▁fishing	-10.1444
▁appear	-10.1457
▁cor	-10.1459
oli	-10.1461
▁agents	-10.1467
▁jew	-10.1468
ally	-10.1471
▁spit	-10.1486
▁pirate	-10.1496
▁nerve	-10.1497
▁fools	-10.15
▁soldier	-10.1502
▁sport	-10.1503
▁depend	-10.1503
▁muppet	-10.1504
ima	-10.1506
▁shoe	-10.1506
▁product	-10.1512
▁points	-10.1514
▁rate	-10.1515
▁sting	-10.1517
ou	-10.1522
▁deny	-10.1537
ked	-10.1548
▁receive	-10.1572
▁writer	-10.1588
▁off	-10.159
ations	-10.1601
tu	-10.1612
lic	-10.1616
ward	-10.1616
▁me	-10.1639
▁ton	-10.1639
▁blast	-10.164
▁wars	-10.1675
▁scratch	-10.1689
▁sneak	-10.1694
▁smash	-10.1698
ka	-10.1702
▁meow	-10.1702
ture	-10.1705
▁crush	-10.1708
▁answers	-10.1711
▁heal	-10.1717
like	-10.173
▁dirt	-10.173
▁assume	-10.1733
▁rook	-10.1733
phone	-10.1734
ank	-10.1735
▁purse	-10.1736
▁official	-10.1736
▁exact	-10.1737
▁rooms	-10.1743
▁sandwich	-10.1745
▁mornin	-10.1749
▁resist	-10.1753
tail	-10.1753
▁border	-10.1754
▁advantage	-10.1754
▁arnhem	-10.1754
▁arrival	-10.1754
▁attorney	-10.1754
▁auction	-10.1754
▁autograph	-10.1754
▁caxton	-10.1754
▁century	-10.1754
▁convention	-10.1754
▁deuteronomy	-10.1754
▁diablo	-10.1754
▁dozen	-10.1754
▁enormous	-10.1754
▁familiar	-10.1754
▁fifty	-10.1754
▁footsteps	-10.1754
▁gardner	-10.1754
▁gregorio	-10.1754
▁houston	-10.1754
▁including	-10.1754
▁invisible	-10.1754
▁jonathan	-10.1754
▁mistoffelees	-10.1754
▁monitor	-10.1754
▁muffin	-10.1754
▁nonnie	-10.1754
▁nucle	-10.1754
▁pathetic	-10.1754
▁polite	-10.1754
▁represent	-10.1754
▁reputation	-10.1754
▁rhino	-10.1754
▁ruettiger	-10.1754
▁schnitzel	-10.1754
▁semester	-10.1754
▁sukarno	-10.1754
▁thieves	-10.1754
▁volunteer	-10.1754
▁babies	-10.1754
▁bernie	-10.1754
▁deputy	-10.1754
▁lunna	-10.1754
▁plastic	-10.1754
▁regard	-10.1754
▁shaft	-10.1754
▁wise	-10.1754
▁cinderella	-10.1754
▁dardis	-10.1754
▁episode	-10.1754
▁flew	-10.1754
ppitybo	-10.1754
▁recall	-10.1754
▁squidward	-10.1754
▁midnight	-10.1754
▁faint	-10.1754
▁dining	-10.1754
▁dropping	-10.1754
▁surface	-10.1754
▁blaring	-10.1755
▁neighborhood	-10.1755
▁woke	-10.1755
▁roast	-10.1755
▁whyd	-10.1756
▁electronic	-10.1756
▁medicine	-10.1756
▁yup	-10.1756
▁dork	-10.1756
▁lips	-10.1756
▁temple	-10.1756
▁attractive	-10.1757
▁gower	-10.1757
▁diary	-10.1757
▁cube	-10.1757
▁capable	-10.1757
▁dice	-10.1758
▁weli	-10.1758
▁peterson	-10.1758
▁boil	-10.1759
▁neat	-10.1759
ator	-10.176
▁greedy	-10.176
▁relieved	-10.176
▁treatment	-10.1763
▁christine	-10.1764
▁practically	-10.1764
▁jol	-10.1768
▁sexy	-10.1768
▁protection	-10.1769
ssey	-10.177
▁vest	-10.177
▁legal	-10.1771
▁collection	-10.1772
▁tickle	-10.1774
▁winter	-10.1775
▁drum	-10.1775
▁setting	-10.178
▁embarrassing	-10.1784
▁bror	-10.1788
▁nest	-10.1788
▁parties	-10.179
▁chas	-10.179
▁lack	-10.1791
▁heroes	-10.1793
▁approaching	-10.1797
▁rear	-10.1798
▁latest	-10.18
▁louder	-10.1801
▁sha	-10.1803
tto	-10.1809
▁oops	-10.1812
▁yee	-10.1818
▁billion	-10.1819
▁loaded	-10.1821
▁andi	-10.1834
▁drinks	-10.1835
sk	-10.1842
▁jewels	-10.1844
▁degrees	-10.1846
▁murdered	-10.185
▁wayne	-10.186
▁recipes	-10.1863
▁makeup	-10.1866
ifl	-10.187
▁traveling	-10.187
▁crossed	-10.1892
▁stones	-10.1901
▁inn	-10.1909
▁jane	-10.1911
▁ri	-10.1918
▁fooled	-10.1938
▁counter	-10.1938
▁knees	-10.1947
▁paulas	-10.195
▁weapons	-10.1963
▁til	-10.1966
▁hundreds	-10.1966
▁monkeys	-10.1966
▁whas	-10.1968
▁rocky	-10.1971
▁ni	-10.1975
ina	-10.1987
▁gal	-10.2003
▁kissed	-10.2006
lam	-10.2008
▁soldiers	-10.2014
▁moms	-10.2015
▁signed	-10.2029
min	-10.2039
▁ski	-10.2041
▁jo	-10.2067
▁que	-10.2073
▁hates	-10.2086
▁yell	-10.2109
nk	-10.2116
▁bur	-10.213
if	-10.2135
▁buying	-10.2146
▁fart	-10.2148
ile	-10.2154
▁sn	-10.2156
▁drivers	-10.2157
▁where	-10.2159
▁explosion	-10.2165
▁scientist	-10.2168
▁diamonds	-10.22
▁here	-10.2204
▁incident	-10.223
▁beep	-10.2238
▁hay	-10.2243
▁teams	-10.2254
cher	-10.2265
ell	-10.2297
▁arab	-10.2298
▁ob	-10.2299
cha	-10.2311
▁cows	-10.2322
ium	-10.2339
▁comp	-10.2339
▁admire	-10.2341
win	-10.2348
▁pi	-10.235
▁todays	-10.2355
▁hop	-10.2355
mon	-10.2356
▁connect	-10.2358
▁charm	-10.2369
▁occasion	-10.2374
▁piss	-10.2384
ass	-10.2385
▁cheat	-10.2386
▁shoo	-10.2387
▁convince	-10.2394
▁radi	-10.2397
though	-10.2401
▁attract	-10.2408
▁secrets	-10.2413
▁germ	-10.2416
▁rome	-10.2417
▁swing	-10.2419
▁absurd	-10.2421
▁atlantic	-10.2421
▁baudelaire	-10.2421
▁council	-10.2421
▁downstairs	-10.2421
▁draft	-10.2421
▁easily	-10.2421
▁explanation	-10.2421
▁families	-10.2421
▁fronkonsteen	-10.2421
▁grateful	-10.2421
▁kaycee	-10.2421
▁klaus	-10.2421
▁nashville	-10.2421
▁relationship	-10.2421
▁revenge	-10.2421
▁shadow	-10.2421
▁shrieks	-10.2421
▁squeeze	-10.2421
▁submarine	-10.2421
▁twist	-10.2421
▁vincent	-10.2421
▁brush	-10.2421
▁clown	-10.2421
▁distant	-10.2421
▁dutch	-10.2421
▁eternal	-10.2421
▁farewell	-10.2421
▁utter	-10.2421
▁whoohoo	-10.2421
▁governor	-10.2421
▁heather	-10.2421
▁lucy	-10.2421
▁pleasant	-10.2421
▁dilly	-10.2421
▁bugger	-10.2421
▁geoffrey	-10.2421
▁nanny	-10.2421
▁content	-10.2421
▁rifle	-10.2421
▁wig	-10.2421
▁example	-10.2421
▁acquaintance	-10.2421
▁hisses	-10.2421
▁amount	-10.2421
▁hayden	-10.2421
▁repair	-10.2421
▁lemon	-10.2421
▁pond	-10.2421
▁feast	-10.2421
▁construction	-10.2421
▁permit	-10.2421
▁earlier	-10.2421
▁cramp	-10.2421
▁stans	-10.2421
▁cowboy	-10.2422
▁grass	-10.2422
▁denied	-10.2422
▁greek	-10.2422
▁railway	-10.2422
▁julian	-10.2422
▁orange	-10.2422
▁element	-10.2422
▁jimmy	-10.2422
▁jury	-10.2422
▁championship	-10.2422
▁indian	-10.2422
▁goldilo	-10.2423
▁punk	-10.2423
▁available	-10.2423
▁math	-10.2423
▁mock	-10.2423
▁extraordinary	-10.2423
▁decent	-10.2424
▁blade	-10.2424
▁spaceship	-10.2424
▁chairman	-10.2424
▁delete	-10.2425
▁scum	-10.2425
▁location	-10.2426
▁stove	-10.2426
▁grandson	-10.2427
▁ofthe	-10.2427
▁fruit	-10.2427
▁wallet	-10.2427
▁announcement	-10.2428
▁debt	-10.2428
▁aii	-10.2428
▁poop	-10.2428
▁moron	-10.2428
▁loch	-10.243
▁wrap	-10.243
▁foolish	-10.243
▁pile	-10.243
▁ability	-10.243
▁motor	-10.2431
▁highway	-10.2432
▁drill	-10.2432
▁balls	-10.2432
▁chitter	-10.2432
▁dega	-10.2433
▁cave	-10.2433
▁beef	-10.2435
▁spoken	-10.2437
▁mechanic	-10.2443
▁somethings	-10.2443
▁fuss	-10.2445
▁cra	-10.2447
▁goodnight	-10.2448
▁howling	-10.2448
▁mixed	-10.245
▁useful	-10.245
▁seth	-10.2461
▁powers	-10.2464
▁sat	-10.2465
▁blown	-10.2468
▁sage	-10.2472
▁creepy	-10.2473
ett	-10.2474
iest	-10.2479
▁pier	-10.2487
gen	-10.2524
▁finest	-10.2534
▁praying	-10.2542
▁hearing	-10.2549
ak	-10.2552
▁klopeks	-10.2555
▁clicks	-10.2555
▁ku	-10.2556
▁gi	-10.2564
▁drown	-10.2568
ore	-10.2569
▁bastards	-10.2578
pe	-10.2578
▁fin	-10.259
▁backup	-10.2613
ake	-10.2633
▁enjoyed	-10.264
▁beats	-10.2655
▁trained	-10.2668
▁leaves	-10.2669
▁palm	-10.2672
▁ax	-10.2685
▁watched	-10.2686
cr	-10.2697
▁plates	-10.2735
▁strangers	-10.276
za	-10.2762
▁lover	-10.2779
▁lessons	-10.2792
▁des	-10.2795
ery	-10.2805
▁members	-10.2807
▁loyal	-10.2809
ably	-10.2828
▁gen	-10.2838
▁tin	-10.2839
▁tend	-10.284
▁shout	-10.2841
▁islands	-10.2841
▁claw	-10.2876
▁maid	-10.2876
▁snake	-10.2882
▁missile	-10.2885
▁dreaming	-10.2887
kin	-10.2895
▁photograph	-10.2902
▁dealing	-10.2917
▁leads	-10.2952
▁tent	-10.2967
bra	-10.2972
▁runs	-10.2972
ute	-10.2983
▁tale	-10.2985
▁loser	-10.3008
▁dam	-10.3016
▁transfer	-10.3017
▁liver	-10.3027
▁victor	-10.3039
▁flash	-10.3081
▁chew	-10.3081
▁strain	-10.3082
▁impress	-10.3082
▁cove	-10.3089
▁interrupt	-10.309
▁intend	-10.309
▁swallow	-10.3092
▁litter	-10.3096
▁mart	-10.3104
▁complain	-10.3105
▁explode	-10.3108
▁remove	-10.3108
▁brand	-10.3111
▁whee	-10.3114
▁dang	-10.3115
▁instant	-10.3117
box	-10.3118
▁strip	-10.3119
▁steve	-10.3126
ries	-10.3127
▁chose	-10.3127
▁threat	-10.3127
▁betray	-10.3128
▁gentle	-10.3131
▁inform	-10.3133
▁basket	-10.3135
▁slight	-10.3135
▁academy	-10.3135
▁airborne	-10.3135
▁apology	-10.3135
▁aquitaine	-10.3135
▁beloved	-10.3135
▁claude	-10.3135
▁clayton	-10.3135
▁combat	-10.3135
▁confidence	-10.3135
▁democrat	-10.3135
▁disaster	-10.3135
▁enemies	-10.3135
▁fortunate	-10.3135
▁gamart	-10.3135
▁glow	-10.3135
▁glue	-10.3135
▁individual	-10.3135
▁italian	-10.3135
▁libby	-10.3135
▁lizzie	-10.3135
▁lucas	-10.3135
▁marvin	-10.3135
▁mcelrathbey	-10.3135
▁nelson	-10.3135
▁ornament	-10.3135
▁perrito	-10.3135
▁political	-10.3135
▁rehearse	-10.3135
▁sauce	-10.3135
▁severine	-10.3135
▁shrimp	-10.3135
▁smith	-10.3135
▁sobbing	-10.3135
▁splendid	-10.3135
▁sydney	-10.3135
▁triangle	-10.3135
▁tricia	-10.3135
▁understood	-10.3135
▁winifred	-10.3135
▁yawns	-10.3135
▁zaphod	-10.3135
▁derek	-10.3135
▁generous	-10.3135
▁lemur	-10.3135
▁smiling	-10.3135
▁stream	-10.3135
▁article	-10.3135
▁bacon	-10.3135
▁commit	-10.3135
▁oldknow	-10.3135
▁proceed	-10.3135
▁yacht	-10.3135
▁chipettes	-10.3135
▁chamber	-10.3135
▁welker	-10.3135
▁flintstone	-10.3135
▁choke	-10.3135
▁review	-10.3135
▁cannonball	-10.3135
▁taxi	-10.3135
▁reverend	-10.3135
▁juice	-10.3135
▁assistance	-10.3136
▁navy	-10.3136
▁honour	-10.3136
▁solid	-10.3136
▁brooks	-10.3136
▁humma	-10.3136
▁sheet	-10.3136
▁pride	-10.3136
▁pansy	-10.3136
▁pillow	-10.3136
▁chapel	-10.3136
▁damage	-10.3137
▁chapter	-10.3137
▁fiend	-10.3137
▁mush	-10.3137
▁quarterback	-10.3137
▁slipper	-10.3137
▁intruder	-10.3137
▁noble	-10.3137
▁responsible	-10.3138
▁impressive	-10.3138
▁rj	-10.3138
▁laundry	-10.3138
▁performance	-10.3138
▁hue	-10.3138
▁operator	-10.3138
▁brat	-10.3139
▁medal	-10.3139
▁flesh	-10.3139
▁trial	-10.3139
▁copper	-10.314
▁moles	-10.314
looking	-10.3141
▁fascinating	-10.3141
▁gear	-10.3141
two	-10.3144
▁morgana	-10.3144
▁flame	-10.3144
▁lame	-10.3144
▁inga	-10.3144
▁sack	-10.3144
▁chosen	-10.3145
▁soviet	-10.3147
▁capt	-10.3147
▁amen	-10.3148
▁background	-10.3151
zy	-10.3156
▁archy	-10.316
▁down	-10.3162
▁ox	-10.3164
▁fallen	-10.3167
▁sock	-10.3172
▁lend	-10.3174
▁holes	-10.3184
▁badge	-10.3184
▁kindness	-10.3192
▁germany	-10.3194
▁concerned	-10.3199
▁joint	-10.32
▁victoria	-10.3209
▁athlete	-10.3209
▁former	-10.321
▁ja	-10.3212
▁entirely	-10.3223
▁pest	-10.3229
▁tied	-10.3239
▁citizens	-10.3241
▁salt	-10.3248
▁zed	-10.3256
▁lil	-10.3261
▁idiots	-10.3268
▁accepted	-10.3274
▁ape	-10.3275
▁observe	-10.3284
▁warned	-10.3286
nner	-10.3291
▁maker	-10.3311
▁arch	-10.3319
▁humans	-10.3319
▁raining	-10.332
▁goldi	-10.3324
▁rogers	-10.3324
tan	-10.333
▁wil	-10.333
▁workers	-10.3334
▁mountains	-10.3343
▁yay	-10.3345
▁messing	-10.3358
▁don	-10.3359
▁selling	-10.3375
▁farmers	-10.3392
▁snakes	-10.3396
▁scientists	-10.3415
▁joining	-10.3435
▁cleaning	-10.3442
▁yii	-10.3449
▁dan	-10.3451
▁fed	-10.3467
▁mars	-10.3471
▁y	-10.3471
vol	-10.3482
▁cooi	-10.3492
▁ali	-10.3493
▁closet	-10.3498
▁hoo	-10.3509
▁vip	-10.3511
▁husbands	-10.3512
▁demons	-10.3521
▁hunter	-10.3525
▁schools	-10.3541
bag	-10.3542
▁habit	-10.3547
▁remembered	-10.3571
put	-10.3577
▁min	-10.3599
▁hated	-10.3621
▁bars	-10.3643
▁ap	-10.3645
▁servant	-10.3647
▁weapon	-10.3651
▁suspect	-10.3652
▁wha	-10.3657
▁seal	-10.3661
▁pill	-10.3666
▁worm	-10.367
▁woo	-10.371
▁farmer	-10.3714
▁showing	-10.3728
rr	-10.3733
old	-10.3747
ja	-10.3748
can	-10.376
▁sides	-10.3773
▁gin	-10.378
▁mat	-10.3794
well	-10.38
▁dancer	-10.3805
▁ding	-10.3815
▁opened	-10.3815
▁teachers	-10.3827
eat	-10.3834
row	-10.3836
▁approach	-10.3842
light	-10.3843
▁sue	-10.3845
▁buzz	-10.3851
▁pulling	-10.3852
▁spoil	-10.3859
uck	-10.3862
▁jet	-10.3868
▁exchange	-10.3869
ap	-10.3876
board	-10.3881
fall	-10.3884
▁earn	-10.3885
water	-10.3886
▁desperate	-10.3886
▁actual	-10.3888
▁drama	-10.389
▁es	-10.3893
▁comfort	-10.3901
▁retire	-10.3902
▁effect	-10.3902
▁cancel	-10.3903
▁rail	-10.3903
▁blank	-10.3904
▁beatrice	-10.3904
▁beneath	-10.3904
▁broadcast	-10.3904
▁channing	-10.3904
▁companion	-10.3904
▁concierge	-10.3904
▁congress	-10.3904
▁elliot	-10.3904
▁excalibur	-10.3904
▁genuine	-10.3904
▁glynnis	-10.3904
▁infinite	-10.3904
▁matthias	-10.3904
▁mcashton	-10.3904
▁monsieur	-10.3904
▁mysterious	-10.3904
▁nephew	-10.3904
▁outstanding	-10.3904
▁purple	-10.3904
▁resort	-10.3904
▁respond	-10.3904
▁select	-10.3904
▁smooth	-10.3904
▁strict	-10.3904
▁temperature	-10.3904
▁therefore	-10.3904
▁transport	-10.3904
▁treasure	-10.3904
▁trigger	-10.3904
▁whinnies	-10.3904
▁ashamed	-10.3904
▁client	-10.3904
▁closing	-10.3904
▁honeymoon	-10.3904
▁puppet	-10.3904
▁turtle	-10.3904
▁firm	-10.3904
▁deaf	-10.3904
▁cattle	-10.3904
▁justin	-10.3904
▁largo	-10.3904
▁tropic	-10.3904
▁plague	-10.3905
▁iris	-10.3905
▁shining	-10.3905
▁stairs	-10.3905
▁extreme	-10.3905
▁mombi	-10.3905
▁surgery	-10.3905
▁muffle	-10.3905
▁tyler	-10.3905
▁miserable	-10.3905
▁modern	-10.3905
▁translat	-10.3905
▁salmon	-10.3905
▁cowgirl	-10.3905
▁vicious	-10.3905
▁cheek	-10.3905
▁joking	-10.3905
▁asshole	-10.3905
▁extinct	-10.3905
▁temporary	-10.3905
▁bert	-10.3906
▁forty	-10.3906
▁failure	-10.3906
▁invitation	-10.3906
▁cia	-10.3906
▁gunshot	-10.3906
▁magnet	-10.3906
▁begun	-10.3906
▁jelly	-10.3907
▁madison	-10.3907
▁beam	-10.3907
▁riddler	-10.3907
▁doorbell	-10.3908
▁vision	-10.3908
▁reward	-10.3909
▁limo	-10.3909
▁grey	-10.3909
▁muckle	-10.3909
▁karate	-10.391
▁vexin	-10.391
▁duh	-10.3912
▁dunne	-10.3912
▁bait	-10.3912
▁dating	-10.3913
▁junior	-10.3921
▁ew	-10.3923
▁tries	-10.3923
▁tap	-10.3925
▁helena	-10.3926
▁sailor	-10.3926
▁chad	-10.3926
▁haunted	-10.3931
▁dep	-10.3932
▁knowledge	-10.3932
nic	-10.3934
▁fee	-10.3934
▁sur	-10.3936
boy	-10.3936
▁mid	-10.394
▁believed	-10.3941
▁tod	-10.3942
▁payment	-10.3944
▁bored	-10.3949
▁sweater	-10.3951
▁vice	-10.3953
▁pm	-10.3959
▁hail	-10.396
▁managed	-10.3964
▁lawn	-10.3966
▁hash	-10.3972
▁burglars	-10.3978
▁goose	-10.3979
▁floating	-10.3983
▁dock	-10.3983
▁pipe	-10.3984
▁pitch	-10.3992
ison	-10.4004
▁painted	-10.4014
▁bounc	-10.4015
▁finals	-10.4025
▁arrangements	-10.404
▁sis	-10.4041
den	-10.4045
lapping	-10.4047
itation	-10.4049
▁cart	-10.4063
▁cents	-10.4064
▁ty	-10.4064
lea	-10.4073
▁bud	-10.4075
▁ken	-10.4082
▁toes	-10.4084
cut	-10.4085
▁pr	-10.4086
▁engineer	-10.4088
ox	-10.4091
▁ir	-10.4098
▁doo	-10.41
▁souls	-10.4108
▁fixed	-10.4123
▁thumbs	-10.4145
▁grades	-10.4145
▁af	-10.4153
▁reported	-10.4153
▁sin	-10.4166
▁hen	-10.4175
ove	-10.4178
▁dressing	-10.4181
▁dancers	-10.4182
▁flu	-10.4206
rate	-10.4208
▁depends	-10.4225
ition	-10.4256
eep	-10.4268
bar	-10.4269
ities	-10.4269
gged	-10.4274
mer	-10.4289
▁pops	-10.4296
▁passing	-10.4307
▁los	-10.4307
▁tum	-10.4319
▁qua	-10.4341
▁demon	-10.4342
▁iii	-10.4344
▁colors	-10.4353
▁staring	-10.4357
▁jokes	-10.4365
▁tigers	-10.4399
▁comet	-10.4415
▁dec	-10.442
▁knee	-10.4446
▁cheer	-10.4452
▁badly	-10.4455
▁bend	-10.4455
▁col	-10.4463
▁cigar	-10.4477
▁neighbour	-10.4477
▁magazine	-10.4477
▁banana	-10.4482
▁term	-10.4485
▁thumb	-10.4486
▁toward	-10.4488
▁grade	-10.4492
▁chuckle	-10.4498
bit	-10.4502
▁et	-10.4506
gue	-10.451
ath	-10.4511
▁ships	-10.4516
▁plants	-10.4518
▁fields	-10.4519
▁paula	-10.4524
▁tank	-10.4528
▁mall	-10.4561
▁hoped	-10.4579
▁ignore	-10.4585
▁ron	-10.4596
▁odds	-10.4598
ade	-10.4599
ler	-10.4603
run	-10.461
▁spin	-10.4624
▁deserves	-10.465
▁understanding	-10.4652
ned	-10.4675
▁hells	-10.4682
▁banks	-10.4695
▁replace	-10.4711
▁weigh	-10.4712
load	-10.4715
worm	-10.4717
world	-10.4717
class	-10.4717
face	-10.4723
▁statu	-10.4724
year	-10.4724
▁distract	-10.4725
right	-10.4729
▁tear	-10.4733
▁stunt	-10.4735
▁cartoon	-10.4736
▁employ	-10.4736
▁occur	-10.4737
▁specific	-10.4737
▁munch	-10.4737
▁knuck	-10.4738
▁muscle	-10.4738
▁appropriate	-10.4738
▁arnold	-10.4738
▁average	-10.4738
▁barricade	-10.4738
▁bypass	-10.4738
▁cavanaugh	-10.4738
▁channel	-10.4738
▁coincidence	-10.4738
▁conference	-10.4738
▁curtis	-10.4738
▁delamere	-10.4738
▁divatox	-10.4738
▁eventually	-10.4738
▁eyebrows	-10.4738
▁facility	-10.4738
▁famiiy	-10.4738
▁fashion	-10.4738
▁furniture	-10.4738
▁gnome	-10.4738
▁gorgeous	-10.4738
▁hardborough	-10.4738
▁helsing	-10.4738
▁huddle	-10.4738
▁influence	-10.4738
▁jeanloup	-10.4738
▁jonah	-10.4738
▁kelmot	-10.4738
▁magrathea	-10.4738
▁mowbray	-10.4738
▁olivia	-10.4738
▁patience	-10.4738
▁patrol	-10.4738
▁powder	-10.4738
▁puckett	-10.4738
▁relief	-10.4738
▁rude	-10.4738
▁segretti	-10.4738
▁slept	-10.4738
▁smuntz	-10.4738
▁strutter	-10.4738
▁studied	-10.4738
▁sunshine	-10.4738
▁thirty	-10.4738
▁tinkles	-10.4738
▁tuesday	-10.4738
▁unfair	-10.4738
▁violin	-10.4738
▁wegman	-10.4738
▁widow	-10.4738
▁wolves	-10.4738
▁worries	-10.4738
▁arguing	-10.4738
▁chancellor	-10.4738
▁hooray	-10.4738
▁cherry	-10.4738
▁iowa	-10.4738
▁fischer	-10.4738
▁flora	-10.4738
▁racing	-10.4738
▁seattle	-10.4738
▁spain	-10.4738
▁grasshopper	-10.4738
▁kaye	-10.4738
▁alais	-10.4738
▁hawkins	-10.4738
▁await	-10.4738
▁scale	-10.4738
▁honks	-10.4738
▁headache	-10.4738
▁sunset	-10.4738
▁wasting	-10.4738
▁carried	-10.4738
▁pilot	-10.4738
▁cheap	-10.4738
▁branch	-10.4738
▁liddy	-10.4738
▁lisp	-10.4738
▁garlic	-10.4738
▁sweep	-10.4738
▁werewolf	-10.4738
▁maintain	-10.4738
▁salute	-10.4738
▁pumpkin	-10.4738
▁compete	-10.4738
▁hammer	-10.4738
▁judy	-10.4738
▁pimp	-10.4738
▁decorat	-10.4739
▁martha	-10.4739
▁maax	-10.4739
▁plot	-10.4739
▁silent	-10.4739
▁tada	-10.4739
▁stalk	-10.474
▁possession	-10.4741
▁scout	-10.4741
▁mount	-10.4741
▁grim	-10.4742
▁quack	-10.4743
▁package	-10.4743
▁dyou	-10.4743
▁hitler	-10.4744
▁ferr	-10.4745
▁brief	-10.4746
▁jobs	-10.4746
▁benson	-10.4746
▁retreat	-10.4747
▁annie	-10.4748
▁freshman	-10.4748
▁version	-10.4748
▁worthless	-10.475
▁statement	-10.4751
▁bedtime	-10.4751
▁halfway	-10.4751
▁deadline	-10.4751
▁prime	-10.4753
▁range	-10.4754
▁exit	-10.4754
▁australian	-10.4755
▁daylight	-10.4755
▁sixth	-10.4757
▁dup	-10.4758
▁officially	-10.4762
▁julien	-10.4763
▁replaced	-10.4765
ford	-10.4769
▁triple	-10.4772
▁convinced	-10.4772
▁oss	-10.4772
▁dip	-10.478
▁bal	-10.4781
▁properly	-10.4782
▁delivery	-10.4782
▁dash	-10.4785
▁positions	-10.4787
▁layer	-10.4798
sky	-10.48
burger	-10.4801
▁loudly	-10.4803
▁drowning	-10.4804
▁madame	-10.4804
▁highest	-10.4806
▁passes	-10.4807
▁tone	-10.4807
▁passion	-10.4807
▁normally	-10.481
▁classes	-10.481
▁dy	-10.4819
▁barks	-10.482
ors	-10.4821
▁when	-10.4822
▁dial	-10.4824
▁martini	-10.483
▁sup	-10.4833
▁considered	-10.484
▁wasted	-10.485
▁entering	-10.4853
▁joker	-10.4854
▁based	-10.4859
▁para	-10.486
▁heights	-10.4863
▁porter	-10.4865
with	-10.4866
▁yea	-10.4879
▁climbing	-10.4883
▁preserve	-10.4884
▁plum	-10.4885
▁warriors	-10.4885
fu	-10.4904
▁worthy	-10.4906
▁studying	-10.491
igh	-10.4911
▁curtains	-10.4931
▁bots	-10.4935
ologist	-10.4935
▁treated	-10.4939
▁customers	-10.4957
▁hills	-10.4959
▁mini	-10.4985
illa	-10.4988
▁terms	-10.4998
▁bananas	-10.5
▁worms	-10.502
▁younger	-10.5043
▁ze	-10.5046
▁tan	-10.505
some	-10.505
▁ducky	-10.5065
▁auntie	-10.5073
▁messages	-10.5073
▁boarding	-10.5076
▁jews	-10.5093
bble	-10.51
▁ju	-10.5103
▁bearing	-10.5115
▁issues	-10.5115
▁actors	-10.5117
▁marks	-10.5138
▁tapes	-10.5149
rey	-10.5154
til	-10.5156
aid	-10.5157
▁ka	-10.5157
▁candles	-10.5179
itates	-10.5185
▁elms	-10.5189
▁beating	-10.5193
▁investigat	-10.5207
▁criminals	-10.5208
▁workin	-10.5209
▁nap	-10.521
▁sum	-10.5211
did	-10.522
▁div	-10.5221
▁units	-10.523
▁skipp	-10.5233
▁robots	-10.5254
▁fails	-10.528
▁buttons	-10.5282
▁waves	-10.5303
nya	-10.531
▁natives	-10.5324
▁dime	-10.5339
▁sniff	-10.534
▁gall	-10.5358
lor	-10.5361
▁nu	-10.5387
lon	-10.5387
▁stab	-10.5388
▁tunnel	-10.5389
▁files	-10.539
▁orphan	-10.539
▁drug	-10.5397
▁knights	-10.5418
▁cd	-10.5419
raz	-10.5423
▁bats	-10.5434
▁glor	-10.5435
▁prayer	-10.5437
▁brings	-10.5444
▁thoughts	-10.5453
▁yards	-10.5489
▁hahaha	-10.5502
▁hum	-10.5502
▁learning	-10.5511
▁sala	-10.5529
mal	-10.5551
▁wins	-10.5551
bout	-10.5555
▁thinkin	-10.5556
▁ph	-10.5575
han	-10.5584
▁transform	-10.559
▁psycho	-10.5594
▁corps	-10.5596
pen	-10.5602
▁link	-10.5605
▁drawing	-10.5611
▁shove	-10.5613
▁jin	-10.5614
▁include	-10.5618
born	-10.5621
▁sticks	-10.5623
town	-10.5626
free	-10.5627
play	-10.5628
cept	-10.5629
▁unfortunate	-10.5629
▁slim	-10.5631
▁parts	-10.5631
▁rabbits	-10.5631
▁grip	-10.5633
▁griff	-10.5637
▁recommend	-10.5637
▁laws	-10.5639
▁involve	-10.5639
▁punish	-10.5644
▁civil	-10.5645
▁contra	-10.5645
▁revolution	-10.5645
▁contest	-10.5645
▁favour	-10.5646
▁birth	-10.5646
▁sync	-10.5647
▁association	-10.5647
▁battalion	-10.5647
▁bertram	-10.5647
▁blindfold	-10.5647
▁breadfruit	-10.5647
▁cahill	-10.5647
▁cease	-10.5647
▁centuries	-10.5647
▁cheerleader	-10.5647
▁commercial	-10.5647
▁compliment	-10.5647
▁comrade	-10.5647
▁conservancy	-10.5647
▁dedicate	-10.5647
▁delinquent	-10.5647
▁discipline	-10.5647
▁earthquake	-10.5647
▁education	-10.5647
▁exercise	-10.5647
▁experiment	-10.5647
▁fozzie	-10.5647
▁fregley	-10.5647
▁gracie	-10.5647
▁gulag	-10.5647
▁improve	-10.5647
▁increase	-10.5647
▁injury	-10.5647
▁ireland	-10.5647
▁jakarta	-10.5647
▁leopard	-10.5647
▁maureen	-10.5647
▁melody	-10.5647
▁naughty	-10.5647
▁organization	-10.5647
▁outlaw	-10.5647
▁pitcairn	-10.5647
▁progress	-10.5647
▁prophecy	-10.5647
▁puberty	-10.5647
▁puzzle	-10.5647
▁ralph	-10.5647
▁rehearsal	-10.5647
▁rockefeller	-10.5647
▁rueland	-10.5647
▁saigon	-10.5647
▁schooi	-10.5647
▁sequel	-10.5647
▁slide	-10.5647
▁squirrel	-10.5647
▁squish	-10.5647
▁stammers	-10.5647
▁stepmother	-10.5647
▁subtitle	-10.5647
▁suicide	-10.5647
▁supreme	-10.5647
▁terrified	-10.5647
▁texas	-10.5647
▁thompson	-10.5647
▁thunderclap	-10.5647
▁tintagel	-10.5647
▁undead	-10.5647
▁underneath	-10.5647
▁valuable	-10.5647
▁voyage	-10.5647
▁whinnying	-10.5647
▁zordon	-10.5647
▁becky	-10.5647
▁charity	-10.5647
▁declare	-10.5647
▁ditch	-10.5647
▁pattern	-10.5647
▁unique	-10.5647
▁crook	-10.5647
▁dairy	-10.5647
▁fraser	-10.5647
▁lenny	-10.5647
▁tattoo	-10.5647
▁trading	-10.5647
▁barefoot	-10.5647
▁hunch	-10.5647
▁whew	-10.5647
▁commodore	-10.5647
▁relay	-10.5647
▁lamb	-10.5647
▁gently	-10.5647
▁superior	-10.5647
▁fulfill	-10.5647
▁defy	-10.5647
▁digging	-10.5647
▁heehaw	-10.5647
▁soda	-10.5647
▁stiles	-10.5647
▁generation	-10.5647
▁funeral	-10.5647
▁technique	-10.5647
▁wives	-10.5647
▁herd	-10.5647
happily	-10.5647
▁backyard	-10.5647
▁behold	-10.5647
▁decade	-10.5647
▁instructions	-10.5647
▁compass	-10.5647
▁solomon	-10.5647
▁crud	-10.5647
▁lightfoot	-10.5647
▁prickl	-10.5647
rimmer	-10.5648
▁marvelous	-10.5648
▁colour	-10.5648
▁tide	-10.5648
▁milton	-10.5648
▁zipper	-10.5648
▁youth	-10.5648
▁display	-10.5648
▁adjust	-10.5648
▁garth	-10.5649
▁whatll	-10.5649
▁ease	-10.5649
▁resistance	-10.5649
▁attic	-10.5649
▁blanket	-10.5649
▁glorious	-10.5649
▁personnel	-10.5649
▁ginger	-10.5649
▁daily	-10.5649
▁shortcut	-10.5649
▁shane	-10.5649
▁measure	-10.565
▁commitment	-10.565
▁subway	-10.565
▁flea	-10.5651
▁shaking	-10.5651
▁web	-10.5651
▁una	-10.5651
▁odile	-10.5652
▁minor	-10.5652
▁yearold	-10.5652
▁gday	-10.5652
▁sandra	-10.5653
▁whoops	-10.5653
▁dudes	-10.5653
▁thirsty	-10.5653
▁robbery	-10.5653
▁rib	-10.5653
▁exhausted	-10.5653
▁cock	-10.5653
▁megan	-10.5654
▁create	-10.5654
▁unlike	-10.5654
▁wool	-10.5655
▁serving	-10.5655
▁flatter	-10.5655
▁impression	-10.5655
▁narrat	-10.5655
▁peaceful	-10.5655
▁disco	-10.5656
▁whore	-10.5656
▁costs	-10.5657
▁agreement	-10.5657
▁mansion	-10.5657
▁griffin	-10.5657
▁quitting	-10.5657
▁producer	-10.5657
▁potty	-10.5657
▁june	-10.5657
▁bail	-10.5658
▁toto	-10.5658
▁award	-10.5659
▁comic	-10.566
▁buckle	-10.5661
▁sacred	-10.5662
▁invented	-10.5662
kind	-10.5663
▁mayday	-10.5664
▁gar	-10.5667
▁toss	-10.5667
▁hollow	-10.5668
▁greater	-10.5668
▁fried	-10.5669
▁yaya	-10.5671
▁expression	-10.5672
▁kate	-10.5672
▁von	-10.5672
▁aww	-10.5673
▁ahem	-10.5674
▁homework	-10.5674
▁pronounce	-10.5674
▁monte	-10.5676
▁og	-10.5677
▁particularly	-10.5678
▁disappointed	-10.5679
▁victory	-10.568
▁neighing	-10.568
▁campus	-10.568
▁shovel	-10.5682
▁embarrassed	-10.5683
▁forgetting	-10.5684
▁policeman	-10.5688
▁thee	-10.5688
▁directly	-10.569
▁centre	-10.5691
▁nervously	-10.5707
▁passengers	-10.5709
▁pod	-10.571
kg	-10.5714
▁baron	-10.5722
▁lick	-10.5724
▁meowing	-10.5727
▁healthy	-10.5727
▁delivered	-10.573
▁golf	-10.5731
▁served	-10.5732
▁blessed	-10.5734
▁introduced	-10.5736
▁weep	-10.5749
▁smarter	-10.5749
▁shy	-10.5755
ood	-10.5757
▁sincere	-10.5759
▁forced	-10.5759
▁experienced	-10.5767
iter	-10.5769
▁sonic	-10.5774
▁commander	-10.5778
▁bla	-10.5779
▁chine	-10.5784
▁bubbles	-10.5784
▁prayed	-10.5786
▁rank	-10.579
▁fung	-10.5791
▁bowling	-10.5794
▁jar	-10.5801
▁wears	-10.5806
▁realm	-10.5809
▁brakes	-10.5809
▁cord	-10.5824
▁mil	-10.5828
▁breaks	-10.5851
▁quietly	-10.5854
▁anti	-10.5856
▁marsh	-10.5861
▁glori	-10.5865
▁worrying	-10.5867
▁mentioned	-10.5879
▁skills	-10.5885
▁tracker	-10.5886
▁orphans	-10.591
▁cape	-10.5916
▁tanks	-10.5935
shing	-10.5943
▁presume	-10.5955
will	-10.5957
▁suspects	-10.5958
▁joined	-10.5967
▁agh	-10.5974
▁lookout	-10.5984
iy	-10.5985
▁sol	-10.5987
▁cleaner	-10.6008
▁explosions	-10.6011
▁rhythmic	-10.6017
▁leading	-10.6018
▁tales	-10.6026
hand	-10.6034
ita	-10.6066
▁vic	-10.6097
▁naive	-10.6098
▁cousins	-10.6113
▁mistakes	-10.6115
▁str	-10.6118
▁speaker	-10.6151
▁mor	-10.6167
top	-10.6169
▁prim	-10.618
pel	-10.6211
cal	-10.6221
▁hog	-10.6234
▁wonders	-10.6264
▁menu	-10.6282
oma	-10.6283
▁moments	-10.6284
▁listened	-10.6295
▁planets	-10.6318
▁sire	-10.6336
ii	-10.6351
▁we	-10.6354
opat	-10.6357
▁iv	-10.6383
▁feather	-10.6388
▁snack	-10.639
▁skill	-10.6396
▁customer	-10.6405
▁estimate	-10.6426
▁sources	-10.6449
▁changes	-10.6475
▁eagles	-10.6475
▁er	-10.6482
▁partners	-10.6496
▁wo	-10.6532
nets	-10.6541
▁announc	-10.6545
▁cre	-10.6547
air	-10.6579
▁thick	-10.6589
▁herr	-10.6596
▁stress	-10.66
▁wound	-10.6603
▁spirits	-10.6606
▁mix	-10.6606
▁christians	-10.6612
▁tick	-10.6618
▁describe	-10.6619
▁brad	-10.6622
▁trains	-10.6622
hood	-10.6624
jack	-10.6628
ois	-10.6628
▁toll	-10.663
▁absolute	-10.663
▁clap	-10.6633
▁detect	-10.6644
▁turk	-10.6646
▁cannon	-10.6646
▁scientific	-10.6646
▁dismiss	-10.6647
▁almighty	-10.6647
▁annoying	-10.6647
▁approval	-10.6647
▁babbling	-10.6647
▁bartender	-10.6647
▁behavior	-10.6647
▁berkeley	-10.6647
▁braxton	-10.6647
▁breeze	-10.6647
▁casino	-10.6647
▁catwoman	-10.6647
▁cemetery	-10.6647
▁chirping	-10.6647
▁clattering	-10.6647
▁clumsy	-10.6647
▁cotton	-10.6647
▁curfew	-10.6647
▁dahlberg	-10.6647
▁dessert	-10.6647
▁disgrace	-10.6647
▁document	-10.6647
▁empire	-10.6647
▁essential	-10.6647
▁exploding	-10.6647
▁fitzhume	-10.6647
▁gambling	-10.6647
▁gazoo	-10.6647
▁gradenko	-10.6647
▁hightower	-10.6647
▁kikuyu	-10.6647
▁lasalles	-10.6647
▁lsabel	-10.6647
▁murmuring	-10.6647
▁opponent	-10.6647
▁overlord	-10.6647
▁peculiar	-10.6647
▁picnic	-10.6647
▁radar	-10.6647
▁remote	-10.6647
▁response	-10.6647
▁rhyme	-10.6647
▁russell	-10.6647
▁scotland	-10.6647
▁shermin	-10.6647
▁sketch	-10.6647
▁sneeze	-10.6647
▁sophisticated	-10.6647
▁sorrow	-10.6647
▁supplies	-10.6647
▁suspicious	-10.6647
▁technically	-10.6647
▁typewriter	-10.6647
▁umezaki	-10.6647
▁vinci	-10.6647
▁vogel	-10.6647
▁wisdom	-10.6647
▁withdraw	-10.6647
▁annual	-10.6647
▁buddies	-10.6647
▁carriage	-10.6647
▁dawg	-10.6647
▁identity	-10.6647
▁ltalian	-10.6647
▁motel	-10.6647
▁stereo	-10.6647
▁tugger	-10.6647
▁vibrations	-10.6647
▁virus	-10.6647
▁yowling	-10.6647
sensitive	-10.6647
▁actress	-10.6647
▁frederick	-10.6647
▁krim	-10.6647
▁recover	-10.6647
▁spray	-10.6647
▁supply	-10.6647
▁incoming	-10.6647
▁rumsfield	-10.6647
▁crystal	-10.6647
▁legacy	-10.6647
▁marysville	-10.6647
▁porridge	-10.6647
▁gaby	-10.6647
▁larry	-10.6647
▁slipping	-10.6647
▁sikes	-10.6647
▁syne	-10.6647
▁bradbury	-10.6647
▁gym	-10.6647
▁chaos	-10.6647
▁corrupt	-10.6647
▁italy	-10.6647
▁financial	-10.6647
▁invest	-10.6647
▁baroness	-10.6647
▁drain	-10.6647
▁chemical	-10.6647
▁kennedy	-10.6647
▁neighbourhood	-10.6647
▁illusion	-10.6647
▁paradise	-10.6647
▁infantry	-10.6647
▁dragged	-10.6647
▁granger	-10.6647
▁pedal	-10.6647
▁holland	-10.6647
▁batmobile	-10.6647
▁muttering	-10.6647
▁jazz	-10.6647
▁jailbreak	-10.6647
▁tummy	-10.6647
▁favourite	-10.6647
▁straw	-10.6647
▁wagon	-10.6648
▁reef	-10.6648
▁descend	-10.6648
▁dreadful	-10.6648
▁proposition	-10.6648
▁stall	-10.6648
▁diaper	-10.6648
▁authority	-10.6648
▁jewelry	-10.6648
▁gipping	-10.6648
▁robbed	-10.6648
▁puppy	-10.6648
▁knot	-10.6648
▁negative	-10.6648
▁obligat	-10.6648
▁harvest	-10.6648
▁heelis	-10.6648
▁oome	-10.6648
▁winston	-10.6648
▁poetry	-10.6648
▁damian	-10.6648
▁balance	-10.6648
▁backwards	-10.6648
▁gagging	-10.6648
▁manual	-10.6648
stick	-10.6649
▁rubber	-10.6649
▁raid	-10.6649
▁existence	-10.6649
▁limb	-10.6649
▁shore	-10.6649
▁runner	-10.6649
▁executive	-10.6649
▁fuck	-10.6649
▁chef	-10.665
▁cabinet	-10.665
▁flip	-10.665
▁staff	-10.665
▁item	-10.665
▁foul	-10.6651
▁despi	-10.6651
▁root	-10.6651
▁bunk	-10.6651
▁cliff	-10.6651
▁santa	-10.6651
▁betcha	-10.6651
▁raven	-10.6652
▁invention	-10.6652
▁rice	-10.6652
▁mason	-10.6652
▁starving	-10.6652
▁mmmmm	-10.6652
▁slice	-10.6653
▁stepped	-10.6653
▁slater	-10.6654
▁scent	-10.6654
▁tray	-10.6654
▁crab	-10.6654
▁surf	-10.6654
▁berlin	-10.6655
▁puff	-10.6655
▁burst	-10.6656
▁my	-10.6656
▁oak	-10.6656
▁heartbeat	-10.6657
▁hawke	-10.6657
▁fran	-10.6658
▁rea	-10.6658
lf	-10.6658
▁classical	-10.6658
▁ricky	-10.6659
▁crank	-10.6659
▁willie	-10.666
▁swell	-10.666
▁skies	-10.666
▁steven	-10.666
▁sanders	-10.6662
▁arranged	-10.6665
▁allies	-10.6666
▁wah	-10.6666
▁sonny	-10.6668
▁related	-10.6668
▁fuel	-10.6669
▁angeles	-10.6671
▁rumor	-10.6672
▁lane	-10.6674
▁poe	-10.6676
▁connection	-10.6676
▁musician	-10.6678
▁tense	-10.6678
▁discussion	-10.6679
▁nail	-10.6679
▁abandoned	-10.6682
oh	-10.6683
▁highness	-10.6683
▁rev	-10.6683
▁easter	-10.6684
▁noises	-10.6685
▁ensur	-10.6685
▁removed	-10.6686
▁cue	-10.6687
▁pole	-10.6688
▁this	-10.6689
▁critters	-10.6689
▁inch	-10.669
▁kneel	-10.6694
▁required	-10.6697
▁wished	-10.6697
▁starve	-10.6698
fire	-10.6703
▁there	-10.6704
▁lifetime	-10.6711
▁bitter	-10.6711
▁boxes	-10.6713
▁unable	-10.6713
▁hitch	-10.6714
▁pissed	-10.6715
▁robbers	-10.6717
▁healed	-10.672
▁appeared	-10.6721
▁union	-10.6723
▁flap	-10.6723
▁est	-10.6726
▁factor	-10.673
▁survived	-10.6738
▁on	-10.6741
▁dolphins	-10.6744
▁beans	-10.6744
pan	-10.6751
▁hei	-10.6752
▁marker	-10.6753
▁carter	-10.6771
▁tools	-10.6772
▁lang	-10.6779
▁you	-10.6794
▁juns	-10.6795
▁emotions	-10.68
▁pickles	-10.68
▁ration	-10.68
▁rd	-10.6801
▁chin	-10.6808
▁dates	-10.6814
▁robe	-10.6821
▁pretending	-10.6822
▁paws	-10.6828
▁shared	-10.6834
▁cracking	-10.684
▁peek	-10.6846
▁freaking	-10.6851
▁musical	-10.6868
▁cookies	-10.6872
▁gut	-10.6877
▁smaller	-10.6881
▁affairs	-10.6885
▁safely	-10.6887
▁packing	-10.6893
amin	-10.6894
▁filling	-10.6898
▁snacks	-10.6911
▁tested	-10.6921
bre	-10.6929
▁tunnels	-10.6939
▁kicked	-10.6962
tical	-10.697
▁pipes	-10.699
▁servants	-10.6996
plan	-10.7
▁offering	-10.7003
▁mouthing	-10.7008
▁torture	-10.7015
▁rolled	-10.7031
▁parker	-10.7047
col	-10.7068
▁nerves	-10.708
▁ink	-10.7111
▁rod	-10.7119
▁rolling	-10.712
▁tests	-10.7126
▁cameras	-10.7131
▁traps	-10.7137
▁sucks	-10.7138
▁habitat	-10.7148
gas	-10.716
▁nd	-10.7174
▁danced	-10.718
▁centr	-10.7212
ax	-10.722
▁bid	-10.7224
▁answered	-10.7225
▁dreamed	-10.7243
pl	-10.7246
▁blu	-10.7249
▁finance	-10.7252
ory	-10.7269
cat	-10.7274
▁currents	-10.728
▁acts	-10.7286
owned	-10.7304
▁handy	-10.7336
inch	-10.734
how	-10.7369
▁serves	-10.7369
▁loo	-10.738
▁prisoners	-10.7381
▁goodies	-10.7387
▁dor	-10.7388
▁catching	-10.7397
▁chickens	-10.7416
▁bayo	-10.7438
ever	-10.7439
▁bot	-10.7453
ility	-10.7461
but	-10.7468
su	-10.7469
▁arts	-10.747
▁bullet	-10.7491
▁elephant	-10.7497
▁affair	-10.75
▁curtain	-10.7503
▁growl	-10.7507
▁folk	-10.751
▁rocket	-10.7515
▁bore	-10.7524
▁wal	-10.7528
ose	-10.7528
▁whip	-10.7537
ode	-10.7549
▁suite	-10.7563
▁hast	-10.7564
aging	-10.7568
▁fighter	-10.7584
▁owl	-10.7588
▁scar	-10.759
▁voices	-10.7609
wan	-10.7614
▁publish	-10.7615
▁she	-10.7624
▁damned	-10.7628
key	-10.7636
▁bum	-10.7655
▁log	-10.7656
▁embarrass	-10.7657
▁hurting	-10.7666
▁theo	-10.7675
fish	-10.7685
▁whistles	-10.7686
▁ahha	-10.7705
▁keeper	-10.7707
▁affect	-10.7707
▁contain	-10.7714
▁corn	-10.7719
▁pour	-10.7723
▁encourage	-10.7729
▁commission	-10.7731
word	-10.7734
bird	-10.7738
half	-10.7739
six	-10.774
▁practical	-10.774
▁drag	-10.7741
▁sex	-10.7743
▁profession	-10.7744
▁morgan	-10.7745
▁mou	-10.7745
▁becomes	-10.7749
shot	-10.7751
▁execut	-10.7751
▁provo	-10.7754
▁achieve	-10.7755
▁mode	-10.7756
▁entertain	-10.7756
titude	-10.7756
▁kidnap	-10.7756
▁argh	-10.7757
▁worship	-10.7758
hearted	-10.7758
▁allergic	-10.7758
▁apologies	-10.7758
▁associate	-10.7758
▁awkward	-10.7758
▁belgium	-10.7758
▁bikini	-10.7758
▁blotz	-10.7758
▁buffet	-10.7758
▁bustopher	-10.7758
▁chauffeur	-10.7758
▁cinnamon	-10.7758
▁civilization	-10.7758
▁column	-10.7758
▁crikey	-10.7758
▁curiosity	-10.7758
▁demonstration	-10.7758
▁dialogue	-10.7758
▁diddly	-10.7758
▁disagree	-10.7758
▁district	-10.7758
▁eberhardt	-10.7758
▁elbow	-10.7758
▁emmett	-10.7758
▁environment	-10.7758
▁establish	-10.7758
▁eternity	-10.7758
▁fommy	-10.7758
▁gamble	-10.7758
▁gavin	-10.7758
▁godfather	-10.7758
▁granada	-10.7758
▁guidance	-10.7758
▁harbor	-10.7758
▁hilarious	-10.7758
▁himmel	-10.7758
▁identify	-10.7758
▁industri	-10.7758
▁injured	-10.7758
▁inspiration	-10.7758
▁isaac	-10.7758
▁kazuhiko	-10.7758
▁kirk	-10.7758
▁kovac	-10.7758
▁kramer	-10.7758
▁lecture	-10.7758
▁librarian	-10.7758
▁lobby	-10.7758
▁magnificent	-10.7758
▁magruder	-10.7758
▁metaphor	-10.7758
▁montana	-10.7758
▁muskie	-10.7758
▁napoleon	-10.7758
▁necklace	-10.7758
▁oclock	-10.7758
▁orchard	-10.7758
▁orleans	-10.7758
▁overreact	-10.7758
▁peanut	-10.7758
▁perimeter	-10.7758
▁permanent	-10.7758
▁platoon	-10.7758
▁preacher	-10.7758
▁prevent	-10.7758
▁privacy	-10.7758
▁regulator	-10.7758
▁romance	-10.7758
▁rupert	-10.7758
▁schuyler	-10.7758
▁september	-10.7758
▁sequence	-10.7758
▁sherlock	-10.7758
▁shield	-10.7758
▁slaghoople	-10.7758
▁socalled	-10.7758
▁symbol	-10.7758
▁tragic	-10.7758
▁undercover	-10.7758
▁unexpected	-10.7758
▁unicorn	-10.7758
▁unnatural	-10.7758
▁wainwright	-10.7758
▁whiskey	-10.7758
▁agency	-10.7758
▁aruk	-10.7758
▁becoming	-10.7758
▁chorus	-10.7758
▁couid	-10.7758
▁hardware	-10.7758
▁introduction	-10.7758
▁kelp	-10.7758
▁kilbourne	-10.7758
▁phew	-10.7758
▁recruit	-10.7758
▁watson	-10.7758
▁wiggin	-10.7758
▁worid	-10.7758
▁airplane	-10.7758
▁battery	-10.7758
▁epic	-10.7758
▁frau	-10.7758
▁polish	-10.7758
▁threatened	-10.7758
▁worn	-10.7758
▁mourn	-10.7758
▁frost	-10.7758
▁application	-10.7758
▁oven	-10.7758
▁serum	-10.7758
▁exterminator	-10.7758
▁adopt	-10.7758
▁rapping	-10.7758
▁ryan	-10.7758
▁krauts	-10.7758
▁liquid	-10.7758
▁lump	-10.7758
▁balloon	-10.7758
▁facing	-10.7758
▁shopping	-10.7758
▁menace	-10.7758
▁keen	-10.7758
▁authorities	-10.7758
▁mumbling	-10.7758
▁gulls	-10.7758
▁conquer	-10.7758
▁denmark	-10.7758
▁celebrating	-10.7758
▁albert	-10.7758
▁halt	-10.7758
▁splash	-10.7758
▁budget	-10.7758
▁interfere	-10.7758
▁fireworks	-10.7758
▁pluck	-10.7758
▁hitchhikers	-10.7758
▁coleye	-10.7758
▁depressed	-10.7758
▁hmph	-10.7759
▁blaze	-10.7759
▁toronto	-10.7759
▁triumphant	-10.7759
▁ahoy	-10.7759
▁unknown	-10.7759
▁comedian	-10.7759
▁sniffles	-10.7759
▁leap	-10.7759
▁estate	-10.7759
▁leak	-10.7759
▁television	-10.7759
▁possibility	-10.7759
▁calculat	-10.7759
▁blend	-10.7759
▁spark	-10.7759
▁cluck	-10.7759
▁ashley	-10.7759
▁vocaliz	-10.776
▁rubble	-10.776
▁lew	-10.776
▁tasty	-10.776
▁blake	-10.776
▁trunk	-10.776
▁reception	-10.776
▁mammal	-10.776
▁argue	-10.776
▁bootleg	-10.776
▁pony	-10.776
▁tech	-10.7761
▁baseball	-10.7761
▁mask	-10.7761
logy	-10.7761
▁paperwork	-10.7761
▁oooh	-10.7761
▁troll	-10.7761
▁tinker	-10.7761
▁forth	-10.7762
▁physical	-10.7762
▁grove	-10.7762
▁gateway	-10.7762
▁reflection	-10.7762
▁happier	-10.7762
▁mexico	-10.7763
▁courtland	-10.7763
▁poisonous	-10.7763
▁mick	-10.7763
▁bedford	-10.7763
▁humor	-10.7764
▁galactic	-10.7764
▁tuna	-10.7764
xious	-10.7765
▁benny	-10.7765
▁rug	-10.7765
▁eve	-10.7765
▁dull	-10.7765
▁spotted	-10.7765
▁torpedoes	-10.7766
▁data	-10.7766
▁shave	-10.7766
▁after	-10.7766
▁assist	-10.7766
▁distorted	-10.7766
▁clawson	-10.7766
▁freezing	-10.7766
▁household	-10.7766
▁drake	-10.7767
▁bandage	-10.7767
▁chapin	-10.7767
▁andrew	-10.7768
inister	-10.7768
▁drove	-10.7768
▁hideous	-10.7768
▁amongst	-10.7768
▁machinery	-10.7769
▁communication	-10.7769
▁torn	-10.777
▁crop	-10.777
▁yoho	-10.7771
▁poll	-10.7771
▁chopp	-10.7771
▁stir	-10.7772
▁crimes	-10.7774
▁attach	-10.7776
▁humanity	-10.7777
▁organized	-10.7778
▁jock	-10.7779
▁suggestion	-10.7779
▁hugh	-10.7779
▁gag	-10.7779
▁delighted	-10.7782
▁standard	-10.7784
▁moor	-10.7787
▁sore	-10.7787
▁pup	-10.7789
▁cocky	-10.779
▁barnes	-10.779
▁pork	-10.779
cent	-10.7792
▁jackie	-10.7799
▁sole	-10.78
▁films	-10.7804
▁usses	-10.7805
▁wounded	-10.7808
▁nailed	-10.7811
▁restore	-10.7812
▁rever	-10.7815
▁momma	-10.7815
▁hint	-10.7818
▁aunts	-10.7819
▁tribe	-10.7822
▁naturally	-10.7825
▁putty	-10.7825
▁hunger	-10.7825
▁intended	-10.7829
▁reality	-10.7831
▁remark	-10.7833
▁instincts	-10.7836
▁blasted	-10.784
▁authoriz	-10.7842
▁realise	-10.7842
▁pep	-10.7852
▁developed	-10.7856
▁exam	-10.7856
▁naked	-10.7857
▁lighten	-10.7858
▁foryou	-10.7859
▁tempt	-10.786
▁addie	-10.7862
▁contacts	-10.7863
▁blokes	-10.7867
istic	-10.7867
▁myst	-10.7868
▁confirmed	-10.787
its	-10.7875
▁hack	-10.7884
▁pope	-10.7885
tain	-10.7887
▁admir	-10.7889
▁blessing	-10.7891
unk	-10.7907
▁traveler	-10.7909
▁sling	-10.7925
▁messy	-10.7931
▁statue	-10.7932
range	-10.7933
tore	-10.7933
▁deeper	-10.7944
▁transferr	-10.7949
▁what	-10.7952
▁fog	-10.7955
▁sailing	-10.7961
▁remaining	-10.7987
▁coll	-10.7989
omic	-10.799
▁vern	-10.7991
ugh	-10.7992
▁imagined	-10.8
nel	-10.8012
▁ag	-10.8014
▁activate	-10.8018
tty	-10.802
▁bullets	-10.8024
▁faithful	-10.8027
fin	-10.8032
try	-10.8041
▁revs	-10.8047
▁searching	-10.8047
▁plug	-10.8055
▁feathers	-10.8055
omin	-10.806
▁ti	-10.8066
▁tag	-10.8069
▁bothering	-10.8072
▁drawings	-10.809
▁mati	-10.8106
▁bri	-10.8131
var	-10.8133
▁testing	-10.8135
lot	-10.8142
▁melt	-10.8147
▁shown	-10.8147
▁lan	-10.8147
▁mates	-10.8153
nows	-10.8171
▁maids	-10.8183
▁fits	-10.8185
sick	-10.8186
▁nate	-10.82
▁losers	-10.8209
▁grounded	-10.8221
▁quote	-10.8223
▁mort	-10.8246
▁pirates	-10.8246
▁bulls	-10.8255
▁pine	-10.826
▁rag	-10.8262
ically	-10.8274
▁mammoths	-10.8278
▁bangs	-10.8281
▁tomb	-10.8316
▁lovers	-10.8325
▁hm	-10.8339
▁nod	-10.8371
▁exp	-10.8386
aunt	-10.8395
▁roses	-10.8413
▁ai	-10.842
▁hike	-10.8422
▁toys	-10.8424
▁magn	-10.8424
▁adventures	-10.8434
▁eu	-10.8437
▁cent	-10.8444
▁dia	-10.8459
▁mee	-10.8463
eah	-10.8471
uld	-10.8476
▁pl	-10.8488
▁swis	-10.8489
▁stinks	-10.849
▁pla	-10.8497
eyed	-10.8507
▁funds	-10.8529
▁ei	-10.8533
mber	-10.8543
hen	-10.8543
▁tab	-10.8585
▁cleared	-10.8598
▁exists	-10.8605
▁chap	-10.8636
▁pip	-10.8644
▁pies	-10.8645
▁hom	-10.869
▁strings	-10.8701
▁cups	-10.8702
▁click	-10.8706
get	-10.8711
▁bottles	-10.8733
▁cigarette	-10.8745
▁coffin	-10.8747
▁klopek	-10.8754
▁glove	-10.8756
▁chipmunk	-10.8759
▁beside	-10.8764
▁deer	-10.8771
▁bent	-10.8776
▁cookie	-10.8777
▁pant	-10.878
▁bog	-10.8812
▁stag	-10.885
▁toe	-10.8854
▁ec	-10.887
▁ana	-10.8891
xie	-10.8906
▁haunt	-10.8909
▁ft	-10.8909
▁frighten	-10.8913
▁wit	-10.8916
rav	-10.8918
▁chop	-10.8929
break	-10.8931
▁strikes	-10.8932
▁flag	-10.8938
▁gla	-10.8951
▁howl	-10.8955
▁rend	-10.8957
anda	-10.8961
▁disappoint	-10.8961
▁enchant	-10.8963
▁abandon	-10.8963
▁terror	-10.8965
bal	-10.8966
▁doom	-10.8974
▁medi	-10.8975
▁compare	-10.8979
walk	-10.8984
girl	-10.8984
print	-10.8986
▁custom	-10.8986
soviet	-10.8987
▁constant	-10.8988
point	-10.8988
bound	-10.899
power	-10.899
pitch	-10.899
handed	-10.8991
▁slap	-10.8994
dress	-10.8995
▁wander	-10.8996
▁cha	-10.8997
wise	-10.8998
▁examine	-10.8998
▁torpedo	-10.8999
▁mere	-10.9
▁muck	-10.9001
▁movin	-10.9003
▁tire	-10.9003
brain	-10.9006
ograph	-10.9006
▁dodge	-10.9007
▁confident	-10.9007
▁journal	-10.9007
▁vandal	-10.9007
▁chivalr	-10.9008
▁circuit	-10.9008
▁altogether	-10.9008
▁antidote	-10.9008
▁arriving	-10.9008
▁assassin	-10.9008
▁assault	-10.9008
▁atlantis	-10.9008
▁august	-10.9008
▁automated	-10.9008
▁behaviour	-10.9008
▁bounty	-10.9008
▁cabillo	-10.9008
▁ceiling	-10.9008
▁clarissa	-10.9008
▁consultant	-10.9008
▁custody	-10.9008
▁destination	-10.9008
▁dinosaurs	-10.9008
▁doublecross	-10.9008
▁dungeon	-10.9008
▁enterprise	-10.9008
▁explosive	-10.9008
▁froze	-10.9008
▁function	-10.9008
▁gardiner	-10.9008
▁gremlin	-10.9008
▁hanover	-10.9008
▁identification	-10.9008
▁intellectual	-10.9008
▁jeff	-10.9008
▁kavula	-10.9008
▁kirstie	-10.9008
▁length	-10.9008
▁luggage	-10.9008
▁macgregor	-10.9008
▁macmorrow	-10.9008
▁mckeltch	-10.9008
▁meadow	-10.9008
▁merchandise	-10.9008
▁minimum	-10.9008
▁nassau	-10.9008
▁negotiat	-10.9008
▁nemesis	-10.9008
▁overseas	-10.9008
▁periscope	-10.9008
▁politics	-10.9008
▁popcorn	-10.9008
▁procedure	-10.9008
▁purchase	-10.9008
▁rainbow	-10.9008
▁reservation	-10.9008
▁resumes	-10.9008
▁ribbon	-10.9008
▁rinaldi	-10.9008
▁roadblock	-10.9008
▁safari	-10.9008
▁satisfaction	-10.9008
▁schmidlapp	-10.9008
▁sedative	-10.9008
▁sentimental	-10.9008
▁shivers	-10.9008
▁signature	-10.9008
▁softpaws	-10.9008
▁stepsisters	-10.9008
▁stroke	-10.9008
▁struther	-10.9008
▁sunflower	-10.9008
▁tournament	-10.9008
▁trophy	-10.9008
▁unhappy	-10.9008
▁vegetable	-10.9008
▁vegetarian	-10.9008
▁violence	-10.9008
▁violent	-10.9008
▁volume	-10.9008
▁wednesday	-10.9008
▁woohoo	-10.9008
▁yoohoo	-10.9008
▁duties	-10.9008
▁inject	-10.9008
▁instance	-10.9008
▁kaiser	-10.9008
▁machete	-10.9008
▁marcus	-10.9008
▁melvin	-10.9008
▁ncaa	-10.9008
▁neglect	-10.9008
▁puke	-10.9008
▁ruth	-10.9008
▁ufo	-10.9008
▁vomit	-10.9008
▁caesar	-10.9008
▁nfl	-10.9008
▁patties	-10.9008
▁spook	-10.9008
▁vlad	-10.9008
▁clerk	-10.9008
▁clinic	-10.9008
▁hyperspace	-10.9008
▁snores	-10.9008
▁whatsoever	-10.9008
▁barrel	-10.9008
▁footprints	-10.9008
▁japanese	-10.9008
▁valve	-10.9008
▁vault	-10.9008
▁wailing	-10.9008
▁gokart	-10.9008
▁aisle	-10.9008
▁narrow	-10.9008
▁warrant	-10.9008
▁begging	-10.9008
▁equipped	-10.9008
▁restrain	-10.9008
▁indicate	-10.9008
▁details	-10.9008
▁carpet	-10.9008
▁pregnant	-10.9008
▁ivory	-10.9008
▁basically	-10.9008
▁wages	-10.9008
▁conclusion	-10.9008
▁robbie	-10.9008
▁tolerate	-10.9008
▁undertake	-10.9008
▁moans	-10.9008
▁canada	-10.9008
▁venom	-10.9008
▁underground	-10.9008
▁zamu	-10.9008
▁smite	-10.9008
▁chimney	-10.9008
▁sobs	-10.9008
▁summon	-10.9008
▁snuck	-10.9009
▁ltaly	-10.9009
▁broadway	-10.9009
inlaw	-10.9009
▁rummag	-10.9009
▁whatwhat	-10.9009
▁whorehouse	-10.9009
▁occurred	-10.9009
▁riff	-10.9009
▁lunatic	-10.9009
▁vermin	-10.9009
▁ashore	-10.9009
▁smoking	-10.9009
▁pacific	-10.9009
▁jeanette	-10.9009
▁quarr	-10.9009
▁network	-10.9009
▁stray	-10.9009
▁diana	-10.9009
▁expensive	-10.9009
▁fifteen	-10.9009
▁southwest	-10.9009
hurst	-10.901
▁cried	-10.901
▁passionate	-10.901
▁avenue	-10.901
▁sheep	-10.901
▁inaudible	-10.901
▁welch	-10.901
▁beak	-10.901
▁untie	-10.901
▁severe	-10.901
▁sample	-10.901
▁operative	-10.901
▁moonlight	-10.901
▁silk	-10.901
▁institution	-10.901
▁reaction	-10.901
▁mega	-10.901
▁series	-10.901
▁disappointment	-10.9011
▁thread	-10.9011
▁mental	-10.9011
ification	-10.9011
▁depth	-10.9011
▁mica	-10.9011
▁gregory	-10.9011
▁mutters	-10.9011
▁advisor	-10.9012
▁giri	-10.9012
▁peck	-10.9012
▁frame	-10.9012
▁ruff	-10.9012
▁flock	-10.9012
▁locks	-10.9012
▁appearance	-10.9012
▁conduct	-10.9012
▁coke	-10.9012
▁craft	-10.9012
▁automatic	-10.9012
▁owns	-10.9012
▁qualified	-10.9012
▁religion	-10.9012
▁western	-10.9012
▁kitten	-10.9012
▁twa	-10.9013
▁nursery	-10.9013
▁stuntman	-10.9013
▁pads	-10.9013
▁emotional	-10.9013
▁rumble	-10.9013
▁drinkwater	-10.9014
▁housekeeper	-10.9014
▁instructor	-10.9014
▁flown	-10.9014
▁surgeon	-10.9014
▁patty	-10.9014
▁development	-10.9015
▁overtime	-10.9015
▁villagers	-10.9015
▁kart	-10.9015
▁alike	-10.9016
▁objective	-10.9016
▁wholl	-10.9016
▁bravery	-10.9016
▁european	-10.9016
▁ramp	-10.9017
▁minus	-10.9017
▁poem	-10.9018
▁management	-10.9018
▁tooth	-10.9018
▁zachary	-10.9018
▁mit	-10.9019
▁exterminate	-10.9019
▁rapidly	-10.9019
▁media	-10.9019
▁terrifying	-10.9019
▁smack	-10.9019
▁perth	-10.902
▁bleh	-10.902
▁bible	-10.902
▁through	-10.9021
▁determined	-10.9021
▁waltz	-10.9021
▁silo	-10.9021
▁humble	-10.9021
▁eastern	-10.9022
▁milo	-10.9023
▁snowman	-10.9023
▁mullet	-10.9024
▁kat	-10.9024
▁production	-10.9024
▁crest	-10.9025
▁passage	-10.9026
▁applauding	-10.9026
▁sixty	-10.9028
▁headline	-10.903
▁dough	-10.903
▁pose	-10.9032
itive	-10.9035
▁vac	-10.9036
▁poet	-10.9036
▁fairies	-10.9037
▁judging	-10.9039
▁assigned	-10.9041
▁revealed	-10.9041
gail	-10.9043
▁shipment	-10.9048
▁they	-10.9048
▁yah	-10.905
▁rookie	-10.905
stein	-10.9051
▁gump	-10.9052
▁doomed	-10.9053
▁showtime	-10.9055
▁brandy	-10.9055
▁dana	-10.9056
▁classic	-10.9057
▁exploded	-10.9058
▁attached	-10.9059
▁thus	-10.9061
▁apply	-10.9062
▁cackles	-10.9062
▁frightening	-10.9063
mobile	-10.9064
▁cello	-10.9067
eck	-10.9068
▁barker	-10.9073
▁por	-10.9076
▁haul	-10.9079
▁produce	-10.9079
▁asses	-10.9083
▁ruby	-10.9084
▁earned	-10.9085
ological	-10.9089
▁swallowed	-10.9089
▁funk	-10.909
▁mature	-10.9092
▁fork	-10.9094
▁dreamers	-10.9094
▁hah	-10.9095
▁daytime	-10.9095
dine	-10.9098
▁scheduled	-10.9098
▁nighttime	-10.91
▁ki	-10.9102
▁sav	-10.9103
▁released	-10.9106
▁nut	-10.9108
▁horri	-10.911
▁mating	-10.9111
▁kisses	-10.9112
▁cheating	-10.9115
▁hmmm	-10.9119
▁shocked	-10.9126
▁gathered	-10.9126
▁coaches	-10.913
▁charts	-10.9133
▁pear	-10.9134
▁raf	-10.9141
▁requested	-10.9144
▁granted	-10.915
iii	-10.9153
▁suggested	-10.9156
anger	-10.9157
▁collecting	-10.9159
▁sinking	-10.916
▁some	-10.9163
▁stretching	-10.9166
type	-10.9168
▁gig	-10.9175
▁op	-10.9179
ang	-10.9181
▁chased	-10.9185
▁che	-10.9187
▁successful	-10.9188
▁peep	-10.9194
▁climbed	-10.9195
▁thrown	-10.9195
▁escaped	-10.9199
▁shortly	-10.9203
▁considering	-10.9204
▁dope	-10.9205
headed	-10.9208
▁dreamt	-10.9209
▁za	-10.9211
▁traveled	-10.9212
ome	-10.9222
▁reminded	-10.9224
ified	-10.9229
▁rescued	-10.9236
▁shatters	-10.924
▁vogons	-10.924
▁manners	-10.9241
▁kin	-10.9265
▁damp	-10.927
▁coffins	-10.9276
▁pinch	-10.9278
▁quicker	-10.9281
▁sticky	-10.9294
▁laying	-10.9302
▁visiting	-10.9309
▁elephants	-10.9312
▁crashed	-10.9317
▁charged	-10.9325
▁beard	-10.9328
▁rely	-10.9346
where	-10.9349
lent	-10.9353
inky	-10.9365
▁speeding	-10.9367
▁bullie	-10.9369
▁teaching	-10.9374
▁tracking	-10.9376
▁them	-10.9377
▁mug	-10.9382
pol	-10.9383
ini	-10.94
▁peel	-10.94
▁scan	-10.9417
▁magazines	-10.9421
▁cigars	-10.9421
▁neighbours	-10.9421
▁invade	-10.9421
ular	-10.943
ante	-10.943
▁feared	-10.9439
night	-10.9472
▁rehydrate	-10.9474
▁claws	-10.9486
▁photographs	-10.9492
▁missiles	-10.9494
▁babysit	-10.9505
position	-10.953
▁timing	-10.9538
▁boxing	-10.9551
▁imitat	-10.9552
▁yank	-10.956
▁spits	-10.9563
▁ban	-10.9571
▁continu	-10.9602
▁emojis	-10.9603
▁ng	-10.9624
▁tru	-10.9625
▁investigate	-10.9634
▁coins	-10.9641
▁dada	-10.9647
▁dragons	-10.9678
gh	-10.9694
van	-10.9717
▁formal	-10.9724
lade	-10.9754
dest	-10.9787
▁priests	-10.9788
▁beasts	-10.9825
▁stor	-10.9835
burg	-10.9838
▁capital	-10.9844
eye	-10.9845
▁bor	-10.9907
▁provid	-10.9921
sters	-10.9922
▁wad	-10.9951
▁ooo	-10.9963
iers	-10.9972
ddy	-10.9987
berry	-11.0026
lier	-11.0034
▁dive	-11.005
hle	-11.005
▁trans	-11.0077
▁via	-11.0094
oui	-11.012
eau	-11.0124
▁hopeless	-11.0133
aah	-11.0136
▁vogon	-11.0173
▁manner	-11.018
▁warrior	-11.0181
▁brake	-11.0181
▁recipe	-11.0183
▁shatter	-11.0184
▁arrangement	-11.0184
▁ram	-11.0188
▁flak	-11.0191
▁turner	-11.0202
▁rust	-11.0205
▁paw	-11.0212
cru	-11.0257
kee	-11.0279
▁cro	-11.029
▁med	-11.0291
hem	-11.0291
acker	-11.0338
▁atta	-11.0347
▁bare	-11.0353
▁flee	-11.036
look	-11.0361
▁tradition	-11.0371
▁spawn	-11.0381
▁neigh	-11.0383
▁accord	-11.0384
ffel	-11.0387
▁assum	-11.039
▁fau	-11.0391
bel	-11.0392
school	-11.0399
▁swor	-11.0401
▁gato	-11.0402
▁approve	-11.0408
▁arrange	-11.0409
mortality	-11.0411
▁guilt	-11.0411
▁inde	-11.0414
would	-11.0417
train	-11.0417
charge	-11.0418
▁precise	-11.0419
▁but	-11.0421
beard	-11.0421
▁goddam	-11.0422
▁cruise	-11.0425
bell	-11.0425
▁jac	-11.0426
▁cloth	-11.0428
▁possess	-11.043
▁brag	-11.043
▁recent	-11.043
▁livin	-11.0431
▁prank	-11.0433
▁chub	-11.0435
▁scram	-11.0435
▁burro	-11.0436
▁forbid	-11.0436
misunderstanding	-11.0436
▁accurate	-11.0436
▁admission	-11.0436
▁allamerican	-11.0436
▁ambien	-11.0436
▁amulet	-11.0436
▁anderson	-11.0436
▁anniversary	-11.0436
▁anonymous	-11.0436
▁apologise	-11.0436
▁appetite	-11.0436
▁artichokie	-11.0436
▁beacon	-11.0436
▁believing	-11.0436
▁beverage	-11.0436
▁bishop	-11.0436
▁clamoring	-11.0436
▁clarinet	-11.0436
▁combined	-11.0436
▁concession	-11.0436
▁condemn	-11.0436
▁consequences	-11.0436
▁convenient	-11.0436
▁cottage	-11.0436
▁davis	-11.0436
▁demonstrate	-11.0436
▁discount	-11.0436
▁disrespect	-11.0436
▁embassy	-11.0436
▁escaping	-11.0436
▁evacuate	-11.0436
▁fireplace	-11.0436
▁fortress	-11.0436
▁fortyfive	-11.0436
▁furnace	-11.0436
▁gibberish	-11.0436
▁guignol	-11.0436
▁hartmann	-11.0436
▁heffley	-11.0436
▁helmet	-11.0436
▁humphrey	-11.0436
▁impact	-11.0436
▁imprisoned	-11.0436
▁improbability	-11.0436
▁initial	-11.0436
▁jennyanydots	-11.0436
▁jersey	-11.0436
▁joanna	-11.0436
▁keynote	-11.0436
▁liliane	-11.0436
▁lincoln	-11.0436
▁lyric	-11.0436
▁maude	-11.0436
▁mcgovern	-11.0436
▁mcmillan	-11.0436
▁meerkat	-11.0436
▁mombasa	-11.0436
▁nijmegen	-11.0436
▁opposite	-11.0436
▁orchestra	-11.0436
▁papillon	-11.0436
▁peopie	-11.0436
▁profound	-11.0436
▁proposal	-11.0436
▁puddle	-11.0436
▁puppies	-11.0436
▁pursue	-11.0436
▁pursuit	-11.0436
▁quintel	-11.0436
▁reject	-11.0436
▁representative	-11.0436
▁revoir	-11.0436
▁reynolds	-11.0436
▁roosevelt	-11.0436
▁saliva	-11.0436
▁satisfied	-11.0436
▁schirmer	-11.0436
▁sensation	-11.0436
▁separation	-11.0436
▁shabby	-11.0436
▁skimbleshanks	-11.0436
▁stamps	-11.0436
▁stanley	-11.0436
▁struggle	-11.0436
▁stubborn	-11.0436
▁tahiti	-11.0436
▁technology	-11.0436
▁theodora	-11.0436
▁thorough	-11.0436
▁throttle	-11.0436
▁tissue	-11.0436
▁transylvania	-11.0436
▁trauma	-11.0436
▁unpleasant	-11.0436
▁volcano	-11.0436
▁anchor	-11.0436
▁beryl	-11.0436
▁bonnie	-11.0436
▁circulat	-11.0436
▁comanche	-11.0436
▁devot	-11.0436
▁gordon	-11.0436
▁inherit	-11.0436
▁install	-11.0436
▁kattie	-11.0436
▁leonard	-11.0436
▁predator	-11.0436
▁propeller	-11.0436
▁reopen	-11.0436
▁sunrise	-11.0436
▁tackle	-11.0436
▁waitzkin	-11.0436
▁wakati	-11.0436
▁fierce	-11.0436
▁grady	-11.0436
▁grasp	-11.0436
▁guinea	-11.0436
▁obliged	-11.0436
▁polk	-11.0436
▁slaughter	-11.0436
▁typical	-11.0436
▁scandal	-11.0436
▁hush	-11.0436
▁inhales	-11.0436
▁niece	-11.0436
▁scoop	-11.0436
▁terence	-11.0436
▁amusing	-11.0436
▁bunion	-11.0436
▁kidnapping	-11.0436
▁stallyn	-11.0436
▁thug	-11.0436
▁crust	-11.0437
▁linden	-11.0437
▁tarik	-11.0437
▁taylor	-11.0437
▁appeal	-11.0437
▁bbc	-11.0437
▁harsh	-11.0437
▁tennis	-11.0437
▁vital	-11.0437
▁presence	-11.0437
▁adios	-11.0437
▁decoy	-11.0437
▁villain	-11.0437
▁email	-11.0437
▁grape	-11.0437
▁hysterical	-11.0437
▁teenage	-11.0437
▁angle	-11.0437
▁conscience	-11.0437
▁joelle	-11.0437
▁masai	-11.0437
▁gulp	-11.0437
▁grocer	-11.0437
▁generator	-11.0437
▁darlin	-11.0437
▁pigeon	-11.0437
▁carrot	-11.0437
▁nadya	-11.0437
▁opposition	-11.0437
▁regiment	-11.0437
▁polar	-11.0437
maker	-11.0437
▁absent	-11.0437
▁alumn	-11.0437
▁portrait	-11.0437
▁slug	-11.0437
▁wither	-11.0437
▁drool	-11.0437
▁groove	-11.0437
▁promot	-11.0437
▁waitress	-11.0437
▁appreciation	-11.0437
▁basic	-11.0437
▁bolt	-11.0437
▁consist	-11.0437
▁lodge	-11.0437
▁francisco	-11.0437
▁gonzo	-11.0437
▁lgor	-11.0437
▁lousy	-11.0437
▁downtown	-11.0437
▁glide	-11.0437
▁outrageous	-11.0437
▁referring	-11.0437
▁download	-11.0437
▁thornton	-11.0437
▁reference	-11.0437
▁nuns	-11.0437
▁flashlight	-11.0437
▁erwin	-11.0437
▁definit	-11.0437
▁yuck	-11.0437
▁burden	-11.0437
▁breed	-11.0437
▁online	-11.0437
▁penalty	-11.0437
▁squash	-11.0437
▁basketball	-11.0437
▁addict	-11.0437
▁bingo	-11.0437
▁update	-11.0438
▁humour	-11.0438
▁entry	-11.0438
▁misery	-11.0438
▁confusion	-11.0438
▁nbs	-11.0438
▁sharing	-11.0438
▁dyke	-11.0438
▁denver	-11.0438
▁civilian	-11.0438
▁lyle	-11.0438
▁strand	-11.0438
▁privilege	-11.0438
▁martial	-11.0438
▁blixen	-11.0438
▁dwell	-11.0438
▁nerd	-11.0438
▁scatting	-11.0438
▁franco	-11.0439
▁banner	-11.0439
▁route	-11.0439
▁wrapped	-11.0439
▁colley	-11.0439
▁stiff	-11.0439
▁soap	-11.0439
▁furious	-11.0439
▁survival	-11.0439
▁oath	-11.044
▁cheerful	-11.044
▁astr	-11.044
▁rover	-11.044
▁hostage	-11.044
▁affection	-11.044
▁ladybug	-11.044
▁rebel	-11.044
▁didi	-11.044
▁coup	-11.0441
▁rattl	-11.0441
▁luna	-11.0441
▁patton	-11.0442
▁tob	-11.0442
▁teddy	-11.0442
▁whatre	-11.0442
▁election	-11.0442
▁childhood	-11.0443
▁beau	-11.0443
▁beings	-11.0443
▁salary	-11.0443
▁echoes	-11.0443
▁organist	-11.0443
▁acid	-11.0443
▁grownup	-11.0443
▁scramble	-11.0443
▁paranoid	-11.0443
▁mold	-11.0443
▁trill	-11.0443
plement	-11.0444
▁electricity	-11.0444
▁riverton	-11.0445
▁satan	-11.0445
▁barber	-11.0445
▁unborn	-11.0445
▁chimes	-11.0445
▁sector	-11.0445
▁robinson	-11.0445
▁irish	-11.0445
▁elsewhere	-11.0446
▁swat	-11.0446
care	-11.0446
▁missionary	-11.0446
▁slightest	-11.0446
▁booth	-11.0446
▁butterfly	-11.0447
▁inspired	-11.0447
▁meanwhile	-11.0448
▁fame	-11.0448
▁harmless	-11.0448
▁magician	-11.0449
▁tonic	-11.0449
▁sneakers	-11.0449
▁eastman	-11.0449
▁breakdown	-11.0449
▁tempo	-11.0449
▁coco	-11.0449
▁trespassing	-11.045
▁shaw	-11.045
▁broom	-11.045
▁ache	-11.045
▁hoof	-11.0451
▁dim	-11.0451
▁teen	-11.0451
▁geek	-11.0451
▁robotic	-11.0452
▁flies	-11.0452
▁pox	-11.0452
▁approaches	-11.0453
▁wellknown	-11.0454
▁ciao	-11.0454
▁footage	-11.0454
▁suspended	-11.0454
▁gro	-11.0454
▁litera	-11.0454
▁feei	-11.0455
▁cir	-11.0456
▁nearby	-11.0456
▁examiner	-11.0456
▁romeo	-11.0456
▁verse	-11.0457
▁pail	-11.0457
▁roommate	-11.0458
card	-11.0459
mund	-11.0459
▁takin	-11.0459
▁distraction	-11.0459
▁confirmation	-11.046
▁hank	-11.046
▁zit	-11.046
▁woodsman	-11.0461
▁accomplished	-11.0461
▁refer	-11.0461
eval	-11.0461
▁tele	-11.0462
▁voi	-11.0463
▁andrea	-11.0463
▁tug	-11.0468
▁hol	-11.0469
▁metro	-11.047
▁and	-11.047
▁peru	-11.0472
▁stew	-11.0473
▁dc	-11.0474
▁fist	-11.0474
▁instantly	-11.0474
▁snooping	-11.0475
hole	-11.0475
▁brady	-11.0475
▁task	-11.0476
▁dougie	-11.0476
▁label	-11.0479
▁hose	-11.048
▁spite	-11.0485
▁rarely	-11.0486
▁lap	-11.0486
▁reel	-11.0488
havin	-11.0489
▁enchanted	-11.0489
▁slack	-11.0489
▁spawning	-11.0492
▁container	-11.0496
▁published	-11.0497
▁poachers	-11.0499
▁endless	-11.0501
▁blink	-11.0506
▁pouring	-11.0509
▁smiler	-11.0512
▁solved	-11.0512
▁cory	-11.0513
▁anne	-11.0522
▁spoiled	-11.0524
▁ref	-11.0529
▁interrupted	-11.0531
▁ther	-11.0533
rpent	-11.0537
▁yyou	-11.0538
▁workshop	-11.0539
▁coyotes	-11.0541
▁relatives	-11.0541
▁dusty	-11.0541
▁sacrificed	-11.0548
▁sensei	-11.0551
▁straining	-11.0552
▁swap	-11.0552
▁any	-11.0552
▁flashing	-11.0553
▁sucked	-11.0562
▁rollin	-11.0564
▁sneaking	-11.057
▁scratching	-11.057
▁publisher	-11.0571
▁neednt	-11.0578
▁collected	-11.0581
▁banging	-11.0581
▁prawns	-11.0582
▁riddles	-11.0582
▁crows	-11.0583
▁clangs	-11.0583
▁rushing	-11.0595
▁weed	-11.0596
▁gathering	-11.0605
▁jilly	-11.0607
▁lung	-11.0609
▁tasted	-11.061
▁marching	-11.0612
▁dorm	-11.0614
▁blaster	-11.0615
▁expose	-11.0618
▁fairly	-11.0619
▁movement	-11.062
▁risky	-11.0621
▁heels	-11.0624
▁existed	-11.0627
▁lily	-11.0635
▁pale	-11.0638
▁tricky	-11.0652
▁helpful	-11.0655
▁planted	-11.0664
▁ruining	-11.0665
▁fades	-11.0665
▁visitors	-11.0668
▁girlie	-11.0699
ronto	-11.0702
▁corpse	-11.0706
▁jumpy	-11.0711
▁hesitates	-11.0712
▁sucker	-11.0713
▁mulle	-11.0722
▁foundation	-11.0722
▁bien	-11.0725
read	-11.0728
▁ohhh	-11.0741
▁chaps	-11.0745
▁cigarettes	-11.0749
▁hiya	-11.0756
bach	-11.0786
▁cooked	-11.0789
▁operat	-11.079
▁gumb	-11.0792
cro	-11.0793
▁bou	-11.0801
▁comedy	-11.0807
▁fatal	-11.0815
▁risking	-11.0822
▁warming	-11.0837
▁frankie	-11.0862
▁prayers	-11.0901
pit	-11.0921
▁lighter	-11.0931
▁kam	-11.0936
▁graduat	-11.094
▁jets	-11.0958
▁navigate	-11.0965
pped	-11.0984
▁bli	-11.0996
▁indi	-11.0996
▁nato	-11.0999
coat	-11.0999
arm	-11.1005
▁relaxed	-11.1018
▁oof	-11.1039
crete	-11.1042
▁compos	-11.1126
▁eva	-11.1158
▁chim	-11.1165
▁mir	-11.1174
▁alleg	-11.1193
kill	-11.1194
fro	-11.1203
▁sm	-11.1204
▁auto	-11.1205
ause	-11.1219
eight	-11.1264
oola	-11.1266
four	-11.1302
oped	-11.1354
▁dom	-11.1371
▁locat	-11.1383
▁fianc	-11.1385
tze	-11.1397
▁passer	-11.1398
▁yanke	-11.141
▁patch	-11.1411
hold	-11.1427
wau	-11.1427
▁babysitt	-11.1466
▁axe	-11.151
ole	-11.1545
lie	-11.1546
▁ami	-11.1578
▁qu	-11.1599
aaah	-11.1609
▁sixteen	-11.1634
▁wink	-11.1659
▁opera	-11.1686
▁rode	-11.1686
▁parad	-11.1696
▁qui	-11.171
▁ol	-11.1728
▁sigh	-11.1737
▁pint	-11.1739
▁observ	-11.1744
rative	-11.1751
hat	-11.1773
kers	-11.1824
▁emotion	-11.1838
▁bubble	-11.1848
▁citizen	-11.1849
▁degree	-11.185
▁height	-11.1851
▁visitor	-11.1873
▁fade	-11.1874
▁troop	-11.1875
▁that	-11.1875
served	-11.1897
▁trou	-11.1897
asser	-11.1918
▁ble	-11.195
▁whwh	-11.1956
bug	-11.1986
▁athlet	-11.1992
▁demo	-11.1997
▁fright	-11.2
▁immortal	-11.2008
▁psych	-11.201
nette	-11.2022
ooh	-11.2025
▁if	-11.2027
▁snip	-11.2031
▁prepar	-11.2032
▁fern	-11.2035
▁imagin	-11.2037
ground	-11.2043
▁screech	-11.205
▁squeal	-11.205
▁assign	-11.2055
▁thrill	-11.2056
▁register	-11.2058
▁reveal	-11.2058
▁fold	-11.2058
▁squa	-11.2061
▁propose	-11.2074
▁resolve	-11.2074
▁wealth	-11.2076
▁adore	-11.2076
trap	-11.2078
talk	-11.208
version	-11.2082
bury	-11.2082
skull	-11.2083
shoot	-11.2083
wide	-11.2083
worth	-11.2083
piece	-11.2084
minute	-11.2084
▁incredibl	-11.2086
witt	-11.2087
▁dunn	-11.2087
plus	-11.2089
▁assemble	-11.2089
three	-11.2091
chair	-11.2091
boat	-11.2092
▁hawk	-11.2093
gai	-11.2093
▁russia	-11.2094
▁instruct	-11.2094
▁runnin	-11.2099
▁bleed	-11.2099
▁infect	-11.2099
▁depart	-11.2101
ville	-11.2101
▁makin	-11.2101
▁marvel	-11.2102
▁liquor	-11.2103
▁equi	-11.2103
▁counterattack	-11.2103
▁enclos	-11.2103
▁veryfar	-11.2103
greatgrandfather	-11.2103
▁activities	-11.2103
▁affirmative	-11.2103
▁aggressive	-11.2103
▁allergies	-11.2103
▁ambulance	-11.2103
▁anastasia	-11.2103
▁ancestor	-11.2103
▁apprentice	-11.2103
▁argument	-11.2103
▁barbecue	-11.2103
▁belief	-11.2103
▁beware	-11.2103
▁brandnew	-11.2103
▁brannit	-11.2103
▁brisbane	-11.2103
▁brooklyn	-11.2103
▁broussard	-11.2103
▁calendar	-11.2103
▁caviar	-11.2103
▁censor	-11.2103
▁certificate	-11.2103
▁chandelier	-11.2103
▁chitchat	-11.2103
▁circumnavigat	-11.2103
▁circus	-11.2103
▁clinks	-11.2103
▁constitution	-11.2103
▁convenience	-11.2103
▁cuckoo	-11.2103
▁culture	-11.2103
▁dehydrated	-11.2103
▁delinko	-11.2103
▁delirious	-11.2103
▁deodorant	-11.2103
▁dictate	-11.2103
▁diplomat	-11.2103
▁drisella	-11.2103
▁dynamic	-11.2103
▁easiest	-11.2103
▁economy	-11.2103
▁ecstasy	-11.2103
▁educate	-11.2103
▁eleven	-11.2103
▁embrace	-11.2103
▁entitled	-11.2103
▁esquire	-11.2103
▁eugene	-11.2103
▁evanora	-11.2103
▁eyewitness	-11.2103
▁fantasies	-11.2103
▁fountain	-11.2103
▁gibson	-11.2103
▁gracias	-11.2103
▁gypsy	-11.2103
▁hawaii	-11.2103
▁horror	-11.2103
▁hurricane	-11.2103
▁impulse	-11.2103
▁independent	-11.2103
▁indonesia	-11.2103
▁insect	-11.2103
▁jenkins	-11.2103
▁joanne	-11.2103
▁kangaroo	-11.2103
▁karaoke	-11.2103
▁kermie	-11.2103
▁lemchek	-11.2103
▁liberty	-11.2103
▁macarena	-11.2103
▁makebelieve	-11.2103
▁maximum	-11.2103
▁melodrama	-11.2103
▁motorcycle	-11.2103
▁muslim	-11.2103
▁nigel	-11.2103
▁nintendo	-11.2103
▁nogood	-11.2103
▁notorious	-11.2103
▁octopus	-11.2103
▁okeydoke	-11.2103
▁oscar	-11.2103
▁osmosis	-11.2103
▁overwhelm	-11.2103
▁passport	-11.2103
▁pentagon	-11.2103
▁phillips	-11.2103
▁phlurm	-11.2103
▁pistol	-11.2103
▁pittsburgh	-11.2103
▁pneumonia	-11.2103
▁polluted	-11.2103
▁positivity	-11.2103
▁praise	-11.2103
▁preconceptions	-11.2103
▁premier	-11.2103
▁premises	-11.2103
▁province	-11.2103
▁pudding	-11.2103
▁raccoons	-11.2103
▁relentless	-11.2103
▁reluctant	-11.2103
▁rival	-11.2103
▁rochester	-11.2103
▁sabotage	-11.2103
▁satisfy	-11.2103
▁saunders	-11.2103
▁sausage	-11.2103
▁shelves	-11.2103
▁shepherd	-11.2103
▁shoplift	-11.2103
▁shrink	-11.2103
▁slurps	-11.2103
▁snorts	-11.2103
▁soothing	-11.2103
▁spectre	-11.2103
▁spectroscope	-11.2103
▁stadium	-11.2103
▁staircase	-11.2103
▁strategy	-11.2103
▁supervisor	-11.2103
▁suspens	-11.2103
▁suspicion	-11.2103
▁symptom	-11.2103
▁therapy	-11.2103
▁tiffany	-11.2103
▁tokyo	-11.2103
▁traitor	-11.2103
▁trenches	-11.2103
▁tunnei	-11.2103
▁umbrella	-11.2103
▁underwear	-11.2103
▁vessel	-11.2103
▁veterinarian	-11.2103
▁vitamin	-11.2103
▁wharton	-11.2103
▁whiskers	-11.2103
▁wimbo	-11.2103
▁winslow	-11.2103
▁wyoming	-11.2103
▁zords	-11.2103
▁zuzu	-11.2103
▁album	-11.2103
▁aqu	-11.2103
▁bargain	-11.2103
▁bulldozer	-11.2103
▁choking	-11.2103
▁fluffy	-11.2103
▁grief	-11.2103
▁gurney	-11.2103
▁intense	-11.2103
▁mvp	-11.2103
▁plankton	-11.2103
▁reckon	-11.2103
▁steak	-11.2103
▁thuds	-11.2103
▁barnyard	-11.2103
▁bellhop	-11.2103
▁bulk	-11.2103
▁defensi	-11.2103
▁erase	-11.2103
▁lolita	-11.2103
▁mutant	-11.2103
▁obsess	-11.2103
▁reduce	-11.2103
▁session	-11.2103
▁shotgun	-11.2103
▁upepo	-11.2103
▁willat	-11.2103
▁delusion	-11.2103
▁error	-11.2103
▁federal	-11.2103
▁hors	-11.2103
▁hull	-11.2103
▁reboot	-11.2103
▁bootlegging	-11.2103
▁ellman	-11.2103
▁flippers	-11.2103
▁sofa	-11.2103
▁swirl	-11.2103
▁jackpot	-11.2103
▁martinez	-11.2103
▁thump	-11.2103
▁areyou	-11.2103
▁bradlee	-11.2103
▁cherish	-11.2103
▁leftover	-11.2103
▁scraping	-11.2103
▁transmitt	-11.2103
▁essay	-11.2103
▁method	-11.2103
▁panero	-11.2103
▁pki	-11.2103
▁buoy	-11.2103
▁shredding	-11.2103
▁vanished	-11.2103
eroni	-11.2103
▁boston	-11.2103
▁eighteen	-11.2103
▁trousers	-11.2103
▁watt	-11.2103
▁expenses	-11.2103
▁replacements	-11.2103
▁taxes	-11.2103
▁telegram	-11.2103
▁pearls	-11.2103
▁gossip	-11.2103
▁microphone	-11.2103
▁patzer	-11.2103
▁republican	-11.2103
▁britain	-11.2103
▁electron	-11.2103
▁persua	-11.2103
audible	-11.2104
▁skimble	-11.2104
▁scheme	-11.2104
▁shelf	-11.2104
▁gracious	-11.2104
▁mustache	-11.2104
▁bidding	-11.2104
▁doggy	-11.2104
▁columbia	-11.2104
▁coloma	-11.2104
▁explore	-11.2104
▁nickname	-11.2104
▁struck	-11.2104
▁flaming	-11.2104
▁hub	-11.2104
▁relations	-11.2104
▁shudder	-11.2104
▁glitter	-11.2104
▁humina	-11.2104
▁trumpet	-11.2104
▁heaveho	-11.2104
▁felon	-11.2104
▁globa	-11.2104
▁aircraft	-11.2104
▁pompo	-11.2104
▁phase	-11.2104
▁baffle	-11.2104
▁blaming	-11.2104
▁scalp	-11.2104
▁administration	-11.2104
▁recess	-11.2104
oxide	-11.2104
▁bryant	-11.2104
▁donations	-11.2104
▁falk	-11.2104
▁tidy	-11.2104
▁yahoo	-11.2104
▁gulf	-11.2104
▁ahmed	-11.2104
▁kenny	-11.2105
▁teenagers	-11.2105
▁ifyou	-11.2105
▁minister	-11.2105
▁dwarf	-11.2105
▁wildlife	-11.2105
▁murr	-11.2105
▁reaper	-11.2105
▁engagement	-11.2105
▁marries	-11.2105
commend	-11.2105
▁pulse	-11.2105
▁sophie	-11.2105
▁brass	-11.2105
▁trillian	-11.2105
▁indoor	-11.2105
▁corporation	-11.2105
▁juvenile	-11.2105
▁whirl	-11.2105
▁diane	-11.2105
▁ripped	-11.2105
▁gummy	-11.2106
▁psst	-11.2106
▁snapped	-11.2106
▁banish	-11.2106
▁vibra	-11.2106
▁permitted	-11.2106
▁karlin	-11.2106
▁wheat	-11.2106
▁oiwa	-11.2106
▁inspection	-11.2106
▁myth	-11.2106
▁organism	-11.2106
▁respectfully	-11.2106
▁critical	-11.2107
▁festival	-11.2107
▁regional	-11.2107
▁slick	-11.2107
scot	-11.2107
▁oohooh	-11.2107
▁rising	-11.2107
▁dino	-11.2107
▁accidentally	-11.2107
▁begged	-11.2108
▁confin	-11.2108
▁sammy	-11.2108
▁distinguished	-11.2108
▁khan	-11.2108
▁leeches	-11.2108
▁whys	-11.2108
breast	-11.2108
▁slant	-11.2109
▁counselor	-11.2109
▁appointed	-11.2109
▁reign	-11.2109
▁earl	-11.2109
▁retirement	-11.2109
▁cassi	-11.2109
▁travelled	-11.211
▁lyn	-11.211
▁huff	-11.211
▁josephine	-11.211
wipe	-11.211
hello	-11.211
▁defi	-11.211
▁shade	-11.211
▁torch	-11.211
▁creative	-11.211
▁timmy	-11.211
▁disposal	-11.211
▁warden	-11.2111
▁rita	-11.2111
crib	-11.2111
▁pasa	-11.2112
▁raising	-11.2112
▁lamp	-11.2112
▁teri	-11.2112
▁brian	-11.2112
▁upper	-11.2112
▁dishes	-11.2112
▁upside	-11.2112
▁choo	-11.2113
▁unload	-11.2114
▁alley	-11.2114
▁admiral	-11.2114
▁finch	-11.2114
▁preparation	-11.2114
▁travelling	-11.2115
▁barton	-11.2115
▁cocoa	-11.2115
▁twitchy	-11.2115
▁groom	-11.2116
▁waka	-11.2116
▁riot	-11.2116
▁scat	-11.2116
▁bugle	-11.2116
▁cruiser	-11.2117
▁brit	-11.2118
▁perrin	-11.2118
▁exhausting	-11.2119
▁gutter	-11.2119
▁spat	-11.2119
▁barge	-11.2119
▁pact	-11.2119
▁broad	-11.2119
▁inventor	-11.212
▁hospitality	-11.212
▁appar	-11.212
▁moat	-11.2121
▁divided	-11.2121
▁benj	-11.2121
▁betrayal	-11.2122
bone	-11.2122
▁soil	-11.2122
▁ozma	-11.2122
▁razo	-11.2122
▁cries	-11.2122
▁vast	-11.2122
▁itch	-11.2124
▁tutor	-11.2125
▁heir	-11.2125
▁jewel	-11.2125
▁hoist	-11.2127
▁dong	-11.2127
▁bora	-11.2127
▁mustang	-11.2128
▁stung	-11.2129
▁inches	-11.2129
▁coordinates	-11.2131
▁zombies	-11.2131
▁penal	-11.2131
▁growth	-11.2131
▁coverup	-11.2132
▁milles	-11.2132
▁internal	-11.2134
▁ori	-11.2136
▁sang	-11.2137
▁strait	-11.2137
▁warts	-11.2138
▁nathan	-11.2138
▁feature	-11.2141
▁advised	-11.2141
▁tubes	-11.2141
▁copies	-11.2143
▁packers	-11.2145
▁desperately	-11.2145
▁dish	-11.2146
▁runaway	-11.2148
▁crunching	-11.2149
▁echoing	-11.2149
▁registered	-11.2149
▁described	-11.2152
▁jun	-11.2152
▁kiddo	-11.2153
▁folder	-11.2154
▁purser	-11.2155
uum	-11.2156
▁protector	-11.2156
▁mild	-11.2157
▁legally	-11.2161
▁equally	-11.2161
boo	-11.2163
▁trailer	-11.2164
▁strongest	-11.2166
▁gator	-11.2169
▁iive	-11.217
▁scann	-11.2171
▁loosen	-11.2171
▁baba	-11.2171
▁nur	-11.2173
▁organize	-11.2176
▁complaint	-11.2176
▁reasonable	-11.2177
▁fooglies	-11.2179
▁glgs	-11.2179
▁wandering	-11.218
▁callback	-11.218
▁hacker	-11.2181
▁earthman	-11.2181
▁ofyou	-11.2182
ripping	-11.2183
▁sniper	-11.2188
▁assured	-11.2188
▁beaten	-11.2189
ittle	-11.2189
▁scaring	-11.2191
▁linked	-11.2192
▁guaranteed	-11.2193
▁recognized	-11.2193
▁fleet	-11.2199
▁stable	-11.22
nator	-11.2201
▁correctly	-11.2206
▁princesses	-11.221
▁mistaken	-11.2211
udge	-11.2214
▁taco	-11.2215
▁lace	-11.2222
▁connected	-11.2225
▁occasional	-11.2227
▁underhills	-11.2228
▁crushed	-11.2233
▁assumed	-11.2238
▁pasta	-11.2239
▁tot	-11.224
▁chewing	-11.2241
▁flushed	-11.225
▁ohoh	-11.2251
▁swinging	-11.2253
▁gogh	-11.2255
▁meantime	-11.2257
▁smashing	-11.2263
lush	-11.2273
▁camel	-11.2273
▁stare	-11.2274
atu	-11.2278
▁thoughtful	-11.2281
▁snowy	-11.2283
gad	-11.2288
▁talented	-11.2293
cathed	-11.2298
▁delivering	-11.2305
▁loot	-11.2307
▁ruled	-11.231
▁entered	-11.2311
▁ele	-11.2313
▁stat	-11.2315
▁mint	-11.2318
▁armor	-11.2322
▁howdy	-11.2322
▁tighter	-11.233
ago	-11.2339
gon	-11.2342
gage	-11.2348
logical	-11.2348
▁walkon	-11.2351
▁wy	-11.2356
▁suffering	-11.2356
▁hare	-11.2362
▁preston	-11.2364
▁rh	-11.2366
▁tame	-11.2368
▁announced	-11.237
▁hangin	-11.2372
▁pounding	-11.2382
▁rein	-11.2384
▁belonged	-11.2384
▁printer	-11.2392
▁lent	-11.2392
ability	-11.2405
▁poisoning	-11.2407
▁flake	-11.241
▁ignor	-11.2428
▁visa	-11.2428
▁seti	-11.2429
▁booing	-11.2462
▁sto	-11.2463
▁standin	-11.2474
▁temper	-11.2487
hour	-11.2509
▁slit	-11.2517
▁ven	-11.2539
▁eatin	-11.2554
▁climber	-11.2561
▁cling	-11.2562
tically	-11.2574
▁obe	-11.2575
▁murderer	-11.2602
lessness	-11.2606
▁lone	-11.2608
mic	-11.2609
▁scu	-11.2612
▁fab	-11.263
▁deb	-11.2638
▁marg	-11.2648
▁proto	-11.2653
▁mae	-11.2676
▁fla	-11.2717
gent	-11.2742
vious	-11.2763
▁ravi	-11.2779
list	-11.2793
lumber	-11.2805
▁hesitate	-11.2807
▁tit	-11.2849
▁bake	-11.2871
izz	-11.2874
food	-11.2908
iff	-11.292
dorf	-11.2938
▁semi	-11.2978
▁swan	-11.3006
rope	-11.3023
▁pickle	-11.3024
▁strap	-11.3076
▁penetrate	-11.3083
ception	-11.3108
abbing	-11.312
aki	-11.3121
lah	-11.3122
▁cone	-11.3124
▁deposit	-11.315
ko	-11.3189
rapped	-11.3203
urban	-11.3234
▁pace	-11.3264
▁ail	-11.3274
▁sil	-11.3278
▁rhythm	-11.3291
eth	-11.3295
▁novelt	-11.3309
cure	-11.334
▁oan	-11.3357
elli	-11.3366
ames	-11.3378
▁tro	-11.3384
▁graduate	-11.3422
▁expos	-11.3434
▁invad	-11.3452
▁bio	-11.3495
▁wak	-11.3521
▁fri	-11.3567
ada	-11.3571
▁vot	-11.3571
▁coop	-11.362
uttering	-11.3753
▁exclaim	-11.3802
spective	-11.3806
▁groan	-11.3808
▁cab	-11.3827
▁roar	-11.3836
▁heel	-11.3845
▁tool	-11.3853
▁temp	-11.3874
ween	-11.3878
▁ranger	-11.3904
youre	-11.3927
▁author	-11.3941
▁juli	-11.395
izer	-11.396
▁corp	-11.3983
▁sag	-11.4011
▁echo	-11.4041
▁promis	-11.4041
▁snicker	-11.4046
▁crunch	-11.4047
▁snoop	-11.4048
▁advis	-11.4051
▁offens	-11.4052
▁delight	-11.4069
▁isolate	-11.4074
▁swam	-11.4076
▁flow	-11.4077
▁vent	-11.4077
gram	-11.4079
proof	-11.4081
daughter	-11.4081
through	-11.4082
▁communicat	-11.4082
jun	-11.4082
grade	-11.4083
defense	-11.4083
script	-11.4083
mouth	-11.4083
burn	-11.4083
▁immediate	-11.4086
minded	-11.4086
guard	-11.4087
▁rick	-11.4089
life	-11.4089
▁norm	-11.409
▁rapid	-11.409
▁elect	-11.4093
▁rave	-11.4093
dont	-11.4094
▁mexic	-11.4094
▁inspect	-11.4095
turned	-11.4095
▁counsel	-11.4096
▁mech	-11.4097
fast	-11.4097
ride	-11.4098
▁lovin	-11.4098
▁leavin	-11.4098
▁kiddin	-11.41
▁vocal	-11.41
track	-11.41
▁morph	-11.4101
▁triumph	-11.4102
▁scholar	-11.4102
▁thorn	-11.4103
▁pris	-11.4103
▁dread	-11.4103
erci	-11.4103
▁encounter	-11.4103
▁flavor	-11.4103
▁microchip	-11.4103
adequate	-11.4103
ezvous	-11.4103
▁acknowledge	-11.4103
▁adrift	-11.4103
▁alternative	-11.4103
▁amateur	-11.4103
▁ambassador	-11.4103
▁ammunition	-11.4103
▁anglosaxons	-11.4103
▁anticipat	-11.4103
▁applesauce	-11.4103
▁aquarium	-11.4103
▁aristocrat	-11.4103
▁arizona	-11.4103
▁artillery	-11.4103
▁ashtray	-11.4103
▁ausfahrt	-11.4103
▁barbarian	-11.4103
▁bathtub	-11.4103
▁beeblebrox	-11.4103
▁biscuit	-11.4103
▁bissinger	-11.4103
▁bizarre	-11.4103
▁bourbon	-11.4103
▁bungalow	-11.4103
▁burrito	-11.4103
▁cabbage	-11.4103
▁cadillac	-11.4103
▁cafeteria	-11.4103
▁camouflage	-11.4103
▁cardiopep	-11.4103
▁caribbean	-11.4103
▁catholic	-11.4103
▁charleshenri	-11.4103
▁cheesecake	-11.4103
▁cleveland	-11.4103
▁cockatoo	-11.4103
▁comprehend	-11.4103
▁convincing	-11.4103
▁creedmore	-11.4103
▁cunning	-11.4103
▁december	-11.4103
▁dedication	-11.4103
▁demolition	-11.4103
▁dempsey	-11.4103
▁description	-11.4103
▁diorama	-11.4103
▁discourage	-11.4103
▁domestic	-11.4103
▁dublin	-11.4103
▁dumdum	-11.4103
▁dushanbe	-11.4103
▁dynamite	-11.4103
▁eccentric	-11.4103
▁eisenhower	-11.4103
▁everlasting	-11.4103
▁evolve	-11.4103
▁exclusive	-11.4103
▁exploring	-11.4103
▁exquisite	-11.4103
▁fairchild	-11.4103
▁falafel	-11.4103
▁fenderbaum	-11.4103
▁ferocious	-11.4103
▁figuring	-11.4103
▁flawless	-11.4103
▁folley	-11.4103
▁garcia	-11.4103
▁gasoline	-11.4103
▁glamour	-11.4103
▁glimpse	-11.4103
▁globe	-11.4103
▁grandchildren	-11.4103
▁gratitude	-11.4103
▁guacamole	-11.4103
▁hibernate	-11.4103
▁hubbard	-11.4103
▁humiliating	-11.4103
▁iceberg	-11.4103
▁imbecile	-11.4103
▁importance	-11.4103
▁incompetent	-11.4103
▁ingredient	-11.4103
▁initiate	-11.4103
▁intensive	-11.4103
▁intimidate	-11.4103
▁jacqueline	-11.4103
▁jaguar	-11.4103
▁jefferson	-11.4103
▁kathleen	-11.4103
▁knives	-11.4103
▁laboratory	-11.4103
▁lavender	-11.4103
▁lollygagg	-11.4103
▁luxury	-11.4103
▁mackerel	-11.4103
▁madagascar	-11.4103
▁matteo	-11.4103
▁merchant	-11.4103
▁mertin	-11.4103
▁mistress	-11.4103
▁monstrous	-11.4103
▁monstrule	-11.4103
▁montgomery	-11.4103
▁morocco	-11.4103
▁morosky	-11.4103
▁mowgli	-11.4103
▁muiranthias	-11.4103
▁mungojerrie	-11.4103
▁nagamaki	-11.4103
▁nevilie	-11.4103
▁nutmeg	-11.4103
▁onebakersix	-11.4103
▁outnumber	-11.4103
▁panorama	-11.4103
▁parseghian	-11.4103
▁patriot	-11.4103
▁pellets	-11.4103
▁perpetrator	-11.4103
▁phrase	-11.4103
▁population	-11.4103
▁preliminar	-11.4103
▁principle	-11.4103
▁priya	-11.4103
▁proclaim	-11.4103
▁purrfect	-11.4103
▁pyramid	-11.4103
▁receipt	-11.4103
▁recognise	-11.4103
▁reflex	-11.4103
▁resign	-11.4103
▁rottweiler	-11.4103
▁rubbish	-11.4103
▁rumpelteazer	-11.4103
▁sanctuary	-11.4103
▁schuster	-11.4103
▁seizure	-11.4103
▁selfrespect	-11.4103
▁shirley	-11.4103
▁sleeve	-11.4103
▁sloppy	-11.4103
▁snorting	-11.4103
▁solicitor	-11.4103
▁solitary	-11.4103
▁spyglass	-11.4103
▁squirt	-11.4103
▁stacey	-11.4103
▁stunning	-11.4103
▁sunblock	-11.4103
▁surprising	-11.4103
▁syllable	-11.4103
▁sympathy	-11.4103
▁temporarily	-11.4103
▁tennessee	-11.4103
▁toothbrush	-11.4103
▁tornado	-11.4103
▁trowbridge	-11.4103
▁tuxedo	-11.4103
▁twerp	-11.4103
▁unconscious	-11.4103
▁vancouver	-11.4103
▁vicinity	-11.4103
▁vigusian	-11.4103
▁virgin	-11.4103
▁virtual	-11.4103
▁virtue	-11.4103
▁vulture	-11.4103
▁wallpaper	-11.4103
▁weasel	-11.4103
▁westminster	-11.4103
▁wondrous	-11.4103
▁wrench	-11.4103
▁yabbadabbadoo	-11.4103
▁yawning	-11.4103
▁yeehaw	-11.4103
▁analyze	-11.4103
▁bloom	-11.4103
▁blubber	-11.4103
▁bookcase	-11.4103
▁capsule	-11.4103
▁chalice	-11.4103
▁congratulate	-11.4103
▁defence	-11.4103
▁digital	-11.4103
▁dignity	-11.4103
▁dowry	-11.4103
▁edith	-11.4103
▁eliminat	-11.4103
▁embark	-11.4103
▁fiction	-11.4103
▁firewall	-11.4103
▁guiana	-11.4103
▁handshake	-11.4103
▁leather	-11.4103
▁lizard	-11.4103
▁nellie	-11.4103
▁offended	-11.4103
▁oysters	-11.4103
▁pitiful	-11.4103
▁portsmouth	-11.4103
▁rabble	-11.4103
▁racket	-11.4103
▁scotch	-11.4103
▁similar	-11.4103
▁sloth	-11.4103
▁stephano	-11.4103
▁swift	-11.4103
▁twitter	-11.4103
▁ucla	-11.4103
▁vinny	-11.4103
▁afterwards	-11.4103
▁brutal	-11.4103
▁carpenter	-11.4103
▁constable	-11.4103
▁creaks	-11.4103
▁gladiator	-11.4103
▁iook	-11.4103
▁kodo	-11.4103
▁northwest	-11.4103
▁solemn	-11.4103
▁swiped	-11.4103
▁tacky	-11.4103
▁theft	-11.4103
▁thrax	-11.4103
▁token	-11.4103
▁blob	-11.4103
▁eager	-11.4103
▁fuzzy	-11.4103
▁lantern	-11.4103
▁maroon	-11.4103
▁senate	-11.4103
▁hypocri	-11.4103
▁knit	-11.4103
▁lajoie	-11.4103
▁orbit	-11.4103
▁applied	-11.4103
▁exceed	-11.4103
▁luther	-11.4103
▁parasite	-11.4103
▁rigging	-11.4103
▁envy	-11.4103
▁mawr	-11.4103
▁abort	-11.4103
▁negus	-11.4103
▁vichy	-11.4103
▁drix	-11.4103
▁panzer	-11.4103
▁tampa	-11.4103
▁neutr	-11.4103
▁edgy	-11.4103
▁hadley	-11.4103
▁musnt	-11.4103
▁historical	-11.4103
▁postpone	-11.4103
▁beetle	-11.4103
▁bugging	-11.4103
▁lease	-11.4103
▁molly	-11.4103
▁wager	-11.4103
▁absence	-11.4103
▁cherie	-11.4103
▁piasters	-11.4103
▁reilly	-11.4103
▁stalin	-11.4103
▁freddie	-11.4103
▁priorities	-11.4103
▁survivors	-11.4103
dazzling	-11.4103
▁overhear	-11.4103
oneliness	-11.4103
▁gao	-11.4104
▁ritz	-11.4104
▁creole	-11.4104
▁moreau	-11.4104
▁brigad	-11.4104
▁pindi	-11.4104
▁yummy	-11.4104
▁zubi	-11.4104
▁connors	-11.4104
▁wrinkle	-11.4104
▁creek	-11.4104
▁slams	-11.4104
▁butler	-11.4104
▁forbidden	-11.4104
▁whining	-11.4104
▁liquorice	-11.4104
▁loaf	-11.4104
▁jenni	-11.4104
▁urge	-11.4104
▁lottery	-11.4104
▁viola	-11.4104
▁dibs	-11.4104
▁eff	-11.4104
▁grotto	-11.4104
▁yikes	-11.4104
▁neville	-11.4104
▁weave	-11.4104
▁cradle	-11.4104
▁shipping	-11.4104
▁violation	-11.4104
▁ransom	-11.4104
▁rubbing	-11.4104
▁donald	-11.4104
▁munchkin	-11.4104
▁lemonade	-11.4104
▁vandalism	-11.4104
▁neviile	-11.4104
▁resent	-11.4104
▁skeleton	-11.4104
▁intimate	-11.4105
▁bleep	-11.4105
▁priority	-11.4105
▁whittle	-11.4105
▁amos	-11.4105
▁antique	-11.4105
▁oars	-11.4105
▁heartache	-11.4105
▁koobeeday	-11.4105
▁confidential	-11.4105
▁armonica	-11.4105
▁fiancee	-11.4105
▁piace	-11.4105
▁choosing	-11.4105
▁imaginary	-11.4105
▁delightful	-11.4105
▁kidnapper	-11.4105
mart	-11.4105
▁boredom	-11.4105
▁cliffside	-11.4105
▁granddaughter	-11.4105
▁dodgers	-11.4105
▁felici	-11.4105
buk	-11.4105
▁haveyou	-11.4105
▁atmosphere	-11.4105
▁overnight	-11.4105
▁pesky	-11.4105
▁valet	-11.4106
▁dimension	-11.4106
▁gravity	-11.4106
▁altitude	-11.4106
▁inferna	-11.4106
▁edition	-11.4106
▁cozy	-11.4106
▁fluid	-11.4106
▁relat	-11.4106
▁employee	-11.4106
▁hades	-11.4106
▁buzzard	-11.4106
▁kiri	-11.4107
▁superstition	-11.4107
▁notebook	-11.4107
▁committed	-11.4107
▁comming	-11.4107
▁mangy	-11.4107
▁munk	-11.4107
▁contrary	-11.4107
▁edward	-11.4107
▁bulldo	-11.4107
▁skinny	-11.4107
▁fuses	-11.4107
▁youyou	-11.4107
▁bind	-11.4107
▁decree	-11.4107
▁accelerator	-11.4107
▁bracelet	-11.4107
▁colonic	-11.4108
▁bleat	-11.4108
▁robbing	-11.4108
▁rodent	-11.4108
▁infection	-11.4108
▁sunlight	-11.4108
▁olive	-11.4108
▁potatoes	-11.4108
▁entertainment	-11.4108
▁clack	-11.4108
▁embarrassment	-11.4108
▁mutt	-11.4108
▁static	-11.4108
▁grill	-11.4109
▁porch	-11.4109
▁kwan	-11.4109
▁whack	-11.4109
▁shred	-11.4109
▁intention	-11.4109
▁whines	-11.4109
▁iong	-11.4109
▁deben	-11.4109
▁clip	-11.4109
▁brokendown	-11.411
▁sacco	-11.411
gulch	-11.411
▁snot	-11.411
▁hooting	-11.411
caval	-11.411
▁burrow	-11.411
▁massage	-11.411
▁grid	-11.411
▁eagleton	-11.411
▁vibe	-11.411
▁execution	-11.4111
▁effective	-11.4111
▁voluntar	-11.4111
▁sidewalk	-11.4111
▁juan	-11.4111
▁spill	-11.4111
▁disappearance	-11.4111
▁countries	-11.4112
▁stain	-11.4112
▁hurl	-11.4112
▁tripped	-11.4112
▁mumble	-11.4112
▁infra	-11.4112
▁dropbox	-11.4113
▁chump	-11.4113
▁considerate	-11.4113
▁collapsed	-11.4113
▁hq	-11.4113
▁quadr	-11.4113
▁muert	-11.4114
▁hatton	-11.4114
▁classroom	-11.4114
▁henk	-11.4114
▁tourist	-11.4115
▁cheque	-11.4115
▁roam	-11.4115
▁woof	-11.4115
▁gap	-11.4115
▁richardson	-11.4115
▁pont	-11.4115
dolf	-11.4115
▁zab	-11.4115
▁flint	-11.4115
▁programmed	-11.4116
▁ninety	-11.4116
▁occupied	-11.4117
▁hover	-11.4117
▁lsnt	-11.4117
▁caption	-11.4118
▁deliveries	-11.4118
responsibilities	-11.4119
door	-11.412
▁identified	-11.412
▁lean	-11.4121
▁investigator	-11.4121
raham	-11.4122
▁wax	-11.4122
▁linger	-11.4123
▁mellow	-11.4123
▁wowser	-11.4124
▁bulletin	-11.4124
▁spur	-11.4125
▁bellow	-11.4125
▁burglary	-11.4125
▁jinx	-11.4125
▁successor	-11.4125
▁ego	-11.4125
▁engaged	-11.4126
threatening	-11.4126
▁nora	-11.4127
▁homeschool	-11.4128
▁maur	-11.4128
▁marie	-11.4129
▁driveway	-11.413
▁colony	-11.413
▁agony	-11.4131
▁isolated	-11.4132
▁operate	-11.4132
▁firewood	-11.4132
▁jamie	-11.4132
▁carries	-11.4133
▁allen	-11.4133
▁rio	-11.4133
▁gret	-11.4134
▁sandwiches	-11.4134
▁brownies	-11.4134
▁constantly	-11.4134
▁swamp	-11.4135
▁gay	-11.4136
▁boingo	-11.4136
▁wealthy	-11.4137
▁bev	-11.4138
▁proposed	-11.4138
▁adored	-11.4138
▁merci	-11.4139
▁suitable	-11.4139
▁rushes	-11.4141
▁endure	-11.4141
▁resolved	-11.4141
▁grit	-11.4142
▁presentation	-11.4143
▁stillwell	-11.4144
▁labor	-11.4144
▁wheelers	-11.4144
▁approved	-11.4145
▁honorable	-11.4145
▁madness	-11.4146
▁slime	-11.4147
▁acceptable	-11.4148
▁clanging	-11.4149
dena	-11.4149
▁july	-11.415
▁rusty	-11.4151
▁rang	-11.4151
▁compared	-11.4151
▁hola	-11.4151
▁mia	-11.4152
▁notion	-11.4153
▁canal	-11.4154
▁hassl	-11.4154
▁tenth	-11.4154
▁rubin	-11.4155
▁portion	-11.4157
▁corny	-11.4157
▁encouraged	-11.4157
▁mow	-11.4159
▁ross	-11.4159
▁moore	-11.416
▁duo	-11.416
▁thrilled	-11.4161
onica	-11.4162
▁snickering	-11.4162
▁hein	-11.4165
▁grin	-11.4167
▁vet	-11.4168
▁included	-11.417
▁diver	-11.417
▁bench	-11.417
▁nil	-11.417
robe	-11.4171
▁bein	-11.4173
holder	-11.4175
▁tender	-11.4176
breaking	-11.4178
▁freezer	-11.4179
▁designer	-11.4179
▁dubb	-11.4183
▁affected	-11.4192
icka	-11.4193
cular	-11.4193
▁haunting	-11.4199
▁unto	-11.4201
▁stressed	-11.4203
▁bestow	-11.4204
▁forg	-11.4205
▁debate	-11.4205
▁pia	-11.421
▁architectur	-11.421
▁knockin	-11.4212
▁mist	-11.4216
▁divert	-11.4219
▁beaches	-11.4221
▁melting	-11.4223
▁burnt	-11.4224
▁dresses	-11.4233
▁frightful	-11.4234
▁transforming	-11.4236
agging	-11.4241
▁asia	-11.4247
▁reminder	-11.4249
▁gavel	-11.4267
ickens	-11.4274
▁amor	-11.4275
▁archie	-11.4277
nda	-11.4281
▁imperi	-11.4282
▁exception	-11.4285
venue	-11.4287
▁conn	-11.4293
▁bry	-11.4297
▁ruler	-11.4301
▁bam	-11.4302
oge	-11.4306
▁rig	-11.4316
▁frequent	-11.4319
▁hale	-11.4329
llowed	-11.4334
▁sss	-11.4339
ammo	-11.4375
▁colon	-11.4378
tech	-11.4385
▁vil	-11.4438
▁chugg	-11.4446
▁pend	-11.4453
▁aid	-11.4454
▁wel	-11.4455
rupt	-11.4512
hua	-11.452
▁chem	-11.4531
whipped	-11.454
yde	-11.4554
name	-11.4566
▁concept	-11.4616
▁transit	-11.4645
▁panick	-11.4672
▁gau	-11.4708
▁seize	-11.4721
▁recorder	-11.473
▁trippin	-11.4785
▁judg	-11.4785
enni	-11.4787
▁marshall	-11.4797
▁kane	-11.483
vern	-11.4853
mine	-11.4854
elling	-11.4901
▁alli	-11.4908
▁logic	-11.4913
narco	-11.498
ridden	-11.4989
iq	-11.4997
iku	-11.5001
nct	-11.5011
▁locate	-11.5048
ooka	-11.5056
▁pac	-11.5069
▁hick	-11.5089
▁spic	-11.5103
▁preserv	-11.5132
▁plu	-11.5148
▁nip	-11.515
▁philipp	-11.516
lain	-11.5197
▁cora	-11.5202
remarkable	-11.5287
odle	-11.5307
▁perc	-11.5351
▁pent	-11.5372
wei	-11.5379
nam	-11.5402
anza	-11.5489
▁croc	-11.5516
take	-11.552
▁curl	-11.5532
▁slum	-11.5637
▁supervise	-11.5707
iet	-11.571
▁notif	-11.5715
theme	-11.5752
▁spar	-11.584
ozo	-11.5851
▁bark	-11.5902
mark	-11.6024
▁alib	-11.6062
▁zoom	-11.6084
▁eighth	-11.6085
▁dispos	-11.6087
▁shhh	-11.6225
dome	-11.6281
nova	-11.6282
▁clang	-11.6284
▁burglar	-11.6319
rett	-11.6324
▁crow	-11.6324
▁riddle	-11.6329
lorn	-11.6336
▁prawn	-11.634
ella	-11.6343
▁bloke	-11.6344
▁charle	-11.6351
▁aspirin	-11.6353
▁chart	-11.6356
▁dolphin	-11.6356
gant	-11.6364
pian	-11.6365
▁bean	-11.637
▁oop	-11.6374
▁visual	-11.6395
jour	-11.6422
acious	-11.6438
▁bil	-11.6439
doubted	-11.6449
jui	-11.6462
than	-11.6467
▁rul	-11.6506
▁excit	-11.6509
uffle	-11.6511
job	-11.6512
▁invent	-11.652
▁experienc	-11.6534
eek	-11.654
▁mob	-11.6543
▁celebr	-11.6543
▁casa	-11.6544
▁disgust	-11.6551
▁accomplish	-11.6555
▁surround	-11.656
style	-11.6567
▁walt	-11.6571
▁engage	-11.6573
▁gat	-11.6574
watch	-11.6574
▁contribut	-11.6575
▁divide	-11.6575
▁determine	-11.6576
▁relieve	-11.6576
▁micro	-11.6579
bilities	-11.658
jinx	-11.6581
▁sacr	-11.6581
tooth	-11.6582
▁daff	-11.6582
control	-11.6583
course	-11.6584
front	-11.6586
▁karat	-11.6586
▁unbelievabl	-11.6586
keeper	-11.6586
maybe	-11.6587
speed	-11.6588
▁secre	-11.6588
▁memor	-11.6589
pants	-11.659
dale	-11.659
▁confuse	-11.659
▁exhibit	-11.6591
▁extensi	-11.6591
▁pog	-11.6591
▁dolph	-11.6592
▁reflect	-11.6592
▁heave	-11.6593
▁religio	-11.6593
▁crippl	-11.6594
▁cockroach	-11.6594
weight	-11.6595
▁numero	-11.6596
▁humbl	-11.6597
▁robbin	-11.6598
▁happie	-11.6598
▁luci	-11.6598
▁mamma	-11.6598
human	-11.6598
▁beautifu	-11.6598
bility	-11.6599
scrap	-11.6599
▁puttin	-11.66
▁refresh	-11.66
▁prior	-11.6601
ignment	-11.6602
bleh	-11.6602
ample	-11.6602
aneous	-11.6603
▁hyper	-11.6603
▁contri	-11.6603
▁cinder	-11.6603
▁inhabit	-11.6603
cadabra	-11.6603
▁belgian	-11.6603
▁phenomen	-11.6603
▁sponsor	-11.6603
discretion	-11.6603
enthusiastic	-11.6603
jeopardy	-11.6603
propriet	-11.6603
structure	-11.6603
▁aargh	-11.6603
▁accompany	-11.6603
▁acquired	-11.6603
▁adrenaline	-11.6603
▁alabama	-11.6603
▁alaska	-11.6603
▁alfred	-11.6603
▁algebra	-11.6603
▁ambush	-11.6603
▁antibiotic	-11.6603
▁apiary	-11.6603
▁arlette	-11.6603
▁armistead	-11.6603
▁arranging	-11.6603
▁artificial	-11.6603
▁astound	-11.6603
▁authentic	-11.6603
▁avalanche	-11.6603
▁aviation	-11.6603
▁balcony	-11.6603
▁barnstormers	-11.6603
▁batcave	-11.6603
▁beepbeep	-11.6603
▁bennington	-11.6603
▁blonde	-11.6603
▁blumburtt	-11.6603
▁bolinari	-11.6603
▁boombastic	-11.6603
▁brazil	-11.6603
▁briefcase	-11.6603
▁brinkerhoff	-11.6603
▁budapest	-11.6603
▁buffoon	-11.6603
▁bulchar	-11.6603
▁canadian	-11.6603
▁carnival	-11.6603
▁catalogue	-11.6603
▁cereal	-11.6603
▁chelina	-11.6603
▁clatters	-11.6603
▁collateral	-11.6603
▁cologne	-11.6603
▁combination	-11.6603
▁communion	-11.6603
▁concludes	-11.6603
▁conflict	-11.6603
▁contaminat	-11.6603
▁contemplat	-11.6603
▁contempt	-11.6603
▁controversial	-11.6603
▁convict	-11.6603
▁cornwall	-11.6603
▁corporate	-11.6603
▁cottins	-11.6603
▁cricket	-11.6603
▁crisis	-11.6603
▁dbob	-11.6603
▁deceitful	-11.6603
▁degenerate	-11.6603
▁delicate	-11.6603
▁demolish	-11.6603
▁depression	-11.6603
▁derval	-11.6603
▁despair	-11.6603
▁discontent	-11.6603
▁disorderly	-11.6603
▁dispatch	-11.6603
▁doeuvre	-11.6603
▁donnagon	-11.6603
▁doorknob	-11.6603
▁dosido	-11.6603
▁dossier	-11.6603
▁dottie	-11.6603
▁dumbdumb	-11.6603
▁dunbar	-11.6603
▁edgaar	-11.6603
▁espionage	-11.6603
▁falcon	-11.6603
▁fanfare	-11.6603
▁fantasy	-11.6603
▁fascist	-11.6603
▁finstock	-11.6603
▁fragile	-11.6603
▁frambois	-11.6603
▁furnished	-11.6603
▁furthermore	-11.6603
▁galvanized	-11.6603
▁generosity	-11.6603
▁geographic	-11.6603
▁geography	-11.6603
▁gertrude	-11.6603
▁gigantic	-11.6603
▁gipper	-11.6603
▁goosebumps	-11.6603
▁grammar	-11.6603
▁gresham	-11.6603
▁gretchen	-11.6603
▁griddle	-11.6603
▁grieving	-11.6603
▁grizabella	-11.6603
▁halloween	-11.6603
▁harbour	-11.6603
▁hendricks	-11.6603
▁hideandseek	-11.6603
▁hopalong	-11.6603
▁hortono	-11.6603
▁hypothalamus	-11.6603
▁hypothetically	-11.6603
▁impeccabl	-11.6603
▁inappropriate	-11.6603
▁incorrect	-11.6603
▁independence	-11.6603
▁ineffable	-11.6603
▁infirmary	-11.6603
▁intact	-11.6603
▁intolerant	-11.6603
▁introducing	-11.6603
▁invasion	-11.6603
▁invoices	-11.6603
▁jacuzzi	-11.6603
▁january	-11.6603
▁jumanji	-11.6603
▁kazoo	-11.6603
▁kincaids	-11.6603
▁kindergarten	-11.6603
▁knucklehead	-11.6603
▁krishna	-11.6603
▁lachrymose	-11.6603
▁laviron	-11.6603
▁lombok	-11.6603
▁magnifique	-11.6603
▁magnusson	-11.6603
▁malaria	-11.6603
▁margaret	-11.6603
▁marseilles	-11.6603
▁marvellous	-11.6603
▁matilda	-11.6603
▁melanchol	-11.6603
▁metropoli	-11.6603
▁millbarge	-11.6603
▁minneapolis	-11.6603
▁miriam	-11.6603
▁misplaced	-11.6603
▁mmmmmmmmm	-11.6603
▁monastery	-11.6603
▁mongrel	-11.6603
▁monopoly	-11.6603
▁morality	-11.6603
▁moscow	-11.6603
▁mutineers	-11.6603
▁necessarily	-11.6603
▁necessit	-11.6603
▁neutralize	-11.6603
▁newyork	-11.6603
▁nitwit	-11.6603
▁nomolos	-11.6603
▁nourishment	-11.6603
▁nowadays	-11.6603
▁occupation	-11.6603
▁october	-11.6603
▁okeysolo	-11.6603
▁oprah	-11.6603
▁optimist	-11.6603
▁overthrow	-11.6603
▁oxygen	-11.6603
▁paddle	-11.6603
▁paragraph	-11.6603
▁pavarotti	-11.6603
▁perfume	-11.6603
▁phantom	-11.6603
▁phoenix	-11.6603
▁pilgrim	-11.6603
▁pingpong	-11.6603
▁piracy	-11.6603
▁porcupine	-11.6603
▁possibilities	-11.6603
▁preposterous	-11.6603
▁pritchard	-11.6603
▁probability	-11.6603
▁profile	-11.6603
▁prostitute	-11.6603
▁provision	-11.6603
▁purcell	-11.6603
▁quimby	-11.6603
▁raheem	-11.6603
▁reconsider	-11.6603
▁regulations	-11.6603
▁reinforcements	-11.6603
▁renovation	-11.6603
▁rescuing	-11.6603
▁residence	-11.6603
▁resident	-11.6603
▁ritchie	-11.6603
▁rivage	-11.6603
▁robaire	-11.6603
▁robogadget	-11.6603
▁rufus	-11.6603
▁salvatore	-11.6603
▁schmuck	-11.6603
▁schroeder	-11.6603
▁seagull	-11.6603
▁sensible	-11.6603
▁shirazi	-11.6603
▁sinatra	-11.6603
▁skeptic	-11.6603
▁smoosh	-11.6603
▁smother	-11.6603
▁smuggl	-11.6603
▁solution	-11.6603
▁spaghetti	-11.6603
▁specimen	-11.6603
▁speculat	-11.6603
▁stonehenge	-11.6603
▁struggling	-11.6603
▁studies	-11.6603
▁substitut	-11.6603
▁suffocat	-11.6603
▁swarthou	-11.6603
▁swollen	-11.6603
▁syphilis	-11.6603
▁syrup	-11.6603
▁terrain	-11.6603
▁territory	-11.6603
▁testimony	-11.6603
▁textopolis	-11.6603
▁thirteen	-11.6603
▁tolstoy	-11.6603
▁toothpaste	-11.6603
▁tragedies	-11.6603
▁trajectory	-11.6603
▁trampoline	-11.6603
▁transmission	-11.6603
▁transplant	-11.6603
▁treacherous	-11.6603
▁tsavo	-11.6603
▁unaji	-11.6603
▁underestimate	-11.6603
▁unnecessary	-11.6603
▁upgraded	-11.6603
▁valentine	-11.6603
▁vengeance	-11.6603
▁volleyball	-11.6603
▁voltage	-11.6603
▁walkietalkie	-11.6603
▁wimoweh	-11.6603
▁wisconsin	-11.6603
▁wismar	-11.6603
▁wrestle	-11.6603
▁wretch	-11.6603
▁yogurt	-11.6603
▁yoriko	-11.6603
▁yowls	-11.6603
▁ziegler	-11.6603
crimina	-11.6603
▁accuse	-11.6603
▁batteries	-11.6603
▁beaver	-11.6603
▁berserk	-11.6603
▁casual	-11.6603
▁cottonmouths	-11.6603
▁crusade	-11.6603
▁cynical	-11.6603
▁devlin	-11.6603
▁elvis	-11.6603
▁endeavo	-11.6603
▁exotic	-11.6603
▁femur	-11.6603
▁forevermore	-11.6603
▁ghoul	-11.6603
▁godmother	-11.6603
▁greenbaum	-11.6603
▁grub	-11.6603
▁horizon	-11.6603
▁leaflets	-11.6603
▁lettuce	-11.6603
▁michel	-11.6603
▁monument	-11.6603
▁munro	-11.6603
▁norton	-11.6603
▁omelet	-11.6603
▁oould	-11.6603
▁ounce	-11.6603
▁profit	-11.6603
▁recordplayer	-11.6603
▁samuel	-11.6603
▁sardine	-11.6603
▁seatbelt	-11.6603
▁shrub	-11.6603
▁strangle	-11.6603
▁stuart	-11.6603
▁sweetiepie	-11.6603
▁terrace	-11.6603
▁topkick	-11.6603
▁uuh	-11.6603
▁velma	-11.6603
▁volts	-11.6603
▁wynn	-11.6603
bbidibo	-11.6603
continent	-11.6603
wurst	-11.6603
▁ahchoo	-11.6603
▁beady	-11.6603
▁beddersvere	-11.6603
▁breach	-11.6603
▁choir	-11.6603
▁clark	-11.6603
▁couch	-11.6603
▁crisp	-11.6603
▁domino	-11.6603
▁elaine	-11.6603
▁elderly	-11.6603
▁excess	-11.6603
▁gustav	-11.6603
▁hermit	-11.6603
▁hypo	-11.6603
▁infinity	-11.6603
▁isabel	-11.6603
▁junkyard	-11.6603
▁lippe	-11.6603
▁mccoy	-11.6603
▁pablo	-11.6603
▁pucker	-11.6603
▁ruh	-11.6603
▁shrunk	-11.6603
▁spleen	-11.6603
▁wept	-11.6603
▁janitor	-11.6603
▁sensor	-11.6603
▁tranquill	-11.6603
▁asylum	-11.6603
▁beggar	-11.6603
▁conceal	-11.6603
▁cuban	-11.6603
▁devise	-11.6603
▁domain	-11.6603
▁durant	-11.6603
▁edgar	-11.6603
▁extravagan	-11.6603
▁horde	-11.6603
▁inhabitants	-11.6603
▁interior	-11.6603
▁jacques	-11.6603
▁migra	-11.6603
▁noodles	-11.6603
▁wimp	-11.6603
▁bueno	-11.6603
▁bulb	-11.6603
▁cretin	-11.6603
▁detach	-11.6603
▁extend	-11.6603
▁gaze	-11.6603
▁keble	-11.6603
▁oval	-11.6603
▁parrot	-11.6603
▁phony	-11.6603
▁random	-11.6603
▁rewind	-11.6603
▁stroll	-11.6603
▁subtle	-11.6603
▁upcoming	-11.6603
▁waiver	-11.6603
▁cheesy	-11.6603
▁dealership	-11.6603
▁devine	-11.6603
▁fleming	-11.6603
▁fourteen	-11.6603
▁hyah	-11.6603
▁igor	-11.6603
▁keypad	-11.6603
▁ninth	-11.6603
▁retard	-11.6603
▁ryley	-11.6603
▁shaky	-11.6603
▁technological	-11.6603
▁comfy	-11.6603
▁snatched	-11.6603
▁bruise	-11.6603
▁fiesta	-11.6603
▁filter	-11.6603
▁grease	-11.6603
▁howre	-11.6603
▁morale	-11.6603
▁physics	-11.6603
▁yelp	-11.6603
▁hugger	-11.6603
▁licence	-11.6603
▁oppose	-11.6603
▁sexual	-11.6603
▁babbles	-11.6603
▁grumbles	-11.6603
▁pug	-11.6603
▁yeehah	-11.6603
▁wilkins	-11.6603
▁altar	-11.6603
▁booger	-11.6603
▁multipl	-11.6603
▁noisy	-11.6603
▁snappy	-11.6603
▁array	-11.6603
▁oaty	-11.6603
▁strums	-11.6603
▁duchess	-11.6603
▁duct	-11.6603
▁omg	-11.6603
▁sperm	-11.6603
▁ellen	-11.6603
▁slurr	-11.6603
▁sufficient	-11.6603
▁conrad	-11.6603
▁harass	-11.6603
▁saddle	-11.6603
▁yippee	-11.6603
▁grain	-11.6603
▁conjur	-11.6603
▁gusgus	-11.6603
▁tamper	-11.6603
▁sansho	-11.6603
▁juggl	-11.6603
▁luncheon	-11.6603
▁carbon	-11.6603
▁elevate	-11.6603
▁chord	-11.6603
▁courtesy	-11.6603
▁grumbling	-11.6603
▁drift	-11.6603
▁pinoc	-11.6603
▁snoot	-11.6603
▁sleaz	-11.6603
▁playdate	-11.6603
▁activating	-11.6604
▁grizzl	-11.6604
▁yodel	-11.6604
secrat	-11.6604
▁wiggle	-11.6604
▁destructive	-11.6604
▁garnet	-11.6604
▁criticism	-11.6604
▁hiphip	-11.6604
▁strasser	-11.6604
▁lonesome	-11.6604
▁cuffs	-11.6604
▁meteorite	-11.6604
maintenance	-11.6604
based	-11.6604
▁nutritio	-11.6604
▁slobber	-11.6604
▁farrar	-11.6604
▁lull	-11.6604
▁insubordination	-11.6604
trich	-11.6604
▁digger	-11.6604
▁dumpster	-11.6604
▁earliest	-11.6604
▁purr	-11.6604
▁holler	-11.6604
▁latin	-11.6604
▁julot	-11.6604
▁midget	-11.6604
custome	-11.6604
bbbut	-11.6604
▁memorial	-11.6604
▁consum	-11.6604
ravity	-11.6604
▁obtain	-11.6604
▁fuji	-11.6604
▁stepping	-11.6604
▁brink	-11.6604
▁handkerchief	-11.6604
▁pajamas	-11.6604
▁hostility	-11.6604
▁guiet	-11.6604
▁mormon	-11.6604
▁referred	-11.6604
▁hydro	-11.6604
▁scientifically	-11.6604
▁fanatic	-11.6604
▁ofthis	-11.6604
▁shuffle	-11.6604
▁blimp	-11.6604
▁jagged	-11.6604
▁stitch	-11.6604
▁ferrell	-11.6604
shire	-11.6604
▁skate	-11.6604
▁cocktail	-11.6604
▁maddie	-11.6604
▁divina	-11.6604
▁gallery	-11.6604
▁journalism	-11.6604
▁napkin	-11.6604
▁veins	-11.6605
▁ifwe	-11.6605
▁specifically	-11.6605
▁fangs	-11.6605
neck	-11.6605
▁domini	-11.6605
▁diversion	-11.6605
▁stool	-11.6605
▁fingerprint	-11.6605
▁lasso	-11.6605
▁haiya	-11.6605
▁rookery	-11.6605
▁concentration	-11.6605
▁hostile	-11.6605
▁peasant	-11.6605
▁athen	-11.6605
▁carved	-11.6605
▁seville	-11.6605
▁righteous	-11.6605
▁foolproof	-11.6605
▁raincoat	-11.6605
▁addition	-11.6605
▁wormsley	-11.6605
▁eligible	-11.6606
▁usher	-11.6606
▁fourfoot	-11.6606
▁robineau	-11.6606
▁batgas	-11.6606
▁speck	-11.6606
▁wills	-11.6606
▁whawhat	-11.6606
▁airdrop	-11.6606
▁buns	-11.6606
▁fivefoot	-11.6606
week	-11.6606
▁aione	-11.6606
▁finley	-11.6606
▁accomplishment	-11.6606
▁audition	-11.6606
▁distinction	-11.6606
▁biood	-11.6606
▁chelo	-11.6606
▁measl	-11.6606
▁decline	-11.6606
▁continuous	-11.6606
▁huggen	-11.6606
▁traveller	-11.6607
▁percent	-11.6607
▁jurisdiction	-11.6607
▁humorous	-11.6607
▁uther	-11.6607
enses	-11.6607
▁hilltop	-11.6607
▁quiz	-11.6607
▁dominate	-11.6608
▁medium	-11.6608
▁contestant	-11.6608
udder	-11.6608
▁coveted	-11.6608
▁geoff	-11.6608
probation	-11.6608
▁bookkeeper	-11.6608
▁denial	-11.6608
▁lyon	-11.6608
▁lucien	-11.6608
▁dday	-11.6608
▁liarian	-11.6608
▁viral	-11.6608
▁dietrich	-11.6608
▁theory	-11.6609
honkin	-11.6609
▁pantry	-11.6609
gencies	-11.6609
▁arrogant	-11.6609
▁cafe	-11.6609
▁authorization	-11.6609
▁forehead	-11.6609
▁classified	-11.6609
legged	-11.6609
▁spotlight	-11.6609
▁tusk	-11.6609
▁waving	-11.6609
▁cruci	-11.6609
▁popping	-11.6609
▁icebox	-11.6609
▁rake	-11.6609
▁jimbo	-11.6609
▁arrow	-11.6609
▁aidit	-11.661
▁suitors	-11.661
▁blueprint	-11.661
▁arghh	-11.661
▁slump	-11.661
▁yum	-11.661
▁achievement	-11.661
▁slay	-11.661
▁starkey	-11.661
▁wewe	-11.661
▁ambition	-11.6611
▁promotion	-11.6611
▁revive	-11.6611
▁scam	-11.6611
▁plotting	-11.6611
▁jeopardiz	-11.6611
▁detain	-11.6611
▁heml	-11.6611
▁toons	-11.6611
▁novelist	-11.6611
▁friggin	-11.6611
▁underway	-11.6611
▁allah	-11.6611
▁checkmate	-11.6611
▁poker	-11.6612
▁quake	-11.6612
▁hallway	-11.6612
▁flare	-11.6612
▁conveyor	-11.6612
▁tension	-11.6612
▁hatred	-11.6612
▁macho	-11.6612
▁cockroaches	-11.6612
▁cripples	-11.6612
▁tipper	-11.6613
▁testify	-11.6613
▁hotshot	-11.6613
▁snout	-11.6613
▁wack	-11.6613
▁capit	-11.6613
▁einstein	-11.6613
▁neuro	-11.6613
▁crock	-11.6613
▁begone	-11.6613
▁dante	-11.6613
▁heli	-11.6613
▁baking	-11.6614
▁collar	-11.6614
▁amel	-11.6614
race	-11.6614
▁fowl	-11.6614
▁didn	-11.6614
▁observation	-11.6614
▁almond	-11.6614
▁expectations	-11.6614
▁tangle	-11.6615
▁colorful	-11.6615
▁onion	-11.6615
▁popped	-11.6615
▁cities	-11.6615
▁celebration	-11.6615
▁fabri	-11.6615
▁extension	-11.6615
▁sicily	-11.6615
▁exhibition	-11.6616
▁underage	-11.6616
▁fide	-11.6616
▁civilized	-11.6616
made	-11.6616
▁were	-11.6616
▁greed	-11.6616
▁amuse	-11.6616
▁distinctly	-11.6617
▁observers	-11.6617
▁eww	-11.6617
hale	-11.6617
▁philosophical	-11.6618
▁midst	-11.6618
▁defenseless	-11.6618
odeon	-11.6618
▁crate	-11.6619
▁bambi	-11.6619
▁frenchmen	-11.6619
▁cooperation	-11.6619
▁shep	-11.6619
▁accountant	-11.6619
▁dna	-11.6619
▁meaningless	-11.6619
▁leaderless	-11.6619
▁selfless	-11.662
▁scope	-11.662
▁lifestyle	-11.662
▁ingen	-11.662
▁impose	-11.662
▁edna	-11.662
▁highlight	-11.662
▁disapprove	-11.6621
▁nina	-11.6621
▁consideration	-11.6621
▁pierce	-11.6621
▁stack	-11.6622
▁ballast	-11.6622
▁reelection	-11.6622
▁tow	-11.6622
▁modest	-11.6622
▁cran	-11.6623
▁vase	-11.6623
▁maiden	-11.6623
▁discovery	-11.6623
▁nooo	-11.6624
▁amazed	-11.6624
▁humiliated	-11.6624
▁mph	-11.6625
▁assembl	-11.6625
▁stern	-11.6625
▁hahn	-11.6625
▁attain	-11.6626
▁eee	-11.6626
▁crater	-11.6626
▁racers	-11.6627
▁warmth	-11.6627
▁normality	-11.6628
▁personality	-11.6629
▁scenery	-11.6629
▁interst	-11.6629
ampton	-11.663
▁jaw	-11.663
ellar	-11.663
▁suis	-11.663
▁scho	-11.6631
addie	-11.6631
▁chum	-11.6631
▁substan	-11.6632
▁publicity	-11.6632
▁deai	-11.6633
▁lunchtime	-11.6633
▁franklin	-11.6633
▁pinto	-11.6633
which	-11.6634
▁jess	-11.6634
▁contribution	-11.6634
▁refu	-11.6634
▁ruben	-11.6635
▁moist	-11.6635
▁asset	-11.6635
▁ahold	-11.6636
▁vint	-11.6636
▁howi	-11.6637
▁tings	-11.6637
▁spotless	-11.6638
▁sera	-11.6638
▁recommendation	-11.6638
▁ridge	-11.6639
this	-11.6639
▁hup	-11.6639
▁podo	-11.664
▁foreigners	-11.664
▁swore	-11.664
▁wartime	-11.6641
▁organic	-11.6641
▁daf	-11.6641
▁reproduc	-11.6641
▁bick	-11.6641
▁refine	-11.6642
▁techni	-11.6642
▁wooo	-11.6642
ectic	-11.6643
▁sadness	-11.6643
▁barbi	-11.6643
▁gram	-11.6643
▁scratches	-11.6645
vili	-11.6645
▁yellin	-11.6645
▁todo	-11.6648
▁dug	-11.6649
berlin	-11.6651
▁teammate	-11.6651
▁brie	-11.6651
isla	-11.6654
▁protective	-11.6654
▁attraction	-11.6654
▁wiser	-11.6656
▁hart	-11.6656
▁intern	-11.6659
▁fries	-11.6661
▁inci	-11.6662
▁pul	-11.6665
▁mui	-11.6669
tribute	-11.6677
uity	-11.6678
▁wardro	-11.668
▁yara	-11.6682
▁hoop	-11.6683
▁como	-11.6685
▁tract	-11.6695
▁cite	-11.6696
▁moss	-11.6697
ndered	-11.6698
▁bragg	-11.6698
▁sass	-11.6698
▁qual	-11.6705
▁bass	-11.6714
▁whiz	-11.672
nnies	-11.6727
▁rox	-11.673
▁traditional	-11.6735
▁cork	-11.674
▁invit	-11.6745
▁motive	-11.6749
nnae	-11.6756
▁curb	-11.677
▁lapse	-11.6818
hut	-11.6823
ledge	-11.6849
▁aspir	-11.6859
not	-11.6867
▁asa	-11.6921
lethal	-11.6939
▁troupe	-11.6949
▁rustle	-11.6991
▁hump	-11.7022
keep	-11.703
tipping	-11.7056
change	-11.7061
nald	-11.7062
▁thou	-11.7101
ficiency	-11.7105
while	-11.7154
▁mach	-11.7187
▁rosa	-11.7192
ggin	-11.7211
▁estimat	-11.7224
▁receiv	-11.7277
▁compel	-11.7277
▁kenne	-11.7296
frig	-11.7385
predictable	-11.7387
fitting	-11.7435
odie	-11.7449
path	-11.7489
aka	-11.7591
▁skim	-11.7601
▁incidental	-11.7645
▁pott	-11.7686
about	-11.7687
▁baz	-11.7706
▁abso	-11.7707
productive	-11.7714
▁slate	-11.7763
▁hesitat	-11.7764
mph	-11.7783
▁crumbl	-11.7791
▁tanne	-11.782
▁turb	-11.7833
filled	-11.7868
feline	-11.7873
preservation	-11.7874
▁remarkabl	-11.7913
▁primar	-11.7931
donna	-11.7932
▁loyalt	-11.7961
mir	-11.7976
erator	-11.7991
▁mul	-11.803
igan	-11.8047
▁penetrat	-11.8084
▁floati	-11.8105
▁wiz	-11.8163
▁noki	-11.8203
▁cobb	-11.821
▁mont	-11.8235
▁spl	-11.8241
arge	-11.8403
▁insi	-11.8452
▁hallucin	-11.8453
butt	-11.8497
▁converge	-11.8515
▁quot	-11.8518
bru	-11.8546
quist	-11.8585
easy	-11.86
stair	-11.8601
▁tortur	-11.8662
▁parlo	-11.8721
▁presum	-11.8751
▁wedge	-11.8874
▁predict	-11.8938
occupied	-11.8985
buster	-11.9019
fiddle	-11.9053
▁simpl	-11.9061
bbie	-11.9153
▁malle	-11.918
tempered	-11.918
wald	-11.9247
oobee	-11.9261
▁chug	-11.9352
muller	-11.9376
equently	-11.9563
appl	-11.9567
▁trib	-11.9627
▁robber	-11.9659
▁underhill	-11.967
▁coyote	-11.9674
▁instinct	-11.9678
▁relative	-11.9679
▁passenger	-11.9681
▁exhale	-11.9689
illian	-11.9727
mates	-11.9727
▁motiv	-11.9737
▁architect	-11.9749
▁gree	-11.9771
▁oaf	-11.9786
ftin	-11.9808
▁involv	-11.9816
agna	-11.9829
▁surviv	-11.9844
▁circl	-11.9852
▁reprogram	-11.9856
▁discover	-11.9869
▁confus	-11.9871
warming	-11.9874
scope	-11.988
▁applaud	-11.9882
burs	-11.9891
▁suspend	-11.9891
▁visi	-11.9894
drop	-11.9899
▁rasp	-11.9901
▁humiliate	-11.9907
▁amaze	-11.9907
ridge	-11.9908
▁inspire	-11.9909
▁twitch	-11.991
▁butterfl	-11.991
▁thirst	-11.9911
▁stead	-11.9911
▁filth	-11.9912
utters	-11.9913
▁distinct	-11.9913
acceptable	-11.9914
flint	-11.9914
monds	-11.9915
galactic	-11.9915
hunter	-11.9916
odile	-11.9916
flesh	-11.9916
dollar	-11.9916
hundred	-11.9916
written	-11.9916
twenty	-11.9916
knock	-11.9916
brother	-11.9916
service	-11.9916
finished	-11.9916
summer	-11.9917
space	-11.9917
direct	-11.9917
george	-11.9917
snip	-11.9917
nasty	-11.9917
lived	-11.9918
allies	-11.9918
owner	-11.9918
breath	-11.9918
▁chequ	-11.9918
parents	-11.9919
float	-11.9919
▁origin	-11.992
peach	-11.992
▁jigg	-11.9921
▁memo	-11.9921
ofthe	-11.9921
storm	-11.9922
▁surge	-11.9923
▁convey	-11.9925
▁intent	-11.9926
nature	-11.9926
▁ambitio	-11.9927
▁potato	-11.9927
▁critic	-11.9928
▁accelerat	-11.9929
▁region	-11.9929
▁electro	-11.9929
▁raisin	-11.9931
calcula	-11.9932
▁televisi	-11.9932
spects	-11.9932
▁hittin	-11.9932
▁garde	-11.9932
▁soph	-11.9932
▁audit	-11.9932
▁dwar	-11.9933
▁eligib	-11.9933
▁commi	-11.9934
oobeeday	-11.9934
tribution	-11.9934
eview	-11.9935
▁outrage	-11.9935
▁protest	-11.9935
jamas	-11.9935
magne	-11.9935
▁hitchhike	-11.9935
▁francis	-11.9935
▁serge	-11.9935
▁columb	-11.9935
▁initiati	-11.9935
married	-11.9936
▁slob	-11.9936
▁poke	-11.9936
plex	-11.9936
▁hysteri	-11.9936
▁pub	-11.9936
▁meteor	-11.9936
▁kippel	-11.9936
▁acquaint	-11.9936
▁bequeath	-11.9936
▁congrat	-11.9936
▁constituen	-11.9936
▁disinherit	-11.9936
▁misinterpret	-11.9936
▁mmmmmmmmmmmm	-11.9936
▁prospect	-11.9936
conspicuous	-11.9936
hypnoti	-11.9936
incomprehensible	-11.9936
kiki	-11.9936
onscreen	-11.9936
relevant	-11.9936
▁abbott	-11.9936
▁academic	-11.9936
▁accommodation	-11.9936
▁accomplice	-11.9936
▁accusation	-11.9936
▁adelaide	-11.9936
▁administer	-11.9936
▁adrienne	-11.9936
▁advertising	-11.9936
▁albany	-11.9936
▁alcohol	-11.9936
▁allpowerful	-11.9936
▁alternator	-11.9936
▁angrily	-11.9936
▁antimatter	-11.9936
▁appetizer	-11.9936
▁arcade	-11.9936
▁asthma	-11.9936
▁auditorium	-11.9936
▁babinot	-11.9936
▁bacteri	-11.9936
▁banquet	-11.9936
▁bartending	-11.9936
▁batarang	-11.9936
▁beastmaster	-11.9936
▁behaving	-11.9936
▁belknap	-11.9936
▁benedict	-11.9936
▁bermuda	-11.9936
▁bicycle	-11.9936
▁bjornson	-11.9936
▁blizzard	-11.9936
▁blossom	-11.9936
▁brantford	-11.9936
▁brethren	-11.9936
▁britannic	-11.9936
▁bubbling	-11.9936
▁burlesque	-11.9936
▁candidate	-11.9936
▁carpathian	-11.9936
▁cautious	-11.9936
▁cecilia	-11.9936
▁challenging	-11.9936
▁charcoal	-11.9936
▁charging	-11.9936
▁charlotte	-11.9936
▁cheetah	-11.9936
▁chowder	-11.9936
▁chronic	-11.9936
▁cocktoast	-11.9936
▁colombia	-11.9936
▁compound	-11.9936
▁confound	-11.9936
▁corridor	-11.9936
▁credentials	-11.9936
▁cultivat	-11.9936
▁cycle	-11.9936
▁dandelion	-11.9936
▁delbruck	-11.9936
▁delegate	-11.9936
▁deliberate	-11.9936
▁detroit	-11.9936
▁devastat	-11.9936
▁didgeridoo	-11.9936
▁disclosure	-11.9936
▁disconnect	-11.9936
▁dissolve	-11.9936
▁distress	-11.9936
▁doublecheck	-11.9936
▁doughnut	-11.9936
▁drumroll	-11.9936
▁ebola	-11.9936
▁ecosystem	-11.9936
▁eduardo	-11.9936
▁eindhoven	-11.9936
▁eject	-11.9936
▁enforcement	-11.9936
▁enlightened	-11.9936
▁enthusiasm	-11.9936
▁entitlement	-11.9936
▁envelope	-11.9936
▁envoy	-11.9936
▁escapo	-11.9936
▁evaluat	-11.9936
▁eviscerat	-11.9936
▁exaggerat	-11.9936
▁explicit	-11.9936
▁facetoface	-11.9936
▁facilitat	-11.9936
▁facilities	-11.9936
▁ferguson	-11.9936
▁flamethrow	-11.9936
▁flounder	-11.9936
▁floyd	-11.9936
▁frequenc	-11.9936
▁fruitcake	-11.9936
▁frustrat	-11.9936
▁fugitive	-11.9936
▁garebear	-11.9936
▁giddap	-11.9936
▁giddyap	-11.9936
▁gingerbread	-11.9936
▁google	-11.9936
▁greatgreatgran	-11.9936
▁grotesque	-11.9936
▁growltiger	-11.9936
▁gwynne	-11.9936
▁hamstring	-11.9936
▁heirloom	-11.9936
▁hogwash	-11.9936
▁homicid	-11.9936
▁houghton	-11.9936
▁hudnutt	-11.9936
▁hydraulic	-11.9936
▁ignit	-11.9936
▁immunologist	-11.9936
▁imperceptible	-11.9936
▁improbabl	-11.9936
▁incapacitate	-11.9936
▁inconvenience	-11.9936
▁incorrigible	-11.9936
▁industry	-11.9936
▁inevitable	-11.9936
▁influenza	-11.9936
▁instagram	-11.9936
▁interpret	-11.9936
▁intervention	-11.9936
▁intestine	-11.9936
▁intrigue	-11.9936
▁intrusion	-11.9936
▁invincible	-11.9936
▁irregular	-11.9936
▁irrevocabl	-11.9936
▁jadoube	-11.9936
▁jamaica	-11.9936
▁jankanoo	-11.9936
▁kalmbach	-11.9936
▁kamikaze	-11.9936
▁kanuthia	-11.9936
▁kettle	-11.9936
▁kgsc	-11.9936
▁kosher	-11.9936
▁kraken	-11.9936
▁kremlin	-11.9936
▁lalalalaa	-11.9936
▁lamborghini	-11.9936
▁lorelei	-11.9936
▁maggot	-11.9936
▁mandatory	-11.9936
▁matrix	-11.9936
▁mattress	-11.9936
▁mccord	-11.9936
▁mcgregor	-11.9936
▁memsahib	-11.9936
▁mercenary	-11.9936
▁microwave	-11.9936
▁miscreant	-11.9936
▁misfits	-11.9936
▁mozart	-11.9936
▁mutiny	-11.9936
▁mwah	-11.9936
▁mycroft	-11.9936
▁mythology	-11.9936
▁neenurt	-11.9936
▁nifty	-11.9936
▁nugget	-11.9936
▁oatyoaty	-11.9936
▁obstacle	-11.9936
▁occupy	-11.9936
▁offlimits	-11.9936
▁oldfashioned	-11.9936
▁olympic	-11.9936
▁overflow	-11.9936
▁overgrown	-11.9936
▁overslept	-11.9936
▁pakistan	-11.9936
▁pampered	-11.9936
▁pangani	-11.9936
▁paratroop	-11.9936
▁parliament	-11.9936
▁patroniz	-11.9936
▁pedicure	-11.9936
▁perignon	-11.9936
▁perpendicular	-11.9936
▁persistent	-11.9936
▁pesticide	-11.9936
▁philadelphia	-11.9936
▁phineus	-11.9936
▁pippip	-11.9936
▁platypus	-11.9936
▁predicament	-11.9936
▁prehistor	-11.9936
▁prettier	-11.9936
▁priok	-11.9936
▁profiling	-11.9936
▁prosecutor	-11.9936
▁prosperity	-11.9936
▁prostitution	-11.9936
▁purified	-11.9936
▁puttanesca	-11.9936
▁rascal	-11.9936
▁ratfucking	-11.9936
▁rebuild	-11.9936
▁recognition	-11.9936
▁reconnaissance	-11.9936
▁relapse	-11.9936
▁remix	-11.9936
▁removal	-11.9936
▁repulsive	-11.9936
▁resolution	-11.9936
▁respirat	-11.9936
▁retching	-11.9936
▁retract	-11.9936
▁riffraff	-11.9936
▁robistat	-11.9936
▁rommel	-11.9936
▁samburu	-11.9936
▁sapporo	-11.9936
▁satisfactory	-11.9936
▁satscram	-11.9936
▁scenario	-11.9936
▁scroung	-11.9936
▁scrutin	-11.9936
▁shakespeare	-11.9936
▁shakily	-11.9936
▁shampoo	-11.9936
▁shillings	-11.9936
▁shoelaces	-11.9936
▁shrivel	-11.9936
▁shushing	-11.9936
▁siberia	-11.9936
▁skedaddle	-11.9936
▁skulking	-11.9936
▁sniggers	-11.9936
▁software	-11.9936
▁sorceress	-11.9936
▁sourpuss	-11.9936
▁souvenir	-11.9936
▁spectacular	-11.9936
▁splatter	-11.9936
▁stammering	-11.9936
▁starspangled	-11.9936
▁steckler	-11.9936
▁steelgrave	-11.9936
▁stokely	-11.9936
▁strategically	-11.9936
▁strauss	-11.9936
▁sturgis	-11.9936
▁subconscious	-11.9936
▁subsidies	-11.9936
▁supernatural	-11.9936
▁surveillance	-11.9936
▁swimsuit	-11.9936
▁sympathetic	-11.9936
▁synchroniz	-11.9936
▁syndrome	-11.9936
▁tactics	-11.9936
▁tapestries	-11.9936
▁thudding	-11.9936
▁thumbthumbs	-11.9936
▁transaction	-11.9936
▁transients	-11.9936
▁treason	-11.9936
▁tremaine	-11.9936
▁tremendous	-11.9936
▁trinkets	-11.9936
▁tshirt	-11.9936
▁tuscany	-11.9936
▁tuttle	-11.9936
▁tweedie	-11.9936
▁twig	-11.9936
▁tynah	-11.9936
▁unamerican	-11.9936
▁unashamed	-11.9936
▁uncomfortable	-11.9936
▁unemployed	-11.9936
▁unemployment	-11.9936
▁unlocked	-11.9936
▁unprecedented	-11.9936
▁urchin	-11.9936
▁vandenberg	-11.9936
▁vineyard	-11.9936
▁volante	-11.9936
▁warfare	-11.9936
▁weingartner	-11.9936
▁wrestling	-11.9936
▁xoxo	-11.9936
▁youknowwh	-11.9936
▁yourjob	-11.9936
ohohoh	-11.9936
▁aircondition	-11.9936
▁appalling	-11.9936
▁benefact	-11.9936
▁cloak	-11.9936
▁commence	-11.9936
▁devour	-11.9936
▁enslave	-11.9936
▁facial	-11.9936
▁philanthropi	-11.9936
▁plonker	-11.9936
▁striking	-11.9936
▁uncover	-11.9936
▁womb	-11.9936
▁aloft	-11.9936
▁beauties	-11.9936
▁cabana	-11.9936
▁chickenshit	-11.9936
▁christoph	-11.9936
▁clarity	-11.9936
▁clinking	-11.9936
▁conquest	-11.9936
▁croaking	-11.9936
▁eggplant	-11.9936
▁eileen	-11.9936
▁fickle	-11.9936
▁fiji	-11.9936
▁herald	-11.9936
▁icecold	-11.9936
▁imposter	-11.9936
▁indication	-11.9936
▁infestation	-11.9936
▁kipper	-11.9936
▁maestro	-11.9936
▁ofhere	-11.9936
▁orcas	-11.9936
▁participat	-11.9936
▁peguy	-11.9936
▁sartre	-11.9936
▁scurry	-11.9936
▁selfdestruct	-11.9936
▁sheik	-11.9936
▁skunk	-11.9936
▁spittoon	-11.9936
▁splinter	-11.9936
▁stirrup	-11.9936
▁streak	-11.9936
▁suitcase	-11.9936
▁twanging	-11.9936
▁unbeatable	-11.9936
▁unfold	-11.9936
▁voicemail	-11.9936
▁waddling	-11.9936
▁whereabouts	-11.9936
▁woodruff	-11.9936
▁aerosol	-11.9936
▁backfiring	-11.9936
▁brontoc	-11.9936
▁cinema	-11.9936
▁dalton	-11.9936
▁dizzy	-11.9936
▁doktor	-11.9936
▁errand	-11.9936
▁eyelash	-11.9936
▁figment	-11.9936
▁hector	-11.9936
▁hillbill	-11.9936
▁hobby	-11.9936
▁lipstick	-11.9936
▁mercedes	-11.9936
▁pavement	-11.9936
▁purity	-11.9936
▁reanimati	-11.9936
▁reunion	-11.9936
▁scudders	-11.9936
▁slender	-11.9936
▁sodium	-11.9936
▁ultra	-11.9936
▁vegan	-11.9936
▁wouid	-11.9936
▁wrath	-11.9936
▁yonder	-11.9936
▁airraid	-11.9936
▁blouse	-11.9936
▁clanking	-11.9936
▁gopher	-11.9936
▁graveyard	-11.9936
▁herbs	-11.9936
▁illuminat	-11.9936
▁macaro	-11.9936
▁mastermind	-11.9936
▁ministry	-11.9936
▁oream	-11.9936
▁overdue	-11.9936
▁pervert	-11.9936
▁rehab	-11.9936
▁reliable	-11.9936
▁seventeen	-11.9936
▁skating	-11.9936
▁yokel	-11.9936
culty	-11.9936
pharmac	-11.9936
▁handiwork	-11.9936
▁herpe	-11.9936
▁hurleys	-11.9936
▁intro	-11.9936
▁jarren	-11.9936
▁picts	-11.9936
▁properties	-11.9936
▁retches	-11.9936
▁saloon	-11.9936
▁schme	-11.9936
▁smog	-11.9936
▁superstar	-11.9936
▁taiwan	-11.9936
▁abbey	-11.9937
▁batcharges	-11.9937
▁celest	-11.9937
▁ciean	-11.9937
▁crotche	-11.9937
▁devon	-11.9937
▁entom	-11.9937
▁hangover	-11.9937
▁medicinal	-11.9937
▁sermon	-11.9937
▁sliding	-11.9937
▁squadron	-11.9937
▁tepee	-11.9937
▁unarmed	-11.9937
▁warehouse	-11.9937
▁wrist	-11.9937
emorrhoids	-11.9937
empress	-11.9937
▁allez	-11.9937
▁detorre	-11.9937
▁falter	-11.9937
▁fishermen	-11.9937
▁wiping	-11.9937
▁feud	-11.9937
▁halfbreed	-11.9937
▁hardcore	-11.9937
▁mutation	-11.9937
▁handgun	-11.9937
▁sinuses	-11.9937
▁skirts	-11.9937
▁sleepover	-11.9937
▁whiie	-11.9937
▁immature	-11.9937
▁laura	-11.9937
▁wallace	-11.9937
▁barrier	-11.9937
▁noseholes	-11.9937
▁plumbing	-11.9937
▁reub	-11.9937
▁theoretical	-11.9937
▁massacre	-11.9937
▁gesture	-11.9937
▁kgb	-11.9937
▁playmate	-11.9937
▁pottersville	-11.9937
▁tweet	-11.9937
▁buggy	-11.9937
▁canyon	-11.9937
▁luke	-11.9937
▁sewer	-11.9937
▁limoges	-11.9937
▁sinners	-11.9937
▁herman	-11.9937
▁ummm	-11.9937
▁knick	-11.9937
▁cuddl	-11.9937
tofa	-11.9937
▁canvas	-11.9937
▁recurr	-11.9937
▁kippelstein	-11.9937
▁millionaire	-11.9937
reconcil	-11.9937
▁gorgon	-11.9937
▁retri	-11.9937
▁buena	-11.9937
▁longterm	-11.9937
▁trapping	-11.9937
▁compuls	-11.9937
▁trump	-11.9937
▁entre	-11.9937
▁ninetyeight	-11.9937
▁carbery	-11.9937
▁trembl	-11.9937
▁snapping	-11.9937
▁muddle	-11.9937
▁blix	-11.9937
▁convert	-11.9937
▁handicapped	-11.9937
▁odor	-11.9937
▁oneeighty	-11.9937
▁preview	-11.9937
▁psychopath	-11.9937
▁retina	-11.9937
▁insolen	-11.9937
▁thathat	-11.9937
▁rejoic	-11.9937
▁cobbler	-11.9937
▁nnn	-11.9937
▁biology	-11.9937
▁doggone	-11.9937
▁duplication	-11.9937
▁qualities	-11.9937
sanitary	-11.9937
▁whims	-11.9937
snatch	-11.9937
▁hiph	-11.9937
▁tamb	-11.9937
▁levy	-11.9937
scend	-11.9937
▁indecent	-11.9937
▁ramos	-11.9937
▁spiritual	-11.9937
▁francs	-11.9937
▁attribute	-11.9937
▁hidin	-11.9937
▁weenie	-11.9937
▁taime	-11.9937
▁hallucinations	-11.9937
▁scrape	-11.9937
▁aero	-11.9937
▁nonlethal	-11.9937
parallel	-11.9937
▁lapcat	-11.9937
populate	-11.9937
▁chippy	-11.9937
▁visible	-11.9937
▁newcomer	-11.9937
▁initiating	-11.9937
▁chemist	-11.9937
▁psychiatrist	-11.9938
▁douglas	-11.9938
▁mubi	-11.9938
▁trough	-11.9938
nbrand	-11.9938
▁picard	-11.9938
▁integrity	-11.9938
▁originated	-11.9938
▁jellyfish	-11.9938
▁pillaging	-11.9938
▁mimic	-11.9938
▁donkey	-11.9938
▁ngong	-11.9938
▁joyride	-11.9938
▁bummer	-11.9938
▁basis	-11.9938
▁alphabet	-11.9938
▁minimal	-11.9938
▁terminate	-11.9938
▁onboard	-11.9938
▁meyer	-11.9938
gamma	-11.9938
▁papi	-11.9938
▁protestant	-11.9938
▁sharpshoot	-11.9938
▁economic	-11.9938
▁refuge	-11.9938
▁radioactivity	-11.9938
▁quiver	-11.9938
▁chemistry	-11.9938
▁colonial	-11.9938
▁korea	-11.9938
▁stomp	-11.9938
▁podium	-11.9938
▁nazi	-11.9938
▁departure	-11.9938
▁parole	-11.9938
▁rustlers	-11.9938
▁lobs	-11.9938
▁fridge	-11.9938
▁refund	-11.9939
flamm	-11.9939
▁harv	-11.9939
▁percentage	-11.9939
▁chrom	-11.9939
▁expire	-11.9939
▁reverence	-11.9939
▁resemblance	-11.9939
▁diner	-11.9939
▁dripping	-11.9939
▁spiff	-11.9939
▁interrogation	-11.9939
▁manipulation	-11.9939
▁venture	-11.9939
certifi	-11.9939
▁freight	-11.9939
▁autops	-11.9939
▁merge	-11.9939
▁colonist	-11.9939
▁irving	-11.9939
▁conceiv	-11.9939
▁jessup	-11.9939
▁squid	-11.9939
▁boosters	-11.9939
▁palpitat	-11.9939
▁morphine	-11.9939
▁parlour	-11.9939
▁ignorant	-11.9939
▁curator	-11.994
▁affectionate	-11.994
▁witty	-11.994
ravell	-11.994
▁piggies	-11.994
▁java	-11.994
persona	-11.994
▁iying	-11.994
▁rhine	-11.994
▁borderline	-11.994
▁expeditio	-11.994
▁bankrupt	-11.994
▁sissy	-11.994
▁overlook	-11.994
▁pepsi	-11.994
▁zarkin	-11.9941
▁brute	-11.9941
▁expand	-11.9941
▁amusement	-11.9941
▁refreshment	-11.9941
▁dishono	-11.9941
▁clich	-11.9941
▁awakened	-11.9941
▁cheerio	-11.9941
▁cupboard	-11.9941
▁offence	-11.9941
▁eldest	-11.9941
▁shaq	-11.9941
luja	-11.9941
▁moray	-11.9941
▁stella	-11.9941
▁primate	-11.9941
▁vivi	-11.9941
▁humid	-11.9942
▁postcard	-11.9942
▁vogonity	-11.9942
▁hatchday	-11.9942
▁famine	-11.9942
▁coupling	-11.9942
▁gown	-11.9942
▁rustling	-11.9942
▁cobra	-11.9942
▁blott	-11.9942
▁ferrand	-11.9942
▁cancelled	-11.9942
▁swordfish	-11.9942
▁roja	-11.9942
▁scarce	-11.9942
▁decay	-11.9942
▁boast	-11.9942
▁superpower	-11.9943
▁decompos	-11.9943
▁hind	-11.9943
▁excla	-11.9943
▁wrapper	-11.9943
▁seren	-11.9943
▁creator	-11.9943
▁panther	-11.9943
▁cartoonist	-11.9944
▁revolutionary	-11.9944
▁spank	-11.9944
▁kili	-11.9944
▁plung	-11.9944
▁depriv	-11.9944
▁overboard	-11.9944
▁chunk	-11.9944
▁boogie	-11.9945
▁vroom	-11.9945
▁deceiv	-11.9945
▁shutters	-11.9945
▁festiv	-11.9945
▁washroom	-11.9945
▁infant	-11.9945
▁fritter	-11.9945
vada	-11.9945
▁lark	-11.9946
omever	-11.9946
▁reactor	-11.9946
▁repay	-11.9946
▁taff	-11.9946
▁emerge	-11.9947
▁tiis	-11.9947
▁shack	-11.9947
▁ibu	-11.9947
▁kilo	-11.9948
▁flapping	-11.9948
enomination	-11.9949
▁abuse	-11.9949
▁fizz	-11.9949
▁flick	-11.9949
▁toad	-11.9949
zilla	-11.9949
▁electrician	-11.9949
▁henchm	-11.995
▁dominan	-11.995
ooga	-11.995
ometer	-11.9951
▁bebo	-11.9951
▁jiggle	-11.9952
▁concussion	-11.9955
▁vinnie	-11.9955
▁shun	-11.9956
▁choc	-11.9964
quaint	-11.9966
basti	-11.997
certainty	-11.9971
uppy	-11.9971
▁mardi	-11.9977
▁misuse	-11.9977
▁corone	-11.9979
fict	-11.998
▁burbl	-11.9985
ubi	-11.9994
programmed	-11.9995
▁disrupti	-11.9998
▁hyd	-12.0002
rug	-12.0004
▁tarta	-12.001
▁grandmaster	-12.0014
timate	-12.0019
▁andno	-12.0025
exploit	-12.0042
mographic	-12.0063
▁terrorize	-12.0064
myjob	-12.0067
oodoo	-12.0069
▁whoaoa	-12.007
splend	-12.0071
empt	-12.0072
▁blabb	-12.0084
▁stylin	-12.0088
▁scuffl	-12.0091
extraterrestrial	-12.0096
▁fernand	-12.0105
orlock	-12.0113
▁exchang	-12.0114
▁reconstruct	-12.0115
opsy	-12.0141
▁despera	-12.0148
▁creat	-12.0188
▁revv	-12.0212
▁comprehensi	-12.0213
▁butyou	-12.0222
▁visualiz	-12.0233
ttering	-12.0324
▁liabilit	-12.0331
▁psychologica	-12.0369
provoke	-12.0452
▁verif	-12.0468
hahahaha	-12.058
morrow	-12.0648
bareback	-12.0703
▁unmar	-12.0743
▁fiddl	-12.0904
▁preoccup	-12.096
▁verba	-12.098
▁blackberr	-12.105
ubbing	-12.1088
▁willi	-12.1136
atherin	-12.1206
eaves	-12.1453
capitalist	-12.1655
▁financ	-12.1859
cust	-12.1939
katie	-12.1967
▁proc	-12.1987
auze	-12.2037
egory	-12.226
▁kkk	-12.2281
▁magnif	-12.2885
▁envi	-12.2919
indig	-12.2936
▁navigat	-12.2976
winkie	-12.3165
▁narc	-12.323
numb	-12.347
▁patholog	-12.3593
cuba	-12.3697
▁ofju	-12.3757
quid	-12.3769
tripoli	-12.3832
plasm	-12.4025
▁substantia	-12.4125
▁ordina	-12.4207
▁doubl	-12.4237
after	-12.429
quality	-12.4301
▁considerabl	-12.4378
attended	-12.4401
▁invi	-12.4475
graphic	-12.451
pressed	-12.4554
▁bamb	-12.4602
▁fooglie	-12.4673
▁glg	-12.4673
▁poacher	-12.4676
▁cackle	-12.4678
▁critter	-12.4682
jector	-12.4727
ractor	-12.4731
athletes	-12.475
nounced	-12.4753
quarters	-12.4762
▁mechani	-12.4783
oaster	-12.4786
▁featur	-12.4804
▁sacrific	-12.4808
▁merc	-12.481
plication	-12.4813
▁serv	-12.4813
traits	-12.4821
▁exhaust	-12.4837
known	-12.484
vices	-12.4855
treated	-12.4861
turn	-12.4868
flus	-12.4879
▁trespass	-12.4882
▁terrify	-12.4882
▁fascinat	-12.4884
▁extermin	-12.4884
▁responsi	-12.4888
itua	-12.489
▁giggl	-12.4893
cussions	-12.4894
▁philosoph	-12.4904
▁collapse	-12.4908
▁identifie	-12.4908
▁sicil	-12.4909
▁paranoi	-12.491
▁react	-12.4911
▁beyon	-12.4911
▁distort	-12.4911
rusty	-12.4911
▁specia	-12.4911
▁dumm	-12.4912
▁laundr	-12.4912
craft	-12.4912
mount	-12.4913
appointed	-12.4913
civilized	-12.4914
tangle	-12.4914
reign	-12.4914
identified	-12.4914
voluntar	-12.4914
mutt	-12.4915
squa	-12.4915
scramble	-12.4915
automatic	-12.4915
conduct	-12.4915
