<unk>	0
<s>	0
</s>	0
s	-4.17461
▁know	-4.47317
▁im	-4.47963
▁dont	-4.48044
▁get	-4.70798
▁got	-4.74293
▁right	-4.75484
▁like	-4.87579
▁yeah	-4.8838
▁go	-4.90912
▁youre	-4.97561
▁come	-5.03893
▁na	-5.05141
▁thats	-5.10731
▁one	-5.18613
▁well	-5.20621
▁oh	-5.23974
▁fucking	-5.25662
▁want	-5.26845
▁man	-5.29839
▁good	-5.30722
▁gon	-5.32093
▁see	-5.4015
▁okay	-5.42704
▁fuck	-5.46176
▁think	-5.46428
▁	-5.49894
▁hes	-5.50447
▁back	-5.564
▁look	-5.57543
▁hey	-5.61625
▁take	-5.62824
ing	-5.67189
▁time	-5.69354
▁going	-5.72123
▁tell	-5.73365
▁l	-5.73385
▁ill	-5.73762
▁us	-5.78337
▁say	-5.81178
▁yes	-5.83303
▁shit	-5.84639
▁could	-5.8877
▁cant	-5.90321
▁didnt	-5.91143
▁need	-5.92393
▁would	-5.93187
ed	-5.94346
▁make	-5.99604
▁give	-5.99809
▁way	-6.00432
▁mean	-6.0123
▁something	-6.01617
▁let	-6.0367
▁never	-6.0465
▁whats	-6.05213
▁little	-6.06551
▁really	-6.06884
▁lets	-6.09917
▁two	-6.12916
▁please	-6.16508
▁sir	-6.16664
▁theres	-6.1865
▁money	-6.20807
▁said	-6.21255
▁ive	-6.21948
▁people	-6.22853
▁sorry	-6.24198
▁thank	-6.25557
▁mr	-6.27125
▁thing	-6.27864
▁god	-6.29744
▁love	-6.33799
▁guy	-6.33799
▁put	-6.33833
▁call	-6.37388
▁uh	-6.37702
▁sure	-6.38402
d	-6.4145
▁anything	-6.42971
▁much	-6.44227
▁help	-6.44331
▁theyre	-6.455
▁even	-6.46538
▁life	-6.46596
▁nothing	-6.4722
▁name	-6.47419
▁keep	-6.50661
▁day	-6.50848
▁guys	-6.51252
y	-6.52085
▁find	-6.54618
▁talk	-6.56067
▁stop	-6.56158
▁night	-6.56224
▁wan	-6.5799
▁around	-6.59189
▁car	-6.5966
▁ta	-6.59823
▁still	-6.60333
▁big	-6.61153
▁work	-6.62032
o	-6.62042
▁away	-6.63694
e	-6.64695
▁first	-6.65577
▁ever	-6.65795
▁maybe	-6.66107
▁home	-6.67024
▁wait	-6.67762
▁listen	-6.68516
▁shes	-6.68779
▁new	-6.70302
▁better	-6.70571
▁always	-6.7167
▁years	-6.71825
▁last	-6.71969
▁old	-6.72493
▁hell	-6.74907
▁everything	-6.75771
▁understand	-6.7603
▁aint	-6.76204
▁dead	-6.76253
▁long	-6.76761
▁things	-6.76789
▁boy	-6.7692
▁told	-6.77175
▁baby	-6.77232
▁three	-6.78865
▁place	-6.79354
▁kill	-6.79373
▁thought	-6.79574
▁house	-6.79689
▁bad	-6.80236
▁great	-6.8153
▁lot	-6.82182
▁hear	-6.82346
▁move	-6.84375
▁every	-6.84624
▁done	-6.85096
▁fuckin	-6.85642
▁door	-6.86029
▁id	-6.86347
▁son	-6.88026
▁leave	-6.88244
▁nice	-6.88356
▁real	-6.89274
▁job	-6.89334
▁wont	-6.9141
▁made	-6.91665
ly	-6.92553
▁youve	-6.92771
▁father	-6.93645
▁huh	-6.95076
▁doesnt	-6.95309
▁left	-6.96249
▁stay	-6.96406
▁talking	-6.97951
▁youll	-6.98159
▁girl	-6.98416
▁believe	-6.98998
▁fine	-6.99842
▁feel	-7.01285
▁kind	-7.01566
▁ok	-7.01854
▁ask	-7.02109
a	-7.02361
▁remember	-7.02826
▁care	-7.0406
▁friend	-7.05148
▁business	-7.05307
▁looking	-7.05849
▁happened	-7.06544
▁wanted	-7.06938
▁ass	-7.07053
▁mother	-7.07379
▁else	-7.07528
▁hello	-7.09
▁enough	-7.09081
▁hi	-7.09588
▁wrong	-7.09619
▁came	-7.10165
▁coming	-7.10189
▁getting	-7.10222
▁head	-7.10347
▁hold	-7.10606
▁next	-7.11802
▁family	-7.13214
▁show	-7.13312
▁wife	-7.13485
▁run	-7.13934
▁must	-7.14023
▁phone	-7.14072
▁kid	-7.14184
er	-7.14238
▁wasnt	-7.15168
▁men	-7.15188
▁gun	-7.16087
▁course	-7.16318
▁another	-7.16606
▁best	-7.16614
▁em	-7.17078
▁open	-7.172
▁world	-7.17592
▁trying	-7.17772
▁morning	-7.17772
▁today	-7.18362
▁knew	-7.18948
▁whos	-7.19989
▁went	-7.20141
▁seen	-7.20727
▁found	-7.20734
▁woman	-7.21046
▁watch	-7.22181
▁mind	-7.22562
▁might	-7.23185
▁killed	-7.24519
▁shut	-7.24742
▁isnt	-7.25057
▁heard	-7.25309
▁thanks	-7.2577
▁hard	-7.25909
▁cause	-7.26577
▁jesus	-7.27293
▁wouldnt	-7.27637
▁problem	-7.28461
▁hand	-7.28495
▁saw	-7.28916
▁tony	-7.29555
▁took	-7.2957
▁deal	-7.30011
▁someone	-7.30483
▁police	-7.30537
r	-7.31081
▁try	-7.31877
▁may	-7.33465
▁nobody	-7.34249
▁shot	-7.34252
▁ready	-7.35085
▁meet	-7.35232
▁sit	-7.35498
▁bitch	-7.35989
▁bring	-7.36048
▁room	-7.37133
▁hit	-7.37565
▁saying	-7.37633
▁goddamn	-7.37897
▁brother	-7.38533
▁tonight	-7.39246
▁happy	-7.39248
▁four	-7.39978
▁case	-7.40262
▁die	-7.40656
▁um	-7.40674
▁pay	-7.40764
▁without	-7.41819
▁whole	-7.41821
▁called	-7.42943
▁dad	-7.43138
▁bit	-7.43237
▁five	-7.44468
▁idea	-7.44701
▁playing	-7.44795
▁turn	-7.44802
▁jimmy	-7.45007
▁says	-7.45212
▁pretty	-7.45229
▁together	-7.45229
▁friends	-7.45442
▁weve	-7.45615
▁play	-7.4612
▁hands	-7.46156
▁alright	-7.46783
▁everybody	-7.46923
▁days	-7.46989
▁cut	-7.47353
▁lm	-7.47362
▁used	-7.47544
▁n	-7.47945
▁whoa	-7.48393
▁gone	-7.48431
▁face	-7.4858
▁somebody	-7.49749
▁matter	-7.49769
▁end	-7.49981
▁henry	-7.50759
▁youd	-7.50793
▁start	-7.51146
▁alone	-7.51191
▁many	-7.51655
▁minutes	-7.51991
▁frank	-7.51992
i	-7.52007
▁music	-7.52363
▁use	-7.5406
▁crazy	-7.5409
▁gave	-7.54512
▁guess	-7.54711
▁wheres	-7.5478
▁live	-7.54848
▁excuse	-7.55069
▁couldnt	-7.55398
▁beautiful	-7.56536
▁worry	-7.57158
▁shoot	-7.57191
▁stuff	-7.57242
▁dog	-7.57357
▁six	-7.57556
▁already	-7.58389
▁anyone	-7.58389
▁point	-7.58425
▁damn	-7.58765
▁easy	-7.5883
▁ago	-7.59269
ll	-7.59456
▁since	-7.59612
▁set	-7.59639
▁havent	-7.61062
▁danny	-7.61062
▁yet	-7.61066
▁kids	-7.61719
▁drive	-7.61851
▁line	-7.62203
▁second	-7.62485
es	-7.62558
▁boss	-7.6331
▁forget	-7.63342
▁wants	-7.63411
▁john	-7.63764
▁anybody	-7.63808
▁check	-7.64537
▁eyes	-7.64706
▁half	-7.64736
t	-7.65562
▁motherfucker	-7.6567
▁tomorrow	-7.66156
▁walk	-7.66376
▁black	-7.66585
▁inside	-7.66634
▁drink	-7.67225
▁goes	-7.67462
▁pick	-7.67883
▁minute	-7.681
▁million	-7.68111
▁hope	-7.6842
▁supposed	-7.6851
▁de	-7.68584
▁looks	-7.6945
▁clean	-7.69488
▁read	-7.69872
n	-7.6993
▁captain	-7.7003
▁thinking	-7.70224
▁anyway	-7.70525
▁number	-7.70586
▁sighs	-7.71041
▁ah	-7.71217
▁exactly	-7.71531
▁lost	-7.72045
▁working	-7.72048
▁year	-7.72644
▁un	-7.72693
▁week	-7.73527
▁christ	-7.74482
▁soon	-7.75019
▁probably	-7.75095
▁whatever	-7.75095
▁cool	-7.75173
▁word	-7.75755
▁later	-7.76246
▁game	-7.77407
▁taking	-7.77754
▁boys	-7.7791
▁lord	-7.77911
▁part	-7.78169
▁free	-7.78213
▁bill	-7.78823
▁laughing	-7.78928
▁sleep	-7.78955
▁mom	-7.79072
▁young	-7.79231
▁front	-7.79345
▁close	-7.79568
▁dude	-7.79905
▁far	-7.80062
▁blood	-7.80283
▁behind	-7.80429
▁fire	-7.80468
al	-7.80495
▁buy	-7.80867
▁actually	-7.80985
▁rest	-7.81148
▁answer	-7.82063
▁stand	-7.82089
▁school	-7.82336
▁fight	-7.824
▁white	-7.82413
▁funny	-7.82644
▁red	-7.8286
▁though	-7.83224
▁hate	-7.83484
▁ahead	-7.83775
▁death	-7.83775
▁story	-7.83782
l	-7.84025
▁heart	-7.84419
▁chuckles	-7.84437
▁clear	-7.84469
▁change	-7.85047
▁truth	-7.85486
▁street	-7.85785
▁couple	-7.85793
in	-7.8605
▁grunts	-7.86128
▁ten	-7.86411
▁times	-7.86728
▁war	-7.86732
▁outside	-7.87232
▁ya	-7.8756
▁que	-7.87721
▁miss	-7.87796
▁trust	-7.88147
▁continues	-7.88198
▁break	-7.88347
▁tommy	-7.88412
▁happen	-7.88711
▁chance	-7.88765
▁bullshit	-7.89006
▁making	-7.89019
▁hurt	-7.89625
▁months	-7.89764
▁la	-7.89837
▁piece	-7.8999
▁speak	-7.90141
▁anymore	-7.90207
▁city	-7.90224
▁mine	-7.90665
▁wish	-7.90758
▁jordan	-7.90813
▁stupid	-7.9141
▁town	-7.9185
▁water	-7.91854
▁girls	-7.91995
▁afraid	-7.92037
▁send	-7.92274
▁cop	-7.92379
▁high	-7.93786
▁eat	-7.94133
▁jack	-7.94528
▁body	-7.94536
▁makes	-7.94973
▁telling	-7.95091
▁pull	-7.95576
▁question	-7.96302
▁grunting	-7.96456
▁sick	-7.96461
▁doctor	-7.96942
▁hours	-7.96976
▁means	-7.97371
▁fucked	-7.97635
▁touch	-7.97713
▁met	-7.9787
▁e	-7.9822
▁nigger	-7.98258
▁tried	-7.98404
▁light	-7.9875
▁person	-7.98884
▁side	-7.98983
▁country	-7.99054
m	-8.00227
▁trouble	-8.00271
▁gentlemen	-8.00375
▁true	-8.00383
▁asked	-8.00393
▁sometimes	-8.00752
▁bet	-8.00928
ve	-8.01034
▁grand	-8.0229
▁daughter	-8.02329
▁late	-8.02929
▁important	-8.02985
▁moment	-8.0303
▁either	-8.03087
▁alive	-8.03092
▁started	-8.04214
▁tv	-8.04473
▁also	-8.05171
▁comes	-8.05467
▁tom	-8.05827
▁michael	-8.05874
▁groans	-8.06631
▁cops	-8.07532
▁arent	-8.08018
▁welcome	-8.08019
▁everyone	-8.08041
▁screaming	-8.08076
▁lts	-8.08183
▁knows	-8.08492
▁serious	-8.09375
▁office	-8.09399
▁cash	-8.09475
▁nick	-8.09994
▁bed	-8.10502
▁waiting	-8.10882
▁shall	-8.10949
▁order	-8.1111
▁worth	-8.11688
▁brought	-8.11694
▁hows	-8.11695
▁least	-8.11705
▁eye	-8.11791
▁full	-8.123
▁different	-8.13101
▁mrs	-8.13174
▁almost	-8.13204
▁calm	-8.13206
▁table	-8.1332
▁company	-8.13971
▁nicky	-8.14206
▁hed	-8.14298
▁dr	-8.14381
▁sell	-8.15164
▁club	-8.15619
▁taken	-8.16096
▁top	-8.16192
▁karen	-8.16293
▁hour	-8.16429
▁party	-8.16507
▁step	-8.16834
▁hmm	-8.1705
▁re	-8.17068
▁honey	-8.17083
▁h	-8.17096
▁lose	-8.17166
▁stan	-8.18522
▁laughs	-8.1868
▁stem	-8.18681
▁they	-8.19303
▁buddy	-8.19484
▁happens	-8.19814
▁died	-8.19916
▁lll	-8.20072
▁news	-8.20135
▁running	-8.203
▁fun	-8.20428
▁along	-8.2111
▁v	-8.21159
▁heres	-8.21274
▁reason	-8.21294
▁asking	-8.21404
▁c	-8.21497
▁save	-8.21788
▁radio	-8.21945
▁truck	-8.22159
▁fast	-8.22523
est	-8.22684
▁wake	-8.22838
▁officer	-8.23084
▁beat	-8.23374
▁french	-8.23585
▁howard	-8.23613
▁living	-8.23621
▁bank	-8.23663
▁questions	-8.23813
▁ace	-8.23917
▁known	-8.23932
▁blue	-8.24282
▁hang	-8.24314
▁sense	-8.24443
▁english	-8.24462
▁scared	-8.24522
▁prison	-8.24602
▁sign	-8.2461
▁drop	-8.24714
▁book	-8.25102
▁swear	-8.25316
▁itll	-8.25319
▁sent	-8.25323
▁quite	-8.25405
▁safe	-8.25997
▁roll	-8.26851
▁blow	-8.26953
▁poor	-8.27055
▁husband	-8.27337
▁asshole	-8.27364
▁wow	-8.27927
▁groaning	-8.2794
▁holy	-8.27956
▁private	-8.28072
▁till	-8.28111
▁straight	-8.28793
▁feeling	-8.29461
▁fact	-8.29627
▁coffee	-8.29702
▁daddy	-8.29715
▁sound	-8.29807
▁aii	-8.3001
▁promise	-8.30796
▁learn	-8.30895
▁voice	-8.30961
▁children	-8.3098
▁smart	-8.31414
▁bag	-8.31449
▁air	-8.31561
▁dick	-8.3186
▁state	-8.32047
▁catch	-8.3208
▁se	-8.32398
▁watching	-8.32532
▁team	-8.32837
▁worked	-8.32922
▁hurry	-8.33357
▁iike	-8.33387
▁count	-8.33633
▁calling	-8.33896
▁throw	-8.33897
▁bar	-8.33977
▁hair	-8.34151
▁past	-8.34257
▁mitch	-8.3429
▁none	-8.34356
▁win	-8.34832
▁kidding	-8.35242
▁stick	-8.35526
▁york	-8.3566
▁speaking	-8.35766
▁special	-8.3581
▁fat	-8.36141
▁somewhere	-8.36185
▁th	-8.36322
▁crime	-8.36658
▁boat	-8.36673
▁act	-8.37463
▁lives	-8.37514
▁sort	-8.37586
▁floor	-8.37586
▁power	-8.37632
▁gets	-8.37692
▁road	-8.37718
▁women	-8.38124
▁panting	-8.38137
▁eight	-8.38139
▁choice	-8.3861
▁child	-8.38621
▁needs	-8.3877
▁weeks	-8.38909
▁green	-8.38937
▁plan	-8.38944
▁lawyer	-8.3963
▁s	-8.39671
▁hot	-8.39823
▁quiet	-8.3999
▁bye	-8.40089
▁food	-8.40097
▁slow	-8.40246
▁building	-8.40728
▁lie	-8.4095
▁sitting	-8.41107
▁balls	-8.41449
▁corleone	-8.41633
▁mary	-8.41706
ic	-8.41754
▁yo	-8.41797
▁dinner	-8.42098
▁married	-8.42103
ers	-8.42115
▁control	-8.42584
▁mouth	-8.4269
▁pain	-8.42957
▁luck	-8.43001
▁machine	-8.43731
ie	-8.43917
▁gold	-8.44121
▁b	-8.44156
▁lady	-8.44189
▁ride	-8.44446
▁engine	-8.44464
u	-8.44532
▁rat	-8.44546
g	-8.44553
▁sister	-8.44791
▁perfect	-8.45092
▁glad	-8.45192
▁seems	-8.45259
▁pop	-8.45537
▁picture	-8.45852
▁grey	-8.46244
▁lf	-8.46399
▁lucky	-8.46405
▁ball	-8.46472
▁rock	-8.46758
▁dollars	-8.46765
▁charlie	-8.46886
ies	-8.46931
us	-8.47178
▁leaving	-8.47309
▁james	-8.47317
▁knock	-8.47346
▁ringing	-8.47619
on	-8.477
▁handle	-8.47763
▁hundred	-8.48007
▁bastard	-8.48023
▁cam	-8.48086
▁a	-8.48224
▁tires	-8.4849
man	-8.49015
▁ladies	-8.49478
▁respect	-8.49875
▁ones	-8.49995
▁m	-8.50056
▁detective	-8.5019
▁become	-8.50216
▁brothers	-8.50539
▁driving	-8.50571
▁giving	-8.50571
▁outta	-8.50572
▁seven	-8.50679
▁follow	-8.50684
▁given	-8.51139
▁paul	-8.5126
▁talked	-8.51267
▁fair	-8.5151
▁cold	-8.51609
▁max	-8.51659
▁maam	-8.51683
▁pleasure	-8.51685
▁offer	-8.52227
▁hotel	-8.52474
▁dave	-8.5267
▁david	-8.52804
▁murder	-8.52869
▁sounds	-8.53488
▁smell	-8.53509
▁month	-8.53524
▁thousand	-8.53625
▁rid	-8.53679
▁appreciate	-8.53761
▁small	-8.53859
▁quick	-8.54918
▁guns	-8.55035
▁killing	-8.55535
▁eu	-8.55637
ion	-8.55801
▁relax	-8.55973
▁sweet	-8.55976
▁across	-8.56252
▁chief	-8.56252
▁born	-8.5629
▁names	-8.57171
▁near	-8.57295
▁information	-8.5743
▁moving	-8.57431
▁mama	-8.57657
▁da	-8.57761
▁ring	-8.57902
▁horse	-8.5798
▁hunt	-8.58168
▁charge	-8.58203
▁sam	-8.58255
▁joel	-8.58503
▁mad	-8.58517
▁hospital	-8.58606
▁maurizio	-8.58619
▁shouldnt	-8.5862
▁dear	-8.58673
▁loved	-8.58968
▁pass	-8.59081
▁master	-8.59368
▁cell	-8.59387
▁bullet	-8.59541
▁dance	-8.59562
▁j	-8.59649
▁dark	-8.59724
▁birthday	-8.59824
▁jail	-8.5984
▁theyve	-8.59874
▁busy	-8.59902
able	-8.59947
▁wall	-8.59962
▁less	-8.60097
▁able	-8.60248
▁doc	-8.60752
▁train	-8.60846
▁song	-8.60929
▁tape	-8.60963
▁except	-8.61021
▁anywhere	-8.61044
▁finish	-8.61589
▁tough	-8.61969
▁sake	-8.6204
▁mike	-8.6213
▁grab	-8.62269
▁accident	-8.62278
▁lt	-8.62981
▁wear	-8.63019
▁words	-8.63208
▁favor	-8.63308
▁ground	-8.63321
▁service	-8.63321
▁window	-8.6334
▁quit	-8.63397
▁situation	-8.63528
▁tired	-8.6354
ar	-8.63776
▁looked	-8.63957
▁meant	-8.64196
▁missing	-8.64259
▁race	-8.64485
▁meeting	-8.64493
▁owe	-8.64514
c	-8.646
▁court	-8.64648
▁key	-8.64673
▁strong	-8.64714
▁glass	-8.64744
▁goodbye	-8.64794
▁patrick	-8.64797
▁crowd	-8.64799
▁kept	-8.64802
▁paid	-8.64844
▁ben	-8.65344
▁short	-8.65417
▁rich	-8.65931
▁bunch	-8.66077
ous	-8.66507
▁d	-8.66764
▁present	-8.66881
▁turned	-8.66947
▁lock	-8.67113
▁broke	-8.67352
▁terrible	-8.67375
▁harry	-8.67376
▁smoke	-8.67386
▁list	-8.67519
▁movie	-8.67857
▁works	-8.67926
▁expect	-8.68035
▁agent	-8.6854
▁drug	-8.68543
▁personal	-8.68661
▁feet	-8.68704
▁hide	-8.68826
▁kiss	-8.69345
▁enjoy	-8.69396
▁miles	-8.6956
or	-8.69668
▁figure	-8.69715
▁apartment	-8.69841
▁human	-8.69846
▁card	-8.69929
▁proud	-8.70022
▁history	-8.70028
▁gasps	-8.70133
▁evening	-8.70516
▁dream	-8.70609
▁wonder	-8.70706
▁ran	-8.70994
▁mistake	-8.71225
▁gucci	-8.71376
▁worse	-8.71376
▁reggie	-8.71376
▁felt	-8.71376
▁dangerous	-8.71386
st	-8.71616
▁seem	-8.72049
k	-8.72534
▁joke	-8.72591
▁emily	-8.72758
▁harley	-8.72762
▁shouting	-8.72795
▁uncle	-8.72836
▁needed	-8.72846
▁wed	-8.72891
le	-8.7304
▁maya	-8.7314
▁longer	-8.73304
▁p	-8.73455
▁chatter	-8.73781
▁seconds	-8.73932
▁write	-8.74039
▁cunt	-8.74053
▁round	-8.74055
▁beach	-8.74078
▁beer	-8.74089
▁careful	-8.74101
▁mmm	-8.74131
▁vincent	-8.74135
▁peace	-8.74137
▁river	-8.74137
▁keys	-8.74242
▁american	-8.74248
▁parents	-8.74309
▁takes	-8.7528
▁honor	-8.75285
▁joe	-8.75434
▁guard	-8.75506
▁partner	-8.75509
▁gerry	-8.75543
▁rather	-8.75545
▁mickey	-8.75547
▁earth	-8.75553
▁security	-8.75569
▁foot	-8.75581
▁g	-8.76276
▁laugh	-8.76286
▁explain	-8.76544
▁walking	-8.76563
▁sex	-8.76768
▁seat	-8.76831
▁london	-8.76971
▁president	-8.76974
▁early	-8.77062
▁driver	-8.77173
▁fathers	-8.77216
▁mm	-8.77278
▁report	-8.77468
▁mess	-8.77546
▁carry	-8.78178
p	-8.78282
▁fault	-8.78425
▁drugs	-8.78529
▁date	-8.78617
▁record	-8.79201
▁cab	-8.79526
▁knife	-8.79713
▁horn	-8.79768
▁lauda	-8.79901
▁message	-8.79903
▁lying	-8.79911
▁finally	-8.79948
▁sun	-8.79957
▁places	-8.80034
▁mons	-8.80381
less	-8.80516
▁box	-8.80596
▁ron	-8.80873
▁burn	-8.80908
▁spend	-8.81018
▁mark	-8.81104
▁django	-8.81383
▁possible	-8.81383
▁werent	-8.81383
▁clothes	-8.81388
▁brian	-8.8139
▁doin	-8.81398
▁doubt	-8.81402
▁law	-8.81402
▁fool	-8.81457
▁mate	-8.81701
▁screams	-8.81905
en	-8.81971
▁ha	-8.82128
▁north	-8.82229
h	-8.82427
▁fish	-8.82491
▁fear	-8.82621
▁al	-8.82844
▁stole	-8.82854
▁low	-8.82901
▁drunk	-8.82901
▁vegas	-8.82973
▁goin	-8.83212
▁changed	-8.83345
▁dress	-8.83791
▁bell	-8.84221
▁suppose	-8.84276
▁orders	-8.8433
▁certain	-8.8434
▁general	-8.84342
▁dumb	-8.84423
▁francis	-8.84428
▁weird	-8.84437
▁innocent	-8.84437
▁forever	-8.84438
▁sweetheart	-8.84439
▁single	-8.84454
▁judge	-8.84486
▁putting	-8.84506
▁nine	-8.84512
▁prick	-8.84515
▁casino	-8.84517
▁est	-8.84553
▁crying	-8.84712
▁bloody	-8.84855
▁board	-8.85464
▁plays	-8.85492
▁join	-8.85612
▁america	-8.85846
▁indistinct	-8.85901
▁strange	-8.85925
▁christmas	-8.86
▁spent	-8.86
▁ooh	-8.86
▁shell	-8.86005
▁absolutely	-8.86014
▁land	-8.86026
▁unless	-8.86047
▁crewe	-8.86078
▁para	-8.86543
▁king	-8.8664
▁sean	-8.8691
▁protect	-8.86947
▁k	-8.87069
▁deep	-8.8742
▁listening	-8.87426
▁forgive	-8.87522
▁especially	-8.87587
▁island	-8.87587
▁difference	-8.87591
▁johnny	-8.87592
▁mmhmm	-8.876
▁richie	-8.8773
▁st	-8.88029
▁starts	-8.88392
▁attack	-8.88646
▁return	-8.88696
▁shooting	-8.88849
▁south	-8.89169
▁caught	-8.892
▁future	-8.892
▁alex	-8.89201
▁lance	-8.89333
▁ice	-8.89416
▁mothers	-8.89831
▁pro	-8.90289
▁steal	-8.90433
▁lay	-8.90511
an	-8.90576
▁entire	-8.90735
▁track	-8.90762
▁niki	-8.90839
▁bought	-8.9084
▁fbi	-8.90843
▁andy	-8.90853
▁jackson	-8.90858
▁shh	-8.90868
▁others	-8.90876
▁cheering	-8.90934
▁stone	-8.90941
▁army	-8.90979
▁secret	-8.9098
▁brain	-8.9103
▁paper	-8.9106
▁named	-8.91148
▁shop	-8.91356
▁killer	-8.91675
▁jan	-8.92269
▁papers	-8.92292
▁cover	-8.92381
ment	-8.92404
▁lebowski	-8.92506
▁worried	-8.92506
▁evidence	-8.92506
▁government	-8.92506
▁forward	-8.92517
▁totally	-8.92576
▁shed	-8.92611
▁yall	-8.92651
▁price	-8.92686
▁rose	-8.92749
▁niggers	-8.92835
▁dry	-8.92844
▁copy	-8.92903
▁bucks	-8.92935
▁problems	-8.93137
▁fly	-8.93489
▁arrest	-8.93717
b	-8.93757
▁post	-8.93944
▁kick	-8.94126
▁fell	-8.94132
▁brody	-8.94206
▁wonderful	-8.94216
▁scene	-8.94226
▁dirty	-8.94269
▁cards	-8.94358
▁rule	-8.94408
up	-8.94523
▁arm	-8.95552
▁plane	-8.9583
▁legal	-8.95841
▁major	-8.95922
▁yesterday	-8.95925
▁third	-8.95925
▁instead	-8.95925
▁choose	-8.95935
▁walter	-8.95969
▁softly	-8.95996
▁super	-8.9602
▁position	-8.96122
▁tyler	-8.96168
▁theyd	-8.96279
▁finished	-8.96297
▁fired	-8.96448
▁following	-8.96461
▁in	-8.9663
▁cars	-8.96778
▁liked	-8.96908
▁gang	-8.96958
▁calls	-8.96992
▁standing	-8.97017
ia	-8.97064
▁closes	-8.97288
▁ow	-8.97384
▁honest	-8.97444
▁fall	-8.97606
▁middle	-8.97678
▁summer	-8.97679
▁afternoon	-8.97679
▁attention	-8.97684
▁heavy	-8.97688
▁decided	-8.97745
▁singing	-8.97799
▁italian	-8.97981
▁casey	-8.98391
▁i	-8.98472
▁moved	-8.99072
▁wick	-8.99194
▁rain	-8.99277
▁amazing	-8.99465
▁plus	-8.9947
▁bob	-8.99474
▁license	-8.99491
▁guards	-8.99494
▁gasping	-8.99501
▁frankie	-8.99563
▁gift	-8.99746
▁throat	-8.9976
▁patient	-8.99808
▁soul	-8.99809
▁nose	-8.99858
ass	-9.00756
ful	-9.00865
▁numbers	-9.01078
▁pussy	-9.01282
▁stephanie	-9.01283
▁keller	-9.01287
▁upon	-9.01297
▁dying	-9.0131
▁surprise	-9.01436
▁system	-9.01552
▁breathing	-9.01556
▁spot	-9.01629
▁hole	-9.01698
▁neo	-9.01799
▁missed	-9.02094
▁shoes	-9.02163
▁mas	-9.02171
▁park	-9.02452
▁imagine	-9.02964
▁bro	-9.03019
▁tight	-9.03042
▁narrat	-9.03106
▁honour	-9.03115
▁patrizia	-9.03135
▁paolo	-9.03141
▁mister	-9.03176
▁folks	-9.03204
▁r	-9.0342
▁locked	-9.03508
▁cousin	-9.03537
▁field	-9.03632
▁dogs	-9.03678
▁reg	-9.0407
▁fighting	-9.0428
▁louis	-9.04881
▁background	-9.05022
▁creasy	-9.05022
▁uhhuh	-9.05022
▁department	-9.05022
▁teddy	-9.05024
▁chuckling	-9.05024
▁milk	-9.05037
▁west	-9.05038
▁noodles	-9.05064
▁ray	-9.05075
▁brad	-9.05191
▁prove	-9.05232
▁action	-9.0549
▁push	-9.05581
▁van	-9.05669
▁happening	-9.06117
▁hill	-9.06128
▁turns	-9.06402
▁seeing	-9.06511
▁starting	-9.06624
▁cry	-9.06633
▁f	-9.06634
▁howd	-9.0679
▁kitchen	-9.06945
▁whatd	-9.06945
▁sergeant	-9.06946
▁split	-9.06947
▁empty	-9.06949
▁sonny	-9.06958
▁bright	-9.06963
▁lead	-9.06968
▁certainly	-9.07068
▁eh	-9.07211
▁saved	-9.07344
to	-9.07456
▁pulled	-9.07736
ry	-9.07858
th	-9.08538
▁blind	-9.08598
▁cute	-9.08749
▁simple	-9.08829
▁public	-9.08894
▁sheriff	-9.08906
▁neighborhood	-9.08906
▁breakfast	-9.08907
▁tea	-9.08937
▁pete	-9.09002
▁bear	-9.09234
▁shake	-9.09267
▁lights	-9.0927
▁holding	-9.09408
▁nigga	-9.09427
▁wearing	-9.09446
▁age	-9.09506
▁selling	-9.09783
ity	-9.10053
▁skin	-9.10456
▁iii	-9.10517
re	-9.10522
▁opens	-9.10654
▁double	-9.10714
▁mick	-9.10747
▁morpheus	-9.10905
▁sobbing	-9.10905
▁neither	-9.10906
▁ginger	-9.10907
▁soze	-9.10907
▁ronnie	-9.10907
▁stopped	-9.10936
▁quickly	-9.11077
▁heaven	-9.11346
▁leg	-9.11427
▁chicken	-9.11435
▁pa	-9.11441
▁girlfriend	-9.1146
▁store	-9.11478
▁animal	-9.1148
▁ticket	-9.11481
▁extra	-9.11682
▁fit	-9.11704
▁letter	-9.11708
▁t	-9.11969
▁announce	-9.12093
▁address	-9.12173
▁search	-9.1262
▁cost	-9.12898
▁became	-9.12946
▁church	-9.12946
▁perhaps	-9.12946
▁hasnt	-9.12947
▁impossible	-9.12947
▁neck	-9.12948
▁stuck	-9.12949
▁wedding	-9.1295
▁bodies	-9.12957
▁mommy	-9.12959
▁lunch	-9.12964
▁dope	-9.12997
▁involved	-9.13
▁billy	-9.13516
▁idiot	-9.13542
▁gunshot	-9.13574
▁bastards	-9.1365
▁cat	-9.14577
▁teii	-9.14633
▁trip	-9.14808
▁visit	-9.14863
▁east	-9.14872
▁rings	-9.15007
▁calvin	-9.1503
▁within	-9.15031
▁college	-9.15032
▁muffled	-9.15033
▁definitely	-9.15033
▁coke	-9.15033
▁shouldve	-9.15034
▁wrote	-9.15035
▁bigger	-9.15044
▁sold	-9.15075
▁gary	-9.15075
▁broken	-9.15128
▁joy	-9.15268
▁anna	-9.15294
f	-9.15438
▁realize	-9.15474
▁share	-9.15514
▁german	-9.15514
▁ii	-9.15536
▁lieutenant	-9.1559
▁area	-9.15629
▁closed	-9.15673
▁weapon	-9.15695
▁unit	-9.15696
▁joker	-9.15716
ter	-9.15749
▁played	-9.1644
▁reading	-9.16513
▁legs	-9.16543
▁lots	-9.16776
▁rules	-9.16825
▁nothin	-9.17134
▁keaton	-9.17157
▁kenny	-9.17158
▁decision	-9.17158
▁gustave	-9.17159
▁upset	-9.17159
▁football	-9.17162
▁crap	-9.17165
▁wet	-9.17174
▁exhales	-9.17206
▁large	-9.17211
▁motherfucking	-9.17238
▁awful	-9.17275
▁rob	-9.1742
▁figured	-9.17425
▁smile	-9.17434
▁cock	-9.17492
lng	-9.17602
▁station	-9.17789
▁zero	-9.17815
▁wouldve	-9.18016
▁staying	-9.18101
▁pal	-9.18257
▁taste	-9.18322
▁walked	-9.18333
▁pocket	-9.18509
▁everybodys	-9.18549
▁class	-9.18575
▁sad	-9.18585
▁roman	-9.18604
z	-9.18863
▁stops	-9.18912
▁warm	-9.19016
▁feed	-9.19071
▁chris	-9.19158
▁danger	-9.19316
▁forgot	-9.1933
▁george	-9.19331
▁schultz	-9.19331
▁property	-9.19336
▁distance	-9.19374
as	-9.1938
▁motherfuckers	-9.19396
ii	-9.194
▁completely	-9.19404
▁am	-9.19409
ation	-9.19552
▁el	-9.19697
is	-9.19776
▁noise	-9.1995
▁conversation	-9.19985
▁pounds	-9.20065
▁bridge	-9.20079
▁kinda	-9.2011
▁camera	-9.20143
▁piss	-9.20368
▁cross	-9.20859
▁lovely	-9.21042
▁star	-9.21091
▁blame	-9.21382
▁clementine	-9.21553
▁stories	-9.21554
▁colonel	-9.21555
▁beginning	-9.21555
▁darling	-9.21555
▁aunt	-9.21556
▁hungry	-9.21559
▁everywhere	-9.2156
▁laid	-9.21605
▁treat	-9.21609
▁pants	-9.21774
▁interested	-9.21783
▁dig	-9.22167
ness	-9.222
▁cake	-9.22221
▁continue	-9.22227
▁cup	-9.22256
ce	-9.22311
▁criminal	-9.22359
▁tree	-9.22396
▁gods	-9.2247
ne	-9.22618
▁picked	-9.22766
▁bus	-9.22821
eur	-9.23119
▁fucker	-9.23425
▁loose	-9.23633
▁normal	-9.23738
▁hoffa	-9.23826
▁teeth	-9.23826
▁yknow	-9.23826
▁justice	-9.23827
▁memory	-9.23827
▁jerry	-9.23827
▁chef	-9.2383
▁favorite	-9.23831
▁held	-9.23832
▁wailing	-9.23839
▁jim	-9.23839
▁barking	-9.23845
▁where	-9.23878
▁block	-9.24047
▁grow	-9.24081
▁interesting	-9.24135
▁angel	-9.24148
▁ear	-9.24252
out	-9.2445
▁file	-9.24524
▁cocksucker	-9.24607
▁operation	-9.2465
▁sirens	-9.24968
▁fingers	-9.25069
ary	-9.25103
▁breath	-9.25536
▁mum	-9.25539
▁load	-9.25621
▁consider	-9.25919
▁agree	-9.25973
ian	-9.26028
▁total	-9.26055
▁witness	-9.26099
▁clem	-9.26149
▁insurance	-9.26152
▁miami	-9.26152
▁conlon	-9.26153
▁whether	-9.26153
▁starling	-9.26156
▁yep	-9.26157
▁platt	-9.26157
▁excited	-9.26158
▁amen	-9.26174
▁weii	-9.26225
▁wild	-9.26301
▁agreed	-9.26317
▁foi	-9.26334
▁seriously	-9.26468
▁nuts	-9.26659
▁besides	-9.26691
▁fix	-9.26707
▁suspect	-9.26769
▁space	-9.26961
▁senator	-9.27001
▁whistle	-9.27035
▁vehicle	-9.27052
▁union	-9.27055
▁lived	-9.27067
▁due	-9.27234
▁soft	-9.27288
▁mo	-9.27334
▁states	-9.27511
▁wind	-9.27649
▁accept	-9.27847
▁afford	-9.28225
▁hero	-9.28437
▁enemy	-9.28533
▁nervous	-9.28533
▁test	-9.28533
▁whispers	-9.28801
▁passed	-9.29056
▁score	-9.2928
▁bottle	-9.29425
▁spirit	-9.29443
▁shoulder	-9.29449
▁jump	-9.29704
▁pen	-9.2971
▁pot	-9.29771
▁ears	-9.30056
▁hat	-9.30243
▁pray	-9.30487
se	-9.30513
▁helped	-9.3057
▁voc	-9.30814
▁aqui	-9.30972
▁arthur	-9.30972
▁bottom	-9.30972
▁friday	-9.30972
▁television	-9.30972
▁whoever	-9.30973
▁grace	-9.30974
▁stephen	-9.30985
▁cream	-9.30998
▁aye	-9.31004
▁self	-9.31004
▁ought	-9.31007
▁guilty	-9.31017
▁manny	-9.31053
▁bird	-9.31116
▁match	-9.3116
ive	-9.3123
▁suit	-9.31238
▁shots	-9.31269
iy	-9.31361
▁non	-9.31365
▁account	-9.31523
ou	-9.31604
▁risk	-9.31734
▁sight	-9.31843
▁corner	-9.31889
▁character	-9.31898
▁russian	-9.31969
▁group	-9.31984
▁diamond	-9.32009
▁client	-9.32021
▁joint	-9.32032
▁bags	-9.32405
gest	-9.32722
▁per	-9.3311
▁jerk	-9.33141
▁allow	-9.33207
▁final	-9.33224
▁apologize	-9.33286
▁w	-9.33287
▁waste	-9.33306
▁survive	-9.33308
▁rome	-9.33325
▁gives	-9.33343
▁records	-9.3343
▁gettin	-9.33453
▁bathroom	-9.33473
▁worst	-9.33473
▁freedom	-9.33474
▁weight	-9.33502
▁jew	-9.33519
▁chill	-9.33556
▁art	-9.33601
▁victim	-9.33673
▁joey	-9.33742
▁clicks	-9.33753
▁dare	-9.33821
▁county	-9.33877
▁whoo	-9.33946
▁interest	-9.33964
▁murdered	-9.34055
um	-9.34086
▁beeps	-9.34091
▁os	-9.34102
▁learned	-9.34231
▁trick	-9.3438
▁paulie	-9.34513
it	-9.34543
▁soldier	-9.3457
▁sometime	-9.34584
▁out	-9.34783
▁birds	-9.35007
▁moms	-9.35134
▁believed	-9.35201
▁books	-9.3522
▁ln	-9.35331
by	-9.35399
os	-9.35495
▁press	-9.35618
▁co	-9.35624
▁cheap	-9.35957
▁lake	-9.35975
▁boom	-9.36009
▁beg	-9.36024
▁ambulance	-9.36036
▁difficult	-9.36036
▁hadnt	-9.36036
▁however	-9.36036
▁monroe	-9.36036
▁scoffs	-9.36036
▁upstairs	-9.36036
▁threw	-9.36036
▁marry	-9.36039
▁baker	-9.36045
▁built	-9.36053
▁cage	-9.36064
▁penny	-9.36066
▁protection	-9.36067
▁yelling	-9.36078
▁meat	-9.36089
▁drivers	-9.36093
▁lester	-9.36104
▁gotten	-9.36155
▁faster	-9.36283
▁banging	-9.36322
▁crack	-9.36436
▁heads	-9.3653
▁bullets	-9.36548
▁horses	-9.36587
▁ex	-9.36915
▁crew	-9.36918
▁pictures	-9.37005
▁speaks	-9.3702
▁fellas	-9.37036
▁tongue	-9.37095
▁investigation	-9.37145
▁code	-9.37158
▁season	-9.37166
▁condition	-9.37184
▁lve	-9.37302
ty	-9.37869
▁drinking	-9.37909
▁jo	-9.37993
▁tip	-9.38091
▁showed	-9.38467
▁harm	-9.3848
▁insane	-9.38667
▁mercedes	-9.38667
▁congratulations	-9.38667
▁mexico	-9.38667
▁thatll	-9.38675
▁javi	-9.38676
▁obviously	-9.38724
▁usually	-9.3875
▁indistinctly	-9.38834
▁nobodys	-9.38979
▁parking	-9.3918
▁bother	-9.39221
▁wondering	-9.39347
▁ls	-9.39498
▁command	-9.39543
▁strike	-9.39748
▁guarantee	-9.39756
▁local	-9.39819
▁pig	-9.39897
▁wheel	-9.39907
▁finger	-9.39928
▁dis	-9.39992
time	-9.40094
▁doors	-9.40208
▁support	-9.40328
▁fucks	-9.40432
▁tie	-9.40495
el	-9.40573
▁officers	-9.4063
▁sin	-9.40883
x	-9.40983
▁clock	-9.41082
▁fake	-9.41182
▁corps	-9.41364
▁anthony	-9.4137
▁taught	-9.4137
▁otherwise	-9.4137
▁operator	-9.41371
▁twice	-9.41371
▁credit	-9.41372
▁eddie	-9.41372
▁sons	-9.41382
▁virginie	-9.41383
▁coughing	-9.41413
▁pair	-9.41418
▁fredo	-9.41464
▁honking	-9.415
▁hiding	-9.41502
ch	-9.4161
▁daughters	-9.41669
▁pissed	-9.41693
▁united	-9.41725
▁windows	-9.41786
▁grave	-9.41837
▁film	-9.42334
▁contact	-9.42358
▁ld	-9.42528
▁warden	-9.42552
▁medal	-9.42656
▁devil	-9.42663
▁fill	-9.42668
you	-9.42669
▁victims	-9.42951
▁lookin	-9.43084
▁blows	-9.43175
▁tank	-9.4322
▁feels	-9.43238
▁faith	-9.43973
▁release	-9.43982
▁project	-9.43983
▁spoke	-9.441
▁fresh	-9.44142
▁derek	-9.44148
▁target	-9.44148
▁rothstein	-9.44148
▁pyle	-9.44149
▁flight	-9.4415
▁exit	-9.44157
▁jury	-9.44158
▁molly	-9.44159
▁kickass	-9.44169
▁filthy	-9.44188
▁storm	-9.44209
▁shows	-9.44253
▁hired	-9.4429
▁honestly	-9.44305
▁yells	-9.4434
age	-9.44418
▁bosses	-9.44471
▁arrested	-9.44579
ra	-9.44682
▁up	-9.44761
▁everythings	-9.4484
▁points	-9.44842
▁cheers	-9.44849
am	-9.45037
▁jobs	-9.45167
▁sisters	-9.45243
▁helping	-9.45325
▁wine	-9.45362
▁shirt	-9.45388
▁di	-9.45425
▁babe	-9.45429
▁statement	-9.45448
▁owner	-9.45471
▁streets	-9.45516
▁queen	-9.45521
▁mask	-9.45693
▁jews	-9.45762
▁con	-9.45773
▁type	-9.45822
im	-9.45865
▁sleeping	-9.45953
▁weapons	-9.46097
ur	-9.46206
ai	-9.46244
▁camp	-9.4631
▁lies	-9.46378
▁arms	-9.46515
▁add	-9.46724
▁bringing	-9.46921
▁loud	-9.46929
▁rug	-9.46988
▁chair	-9.46989
▁freeze	-9.46989
▁attorney	-9.47005
▁responsible	-9.47005
▁cassandra	-9.47005
▁downtown	-9.47005
▁clarice	-9.47005
▁motel	-9.47005
▁nowhere	-9.47006
▁language	-9.47006
▁dramatic	-9.47006
▁regular	-9.47006
▁dropped	-9.47013
▁sarah	-9.47015
▁shame	-9.47016
▁marion	-9.47019
▁vito	-9.47021
▁stolen	-9.47101
▁squealing	-9.4722
▁concerned	-9.47223
▁losing	-9.47335
▁closer	-9.47362
▁suck	-9.47551
▁promised	-9.47552
▁jane	-9.4757
▁por	-9.47965
▁ordered	-9.48022
▁exist	-9.48149
▁notice	-9.48202
▁te	-9.48258
▁nah	-9.48292
lie	-9.48332
▁ser	-9.48339
▁weekend	-9.48341
▁cowboy	-9.48461
▁cigarette	-9.48474
▁begin	-9.4848
▁gate	-9.48523
▁dollar	-9.48594
▁bust	-9.48895
▁mac	-9.49048
▁games	-9.49061
▁breathe	-9.4926
▁reach	-9.49315
▁buzz	-9.49465
▁rush	-9.49579
▁complete	-9.49669
▁paying	-9.49729
nt	-9.49831
▁admit	-9.49941
▁asleep	-9.49946
▁audience	-9.49946
▁opportunity	-9.49946
▁pardon	-9.49946
▁roof	-9.49947
▁monday	-9.49947
▁juice	-9.49953
▁desk	-9.49953
▁boyfriend	-9.49953
▁cheese	-9.49958
▁thinks	-9.49985
▁steph	-9.49988
▁sea	-9.49999
▁sweetie	-9.50004
do	-9.50064
▁arrived	-9.50084
king	-9.50114
ad	-9.50114
▁beeping	-9.50119
▁blessed	-9.50146
▁gas	-9.50241
▁drove	-9.50374
▁yard	-9.50702
▁frances	-9.50781
me	-9.50899
▁sal	-9.50953
▁stock	-9.51089
▁rent	-9.51111
▁alarm	-9.51443
▁manager	-9.51445
▁castle	-9.51447
▁winning	-9.51453
▁fellow	-9.51463
ha	-9.51474
▁shoe	-9.51522
▁sale	-9.51555
▁clients	-9.51701
▁common	-9.51926
▁los	-9.52162
▁si	-9.52172
▁correct	-9.52224
▁pack	-9.52317
▁trade	-9.52392
▁teach	-9.5247
▁draw	-9.52517
▁mention	-9.52751
▁fitz	-9.52832
▁apart	-9.52964
▁crawford	-9.52977
▁gorgeous	-9.52977
▁sionis	-9.52977
▁thursday	-9.52977
▁often	-9.52977
▁allison	-9.52977
▁blew	-9.52978
▁loki	-9.52978
▁fancy	-9.52979
▁norman	-9.52979
▁garage	-9.52979
▁russell	-9.52979
▁ugly	-9.52979
▁sunday	-9.52983
▁grew	-9.52984
▁several	-9.52984
▁roth	-9.52985
▁papa	-9.52987
▁rv	-9.52987
▁view	-9.5299
▁silly	-9.52992
▁plenty	-9.52996
▁franklin	-9.52999
▁pure	-9.53008
▁leon	-9.53011
▁kay	-9.53016
▁runs	-9.53024
▁hup	-9.53029
▁evey	-9.53029
go	-9.53033
▁annie	-9.53036
▁hoping	-9.53116
▁letting	-9.53165
▁quietly	-9.53282
▁usa	-9.5331
▁bare	-9.53444
co	-9.53567
▁bang	-9.54172
▁rats	-9.54187
▁roulet	-9.54474
▁form	-9.54474
▁nights	-9.54486
▁liar	-9.54489
▁ho	-9.54597
▁debt	-9.54603
▁gangster	-9.54636
▁checked	-9.54702
▁breaking	-9.54779
▁siren	-9.55083
ate	-9.55139
▁map	-9.55297
▁crash	-9.55419
▁wash	-9.5547
▁discuss	-9.55691
▁peter	-9.55744
▁dies	-9.55833
▁experience	-9.55932
▁walt	-9.55988
▁when	-9.56022
▁usual	-9.56038
▁advice	-9.56102
▁dixon	-9.56102
▁expensive	-9.56102
▁saturday	-9.56102
▁japanese	-9.56102
▁sugar	-9.56102
▁jeez	-9.56102
▁earlier	-9.56104
▁duty	-9.56106
▁airport	-9.56108
▁beauty	-9.56109
▁bunny	-9.56111
▁mostly	-9.56112
▁cancer	-9.56117
▁necessary	-9.56119
▁itd	-9.5615
▁row	-9.56249
▁noticed	-9.5628
▁dreams	-9.56331
▁knees	-9.56463
▁armed	-9.566
▁bitches	-9.5663
▁followed	-9.56851
▁harder	-9.56892
▁settle	-9.56973
▁las	-9.57233
▁remind	-9.5754
▁force	-9.57659
▁slave	-9.57717
▁program	-9.57741
▁relationship	-9.57746
▁roger	-9.57746
▁garden	-9.57772
▁ends	-9.57776
▁computer	-9.57823
▁whore	-9.57837
▁using	-9.58177
▁sweat	-9.58184
▁hearing	-9.58229
▁dump	-9.5826
▁picking	-9.58384
▁uma	-9.58586
▁screw	-9.5871
▁pin	-9.5878
▁provide	-9.58939
▁chuck	-9.58948
▁turning	-9.58969
▁pretend	-9.58972
▁bruce	-9.59161
▁band	-9.59238
▁steve	-9.5928
▁somethin	-9.593
▁snow	-9.59327
▁lecter	-9.59327
▁fortune	-9.59327
▁funeral	-9.59327
▁leonard	-9.59329
▁comfortable	-9.59338
▁cj	-9.59342
▁immediately	-9.59361
▁powerful	-9.59369
▁trial	-9.59377
▁angeles	-9.59403
▁stayed	-9.59645
▁allowed	-9.59668
▁talkin	-9.60084
▁hated	-9.60661
▁guts	-9.60683
▁somebodys	-9.61084
▁diamonds	-9.61255
▁heat	-9.61368
▁buying	-9.61394
▁gunshots	-9.61652
▁paint	-9.61741
ow	-9.6176
▁collect	-9.62158
though	-9.62242
▁size	-9.6233
▁lift	-9.6239
▁houses	-9.62464
▁recognize	-9.62475
▁positive	-9.62558
▁aw	-9.62626
▁contract	-9.62647
▁traffic	-9.62652
▁beyond	-9.62661
▁california	-9.62661
▁explosiveskull	-9.62661
▁flesh	-9.62661
▁iittie	-9.62661
▁rachel	-9.62661
▁saburo	-9.62661
▁spanish	-9.62661
▁buried	-9.62662
▁donnie	-9.62662
▁medical	-9.62662
▁murray	-9.62662
▁marla	-9.62664
▁paris	-9.62665
▁wiii	-9.62668
▁trigger	-9.62669
▁dancing	-9.62669
▁awake	-9.6267
▁aah	-9.62672
▁writing	-9.62675
▁ricky	-9.62678
▁aldo	-9.62679
▁aware	-9.62686
▁laughter	-9.62686
▁pilot	-9.62697
▁kg	-9.62706
▁huge	-9.62727
▁texas	-9.62737
▁center	-9.62777
ton	-9.6281
▁approaching	-9.62901
▁build	-9.62993
▁damage	-9.63299
▁thunder	-9.63455
▁chattering	-9.63501
▁stage	-9.63591
▁passing	-9.63634
▁details	-9.63745
▁mans	-9.63814
▁acting	-9.63868
▁hanging	-9.64039
▁pulling	-9.64499
▁ele	-9.64528
▁pigs	-9.64535
▁prefer	-9.64583
▁rifle	-9.6459
fucking	-9.64817
▁ideas	-9.65097
ey	-9.6564
▁deliver	-9.65658
▁repeat	-9.65811
▁hammer	-9.65839
▁cap	-9.65872
▁russ	-9.65921
▁proper	-9.66022
▁favour	-9.66106
▁cackling	-9.66109
▁federal	-9.66109
▁illegal	-9.66109
▁stomach	-9.66109
▁warrant	-9.66109
▁horrible	-9.66109
▁border	-9.66109
▁whyd	-9.66109
▁florida	-9.66109
▁heavily	-9.66109
▁ridiculous	-9.66109
▁trinity	-9.66109
▁stairs	-9.6611
▁permission	-9.6611
▁soap	-9.6611
▁angry	-9.6611
▁candie	-9.6611
▁access	-9.66112
▁easier	-9.66113
▁anson	-9.66113
▁arno	-9.66113
▁rise	-9.66125
▁bay	-9.66138
▁marshall	-9.66157
▁golden	-9.6616
▁suddenly	-9.66184
▁robbery	-9.66226
▁yellow	-9.66349
red	-9.66379
v	-9.66486
▁flat	-9.66708
rs	-9.66734
▁base	-9.66919
▁bi	-9.66951
▁carrying	-9.66951
▁main	-9.6699
▁likes	-9.6724
▁san	-9.6752
theme	-9.67556
▁sue	-9.677
▁plans	-9.67773
▁concern	-9.67905
▁deserve	-9.67978
▁destroy	-9.67982
▁cease	-9.68057
id	-9.68065
▁ghost	-9.68122
▁pressure	-9.68145
▁eating	-9.68155
▁button	-9.68158
▁connection	-9.6817
▁ju	-9.68228
▁pita	-9.68283
▁magic	-9.68291
▁assholes	-9.68421
▁loves	-9.68528
▁units	-9.68547
▁tax	-9.68556
▁tao	-9.68566
▁o	-9.68569
▁he	-9.68646
▁so	-9.68837
la	-9.68873
▁player	-9.68938
▁shower	-9.69066
▁watched	-9.69145
▁attempt	-9.69284
▁introduce	-9.6952
▁natural	-9.69589
▁famous	-9.69622
▁social	-9.69675
▁outfit	-9.6968
▁genius	-9.6968
▁hollywood	-9.69681
▁mmmhmm	-9.69681
▁vacation	-9.69681
▁ugh	-9.69681
▁gross	-9.69682
▁square	-9.69682
▁trunk	-9.69682
▁clever	-9.69682
▁zasa	-9.69682
▁jewish	-9.69688
▁bread	-9.69696
▁rare	-9.697
▁friendship	-9.69705
▁no	-9.69711
▁woke	-9.69721
▁comin	-9.69738
▁gina	-9.69783
et	-9.69797
w	-9.69821
▁prepared	-9.69841
▁disappeared	-9.69869
▁forced	-9.69901
▁thy	-9.70247
▁dressed	-9.70355
▁flying	-9.70422
▁william	-9.70719
▁ma	-9.70763
▁career	-9.7081
▁gi	-9.70979
▁rocks	-9.70999
▁suggest	-9.71044
▁trace	-9.71098
▁older	-9.71234
▁spread	-9.71415
▁clears	-9.71555
▁wound	-9.71611
▁hates	-9.71735
▁sky	-9.71879
▁winner	-9.71899
▁guest	-9.71916
▁plate	-9.71981
▁stars	-9.71985
one	-9.72314
▁tickets	-9.72321
▁en	-9.72414
▁peoples	-9.72579
▁dealer	-9.72782
ta	-9.72846
▁you	-9.7287
▁spring	-9.72981
▁taik	-9.73082
▁taxi	-9.73157
▁gear	-9.73225
▁tune	-9.73268
▁matt	-9.73309
▁wide	-9.73327
▁irish	-9.73367
▁twenty	-9.73374
▁marsellus	-9.73384
▁stood	-9.73384
▁understood	-9.73384
▁written	-9.73384
▁emergency	-9.73384
▁jungle	-9.73384
▁gambling	-9.73384
▁somehow	-9.73384
▁travis	-9.73385
▁fifth	-9.73385
▁telephone	-9.73385
▁raymond	-9.73386
▁inspector	-9.73386
▁oui	-9.73407
▁bates	-9.73415
▁steak	-9.73424
▁market	-9.73429
▁giuseppe	-9.73449
▁highway	-9.73457
▁sat	-9.73465
▁fourth	-9.73504
line	-9.73516
▁haller	-9.73527
▁dealing	-9.73534
▁signal	-9.73612
▁amy	-9.73645
▁wayne	-9.73805
▁loaded	-9.73808
▁terms	-9.73931
▁sooner	-9.7396
▁depends	-9.74253
▁oil	-9.74322
▁pe	-9.74324
ade	-9.74477
▁knocking	-9.74603
▁pops	-9.7482
▁celebrate	-9.7502
▁bomb	-9.75057
▁players	-9.75163
▁yards	-9.75229
▁sucks	-9.75286
▁request	-9.75356
▁color	-9.75456
▁wire	-9.75494
▁sending	-9.75517
▁profit	-9.75608
▁coat	-9.75626
▁terrorist	-9.75646
▁jean	-9.75691
▁restaurant	-9.757
▁sport	-9.75753
▁marine	-9.75763
▁files	-9.75795
▁fella	-9.7592
▁parts	-9.75943
boy	-9.76427
▁bless	-9.76679
▁shape	-9.77052
▁silence	-9.77074
▁health	-9.77081
▁dirt	-9.77083
▁mental	-9.77124
▁earn	-9.77129
▁receive	-9.77162
▁vi	-9.7718
▁hutch	-9.77207
▁casa	-9.77215
▁bravo	-9.7723
▁evil	-9.7723
▁families	-9.7723
▁fletcher	-9.7723
▁miracle	-9.7723
▁subject	-9.7723
▁chancellor	-9.7723
▁sneak	-9.7723
▁morgan	-9.7723
▁ramona	-9.7723
▁andrew	-9.77231
▁vinnie	-9.77231
▁auction	-9.77231
▁choking	-9.77231
▁whirring	-9.77231
▁blaring	-9.77231
▁bail	-9.77233
▁leeds	-9.77235
▁heck	-9.77235
▁military	-9.77243
▁benny	-9.77245
▁morrie	-9.77256
▁gunfire	-9.77257
▁basement	-9.77258
ist	-9.77261
▁subtitle	-9.77263
▁downstairs	-9.77263
▁smoking	-9.77264
▁willing	-9.77266
▁mable	-9.77305
▁reasonable	-9.77319
▁keyser	-9.77457
▁simon	-9.77513
▁off	-9.77536
ence	-9.7754
▁perfectly	-9.77602
▁surprised	-9.77621
▁tied	-9.77699
io	-9.77726
▁burned	-9.77919
▁exchange	-9.78015
▁seemed	-9.78071
▁reporter	-9.78095
▁keeping	-9.78335
▁training	-9.78347
▁customers	-9.78441
▁boo	-9.78496
▁artist	-9.78812
▁ver	-9.78857
▁regret	-9.7894
▁rough	-9.79274
▁remain	-9.79337
▁escape	-9.7943
▁ways	-9.79433
▁robert	-9.7946
▁belong	-9.79476
▁caesar	-9.79575
▁fan	-9.79603
▁video	-9.79643
▁elevator	-9.79644
▁confession	-9.79687
▁priest	-9.79704
▁newspaper	-9.79725
▁movies	-9.79738
▁ter	-9.79864
▁muscle	-9.79876
▁lila	-9.8
▁do	-9.80307
▁fred	-9.80467
dy	-9.80481
te	-9.80727
down	-9.80746
▁iook	-9.80876
▁desert	-9.80923
▁switch	-9.80947
ier	-9.80949
▁bite	-9.80962
▁punch	-9.80983
▁martin	-9.81058
▁tear	-9.81165
▁mmhm	-9.81197
▁among	-9.81213
▁vietnam	-9.81228
▁defense	-9.8123
▁example	-9.8123
▁fbl	-9.8123
▁location	-9.8123
▁marriage	-9.8123
▁swat	-9.8123
▁eventually	-9.81232
▁unbelievable	-9.81239
▁squad	-9.81241
▁fought	-9.81242
▁joking	-9.81242
▁connie	-9.81246
▁gim	-9.81249
▁katie	-9.81251
▁motion	-9.81263
▁clark	-9.81266
▁fifty	-9.81277
▁pool	-9.8128
▁estate	-9.81282
▁unfortunately	-9.81284
▁brings	-9.81315
▁level	-9.81316
▁pm	-9.81336
▁plant	-9.81354
▁ford	-9.81426
▁deeply	-9.81484
▁policeman	-9.81492
▁pie	-9.81498
▁personally	-9.81563
▁nearly	-9.81573
▁vern	-9.81635
▁slowly	-9.81636
and	-9.81659
ho	-9.81675
▁ward	-9.81715
▁greatest	-9.81786
▁lately	-9.81821
▁over	-9.81962
▁bookies	-9.82035
▁finding	-9.8204
▁charges	-9.82111
▁rip	-9.82326
▁smells	-9.82347
▁eggs	-9.82485
▁signed	-9.82493
ine	-9.8254
▁to	-9.82591
▁be	-9.82619
▁belongs	-9.82728
▁hurts	-9.82821
ance	-9.83369
no	-9.83557
▁scream	-9.83599
▁chop	-9.83799
▁badge	-9.83858
▁odd	-9.83912
▁toilet	-9.83938
▁boyle	-9.8419
▁cos	-9.84367
▁ed	-9.84632
▁screech	-9.85049
▁practice	-9.85202
▁sentence	-9.8523
▁assume	-9.85247
▁ohh	-9.85273
▁refuse	-9.85292
ial	-9.85393
▁akim	-9.85397
▁almighty	-9.85397
▁fifteen	-9.85397
▁matthew	-9.85397
▁mcmanus	-9.85397
▁montoya	-9.85397
▁strength	-9.85397
▁matrix	-9.85397
▁boston	-9.85398
▁charles	-9.85398
▁muito	-9.85398
▁vietnamese	-9.85399
▁formula	-9.854
▁zach	-9.854
▁fox	-9.854
▁reward	-9.85402
▁bailey	-9.85404
▁doorbell	-9.85407
▁fruit	-9.85407
▁punk	-9.85408
▁truly	-9.85411
▁sosa	-9.85414
▁grandpa	-9.85414
▁nature	-9.85414
▁aside	-9.85415
▁paso	-9.85415
▁march	-9.8542
▁whimpering	-9.8542
▁national	-9.85422
▁direction	-9.85424
▁lago	-9.85451
▁nada	-9.85473
▁witnesses	-9.85493
▁weed	-9.85508
▁bury	-9.85511
▁chase	-9.85544
▁vice	-9.85605
ting	-9.85638
▁mission	-9.85653
▁under	-9.85658
▁tits	-9.85703
▁sexy	-9.8584
▁feds	-9.85999
▁growing	-9.86034
▁opening	-9.86165
▁lover	-9.86289
▁bend	-9.86404
▁ted	-9.86557
▁lads	-9.86636
▁pieces	-9.87029
▁instrumenta	-9.87113
▁friendly	-9.87119
▁lawyers	-9.87382
▁sayin	-9.87521
▁loss	-9.87522
▁cigarettes	-9.87535
▁sub	-9.87789
▁pound	-9.88016
▁decide	-9.88016
▁there	-9.88052
▁brown	-9.88119
▁interview	-9.88169
▁marshal	-9.88182
▁trees	-9.88206
▁meal	-9.8821
▁pistol	-9.88213
▁helicopter	-9.88237
▁mexican	-9.88237
head	-9.88439
off	-9.88503
▁wood	-9.88515
▁letters	-9.88555
ice	-9.88676
▁suspensefu	-9.89023
▁pat	-9.89106
▁mountain	-9.89315
▁study	-9.89428
▁serve	-9.89563
▁divorce	-9.89572
▁prepare	-9.89594
▁raise	-9.8961
▁laws	-9.89616
▁sexual	-9.89668
▁psycho	-9.89672
▁butt	-9.89718
▁port	-9.89725
▁object	-9.89729
▁sara	-9.89735
▁percent	-9.89736
▁aronoff	-9.89745
▁enemies	-9.89745
▁karl	-9.89745
▁league	-9.89745
▁norcut	-9.89745
▁oclock	-9.89745
▁ofelia	-9.89745
▁avoid	-9.89745
▁coincidence	-9.89745
▁mildred	-9.89745
▁whatre	-9.89745
▁recall	-9.89745
▁british	-9.89746
▁mathilda	-9.89747
▁wise	-9.89747
▁headed	-9.89749
▁godfather	-9.89749
▁marcus	-9.8975
▁policy	-9.89754
▁forth	-9.89758
▁piano	-9.8976
▁twelve	-9.89761
▁skinny	-9.89761
▁simply	-9.89764
▁bobby	-9.89769
▁current	-9.89772
▁page	-9.89785
▁asha	-9.89786
▁boring	-9.89789
▁moon	-9.89793
▁weather	-9.89793
▁secretary	-9.898
▁taro	-9.89822
▁invited	-9.89823
▁heroin	-9.89829
▁disgusting	-9.8983
▁sua	-9.89839
▁spray	-9.89853
ina	-9.89869
▁naked	-9.89949
▁carson	-9.9
▁male	-9.9001
▁wasted	-9.90039
▁pills	-9.90242
sh	-9.90413
▁flowers	-9.90585
▁falling	-9.90618
▁doctors	-9.90746
▁trained	-9.90751
▁offered	-9.90789
▁lied	-9.90857
▁expecting	-9.90922
ro	-9.91086
▁salt	-9.91117
ish	-9.91151
▁woods	-9.91301
▁mile	-9.9147
house	-9.91659
▁com	-9.91672
son	-9.91726
▁pre	-9.91924
▁cleaned	-9.92147
▁counts	-9.92206
▁faces	-9.92273
▁soldiers	-9.92327
▁sand	-9.92399
▁sec	-9.92416
▁slip	-9.9267
▁bedroom	-9.92675
▁chain	-9.92707
▁detail	-9.92821
▁cleaning	-9.92916
▁nail	-9.93032
▁ti	-9.93264
▁vote	-9.93295
lo	-9.9354
▁poison	-9.93602
▁weak	-9.93814
▁bo	-9.9388
▁official	-9.9393
▁squeal	-9.93946
▁enter	-9.93969
▁proceed	-9.93992
▁toss	-9.94011
▁ze	-9.94058
▁drinks	-9.94146
▁sudden	-9.94192
▁obvious	-9.94192
▁travel	-9.94224
▁chest	-9.94245
▁europe	-9.94264
▁document	-9.94266
▁wolf	-9.94277
▁stratton	-9.94286
▁committee	-9.9429
▁energy	-9.9429
▁footsteps	-9.9429
▁garbage	-9.9429
▁magazine	-9.9429
▁peggy	-9.9429
▁precious	-9.9429
▁probiem	-9.9429
▁swiss	-9.9429
▁thief	-9.9429
▁thomas	-9.9429
▁tuesday	-9.9429
▁undercover	-9.9429
▁babies	-9.9429
▁lansky	-9.9429
▁nancy	-9.9429
▁dispatch	-9.94291
▁bounty	-9.94291
▁electronic	-9.94291
▁verbal	-9.94292
▁starving	-9.94292
▁forgotten	-9.94292
▁fantastic	-9.94293
▁golf	-9.94293
▁battle	-9.94293
▁nope	-9.94293
▁winston	-9.94293
▁apology	-9.94295
▁curious	-9.94295
▁tour	-9.94299
▁duke	-9.943
▁shopping	-9.94301
▁destiny	-9.94301
▁changing	-9.94302
▁dawn	-9.94306
▁belt	-9.94307
▁opal	-9.94309
▁rude	-9.94316
▁allen	-9.94325
▁confused	-9.94333
▁bem	-9.94345
▁indeed	-9.94354
▁yearold	-9.94369
▁jacket	-9.94371
▁echoing	-9.94379
▁queenan	-9.94385
▁stopping	-9.9439
▁mais	-9.94438
▁proof	-9.94443
▁hm	-9.9445
▁raised	-9.94505
▁grass	-9.94533
▁blown	-9.94541
▁sink	-9.94664
▁ca	-9.94756
▁parked	-9.94952
▁hairy	-9.95067
▁cares	-9.95126
▁fa	-9.95223
▁expected	-9.95224
▁jackie	-9.9538
be	-9.95398
▁dreaming	-9.95486
ma	-9.95818
▁throwing	-9.96025
▁gangsters	-9.96494
sa	-9.96582
▁cr	-9.9661
▁ch	-9.96809
▁freak	-9.96856
▁moves	-9.96958
▁suits	-9.97078
▁lab	-9.97191
▁ruin	-9.97241
▁purpose	-9.97292
▁feelings	-9.97318
▁criminals	-9.97337
▁robber	-9.97355
▁egg	-9.97391
▁spider	-9.97398
▁scare	-9.97416
▁champion	-9.97424
▁romans	-9.97441
▁faggot	-9.97529
▁costello	-9.97546
▁kray	-9.97557
▁photo	-9.97561
▁winter	-9.97561
▁member	-9.97578
▁customer	-9.97624
▁professional	-9.97635
▁farm	-9.97653
▁animals	-9.97691
▁prisoner	-9.98018
▁all	-9.98055
▁thoughts	-9.98434
ever	-9.9844
que	-9.98552
▁approach	-9.98623
▁hook	-9.9868
▁process	-9.98792
▁range	-9.9895
▁hung	-9.98968
▁virgin	-9.99016
▁alcohol	-9.99028
▁broomhilda	-9.99052
▁detroit	-9.99052
▁laeddis	-9.99052
▁political	-9.99052
▁rebecca	-9.99052
▁revving	-9.99052
▁routine	-9.99052
▁shouid	-9.99052
▁sollozzo	-9.99052
▁terrific	-9.99052
▁violence	-9.99052
▁fenster	-9.99052
▁isso	-9.99052
▁period	-9.99052
▁jimmie	-9.99052
▁literally	-9.99053
▁beckett	-9.99053
▁jewelry	-9.99053
▁impressive	-9.99054
▁failure	-9.99055
▁kevin	-9.99055
▁eliza	-9.99055
▁blair	-9.99055
▁edward	-9.99056
▁couch	-9.99056
▁custody	-9.99056
▁legend	-9.99057
▁pride	-9.99058
▁owned	-9.99059
▁apparently	-9.99059
▁owns	-9.9906
▁vamos	-9.99061
▁onto	-9.99062
▁advantage	-9.99064
▁caii	-9.99065
▁dragon	-9.99072
▁steady	-9.99078
▁argue	-9.99078
▁capable	-9.99078
▁hola	-9.99082
▁began	-9.99082
▁dover	-9.99084
▁eron	-9.99084
▁mercy	-9.99087
▁homicide	-9.99131
▁regan	-9.9914
▁toy	-9.99227
▁billboards	-9.99236
▁served	-9.99269
▁lower	-9.9938
▁moments	-9.9952
▁writer	-9.99533
▁fixed	-9.99598
▁buzzing	-9.99623
▁mikey	-9.99642
▁kicked	-9.99803
▁strip	-9.99831
▁persons	-9.99934
▁bone	-10.0007
▁carrie	-10.001
▁thin	-10.0014
▁someones	-10.0019
ge	-10.0022
▁pr	-10.0051
▁wa	-10.0092
ir	-10.0104
▁beating	-10.0109
▁stab	-10.0119
▁boats	-10.0156
▁minds	-10.0183
ig	-10.0207
▁disappear	-10.0215
▁cameras	-10.0233
▁cats	-10.0238
ck	-10.0243
▁quarter	-10.0246
▁bath	-10.0248
▁hon	-10.025
▁monster	-10.025
▁chopper	-10.0254
▁shine	-10.0256
▁rabbit	-10.0263
▁wave	-10.0266
▁dads	-10.0276
▁stranger	-10.0278
▁leads	-10.0279
▁an	-10.0291
▁drawing	-10.0299
mos	-10.0306
va	-10.0349
▁opened	-10.0354
▁era	-10.0361
▁confess	-10.0373
▁parole	-10.0384
▁direct	-10.039
▁heh	-10.0391
▁sharp	-10.0393
▁va	-10.0399
▁walks	-10.0399
▁ruth	-10.0404
▁motherfuckin	-10.0405
▁institution	-10.0405
▁swim	-10.0405
▁according	-10.0405
▁buffalo	-10.0405
▁byron	-10.0405
▁dufresne	-10.0405
▁macready	-10.0405
▁ralph	-10.0405
▁scratch	-10.0405
▁squeeze	-10.0405
▁wouid	-10.0405
▁decent	-10.0405
▁anytime	-10.0405
▁closing	-10.0405
▁pension	-10.0405
▁companies	-10.0405
▁booze	-10.0406
▁jules	-10.0406
▁saint	-10.0406
▁hayes	-10.0406
▁psychiatrist	-10.0406
▁planning	-10.0406
▁poker	-10.0406
▁available	-10.0407
▁willie	-10.0407
▁wade	-10.0407
▁package	-10.0408
▁hail	-10.0408
▁lonely	-10.0409
▁takin	-10.0409
▁bollocks	-10.041
▁whip	-10.041
▁safety	-10.041
▁incredible	-10.041
▁gay	-10.041
▁barry	-10.0412
▁familiar	-10.0412
▁lapd	-10.0414
▁tower	-10.0415
land	-10.0419
▁partners	-10.0419
▁whod	-10.0421
▁retired	-10.0421
▁angela	-10.0425
▁americans	-10.0426
▁carefully	-10.0444
▁tara	-10.0444
▁lou	-10.0447
▁screeching	-10.0447
▁gotham	-10.045
▁filled	-10.0454
way	-10.0482
▁returned	-10.0489
ng	-10.0492
▁sing	-10.0492
▁clearly	-10.0495
▁gosh	-10.0499
▁merci	-10.05
▁sh	-10.0503
▁lad	-10.0503
▁walls	-10.0508
▁appears	-10.0509
▁yup	-10.0511
▁heading	-10.054
▁hunting	-10.0556
▁riding	-10.0563
ri	-10.0569
▁rate	-10.058
▁path	-10.0584
▁occasion	-10.0603
▁rolling	-10.0611
▁fate	-10.0648
▁childs	-10.0654
side	-10.0675
ling	-10.068
▁mal	-10.0688
▁sant	-10.0698
▁answers	-10.07
▁ar	-10.0725
beat	-10.0726
▁suspects	-10.0727
▁ended	-10.0743
▁mood	-10.0752
▁appointment	-10.0761
▁amount	-10.0761
▁title	-10.0763
▁meaning	-10.0768
▁expert	-10.0768
▁brick	-10.0769
▁banks	-10.0777
▁po	-10.0777
▁model	-10.0778
▁monkey	-10.078
▁stores	-10.0782
▁royal	-10.0786
▁apple	-10.0792
▁corpse	-10.0803
▁bombing	-10.0809
▁hall	-10.0812
ory	-10.0817
▁tan	-10.082
▁lo	-10.0859
▁insist	-10.0863
▁insult	-10.0865
▁gu	-10.0866
▁tracks	-10.0869
▁flash	-10.0878
▁til	-10.089
▁solid	-10.0894
▁deny	-10.0896
▁mail	-10.0906
▁who	-10.0913
▁value	-10.0914
▁pink	-10.0919
▁remove	-10.092
▁violent	-10.0921
▁original	-10.0923
▁aiex	-10.0931
▁awesome	-10.0932
▁chicago	-10.0932
▁coach	-10.0932
▁hildi	-10.0932
▁moustafa	-10.0932
▁plastic	-10.0932
▁professor	-10.0932
▁sarge	-10.0932
▁tragedy	-10.0932
▁authorities	-10.0932
▁style	-10.0932
▁wallace	-10.0932
▁authority	-10.0932
▁including	-10.0932
▁chacon	-10.0932
▁solomon	-10.0932
▁england	-10.0932
▁gordie	-10.0932
▁marquis	-10.0932
▁organization	-10.0932
▁sicily	-10.0932
▁pregnant	-10.0932
▁anderson	-10.0932
▁ernie	-10.0932
▁ocean	-10.0932
▁basically	-10.0932
▁jason	-10.0932
▁society	-10.0932
▁towel	-10.0932
▁lisa	-10.0932
▁indian	-10.0932
▁coast	-10.0933
▁brave	-10.0933
▁memories	-10.0933
▁dozen	-10.0933
▁blast	-10.0933
▁shelley	-10.0934
▁plantation	-10.0934
▁recently	-10.0935
▁jealous	-10.0935
▁role	-10.0936
▁spare	-10.0936
▁saving	-10.0936
▁embarrassed	-10.0937
▁begging	-10.0937
▁tries	-10.0937
▁anger	-10.0937
▁bored	-10.0937
▁embarrassing	-10.0938
▁junk	-10.0938
ts	-10.0941
▁clicking	-10.0946
▁useless	-10.0951
▁glasses	-10.0954
▁lifetime	-10.0963
▁sobs	-10.0969
▁taiking	-10.0982
▁assure	-10.0982
▁chips	-10.0989
▁shitty	-10.0989
▁bets	-10.0991
▁higher	-10.0999
▁ra	-10.0999
▁slams	-10.1009
▁x	-10.101
▁younger	-10.1011
▁highly	-10.1018
▁protected	-10.1022
▁reported	-10.103
▁kissed	-10.1039
▁smith	-10.1043
▁fee	-10.1047
▁showing	-10.1055
▁fishing	-10.1056
▁burning	-10.1058
▁dan	-10.1069
▁tools	-10.1074
ac	-10.1092
▁leaves	-10.1093
che	-10.1098
▁tall	-10.1098
▁prisoners	-10.1113
▁hundreds	-10.1122
▁aim	-10.1122
▁goal	-10.1126
de	-10.1135
▁rape	-10.1176
ble	-10.1181
▁ahh	-10.1208
▁crimes	-10.121
lam	-10.1245
men	-10.1258
ious	-10.1278
▁mil	-10.1295
▁desire	-10.1297
▁fi	-10.1302
▁nephew	-10.1316
▁on	-10.1317
▁shift	-10.1317
▁bull	-10.1318
▁firm	-10.1328
▁clown	-10.1337
▁comfort	-10.1338
▁tool	-10.1339
▁shotgun	-10.134
he	-10.1348
ent	-10.135
▁mel	-10.1368
berry	-10.1375
▁patients	-10.1379
▁brand	-10.1398
ism	-10.1399
▁complain	-10.1401
▁interrupt	-10.1419
▁brains	-10.1421
▁stones	-10.1421
▁asses	-10.1444
▁commission	-10.1454
▁crawl	-10.1456
▁wifes	-10.1463
▁metal	-10.1467
▁piease	-10.1468
▁jos	-10.1469
▁advance	-10.1469
▁include	-10.1469
▁convince	-10.147
▁marks	-10.1471
▁faint	-10.1476
▁pit	-10.1476
▁butch	-10.1477
▁phil	-10.1481
▁sandwich	-10.1481
▁cuba	-10.1482
▁gordo	-10.1483
▁create	-10.1486
▁bush	-10.1486
▁commit	-10.1486
▁kara	-10.1487
▁specific	-10.1487
▁scum	-10.1487
▁amigo	-10.1487
▁becca	-10.1487
▁behalf	-10.1487
▁brilliant	-10.1487
▁catherine	-10.1487
▁champagne	-10.1487
▁crucifixion	-10.1487
▁district	-10.1487
▁extreme	-10.1487
▁jersey	-10.1487
▁knauer	-10.1487
▁kurtz	-10.1487
▁nonsense	-10.1487
▁opinion	-10.1487
▁piace	-10.1487
▁responsibility	-10.1487
▁tangiers	-10.1487
▁tyrone	-10.1487
▁someplace	-10.1487
▁bonjour	-10.1487
▁slept	-10.1487
▁fisk	-10.1487
▁naomi	-10.1487
▁fireworks	-10.1487
▁freezing	-10.1487
▁humming	-10.1487
▁montana	-10.1487
▁robbed	-10.1487
▁opposite	-10.1487
▁briefcase	-10.1487
▁jones	-10.1487
▁patrol	-10.1487
▁exciting	-10.1487
▁indio	-10.1487
▁tolan	-10.1487
▁random	-10.1487
▁testify	-10.1487
▁silent	-10.1487
▁pablo	-10.1487
▁candyland	-10.1487
▁merry	-10.1487
▁laundry	-10.1488
▁hazen	-10.1488
▁hahaha	-10.1488
▁escort	-10.1488
▁gentleman	-10.1488
▁emotional	-10.1488
▁mouse	-10.1488
▁revenge	-10.1488
▁staff	-10.1488
▁struck	-10.1489
▁beef	-10.1489
▁castro	-10.1489
▁trash	-10.1489
▁construction	-10.1489
▁dna	-10.1489
▁minton	-10.1489
▁cmon	-10.1489
▁grandmother	-10.149
▁colin	-10.149
▁jamie	-10.149
▁barish	-10.149
▁apply	-10.1491
▁thatd	-10.1492
▁thou	-10.1493
▁ability	-10.1495
▁ciao	-10.1495
▁cutting	-10.1495
▁singer	-10.1496
▁hitting	-10.1496
▁nurse	-10.1498
▁forty	-10.15
▁whimpers	-10.15
▁shy	-10.1504
▁lick	-10.1506
▁sandy	-10.1507
▁failed	-10.1508
▁normally	-10.1512
▁created	-10.1515
▁coughs	-10.1526
▁wounded	-10.1528
▁destroyed	-10.153
▁busted	-10.1539
▁meantime	-10.154
▁stoned	-10.1545
▁belly	-10.1546
ram	-10.1546
▁dust	-10.1548
▁jumped	-10.155
▁towards	-10.156
▁charged	-10.1567
▁attacked	-10.1581
▁sides	-10.1592
▁events	-10.1606
▁laying	-10.1609
▁issues	-10.1611
▁pile	-10.1614
▁sim	-10.1618
▁deals	-10.1623
ally	-10.1624
▁announc	-10.1651
▁pope	-10.1653
▁becomes	-10.1672
▁mob	-10.1675
op	-10.1716
▁touched	-10.1721
▁machines	-10.1723
ue	-10.1746
▁seu	-10.176
▁gates	-10.1777
▁matters	-10.1782
ure	-10.1797
▁bars	-10.1799
▁sins	-10.1801
▁le	-10.1809
▁damned	-10.1834
▁cook	-10.1841
▁hills	-10.1846
▁victor	-10.1852
the	-10.1857
▁cocks	-10.1882
ant	-10.1882
▁ate	-10.1889
▁beep	-10.1892
▁talent	-10.1893
▁cheer	-10.1903
▁text	-10.1904
▁lifeguard	-10.1916
▁trucks	-10.1917
▁kennedy	-10.1919
▁auto	-10.192
▁tiger	-10.1921
▁lane	-10.1922
▁duck	-10.1925
▁ci	-10.1929
▁twin	-10.193
▁teacher	-10.1934
▁chick	-10.1941
▁movement	-10.1943
▁fields	-10.1943
▁stays	-10.1959
▁nos	-10.1965
▁kills	-10.197
▁ne	-10.1976
▁cases	-10.1982
▁dim	-10.1985
▁toe	-10.1997
▁ba	-10.2002
▁shock	-10.201
▁sauce	-10.2018
board	-10.2023
▁mi	-10.2036
▁chi	-10.2042
▁focus	-10.2048
▁led	-10.2049
▁straighten	-10.2058
▁grant	-10.2059
▁describe	-10.2059
▁sa	-10.206
▁international	-10.2063
▁warn	-10.2063
▁exact	-10.2065
▁particular	-10.2066
▁plain	-10.2067
▁everyones	-10.2073
▁accent	-10.2075
▁barzini	-10.2075
▁belfort	-10.2075
▁concentrate	-10.2075
▁corliss	-10.2075
▁cotton	-10.2075
▁dhazghig	-10.2075
▁easily	-10.2075
▁ferrari	-10.2075
▁goldfarb	-10.2075
▁knowledge	-10.2075
▁maximus	-10.2075
▁messiah	-10.2075
▁reputation	-10.2075
▁tattoo	-10.2075
▁vatican	-10.2075
▁education	-10.2075
▁emperor	-10.2075
▁heip	-10.2075
▁spoon	-10.2075
▁dynamite	-10.2075
▁wives	-10.2075
▁chinese	-10.2075
▁burke	-10.2075
▁defence	-10.2075
▁scumbag	-10.2075
▁skull	-10.2075
▁racing	-10.2076
▁sharon	-10.2076
▁superstar	-10.2076
▁blake	-10.2076
▁boris	-10.2076
▁incoming	-10.2076
▁committed	-10.2076
▁stiff	-10.2076
▁basic	-10.2076
▁negative	-10.2077
▁blondie	-10.2077
▁ramos	-10.2077
▁papi	-10.2077
▁planned	-10.2077
▁alley	-10.2077
▁avi	-10.2077
▁nasty	-10.2078
▁serk	-10.2079
▁technically	-10.2079
▁handsome	-10.2079
▁chosen	-10.2079
▁grandma	-10.208
▁growling	-10.208
▁youse	-10.208
▁kate	-10.208
▁gordon	-10.208
▁treatment	-10.208
▁organized	-10.2082
▁deck	-10.2082
▁tail	-10.2084
▁jam	-10.2085
▁factory	-10.2085
▁facing	-10.2087
▁directly	-10.2087
▁tense	-10.2087
▁thee	-10.2089
▁physical	-10.2093
▁ira	-10.2098
▁stacks	-10.2098
▁sally	-10.2099
▁ruined	-10.2109
▁addy	-10.2111
▁warning	-10.2112
▁washed	-10.2126
▁mentioned	-10.2129
▁realized	-10.2131
▁jingles	-10.2145
▁treated	-10.2147
ut	-10.2151
na	-10.2153
▁covered	-10.2171
▁shouts	-10.2172
▁prime	-10.2178
▁bum	-10.2189
▁carlos	-10.22
▁stealing	-10.2205
▁protecting	-10.2209
▁workin	-10.221
▁y	-10.2213
▁cabin	-10.2226
▁tent	-10.2247
▁cow	-10.2253
▁du	-10.2258
▁members	-10.2262
j	-10.2287
▁victoria	-10.2288
▁odds	-10.2291
▁tears	-10.2298
▁broad	-10.23
▁at	-10.2316
▁bug	-10.2316
▁roads	-10.2328
bs	-10.2328
▁lee	-10.2338
▁talks	-10.2345
▁trusted	-10.2349
▁incident	-10.2367
▁sales	-10.2383
▁mu	-10.2393
em	-10.2443
▁vehicles	-10.2458
ise	-10.2493
▁bent	-10.2515
▁arrive	-10.2516
▁willoughby	-10.2529
▁effort	-10.2529
▁horror	-10.2529
▁junkie	-10.2532
▁claim	-10.2532
▁niggas	-10.2532
▁pipe	-10.2533
ted	-10.2534
▁division	-10.2537
▁possession	-10.2537
▁fold	-10.2544
▁route	-10.2544
▁intention	-10.2545
▁coisa	-10.2545
▁circle	-10.2547
▁beside	-10.2555
▁lesson	-10.2557
▁bond	-10.2562
▁mc	-10.2563
▁perform	-10.2564
▁depend	-10.2567
▁doll	-10.2569
▁fu	-10.2591
▁steps	-10.2592
▁tr	-10.2596
▁luca	-10.261
▁loser	-10.2617
▁speaker	-10.2634
ied	-10.2635
▁tem	-10.2639
▁phones	-10.2654
▁cast	-10.2657
▁millions	-10.266
▁crush	-10.266
▁spell	-10.266
▁respond	-10.2663
▁hits	-10.2668
▁whack	-10.2676
▁scott	-10.2683
▁equal	-10.269
▁superhero	-10.2694
▁stretch	-10.2697
▁candy	-10.2699
▁rice	-10.2699
▁loyal	-10.2699
▁bacall	-10.27
▁caravan	-10.27
▁circumstances	-10.27
▁courage	-10.27
▁cypher	-10.27
▁epps	-10.27
▁fashion	-10.27
▁leparq	-10.27
▁liquor	-10.27
▁popular	-10.27
▁similar	-10.27
▁spud	-10.27
▁courtesan	-10.27
▁ghetto	-10.27
▁presence	-10.27
▁excellent	-10.27
▁century	-10.27
▁durden	-10.27
▁revs	-10.27
▁bacon	-10.27
▁denni	-10.27
▁viggo	-10.27
▁iife	-10.27
▁rope	-10.27
▁flush	-10.27
▁destination	-10.2701
▁intend	-10.2701
▁internet	-10.2701
▁innit	-10.2701
▁finch	-10.2701
▁trapped	-10.2701
▁canary	-10.2701
▁robbie	-10.2701
▁naughty	-10.2701
▁cabinet	-10.2701
▁geek	-10.2701
▁isto	-10.2701
▁wherever	-10.2701
▁supper	-10.2702
▁reaction	-10.2702
▁community	-10.2702
▁daily	-10.2702
▁suicide	-10.2702
▁intelligence	-10.2702
▁surgery	-10.2702
▁silver	-10.2702
▁lalala	-10.2702
▁ofthe	-10.2702
▁fence	-10.2702
▁pitch	-10.2703
▁terry	-10.2704
▁haha	-10.2704
▁thirty	-10.2704
▁lobby	-10.2705
▁loving	-10.2706
▁narcotics	-10.2706
▁reports	-10.2707
▁acid	-10.2708
▁vision	-10.2708
▁spoken	-10.2711
▁receiver	-10.2712
▁false	-10.2716
▁victory	-10.2717
▁former	-10.2717
▁whispering	-10.2717
▁grown	-10.272
▁connected	-10.2724
▁boxes	-10.2724
▁pity	-10.2724
▁princess	-10.2725
▁prize	-10.2729
▁warned	-10.2731
▁roberto	-10.2736
▁hire	-10.2741
▁mistakes	-10.2749
▁dumped	-10.2753
▁lungs	-10.2754
▁sheets	-10.2754
▁hells	-10.2756
▁fuckers	-10.2768
▁counter	-10.277
▁lighter	-10.2779
▁fairy	-10.2788
▁manage	-10.2789
▁diet	-10.2793
▁manners	-10.2793
▁makeup	-10.2797
▁neighbors	-10.2812
ee	-10.2818
▁bid	-10.2837
▁bra	-10.2838
▁dia	-10.2855
▁val	-10.2866
▁of	-10.2867
ster	-10.2867
▁pode	-10.2879
▁sounded	-10.2892
▁photos	-10.2901
▁ey	-10.291
▁bones	-10.291
▁nails	-10.2911
▁ol	-10.2944
▁sports	-10.295
▁marines	-10.295
▁mist	-10.2953
▁lu	-10.2957
▁guests	-10.296
▁er	-10.2962
▁chances	-10.2966
▁tells	-10.2972
ni	-10.2973
li	-10.2989
▁finds	-10.302
▁hip	-10.3026
▁che	-10.3033
▁shite	-10.3037
▁touching	-10.3051
▁quote	-10.3052
▁tellin	-10.3054
▁ac	-10.3079
▁hack	-10.3094
▁mis	-10.3101
▁ab	-10.3115
▁blocks	-10.3121
ner	-10.3148
▁shares	-10.3159
▁scar	-10.3164
▁not	-10.3172
▁france	-10.3179
▁trap	-10.3186
▁print	-10.3187
▁threat	-10.319
▁effect	-10.3192
▁explosion	-10.3203
▁moron	-10.3205
▁actor	-10.3208
▁mei	-10.321
▁note	-10.321
▁student	-10.3211
▁pole	-10.3212
▁represent	-10.3213
▁tunnel	-10.3214
▁suitcase	-10.3215
▁kidnapping	-10.3215
▁gook	-10.3217
▁mass	-10.3229
▁slim	-10.3237
▁souls	-10.3238
▁seek	-10.3251
what	-10.3255
▁transfer	-10.3256
▁hug	-10.3265
▁murderer	-10.3265
▁banker	-10.3268
▁roses	-10.3282
▁fort	-10.3289
▁nut	-10.3294
ping	-10.3295
▁suffer	-10.3305
▁issue	-10.3317
▁speed	-10.333
▁wrap	-10.3336
▁swallow	-10.3338
▁purchase	-10.3349
▁pet	-10.3354
iii	-10.3354
▁success	-10.3354
▁brief	-10.3355
▁desperate	-10.3356
▁chose	-10.3363
▁earl	-10.3364
▁spin	-10.3364
▁guide	-10.3365
▁wealth	-10.3367
▁alexander	-10.3367
▁altobello	-10.3367
▁carlisle	-10.3367
▁collignon	-10.3367
▁creedy	-10.3367
▁initial	-10.3367
▁kumar	-10.3367
▁paranoid	-10.3367
▁peopie	-10.3367
▁practical	-10.3367
▁sahib	-10.3367
▁switzerland	-10.3367
▁torrance	-10.3367
▁vargas	-10.3367
▁vomit	-10.3367
▁zsasz	-10.3367
▁omar	-10.3367
▁catholic	-10.3367
▁fantasy	-10.3367
▁sutler	-10.3367
▁plague	-10.3367
▁kidnapped	-10.3367
▁twentyfive	-10.3367
▁cocaine	-10.3367
▁becoming	-10.3367
▁championship	-10.3367
▁pathetic	-10.3367
▁judea	-10.3367
▁paddy	-10.3367
▁addition	-10.3367
▁rotten	-10.3367
▁zone	-10.3367
▁theory	-10.3367
▁garnett	-10.3367
▁begbie	-10.3367
▁exercise	-10.3368
▁jiro	-10.3368
▁glory	-10.3368
▁puff	-10.3368
▁romantic	-10.3368
▁identity	-10.3368
▁wagon	-10.3368
▁guardsmen	-10.3369
▁quinn	-10.3369
▁choke	-10.3369
▁wrapped	-10.3369
▁bible	-10.3369
▁dj	-10.3369
▁reverse	-10.3369
▁potatoes	-10.3369
▁fetch	-10.337
▁fraud	-10.337
▁clattering	-10.3371
▁orange	-10.3371
▁lean	-10.3371
▁grabbed	-10.3372
▁remo	-10.3373
▁inhales	-10.3373
▁chat	-10.3374
▁digging	-10.3375
▁gray	-10.3375
▁caine	-10.3376
▁heiio	-10.3376
▁fever	-10.3376
▁ela	-10.3376
▁madame	-10.3378
▁mere	-10.3379
▁task	-10.338
▁discovered	-10.3381
▁tiny	-10.3381
▁erase	-10.3382
▁scary	-10.3382
▁brooks	-10.3383
▁cured	-10.3386
▁naturally	-10.3386
▁hood	-10.3386
▁convinced	-10.3387
tion	-10.3389
▁stinking	-10.339
▁removed	-10.3391
▁blonde	-10.3392
lin	-10.3393
▁unable	-10.3393
▁celtics	-10.3393
▁corn	-10.3397
▁remembered	-10.3397
▁passes	-10.3398
▁dial	-10.3406
▁stronger	-10.3411
▁electric	-10.3414
▁sco	-10.3416
▁planet	-10.3418
▁ja	-10.3419
▁reached	-10.3429
▁clouds	-10.3435
▁boot	-10.3439
▁meu	-10.3441
▁considered	-10.3444
▁crossed	-10.3451
▁oid	-10.346
ize	-10.3461
yman	-10.3464
▁needle	-10.3482
il	-10.3482
▁nation	-10.3489
▁honored	-10.3497
tre	-10.3515
▁boots	-10.3516
▁bugs	-10.3517
▁knocked	-10.3539
▁moe	-10.3541
▁cave	-10.3549
ieu	-10.355
▁engineer	-10.3555
rd	-10.3559
▁tend	-10.3562
▁strangers	-10.3574
▁min	-10.3583
▁bound	-10.3601
▁the	-10.3605
ver	-10.3608
▁killa	-10.361
▁ao	-10.3615
ot	-10.3617
back	-10.3642
▁bat	-10.3658
ther	-10.3671
sse	-10.368
ight	-10.3681
▁nd	-10.3707
▁char	-10.3709
▁tal	-10.3718
▁cowboys	-10.3719
ens	-10.372
▁somethings	-10.3743
▁conditions	-10.3761
▁interests	-10.3774
day	-10.3805
▁bills	-10.3824
▁fail	-10.385
▁med	-10.3858
▁rap	-10.386
▁williams	-10.3873
▁nest	-10.3886
▁wipe	-10.3892
▁checking	-10.3893
▁operate	-10.3898
▁reasons	-10.3902
▁signor	-10.3902
▁limit	-10.3904
▁appear	-10.3905
▁carlo	-10.3908
▁massage	-10.3911
▁sample	-10.3918
▁tin	-10.3919
▁shaw	-10.3919
▁tattaglia	-10.3922
▁daniel	-10.3922
▁johnson	-10.3925
▁understanding	-10.3926
▁passion	-10.3928
▁pikey	-10.3929
▁bodyguard	-10.393
▁fontaine	-10.3931
▁result	-10.3931
rian	-10.3931
▁loan	-10.3932
iest	-10.3939
▁leader	-10.3956
▁porqu	-10.3985
ball	-10.399
▁iron	-10.4011
▁panic	-10.4014
▁connect	-10.4018
▁math	-10.4035
▁smooth	-10.404
▁noon	-10.404
pa	-10.4041
▁climb	-10.4044
▁bowl	-10.4047
▁mix	-10.4048
▁breast	-10.405
▁ad	-10.4051
▁assault	-10.4053
▁stress	-10.4053
mon	-10.4059
▁torture	-10.4064
▁financial	-10.4069
▁thick	-10.4069
▁roy	-10.4072
▁pedro	-10.408
▁debora	-10.4081
▁birth	-10.4081
▁dismiss	-10.4081
▁franco	-10.4081
▁reckon	-10.4081
▁volunteer	-10.4081
▁alessandra	-10.4081
▁beloved	-10.4081
▁budapest	-10.4081
▁campaign	-10.4081
▁caretaker	-10.4081
▁carolyn	-10.4081
▁dallas	-10.4081
▁eagle	-10.4081
▁furniture	-10.4081
▁harbor	-10.4081
▁hidetora	-10.4081
▁jazz	-10.4081
▁judgment	-10.4081
▁lardass	-10.4081
▁meredith	-10.4081
▁pessoa	-10.4081
▁pizza	-10.4081
▁possibly	-10.4081
▁recognise	-10.4081
▁sempre	-10.4081
▁speech	-10.4081
▁struggling	-10.4081
▁surveillance	-10.4081
▁tuddy	-10.4081
▁vaughn	-10.4081
▁medicine	-10.4081
▁rumbling	-10.4081
▁toast	-10.4081
▁december	-10.4081
▁typical	-10.4081
▁greek	-10.4081
▁willard	-10.4081
▁flew	-10.4081
▁giggling	-10.4081
▁whoops	-10.4081
▁venice	-10.4081
▁combat	-10.4081
▁shaking	-10.4081
▁solando	-10.4081
▁temptation	-10.4082
▁firing	-10.4082
▁purse	-10.4082
▁washington	-10.4082
▁flip	-10.4082
▁gamma	-10.4082
▁martinez	-10.4082
▁frozen	-10.4082
▁conspiracy	-10.4082
▁review	-10.4082
▁shep	-10.4082
▁childhood	-10.4082
▁connor	-10.4082
▁section	-10.4083
▁empire	-10.4083
▁quando	-10.4083
▁behavior	-10.4083
▁ifyou	-10.4083
▁diaz	-10.4083
▁porch	-10.4083
▁spain	-10.4083
▁complicated	-10.4084
▁violation	-10.4084
▁southern	-10.4084
▁impressed	-10.4084
▁madden	-10.4084
▁fuss	-10.4085
▁unload	-10.4085
▁deke	-10.4085
▁chairman	-10.4087
▁media	-10.4087
▁exclaims	-10.4088
▁edie	-10.4088
▁personality	-10.4088
▁toid	-10.4088
▁momma	-10.4088
▁giant	-10.4088
▁award	-10.4089
▁discussion	-10.4089
▁bench	-10.4091
▁lara	-10.4092
▁homework	-10.4093
▁plank	-10.4094
▁frightened	-10.4094
▁butter	-10.4095
▁jet	-10.4096
▁explosives	-10.4098
▁instructions	-10.4098
▁ridge	-10.4098
▁visitor	-10.4099
▁au	-10.4099
▁related	-10.4099
▁properly	-10.4104
▁linda	-10.4105
▁mistaken	-10.4107
▁politicians	-10.4109
▁thuds	-10.411
▁bleeding	-10.4111
▁charming	-10.4112
▁arab	-10.4116
ville	-10.4117
▁deeper	-10.4119
▁glori	-10.4123
ak	-10.4127
▁jokes	-10.4129
▁admire	-10.4129
▁elvis	-10.4132
▁tre	-10.4133
▁based	-10.4134
▁employees	-10.4143
▁estava	-10.4147
▁honk	-10.4151
▁campo	-10.4151
▁mountains	-10.4153
▁cracked	-10.4157
▁clip	-10.4159
▁gut	-10.4165
▁sucking	-10.417
▁pee	-10.4174
▁sol	-10.4176
▁bothering	-10.4178
▁taps	-10.4185
▁mayor	-10.4189
▁considering	-10.4191
ors	-10.4196
▁marian	-10.42
▁schedule	-10.4203
▁grounds	-10.4204
▁services	-10.4204
▁image	-10.4207
▁cents	-10.4211
nior	-10.4212
▁dime	-10.4216
▁su	-10.4226
▁songs	-10.423
▁bats	-10.4244
▁spending	-10.4256
▁murderers	-10.426
▁pai	-10.4261
▁frankly	-10.4263
just	-10.4265
▁ye	-10.4268
▁toes	-10.4274
ile	-10.4278
▁shotguns	-10.4279
▁apples	-10.4287
▁dea	-10.4299
▁likely	-10.4299
▁anne	-10.4302
▁here	-10.4303
▁krays	-10.4313
▁offering	-10.4315
▁dar	-10.4342
ite	-10.4346
tic	-10.4351
▁gene	-10.436
▁blowing	-10.4382
nce	-10.4424
ba	-10.4427
▁whores	-10.4427
▁dealers	-10.4435
▁answered	-10.4442
▁badly	-10.4459
▁powers	-10.4459
▁ke	-10.4464
▁queens	-10.448
▁sticks	-10.448
▁groups	-10.453
over	-10.453
▁shooter	-10.4555
ci	-10.4577
▁anti	-10.4577
ities	-10.4594
onde	-10.4598
▁oni	-10.4603
▁assassin	-10.4604
▁germans	-10.4611
▁gam	-10.4619
▁register	-10.4623
▁hop	-10.4625
▁costs	-10.4626
▁fits	-10.463
▁lit	-10.4664
▁fre	-10.4677
▁prince	-10.4679
▁pattern	-10.4679
▁symbol	-10.4679
▁tim	-10.4685
▁nightmare	-10.4691
▁snake	-10.4693
▁servant	-10.4694
▁me	-10.4694
▁individual	-10.4695
▁uniform	-10.4698
▁holes	-10.4705
▁foundation	-10.4706
▁blade	-10.471
▁italians	-10.4715
▁string	-10.4717
▁flower	-10.4728
▁wing	-10.4728
▁clubs	-10.4736
fuck	-10.475
▁blessing	-10.4762
ney	-10.4763
▁painting	-10.4766
▁smash	-10.4784
▁familys	-10.4784
▁smit	-10.4802
nite	-10.4805
well	-10.4807
▁fried	-10.4809
▁shrink	-10.481
▁kiii	-10.4812
▁crown	-10.4813
vez	-10.4818
▁drill	-10.4819
▁screen	-10.4822
▁twist	-10.4824
za	-10.4825
▁cripple	-10.4831
▁disguise	-10.4831
▁feei	-10.4831
▁separate	-10.4831
▁marty	-10.4832
▁nod	-10.4832
▁guilt	-10.4836
▁urgent	-10.4839
▁actual	-10.484
▁unfortunate	-10.4841
▁unlike	-10.4841
▁norm	-10.4844
▁miser	-10.4847
▁doug	-10.4847
▁invent	-10.4848
▁sittin	-10.4848
▁bribe	-10.4849
▁civil	-10.4849
▁alpha	-10.485
▁arbogast	-10.485
▁arizona	-10.485
▁beneath	-10.485
▁conflict	-10.485
▁delicious	-10.485
▁deputy	-10.485
▁despite	-10.485
▁karras	-10.485
▁lchimonji	-10.485
▁llewelyn	-10.485
▁lunatic	-10.485
▁melissa	-10.485
▁offense	-10.485
▁pembry	-10.485
▁prevent	-10.485
▁spleen	-10.485
▁stereo	-10.485
▁trauma	-10.485
▁underground	-10.485
▁wednesday	-10.485
▁wiseguys	-10.485
▁wladek	-10.485
▁byebye	-10.4851
▁headquarters	-10.4851
▁scattered	-10.4851
▁application	-10.4851
▁belfast	-10.4851
▁laura	-10.4851
▁mackenzie	-10.4851
▁demany	-10.4851
▁brainerd	-10.4851
▁todd	-10.4851
▁donkey	-10.4851
▁satisfaction	-10.4851
▁anxious	-10.4851
▁margie	-10.4851
▁theater	-10.4851
▁poiice	-10.4851
▁wasting	-10.4851
▁yourseif	-10.4851
▁network	-10.4851
▁pursuit	-10.4851
▁pearson	-10.4851
▁sunshine	-10.4851
▁assistant	-10.4851
▁avenue	-10.4851
▁hmong	-10.4851
▁cooperation	-10.4851
▁sicilian	-10.4851
▁councilman	-10.4851
▁exley	-10.4851
▁ransom	-10.4851
▁costume	-10.4851
▁version	-10.4852
▁burst	-10.4852
▁huntley	-10.4852
▁deborah	-10.4852
▁management	-10.4852
▁signature	-10.4852
▁jurisdiction	-10.4852
▁mistress	-10.4852
▁november	-10.4852
▁aggressive	-10.4852
▁revolution	-10.4852
▁ashes	-10.4853
▁robbing	-10.4853
▁raid	-10.4853
▁prosecutor	-10.4853
▁boogie	-10.4853
▁loyalty	-10.4853
▁youth	-10.4853
▁facility	-10.4853
per	-10.4854
▁objection	-10.4854
▁armand	-10.4854
▁soup	-10.4854
▁samson	-10.4854
▁wore	-10.4855
▁speck	-10.4855
▁regard	-10.4855
▁bruno	-10.4855
▁inches	-10.4856
▁possibility	-10.4856
▁hysterical	-10.4857
▁trousers	-10.4857
▁yelps	-10.4857
▁selfish	-10.4857
▁series	-10.4858
▁killers	-10.486
▁sammy	-10.486
▁or	-10.486
▁chew	-10.486
▁betty	-10.486
▁quid	-10.4861
▁creepy	-10.4861
▁sharply	-10.4866
▁cried	-10.4866
▁brass	-10.4867
▁consequences	-10.4869
▁hustler	-10.4869
▁vo	-10.4871
▁managed	-10.4872
▁threatening	-10.4877
▁registered	-10.4878
▁dean	-10.488
▁mia	-10.4881
▁tracey	-10.4883
▁tate	-10.4892
▁reality	-10.4893
▁commissioner	-10.4897
▁cooking	-10.4898
▁sniffs	-10.4906
▁tone	-10.491
▁walkin	-10.4913
▁screwed	-10.4916
▁packed	-10.4921
▁tales	-10.4922
az	-10.4923
▁tryin	-10.494
▁redhead	-10.4947
▁commander	-10.4948
▁brakes	-10.4954
▁chambers	-10.4954
▁pushed	-10.4963
▁illness	-10.4968
▁mar	-10.4987
▁tons	-10.4988
▁watches	-10.4993
▁owes	-10.4997
▁blades	-10.5003
▁fund	-10.5006
▁sets	-10.5008
▁kicking	-10.5016
▁lucas	-10.5039
▁boxing	-10.5041
▁bl	-10.5043
▁thousands	-10.5079
▁rear	-10.5087
▁waves	-10.5089
▁liver	-10.5119
▁naive	-10.5125
▁wh	-10.5136
om	-10.5171
▁bon	-10.5176
res	-10.518
▁esta	-10.524
▁waited	-10.5243
▁whe	-10.5266
▁ap	-10.5286
▁pi	-10.5301
▁rot	-10.5314
▁hurting	-10.5327
▁pleased	-10.5335
▁lack	-10.5348
▁je	-10.5371
▁environment	-10.5392
▁dodge	-10.5397
▁u	-10.5418
▁ship	-10.5427
▁idiots	-10.5437
▁minh	-10.5444
▁oi	-10.5452
▁goddamned	-10.5462
▁rag	-10.5465
▁spook	-10.5465
▁my	-10.5471
▁pl	-10.5485
▁tu	-10.5499
▁cousins	-10.55
▁charm	-10.5506
▁gal	-10.5506
▁medium	-10.5512
▁repair	-10.5512
▁cent	-10.5513
▁custom	-10.5516
▁habit	-10.5522
▁edge	-10.5522
▁organ	-10.5524
▁coward	-10.5525
▁beast	-10.5525
▁civilian	-10.5525
▁flag	-10.5527
▁guinea	-10.5527
▁mirror	-10.5529
▁nerve	-10.5529
▁candle	-10.5533
▁wallet	-10.5534
▁neighbor	-10.5535
ily	-10.5541
▁chuckle	-10.5544
ized	-10.5548
▁maria	-10.5551
ze	-10.5557
▁bookie	-10.556
▁payment	-10.5563
▁yum	-10.5564
▁yi	-10.5571
▁reai	-10.5573
work	-10.5591
▁borrow	-10.5613
▁rooms	-10.5617
▁cheat	-10.5622
ndo	-10.5623
▁shove	-10.563
▁casinos	-10.5639
▁bells	-10.5641
▁shatter	-10.5646
▁leak	-10.5647
▁drag	-10.5649
▁corrupt	-10.5651
▁tow	-10.5651
▁smack	-10.5653
▁trail	-10.5655
▁link	-10.5656
▁log	-10.5657
▁bleed	-10.5658
▁jai	-10.566
▁rescue	-10.5662
▁swing	-10.5663
▁applau	-10.5664
▁secure	-10.5666
▁previous	-10.5672
▁gamble	-10.5676
▁zoo	-10.568
▁foreign	-10.5681
▁grocer	-10.5682
▁express	-10.5682
▁resist	-10.5683
▁thumb	-10.5684
▁ambush	-10.5684
▁bureau	-10.5684
▁circus	-10.5684
▁cirk	-10.5684
▁confidence	-10.5684
▁cooperate	-10.5684
▁description	-10.5684
▁domenico	-10.5684
▁fragile	-10.5684
▁intelligent	-10.5684
▁leprechaun	-10.5684
▁ludwig	-10.5684
▁lundegaard	-10.5684
▁mayhem	-10.5684
▁medication	-10.5684
▁mierzwiak	-10.5684
▁nylon	-10.5684
▁pentangeli	-10.5684
▁prostitute	-10.5684
▁randazzo	-10.5684
▁rodolfo	-10.5684
▁rodriguez	-10.5684
▁sonofabitch	-10.5684
▁sweeney	-10.5684
▁terribly	-10.5684
▁volume	-10.5684
▁delta	-10.5684
▁female	-10.5684
▁steel	-10.5684
▁ballister	-10.5684
▁helen	-10.5684
▁whiskey	-10.5684
▁meyer	-10.5684
▁proposition	-10.5684
▁worries	-10.5684
▁activity	-10.5684
▁nunca	-10.5684
▁science	-10.5684
▁sparma	-10.5684
▁baywatch	-10.5684
▁bald	-10.5684
▁stomp	-10.5684
▁palace	-10.5684
▁granny	-10.5684
▁monaco	-10.5684
▁library	-10.5684
▁pierce	-10.5684
▁chanting	-10.5684
▁flare	-10.5684
▁granville	-10.5684
▁assistance	-10.5684
▁donny	-10.5684
▁havana	-10.5684
▁overnight	-10.5684
▁grid	-10.5684
▁zeena	-10.5684
▁souad	-10.5684
▁suspicious	-10.5684
▁patsey	-10.5684
▁village	-10.5684
▁bingo	-10.5684
▁appearance	-10.5684
▁operating	-10.5685
▁lousy	-10.5685
▁barker	-10.5685
▁snowball	-10.5685
▁extraordinary	-10.5685
▁vlog	-10.5685
▁cheque	-10.5685
▁italy	-10.5685
▁serge	-10.5685
▁eternal	-10.5685
▁chaos	-10.5685
▁unknown	-10.5685
▁dough	-10.5685
▁charity	-10.5686
▁valerie	-10.5686
▁culture	-10.5686
▁lois	-10.5686
▁wrist	-10.5686
▁warehouse	-10.5686
▁multiple	-10.5686
▁corporation	-10.5686
▁popped	-10.5686
▁pub	-10.5686
▁tuco	-10.5686
▁continental	-10.5687
▁attractive	-10.5687
▁batman	-10.5687
▁drew	-10.5687
▁flood	-10.5687
▁sober	-10.5687
▁certificate	-10.5687
▁measure	-10.5687
▁temporary	-10.5688
▁mesm	-10.5689
▁palm	-10.5689
▁levin	-10.569
▁kowalski	-10.569
▁constant	-10.569
▁swell	-10.569
▁cameron	-10.569
▁scotch	-10.569
▁nearby	-10.569
▁stanton	-10.5691
▁ant	-10.5691
▁conduct	-10.5693
▁inch	-10.5693
▁chocolate	-10.5693
▁hump	-10.5693
▁bout	-10.5694
▁stepped	-10.5694
▁cane	-10.5694
▁setting	-10.5695
▁vou	-10.5695
▁spit	-10.5695
▁taxes	-10.5697
▁grateful	-10.5697
▁highness	-10.5698
▁sniffing	-10.5698
▁rocket	-10.5699
▁robin	-10.5699
▁misery	-10.5701
▁stable	-10.5701
▁retarded	-10.5702
▁eve	-10.5702
▁fuckedup	-10.5703
▁threatened	-10.5704
▁owl	-10.5704
▁scotty	-10.5705
▁informed	-10.5705
▁iet	-10.5708
▁deaf	-10.5709
▁riot	-10.5711
▁como	-10.5711
▁gin	-10.5713
shore	-10.5713
▁lawn	-10.5715
▁mixed	-10.5716
▁suffered	-10.5718
▁brock	-10.5718
▁copper	-10.5719
▁shovel	-10.572
▁whacked	-10.572
▁martini	-10.5722
shit	-10.5722
▁gain	-10.5722
▁timing	-10.5723
▁down	-10.5726
▁dings	-10.5726
▁thrown	-10.5729
▁suffering	-10.5731
▁gem	-10.5735
▁smaller	-10.5746
▁minister	-10.5746
▁don	-10.5753
▁bump	-10.5754
▁painted	-10.5757
ich	-10.5758
▁leo	-10.5765
▁painful	-10.577
▁crashing	-10.5782
▁blocked	-10.5785
▁stinks	-10.5811
▁event	-10.5819
▁staring	-10.5821
▁expenses	-10.5823
▁vai	-10.5829
▁ally	-10.5845
▁messed	-10.5846
▁aid	-10.5848
▁fontaines	-10.5863
▁results	-10.5863
▁returning	-10.5874
▁pawn	-10.5874
▁fal	-10.5877
▁gooks	-10.5877
tima	-10.5878
▁fully	-10.588
▁recording	-10.5894
ped	-10.5901
▁julia	-10.5903
▁sis	-10.5908
▁ton	-10.5914
tinha	-10.5916
▁clowns	-10.5917
▁jacks	-10.5918
▁ir	-10.5922
ki	-10.5922
▁speakers	-10.5925
▁officials	-10.5948
tes	-10.5982
ah	-10.5992
▁knocks	-10.6004
▁des	-10.6016
▁counting	-10.6016
▁hid	-10.6022
▁ou	-10.6024
▁pan	-10.6029
▁breaks	-10.6035
ative	-10.6048
▁pursue	-10.6063
if	-10.6087
▁listened	-10.6103
▁debts	-10.6106
▁hal	-10.6115
ca	-10.6146
▁devils	-10.616
▁br	-10.6163
▁manuel	-10.6164
▁rod	-10.6185
▁tricks	-10.6201
ez	-10.6208
ada	-10.6209
cy	-10.6278
▁sew	-10.6313
▁drops	-10.6314
▁dip	-10.6331
field	-10.6345
ke	-10.6345
▁shout	-10.6377
▁col	-10.6395
rio	-10.6403
▁director	-10.6405
tle	-10.6409
▁ros	-10.6416
▁gran	-10.642
▁buck	-10.6421
▁argument	-10.6421
▁razor	-10.6422
▁slice	-10.6422
▁procedure	-10.6433
▁trooper	-10.6434
▁demand	-10.6439
▁tra	-10.644
▁expense	-10.6442
▁olive	-10.6443
▁sword	-10.6447
ated	-10.6458
▁drawer	-10.6458
▁billion	-10.6461
▁plot	-10.6466
▁sn	-10.6466
▁ending	-10.6474
two	-10.6482
▁surf	-10.6484
gen	-10.6506
led	-10.6511
bit	-10.6523
room	-10.6524
load	-10.6555
▁widow	-10.6559
▁obey	-10.6562
▁gather	-10.6562
▁hustle	-10.6571
▁curse	-10.6574
▁invite	-10.6576
▁greed	-10.6578
▁retire	-10.6578
▁potential	-10.6583
▁immediate	-10.6583
▁grin	-10.6585
▁madam	-10.6586
▁sacrifice	-10.6586
▁tomato	-10.6589
▁makin	-10.6592
▁inherit	-10.6592
▁basket	-10.6593
▁lewis	-10.6593
▁agatha	-10.6593
▁arguing	-10.6593
▁beethoven	-10.6593
▁brooklyn	-10.6593
▁cortez	-10.6593
▁depois	-10.6593
▁dorothy	-10.6593
▁drank	-10.6593
▁genuine	-10.6593
▁gould	-10.6593
▁harvard	-10.6593
▁immobiliare	-10.6593
▁investigate	-10.6593
▁investigating	-10.6593
▁kansas	-10.6593
▁lincoln	-10.6593
▁macneil	-10.6593
▁madeleine	-10.6593
▁paradise	-10.6593
▁phoenix	-10.6593
▁poulain	-10.6593
▁schmuck	-10.6593
▁stroke	-10.6593
▁uncomfortable	-10.6593
▁valuable	-10.6593
▁vengeance	-10.6593
▁whistling	-10.6593
▁attitude	-10.6593
▁corporal	-10.6593
▁iisten	-10.6593
▁kyle	-10.6593
▁iast	-10.6593
▁mystery	-10.6593
▁generous	-10.6593
▁collins	-10.6593
▁errol	-10.6593
▁whinny	-10.6593
▁brittle	-10.6593
▁someday	-10.6593
▁couid	-10.6593
▁harold	-10.6593
▁nitro	-10.6593
▁aiways	-10.6593
▁underwear	-10.6593
▁vienna	-10.6593
▁midnight	-10.6593
▁bonnie	-10.6593
▁shook	-10.6593
▁divide	-10.6593
▁santino	-10.6593
▁ashamed	-10.6593
▁barks	-10.6593
▁kingdom	-10.6593
▁source	-10.6593
▁straw	-10.6593
▁swimming	-10.6593
▁rocco	-10.6593
▁smiling	-10.6593
▁senate	-10.6593
▁impression	-10.6593
▁hector	-10.6593
▁surrender	-10.6593
▁comedian	-10.6593
▁celebration	-10.6593
▁swamp	-10.6593
▁slipped	-10.6593
▁glen	-10.6594
▁tracy	-10.6594
▁bracelet	-10.6594
▁humor	-10.6594
▁pbr	-10.6594
▁testimony	-10.6594
▁sniffles	-10.6594
▁yessir	-10.6594
▁primary	-10.6594
▁independent	-10.6594
▁clue	-10.6594
▁entertainment	-10.6594
▁pimp	-10.6594
▁assigned	-10.6594
▁sunset	-10.6594
▁panties	-10.6594
▁narrow	-10.6594
▁hagen	-10.6594
▁luis	-10.6595
▁toad	-10.6595
▁iot	-10.6595
▁motor	-10.6595
▁iong	-10.6595
▁territory	-10.6595
▁behave	-10.6595
▁michigan	-10.6595
▁reliable	-10.6595
▁reservation	-10.6595
▁sensitive	-10.6595
▁dougie	-10.6596
▁aboard	-10.6596
▁booth	-10.6597
▁cities	-10.6597
▁murphy	-10.6598
▁european	-10.6598
▁fazer	-10.6598
▁kim	-10.6599
▁thirsty	-10.6599
▁salad	-10.6599
▁rubber	-10.66
▁cackles	-10.6601
▁dolores	-10.6601
▁clinking	-10.6601
▁liberty	-10.6602
▁narrator	-10.6602
▁halfway	-10.6602
▁tailor	-10.6602
▁brandt	-10.6604
▁brutal	-10.6604
▁nickel	-10.6604
▁hose	-10.6604
▁superman	-10.6605
▁satisfied	-10.6608
▁uhoh	-10.6608
▁arranged	-10.6608
▁emma	-10.6609
▁shithole	-10.6609
▁philly	-10.661
▁moaning	-10.6612
▁disappointed	-10.6612
▁coma	-10.6612
▁navy	-10.6613
▁clatters	-10.6614
▁abandoned	-10.6615
▁creaks	-10.6615
▁shootout	-10.6615
▁checks	-10.6616
▁betrayed	-10.6617
▁accused	-10.6619
▁tempo	-10.6621
▁seats	-10.6621
▁useful	-10.6622
▁gourd	-10.6626
▁dana	-10.6626
▁sic	-10.6628
▁carried	-10.6629
▁teamsters	-10.663
▁delivery	-10.6632
▁healthy	-10.6633
▁disse	-10.6633
▁escaped	-10.6633
▁bitter	-10.6639
▁confessed	-10.6643
▁sei	-10.6644
▁cia	-10.6646
▁settled	-10.6646
▁hooked	-10.6646
▁released	-10.6652
▁noone	-10.6654
▁quicker	-10.666
▁delivered	-10.6667
▁finest	-10.6669
▁shared	-10.6674
▁opera	-10.6676
▁remaining	-10.6677
▁homeless	-10.6678
▁imagined	-10.668
ame	-10.6687
▁degrees	-10.6688
▁beard	-10.669
▁cha	-10.6693
▁lid	-10.6709
▁cracking	-10.6725
sis	-10.6727
▁ge	-10.6727
▁testing	-10.6733
▁hiss	-10.6734
ring	-10.6743
▁handled	-10.6756
▁ficar	-10.6757
▁stare	-10.6759
▁candles	-10.6761
right	-10.6764
▁this	-10.6771
▁nate	-10.6774
hi	-10.6775
▁wondered	-10.6784
▁bodyguards	-10.6791
▁loans	-10.6791
▁classic	-10.6793
▁mor	-10.6802
▁nam	-10.6808
too	-10.6812
▁smelled	-10.682
▁pulls	-10.6835
▁hotels	-10.6883
▁backup	-10.689
▁costellos	-10.6894
▁nicer	-10.6898
▁helicopters	-10.6924
▁mexicans	-10.6924
▁muscles	-10.6953
▁newspapers	-10.6953
▁dos	-10.6963
▁jeans	-10.6969
ti	-10.6981
▁winners	-10.6983
▁wounds	-10.6984
▁kindly	-10.6986
ire	-10.6989
acho	-10.703
▁buildings	-10.7041
▁computers	-10.7043
ations	-10.7053
▁forms	-10.7064
ical	-10.7077
▁begins	-10.7089
▁hearts	-10.7113
▁woo	-10.7119
▁contacts	-10.7119
bar	-10.7136
ins	-10.7141
▁stands	-10.7142
headed	-10.7201
end	-10.7207
pl	-10.7255
iu	-10.7255
▁pals	-10.7266
▁nu	-10.7275
our	-10.7283
▁trips	-10.7289
ik	-10.7305
▁prim	-10.7316
▁surely	-10.7345
wood	-10.7347
▁ham	-10.7349
▁actions	-10.7362
▁lap	-10.7364
▁term	-10.737
▁rode	-10.7371
▁stink	-10.739
▁handed	-10.7409
▁scrap	-10.7414
ette	-10.7419
▁envelope	-10.7421
▁studio	-10.7421
▁whale	-10.7422
▁fri	-10.7424
▁falls	-10.7424
▁deposit	-10.7427
▁sweep	-10.7428
▁superior	-10.7429
ler	-10.7431
▁experiment	-10.7431
▁benefit	-10.7433
▁bla	-10.7436
▁colleague	-10.7436
▁drum	-10.7437
▁barrel	-10.7439
▁sniper	-10.7441
▁slam	-10.7451
▁coin	-10.7454
ham	-10.7462
▁barn	-10.747
▁nickys	-10.7476
ky	-10.7476
▁protest	-10.7488
▁bol	-10.7497
▁journal	-10.7506
looking	-10.7507
hand	-10.7509
▁hopes	-10.751
▁manner	-10.7516
▁drown	-10.753
zo	-10.7539
▁op	-10.7541
▁pricks	-10.7544
ick	-10.7545
▁snitch	-10.755
mouth	-10.7551
called	-10.7551
four	-10.7551
▁recruit	-10.7553
▁sail	-10.7553
▁blond	-10.7554
▁les	-10.7556
▁punish	-10.7558
▁ditch	-10.756
▁betray	-10.7566
▁tag	-10.7568
inda	-10.7571
▁confirm	-10.7571
▁fools	-10.7573
▁loop	-10.7575
▁approve	-10.7575
▁replace	-10.7576
▁flow	-10.7577
itched	-10.7578
▁desculp	-10.7579
▁burns	-10.7579
▁solve	-10.758
inal	-10.7581
▁filth	-10.7581
▁ignore	-10.7581
▁heii	-10.7584
▁absolute	-10.7584
▁ob	-10.7584
▁detect	-10.7585
▁pow	-10.759
▁maze	-10.759
▁messages	-10.759
▁transport	-10.7592
▁cruel	-10.7592
▁drama	-10.7592
▁toot	-10.7592
▁iove	-10.7593
▁alibi	-10.7593
▁assignment	-10.7593
▁balance	-10.7593
▁buddha	-10.7593
▁cemetery	-10.7593
▁consigliere	-10.7593
▁dmitri	-10.7593
▁dufayel	-10.7593
▁embrace	-10.7593
▁flames	-10.7593
▁fleck	-10.7593
▁happiness	-10.7593
▁hockney	-10.7593
▁immunity	-10.7593
▁industry	-10.7593
▁invisible	-10.7593
▁jonathan	-10.7593
▁mclaren	-10.7593
▁motorcycle	-10.7593
▁obstacle	-10.7593
▁october	-10.7593
▁oracle	-10.7593
▁pamela	-10.7593
▁perimeter	-10.7593
▁phase	-10.7593
▁piscano	-10.7593
▁platoon	-10.7593
▁politics	-10.7593
▁precinct	-10.7593
▁prothero	-10.7593
▁railroad	-10.7593
▁rainbow	-10.7593
▁receipt	-10.7593
▁response	-10.7593
▁roach	-10.7593
▁sunrise	-10.7593
▁tobacco	-10.7593
▁underneath	-10.7593
▁wreck	-10.7593
▁affirmative	-10.7593
▁article	-10.7593
▁crystal	-10.7593
▁disease	-10.7593
▁ezra	-10.7593
▁roast	-10.7593
▁salute	-10.7593
▁yacht	-10.7593
▁interfere	-10.7593
▁spades	-10.7593
▁conscience	-10.7593
▁jerome	-10.7593
▁worship	-10.7593
▁carmine	-10.7593
▁nelson	-10.7593
▁polite	-10.7593
▁devons	-10.7593
▁rossi	-10.7593
▁polish	-10.7593
▁deacon	-10.7593
▁licence	-10.7593
▁sheep	-10.7593
▁channel	-10.7593
▁theft	-10.7593
▁vagina	-10.7593
▁outstanding	-10.7593
▁appetite	-10.7593
▁ninth	-10.7593
▁turkish	-10.7593
▁furious	-10.7593
▁imagination	-10.7593
▁turkey	-10.7593
▁shining	-10.7593
▁neat	-10.7593
▁rising	-10.7593
▁oscar	-10.7593
▁ferry	-10.7593
▁perkins	-10.7594
▁governor	-10.7594
▁survival	-10.7594
▁rita	-10.7594
▁broadway	-10.7594
▁bucket	-10.7594
▁specifically	-10.7594
▁hallway	-10.7594
▁piggy	-10.7594
▁junior	-10.7594
▁cannon	-10.7594
▁chasing	-10.7594
▁extend	-10.7594
▁ripped	-10.7594
▁soil	-10.7594
▁partnership	-10.7594
▁whooping	-10.7594
▁basis	-10.7594
▁fuel	-10.7594
▁retirement	-10.7594
▁clemens	-10.7594
▁sheeran	-10.7594
▁burnham	-10.7594
▁tooth	-10.7594
▁sidewalk	-10.7595
▁angle	-10.7595
▁gutter	-10.7595
▁warsaw	-10.7595
▁humble	-10.7595
▁sunny	-10.7595
▁chirping	-10.7595
▁mount	-10.7595
▁gar	-10.7595
▁loony	-10.7595
▁commitment	-10.7595
▁average	-10.7596
▁barbara	-10.7596
▁modern	-10.7596
▁comb	-10.7596
▁joseph	-10.7596
▁tourist	-10.7596
▁ratner	-10.7596
▁drain	-10.7596
▁quentin	-10.7596
▁fridge	-10.7596
▁quality	-10.7596
▁cartel	-10.7596
▁righteous	-10.7596
▁weeknd	-10.7597
▁stabbed	-10.7597
▁tappy	-10.7597
▁bien	-10.7598
▁claus	-10.7598
▁aiden	-10.7598
▁cancel	-10.7598
▁legitimate	-10.7598
▁latin	-10.7599
▁determined	-10.7599
▁loom	-10.7599
▁june	-10.7599
▁tango	-10.7599
▁alguma	-10.7599
▁identified	-10.76
▁established	-10.76
▁triple	-10.7601
▁hideout	-10.7601
▁heist	-10.7602
▁darkness	-10.7602
▁betting	-10.7602
▁employer	-10.7602
▁touchdown	-10.7602
▁slide	-10.7602
▁eva	-10.7604
▁todo	-10.7604
▁palmer	-10.7604
▁limo	-10.7604
▁moral	-10.7605
▁gap	-10.7605
▁soda	-10.7605
▁unger	-10.7606
▁mud	-10.7607
▁diner	-10.7607
▁handling	-10.7608
▁ego	-10.7608
▁bud	-10.7608
▁powder	-10.7609
▁greedy	-10.761
▁refer	-10.7611
▁bugger	-10.7612
▁buzzes	-10.7612
▁floating	-10.7614
▁piaying	-10.7614
▁rage	-10.7615
▁surrounded	-10.7617
▁denied	-10.7618
▁pisses	-10.7619
▁successful	-10.762
▁chen	-10.762
▁ludes	-10.762
▁mall	-10.7621
▁alan	-10.7622
▁july	-10.7623
▁louder	-10.7623
les	-10.7624
▁lineup	-10.7625
through	-10.7625
▁backyard	-10.7625
▁betsy	-10.7627
▁fed	-10.7628
▁et	-10.7629
▁prey	-10.763
▁missus	-10.7634
▁freeway	-10.7636
▁abuse	-10.7637
▁cons	-10.7638
▁feeiing	-10.764
for	-10.7643
▁deserved	-10.7643
▁seth	-10.7644
never	-10.7645
ding	-10.7646
▁dialing	-10.7648
▁sinners	-10.765
▁troops	-10.765
▁fades	-10.765
▁challenge	-10.7656
▁beers	-10.7659
▁lily	-10.7662
▁requires	-10.7666
▁shitting	-10.7671
▁julie	-10.7676
▁touches	-10.7682
▁rumors	-10.7682
▁crashed	-10.7684
▁earned	-10.7684
▁iooking	-10.7685
▁rented	-10.7687
ga	-10.769
▁ru	-10.7692
▁continued	-10.7697
▁horny	-10.7703
▁lions	-10.7708
▁screwing	-10.7708
▁yyou	-10.7712
▁tyres	-10.7715
▁lips	-10.7715
how	-10.7715
▁teaching	-10.7716
▁safely	-10.7718
ley	-10.7718
▁provid	-10.7719
▁farmers	-10.772
▁pu	-10.7721
▁sore	-10.7722
▁lines	-10.7727
▁citizens	-10.7731
▁items	-10.7731
▁socks	-10.7731
▁pd	-10.7734
▁rocky	-10.7745
▁angelo	-10.7754
▁ai	-10.7755
lly	-10.7756
▁sole	-10.7757
▁shorts	-10.7766
▁visiting	-10.7772
▁suite	-10.7772
▁favors	-10.7776
▁searching	-10.7777
▁fredd	-10.7786
▁inform	-10.7788
▁pushing	-10.779
▁strings	-10.7796
▁joely	-10.7806
▁mau	-10.7806
▁enjoyed	-10.7808
▁pais	-10.7813
ub	-10.7822
▁cells	-10.7826
▁bolt	-10.783
▁tips	-10.783
▁tapes	-10.7831
▁notes	-10.7838
▁defend	-10.7846
▁tap	-10.7846
▁structure	-10.785
▁bow	-10.7855
▁indicate	-10.7861
▁ducks	-10.7862
▁das	-10.7865
▁enjoying	-10.7877
▁monkeys	-10.7895
ab	-10.7896
▁fig	-10.7901
▁murders	-10.791
etic	-10.7918
▁ro	-10.792
▁rolled	-10.7931
▁ringer	-10.7938
▁rub	-10.7942
▁mill	-10.7949
▁fo	-10.795
my	-10.7962
▁franky	-10.7991
▁bombs	-10.8012
▁tri	-10.802
uck	-10.8026
▁gangs	-10.8027
▁concerns	-10.8044
▁boa	-10.805
ula	-10.8052
ide	-10.8065
nel	-10.8066
▁marys	-10.8074
▁deai	-10.8076
ill	-10.8096
▁bas	-10.8111
▁mindy	-10.8131
▁exists	-10.8145
▁severe	-10.8155
▁deadly	-10.8161
▁believes	-10.8165
▁skill	-10.8173
▁bu	-10.8173
▁medals	-10.8177
▁z	-10.8183
ns	-10.8187
▁fights	-10.8189
▁cass	-10.8189
▁lend	-10.8191
▁schools	-10.8193
sto	-10.8193
▁wheels	-10.8194
▁commands	-10.8195
oster	-10.8205
▁mini	-10.821
tem	-10.8223
pe	-10.8238
▁cor	-10.8247
▁accounts	-10.8247
▁voices	-10.8251
▁fires	-10.8253
▁promises	-10.8256
▁deni	-10.8261
▁tests	-10.8265
▁maker	-10.8288
▁operations	-10.8294
ux	-10.8299
▁mon	-10.831
ably	-10.831
den	-10.8311
rez	-10.8326
dor	-10.8329
▁tastes	-10.8352
ang	-10.8359
▁signs	-10.8361
▁permit	-10.8365
▁rep	-10.8367
ste	-10.8373
▁pays	-10.8438
officially	-10.8449
ung	-10.8461
ned	-10.8489
▁threaten	-10.8492
▁plug	-10.851
▁comm	-10.8515
▁tournament	-10.8532
▁material	-10.854
▁adult	-10.854
▁defendant	-10.854
▁investment	-10.8541
▁inmate	-10.8541
▁root	-10.8541
▁shark	-10.8544
▁burger	-10.8545
▁affair	-10.8547
▁hostage	-10.8548
ano	-10.8549
▁citizen	-10.8552
▁chamber	-10.8554
▁item	-10.8555
▁eyeball	-10.8556
▁toward	-10.8556
▁sock	-10.8557
▁miller	-10.8559
▁pickup	-10.8565
▁parent	-10.8567
▁brake	-10.8573
away	-10.8574
gue	-10.86
face	-10.8606
▁par	-10.8607
▁vow	-10.8615
▁creep	-10.8618
▁sl	-10.862
▁hunter	-10.8625
foot	-10.8647
▁rig	-10.8649
fire	-10.8654
book	-10.8654
▁continu	-10.8656
tempo	-10.866
free	-10.8661
▁haul	-10.8666
▁appeal	-10.8666
▁unlock	-10.8669
▁foul	-10.8673
▁host	-10.8674
▁haunt	-10.8676
▁surround	-10.8677
▁abandon	-10.8677
ford	-10.868
▁wee	-10.8683
▁mates	-10.8684
▁arrange	-10.8686
▁lime	-10.8689
▁korea	-10.869
▁roma	-10.869
▁pork	-10.8691
▁fond	-10.8692
▁meter	-10.8698
▁marsha	-10.87
▁mutt	-10.8702
▁runnin	-10.8702
▁gentle	-10.8703
▁cain	-10.8704
▁romi	-10.8704
▁subpoena	-10.8704
▁africa	-10.8704
▁alejandro	-10.8704
▁atlanta	-10.8704
▁ayabe	-10.8704
▁baltimore	-10.8704
▁beaucoup	-10.8704
▁bertinelli	-10.8704
▁brandnew	-10.8704
▁bruv	-10.8704
▁cambodia	-10.8704
▁carpenter	-10.8704
▁ceiling	-10.8704
▁central	-10.8704
▁circuit	-10.8704
▁cockroach	-10.8704
▁concrete	-10.8704
▁costigan	-10.8704
▁davis	-10.8704
▁deceased	-10.8704
▁demolition	-10.8704
▁dignam	-10.8704
▁dorsia	-10.8704
▁eivira	-10.8704
▁flakka	-10.8704
▁gracias	-10.8704
▁hancock	-10.8704
▁hannibal	-10.8704
▁instance	-10.8704
▁kobayashi	-10.8704
▁lawrence	-10.8704
▁lopez	-10.8704
▁mafia	-10.8704
▁mysterious	-10.8704
▁necklace	-10.8704
▁negotiate	-10.8704
▁oxygen	-10.8704
▁parliament	-10.8704
▁patience	-10.8704
▁peirce	-10.8704
▁persuade	-10.8704
▁pittsburgh	-10.8704
▁protocol	-10.8704
▁pulse	-10.8704
▁rattling	-10.8704
▁regazzoni	-10.8704
▁rhythm	-10.8704
▁shadow	-10.8704
▁shirley	-10.8704
▁smidge	-10.8704
▁soccer	-10.8704
▁solution	-10.8704
▁sullivan	-10.8704
▁tremendous	-10.8704
▁troubie	-10.8704
▁womb	-10.8704
▁yolanda	-10.8704
▁eleven	-10.8704
▁kimmie	-10.8704
▁mattress	-10.8704
▁payroll	-10.8704
▁relay	-10.8704
▁strangle	-10.8704
stone	-10.8704
▁brett	-10.8704
▁campsite	-10.8704
▁granddad	-10.8704
▁investigator	-10.8704
▁reveal	-10.8704
▁afterwards	-10.8704
▁believing	-10.8704
▁privacy	-10.8704
▁struggle	-10.8704
▁whatll	-10.8704
▁premises	-10.8704
▁stensland	-10.8704
▁susan	-10.8704
▁felix	-10.8704
▁identify	-10.8704
▁kujan	-10.8704
▁landlord	-10.8704
▁olympic	-10.8704
▁overlapping	-10.8704
▁ease	-10.8704
▁storage	-10.8704
▁appreciation	-10.8704
▁finance	-10.8704
▁vinyard	-10.8704
▁whining	-10.8704
▁burden	-10.8704
▁holland	-10.8704
▁farewell	-10.8704
▁research	-10.8704
▁noyce	-10.8704
▁worid	-10.8704
▁pilate	-10.8704
▁flawless	-10.8704
▁jelly	-10.8704
▁magnificent	-10.8704
▁distant	-10.8704
▁koji	-10.8704
▁tapping	-10.8704
▁valley	-10.8704
▁population	-10.8704
▁behold	-10.8704
▁lease	-10.8705
▁silk	-10.8705
▁torn	-10.8705
▁arsehole	-10.8705
▁barber	-10.8705
▁raj	-10.8705
▁temple	-10.8705
▁penalty	-10.8705
▁performance	-10.8705
▁brotherfucker	-10.8705
▁portland	-10.8705
▁arson	-10.8705
▁online	-10.8705
▁garry	-10.8705
▁spill	-10.8705
▁thieves	-10.8706
▁massive	-10.8706
▁haircut	-10.8706
▁judy	-10.8706
▁waking	-10.8706
▁diane	-10.8706
▁paperwork	-10.8706
▁proposal	-10.8706
▁blah	-10.8706
▁agua	-10.8706
▁becky	-10.8706
▁patty	-10.8706
▁confident	-10.8706
▁kidnapper	-10.8707
▁mutters	-10.8707
▁punishment	-10.8707
▁expression	-10.8707
▁reese	-10.8707
▁bunk	-10.8707
▁academy	-10.8707
▁museum	-10.8707
▁courtesy	-10.8707
▁occupied	-10.8707
▁lightning	-10.8707
▁conference	-10.8707
▁minor	-10.8707
▁fingerprint	-10.8707
▁studied	-10.8707
▁bamba	-10.8707
▁arse	-10.8707
▁collar	-10.8708
▁ruthless	-10.8708
▁greenville	-10.8708
▁subway	-10.8708
▁ledger	-10.8708
▁comment	-10.8708
▁foolish	-10.8708
▁clay	-10.8709
▁flies	-10.8709
▁bartender	-10.8709
▁wig	-10.8709
▁alice	-10.8709
▁dive	-10.8709
▁pond	-10.8709
▁transferred	-10.8709
▁skies	-10.871
▁windsor	-10.871
▁inner	-10.871
▁dating	-10.8711
▁eise	-10.8711
▁harmless	-10.8711
▁publicity	-10.8711
▁fries	-10.8711
▁supply	-10.8711
▁china	-10.8712
▁valentin	-10.8712
▁passage	-10.8712
▁grandfather	-10.8712
▁hawk	-10.8712
▁celebrating	-10.8712
▁occurred	-10.8712
▁praise	-10.8712
▁slaver	-10.8713
▁dice	-10.8714
▁tech	-10.8714
▁brat	-10.8714
▁virus	-10.8714
▁madness	-10.8714
▁pancakes	-10.8714
▁dumbass	-10.8714
▁thudding	-10.8715
▁applauding	-10.8715
▁developed	-10.8715
▁dedicate	-10.8715
▁minus	-10.8716
▁cries	-10.8716
▁lil	-10.8716
▁lala	-10.8717
▁nino	-10.8717
▁mint	-10.8717
▁craft	-10.8717
▁employment	-10.8718
▁controlled	-10.8718
▁designer	-10.8718
▁convicted	-10.8719
▁snorting	-10.8719
▁dragged	-10.8719
▁plead	-10.872
▁mansion	-10.872
▁dates	-10.872
▁pinched	-10.8721
▁sickness	-10.8723
▁beaten	-10.8726
▁clothing	-10.8727
▁clanking	-10.8727
▁squeaking	-10.8728
▁executed	-10.8731
▁tortured	-10.8732
▁unto	-10.8732
▁jay	-10.8733
▁eaten	-10.8733
▁serving	-10.8733
▁gram	-10.8735
▁payne	-10.8737
▁compared	-10.8737
▁drowning	-10.8744
ash	-10.8744
▁mid	-10.8745
▁geezer	-10.8746
▁sabe	-10.8746
▁seal	-10.8747
▁firearms	-10.875
▁bueno	-10.8752
▁divorced	-10.8753
▁skirt	-10.8754
▁focused	-10.8757
▁highest	-10.8758
▁internal	-10.8761
▁bowling	-10.8762
▁highp	-10.8765
▁introduced	-10.8768
▁beans	-10.8769
▁illusion	-10.8769
▁rounds	-10.8771
▁chaps	-10.8772
▁cunts	-10.8773
▁wo	-10.8774
▁it	-10.8774
▁mag	-10.8781
▁involve	-10.8783
▁survived	-10.8789
▁freaking	-10.8792
iness	-10.8796
▁lina	-10.8797
▁howdy	-10.8798
▁safer	-10.8799
▁loosen	-10.8804
▁reminded	-10.8804
▁businessman	-10.8805
▁smarter	-10.881
▁belle	-10.8811
▁hatch	-10.8813
skim	-10.8814
▁proved	-10.8822
▁shave	-10.8823
▁bothered	-10.8823
▁zion	-10.8828
▁hookers	-10.8829
▁chuckie	-10.8833
▁pretending	-10.8834
can	-10.8837
▁grind	-10.8837
▁lotus	-10.8838
▁accepted	-10.8839
▁washing	-10.8841
▁correction	-10.8841
▁agents	-10.8843
▁fuckup	-10.8847
ito	-10.8856
▁filling	-10.8858
▁differently	-10.8864
▁ram	-10.8869
▁wicked	-10.8884
arious	-10.8892
▁closet	-10.8896
▁sticky	-10.8896
gua	-10.8907
ature	-10.891
▁lookout	-10.8911
▁emt	-10.8913
▁vic	-10.8915
▁leading	-10.8922
▁recorded	-10.8923
▁ent	-10.8926
▁explained	-10.8928
▁uniforms	-10.8933
▁fe	-10.8943
▁trains	-10.8947
▁pikeys	-10.8951
▁presented	-10.8952
port	-10.8964
▁suitcases	-10.897
▁tunnels	-10.897
▁prints	-10.8973
▁joining	-10.8979
▁reporting	-10.8998
▁site	-10.9003
pin	-10.9006
▁dent	-10.9009
▁kissing	-10.9024
die	-10.9027
bie	-10.904
▁boxer	-10.9042
ath	-10.9043
▁lifes	-10.9051
set	-10.9056
▁choppers	-10.9062
▁entra	-10.9078
▁este	-10.9079
▁faggots	-10.9081
▁robbers	-10.9081
▁bounce	-10.9088
▁tast	-10.9098
ail	-10.9106
▁asks	-10.9126
mo	-10.9126
▁carol	-10.9151
kin	-10.9155
▁plants	-10.9155
▁za	-10.9156
▁hoped	-10.9172
▁colors	-10.9175
▁learning	-10.9177
▁lined	-10.918
oh	-10.9201
▁spic	-10.9203
▁connections	-10.9212
ese	-10.9214
roller	-10.9219
▁rifles	-10.923
acy	-10.9232
▁controls	-10.9235
ya	-10.9265
▁reminds	-10.9267
▁rec	-10.9269
▁forces	-10.9271
▁couples	-10.9272
ong	-10.9293
ka	-10.93
▁declare	-10.9318
▁acts	-10.9323
▁pint	-10.9331
ron	-10.9334
▁masks	-10.9341
iam	-10.9356
▁wins	-10.9357
▁questioning	-10.9376
▁vir	-10.9386
ats	-10.9399
▁wage	-10.9404
▁cracks	-10.9404
▁teams	-10.9407
run	-10.9419
▁dicks	-10.9423
▁russians	-10.9438
▁ox	-10.9438
ettes	-10.9438
ero	-10.9444
▁childrens	-10.9445
ov	-10.9448
cia	-10.9453
ado	-10.9458
▁scores	-10.946
com	-10.9472
▁worlds	-10.9476
▁prosecut	-10.9481
▁tamb	-10.9481
▁broads	-10.9481
▁angels	-10.9499
▁li	-10.9532
▁bridges	-10.9533
der	-10.9569
ordinary	-10.957
gr	-10.9582
we	-10.9582
eye	-10.9609
▁girlfriends	-10.961
wan	-10.9631
▁ages	-10.9633
▁seventeen	-10.9642
▁es	-10.9656
tore	-10.9658
nine	-10.9663
let	-10.9666
▁zip	-10.9676
▁helps	-10.9693
▁sum	-10.9697
▁gra	-10.9702
▁spots	-10.9705
▁und	-10.9707
▁worrying	-10.9716
▁goat	-10.9718
ship	-10.9734
▁photograph	-10.974
▁guessing	-10.9741
▁gum	-10.9749
▁mug	-10.9753
▁retard	-10.9763
▁plea	-10.9764
▁whisper	-10.9772
▁click	-10.9773
▁grunt	-10.9777
cu	-10.9779
▁lip	-10.9779
▁associate	-10.9781
▁blank	-10.9781
▁technique	-10.9782
▁increase	-10.9782
▁option	-10.9783
▁blanket	-10.9783
▁traitor	-10.979
▁mechanic	-10.979
▁agreement	-10.979
▁interrogation	-10.9791
▁holiday	-10.9791
▁bandit	-10.9793
▁banana	-10.9794
▁conclusion	-10.9794
▁arrangement	-10.9796
▁cart	-10.9797
▁bubble	-10.9797
▁coffin	-10.9797
▁teammate	-10.9799
▁affect	-10.9801
▁glove	-10.9802
▁knee	-10.9802
▁tyre	-10.9803
▁prices	-10.9803
▁arrow	-10.9809
▁jingle	-10.9811
▁pill	-10.9816
▁labor	-10.9824
▁farmer	-10.9829
▁cable	-10.9831
point	-10.9832
▁compar	-10.984
▁trans	-10.9843
▁philip	-10.9845
night	-10.9863
▁weigh	-10.9866
ties	-10.987
▁thrill	-10.9876
▁disappoint	-10.9884
yard	-10.9887
maker	-10.9887
▁dri	-10.9894
▁judges	-10.9899
▁chin	-10.9904
▁arch	-10.9907
▁achieve	-10.9907
thats	-10.9908
▁geez	-10.991
life	-10.9911
pound	-10.9911
proof	-10.9911
dollar	-10.9912
three	-10.9912
▁discover	-10.9912
▁broadcast	-10.9913
▁steer	-10.9916
▁iearn	-10.992
▁stash	-10.9925
▁accomplish	-10.9925
▁heal	-10.9929
▁rio	-10.9935
▁atta	-10.9938
▁incredibl	-10.9941
▁execute	-10.9943
▁decorat	-10.9943
▁patch	-10.9945
ible	-10.9946
▁breach	-10.9948
▁attract	-10.9949
▁ew	-10.995
▁contest	-10.9951
▁predict	-10.9952
▁movin	-10.9952
▁rust	-10.9953
▁weep	-10.9953
▁robot	-10.9953
ren	-10.9953
▁disagree	-10.9954
▁expand	-10.9954
▁snatch	-10.9954
▁amsterdam	-10.9954
▁architect	-10.9954
▁atlantic	-10.9954
▁august	-10.9954
▁bretodeau	-10.9954
▁catherlne	-10.9954
▁chloe	-10.9954
▁cierra	-10.9954
▁clarlce	-10.9954
▁clemenza	-10.9954
▁crossbow	-10.9954
▁delicate	-10.9954
▁ecoust	-10.9954
▁edmund	-10.9954
▁exclusive	-10.9954
▁finneran	-10.9954
▁fuentes	-10.9954
▁grief	-10.9954
▁helmet	-10.9954
▁hollow	-10.9954
▁ieave	-10.9954
▁injured	-10.9954
▁jennifer	-10.9954
▁jordy	-10.9954
▁judicial	-10.9954
▁lachance	-10.9954
▁lombardo	-10.9954
▁lucchesi	-10.9954
▁magnum	-10.9954
▁marijuana	-10.9954
▁mcpherson	-10.9954
▁messenger	-10.9954
▁midwest	-10.9954
▁mofet	-10.9954
▁moggy	-10.9954
▁moguy	-10.9954
▁mortgage	-10.9954
▁murmuring	-10.9954
▁mutual	-10.9954
▁negotiation	-10.9954
▁nevada	-10.9954
▁oklahoma	-10.9954
▁olivia	-10.9954
▁overseas	-10.9954
▁ozzie	-10.9954
▁paramedic	-10.9954
▁pensacola	-10.9954
▁penthouse	-10.9954
▁perfume	-10.9954
▁pervert	-10.9954
▁purple	-10.9954
▁rasul	-10.9954
▁registration	-10.9954
▁samuel	-10.9954
▁santiago	-10.9954
▁shawshank	-10.9954
▁slaughter	-10.9954
▁snarling	-10.9954
▁suspicion	-10.9954
▁swift	-10.9954
▁therapist	-10.9954
▁therapy	-10.9954
▁toothbrush	-10.9954
▁universe	-10.9954
▁university	-10.9954
▁viddy	-10.9954
▁wardrobe	-10.9954
▁weasel	-10.9954
▁bateman	-10.9954
▁fortico	-10.9954
▁gypsies	-10.9954
▁renteria	-10.9954
▁sofa	-10.9954
▁strict	-10.9954
▁tackle	-10.9954
▁unique	-10.9954
▁howie	-10.9954
▁bennings	-10.9954
▁terrified	-10.9954
▁anyhow	-10.9954
▁commercial	-10.9954
▁depressed	-10.9954
▁examining	-10.9954
▁untie	-10.9954
▁convenient	-10.9954
▁jeffrey	-10.9954
▁susieq	-10.9954
▁advisor	-10.9954
▁civilization	-10.9954
▁hamilton	-10.9954
▁association	-10.9954
▁buddies	-10.9954
▁elaborate	-10.9954
▁hayley	-10.9954
▁oakmont	-10.9954
▁picnic	-10.9954
▁kaede	-10.9954
▁guildford	-10.9954
▁jarvis	-10.9954
▁recess	-10.9954
▁influence	-10.9954
▁miggs	-10.9954
▁poiitic	-10.9954
▁squaw	-10.9954
▁snuff	-10.9954
▁confusion	-10.9954
▁sorrow	-10.9954
▁albert	-10.9954
▁salvation	-10.9954
▁terrifying	-10.9954
▁exwife	-10.9954
▁jenny	-10.9954
▁integrity	-10.9954
▁criminai	-10.9954
▁ankle	-10.9954
▁blaming	-10.9954
▁mansell	-10.9954
▁slurping	-10.9954
▁competition	-10.9954
▁reunion	-10.9954
▁babysitter	-10.9954
▁morgue	-10.9954
▁sieep	-10.9954
▁aiso	-10.9954
▁hush	-10.9954
▁principal	-10.9954
▁dimmy	-10.9955
▁entrance	-10.9955
▁intel	-10.9955
▁rookie	-10.9955
▁adjust	-10.9955
▁chilton	-10.9955
▁disaster	-10.9955
▁confidential	-10.9955
▁classified	-10.9955
▁oak	-10.9955
▁halloween	-10.9955
▁bargain	-10.9955
▁gallo	-10.9955
▁hatchet	-10.9955
▁fading	-10.9955
▁steam	-10.9955
▁dummy	-10.9955
▁ponies	-10.9955
▁hidden	-10.9955
▁butler	-10.9955
▁grazie	-10.9955
▁napkin	-10.9955
▁peak	-10.9955
▁leslie	-10.9955
▁parasites	-10.9955
▁roam	-10.9955
▁noite	-10.9955
▁consum	-10.9955
▁austr	-10.9955
▁apiece	-10.9955
wofourthreeseven	-10.9955
▁rebound	-10.9955
▁paulsen	-10.9955
▁eighteen	-10.9955
▁disappearance	-10.9956
▁phuc	-10.9956
▁morto	-10.9956
▁whew	-10.9956
▁valet	-10.9956
▁alike	-10.9956
▁royalty	-10.9956
▁informant	-10.9956
▁crackling	-10.9956
▁sector	-10.9956
▁depot	-10.9956
▁sack	-10.9957
▁regardless	-10.9957
▁chimes	-10.9957
▁execution	-10.9957
▁exclaiming	-10.9957
▁rattle	-10.9957
▁kobe	-10.9957
▁fax	-10.9957
▁ellis	-10.9957
▁bronx	-10.9957
▁essential	-10.9957
▁vioience	-10.9957
▁gauge	-10.9958
▁groceries	-10.9958
▁rosie	-10.9958
▁virginia	-10.9958
▁terrorism	-10.9958
▁asian	-10.9958
▁dishes	-10.9958
▁acha	-10.9958
▁forest	-10.9958
▁playmate	-10.9959
lcer	-10.9959
▁keen	-10.9959
▁parade	-10.9959
▁qualified	-10.9959
▁rory	-10.9959
▁beings	-10.9959
▁uhuh	-10.9959
▁album	-10.9959
▁bever	-10.9959
▁expired	-10.996
▁mazel	-10.996
▁elected	-10.996
▁merrily	-10.996
▁profile	-10.9961
▁standard	-10.9962
▁protective	-10.9962
▁brokers	-10.9963
▁sacred	-10.9963
▁detector	-10.9964
▁lighthouse	-10.9965
▁required	-10.9965
▁loot	-10.9965
▁metro	-10.9965
▁whir	-10.9966
▁rudy	-10.9966
▁rib	-10.9966
▁vibrating	-10.9967
▁desculpe	-10.9967
▁dominic	-10.9968
ora	-10.9968
▁bike	-10.9969
▁moss	-10.9969
▁saddle	-10.9969
▁willy	-10.997
▁forgetting	-10.9971
▁preacher	-10.9971
▁stretcher	-10.9971
▁artie	-10.9973
▁southie	-10.9973
▁upper	-10.9973
▁vain	-10.9974
▁everyday	-10.9975
▁solved	-10.9976
▁offended	-10.9978
▁agora	-10.9978
▁lust	-10.9979
▁madman	-10.9979
▁fled	-10.9979
▁accuse	-10.998
▁massacre	-10.9981
▁cp	-10.9981
▁worthless	-10.9983
▁rack	-10.9983
▁payback	-10.9983
▁mmmm	-10.9984
▁matches	-10.9984
▁vc	-10.9984
▁bugsy	-10.9984
▁supplies	-10.9986
▁ink	-10.9986
▁nearest	-10.9987
▁devia	-10.9987
▁cure	-10.9989
▁drowned	-10.9989
▁vu	-10.9993
▁comic	-10.9993
▁pinky	-10.9994
▁mobile	-10.9994
▁setup	-10.9996
▁creat	-10.9996
▁assim	-10.9997
▁tuck	-10.9999
▁jar	-10.9999
▁twisted	-11
▁darn	-11.0003
▁wheat	-11.0003
▁copies	-11.0004
▁chemicals	-11.0006
▁oldtimers	-11.0007
▁fleet	-11.0007
▁native	-11.0008
▁trailer	-11.0008
▁swinging	-11.001
▁refused	-11.0018
▁freezer	-11.0018
▁complained	-11.0019
▁goodlooking	-11.0022
▁psychiatri	-11.0027
▁cont	-11.0028
▁marker	-11.0028
ug	-11.003
▁gotcha	-11.0031
▁entered	-11.0033
▁shocking	-11.0034
▁wil	-11.0035
▁vez	-11.0036
▁legally	-11.0037
▁spa	-11.004
▁qua	-11.0044
▁belonged	-11.0045
▁cliffs	-11.0048
▁wankers	-11.0048
six	-11.0048
▁pale	-11.0051
▁factor	-11.0054
▁blamed	-11.0058
▁divin	-11.0059
▁zed	-11.0061
▁johns	-11.0062
▁studying	-11.0063
▁rebels	-11.0064
ando	-11.0065
▁stamps	-11.0069
eyed	-11.0074
▁helpful	-11.0077
▁snaps	-11.0078
▁uses	-11.0078
▁added	-11.0082
▁stake	-11.0084
▁playin	-11.0087
▁inter	-11.0088
▁destroying	-11.009
▁wel	-11.009
▁chic	-11.0094
▁courts	-11.0099
▁figures	-11.01
▁sweating	-11.0104
▁beni	-11.0106
lets	-11.0107
▁driven	-11.0109
tra	-11.0111
▁smokey	-11.0113
▁packing	-11.0116
▁quer	-11.0126
▁eyeballs	-11.0131
▁announced	-11.0133
▁millers	-11.0135
uc	-11.0135
▁jerking	-11.0146
▁barrels	-11.0152
▁ww	-11.0153
ard	-11.0156
▁importantly	-11.0156
gh	-11.0161
row	-11.0165
▁grande	-11.0173
▁treating	-11.0173
▁demands	-11.0173
mes	-11.0175
▁comedy	-11.018
▁bur	-11.0189
mal	-11.0192
▁kit	-11.0195
▁wears	-11.0198
▁ships	-11.0204
▁tub	-11.0205
▁ann	-11.0212
▁sakes	-11.0216
ock	-11.0219
▁dreamed	-11.0227
table	-11.0232
hop	-11.0233
anta	-11.0237
▁fora	-11.0241
▁supposedly	-11.0241
▁shoots	-11.0255
▁goodness	-11.0263
▁boarding	-11.0265
▁bonds	-11.0279
ries	-11.028
▁lively	-11.0289
▁bee	-11.0297
▁qui	-11.0312
▁iive	-11.0318
▁bulls	-11.0322
ix	-11.0334
▁finishing	-11.0355
▁rabbits	-11.0364
sta	-11.0391
▁pats	-11.0407
all	-11.0417
▁chip	-11.0423
▁pistols	-11.0427
orted	-11.0436
ido	-11.0439
▁as	-11.0457
ants	-11.0461
▁pockets	-11.0467
▁fart	-11.0471
▁remains	-11.0472
▁qu	-11.0473
▁priests	-11.0474
▁rank	-11.0491
▁restaurants	-11.0492
ella	-11.0494
▁dot	-11.0499
▁taxis	-11.0512
▁lovers	-11.053
▁deserves	-11.0536
▁vin	-11.0552
▁prefers	-11.0556
▁resolve	-11.0558
▁gen	-11.0559
▁executi	-11.0566
▁harle	-11.0575
▁glo	-11.0577
▁she	-11.0582
▁chops	-11.0587
▁slaves	-11.06
▁dist	-11.0606
▁cleared	-11.0609
▁ri	-11.062
▁mim	-11.0621
heart	-11.0621
▁choices	-11.0639
mer	-11.0641
▁fellows	-11.0643
▁stocks	-11.0645
▁sorts	-11.0651
▁quem	-11.0652
cient	-11.0657
▁ni	-11.066
▁bites	-11.0671
▁tanks	-11.0704
ino	-11.0705
▁films	-11.0709
▁bothers	-11.0732
▁amp	-11.0734
ans	-11.0742
▁seasons	-11.0751
▁investigations	-11.0751
▁codes	-11.0753
ay	-11.0757
▁iaw	-11.0759
rica	-11.077
▁graduate	-11.0774
▁cora	-11.0787
▁vers	-11.0787
ning	-11.0802
▁deed	-11.0809
▁stuffed	-11.0825
pped	-11.0825
▁winds	-11.083
jah	-11.0834
tal	-11.0842
▁lords	-11.0865
▁husbands	-11.0886
▁coz	-11.09
ole	-11.0902
▁ref	-11.091
▁wi	-11.0923
▁disco	-11.0936
▁ther	-11.094
▁bits	-11.0941
▁von	-11.0957
tter	-11.0978
▁cord	-11.0984
▁vol	-11.0992
▁chickens	-11.0993
iac	-11.1016
▁bears	-11.1017
ition	-11.1025
last	-11.1072
▁psych	-11.1085
▁cleaner	-11.1113
pol	-11.1126
▁noses	-11.1139
▁her	-11.1153
▁mer	-11.1158
illa	-11.1169
▁tylers	-11.1171
▁tops	-11.118
▁pump	-11.1181
nic	-11.1193
▁racket	-11.1197
but	-11.1202
▁lobster	-11.121
▁session	-11.1211
▁tradition	-11.1211
▁midget	-11.1211
▁surgeon	-11.1211
▁grade	-11.1212
▁ski	-11.1212
▁condom	-11.1214
▁reference	-11.1215
▁passenger	-11.1218
▁bubba	-11.1218
▁morte	-11.1219
▁elbow	-11.1222
eating	-11.1223
▁marble	-11.1223
▁communist	-11.1225
▁lamb	-11.1225
▁thug	-11.1226
▁dickhead	-11.1227
▁demon	-11.1229
▁degree	-11.1235
▁cri	-11.1235
▁cloud	-11.1238
▁pros	-11.1244
▁net	-11.1245
▁butcher	-11.125
▁swap	-11.1253
▁picks	-11.1254
▁hooker	-11.1256
fi	-11.1258
▁stud	-11.1278
▁chor	-11.1293
▁melt	-11.1307
mero	-11.1307
ern	-11.1308
▁kings	-11.1312
▁buen	-11.1323
born	-11.1325
▁pos	-11.1325
water	-11.1327
mother	-11.1334
▁zap	-11.1335
▁porn	-11.1336
hold	-11.1337
▁profession	-11.1337
▁recover	-11.1339
box	-11.134
yeah	-11.1341
year	-11.1342
▁offend	-11.1343
▁condo	-11.1346
▁recommend	-11.1346
▁jeff	-11.1351
▁succeed	-11.1352
mobile	-11.1352
▁vanish	-11.1352
▁conquer	-11.1352
▁possess	-11.1352
▁giusepp	-11.1356
▁frighten	-11.1357
▁faz	-11.1362
▁clam	-11.1364
▁advise	-11.1365
tan	-11.1365
▁examine	-11.1365
▁howl	-11.1369
▁ultimate	-11.137
▁creative	-11.1371
▁apoc	-11.1372
▁intense	-11.1372
▁technical	-11.1373
▁recent	-11.1373
▁precise	-11.1374
▁religio	-11.1377
▁potato	-11.1378
▁kidnap	-11.1379
har	-11.138
▁givin	-11.1381
▁nightclub	-11.1381
▁react	-11.1381
▁disgrace	-11.1381
▁dread	-11.1381
▁web	-11.1382
▁visual	-11.1382
▁douche	-11.1382
▁cigar	-11.1382
▁adjourn	-11.1383
▁akira	-11.1383
▁andolini	-11.1383
▁archbishop	-11.1383
▁ariel	-11.1383
▁arrogant	-11.1383
▁awkward	-11.1383
▁banner	-11.1383
▁baxter	-11.1383
▁cavalry	-11.1383
▁cecil	-11.1383
▁clerk	-11.1383
▁concierge	-11.1383
▁condolences	-11.1383
▁convincing	-11.1383
▁cruz	-11.1383
▁curfew	-11.1383
▁damien	-11.1383
▁dascomb	-11.1383
▁dawg	-11.1383
▁debbie	-11.1383
▁demais	-11.1383
▁eccentric	-11.1383
▁elegant	-11.1383
▁enugu	-11.1383
▁equipment	-11.1383
▁fingernails	-11.1383
▁forecast	-11.1383
▁fountain	-11.1383
▁fujimaki	-11.1383
▁georgette	-11.1383
▁georgia	-11.1383
▁handbill	-11.1383
▁hmhm	-11.1383
▁honeymoon	-11.1383
▁inglewood	-11.1383
▁intimate	-11.1383
▁jehovah	-11.1383
▁ketchup	-11.1383
▁klubecks	-11.1383
▁knives	-11.1383
▁kurogane	-11.1383
▁leather	-11.1383
▁leisure	-11.1383
▁lloyd	-11.1383
▁lounge	-11.1383
▁lucien	-11.1383
▁melhor	-11.1383
▁miiiion	-11.1383
▁monitor	-11.1383
▁nigeria	-11.1383
▁oldfashioned	-11.1383
▁orchestra	-11.1383
▁palantine	-11.1383
▁panama	-11.1383
▁pasternak	-11.1383
▁philadelphia	-11.1383
▁poverty	-11.1383
▁precaution	-11.1383
▁randall	-11.1383
▁reggiani	-11.1383
▁rugrat	-11.1383
▁schofield	-11.1383
▁sergio	-11.1383
▁shaii	-11.1383
▁shepherd	-11.1383
▁shrieking	-11.1383
▁superficial	-11.1383
▁suspended	-11.1383
▁szpilman	-11.1383
▁tequila	-11.1383
▁thorough	-11.1383
▁torino	-11.1383
▁treasure	-11.1383
▁unusual	-11.1383
▁verdict	-11.1383
▁vincennes	-11.1383
▁vitamins	-11.1383
▁website	-11.1383
▁welfare	-11.1383
▁wheelchair	-11.1383
▁wisdom	-11.1383
▁wriggle	-11.1383
▁xerife	-11.1383
▁yulian	-11.1383
▁bogdanski	-11.1383
▁brower	-11.1383
▁cherry	-11.1383
▁combined	-11.1383
▁destruction	-11.1383
▁faun	-11.1383
▁flavor	-11.1383
▁maintain	-11.1383
▁orphan	-11.1383
▁saigon	-11.1383
▁tiptoe	-11.1383
▁venha	-11.1383
▁veteran	-11.1383
securities	-11.1383
▁absence	-11.1383
▁error	-11.1383
▁skunk	-11.1383
▁approval	-11.1383
▁violet	-11.1383
▁arnold	-11.1383
▁bliss	-11.1383
▁helos	-11.1383
▁humiliation	-11.1383
▁shears	-11.1383
▁whatve	-11.1383
▁bloodshed	-11.1383
▁fuchs	-11.1383
▁sincerely	-11.1383
▁carpet	-11.1383
▁neighbourhood	-11.1383
▁rookwood	-11.1383
▁collapse	-11.1383
▁huntress	-11.1383
▁actress	-11.1383
▁doughnut	-11.1383
▁larry	-11.1383
▁horrorshow	-11.1383
▁snack	-11.1383
odoo	-11.1383
▁thump	-11.1383
▁taylor	-11.1383
▁tissue	-11.1383
▁suzy	-11.1383
▁urine	-11.1383
▁mauricio	-11.1383
▁tucson	-11.1383
▁fanucci	-11.1383
▁migraine	-11.1383
▁minimum	-11.1383
▁pleasant	-11.1383
▁cluck	-11.1383
▁orient	-11.1383
▁essence	-11.1383
▁residence	-11.1383
▁sozinha	-11.1383
▁dizzy	-11.1383
▁fiber	-11.1383
▁judging	-11.1383
▁raquel	-11.1383
▁canada	-11.1383
▁cohen	-11.1383
▁causing	-11.1383
▁supervisor	-11.1383
▁exorcism	-11.1383
▁reeves	-11.1383
▁repay	-11.1383
▁maggie	-11.1383
▁skylar	-11.1383
▁promotion	-11.1383
▁hallelu	-11.1383
▁interior	-11.1383
▁overcome	-11.1383
▁kint	-11.1383
havin	-11.1383
▁kimball	-11.1383
▁swimmer	-11.1383
▁hesitate	-11.1383
▁insect	-11.1383
▁richardson	-11.1383
▁whys	-11.1383
▁romina	-11.1383
▁subtle	-11.1383
▁twentysix	-11.1383
▁bog	-11.1383
▁onions	-11.1383
▁ramone	-11.1383
▁marge	-11.1384
▁marvelous	-11.1384
▁quarterback	-11.1384
▁curb	-11.1384
▁dripping	-11.1384
▁poem	-11.1384
▁observation	-11.1384
▁pinned	-11.1384
▁appropriate	-11.1384
▁fernando	-11.1384
▁resistance	-11.1384
▁fink	-11.1384
▁gringo	-11.1384
▁majesty	-11.1384
▁technology	-11.1384
▁webb	-11.1384
▁status	-11.1384
▁modest	-11.1384
▁anniversary	-11.1384
▁masterpiece	-11.1384
▁baseball	-11.1384
▁stool	-11.1384
▁richard	-11.1384
▁respectfully	-11.1384
▁sermon	-11.1384
▁taint	-11.1384
▁albie	-11.1384
▁raw	-11.1384
▁guv	-11.1384
▁stacy	-11.1384
▁inspection	-11.1385
▁overseer	-11.1385
▁harrison	-11.1385
▁bom	-11.1385
▁iti	-11.1385
▁meanwhile	-11.1385
▁dominick	-11.1385
▁zipper	-11.1385
▁grindle	-11.1385
▁worn	-11.1385
▁hunch	-11.1385
▁shipment	-11.1385
▁senor	-11.1385
▁haif	-11.1386
▁aww	-11.1386
▁lsaiah	-11.1386
▁mumbles	-11.1386
▁courtroom	-11.1386
▁nicol	-11.1386
▁sizzling	-11.1386
▁outro	-11.1386
▁smother	-11.1386
▁conviction	-11.1386
▁script	-11.1386
▁thorpe	-11.1386
▁merciful	-11.1387
▁civilized	-11.1387
▁enforcement	-11.1387
▁convention	-11.1387
▁cawley	-11.1387
▁drift	-11.1387
▁tactic	-11.1387
▁fitts	-11.1387
▁ladder	-11.1387
▁wop	-11.1387
▁jake	-11.1387
▁dizer	-11.1388
▁eightball	-11.1388
▁automatic	-11.1388
▁redfoot	-11.1388
▁breez	-11.1388
▁salary	-11.1388
▁salesman	-11.1388
uitar	-11.1389
▁entry	-11.1389
▁pony	-11.1389
▁obsessed	-11.1389
▁leper	-11.1389
▁chow	-11.1389
▁giggle	-11.1389
▁villa	-11.139
▁penis	-11.139
▁spotted	-11.139
▁amongst	-11.139
▁philosophy	-11.139
▁villain	-11.139
▁covet	-11.1391
▁delgado	-11.1391
▁frame	-11.1392
▁mustang	-11.1392
▁colt	-11.1392
▁sliding	-11.1393
oid	-11.1393
▁dropping	-11.1393
▁cutler	-11.1393
▁stream	-11.1393
▁agency	-11.1393
▁departed	-11.1393
▁implant	-11.1393
▁western	-11.1393
▁bunker	-11.1394
▁historic	-11.1394
▁spun	-11.1394
▁chatterlng	-11.1395
▁election	-11.1395
▁biggus	-11.1396
▁aurelio	-11.1396
▁cheeky	-11.1396
▁batter	-11.1396
▁fallen	-11.1396
▁dino	-11.1397
▁shushing	-11.1397
▁northup	-11.1397
▁stillwater	-11.1397
▁spoiled	-11.1398
▁adopted	-11.1398
▁fist	-11.1398
▁disturbed	-11.1398
▁engaged	-11.14
▁advised	-11.14
▁prophet	-11.1401
▁wandering	-11.1402
▁addicted	-11.1402
▁element	-11.1403
▁lris	-11.1404
▁alter	-11.1405
▁motive	-11.1405
▁gee	-11.1405
working	-11.1405
▁mason	-11.1406
▁nem	-11.1407
▁playboy	-11.1407
▁maid	-11.1407
uous	-11.1408
▁parttime	-11.1408
▁giri	-11.1409
▁particularly	-11.1409
▁specialist	-11.141
▁logo	-11.141
▁teaches	-11.1411
▁crane	-11.1411
▁reflect	-11.1412
▁clamp	-11.1412
▁designed	-11.1413
▁smuggler	-11.1413
▁samm	-11.1413
▁fore	-11.1414
▁vanished	-11.1414
▁assist	-11.1417
▁weakly	-11.1417
▁goldie	-11.1418
▁heroes	-11.1419
▁kilos	-11.142
▁musician	-11.142
like	-11.1421
▁peek	-11.1422
tar	-11.1422
▁confirmed	-11.1423
▁wiped	-11.1424
▁complaint	-11.1424
▁mustnt	-11.1426
▁lame	-11.1426
▁desaparece	-11.1428
▁latest	-11.1428
▁cheated	-11.1432
▁jaii	-11.1433
▁ola	-11.1435
▁marie	-11.1436
▁dock	-11.1438
▁standup	-11.1441
▁explains	-11.1441
▁goose	-11.1442
▁jewels	-11.1443
▁coroners	-11.1443
▁neighbours	-11.1443
▁beaches	-11.1444
▁bait	-11.1445
▁printed	-11.1445
▁henryk	-11.1447
▁kisses	-11.1447
▁cheating	-11.1448
▁photographer	-11.1449
▁talented	-11.1454
▁sadly	-11.1457
▁cu	-11.1457
▁tube	-11.1458
art	-11.1461
▁greatness	-11.1462
▁insulted	-11.1462
▁assumed	-11.1466
▁investors	-11.1468
▁hogs	-11.1468
▁anos	-11.1472
at	-11.1472
▁experienced	-11.1474
▁faithful	-11.1479
▁fuse	-11.1479
▁entirely	-11.148
uit	-11.1486
▁tougher	-11.1487
▁flashing	-11.1487
▁punched	-11.1488
▁stripes	-11.1491
▁ranger	-11.1491
▁emotions	-11.1492
▁gamblers	-11.1493
▁planted	-11.1494
▁him	-11.1494
▁deve	-11.1496
▁suggested	-11.1498
▁lone	-11.1503
▁drinkin	-11.1507
▁fl	-11.1509
▁collected	-11.1509
▁filed	-11.1511
▁honesty	-11.152
▁cutter	-11.1521
▁misses	-11.153
▁wishes	-11.1536
▁butchers	-11.1547
▁affects	-11.1549
▁messy	-11.1551
▁cred	-11.1555
▁cb	-11.1555
ost	-11.1556
▁gent	-11.1556
kins	-11.1564
▁gloves	-11.1565
▁associates	-11.1565
▁reaching	-11.1573
▁shi	-11.1577
▁hides	-11.1581
▁inquir	-11.1586
atic	-11.1597
nia	-11.1606
▁caring	-11.1609
▁snipers	-11.1614
▁diver	-11.1614
▁coins	-11.1615
▁troubles	-11.1623
▁blocking	-11.1627
nd	-11.1627
▁linen	-11.1633
▁moth	-11.1635
▁posted	-11.1635
▁for	-11.1645
▁deer	-11.1647
▁meters	-11.1649
▁spits	-11.1654
▁swor	-11.1654
▁landed	-11.1656
▁content	-11.1657
▁nerves	-11.1663
▁tracker	-11.1665
▁wallets	-11.1665
▁boil	-11.1666
▁payments	-11.1668
▁str	-11.1668
shak	-11.1669
▁closely	-11.1681
▁laughed	-11.1683
inlaw	-11.1685
▁killin	-11.1687
▁individuals	-11.1687
▁tickle	-11.1698
orrie	-11.1698
ida	-11.1709
▁limits	-11.1713
ology	-11.1716
abie	-11.1725
rated	-11.1725
▁waitin	-11.1726
▁region	-11.1729
ked	-11.1735
▁represents	-11.1736
▁traps	-11.1738
▁leaders	-11.1743
▁workers	-11.1746
▁sting	-11.1746
▁ay	-11.1751
herefore	-11.1757
▁dolls	-11.176
▁coisas	-11.1761
▁circles	-11.1763
▁lessons	-11.1763
ini	-11.1769
▁explaining	-11.1777
▁har	-11.1781
▁tigers	-11.1786
▁respected	-11.1786
▁losers	-11.1789
ester	-11.1799
▁yay	-11.1801
inspired	-11.1817
▁kinds	-11.1827
▁acted	-11.1828
▁fees	-11.1837
▁prop	-11.1839
ets	-11.1861
are	-11.1862
▁corpses	-11.1867
iza	-11.187
▁cared	-11.1876
▁espera	-11.1876
▁scheme	-11.1883
▁winters	-11.1888
ore	-11.1895
▁travels	-11.1902
▁votes	-11.1907
▁follows	-11.1914
▁detectives	-11.1925
▁marshals	-11.1936
ente	-11.1941
▁tive	-11.1941
ja	-11.1944
▁hike	-11.1958
nder	-11.198
▁imitate	-11.1985
▁roberts	-11.1987
ions	-11.1993
erman	-11.2007
▁plates	-11.2035
▁scam	-11.205
bel	-11.2056
air	-11.2059
▁questioned	-11.2061
▁buttons	-11.2061
▁pitas	-11.2066
▁gr	-11.2092
▁corleones	-11.2114
▁fixin	-11.2128
itty	-11.2131
▁programs	-11.2136
▁sou	-11.2137
▁gardens	-11.2137
cut	-11.2142
▁flo	-11.2149
▁changes	-11.2153
▁q	-11.216
▁sever	-11.2161
▁tripp	-11.2182
▁winnings	-11.2188
▁castles	-11.2188
▁propose	-11.2197
▁thr	-11.2213
▁wag	-11.2214
▁owners	-11.2239
bra	-11.2246
▁lig	-11.2249
▁harl	-11.2253
gus	-11.2274
▁can	-11.2277
ato	-11.2284
seven	-11.2289
q	-11.23
▁jimmys	-11.231
hot	-11.2319
▁ph	-11.2324
ff	-11.234
lan	-11.2349
▁risks	-11.2368
▁joints	-11.2372
▁ida	-11.2375
▁spirits	-11.2392
qu	-11.2397
▁shoulders	-11.2399
cha	-11.24
▁senators	-11.2418
▁whistles	-11.2419
lt	-11.2421
eight	-11.2428
ome	-11.2436
▁grease	-11.2443
▁laps	-11.246
gra	-11.2467
ol	-11.2469
▁sm	-11.247
vam	-11.2499
met	-11.2515
▁privates	-11.2521
und	-11.2541
▁areas	-11.2547
▁prisons	-11.2548
▁thinkin	-11.2557
tention	-11.258
▁fidel	-11.2597
▁champ	-11.2598
iike	-11.2599
nky	-11.2628
ran	-11.2654
▁snap	-11.2671
tane	-11.268
▁proves	-11.2682
▁sen	-11.2683
▁chan	-11.2687
ake	-11.269
dental	-11.2696
lies	-11.27
▁ali	-11.2704
nie	-11.2708
▁narc	-11.2713
don	-11.274
bal	-11.2751
▁throats	-11.2757
tt	-11.2759
▁tw	-11.2761
▁cas	-11.277
▁cooler	-11.2792
▁mills	-11.28
hole	-11.2801
rain	-11.2801
amento	-11.2804
ny	-11.2812
win	-11.2813
▁cra	-11.2824
▁dei	-11.2827
▁plac	-11.2829
▁squeak	-11.2831
▁kicks	-11.2836
nal	-11.2844
▁occur	-11.2849
▁submit	-11.2855
▁stir	-11.286
leans	-11.2866
▁beds	-11.287
▁ty	-11.2871
▁sponsor	-11.2877
▁jacob	-11.2877
▁fag	-11.2878
▁gasp	-11.2878
▁tables	-11.2879
▁shade	-11.2879
▁length	-11.2885
▁pencil	-11.2885
▁hypocrite	-11.2885
▁craig	-11.2885
▁millionaire	-11.2886
▁moan	-11.2888
▁adam	-11.2889
▁tarde	-11.2889
▁nazi	-11.289
▁secrets	-11.289
▁elder	-11.2891
▁compliment	-11.2892
▁instinct	-11.2892
▁peanut	-11.2892
▁sausage	-11.2892
▁headache	-11.2892
▁cuff	-11.2892
▁sewer	-11.2895
▁stamp	-11.2895
list	-11.2899
▁rumor	-11.2899
▁employee	-11.29
▁drone	-11.29
▁sixteen	-11.2904
▁janie	-11.2904
▁sheet	-11.2906
▁carat	-11.2908
▁puke	-11.2908
istic	-11.2909
▁shred	-11.2912
▁planes	-11.2914
min	-11.2914
▁disc	-11.2915
▁returns	-11.2925
hood	-11.2931
▁bake	-11.2932
▁quo	-11.2934
pper	-11.2942
▁ax	-11.2947
▁lung	-11.2953
▁prayer	-11.2956
▁parker	-11.2959
▁shack	-11.2969
mark	-11.2971
▁brush	-11.298
▁israel	-11.2987
gun	-11.299
▁prom	-11.2995
▁hun	-11.2996
class	-11.3001
mate	-11.3003
bag	-11.3005
flower	-11.3006
self	-11.3006
related	-11.3006
pita	-11.3007
clear	-11.3007
world	-11.3007
jesus	-11.3007
ex	-11.301
power	-11.301
▁holler	-11.301
▁entertain	-11.301
▁greet	-11.3012
▁echo	-11.3012
▁clank	-11.3014
▁piay	-11.3014
▁disgust	-11.3015
▁disrespect	-11.3017
ft	-11.3018
▁accus	-11.302
▁exhaust	-11.3021
▁pour	-11.3025
▁virtu	-11.3027
▁spy	-11.3028
▁decline	-11.3028
▁domini	-11.3028
▁toll	-11.3029
▁promote	-11.3032
▁expose	-11.3032
▁engage	-11.3032
▁produce	-11.3033
wait	-11.3034
▁cheek	-11.3034
▁should	-11.3035
▁confuse	-11.3035
ooka	-11.3036
▁wat	-11.3037
▁slight	-11.3037
▁instant	-11.3038
zzle	-11.3038
▁seize	-11.3039
▁gabriel	-11.3039
▁teenage	-11.3041
cular	-11.3042
▁float	-11.3043
▁armour	-11.3043
▁corporat	-11.3045
▁memori	-11.3045
▁leavin	-11.3047
▁compensat	-11.3047
▁infant	-11.3048
▁sp	-11.3048
niper	-11.3048
▁flaming	-11.3048
evac	-11.3048
▁mornin	-11.3048
▁appro	-11.3048
▁liquid	-11.3048
▁oppos	-11.3049
▁rud	-11.3049
dolph	-11.3049
▁absurd	-11.3049
▁airborne	-11.3049
▁andretti	-11.3049
▁annabelle	-11.3049
▁antibiotic	-11.3049
▁applied	-11.3049
▁aspirin	-11.3049
▁asylum	-11.3049
▁authentic	-11.3049
▁autopsy	-11.3049
▁baggage	-11.3049
▁balcon	-11.3049
▁ballpeen	-11.3049
▁barbecue	-11.3049
▁boulevard	-11.3049
▁bourbon	-11.3049
▁brantner	-11.3049
▁caligari	-11.3049
▁cannibal	-11.3049
▁centurion	-11.3049
▁cetera	-11.3049
▁chivo	-11.3049
▁communicate	-11.3049
▁dahlia	-11.3049
▁damico	-11.3049
▁deitrich	-11.3049
▁dessert	-11.3049
▁dilemma	-11.3049
▁dmv	-11.3049
▁dorfman	-11.3049
▁draft	-11.3049
▁duchess	-11.3049
▁dwayne	-11.3049
▁einstein	-11.3049
▁erinmore	-11.3049
▁errand	-11.3049
▁evolution	-11.3049
▁fischer	-11.3049
▁fitzsimmons	-11.3049
▁forensics	-11.3049
▁fuji	-11.3049
▁gossip	-11.3049
▁gutierrez	-11.3049
▁haggle	-11.3049
▁halberstram	-11.3049
▁happily	-11.3049
▁harbinger	-11.3049
▁hardcore	-11.3049
▁hollis	-11.3049
▁hooray	-11.3049
▁hurricane	-11.3049
▁hushhush	-11.3049
▁identical	-11.3049
▁injury	-11.3049
▁interstate	-11.3049
▁january	-11.3049
▁justify	-11.3049
▁kamasutra	-11.3049
▁larkhill	-11.3049
▁laundering	-11.3049
▁lifestyle	-11.3049
▁luggage	-11.3049
▁maguire	-11.3049
▁manhattan	-11.3049
▁marilyn	-11.3049
▁marseille	-11.3049
▁mccluskey	-11.3049
▁melody	-11.3049
▁missouri	-11.3049
▁misunderstood	-11.3049
▁montauk	-11.3049
▁mwah	-11.3049
▁negotiating	-11.3049
▁nowadays	-11.3049
▁organisation	-11.3049
▁outreach	-11.3049
▁pacific	-11.3049
▁palermo	-11.3049
▁participate	-11.3049
▁peculiar	-11.3049
▁prejudice	-11.3049
▁racist	-11.3049
▁ramirez	-11.3049
▁recipe	-11.3049
▁reconcile	-11.3049
▁refrigerator	-11.3049
▁relief	-11.3049
▁replica	-11.3049
▁rollercoaster	-11.3049
▁rosalind	-11.3049
▁sarcastic	-11.3049
▁schooi	-11.3049
▁seagull	-11.3049
▁shelter	-11.3049
▁shrieks	-11.3049
▁shrimp	-11.3049
▁sorority	-11.3049
▁stammers	-11.3049
▁strategic	-11.3049
▁talbot	-11.3049
▁tennessee	-11.3049
▁tessio	-11.3049
▁thanksgiving	-11.3049
▁theories	-11.3049
▁throttle	-11.3049
▁ticktock	-11.3049
▁toledo	-11.3049
▁tommasino	-11.3049
▁toxic	-11.3049
▁transaction	-11.3049
▁treason	-11.3049
▁trespass	-11.3049
▁tribute	-11.3049
▁tyranny	-11.3049
▁unsolv	-11.3049
▁upgrade	-11.3049
▁vault	-11.3049
▁vincenzo	-11.3049
▁walace	-11.3049
▁wendell	-11.3049
▁wendy	-11.3049
▁wrestle	-11.3049
▁audio	-11.3049
▁bloom	-11.3049
▁clamoring	-11.3049
▁distress	-11.3049
▁gesture	-11.3049
▁howre	-11.3049
▁iawyer	-11.3049
▁immune	-11.3049
▁norton	-11.3049
▁practicing	-11.3049
▁santoro	-11.3049
▁spectacular	-11.3049
▁cantonese	-11.3049
▁ciear	-11.3049
▁horribie	-11.3049
▁pronounce	-11.3049
▁sedated	-11.3049
▁snoring	-11.3049
▁tangerine	-11.3049
▁activities	-11.3049
▁clutch	-11.3049
▁crisp	-11.3049
▁daisy	-11.3049
▁dennings	-11.3049
▁garces	-11.3049
▁sufficient	-11.3049
▁suprem	-11.3049
▁delaware	-11.3049
▁sportscast	-11.3049
▁acquaintance	-11.3049
▁discipline	-11.3049
▁gypsy	-11.3049
▁forbid	-11.3049
▁gorilla	-11.3049
▁gym	-11.3049
▁terminator	-11.3049
▁retail	-11.3049
▁srt	-11.3049
▁mineral	-11.3049
▁asshoie	-11.3049
▁cubber	-11.3049
▁lark	-11.3049
▁skateboard	-11.3049
▁nathan	-11.3049
▁temperature	-11.3049
▁roderick	-11.3049
▁sanitation	-11.3049
▁kitten	-11.3049
▁deleye	-11.3049
▁dunk	-11.3049
▁mushroom	-11.3049
▁phu	-11.3049
▁anonym	-11.3049
▁aslan	-11.3049
▁pumpkin	-11.3049
▁brasi	-11.305
▁carru	-11.305
▁lugar	-11.305
▁whereabouts	-11.305
▁apologies	-11.305
▁bimmel	-11.305
▁yank	-11.305
▁mustache	-11.305
▁posso	-11.305
▁townsend	-11.305
▁waving	-11.305
▁kettle	-11.305
▁statue	-11.305
▁slren	-11.305
▁clinic	-11.305
▁drugged	-11.305
▁update	-11.305
▁biack	-11.305
▁contains	-11.305
▁denver	-11.305
▁complex	-11.305
▁antonio	-11.305
▁input	-11.305
▁eternity	-11.305
▁fiction	-11.305
▁marvin	-11.305
▁mendl	-11.305
▁spinning	-11.305
▁software	-11.305
▁woah	-11.305
▁poetry	-11.305
▁raffle	-11.305
▁turf	-11.305
▁sherbert	-11.305
▁yankee	-11.305
▁blackjack	-11.305
▁blares	-11.305
▁dipshit	-11.305
▁mailbox	-11.305
▁probable	-11.305
▁combination	-11.305
▁incarceration	-11.305
▁gareth	-11.305
▁audit	-11.305
▁stunt	-11.305
▁begun	-11.305
▁veal	-11.305
▁basketball	-11.305
▁fitzgerald	-11.305
▁establishment	-11.305
▁chinamen	-11.305
▁caution	-11.305
▁compound	-11.305
▁excessive	-11.305
▁handwriting	-11.305
▁turtle	-11.305
▁patron	-11.305
▁wilson	-11.305
▁refresh	-11.305
▁embarrassment	-11.305
▁organism	-11.305
▁prix	-11.305
▁reemer	-11.305
▁priority	-11.305
▁witch	-11.305
▁consciousness	-11.305
▁deliberately	-11.305
▁species	-11.305
▁abduction	-11.305
▁ipo	-11.305
▁lemon	-11.305
▁enzo	-11.305
▁robinson	-11.305
▁dependent	-11.3051
▁indictment	-11.3051
▁unhappy	-11.3051
▁beggar	-11.3051
▁distribution	-11.3051
▁ambition	-11.3051
▁decree	-11.3051
▁suzanne	-11.3051
▁voil	-11.3051
▁cayman	-11.3051
▁counselor	-11.3051
icular	-11.3051
▁dreadful	-11.3051
▁trang	-11.3051
▁favourite	-11.3051
▁jaw	-11.3051
▁tension	-11.3051
▁delight	-11.3051
▁hoover	-11.3051
▁patchett	-11.3051
▁transportation	-11.3051
▁resign	-11.3051
▁stern	-11.3051
▁monica	-11.3051
▁worm	-11.3051
▁revoir	-11.3051
▁compensation	-11.3051
▁seminar	-11.3051
▁terminal	-11.3051
▁valid	-11.3051
▁bride	-11.3051
▁involvement	-11.3051
▁cabbie	-11.3052
▁stalker	-11.3052
imately	-11.3052
▁kike	-11.3052
▁vince	-11.3052
▁chopped	-11.3052
▁dags	-11.3052
▁heartbreaker	-11.3052
▁mainland	-11.3052
▁livin	-11.3052
▁affection	-11.3052
▁centre	-11.3052
▁blowjob	-11.3052
▁motre	-11.3052
▁chapter	-11.3052
ullet	-11.3052
▁elite	-11.3052
▁kitty	-11.3052
▁upside	-11.3052
ulla	-11.3052
▁socialist	-11.3052
▁denny	-11.3052
▁waist	-11.3052
▁celebrit	-11.3053
itas	-11.3053
▁chinaman	-11.3053
▁exam	-11.3053
▁advertising	-11.3053
▁wax	-11.3053
▁instructor	-11.3053
▁yelping	-11.3053
▁jerkoff	-11.3053
▁objective	-11.3053
▁liable	-11.3053
▁lizzy	-11.3053
▁weakness	-11.3053
▁corruption	-11.3054
▁tide	-11.3054
▁embora	-11.3054
▁hopefully	-11.3054
▁reaiiy	-11.3054
▁youyou	-11.3054
▁solicit	-11.3054
▁pussies	-11.3054
▁accurate	-11.3054
▁dora	-11.3054
▁trench	-11.3054
▁elsewhere	-11.3054
▁generation	-11.3054
▁disabled	-11.3054
▁that	-11.3054
▁noble	-11.3054
▁liberat	-11.3054
▁heap	-11.3055
▁rasa	-11.3055
▁quack	-11.3055
▁attraction	-11.3055
▁pelle	-11.3055
▁qual	-11.3055
▁ahhh	-11.3055
▁breed	-11.3055
▁choir	-11.3055
▁knot	-11.3055
▁popping	-11.3055
▁scout	-11.3056
▁brah	-11.3056
▁azu	-11.3056
▁allegedly	-11.3056
▁brotherhood	-11.3056
▁scottie	-11.3056
▁meaningless	-11.3056
▁wooden	-11.3056
▁barney	-11.3057
▁enterprise	-11.3057
▁floorboard	-11.3057
▁courthouse	-11.3057
▁broom	-11.3057
▁kelly	-11.3057
▁microwave	-11.3057
uff	-11.3057
▁sair	-11.3057
▁captured	-11.3057
▁sheer	-11.3058
▁baz	-11.3058
coming	-11.3058
▁verify	-11.3058
▁unhand	-11.3058
▁cafe	-11.3059
▁lucy	-11.3059
▁facebook	-11.3059
▁wolfie	-11.3059
▁gabriela	-11.3059
▁strained	-11.3059
▁alongside	-11.306
▁stalling	-11.306
▁ninety	-11.306
▁certainty	-11.306
▁straining	-11.306
▁footage	-11.306
▁tomatoes	-11.306
▁collection	-11.306
▁inout	-11.306
▁yea	-11.306
▁plum	-11.3061
▁sur	-11.3061
▁conscious	-11.3061
▁fry	-11.3061
▁barfed	-11.3062
▁gently	-11.3062
▁ferri	-11.3062
▁precisely	-11.3062
▁phrase	-11.3062
▁kilometer	-11.3062
▁soninlaw	-11.3062
▁baton	-11.3062
▁ranch	-11.3063
▁renton	-11.3063
▁household	-11.3064
▁dash	-11.3064
▁swed	-11.3065
▁cub	-11.3065
▁blackandwhites	-11.3065
▁feathers	-11.3065
▁scissors	-11.3065
▁colon	-11.3066
▁smooch	-11.3066
▁reform	-11.3066
▁sailor	-11.3066
▁motivated	-11.3067
▁promoted	-11.3067
▁bushes	-11.3068
▁fertilize	-11.3068
▁backwards	-11.307
▁jb	-11.307
▁itch	-11.307
try	-11.307
▁mule	-11.307
▁tapped	-11.3071
▁alcoholic	-11.3071
▁discovery	-11.3071
▁donna	-11.3072
▁flattered	-11.3072
▁cloth	-11.3072
▁goodwill	-11.3073
▁rejected	-11.3073
▁policemen	-11.3073
▁halt	-11.3074
▁canteen	-11.3074
▁herr	-11.3074
▁associated	-11.3074
▁imitation	-11.3074
▁rash	-11.3074
▁gunner	-11.3074
▁beeper	-11.3075
▁rental	-11.3075
▁runner	-11.3076
▁shaved	-11.3076
▁exhausted	-11.3077
▁ruby	-11.3078
▁suggestion	-11.3078
▁tender	-11.3079
▁fur	-11.3079
▁equally	-11.3079
▁vocation	-11.308
▁ivan	-11.3081
▁respectable	-11.3082
▁accountant	-11.3082
▁possessed	-11.3083
▁recovered	-11.3083
▁tracer	-11.3085
▁violently	-11.3085
▁benj	-11.3086
▁sixty	-11.3086
▁entertaining	-11.3086
▁iine	-11.3087
▁solo	-11.3088
post	-11.3089
▁chad	-11.3089
▁jackass	-11.3089
▁iim	-11.3089
▁harris	-11.309
▁violat	-11.309
▁richest	-11.3091
▁poly	-11.3091
▁nanny	-11.3092
▁growls	-11.3093
▁grapes	-11.3093
▁mcdonalds	-11.3093
▁relations	-11.3093
▁veins	-11.3093
▁psychopath	-11.3094
▁skiing	-11.3094
▁sealed	-11.3094
▁poop	-11.3097
▁erased	-11.3097
▁proven	-11.3098
▁disappointing	-11.31
▁exceptional	-11.3103
ancho	-11.3104
▁macer	-11.3104
▁kiddo	-11.3105
▁martyr	-11.3106
▁included	-11.3106
▁cracker	-11.3108
▁valued	-11.3109
▁devote	-11.3109
▁defending	-11.311
▁hopeless	-11.311
▁pina	-11.3111
▁fiy	-11.3111
▁maniac	-11.3113
▁smashed	-11.3113
▁loudly	-11.3116
▁boost	-11.3116
▁stressed	-11.3118
▁assaulted	-11.3118
top	-11.3119
▁heywood	-11.3119
▁inde	-11.3119
▁smoothie	-11.3119
▁gathering	-11.312
▁spurs	-11.312
▁carro	-11.3121
▁methods	-11.3122
▁prevails	-11.3122
▁resources	-11.3122
▁warriors	-11.3122
▁silencer	-11.3122
▁pupp	-11.3125
▁pant	-11.3126
▁freeman	-11.3126
ski	-11.3127
▁parties	-11.3129
▁hmmm	-11.3132
▁drilling	-11.3134
▁granted	-11.3134
▁rollin	-11.3135
▁straightened	-11.3136
erial	-11.3136
▁traced	-11.3136
▁parece	-11.3142
ming	-11.3143
▁economic	-11.3143
▁insisted	-11.3144
▁shore	-11.3145
▁stains	-11.3149
▁canvass	-11.3151
▁antiques	-11.3151
▁straps	-11.3151
▁staties	-11.3153
▁responding	-11.3154
▁shorties	-11.3155
▁but	-11.3161
▁nailed	-11.3161
▁dele	-11.3164
▁cal	-11.3166
▁hitman	-11.3167
▁gostar	-11.3168
▁missin	-11.3171
▁feit	-11.3173
▁fighter	-11.3174
▁badass	-11.3175
▁buyin	-11.318
▁resumes	-11.318
▁principles	-11.318
▁greetings	-11.318
▁hardon	-11.3181
▁colored	-11.3182
▁bombed	-11.3182
wn	-11.3182
▁classy	-11.3182
▁germany	-11.3186
▁sher	-11.3192
▁micky	-11.3193
▁traveling	-11.3194
lon	-11.3194
▁walker	-11.3197
▁shortly	-11.32
▁slower	-11.3204
▁getaway	-11.3205
▁compliments	-11.3209
▁headaches	-11.3209
▁instincts	-11.3209
▁peanuts	-11.3209
▁sausages	-11.3209
▁shootin	-11.3215
▁easter	-11.3221
▁sucked	-11.3224
baked	-11.3228
▁unity	-11.323
▁lotion	-11.323
▁suggesting	-11.3232
llo	-11.3233
▁metall	-11.3236
▁lambs	-11.3238
▁readers	-11.3244
▁cans	-11.3253
▁tested	-11.3266
▁bubbles	-11.3267
▁teammates	-11.3267
sco	-11.3269
▁photographs	-11.3269
til	-11.3276
▁rushing	-11.3276
ere	-11.3276
▁shorty	-11.3276
▁rebel	-11.3281
door	-11.3283
▁watchin	-11.3286
ons	-11.3292
▁capital	-11.3292
ison	-11.3295
tai	-11.3296
▁ku	-11.3296
▁pinch	-11.3296
▁affairs	-11.3297
▁hostages	-11.3297
▁visited	-11.3298
▁hare	-11.3301
▁wally	-11.3301
ction	-11.3309
▁carla	-11.3315
▁holdin	-11.3316
▁tease	-11.3319
▁experiments	-11.3325
▁colleagues	-11.3326
▁quin	-11.3332
▁fixing	-11.3338
▁lookit	-11.3343
▁crossing	-11.3353
▁olives	-11.3355
▁swords	-11.3356
▁cocking	-11.3363
▁mirrors	-11.338
▁fasten	-11.3385
▁guineas	-11.3385
▁customs	-11.3385
▁feared	-11.3388
ging	-11.34
▁gig	-11.3402
▁marked	-11.3414
▁servants	-11.3415
▁causes	-11.3417
▁wings	-11.3417
▁bleach	-11.342
▁mute	-11.3429
▁lion	-11.3435
▁ga	-11.3441
▁formal	-11.3459
▁seeking	-11.3466
▁attacking	-11.3469
ways	-11.3473
▁students	-11.3474
▁landing	-11.3482
▁relaxed	-11.3493
ude	-11.3501
▁routes	-11.3503
▁intentions	-11.3504
▁wanting	-11.3509
▁armor	-11.3516
▁mamas	-11.3522
▁mir	-11.3523
▁bums	-11.3524
rable	-11.3529
▁twins	-11.3531
▁chicks	-11.3532
▁batt	-11.3533
car	-11.3533
▁kennedys	-11.3533
▁av	-11.3539
▁fare	-11.3542
her	-11.3543
▁cooks	-11.3558
pho	-11.3561
ain	-11.3584
▁models	-11.359
tas	-11.3592
▁sites	-11.3592
▁slo	-11.36
▁vas	-11.3601
▁callin	-11.3607
▁paths	-11.3608
lers	-11.3609
▁pur	-11.3612
▁cue	-11.3619
▁professionals	-11.3651
ffe	-11.3652
▁freaks	-11.3655
▁murdering	-11.3655
▁ruins	-11.3655
▁sadde	-11.3657
▁cur	-11.3662
vel	-11.3663
▁scares	-11.367
▁waters	-11.367
▁pauls	-11.3675
▁dy	-11.3697
▁franks	-11.3712
▁meals	-11.3713
▁decides	-11.3714
las	-11.3737
icious	-11.3738
▁toilets	-11.3743
yu	-11.3754
▁boyles	-11.3767
▁doze	-11.3768
▁lilas	-11.3774
jo	-11.3775
▁regrets	-11.3777
▁homes	-11.3789
lock	-11.3793
▁catching	-11.3803
▁wires	-11.3807
▁reno	-11.3816
▁il	-11.3822
▁worker	-11.3828
ters	-11.3845
▁engines	-11.3856
▁conta	-11.3859
▁ghosts	-11.3865
tone	-11.3873
zer	-11.3876
▁skills	-11.3884
▁wars	-11.3904
dar	-11.3911
▁sept	-11.3911
▁cosm	-11.3911
etts	-11.3923
▁lasted	-11.3923
▁pla	-11.3925
this	-11.3928
lent	-11.3931
job	-11.3943
▁scams	-11.3946
▁nicely	-11.3962
▁passar	-11.3966
▁bel	-11.3969
▁handy	-11.3974
▁bangs	-11.3985
▁cuts	-11.3994
agged	-11.4051
▁dye	-11.407
▁yorks	-11.4101
▁boob	-11.4124
som	-11.4126
han	-11.4132
▁locals	-11.4142
ria	-11.4145
tive	-11.4145
▁gru	-11.4145
ingu	-11.416
▁buys	-11.4169
▁der	-11.4171
viva	-11.4178
▁berg	-11.4182
ency	-11.422
not	-11.4236
▁tit	-11.4261
bble	-11.4263
▁bottles	-11.4266
▁fam	-11.4268
dle	-11.4277
▁clearing	-11.4282
▁ana	-11.431
mph	-11.4311
▁mums	-11.4311
▁eth	-11.4317
blo	-11.4318
▁sights	-11.4318
▁resting	-11.4329
▁cocksuckers	-11.433
▁nap	-11.4335
▁wiggl	-11.4337
▁aro	-11.4344
uart	-11.4353
tch	-11.4358
more	-11.4362
ved	-11.4365
chi	-11.4367
iti	-11.4382
una	-11.4398
ello	-11.44
▁scan	-11.4413
ger	-11.442
▁imagina	-11.442
▁fac	-11.4422
▁sch	-11.4423
▁zeros	-11.4423
▁stations	-11.4427
▁smiles	-11.4429
mond	-11.4431
amin	-11.4432
▁hangs	-11.4449
▁inspire	-11.4455
▁realizes	-11.4458
unch	-11.4466
▁jokers	-11.4467
▁cows	-11.4481
of	-11.4489
▁product	-11.4502
omer	-11.4512
▁pose	-11.4518
▁brun	-11.4545
iva	-11.4552
hus	-11.4568
een	-11.4575
▁duel	-11.4577
▁devi	-11.458
org	-11.4596
▁slap	-11.4604
ebra	-11.4605
fully	-11.4607
ale	-11.461
gie	-11.4639
▁merc	-11.4642
▁rubb	-11.4664
▁surprises	-11.4686
▁flu	-11.469
▁sniff	-11.4693
▁yell	-11.4705
▁marc	-11.471
▁bern	-11.471
▁gifts	-11.4711
onica	-11.4714
▁intern	-11.4715
ments	-11.4742
▁thi	-11.4745
▁jr	-11.475
orn	-11.4751
▁dispos	-11.4764
▁loses	-11.4772
gling	-11.4775
unning	-11.4785
▁din	-11.479
▁design	-11.4796
▁arrests	-11.4819
▁ned	-11.4825
▁tire	-11.4826
▁carl	-11.4838
po	-11.4839
ward	-11.4841
▁involv	-11.4844
▁arc	-11.4847
▁stutter	-11.4848
▁cad	-11.4851
▁crook	-11.4856
▁tick	-11.4862
▁indulge	-11.4865
▁cough	-11.4866
▁groan	-11.487
▁comp	-11.4872
▁hum	-11.4876
▁prior	-11.4877
▁bufalino	-11.4877
▁degenerate	-11.4877
▁stockbroker	-11.4877
▁sleeve	-11.4877
offe	-11.4877
▁vegetable	-11.4877
▁dentist	-11.4878
▁sympath	-11.488
▁require	-11.488
▁cape	-11.4881
▁skip	-11.4881
▁grownup	-11.4882
▁invitation	-11.4885
▁immigrant	-11.4885
▁resident	-11.4886
▁pepper	-11.4886
▁teenager	-11.4886
▁device	-11.4886
▁heel	-11.4886
▁cookie	-11.4887
kes	-11.4888
▁pace	-11.4889
▁relative	-11.4889
▁hungarian	-11.4889
▁claw	-11.489
▁creature	-11.489
▁emotion	-11.4891
▁brit	-11.4891
▁outra	-11.4892
▁resume	-11.4892
▁principle	-11.4892
▁passport	-11.4893
▁cliff	-11.4895
▁ash	-11.4899
▁sob	-11.49
▁elvi	-11.49
▁wanker	-11.4907
▁buyer	-11.4912
▁gambler	-11.4912
▁terror	-11.4913
eii	-11.4916
▁sucker	-11.4919
ose	-11.4921
hoe	-11.4933
▁greeting	-11.4937
▁corp	-11.4942
▁wha	-11.495
▁flee	-11.4959
park	-11.4959
▁vet	-11.497
fo	-11.4971
▁attend	-11.4972
east	-11.4978
▁colour	-11.4979
sie	-11.4984
▁esp	-11.4986
▁smuggle	-11.4986
▁blackie	-11.499
▁invest	-11.4992
▁fer	-11.4993
sync	-11.4994
piece	-11.5003
gged	-11.5003
walk	-11.5004
▁splash	-11.5005
ovic	-11.5005
▁ignor	-11.5007
friendly	-11.5007
distance	-11.5007
▁meow	-11.5007
children	-11.5007
security	-11.5007
minute	-11.5007
urt	-11.5008
found	-11.5008
storm	-11.5008
level	-11.5009
sized	-11.501
fish	-11.5014
saw	-11.5015
band	-11.5015
aiiy	-11.5015
▁alert	-11.5016
▁blink	-11.5016
▁convict	-11.5017
▁doublecross	-11.5017
itt	-11.5019
▁reject	-11.5019
▁invad	-11.502
made	-11.5021
▁addict	-11.5025
ryan	-11.5025
iess	-11.5027
▁pena	-11.5027
br	-11.5029
▁encourage	-11.503
▁insert	-11.5031
▁locate	-11.5031
▁peach	-11.5032
ador	-11.5035
▁rabbi	-11.5036
▁cicci	-11.5036
ural	-11.5037
▁merri	-11.5039
▁flatter	-11.504
▁gag	-11.504
▁remote	-11.504
▁attic	-11.504
▁numb	-11.504
▁smiley	-11.5042
▁cruise	-11.5042
▁branch	-11.5044
▁waitress	-11.5044
believable	-11.5045
▁choi	-11.5045
ified	-11.5045
ember	-11.5046
▁algu	-11.5047
▁rehabilitat	-11.5047
▁drivin	-11.5047
▁construct	-11.5047
▁counsel	-11.5047
▁republic	-11.5047
▁automat	-11.5047
▁contra	-11.5048
▁puttin	-11.5048
▁mario	-11.5048
▁sierra	-11.5048
knuckle	-11.5048
▁twinkle	-11.5049
▁turk	-11.5049
▁japan	-11.5049
▁after	-11.5049
▁pretzel	-11.5049
▁wretch	-11.5049
▁hydro	-11.5049
borough	-11.5049
forsaken	-11.5049
▁accelerate	-11.5049
▁accomplice	-11.5049
▁aconteceu	-11.5049
▁agencies	-11.5049
▁aiberto	-11.5049
▁alimony	-11.5049
▁annoying	-11.5049
▁beautifui	-11.5049
▁bloke	-11.5049
▁byandby	-11.5049
▁carnival	-11.5049
▁cartagena	-11.5049
▁cecelia	-11.5049
▁chegou	-11.5049
▁claudia	-11.5049
▁cobolt	-11.5049
▁commodus	-11.5049
▁commune	-11.5049
▁compromise	-11.5049
▁crucify	-11.5049
▁daqui	-11.5049
▁dartagnan	-11.5049
▁davina	-11.5049
▁dictate	-11.5049
▁dildo	-11.5049
▁discreet	-11.5049
▁doorknob	-11.5049
▁dunno	-11.5049
▁enhance	-11.5049
▁erika	-11.5049
▁exleper	-11.5049
▁financing	-11.5049
▁fontane	-11.5049
▁frequent	-11.5049
▁garbled	-11.5049
▁gentiemen	-11.5049
▁guidance	-11.5049
▁guillermo	-11.5049
▁gurgling	-11.5049
▁hercules	-11.5049
▁huddle	-11.5049
▁ieaving	-11.5049
▁imbecile	-11.5049
▁injuries	-11.5049
▁insecure	-11.5049
▁inspiration	-11.5049
▁itzak	-11.5049
▁jagoff	-11.5049
▁judith	-11.5049
▁jurek	-11.5049
▁justjust	-11.5049
▁klick	-11.5049
▁kruczynski	-11.5049
▁lambeau	-11.5049
▁lefferts	-11.5049
▁lindsey	-11.5049
▁lippman	-11.5049
▁lnfantry	-11.5049
▁lorenzo	-11.5049
▁loxley	-11.5049
▁lynn	-11.5049
▁maserati	-11.5049
▁mechanism	-11.5049
▁memphis	-11.5049
▁mississippi	-11.5049
▁molasses	-11.5049
▁mortimer	-11.5049
▁munroe	-11.5049
▁myseif	-11.5049
▁nedjma	-11.5049
▁neglected	-11.5049
▁negro	-11.5049
▁nineteen	-11.5049
▁odessa	-11.5049
▁offensive	-11.5049
▁ogura	-11.5049
▁oooh	-11.5049
▁opportunities	-11.5049
▁osaka	-11.5049
▁panache	-11.5049
▁paperweight	-11.5049
▁paranoia	-11.5049
▁permanent	-11.5049
▁persuasive	-11.5049
▁pheasant	-11.5049
▁pieasure	-11.5049
▁porfavor	-11.5049
▁possibilities	-11.5049
▁pouco	-11.5049
▁predator	-11.5049
▁premature	-11.5049
▁prohibition	-11.5049
▁pyjamas	-11.5049
▁radlo	-11.5049
▁rebenga	-11.5049
▁reclamation	-11.5049
▁reutemann	-11.5049
▁rhonda	-11.5049
▁ritual	-11.5049
▁rockefeller	-11.5049
▁rollsroyce	-11.5049
▁roosevelt	-11.5049
▁satellite	-11.5049
▁scenario	-11.5049
▁seideibaum	-11.5049
▁shaving	-11.5049
▁shekel	-11.5049
▁sledgehammer	-11.5049
▁solidarity	-11.5049
▁somerset	-11.5049
▁spaniard	-11.5049
▁specimen	-11.5049
▁squirrel	-11.5049
▁squirt	-11.5049
▁strategy	-11.5049
▁teiephone	-11.5049
▁triumph	-11.5049
▁tshirt	-11.5049
▁unemployed	-11.5049
▁unlucky	-11.5049
▁upriver	-11.5049
▁variety	-11.5049
▁vessel	-11.5049
▁vicinity	-11.5049
▁whatwhat	-11.5049
▁wheezing	-11.5049
▁woltz	-11.5049
▁wouah	-11.5049
▁zombie	-11.5049
▁battalion	-11.5049
▁clyde	-11.5049
▁demise	-11.5049
▁explanation	-11.5049
▁fabienne	-11.5049
▁freud	-11.5049
▁jochen	-11.5049
▁kovacs	-11.5049
▁napalm	-11.5049
▁nevertheless	-11.5049
▁pubiic	-11.5049
▁reserve	-11.5049
▁scag	-11.5049
▁scandal	-11.5049
▁shady	-11.5049
▁siago	-11.5049
▁slippery	-11.5049
▁violin	-11.5049
▁bolivia	-11.5049
▁cornell	-11.5049
▁emblem	-11.5049
▁janitor	-11.5049
▁saloon	-11.5049
▁splendid	-11.5049
▁brodsky	-11.5049
▁germs	-11.5049
▁heartache	-11.5049
▁intact	-11.5049
▁probability	-11.5049
▁smuggling	-11.5049
▁trucoat	-11.5049
▁dimple	-11.5049
▁liberal	-11.5049
▁crips	-11.5049
▁delia	-11.5049
▁hayworth	-11.5049
▁kdk	-11.5049
▁landscape	-11.5049
▁longterm	-11.5049
▁meatballs	-11.5049
▁oven	-11.5049
▁rafterman	-11.5049
▁shokner	-11.5049
▁significance	-11.5049
▁chisel	-11.5049
▁renee	-11.5049
▁backstage	-11.5049
▁balm	-11.5049
▁cleveland	-11.5049
▁deputies	-11.5049
▁despise	-11.5049
▁pepsi	-11.5049
▁concert	-11.5049
▁gaius	-11.5049
▁inviting	-11.5049
▁telegraph	-11.5049
▁diversion	-11.5049
▁dumas	-11.5049
▁meditation	-11.5049
▁margaret	-11.5049
▁slogan	-11.5049
▁cannoli	-11.5049
▁croix	-11.5049
▁slack	-11.5049
▁wattles	-11.5049
nois	-11.5049
▁bloodstain	-11.5049
▁ellerbee	-11.5049
▁infirmary	-11.5049
▁sipping	-11.5049
▁wasp	-11.5049
▁lamar	-11.5049
▁lipstick	-11.5049
▁screenplay	-11.5049
▁gallery	-11.5049
▁stonesipher	-11.5049
▁pucker	-11.5049
▁shabbos	-11.5049
▁opium	-11.5049
▁uncover	-11.5049
▁gunderson	-11.5049
▁prostitution	-11.5049
▁gibson	-11.5049
▁lottery	-11.5049
▁steward	-11.5049
▁premi	-11.5049
▁aaronson	-11.5049
▁genitals	-11.5049
▁isabelle	-11.5049
▁sponsorship	-11.505
▁departure	-11.505
▁houston	-11.505
▁hubert	-11.505
▁creek	-11.505
▁extortion	-11.505
▁gerard	-11.505
▁hammond	-11.505
▁patriot	-11.505
▁polio	-11.505
▁shiny	-11.505
▁surface	-11.505
▁ribbon	-11.505
▁elizabeth	-11.505
▁valium	-11.505
▁thirtyfive	-11.505
▁applies	-11.505
▁degrad	-11.505
▁intercom	-11.505
▁sandals	-11.505
▁videotape	-11.505
▁bicycle	-11.505
▁consultant	-11.505
▁priorities	-11.505
▁fluff	-11.505
▁slope	-11.505
▁flashlight	-11.505
▁georgieboy	-11.505
▁lenny	-11.505
▁centerfold	-11.505
▁jammed	-11.505
▁meself	-11.505
▁strapped	-11.505
▁overlook	-11.505
▁envy	-11.505
▁graduation	-11.505
▁enorm	-11.505
▁radar	-11.505
▁romy	-11.505
▁cooing	-11.505
▁skylight	-11.505
▁whoohoo	-11.505
▁frustration	-11.505
▁rasp	-11.505
▁confine	-11.505
▁industrial	-11.505
▁crabs	-11.505
▁hostile	-11.505
▁sissy	-11.505
▁solitary	-11.505
▁doris	-11.505
▁contribution	-11.505
▁sierraone	-11.505
▁abortion	-11.505
austin	-11.505
▁resurrection	-11.505
▁coldblooded	-11.505
▁generator	-11.505
▁outgoing	-11.505
▁junkyard	-11.505
▁beauties	-11.505
▁leash	-11.505
▁leap	-11.505
▁iosef	-11.505
▁throne	-11.505
▁hue	-11.505
ibility	-11.505
▁burial	-11.505
▁burrito	-11.505
▁ounce	-11.505
▁whizz	-11.505
gerald	-11.505
▁hound	-11.505
▁rosato	-11.505
▁tummy	-11.505
▁colorado	-11.505
▁italianamerican	-11.505
▁outrageous	-11.505
▁properties	-11.505
▁whwhat	-11.505
▁otter	-11.505
▁southbound	-11.505
▁levar	-11.505
▁meek	-11.505
▁shah	-11.5051
▁geneva	-11.5051
▁corpos	-11.5051
▁oath	-11.5051
▁galante	-11.5051
▁withdrawal	-11.5051
▁southeast	-11.5051
▁aione	-11.5051
▁scale	-11.5051
▁slur	-11.5051
▁stitches	-11.5051
▁flamingos	-11.5051
▁dyle	-11.5051
▁ashecliffe	-11.5051
▁pledge	-11.5051
▁dyke	-11.5051
▁psychotic	-11.5051
▁henchm	-11.5051
▁frog	-11.5051
▁feature	-11.5051
▁trophy	-11.5051
▁multiply	-11.5051
▁coloss	-11.5051
▁neri	-11.5051
▁production	-11.5051
▁boothby	-11.5051
▁groovy	-11.5052
▁stroll	-11.5052
▁pressfield	-11.5052
▁karate	-11.5052
▁sentimental	-11.5052
▁underway	-11.5052
▁estamos	-11.5052
▁morality	-11.5052
▁shortcut	-11.5052
▁stale	-11.5052
▁disney	-11.5052
▁dorm	-11.5052
▁fugi	-11.5052
▁crucified	-11.5052
▁ballistic	-11.5052
▁sobre	-11.5052
▁slut	-11.5052
▁attendant	-11.5052
▁ambi	-11.5052
nstitutionalized	-11.5052
▁mush	-11.5053
▁iowa	-11.5053
▁heir	-11.5053
▁hehheh	-11.5053
▁myth	-11.5053
▁pillar	-11.5053
▁thatthat	-11.5053
▁ceo	-11.5053
▁offence	-11.5053
▁pois	-11.5053
▁scarf	-11.5053
▁exactiy	-11.5053
▁caroline	-11.5053
▁tabletop	-11.5053
▁electricity	-11.5053
▁vila	-11.5053
▁storytell	-11.5053
▁disposal	-11.5053
▁buckle	-11.5053
▁babu	-11.5054
▁capone	-11.5054
▁normandy	-11.5054
▁ricocheting	-11.5054
▁heather	-11.5054
▁acceptance	-11.5055
▁pornography	-11.5055
▁bravery	-11.5055
▁reset	-11.5055
▁belief	-11.5055
▁enchant	-11.5055
▁shaft	-11.5055
▁recognition	-11.5055
▁sheehan	-11.5055
▁closure	-11.5055
▁crotch	-11.5055
cho	-11.5055
▁organised	-11.5055
▁humiliated	-11.5055
▁slick	-11.5055
▁trading	-11.5056
▁info	-11.5056
▁duh	-11.5056
▁hobby	-11.5056
▁undies	-11.5056
▁biki	-11.5056
▁reload	-11.5057
▁creation	-11.5057
▁canal	-11.5057
▁pius	-11.5057
▁consist	-11.5057
▁charon	-11.5057
▁queria	-11.5057
▁tudo	-11.5057
▁recon	-11.5058
▁waii	-11.5058
▁whatsoever	-11.5058
▁latter	-11.5058
▁iady	-11.5058
▁contestant	-11.5058
▁funnylooking	-11.5059
▁paratroop	-11.5059
▁mailman	-11.5059
▁brotherinlaw	-11.5059
▁swapped	-11.5059
▁distinguished	-11.5059
▁attached	-11.5059
▁instructed	-11.5059
▁obliged	-11.5059
▁ritz	-11.5059
▁gaga	-11.5059
▁trainee	-11.5059
metric	-11.506
▁spiderman	-11.506
▁satan	-11.506
▁engi	-11.506
▁hadley	-11.506
get	-11.5061
▁pense	-11.5061
▁quitting	-11.5061
▁nipper	-11.5061
▁dish	-11.5061
▁dug	-11.5061
▁typing	-11.5061
▁contractor	-11.5062
▁oopsy	-11.5062
▁flinching	-11.5062
▁droogie	-11.5062
▁hutchie	-11.5063
▁cellul	-11.5063
▁vanity	-11.5064
▁esque	-11.5064
▁fatherinlaw	-11.5064
▁forgiveness	-11.5064
▁deliveries	-11.5064
▁sway	-11.5065
▁terminate	-11.5065
▁ache	-11.5065
▁educated	-11.5065
▁descend	-11.5065
▁impact	-11.5065
▁email	-11.5065
▁indicted	-11.5065
▁sympathy	-11.5066
▁relevant	-11.5066
▁taser	-11.5066
▁stealth	-11.5066
▁ahem	-11.5067
▁essa	-11.5067
nsible	-11.5068
▁campus	-11.5068
clubbing	-11.5069
▁hence	-11.5069
▁viu	-11.5069
▁manacles	-11.5069
▁rumours	-11.5069
▁flicks	-11.5069
▁microprocessors	-11.5069
▁zlotys	-11.5069
▁hitler	-11.507
▁specialty	-11.507
▁packet	-11.507
▁slum	-11.5071
▁authorize	-11.5071
▁heroic	-11.5072
▁sod	-11.5072
▁sandwiches	-11.5072
▁spends	-11.5072
▁filing	-11.5072
▁madre	-11.5072
scent	-11.5073
▁recovery	-11.5073
▁driveway	-11.5073
▁marsh	-11.5073
▁cozy	-11.5074
▁siu	-11.5074
▁located	-11.5074
▁nva	-11.5074
▁hora	-11.5075
▁fortunate	-11.5077
▁sow	-11.5077
▁comi	-11.5077
▁mash	-11.5078
▁rathole	-11.5078
▁invested	-11.5078
▁disturbing	-11.5079
▁seized	-11.5079
▁yelled	-11.5079
▁rusk	-11.5079
▁reopen	-11.508
▁unfucking	-11.5081
legged	-11.5082
good	-11.5082
▁cellphone	-11.5082
▁acu	-11.5083
▁desperately	-11.5084
▁posters	-11.5084
▁carrier	-11.5084
▁trio	-11.5085
▁tempt	-11.5085
▁spite	-11.5086
▁ticking	-11.5087
▁kia	-11.5087
ery	-11.5087
▁stuttering	-11.5087
▁slavery	-11.5089
▁hunger	-11.5089
▁lud	-11.5089
▁dart	-11.509
▁mont	-11.509
beats	-11.5091
▁assum	-11.5091
case	-11.5091
▁refin	-11.5092
▁chester	-11.5092
▁originally	-11.5094
▁scent	-11.5095
fferson	-11.5095
▁seii	-11.5095
▁shoved	-11.5096
otic	-11.5097
▁accomplished	-11.5097
▁challenged	-11.5097
▁maxie	-11.5098
▁mono	-11.5099
▁hom	-11.51
▁sacrificed	-11.5101
▁sexually	-11.5103
▁viet	-11.5103
▁haunted	-11.5104
▁grit	-11.5104
▁pumping	-11.5104
▁slots	-11.5105
▁purchased	-11.5108
▁offenders	-11.5108
▁dickus	-11.5108
▁forge	-11.5108
▁potion	-11.5112
▁buzzer	-11.5114
▁playlng	-11.5114
▁dork	-11.5115
▁ignored	-11.5116
▁hint	-11.5116
▁coupe	-11.5119
▁advanced	-11.512
▁mainly	-11.512
▁unlocking	-11.512
▁impulsive	-11.5121
uda	-11.5122
▁cheaper	-11.5123
▁spooked	-11.5124
▁reign	-11.5124
aroon	-11.5127
▁correctly	-11.5128
▁homeboy	-11.513
▁spli	-11.513
▁lowery	-11.5132
▁appeared	-11.5136
▁beth	-11.5137
▁mart	-11.5137
▁pedir	-11.5137
▁stevens	-11.5139
▁hugh	-11.5139
▁limbs	-11.5139
▁arr	-11.514
▁heights	-11.514
▁maggots	-11.514
▁transform	-11.514
▁swallowed	-11.5142
▁goodnight	-11.5142
▁via	-11.5142
▁frost	-11.5144
▁kindness	-11.5145
▁leaking	-11.5146
▁shattering	-11.5151
▁chev	-11.5154
▁bombers	-11.5154
▁beatin	-11.5155
▁christie	-11.5156
▁oy	-11.5156
ient	-11.516
▁climbing	-11.5163
▁connecting	-11.5163
▁tonys	-11.5165
▁mailed	-11.5167
▁if	-11.5171
▁dela	-11.5173
▁cadillacs	-11.5176
▁cocktails	-11.5176
▁mathematics	-11.5176
▁buiiets	-11.5176
▁compare	-11.5181
▁peel	-11.5184
▁importa	-11.5184
▁cann	-11.5184
▁tale	-11.5187
▁completed	-11.5188
▁eatin	-11.5192
▁interrupting	-11.5197
▁comforting	-11.5198
▁paraly	-11.5202
▁generally	-11.5204
verge	-11.5205
▁brits	-11.5211
▁designs	-11.5212
▁relatives	-11.5212
▁creatures	-11.5212
▁hungarians	-11.5212
▁passports	-11.5212
▁claws	-11.5212
▁requested	-11.5214
▁aa	-11.5217
▁louise	-11.522
seat	-11.5225
▁reduce	-11.5228
▁inn	-11.5228
▁starve	-11.5228
med	-11.523
tial	-11.5231
▁suckers	-11.5232
▁lauren	-11.5232
▁dame	-11.5234
▁mol	-11.5234
▁cuffs	-11.5248
▁tardes	-11.5248
▁elders	-11.5248
▁nazis	-11.5248
▁doubled	-11.525
▁occurs	-11.5257
ten	-11.526
uais	-11.5263
pie	-11.5265
▁neednt	-11.5265
▁sy	-11.5268
ridge	-11.5269
▁peed	-11.5269
▁prayers	-11.5271
▁existed	-11.5272
▁contents	-11.5272
inder	-11.5277
▁contacted	-11.5279
▁pasta	-11.5281
▁communists	-11.5282
plate	-11.5283
▁thugs	-11.5284
▁marbles	-11.5284
▁fuckhead	-11.5288
▁tart	-11.5289
▁musical	-11.529
▁radi	-11.5297
▁dots	-11.5299
rmanda	-11.5305
▁hacker	-11.5306
▁heating	-11.5307
▁flor	-11.5313
▁helpless	-11.5315
▁discussing	-11.5315
▁suspected	-11.5318
lip	-11.5319
▁coffins	-11.5321
▁bananas	-11.5321
▁conclusions	-11.5321
▁arrows	-11.5321
▁arrangements	-11.5321
▁dragg	-11.5322
▁knifed	-11.5323
▁sk	-11.5325
▁cello	-11.5325
▁lrs	-11.533
▁fighters	-11.5351
▁cl	-11.5353
were	-11.5354
▁sharks	-11.5358
▁burgers	-11.5358
▁skipp	-11.5358
▁sweety	-11.5361
▁manson	-11.5367
▁compos	-11.5367
▁ohio	-11.5372
▁pressing	-11.5375
▁simp	-11.5377
▁mop	-11.5377
▁sz	-11.5388
ith	-11.5388
▁fra	-11.5393
▁praying	-11.5393
▁benefits	-11.5394
▁deposits	-11.5394
▁jd	-11.5399
ickers	-11.54
▁hunters	-11.5406
▁loading	-11.541
▁mic	-11.541
ib	-11.5412
▁dealt	-11.5415
▁appreciated	-11.5416
▁quint	-11.5421
▁starter	-11.5426
▁procedures	-11.5431
ola	-11.5434
▁feeding	-11.5442
▁zee	-11.5446
▁nash	-11.5447
melon	-11.5448
▁drawers	-11.545
▁boarded	-11.5459
rosco	-11.5465
▁shipp	-11.5466
▁flags	-11.5466
▁races	-11.5467
▁beasts	-11.5468
▁civilians	-11.5468
▁cowards	-11.5468
▁jangl	-11.5482
▁gl	-11.5482
▁partly	-11.5501
▁snakes	-11.5505
▁nightmares	-11.5505
▁blessings	-11.5505
▁registers	-11.5508
▁encontrar	-11.5514
sort	-11.552
▁raining	-11.5521
▁blueberr	-11.5524
▁tolerate	-11.5533
▁dissolve	-11.5538
his	-11.5541
anja	-11.5542
▁daniels	-11.5542
▁tattaglias	-11.5542
▁ps	-11.5556
▁urge	-11.5559
▁businesses	-11.5561
gging	-11.5564
▁kidnappings	-11.5579
▁layer	-11.5586
▁babys	-11.5586
sley	-11.5588
▁sweater	-11.5593
faced	-11.5594
▁excuses	-11.5597
gs	-11.5597
▁ringo	-11.5598
▁cham	-11.561
sca	-11.5615
▁messing	-11.5639
▁pine	-11.564
ook	-11.5641
elle	-11.565
▁lifeguards	-11.5654
▁talents	-11.5655
▁cy	-11.5663
▁ken	-11.567
▁usc	-11.5671
equen	-11.5672
▁ado	-11.568
▁firms	-11.5691
▁assess	-11.5691
▁padr	-11.5696
▁interpret	-11.5706
▁stra	-11.5716
▁quart	-11.5717
some	-11.572
buster	-11.5721
card	-11.5726
▁royals	-11.5728
iro	-11.5736
hh	-11.5736
ider	-11.574
▁owed	-11.5745
▁monsters	-11.5769
▁killings	-11.5785
▁greas	-11.5786
del	-11.5797
▁farms	-11.5805
lagged	-11.5806
trus	-11.5818
▁den	-11.5819
▁epi	-11.5837
iggy	-11.584
▁yu	-11.5852
▁interviews	-11.5879
▁respects	-11.5885
▁dodg	-11.5886
▁observa	-11.5889
▁roden	-11.5909
▁rave	-11.5911
▁slowing	-11.5917
▁mines	-11.5922
▁umb	-11.5938
▁elevators	-11.5956
▁videos	-11.5956
▁confessions	-11.5957
▁flirt	-11.5973
come	-11.5983
▁charlies	-11.5983
▁exterminate	-11.5986
ximo	-11.5989
▁terrorists	-11.5995
▁requests	-11.5997
ove	-11.5997
bu	-11.6004
▁pies	-11.6007
▁chap	-11.6016
making	-11.6046
▁meth	-11.6049
▁whites	-11.6057
▁ko	-11.6064
▁ape	-11.6067
▁pressures	-11.6071
▁skys	-11.6071
▁ble	-11.6079
▁lest	-11.6082
▁dep	-11.6084
dative	-11.6092
▁acquire	-11.6101
▁translate	-11.6109
▁mouths	-11.612
▁builds	-11.6131
tu	-11.6134
▁sizes	-11.6135
▁embe	-11.6138
qt	-11.6141
ava	-11.6142
▁intolera	-11.6169
▁relationships	-11.6187
▁rogers	-11.6188
▁propos	-11.6196
▁irm	-11.6203
▁ensu	-11.6206
ingly	-11.6207
▁medi	-11.6212
log	-11.622
▁ordering	-11.6222
▁rents	-11.6255
bj	-11.6257
▁alarms	-11.6258
cas	-11.626
uce	-11.6261
▁managers	-11.6268
▁sid	-11.6291
▁baron	-11.6297
▁notices	-11.6307
▁fro	-11.6315
▁cul	-11.6331
ically	-11.6334
▁types	-11.6342
▁babes	-11.6344
▁taco	-11.6352
▁ding	-11.6355
rust	-11.6358
cop	-11.6358
ify	-11.6389
▁dop	-11.6393
keeper	-11.6418
▁diga	-11.642
mu	-11.6427
▁app	-11.6453
▁evacuate	-11.6456
▁tongues	-11.6463
tro	-11.6466
oli	-11.6497
view	-11.6502
▁arts	-11.6526
▁clap	-11.6528
▁characters	-11.6541
wa	-11.6553
▁paulies	-11.6555
▁hassle	-11.6562
▁pointed	-11.658
▁ties	-11.6582
▁prep	-11.6594
sap	-11.6609
horn	-11.6614
▁casual	-11.6623
▁unions	-11.663
▁ideal	-11.6648
▁unh	-11.6649
nte	-11.6665
rac	-11.6674
aria	-11.6677
cana	-11.6682
ool	-11.669
pers	-11.6699
▁tramp	-11.6706
▁burt	-11.6712
▁treats	-11.6712
▁ripe	-11.6729
▁conversations	-11.6742
lined	-11.6745
ris	-11.6758
graph	-11.6775
ust	-11.6777
▁podem	-11.6781
▁pad	-11.6788
quel	-11.6809
nuck	-11.6821
▁lieutenants	-11.6822
▁faci	-11.6829
ax	-11.6832
▁esper	-11.6854
ingle	-11.6856
▁darr	-11.6861
▁stat	-11.6867
▁grip	-11.6886
rella	-11.69
▁stripe	-11.6905
▁gobble	-11.691
rue	-11.6912
▁aces	-11.6913
▁tad	-11.6921
▁carve	-11.6932
▁skins	-11.6934
urn	-11.6943
▁wal	-11.6956
ride	-11.6957
snick	-11.6957
shot	-11.6964
▁drip	-11.6966
▁bin	-11.6998
arley	-11.7012
rity	-11.7016
▁corri	-11.7038
▁digg	-11.7077
▁elses	-11.7086
nard	-11.71
key	-11.711
arcel	-11.7155
▁deixa	-11.7182
ona	-11.7189
▁positions	-11.7233
▁margin	-11.7246
stick	-11.7249
track	-11.7251
▁sil	-11.7258
elas	-11.7264
dade	-11.7268
uke	-11.7283
▁hee	-11.7292
fic	-11.7295
▁teller	-11.7296
▁mus	-11.7307
▁grav	-11.731
con	-11.7314
▁covers	-11.7322
phone	-11.7334
▁exception	-11.7341
wise	-11.7351
▁bean	-11.7356
that	-11.7357
break	-11.7363
zed	-11.7367
earned	-11.7369
▁hijack	-11.7373
▁critic	-11.7375
▁jog	-11.7375
▁elephant	-11.7377
▁norwegian	-11.7377
▁substance	-11.7377
▁balloon	-11.7377
▁decade	-11.7378
▁depth	-11.738
▁rapist	-11.738
▁jackpot	-11.7381
▁amateur	-11.7385
▁mandingo	-11.7385
▁lsland	-11.7386
▁troop	-11.7387
▁fade	-11.7389
▁cadillac	-11.7389
▁cocktail	-11.7389
▁mathematic	-11.7389
▁nun	-11.739
▁buiiet	-11.739
▁turd	-11.7391
▁canvas	-11.7392
▁antique	-11.7394
▁strap	-11.7394
▁statie	-11.7395
▁investor	-11.7397
▁refuge	-11.7397
▁guardian	-11.74
▁sinner	-11.7401
▁wilde	-11.7414
▁attacks	-11.7423
gi	-11.7438
▁gigant	-11.7438
▁buff	-11.7441
▁hog	-11.7444
ewer	-11.7446
serving	-11.7446
zio	-11.7465
iiy	-11.7473
▁tab	-11.7473
look	-11.7475
aves	-11.7478
▁enlist	-11.7479
▁disturb	-11.7483
cat	-11.7486
▁embarrass	-11.7487
▁lands	-11.7489
light	-11.7491
old	-11.7491
fair	-11.7492
▁employ	-11.7495
hair	-11.7495
▁uhuhuh	-11.7499
place	-11.75
bound	-11.7501
quint	-11.7503
five	-11.7503
powder	-11.7505
satisfied	-11.7506
american	-11.7506
grateful	-11.7506
rabbit	-11.7506
dressed	-11.7507
known	-11.7507
beard	-11.7507
wheel	-11.7507
whistle	-11.7507
famous	-11.7507
ken	-11.7507
school	-11.7507
food	-11.7507
white	-11.7507
around	-11.7508
sound	-11.7508
scene	-11.7508
control	-11.7508
pot	-11.7508
space	-11.7509
bury	-11.7509
bridge	-11.7509
▁ador	-11.7509
fro	-11.751
check	-11.7511
pants	-11.7511
bitches	-11.7511
bul	-11.7512
▁stain	-11.7512
▁snort	-11.7514
shire	-11.7514
▁kneel	-11.7515
▁await	-11.7515
▁massac	-11.7515
▁adopt	-11.7519
▁shag	-11.752
▁arriv	-11.7522
▁spoil	-11.7522
▁vouch	-11.7522
▁develop	-11.7522
▁surpris	-11.7523
▁aureli	-11.7525
▁peep	-11.7527
wing	-11.7528
▁generals	-11.7529
▁beiieve	-11.753
▁underestimate	-11.7531
▁determine	-11.7532
▁nitroglycerin	-11.7532
▁oops	-11.7533
▁murph	-11.7534
▁observe	-11.7534
▁transit	-11.7534
▁toda	-11.7535
▁necessar	-11.7535
▁psychological	-11.7537
shake	-11.7537
▁heav	-11.7537
▁algum	-11.7538
▁colombia	-11.7538
▁alleged	-11.7539
stock	-11.754
▁paw	-11.7541
▁consult	-11.7542
▁silv	-11.7542
▁caf	-11.7543
▁inspect	-11.7544
▁delusion	-11.7544
▁forc	-11.7545
▁hoyt	-11.7545
▁carbon	-11.7545
▁distribut	-11.7545
▁compet	-11.7546
inished	-11.7546
▁humphr	-11.7547
huckle	-11.7547
▁allerg	-11.7547
itude	-11.7547
▁council	-11.7547
ification	-11.7547
▁micro	-11.7547
▁intent	-11.7547
▁twel	-11.7548
▁marvel	-11.7548
▁convers	-11.7548
▁asia	-11.7548
rotti	-11.7548
pecca	-11.7548
▁curio	-11.7549
▁confront	-11.7549
▁progress	-11.7549
▁domestic	-11.7549
▁guild	-11.7549
▁precl	-11.7549
eeniem	-11.7549
▁administer	-11.7549
▁courtmartial	-11.7549
▁entrepreneur	-11.7549
agonizing	-11.7549
▁abrupt	-11.7549
▁acontec	-11.7549
▁aerotyne	-11.7549
▁afog	-11.7549
▁airplane	-11.7549
▁appraisal	-11.7549
▁apprentice	-11.7549
▁aqueduct	-11.7549
▁artificial	-11.7549
▁aspect	-11.7549
▁avalon	-11.7549
▁baldassari	-11.7549
▁bandleader	-11.7549
▁barracks	-11.7549
▁barrette	-11.7549
▁baufort	-11.7549
▁bennett	-11.7549
▁bianca	-11.7549
▁bizarre	-11.7549
▁blunt	-11.7549
▁bracken	-11.7549
▁brackets	-11.7549
▁brazil	-11.7549
▁breadcrumbs	-11.7549
▁bredoteau	-11.7549
▁butterfly	-11.7549
▁caffeine	-11.7549
▁calendar	-11.7549
▁cassidy	-11.7549
▁caucasian	-11.7549
▁caviar	-11.7549
▁centuries	-11.7549
▁cerebr	-11.7549
▁chauffeur	-11.7549
▁christopher	-11.7549
▁cicatriz	-11.7549
▁cllcklng	-11.7549
▁collateral	-11.7549
▁concentration	-11.7549
▁connecticut	-11.7549
▁corcoran	-11.7549
▁crease	-11.7549
▁cristal	-11.7549
▁croisilles	-11.7549
▁cuidado	-11.7549
▁dalsum	-11.7549
▁database	-11.7549
▁deauxma	-11.7549
▁delahunt	-11.7549
▁despair	-11.7549
▁dialectic	-11.7549
▁dinosaur	-11.7549
▁disconnect	-11.7549
▁disobey	-11.7549
▁disorder	-11.7549
▁dobbs	-11.7549
▁doorstep	-11.7549
▁doutor	-11.7549
▁dynasty	-11.7549
▁ebbing	-11.7549
▁efficiency	-11.7549
▁efficient	-11.7549
▁emergencies	-11.7549
▁ethiopia	-11.7549
▁eyewitness	-11.7549
▁fabulous	-11.7549
▁fascinate	-11.7549
▁fascinating	-11.7549
▁ferreiro	-11.7549
▁flourish	-11.7549
▁francs	-11.7549
▁frederick	-11.7549
▁gestapo	-11.7549
▁godfrey	-11.7549
▁grifter	-11.7549
▁groggy	-11.7549
▁guiiiver	-11.7549
▁halloran	-11.7549
▁havoc	-11.7549
▁hazard	-11.7549
▁heehaw	-11.7549
▁hypocrisy	-11.7549
▁iaugh	-11.7549
▁ibiza	-11.7549
▁inappropriate	-11.7549
▁infiltrat	-11.7549
▁inscription	-11.7549
▁install	-11.7549
▁intimidat	-11.7549
▁itsits	-11.7549
▁jeremiah	-11.7549
▁jukebox	-11.7549
▁juvenile	-11.7549
▁kalfus	-11.7549
▁keeyai	-11.7549
▁kennefick	-11.7549
▁klaus	-11.7549
▁knicks	-11.7549
▁knucklehead	-11.7549
▁lchaim	-11.7549
▁lebron	-11.7549
▁lesbian	-11.7549
▁limousine	-11.7549
▁lkoma	-11.7549
▁lollipop	-11.7549
▁lourdes	-11.7549
▁maestro	-11.7549
▁malchick	-11.7549
▁malibu	-11.7549
▁marlboro	-11.7549
▁matthias	-11.7549
▁maximum	-11.7549
▁mcandrew	-11.7549
▁mclanden	-11.7549
▁miguel	-11.7549
▁minnesota	-11.7549
▁moioko	-11.7549
▁moulins	-11.7549
▁mouthwash	-11.7549
▁muffin	-11.7549
▁nazareth	-11.7549
▁nebelsbad	-11.7549
▁negotiator	-11.7549
▁neutral	-11.7549
▁newscaster	-11.7549
▁nicholas	-11.7549
▁nihilist	-11.7549
▁nitwit	-11.7549
▁nurburgring	-11.7549
▁oasis	-11.7549
▁overture	-11.7549
▁parlance	-11.7549
▁parlay	-11.7549
▁pendejo	-11.7549
▁pennsylvania	-11.7549
▁pesach	-11.7549
▁pharmaceutical	-11.7549
▁prescribed	-11.7549
▁prescription	-11.7549
▁propaganda	-11.7549
▁quadriplegic	-11.7549
▁quarterpounder	-11.7549
▁receiving	-11.7549
▁reconsider	-11.7549
▁rehab	-11.7549
▁resolution	-11.7549
▁retaliate	-11.7549
▁reveille	-11.7549
▁rouge	-11.7549
▁saucier	-11.7549
▁scarboro	-11.7549
▁scatting	-11.7549
▁scorpion	-11.7549
▁seidelbaum	-11.7549
▁serpent	-11.7549
▁serrano	-11.7549
▁seymour	-11.7549
▁shakespeare	-11.7549
▁shrapnel	-11.7549
▁skank	-11.7549
▁spectacle	-11.7549
▁spencer	-11.7549
▁stadium	-11.7549
▁stagecoach	-11.7549
▁stammering	-11.7549
▁substitute	-11.7549
▁suspension	-11.7549
▁swanney	-11.7549
▁syrup	-11.7549
▁tallahassee	-11.7549
▁tiffany	-11.7549
▁transcript	-11.7549
▁tuberculosis	-11.7549
▁tucumcari	-11.7549
▁ullman	-11.7549
▁unexpected	-11.7549
▁unforgettable	-11.7549
▁unnecessary	-11.7549
▁unravel	-11.7549
▁unzip	-11.7549
▁urchin	-11.7549
▁vacuum	-11.7549
▁vegetarian	-11.7549
▁vendetta	-11.7549
▁venom	-11.7549
▁versace	-11.7549
▁vietcong	-11.7549
▁vulgar	-11.7549
▁vulnerable	-11.7549
▁vulture	-11.7549
▁walrus	-11.7549
▁wiedersehen	-11.7549
▁antoine	-11.7549
▁appliance	-11.7549
▁backpack	-11.7549
▁benedict	-11.7549
▁canyon	-11.7549
▁coolidge	-11.7549
▁debate	-11.7549
▁deceive	-11.7549
▁depression	-11.7549
▁fourteen	-11.7549
▁homosexual	-11.7549
▁kraut	-11.7549
▁launched	-11.7549
▁nassau	-11.7549
▁nixon	-11.7549
▁okonedo	-11.7549
▁parallel	-11.7549
▁prairie	-11.7549
▁protein	-11.7549
▁regulations	-11.7549
▁rizz	-11.7549
▁settling	-11.7549
▁tractor	-11.7549
▁tuscan	-11.7549
▁upstate	-11.7549
▁wilderness	-11.7549
▁xray	-11.7549
dwarf	-11.7549
▁bishop	-11.7549
▁chalk	-11.7549
▁compliance	-11.7549
▁evelyn	-11.7549
▁fascis	-11.7549
▁hesketh	-11.7549
▁ieft	-11.7549
▁lutz	-11.7549
▁sprinkle	-11.7549
▁grouch	-11.7549
▁amendment	-11.7549
▁caramel	-11.7549
▁guerr	-11.7549
▁juicy	-11.7549
▁kerb	-11.7549
▁madrid	-11.7549
▁niece	-11.7549
▁pigeon	-11.7549
▁salud	-11.7549
▁vejo	-11.7549
▁angei	-11.7549
▁assumption	-11.7549
▁feces	-11.7549
▁floyd	-11.7549
▁frantic	-11.7549
▁hottest	-11.7549
▁majorek	-11.7549
▁obligated	-11.7549
▁overthrow	-11.7549
▁rascal	-11.7549
▁biind	-11.7549
▁earrings	-11.7549
▁infraction	-11.7549
▁judas	-11.7549
▁piercing	-11.7549
▁pronto	-11.7549
▁renounce	-11.7549
▁teresa	-11.7549
▁appointed	-11.7549
▁terribi	-11.7549
▁blouse	-11.7549
▁compiete	-11.7549
▁dlr	-11.7549
▁muttering	-11.7549
▁nauls	-11.7549
▁noticing	-11.7549
▁reagan	-11.7549
▁shield	-11.7549
▁transsexual	-11.7549
▁yeyo	-11.7549
▁innocence	-11.7549
▁stagger	-11.7549
▁synthe	-11.7549
▁twitch	-11.7549
▁april	-11.7549
▁bethany	-11.7549
▁dudley	-11.7549
▁flynn	-11.7549
▁peckerwood	-11.7549
▁sloppy	-11.7549
▁depressing	-11.7549
▁sodium	-11.7549
▁deciding	-11.7549
▁loretta	-11.7549
▁prompt	-11.7549
▁anchor	-11.7549
▁capacity	-11.7549
▁jenkins	-11.7549
▁qualifiers	-11.7549
▁remand	-11.7549
▁alternative	-11.7549
▁gramont	-11.7549
▁compact	-11.7549
▁contempt	-11.7549
▁coupons	-11.7549
▁pirate	-11.7549
▁singsong	-11.7549
▁reckless	-11.7549
▁cazz	-11.7549
▁lecture	-11.7549
▁persistent	-11.7549
▁annual	-11.755
▁timber	-11.755
▁raspail	-11.755
▁titties	-11.755
▁cartridge	-11.755
▁squash	-11.755
▁allegation	-11.755
▁devotion	-11.755
▁infern	-11.755
▁tacky	-11.755
▁viddied	-11.755
▁vivian	-11.755
▁contingenc	-11.755
▁humour	-11.755
▁shoving	-11.755
▁aggression	-11.755
▁bogart	-11.755
▁deteriorat	-11.755
▁scotland	-11.755
▁candidate	-11.755
▁croak	-11.755
▁pause	-11.755
▁thailand	-11.755
▁forbidden	-11.755
▁oregon	-11.755
▁sibling	-11.755
▁aaah	-11.755
▁correlat	-11.755
▁chowder	-11.755
▁boogey	-11.755
▁snider	-11.755
▁autograph	-11.755
▁culpa	-11.755
▁culpable	-11.755
▁ciseau	-11.755
▁grill	-11.755
▁accusations	-11.755
▁phillip	-11.755
▁crisis	-11.755
▁moonlight	-11.755
▁granddaughter	-11.755
▁utter	-11.755
▁heavier	-11.755
▁greaseball	-11.755
▁flea	-11.755
▁savage	-11.755
▁abdom	-11.755
▁semipro	-11.755
▁matou	-11.755
▁iraq	-11.755
▁cynical	-11.755
▁rubbish	-11.755
▁crude	-11.755
▁salva	-11.755
▁firebird	-11.755
▁leadership	-11.755
▁pluck	-11.755
▁gagging	-11.755
▁referring	-11.755
▁bummer	-11.755
▁cancelled	-11.755
▁cellblock	-11.755
▁cursing	-11.755
▁pennies	-11.755
▁timmy	-11.755
▁tragic	-11.755
▁baptist	-11.755
▁barbaric	-11.755
▁charging	-11.755
▁complication	-11.755
▁notso	-11.755
▁gooey	-11.755
▁obsession	-11.755
▁scarface	-11.755
▁conven	-11.755
▁progressive	-11.755
▁corky	-11.755
▁bentley	-11.755
▁esteem	-11.755
▁oof	-11.755
▁compel	-11.755
▁wellbeing	-11.7551
▁premium	-11.7551
▁hoof	-11.7551
▁outcome	-11.7551
▁vague	-11.7551
▁flipped	-11.7551
▁testified	-11.7551
▁carolina	-11.7551
▁paddie	-11.7551
▁tribe	-11.7551
▁forrester	-11.7551
▁wealthiest	-11.7551
▁powerboat	-11.7551
▁nickname	-11.7551
ihua	-11.7551
orris	-11.7551
▁indochina	-11.7551
▁stew	-11.7551
▁declaration	-11.7551
▁deveria	-11.7551
▁proving	-11.7551
▁spiritual	-11.7551
▁contrary	-11.7551
▁merit	-11.7551
▁rumble	-11.7551
▁tuttle	-11.7551
▁postcard	-11.7551
▁taxfree	-11.7551
▁iadies	-11.7551
▁scoop	-11.7551
▁chili	-11.7551
▁income	-11.7551
▁begets	-11.7551
▁morphine	-11.7551
▁fanning	-11.7551
▁donald	-11.7551
ifled	-11.7551
▁welby	-11.7551
▁infantry	-11.7551
▁delightful	-11.7551
▁splitters	-11.7551
▁yeee	-11.7552
▁arvn	-11.7552
▁bragging	-11.7552
▁disso	-11.7552
▁blackmail	-11.7552
▁engagement	-11.7552
▁irresponsible	-11.7552
▁atmosphere	-11.7552
▁beak	-11.7552
▁cruelty	-11.7552
▁whipping	-11.7552
▁disgraceful	-11.7552
mnh	-11.7552
▁unconscious	-11.7552
▁amusement	-11.7552
▁fique	-11.7552
▁prophecy	-11.7552
▁burglary	-11.7552
▁fuzzy	-11.7552
▁symphony	-11.7552
▁alias	-11.7552
▁upload	-11.7552
▁budget	-11.7552
▁addiction	-11.7552
▁brace	-11.7552
▁loafers	-11.7552
▁extradition	-11.7552
▁foam	-11.7552
▁ioveiy	-11.7552
▁conceal	-11.7552
▁danish	-11.7552
▁rejection	-11.7552
▁baptized	-11.7552
▁daft	-11.7552
▁altar	-11.7552
▁nerd	-11.7552
▁punt	-11.7552
▁offthe	-11.7552
▁berk	-11.7552
▁erasing	-11.7552
▁hull	-11.7552
▁merle	-11.7552
▁cupcake	-11.7552
▁basta	-11.7552
▁cheerio	-11.7552
▁visto	-11.7552
▁achievement	-11.7552
▁blueberries	-11.7553
▁homie	-11.7553
▁tedious	-11.7553
▁hoot	-11.7553
▁amends	-11.7553
▁lrish	-11.7553
▁proceedings	-11.7553
▁deploy	-11.7553
▁drool	-11.7553
▁scoot	-11.7553
▁kir	-11.7553
▁lowlife	-11.7553
▁knight	-11.7553
▁unfold	-11.7553
▁collier	-11.7553
▁denise	-11.7553
▁petty	-11.7553
▁titty	-11.7553
▁injun	-11.7553
▁retainer	-11.7553
▁starring	-11.7553
▁saul	-11.7553
▁pelo	-11.7553
▁insure	-11.7554
▁dandy	-11.7554
▁inquiries	-11.7554
▁sensor	-11.7554
▁primetime	-11.7554
▁copyright	-11.7554
▁hoytl	-11.7554
▁monk	-11.7554
▁proudfoot	-11.7554
▁yonder	-11.7554
▁frustrated	-11.7554
▁rolex	-11.7554
▁stove	-11.7554
▁fingermen	-11.7554
▁xam	-11.7554
▁hallowe	-11.7554
▁tipped	-11.7554
cept	-11.7554
▁hyper	-11.7554
▁redeemed	-11.7554
▁exile	-11.7555
▁seattle	-11.7555
▁lashes	-11.7555
▁countries	-11.7555
▁hittin	-11.7555
▁function	-11.7555
▁static	-11.7555
▁rigor	-11.7555
▁hardware	-11.7555
▁cff	-11.7555
▁cuss	-11.7555
▁hogan	-11.7555
▁aka	-11.7555
▁expectations	-11.7555
▁archers	-11.7555
▁literature	-11.7555
▁truthfully	-11.7555
▁shuddering	-11.7555
▁upand	-11.7555
▁orderlies	-11.7555
▁heid	-11.7556
▁lilies	-11.7556
▁adrenaline	-11.7556
▁lump	-11.7556
▁pesca	-11.7556
▁documentation	-11.7556
▁chunk	-11.7556
▁excellency	-11.7556
▁felony	-11.7557
ddled	-11.7557
▁invention	-11.7557
▁trent	-11.7557
▁deception	-11.7557
▁fulfill	-11.7557
▁journey	-11.7557
▁justified	-11.7557
▁ketamine	-11.7557
▁portrait	-11.7557
▁universal	-11.7557
▁assurance	-11.7557
▁luxuri	-11.7557
▁waitresses	-11.7557
▁leaf	-11.7557
▁branches	-11.7557
▁decency	-11.7557
▁fog	-11.7557
▁bandage	-11.7557
▁lethal	-11.7557
▁venture	-11.7557
▁relieved	-11.7557
▁skinhead	-11.7557
▁marina	-11.7558
▁pior	-11.7558
▁cinema	-11.7558
▁bitten	-11.7558
▁hamburger	-11.7558
▁luckily	-11.7558
▁drab	-11.7558
▁grieving	-11.7558
culate	-11.7558
▁diaper	-11.7558
▁echoes	-11.7559
▁pear	-11.7559
▁core	-11.7559
▁quoi	-11.7559
▁strikers	-11.7559
▁regina	-11.7559
▁seja	-11.7559
withstand	-11.7559
▁recommendation	-11.756
▁lordship	-11.756
▁armsby	-11.756
▁beverage	-11.756
▁hangover	-11.756
▁lazy	-11.756
▁koon	-11.756
▁plumber	-11.756
▁semi	-11.7561
▁checkpoint	-11.7561
▁polo	-11.7562
▁pending	-11.7562
▁disappointment	-11.7562
▁redneck	-11.7562
▁scorn	-11.7562
▁deprived	-11.7562
▁condemned	-11.7562
▁abducted	-11.7562
▁bash	-11.7562
▁slob	-11.7562
▁hex	-11.7563
▁happie	-11.7563
▁armourer	-11.7563
quer	-11.7563
fth	-11.7563
▁wool	-11.7563
▁dogface	-11.7564
▁commute	-11.7564
▁farcy	-11.7565
▁revolver	-11.7565
▁tele	-11.7565
▁volte	-11.7565
▁reside	-11.7565
▁lye	-11.7566
▁travelers	-11.7566
▁sputtering	-11.7566
▁soar	-11.7566
▁vigilant	-11.7566
▁daylight	-11.7566
▁clanging	-11.7566
▁roaring	-11.7566
▁pico	-11.7566
▁instantly	-11.7567
▁ej	-11.7567
▁irishman	-11.7567
▁loaf	-11.7567
▁creaking	-11.7568
▁underestimated	-11.7568
hana	-11.7568
▁nung	-11.7568
▁stead	-11.7568
▁homemade	-11.7569
▁ciccio	-11.7569
▁northern	-11.7569
▁capric	-11.7569
▁boyhood	-11.757
▁cada	-11.757
▁loneli	-11.757
▁baiis	-11.757
▁curtain	-11.757
▁imprison	-11.757
▁delay	-11.757
▁iose	-11.757
▁cling	-11.7571
▁huey	-11.7571
▁groom	-11.7571
▁dove	-11.7572
▁rum	-11.7572
▁stripper	-11.7572
▁tablets	-11.7573
klng	-11.7573
▁caliber	-11.7573
▁firemen	-11.7573
▁gimp	-11.7573
▁adventurer	-11.7573
▁rooster	-11.7573
▁betina	-11.7574
▁gian	-11.7574
▁monte	-11.7574
▁passive	-11.7574
▁vida	-11.7574
▁barco	-11.7574
▁fico	-11.7575
▁grandson	-11.7575
▁temper	-11.7575
▁dull	-11.7575
▁superheroes	-11.7575
▁coyotes	-11.7576
▁eyebrows	-11.7576
▁peasants	-11.7576
interact	-11.7576
▁droogs	-11.7576
▁mona	-11.7576
▁calo	-11.7576
▁transition	-11.7577
▁preparing	-11.7577
▁jeannie	-11.7577
▁retreating	-11.7577
▁seduce	-11.7578
ual	-11.7578
▁employed	-11.7579
▁hospitality	-11.758
▁bouncing	-11.758
▁battery	-11.758
▁honourable	-11.7581
▁endure	-11.7582
kid	-11.7582
aid	-11.7582
▁massa	-11.7582
gu	-11.7583
▁raz	-11.7583
▁volt	-11.7583
▁liability	-11.7584
▁fable	-11.7584
▁korean	-11.7584
▁approaches	-11.7584
▁paddle	-11.7584
▁chico	-11.7585
▁hotter	-11.7585
▁grim	-11.7585
▁cramp	-11.7586
▁invaded	-11.7587
▁crooked	-11.7587
▁awaiting	-11.7588
▁rubbed	-11.7588
▁yarbi	-11.7588
▁skid	-11.7589
▁quad	-11.759
▁kah	-11.759
▁rational	-11.7592
▁ruben	-11.7593
▁fargo	-11.7593
▁bam	-11.7594
▁effective	-11.7595
▁acceptable	-11.7595
▁doubts	-11.7596
▁wiser	-11.7598
▁digest	-11.7598
▁theatre	-11.7599
▁streak	-11.7599
▁powerless	-11.7599
▁businessmen	-11.76
▁disrespectful	-11.76
▁ano	-11.7601
▁illustrat	-11.7601
▁dose	-11.7602
▁esse	-11.7602
▁crashes	-11.7603
▁stickin	-11.7603
▁weaker	-11.7604
▁replaced	-11.7604
▁eta	-11.7606
▁cuban	-11.7606
▁manual	-11.7606
bones	-11.7608
▁christian	-11.7608
▁quero	-11.7609
▁stupidity	-11.7609
▁cryin	-11.7609
▁pouring	-11.761
▁spying	-11.761
▁suburb	-11.761
▁brushing	-11.761
▁secured	-11.761
▁spine	-11.7612
▁poll	-11.7613
▁arti	-11.7613
▁diego	-11.7614
▁presses	-11.7615
▁consideration	-11.7615
▁doorway	-11.7615
▁secondary	-11.7617
▁lamp	-11.7621
▁wit	-11.7621
▁nipples	-11.7621
▁chinks	-11.7622
▁lobos	-11.7622
▁biscuits	-11.7622
▁testicles	-11.7622
▁rivals	-11.7622
▁lighten	-11.7622
▁felons	-11.7622
▁flaws	-11.7622
▁hap	-11.7622
▁torche	-11.7623
▁condone	-11.7625
▁boner	-11.7625
▁crosses	-11.7625
▁digits	-11.7626
▁classes	-11.7627
▁wander	-11.7628
▁mentally	-11.763
▁addresses	-11.7632
ctu	-11.7632
▁okey	-11.7633
▁steering	-11.7633
▁pickle	-11.7636
▁expectin	-11.7638
▁moody	-11.7638
▁coup	-11.764
▁described	-11.7642
▁positively	-11.7642
▁malt	-11.7642
▁appealing	-11.7643
▁vazi	-11.7647
▁mumbl	-11.7652
▁ridin	-11.7652
▁funded	-11.7653
▁fastest	-11.7655
▁scraping	-11.7656
▁cabs	-11.7657
▁explor	-11.7658
▁limp	-11.766
▁flowing	-11.7662
▁limited	-11.7664
▁gigante	-11.7664
holes	-11.7665
▁clar	-11.7667
▁earnings	-11.7669
▁fabrics	-11.7669
▁vitals	-11.7669
▁beii	-11.767
▁conceiv	-11.7671
tell	-11.7672
▁warmer	-11.7673
▁ruler	-11.7675
▁countin	-11.7675
▁alls	-11.7675
▁linking	-11.7676
▁towing	-11.7677
▁tenants	-11.7678
▁rick	-11.7678
▁geary	-11.7679
▁most	-11.7679
▁electro	-11.768
▁dod	-11.768
anders	-11.768
▁logical	-11.7681
skys	-11.7681
god	-11.7683
▁tighter	-11.7684
▁craz	-11.7685
▁soy	-11.7685
▁tang	-11.7687
▁dancers	-11.7687
▁crowning	-11.7688
▁smashing	-11.7688
▁claimed	-11.7688
▁shocked	-11.769
▁muck	-11.7693
▁hugo	-11.7693
▁funding	-11.7695
▁brucey	-11.7695
▁rapid	-11.7696
▁hart	-11.7697
▁wired	-11.7697
amos	-11.7703
▁fitzy	-11.7705
▁tuned	-11.7706
▁recognized	-11.7706
▁leaning	-11.7708
▁speeding	-11.771
dia	-11.7711
downloade	-11.7713
▁antes	-11.7713
▁cous	-11.7715
▁amateurs	-11.7716
▁mandingos	-11.7716
▁guardians	-11.7716
▁romeo	-11.772
▁recorder	-11.7721
▁collector	-11.7723
▁traded	-11.7723
▁freaked	-11.7724
▁terrorize	-11.7729
▁proceeded	-11.773
nows	-11.7734
▁porno	-11.7734
▁tricky	-11.7735
▁wobble	-11.7735
▁bella	-11.7738
▁risky	-11.774
▁lhe	-11.7741
▁careless	-11.7742
▁estr	-11.7744
▁complaining	-11.7746
▁noted	-11.7749
▁your	-11.7751
fed	-11.7754
▁insulting	-11.7755
▁switched	-11.7756
▁apologized	-11.776
bach	-11.7762
▁residents	-11.7764
▁devices	-11.7764
▁invitations	-11.7764
▁outras	-11.7764
▁peppers	-11.7764
▁crooks	-11.7765
▁locker	-11.7765
▁stutters	-11.7765
▁faker	-11.7772
▁batts	-11.7774
▁jen	-11.7774
▁gras	-11.7778
▁menti	-11.7783
▁scored	-11.7784
▁immigrants	-11.7785
▁poisoning	-11.7789
▁hammered	-11.779
▁tilt	-11.7794
▁iie	-11.7794
▁controll	-11.7795
▁smiled	-11.7796
ew	-11.7798
▁lifted	-11.7798
▁conn	-11.7803
▁sorte	-11.7805
▁drones	-11.7812
▁craigs	-11.7812
▁adams	-11.7812
▁hypocrites	-11.7812
▁lengths	-11.7812
▁millionaires	-11.7812
▁pencils	-11.7812
▁squeaks	-11.7813
▁moans	-11.7814
▁takeoff	-11.7819
plex	-11.7821
sity	-11.7828
▁scrape	-11.7833
▁ang	-11.7833
take	-11.7836
ating	-11.7838
▁aged	-11.7838
▁ka	-11.7842
▁umm	-11.7845
▁spreading	-11.7848
▁assassinate	-11.785
▁carats	-11.7851
▁filmed	-11.7853
▁heli	-11.7856
▁clocked	-11.7858
▁melts	-11.7859
inie	-11.786
▁elbows	-11.786
▁bubbas	-11.786
▁passengers	-11.786
▁dickheads	-11.786
▁demons	-11.786
▁pumps	-11.7861
was	-11.7861
▁understandable	-11.7861
▁mortes	-11.7861
▁leve	-11.7861
▁stirr	-11.7862
▁lumi	-11.7867
gan	-11.7867
▁buon	-11.7869
▁pep	-11.787
mps	-11.7877
going	-11.7882
▁snapp	-11.7882
▁lent	-11.7883
▁hau	-11.7886
ccord	-11.7888
▁dared	-11.7891
▁tomb	-11.7892
▁primeir	-11.7892
ought	-11.7899
▁vibrate	-11.7902
▁nicker	-11.7902
puncture	-11.7903
▁reader	-11.7905
▁holidays	-11.7909
▁mechanics	-11.7909
▁traitors	-11.7909
▁bandits	-11.7909
▁interrogations	-11.7909
▁retards	-11.791
illy	-11.7913
▁anda	-11.7913
▁ind	-11.7925
▁iv	-11.7928
tory	-11.7937
▁vert	-11.7939
▁suited	-11.7941
▁ching	-11.795
▁humans	-11.7955
▁roots	-11.7955
▁rely	-11.7957
▁materials	-11.7957
▁adults	-11.7957
▁inmates	-11.7957
▁investments	-11.7957
▁defendants	-11.7958
▁apartments	-11.7958
woods	-11.7963
lain	-11.7967
▁vis	-11.7968
▁rei	-11.7968
▁esc	-11.797
▁antw	-11.7973
▁notre	-11.7973
▁davey	-11.7977
▁stared	-11.7982
▁displa	-11.7986
▁dur	-11.7989
▁danced	-11.7996
▁baba	-11.7997
▁accounting	-11.7999
▁fuckups	-11.8002
▁superiors	-11.8006
▁doss	-11.8017
▁accepting	-11.8017
▁imper	-11.8022
▁suspense	-11.8023
▁morris	-11.8023
▁smokes	-11.8023
▁askin	-11.8028
▁tags	-11.8031
▁feelin	-11.8033
pens	-11.8033
▁lightly	-11.8035
ium	-11.8037
▁peters	-11.804
▁rung	-11.8046
▁presents	-11.8053
▁pissing	-11.8055
▁troopers	-11.8058
▁billions	-11.8063
▁painter	-11.8069
nha	-11.8069
▁warming	-11.807
litter	-11.8071
▁anton	-11.8075
▁precisa	-11.808
▁pickin	-11.8081
boom	-11.8089
▁ber	-11.8095
▁habits	-11.8104
▁edges	-11.8104
▁rags	-11.8106
uts	-11.8113
dded	-11.812
▁cau	-11.8123
▁christen	-11.8132
▁distinct	-11.8132
▁lass	-11.8133
▁iate	-11.8141
nny	-11.8148
▁assassins	-11.8159
▁vien	-11.8165
sfield	-11.8168
▁homem	-11.8169
▁vega	-11.818
▁meetings	-11.8184
paid	-11.8184
▁pisser	-11.8186
▁shaws	-11.8203
▁samples	-11.8203
▁operates	-11.8205
▁fails	-11.8207
▁passions	-11.8208
ines	-11.8212
jam	-11.8237
▁yumm	-11.8244
▁slims	-11.8248
▁explosions	-11.8253
▁morons	-11.8253
▁effects	-11.8254
▁threats	-11.8254
▁scars	-11.8255
▁poles	-11.8257
▁irr	-11.8261
▁dumps	-11.8262
▁docs	-11.8263
▁fatal	-11.8264
▁whi	-11.8268
ln	-11.828
▁dressing	-11.8283
ability	-11.8287
▁hol	-11.8288
▁dias	-11.8298
▁beautifully	-11.8302
▁divisions	-11.8303
▁possessions	-11.8303
▁pipes	-11.8304
▁chim	-11.8306
▁interrogat	-11.8309
▁arrives	-11.8311
ort	-11.8312
tor	-11.8313
▁rott	-11.8314
▁masters	-11.832
▁volta	-11.8321
▁botti	-11.8328
ker	-11.833
eram	-11.833
blin	-11.8347
▁bankers	-11.8347
▁ger	-11.835
▁lanes	-11.8353
▁tru	-11.8353
nico	-11.8355
▁exc	-11.8357
▁atr	-11.8359
▁stu	-11.8361
alliste	-11.8362
▁flyer	-11.8363
▁we	-11.8371
ogg	-11.8378
▁teachers	-11.8379
▁inconvenience	-11.8379
pse	-11.8379
▁grieve	-11.8386
rlng	-11.8394
erate	-11.8401
▁crunch	-11.8403
▁num	-11.8404
apple	-11.8414
ani	-11.8415
▁slowed	-11.8418
▁minist	-11.8424
▁alas	-11.843
udge	-11.844
stein	-11.8444
▁halls	-11.845
▁experts	-11.8453
▁bricks	-11.8453
▁moods	-11.8456
▁believer	-11.8471
story	-11.8485
cing	-11.8487
▁towns	-11.8488
slidy	-11.8495
gate	-11.8496
moan	-11.8497
▁trim	-11.8498
▁sings	-11.8499
▁baths	-11.8503
▁commend	-11.8503
▁shines	-11.8504
▁drawings	-11.8505
▁disappears	-11.8507
▁quarters	-11.8509
▁nov	-11.8542
vy	-11.8545
▁lash	-11.8547
▁wigg	-11.8549
▁champions	-11.8555
▁spiders	-11.8555
▁purposes	-11.8556
▁abra	-11.8557
▁gua	-11.8568
▁pic	-11.8581
▁keeper	-11.8587
▁chains	-11.8597
▁slips	-11.8602
▁specialize	-11.8604
▁bedrooms	-11.8606
auf	-11.8607
▁defian	-11.8611
▁birdie	-11.8616
▁wea	-11.8647
▁browns	-11.8656
▁emp	-11.8667
▁barri	-11.8685
onald	-11.8687
fatso	-11.8706
▁badges	-11.8709
▁friggin	-11.8715
▁mod	-11.872
tract	-11.873
▁chr	-11.8751
▁caesars	-11.8762
▁escapes	-11.8762
onic	-11.8764
▁anal	-11.8766
▁ped	-11.8768
rick	-11.8775
▁whwh	-11.8783
gar	-11.8783
▁jumper	-11.8787
lding	-11.8801
acked	-11.8802
▁profits	-11.8808
▁coats	-11.882
sandra	-11.8825
▁northwest	-11.883
▁intrud	-11.8835
mor	-11.8835
gers	-11.8839
disposed	-11.8843
▁spreads	-11.8864
ened	-11.8868
▁suggests	-11.8873
▁kr	-11.8873
▁excused	-11.888
ior	-11.8883
▁ceases	-11.8915
▁pots	-11.8929
▁gan	-11.893
iff	-11.8936
▁hast	-11.8945
▁jacked	-11.8952
ummy	-11.8972
▁physic	-11.8978
lines	-11.898
ap	-11.8983
nos	-11.8987
any	-11.8989
▁yous	-11.8993
▁fli	-11.8994
rah	-11.8995
mission	-11.9005
cer	-11.9006
▁wei	-11.9007
▁some	-11.9023
there	-11.9037
▁canc	-11.9051
sky	-11.9052
umble	-11.9062
tus	-11.9068
worth	-11.9071
ility	-11.9074
eers	-11.911
▁liars	-11.9126
▁roulets	-11.9127
▁shu	-11.913
anc	-11.9148
▁mam	-11.9152
rig	-11.9177
cede	-11.9198
▁instrument	-11.9207
▁macs	-11.9207
▁quest	-11.9211
zel	-11.9218
▁showers	-11.9219
▁floors	-11.9226
▁weekends	-11.9234
▁falt	-11.9252
ater	-11.9253
fui	-11.9273
▁damnit	-11.9278
▁shirts	-11.9287
▁statements	-11.9292
ttes	-11.9302
ira	-11.9305
▁intrude	-11.9329
fuii	-11.9341
▁wardens	-11.9344
▁guarantees	-11.9395
▁strikes	-11.9397
where	-11.9403
▁mili	-11.9408
▁newly	-11.941
wind	-11.9419
dge	-11.9425
▁artistic	-11.9447
▁crews	-11.9456
▁passa	-11.947
ppy	-11.9472
▁pon	-11.9478
pau	-11.9481
▁clo	-11.949
alone	-11.9497
▁acredita	-11.9503
▁prat	-11.9505
ega	-11.9513
▁bounc	-11.9526
poo	-11.9538
range	-11.9545
dos	-11.9553
gree	-11.957
▁corners	-11.9571
edric	-11.9589
▁wherea	-11.9596
▁haste	-11.9613
yearold	-11.9628
iche	-11.9641
hoo	-11.9661
▁mock	-11.9666
▁spaces	-11.9668
▁cav	-11.9695
▁guessed	-11.971
▁cro	-11.9713
enz	-11.9719
▁grows	-11.9724
far	-11.9727
tate	-11.9757
bora	-11.977
▁quarte	-11.9772
cal	-11.9775
sters	-11.9776
▁cups	-11.9783
▁cakes	-11.9794
rite	-11.9796
▁def	-11.9812
▁funk	-11.9821
▁pod	-11.9822
ussi	-11.9825
nable	-11.9826
took	-11.9829
▁noises	-11.9835
ving	-11.9859
net	-11.9873
indo	-11.9881
ami	-11.9881
lar	-11.9883
▁cho	-11.9889
here	-11.989
▁stag	-11.9899
olo	-11.9901
ovo	-11.9909
sure	-11.9931
pid	-11.9943
▁fui	-11.9954
nies	-11.9959
inny	-11.9964
▁visits	-11.9964
▁mira	-11.997
▁longe	-11.9973
▁ki	-11.9982
▁shitface	-11.9984
▁conserv	-11.9997
bbed	-12.0005
▁mango	-12.0018
agin	-12.0041
mont	-12.0043
▁heavens	-12.0059
boo	-12.0065
▁execut	-12.007
inch	-12.0078
okie	-12.0081
▁minis	-12.0085
fore	-12.0093
▁luc	-12.011
▁shakes	-12.0117
▁seein	-12.0119
▁unc	-12.0121
▁raisin	-12.0122
▁pil	-12.0125
abel	-12.0132
eja	-12.0155
▁slit	-12.018
aki	-12.0189
▁bor	-12.0203
unction	-12.0204
tica	-12.0211
▁dishonor	-12.0213
▁turner	-12.0226
vised	-12.0239
▁peg	-12.0282
zero	-12.0291
tly	-12.0323
▁lace	-12.0326
▁cruci	-12.0334
▁systems	-12.0345
ppie	-12.0348
minded	-12.0358
▁rosa	-12.037
noir	-12.0373
▁vibrat	-12.0374
▁swo	-12.0378
▁eli	-12.0388
owski	-12.0403
ttle	-12.0408
bab	-12.0434
youre	-12.0438
▁presi	-12.0452
oma	-12.0527
ionist	-12.053
stakes	-12.0537
▁lact	-12.0537
▁operati	-12.0537
zy	-12.0554
sher	-12.0555
hl	-12.0556
they	-12.0564
linger	-12.0572
rous	-12.0579
cial	-12.0587
gias	-12.0595
▁laure	-12.0599
▁chari	-12.0607
ucky	-12.0625
▁cran	-12.0626
span	-12.0633
▁electr	-12.0649
▁sto	-12.0662
rod	-12.0662
▁riv	-12.067
fer	-12.067
bid	-12.0677
lc	-12.0679
▁sigh	-12.0684
▁harve	-12.0695
rained	-12.0695
bone	-12.0695
raine	-12.0699
ube	-12.0701
▁sav	-12.0701
▁tro	-12.071
▁footprint	-12.0711
▁privilege	-12.0711
▁container	-12.0711
▁bruise	-12.0711
▁reel	-12.0713
▁thud	-12.0714
▁trippin	-12.0714
▁vill	-12.0716
ained	-12.0717
▁pearl	-12.0717
▁fabric	-12.0719
▁grenade	-12.072
▁vital	-12.0721
▁phon	-12.0722
▁maggot	-12.0723
▁limb	-12.0725
▁prevail	-12.0726
▁resource	-12.0726
▁warrior	-12.0726
▁method	-12.0726
▁neighbour	-12.0728
▁coroner	-12.0728
▁chemical	-12.0729
wards	-12.073
▁firearm	-12.073
▁explo	-12.0732
▁politician	-12.0733
▁celtic	-12.0734
▁height	-12.0735
▁stack	-12.0735
▁oldtimer	-12.0737
▁stray	-12.0741
▁bustin	-12.0742
act	-12.0748
▁tenant	-12.0749
▁span	-12.075
▁folk	-12.075
▁gaz	-12.0751
▁dinin	-12.0754
▁teamster	-12.0756
pulsive	-12.0756
▁fil	-12.0757
▁billboard	-12.0767
▁flank	-12.0769
▁peck	-12.0771
▁ammo	-12.0776
▁regime	-12.0777
▁herm	-12.0778
unks	-12.078
keep	-12.0782
▁steven	-12.079
▁preach	-12.0792
forms	-12.0795
uties	-12.0801
▁ante	-12.0801
rched	-12.0803
▁refus	-12.0805
spirations	-12.0806
▁prepar	-12.0809
▁devo	-12.0813
body	-12.0814
real	-12.0815
▁depart	-12.0816
▁sentiment	-12.0816
▁bomber	-12.0817
▁shortie	-12.0818
▁homicid	-12.0819
cav	-12.0821
with	-12.0821
stand	-12.0821
▁snag	-12.0827
▁sacr	-12.083
▁scrub	-12.0831
uti	-12.0832
▁contradict	-12.0832
interrupted	-12.0833
brew	-12.0834
▁lever	-12.0835
liability	-12.0836
long	-12.0836
fold	-12.0836
trained	-12.0836
craz	-12.0837
stead	-12.0837
cream	-12.0837
cloth	-12.0837
donna	-12.0838
burn	-12.0838
grim	-12.0838
▁intrigu	-12.0838
craft	-12.0839
employment	-12.0839
punish	-12.0839
structure	-12.0839
chocolate	-12.0839
blade	-12.0839
kidnapping	-12.084
campo	-12.084
limit	-12.084
teacher	-12.084
grown	-12.084
fall	-12.084
whip	-12.084
weather	-12.084
spread	-12.084
fifty	-12.084
write	-12.084
bitch	-12.084
girlfriend	-12.0841
broken	-12.0841
smith	-12.0841
horse	-12.0841
million	-12.0841
knock	-12.0841
penny	-12.0841
help	-12.0841
black	-12.0841
front	-12.0841
trial	-12.0841
▁promis	-12.0841
steak	-12.0842
▁introduc	-12.0842
helm	-12.0843
license	-12.0843
pilot	-12.0843
▁retir	-12.0843
bomb	-12.0843
slow	-12.0844
type	-12.0844
bon	-12.0844
▁retreat	-12.0844
fast	-12.0845
finger	-12.0845
beth	-12.0847
fat	-12.0847
▁clink	-12.0847
fever	-12.0847
▁shush	-12.0848
fuckin	-12.0848
pool	-12.0849
prop	-12.0849
▁forfeit	-12.0849
▁manifest	-12.0849
▁intercept	-12.0849
maid	-12.0851
today	-12.0851
▁indict	-12.0851
▁sustain	-12.0852
▁devastat	-12.0852
▁encounter	-12.0852
▁establish	-12.0854
▁brea	-12.0856
▁amuse	-12.0858
▁abst	-12.0858
▁yak	-12.0858
comin	-12.0859
ware	-12.0861
▁rhyme	-12.0861
▁calculate	-12.0862
▁laud	-12.0862
▁explode	-12.0864
▁lodge	-12.0864
▁cours	-12.0865
▁entitle	-12.0865
dust	-12.0866
▁presum	-12.0866
▁spec	-12.0866
▁capture	-12.0866
pire	-12.0866
dont	-12.0866
▁thudd	-12.0866
cla	-12.0866
▁serv	-12.0867
▁thirst	-12.0867
sec	-12.0869
wit	-12.0869
kill	-12.0869
standing	-12.087
▁frau	-12.087
dale	-12.087
▁alm	-12.0871
▁rabi	-12.0871
▁treach	-12.0871
oods	-12.0872
▁exhibit	-12.0872
▁jav	-12.0874
istine	-12.0874
▁consegu	-12.0874
parag	-12.0875
▁crow	-12.0875
tors	-12.0875
▁stev	-12.0876
▁libert	-12.0876
ulate	-12.0877
entials	-12.0877
▁rang	-12.0877
▁notar	-12.0877
aaaa	-12.0877
▁lyric	-12.0877
buk	-12.0878
▁sensation	-12.0878
▁trump	-12.0878
▁poke	-12.0878
▁spark	-12.0879
xtradition	-12.0879
▁origin	-12.0879
birds	-12.0879
▁cooperati	-12.088
burg	-12.088
▁klein	-12.088
▁toke	-12.088
▁ouvi	-12.088
▁blush	-12.088
▁colomb	-12.088
▁aggravat	-12.088
▁grove	-12.088
▁winnin	-12.088
▁lovin	-12.0881
▁remorse	-12.0881
gum	-12.0881
occo	-12.0881
▁jingl	-12.0881
▁tutt	-12.0881
▁kiddin	-12.0882
▁outrage	-12.0882
flake	-12.0882
▁georgie	-12.0882
▁gaggi	-12.0882
▁coiombia	-12.0882
▁especia	-12.0882
zzar	-12.0882
▁franchi	-12.0882
▁unbea	-12.0883
▁apollo	-12.0883
▁argentin	-12.0883
▁prelim	-12.0883
bottoms	-12.0883
conspirators	-12.0883
disqualification	-12.0883
ofcolortorturing	-12.0883
rrhea	-12.0883
▁absolve	-12.0883
▁acabou	-12.0883
▁accrue	-12.0883
▁acknowledge	-12.0883
▁adrien	-12.0883
▁afastese	-12.0883
▁affidavit	-12.0883
▁ajuda	-12.0883
▁ajudem	-12.0883
▁alexandre	-12.0883
▁allegiance	-12.0883
▁altercation	-12.0883
▁altogether	-12.0883
▁amnesty	-12.0883
▁annmargret	-12.0883
▁antarctic	-12.0883
▁anxiety	-12.0883
▁aristocrat	-12.0883
▁armstrong	-12.0883
▁arraignment	-12.0883
▁artichoke	-12.0883
▁avalanche	-12.0883
▁avenge	-12.0883
▁babyjoel	-12.0883
▁bacchanal	-12.0883
▁bankrupt	-12.0883
▁barragem	-12.0883
▁bartholomew	-12.0883
▁bathtub	-12.0883
▁beauchamp	-12.0883
▁beaufoy	-12.0883
▁behaviour	-12.0883
▁bickering	-12.0883
▁blaspheme	-12.0883
▁blasphemy	-12.0883
▁blossom	-12.0883
▁bocce	-12.0883
▁bogdanovich	-12.0883
▁bonasera	-12.0883
▁bouquet	-12.0883
▁brendan	-12.0883
▁brilliance	-12.0883
▁bullettooth	-12.0883
▁bundle	-12.0883
▁bunnies	-12.0883
▁bypass	-12.0883
▁catania	-12.0883
▁certeza	-12.0883
▁charlene	-12.0883
▁charlotte	-12.0883
▁chiidren	-12.0883
▁chinchilla	-12.0883
▁chitchat	-12.0883
▁cholesterol	-12.0883
▁chopchop	-12.0883
▁ciothes	-12.0883
▁civic	-12.0883
▁cognac	-12.0883
▁collision	-12.0883
▁commonwealth	-12.0883
▁comprimidos	-12.0883
▁concentrating	-12.0883
▁confusing	-12.0883
▁congratulat	-12.0883
▁consolidat	-12.0883
▁contigo	-12.0883
▁convulsion	-12.0883
▁cormier	-12.0883
▁counsellor	-12.0883
▁coworkers	-12.0883
▁craftsmanship	-12.0883
▁creativity	-12.0883
▁creedence	-12.0883
▁crescendo	-12.0883
▁crossroads	-12.0883
▁cucombre	-12.0883
▁cynthia	-12.0883
▁decapitat	-12.0883
▁defensive	-12.0883
▁demonstration	-12.0883
▁desperation	-12.0883
▁devotchka	-12.0883
▁dirosa	-12.0883
▁discount	-12.0883
▁dishwasher	-12.0883
▁disrupt	-12.0883
▁dixie	-12.0883
▁duality	-12.0883
▁editor	-12.0883
▁eivie	-12.0883
▁emilio	-12.0883
▁emphasis	-12.0883
▁enquanto	-12.0883
▁enthusias	-12.0883
▁equilibrium	-12.0883
▁erect	-12.0883
▁espresso	-12.0883
▁estranged	-12.0883
▁estranho	-12.0883
▁excusezmoi	-12.0883
▁expansion	-12.0883
▁expend	-12.0883
▁exquisite	-12.0883
▁extensive	-12.0883
▁facetoface	-12.0883
▁fairvale	-12.0883
▁fawkes	-12.0883
▁feinberg	-12.0883
▁fenway	-12.0883
▁fetish	-12.0883
▁fonzie	-12.0883
▁foremost	-12.0883
▁fouet	-12.0883
▁franz	-12.0883
▁furnace	-12.0883
▁gemmill	-12.0883
▁generosity	-12.0883
▁gitmo	-12.0883
▁gmac	-12.0883
▁gnarly	-12.0883
▁google	-12.0883
▁gracchus	-12.0883
▁grammar	-12.0883
▁gratitude	-12.0883
▁gribbs	-12.0883
▁grimsrud	-12.0883
▁gustafson	-12.0883
▁haggling	-12.0883
▁hammock	-12.0883
▁harassment	-12.0883
▁harbour	-12.0883
▁harlequin	-12.0883
▁hawaii	-12.0883
▁hazelnut	-12.0883
▁heaith	-12.0883
▁hillbilly	-12.0883
▁hospitai	-12.0883
▁hyena	-12.0883
▁hygiene	-12.0883
▁impulse	-12.0883
▁incapable	-12.0883
▁incinerat	-12.0883
▁inclined	-12.0883
▁incompeten	-12.0883
▁injustice	-12.0883
▁inoculate	-12.0883
▁insignia	-12.0883
▁intersection	-12.0883
▁intervention	-12.0883
▁intimacy	-12.0883
▁invasion	-12.0883
▁invincible	-12.0883
▁irregular	-12.0883
▁isolation	-12.0883
▁jasmine	-12.0883
▁jeopardiz	-12.0883
▁joshua	-12.0883
▁kampf	-12.0883
▁kearns	-12.0883
▁kendricks	-12.0883
▁klingman	-12.0883
▁kneecap	-12.0883
▁kurlen	-12.0883
▁kuznetsov	-12.0883
▁kyoami	-12.0883
▁landlady	-12.0883
▁lankford	-12.0883
▁lennon	-12.0883
▁lilliman	-12.0883
▁livro	-12.0883
▁ludicrous	-12.0883
▁lumber	-12.0883
▁lynch	-12.0883
▁mainframe	-12.0883
▁mandatory	-12.0883
▁maneuver	-12.0883
▁masturbat	-12.0883
▁mcneil	-12.0883
▁mellow	-12.0883
▁mercenary	-12.0883
▁methadone	-12.0883
▁meticulous	-12.0883
▁milwaukee	-12.0883
▁miscalculation	-12.0883
▁miscarriage	-12.0883
▁misunderstand	-12.0883
▁mohra	-12.0883
▁monaldi	-12.0883
▁motorcade	-12.0883
▁naehring	-12.0883
▁necrot	-12.0883
▁neighing	-12.0883
▁nenhum	-12.0883
▁nuhuh	-12.0883
▁nuisance	-12.0883
▁nypd	-12.0883
▁oatmeal	-12.0883
▁oblongata	-12.0883
▁obrien	-12.0883
▁obtuse	-12.0883
▁okeydoke	-12.0883
▁opponent	-12.0883
▁orgasm	-12.0883
▁osidius	-12.0883
▁oswald	-12.0883
▁overweight	-12.0883
▁paddington	-12.0883
▁pakistan	-12.0883
▁palazzo	-12.0883
▁pappas	-12.0883
▁participation	-12.0883
▁patricia	-12.0883
▁pederast	-12.0883
▁peggeleh	-12.0883
▁penelope	-12.0883
▁perjury	-12.0883
▁pfft	-12.0883
▁pickpocket	-12.0883
▁platinum	-12.0883
▁proprietor	-12.0883
▁prospect	-12.0883
▁psychiatry	-12.0883
▁publish	-12.0883
▁pulp	-12.0883
▁pyramids	-12.0883
▁quaalude	-12.0883
▁quarantine	-12.0883
▁questadt	-12.0883
▁questionnaire	-12.0883
▁realizing	-12.0883
▁reassigned	-12.0883
▁receptor	-12.0883
▁recipient	-12.0883
▁reincarnation	-12.0883
▁rendezvous	-12.0883
▁renegotiat	-12.0883
▁restructuring	-12.0883
▁retrieve	-12.0883
▁reynaldo	-12.0883
▁rosebud	-12.0883
▁rothschild	-12.0883
▁ruptur	-12.0883
▁sabrina	-12.0883
▁sadducee	-12.0883
▁sanatarium	-12.0883
▁saratoga	-12.0883
▁sarcasm	-12.0883
▁sarzana	-12.0883
▁satisfy	-12.0883
▁saurel	-12.0883
▁scaffold	-12.0883
▁scapegoat	-12.0883
▁scholar	-12.0883
▁scribbling	-12.0883
▁sculpt	-12.0883
▁seclusion	-12.0883
▁secrecy	-12.0883
▁sideroads	-12.0883
▁siegfried	-12.0883
▁simultaneous	-12.0883
▁skeleton	-12.0883
▁sneezes	-12.0883
▁stacey	-12.0883
▁staircase	-12.0883
▁steensma	-12.0883
▁steroids	-12.0883
▁stranded	-12.0883
▁sturdy	-12.0883
▁subterfuge	-12.0883
▁suicida	-12.0883
▁sunglasses	-12.0883
▁supermarket	-12.0883
▁sweatshirt	-12.0883
▁sybil	-12.0883
▁sycamore	-12.0883
▁symptom	-12.0883
▁synagogue	-12.0883
▁tanqueray	-12.0883
▁tarzan	-12.0883
▁taxicab	-12.0883
▁thompson	-12.0883
▁tompson	-12.0883
▁tsurumaru	-12.0883
▁twilight	-12.0883
▁undermine	-12.0883
▁unleash	-12.0883
▁unrepentant	-12.0883
▁uzi	-12.0883
▁varmint	-12.0883
▁veterinarian	-12.0883
▁vocalizing	-12.0883
▁vodka	-12.0883
▁widget	-12.0883
▁wrench	-12.0883
▁yanagita	-12.0883
destructi	-12.0883
mbrava	-12.0883
▁antisemit	-12.0883
▁cherish	-12.0883
▁cinna	-12.0883
▁defeat	-12.0883
▁hydra	-12.0883
▁liquef	-12.0883
▁obituar	-12.0883
▁rejoin	-12.0883
▁shtunk	-12.0883
▁smirk	-12.0883
▁survey	-12.0883
ghett	-12.0883
▁abusive	-12.0883
▁baffle	-12.0883
▁benevolen	-12.0883
▁camille	-12.0883
▁cereal	-12.0883
▁conform	-12.0883
▁dexter	-12.0883
▁dignity	-12.0883
▁domum	-12.0883
▁fierce	-12.0883
▁gasoline	-12.0883
▁ghast	-12.0883
▁giddy	-12.0883
▁ignite	-12.0883
▁kathy	-12.0883
▁keypad	-12.0883
▁kiios	-12.0883
▁liaison	-12.0883
▁lisbon	-12.0883
▁maintenance	-12.0883
▁mexa	-12.0883
▁oblivio	-12.0883
▁pastrami	-12.0883
▁pendant	-12.0883
▁pooch	-12.0883
▁radisson	-12.0883
▁reptile	-12.0883
▁scalp	-12.0883
▁schillings	-12.0883
▁showmanship	-12.0883
▁superstitious	-12.0883
▁terrace	-12.0883
▁turnbull	-12.0883
▁turret	-12.0883
▁yokel	-12.0883
responsibilities	-12.0883
▁alaba	-12.0883
▁boppers	-12.0883
▁camila	-12.0883
▁eliminate	-12.0883
▁fluids	-12.0883
▁glimmer	-12.0883
▁lanka	-12.0883
▁lraq	-12.0883
▁mhm	-12.0883
▁reginald	-12.0883
▁sibley	-12.0883
▁slander	-12.0883
▁sushi	-12.0883
▁suspe	-12.0883
▁tumbling	-12.0883
▁vivo	-12.0883
ltimo	-12.0883
▁accumulat	-12.0883
▁classmates	-12.0883
▁cycle	-12.0883
▁fortress	-12.0883
▁ibm	-12.0883
▁mongoloid	-12.0883
▁outdoors	-12.0883
▁pneumonia	-12.0883
▁ripple	-12.0883
▁whitman	-12.0883
dammit	-12.0883
▁billiards	-12.0883
▁communion	-12.0883
▁nastiness	-12.0883
▁scientists	-12.0883
▁tavern	-12.0883
▁utopia	-12.0883
▁adios	-12.0883
▁expia	-12.0883
▁oppress	-12.0883
▁restrictions	-12.0883
▁insolen	-12.0883
▁pioneer	-12.0883
▁biood	-12.0883
▁catastroph	-12.0883
▁inevitab	-12.0883
▁obrigada	-12.0883
▁rerout	-12.0883
▁spouse	-12.0883
▁crops	-12.0883
▁ethics	-12.0883
▁substantial	-12.0883
▁vinegar	-12.0883
▁amari	-12.0883
▁apologise	-12.0883
▁camelhair	-12.0883
▁dedication	-12.0883
▁desecrat	-12.0883
▁eldest	-12.0883
▁multitude	-12.0883
▁pollack	-12.0883
▁porsche	-12.0883
▁retort	-12.0883
▁wrinkl	-12.0883
crimina	-12.0883
▁btn	-12.0883
▁convey	-12.0883
▁sketch	-12.0883
▁thorns	-12.0883
▁aisle	-12.0883
▁gimmick	-12.0883
▁jigg	-12.0883
▁kosher	-12.0883
▁natalie	-12.0883
▁radiator	-12.0883
▁containing	-12.0883
▁evasion	-12.0883
▁pecado	-12.0883
▁practising	-12.0883
▁dormindo	-12.0883
▁honda	-12.0883
▁humiliating	-12.0883
▁iosing	-12.0883
▁mccowan	-12.0883
▁particle	-12.0883
▁reinforcements	-12.0883
▁sasha	-12.0883
▁scro	-12.0883
▁witchcraft	-12.0883
▁amusing	-12.0883
▁ascertain	-12.0883
▁sieve	-12.0883
▁skyrocket	-12.0883
ectomy	-12.0883
▁jujitsu	-12.0883
▁drape	-12.0883
▁floppy	-12.0883
▁proverb	-12.0883
▁staple	-12.0883
▁consolation	-12.0883
▁pinstripe	-12.0883
▁sawedoff	-12.0883
▁grumble	-12.0883
▁medell	-12.0883
▁scroung	-12.0883
▁bootleg	-12.0883
▁disqualified	-12.0883
▁meucci	-12.0883
▁pesos	-12.0883
tagoni	-12.0883
zhei	-12.0883
▁chlor	-12.0883
▁separation	-12.0883
▁mammy	-12.0883
▁slau	-12.0883
▁hanna	-12.0883
▁requirements	-12.0883
▁drakes	-12.0883
▁renown	-12.0883
▁visible	-12.0883
▁chemistry	-12.0883
▁soothe	-12.0883
▁speedboat	-12.0883
▁exploding	-12.0883
▁mutilati	-12.0883
▁rampart	-12.0883
▁indirect	-12.0883
▁missiles	-12.0883
▁coiombians	-12.0883
▁obscene	-12.0883
▁resent	-12.0883
▁stunned	-12.0883
▁derail	-12.0883
▁phuuc	-12.0883
▁trough	-12.0883
▁upperclass	-12.0883
▁domus	-12.0883
▁moresque	-12.0883
▁flex	-12.0883
▁wrongdoing	-12.0883
▁dummies	-12.0883
▁gaff	-12.0883
▁libra	-12.0883
▁bugged	-12.0883
▁fritz	-12.0883
▁homophobic	-12.0883
▁tulip	-12.0883
▁congress	-12.0883
▁stoning	-12.0883
▁clinton	-12.0883
▁hustling	-12.0883
▁phenomenon	-12.0883
▁berlin	-12.0883
▁uptown	-12.0883
▁whiff	-12.0883
▁afghanis	-12.0883
▁cashiers	-12.0883
▁pastels	-12.0883
coded	-12.0883
▁before	-12.0883
▁cooperating	-12.0883
▁fartface	-12.0883
▁nominati	-12.0883
▁chazer	-12.0883
▁maldade	-12.0883
▁mopping	-12.0883
▁poppy	-12.0883
▁erotic	-12.0883
▁probation	-12.0883
▁bailiff	-12.0883
▁chubby	-12.0883
▁coochie	-12.0883
▁vermont	-12.0883
▁gps	-12.0883
▁qualities	-12.0883
▁reschedule	-12.0883
▁snore	-12.0883
conclusive	-12.0883
▁smokin	-12.0883
▁segre	-12.0883
▁spoii	-12.0883
▁madonna	-12.0883
▁kristo	-12.0883
▁muslim	-12.0883
▁rivalry	-12.0883
▁cherie	-12.0883
▁ciose	-12.0883
▁libary	-12.0883
▁pacifism	-12.0883
▁sylvia	-12.0883
▁bahamas	-12.0883
▁columbia	-12.0883
▁trustees	-12.0883
▁purgat	-12.0884
▁teeny	-12.0884
▁inaudible	-12.0884
▁notified	-12.0884
▁muzzle	-12.0884
▁excitement	-12.0884
▁arctic	-12.0884
▁hunchback	-12.0884
▁overtake	-12.0884
▁plaster	-12.0884
ventilat	-12.0884
▁bertra	-12.0884
▁petition	-12.0884
▁scienti	-12.0884
▁purge	-12.0884
▁hermit	-12.0884
▁glance	-12.0884
▁poof	-12.0884
▁edith	-12.0884
▁imported	-12.0884
▁fortnight	-12.0884
▁verified	-12.0884
▁ederer	-12.0884
▁prosperous	-12.0884
▁abso	-12.0884
▁pegged	-12.0884
▁sandbag	-12.0884
▁orca	-12.0884
▁materialize	-12.0884
▁breen	-12.0884
▁notebook	-12.0884
▁hks	-12.0884
▁password	-12.0884
▁ponte	-12.0884
▁blindfold	-12.0884
▁dtown	-12.0884
▁coincide	-12.0884
▁greg	-12.0884
▁policies	-12.0884
▁chapel	-12.0884
▁tickling	-12.0884
▁fauit	-12.0884
▁walser	-12.0884
▁supervision	-12.0884
▁vacancies	-12.0884
▁xana	-12.0884
▁forehead	-12.0884
▁blend	-12.0884
▁gabriella	-12.0884
▁columbus	-12.0884
▁lawsuit	-12.0884
▁fiat	-12.0884
▁steep	-12.0884
▁marlin	-12.0884
▁translation	-12.0884
▁batshit	-12.0884
▁inhaler	-12.0884
▁quaker	-12.0884
▁ronda	-12.0884
▁edition	-12.0884
▁liquidate	-12.0884
▁shitshow	-12.0884
▁cremat	-12.0884
▁morrer	-12.0884
▁fiend	-12.0884
▁bidding	-12.0884
▁gravity	-12.0885
▁clarity	-12.0885
▁ruling	-12.0885
▁sealant	-12.0885
▁tumble	-12.0885
▁overrun	-12.0885
▁confer	-12.0885
▁earpiece	-12.0885
▁corro	-12.0885
▁moses	-12.0885
▁interla	-12.0885
▁polar	-12.0885
▁iphone	-12.0885
▁shaman	-12.0885
▁evaluation	-12.0885
▁zubrowka	-12.0885
▁motherfuck	-12.0885
▁rail	-12.0885
▁allright	-12.0885
▁slapped	-12.0885
▁pillow	-12.0885
▁stripped	-12.0885
▁deixo	-12.0885
▁battlefield	-12.0885
▁icon	-12.0885
▁motivation	-12.0885
▁valli	-12.0885
▁cobra	-12.0885
▁blushon	-12.0885
▁ouviu	-12.0885
▁huds	-12.0885
▁powell	-12.0885
▁hilf	-12.0885
▁dislike	-12.0885
▁samaritan	-12.0885
▁whipped	-12.0885
▁ownership	-12.0885
▁forum	-12.0885
▁iunch	-12.0885
▁distributor	-12.0885
▁above	-12.0885
▁fleur	-12.0885
▁graveyard	-12.0885
▁barefoot	-12.0886
▁firefighter	-12.0886
▁sharkey	-12.0886
▁twentytwo	-12.0886
▁strattonite	-12.0886
▁puddin	-12.0886
▁octa	-12.0886
▁arise	-12.0886
▁whiie	-12.0886
▁unarmed	-12.0886
▁adorable	-12.0886
▁withdrawn	-12.0886
▁victorious	-12.0886
▁contribute	-12.0886
▁halfbrother	-12.0886
▁panhandle	-12.0886
▁stump	-12.0886
▁lamberto	-12.0886
▁groove	-12.0886
▁vocat	-12.0886
▁allergies	-12.0886
▁humphries	-12.0886
▁peddle	-12.0886
▁maude	-12.0886
▁cinch	-12.0886
▁ginny	-12.0886
▁sobel	-12.0886
▁gruntlng	-12.0886
▁nonya	-12.0886
▁subver	-12.0886
▁birches	-12.0886
▁dominoes	-12.0886
cham	-12.0886
▁frequency	-12.0886
▁mmmmmm	-12.0887
▁sloth	-12.0887
▁iad	-12.0887
▁anatomy	-12.0887
▁matar	-12.0887
▁rehabilitation	-12.0887
▁iying	-12.0887
▁nip	-12.0887
▁define	-12.0887
▁timid	-12.0887
dorf	-12.0887
▁communicati	-12.0887
▁imply	-12.0887
▁waterfall	-12.0887
▁plunder	-12.0887
▁humpty	-12.0887
▁rebuild	-12.0887
▁slain	-12.0887
give	-12.0887
▁susie	-12.0887
▁committing	-12.0887
▁confirmation	-12.0887
▁memorized	-12.0887
city	-12.0887
▁lobe	-12.0887
▁cess	-12.0887
▁yahoo	-12.0887
▁lyin	-12.0887
▁mentalism	-12.0887
▁sensational	-12.0887
▁preciso	-12.0888
▁remark	-12.0888
▁smii	-12.0888
▁stevenson	-12.0888
▁keel	-12.0888
▁vickers	-12.0888
▁teens	-12.0888
▁buii	-12.0888
mois	-12.0888
▁nomen	-12.0888
▁kang	-12.0888
▁cubic	-12.0888
▁shv	-12.0888
▁accessory	-12.0888
▁ripoff	-12.0888
wear	-12.0888
unton	-12.0889
aaaah	-12.0889
▁fogg	-12.0889
▁nova	-12.0889
▁aerial	-12.0889
▁sophia	-12.0889
▁batch	-12.0889
▁majorca	-12.0889
▁token	-12.0889
uncheon	-12.0889
fthan	-12.0889
▁sham	-12.0889
▁delusional	-12.0889
▁vidal	-12.0889
▁fiim	-12.0889
▁fireplace	-12.0889
▁hebe	-12.0889
▁bribery	-12.0889
▁banished	-12.0889
▁botched	-12.0889
▁discredited	-12.0889
▁sophisticated	-12.0889
▁oyster	-12.0889
▁slightest	-12.089
▁revel	-12.089
▁wither	-12.089
▁pathological	-12.089
▁midst	-12.089
▁potent	-12.089
▁outlaw	-12.089
▁unwise	-12.089
▁twentyone	-12.089
▁whup	-12.089
▁mmmmm	-12.089
▁niggerlov	-12.0891
▁stella	-12.0891
▁summerville	-12.0891
▁senile	-12.0891
▁percentage	-12.0891
▁presti	-12.0891
▁mixup	-12.0891
zig	-12.0891
plugged	-12.0891
▁guardianes	-12.0891
▁panel	-12.0891
▁bead	-12.0891
▁mature	-12.0891
▁homos	-12.0891
▁qualify	-12.0892
▁sideways	-12.0892
▁figuring	-12.0892
▁clacking	-12.0892
ristle	-12.0892
▁wor	-12.0892
▁lesion	-12.0892
▁biow	-12.0892
▁uk	-12.0892
▁duas	-12.0892
▁hometown	-12.0892
▁whim	-12.0892
▁escala	-12.0892
▁snot	-12.0892
▁candyass	-12.0892
▁cuddle	-12.0892
▁brute	-12.0892
▁jody	-12.0892
▁allowance	-12.0892
▁troll	-12.0892
▁whoosh	-12.0893
▁consultation	-12.0893
▁accompan	-12.0893
▁amish	-12.0893
▁trafficking	-12.0893
▁contradiction	-12.0893
▁courtney	-12.0893
▁happier	-12.0893
▁passover	-12.0894
know	-12.0894
▁coco	-12.0894
▁analysis	-12.0894
▁behaving	-12.0894
▁ferocious	-12.0894
▁insanity	-12.0894
▁intellectual	-12.0894
▁reassignment	-12.0894
▁slovenian	-12.0894
▁voluntary	-12.0894
▁wolves	-12.0894
▁significant	-12.0894
▁storehouse	-12.0894
▁russia	-12.0894
▁imperial	-12.0895
▁sax	-12.0895
▁stanley	-12.0895
▁magician	-12.0895
▁valor	-12.0895
▁milan	-12.0895
▁quebra	-12.0896
▁foreigners	-12.0896
▁rally	-12.0896
▁enca	-12.0896
▁squat	-12.0896
▁vroom	-12.0896
▁myers	-12.0896
▁mentality	-12.0896
▁biame	-12.0896
▁damon	-12.0896
▁considerate	-12.0896
▁dekins	-12.0897
▁religion	-12.0897
▁overflow	-12.0897
eep	-12.0897
▁chess	-12.0898
▁compulsive	-12.0898
▁fiddle	-12.0898
▁appraise	-12.0898
arch	-12.0898
▁tommo	-12.0898
▁wedge	-12.0898
▁gland	-12.0899
▁oww	-12.0899
marked	-12.0899
▁yaga	-12.0899
▁mortal	-12.0899
▁singh	-12.0899
▁exhibition	-12.0899
xious	-12.09
▁goofy	-12.09
▁hitters	-12.09
▁colombian	-12.09
▁phony	-12.09
▁bren	-12.09
▁ratted	-12.09
▁yearbook	-12.09
▁troy	-12.09
▁handgun	-12.09
▁zoom	-12.09
ceptible	-12.0901
▁holly	-12.0901
▁baume	-12.0901
▁experimental	-12.0901
emic	-12.0901
▁vene	-12.0902
▁hasty	-12.0902
poppins	-12.0902
▁bayou	-12.0902
▁stitching	-12.0902
▁madhouse	-12.0902
▁exploded	-12.0902
▁mentor	-12.0902
▁exceed	-12.0902
▁slag	-12.0902
▁entre	-12.0902
▁croy	-12.0903
ota	-12.0903
llery	-12.0903
▁stru	-12.0903
▁metres	-12.0903
▁remotely	-12.0903
▁hijo	-12.0903
▁programmed	-12.0903
▁wanjam	-12.0903
▁grabb	-12.0904
▁buono	-12.0904
▁robberies	-12.0904
▁comply	-12.0904
▁capp	-12.0904
▁deste	-12.0904
▁perpetual	-12.0904
▁snappy	-12.0904
▁ramp	-12.0904
▁coverage	-12.0904
▁muita	-12.0904
▁hover	-12.0904
▁sanch	-12.0905
▁francisco	-12.0905
▁claro	-12.0905
▁flock	-12.0905
▁will	-12.0905
▁luco	-12.0906
▁vent	-12.0907
▁splitting	-12.0907
▁deposition	-12.0907
▁mourning	-12.0907
▁stalking	-12.0907
▁warmth	-12.0907
▁atm	-12.0907
▁gau	-12.0908
▁slightly	-12.0908
▁sancho	-12.0908
▁milli	-12.0908
▁portion	-12.0908
▁badgers	-12.0908
▁data	-12.0909
rypt	-12.0909
fuiiy	-12.0909
tamara	-12.0909
tropic	-12.0909
▁fanta	-12.0909
▁rondo	-12.091
igi	-12.091
▁beiieved	-12.091
▁cody	-12.091
▁assets	-12.091
▁bind	-12.091
▁ardel	-12.091
▁apocal	-12.0911
▁spur	-12.0911
▁wept	-12.0911
itary	-12.0911
▁spike	-12.0911
inthe	-12.0912
▁herb	-12.0912
lato	-12.0912
▁mustard	-12.0912
▁dago	-12.0912
▁eunt	-12.0912
▁logan	-12.0912
▁hypnotized	-12.0912
▁soaked	-12.0912
▁intensely	-12.0912
▁cement	-12.0913
▁cristy	-12.0913
▁penetrated	-12.0913
▁lodged	-12.0913
▁devastated	-12.0913
▁encountered	-12.0913
▁sustained	-12.0913
erda	-12.0914
▁peachy	-12.0914
▁estive	-12.0914
▁decoration	-12.0914
▁hait	-12.0914
▁tsk	-12.0914
▁runaway	-12.0915
▁dishonored	-12.0915
▁stacked	-12.0916
fc	-12.0916
▁donation	-12.0916
▁tur	-12.0916
▁prone	-12.0917
▁seventy	-12.0917
▁gino	-12.0917
▁accountable	-12.0917
▁province	-12.0917
▁encouraged	-12.0917
▁smuggled	-12.0918
▁alto	-12.0918
ntage	-12.0918
▁brainwash	-12.0918
tune	-12.0918
lix	-12.0919
▁twofive	-12.0919
▁viewers	-12.0919
▁organizer	-12.0919
▁thai	-12.0919
▁carbone	-12.092
▁lining	-12.0921
▁finite	-12.0921
▁squeaky	-12.0921
▁bluffs	-12.0921
▁cartoons	-12.0921
▁catapults	-12.0921
▁douchebags	-12.0921
▁lemmons	-12.0921
▁muskets	-12.0921
▁sentinels	-12.0921
▁shareholders	-12.0921
▁sonora	-12.0921
hog	-12.0922
▁observed	-12.0922
▁showroom	-12.0922
▁contradicting	-12.0923
▁departing	-12.0923
▁preaching	-12.0923
▁sighing	-12.0924
▁fairness	-12.0924
▁carny	-12.0924
obedience	-12.0924
▁priceless	-12.0925
▁bein	-12.0925
▁vouched	-12.0925
▁diving	-12.0926
▁alien	-12.0926
▁panicking	-12.0926
▁admirer	-12.0927
▁sour	-12.0927
ussel	-12.0928
zendo	-12.0929
▁adventure	-12.093
▁programme	-12.093
▁potentially	-12.0931
▁portal	-12.0931
▁putain	-12.0931
jas	-12.0931
▁instrumental	-12.0931
▁sang	-12.0932
▁skimm	-12.0933
▁piper	-12.0933
▁processes	-12.0933
▁insi	-12.0934
▁weepy	-12.0934
▁gallon	-12.0935
▁chino	-12.0935
▁previously	-12.0935
▁applaud	-12.0936
▁bangin	-12.0936
▁partial	-12.0937
▁limping	-12.0938
▁motivat	-12.0938
▁coloured	-12.0938
▁speciality	-12.0938
▁crest	-12.0938
▁tabie	-12.0938
▁strolled	-12.0939
▁poder	-12.0939
▁olm	-12.0939
▁occurr	-12.094
▁unlikely	-12.094
▁urgently	-12.094
▁bona	-12.094
pis	-12.0941
▁casal	-12.0942
▁vig	-12.0942
▁examined	-12.0944
▁fillin	-12.0946
▁gare	-12.0947
▁payoff	-12.0948
▁smartass	-12.0949
▁briefly	-12.0949
▁stinky	-12.0949
▁brushed	-12.095
▁sup	-12.0951
▁taller	-12.0952
▁peeping	-12.0952
othing	-12.0954
▁colouring	-12.0955
▁investing	-12.0955
▁attending	-12.0955
vision	-12.0956
▁designing	-12.0956
▁viper	-12.0956
▁approved	-12.0957
▁funnie	-12.0958
▁plainly	-12.0958
▁coal	-12.0959
▁sodomize	-12.096
▁presto	-12.0962
▁reit	-12.0962
▁succeeded	-12.0962
▁conquered	-12.0962
▁recommended	-12.0962
▁respiration	-12.0963
▁faintly	-12.0963
▁spooky	-12.0964
▁shutting	-12.0965
▁cursed	-12.0965
▁litter	-12.0965
▁stopover	-12.0966
▁server	-12.0967
▁pilch	-12.0968
▁famii	-12.0969
▁horrifi	-12.097
▁hollering	-12.0971
▁squish	-12.0972
▁cui	-12.0973
▁fairies	-12.0974
▁mph	-12.0974
▁stashed	-12.0974
ouve	-12.0974
▁medo	-12.0976
▁readout	-12.0976
▁irony	-12.0976
▁tory	-12.0977
▁greased	-12.0977
▁org	-12.0978
▁disguised	-12.0979
▁savio	-12.0979
▁separated	-12.0979
ista	-12.0979
▁casing	-12.098
▁encontra	-12.098
▁mat	-12.098
▁beaner	-12.0984
▁scot	-12.0984
▁them	-12.0986
▁pam	-12.0986
▁sud	-12.0986
▁stealin	-12.0986
▁fouled	-12.0987
▁threeway	-12.0987
▁dancer	-12.0987
▁toffs	-12.0988
▁clangs	-12.0988
▁threads	-12.0988
▁eightyearolds	-12.0988
▁episodes	-12.0988
▁vibes	-12.0988
▁jug	-12.0988
▁obligations	-12.0988
▁survivors	-12.0988
▁wails	-12.0988
▁roars	-12.0988
▁poachers	-12.099
▁skilled	-12.099
▁astro	-12.099
▁operated	-12.0991
▁misty	-12.0992
depress	-12.0992
▁airlines	-12.0992
▁dantes	-12.0992
oble	-12.0992
▁youngsters	-12.0993
▁saps	-12.0998
▁mooch	-12.0999
▁carmen	-12.0999
▁skim	-12.1
▁sonho	-12.1
▁dale	-12.1001
▁wai	-12.1001
▁virtues	-12.1001
▁flamb	-12.1003
▁sodd	-12.1003
▁healing	-12.1003
▁excel	-12.1003
thank	-12.1004
▁legion	-12.1007
▁potter	-12.1007
▁fundo	-12.1007
iving	-12.1008
▁ewing	-12.1009
▁famously	-12.1009
▁wonderin	-12.1009
▁prot	-12.1011
▁flashy	-12.1011
▁pushes	-12.1012
▁likewise	-12.1012
▁hostilit	-12.1012
will	-12.1014
▁manhood	-12.1015
▁bully	-12.1015
▁layin	-12.1016
▁pieased	-12.1018
▁israeli	-12.1018
▁achiever	-12.102
▁desired	-12.102
▁forgiven	-12.102
▁masi	-12.102
▁corrupted	-12.1024
phones	-12.1024
▁smacked	-12.1024
▁borrowed	-12.1024
▁scraped	-12.1027
▁gaze	-12.1028
iiio	-12.1029
▁lax	-12.1031
▁hunk	-12.1031
nor	-12.1033
▁tente	-12.1033
▁chees	-12.1034
▁ofyou	-12.1035
▁mapp	-12.1035
▁recruiting	-12.1035
▁sailing	-12.1036
ups	-12.1039
▁trapez	-12.1039
▁peri	-12.1039
▁simpler	-12.1041
▁processor	-12.1044
hugging	-12.1045
▁matei	-12.1051
▁sparks	-12.1052
▁goof	-12.1056
▁bruises	-12.1057
▁containers	-12.1057
▁privileges	-12.1057
▁pearls	-12.1057
▁strays	-12.1057
▁footprints	-12.1058
▁reels	-12.1058
▁leaned	-12.1059
cott	-12.1061
▁grenades	-12.1061
▁archie	-12.1063
▁sentenced	-12.1065
▁practiced	-12.1065
▁fiddl	-12.1066
▁youngman	-12.1066
▁hen	-12.1068
▁rioting	-12.1069
▁hacked	-12.1069
▁borrowing	-12.1069
▁cater	-12.107
arrow	-12.107
▁wili	-12.1071
▁hijacker	-12.1072
▁mangos	-12.1074
▁queers	-12.1076
▁instruments	-12.1079
▁sala	-12.1081
▁ththat	-12.1081
mia	-12.1084
▁finishes	-12.1084
▁harvest	-12.1085
▁shrinking	-12.1085
▁kiiiing	-12.1085
▁hangin	-12.1085
▁oldtime	-12.1086
cking	-12.1087
▁hor	-12.1087
▁cooked	-12.1088
▁registering	-12.1088
▁raping	-12.1089
▁uhh	-12.109
aul	-12.1092
▁realness	-12.1093
eering	-12.1093
▁paradox	-12.1095
▁eno	-12.1096
▁cargo	-12.1097
▁crawled	-12.1098
▁spann	-12.1099
▁refugee	-12.1099
▁kat	-12.11
▁failing	-12.1105
▁crank	-12.1106
ointed	-12.111
▁wilk	-12.1111
▁shaped	-12.1111
▁brew	-12.1112
▁adore	-12.1113
▁weaken	-12.1114
▁bigtime	-12.112
▁fisher	-12.1123
▁creeper	-12.1124
▁sucky	-12.1124
▁chega	-12.1126
▁depths	-12.1127
▁elephants	-12.1127
▁norwegians	-12.1127
▁substances	-12.1127
▁balloons	-12.1127
▁lslands	-12.1127
▁jackpots	-12.1127
▁turds	-12.1127
▁rapists	-12.1127
▁seeds	-12.1128
▁nuns	-12.1128
▁decades	-12.1128
▁abu	-12.1128
▁finale	-12.1129
wrapping	-12.1129
▁racer	-12.113
▁burner	-12.113
▁critical	-12.1132
▁earning	-12.1132
▁bitey	-12.1134
▁spelling	-12.1134
▁hehe	-12.1135
▁defender	-12.1136
▁exceptions	-12.1136
▁informer	-12.1137
semblance	-12.114
constitution	-12.1141
▁pointers	-12.1141
▁godson	-12.1142
▁kell	-12.1144
▁hearse	-12.1145
▁nono	-12.1145
▁crushing	-12.1146
▁forbe	-12.1146
▁tossed	-12.1148
▁poisoned	-12.1149
▁goons	-12.1149
▁iess	-12.1149
▁interrupted	-12.115
▁cutie	-12.1151
▁democrat	-12.1153
▁clash	-12.1153
▁ada	-12.1154
▁tac	-12.1158
mur	-12.1161
▁sendin	-12.1164
▁cod	-12.1166
▁overhear	-12.1173
▁thoughtful	-12.1173
▁saler	-12.1175
▁realtor	-12.1177
illiard	-12.118
ator	-12.118
[...]
