<unk>	0
<s>	0
</s>	0
s	-3.9779
▁im	-4.38258
▁dont	-4.44676
▁know	-4.4805
▁get	-4.69012
▁right	-4.76229
▁go	-4.79281
▁like	-4.8252
▁yeah	-4.84988
▁got	-4.87412
▁youre	-4.89328
▁come	-4.92521
▁na	-5.01232
▁okay	-5.07538
▁thats	-5.09014
▁oh	-5.11058
▁one	-5.15249
▁well	-5.1896
▁gon	-5.27393
▁want	-5.29961
▁good	-5.31412
▁see	-5.35733
▁think	-5.35798
▁hey	-5.36953
▁man	-5.45885
ing	-5.51679
▁back	-5.54365
▁look	-5.59585
▁take	-5.63766
▁us	-5.63899
▁time	-5.66525
▁hes	-5.66946
▁l	-5.67425
▁yes	-5.70745
▁fuck	-5.7113
▁tell	-5.72154
▁going	-5.72451
▁cant	-5.752
▁need	-5.76033
▁say	-5.78866
▁ill	-5.80308
▁fucking	-5.81257
ed	-5.85026
▁something	-5.86422
▁didnt	-5.86918
▁really	-5.88294
▁shit	-5.89981
▁would	-5.93805
▁lets	-5.94453
▁whats	-5.95102
▁sorry	-5.96751
▁make	-5.97305
▁mean	-6.00261
▁please	-6.00442
▁way	-6.01019
▁could	-6.0214
▁never	-6.02201
▁little	-6.03075
▁let	-6.0469
▁love	-6.07998
▁give	-6.10916
d	-6.1153
▁	-6.12896
▁people	-6.16282
▁god	-6.1726
▁theres	-6.18344
▁said	-6.19674
▁ive	-6.21076
▁help	-6.21874
▁thank	-6.22055
▁two	-6.24841
▁shes	-6.2834
▁sure	-6.29084
▁much	-6.34792
▁even	-6.34861
▁thing	-6.37377
▁put	-6.40689
▁stop	-6.41332
▁day	-6.44565
▁maybe	-6.44773
▁uh	-6.44863
▁anything	-6.47014
▁work	-6.48087
y	-6.48096
▁home	-6.48979
▁night	-6.49039
▁call	-6.49459
▁wan	-6.49512
▁still	-6.49773
▁talk	-6.49783
▁theyre	-6.50869
▁life	-6.52124
▁keep	-6.5215
▁guys	-6.53508
▁hell	-6.5531
▁first	-6.55363
▁find	-6.55455
▁wait	-6.56742
▁nothing	-6.56858
▁last	-6.57704
▁away	-6.59905
▁guy	-6.60843
▁mr	-6.61557
▁thought	-6.6266
▁better	-6.62873
▁around	-6.63582
▁baby	-6.63596
▁stay	-6.63602
▁everything	-6.63718
▁great	-6.65073
▁feel	-6.65805
▁told	-6.6593
▁name	-6.66462
▁money	-6.66847
▁ta	-6.67154
▁ever	-6.68185
▁dead	-6.70465
▁kill	-6.71056
▁new	-6.71467
▁leave	-6.73678
▁every	-6.74462
▁old	-6.74754
▁things	-6.74783
▁always	-6.75105
▁years	-6.75924
▁long	-6.76013
▁listen	-6.76422
▁nice	-6.76523
▁fine	-6.76739
▁youve	-6.77128
ly	-6.79001
▁car	-6.79468
e	-6.81022
▁three	-6.81726
▁remember	-6.81859
▁mom	-6.82465
▁hi	-6.82837
▁lot	-6.82931
▁made	-6.83042
▁coming	-6.83465
▁sir	-6.85184
▁big	-6.86297
▁believe	-6.86321
▁doesnt	-6.86321
▁door	-6.86481
er	-6.86813
▁hear	-6.86964
▁hello	-6.87075
▁house	-6.87698
▁kind	-6.88629
▁real	-6.88687
▁bad	-6.89325
▁boy	-6.89745
▁girl	-6.90467
▁id	-6.9063
▁aint	-6.9067
▁done	-6.91141
▁huh	-6.91375
▁place	-6.91423
▁woman	-6.92084
▁wont	-6.92321
▁happened	-6.94381
▁youll	-6.94972
▁someone	-6.95341
▁head	-6.96098
▁dad	-6.96363
▁move	-6.9765
▁wrong	-6.97695
▁thanks	-6.97842
▁enough	-6.98198
▁mother	-6.98373
▁talking	-6.99363
▁understand	-7.00227
▁son	-7.00457
▁isnt	-7.00752
▁must	-7.01268
▁wasnt	-7.02054
▁music	-7.02228
▁left	-7.03644
▁ask	-7.04081
▁course	-7.06066
▁next	-7.06613
▁hold	-7.07314
▁else	-7.07554
▁play	-7.08564
▁world	-7.0867
▁getting	-7.08913
▁wanted	-7.09165
▁came	-7.09397
▁family	-7.09827
▁father	-7.10201
▁care	-7.11298
▁open	-7.11444
▁might	-7.11512
▁another	-7.11677
▁looking	-7.12656
▁friend	-7.12925
▁um	-7.13454
▁room	-7.14019
▁trying	-7.14676
▁show	-7.16719
▁mind	-7.17951
in	-7.18577
▁today	-7.19167
▁killed	-7.1932
▁saw	-7.20103
▁hope	-7.21338
▁men	-7.22683
▁guess	-7.23507
▁try	-7.23797
▁may	-7.23898
▁many	-7.24528
▁playing	-7.25076
▁best	-7.25084
▁live	-7.25133
▁found	-7.25255
▁damn	-7.25604
▁cause	-7.26027
▁shut	-7.26055
▁lm	-7.26127
▁already	-7.26254
▁job	-7.26417
▁die	-7.26659
▁tonight	-7.28278
▁pretty	-7.2965
▁went	-7.29656
▁kid	-7.29883
▁used	-7.30329
▁heard	-7.30685
▁took	-7.30692
▁whole	-7.30692
▁school	-7.30946
▁jesus	-7.31392
r	-7.31413
▁ready	-7.31505
▁phone	-7.32028
▁wife	-7.321
▁knew	-7.32452
▁bring	-7.33812
▁story	-7.34247
▁meet	-7.34567
▁face	-7.34602
▁gun	-7.34947
▁business	-7.34949
▁together	-7.34971
▁everybody	-7.35315
▁wouldnt	-7.35385
▁hard	-7.35432
▁fight	-7.35436
▁miss	-7.3614
▁sit	-7.36649
▁watch	-7.36793
▁seen	-7.37263
▁idea	-7.37957
▁actually	-7.3831
▁use	-7.3867
▁kids	-7.39179
▁start	-7.39968
▁whos	-7.4014
▁morning	-7.40208
▁friends	-7.40318
▁days	-7.40378
▁crazy	-7.4059
▁five	-7.40987
▁turn	-7.4115
a	-7.41277
▁called	-7.41313
▁john	-7.41346
n	-7.42133
▁havent	-7.42535
▁ass	-7.42613
▁end	-7.42645
▁alone	-7.4293
▁bitch	-7.44079
▁blood	-7.44764
▁hand	-7.44967
o	-7.45238
t	-7.45838
▁weve	-7.46546
▁yet	-7.46957
▁run	-7.47089
▁cut	-7.47176
▁matter	-7.47726
▁gone	-7.48489
▁says	-7.48998
▁tomorrow	-7.49028
▁probably	-7.49029
▁ago	-7.49808
▁hit	-7.50514
▁saying	-7.50825
▁bit	-7.5084
▁problem	-7.51887
▁happy	-7.52008
es	-7.52326
▁everyone	-7.52334
▁true	-7.52875
▁police	-7.53291
▁brother	-7.53664
▁anyway	-7.54085
▁beautiful	-7.54191
▁whatever	-7.54634
▁deal	-7.55312
▁second	-7.55466
▁ah	-7.56077
▁year	-7.56338
▁anyone	-7.56423
▁hands	-7.56679
l	-7.56768
▁excuse	-7.56876
▁since	-7.57333
▁couldnt	-7.57387
▁mine	-7.57917
▁somebody	-7.58226
▁daddy	-7.58258
▁looks	-7.58687
▁stuff	-7.58707
▁fire	-7.58937
▁close	-7.58993
▁easy	-7.60102
▁wants	-7.60494
▁youd	-7.60581
▁pay	-7.60669
ve	-7.60886
▁inside	-7.61044
▁town	-7.61056
▁hurt	-7.61064
▁person	-7.61487
▁sleep	-7.61586
▁read	-7.61917
▁game	-7.62064
▁wheres	-7.62428
▁lost	-7.62482
▁shot	-7.62949
▁young	-7.6379
▁supposed	-7.6386
▁exactly	-7.63934
al	-7.64034
▁whoa	-7.6441
▁point	-7.64783
▁four	-7.64902
▁gave	-7.664
▁happen	-7.66445
▁water	-7.66887
▁minutes	-7.67458
▁drink	-7.67569
▁bed	-7.68137
▁later	-7.68479
▁ok	-7.68661
▁black	-7.68848
▁check	-7.68893
▁without	-7.68909
▁girls	-7.69358
▁fuckin	-7.70458
▁stand	-7.7086
▁mark	-7.70863
▁cool	-7.71191
▁word	-7.7123
▁though	-7.71438
▁body	-7.715
▁boys	-7.71991
▁laughing	-7.72162
▁death	-7.72251
st	-7.72298
▁late	-7.72412
▁red	-7.72585
▁walk	-7.72634
▁paul	-7.728
▁thinking	-7.73124
▁sighs	-7.73313
▁week	-7.73384
▁shoot	-7.73477
▁taking	-7.73641
▁goddamn	-7.74163
▁eyes	-7.75333
▁nobody	-7.75572
▁lts	-7.75787
▁eat	-7.76
▁soon	-7.76238
▁promise	-7.76669
m	-7.76775
▁stupid	-7.76893
▁forget	-7.7744
▁em	-7.77686
▁working	-7.7836
▁continues	-7.78424
▁died	-7.78431
▁speak	-7.786
▁jimmy	-7.78939
▁dr	-7.78996
▁rest	-7.79151
i	-7.79451
▁break	-7.79696
▁anybody	-7.79701
▁sometimes	-7.79846
▁part	-7.79918
▁husband	-7.80129
▁daughter	-7.80136
▁trust	-7.80542
▁welcome	-7.80848
▁max	-7.8085
▁worry	-7.81007
▁book	-7.81316
▁eddie	-7.81425
▁six	-7.81426
▁light	-7.81814
▁honey	-7.82009
▁making	-7.82012
▁question	-7.82341
▁lord	-7.82452
▁chance	-7.82482
▁minute	-7.82513
▁different	-7.82593
▁met	-7.82941
▁chuckles	-7.83252
▁mike	-7.83617
▁high	-7.83617
▁set	-7.83882
▁change	-7.84065
▁makes	-7.84901
▁anymore	-7.85568
▁full	-7.85712
▁case	-7.8721
▁times	-7.87386
▁far	-7.87664
▁hang	-7.87811
▁jack	-7.87984
▁party	-7.88181
▁heart	-7.88203
▁bill	-7.88309
▁half	-7.88611
▁rock	-7.88623
▁couple	-7.89875
▁sweet	-7.91134
▁christ	-7.91151
▁also	-7.9116
▁bye	-7.91164
▁white	-7.91643
▁almost	-7.91801
▁afraid	-7.93095
▁least	-7.93095
▁billy	-7.93256
▁hate	-7.93707
▁doctor	-7.93854
▁drive	-7.9421
▁hmm	-7.94416
▁wow	-7.9507
▁send	-7.95073
▁trouble	-7.9508
▁win	-7.95611
▁war	-7.95708
▁buy	-7.95872
▁hours	-7.96163
▁front	-7.96412
▁alive	-7.96415
▁write	-7.97006
▁voice	-7.97264
▁months	-7.97571
▁arent	-7.97763
▁laughs	-7.97887
▁side	-7.98304
▁bullshit	-7.98438
▁children	-7.98448
▁goes	-7.98451
▁mrs	-7.98796
▁ha	-7.98924
▁moment	-7.99369
▁safe	-7.99655
▁small	-7.99723
▁city	-7.99845
▁tried	-7.99853
▁hour	-8.00102
▁started	-8.00361
▁behind	-8.00531
▁outside	-8.00531
▁fun	-8.00778
▁sister	-8.00786
▁sounds	-8.00795
▁sick	-8.00987
▁knows	-8.01986
▁free	-8.02513
▁bet	-8.02658
▁asked	-8.02714
▁screaming	-8.0274
▁cold	-8.03293
▁touch	-8.03326
▁hows	-8.03495
▁line	-8.03557
▁funny	-8.04107
▁lose	-8.04128
▁scared	-8.04178
▁dude	-8.04424
▁number	-8.04445
▁piece	-8.05188
▁drop	-8.05568
▁feeling	-8.06058
▁wish	-8.06255
▁child	-8.06308
▁un	-8.06556
▁hair	-8.06898
▁women	-8.07055
▁waiting	-8.07367
▁clear	-8.07659
p	-8.0785
▁important	-8.09329
▁hot	-8.09343
▁reason	-8.09721
▁charlie	-8.10097
▁beat	-8.10459
▁dog	-8.10474
▁sound	-8.10581
▁indistinct	-8.10756
▁either	-8.10872
▁dave	-8.10883
▁groans	-8.10895
▁itll	-8.11657
▁comes	-8.11977
▁office	-8.12364
▁grunts	-8.12523
ion	-8.12596
▁needs	-8.12837
▁cop	-8.13142
▁s	-8.13187
▁straight	-8.13233
▁telling	-8.13733
▁save	-8.13816
▁la	-8.13838
▁sex	-8.13882
▁leaving	-8.14035
▁married	-8.14035
▁radio	-8.14037
▁lady	-8.1405
▁pick	-8.14119
▁james	-8.14816
▁control	-8.14826
▁ahead	-8.14845
▁team	-8.14854
▁means	-8.15068
▁ten	-8.1511
▁living	-8.15679
▁lll	-8.15821
▁dream	-8.16309
k	-8.16491
▁grunting	-8.16492
▁ride	-8.1651
▁quite	-8.16546
▁asking	-8.16888
▁theyll	-8.17309
▁dance	-8.17958
▁truth	-8.18133
▁brought	-8.18133
▁plan	-8.18169
▁c	-8.1856
▁speaking	-8.18733
▁worth	-8.18795
g	-8.18974
▁peter	-8.19036
▁pull	-8.19097
▁order	-8.19238
▁ya	-8.19594
▁eye	-8.19682
▁taken	-8.19756
▁shouldnt	-8.19821
▁werent	-8.20676
▁road	-8.20678
▁b	-8.20702
▁lucky	-8.20817
▁de	-8.20869
en	-8.2103
▁th	-8.21082
▁wake	-8.21319
▁perfect	-8.21389
▁motherfucker	-8.21389
▁running	-8.22412
▁dinner	-8.23286
▁top	-8.23321
▁act	-8.23719
▁lives	-8.23795
▁fast	-8.23932
▁street	-8.24073
▁choice	-8.2417
▁fault	-8.2417
▁air	-8.2424
f	-8.24783
▁power	-8.24952
▁coach	-8.25063
▁country	-8.25067
▁johnny	-8.25871
▁along	-8.25969
▁mommy	-8.25971
▁mouth	-8.25971
▁weeks	-8.26368
on	-8.26386
▁throw	-8.2651
▁state	-8.26589
▁born	-8.26764
▁hurry	-8.26875
▁answer	-8.27028
▁clean	-8.2774
▁sense	-8.2779
▁fucked	-8.2785
ie	-8.28348
▁till	-8.28565
▁luck	-8.29551
▁gets	-8.29555
▁mmm	-8.29634
▁annie	-8.29657
▁able	-8.29826
▁parents	-8.29981
▁seems	-8.30207
▁serious	-8.3048
▁calm	-8.306
c	-8.31023
▁murder	-8.31156
▁careful	-8.31484
▁mama	-8.31491
▁million	-8.31581
▁heres	-8.3167
▁stick	-8.31918
▁happening	-8.3232
▁lt	-8.32457
▁glad	-8.32525
▁become	-8.32535
▁eight	-8.32598
est	-8.33244
▁coffee	-8.33479
▁buddy	-8.33479
▁none	-8.33509
h	-8.34214
or	-8.34304
▁alright	-8.3446
▁teddy	-8.3446
▁mmhmm	-8.34471
▁killer	-8.35092
▁weird	-8.35328
▁news	-8.35959
▁calling	-8.36047
▁bag	-8.36181
▁drunk	-8.36449
▁changed	-8.36824
▁blow	-8.3711
▁quick	-8.37231
▁dark	-8.37451
▁yall	-8.37476
▁kiss	-8.37815
▁sign	-8.37878
▁poor	-8.38487
▁special	-8.38929
▁french	-8.39511
▁fact	-8.39536
▁finally	-8.39567
▁gasps	-8.39672
ies	-8.39692
▁song	-8.39818
▁happens	-8.40025
▁cover	-8.40326
▁f	-8.4078
▁breathing	-8.40814
▁follow	-8.40895
▁seat	-8.41531
▁somewhere	-8.41605
▁birthday	-8.41606
▁shall	-8.41606
▁grab	-8.41626
▁watching	-8.41696
▁sam	-8.417
▁meeting	-8.41722
▁asshole	-8.41849
▁cops	-8.41942
▁lie	-8.42216
▁finish	-8.42315
▁captain	-8.42669
▁felt	-8.42671
▁seeing	-8.42774
▁g	-8.42898
▁month	-8.42971
▁catch	-8.43269
▁kept	-8.43745
▁feet	-8.43752
▁kidding	-8.43762
▁step	-8.43964
▁re	-8.44201
▁bar	-8.44421
▁mad	-8.44779
▁seven	-8.44818
▁food	-8.44831
▁todd	-8.44832
▁company	-8.44833
▁hed	-8.44992
▁fat	-8.45065
▁crying	-8.45074
▁matt	-8.45657
▁needed	-8.45801
▁yo	-8.4581
▁fair	-8.45934
▁human	-8.46197
▁less	-8.46571
▁past	-8.46987
▁others	-8.47041
▁henry	-8.47045
▁du	-8.47046
▁tired	-8.47065
▁loved	-8.47242
▁words	-8.47626
▁pain	-8.47908
▁dear	-8.48166
▁moving	-8.4817
▁shell	-8.48257
▁smell	-8.48257
▁single	-8.48719
▁train	-8.48727
ers	-8.48772
▁smart	-8.49149
▁quiet	-8.49179
▁honest	-8.49192
▁north	-8.49297
▁maam	-8.49303
▁wed	-8.4952
▁learn	-8.49734
man	-8.50319
▁ones	-8.50454
▁shed	-8.50555
le	-8.50567
▁art	-8.50595
▁band	-8.50651
▁explain	-8.50834
▁bastard	-8.50909
▁phil	-8.5142
▁middle	-8.51589
▁jr	-8.51676
▁figure	-8.5257
▁slow	-8.52683
▁rich	-8.52762
▁goodbye	-8.5279
▁yeh	-8.52827
an	-8.53093
▁class	-8.53229
▁n	-8.53651
▁groaning	-8.53988
▁early	-8.54043
less	-8.54298
▁in	-8.5442
▁chain	-8.54494
▁round	-8.54508
able	-8.54889
▁they	-8.54927
▁strong	-8.55052
▁prison	-8.55065
▁amazing	-8.55185
▁anywhere	-8.55185
▁rather	-8.55186
▁caught	-8.55186
▁ooh	-8.55186
▁works	-8.55201
▁seem	-8.55283
▁grand	-8.55372
▁secret	-8.55742
▁nigga	-8.55757
▁longer	-8.5581
▁ben	-8.55877
▁relax	-8.56073
▁record	-8.56093
▁nine	-8.56146
▁hospital	-8.56387
▁uncle	-8.56414
▁crowd	-8.56416
▁holy	-8.56458
▁dick	-8.56642
▁window	-8.5698
▁looked	-8.57118
ar	-8.57266
▁across	-8.57639
▁worse	-8.57639
▁gentlemen	-8.5764
▁york	-8.57642
▁sell	-8.57664
▁boss	-8.57721
▁king	-8.58124
▁j	-8.58125
▁officer	-8.5838
▁meant	-8.58402
▁swear	-8.58442
▁glass	-8.58839
▁age	-8.58847
▁boat	-8.58882
▁possible	-8.58889
▁ladies	-8.58898
▁killing	-8.59007
▁box	-8.59348
▁goin	-8.59689
ic	-8.60015
▁worked	-8.60016
▁quit	-8.60047
▁names	-8.60145
▁lisa	-8.60156
ation	-8.60226
▁mess	-8.60605
el	-8.60625
u	-8.60735
▁stu	-8.61456
▁burn	-8.616
▁frank	-8.61609
re	-8.61678
▁america	-8.61887
▁harry	-8.62111
▁table	-8.62144
▁fix	-8.62441
▁known	-8.62639
▁situation	-8.62736
▁russell	-8.62736
▁simple	-8.62749
▁fall	-8.63052
▁floor	-8.6339
▁security	-8.64056
▁sent	-8.64069
▁wade	-8.64078
▁wonderful	-8.64104
▁richie	-8.64116
▁shouting	-8.64158
▁smoke	-8.64553
▁bell	-8.64565
▁general	-8.65265
▁definitely	-8.65385
▁ice	-8.65438
▁katie	-8.65445
▁missing	-8.65514
▁questions	-8.65592
▁mothers	-8.65759
▁movie	-8.66229
▁spend	-8.66326
▁near	-8.66636
▁mm	-8.66714
▁paid	-8.66751
▁absolutely	-8.66752
▁mum	-8.66764
▁breathe	-8.67096
▁respect	-8.67158
▁enjoy	-8.67387
▁chatter	-8.67709
▁american	-8.67827
▁moved	-8.67946
▁broke	-8.67975
▁alice	-8.68115
▁janet	-8.68126
▁report	-8.68137
▁missed	-8.69197
▁talked	-8.69303
▁gold	-8.69314
▁alan	-8.69506
▁sitting	-8.69532
▁roll	-8.69663
▁fool	-8.70079
▁expect	-8.70202
us	-8.70867
▁forever	-8.70903
▁giving	-8.70909
▁terrible	-8.70912
▁cash	-8.70917
▁stopped	-8.70953
▁test	-8.71067
▁sort	-8.71406
▁soul	-8.7187
▁picture	-8.71939
▁strange	-8.72202
▁p	-8.72206
▁ed	-8.72316
▁kevin	-8.72347
▁owe	-8.72481
▁seconds	-8.72512
▁building	-8.72545
▁rose	-8.72878
te	-8.729
▁nigger	-8.73256
▁pete	-8.73283
▁lock	-8.73549
▁joe	-8.73662
▁church	-8.73781
▁cohen	-8.73781
▁worried	-8.73781
▁private	-8.73781
▁tommy	-8.73782
▁pleasure	-8.73782
▁corner	-8.73805
▁lily	-8.7389
▁army	-8.73927
ass	-8.73979
ful	-8.74019
▁return	-8.74034
▁k	-8.74306
▁ring	-8.7476
▁turned	-8.74877
▁drugs	-8.749
▁ball	-8.74946
▁blue	-8.74951
▁entire	-8.75136
▁hungry	-8.75254
▁outta	-8.75254
▁busy	-8.75386
▁bank	-8.7563
▁t	-8.75949
▁listening	-8.76734
▁language	-8.76744
▁major	-8.76744
▁president	-8.76745
▁bought	-8.76746
▁upon	-8.76753
▁tv	-8.76755
▁personal	-8.76763
▁doin	-8.76776
▁pass	-8.7739
▁wonder	-8.77491
▁offer	-8.77593
▁ground	-8.77823
▁bro	-8.77876
▁william	-8.779
▁sad	-8.7817
▁lay	-8.78247
▁treat	-8.78251
▁earth	-8.78253
▁forgot	-8.78257
▁darling	-8.78261
▁south	-8.78261
▁spent	-8.78262
▁choose	-8.78273
▁lying	-8.78281
▁eh	-8.78305
▁completely	-8.78311
▁seriously	-8.78442
▁arms	-8.78557
▁van	-8.78655
ity	-8.7868
▁present	-8.79466
▁wall	-8.79467
▁short	-8.79675
▁arm	-8.79732
▁alex	-8.7979
▁attention	-8.79798
▁unless	-8.7984
▁hotel	-8.79841
▁feels	-8.79871
▁e	-8.79903
▁laugh	-8.80361
▁tape	-8.80754
▁system	-8.81
▁cell	-8.81002
▁forward	-8.8136
▁neil	-8.81366
▁allen	-8.81367
▁fighting	-8.81523
▁brothers	-8.81677
▁dollars	-8.81852
▁holding	-8.8209
▁push	-8.82131
▁pack	-8.82225
▁given	-8.8227
▁hundred	-8.82668
▁julia	-8.82891
▁neck	-8.82941
▁perhaps	-8.82948
▁ryan	-8.82948
▁sweetheart	-8.82948
▁babies	-8.82949
▁contact	-8.8295
▁station	-8.82966
▁beth	-8.8301
▁sun	-8.8308
▁mission	-8.83109
▁stan	-8.83311
▁interview	-8.83407
▁breath	-8.83729
▁wouldve	-8.83854
▁warm	-8.84083
▁land	-8.8415
▁club	-8.8427
▁letter	-8.84453
▁difference	-8.8456
▁especially	-8.8456
▁future	-8.8456
▁lampley	-8.8456
▁thousand	-8.84561
▁christmas	-8.84566
▁panting	-8.84573
▁writing	-8.84573
▁upstairs	-8.84578
▁taste	-8.84601
▁dreams	-8.84968
▁casey	-8.84969
▁low	-8.84978
▁takes	-8.84995
▁protect	-8.85404
▁lead	-8.85409
▁standing	-8.85831
▁message	-8.85957
▁imagine	-8.85977
▁handle	-8.86051
▁forgive	-8.86128
▁gas	-8.86143
▁island	-8.862
▁nancy	-8.862
▁favorite	-8.86203
▁dangerous	-8.86204
ia	-8.86802
ur	-8.87221
▁surprise	-8.87358
▁walking	-8.87468
▁mistake	-8.87573
▁agree	-8.87631
▁deep	-8.87648
▁cute	-8.87742
▁english	-8.87867
▁dying	-8.87868
▁double	-8.87869
▁keys	-8.87946
▁balls	-8.88295
▁w	-8.88359
ch	-8.88506
▁knock	-8.88532
▁west	-8.88609
▁sea	-8.88977
ll	-8.89174
▁sake	-8.8929
▁judge	-8.89299
▁appreciate	-8.89309
▁share	-8.89334
▁type	-8.89347
▁service	-8.89363
▁bullet	-8.89393
▁bus	-8.895
▁dumb	-8.89545
▁information	-8.89567
▁apartment	-8.89568
▁green	-8.89571
▁dirty	-8.89587
▁moon	-8.89668
▁following	-8.90221
▁accident	-8.90239
▁kick	-8.9027
▁pray	-8.90444
▁visit	-8.90525
▁brain	-8.90632
▁bite	-8.90754
▁fear	-8.90755
▁teach	-8.90759
ce	-8.90767
▁lve	-8.90824
▁fly	-8.91005
▁suppose	-8.91064
▁paper	-8.91155
▁legs	-8.91241
▁afternoon	-8.91286
▁twice	-8.91286
▁pants	-8.91358
▁interesting	-8.91551
▁copy	-8.91619
▁shoes	-8.91939
▁drinking	-8.9269
▁arrest	-8.92744
▁escape	-8.9281
▁howd	-8.92899
▁adam	-8.9293
▁clothes	-8.93001
▁except	-8.93008
▁key	-8.9302
▁london	-8.9304
▁summer	-8.9304
▁shouldve	-8.93041
▁yep	-8.93046
▁girlfriend	-8.93053
▁molly	-8.93065
▁cheering	-8.93139
▁hide	-8.93182
▁cheers	-8.93498
▁driver	-8.93593
il	-8.9373
▁screams	-8.93968
▁david	-8.94647
▁law	-8.94673
▁fell	-8.94758
▁camera	-8.94801
▁proud	-8.94827
▁paris	-8.94827
▁driving	-8.94828
▁jerry	-8.94838
▁babe	-8.94844
▁eggsy	-8.94866
▁strike	-8.94873
▁trip	-8.94959
▁problems	-8.95327
▁park	-8.95652
▁wear	-8.9584
▁camp	-8.96038
▁cry	-8.9622
▁calls	-8.96266
▁honor	-8.96344
pool	-8.96374
▁realize	-8.96443
▁government	-8.96535
▁agent	-8.96554
▁star	-8.96601
▁chief	-8.96644
▁neither	-8.96644
▁river	-8.96644
▁boyfriend	-8.96647
▁heavily	-8.96649
▁wedding	-8.96652
▁evening	-8.96678
▁sweetie	-8.96717
▁map	-8.96759
▁store	-8.96842
▁court	-8.96859
▁using	-8.96885
▁list	-8.96963
▁ringing	-8.97149
▁ran	-8.97865
▁joke	-8.98336
▁nervous	-8.98367
▁soft	-8.98388
▁chicken	-8.98394
▁congratulations	-8.98496
▁video	-8.98496
▁wrote	-8.98496
▁detective	-8.98496
▁throat	-8.98498
▁stuck	-8.98501
it	-8.98533
▁madame	-8.98546
to	-8.98588
▁starting	-8.98605
ist	-8.99189
▁promised	-8.99251
▁count	-8.99321
▁wind	-8.99399
▁jump	-8.99656
▁bucks	-8.99682
▁rain	-8.99996
▁peace	-9.00039
▁deserve	-9.00125
▁sing	-9.00278
▁leg	-9.00306
▁ray	-9.00353
▁scene	-9.00372
▁beyond	-9.00383
▁instead	-9.00383
▁yesterday	-9.00383
▁dramatic	-9.00409
▁bigger	-9.00481
▁st	-9.00622
▁picked	-9.01073
led	-9.01268
▁couldve	-9.01377
b	-9.01447
▁nick	-9.01952
▁aw	-9.02159
▁super	-9.02283
▁college	-9.02306
▁beverly	-9.02306
▁evidence	-9.02306
▁bunch	-9.02307
▁scottie	-9.02315
▁whoo	-9.02326
▁lars	-9.02343
▁wild	-9.02353
▁states	-9.02375
▁united	-9.02462
▁decided	-9.02494
▁interested	-9.02519
▁books	-9.02681
▁pal	-9.02811
▁miles	-9.02816
▁dress	-9.03011
▁rules	-9.03277
▁records	-9.0331
▁join	-9.03475
nt	-9.03543
▁guard	-9.03545
▁cross	-9.03562
▁grow	-9.03729
th	-9.03831
▁screw	-9.03941
▁piss	-9.03984
▁charge	-9.04115
z	-9.04144
▁lunch	-9.04255
▁favor	-9.04262
▁nowhere	-9.04266
▁brooks	-9.04266
▁truck	-9.04267
▁grace	-9.0427
▁heaven	-9.0429
▁sally	-9.04316
▁usually	-9.04326
▁certainly	-9.0434
▁shh	-9.04346
▁field	-9.04368
▁guns	-9.04393
▁saved	-9.04818
▁lf	-9.05034
▁d	-9.05662
▁ex	-9.05665
▁ow	-9.05849
▁carry	-9.05935
▁feed	-9.05963
▁per	-9.0614
▁nose	-9.06272
▁vincent	-9.06278
▁position	-9.06286
▁tough	-9.06367
▁master	-9.06421
▁where	-9.06429
▁horse	-9.06447
▁bob	-9.06504
ne	-9.06586
▁i	-9.06617
▁passed	-9.06655
▁nuts	-9.06707
▁pen	-9.06789
▁prove	-9.07732
▁group	-9.08064
▁loud	-9.08153
▁tight	-9.08279
▁nothin	-9.0828
▁space	-9.08303
▁alarm	-9.08307
▁harris	-9.08308
▁uhhuh	-9.0831
▁smile	-9.08338
▁simon	-9.08379
▁cousin	-9.08451
▁spirit	-9.0847
▁lawyer	-9.08489
▁joey	-9.08526
▁beer	-9.0855
▁awful	-9.08762
um	-9.08923
▁cost	-9.09357
▁rid	-9.09501
▁lived	-9.09741
et	-9.10063
▁reach	-9.10139
▁final	-9.10286
▁whore	-9.1039
▁kitchen	-9.1039
▁sheriff	-9.1039
▁whirring	-9.10391
▁fake	-9.10393
▁whyd	-9.10402
▁risk	-9.10407
▁bigge	-9.10519
▁roger	-9.10542
▁crime	-9.10544
▁target	-9.10603
▁machine	-9.10606
▁lovely	-9.10619
▁fit	-9.11213
▁liked	-9.11677
▁stone	-9.11802
▁reading	-9.12194
▁press	-9.12234
▁games	-9.12238
▁block	-9.12437
▁shame	-9.12497
▁george	-9.12504
▁whether	-9.12518
▁worst	-9.12518
▁dasong	-9.12518
▁cunt	-9.12521
▁leena	-9.12522
▁candyman	-9.12533
▁mate	-9.12728
▁color	-9.12736
▁sean	-9.12756
▁tree	-9.12798
▁ship	-9.12802
▁weapon	-9.12809
▁action	-9.1284
ro	-9.12904
▁grandma	-9.12926
▁locked	-9.12949
▁named	-9.12982
▁everythings	-9.13041
▁finished	-9.13119
▁r	-9.13687
▁be	-9.13688
▁loves	-9.13928
▁nah	-9.13986
▁price	-9.1468
▁angry	-9.14692
▁knife	-9.14692
▁chicago	-9.14693
▁esther	-9.14693
▁chair	-9.14694
▁lieutenant	-9.14695
▁sold	-9.14718
▁broken	-9.14789
▁account	-9.14925
▁clown	-9.14937
▁idiot	-9.14937
▁decision	-9.14941
▁staying	-9.15281
▁harder	-9.15321
▁date	-9.15498
ty	-9.1581
▁suck	-9.16136
▁bother	-9.16446
▁weapons	-9.16602
▁horses	-9.16729
▁theo	-9.16907
▁everywhere	-9.16914
▁somehow	-9.16914
▁within	-9.16914
▁tricia	-9.16915
▁lenny	-9.16915
▁bathroom	-9.16916
▁liar	-9.16922
▁foot	-9.16929
▁stage	-9.16976
▁gift	-9.1719
▁pool	-9.17196
▁devil	-9.1721
▁ghost	-9.1721
▁what	-9.1737
▁reporter	-9.1738
▁seemed	-9.1746
▁hat	-9.17489
▁rolling	-9.17571
▁walked	-9.18151
▁turns	-9.18643
▁form	-9.18662
▁dis	-9.18668
v	-9.18754
▁assume	-9.18955
▁jones	-9.19032
▁admit	-9.19177
▁anthony	-9.19187
▁enemy	-9.19187
▁governor	-9.19187
▁insane	-9.19187
▁midnight	-9.19188
▁pregnant	-9.1919
▁practice	-9.19195
▁tie	-9.19208
ment	-9.19218
▁wet	-9.19219
▁board	-9.19248
▁putting	-9.19306
▁hoping	-9.19405
▁bridge	-9.19418
▁quickly	-9.19445
▁doubt	-9.19561
▁plane	-9.19741
out	-9.20073
▁faith	-9.20666
▁sleeping	-9.21167
▁accept	-9.21183
▁raise	-9.21334
▁showed	-9.21412
▁witness	-9.21454
▁apparently	-9.21513
▁conrad	-9.21513
▁whoever	-9.21513
▁taught	-9.21514
▁distance	-9.21515
▁prick	-9.21516
▁papa	-9.21518
▁marry	-9.21519
▁chow	-9.2153
▁dare	-9.21558
▁obviously	-9.21576
▁lili	-9.21643
▁gotten	-9.21679
▁bear	-9.21721
▁operation	-9.21933
▁gunshot	-9.21998
▁plans	-9.22019
▁drug	-9.22095
▁painting	-9.22196
▁doc	-9.22197
▁chattering	-9.2221
▁opening	-9.22472
▁spot	-9.22622
w	-9.23001
ling	-9.23193
▁eating	-9.23273
▁shooting	-9.23314
▁survive	-9.23752
▁history	-9.23894
▁marriage	-9.23894
▁apologize	-9.23894
▁mickey	-9.23895
▁miller	-9.23913
▁amen	-9.23913
▁gary	-9.23949
▁played	-9.23987
▁folks	-9.24054
▁engine	-9.24102
▁kat	-9.24238
▁lights	-9.24331
up	-9.25134
▁hook	-9.2545
▁h	-9.25484
▁fucker	-9.2549
▁search	-9.25563
x	-9.25689
▁support	-9.26003
▁suspect	-9.26033
▁waste	-9.26148
▁normal	-9.26234
▁stole	-9.26273
▁roof	-9.2633
▁denny	-9.26333
▁troy	-9.26333
▁rough	-9.26333
▁thatll	-9.26334
▁teeth	-9.26334
▁edward	-9.26334
▁aah	-9.26337
▁gunnar	-9.26337
▁involved	-9.26354
▁buzzing	-9.26398
▁skin	-9.26443
▁honestly	-9.26579
▁decide	-9.26615
rs	-9.26654
▁continue	-9.26732
▁figured	-9.26809
▁singing	-9.2687
▁learned	-9.26966
▁expecting	-9.27046
▁pictures	-9.27067
▁pop	-9.27186
▁suit	-9.27227
▁bloody	-9.27289
▁a	-9.27333
▁v	-9.27411
▁closed	-9.27528
▁east	-9.27729
ate	-9.28214
▁experience	-9.28613
▁wine	-9.28747
▁match	-9.28768
▁martin	-9.28801
▁afford	-9.28833
▁omara	-9.28833
▁hadnt	-9.28833
▁dancing	-9.28833
▁hasnt	-9.28833
▁memory	-9.28834
▁michelle	-9.28836
▁airport	-9.2884
▁famous	-9.28847
▁aye	-9.28851
▁ought	-9.28852
▁milk	-9.2886
▁gasping	-9.28924
▁softly	-9.28987
▁losing	-9.29071
▁faster	-9.29135
▁hole	-9.29212
▁besides	-9.29242
▁bottle	-9.29435
▁monkey	-9.29436
▁begin	-9.29467
▁pre	-9.29599
▁keeping	-9.30228
▁cat	-9.30895
▁starts	-9.30941
time	-9.30943
▁pretend	-9.30981
▁mention	-9.31125
▁command	-9.3129
▁snow	-9.31374
▁heavy	-9.31396
▁asleep	-9.31397
▁genius	-9.31397
▁lucas	-9.31397
▁pussy	-9.31397
▁saturday	-9.31397
▁opportunity	-9.31397
▁chinese	-9.31397
▁cream	-9.31397
▁mmmhmm	-9.31398
▁extra	-9.31398
▁stories	-9.31399
▁vada	-9.31399
▁weight	-9.31434
▁guilty	-9.31475
▁over	-9.31492
▁ava	-9.31499
▁hail	-9.31546
▁letting	-9.31586
▁ho	-9.31892
▁flat	-9.32034
▁whose	-9.32158
▁pills	-9.32312
as	-9.32544
▁artist	-9.32733
▁cook	-9.33137
▁interest	-9.33348
▁draw	-9.33472
▁mo	-9.33597
▁notice	-9.33805
▁address	-9.33963
▁steve	-9.33969
▁fresh	-9.34005
▁emergency	-9.34028
▁impossible	-9.34028
▁third	-9.34028
▁warren	-9.34028
▁department	-9.34029
▁thou	-9.34031
▁brian	-9.34033
▁pinch	-9.34038
▁innocent	-9.34038
▁totally	-9.34106
▁yelling	-9.34111
▁mary	-9.34136
▁horn	-9.3458
▁wearing	-9.34624
▁egg	-9.3464
▁knocking	-9.34669
▁craig	-9.34704
▁area	-9.34733
▁shop	-9.34735
▁followed	-9.34771
▁pocket	-9.34818
is	-9.34898
▁fella	-9.34945
▁helped	-9.35309
▁file	-9.35336
▁crack	-9.35855
▁cars	-9.3603
▁shots	-9.36101
▁rent	-9.36241
▁build	-9.36314
▁paying	-9.3635
▁spoke	-9.36669
▁percent	-9.36723
▁tour	-9.36724
▁although	-9.36731
▁became	-9.36731
▁michael	-9.36731
▁motta	-9.36731
▁wailing	-9.36731
▁beginning	-9.36731
▁henrik	-9.36734
▁jail	-9.36734
▁connection	-9.36736
▁gang	-9.3675
▁confused	-9.36759
▁coat	-9.36802
ous	-9.36955
ra	-9.37012
▁wire	-9.37254
▁belong	-9.37288
ive	-9.37288
ness	-9.37363
▁force	-9.37375
▁ear	-9.3743
▁wondering	-9.37468
▁shirt	-9.37541
▁relationship	-9.37547
▁student	-9.3763
▁hill	-9.37779
▁tap	-9.37944
▁older	-9.38178
▁numbers	-9.38235
▁career	-9.38277
▁students	-9.38593
▁fill	-9.38797
age	-9.38884
▁main	-9.39318
▁correct	-9.3939
▁success	-9.39394
▁buck	-9.394
▁apart	-9.39499
▁split	-9.39504
▁campaign	-9.39509
▁elizabeth	-9.39509
▁screeching	-9.39509
▁stephen	-9.39509
▁village	-9.39509
▁ugly	-9.39509
▁often	-9.39509
▁earlier	-9.39511
▁flight	-9.39512
▁pressure	-9.39512
▁sugar	-9.39517
▁held	-9.39518
▁yearold	-9.39526
▁barely	-9.39527
▁disgusting	-9.39538
▁lies	-9.39787
▁goldie	-9.39836
ry	-9.40083
▁murdered	-9.40373
▁lied	-9.40389
▁cake	-9.404
▁client	-9.40449
▁dogs	-9.40623
▁al	-9.40641
▁anna	-9.40908
▁consider	-9.41637
▁post	-9.41896
▁m	-9.42123
▁introduce	-9.42145
▁doll	-9.42359
▁meat	-9.42363
▁callahan	-9.42366
▁freedom	-9.42366
▁malcolm	-9.42366
▁monsieur	-9.42366
▁sergeant	-9.42366
▁thunder	-9.42366
▁crain	-9.42366
▁waldo	-9.42367
▁professor	-9.42367
▁exhales	-9.42368
▁pont	-9.42372
▁excited	-9.42389
▁nurse	-9.42397
▁hero	-9.42498
▁turning	-9.42503
▁kate	-9.42524
lng	-9.4254
▁surprised	-9.42754
▁hall	-9.42803
▁theyd	-9.42904
▁burned	-9.43021
▁praying	-9.43052
id	-9.43195
▁professional	-9.43207
▁bang	-9.43287
▁magazine	-9.43329
▁pulled	-9.43372
▁partner	-9.43385
▁finger	-9.43394
▁cock	-9.4344
▁movies	-9.43457
▁carl	-9.43623
▁acting	-9.43719
▁gates	-9.44115
ted	-9.44325
▁tea	-9.44386
▁breaking	-9.44455
▁bull	-9.44503
▁base	-9.44662
▁ii	-9.45152
ance	-9.45223
▁public	-9.4529
▁barbara	-9.45307
▁colonel	-9.45307
▁empty	-9.45307
▁evil	-9.45307
▁suicide	-9.45307
▁rosie	-9.45307
▁lonely	-9.45307
▁pennywise	-9.45308
▁jax	-9.45313
▁latin	-9.45313
▁jim	-9.45313
▁property	-9.45314
▁stanley	-9.45317
▁gay	-9.45366
▁hiding	-9.45523
▁letters	-9.4575
▁orders	-9.45893
▁pa	-9.46022
▁attack	-9.46086
▁signed	-9.46164
▁thinks	-9.467
▁lots	-9.46712
de	-9.46814
▁feelings	-9.46948
▁sisters	-9.47233
▁di	-9.47272
▁fellas	-9.47413
▁voices	-9.47519
▁travel	-9.47614
▁football	-9.47721
▁fish	-9.47779
▁roy	-9.47849
▁remind	-9.47914
▁study	-9.47968
▁ruin	-9.48052
▁hurts	-9.48075
▁health	-9.48185
▁certain	-9.48212
▁switch	-9.4827
▁among	-9.48288
▁candy	-9.48319
▁daiton	-9.48337
▁downstairs	-9.48337
▁excellent	-9.48337
▁einar	-9.48337
▁ridiculous	-9.48338
▁foreign	-9.48338
▁leila	-9.48338
▁upset	-9.48339
▁susanna	-9.4834
▁juan	-9.48348
▁began	-9.48351
▁louis	-9.48353
▁duke	-9.48353
▁written	-9.48355
▁danger	-9.48359
▁gives	-9.48401
▁san	-9.48435
▁male	-9.48442
▁tied	-9.48706
▁bringing	-9.48733
▁banging	-9.48768
▁ma	-9.48957
▁ld	-9.49176
▁vote	-9.49276
▁hardly	-9.49302
▁wood	-9.49473
▁level	-9.49503
▁criminal	-9.49535
▁sports	-9.49544
▁victim	-9.49569
▁fan	-9.49638
▁gate	-9.49638
▁writer	-9.49714
▁se	-9.49745
▁helping	-9.49746
▁fired	-9.49836
▁moms	-9.499
▁pieces	-9.49971
▁soldiers	-9.50022
▁checked	-9.50107
▁ln	-9.50183
ta	-9.50459
▁code	-9.50596
▁destroy	-9.51168
▁allow	-9.51172
▁release	-9.51248
▁self	-9.5138
▁brilliant	-9.51462
▁difficult	-9.51462
▁dillinger	-9.51462
▁grew	-9.51462
▁literally	-9.51462
▁otherwise	-9.51462
▁viktor	-9.51462
▁investigation	-9.51462
▁local	-9.51463
▁daisy	-9.51466
▁noah	-9.51466
▁fancy	-9.51468
▁plus	-9.51469
▁silver	-9.51471
▁intense	-9.51486
▁cheese	-9.51487
▁smoking	-9.51496
▁duty	-9.51504
▁according	-9.51508
▁valentine	-9.51518
▁ugh	-9.51523
▁beeping	-9.51523
▁cup	-9.51533
▁dean	-9.51548
▁social	-9.51556
ton	-9.51658
▁ohio	-9.51679
▁lane	-9.51756
▁realized	-9.51899
▁bitches	-9.51921
ent	-9.51978
▁bomb	-9.52287
▁mikey	-9.52299
▁serve	-9.52458
lo	-9.52556
▁weekend	-9.52646
▁demon	-9.52745
▁minnie	-9.52772
▁teacher	-9.52962
▁matters	-9.53031
la	-9.53741
▁ended	-9.53864
▁watched	-9.53994
▁process	-9.54242
sh	-9.54284
▁blame	-9.54451
▁large	-9.54614
▁boom	-9.54643
▁chest	-9.54668
▁complicated	-9.54688
▁crooked	-9.54688
▁desire	-9.54688
▁opinion	-9.54688
▁sienna	-9.54688
▁sobbing	-9.54688
▁suspense	-9.54688
▁whimpering	-9.54688
▁blind	-9.54688
▁fortune	-9.54688
▁kelly	-9.54688
▁jerk	-9.54689
▁olmo	-9.54689
▁advice	-9.54689
▁ruth	-9.5469
▁battle	-9.5469
▁washington	-9.5469
▁bodies	-9.54691
▁jenny	-9.54696
▁incident	-9.54698
▁lena	-9.54712
▁winner	-9.54714
▁storm	-9.54722
▁suddenly	-9.5478
▁jacket	-9.54796
▁contract	-9.54827
▁noticed	-9.54965
▁allowed	-9.54991
▁slowly	-9.55006
▁tom	-9.55049
▁greatest	-9.55133
▁closer	-9.55172
▁character	-9.55419
▁rings	-9.55569
ii	-9.55604
and	-9.55847
▁angel	-9.55921
▁note	-9.55963
▁condition	-9.56044
▁computer	-9.56076
▁issue	-9.56112
▁complete	-9.56127
▁lesson	-9.56127
▁bird	-9.56201
▁leader	-9.56203
▁jobs	-9.56403
▁co	-9.56437
▁siren	-9.56544
ian	-9.56805
one	-9.56829
▁smells	-9.56831
▁it	-9.56892
▁ears	-9.56899
▁places	-9.57295
▁player	-9.57359
ol	-9.57584
▁steal	-9.57601
▁focus	-9.57728
▁text	-9.57757
▁garden	-9.578
▁deliver	-9.57876
▁brave	-9.5798
na	-9.57988
▁gerda	-9.58021
▁subject	-9.58021
▁thursday	-9.58021
▁mostly	-9.58022
▁bishop	-9.58022
▁illegal	-9.58022
▁neighborhood	-9.58022
▁title	-9.58022
▁firing	-9.58023
▁romantic	-9.58024
▁elevator	-9.58025
▁june	-9.58025
▁nope	-9.58026
▁breakfast	-9.58026
▁military	-9.58026
▁iike	-9.58029
▁bobby	-9.5803
▁understood	-9.58033
▁princess	-9.58045
▁belt	-9.58062
▁sky	-9.58087
▁coughing	-9.58113
▁loose	-9.58118
▁everybodys	-9.58207
▁heat	-9.58413
ant	-9.58414
▁dressed	-9.5853
▁armed	-9.58663
▁con	-9.58745
▁daughters	-9.58849
▁trained	-9.58897
▁covered	-9.58974
▁card	-9.59034
ting	-9.59036
▁opens	-9.59368
▁bottom	-9.59402
▁daniel	-9.59407
▁richard	-9.5942
▁en	-9.5943
▁conversation	-9.59508
▁patient	-9.59547
▁ticket	-9.59578
▁soldier	-9.59597
▁someones	-9.59702
▁officers	-9.59742
▁da	-9.59823
▁bastards	-9.60092
pa	-9.60663
▁jan	-9.60719
▁natural	-9.60732
▁hearing	-9.60795
▁spread	-9.60925
▁recognize	-9.61225
ter	-9.61405
▁mmhm	-9.61427
▁aware	-9.61467
▁alastair	-9.6147
▁bianca	-9.6147
▁built	-9.6147
▁duffy	-9.6147
▁footsteps	-9.6147
▁jungle	-9.6147
▁necessary	-9.6147
▁permission	-9.6147
▁plenty	-9.6147
▁thompson	-9.6147
▁woke	-9.6147
▁warrant	-9.6147
▁example	-9.61471
▁noise	-9.61471
▁alexandra	-9.61471
▁basically	-9.61471
▁zeke	-9.61473
▁easier	-9.61476
▁crap	-9.61476
▁ch	-9.61477
▁naked	-9.61479
▁simply	-9.6148
▁comfortable	-9.61481
▁league	-9.61482
▁period	-9.61482
▁lake	-9.61492
▁jay	-9.61493
▁thee	-9.61514
▁timing	-9.61578
▁market	-9.61612
▁signal	-9.61637
▁gettin	-9.61653
▁bleeding	-9.61763
▁ate	-9.61845
▁bike	-9.61877
▁coughs	-9.61908
▁agreed	-9.6194
▁do	-9.62044
▁appears	-9.62244
▁scream	-9.62445
j	-9.62464
▁cos	-9.62617
men	-9.62623
▁ward	-9.62674
▁wound	-9.62805
▁dig	-9.62953
▁source	-9.62976
▁german	-9.6298
▁animal	-9.63145
▁model	-9.63161
▁el	-9.63285
▁niggas	-9.63345
▁page	-9.63514
▁due	-9.63699
ul	-9.64112
▁julie	-9.64241
▁bags	-9.64527
▁load	-9.6481
co	-9.64843
▁bright	-9.64897
▁willing	-9.64905
▁magic	-9.64933
▁trade	-9.6497
▁ad	-9.65001
▁swim	-9.6504
▁awake	-9.65041
▁brooklyn	-9.65041
▁corso	-9.65041
▁kayden	-9.65041
▁sunshine	-9.65041
▁trunk	-9.65041
▁pump	-9.65041
▁friday	-9.65041
▁vision	-9.65041
▁regret	-9.65042
▁mood	-9.65042
▁sidney	-9.65042
▁beauty	-9.65042
▁cancer	-9.65042
▁texas	-9.65042
▁toilet	-9.65043
▁boring	-9.65043
▁nature	-9.65043
▁several	-9.65044
▁fought	-9.65044
▁fruit	-9.65046
▁mummy	-9.65047
▁clock	-9.65049
▁fbi	-9.65052
▁possibly	-9.65054
▁heh	-9.65054
▁chill	-9.65057
▁dropped	-9.65067
▁pair	-9.6507
▁aii	-9.65085
▁opened	-9.65098
▁style	-9.65103
▁huge	-9.65132
▁row	-9.65138
▁pot	-9.65152
▁director	-9.6519
▁carter	-9.65193
▁auntie	-9.65195
▁planet	-9.65288
▁val	-9.65296
▁studying	-9.65527
▁screwed	-9.65581
▁medica	-9.65583
▁no	-9.65745
▁freak	-9.65773
▁expected	-9.658
▁dry	-9.65939
▁knees	-9.65981
▁training	-9.66354
▁closes	-9.6638
▁exist	-9.66579
▁size	-9.66695
▁official	-9.6672
▁comment	-9.66775
▁finding	-9.6678
▁article	-9.66803
▁russian	-9.66816
▁sight	-9.66878
▁nation	-9.67136
▁plays	-9.6716
▁hanging	-9.67475
▁cares	-9.6754
▁nights	-9.67621
bo	-9.67637
▁rule	-9.67766
ern	-9.68137
▁ne	-9.68221
▁aunt	-9.68607
▁sweat	-9.68636
▁gene	-9.6869
▁add	-9.6872
▁defense	-9.68745
▁escobar	-9.68745
▁maureen	-9.68745
▁olympic	-9.68745
▁request	-9.68745
▁strength	-9.68745
▁harriet	-9.68745
▁slept	-9.68746
▁saving	-9.68748
▁yuri	-9.68749
▁gym	-9.68749
▁horrible	-9.6875
▁punk	-9.6875
▁usual	-9.6875
▁randy	-9.68755
▁larry	-9.68756
▁legend	-9.68756
▁view	-9.68758
▁mail	-9.68761
▁comin	-9.68765
▁arrived	-9.68836
▁witch	-9.68923
▁unit	-9.68931
▁failed	-9.68961
▁bath	-9.68967
▁boyle	-9.69083
▁mimi	-9.69132
per	-9.69193
▁yells	-9.69289
▁fathers	-9.69367
ick	-9.69376
▁tilly	-9.69416
▁lately	-9.69565
ier	-9.69591
land	-9.6978
▁track	-9.69946
▁selling	-9.69994
▁shower	-9.70058
tic	-9.70101
▁americans	-9.70106
▁dads	-9.70324
line	-9.70377
▁heads	-9.70415
ary	-9.7047
▁clue	-9.70565
▁diamond	-9.70657
▁birds	-9.7089
▁an	-9.70915
▁prisoner	-9.70998
▁sec	-9.71091
▁stayed	-9.71189
▁stops	-9.71195
▁bum	-9.71221
▁ends	-9.71444
ard	-9.71663
ee	-9.71736
▁wash	-9.71798
ally	-9.71801
▁discuss	-9.7181
no	-9.71971
▁pee	-9.7232
▁invite	-9.72365
▁prepare	-9.72366
▁sat	-9.72435
▁total	-9.72478
▁ls	-9.72533
▁prefer	-9.72587
▁arthur	-9.72591
▁responsibility	-9.72591
▁theater	-9.72591
▁silly	-9.72591
▁stomach	-9.72591
▁buried	-9.72592
▁common	-9.72592
▁monica	-9.72592
▁appointment	-9.72593
▁wilson	-9.72593
▁weii	-9.72594
▁piano	-9.72595
▁exchange	-9.72599
▁proof	-9.72614
▁direction	-9.7262
▁center	-9.72634
▁immediately	-9.72634
▁preacher	-9.72642
▁scary	-9.72701
▁papers	-9.72891
▁raised	-9.73052
▁sons	-9.73094
▁race	-9.73148
▁thy	-9.73301
ho	-9.73362
▁tells	-9.73511
off	-9.73688
ge	-9.73971
▁hits	-9.74095
▁suggest	-9.74131
▁nobodys	-9.74164
▁purpose	-9.74566
▁plant	-9.74632
▁guest	-9.74662
▁worlds	-9.74859
▁woods	-9.7498
▁so	-9.75141
▁heading	-9.75178
head	-9.75216
▁paint	-9.75752
▁sin	-9.75906
▁bless	-9.75967
▁mar	-9.75992
▁jab	-9.7609
▁chris	-9.76135
▁weak	-9.76145
▁program	-9.76154
▁direct	-9.7628
▁poison	-9.76291
▁ideas	-9.76299
▁original	-9.76474
▁speed	-9.76478
▁sudden	-9.76479
▁zero	-9.76517
▁adrian	-9.76525
▁under	-9.76584
▁vietnam	-9.76589
▁chuckling	-9.76591
▁claire	-9.76591
▁eagle	-9.76591
▁elliott	-9.76591
▁including	-9.76591
▁jeff	-9.76591
▁research	-9.76591
▁firm	-9.76591
▁spanish	-9.76591
▁telephone	-9.76592
▁candice	-9.76593
▁minister	-9.76593
▁donna	-9.76593
▁desk	-9.76594
▁birth	-9.76595
▁lucy	-9.76595
▁sword	-9.76596
▁familiar	-9.76599
▁border	-9.76605
▁linda	-9.7661
▁taxi	-9.76619
▁thatd	-9.76633
▁powerful	-9.76665
ad	-9.76677
▁coke	-9.76685
▁pm	-9.76714
▁iii	-9.76715
▁u	-9.76745
▁ending	-9.76751
da	-9.76784
▁gods	-9.76792
▁useless	-9.76807
▁personally	-9.76957
▁hm	-9.76979
▁wha	-9.77095
▁legal	-9.77119
▁reached	-9.77163
▁sooner	-9.77375
▁younger	-9.77479
▁pie	-9.77705
▁details	-9.77888
▁burning	-9.77889
▁sp	-9.77923
▁talkin	-9.78584
▁scare	-9.78615
▁out	-9.78675
▁national	-9.78761
▁monster	-9.78781
▁film	-9.78795
▁nightmare	-9.78844
▁victor	-9.78913
▁wen	-9.79096
▁twenty	-9.79188
▁murderer	-9.79193
▁drinks	-9.79402
▁bust	-9.79754
▁dealer	-9.79763
▁checking	-9.79906
▁crash	-9.80042
▁bone	-9.80259
▁helen	-9.80619
▁tugg	-9.8064
▁exact	-9.80645
▁obvious	-9.80646
▁brown	-9.80727
▁virgin	-9.8073
▁byebye	-9.80758
▁macbeth	-9.80758
▁revenge	-9.80758
▁threw	-9.80758
▁umbrella	-9.80758
▁blaring	-9.80758
▁grateful	-9.80758
▁macleod	-9.80758
▁nathan	-9.80758
▁joking	-9.80758
▁route	-9.80758
▁courage	-9.80759
▁reputation	-9.8076
▁square	-9.80761
▁refuse	-9.80762
▁penny	-9.80763
▁baseball	-9.80763
▁rude	-9.80763
▁malena	-9.80768
▁carlos	-9.80768
▁jessie	-9.80769
▁secretary	-9.8078
▁shape	-9.80795
▁tessa	-9.80796
▁polly	-9.80802
▁unfortunately	-9.80804
▁china	-9.80808
son	-9.80809
▁gil	-9.80825
▁markum	-9.80852
▁warning	-9.80857
▁fourth	-9.80863
▁created	-9.8095
▁prepared	-9.81003
▁shows	-9.81063
▁counter	-9.81102
▁nearly	-9.81118
▁o	-9.81124
ri	-9.81134
un	-9.81176
▁tense	-9.81276
▁flowers	-9.8139
▁doors	-9.81446
▁lookin	-9.816
▁growing	-9.81646
▁tryin	-9.81732
▁husbands	-9.8183
▁kinda	-9.81909
▁bev	-9.81945
▁pro	-9.81983
▁metal	-9.82004
▁meaning	-9.82005
▁falling	-9.82093
am	-9.82327
▁hop	-9.82625
▁clears	-9.82795
▁sigh	-9.83083
▁champion	-9.831
▁value	-9.83109
▁dozen	-9.8311
▁swing	-9.83238
▁path	-9.83277
▁victims	-9.83352
▁fingers	-9.8352
▁tick	-9.83759
se	-9.83781
▁bat	-9.83807
▁los	-9.83865
▁fart	-9.83972
▁greg	-9.84118
cy	-9.84244
▁tent	-9.84337
▁dump	-9.84364
▁traffic	-9.84383
▁repeat	-9.84667
▁talent	-9.84806
▁pet	-9.8481
▁guarantee	-9.84865
▁settle	-9.84879
▁drake	-9.84923
▁proper	-9.85012
▁cia	-9.85025
▁rocks	-9.85058
▁defend	-9.85089
▁sexual	-9.85101
▁amelia	-9.85106
▁dreyman	-9.85106
▁equipment	-9.85106
▁female	-9.85106
▁flesh	-9.85106
▁kofi	-9.85106
▁lincoln	-9.85106
▁miguel	-9.85106
▁responsible	-9.85106
▁reverend	-9.85106
▁science	-9.85106
▁society	-9.85106
▁someday	-9.85106
▁university	-9.85106
▁razor	-9.85106
▁terrific	-9.85106
▁arvin	-9.85106
▁however	-9.85106
▁jake	-9.85107
▁chanting	-9.85107
▁lawrence	-9.85107
▁whenever	-9.85107
▁staff	-9.85108
▁wray	-9.85108
▁fence	-9.85109
▁expensive	-9.85109
▁justice	-9.85109
▁begging	-9.85112
▁rush	-9.85112
▁gear	-9.85116
▁basement	-9.85121
▁theory	-9.85122
▁rare	-9.85123
▁stokely	-9.85124
▁laughter	-9.85125
▁rumbling	-9.85134
▁freeze	-9.85134
▁buzzer	-9.85136
▁incredible	-9.85139
▁stuttering	-9.85154
erstr	-9.85155
▁dayday	-9.85188
▁manager	-9.85201
▁yale	-9.85214
▁stolen	-9.85216
▁grown	-9.85217
▁convinced	-9.85221
▁harm	-9.85278
▁approaching	-9.85298
▁concerned	-9.85326
▁provided	-9.85369
▁whispers	-9.85406
▁deeply	-9.8541
▁peel	-9.85633
▁sexy	-9.85977
▁members	-9.86003
ated	-9.86069
▁lee	-9.86134
▁jon	-9.86167
▁everyones	-9.8639
▁brains	-9.86835
▁cigarettes	-9.86864
by	-9.87441
ang	-9.87551
▁tongue	-9.87585
▁mirror	-9.87626
▁coward	-9.87631
▁sirens	-9.87651
▁priest	-9.87659
▁tip	-9.87669
▁notes	-9.87686
▁meal	-9.87699
▁ca	-9.87858
▁bay	-9.87864
▁ai	-9.88261
▁les	-9.88339
▁mountain	-9.88739
▁clay	-9.88904
▁doctors	-9.88912
▁stock	-9.88917
▁hurting	-9.89032
▁climb	-9.89192
▁flag	-9.8927
▁punch	-9.89306
▁masters	-9.89314
▁disappear	-9.89347
▁lift	-9.89348
ey	-9.89487
▁butt	-9.89514
▁drag	-9.8953
▁sharp	-9.8953
▁flow	-9.8957
▁speech	-9.8959
▁flash	-9.896
▁somethin	-9.89625
▁dom	-9.89641
▁slip	-9.89646
▁briggs	-9.89651
▁california	-9.89651
▁credit	-9.89651
▁dolores	-9.89651
▁eventually	-9.89651
▁jealous	-9.89651
▁regular	-9.89651
▁subtitles	-9.89651
▁toast	-9.89651
▁truly	-9.89651
▁tuesday	-9.89651
▁unusual	-9.89651
▁violence	-9.89651
▁vodka	-9.89651
▁indeed	-9.89651
▁marcus	-9.89651
▁scoffs	-9.89651
▁british	-9.89652
▁glory	-9.89652
▁quinn	-9.89652
▁medicine	-9.89653
▁regard	-9.89653
▁tits	-9.89654
▁blew	-9.89654
▁beach	-9.89656
▁sunday	-9.89659
▁mister	-9.89659
▁hans	-9.89664
▁kingsman	-9.8967
▁handsome	-9.89671
▁bedroom	-9.89675
▁liz	-9.89675
▁thirty	-9.89677
▁debt	-9.89677
▁negative	-9.89678
▁believed	-9.89681
▁jesse	-9.89692
▁jackson	-9.89697
▁federa	-9.89723
▁hug	-9.89725
▁host	-9.89727
▁angeles	-9.89732
▁cain	-9.89736
▁golden	-9.89744
▁embarrassed	-9.89754
▁vera	-9.89758
▁hood	-9.89765
▁troops	-9.89788
▁farm	-9.89845
▁answers	-9.89853
▁beg	-9.89902
▁hunting	-9.89931
▁suffering	-9.90014
▁kim	-9.90033
▁stronger	-9.90057
▁destroyed	-9.90084
▁lower	-9.90099
▁sheba	-9.90124
▁clicks	-9.90145
▁anti	-9.90209
▁brings	-9.90291
▁putman	-9.90334
▁backup	-9.9042
▁me	-9.90516
ha	-9.9062
▁headed	-9.90644
▁rip	-9.90751
▁remains	-9.90957
▁pounds	-9.91048
▁spending	-9.91069
ley	-9.91238
▁keeps	-9.91261
▁provide	-9.91719
▁cleaning	-9.91743
ler	-9.92111
▁cr	-9.9226
ped	-9.92263
do	-9.92322
▁helicopter	-9.92388
▁plate	-9.92418
▁odd	-9.92496
▁cigarette	-9.92518
▁sport	-9.92547
▁up	-9.92859
▁cab	-9.92876
ect	-9.92898
▁artists	-9.93027
ine	-9.93676
▁rat	-9.93779
▁trees	-9.93784
▁shine	-9.93826
▁fighter	-9.93866
▁bowl	-9.93918
ke	-9.93962
▁swallow	-9.94068
ware	-9.94075
▁borrow	-9.94099
▁squeeze	-9.94152
▁creep	-9.94279
▁prince	-9.94378
▁weather	-9.94392
▁yellow	-9.94413
▁avner	-9.94413
▁bangkok	-9.94413
▁davis	-9.94413
▁keeler	-9.94413
▁koslow	-9.94413
▁queen	-9.94413
▁robinson	-9.94413
▁therapy	-9.94413
▁particular	-9.94413
▁wherever	-9.94413
▁charles	-9.94413
▁martha	-9.94414
▁insurance	-9.94414
▁closing	-9.94414
▁insist	-9.94414
▁clever	-9.94414
▁england	-9.94414
▁oneill	-9.94414
▁ferris	-9.94415
▁password	-9.94416
▁danny	-9.94416
▁paddy	-9.94417
▁willingham	-9.94417
▁dope	-9.94419
▁cherry	-9.9442
▁zone	-9.94421
▁announce	-9.94423
▁potter	-9.94425
hrer	-9.94426
▁energy	-9.94432
▁yul	-9.94434
▁morty	-9.94436
▁trial	-9.9444
▁jamal	-9.94446
▁trash	-9.94455
▁role	-9.94455
▁recently	-9.94456
▁motherfucking	-9.94458
▁chopper	-9.94461
▁aim	-9.94466
▁slide	-9.94482
▁safety	-9.94489
▁statement	-9.94496
▁protection	-9.94503
▁victory	-9.94596
▁somebodys	-9.94614
▁glasses	-9.94638
▁former	-9.94639
▁dust	-9.9465
▁spy	-9.94703
▁ba	-9.94713
▁disappeared	-9.94723
▁eve	-9.94755
▁op	-9.94786
▁based	-9.94808
▁forced	-9.94813
▁trick	-9.94831
▁considered	-9.94913
▁shitty	-9.95034
▁carefully	-9.95035
▁aid	-9.95215
ai	-9.95245
▁knocked	-9.95265
▁hundreds	-9.95275
▁walls	-9.95464
▁lips	-9.95465
▁staring	-9.95512
ma	-9.95592
▁tear	-9.9609
▁showing	-9.96132
▁quote	-9.96175
▁reports	-9.9618
▁cap	-9.96261
ish	-9.96405
▁blowing	-9.9641
▁sh	-9.96848
▁tail	-9.96959
▁animals	-9.97018
▁germans	-9.97022
▁secrets	-9.97072
▁shout	-9.97089
▁dies	-9.97099
▁create	-9.97121
▁score	-9.97196
▁expert	-9.97347
▁wave	-9.97436
▁vehicle	-9.97478
▁actor	-9.97611
▁dan	-9.97712
▁ohh	-9.97766
ious	-9.97894
li	-9.97895
▁there	-9.97944
▁bars	-9.98011
▁access	-9.98033
▁su	-9.98194
▁points	-9.98336
he	-9.98421
ts	-9.98482
▁enter	-9.98692
▁cheat	-9.987
▁rap	-9.98804
▁bleed	-9.99017
▁fail	-9.99133
▁guilt	-9.99258
▁hung	-9.9928
▁require	-9.99284
▁physical	-9.99292
▁non	-9.99308
▁iraq	-9.99325
▁andre	-9.99339
▁maid	-9.99396
▁ashamed	-9.99413
▁athena	-9.99413
▁attorney	-9.99413
▁audience	-9.99413
▁caleb	-9.99413
▁detroit	-9.99413
▁education	-9.99413
▁environment	-9.99413
▁jefferson	-9.99413
▁junior	-9.99413
▁ocean	-9.99413
▁offense	-9.99413
▁shrink	-9.99413
▁wesiey	-9.99413
▁rawlings	-9.99413
▁tragic	-9.99413
▁jessica	-9.99413
▁trigger	-9.99413
▁mckenzie	-9.99414
▁heydrich	-9.99414
▁josh	-9.99414
▁bingo	-9.99414
▁location	-9.99414
▁tiger	-9.99415
▁morris	-9.99415
▁mask	-9.99415
▁ignore	-9.99416
▁onto	-9.99416
▁stacy	-9.99416
▁spell	-9.99417
▁homicide	-9.99427
▁lorena	-9.99428
▁bible	-9.9943
▁available	-9.99431
▁community	-9.99433
▁aiden	-9.99442
▁fifty	-9.99442
▁hugh	-9.99445
▁data	-9.99448
▁tony	-9.99461
▁winter	-9.99466
▁laid	-9.99467
▁politics	-9.99469
▁stretch	-9.99474
▁gina	-9.99501
▁rice	-9.99506
▁tall	-9.99517
▁ruby	-9.99538
▁mia	-9.99542
▁heroin	-9.99555
▁carmen	-9.9958
▁lean	-9.996
▁lap	-9.99614
▁cameras	-9.99637
▁stairs	-9.99661
▁invited	-9.9971
▁si	-9.99712
▁reality	-9.99761
▁beeps	-9.9986
▁attacked	-9.99916
▁survived	-10.0001
ah	-10.0002
▁stealing	-10.0004
ka	-10.0017
▁lu	-10.0023
▁shota	-10.0033
▁returned	-10.0045
▁presents	-10.0052
▁te	-10.006
▁flying	-10.0064
▁parts	-10.0078
▁gosh	-10.0082
▁photos	-10.0104
▁neighbors	-10.0115
▁losers	-10.0125
go	-10.0136
▁remembered	-10.0136
ner	-10.0155
ator	-10.0186
▁suffer	-10.0189
▁pulling	-10.0194
▁hated	-10.0195
▁tickets	-10.0226
▁cards	-10.0238
▁cha	-10.0239
ca	-10.0256
▁stink	-10.0258
▁album	-10.0261
▁lines	-10.0262
dy	-10.0264
▁blade	-10.0265
▁friendship	-10.0268
▁connor	-10.027
▁election	-10.027
▁alien	-10.0276
▁pill	-10.0281
▁parent	-10.0281
▁yard	-10.0282
▁wa	-10.0292
▁ms	-10.0307
▁stars	-10.031
▁cast	-10.0311
▁sand	-10.0328
und	-10.0334
▁buyer	-10.0345
▁stones	-10.0404
▁damned	-10.0408
▁lo	-10.0409
▁execution	-10.0412
▁herr	-10.0414
▁kings	-10.042
▁clang	-10.0427
ger	-10.0431
▁collect	-10.0432
▁inform	-10.0434
▁shock	-10.0439
▁lin	-10.0448
▁desperate	-10.0456
▁mental	-10.0459
▁doug	-10.0459
ial	-10.0462
▁champ	-10.0465
▁specific	-10.0467
▁alfredo	-10.0468
▁ambulance	-10.0468
▁champagne	-10.0468
▁elvis	-10.0468
▁explosiveskull	-10.0468
▁fantastic	-10.0468
▁italian	-10.0468
▁leaf	-10.0468
▁license	-10.0468
▁marquis	-10.0468
▁mulligan	-10.0468
▁munich	-10.0468
▁nefarious	-10.0468
▁ocp	-10.0468
▁pizza	-10.0468
▁restaurant	-10.0468
▁ritual	-10.0468
▁salameh	-10.0468
▁surrender	-10.0468
▁changing	-10.0468
▁desert	-10.0468
▁modern	-10.0468
▁sniffles	-10.0468
▁burke	-10.0468
▁downtown	-10.0468
▁josef	-10.0468
▁dentist	-10.0468
▁heather	-10.0468
▁albert	-10.0468
▁brush	-10.0468
▁lenora	-10.0468
▁wide	-10.0468
▁terry	-10.0468
▁owner	-10.0468
▁psycho	-10.0469
▁arabic	-10.0469
▁award	-10.0469
▁broad	-10.0469
▁chess	-10.0469
▁nina	-10.047
▁gentleman	-10.047
▁disaster	-10.047
▁fellow	-10.047
▁murphy	-10.0471
▁walter	-10.0471
▁hopefully	-10.0473
▁campus	-10.0474
▁setting	-10.0474
▁killers	-10.0474
▁bored	-10.0475
▁whod	-10.0476
▁cutting	-10.0477
▁frankie	-10.0478
▁off	-10.0481
▁union	-10.049
▁weed	-10.0491
▁healthy	-10.0495
▁managed	-10.0496
▁shake	-10.0499
▁adams	-10.0502
▁pink	-10.0506
pe	-10.0517
▁smarter	-10.0518
▁journalist	-10.0523
▁faces	-10.0523
▁bullets	-10.0523
▁makeup	-10.0526
▁streets	-10.0527
▁mentioned	-10.0529
▁closet	-10.0537
▁ruf	-10.0538
▁ali	-10.0539
▁perfectly	-10.054
▁considering	-10.0545
▁changes	-10.0545
▁singer	-10.055
▁fore	-10.0574
▁fort	-10.0581
▁sid	-10.0591
▁classic	-10.0593
▁williams	-10.0596
▁as	-10.0598
▁ways	-10.0616
om	-10.0633
▁sl	-10.0653
▁touched	-10.0691
▁dreaming	-10.0742
▁cuts	-10.0747
ding	-10.0758
▁mi	-10.0762
▁beating	-10.0762
▁rounds	-10.0775
▁pig	-10.0782
▁fa	-10.0799
▁buying	-10.0805
▁shoe	-10.0816
▁wheel	-10.0817
▁circle	-10.0818
▁project	-10.0819
▁assistant	-10.0821
▁inmate	-10.0829
▁evan	-10.0831
▁neighbor	-10.0833
▁ra	-10.0836
▁stranger	-10.0857
▁boot	-10.0859
ba	-10.0874
▁suits	-10.0885
ism	-10.0886
▁ob	-10.0888
house	-10.0889
ical	-10.0891
▁loser	-10.09
▁gunshots	-10.0908
▁pitch	-10.0909
▁app	-10.0931
▁ram	-10.0958
end	-10.0962
▁machines	-10.0962
di	-10.0965
▁lawyers	-10.0973
▁pi	-10.0997
▁trace	-10.0999
▁remove	-10.1002
▁murders	-10.1005
▁measure	-10.1005
▁emotional	-10.1011
▁unlike	-10.1011
▁cheap	-10.1012
▁chose	-10.1017
▁contest	-10.1018
▁gentle	-10.102
▁popular	-10.1021
▁guitar	-10.1022
▁amount	-10.1023
▁arguing	-10.1023
▁awesome	-10.1023
▁bureau	-10.1023
▁circumstances	-10.1023
▁coincidence	-10.1023
▁exciting	-10.1023
▁families	-10.1023
▁franco	-10.1023
▁grief	-10.1023
▁judgment	-10.1023
▁miracle	-10.1023
▁renato	-10.1023
▁sarge	-10.1023
▁schultz	-10.1023
▁senior	-10.1023
▁unbelievable	-10.1023
▁vegas	-10.1023
▁violent	-10.1023
▁purvis	-10.1023
▁thomas	-10.1023
▁petroglyphs	-10.1023
▁interrupt	-10.1023
▁guide	-10.1023
▁muff	-10.1023
▁amber	-10.1024
▁joan	-10.1024
▁jury	-10.1024
▁roark	-10.1024
▁vacation	-10.1024
▁nuke	-10.1024
▁loyalty	-10.1024
▁possession	-10.1024
▁teii	-10.1024
▁forgotten	-10.1024
▁barney	-10.1024
▁sauce	-10.1025
▁yup	-10.1025
▁when	-10.1025
▁squeak	-10.1025
▁mercy	-10.1026
▁bury	-10.1028
▁wallet	-10.1029
▁edge	-10.1029
▁cage	-10.103
▁whispering	-10.1032
▁gray	-10.1032
▁kiddo	-10.1032
▁hitting	-10.1034
▁pity	-10.1034
▁marie	-10.1035
erial	-10.1036
▁spoken	-10.1036
▁fate	-10.1039
▁abandoned	-10.1039
▁designed	-10.1041
▁lack	-10.1041
▁granted	-10.1044
▁mis	-10.1044
▁commander	-10.1047
▁hired	-10.1054
▁pile	-10.1057
▁cheating	-10.107
▁rac	-10.107
▁rise	-10.107
▁latest	-10.1075
▁event	-10.1078
▁depends	-10.1085
▁hire	-10.109
▁gross	-10.1094
▁indistinctly	-10.1109
▁joined	-10.111
▁challenge	-10.1117
▁hostages	-10.1117
▁arrested	-10.1119
▁kicked	-10.1122
qu	-10.1124
▁towards	-10.1128
▁riding	-10.1137
▁carrying	-10.1141
▁scar	-10.1143
▁robert	-10.1187
▁chin	-10.1193
▁ida	-10.1207
▁ri	-10.1211
os	-10.1218
▁ordered	-10.1225
▁lover	-10.1228
ite	-10.1238
lin	-10.1243
▁kills	-10.1258
bar	-10.1267
▁loss	-10.127
ti	-10.1295
▁iron	-10.1305
▁runs	-10.1322
wa	-10.134
▁dudes	-10.1353
▁concern	-10.1375
ac	-10.1404
▁funeral	-10.1405
▁exit	-10.1409
▁shoulder	-10.1417
▁term	-10.142
▁forces	-10.1422
▁detail	-10.1422
▁photo	-10.1423
▁dollar	-10.1431
▁boo	-10.1441
▁rate	-10.1445
▁rob	-10.148
▁joy	-10.1507
▁signs	-10.1516
▁surely	-10.1561
▁appeal	-10.1563
▁dealing	-10.1565
▁avoid	-10.1566
ship	-10.1567
▁wast	-10.1579
down	-10.1581
▁sentence	-10.1587
▁secure	-10.1587
▁sneak	-10.1591
▁glen	-10.1605
▁brenda	-10.1605
▁smith	-10.1609
▁europe	-10.1609
▁unh	-10.1611
▁balkan	-10.1611
▁behavior	-10.1611
▁celeste	-10.1611
▁charlotte	-10.1611
▁couch	-10.1611
▁dawn	-10.1611
▁filthy	-10.1611
▁kendricks	-10.1611
▁lauren	-10.1611
▁lazlo	-10.1611
▁mikael	-10.1611
▁oclock	-10.1611
▁slut	-10.1611
▁underground	-10.1611
▁vicomte	-10.1611
▁wilcox	-10.1611
▁fitzgerald	-10.1611
▁garrett	-10.1611
▁kinky	-10.1611
▁swimming	-10.1611
▁dammit	-10.1611
▁nephew	-10.1611
▁maggie	-10.1612
▁winning	-10.1612
▁impressive	-10.1612
▁sobs	-10.1612
▁jewish	-10.1612
▁material	-10.1612
▁slap	-10.1612
▁counts	-10.1612
▁curious	-10.1612
▁garage	-10.1612
▁bulgarian	-10.1612
▁committed	-10.1612
▁pettyman	-10.1612
▁sophie	-10.1612
▁adler	-10.1612
▁foster	-10.1612
▁chasing	-10.1613
▁shopping	-10.1613
▁waist	-10.1613
▁santa	-10.1613
▁robbery	-10.1613
▁sarah	-10.1613
▁march	-10.1614
▁danceny	-10.1614
▁buzzes	-10.1614
▁arse	-10.1614
▁package	-10.1615
▁bound	-10.1615
▁tina	-10.1616
▁conor	-10.1616
▁port	-10.1616
▁homework	-10.1618
▁silhouettes	-10.1618
▁hitler	-10.1619
▁dip	-10.1619
▁retarded	-10.162
▁factory	-10.162
▁stable	-10.1621
▁coast	-10.1621
▁bush	-10.1622
▁johnson	-10.1623
▁threatened	-10.1623
▁executed	-10.1625
▁brady	-10.1626
▁dating	-10.1627
▁knowledge	-10.1628
▁cable	-10.1629
▁corpse	-10.1629
▁moral	-10.163
▁hangman	-10.1632
▁letham	-10.1633
▁julian	-10.1635
▁successful	-10.1636
▁bout	-10.1636
▁eaten	-10.1642
▁zee	-10.1643
▁karl	-10.1658
▁clanging	-10.1658
▁herod	-10.1659
▁entirely	-10.1659
▁loaded	-10.1661
▁va	-10.167
▁dings	-10.1673
ow	-10.1673
▁math	-10.1679
▁deserved	-10.1685
▁wayne	-10.1687
▁pub	-10.1694
▁motherfuckers	-10.1716
▁li	-10.1741
▁thoughts	-10.1741
▁counting	-10.1745
▁nash	-10.1746
▁fixed	-10.175
▁leading	-10.1765
▁nov	-10.1769
ball	-10.1775
▁col	-10.1776
▁playin	-10.1776
▁offering	-10.1778
▁lou	-10.1786
▁rebels	-10.1794
▁terms	-10.1806
▁ted	-10.1807
kin	-10.1823
▁media	-10.1829
▁br	-10.1839
▁jib	-10.1842
▁tears	-10.1848
▁pleased	-10.1855
▁kissing	-10.186
▁po	-10.1862
▁falls	-10.188
▁ar	-10.1903
▁pe	-10.1934
▁range	-10.1951
▁issues	-10.1962
▁thin	-10.1969
tro	-10.1976
▁receive	-10.1979
▁del	-10.1994
▁mei	-10.1997
▁pound	-10.2004
sa	-10.2004
▁fi	-10.2021
▁associate	-10.203
▁all	-10.2032
▁wrist	-10.2034
▁grandmother	-10.2037
▁effect	-10.2038
▁rope	-10.204
▁citizen	-10.2042
▁rebel	-10.2044
▁moments	-10.2046
▁hooker	-10.2058
▁tool	-10.2058
▁assholes	-10.2092
▁mile	-10.2097
▁steps	-10.2104
▁wins	-10.2107
for	-10.211
▁admire	-10.2124
che	-10.2173
▁comfort	-10.2192
▁bail	-10.2204
▁confirm	-10.2205
▁intend	-10.2205
▁ab	-10.2208
▁schedule	-10.2213
▁millions	-10.2214
ph	-10.2219
▁sacrifice	-10.222
▁gr	-10.223
▁author	-10.2234
▁transfer	-10.2236
▁agency	-10.2236
▁background	-10.2236
▁becoming	-10.2236
▁celebrate	-10.2236
▁custody	-10.2236
▁dallas	-10.2236
▁dublin	-10.2236
▁easily	-10.2236
▁envelope	-10.2236
▁escort	-10.2236
▁gorgeous	-10.2236
▁jennifer	-10.2236
▁lancelot	-10.2236
▁luigi	-10.2236
▁mannix	-10.2236
▁matthew	-10.2236
▁myrtle	-10.2236
▁paradise	-10.2236
▁paranoid	-10.2236
▁response	-10.2236
▁safranek	-10.2236
▁segar	-10.2236
▁stood	-10.2236
▁wealth	-10.2236
▁wednesday	-10.2236
▁whitney	-10.2236
▁jarrett	-10.2236
▁parole	-10.2236
▁activity	-10.2236
▁natalie	-10.2236
▁practical	-10.2236
▁retreat	-10.2236
▁kidnapper	-10.2236
▁monday	-10.2237
allelu	-10.2237
ng	-10.2237
▁dennis	-10.2237
▁boston	-10.2237
▁cowboy	-10.2237
▁notebook	-10.2237
▁wholl	-10.2237
▁plug	-10.2237
▁reward	-10.2237
▁typewriter	-10.2237
▁olivia	-10.2237
▁carried	-10.2237
▁aside	-10.2237
▁sammy	-10.2237
▁announcement	-10.2238
▁gail	-10.2238
▁selena	-10.2238
▁policy	-10.2238
▁brianna	-10.2238
▁thane	-10.2238
▁virginia	-10.2239
▁loving	-10.2239
▁virus	-10.2239
▁bernie	-10.2239
▁socialist	-10.2239
▁derry	-10.2239
▁solo	-10.2239
▁product	-10.2239
▁entry	-10.224
▁tries	-10.2242
▁wise	-10.2242
▁float	-10.2243
▁inhales	-10.2243
▁standard	-10.2244
▁juice	-10.2245
▁forest	-10.2246
▁oil	-10.2246
▁waitress	-10.2248
▁fallen	-10.225
▁kai	-10.2254
▁betrayed	-10.2255
▁nail	-10.2255
▁embarrassing	-10.2257
▁wicked	-10.2257
▁shy	-10.2257
▁prize	-10.2259
▁ticky	-10.226
tter	-10.2263
▁laws	-10.2266
▁stew	-10.2266
▁delivery	-10.2267
▁bully	-10.2271
▁shocked	-10.2272
▁fights	-10.2276
▁grave	-10.228
▁growls	-10.228
▁blessed	-10.2284
▁wounded	-10.229
▁manage	-10.23
▁powers	-10.2302
op	-10.2304
▁gin	-10.2311
▁mayor	-10.2333
▁crossed	-10.2334
▁leads	-10.2335
▁clearly	-10.2336
▁rub	-10.2344
ay	-10.2345
▁leaves	-10.2351
tch	-10.2352
▁higher	-10.2353
▁yous	-10.2354
▁goodness	-10.2356
▁laughed	-10.236
▁chances	-10.2362
▁hath	-10.238
▁vi	-10.24
▁badge	-10.2401
▁resist	-10.2409
▁eliminate	-10.2411
cking	-10.2424
em	-10.2425
▁messing	-10.2447
▁min	-10.2453
▁pin	-10.2454
▁recording	-10.2457
▁bend	-10.2507
ot	-10.253
▁nightmares	-10.2534
▁bones	-10.2534
▁workin	-10.2564
▁badly	-10.2566
▁ver	-10.257
at	-10.2585
▁pat	-10.2589
▁vic	-10.2611
▁he	-10.2627
▁fans	-10.2637
ors	-10.2646
gu	-10.2649
▁chop	-10.2657
▁strip	-10.2664
▁remain	-10.2669
way	-10.2672
▁claim	-10.2687
▁belongs	-10.269
▁za	-10.2691
▁cal	-10.2699
▁affair	-10.2701
▁indian	-10.2704
▁andrea	-10.2705
▁newspaper	-10.2707
▁uniform	-10.2707
▁steven	-10.2723
▁pops	-10.274
▁waited	-10.2752
▁songs	-10.2777
po	-10.2779
ied	-10.2783
▁myth	-10.2819
▁hunt	-10.2833
▁speaker	-10.2836
ev	-10.2851
▁complain	-10.2857
▁supply	-10.2859
▁crush	-10.2869
▁attempt	-10.2871
▁crawl	-10.2871
▁stake	-10.2875
▁explode	-10.2879
▁separate	-10.288
▁curse	-10.2881
▁likely	-10.2882
▁thick	-10.289
▁georg	-10.289
▁actual	-10.2893
▁africa	-10.2897
▁sandwich	-10.2897
uck	-10.2898
▁israel	-10.2898
▁lab	-10.29
▁isabel	-10.2901
▁gig	-10.2901
urban	-10.2901
▁tess	-10.2902
▁attitude	-10.2903
▁channel	-10.2903
▁corporation	-10.2903
▁explosion	-10.2903
▁facility	-10.2903
▁florida	-10.2903
▁garbage	-10.2903
▁genuine	-10.2903
▁holiday	-10.2903
▁houston	-10.2903
▁hurst	-10.2903
▁identity	-10.2903
▁jassie	-10.2903
▁kenny	-10.2903
▁klaus	-10.2903
▁murmansk	-10.2903
▁mystery	-10.2903
▁opposite	-10.2903
▁respond	-10.2903
▁robocop	-10.2903
▁senator	-10.2903
▁september	-10.2903
▁stabbed	-10.2903
▁stewart	-10.2903
▁tattoo	-10.2903
▁television	-10.2903
▁telfer	-10.2903
▁unhappy	-10.2903
▁veronika	-10.2903
▁vogelmann	-10.2903
▁jordan	-10.2903
▁rescue	-10.2903
▁speer	-10.2903
▁drove	-10.2903
▁central	-10.2903
▁international	-10.2903
▁mccoy	-10.2903
▁purse	-10.2903
▁network	-10.2903
▁miami	-10.2903
▁celebrating	-10.2903
▁dunnage	-10.2903
▁pathetic	-10.2903
▁bravo	-10.2903
▁vickie	-10.2903
▁carolina	-10.2903
▁motel	-10.2903
▁online	-10.2903
▁chocolate	-10.2904
▁sensitive	-10.2904
▁spud	-10.2904
▁bount	-10.2904
▁urgent	-10.2904
▁foul	-10.2904
▁mouse	-10.2904
▁motion	-10.2904
▁skinny	-10.2904
▁delegates	-10.2904
▁hence	-10.2904
▁infection	-10.2904
▁padre	-10.2904
▁gertrude	-10.2904
▁confession	-10.2905
▁domino	-10.2905
▁doorbell	-10.2905
▁psychiatrist	-10.2905
▁sack	-10.2905
▁century	-10.2905
▁labor	-10.2905
▁headache	-10.2906
▁stillwater	-10.2906
▁capable	-10.2906
▁technically	-10.2906
▁rack	-10.2906
▁speedman	-10.2907
▁extremely	-10.2907
▁brad	-10.2907
▁grass	-10.2907
▁rod	-10.2907
▁stripper	-10.2908
▁honking	-10.2908
▁plain	-10.2908
▁whatre	-10.2909
▁collection	-10.2909
▁brendan	-10.291
▁connie	-10.291
▁grip	-10.2912
▁gunner	-10.2912
▁cabin	-10.2915
▁passion	-10.2916
▁connected	-10.2917
▁mustang	-10.2917
▁clicking	-10.2919
▁witnesses	-10.292
▁fires	-10.2921
▁naturally	-10.2926
▁bald	-10.2926
▁spring	-10.2928
▁joker	-10.2929
▁received	-10.2931
▁earned	-10.2932
▁highest	-10.2933
▁hearts	-10.2936
▁confirmed	-10.2937
▁settled	-10.2939
▁alcohol	-10.2945
▁served	-10.2952
▁jt	-10.2956
▁county	-10.2961
▁shatters	-10.2964
ized	-10.2964
▁focused	-10.2964
air	-10.2966
▁ruined	-10.297
▁emotions	-10.2977
▁filled	-10.2981
▁wipe	-10.2983
▁sc	-10.2987
ina	-10.2998
hi	-10.3001
▁skills	-10.3004
▁bl	-10.3008
▁cooking	-10.3012
▁pretending	-10.3014
▁jews	-10.3017
▁tires	-10.3031
▁attend	-10.3038
ham	-10.3041
▁painful	-10.3044
▁sal	-10.3045
mo	-10.3057
▁anne	-10.3068
▁phones	-10.3069
▁visiting	-10.307
im	-10.307
▁gloves	-10.3085
▁slaves	-10.3085
▁dia	-10.3086
▁mat	-10.3096
▁kissed	-10.3107
me	-10.3126
▁pio	-10.3137
▁sub	-10.3139
ping	-10.3142
▁x	-10.3153
rich	-10.3156
▁odds	-10.3181
▁bru	-10.3242
▁trusted	-10.3267
▁or	-10.3291
▁angels	-10.3305
▁minnies	-10.3319
over	-10.3354
▁cow	-10.3355
▁mc	-10.3365
▁diet	-10.3371
▁clients	-10.3374
bi	-10.3379
▁eggs	-10.3387
▁cheer	-10.3393
▁pockets	-10.3402
▁cottage	-10.3405
▁label	-10.341
▁fo	-10.3414
▁shift	-10.3416
▁bunker	-10.3418
▁hon	-10.3419
▁spare	-10.3421
▁button	-10.3422
▁knee	-10.3429
▁customer	-10.3431
▁sometime	-10.3431
▁slave	-10.3441
▁glove	-10.3443
▁grade	-10.3447
ap	-10.3454
iss	-10.3462
▁prayer	-10.3467
▁cla	-10.3483
▁bal	-10.3494
▁prep	-10.351
▁ski	-10.3514
▁ron	-10.3531
▁hates	-10.3537
▁targets	-10.3543
nn	-10.3559
▁deck	-10.3567
▁scratch	-10.3572
▁usa	-10.3576
ily	-10.3577
▁brief	-10.3587
▁divorce	-10.3593
▁torture	-10.3594
▁suspicious	-10.3605
▁earn	-10.3605
▁trail	-10.3606
king	-10.3608
▁kev	-10.3612
▁commit	-10.3616
▁fifth	-10.3617
▁reckon	-10.3617
▁tooth	-10.3617
▁belief	-10.3617
▁blizzard	-10.3617
▁blomkvist	-10.3617
▁candidate	-10.3617
▁cemetery	-10.3617
▁chirping	-10.3617
▁cornwallis	-10.3617
▁damien	-10.3617
▁delilah	-10.3617
▁eleven	-10.3617
▁giovanni	-10.3617
▁hartigan	-10.3617
▁impact	-10.3617
▁industry	-10.3617
▁kehoe	-10.3617
▁lipstick	-10.3617
▁lorraine	-10.3617
▁ooooh	-10.3617
▁outfit	-10.3617
▁patricia	-10.3617
▁perrkins	-10.3617
▁pilot	-10.3617
▁precious	-10.3617
▁promotion	-10.3617
▁routine	-10.3617
▁rykov	-10.3617
▁saint	-10.3617
▁surgery	-10.3617
▁sydney	-10.3617
▁valuable	-10.3617
▁yelping	-10.3617
▁beast	-10.3617
▁ease	-10.3617
▁pickett	-10.3617
▁rifle	-10.3617
▁robbed	-10.3617
▁silent	-10.3617
▁pimp	-10.3617
▁drill	-10.3617
▁hammer	-10.3617
▁peggy	-10.3617
▁influence	-10.3617
▁studio	-10.3617
▁kidnapped	-10.3617
▁primary	-10.3617
▁underwear	-10.3618
▁planning	-10.3618
▁solid	-10.3618
▁octopus	-10.3618
▁merlin	-10.3618
▁freezing	-10.3618
▁trent	-10.3618
▁owns	-10.3618
▁crew	-10.3618
▁lousy	-10.3618
▁pride	-10.3618
▁charity	-10.3618
▁rotten	-10.3618
▁anger	-10.3618
▁fridge	-10.3618
▁sayin	-10.3618
▁russo	-10.3618
▁margaret	-10.3618
▁trap	-10.3619
▁barking	-10.362
▁nonsense	-10.362
▁depressed	-10.362
▁apple	-10.362
▁hank	-10.362
▁blank	-10.362
▁priority	-10.3621
▁agreement	-10.3622
ville	-10.3622
▁nasty	-10.3623
▁darkness	-10.3624
▁archer	-10.3624
▁exhausted	-10.3625
▁squad	-10.3625
▁destiny	-10.3625
boy	-10.3625
▁junkie	-10.3626
▁leah	-10.3626
▁andy	-10.3629
▁thus	-10.3632
▁discovered	-10.3633
▁choking	-10.3634
▁fade	-10.3635
▁pam	-10.3636
▁properly	-10.3637
▁assist	-10.364
▁tax	-10.3647
▁joint	-10.3647
▁jam	-10.3651
▁normally	-10.3652
▁afterwards	-10.3654
▁painted	-10.3678
▁pure	-10.3679
▁bash	-10.3687
▁lit	-10.3689
▁meantime	-10.3691
▁log	-10.3692
▁gu	-10.3695
▁not	-10.3702
▁tale	-10.3702
▁freaking	-10.3703
▁shared	-10.3717
▁options	-10.3726
▁pissed	-10.373
▁uhh	-10.374
▁civilians	-10.3741
▁lion	-10.3749
▁marv	-10.3751
▁mob	-10.3751
▁skipp	-10.3764
▁com	-10.3766
▁shove	-10.3771
▁enjoyed	-10.378
▁dancer	-10.3781
▁tapes	-10.3791
▁teaching	-10.3797
▁pushing	-10.3814
rumme	-10.3822
▁banks	-10.3823
▁jane	-10.3829
▁bo	-10.3842
▁souls	-10.386
▁cleaned	-10.386
ating	-10.3877
▁rep	-10.3882
▁bri	-10.3898
▁fe	-10.3898
▁pipe	-10.39
▁shouts	-10.3903
▁yen	-10.3915
ex	-10.3916
▁friendly	-10.3917
con	-10.3928
▁bells	-10.3936
▁pan	-10.3943
▁answering	-10.3959
ig	-10.3996
ud	-10.3996
▁minor	-10.3997
▁led	-10.4007
▁pages	-10.4019
▁windows	-10.4022
▁touching	-10.4053
▁marks	-10.4059
▁stands	-10.406
bu	-10.4065
▁gut	-10.4066
▁teachers	-10.4075
▁accidental	-10.4076
▁pointed	-10.4077
▁cocks	-10.411
tion	-10.4126
if	-10.413
▁photograph	-10.4132
▁chi	-10.4142
▁sue	-10.4155
▁weigh	-10.4166
▁nerve	-10.418
▁string	-10.4182
▁grandpa	-10.4185
▁root	-10.4187
▁grenade	-10.4188
▁saddam	-10.4192
▁can	-10.4193
▁toy	-10.4197
car	-10.4201
▁nazi	-10.4221
▁unc	-10.4227
▁skip	-10.4241
eg	-10.4243
ze	-10.4259
▁sucks	-10.4262
▁hats	-10.4268
▁disturb	-10.4299
▁noon	-10.4301
cha	-10.4304
serving	-10.4306
▁heal	-10.4313
▁pour	-10.4319
▁spirits	-10.4323
▁commission	-10.4324
well	-10.4336
▁bow	-10.4346
▁succeed	-10.4354
▁monitor	-10.4355
▁rot	-10.436
just	-10.4362
▁advance	-10.4363
▁brand	-10.4366
ster	-10.4372
▁random	-10.4373
▁disorder	-10.4374
▁current	-10.4375
▁russia	-10.4381
rate	-10.4382
▁clark	-10.4384
▁assassin	-10.4385
▁exam	-10.4386
▁inter	-10.4386
▁anniversary	-10.4387
▁awkward	-10.4387
▁bachelor	-10.4387
▁clamoring	-10.4387
▁cocktail	-10.4387
▁compliment	-10.4387
▁domergue	-10.4387
▁elena	-10.4387
▁enemies	-10.4387
▁eskimo	-10.4387
▁juggernaut	-10.4387
▁katherine	-10.4387
▁kennard	-10.4387
▁library	-10.4387
▁liquid	-10.4387
▁liquor	-10.4387
▁militia	-10.4387
▁museum	-10.4387
▁norway	-10.4387
▁pancakes	-10.4387
▁privacy	-10.4387
▁progress	-10.4387
▁purple	-10.4387
▁ramirez	-10.4387
▁referee	-10.4387
▁relieved	-10.4387
▁similar	-10.4387
▁skull	-10.4387
▁snake	-10.4387
▁surgeon	-10.4387
▁twelve	-10.4387
▁renate	-10.4387
▁coconut	-10.4387
▁conflict	-10.4387
▁feather	-10.4387
▁colleague	-10.4387
▁cocaine	-10.4387
▁individual	-10.4387
▁crisis	-10.4387
▁cheek	-10.4387
▁plastic	-10.4387
▁therapist	-10.4387
▁carries	-10.4387
▁reservation	-10.4387
▁review	-10.4387
▁solomon	-10.4387
▁susan	-10.4387
▁towel	-10.4387
▁vicky	-10.4387
▁grandfather	-10.4387
▁gain	-10.4387
▁orange	-10.4387
▁collar	-10.4387
▁laundry	-10.4387
▁delicious	-10.4387
▁clive	-10.4387
▁editor	-10.4387
▁balance	-10.4387
▁content	-10.4388
▁zoo	-10.4388
▁planned	-10.4388
▁blanket	-10.4388
▁ditch	-10.4388
▁passport	-10.4388
▁racist	-10.4388
▁andrew	-10.4389
▁authority	-10.4389
▁cliff	-10.4389
▁shave	-10.4389
▁poppa	-10.4389
▁task	-10.4389
▁crackling	-10.439
▁swan	-10.4391
▁halfway	-10.4391
▁treatment	-10.4395
▁clattering	-10.4395
▁bleedin	-10.4396
▁cycle	-10.4397
▁stream	-10.4397
▁currently	-10.4398
▁barber	-10.44
▁wander	-10.4405
▁pullman	-10.4407
▁bills	-10.4407
▁poet	-10.4409
▁brakes	-10.441
▁copies	-10.4411
▁down	-10.4414
▁fashion	-10.4415
▁charming	-10.4419
ell	-10.442
▁whys	-10.4426
▁disturbing	-10.4429
▁louder	-10.4429
▁site	-10.4433
▁fl	-10.4434
▁lan	-10.4435
▁freaked	-10.4452
▁entering	-10.4452
▁raped	-10.4455
▁grant	-10.4457
▁reminded	-10.4466
▁gotcha	-10.4468
▁safer	-10.4469
▁lungs	-10.4473
▁suspected	-10.4484
▁messy	-10.4486
▁meters	-10.4487
▁belly	-10.4489
▁escaped	-10.4491
▁asses	-10.4507
▁sales	-10.4508
▁untie	-10.4508
▁recorder	-10.4513
ko	-10.4522
ky	-10.4525
▁clubs	-10.4525
▁clouds	-10.4536
▁offered	-10.4546
▁wondered	-10.4546
ther	-10.4552
▁reported	-10.4561
▁parking	-10.4572
▁landing	-10.4596
▁packing	-10.46
▁passing	-10.461
▁ci	-10.4624
▁projects	-10.4663
▁rec	-10.4667
ize	-10.4668
▁stinks	-10.4678
▁hip	-10.4689
four	-10.4696
side	-10.4724
▁mu	-10.4742
▁sis	-10.4746
▁throwing	-10.476
ci	-10.4769
ress	-10.4774
▁mix	-10.4788
▁tracks	-10.4795
▁prisoners	-10.4807
▁cub	-10.4811
▁picking	-10.4816
▁walks	-10.4818
cat	-10.4837
▁patients	-10.484
▁pend	-10.4867
▁demons	-10.4873
ny	-10.4888
▁criminals	-10.4889
▁wrap	-10.4917
que	-10.4929
lon	-10.4932
▁trains	-10.4937
▁ye	-10.4939
▁hills	-10.4952
yeh	-10.4956
▁merci	-10.4958
▁questioning	-10.4973
▁worrying	-10.4982
tive	-10.4991
▁appear	-10.4998
▁er	-10.5004
▁threat	-10.5004
▁exercise	-10.5008
▁creature	-10.5008
▁viking	-10.5014
▁scout	-10.5015
cu	-10.5017
▁procedure	-10.5018
▁manning	-10.5018
▁steak	-10.5018
▁medal	-10.5018
▁candle	-10.502
▁tank	-10.5022
▁tai	-10.5026
mat	-10.5026
▁sandy	-10.5034
▁wi	-10.5039
▁nut	-10.5045
sen	-10.5046
▁hu	-10.5057
▁bra	-10.5091
▁pr	-10.5096
▁dates	-10.5102
▁actions	-10.512
▁palm	-10.5147
▁drawing	-10.5153
▁sail	-10.5175
▁scrap	-10.5175
▁applaud	-10.5175
▁proceed	-10.5175
▁ge	-10.5183
▁spin	-10.5184
▁hid	-10.5187
▁wreck	-10.5188
▁charges	-10.5189
town	-10.5192
field	-10.5192
board	-10.5192
▁stress	-10.5193
port	-10.5193
▁guards	-10.5194
▁describe	-10.5197
▁convince	-10.5197
▁perform	-10.5199
▁link	-10.5199
▁solve	-10.5202
▁madam	-10.5203
▁z	-10.5208
▁numb	-10.5208
▁cure	-10.5209
au	-10.5209
▁drama	-10.5209
berg	-10.5211
▁rick	-10.5213
▁dispatch	-10.5213
▁sew	-10.5216
▁loyal	-10.5217
ible	-10.5218
▁improve	-10.5219
▁cruel	-10.5219
▁mag	-10.522
▁achieve	-10.522
▁absurd	-10.522
▁accent	-10.522
▁approximately	-10.522
▁austin	-10.522
▁blackmail	-10.522
▁bread	-10.522
▁casablanca	-10.522
▁collapse	-10.522
▁combat	-10.522
▁concept	-10.522
▁continent	-10.522
▁dahye	-10.522
▁decent	-10.522
▁device	-10.522
▁happiness	-10.522
▁harvard	-10.522
▁miserable	-10.522
▁morocco	-10.522
▁nightingale	-10.522
▁ornithologist	-10.522
▁pencil	-10.522
▁philatelist	-10.522
▁principal	-10.522
▁privilege	-10.522
▁rattling	-10.522
▁relief	-10.522
▁smack	-10.522
▁someplace	-10.522
▁swore	-10.522
▁temple	-10.522
▁tissue	-10.522
▁tunnel	-10.522
▁twat	-10.522
▁wegener	-10.522
▁jeez	-10.522
▁neighbourhood	-10.522
▁waverly	-10.522
▁ellis	-10.522
▁kyle	-10.522
▁uhuh	-10.522
through	-10.522
▁hauser	-10.522
▁absence	-10.522
▁kidnapping	-10.522
▁francisco	-10.522
▁drain	-10.522
▁refrigerator	-10.522
▁grabbed	-10.522
▁harford	-10.522
▁existence	-10.522
▁freddy	-10.522
▁authorities	-10.522
▁prime	-10.522
▁argh	-10.522
▁failure	-10.522
▁mossad	-10.522
▁ritter	-10.522
▁jammed	-10.522
▁motor	-10.5221
▁booze	-10.5221
▁wagon	-10.5221
▁salad	-10.5221
▁performance	-10.5221
▁giant	-10.5221
▁development	-10.5221
▁starving	-10.5221
▁cellphone	-10.5221
▁internet	-10.5221
▁contain	-10.5221
▁abra	-10.5221
▁ballistic	-10.5221
▁bobbi	-10.5221
▁detected	-10.5221
▁shotgun	-10.5222
▁bethany	-10.5222
▁georgia	-10.5222
▁alpa	-10.5222
▁panic	-10.5222
▁soup	-10.5222
▁alley	-10.5222
▁gladys	-10.5223
▁critical	-10.5223
▁european	-10.5223
▁jayne	-10.5223
▁piace	-10.5223
▁steady	-10.5223
▁blonde	-10.5223
▁angie	-10.5223
▁ellen	-10.5224
▁inches	-10.5224
▁management	-10.5224
▁quality	-10.5225
▁fax	-10.5225
▁heil	-10.5225
▁moaning	-10.5226
▁ew	-10.5226
▁peterson	-10.5226
▁flies	-10.5227
ittie	-10.5227
▁limbo	-10.5227
old	-10.5228
▁convicted	-10.5229
▁tiny	-10.5229
▁bah	-10.5232
▁engaged	-10.5233
▁warned	-10.5235
▁whack	-10.5236
▁praise	-10.5237
▁growling	-10.5237
▁ying	-10.524
▁stopping	-10.5242
▁directly	-10.5245
▁noble	-10.5246
▁booty	-10.5246
▁fink	-10.5247
br	-10.5251
▁platt	-10.5252
▁mid	-10.5253
▁nest	-10.5255
the	-10.5256
▁germany	-10.5259
▁goodnight	-10.527
▁satan	-10.5271
▁needle	-10.5271
▁cases	-10.5276
▁her	-10.5284
▁poisoned	-10.5284
▁structure	-10.5285
▁fed	-10.5288
▁mem	-10.5313
ica	-10.5319
▁services	-10.5322
▁homer	-10.5333
▁mistakes	-10.534
day	-10.5344
▁wasted	-10.5345
▁rape	-10.5345
▁comp	-10.5347
▁refugees	-10.5349
▁bees	-10.5354
▁grad	-10.5371
▁sa	-10.5372
you	-10.5374
▁lads	-10.5376
▁seasons	-10.54
▁meds	-10.54
▁shown	-10.5401
▁sting	-10.5405
der	-10.5407
▁crossing	-10.5407
▁joining	-10.5407
▁cells	-10.5408
▁prom	-10.5417
▁feds	-10.5417
▁image	-10.5422
▁pale	-10.5427
night	-10.5429
red	-10.5431
gh	-10.5447
▁sta	-10.5453
▁imma	-10.5457
▁moves	-10.5457
▁grades	-10.5458
▁dye	-10.5466
▁hai	-10.548
▁enjoying	-10.5489
▁extract	-10.5493
▁mere	-10.5496
ni	-10.5511
▁evans	-10.5522
▁nicer	-10.5523
▁strangers	-10.5528
▁fools	-10.5532
▁shooter	-10.554
▁pu	-10.5549
top	-10.5555
▁vehicles	-10.5557
nk	-10.5559
▁q	-10.5561
ile	-10.5572
za	-10.5584
▁arab	-10.5587
▁spit	-10.5589
▁funk	-10.5602
io	-10.5621
▁fighters	-10.5628
bb	-10.5651
▁cl	-10.5659
▁diamonds	-10.5662
▁ages	-10.5681
ms	-10.5683
▁kit	-10.5695
▁wounds	-10.5699
▁thinkin	-10.5705
▁reds	-10.5707
room	-10.5707
▁gag	-10.575
▁bombs	-10.5754
▁bands	-10.5795
▁players	-10.5805
▁bangs	-10.5805
▁checks	-10.5816
▁wu	-10.5844
▁caused	-10.5851
▁har	-10.5867
pp	-10.5867
▁represent	-10.5886
▁we	-10.5891
▁demand	-10.5896
▁damage	-10.5903
▁arrive	-10.5906
iy	-10.5916
▁gangster	-10.5918
▁coz	-10.5918
▁bride	-10.5921
▁comrade	-10.5923
▁arrangement	-10.5924
▁chick	-10.5926
▁sunset	-10.5927
▁snap	-10.5929
▁benefit	-10.5929
▁vampire	-10.5933
▁quarter	-10.5934
▁season	-10.5939
▁member	-10.5943
▁forty	-10.5949
▁design	-10.5965
▁tri	-10.5973
▁choke	-10.5986
▁pointing	-10.5989
▁gar	-10.6002
▁accounts	-10.6005
lt	-10.6011
▁blows	-10.6014
rk	-10.6037
▁approach	-10.605
▁multipl	-10.6055
▁gather	-10.6056
▁effort	-10.6056
▁lip	-10.6061
our	-10.6071
▁conduct	-10.6082
▁pays	-10.6091
▁deny	-10.6095
▁recommend	-10.6097
▁chase	-10.61
▁capture	-10.6106
▁wick	-10.6106
▁tune	-10.6109
▁med	-10.611
▁pals	-10.6111
ring	-10.6113
ak	-10.6115
▁equal	-10.6116
▁savage	-10.6116
▁kuwait	-10.6116
▁mamas	-10.6117
▁absolute	-10.6118
▁slice	-10.6118
▁restrain	-10.6121
▁salt	-10.6121
▁una	-10.6121
ium	-10.6123
▁express	-10.6126
▁lovin	-10.6126
▁despi	-10.6127
ably	-10.6127
▁electric	-10.6127
▁sara	-10.6128
▁hawk	-10.6129
▁trauma	-10.6129
▁complex	-10.6129
▁amigo	-10.6129
▁amsterdam	-10.6129
▁bastide	-10.6129
▁benjamin	-10.6129
▁bloke	-10.6129
▁celebrity	-10.6129
▁cocksucker	-10.6129
▁combination	-10.6129
▁connolly	-10.6129
▁constant	-10.6129
▁district	-10.6129
▁dungatar	-10.6129
▁eejit	-10.6129
▁explanation	-10.6129
▁flew	-10.6129
▁furniture	-10.6129
▁gabriel	-10.6129
▁galahad	-10.6129
▁haircut	-10.6129
▁hanlon	-10.6129
▁instrument	-10.6129
▁jamshidi	-10.6129
▁jersey	-10.6129
▁kaspbrak	-10.6129
▁kekambas	-10.6129
▁lmelda	-10.6129
▁lurasetti	-10.6129
▁marybeth	-10.6129
▁memories	-10.6129
▁morgue	-10.6129
▁patience	-10.6129
▁penalty	-10.6129
▁pistol	-10.6129
▁potential	-10.6129
▁rhythm	-10.6129
▁rocknroll	-10.6129
▁samuel	-10.6129
▁screeches	-10.6129
▁stroke	-10.6129
▁testimony	-10.6129
▁uncomfortable	-10.6129
▁unique	-10.6129
▁universe	-10.6129
▁unknown	-10.6129
▁vanessa	-10.6129
▁vasquez	-10.6129
▁veronica	-10.6129
▁whimpers	-10.6129
▁willard	-10.6129
▁wouid	-10.6129
▁yelps	-10.6129
▁activities	-10.6129
▁clerk	-10.6129
▁naughty	-10.6129
▁presence	-10.6129
▁sixteen	-10.6129
▁burglar	-10.6129
▁manifest	-10.6129
▁cease	-10.6129
▁independence	-10.6129
▁convertible	-10.6129
▁shelter	-10.6129
▁alert	-10.6129
▁cavalry	-10.6129
▁pepper	-10.6129
▁clinic	-10.6129
▁begbie	-10.6129
▁pension	-10.6129
▁korea	-10.6129
▁frozen	-10.6129
▁gilbert	-10.6129
▁retirement	-10.6129
▁leonard	-10.6129
▁ouch	-10.6129
▁tourvel	-10.6129
▁trumpet	-10.6129
▁choir	-10.613
▁yis	-10.613
▁cort	-10.613
▁poem	-10.613
▁france	-10.613
▁chapter	-10.613
▁blah	-10.613
▁pervert	-10.613
▁peder	-10.613
▁inspector	-10.613
▁objective	-10.613
cient	-10.613
▁scotch	-10.613
▁replacement	-10.613
▁stab	-10.613
▁youth	-10.613
▁wingman	-10.613
▁alpha	-10.613
▁xforce	-10.613
▁adventure	-10.613
▁mick	-10.613
▁email	-10.613
▁ridgeman	-10.6131
▁sandra	-10.6131
▁electricity	-10.6131
▁headmaster	-10.6131
▁begun	-10.6131
▁kitty	-10.6131
▁brace	-10.6131
▁sunny	-10.6131
▁lazy	-10.6131
▁opera	-10.6131
iff	-10.6131
▁convoy	-10.6131
▁lindo	-10.6132
▁vanger	-10.6132
▁bold	-10.6132
▁blast	-10.6132
▁bond	-10.6132
▁version	-10.6132
▁exposed	-10.6132
▁housekeeper	-10.6133
▁smithers	-10.6133
▁massage	-10.6133
▁assignment	-10.6133
▁stepped	-10.6134
▁roommate	-10.6134
▁silence	-10.6134
▁laughlng	-10.6134
▁mentor	-10.6135
▁estate	-10.6135
▁gim	-10.6135
▁whatll	-10.6135
▁facebook	-10.6135
coon	-10.6136
▁construction	-10.6136
▁marty	-10.6136
▁taxes	-10.6137
▁burst	-10.6137
▁culture	-10.6138
▁hart	-10.6138
▁indiana	-10.6138
▁dumbass	-10.6139
▁sore	-10.6139
▁fox	-10.6139
▁sync	-10.6139
▁vest	-10.6139
▁obsessed	-10.6139
▁roaring	-10.6139
▁bollocks	-10.6139
▁cue	-10.614
▁denied	-10.614
▁quid	-10.6141
▁soda	-10.6141
▁moss	-10.6141
▁monk	-10.6142
▁infected	-10.6142
▁coal	-10.6144
▁iraqi	-10.6147
▁angelo	-10.6148
▁arranged	-10.6148
▁heroes	-10.6148
▁vice	-10.6148
▁fry	-10.6149
▁takin	-10.6149
▁gage	-10.6149
▁payment	-10.615
▁whistle	-10.615
▁tossed	-10.6151
▁threatening	-10.6155
▁honks	-10.6158
▁restore	-10.6161
▁carol	-10.6161
▁dial	-10.6162
▁scheduled	-10.6163
▁movement	-10.6169
▁parties	-10.617
zo	-10.617
▁hunter	-10.6174
▁stain	-10.6174
▁clatters	-10.6176
▁revolution	-10.6176
▁pouring	-10.6179
ability	-10.6181
▁kisses	-10.6184
▁cheated	-10.6186
▁intention	-10.619
▁rag	-10.6194
▁polls	-10.6195
▁roman	-10.6197
▁scaring	-10.6199
▁drawer	-10.6205
▁released	-10.6206
▁nap	-10.6208
▁rem	-10.6209
▁ro	-10.6212
▁shitting	-10.6212
pin	-10.6214
▁muscles	-10.6214
▁lick	-10.6219
▁chat	-10.6229
▁fears	-10.623
▁cracked	-10.6235
▁len	-10.6246
▁hooked	-10.6247
▁ut	-10.6254
▁bud	-10.6256
▁sucked	-10.6258
▁ga	-10.6259
▁traveling	-10.6261
ory	-10.6267
▁pelts	-10.627
▁documents	-10.6271
▁filling	-10.6273
▁jumped	-10.6282
▁chips	-10.6289
reason	-10.6298
▁shin	-10.63
▁lighter	-10.6307
res	-10.6311
▁mountains	-10.6319
▁tar	-10.6323
▁billie	-10.6325
▁chicks	-10.6327
▁mud	-10.6355
▁messed	-10.6356
any	-10.6365
▁recorded	-10.6366
▁customers	-10.6386
▁ka	-10.6398
▁abs	-10.6399
ice	-10.6405
▁breaks	-10.641
stan	-10.6413
headed	-10.6417
▁citizens	-10.6422
▁deed	-10.6449
▁aliens	-10.648
▁dreamed	-10.6484
▁needles	-10.6491
▁actors	-10.6504
▁cu	-10.6518
▁frame	-10.652
▁dee	-10.6525
▁easter	-10.6556
▁familys	-10.6585
▁sins	-10.6593
be	-10.6597
▁guests	-10.6597
▁worker	-10.6613
▁articles	-10.6636
▁nations	-10.6636
▁din	-10.6651
▁models	-10.6656
▁wrappe	-10.6699
▁chains	-10.6703
pi	-10.6708
▁tu	-10.6723
▁olive	-10.6727
cile	-10.6741
itt	-10.6741
▁eli	-10.6774
▁partners	-10.6774
▁wanting	-10.6784
ip	-10.6822
▁files	-10.683
dell	-10.6846
mal	-10.685
▁charm	-10.6866
lay	-10.6877
▁leak	-10.6886
ock	-10.689
▁crank	-10.6901
▁at	-10.6909
▁object	-10.6912
▁fee	-10.6913
▁tire	-10.6916
▁flea	-10.6917
▁snack	-10.6917
ure	-10.6918
▁hoped	-10.6919
▁brick	-10.6919
▁angle	-10.6921
▁bug	-10.6921
▁investment	-10.6923
▁toe	-10.6929
▁hopes	-10.6932
▁cloud	-10.6936
▁toward	-10.6939
▁exclaim	-10.6939
burg	-10.6942
▁rank	-10.6944
▁gal	-10.6948
▁ref	-10.6978
▁soc	-10.6982
▁occasion	-10.6983
▁to	-10.7005
ities	-10.7014
▁journal	-10.7023
▁manner	-10.7023
rry	-10.7038
▁dun	-10.704
▁smooth	-10.7046
▁drown	-10.7054
▁cousins	-10.7056
aiiing	-10.7067
ata	-10.7067
bj	-10.7071
▁maintain	-10.7081
▁sw	-10.7081
▁develop	-10.7085
book	-10.7094
▁corn	-10.7095
▁betray	-10.7096
▁assault	-10.7096
rie	-10.7097
▁abandon	-10.7099
▁becomes	-10.71
▁concentrate	-10.7103
▁replace	-10.7105
like	-10.7106
▁custom	-10.7116
▁permanent	-10.7117
▁unfortunate	-10.7118
▁immediate	-10.7118
▁slight	-10.7119
▁advise	-10.712
door	-10.7122
▁whi	-10.7125
▁transport	-10.7127
▁terror	-10.7128
▁civil	-10.7128
▁iris	-10.7128
▁anonymous	-10.7129
▁argument	-10.7129
▁autopsy	-10.7129
▁avenue	-10.7129
▁barbecue	-10.7129
▁bartender	-10.7129
▁bogart	-10.7129
▁bologna	-10.7129
▁canada	-10.7129
▁cawdor	-10.7129
▁cheeco	-10.7129
▁colossus	-10.7129
▁committee	-10.7129
▁concrete	-10.7129
▁contempt	-10.7129
▁darius	-10.7129
▁denzel	-10.7129
▁disagree	-10.7129
▁division	-10.7129
▁dmitri	-10.7129
▁donovan	-10.7129
▁epic	-10.7129
▁experiment	-10.7129
▁festival	-10.7129
▁furlong	-10.7129
▁gallery	-10.7129
▁ghetto	-10.7129
▁haberdashery	-10.7129
▁hawaii	-10.7129
▁helium	-10.7129
▁hiphop	-10.7129
▁howayeh	-10.7129
▁inhabit	-10.7129
▁jerska	-10.7129
▁journey	-10.7129
▁karbala	-10.7129
▁kijung	-10.7129
▁klick	-10.7129
▁lisbeth	-10.7129
▁literature	-10.7129
▁lobby	-10.7129
▁macduff	-10.7129
▁madison	-10.7129
▁majesty	-10.7129
▁marigold	-10.7129
▁memorial	-10.7129
▁mexican	-10.7129
▁moscow	-10.7129
▁nypd	-10.7129
▁ottavio	-10.7129
▁palancio	-10.7129
▁pardon	-10.7129
▁prague	-10.7129
▁principle	-10.7129
▁pulse	-10.7129
▁rainbow	-10.7129
▁reject	-10.7129
▁sausage	-10.7129
▁scordia	-10.7129
▁slewitt	-10.7129
▁sniper	-10.7129
▁stazek	-10.7129
▁treasure	-10.7129
▁trophy	-10.7129
▁vault	-10.7129
▁wolf	-10.7129
▁worship	-10.7129
▁wrestling	-10.7129
▁anytime	-10.7129
▁buddies	-10.7129
▁cameroon	-10.7129
▁eternal	-10.7129
▁google	-10.7129
▁mutant	-10.7129
▁puzzle	-10.7129
▁wesley	-10.7129
▁freddie	-10.7129
▁gomez	-10.7129
▁gordon	-10.7129
▁oscar	-10.7129
▁spinning	-10.7129
▁willie	-10.7129
▁melvin	-10.7129
▁fascinating	-10.7129
▁theme	-10.7129
▁baroness	-10.7129
▁imitate	-10.7129
▁lesbian	-10.7129
▁levy	-10.7129
▁surface	-10.7129
▁hollywood	-10.7129
▁humble	-10.7129
▁series	-10.7129
▁heavyweight	-10.7129
▁leisureland	-10.7129
▁scholarship	-10.7129
▁beeze	-10.7129
▁ricca	-10.7129
▁sharing	-10.7129
▁polish	-10.7129
▁remote	-10.7129
▁sauna	-10.7129
▁steam	-10.7129
▁display	-10.7129
▁rubber	-10.7129
▁independent	-10.7129
▁thailand	-10.7129
▁jason	-10.7129
▁gbaby	-10.7129
▁vietnamese	-10.7129
▁lightning	-10.7129
▁torch	-10.7129
▁jaw	-10.713
▁machete	-10.713
▁population	-10.713
▁jaysis	-10.713
▁entertainment	-10.713
▁tenderness	-10.713
▁contribution	-10.713
▁circus	-10.713
▁appropriate	-10.713
▁upside	-10.713
▁lyle	-10.713
▁acid	-10.713
▁dignity	-10.713
▁sympathy	-10.713
▁condom	-10.713
▁paperwork	-10.713
▁sweden	-10.713
▁xmen	-10.713
▁neat	-10.713
▁creek	-10.713
▁ripped	-10.713
▁valium	-10.713
▁fiction	-10.713
▁gratitude	-10.713
▁weasel	-10.713
▁profile	-10.713
▁valley	-10.7131
▁stasi	-10.7131
▁habit	-10.7131
▁doom	-10.7131
▁reaction	-10.7131
▁knight	-10.7131
▁draft	-10.7131
▁iove	-10.7131
▁centre	-10.7131
vious	-10.7131
▁damon	-10.7131
▁weakness	-10.7131
▁determine	-10.7131
▁irish	-10.7132
▁crown	-10.7132
▁turay	-10.7132
▁puke	-10.7132
▁stall	-10.7132
▁temporar	-10.7133
▁guardian	-10.7133
▁fries	-10.7133
▁mug	-10.7133
▁ladder	-10.7133
▁betrayal	-10.7134
▁dropping	-10.7134
▁torn	-10.7135
▁bitten	-10.7135
▁goddam	-10.7135
▁grandson	-10.7135
▁advantage	-10.7135
▁activated	-10.7135
▁quitting	-10.7135
▁knockout	-10.7136
▁dime	-10.7136
▁booth	-10.7136
▁political	-10.7136
▁kilo	-10.7136
▁missile	-10.7137
▁haha	-10.7137
▁condemned	-10.7137
▁suggestion	-10.7137
▁warden	-10.7138
▁madness	-10.7138
▁retired	-10.7138
owned	-10.7139
▁sole	-10.714
▁adore	-10.714
▁hump	-10.7142
▁hobie	-10.7142
▁fur	-10.7142
▁cellar	-10.7142
▁registered	-10.7143
▁attracted	-10.7143
▁hein	-10.7147
▁disappointed	-10.7147
▁accused	-10.7147
▁gum	-10.7148
▁angela	-10.7149
▁pole	-10.7151
▁sung	-10.7152
▁georgie	-10.7153
▁dragged	-10.7154
▁ability	-10.7155
▁damaged	-10.7155
▁invented	-10.7156
▁reasonable	-10.7157
▁freeman	-10.716
▁bobo	-10.7161
▁marshal	-10.7162
▁recommended	-10.7163
▁impression	-10.7166
gro	-10.7168
▁chester	-10.7168
▁cursed	-10.7169
▁forgiven	-10.7169
▁passes	-10.717
▁scott	-10.7171
▁carson	-10.7172
▁gathering	-10.7176
ook	-10.7179
ons	-10.7179
▁policeman	-10.718
▁billion	-10.7182
▁classes	-10.7182
▁aerobics	-10.7183
▁she	-10.7183
▁internal	-10.7184
▁catches	-10.7188
▁bucky	-10.7189
▁suffered	-10.719
▁blown	-10.7195
▁lifted	-10.7198
▁deeper	-10.7198
▁gardener	-10.7199
▁strikes	-10.72
▁my	-10.7213
▁wishes	-10.7213
▁hustle	-10.7214
dden	-10.7216
▁bowling	-10.7222
▁hack	-10.7224
▁painter	-10.7225
▁pose	-10.7231
▁experienced	-10.7233
▁assumed	-10.7236
▁suggesting	-10.7241
▁washing	-10.7243
▁consequences	-10.7244
▁reeves	-10.7244
▁belonged	-10.7245
▁wool	-10.7246
▁chap	-10.7252
▁dogg	-10.7253
▁parker	-10.7258
▁kar	-10.726
▁fuckers	-10.7261
▁shite	-10.7266
zz	-10.7273
▁tis	-10.7274
▁fishing	-10.7275
▁blocked	-10.7278
▁matty	-10.7286
▁terrorists	-10.7286
▁smaller	-10.7294
ged	-10.7301
▁messages	-10.7303
▁le	-10.7304
▁tag	-10.7306
▁handled	-10.7313
▁royal	-10.7315
▁bi	-10.7316
▁nun	-10.7317
▁peaceful	-10.7322
▁interviewed	-10.7329
▁fra	-10.7335
▁worthy	-10.7336
▁jumping	-10.7367
istic	-10.7373
▁camping	-10.7375
▁shellie	-10.7378
iest	-10.7381
▁anyways	-10.7385
heck	-10.7388
▁just	-10.7388
▁nazis	-10.7392
▁saddams	-10.7392
pen	-10.7393
oc	-10.7395
▁fetch	-10.7395
▁guts	-10.7396
▁protecting	-10.7403
▁boob	-10.7407
ung	-10.7409
▁tend	-10.7426
▁prayers	-10.7427
▁indians	-10.7434
▁iran	-10.7441
ration	-10.7445
▁and	-10.7449
ja	-10.7477
▁shoulders	-10.7477
▁inmates	-10.7499
▁sorts	-10.75
vo	-10.7509
▁learning	-10.7524
▁scores	-10.7543
▁instant	-10.7544
▁che	-10.755
nder	-10.759
ach	-10.7606
pot	-10.7615
tz	-10.7625
▁waitin	-10.7634
ong	-10.7639
mon	-10.7647
ten	-10.7649
mar	-10.769
▁conn	-10.7691
▁pauls	-10.7715
▁shuts	-10.7716
▁symbol	-10.7728
▁ace	-10.7745
▁rang	-10.7757
▁cur	-10.7757
▁dere	-10.776
▁computers	-10.776
▁mer	-10.7773
▁cooler	-10.7773
▁codes	-10.7799
▁whip	-10.7803
▁lad	-10.7804
▁votes	-10.7806
▁fu	-10.7821
ette	-10.7824
▁attacks	-10.7828
oh	-10.783
cer	-10.7872
▁tube	-10.7875
▁dirt	-10.7885
▁blai	-10.7892
▁es	-10.7949
▁mus	-10.7955
▁intern	-10.7982
▁uses	-10.7983
▁flip	-10.7988
▁shadow	-10.7989
▁how	-10.7993
▁engines	-10.8008
▁seats	-10.8025
▁adult	-10.8025
▁paintings	-10.8028
▁spider	-10.8028
▁bon	-10.8029
▁bears	-10.803
▁skirt	-10.8032
▁elbow	-10.8034
▁maniac	-10.8034
ble	-10.8036
▁tradition	-10.804
▁method	-10.8041
▁jew	-10.8041
▁costume	-10.8043
▁deco	-10.8044
▁tower	-10.8045
▁generation	-10.8045
▁mass	-10.8047
▁chip	-10.8048
▁civilian	-10.8049
▁bean	-10.8051
▁hostage	-10.8052
▁beside	-10.8054
▁you	-10.806
ight	-10.8091
leton	-10.8095
ek	-10.8098
▁drives	-10.81
▁mari	-10.8101
▁invent	-10.8102
eath	-10.8116
▁colors	-10.8119
▁blocks	-10.8121
▁tricks	-10.8125
▁fits	-10.8135
ever	-10.8136
▁allie	-10.8136
ual	-10.8137
▁ac	-10.8142
erie	-10.8143
▁costs	-10.8156
▁houses	-10.8157
▁defeat	-10.8159
ative	-10.8172
▁beers	-10.8177
▁echo	-10.8197
▁drift	-10.8206
▁cancel	-10.8209
▁para	-10.8209
▁gra	-10.821
▁fields	-10.821
▁sim	-10.8212
▁crab	-10.8215
▁arrange	-10.8216
▁propose	-10.8216
myth	-10.8218
six	-10.8219
hour	-10.8221
right	-10.8222
▁strict	-10.8227
▁sticks	-10.823
▁addict	-10.8237
▁examine	-10.8237
▁height	-10.8238
▁capital	-10.8239
▁makin	-10.8239
▁abuse	-10.824
▁cabrini	-10.824
▁misunderstand	-10.824
mmerung	-10.824
▁balabushka	-10.824
▁bargain	-10.824
▁believing	-10.824
▁beulah	-10.824
▁bollix	-10.824
▁buddah	-10.824
▁capacity	-10.824
▁carpenter	-10.824
▁classified	-10.824
▁cleveland	-10.824
▁confidence	-10.824
▁confusion	-10.824
▁corporate	-10.824
▁cotton	-10.824
▁council	-10.824
▁coxman	-10.824
▁cusimano	-10.824
▁denver	-10.824
▁dessert	-10.824
▁disease	-10.824
▁electronic	-10.824
▁fleming	-10.824
▁forfeit	-10.824
▁gerardo	-10.824
▁giorgio	-10.824
▁hammond	-10.824
▁hudson	-10.824
▁humvee	-10.824
▁iliad	-10.824
▁jorgen	-10.824
▁keith	-10.824
▁kindergarten	-10.824
▁klimek	-10.824
▁messenger	-10.824
▁mexico	-10.824
▁michigan	-10.824
▁milich	-10.824
▁occupy	-10.824
▁pawn	-10.824
▁peenalop	-10.824
▁permit	-10.824
▁pierpont	-10.824
▁prevent	-10.824
▁recipe	-10.824
▁salvy	-10.824
▁session	-10.824
▁sieland	-10.824
▁snarling	-10.824
▁thorough	-10.824
▁tournament	-10.824
▁unexpected	-10.824
▁vague	-10.824
▁vejle	-10.824
▁verdict	-10.824
▁violation	-10.824
▁vomit	-10.824
▁widow	-10.824
▁wiesler	-10.824
▁zodiac	-10.824
▁coffin	-10.824
▁drank	-10.824
▁elroy	-10.824
▁forgery	-10.824
▁kingdom	-10.824
▁radar	-10.824
▁thief	-10.824
▁thisll	-10.824
▁entity	-10.824
▁floyd	-10.824
▁senor	-10.824
▁whatsoever	-10.824
▁misery	-10.824
▁japanese	-10.824
▁mysterious	-10.824
▁scumbag	-10.824
▁puppy	-10.824
▁granny	-10.824
▁stammers	-10.824
▁turkey	-10.824
▁grens	-10.824
▁stevie	-10.824
▁jazz	-10.824
▁whiskey	-10.824
▁tivo	-10.824
▁studied	-10.824
▁polite	-10.824
▁creating	-10.824
▁confidential	-10.824
▁maxandra	-10.824
▁sinners	-10.824
▁recall	-10.824
▁boris	-10.824
▁lunatic	-10.824
▁salvatore	-10.824
▁arrogant	-10.8241
▁oswaldo	-10.8241
▁backwards	-10.8241
▁thudding	-10.8241
▁leap	-10.8241
▁cannon	-10.8241
▁clint	-10.8241
▁olson	-10.8241
▁punishment	-10.8241
▁curda	-10.8241
▁pony	-10.8241
▁waltz	-10.8241
▁pledge	-10.8241
▁hostile	-10.8241
▁valerie	-10.8241
▁signature	-10.8241
▁panties	-10.8241
▁cart	-10.8241
▁communist	-10.8241
▁medium	-10.8241
▁blink	-10.8241
▁affect	-10.8241
▁edition	-10.8241
▁cardiff	-10.8241
▁horseshit	-10.8241
▁bribe	-10.8241
▁championship	-10.8241
▁dang	-10.8241
▁jules	-10.8241
▁conviction	-10.8241
▁iook	-10.8242
▁specifically	-10.8242
▁aspirin	-10.8242
▁smiling	-10.8242
▁roach	-10.8242
▁circuit	-10.8242
▁flaw	-10.8242
▁vase	-10.8242
▁trapped	-10.8242
▁mortal	-10.8242
▁stakeout	-10.8242
▁borderline	-10.8242
▁selfish	-10.8242
▁steel	-10.8242
▁generous	-10.8242
▁bruce	-10.8242
▁fever	-10.8243
▁countdown	-10.8243
▁deputy	-10.8243
▁bubble	-10.8243
▁percentage	-10.8244
▁havin	-10.8244
▁beings	-10.8244
▁defendant	-10.8244
▁wives	-10.8245
▁financial	-10.8245
▁slick	-10.8245
▁tragedy	-10.8245
▁maddy	-10.8246
▁forth	-10.8246
▁asian	-10.8248
▁diary	-10.8248
▁rumor	-10.8249
▁debo	-10.8249
▁barry	-10.825
▁sandwiches	-10.825
▁cries	-10.8251
goc	-10.8251
▁vow	-10.8252
▁stirring	-10.8253
▁annoying	-10.8253
▁chosen	-10.8253
▁jody	-10.8254
▁ign	-10.8256
▁spite	-10.8257
▁tailor	-10.8257
▁grin	-10.8257
▁punished	-10.8258
▁renton	-10.8258
▁deserves	-10.8259
▁spilled	-10.826
▁thrilled	-10.8264
▁shithole	-10.8266
▁vl	-10.8266
▁desperately	-10.8266
▁emma	-10.8266
▁highway	-10.8266
▁loop	-10.8267
▁backpack	-10.8267
▁christian	-10.8268
▁captured	-10.8269
▁sum	-10.827
▁graduated	-10.8271
▁described	-10.8272
▁ap	-10.8272
▁winds	-10.8275
▁republicans	-10.8276
▁bridger	-10.8276
▁tortured	-10.8277
▁drowned	-10.8279
▁goodlooking	-10.828
▁dw	-10.8283
▁mistaken	-10.8285
▁healed	-10.8285
▁erase	-10.8287
▁shaki	-10.8288
▁net	-10.8288
▁mixed	-10.8289
▁useful	-10.8293
▁passengers	-10.8299
▁relations	-10.8299
▁stutters	-10.8299
▁required	-10.8299
▁timer	-10.83
▁cher	-10.8305
▁businessman	-10.831
▁nod	-10.8315
▁pounding	-10.8319
▁hardest	-10.8321
▁stare	-10.8321
▁dumped	-10.8322
▁expenses	-10.8322
▁handcuffs	-10.8322
▁insects	-10.8322
▁wil	-10.8324
▁patch	-10.8325
▁twins	-10.8327
▁voted	-10.8329
what	-10.8345
▁duck	-10.8346
▁organs	-10.8346
▁frankly	-10.8349
▁stocking	-10.8349
▁asset	-10.8349
▁flames	-10.835
gra	-10.8352
▁diane	-10.8355
▁religio	-10.8357
▁christa	-10.8361
▁employees	-10.8369
▁commitments	-10.8369
▁johnnys	-10.8376
spy	-10.8381
ug	-10.8385
▁gasp	-10.8389
rd	-10.8393
▁lance	-10.8394
▁types	-10.8395
▁deer	-10.8399
▁bothered	-10.8401
▁dealt	-10.8402
▁eatin	-10.8408
▁walkin	-10.8414
▁sniffs	-10.8417
▁cracking	-10.8425
▁generations	-10.844
▁mcc	-10.8444
▁prayed	-10.845
▁landed	-10.8464
▁manners	-10.8465
▁bothering	-10.8465
ack	-10.8485
▁vampires	-10.8488
▁cruis	-10.8491
▁feeding	-10.8492
▁arabs	-10.8496
▁dressing	-10.8499
▁raining	-10.8507
▁systems	-10.8513
▁naive	-10.8553
▁til	-10.8553
▁stevens	-10.8584
▁uniforms	-10.8584
▁newspapers	-10.8584
▁returning	-10.8587
▁tub	-10.859
▁ropes	-10.8608
tte	-10.8611
▁nails	-10.8614
gie	-10.8616
ugh	-10.8619
▁slo	-10.863
▁speakers	-10.8632
▁answered	-10.8639
▁petes	-10.865
tra	-10.8651
▁jimmys	-10.8652
▁workers	-10.8664
▁tests	-10.8669
▁pl	-10.8672
▁yards	-10.8681
vie	-10.8696
▁bump	-10.8701
ane	-10.871
▁catching	-10.8715
ddle	-10.8743
▁mini	-10.8745
tal	-10.8746
▁feelin	-10.8759
ade	-10.8763
▁sticking	-10.8773
▁films	-10.8803
▁formal	-10.8817
▁reasons	-10.8822
▁harrys	-10.8825
kie	-10.8846
▁listened	-10.8847
com	-10.8859
ote	-10.8861
▁kindly	-10.8872
▁russians	-10.8877
▁exists	-10.8879
ris	-10.8882
▁ni	-10.8883
▁fr	-10.8902
▁ce	-10.8908
▁conversations	-10.8927
ept	-10.8947
▁elses	-10.8953
all	-10.8962
▁jet	-10.8971
▁greater	-10.8974
cro	-10.8977
ou	-10.8982
▁ax	-10.8983
hand	-10.9
▁deadly	-10.9003
▁barb	-10.9009
▁medic	-10.9013
ude	-10.9028
▁spr	-10.9037
▁bulls	-10.9045
▁mol	-10.9047
▁bake	-10.9049
▁coma	-10.9051
▁bu	-10.9061
illa	-10.9074
▁singles	-10.9092
▁relationships	-10.9103
nie	-10.9106
lines	-10.911
▁ak	-10.911
▁distan	-10.9132
▁spark	-10.9135
omin	-10.9138
tor	-10.9163
▁bottles	-10.9179
▁monkeys	-10.9179
▁print	-10.9198
▁dicks	-10.9209
▁loan	-10.9221
▁ki	-10.9237
▁declare	-10.9248
ple	-10.9248
▁sniff	-10.9249
▁operations	-10.9256
▁document	-10.9262
▁yell	-10.9262
▁rage	-10.9273
▁basic	-10.9278
▁pattern	-10.9281
▁burger	-10.9284
▁informant	-10.9286
▁moron	-10.9287
▁commercial	-10.9288
▁cro	-10.9289
▁degree	-10.929
▁catholic	-10.9292
▁israeli	-10.9292
▁pelt	-10.9296
▁terrorist	-10.9298
▁option	-10.9299
▁refugee	-10.9299
▁skill	-10.9302
▁mal	-10.9303
▁sale	-10.9317
▁farmer	-10.9323
▁pinky	-10.9324
▁slim	-10.9333
▁fianc	-10.9334
▁courts	-10.9342
▁flower	-10.9342
▁au	-10.9352
▁ju	-10.9356
▁ol	-10.9357
▁ships	-10.936
escent	-10.9372
let	-10.938
▁surviv	-10.9406
mic	-10.9406
▁toss	-10.9408
▁confess	-10.9411
▁embarrass	-10.9419
fully	-10.9426
▁flu	-10.9436
cular	-10.9439
exu	-10.9444
▁grease	-10.9447
style	-10.9451
hole	-10.9454
▁marsh	-10.9455
▁severe	-10.9455
▁corrupt	-10.9458
▁fold	-10.9462
▁disguise	-10.9465
▁doub	-10.9465
grade	-10.9467
self	-10.9468
load	-10.947
▁tim	-10.947
▁twist	-10.9474
loved	-10.9478
▁recent	-10.948
▁of	-10.9481
name	-10.9482
▁vincen	-10.9483
▁mode	-10.9483
▁plum	-10.9487
▁motherfuckin	-10.9487
▁republic	-10.9488
▁iv	-10.9489
▁urge	-10.9489
▁authentic	-10.9489
▁establish	-10.9489
▁peop	-10.9489
▁zip	-10.9489
▁ponch	-10.949
▁surveill	-10.949
▁couid	-10.949
▁afghanistan	-10.949
▁amanda	-10.949
▁anxious	-10.949
▁anyhow	-10.949
▁argue	-10.949
▁average	-10.949
▁bathtub	-10.949
▁biscuit	-10.949
▁burbank	-10.949
▁cabbage	-10.949
▁cafeteria	-10.949
▁cheeseburger	-10.949
▁christamaria	-10.949
▁claiborne	-10.949
▁clutch	-10.949
▁compartment	-10.949
▁condolences	-10.949
▁convincing	-10.949
▁curtain	-10.949
▁debate	-10.949
▁debbie	-10.949
▁definition	-10.949
▁embassy	-10.949
▁essential	-10.949
▁fabulous	-10.949
▁false	-10.949
▁gambling	-10.949
▁hempf	-10.949
▁hilarious	-10.949
▁hysterical	-10.949
▁inglewood	-10.949
▁interfere	-10.949
▁intimate	-10.949
▁investigate	-10.949
▁jellybeans	-10.949
▁knockemstiff	-10.949
▁krueger	-10.949
▁landscape	-10.949
▁lennon	-10.949
▁libby	-10.949
▁lucille	-10.949
▁magnificent	-10.949
▁narcotics	-10.949
▁october	-10.949
▁perfume	-10.949
▁philanthropist	-10.949
▁phoenix	-10.949
▁phrase	-10.949
▁promiscuous	-10.949
▁proposal	-10.949
▁prostitute	-10.949
▁pussies	-10.949
▁satisfaction	-10.949
▁shakespeare	-10.949
▁shrimp	-10.949
▁shush	-10.949
▁sierra	-10.949
▁slippery	-10.949
▁squawking	-10.949
▁stammering	-10.949
▁strawberr	-10.949
▁stroll	-10.949
▁suspended	-10.949
▁terrified	-10.949
▁territory	-10.949
▁theodore	-10.949
▁thread	-10.949
▁trevor	-10.949
▁triumph	-10.949
▁underneath	-10.949
▁unicorn	-10.949
▁volanges	-10.949
▁warrior	-10.949
▁wheelchair	-10.949
▁wisdom	-10.949
▁wolves	-10.949
▁worries	-10.949
▁yield	-10.949
▁confusing	-10.949
▁eager	-10.949
▁gulf	-10.949
▁jeffrey	-10.949
▁preparing	-10.949
▁roast	-10.949
▁snoring	-10.949
▁violate	-10.949
▁wilderness	-10.949
▁wilkes	-10.949
▁zadie	-10.949
▁lamb	-10.949
▁limitations	-10.949
▁narrow	-10.949
▁countries	-10.949
▁amazon	-10.949
▁consent	-10.949
▁snitch	-10.949
▁temperature	-10.949
▁superior	-10.949
▁sloppy	-10.949
▁banquo	-10.949
▁douglas	-10.949
▁elysium	-10.949
▁quarterback	-10.949
▁spectacular	-10.949
▁berger	-10.949
▁babysitter	-10.949
▁creative	-10.949
▁prettie	-10.949
▁gdr	-10.949
▁irma	-10.949
▁analysis	-10.949
▁generator	-10.949
▁gert	-10.949
▁kirk	-10.949
▁pratt	-10.949
▁felson	-10.949
▁memoir	-10.949
▁gown	-10.949
▁integrity	-10.949
▁chamber	-10.949
▁expectations	-10.949
▁moose	-10.949
▁pleasant	-10.949
▁convenient	-10.9491
▁syrup	-10.9491
▁behold	-10.9491
▁devine	-10.9491
alogue	-10.9491
▁practicing	-10.9491
▁hiya	-10.9491
▁spoil	-10.9491
▁finland	-10.9491
▁crystal	-10.9491
▁georgina	-10.9491
▁receptionist	-10.9491
▁cooperate	-10.9491
▁gaze	-10.9491
▁engagement	-10.9491
▁intelligence	-10.9491
▁pillow	-10.9491
▁thinner	-10.9491
▁counselor	-10.9491
▁marino	-10.9491
▁section	-10.9491
▁rival	-10.9491
▁branches	-10.9491
▁technology	-10.9491
▁estonian	-10.9491
▁parade	-10.9491
▁daily	-10.9491
▁salary	-10.9492
▁ethn	-10.9492
▁renew	-10.9492
▁rabbitte	-10.9492
▁slipped	-10.9492
▁carlyle	-10.9492
▁resistance	-10.9492
▁instructor	-10.9492
▁distraction	-10.9492
▁april	-10.9492
▁entitled	-10.9492
▁fascist	-10.9492
▁immortal	-10.9492
▁portrait	-10.9492
▁script	-10.9492
▁poland	-10.9492
▁socialism	-10.9492
▁nini	-10.9492
▁effective	-10.9492
▁tasty	-10.9492
▁marina	-10.9492
▁powder	-10.9492
iegel	-10.9492
▁patty	-10.9492
▁honour	-10.9492
▁farrat	-10.9492
▁sentimental	-10.9493
▁genetic	-10.9493
▁beef	-10.9493
▁fork	-10.9493
▁spaceship	-10.9493
▁chica	-10.9493
▁harper	-10.9493
▁classroom	-10.9493
▁joyce	-10.9493
▁rusty	-10.9493
▁judy	-10.9494
▁beam	-10.9494
▁teasing	-10.9494
▁karen	-10.9494
▁pow	-10.9494
▁felon	-10.9494
▁bait	-10.9494
▁interact	-10.9494
▁isabelle	-10.9494
▁gomes	-10.9494
▁shade	-10.9495
▁flake	-10.9495
▁mice	-10.9495
▁foolish	-10.9495
▁indulge	-10.9495
▁scale	-10.9495
▁pouncer	-10.9495
▁nearby	-10.9496
▁kidney	-10.9496
▁dante	-10.9496
▁comic	-10.9496
▁rome	-10.9496
▁harmless	-10.9496
▁restroom	-10.9497
▁shipment	-10.9497
▁pecker	-10.9497
▁dickhead	-10.9497
rez	-10.9497
▁daylight	-10.9498
▁cameron	-10.9498
▁chemical	-10.9498
▁wheezing	-10.9499
▁shaking	-10.9499
▁supper	-10.9499
▁teenager	-10.95
▁slaughtered	-10.95
▁earl	-10.9501
fucking	-10.9501
▁castle	-10.9501
▁discussion	-10.9501
▁lila	-10.9501
▁cellul	-10.9502
▁communicate	-10.9502
▁flush	-10.9502
▁african	-10.9503
▁inner	-10.9504
▁personality	-10.9504
▁surrounded	-10.9504
▁sacred	-10.9505
▁identified	-10.9505
▁dragon	-10.9507
▁brat	-10.9507
▁forgetting	-10.9508
▁haunted	-10.9508
▁impressed	-10.9509
▁dull	-10.9509
▁dc	-10.9509
▁shattered	-10.9509
▁ridge	-10.951
▁geek	-10.951
ford	-10.951
▁smartass	-10.951
▁unto	-10.9514
▁rental	-10.9515
▁salty	-10.9515
▁friggin	-10.9516
ber	-10.9517
▁democratic	-10.9517
▁sealed	-10.9518
▁inch	-10.9519
▁speedo	-10.952
▁halt	-10.9521
▁cargo	-10.9521
▁leda	-10.9521
▁motive	-10.9522
▁worthless	-10.9523
▁drawn	-10.9523
▁your	-10.9525
▁pickup	-10.9525
▁oid	-10.9527
▁kay	-10.9527
ome	-10.9527
▁sweater	-10.9529
▁originally	-10.9529
▁testify	-10.953
▁engravings	-10.9531
▁bid	-10.9533
▁gathered	-10.9533
▁hob	-10.9534
▁creepy	-10.9535
▁rocket	-10.9535
▁despise	-10.9536
▁understands	-10.9537
▁rig	-10.9539
▁beaten	-10.954
▁sacrificed	-10.9545
oir	-10.9547
▁mmmm	-10.955
▁boxes	-10.9554
▁performing	-10.9556
▁rattles	-10.9557
▁resources	-10.9557
▁scientists	-10.9557
▁emb	-10.9558
▁photographer	-10.956
▁youngest	-10.9561
▁yu	-10.9562
▁rollin	-10.9563
▁agents	-10.9569
▁governments	-10.9569
▁hass	-10.957
▁lifetime	-10.9571
nine	-10.9578
ural	-10.9579
▁wears	-10.9579
▁talented	-10.9583
▁am	-10.9583
▁ankles	-10.9584
▁stokes	-10.9584
▁inspire	-10.9587
▁vagina	-10.9587
▁crashed	-10.9587
▁dish	-10.9589
atlantic	-10.959
mis	-10.9593
▁busted	-10.9594
▁tele	-10.9597
▁pad	-10.9598
▁mumbl	-10.9599
▁existed	-10.9601
▁factor	-10.9603
▁caii	-10.9603
▁clips	-10.9611
▁introduced	-10.9614
▁unf	-10.9614
▁mandy	-10.9615
▁tellin	-10.9617
▁dragg	-10.9618
▁ticking	-10.9621
▁cloth	-10.9622
▁oral	-10.9628
▁beard	-10.9628
▁blessing	-10.9632
▁wings	-10.9637
▁athletes	-10.9638
▁tracking	-10.964
test	-10.9645
▁cooked	-10.9646
ving	-10.9647
▁weirdo	-10.9653
fuck	-10.9657
▁cd	-10.9659
▁explosives	-10.9665
▁results	-10.9665
▁thuds	-10.9665
▁accepted	-10.9666
▁visitors	-10.9668
▁fin	-10.9683
▁helpful	-10.9685
▁hoo	-10.9691
anita	-10.9691
▁runt	-10.9692
▁catholics	-10.9692
yard	-10.9693
ax	-10.9699
▁nicked	-10.9703
▁hei	-10.9704
▁dock	-10.9711
▁honored	-10.9718
▁costumes	-10.9719
▁safely	-10.9722
▁sucker	-10.973
tle	-10.9732
inned	-10.9735
▁liberia	-10.9745
▁packed	-10.9751
▁las	-10.976
▁loans	-10.9772
▁quarters	-10.9774
▁hen	-10.9774
▁demands	-10.9775
▁represents	-10.9775
▁trainer	-10.9782
▁eu	-10.9783
▁tran	-10.9787
ically	-10.9806
▁lords	-10.9814
▁pea	-10.9817
▁whitey	-10.9835
aging	-10.9838
▁closely	-10.9841
▁cleaner	-10.9847
▁cared	-10.985
▁sides	-10.9855
▁smelled	-10.9858
▁seduce	-10.9867
▁tools	-10.987
bl	-10.9874
drew	-10.9874
▁observe	-10.9875
▁brun	-10.9887
▁mon	-10.9888
more	-10.9895
▁pins	-10.9895
▁hut	-10.9896
val	-10.9909
▁effects	-10.9911
mer	-10.9919
▁mach	-10.9927
▁endless	-10.9941
▁boxing	-10.9952
▁seek	-10.997
▁deposit	-10.998
▁tr	-10.9994
▁tor	-11.0015
▁events	-11.0021
▁rats	-11.0026
▁covering	-11.0051
▁pigs	-11.0072
lan	-11.0087
use	-11.0099
si	-11.0122
▁monsters	-11.0136
my	-11.0166
▁tables	-11.0168
▁americas	-11.0173
▁hanged	-11.0176
▁burns	-11.0178
▁callin	-11.0195
▁dealers	-11.0207
sis	-11.0211
▁questioned	-11.0215
▁comments	-11.0221
▁tone	-11.0222
▁spott	-11.0233
▁covers	-11.0241
hu	-11.0266
▁deaths	-11.0288
va	-11.0294
ties	-11.0297
hal	-11.03
▁gi	-11.0307
ows	-11.0307
▁conditions	-11.0309
▁lessons	-11.031
▁wester	-11.0331
▁uv	-11.0353
▁quot	-11.0384
▁explains	-11.0423
▁magazines	-11.0423
▁professionals	-11.0424
▁fla	-11.0426
▁je	-11.0426
▁cuff	-11.043
bag	-11.045
py	-11.0472
we	-11.0475
▁shirts	-11.0482
sky	-11.0504
att	-11.0509
▁demo	-11.051
och	-11.0515
▁ty	-11.0526
▁ke	-11.0538
▁humans	-11.0539
▁reg	-11.054
erry	-11.0542
▁cats	-11.0556
▁disc	-11.0569
▁begins	-11.057
ari	-11.0576
▁handed	-11.0579
▁asks	-11.0579
▁gl	-11.0608
▁attendan	-11.062
▁liber	-11.063
ide	-11.065
▁limit	-11.0672
▁thrill	-11.0677
▁who	-11.0683
▁doubts	-11.0689
▁cough	-11.0689
▁graduate	-11.0691
ese	-11.0696
▁protocol	-11.0707
▁invitation	-11.0713
uff	-11.0716
▁relative	-11.0718
▁devils	-11.0719
▁ghosts	-11.0719
▁breast	-11.0719
▁jean	-11.072
▁explosive	-11.0721
▁result	-11.0721
▁marine	-11.0723
▁woo	-11.0724
▁thud	-11.0726
▁sock	-11.0727
▁ban	-11.0732
▁chuckle	-11.0733
▁cookie	-11.0735
▁mil	-11.074
▁visitor	-11.0743
▁reporters	-11.0743
zy	-11.0748
▁clowns	-11.0749
▁idiots	-11.0749
▁decisions	-11.075
▁here	-11.0757
▁ahh	-11.0761
▁ti	-11.0769
raz	-11.0773
▁disgrace	-11.0782
▁web	-11.0791
▁bee	-11.0805
beat	-11.0805
▁sane	-11.0808
▁rogers	-11.0809
▁crimes	-11.081
▁sch	-11.0815
two	-11.0832
hill	-11.0838
▁connect	-11.0841
▁publish	-11.0844
▁groups	-11.0845
▁threaten	-11.0852
looking	-11.0855
▁cole	-11.0858
▁minds	-11.086
▁buzz	-11.0862
face	-11.0862
▁persons	-11.0867
▁expand	-11.0872
▁destin	-11.0872
▁discover	-11.0875
▁giggl	-11.0875
term	-11.0878
▁sink	-11.0883
▁screen	-11.0888
eth	-11.0888
▁mor	-11.0888
▁bam	-11.0888
ife	-11.0892
person	-11.0893
▁struggle	-11.0894
▁cam	-11.0894
nut	-11.0896
burn	-11.0896
▁engage	-11.0897
▁heavens	-11.09
▁execute	-11.0901
▁chew	-11.0901
shit	-11.0903
▁apply	-11.0903
▁rox	-11.0904
▁intens	-11.0905
▁glob	-11.0906
▁fortunate	-11.0906
▁ultimate	-11.0906
▁incredibl	-11.0907
playing	-11.0908
bre	-11.0909
▁august	-11.0911
▁australia	-11.0912
▁potato	-11.0913
▁protest	-11.0913
▁porn	-11.0914
▁reflect	-11.0915
▁cooper	-11.0916
▁leon	-11.0916
▁michel	-11.0917
▁rabbit	-11.0917
▁hal	-11.0917
▁compass	-11.0918
▁bun	-11.0918
▁favour	-11.0918
▁edvard	-11.0918
positive	-11.0919
▁forbid	-11.0919
▁uncertain	-11.0919
▁almanac	-11.0919
▁ancestor	-11.0919
▁annabeth	-11.0919
▁arnold	-11.0919
▁arriving	-11.0919
▁audrey	-11.0919
▁behave	-11.0919
▁bulwark	-11.0919
▁centuries	-11.0919
▁chrissake	-11.0919
▁climate	-11.0919
▁conscience	-11.0919
▁currency	-11.0919
▁deuce	-11.0919
▁diabolical	-11.0919
▁disposal	-11.0919
▁dopinder	-11.0919
▁dubstep	-11.0919
▁duffel	-11.0919
▁equation	-11.0919
▁exhusband	-11.0919
▁faggot	-11.0919
▁fischer	-11.0919
▁fumitsu	-11.0919
▁goldenbeard	-11.0919
▁greek	-11.0919
▁harbor	-11.0919
▁hodgson	-11.0919
▁hollow	-11.0919
▁increase	-11.0919
▁inevitable	-11.0919
▁infiniti	-11.0919
▁investigating	-11.0919
▁inviting	-11.0919
▁isaac	-11.0919
▁janiro	-11.0919
▁jarius	-11.0919
▁kilometers	-11.0919
▁kiwoo	-11.0919
▁lindsay	-11.0919
▁lnspector	-11.0919
▁massacre	-11.0919
▁mcgills	-11.0919
▁mwow	-11.0919
▁nowadays	-11.0919
▁oath	-11.0919
▁oklahoma	-11.0919
▁oregon	-11.0919
▁ounce	-11.0919
▁palestinian	-11.0919
▁portnoy	-11.0919
▁pretzel	-11.0919
▁profound	-11.0919
▁purchase	-11.0919
▁raymond	-11.0919
▁rehab	-11.0919
▁resolve	-11.0919
▁satellite	-11.0919
▁scenario	-11.0919
▁semester	-11.0919
▁shanghai	-11.0919
▁sofia	-11.0919
▁solitary	-11.0919
▁somewhat	-11.0919
▁struggling	-11.0919
▁sunrise	-11.0919
▁swedish	-11.0919
▁tavington	-11.0919
▁thieves	-11.0919
▁trudy	-11.0919
▁unacceptable	-11.0919
▁unemployed	-11.0919
▁winyerp	-11.0919
▁womb	-11.0919
▁zealand	-11.0919
▁zwaiter	-11.0919
▁colony	-11.0919
▁conquer	-11.0919
▁depth	-11.0919
▁diploma	-11.0919
▁dyke	-11.0919
▁ethan	-11.0919
▁fargas	-11.0919
▁flavor	-11.0919
▁fourteen	-11.0919
▁horror	-11.0919
▁ignoring	-11.0919
▁nuclear	-11.0919
▁palace	-11.0919
▁resume	-11.0919
▁veins	-11.0919
▁withers	-11.0919
▁burden	-11.0919
▁dalc	-11.0919
▁ensure	-11.0919
▁francesco	-11.0919
▁guerrilla	-11.0919
▁jill	-11.0919
▁oven	-11.0919
▁brew	-11.0919
▁launch	-11.0919
▁flirt	-11.0919
▁reveal	-11.0919
▁sperm	-11.0919
▁ammunition	-11.0919
▁emerson	-11.0919
▁surprising	-11.0919
▁stamp	-11.0919
▁sorrow	-11.0919
▁unstable	-11.0919
▁denmark	-11.0919
▁imelda	-11.0919
▁venture	-11.0919
▁cloak	-11.0919
▁faint	-11.0919
▁basket	-11.0919
▁parrot	-11.0919
▁breeze	-11.0919
▁assuming	-11.0919
▁gossip	-11.0919
▁jeannine	-11.0919
▁fingernails	-11.0919
▁venice	-11.0919
▁pearl	-11.0919
▁mobray	-11.0919
▁microphone	-11.0919
▁robbing	-11.0919
▁arrow	-11.0919
▁exhibit	-11.0919
▁gordy	-11.0919
▁waik	-11.0919
▁holitzer	-11.0919
▁regina	-11.0919
▁muchassi	-11.0919
▁lugg	-11.0919
▁tvirus	-11.0919
▁ammo	-11.0919
▁enforcement	-11.0919
▁entrance	-11.0919
▁excess	-11.0919
▁exwife	-11.0919
▁harold	-11.0919
▁supervisor	-11.0919
▁domestic	-11.0919
▁denise	-11.0919
▁alvin	-11.0919
▁mailbox	-11.0919
▁excitement	-11.0919
▁auto	-11.0919
▁unhook	-11.0919
▁executive	-11.0919
▁transferred	-11.0919
▁documentary	-11.0919
▁heap	-11.0919
▁gps	-11.092
▁rosa	-11.092
▁fluid	-11.092
▁excellence	-11.092
▁liking	-11.092
▁bind	-11.092
born	-11.092
▁nelson	-11.092
▁aggressive	-11.092
▁operating	-11.092
▁massive	-11.092
▁grey	-11.092
▁cobb	-11.092
▁aight	-11.092
▁diaper	-11.092
▁howard	-11.092
udge	-11.092
▁chaos	-11.092
▁overnight	-11.092
▁motown	-11.092
▁ambition	-11.092
▁species	-11.092
▁status	-11.092
▁miho	-11.092
▁creation	-11.092
▁stanford	-11.0921
▁vocal	-11.0921
▁aboard	-11.0921
▁hallway	-11.0921
▁prosecutor	-11.0921
▁gazza	-11.0921
▁volume	-11.0921
▁satisfied	-11.0921
▁psychologist	-11.0921
▁deaf	-11.0921
▁tension	-11.0921
▁inflat	-11.0921
▁stitches	-11.0921
▁headphones	-11.0921
▁raid	-11.0921
▁howre	-11.0921
▁inclined	-11.0921
▁hound	-11.0921
▁merry	-11.0922
▁popped	-11.0922
▁static	-11.0922
▁fame	-11.0922
▁dinar	-11.0922
▁alike	-11.0922
endous	-11.0922
▁rug	-11.0922
▁medication	-11.0922
▁novel	-11.0923
▁anxiety	-11.0923
▁sittin	-11.0923
▁raw	-11.0923
▁qualified	-11.0923
▁flap	-11.0923
▁peak	-11.0923
▁assign	-11.0923
▁jingle	-11.0923
ifies	-11.0923
▁bowers	-11.0923
▁xman	-11.0923
▁nineball	-11.0924
▁fitting	-11.0924
▁concert	-11.0924
▁soil	-11.0924
▁jamie	-11.0924
▁tonic	-11.0924
▁stepping	-11.0925
▁survival	-11.0925
▁yum	-11.0925
▁porno	-11.0925
▁expel	-11.0925
▁becky	-11.0925
▁meanwhile	-11.0925
▁philosophy	-11.0925
▁precisely	-11.0925
▁salon	-11.0925
▁dishes	-11.0926
▁dragan	-11.0926
▁anus	-11.0926
▁worldwide	-11.0926
▁tin	-11.0926
▁penis	-11.0926
▁bua	-11.0927
▁ross	-11.0927
▁conscious	-11.0927
▁bruno	-11.0927
▁religion	-11.0927
cation	-11.0927
▁forgiveness	-11.0927
▁tide	-11.0928
▁trainee	-11.0928
▁abilities	-11.0928
▁mistress	-11.0928
▁temper	-11.0928
▁richter	-11.0928
▁funds	-11.0928
▁certifi	-11.0929
▁gaby	-11.0929
▁frey	-11.0929
blo	-11.0929
▁gambler	-11.0929
▁promoted	-11.093
▁nance	-11.093
▁thirsty	-11.093
▁formation	-11.0932
▁justify	-11.0932
▁mount	-11.0933
▁recovery	-11.0933
▁diggy	-11.0934
▁authorized	-11.0934
▁decade	-11.0935
▁mg	-11.0935
▁bullion	-11.0935
▁referring	-11.0935
plied	-11.0936
▁lust	-11.0936
▁nicks	-11.0936
▁slightly	-11.0936
▁fuckedup	-11.0937
▁july	-11.0937
▁specialist	-11.0939
▁reina	-11.0939
▁punches	-11.0939
▁endure	-11.0939
▁tender	-11.094
▁humanity	-11.0941
▁smashed	-11.0941
▁facing	-11.0943
▁fury	-11.0944
▁johnno	-11.0944
▁setup	-11.0946
▁sang	-11.0946
▁rode	-11.0947
▁cody	-11.0948
▁sixty	-11.0949
▁cried	-11.0949
▁assure	-11.095
▁brandy	-11.095
▁geezer	-11.0951
▁fist	-11.0951
▁dive	-11.0952
table	-11.0953
▁mentally	-11.0953
▁jen	-11.0953
▁twisted	-11.0954
▁physically	-11.0955
▁chino	-11.0955
▁matches	-11.0956
▁hike	-11.0957
▁couples	-11.0957
▁sharply	-11.0959
▁canceled	-11.0959
▁blackpool	-11.096
▁ink	-11.096
▁bounce	-11.0962
▁yah	-11.0965
▁leaked	-11.0965
▁calculat	-11.0965
▁moans	-11.0966
▁dresses	-11.0967
▁ata	-11.0968
▁sniffing	-11.097
▁boomer	-11.0971
▁exploded	-11.0972
▁commissioner	-11.0973
▁linked	-11.0974
▁lawn	-11.0974
▁echoing	-11.0975
pensive	-11.0977
▁singin	-11.0982
▁developing	-11.0982
▁rustl	-11.0984
▁handful	-11.0985
▁measured	-11.0985
▁fatal	-11.0992
▁jokes	-11.0996
▁items	-11.0997
▁fled	-11.0997
▁heels	-11.0997
▁annis	-11.0998
▁removed	-11.0999
▁lace	-11.1002
work	-11.1005
▁manny	-11.1007
▁skiing	-11.1009
▁exp	-11.1012
liance	-11.1014
▁coin	-11.1014
▁remaining	-11.1017
▁prey	-11.1019
▁spine	-11.102
▁mining	-11.102
eyed	-11.1021
seif	-11.1021
▁samples	-11.1028
▁peep	-11.103
▁blamed	-11.1031
▁hardon	-11.1036
▁badass	-11.1037
▁discussed	-11.1042
▁washed	-11.1043
ways	-11.1046
▁added	-11.1046
▁pits	-11.1048
▁webb	-11.1051
▁wired	-11.1052
▁ribs	-11.1055
▁fuckhead	-11.1055
▁belle	-11.1058
▁bitcoins	-11.1059
▁flatter	-11.1059
▁ay	-11.1061
▁dumping	-11.107
ame	-11.107
▁tate	-11.1078
▁barn	-11.1089
▁deadline	-11.1089
▁cents	-11.1091
▁survivors	-11.1091
▁engineer	-11.1095
▁tons	-11.1097
▁charged	-11.1105
ana	-11.1118
▁breasts	-11.1122
▁marines	-11.1122
▁bak	-11.113
▁cookies	-11.1137
▁musician	-11.1138
▁orderly	-11.1141
▁toni	-11.1142
▁peas	-11.1144
▁il	-11.1151
▁preserve	-11.1162
els	-11.1163
▁drinkin	-11.1163
▁imagined	-11.1169
sight	-11.1171
ub	-11.1172
tors	-11.1181
▁prop	-11.1182
▁surprises	-11.1183
▁methods	-11.1186
▁towers	-11.1187
▁tickle	-11.1188
▁on	-11.1195
▁nuns	-11.1205
▁hast	-11.1212
▁comme	-11.1213
▁exclaims	-11.1217
stop	-11.1218
▁sucking	-11.1221
▁blues	-11.1221
▁yay	-11.1222
▁pushed	-11.1223
tin	-11.1224
▁ag	-11.123
▁footballer	-11.1235
her	-11.1238
▁deals	-11.1239
▁colt	-11.1246
ups	-11.1247
▁benefits	-11.125
▁snaps	-11.125
▁arrives	-11.125
▁abu	-11.1252
eight	-11.1253
▁spits	-11.1262
ology	-11.1264
five	-11.1268
▁respected	-11.1273
▁candles	-11.1282
▁by	-11.1288
▁hay	-11.1295
ora	-11.1295
your	-11.1295
▁roots	-11.1314
▁grenades	-11.1315
ghs	-11.1326
▁wad	-11.1332
▁tease	-11.1341
▁bunkers	-11.1346
▁buttons	-11.1347
▁reserve	-11.1351
▁shi	-11.1353
▁kal	-11.1359
▁schools	-11.1362
▁carve	-11.1366
bert	-11.1366
▁grounds	-11.1368
aries	-11.1377
▁claims	-11.1381
▁seize	-11.1385
▁reporting	-11.1411
▁grandmothers	-11.1413
▁rais	-11.1421
pse	-11.1423
ened	-11.1431
▁cri	-11.1442
▁returns	-11.1448
mine	-11.1459
▁scars	-11.1461
▁pans	-11.1472
▁choppe	-11.1475
▁boots	-11.1476
▁classics	-11.1489
▁iet	-11.1499
▁elections	-11.1509
▁connors	-11.151
ron	-11.1512
▁wars	-11.152
▁rolls	-11.1544
rell	-11.1562
▁cleared	-11.1571
▁unfai	-11.1572
▁vet	-11.1589
▁priests	-11.1608
▁meals	-11.1608
▁tips	-11.1609
▁react	-11.1624
oma	-11.164
▁values	-11.1641
▁dozens	-11.1641
▁scares	-11.1693
▁mars	-11.1697
▁suggests	-11.1712
oly	-11.1719
bs	-11.1742
▁ble	-11.1742
▁batt	-11.1778
▁freaks	-11.1786
▁compete	-11.1801
▁inn	-11.1805
vert	-11.1837
▁mighty	-11.1841
of	-11.1852
▁marked	-11.1878
▁characters	-11.1883
ants	-11.1893
▁smoked	-11.1901
▁serves	-11.1914
▁shoo	-11.194
▁fuckup	-11.1941
▁levels	-11.1946
ember	-11.1958
▁cre	-11.1973
av	-11.1999
win	-11.2006
iness	-11.2007
▁az	-11.2023
▁cakes	-11.2049
▁dre	-11.205
▁racin	-11.2064
▁dil	-11.2078
▁roberts	-11.2083
inch	-11.2098
▁areas	-11.2119
▁horns	-11.2121
▁goose	-11.2127
▁tramp	-11.2139
▁depend	-11.2142
▁mattered	-11.2146
▁flats	-11.2154
▁dot	-11.2158
oster	-11.2158
rene	-11.2175
▁holes	-11.2192
ash	-11.2201
▁evolution	-11.2203
bble	-11.2221
▁decides	-11.223
▁liv	-11.2237
was	-11.2241
▁mechanic	-11.2242
ab	-11.225
▁stir	-11.225
▁prior	-11.2253
mate	-11.2263
▁costa	-11.2264
▁sus	-11.2268
▁transmit	-11.227
ita	-11.228
izing	-11.2283
ov	-11.2288
▁ton	-11.2296
otic	-11.2299
ean	-11.231
ker	-11.2322
gen	-11.2339
▁click	-11.2357
▁grunt	-11.2358
▁gifts	-11.2366
▁facts	-11.2374
▁coroner	-11.2374
▁length	-11.2374
▁balloon	-11.2374
▁shark	-11.2374
▁tshirt	-11.2374
▁sheet	-11.2376
▁bothers	-11.2377
dog	-11.2378
▁patriot	-11.238
▁peasant	-11.238
▁antique	-11.2381
▁dj	-11.2381
▁profit	-11.2384
▁thug	-11.2384
▁emotion	-11.2388
▁fag	-11.2389
▁survivor	-11.2389
▁athlete	-11.239
▁consequence	-11.239
▁reeve	-11.239
▁commitment	-11.2392
▁employee	-11.2392
▁whale	-11.2397
▁cent	-11.24
▁exception	-11.2406
▁swap	-11.2416
lier	-11.2428
nal	-11.2435
▁region	-11.2438
▁bio	-11.2441
▁cracker	-11.2447
▁mates	-11.2454
uke	-11.2455
▁planes	-11.2457
▁lung	-11.2458
▁now	-11.2467
▁founded	-11.2485
▁golf	-11.2499
▁summon	-11.2503
▁disappoint	-11.2506
▁boil	-11.2507
▁spill	-11.2507
▁scot	-11.2511
ifying	-11.2516
▁yea	-11.2519
pack	-11.252
key	-11.2523
▁wal	-11.2524
▁invest	-11.2534
ini	-11.2535
q	-11.2536
▁entertain	-11.2536
▁splash	-11.254
▁recover	-11.2541
▁imagin	-11.2543
▁dwell	-11.2545
▁supp	-11.2548
▁inf	-11.2548
school	-11.2549
▁encounter	-11.2551
▁suffocat	-11.2551
quin	-11.2552
▁ambush	-11.2553
▁ven	-11.2553
▁offend	-11.2554
power	-11.2554
wide	-11.2555
point	-11.2558
bird	-11.2558
ridge	-11.2559
stone	-11.256
▁include	-11.256
▁locate	-11.2561
stream	-11.2563
▁frau	-11.2563
▁approve	-11.2563
ney	-11.2563
emma	-11.2564
level	-11.2565
cycle	-11.2567
box	-11.2567
▁produce	-11.2569
▁rum	-11.2573
▁bore	-11.2573
▁ronni	-11.2574
▁flam	-11.2574
▁terribl	-11.2575
▁claus	-11.2576
▁wrestle	-11.2577
boom	-11.2578
▁descend	-11.2578
▁smuggle	-11.2578
▁pounce	-11.2578
▁psychiatri	-11.2581
▁maze	-11.2581
▁posse	-11.2582
▁abort	-11.2582
▁strap	-11.2582
▁intent	-11.2582
ncent	-11.2583
▁hijack	-11.2583
▁runnin	-11.2583
▁chalk	-11.2583
▁lecture	-11.2583
▁automat	-11.2584
▁apologi	-11.2584
▁asia	-11.2585
▁mornin	-11.2585
▁cecil	-11.2585
iction	-11.2585
▁intellect	-11.2585
▁hunch	-11.2585
▁anchor	-11.2585
rnsen	-11.2585
▁almighty	-11.2585
▁amateur	-11.2585
▁antonio	-11.2585
▁appetite	-11.2585
▁applause	-11.2585
▁apprehend	-11.2585
▁approval	-11.2585
▁arizona	-11.2585
▁auction	-11.2585
▁azuka	-11.2585
▁baloney	-11.2585
▁beethoven	-11.2585
▁behalf	-11.2585
▁behaviour	-11.2585
▁beirut	-11.2585
▁blares	-11.2585
▁caviar	-11.2585
▁chateau	-11.2585
▁colonial	-11.2585
▁corporal	-11.2585
▁czech	-11.2585
▁czechoslovakia	-11.2585
▁dawg	-11.2585
▁deceased	-11.2585
▁december	-11.2585
▁defensive	-11.2585
▁disconnected	-11.2585
▁dismissed	-11.2585
▁divinity	-11.2585
▁dizzy	-11.2585
▁elephant	-11.2585
▁equipped	-11.2585
▁external	-11.2585
▁faculty	-11.2585
▁february	-11.2585
▁fracture	-11.2585
▁frightened	-11.2585
▁gloria	-11.2585
▁gracias	-11.2585
▁gracious	-11.2585
▁grocery	-11.2585
▁harridene	-11.2585
▁hebrew	-11.2585
▁helmet	-11.2585
▁henderson	-11.2585
▁hgw	-11.2585
▁homosexual	-11.2585
▁honecker	-11.2585
▁horizon	-11.2585
▁ignorance	-11.2585
▁infinite	-11.2585
▁intercept	-11.2585
▁intimacy	-11.2585
▁ireland	-11.2585
▁judging	-11.2585
▁justified	-11.2585
▁katrina	-11.2585
▁kauai	-11.2585
▁kgb	-11.2585
▁knives	-11.2585
▁kraven	-11.2585
▁kruger	-11.2585
▁lazenby	-11.2585
▁leviticus	-11.2585
▁lndlstlnct	-11.2585
▁magnum	-11.2585
▁mandarin	-11.2585
▁memphis	-11.2585
▁metaphor	-11.2585
▁moselle	-11.2585
▁namgoong	-11.2585
▁necessarily	-11.2585
▁northeast	-11.2585
▁occupation	-11.2585
▁offensive	-11.2585
▁ordinary	-11.2585
▁outspan	-11.2585
▁overseas	-11.2585
▁parcel	-11.2585
▁pitiful	-11.2585
▁plead	-11.2585
▁popcorn	-11.2585
▁quirke	-11.2585
▁ralph	-11.2585
▁rattigan	-11.2585
▁resort	-11.2585
▁revolver	-11.2585
▁ribbon	-11.2585
▁rouge	-11.2585
▁shampoo	-11.2585
▁shanks	-11.2585
▁southpaw	-11.2585
▁strangle	-11.2585
▁strategy	-11.2585
▁subscribe	-11.2585
▁superhero	-11.2585
▁supplies	-11.2585
▁temptation	-11.2585
▁transaction	-11.2585
▁underestimate	-11.2585
▁vessel	-11.2585
▁vienna	-11.2585
▁villain	-11.2585
▁vocabulary	-11.2585
▁wallpaper	-11.2585
▁wardrobe	-11.2585
▁weaver	-11.2585
▁welfare	-11.2585
▁yukio	-11.2585
▁billionaire	-11.2585
▁ceiling	-11.2585
▁cramp	-11.2585
▁downsizing	-11.2585
▁envy	-11.2585
▁errand	-11.2585
▁evacuate	-11.2585
▁gospel	-11.2585
▁humming	-11.2585
▁imbecile	-11.2585
▁instance	-11.2585
▁legacy	-11.2585
▁porch	-11.2585
▁rveur	-11.2585
▁sascha	-11.2585
▁sheep	-11.2585
▁swerve	-11.2585
▁tibbs	-11.2585
▁tilden	-11.2585
▁traitor	-11.2585
▁website	-11.2585
▁willis	-11.2585
▁adapt	-11.2585
▁correspondence	-11.2585
▁herald	-11.2585
▁ninth	-11.2585
▁parsons	-11.2585
▁ramdon	-11.2585
▁reich	-11.2585
▁vegetable	-11.2585
▁competition	-11.2585
▁impose	-11.2585
▁prescription	-11.2585
▁sasha	-11.2585
▁werewolves	-11.2585
▁butterflies	-11.2585
▁hesitate	-11.2585
▁humiliating	-11.2585
▁wrench	-11.2585
▁carpet	-11.2585
▁wore	-11.2585
▁barrel	-11.2585
▁mutual	-11.2585
▁personnel	-11.2585
▁prophet	-11.2585
▁await	-11.2585
▁ascendant	-11.2585
▁eighteen	-11.2585
▁redcoats	-11.2585
▁housing	-11.2585
▁dedicat	-11.2585
▁scorche	-11.2585
▁fireworks	-11.2585
▁italy	-11.2585
▁joseph	-11.2585
▁rebec	-11.2585
▁illusion	-11.2585
▁invasion	-11.2585
▁camino	-11.2585
▁grubitz	-11.2585
▁adopt	-11.2585
▁clarence	-11.2585
▁issy	-11.2585
▁opponent	-11.2585
▁giddy	-11.2586
▁irina	-11.2586
▁turtle	-11.2586
▁silk	-11.2586
▁conclusion	-11.2586
▁institution	-11.2586
▁divine	-11.2586
▁nakia	-11.2586
▁patrick	-11.2586
▁shalt	-11.2586
▁stockholm	-11.2586
▁applied	-11.2586
▁occurred	-11.2586
adows	-11.2586
▁compensation	-11.2586
▁rigged	-11.2586
▁viral	-11.2586
▁contrary	-11.2586
▁grub	-11.2586
▁bunny	-11.2586
▁micro	-11.2586
▁pippa	-11.2586
▁valmont	-11.2586
▁shrine	-11.2586
▁politician	-11.2586
▁suitcase	-11.2586
▁trem	-11.2586
▁favourite	-11.2586
▁observation	-11.2586
▁devoted	-11.2586
▁sandborn	-11.2586
▁inaudible	-11.2586
▁whoops	-11.2586
▁dummy	-11.2586
▁kaap	-11.2586
▁slack	-11.2586
▁mercenaries	-11.2586
▁tyler	-11.2586
▁drums	-11.2586
▁economic	-11.2586
▁slope	-11.2586
▁inhaler	-11.2586
▁rampage	-11.2586
▁membership	-11.2586
▁mugger	-11.2586
▁mace	-11.2586
▁rational	-11.2586
▁sober	-11.2586
▁karma	-11.2586
▁nolan	-11.2586
▁detector	-11.2586
▁hector	-11.2586
▁pirate	-11.2586
▁bullshittin	-11.2586
▁empire	-11.2586
▁amos	-11.2586
▁disappointment	-11.2586
▁grill	-11.2587
▁probation	-11.2587
▁chili	-11.2587
▁hoppy	-11.2587
▁declaration	-11.2587
▁automatic	-11.2587
▁piay	-11.2587
▁hoax	-11.2587
▁superpower	-11.2587
▁depression	-11.2587
▁vicious	-11.2587
▁income	-11.2587
▁libel	-11.2587
▁exclusive	-11.2587
▁unpredictable	-11.2587
▁glue	-11.2587
▁lowkey	-11.2587
▁mmmmm	-11.2587
▁nickname	-11.2587
▁drugged	-11.2587
▁barlow	-11.2587
▁humor	-11.2587
▁imagination	-11.2587
▁scent	-11.2587
▁tech	-11.2587
▁poetry	-11.2587
▁assistance	-11.2587
▁delete	-11.2588
▁faxx	-11.2588
▁unlock	-11.2588
▁flock	-11.2588
▁drumm	-11.2588
▁leadership	-11.2588
▁cruelty	-11.2588
▁acquaint	-11.2588
▁ladonna	-11.2588
▁vulnerable	-11.2588
▁wheat	-11.2588
▁seventeen	-11.2588
▁ladislav	-11.2588
▁evie	-11.2588
▁hatred	-11.2588
▁petty	-11.2588
▁spoon	-11.2588
▁brotherinlaw	-11.2588
▁torchia	-11.2588
▁rising	-11.2588
▁jenna	-11.2588
▁silo	-11.2588
▁cadei	-11.2588
▁kiii	-11.2588
▁fife	-11.2588
▁jock	-11.2588
▁abortion	-11.2589
▁seattle	-11.2589
▁endorse	-11.2589
▁colour	-11.2589
▁happier	-11.2589
▁slate	-11.2589
▁embrace	-11.2589
▁dental	-11.2589
▁infant	-11.2589
▁lime	-11.2589
▁recommendation	-11.2589
▁coup	-11.2589
▁keen	-11.2589
▁stove	-11.2589
▁rash	-11.2589
▁peaches	-11.2589
▁diana	-11.2589
▁sieg	-11.259
▁gurgling	-11.259
▁mmmmmm	-11.259
▁isley	-11.259
▁tuck	-11.259
▁radi	-11.259
▁invention	-11.259
▁lockdown	-11.2591
▁fuel	-11.2591
▁brent	-11.2591
▁exile	-11.2591
▁gunfire	-11.2591
▁conclude	-11.2591
▁nero	-11.2591
▁cull	-11.2591
▁vandy	-11.2592
▁struck	-11.2592
▁rookie	-11.2592
▁vanisher	-11.2593
▁kurt	-11.2593
▁potatoes	-11.2593
▁nevertheless	-11.2593
▁peddle	-11.2593
▁battery	-11.2593
▁warn	-11.2593
▁organic	-11.2594
▁moist	-11.2594
▁production	-11.2594
▁wig	-11.2595
▁smuggler	-11.2595
▁cafe	-11.2595
▁rapidly	-11.2595
▁tsing	-11.2596
▁shuttle	-11.2596
called	-11.2596
▁opie	-11.2596
▁spic	-11.2596
▁greedy	-11.2596
▁athens	-11.2596
▁boop	-11.2597
hearted	-11.2597
most	-11.2597
skell	-11.2597
▁sleepwalking	-11.2597
▁counseling	-11.2598
▁ronnie	-11.2598
herefore	-11.2598
▁gaines	-11.2599
▁employer	-11.26
▁jared	-11.26
▁conf	-11.26
▁laura	-11.2601
▁evolved	-11.2601
▁wept	-11.2601
▁leone	-11.2602
▁severely	-11.2602
▁apo	-11.2603
▁stunt	-11.2604
▁hobo	-11.2604
▁grid	-11.2604
▁preach	-11.2605
▁ahah	-11.2605
▁betting	-11.2605
▁roxy	-11.2605
▁instantly	-11.2606
▁selected	-11.2606
▁toke	-11.2607
▁runner	-11.2607
▁toll	-11.2607
▁lawman	-11.2608
▁heir	-11.2608
▁initial	-11.2608
▁upper	-11.2609
▁programmed	-11.2609
▁placed	-11.2609
▁fleet	-11.2609
▁sickness	-11.2609
▁speeches	-11.2609
▁amy	-11.2609
▁compared	-11.2609
▁located	-11.2609
▁kuwaiti	-11.261
▁bare	-11.2611
▁accuse	-11.2611
▁acquire	-11.2612
▁melted	-11.2612
▁uhoh	-11.2613
▁edg	-11.2613
▁howling	-11.2614
▁amongst	-11.2615
▁ash	-11.2615
▁seminar	-11.2615
▁organize	-11.2616
▁recovered	-11.2617
▁nigeria	-11.2617
▁bitter	-11.2617
▁pint	-11.262
▁smashing	-11.2621
▁spraying	-11.2621
▁tan	-11.2622
▁destined	-11.2623
▁proposed	-11.2623
▁published	-11.2623
▁pronounce	-11.2623
▁mankind	-11.2624
▁dissolve	-11.2624
▁menac	-11.2625
▁taller	-11.2625
▁replaced	-11.2627
▁gabe	-11.2628
▁confessed	-11.2628
▁folder	-11.2629
▁dwelling	-11.2629
▁breed	-11.263
▁organized	-11.2631
▁freeway	-11.2632
▁chased	-11.2633
▁pace	-11.2636
▁dug	-11.2636
▁unable	-11.2637
▁screening	-11.2637
▁giggling	-11.2637
▁sur	-11.2639
▁fastest	-11.2639
▁advanced	-11.264
▁tying	-11.264
▁bog	-11.2642
▁shillings	-11.2642
star	-11.2644
▁approached	-11.2646
▁tricky	-11.2647
▁atheist	-11.265
wo	-11.265
▁helena	-11.2651
▁stressed	-11.2651
▁butter	-11.2654
▁gap	-11.2655
duct	-11.2655
▁solved	-11.2655
▁monitored	-11.2657
▁separated	-11.2658
▁nono	-11.2659
ston	-11.2665
▁trib	-11.2666
▁tur	-11.2666
▁tash	-11.2668
▁yoon	-11.2668
▁historical	-11.2668
▁claimed	-11.267
▁meth	-11.267
▁intended	-11.2674
ocus	-11.2675
▁digg	-11.2676
▁gav	-11.2677
▁sings	-11.2678
▁proceeding	-11.2679
foot	-11.2679
▁instructions	-11.2679
▁rake	-11.2679
▁guaranteed	-11.2684
▁kis	-11.2684
▁cured	-11.2686
▁tougher	-11.2687
▁chickens	-11.269
▁informed	-11.2693
▁posters	-11.2694
▁loudly	-11.2694
▁heii	-11.2697
▁entered	-11.2698
ets	-11.2698
▁borrowed	-11.2703
▁dame	-11.2705
▁ruled	-11.2713
▁dat	-11.2715
decker	-11.2715
onic	-11.2716
▁delusions	-11.2716
▁hor	-11.272
rawn	-11.2721
▁shortly	-11.273
▁tracked	-11.2735
▁screamed	-11.2747
▁lend	-11.2752
▁generally	-11.2753
ones	-11.2753
▁programme	-11.2758
lapping	-11.2761
▁sod	-11.2764
▁thoughtful	-11.2766
▁repeating	-11.2766
▁davids	-11.2767
▁ape	-11.2768
▁continued	-11.2772
▁quietly	-11.2782
▁buster	-11.2786
lyn	-11.2788
▁discussing	-11.2791
▁whales	-11.2792
▁profits	-11.2792
▁kil	-11.2794
etta	-11.2794
ological	-11.2803
▁chatt	-11.2812
itz	-11.2818
▁fasten	-11.2821
▁oldest	-11.2828
▁chok	-11.2829
▁socks	-11.2829
▁jeans	-11.2829
▁relatives	-11.283
ign	-11.2835
▁cuffs	-11.2837
pol	-11.2851
▁pressed	-11.2854
▁lil	-11.2858
▁dunne	-11.2866
▁commercials	-11.2868
▁degrees	-11.2868
▁farmers	-11.2877
▁sakes	-11.2879
▁jets	-11.2879
▁renting	-11.2881
▁misses	-11.2894
▁takeout	-11.2894
▁ole	-11.2897
▁beans	-11.2903
▁parked	-11.2904
▁adults	-11.2906
take	-11.2907
▁shadows	-11.2908
ano	-11.2908
▁om	-11.2909
audi	-11.2909
▁searching	-11.2915
▁visited	-11.2921
▁robot	-11.2924
▁der	-11.2929
cover	-11.2933
▁ranks	-11.2944
▁welt	-11.2948
upo	-11.2949
▁musical	-11.2953
▁fees	-11.296
▁wing	-11.2966
▁char	-11.2974
▁sten	-11.2974
▁sunsets	-11.2983
▁damages	-11.2984
bit	-11.299
▁fightin	-11.2994
▁hairy	-11.3
iii	-11.3017
▁drawings	-11.3021
▁procedures	-11.3021
▁steaks	-11.3021
mor	-11.3021
mber	-11.3031
▁wakes	-11.3053
▁supposedly	-11.3055
▁kicking	-11.3057
▁tra	-11.3058
▁toys	-11.306
▁ru	-11.3062
▁ant	-11.3063
lessly	-11.3068
▁pipes	-11.3079
▁qu	-11.3089
▁shifts	-11.3099
▁caller	-11.3099
▁lions	-11.3099
▁for	-11.3103
etes	-11.3104
▁cows	-11.3107
▁qui	-11.3115
▁salut	-11.3118
▁reed	-11.3126
▁affairs	-11.3138
ival	-11.315
▁seated	-11.3153
▁testing	-11.316
shed	-11.3175
▁wrists	-11.3177
▁distribut	-11.3191
ova	-11.3195
▁spitt	-11.3218
▁gee	-11.322
▁guessing	-11.3226
▁buckle	-11.3231
▁mole	-11.3238
▁slashe	-11.3253
▁wheels	-11.3257
▁assistants	-11.3257
▁cone	-11.3261
▁niggers	-11.3262
chi	-11.3265
umb	-11.3279
▁oo	-11.3283
▁lively	-11.3285
hat	-11.3286
▁blades	-11.3296
get	-11.3296
▁waves	-11.3336
esy	-11.3344
▁handy	-11.3369
▁sup	-11.337
▁ding	-11.3373
▁helicopters	-11.3376
▁est	-11.338
▁plates	-11.3382
ddy	-11.3384
▁commun	-11.3386
▁signing	-11.3396
ians	-11.3401
▁cowards	-11.3417
▁mirrors	-11.3417
dam	-11.3422
▁cuba	-11.3424
▁respects	-11.3428
▁doe	-11.3438
bie	-11.3438
▁champions	-11.3457
shire	-11.3458
oy	-11.3463
▁pros	-11.3469
▁eats	-11.3484
vous	-11.3484
▁den	-11.3491
bc	-11.3501
▁ironic	-11.3509
▁stoned	-11.353
vel	-11.3532
▁floors	-11.3538
▁purposes	-11.3538
▁murderers	-11.3546
▁gla	-11.355
▁clues	-11.3579
okee	-11.3581
▁dea	-11.3611
▁officials	-11.362
ella	-11.3639
tan	-11.3653
lar	-11.3653
▁curl	-11.3654
ck	-11.3655
▁bot	-11.3681
▁swa	-11.3707
▁das	-11.3707
▁qua	-11.3713
▁sells	-11.3714
▁schu	-11.3718
ogging	-11.3722
ib	-11.3768
▁unw	-11.3769
ouse	-11.3776
▁leaders	-11.3776
▁ja	-11.3783
▁loo	-11.3815
▁raisin	-11.3829
▁carly	-11.3831
▁mala	-11.3833
▁granddad	-11.3847
aria	-11.3869
raine	-11.3899
form	-11.3929
ral	-11.3951
▁mill	-11.3978
▁ei	-11.3999
▁wires	-11.4002
▁shells	-11.4034
▁shops	-11.4041
▁craigs	-11.4041
▁redhead	-11.4063
girl	-11.4066
▁poo	-11.4067
etti	-11.4084
▁hips	-11.4102
row	-11.4122
▁cruise	-11.4129
▁cult	-11.4137
arian	-11.4147
▁bou	-11.4155
▁wel	-11.4173
ull	-11.4186
▁arch	-11.4191
ante	-11.4201
ike	-11.4205
evi	-11.4207
▁arc	-11.4241
▁peg	-11.4245
▁bridges	-11.4303
▁grosse	-11.4308
ik	-11.4311
▁brag	-11.433
▁suite	-11.4336
cht	-11.4336
atic	-11.4359
▁beep	-11.4359
▁shatter	-11.4363
▁organ	-11.4366
kov	-11.4371
▁implant	-11.4374
▁receipt	-11.438
▁communication	-11.4381
▁token	-11.4382
▁earring	-11.4382
▁bodyguard	-11.4383
dian	-11.4386
▁bitcoin	-11.4386
▁melt	-11.4388
▁clap	-11.4388
▁clip	-11.4388
lor	-11.439
▁muscle	-11.4391
rine	-11.4397
▁flame	-11.4405
▁that	-11.4412
▁bounc	-11.4426
▁canvas	-11.4427
▁ratio	-11.4429
quet	-11.4433
ward	-11.4462
▁rev	-11.4466
▁via	-11.4469
▁historic	-11.4488
▁sho	-11.4491
▁dim	-11.4505
▁whistl	-11.4506
▁punish	-11.4508
▁spray	-11.451
▁smash	-11.4511
▁wee	-11.4513
▁era	-11.453
bod	-11.4534
▁sweep	-11.454
▁geez	-11.4541
class	-11.4542
▁caus	-11.4543
▁sha	-11.4544
▁stash	-11.4547
wood	-11.4547
▁possess	-11.4548
▁nob	-11.4548
▁snatch	-11.4549
▁attract	-11.4551
▁impress	-11.4551
▁frost	-11.4551
▁transform	-11.4551
▁download	-11.4552
▁confront	-11.4552
▁infect	-11.4553
▁squa	-11.4553
▁retard	-11.4556
fire	-11.4557
▁electrocute	-11.4559
mint	-11.4559
craft	-11.456
sync	-11.4562
mouth	-11.4563
▁assassinate	-11.4563
track	-11.4563
▁confuse	-11.4563
cake	-11.4564
year	-11.4564
color	-11.4564
litter	-11.4564
▁choos	-11.4565
coat	-11.4565
mark	-11.4565
▁chunk	-11.4567
▁coul	-11.4567
▁hoot	-11.4568
▁thirst	-11.4569
how	-11.457
▁gamble	-11.457
after	-11.4571
oftheart	-11.4571
▁plat	-11.4572
shop	-11.4574
▁extreme	-11.4575
yeah	-11.4576
▁peck	-11.4576
▁register	-11.4576
▁borde	-11.4577
ray	-11.4577
▁rapid	-11.4577
ym	-11.4578
▁india	-11.4578
▁innocen	-11.4579
▁regis	-11.4579
▁sensation	-11.458
▁addition	-11.458
▁shack	-11.4582
▁construct	-11.4582
▁spec	-11.4583
▁intel	-11.4583
▁exploit	-11.4583
▁henri	-11.4583
aff	-11.4584
▁kiddin	-11.4584
▁intelligen	-11.4584
▁reception	-11.4584
▁orphan	-11.4584
▁resent	-11.4584
▁coven	-11.4584
▁scholar	-11.4585
▁architect	-11.4585
▁amp	-11.4585
▁poke	-11.4585
▁nitrous	-11.4585
responsibilities	-11.4585
▁africanamerican	-11.4585
▁alderman	-11.4585
▁anmei	-11.4585
▁argentina	-11.4585
▁artifact	-11.4585
▁ashtray	-11.4585
▁asthma	-11.4585
▁atlanta	-11.4585
▁autograph	-11.4585
▁behaving	-11.4585
▁blackjack	-11.4585
▁blindfold	-11.4585
▁bohemia	-11.4585
▁brunckhorst	-11.4585
▁cadillac	-11.4585
▁cassio	-11.4585
▁certificate	-11.4585
▁chevalier	-11.4585
▁chronic	-11.4585
▁civilization	-11.4585
▁cockroach	-11.4585
▁colonies	-11.4585
▁conceal	-11.4585
▁conference	-11.4585
▁confident	-11.4585
▁crucifix	-11.4585
▁darryl	-11.4585
▁database	-11.4585
▁decency	-11.4585
▁define	-11.4585
▁depressing	-11.4585
▁devastating	-11.4585
▁diminish	-11.4585
▁edinburgh	-11.4585
▁elegant	-11.4585
▁elsbeth	-11.4585
▁elvira	-11.4585
▁emerging	-11.4585
▁enterprise	-11.4585
▁eternity	-11.4585
▁ethics	-11.4585
▁eugene	-11.4585
▁extinguish	-11.4585
▁fabric	-11.4585
▁fergus	-11.4585
▁fifteen	-11.4585
▁finnish	-11.4585
▁florek	-11.4585
▁foxcatcher	-11.4585
▁frightening	-11.4585
▁frode	-11.4585
▁garlic	-11.4585
▁gestapo	-11.4585
▁goddammit	-11.4585
▁grandchildren	-11.4585
▁grouch	-11.4585
▁guzman	-11.4585
▁haggis	-11.4585
▁hedestad	-11.4585
▁hotchkiss	-11.4585
▁impulse	-11.4585
▁inappropriate	-11.4585
▁inhuman	-11.4585
▁install	-11.4585
▁institute	-11.4585
▁intercourse	-11.4585
▁intoxicat	-11.4585
▁invisible	-11.4585
▁jurisdiction	-11.4585
▁kentucky	-11.4585
▁laferty	-11.4585
▁lloyd	-11.4585
▁mammoth	-11.4585
▁manhattan	-11.4585
▁marbro	-11.4585
▁marshmallows	-11.4585
▁maximum	-11.4585
▁mcswiney	-11.4585
▁merchandise	-11.4585
▁millennium	-11.4585
▁mississippi	-11.4585
▁monastery	-11.4585
▁montgomery	-11.4585
▁moravec	-11.4585
▁murmur	-11.4585
▁napoleon	-11.4585
▁necessity	-11.4585
▁nemesis	-11.4585
▁nominated	-11.4585
▁occupied	-11.4585
▁offlimits	-11.4585
▁omelet	-11.4585
▁orgasm	-11.4585
▁osiris	-11.4585
▁outrageous	-11.4585
▁oxford	-11.4585
▁palmgren	-11.4585
▁parlor	-11.4585
▁penitentiary	-11.4585
▁pennsylvania	-11.4585
▁perimeter	-11.4585
▁petrek	-11.4585
▁philadelphia	-11.4585
▁portsmith	-11.4585
▁possibility	-11.4585
▁premiere	-11.4585
▁psychiatry	-11.4585
▁puppet	-11.4585
▁qualification	-11.4585
▁quarrel	-11.4585
▁quinton	-11.4585
▁rachel	-11.4585
▁resurrect	-11.4585
▁rethink	-11.4585
▁rewrite	-11.4585
▁roosevelt	-11.4585
▁rubbish	-11.4585
▁sabra	-11.4585
▁salander	-11.4585
▁sauerkraut	-11.4585
▁scrub	-11.4585
▁selfdefense	-11.4585
▁senile	-11.4585
▁sheldon	-11.4585
▁sleeve	-11.4585
▁snarls	-11.4585
▁snoop	-11.4585
▁stagecoach	-11.4585
▁statue	-11.4585
▁stereo	-11.4585
▁submarine	-11.4585
▁substance	-11.4585
▁suicidal	-11.4585
▁swollen	-11.4585
▁syllable	-11.4585
▁tennessee	-11.4585
▁testified	-11.4585
▁thunderclap	-11.4585
▁tranquilize	-11.4585
▁truce	-11.4585
▁undressed	-11.4585
▁universal	-11.4585
▁uppercut	-11.4585
▁vaseliev	-11.4585
▁virtue	-11.4585
▁warnekros	-11.4585
▁whew	-11.4585
▁wizard	-11.4585
▁youssef	-11.4585
▁youtube	-11.4585
▁zeppelin	-11.4585
▁adorable	-11.4585
▁apologizing	-11.4585
▁asshoie	-11.4585
▁auden	-11.4585
▁baggage	-11.4585
▁bronson	-11.4585
▁caesar	-11.4585
▁crazed	-11.4585
▁debby	-11.4585
▁deploy	-11.4585
▁dwarf	-11.4585
▁error	-11.4585
▁harvest	-11.4585
▁holler	-11.4585
▁homie	-11.4585
▁lovable	-11.4585
▁mancini	-11.4585
▁melanie	-11.4585
▁mendoza	-11.4585
▁niece	-11.4585
▁physics	-11.4585
▁retain	-11.4585
▁richmond	-11.4585
▁scientific	-11.4585
▁sermon	-11.4585
▁snicker	-11.4585
▁squid	-11.4585
▁tropic	-11.4585
▁whereabouts	-11.4585
▁wilkins	-11.4585
▁categor	-11.4585
▁harvey	-11.4585
▁jolly	-11.4585
▁kitsey	-11.4585
▁lnhale	-11.4585
▁maurice	-11.4585
▁mcdonalds	-11.4585
▁melanch	-11.4585
▁storsch	-11.4585
▁worm	-11.4585
▁berlin	-11.4585
▁extension	-11.4585
▁pigeon	-11.4585
▁purr	-11.4585
▁ulla	-11.4585
▁lease	-11.4585
▁unreal	-11.4585
ssociati	-11.4585
▁cruci	-11.4585
▁fontella	-11.4585
▁limp	-11.4585
▁plague	-11.4585
▁slams	-11.4585
▁swelling	-11.4585
▁investigator	-11.4585
▁leroy	-11.4585
▁murray	-11.4585
▁resign	-11.4585
▁glorious	-11.4585
▁headquarters	-11.4585
▁jelly	-11.4585
▁nipple	-11.4585
▁circulation	-11.4585
▁lycan	-11.4585
▁berman	-11.4585
▁dinosaur	-11.4585
▁opportunities	-11.4585
▁queer	-11.4585
▁fragile	-11.4585
▁discipl	-11.4585
▁domingre	-11.4585
▁forgiving	-11.4585
▁greer	-11.4585
▁knots	-11.4585
▁overhear	-11.4585
▁alternative	-11.4585
▁mackey	-11.4585
▁nelly	-11.4585
▁snuff	-11.4585
▁wails	-11.4585
▁gulp	-11.4586
▁firearm	-11.4586
▁wretch	-11.4586
parallel	-11.4586
▁administration	-11.4586
▁aisle	-11.4586
▁getaway	-11.4586
▁laboratory	-11.4586
▁duncan	-11.4586
▁analyz	-11.4586
▁identify	-11.4586
▁recognition	-11.4586
▁scramble	-11.4586
▁distress	-11.4586
▁sequence	-11.4586
▁apology	-11.4586
▁jewelry	-11.4586
▁reggie	-11.4586
▁decorated	-11.4586
▁tumor	-11.4586
▁casual	-11.4586
▁clanking	-11.4586
▁scoot	-11.4586
▁elementary	-11.4586
▁facial	-11.4586
▁extinction	-11.4586
▁nicholai	-11.4586
▁vilena	-11.4586
▁flank	-11.4586
▁nanny	-11.4586
▁supermarket	-11.4586
▁downhill	-11.4586
▁undone	-11.4586
▁plunge	-11.4586
▁bugged	-11.4586
▁intercom	-11.4586
▁proposition	-11.4586
▁abide	-11.4586
▁matchmaker	-11.4586
▁shboom	-11.4586
▁garza	-11.4586
▁stump	-11.4586
▁cabron	-11.4586
▁connover	-11.4586
▁budget	-11.4586
▁consultant	-11.4586
▁middleweight	-11.4586
▁painkiller	-11.4586
▁narrat	-11.4586
izarr	-11.4586
▁cheesecake	-11.4586
▁gender	-11.4586
▁bulletproof	-11.4586
▁ponchai	-11.4586
▁dread	-11.4586
▁occur	-11.4586
▁mutters	-11.4586
▁vista	-11.4586
▁vibe	-11.4586
▁basis	-11.4586
▁mutation	-11.4586
▁horton	-11.4586
reaking	-11.4586
▁refund	-11.4586
▁juri	-11.4586
▁geneva	-11.4586
▁napkin	-11.4586
▁navy	-11.4586
▁erection	-11.4586
▁moonlight	-11.4586
▁repair	-11.4586
▁dietrich	-11.4586
▁leith	-11.4587
▁celine	-11.4587
▁mickah	-11.4587
▁subway	-11.4587
▁repay	-11.4587
▁toby	-11.4587
▁beatles	-11.4587
▁fortress	-11.4587
▁mature	-11.4587
▁specta	-11.4587
▁intensive	-11.4587
▁noose	-11.4587
▁buii	-11.4587
▁finance	-11.4587
▁faking	-11.4587
▁lasagne	-11.4587
▁deliberately	-11.4587
▁chinatown	-11.4587
▁worn	-11.4587
▁donation	-11.4587
▁masculine	-11.4587
▁exotic	-11.4587
pupil	-11.4587
▁walleye	-11.4587
▁liberty	-11.4587
▁bankrupt	-11.4587
▁flour	-11.4587
▁ripping	-11.4587
▁sniffling	-11.4587
▁panda	-11.4587
▁fword	-11.4587
▁abby	-11.4587
▁caf	-11.4587
▁bruise	-11.4587
▁sidewalk	-11.4587
▁hush	-11.4588
▁primal	-11.4588
▁destruction	-11.4588
▁studies	-11.4588
▁appearance	-11.4588
▁airplane	-11.4588
▁fanny	-11.4588
▁retches	-11.4588
▁enrich	-11.4588
▁radiation	-11.4588
▁jonah	-11.4588
▁snot	-11.4588
▁curb	-11.4588
▁snatchers	-11.4588
▁reform	-11.4588
▁wiping	-11.4588
▁childhood	-11.4588
▁cooperation	-11.4588
orn	-11.4588
▁theft	-11.4588
▁evac	-11.4588
▁sosa	-11.4588
▁bastian	-11.4588
▁krill	-11.4588
▁lewis	-11.4588
▁supernatural	-11.4588
▁assessment	-11.4588
▁iong	-11.4588
▁oui	-11.4588
▁payback	-11.4588
▁musket	-11.4588
▁lyin	-11.4589
cia	-11.4589
▁vitt	-11.4589
▁swag	-11.4589
▁cec	-11.4589
▁begged	-11.4589
▁terminal	-11.4589
▁romance	-11.4589
▁nino	-11.4589
▁duties	-11.4589
met	-11.4589
▁dragna	-11.4589
actical	-11.4589
▁distorted	-11.4589
▁racket	-11.4589
▁reload	-11.4589
▁twentyone	-11.4589
▁attractive	-11.4589
▁oof	-11.4589
▁acknowledge	-11.4589
▁congratulate	-11.4589
▁cement	-11.459
▁woof	-11.459
▁whooping	-11.459
▁revolutionary	-11.459
▁servant	-11.459
itating	-11.459
▁straightened	-11.459
▁foil	-11.459
▁rolex	-11.459
▁dose	-11.4591
▁maryland	-11.4591
▁motherinlaw	-11.4591
▁groom	-11.4591
▁hittin	-11.4591
▁psychotic	-11.4591
▁ringside	-11.4591
▁plot	-11.4591
▁popper	-11.4591
▁allowance	-11.4591
▁affection	-11.4592
▁checkpoint	-11.4592
▁highlander	-11.4592
▁exceptional	-11.4592
▁yank	-11.4592
▁cities	-11.4592
▁injured	-11.4592
▁meine	-11.4592
▁xan	-11.4593
▁ego	-11.4593
▁serb	-11.4593
▁squat	-11.4593
▁rufus	-11.4593
▁presidential	-11.4593
▁dita	-11.4593
▁actress	-11.4593
▁aj	-11.4594
▁winston	-11.4594
▁elected	-11.4594
▁initiated	-11.4594
▁valet	-11.4594
▁sexuality	-11.4594
▁crude	-11.4594
▁grossman	-11.4594
▁cour	-11.4594
▁virginity	-11.4594
▁reese	-11.4594
▁dna	-11.4595
▁freetown	-11.4595
▁obey	-11.4595
▁biography	-11.4595
▁iot	-11.4595
▁weaponry	-11.4595
▁romeo	-11.4596
▁puff	-11.4596
▁curve	-11.4596
▁glow	-11.4597
▁educated	-11.4597
▁prepped	-11.4597
▁diab	-11.4597
▁stripped	-11.4597
▁shore	-11.4597
▁yang	-11.4597
▁vig	-11.4597
▁sanity	-11.4597
▁edna	-11.4598
▁publicity	-11.4598
▁johnnie	-11.4598
▁trooper	-11.4598
▁alexand	-11.4598
▁whiz	-11.4598
▁sector	-11.4598
▁legitimate	-11.4598
▁slug	-11.4599
▁passage	-11.4599
▁indicated	-11.4599
▁dole	-11.46
▁core	-11.46
▁charly	-11.46
▁warmup	-11.46
▁approaches	-11.46
▁tres	-11.46
store	-11.46
▁arti	-11.46
▁recruiting	-11.46
▁stunning	-11.46
▁thumping	-11.46
▁layin	-11.4601
▁accusing	-11.4601
▁consideration	-11.4601
▁canal	-11.4601
▁firstclass	-11.4601
▁thai	-11.4601
▁clic	-11.4601
▁sour	-11.4601
▁fingerprint	-11.4602
▁flo	-11.4602
▁breakdown	-11.4602
▁uk	-11.4603
▁hose	-11.4603
▁packet	-11.4603
▁immigration	-11.4603
▁supervised	-11.4603
▁volunteered	-11.4603
▁armored	-11.4603
▁hillman	-11.4603
▁vine	-11.4604
▁shovel	-11.4604
▁ahem	-11.4604
▁skies	-11.4604
ently	-11.4605
▁ranch	-11.4605
▁slime	-11.4606
▁macey	-11.4607
pop	-11.4607
▁bucket	-11.4607
▁fried	-11.4607
▁alf	-11.4608
▁wanker	-11.4608
▁puttin	-11.4609
▁tore	-11.4609
▁fatty	-11.4609
▁losses	-11.461
▁poach	-11.461
▁discovery	-11.461
lka	-11.461
▁greeting	-11.461
▁attached	-11.461
▁scattered	-11.461
▁vanished	-11.461
▁hotter	-11.461
rupt	-11.4611
▁funni	-11.4611
▁hardball	-11.4611
▁delightful	-11.4611
▁permanently	-11.4612
handed	-11.4612
▁gala	-11.4613
▁hash	-11.4613
▁fearless	-11.4613
▁peeking	-11.4613
▁diner	-11.4614
▁sewer	-11.4615
▁approved	-11.4615
▁wider	-11.4617
▁ciao	-11.4617
▁transformed	-11.4617
▁exhausting	-11.4618
▁stashed	-11.4619
kind	-11.4619
▁disorderly	-11.462
▁possessed	-11.462
▁consult	-11.4621
▁active	-11.4621
▁haul	-11.4621
▁mild	-11.4621
▁adriana	-11.4622
▁screws	-11.4622
eye	-11.4622
▁fulltime	-11.4622
▁perp	-11.4623
shot	-11.4625
▁forg	-11.4626
orado	-11.4626
▁porter	-11.4627
▁nickel	-11.4629
▁stingy	-11.4629
▁eta	-11.4629
low	-11.4629
▁wheeler	-11.4631
▁limited	-11.4632
▁larger	-11.4636
eft	-11.4637
▁iive	-11.4637
▁oblige	-11.4637
▁fuckface	-11.4639
▁dew	-11.464
▁urinate	-11.4641
▁mattie	-11.4642
▁bass	-11.4642
▁sip	-11.4643
▁fudge	-11.4645
▁oer	-11.4646
▁fuckall	-11.4651
▁merciless	-11.4653
▁charts	-11.4654
▁lyrics	-11.4656
▁yankees	-11.4656
thats	-11.4657
▁bur	-11.4658
▁clothing	-11.4658
▁confessing	-11.466
▁willingly	-11.4662
▁divorced	-11.4663
▁strangest	-11.4663
▁haunt	-11.4664
▁scan	-11.4665
▁groove	-11.4666
▁fred	-11.4666
▁hitter	-11.4667
▁wrecked	-11.4667
▁bowie	-11.4668
▁chewie	-11.4668
▁gagg	-11.4669
▁appeared	-11.4669
▁bein	-11.4671
▁whir	-11.4673
▁sor	-11.4673
▁poured	-11.4675
▁disturbed	-11.4675
▁sentenced	-11.4675
▁secured	-11.4675
▁pod	-11.4675
▁manual	-11.4676
▁kindness	-11.4677
▁professionally	-11.4681
▁pacific	-11.4681
▁traced	-11.4681
▁drowning	-11.4682
▁cryin	-11.4684
▁mainly	-11.4684
tial	-11.4685
▁freaky	-11.4688
▁crawled	-11.4689
▁denying	-11.469
▁shining	-11.469
▁encourage	-11.4691
▁representing	-11.4692
▁nailed	-11.4699
▁applauding	-11.47
▁sailing	-11.47
▁insults	-11.4702
▁charades	-11.4702
▁taik	-11.4702
▁coy	-11.4704
▁rays	-11.4707
▁philo	-11.4707
▁fishy	-11.4709
▁lure	-11.4709
▁warner	-11.471
▁rib	-11.4716
▁finishes	-11.4716
▁foundation	-11.4722
▁cling	-11.4725
▁horny	-11.4727
▁eggy	-11.4727
▁complaining	-11.473
▁rein	-11.4734
xy	-11.4735
▁et	-11.4736
▁bent	-11.4736
▁recognized	-11.4741
▁busta	-11.4745
▁tourists	-11.4748
▁scoops	-11.4748
▁butchers	-11.4748
▁sensors	-11.4748
▁workout	-11.4749
▁warmer	-11.475
▁righthand	-11.4755
▁peers	-11.4761
▁racing	-11.4761
▁sadly	-11.4768
pence	-11.4779
▁touches	-11.478
oga	-11.478
▁seals	-11.4784
▁tearing	-11.4789
▁bodyguards	-11.4795
▁communications	-11.4795
▁earrings	-11.4795
▁receipts	-11.4795
▁weary	-11.4795
▁melts	-11.4796
▁texted	-11.4797
▁soci	-11.4806
pher	-11.4808
▁ness	-11.4808
▁camps	-11.4809
▁holed	-11.4813
aft	-11.4817
▁traveled	-11.482
▁notch	-11.4823
iana	-11.4824
▁crashing	-11.4824
▁posted	-11.4834
▁quicker	-11.4839
▁fags	-11.4842
▁antiques	-11.4842
▁patriots	-11.4842
▁thugs	-11.4842
▁exceptions	-11.4843
▁peasants	-11.4843
cap	-11.4847
▁pine	-11.4848
▁meter	-11.4852
▁drivein	-11.4868
▁borne	-11.4888
▁invitations	-11.489
▁processing	-11.4892
▁thrills	-11.4899
▁marita	-11.4899
antler	-11.4901
nners	-11.4902
▁goat	-11.4904
wing	-11.4905
tum	-11.4915
umbling	-11.492
▁cds	-11.4937
▁pinkys	-11.4937
▁burgers	-11.4937
▁morons	-11.4938
▁informants	-11.4938
▁israelis	-11.4941
▁colder	-11.4944
donald	-11.4954
▁kicks	-11.4958
made	-11.4963
▁counted	-11.4968
▁ko	-11.4968
meter	-11.4974
▁hurtin	-11.4978
▁elbows	-11.4985
▁maniacs	-11.4985
▁interns	-11.4986
▁lookout	-11.4987
sual	-11.4988
▁masse	-11.499
▁participate	-11.4996
▁bons	-11.4997
▁knocks	-11.5004
▁mute	-11.5006
▁alter	-11.5017
hh	-11.5025
tches	-11.5025
▁seal	-11.5031
▁investments	-11.5034
▁luna	-11.5037
position	-11.5037
▁baker	-11.5045
▁perc	-11.5048
witz	-11.5052
▁hating	-11.5061
▁intentions	-11.5067
▁fond	-11.5069
▁deeds	-11.5073
▁benz	-11.5076
▁arrangements	-11.5082
▁comrades	-11.5082
zi	-11.5092
▁fooled	-11.5102
▁rolled	-11.5105
ninety	-11.5125
▁clan	-11.513
▁images	-11.513
▁scouts	-11.5131
▁mannings	-11.5131
▁vikings	-11.5131
▁medals	-11.5131
▁ric	-11.5136
ification	-11.5138
▁reduce	-11.5138
▁ste	-11.5144
▁interviews	-11.5149
▁pri	-11.5158
▁anal	-11.5166
▁disco	-11.5175
▁nerves	-11.5179
▁strings	-11.5179
▁grandpas	-11.5179
iggy	-11.5185
▁boxer	-11.5185
▁stat	-11.5208
▁carb	-11.5212
▁syria	-11.5215
▁interviewing	-11.5219
▁mac	-11.5229
▁estimate	-11.5232
▁appoint	-11.5251
▁dismantle	-11.5251
ambie	-11.5257
▁uno	-11.5259
osed	-11.5262
▁andreas	-11.5283
▁sorting	-11.5304
ito	-11.5316
ule	-11.5318
not	-11.5322
▁associates	-11.5328
▁receives	-11.5334
▁hookers	-11.5351
tel	-11.5351
▁pol	-11.5356
rus	-11.5374
▁exits	-11.5378
▁funerals	-11.5378
▁concerns	-11.538
cop	-11.5383
bang	-11.5385
ingham	-11.54
▁pit	-11.5405
with	-11.5406
▁swearing	-11.5409
loo	-11.5421
▁circles	-11.5428
▁faithful	-11.5434
tag	-11.5437
ips	-11.5447
▁tyr	-11.5457
▁friendships	-11.5478
▁albums	-11.5478
▁suffers	-11.5486
veni	-11.5499
▁victoria	-11.5515
rat	-11.5516
gun	-11.5524
▁experts	-11.5529
▁creates	-11.5531
▁axe	-11.5542
▁buyers	-11.5564
▁sites	-11.5573
▁ramon	-11.5575
▁crow	-11.559
▁ups	-11.5617
▁ferr	-11.5624
▁juliet	-11.5624
▁tongues	-11.5631
pants	-11.5651
vin	-11.5651
▁mel	-11.5659
delta	-11.5663
▁swings	-11.5671
▁lovers	-11.5687
ama	-11.569
hell	-11.5707
ino	-11.5708
avi	-11.571
ala	-11.5722
▁nationals	-11.5735
▁ama	-11.5739
▁lei	-11.5755
▁sco	-11.5759
can	-11.5809
▁hopeless	-11.5829
▁provid	-11.5844
▁bullie	-11.5871
mann	-11.5882
▁specialize	-11.5884
▁sizes	-11.5892
▁sights	-11.5894
rri	-11.5894
mir	-11.5896
gre	-11.5899
▁hock	-11.5901
▁sol	-11.5908
▁deni	-11.5913
▁coping	-11.592
uc	-11.5942
▁sources	-11.5945
▁digs	-11.5946
▁bottoms	-11.5998
▁richards	-11.5998
▁daniels	-11.5998
hin	-11.6011
▁noe	-11.6053
▁nicely	-11.6067
▁sto	-11.6068
▁ann	-11.609
▁weekends	-11.6105
▁kr	-11.6107
▁bb	-11.6108
eddle	-11.6138
aster	-11.6161
▁writers	-11.6203
bey	-11.6272
aged	-11.6293
▁twin	-11.6295
▁vac	-11.6321
aro	-11.6327
▁ham	-11.6349
▁sn	-11.6354
▁gri	-11.6357
arth	-11.6367
▁syr	-11.6371
▁chchch	-11.6389
▁plo	-11.6398
▁pun	-11.6401
hold	-11.6436
fetched	-11.6447
rapped	-11.6459
cul	-11.6494
▁abusi	-11.6498
▁pai	-11.652
▁stud	-11.653
lib	-11.6539
▁juli	-11.6559
enched	-11.6567
ench	-11.6584
▁kro	-11.6599
▁prov	-11.6607
formed	-11.6621
▁y	-11.6657
▁abe	-11.6691
wear	-11.6695
▁justi	-11.6708
ndas	-11.6728
▁psych	-11.6745
▁pier	-11.676
quo	-11.6761
walker	-11.6762
▁critic	-11.6768
▁devo	-11.6786
shaw	-11.6797
▁io	-11.6812
ubl	-11.6828
▁poll	-11.6832
▁fac	-11.6833
▁norma	-11.6838
etter	-11.6841
▁stor	-11.6844
▁whisper	-11.6854
bility	-11.6861
pus	-11.6862
▁medi	-11.6866
▁bab	-11.6867
▁delusion	-11.6877
▁classmate	-11.6878
▁stoke	-11.6878
▁sensor	-11.688
▁butcher	-11.688
▁scoop	-11.6881
▁expression	-11.6885
▁wrestler	-11.6886
▁ankle	-11.6888
▁expense	-11.689
▁handcuff	-11.689
▁insect	-11.689
▁sample	-11.6892
▁tourist	-11.6895
culate	-11.6901
▁folk	-11.6902
▁dam	-11.6903
▁cord	-11.6906
▁gab	-11.6909
tine	-11.6914
ache	-11.6922
▁herb	-11.6922
▁rica	-11.6928
▁growl	-11.6936
▁sander	-11.6939
horse	-11.6943
▁thankful	-11.6943
▁encourag	-11.6951
▁barri	-11.6961
kel	-11.6961
ista	-11.6967
lock	-11.6969
missions	-11.6971
▁cod	-11.6977
luck	-11.6979
eck	-11.6985
▁pac	-11.6986
▁circ	-11.6989
ulation	-11.699
▁desp	-11.6998
▁infer	-11.7
▁corps	-11.7003
vern	-11.7003
▁don	-11.7005
▁soak	-11.7005
cher	-11.701
zon	-11.7011
nia	-11.7013
roid	-11.702
▁oi	-11.7027
▁rende	-11.7028
▁pleas	-11.7029
▁snob	-11.703
▁eva	-11.7032
▁strain	-11.7038
▁tutor	-11.7038
aught	-11.7039
▁graduat	-11.7041
▁introduc	-11.7044
▁accord	-11.7045
aken	-11.7045
▁bir	-11.7049
▁distract	-11.7049
▁flee	-11.7051
▁inherit	-11.7051
▁neglect	-11.7051
▁obsess	-11.7052
▁vanish	-11.7052
▁convict	-11.7052
▁attach	-11.7054
▁sacr	-11.7054
▁scatter	-11.7054
▁surround	-11.7055
word	-11.7056
ought	-11.7057
hood	-11.7059
▁relate	-11.7059
piece	-11.7061
guard	-11.7061
▁ambi	-11.7061
screen	-11.7062
▁excite	-11.7062
▁pursue	-11.7062
▁jess	-11.7062
plane	-11.7063
freak	-11.7063
▁retire	-11.7063
minute	-11.7063
week	-11.7064
cheese	-11.7064
▁teenage	-11.7064
▁lame	-11.7065
telling	-11.7065
organ	-11.7065
green	-11.7067
▁compare	-11.7067
▁tex	-11.7069
▁greed	-11.7069
front	-11.7069
▁spank	-11.707
▁murph	-11.707
fall	-11.707
flower	-11.707
▁jerr	-11.707
▁qualit	-11.7071
▁pond	-11.7072
▁precise	-11.7073
▁harsh	-11.7073
▁tow	-11.7073
▁brutal	-11.7073
▁technical	-11.7074
▁blond	-11.7074
▁signor	-11.7074
keeper	-11.7075
▁suga	-11.7077
▁limb	-11.7077
▁logical	-11.7078
▁withdraw	-11.7078
▁vibrat	-11.7079
▁function	-11.7079
▁sentiment	-11.708
▁profession	-11.7081
▁destructi	-11.7083
▁beggin	-11.7083
▁entr	-11.7083
▁darlin	-11.7083
▁smilin	-11.7083
▁inspect	-11.7083
▁differ	-11.7083
minded	-11.7083
heel	-11.7084
▁peach	-11.7084
▁consist	-11.7085
▁recogni	-11.7085
lmes	-11.7085
▁nichol	-11.7085
wich	-11.7085
▁administ	-11.7085
▁cere	-11.7085
▁douche	-11.7085
▁intuiti	-11.7085
▁hvap	-11.7085
aphrodi	-11.7085
rkovic	-11.7085
▁abroad	-11.7085
▁abundant	-11.7085
▁academic	-11.7085
▁academy	-11.7085
▁addison	-11.7085
▁adwan	-11.7085
▁airspace	-11.7085
▁allegiance	-11.7085
▁amityville	-11.7085
▁anatomy	-11.7085
▁antarctica	-11.7085
▁anticipated	-11.7085
▁application	-11.7085
▁astonish	-11.7085
▁atmosphere	-11.7085
▁attaboy	-11.7085
▁barbarians	-11.7085
▁bassett	-11.7085
▁beaucoup	-11.7085
▁beiieve	-11.7085
▁beijing	-11.7085
▁berlinghieri	-11.7085
▁bieber	-11.7085
▁biometric	-11.7085
▁blake	-11.7085
▁blatant	-11.7085
▁blossom	-11.7085
▁bmachine	-11.7085
▁brandnew	-11.7085
▁buddhist	-11.7085
▁bypass	-11.7085
▁cackling	-11.7085
▁cassette	-11.7085
▁caution	-11.7085
▁celebration	-11.7085
▁celebrities	-11.7085
▁ceremony	-11.7085
▁chariot	-11.7085
▁chupa	-11.7085
▁cicero	-11.7085
▁collateral	-11.7085
▁concentrating	-11.7085
▁consensual	-11.7085
▁conspiracy	-11.7085
▁contender	-11.7085
▁crawford	-11.7085
▁crunching	-11.7085
▁cunningham	-11.7085
▁curran	-11.7085
▁cushion	-11.7085
▁darren	-11.7085
▁deception	-11.7085
▁delacourt	-11.7085
▁delinquent	-11.7085
▁devastated	-11.7085
▁diagnosis	-11.7085
▁discreet	-11.7085
▁discrepanc	-11.7085
▁disregard	-11.7085
▁doorknob	-11.7085
▁dragoons	-11.7085
▁eccentric	-11.7085
▁economy	-11.7085
▁egypt	-11.7085
▁eiizabeth	-11.7085
▁emergencies	-11.7085
▁ephraim	-11.7085
▁episode	-11.7085
▁erskine	-11.7085
▁esperate	-11.7085
▁esteem	-11.7085
▁expiain	-11.7085
▁expired	-11.7085
▁extortion	-11.7085
▁fantasy	-11.7085
▁fedayeen	-11.7085
▁fentanyl	-11.7085
▁figuring	-11.7085
▁fountain	-11.7085
▁frankfurt	-11.7085
▁fugitive	-11.7085
▁gluten	-11.7085
▁goldfinch	-11.7085
▁goldilocks	-11.7085
▁gracie	-11.7085
▁guinea	-11.7085
▁gurdy	-11.7085
▁gyuri	-11.7085
▁hallelujah	-11.7085
▁hamshari	-11.7085
▁handkerchief	-11.7085
▁happily	-11.7085
▁heterosexual	-11.7085
▁hobbies	-11.7085
▁holly	-11.7085
▁hybrid	-11.7085
▁hydra	-11.7085
▁hyena	-11.7085
▁identical	-11.7085
▁identities	-11.7085
▁ignorant	-11.7085
▁immigrant	-11.7085
▁increasing	-11.7085
▁indication	-11.7085
▁inject	-11.7085
▁inquiry	-11.7085
▁insatiable	-11.7085
▁interpretation	-11.7085
▁interstate	-11.7085
▁jerusalem	-11.7085
▁kennedy	-11.7085
▁kettle	-11.7085
▁kirsten	-11.7085
▁konrad	-11.7085
▁kurgan	-11.7085
▁kyoko	-11.7085
▁laxative	-11.7085
▁lazarus	-11.7085
▁lntercom	-11.7085
▁luxury	-11.7085
▁macaw	-11.7085
▁madonna	-11.7085
▁mahjong	-11.7085
▁meditation	-11.7085
▁mijo	-11.7085
▁mojo	-11.7085
▁monahan	-11.7085
▁morphine	-11.7085
▁mozart	-11.7085
▁mwah	-11.7085
▁nascimento	-11.7085
▁navidad	-11.7085
▁necklace	-11.7085
▁neutral	-11.7085
▁nomak	-11.7085
▁noodle	-11.7085
▁norwegian	-11.7085
▁numerous	-11.7085
▁nutrition	-11.7085
▁obligation	-11.7085
▁olivier	-11.7085
▁ongoing	-11.7085
▁ornament	-11.7085
▁outstanding	-11.7085
▁peacock	-11.7085
▁penelope	-11.7085
▁penthouse	-11.7085
▁perspective	-11.7085
▁persuasive	-11.7085
▁phase	-11.7085
▁possibilities	-11.7085
▁possum	-11.7085
▁powaqa	-11.7085
▁precinct	-11.7085
▁precision	-11.7085
▁prediction	-11.7085
▁preliminary	-11.7085
▁premium	-11.7085
▁presume	-11.7085
▁provoke	-11.7085
▁quatre	-11.7085
▁rasmussen	-11.7085
▁reassuring	-11.7085
▁redemption	-11.7085
▁refill	-11.7085
▁regulations	-11.7085
▁rematch	-11.7085
▁renegade	-11.7085
▁reprogram	-11.7085
▁reschedule	-11.7085
▁resolution	-11.7085
▁reunion	-11.7085
▁rottweiler	-11.7085
▁sabbath	-11.7085
▁securities	-11.7085
▁seizure	-11.7085
▁seldom	-11.7085
▁selfesteem	-11.7085
▁shlubb	-11.7085
▁shoplift	-11.7085
▁silkworms	-11.7085
▁skateboard	-11.7085
▁sociopath	-11.7085
▁sophisticated	-11.7085
▁specimen	-11.7085
▁spiral	-11.7085
▁stadium	-11.7085
▁stomp	-11.7085
▁stubborn	-11.7085
▁suavemente	-11.7085
▁submit	-11.7085
▁sunglasses	-11.7085
▁suspension	-11.7085
▁suspicion	-11.7085
▁swift	-11.7085
▁taiwan	-11.7085
▁technique	-11.7085
▁tequila	-11.7085
▁testicles	-11.7085
▁tiighman	-11.7085
▁tobacco	-11.7085
▁transsexual	-11.7085
▁trophies	-11.7085
▁trousers	-11.7085
▁tweezers	-11.7085
▁undefeated	-11.7085
▁unnecessary	-11.7085
▁unprecedented	-11.7085
▁unsettl	-11.7085
▁uptight	-11.7085
▁verify	-11.7085
▁violinist	-11.7085
▁vojtech	-11.7085
▁vouch	-11.7085
▁vulture	-11.7085
▁wellenbeck	-11.7085
▁whichever	-11.7085
▁winstead	-11.7085
▁wrinkl	-11.7085
▁yikes	-11.7085
▁zombie	-11.7085
girdle	-11.7085
pulsive	-11.7085
uffalo	-11.7085
▁accelerat	-11.7085
▁affleck	-11.7085
▁agenda	-11.7085
▁aquifer	-11.7085
▁bahamas	-11.7085
▁blush	-11.7085
▁cocksucking	-11.7085
▁colace	-11.7085
▁dirch	-11.7085
▁enroll	-11.7085
▁examination	-11.7085
▁fierce	-11.7085
▁filter	-11.7085
▁fleance	-11.7085
▁inuit	-11.7085
▁keycard	-11.7085
▁nineteen	-11.7085
▁patter	-11.7085
▁payroll	-11.7085
▁peyton	-11.7085
▁postcard	-11.7085
▁radical	-11.7085
▁radlo	-11.7085
▁refresh	-11.7085
▁scully	-11.7085
▁shield	-11.7085
▁solemn	-11.7085
▁statistics	-11.7085
▁strand	-11.7085
▁tammy	-11.7085
▁unlucky	-11.7085
▁vermin	-11.7085
▁wifi	-11.7085
▁aaron	-11.7085
▁cambodia	-11.7085
▁cassie	-11.7085
▁charging	-11.7085
▁corvin	-11.7085
▁disarm	-11.7085
▁donuts	-11.7085
▁emilie	-11.7085
▁farewell	-11.7085
▁forcing	-11.7085
▁imperative	-11.7085
▁janitor	-11.7085
▁piotr	-11.7085
▁residents	-11.7085
▁rosemary	-11.7085
▁rosina	-11.7085
▁runaway	-11.7085
▁sherman	-11.7085
▁sofa	-11.7085
▁submissi	-11.7085
▁commend	-11.7085
▁redeem	-11.7085
▁doyle	-11.7085
▁sophomore	-11.7085
▁stuart	-11.7085
▁tactics	-11.7085
▁wallace	-11.7085
▁bedlam	-11.7085
▁dvd	-11.7085
▁melbourne	-11.7085
▁optimistic	-11.7085
▁aryan	-11.7085
▁commie	-11.7085
▁competitive	-11.7085
▁flood	-11.7085
▁irrelevant	-11.7085
▁staircase	-11.7085
▁tolerate	-11.7085
▁frequen	-11.7085
▁involvement	-11.7085
▁noticing	-11.7085
▁freeloader	-11.7085
▁slippers	-11.7085
▁angus	-11.7085
▁janelle	-11.7085
▁laila	-11.7085
▁solution	-11.7085
▁whining	-11.7085
▁clanks	-11.7085
▁oconnor	-11.7085
▁orvis	-11.7085
▁prostitution	-11.7085
▁departure	-11.7085
▁neurotic	-11.7085
▁sculpture	-11.7085
▁seventyfive	-11.7085
▁tingling	-11.7085
▁titties	-11.7085
▁presley	-11.7085
dispute	-11.7085
▁anthropoid	-11.7085
▁ecstasy	-11.7085
▁caruso	-11.7086
▁determination	-11.7086
▁leonida	-11.7086
▁lottery	-11.7086
▁plaza	-11.7086
▁sketch	-11.7086
▁thirtythree	-11.7086
▁premed	-11.7086
▁throne	-11.7086
▁hamlet	-11.7086
▁illinois	-11.7086
▁lipps	-11.7086
▁deadlights	-11.7086
▁pippin	-11.7086
▁yoga	-11.7086
▁shaving	-11.7086
▁revving	-11.7086
▁twitter	-11.7086
▁reaiiy	-11.7086
▁whwhat	-11.7086
▁bonfire	-11.7086
▁retiring	-11.7086
▁polexia	-11.7086
▁sworn	-11.7086
▁banana	-11.7086
▁methane	-11.7086
▁ceasefire	-11.7086
▁dagger	-11.7086
▁intellectual	-11.7086
▁alaska	-11.7086
▁cheesy	-11.7086
▁camilla	-11.7086
▁dripping	-11.7086
▁railway	-11.7086
▁resemble	-11.7086
▁dwana	-11.7086
▁injuries	-11.7086
▁vigorous	-11.7086
▁burwell	-11.7086
▁offence	-11.7086
▁monroe	-11.7086
▁calvin	-11.7086
▁underwater	-11.7086
▁yummy	-11.7086
▁awhile	-11.7086
▁immun	-11.7086
▁residenc	-11.7086
▁expertise	-11.7086
▁flashlight	-11.7086
rogue	-11.7086
▁wills	-11.7086
▁coletti	-11.7086
▁operator	-11.7086
▁selfconscious	-11.7086
▁organism	-11.7086
▁burial	-11.7086
▁gretta	-11.7086
▁lemon	-11.7086
▁flourish	-11.7086
▁muttering	-11.7086
▁tagged	-11.7086
▁bugging	-11.7086
▁snowstorm	-11.7086
▁hydro	-11.7086
▁basketball	-11.7086
▁adjustment	-11.7086
▁employment	-11.7086
▁yodel	-11.7086
licious	-11.7086
▁remark	-11.7086
▁stool	-11.7086
cherished	-11.7086
▁tango	-11.7086
▁iose	-11.7086
einstein	-11.7086
▁kono	-11.7086
▁bogey	-11.7086
▁arsehole	-11.7086
▁phenomenal	-11.7086
▁basin	-11.7086
▁vivian	-11.7086
▁salmon	-11.7086
▁ugli	-11.7086
▁doodoo	-11.7086
▁overcome	-11.7086
▁obedient	-11.7086
▁convert	-11.7086
▁erasing	-11.7086
▁graft	-11.7086
▁fanatic	-11.7086
▁riddle	-11.7086
▁maintenan	-11.7087
▁lndian	-11.7087
▁properties	-11.7087
chacha	-11.7087
▁orphanage	-11.7087
▁snore	-11.7087
▁raymont	-11.7087
▁yyou	-11.7087
▁meade	-11.7087
▁boomboom	-11.7087
▁transmission	-11.7087
▁advisor	-11.7087
▁dickens	-11.7087
▁apologise	-11.7087
▁liability	-11.7087
▁balcon	-11.7087
▁scud	-11.7087
▁allege	-11.7087
▁allergic	-11.7087
▁bulldog	-11.7087
▁ernie	-11.7087
▁evaluation	-11.7087
▁interrogation	-11.7087
▁zipper	-11.7087
▁dusk	-11.7087
▁kimber	-11.7087
▁lenka	-11.7087
▁sunlight	-11.7087
▁veteran	-11.7087
▁stalin	-11.7087
▁chung	-11.7087
▁milton	-11.7087
▁scarred	-11.7087
▁recite	-11.7087
▁glance	-11.7087
▁logic	-11.7087
▁sicil	-11.7087
▁snapped	-11.7087
▁chime	-11.7087
▁consciousness	-11.7087
▁uptown	-11.7087
▁lucian	-11.7087
▁scandal	-11.7087
▁cuppy	-11.7087
▁batteries	-11.7087
▁disney	-11.7087
▁diversion	-11.7087
▁oak	-11.7087
▁pause	-11.7087
▁quiz	-11.7087
▁barbour	-11.7087
▁scribble	-11.7087
▁broadway	-11.7087
▁textbook	-11.7087
▁hum	-11.7088
▁reverse	-11.7088
▁supreme	-11.7088
▁jockey	-11.7088
▁powell	-11.7088
▁dumpster	-11.7088
loaf	-11.7088
▁torment	-11.7088
▁collectors	-11.7088
▁slipping	-11.7088
▁translation	-11.7088
iquett	-11.7088
▁druggie	-11.7088
oohooh	-11.7088
▁soap	-11.7088
▁battlefield	-11.7088
▁consultation	-11.7088
▁exploitation	-11.7088
▁operated	-11.7088
▁hikers	-11.7088
▁dealership	-11.7088
itude	-11.7088
▁bolo	-11.7089
▁elway	-11.7089
▁intensity	-11.7089
▁gently	-11.7089
▁trina	-11.7089
raffi	-11.7089
▁daughterinlaw	-11.7089
▁swamp	-11.7089
▁profitable	-11.7089
▁quinc	-11.7089
▁tipped	-11.7089
▁dictator	-11.7089
▁rambo	-11.7089
▁danish	-11.7089
▁improvement	-11.7089
▁stack	-11.7089
▁gallon	-11.7089
▁cuz	-11.7089
▁rehearsal	-11.7089
▁posing	-11.7089
▁dignified	-11.7089
▁franchise	-11.7089
▁holland	-11.7089
▁shriek	-11.7089
▁wyoming	-11.7089
antha	-11.7089
▁ascot	-11.7089
▁restrict	-11.709
▁bacon	-11.709
▁headlights	-11.709
▁stiff	-11.709
▁moran	-11.709
▁highlight	-11.709
▁tolerance	-11.709
▁partnership	-11.709
▁spun	-11.709
▁droid	-11.709
▁beansie	-11.709
▁reflexes	-11.709
▁turf	-11.709
▁dodo	-11.709
▁kung	-11.709
▁poof	-11.709
▁swam	-11.709
▁voila	-11.709
▁scum	-11.709
▁headliner	-11.709
▁milan	-11.7091
▁griev	-11.7091
▁tasting	-11.7091
▁cereal	-11.7091
▁ratted	-11.7091
▁occ	-11.7091
▁transmitter	-11.7091
▁elder	-11.7091
▁bookstore	-11.7091
▁darn	-11.7091
▁greenville	-11.7091
▁emmet	-11.7092
▁racial	-11.7092
roche	-11.7092
▁floorboard	-11.7092
▁slum	-11.7092
▁additional	-11.7092
▁sensational	-11.7092
▁overreacting	-11.7093
▁rejoicing	-11.7093
▁saddle	-11.7093
▁baum	-11.7093
▁designers	-11.7093
▁bravery	-11.7093
▁heartbeat	-11.7093
▁hurl	-11.7093
▁salesman	-11.7094
▁cmon	-11.7094
▁minus	-11.7094
▁casing	-11.7094
▁heip	-11.7094
endar	-11.7094
▁perv	-11.7094
▁hex	-11.7094
▁sailor	-11.7094
▁mule	-11.7094
▁objection	-11.7095
▁rail	-11.7095
▁mazel	-11.7095
▁squirt	-11.7095
▁gentrifi	-11.7095
▁negotiate	-11.7095
▁bong	-11.7095
▁shirl	-11.7095
▁ashes	-11.7095
▁aki	-11.7095
▁reasonably	-11.7096
▁halfhour	-11.7096
▁mustache	-11.7096
▁jeriko	-11.7096
▁carriage	-11.7096
▁vicar	-11.7096
come	-11.7096
▁bowen	-11.7096
▁certainty	-11.7097
▁twe	-11.7097
▁patel	-11.7097
▁descendant	-11.7097
▁sax	-11.7097
▁livin	-11.7097
▁maul	-11.7097
▁footage	-11.7097
▁puncture	-11.7097
▁bonus	-11.7098
▁brutally	-11.7098
▁probe	-11.7098
▁drip	-11.7098
▁bern	-11.7099
▁confirmation	-11.7099
▁unwell	-11.7099
▁louie	-11.7099
▁secondhand	-11.7099
▁reai	-11.7099
▁anders	-11.7099
▁suis	-11.7099
▁dunst	-11.7099
cence	-11.7099
▁boof	-11.71
▁armand	-11.71
▁crowe	-11.71
▁kub	-11.71
uary	-11.7101
▁substitute	-11.7101
▁update	-11.7101
▁bile	-11.7101
▁panel	-11.7102
▁maiden	-11.7103
▁cave	-11.7103
▁meaningless	-11.7103
▁delicate	-11.7103
▁bach	-11.7105
▁slasher	-11.7106
▁midst	-11.7106
▁casin	-11.7106
▁dispatches	-11.7106
▁legit	-11.7106
▁observing	-11.7106
▁airhead	-11.7107
ahl	-11.7107
▁litera	-11.7107
▁divided	-11.7107
▁shinin	-11.7107
▁agony	-11.7108
▁doubtful	-11.7108
▁postman	-11.7108
▁fitz	-11.7108
▁accomplished	-11.7109
▁delayed	-11.7109
▁employed	-11.7109
▁fortunately	-11.7109
▁ultimately	-11.7109
▁scat	-11.7109
▁predat	-11.711
▁haley	-11.711
▁starved	-11.7111
▁snowman	-11.7111
▁crest	-11.7111
▁peer	-11.7111
▁deadbeat	-11.7111
▁tb	-11.7112
▁acceptable	-11.7112
▁hidin	-11.7113
▁partial	-11.7113
▁roid	-11.7114
▁priceless	-11.7114
▁shameless	-11.7115
▁investor	-11.7115
▁valid	-11.7116
▁overdose	-11.7116
▁pursued	-11.7116
▁marion	-11.7116
▁willy	-11.7116
▁strictly	-11.7116
▁hustl	-11.7116
▁mansion	-11.7117
▁after	-11.7117
▁fulfill	-11.7118
▁cinder	-11.7118
▁spanked	-11.7118
▁disrespecting	-11.7118
▁fussing	-11.7118
▁mourning	-11.7118
▁distracted	-11.7118
▁craft	-11.7118
▁steering	-11.7118
▁superman	-11.7119
▁cleanup	-11.7119
▁croquettes	-11.7119
▁hoodlums	-11.7119
▁cade	-11.712
▁assassinated	-11.712
▁hog	-11.712
▁trustee	-11.712
▁inci	-11.712
▁miniatur	-11.712
omic	-11.712
▁lifestyle	-11.7121
▁neve	-11.7122
▁dice	-11.7123
▁mina	-11.7123
▁slashing	-11.7123
▁extend	-11.7125
▁included	-11.7125
▁hospitality	-11.7125
▁vain	-11.7126
▁sage	-11.7126
▁comply	-11.7127
berge	-11.7128
▁hardware	-11.7128
▁tighten	-11.7128
▁bravest	-11.7129
▁diego	-11.7129
▁sprayed	-11.7132
▁highness	-11.7132
▁struggled	-11.7132
▁reno	-11.7133
▁polling	-11.7133
▁mothership	-11.7135
▁oz	-11.7136
▁conspir	-11.7137
▁parttime	-11.7137
▁ambushed	-11.7137
▁invested	-11.7137
▁offended	-11.7137
▁disguised	-11.7139
▁reti	-11.714
▁realise	-11.714
▁plumber	-11.7141
▁cheaper	-11.7144
▁sweeping	-11.7144
▁punishing	-11.7144
▁flattered	-11.7145
▁comeback	-11.7145
▁tand	-11.7146
▁starve	-11.7148
▁freakin	-11.7149
▁fogg	-11.7149
▁strongest	-11.715
▁severed	-11.7154
rome	-11.7154
▁dinging	-11.7154
▁shutting	-11.7155
▁dearest	-11.7155
▁generate	-11.7155
▁vern	-11.7156
▁poop	-11.7156
▁ofthe	-11.7157
▁splashing	-11.7157
▁printed	-11.7157
▁foy	-11.7158
▁advised	-11.7158
actic	-11.7159
▁momma	-11.7159
▁reb	-11.716
▁depending	-11.716
▁crip	-11.716
▁narc	-11.7161
mpire	-11.7161
ida	-11.7162
wise	-11.7163
▁baron	-11.7163
▁tugger	-11.7164
▁defeated	-11.7165
▁handling	-11.7166
▁publisher	-11.7167
▁outer	-11.7167
▁gant	-11.7167
▁sneaky	-11.7168
▁owl	-11.7169
▁irony	-11.717
▁connecting	-11.7171
lary	-11.7171
eka	-11.7173
▁hacked	-11.7173
kay	-11.7174
▁muck	-11.7174
▁assaulted	-11.7175
▁documented	-11.7175
▁sliced	-11.7175
▁bel	-11.7176
▁charmed	-11.7176
▁eyebrows	-11.7178
▁precautions	-11.7178
▁vitamins	-11.7178
▁stinky	-11.7179
▁restraints	-11.718
▁indig	-11.7181
▁thor	-11.7182
▁showtime	-11.7182
sided	-11.7182
▁dogies	-11.7183
▁bonded	-11.7184
▁conducted	-11.7184
▁remov	-11.7184
▁goals	-11.7187
mish	-11.7188
▁vali	-11.7189
▁dialed	-11.7189
▁gener	-11.7191
▁casa	-11.7192
▁unan	-11.7192
▁questionable	-11.7193
rick	-11.7197
volv	-11.7199
▁perfection	-11.72
▁succeeded	-11.7203
▁pest	-11.7208
▁moll	-11.721
▁briefed	-11.7212
▁correctly	-11.7216
▁bookies	-11.7216
▁ramp	-11.7218
▁explor	-11.7218
▁maine	-11.7219
▁attempted	-11.7222
boat	-11.7224
▁raging	-11.7224
▁lapd	-11.7226
▁bailed	-11.7231
▁pope	-11.7232
ologists	-11.7235
▁wages	-11.7235
▁scraping	-11.7236
▁hopeful	-11.7238
▁whil	-11.7239
▁tee	-11.7239
▁kegs	-11.7239
▁thumbs	-11.7239
▁organizations	-11.7239
▁roars	-11.724
▁sprinkles	-11.724
oder	-11.7242
▁bree	-11.7242
▁woody	-11.7247
▁goof	-11.7248
▁drone	-11.7248
▁martinis	-11.7251
▁ip	-11.7251
▁pitched	-11.7252
▁barbie	-11.7253
▁collected	-11.726
▁scratching	-11.7267
▁jin	-11.7272
▁hint	-11.7277
▁fling	-11.7278
▁starters	-11.728
▁nervously	-11.7282
▁resisting	-11.7284
▁unity	-11.7284
▁stocked	-11.7289
▁shotsy	-11.729
▁comforting	-11.729
changes	-11.7292
▁walt	-11.7294
▁cords	-11.73
▁expressions	-11.7301
▁classmates	-11.7301
▁continual	-11.7302
▁wrestlers	-11.7303
▁avoiding	-11.7303
▁critics	-11.7303
▁weaken	-11.7307
note	-11.7308
▁dash	-11.731
▁maman	-11.7313
▁sanders	-11.7314
▁tid	-11.7314
▁pitching	-11.7318
lus	-11.7322
▁regional	-11.7327
terior	-11.7331
▁casting	-11.7333
▁howl	-11.7338
▁estimates	-11.7344
▁bakers	-11.7352
▁tailing	-11.7354
▁tokens	-11.7363
▁implants	-11.7363
▁exhaust	-11.7364
gate	-11.7365
▁climbing	-11.737
▁howdy	-11.7371
ashed	-11.7374
▁select	-11.7374
erik	-11.7376
▁cope	-11.7378
▁fre	-11.7383
▁congress	-11.7395
▁scann	-11.74
▁philly	-11.7403
there	-11.7406
▁broo	-11.7411
▁busting	-11.7413
▁rol	-11.742
▁chan	-11.7423
▁djs	-11.7426
▁balloons	-11.7426
▁coroners	-11.7426
▁lengths	-11.7426
▁sharks	-11.7426
▁tshirts	-11.7426
▁sheets	-11.7426
▁rely	-11.7428
▁dent	-11.7428
▁stirs	-11.743
ami	-11.7431
▁fiance	-11.7432
▁noone	-11.7436
▁agitat	-11.7438
▁noted	-11.7439
▁merc	-11.744
▁oni	-11.7443
▁illness	-11.7448
▁crackers	-11.7452
▁iets	-11.746
▁cynic	-11.746
ise	-11.7463
▁smokey	-11.7466
sters	-11.7466
▁oldies	-11.7471
▁multipli	-11.7472
▁supported	-11.7472
▁searched	-11.7474
▁toi	-11.7475
pit	-11.7476
▁hangin	-11.7482
ute	-11.7485
fight	-11.7488
lester	-11.7489
▁occasional	-11.7489
▁protocols	-11.7489
▁designate	-11.7489
▁annu	-11.7489
▁limits	-11.7491
▁graduates	-11.7497
des	-11.75
▁bombing	-11.75
▁tak	-11.7505
▁appreciated	-11.7515
▁trans	-11.7515
▁robe	-11.7518
imming	-11.7521
▁linger	-11.7525
▁judged	-11.7526
▁yearn	-11.7528
▁rider	-11.7531
▁clearer	-11.7539
▁fie	-11.754
▁shootin	-11.7545
▁patterns	-11.7553
▁basics	-11.7553
▁ahhh	-11.7558
▁traffick	-11.7559
egged	-11.7561
▁groupie	-11.7568
▁guarded	-11.7572
▁prints	-11.7576
rian	-11.7591
▁watches	-11.7593
▁decod	-11.7594
▁shitti	-11.7598
light	-11.7601
▁freely	-11.761
▁sticky	-11.7616
▁skirts	-11.7617
▁spiders	-11.7617
▁crop	-11.7618
▁declar	-11.762
▁mock	-11.7622
▁allies	-11.7623
▁hooking	-11.763
itch	-11.7632
▁playa	-11.7634
▁feared	-11.764
▁mop	-11.7643
▁cuffe	-11.7644
ammed	-11.766
nob	-11.7668
▁protected	-11.7673
▁charms	-11.7675
▁angles	-11.7681
▁bricks	-11.7681
▁bugs	-11.7681
▁snacks	-11.7681
▁fleas	-11.7681
▁objects	-11.7682
▁leaks	-11.7683
▁bench	-11.7687
▁toes	-11.77
▁tha	-11.7704
▁eater	-11.7713
ragged	-11.7715
crib	-11.7721
▁flagg	-11.7724
▁bos	-11.7731
▁spar	-11.7736
▁gangsters	-11.7747
twothree	-11.7748
▁brides	-11.7752
▁congregat	-11.776
▁tested	-11.7767
▁guarding	-11.7771
itty	-11.779
▁palms	-11.7807
▁sandys	-11.7812
▁tanks	-11.7812
▁creatures	-11.7812
▁exercises	-11.7812
▁threats	-11.7812
▁prob	-11.7824
eah	-11.7838
rby	-11.7844
chchchch	-11.7846
▁layer	-11.7859
uddle	-11.7863
ioca	-11.7868
▁weighs	-11.7879
▁photographs	-11.7882
▁relaxed	-11.7883
▁accessor	-11.7886
▁retrieve	-11.7912
▁dodge	-11.7914
▁logs	-11.7917
▁dista	-11.7927
▁warming	-11.7928
▁cottages	-11.7944
▁labels	-11.7945
▁fel	-11.7951
▁stated	-11.7963
uum	-11.797
▁manipulat	-11.7972
▁exaggerat	-11.7973
▁viva	-11.7982
▁aaaaa	-11.7991
ament	-11.7999
bri	-11.8009
▁chipp	-11.8035
enin	-11.8041
▁jo	-11.8071
daddy	-11.8104
etic	-11.8139
ille	-11.8179
arson	-11.8191
mont	-11.8204
▁gagi	-11.8208
ence	-11.822
▁whippe	-11.8236
nell	-11.8252
amo	-11.8252
▁antid	-11.8253
▁masturbat	-11.8344
▁conv	-11.8347
▁hiv	-11.8354
flop	-11.8365
ement	-11.8375
▁mart	-11.8375
rous	-11.838
wept	-11.8381
▁mau	-11.8392
ail	-11.8406
▁taunt	-11.843
▁symbolic	-11.8441
▁termin	-11.8475
isten	-11.8479
▁revive	-11.8495
▁dodd	-11.8514
▁contr	-11.852
▁sparkle	-11.8524
▁banker	-11.8541
▁eng	-11.8546
ennis	-11.8553
▁ou	-11.8584
liam	-11.864
annabe	-11.8684
rap	-11.8692
▁complet	-11.8735
▁fri	-11.8762
▁cree	-11.8791
njo	-11.8791
▁pip	-11.8799
nar	-11.8807
cit	-11.8808
▁masturbate	-11.8893
rett	-11.8952
▁hem	-11.8965
ador	-11.8968
uous	-11.9027
▁dill	-11.9062
▁meg	-11.9065
▁quai	-11.9084
▁slash	-11.9108
▁memo	-11.9114
ola	-11.9138
▁outof	-11.9143
mper	-11.9162
▁spo	-11.9178
▁bung	-11.9196
▁perpetua	-11.9204
oose	-11.923
▁lig	-11.9291
▁deli	-11.9295
▁domin	-11.9325
▁gen	-11.9333
▁clo	-11.935
▁salute	-11.9354
kets	-11.9371
▁ir	-11.94
duced	-11.9429
▁cran	-11.9429
▁tia	-11.9433
gging	-11.9476
plicity	-11.9582
orbi	-11.9606
▁reli	-11.9624
hre	-11.9631
▁mah	-11.9656
▁pic	-11.9668
▁ripe	-11.9722
▁shov	-11.975
maker	-11.9836
lude	-11.9868
▁weepin	-11.9877
illo	-11.9887
▁did	-11.9892
▁cyn	-11.992
▁smok	-11.9922
▁dab	-11.9955
lagged	-11.9987
▁tux	-11.9988
unting	-12
ologist	-12.0008
gious	-12.0055
teful	-12.0059
▁alt	-12.0067
nspired	-12.0074
▁semi	-12.0078
▁grove	-12.0084
mbles	-12.0088
▁strik	-12.0113
love	-12.0139
▁gran	-12.0141
▁outrun	-12.0144
making	-12.0147
▁roma	-12.0148
anges	-12.0155
▁sprinkle	-12.0158
▁bia	-12.0158
▁roar	-12.0172
alcoholic	-12.0183
▁clatter	-12.0186
▁stutter	-12.0195
▁multi	-12.0202
▁why	-12.0204
▁preserv	-12.0205
▁organization	-12.021
▁thumb	-12.0215
▁charade	-12.0215
▁anni	-12.0216
▁instruction	-12.0221
▁resource	-12.0222
▁scientist	-12.0222
▁relation	-12.0223
▁passenger	-12.0223
▁rattle	-12.0224
▁delo	-12.0224
▁aerobic	-12.0225
▁item	-12.0225
▁chau	-12.0226
▁keg	-12.0226
▁afterward	-12.0228
▁stair	-12.0238
▁vent	-12.0244
stein	-12.0244
▁eavesdrop	-12.0248
tec	-12.0258
llar	-12.0259
▁phon	-12.0264
▁heel	-12.027
law	-12.027
▁groov	-12.0276
▁insult	-12.0278
ckle	-12.028
eeking	-12.0282
▁martini	-12.0284
▁whee	-12.0291
▁saf	-12.0301
back	-12.0302
solved	-12.0311
▁gunfight	-12.0326
▁consum	-12.0327
▁motiv	-12.0329
▁bushwhack	-12.0331
▁obli	-12.0331
▁coo	-12.0336
▁organiz	-12.0338
▁democra	-12.0338
ature	-12.0341
▁disgust	-12.0344
erina	-12.0345
▁luci	-12.035
▁employ	-12.0353
pression	-12.0353
play	-12.0355
▁plumb	-12.0357
▁advi	-12.0357
▁twi	-12.0363
odys	-12.0366
▁releas	-12.0368
▁mourn	-12.037
▁reopen	-12.0371
▁slid	-12.0372
▁decid	-12.0373
▁disrespect	-12.0373
▁execut	-12.0373
water	-12.0374
▁greet	-12.0374
walk	-12.0376
▁juic	-12.0376
▁referr	-12.0376
▁annoy	-12.0377
▁mort	-12.0377
▁nurs	-12.0377
onald	-12.0379
prints	-12.038
▁stitch	-12.0381
▁seam	-12.0384
etched	-12.0386
▁accomplish	-12.0386
▁volunteer	-12.0387
▁promote	-12.0387
place	-12.0387
▁condemn	-12.0389
▁fuss	-12.0389
▁cind	-12.0389
▁junk	-12.039
▁slag	-12.039
flow	-12.039
▁shag	-12.039
▁poster	-12.0391
father	-12.0392
astic	-12.0392
▁humiliate	-12.0393
▁involv	-12.0393
▁exten	-12.0393
documented	-12.0394
delicate	-12.0394
▁slaughter	-12.0394
conscious	-12.0394
▁indicate	-12.0394
▁simp	-12.0395
inlaw	-12.0395
▁heavi	-12.0395
▁purg	-12.0395
proof	-12.0395
abilities	-12.0395
authorized	-12.0395
mistress	-12.0395
chemical	-12.0395
drop	-12.0396
advantage	-12.0396
zie	-12.0396
filled	-12.0396
construction	-12.0396
structure	-12.0396
faithful	-12.0396
blank	-12.0396
comfort	-12.0396
storm	-12.0396
fifty	-12.0396
statement	-12.0396
negative	-12.0396
thirty	-12.0396
complete	-12.0396
debt	-12.0396
written	-12.0396
wire	-12.0397
normal	-12.0397
finished	-12.0397
prison	-12.0397
job	-12.0397
girlfriend	-12.0397
johnny	-12.0397
daughter	-12.0397
know	-12.0397
believe	-12.0397
free	-12.0397
wild	-12.0397
famous	-12.0397
▁supervise	-12.0397
picking	-12.0398
wife	-12.0399
▁regist	-12.0399
lenced	-12.0399
▁steer	-12.0399
watch	-12.04
stands	-12.04
retching	-12.04
cool	-12.0401
▁delay	-12.0401
athens	-12.0402
seat	-12.0402
▁philosoph	-12.0403
case	-12.0403
tape	-12.0403
tric	-12.0403
▁energ	-12.0403
▁traged	-12.0403
▁accurate	-12.0404
▁stead	-12.0404
▁consistent	-12.0405
▁paddl	-12.0406
text	-12.0407
▁peddl	-12.0407
talking	-12.0408
▁loren	-12.0408
▁crud	-12.0408
type	-12.0409
player	-12.0409
▁translat	-12.0409
▁sauc	-12.0409
▁crock	-12.0409
▁instruct	-12.041
▁peek	-12.041
ficial	-12.0411
▁exorcis	-12.0411
▁inconvenien	-12.0411
▁squelch	-12.0411
▁mamm	-12.0411
▁activate	-12.0411
scus	-12.0412
▁voil	-12.0412
▁industri	-12.0412
▁happie	-12.0412
▁reflex	-12.0412
▁selen	-12.0413
▁insul	-12.0413
▁rehears	-12.0413
▁beck	-12.0413
▁easie	-12.0413
▁distinct	-12.0414
▁whls	-12.0414
▁notif	-12.0415
▁subtract	-12.0415
moon	-12.0415
predictable	-12.0415
▁decisi	-12.0416
▁drivin	-12.0416
▁anythin	-12.0416
▁elevat	-12.0416
compatible	-12.0416
▁everythin	-12.0416
▁pornograph	-12.0416
▁dyin	-12.0416
along	-12.0417
▁significan	-12.0417
▁wipin	-12.0417
▁regime	-12.0417
▁kidnap	-12.0417
oodoo	-12.0417
▁reput	-12.0418
▁enforce	-12.0418
▁movin	-12.0418
▁biograph	-12.0418
▁jacobs	-12.0418
▁leisure	-12.0418
▁scram	-12.0418
guire	-12.0418
▁whwh	-12.0418
phew	-12.0418
▁cigar	-12.0418
▁toxic	-12.0419
▁fiore	-12.0419
relevant	-12.0419
▁reinforce	-12.0419
▁straw	-12.0419
▁audaci	-12.0419
▁incarcer	-12.0419
▁pharmac	-12.0419
amphetamine	-12.0419
cautious	-12.0419
cenlo	-12.0419
disclosure	-12.0419
espresso	-12.0419
inflammatory	-12.0419
loweruppermiddle	-12.0419
uckingbelievable	-12.0419
▁aaah	-12.0419
▁abducted	-12.0419
▁abigale	-12.0419
▁accelerant	-12.0419
▁accomplice	-12.0419
▁achieving	-12.0419
▁adekanbi	-12.0419
▁affirmative	-12.0419
▁afghan	-12.0419
▁aleppo	-12.0419
▁alitzia	-12.0419
▁amoroso	-12.0419
▁anchovies	-12.0419
▁apparel	-12.0419
▁apparition	-12.0419
▁apricot	-12.0419
▁aristocra	-12.0419
▁armadyne	-12.0419
▁armstrong	-12.0419
▁assailant	-12.0419
▁asylum	-12.0419
▁athletic	-12.0419
▁attila	-12.0419
▁auditorium	-12.0419
▁authorization	-12.0419
▁balalaika	-12.0419
▁baptiz	-12.0419
▁barkeep	-12.0419
▁barmaid	-12.0419
▁battalion	-12.0419
▁beaver	-12.0419
▁blackhawk	-12.0419
▁blunder	-12.0419
▁blunt	-12.0419
▁bogatz	-12.0419
▁bottie	-12.0419
▁brazil	-12.0419
▁breach	-12.0419
▁caffeine	-12.0419
▁cahoots	-12.0419
▁cajun	-12.0419
▁cambridge	-12.0419
▁cathedral	-12.0419
▁centipede	-12.0419
▁chaiyo	-12.0419
▁chardonnay	-12.0419
▁chippendale	-12.0419
▁cilantro	-12.0419
▁cincinnati	-12.0419
▁civic	-12.0419
▁clarify	-12.0419
▁clumsy	-12.0419
▁cluster	-12.0419
▁coetzee	-12.0419
▁colada	-12.0419
▁columbus	-12.0419
▁combustion	-12.0419
▁commence	-12.0419
▁companies	-12.0419
▁companionship	-12.0419
▁compound	-12.0419
▁compromis	-12.0419
▁concubine	-12.0419
▁conjure	-12.0419
▁conquest	-12.0419
▁conspicuous	-12.0419
▁corpus	-12.0419
▁courtmartialed	-12.0419
▁crazier	-12.0419
▁cucamonga	-12.0419
▁cultivate	-12.0419
▁cumberland	-12.0419
▁cyborg	-12.0419
▁decapitated	-12.0419
▁defrost	-12.0419
▁degenerate	-12.0419
▁deprived	-12.0419
▁desalvo	-12.0419
▁desoto	-12.0419
▁discretion	-12.0419
▁dispassion	-12.0419
▁dissident	-12.0419
▁dlalogue	-12.0419
▁dolphin	-12.0419
▁dossier	-12.0419
▁dunnybum	-12.0419
▁dunsinane	-12.0419
▁dynasty	-12.0419
▁eclipse	-12.0419
▁eisteddfod	-12.0419
▁electra	-12.0419
▁elsewhere	-12.0419
▁emoji	-12.0419
▁encore	-12.0419
▁enslaved	-12.0419
▁escaping	-12.0419
▁evacuation	-12.0419
▁exboyfriend	-12.0419
▁exploding	-12.0419
▁extraordinary	-12.0419
▁facetoface	-12.0419
▁fandango	-12.0419
▁fantasies	-12.0419
▁fascinated	-12.0419
▁fastforward	-12.0419
▁feminine	-12.0419
▁filipino	-12.0419
▁flammable	-12.0419
▁fortyseven	-12.0419
▁frederick	-12.0419
▁frustrated	-12.0419
▁fulani	-12.0419
▁fundraiser	-12.0419
▁futile	-12.0419
▁gallagher	-12.0419
▁gazelle	-12.0419
▁gentiemen	-12.0419
▁gesture	-12.0419
▁gravediggers	-12.0419
▁greasy	-12.0419
▁grenning	-12.0419
▁griggs	-12.0419
▁gulag	-12.0419
▁hamilton	-12.0419
▁hanalei	-12.0419
▁hazard	-12.0419
▁hermit	-12.0419
▁hillsboro	-12.0419
▁holley	-12.0419
▁holster	-12.0419
▁humanitarian	-12.0419
▁hussein	-12.0419
▁hyperventilat	-12.0419
▁ieave	-12.0419
▁impeccable	-12.0419
▁improving	-12.0419
▁inbound	-12.0419
▁incapable	-12.0419
▁incompetence	-12.0419
▁infallible	-12.0419
▁initiation	-12.0419
▁initiativ	-12.0419
▁inspiration	-12.0419
▁instagram	-12.0419
▁intact	-12.0419
▁interference	-12.0419
▁intervention	-12.0419
▁intrigue	-12.0419
▁invincible	-12.0419
▁irresponsible	-12.0419
▁jacoby	-12.0419
▁jeremy	-12.0419
▁jumbo	-12.0419
▁kintus	-12.0419
▁klump	-12.0419
▁knack	-12.0419
▁kodug	-12.0419
▁koolaid	-12.0419
▁kuzak	-12.0419
▁labourers	-12.0419
▁lawsuit	-12.0419
▁leotard	-12.0419
▁limbaugh	-12.0419
▁limousine	-12.0419
▁litalia	-12.0419
▁ljoha	-12.0419
▁lndistinct	-12.0419
▁lnteresting	-12.0419
▁lonesome	-12.0419
▁mademoiselle	-12.0419
▁mafia	-12.0419
▁malfunction	-12.0419
▁mallory	-12.0419
▁margot	-12.0419
▁marvelous	-12.0419
▁mcbride	-12.0419
▁mcroberts	-12.0419
▁metaphysical	-12.0419
▁microwave	-12.0419
▁minimum	-12.0419
▁minneapolis	-12.0419
▁miporol	-12.0419
▁miraculous	-12.0419
▁mischief	-12.0419
▁misfortune	-12.0419
▁mitchell	-12.0419
▁miyagi	-12.0419
▁modified	-12.0419
▁mooresville	-12.0419
▁mortgage	-12.0419
▁moscato	-12.0419
▁mosquito	-12.0419
▁muzzle	-12.0419
▁neanderthal	-12.0419
▁nightgown	-12.0419
▁nixon	-12.0419
▁nogood	-12.0419
▁nuala	-12.0419
▁numerals	-12.0419
▁omaha	-12.0419
▁orchard	-12.0419
▁oshea	-12.0419
▁outnumber	-12.0419
▁overwhelmed	-12.0419
▁overwhelming	-12.0419
▁oxygen	-12.0419
▁parachutists	-12.0419
▁paramedics	-12.0419
▁parasites	-12.0419
▁participant	-12.0419
▁peculiar	-12.0419
▁pedophile	-12.0419
▁pelevin	-12.0419
▁picasso	-12.0419
▁pieceofshit	-12.0419
▁piggyback	-12.0419
▁pineapple	-12.0419
▁pivot	-12.0419
▁platinum	-12.0419
▁playground	-12.0419
▁ponytail	-12.0419
▁porcelain	-12.0419
▁portuguese	-12.0419
▁predecessor	-12.0419
▁probiem	-12.0419
▁prosthetic	-12.0419
▁psychopath	-12.0419
▁pudding	-12.0419
▁quarantine	-12.0419
▁reboot	-12.0419
▁rebuil	-12.0419
▁reconciliation	-12.0419
▁reestablish	-12.0419
▁reference	-12.0419
▁regrettably	-12.0419
▁relentless	-12.0419
▁reluctant	-12.0419
▁resemblance	-12.0419
▁resuscitat	-12.0419
▁retail	-12.0419
▁rewrote	-12.0419
▁rhode	-12.0419
▁ricochet	-12.0419
▁ringworm	-12.0419
▁robitaille	-12.0419
▁sabrina	-12.0419
▁saliva	-12.0419
▁salvation	-12.0419
▁sandusky	-12.0419
▁sapphire	-12.0419
▁schnuff	-12.0419
▁schwartz	-12.0419
▁schweiber	-12.0419
▁scissor	-12.0419
▁scorpio	-12.0419
▁scoundrel	-12.0419
▁sensible	-12.0419
▁shokopiwah	-12.0419
▁shortcuts	-12.0419
▁shouid	-12.0419
▁shudders	-12.0419
▁singular	-12.0419
▁siobhan	-12.0419
▁skeptical	-12.0419
▁smuggling	-12.0419
▁snooz	-12.0419
▁solicit	-12.0419
▁sovereign	-12.0419
▁soviet	-12.0419
▁splendid	-12.0419
▁splinter	-12.0419
▁stearns	-12.0419
▁straggler	-12.0419
▁suburbs	-12.0419
▁sufficient	-12.0419
▁sugarbear	-12.0419
▁swimsuit	-12.0419
▁swipe	-12.0419
▁symmetr	-12.0419
▁symptoms	-12.0419
▁syndicate	-12.0419
▁terrify	-12.0419
▁thirteen	-12.0419
▁threshold	-12.0419
▁tminus	-12.0419
▁tomatoes	-12.0419
▁torpedo	-12.0419
▁torturing	-12.0419
▁tourniquet	-12.0419
▁transplant	-12.0419
▁trifle	-12.0419
▁trivial	-12.0419
▁tupelo	-12.0419
▁tutu	-12.0419
▁twothirds	-12.0419
▁typical	-12.0419
▁unanswered	-12.0419
▁unarmed	-12.0419
▁unconditional	-12.0419
▁ungrateful	-12.0419
▁unlicensed	-12.0419
▁unlimited	-12.0419
▁unofficial	-12.0419
▁unpleasant	-12.0419
▁unreliable	-12.0419
▁unspeakabl	-12.0419
▁untouch	-12.0419
▁untraceable	-12.0419
▁untrue	-12.0419
▁upstate	-12.0419
▁variations	-12.0419
▁veggies	-12.0419
▁velvet	-12.0419
▁vengeance	-12.0419
▁verified	-12.0419
▁vibrant	-12.0419
▁violating	-12.0419
▁virtually	-12.0419
▁volatile	-12.0419
▁volcano	-12.0419
▁voluntar	-12.0419
▁warfare	-12.0419
▁wexler	-12.0419
▁whacamole	-12.0419
▁yekke	-12.0419
▁zactly	-12.0419
▁zdrowie	-12.0419
▁zimmer	-12.0419
▁abdul	-12.0419
▁bronze	-12.0419
▁deceive	-12.0419
▁discount	-12.0419
▁enlist	-12.0419
▁grandkid	-12.0419
▁knuckle	-12.0419
▁loath	-12.0419
▁postpone	-12.0419
▁selfpity	-12.0419
▁sidekick	-12.0419
▁turbulen	-12.0419
▁ufg	-12.0419
▁vapor	-12.0419
interpret	-12.0419
▁afar	-12.0419
▁amazed	-12.0419
▁awoke	-12.0419
▁beige	-12.0419
▁briefcases	-12.0419
▁brothel	-12.0419
▁bunnies	-12.0419
▁capsule	-12.0419
▁ccb	-12.0419
▁controvers	-12.0419
▁creaks	-12.0419
▁crucify	-12.0419
▁curvy	-12.0419
▁debut	-12.0419
▁decline	-12.0419
▁defect	-12.0419
▁detox	-12.0419
▁essence	-12.0419
▁exfil	-12.0419
▁falcon	-12.0419
▁guinness	-12.0419
▁hulk	-12.0419
▁imprisonment	-12.0419
▁jasmine	-12.0419
▁leslie	-12.0419
▁leverage	-12.0419
▁missouri	-12.0419
▁prescott	-12.0419
▁purity	-12.0419
▁revolt	-12.0419
▁rumours	-12.0419
▁sieep	-12.0419
▁skag	-12.0419
▁tangled	-12.0419
▁trinity	-12.0419
▁verona	-12.0419
ligan	-12.0419
pathy	-12.0419
▁aroused	-12.0419
▁emerged	-12.0419
▁extensive	-12.0419
▁forbidden	-12.0419
▁mercedes	-12.0419
▁onsite	-12.0419
▁promising	-12.0419
▁reinforcements	-12.0419
▁rpg	-12.0419
▁rubbed	-12.0419
▁seyton	-12.0419
▁strum	-12.0419
▁tayback	-12.0419
▁toledo	-12.0419
▁upwards	-12.0419
▁bolts	-12.0419
▁boozing	-12.0419
▁commod	-12.0419
▁confines	-12.0419
▁contradict	-12.0419
▁crosby	-12.0419
▁culp	-12.0419
▁diagnose	-12.0419
▁essay	-12.0419
▁fisherman	-12.0419
▁gloom	-12.0419
▁kirch	-12.0419
▁mayhem	-12.0419
▁refusing	-12.0419
▁stabbing	-12.0419
▁wooters	-12.0419
▁automobile	-12.0419
▁blowjobs	-12.0419
▁brewery	-12.0419
▁churchill	-12.0419
▁crooks	-12.0419
▁disclose	-12.0419
▁dudley	-12.0419
▁handicap	-12.0419
▁lieut	-12.0419
▁randone	-12.0419
▁santee	-12.0419
▁snort	-12.0419
▁taylor	-12.0419
▁basque	-12.0419
▁bulb	-12.0419
▁calais	-12.0419
▁cardinal	-12.0419
▁importance	-12.0419
▁jabbing	-12.0419
▁kersh	-12.0419
▁pioneer	-12.0419
▁ponies	-12.0419
jord	-12.0419
▁prune	-12.0419
▁forrest	-12.0419
▁imposing	-12.0419
▁panicked	-12.0419
▁reinhard	-12.0419
▁vaccin	-12.0419
▁variable	-12.0419
▁banditos	-12.0419
▁downshift	-12.0419
▁hardworking	-12.0419
▁reaper	-12.0419
▁brogues	-12.0419
▁cathy	-12.0419
▁giveaway	-12.0419
▁spain	-12.0419
▁achievements	-12.0419
▁altitude	-12.0419
▁itchy	-12.0419
▁sneer	-12.0419
fraction	-12.0419
▁console	-12.0419
▁feast	-12.0419
▁glamorous	-12.0419
▁mandatory	-12.0419
▁sikorsky	-12.0419
recognizable	-12.0419
▁parr	-12.0419
▁barren	-12.0419
▁immense	-12.0419
▁seductive	-12.0419
▁sacrament	-12.0419
▁whatsapp	-12.0419
▁jingling	-12.0419
▁leather	-12.0419
▁lurch	-12.0419
▁sizzl	-12.0419
▁cheyenne	-12.0419
▁hunchback	-12.0419
arggh	-12.0419
▁stubbs	-12.0419
otis	-12.0419
▁desolat	-12.0419
▁doughnut	-12.0419
▁shitfaced	-12.0419
▁speculation	-12.0419
▁bulge	-12.0419
▁cinderella	-12.0419
▁epip	-12.0419
▁gorilla	-12.0419
▁pruden	-12.0419
▁ransom	-12.0419
▁unbearabl	-12.0419
▁chemistry	-12.0419
▁derail	-12.0419
▁exemption	-12.0419
▁hydrogen	-12.0419
▁psychological	-12.0419
▁rapists	-12.0419
▁remedy	-12.0419
▁sincerely	-12.0419
▁grazie	-12.0419
▁psychology	-12.0419
▁arraignment	-12.0419
▁constitution	-12.0419
▁intrude	-12.0419
▁waterworks	-12.0419
▁twentythree	-12.0419
▁tendenc	-12.0419
▁gangsta	-12.0419
▁shatterstar	-12.0419
▁transatlantic	-12.0419
▁upperclass	-12.0419
▁donnie	-12.0419
▁exquisite	-12.0419
▁optimum	-12.0419
▁prompt	-12.0419
▁insur	-12.0419
▁lemonade	-12.0419
▁looney	-12.0419
▁greymouth	-12.0419
▁hereafter	-12.0419
▁morrow	-12.0419
▁millionaire	-12.0419
▁element	-12.0419
▁mooing	-12.0419
▁vocalizing	-12.0419
▁hamburg	-12.0419
▁tinker	-12.0419
▁sublim	-12.0419
nomination	-12.0419
▁bundl	-12.0419
▁lcf	-12.0419
▁ashford	-12.0419
▁tusca	-12.0419
▁sanchez	-12.0419
▁architecture	-12.0419
▁baffl	-12.0419
▁chafe	-12.0419
▁correspondent	-12.0419
▁cripple	-12.0419
▁misplace	-12.0419
▁devotion	-12.0419
▁liberties	-12.0419
▁olav	-12.0419
▁brawl	-12.0419
▁freud	-12.0419
▁peanut	-12.0419
▁polio	-12.0419
▁meditating	-12.0419
▁snapshot	-12.0419
▁sustained	-12.0419
▁thornton	-12.0419
▁beemer	-12.0419
▁chungking	-12.0419
▁bicycle	-12.0419
▁remarried	-12.0419
▁stingray	-12.0419
pelag	-12.0419
▁alternator	-12.0419
▁elsie	-12.0419
▁quickening	-12.0419
▁overlook	-12.0419
▁spokesman	-12.0419
▁feature	-12.0419
▁eviden	-12.0419
▁hawkins	-12.0419
▁intersection	-12.0419
▁crackles	-12.0419
▁iowa	-12.0419
▁covet	-12.0419
▁democrats	-12.0419
caliber	-12.0419
ummy	-12.0419
▁jacobsson	-12.0419
▁charred	-12.0419
▁gunthers	-12.0419
▁indictment	-12.0419
▁reduction	-12.0419
▁scorn	-12.0419
▁simmer	-12.0419
▁stoning	-12.0419
▁bieed	-12.0419
▁heyhey	-12.0419
▁swanney	-12.0419
▁regeneration	-12.0419
▁feign	-12.0419
▁carrier	-12.0419
▁everett	-12.042
▁xander	-12.042
▁meltdown	-12.042
▁blitz	-12.042
▁adhere	-12.042
▁fluff	-12.042
▁advertisement	-12.042
▁fuzz	-12.042
▁speedboat	-12.042
▁arena	-12.042
▁nabbed	-12.042
▁void	-12.042
▁bonnie	-12.042
▁patterson	-12.042
▁patron	-12.042
▁trashmouth	-12.042
▁illustration	-12.042
▁shady	-12.042
▁pulp	-12.042
▁condone	-12.042
ucci	-12.042
▁kitten	-12.042
▁boundaries	-12.042
▁outwith	-12.042
▁rabble	-12.042
xandra	-12.042
▁rebecca	-12.042
▁preparation	-12.042
▁amusement	-12.042
▁cheque	-12.042
▁edmington	-12.042
▁slab	-12.042
▁outward	-12.042
▁creator	-12.042
rati	-12.042
▁fangs	-12.042
▁trading	-12.042
▁conservative	-12.042
▁manipulative	-12.042
▁tyrant	-12.042
▁briegel	-12.042
▁vassar	-12.042
▁accusation	-12.042
▁garfield	-12.042
▁operative	-12.042
▁verbal	-12.042
▁superficial	-12.042
hrub	-12.042
▁regiment	-12.042
▁boogie	-12.042
▁bundy	-12.042
▁offload	-12.042
▁upp	-12.042
▁cupcake	-12.042
▁habitat	-12.042
▁trend	-12.042
▁hopelessness	-12.042
▁astrologers	-12.042
▁knickers	-12.042
▁righteous	-12.042
▁undermine	-12.042
▁overrid	-12.042
▁crisp	-12.042
▁upload	-12.042
▁kimmy	-12.042
▁hobby	-12.042
▁feat	-12.0421
acles	-12.0421
▁springfield	-12.0421
aligned	-12.0421
▁ronny	-12.0421
▁shelf	-12.0421
▁grape	-12.0421
▁automatically	-12.0421
▁furious	-12.0421
▁japan	-12.0421
▁audition	-12.0421
▁gramm	-12.0421
▁resentment	-12.0421
▁scarza	-12.0421
▁skee	-12.0421
▁strick	-12.0421
▁canteen	-12.0421
▁chestnut	-12.0421
▁margie	-12.0421
▁snotty	-12.0421
rances	-12.0421
▁barks	-12.0421
▁bliss	-12.0421
▁heiter	-12.0421
▁marble	-12.0421
▁spike	-12.0421
▁uris	-12.0421
▁fancie	-12.0421
▁cockburn	-12.0421
▁malice	-12.0421
▁recreat	-12.0421
▁appall	-12.0421
▁degrad	-12.0421
▁transit	-12.0421
▁gunned	-12.0421
▁castrate	-12.0421
▁endorsement	-12.0421
▁spook	-12.0421
▁samir	-12.0421
▁adjust	-12.0421
▁attic	-12.0422
▁roam	-12.0422
▁trippin	-12.0422
▁hallowe	-12.0422
fish	-12.0422
▁compensate	-12.0422
▁hemorrhage	-12.0422
▁practise	-12.0422
▁exploration	-12.0422
▁waking	-12.0422
▁horsepower	-12.0422
▁garland	-12.0422
▁futon	-12.0422
▁elbe	-12.0422
▁overload	-12.0422
▁interior	-12.0422
durham	-12.0422
▁journalis	-12.0422
▁congressman	-12.0422
▁tuna	-12.0422
volta	-12.0422
▁hind	-12.0422
▁twig	-12.0422
▁oldfashioned	-12.0422
▁valour	-12.0422
▁harj	-12.0422
▁ownership	-12.0422
▁overall	-12.0422
▁strapped	-12.0422
aching	-12.0422
▁icing	-12.0422
▁roii	-12.0422
▁establishment	-12.0422
▁quest	-12.0422
▁paycheck	-12.0422
▁cecilia	-12.0422
▁remand	-12.0422
▁stride	-12.0422
▁jiggy	-12.0422
▁bailey	-12.0422
▁wits	-12.0422
▁ingredient	-12.0423
▁roddy	-12.0423
▁devout	-12.0423
assurance	-12.0423
▁complaints	-12.0423
▁okeydokey	-12.0423
▁anselmo	-12.0423
▁chud	-12.0423
▁dingus	-12.0423
heine	-12.0423
▁whlstl	-12.0423
▁bodin	-12.0423
▁amuse	-12.0423
litzer	-12.0423
▁outhouse	-12.0423
▁kingsley	-12.0423
▁daryl	-12.0423
beas	-12.0423
▁blazer	-12.0423
▁beau	-12.0424
▁hmph	-12.0424
▁obsession	-12.0424
▁capitalist	-12.0424
▁rooftop	-12.0424
intestin	-12.0424
ickets	-12.0424
nquish	-12.0424
west	-12.0424
▁mixup	-12.0424
▁reign	-12.0424
▁webster	-12.0424
▁giov	-12.0424
▁jonesport	-12.0424
▁nels	-12.0424
▁bearcat	-12.0424
▁quant	-12.0424
▁kansas	-12.0425
▁nutty	-12.0425
imous	-12.0425
▁roz	-12.0425
▁wong	-12.0425
▁hijackers	-12.0425
▁chalkies	-12.0425
▁limitless	-12.0425
▁artwork	-12.0425
▁tapping	-12.0425
▁revert	-12.0425
▁xx	-12.0425
▁passionate	-12.0425
▁jag	-12.0425
▁attraction	-12.0425
▁infest	-12.0425
▁respectfully	-12.0425
▁stability	-12.0425
▁cluck	-12.0425
▁popping	-12.0425
▁courtroom	-12.0425
▁fisk	-12.0425
▁bundles	-12.0425
▁industries	-12.0425
▁translates	-12.0425
▁scam	-12.0425
▁varn	-12.0425
▁starboard	-12.0426
▁personalities	-12.0426
▁thanksgiving	-12.0426
▁headhunt	-12.0426
▁oracle	-12.0426
▁kook	-12.0426
▁rover	-12.0426
ervil	-12.0426
▁keyboard	-12.0426
guin	-12.0426
▁floss	-12.0426
▁mobile	-12.0426
▁pajama	-12.0426
▁shipping	-12.0426
ranz	-12.0426
▁wring	-12.0426
▁sig	-12.0426
▁cuddly	-12.0427
▁disappearance	-12.0427
▁kaho	-12.0427
▁viet	-12.0427
▁transportation	-12.0427
▁youngsters	-12.0427
▁harass	-12.0427
intelligible	-12.0427
shakin	-12.0427
▁tapped	-12.0427
▁imply	-12.0427
holm	-12.0428
bone	-12.0428
▁witt	-12.0428
▁charter	-12.0428
▁tov	-12.0428
▁remarkable	-12.0428
▁lodge	-12.0428
▁mason	-12.0428
▁southside	-12.0428
aux	-12.0428
cussion	-12.0428
▁vibrates	-12.0428
▁rump	-12.0428
▁suv	-12.0428
▁pact	-12.0428
▁pasture	-12.0428
▁withdrawn	-12.0429
▁playback	-12.0429
▁arist	-12.0429
▁directive	-12.0429
▁hackers	-12.0429
▁semen	-12.0429
▁mainland	-12.0429
▁arcade	-12.0429
▁analyst	-12.0429
▁upro	-12.0429
plain	-12.0429
▁settlement	-12.0429
▁chaz	-12.0429
trium	-12.0429
▁empower	-12.043
▁voc	-12.043
▁prodigy	-12.043
▁mj	-12.043
▁unload	-12.043
▁chef	-12.043
▁jig	-12.043
▁poetic	-12.043
eken	-12.043
▁undergo	-12.043
▁reside	-12.043
▁splitting	-12.0431
▁blackbird	-12.0431
▁papi	-12.0431
▁crocker	-12.0431
itti	-12.0431
ulous	-12.0431
▁popularity	-12.0431
▁proclaim	-12.0431
▁toil	-12.0431
▁erich	-12.0431
▁bassa	-12.0432
▁elite	-12.0432
▁craving	-12.0432
▁brung	-12.0432
▁mush	-12.0433
▁hola	-12.0433
▁trig	-12.0433
▁brody	-12.0434
▁diag	-12.0434
▁irrev	-12.0434
▁dys	-12.0434
▁erra	-12.0434
▁poker	-12.0434
▁tusk	-12.0434
▁hoid	-12.0434
▁muri	-12.0435
aison	-12.0435
▁rubbing	-12.0435
▁polar	-12.0435
▁marksman	-12.0435
▁jaded	-12.0435
▁hugging	-12.0435
▁satur	-12.0435
▁retro	-12.0435
▁fog	-12.0435
▁admitted	-12.0435
▁explorer	-12.0436
▁awareness	-12.0436
▁alas	-12.0436
▁gutter	-12.0436
▁sneakers	-12.0436
rrito	-12.0437
▁matchup	-12.0437
▁household	-12.0437
▁clot	-12.0437
▁australian	-12.0437
▁verse	-12.0437
▁dama	-12.0437
▁shackled	-12.0437
▁vile	-12.0437
▁petro	-12.0438
▁onion	-12.0438
mones	-12.0439
▁stry	-12.0439
▁batter	-12.044
▁productive	-12.044
▁plantation	-12.044
hoohoo	-12.044
▁armor	-12.0441
estate	-12.0441
mpered	-12.0442
▁dough	-12.0442
▁leo	-12.0442
▁apt	-12.0442
▁squeal	-12.0442
▁grim	-12.0442
▁yearbook	-12.0442
▁farther	-12.0443
▁heist	-12.0443
▁dani	-12.0443
▁sandro	-12.0444
▁unwin	-12.0445
▁humiliated	-12.0445
▁perry	-12.0445
gnant	-12.0446
▁candi	-12.0446
▁examiner	-12.0446
▁kent	-12.0446
▁demonic	-12.0446
▁blackwell	-12.0446
▁judgement	-12.0446
▁logan	-12.0447
▁kur	-12.0447
▁clinking	-12.0448
▁intimidating	-12.0448
▁departing	-12.0448
▁selfless	-12.0448
gut	-12.0448
▁haze	-12.0448
▁grain	-12.0449
▁dried	-12.0449
▁oldschool	-12.0449
▁protective	-12.045
rres	-12.045
▁leek	-12.045
▁analog	-12.045
▁layout	-12.045
▁negotiat	-12.045
▁lesion	-12.045
▁chunky	-12.0451
▁steriliz	-12.0452
▁brighton	-12.0452
▁globe	-12.0453
▁stitched	-12.0453
▁trench	-12.0453
▁disgusted	-12.0453
▁blueprint	-12.0453
▁consumed	-12.0453
▁lawson	-12.0453
▁clam	-12.0453
▁freshman	-12.0455
▁neurological	-12.0455
▁bac	-12.0456
▁dag	-12.0456
page	-12.0456
▁highland	-12.0456
▁selfie	-12.0456
▁edit	-12.0456
▁cleansing	-12.0456
izer	-12.0457
▁grownup	-12.0458
▁decor	-12.0458
▁jar	-12.0459
▁stumble	-12.0459
▁welty	-12.0459
▁whim	-12.0459
▁warhead	-12.046
▁dior	-12.046
▁dougal	-12.046
rnam	-12.0461
▁followup	-12.0462
zier	-12.0462
▁firstborn	-12.0462
▁adulter	-12.0463
▁chatty	-12.0463
▁admiring	-12.0463
▁jackoff	-12.0464
▁seventy	-12.0464
▁redding	-12.0465
▁glenn	-12.0466
▁electrocuted	-12.0466
▁reopening	-12.0467
▁neglected	-12.0467
▁dire	-12.0467
▁soaked	-12.0467
agram	-12.0467
▁ado	-12.0468
▁insulting	-12.0468
mmit	-12.0468
▁seatbelts	-12.0468
▁alh	-12.0469
▁sprinkler	-12.047
▁hana	-12.047
▁hatch	-12.0471
▁related	-12.0471
▁sonny	-12.0472
▁inherited	-12.0472
▁brit	-12.0472
▁vial	-12.0473
▁litter	-12.0473
▁ratsy	-12.0473
▁whistler	-12.0474
▁cong	-12.0474
▁equally	-12.0475
▁savagely	-12.0475
▁bullshitting	-12.0475
▁yak	-12.0476
▁flashes	-12.0476
uttering	-12.0476
▁consumer	-12.0476
rose	-12.0476
▁turd	-12.0477
▁fraud	-12.0478
▁hiring	-12.0479
▁vip	-12.0479
▁sway	-12.048
▁confronted	-12.048
▁downloaded	-12.048
▁frosted	-12.048
▁snatched	-12.048
▁sanita	-12.048
▁aggr	-12.0481
▁identifi	-12.0482
artisan	-12.0482
▁magical	-12.0483
▁trailer	-12.0485
▁magician	-12.0485
▁randomly	-12.0485
▁straining	-12.0486
▁tutoring	-12.0486
▁respectable	-12.0486
▁soaking	-12.0486
▁washes	-12.0487
▁doggy	-12.0487
▁boa	-12.0488
▁disgraced	-12.0488
▁corny	-12.0488
cifer	-12.0489
▁distributed	-12.0489
heology	-12.0489
▁suspiciously	-12.0491
▁subdu	-12.0491
▁controlled	-12.0491
hran	-12.0491
▁projector	-12.0492
▁encountered	-12.0494
▁suffocated	-12.0494
▁boiled	-12.0494
▁summoned	-12.0494
▁boatman	-12.0495
▁chicky	-12.0496
ngto	-12.0498
▁idti	-12.0498
▁produced	-12.0498
▁parkway	-12.0498
▁simulat	-12.05
tune	-12.05
▁cutter	-12.05
▁compose	-12.0501
▁middleman	-12.0501
▁morti	-12.0501
▁ricky	-12.0503
▁switches	-12.0506
▁vel	-12.0506
▁trader	-12.0506
▁dickies	-12.0508
▁render	-12.0508
▁abused	-12.0509
itis	-12.051
stopp	-12.0511
▁unlikely	-12.0512
▁blackout	-12.0512
▁frown	-12.0513
▁luke	-12.0513
▁emotionally	-12.0514
▁selfre	-12.0514
▁hunger	-12.0514
▁ante	-12.0515
▁mint	-12.0517
▁shutter	-12.0518
▁concentrated	-12.0518
▁smartest	-12.0519
▁addresses	-12.0519
▁baddy	-12.0519
▁pyr	-12.0521
▁corrupted	-12.0521
▁powerless	-12.0522
▁gunfighter	-12.0522
▁bowler	-12.0522
istine	-12.0523
▁clothesline	-12.0523
▁entertaining	-12.0524
▁spilling	-12.0524
▁disappointing	-12.0524
▁boiling	-12.0524
▁summoning	-12.0524
▁priv	-12.0524
▁tuned	-12.0529
▁ze	-12.053
▁pry	-12.0531
▁observed	-12.0531
▁drifted	-12.0535
▁bandages	-12.0536
ados	-12.0536
▁bangin	-12.0537
▁weaker	-12.0539
atory	-12.054
▁boner	-12.0541
▁ere	-12.0541
▁rene	-12.0542
▁applying	-12.0543
▁expanding	-12.0543
▁halfass	-12.0543
sics	-12.0544
▁unle	-12.0544
nx	-12.0545
▁sinking	-12.0547
▁brid	-12.0547
▁aqui	-12.0548
▁sass	-12.0548
▁donate	-12.0551
▁tack	-12.0552
▁claws	-12.0553
▁digital	-12.0553
▁ford	-12.0553
▁dryer	-12.0554
▁brighter	-12.0554
▁negotiations	-12.0555
▁buffoons	-12.0555
▁chords	-12.0555
▁instincts	-12.0555
▁thighs	-12.0555
▁robbers	-12.0555
▁lani	-12.0555
▁mayate	-12.0555
▁backyard	-12.0556
prising	-12.0556
▁conform	-12.0557
▁cios	-12.0558
vering	-12.0558
etz	-12.0559
auer	-12.0559
leen	-12.0561
▁proven	-12.0563
▁sarcastic	-12.0565
▁demanded	-12.0565
▁printing	-12.0566
▁kin	-12.057
▁jameson	-12.057
▁coordinate	-12.0574
▁tubing	-12.0575
ppy	-12.0576
▁reminder	-12.0579
▁livers	-12.0582
▁defeating	-12.0582
▁tally	-12.0582
▁drakey	-12.0583
▁ciay	-12.0585
▁sparr	-12.0586
amaic	-12.0586
▁stakehors	-12.0588
▁tosser	-12.0589
▁shadowing	-12.0591
▁veter	-12.0592
▁hav	-12.0593
▁lorenzo	-12.0593
▁bouncer	-12.0596
▁commissioned	-12.0597
▁onetwo	-12.0598
▁inv	-12.0599
▁seducer	-12.0601
▁maintaining	-12.0601
definite	-12.0608
▁cooker	-12.0611
▁carton	-12.0616
▁crushed	-12.0618
▁hootie	-12.0621
▁flyin	-12.0622
▁cosy	-12.0629
▁scored	-12.0629
▁receiver	-12.0634
▁pitt	-12.0635
▁mur	-12.0636
▁shagg	-12.0638
▁leche	-12.064
▁pushin	-12.064
▁dense	-12.0643
▁squeezed	-12.0643
enstein	-12.0648
awl	-12.0649
▁stirr	-12.0649
▁passin	-12.0652
▁broker	-12.0655
▁blackie	-12.0655
▁abstract	-12.0656
▁healing	-12.066
▁eman	-12.0661
▁liberate	-12.0664
▁dresser	-12.0671
sitting	-12.0674
▁pasta	-12.0678
toot	-12.0682
▁damnation	-12.0683
▁wearer	-12.069
▁supplying	-12.0699
▁nighttime	-12.0699
▁beneficiar	-12.07
▁swallowed	-12.0702
▁sellin	-12.0703
rence	-12.071
▁punched	-12.0717
▁blurr	-12.0722
fsb	-12.0723
▁genov	-12.0723
▁jap	-12.0731
▁appealing	-12.0738
▁jonesy	-12.074
▁whisk	-12.0743
▁shithead	-12.0746
dance	-12.0753
▁dreamt	-12.0755
ended	-12.0768
▁wage	-12.077
▁coli	-12.0785
▁tsu	-12.0791
▁pitcher	-12.0815
▁mig	-12.0815
azola	-12.0834
▁executioner	-12.0834
▁crane	-12.0845
moral	-12.0847
rdog	-12.0856
▁rotate	-12.0866
▁psychic	-12.0898
orris	-12.0908
rrington	-12.0921
▁nook	-12.0923
indi	-12.0925
link	-12.0928
▁irr	-12.0937
foo	-12.095
nenfeld	-12.095
▁iit	-12.0962
hopping	-12.0962
ampu	-12.0965
nadine	-12.0992
vac	-12.1005
thee	-12.101
▁cube	-12.1013
cles	-12.1013
circula	-12.1027
▁batch	-12.1033
▁doorway	-12.1039
imon	-12.1052
▁spreader	-12.1053
arctic	-12.1058
disposition	-12.107
▁pierc	-12.1072
▁admir	-12.1084
▁urin	-12.1094
ledge	-12.1105
▁weep	-12.1121
▁traditional	-12.1123
▁headline	-12.1135
▁stripe	-12.1146
▁kam	-12.1147
alization	-12.1148
▁dressmak	-12.1166
▁priorit	-12.1175
▁claymo	-12.1181
band	-12.1187
▁archi	-12.1208
▁repri	-12.1219
lette	-12.1231
▁cultur	-12.1239
eech	-12.1241
inary	-12.1244
▁eric	-12.1253
haul	-12.1275
appella	-12.1275
umber	-12.1306
mach	-12.1308
martial	-12.1319
▁twink	-12.1321
▁flipp	-12.1323
ythree	-12.1336
▁pep	-12.1345
▁span	-12.1349
cess	-12.1361
tagir	-12.1373
▁bacteria	-12.1405
▁bunga	-12.1421
▁gutt	-12.1425
rehouse	-12.1428
▁www	-12.1457
▁trample	-12.1466
ebb	-12.1475
lim	-12.1497
▁scarie	-12.1523
cast	-12.1544
merciful	-12.1573
▁advertis	-12.1575
pez	-12.1583
elective	-12.16
hink	-12.1618
diving	-12.1627
bell	-12.1646
oza	-12.1775
▁perpetu	-12.1799
aura	-12.1823
▁milli	-12.1841
mme	-12.1854
▁traumatize	-12.1904
rdan	-12.1907
▁coll	-12.1915
▁sanct	-12.1964
▁tol	-12.1966
▁demonstrat	-12.198
▁doz	-12.1985
▁vaca	-12.1986
▁arabia	-12.1991
▁twentyf	-12.2003
▁prejudice	-12.2005
ickening	-12.2036
▁sued	-12.2066
▁mcg	-12.2067
mashed	-12.2092
▁oliver	-12.2095
utz	-12.2129
them	-12.2163
▁smi	-12.2211
oid	-12.2239
aunt	-12.2318
rena	-12.2344
pid	-12.2349
ockey	-12.2352
▁mixe	-12.2451
▁pla	-12.2456
▁fli	-12.2465
▁assemble	-12.2498
iamo	-12.255
▁provi	-12.2551
inguis	-12.2591
fat	-12.2609
▁minorit	-12.263
cam	-12.2645
cott	-12.2664
mita	-12.2668
▁but	-12.2702
aption	-12.2703
▁dau	-12.2769
▁latch	-12.2804
active	-12.2864
rix	-12.2897
wley	-12.2898
▁thi	-12.2951
▁communit	-12.296
posa	-12.2964
fulness	-12.3112
election	-12.3131
▁fram	-12.3149
zane	-12.3155
quit	-12.3166
melon	-12.3194
taneous	-12.3198
uter	-12.3249
▁estimat	-12.3259
▁insecur	-12.3281
lux	-12.3282
▁rosemon	-12.3306
iving	-12.3319
▁demonstrate	-12.3319
▁reviv	-12.3374
xia	-12.3385
randa	-12.34
lutz	-12.3418
tribution	-12.3421
▁tamp	-12.344
strates	-12.3475
cuse	-12.3486
chir	-12.3543
▁purif	-12.3604
traction	-12.3604
▁aaaa	-12.3618
▁exaggerate	-12.365
▁manipulate	-12.3651
enou	-12.3656
ggy	-12.3714
▁advertise	-12.3772
▁reserv	-12.3777
▁eliminat	-12.3821
▁clare	-12.3835
inari	-12.3873
gression	-12.3972
▁congrega	-12.4034
jil	-12.4045
amine	-12.4048
gul	-12.4057
ecke	-12.4158
alltime	-12.4175
▁kame	-12.4214
▁sparkl	-12.425
master	-12.4275
altering	-12.4324
angle	-12.4358
▁grav	-12.4375
▁orienta	-12.4487
oya	-12.4501
tagoni	-12.4508
▁pant	-12.4513
▁heroic	-12.4543
▁unti	-12.4593
aggin	-12.4608
▁reproduc	-12.4608
▁damp	-12.4654
ardin	-12.4655
▁exhausti	-12.4662
▁agita	-12.4662
▁tatu	-12.4727
▁rul	-12.4744
▁tract	-12.4768
▁evasi	-12.4769
banger	-12.4771
▁mimic	-12.4785
rule	-12.4803
▁bik	-12.4825
▁hustlin	-12.4846
▁theatr	-12.4849
netic	-12.4869
▁adol	-12.4874
lore	-12.4876
▁wag	-12.4895
▁continu	-12.4896
draw	-12.4926
info	-12.4954
▁blur	-12.4962
▁dunn	-12.4968
rican	-12.497
▁imperfect	-12.4977
▁divers	-12.4982
▁beneficia	-12.4984
▁wend	-12.4991
▁babysit	-12.4999
▁benze	-12.503
▁anesthesi	-12.5035
tically	-12.5038
thrower	-12.504
illian	-12.5061
▁observ	-12.5071
▁shel	-12.5124
erior	-12.5125
▁endanger	-12.5127
roller	-12.5127
plore	-12.5134
canned	-12.5143
▁frag	-12.5144
moving	-12.5147
▁accus	-12.5171
▁coordinat	-12.5172
tility	-12.5174
stained	-12.5177
▁robber	-12.5184
▁sarcas	-12.5184
▁evolv	-12.5186
▁groan	-12.5195
▁troop	-12.5195
while	-12.5195
▁buffoon	-12.52
▁instinct	-12.52
▁chord	-12.52
▁thigh	-12.5201
▁negotiation	-12.5207
▁eyebrow	-12.521
▁vitamin	-12.521
▁precaution	-12.521
unas	-12.5213
▁lyric	-12.5216
busters	-12.5217
▁yankee	-12.5218
▁shilling	-12.522
▁engraving	-12.5224
▁honk	-12.5229
▁digit	-12.5232
▁brake	-12.5233
cian	-12.5236
▁produc	-12.5237
▁republican	-12.5238
bet	-12.5239
that	-12.524
▁bali	-12.524
tails	-12.5241
▁moan	-12.5244
tified	-12.5255
hard	-12.5255
▁requir	-12.5257
nounced	-12.5259
▁restraint	-12.5261
▁slav	-12.5289
▁simul	-12.5292
▁slic	-12.5301
▁capp	-12.5302
▁valentin	-12.5306
▁consul	-12.5309
oppress	-12.5314
▁receiv	-12.5316
▁sacrific	-12.5322
▁jul	-12.5323
tex	-12.5332
ntaneous	-12.5333
▁writ	-12.5333
cades	-12.5337
puncher	-12.5338
luted	-12.5339
▁rust	-12.5339
▁cooi	-12.534
▁brim	-12.5341
▁origin	-12.5344
ikov	-12.5346
▁fideli	-12.5346
▁delight	-12.5354
member	-12.5354
▁experienc	-12.5356
▁neurolog	-12.536
▁stri	-12.5362
▁claw	-12.5363
▁communicat	-12.5365
▁overdo	-12.5367
worth	-12.5369
▁depart	-12.537
▁counsel	-12.5371
▁intimidat	-12.5372
▁jewel	-12.5373
▁recruit	-12.5375
▁thump	-12.5375
raised	-12.5376
friend	-12.5377
▁separat	-12.5377
▁clink	-12.5377
phones	-12.5379
kill	-12.538
egitimate	-12.5381
▁gam	-12.5383
▁sleepwalk	-12.5386
therland	-12.5387
acting	-12.5388
giving	-12.539
▁isolate	-12.539
▁paralyze	-12.539
▁sabotage	-12.539
▁jeopardize	-12.5391
crosse	-12.5391
elected	-12.5391
hunt	-12.5392
nyu	-12.5393
biograph	-12.5393
observed	-12.5393
activate	-12.5393
related	-12.5393
hmm	-12.5393
rubbing	-12.5393
▁compar	-12.5394
hugging	-12.5394
judged	-12.5394
▁divide	-12.5394
carriage	-12.5394
divided	-12.5394
jeriko	-12.5394
▁educate	-12.5395
▁initiate	-12.5395
weight	-12.5395
shirt	-12.5395
imagin	-12.5395
struck	-12.5395
virus	-12.5395
concert	-12.5395
indulge	-12.5396
identified	-12.5396
▁stunn	-12.5396
skirt	-12.5396
quarter	-12.5396
▁expose	-12.5396
cursed	-12.5396
frame	-12.5396
assignment	-12.5396
choke	-12.5396
shooter	-12.5396
management	-12.5396
organized	-12.5396
flies	-12.5396
piace	-12.5396
▁sever	-12.5396
▁depresse	-12.5396
scale	-12.5396
junkie	-12.5396
nonsense	-12.5396
brief	-12.5396
league	-12.5396
century	-12.5396
collection	-12.5396
confirmed	-12.5396
temporar	-12.5396
wives	-12.5396
▁disast	-12.5396
national	-12.5396
when	-12.5396
available	-12.5396
grown	-12.5397
possibly	-12.5397
treatment	-12.5397
direct	-12.5397
deliver	-12.5397
ladder	-12.5397
understood	-12.5397
home	-12.5397
jacket	-12.5397
period	-12.5397
johnson	-12.5397
correct	-12.5397
social	-12.5397
keeping	-12.5397
practice	-12.5397
interest	-12.5397
study	-12.5397
club	-12.5397
duty	-12.5397
court	-12.5397
whoo	-12.5397
christmas	-12.5397
spring	-12.5397
broke	-12.5397
uncle	-12.5397
united	-12.5397
listening	-12.5397
brother	-12.5397
henry	-12.5397
safe	-12.5397
glass	-12.5397
held	-12.5397
dollar	-12.5397
▁squir	-12.5398
drive	-12.5398
affect	-12.5398
parents	-12.5398
little	-12.5398
due	-12.5398
south	-12.5399
▁polic	-12.5399
nazi	-12.5399
imbo	-12.5399
▁blasphem	-12.5399
▁authorize	-12.5399
▁trave	-12.5399
▁variet	-12.5399
castle	-12.5399
rider	-12.54
price	-12.54
chester	-12.54
helen	-12.54
▁should	-12.54
drug	-12.54
organic	-12.5401
▁prodig	-12.5401
view	-12.5401
market	-12.5401
▁shackle	-12.5401
▁refuge	-12.5402
▁grenad	-12.5402
will	-12.5402
▁anxiet	-12.5402
baby	-12.5403
▁rook	-12.5403
▁deput	-12.5403
money	-12.5403
nails	-12.5403
brand	-12.5403
▁isle	-12.5404
▁angri	-12.5404
▁analys	-12.5404
based	-12.5405
stles	-12.5405
glow	-12.5405
linda	-12.5405
▁silv	-12.5405
image	-12.5406
woman	-12.5406
▁comput	-12.5406
▁congratulat	-12.5407
horn	-12.5407
▁acknowledg	-12.5407
▁embrac	-12.5407
getting	-12.5407
logan	-12.5407
determin	-12.5407
killer	-12.5408
cellul	-12.5408
breaker	-12.5409
today	-12.5409
diary	-12.5409
▁prosecut	-12.541
ogy	-12.5411
▁blaze	-12.5411
tempting	-12.5411
▁dictat	-12.5411
▁intr	-12.5411
version	-12.5411
theless	-12.5412
▁prima	-12.5412
▁aspir	-12.5412
▁anselm	-12.5412
puff	-12.5412
fax	-12.5412
▁estonia	-12.5412
▁chic	-12.5413
▁virgi	-12.5413
▁bulgaria	-12.5413
▁profess	-12.5413
cums	-12.5413
▁swede	-12.5413
▁branch	-12.5413
▁pregnan	-12.5413
▁baptis	-12.5413
dead	-12.5414
▁collaborat	-12.5415
▁audit	-12.5415
▁evaluat	-12.5415
▁interrogat	-12.5415
▁immigrat	-12.5415
▁trump	-12.5416
worthy	-12.5416
▁practicin	-12.5416
▁catalog	-12.5416
▁contribut	-12.5416
plicate	-12.5416
▁leavin	-12.5416
▁freezin	-12.5416
▁astrolog	-12.5416
▁knick	-12.5416
▁disrupti	-12.5416
▁economi	-12.5416
rystal	-12.5416
▁apprecia	-12.5416
▁mutt	-12.5416
▁convention	-12.5416
▁givin	-12.5417
▁mercenar	-12.5417
▁octop	-12.5417
▁convent	-12.5417
▁salvato	-12.5417
▁opportun	-12.5417
residential	-12.5417
▁integr	-12.5417
mplications	-12.5417
▁bask	-12.5417
▁homophob	-12.5417
esthetic	-12.5417
▁margar	-12.5417
ecutive	-12.5417
▁gallo	-12.5417
wick	-12.5417
▁indict	-12.5418
▁snug	-12.5418
▁alban	-12.5418
▁ambitio	-12.5418
▁correspond	-12.5418
ckenzie	-12.5418
monition	-12.5418
▁jeopard	-12.5418
joyed	-12.5418
nroe	-12.5418
▁francis	-12.5418
athome	-12.5418
▁confide	-12.5418
▁chasin	-12.5418
▁fascinati	-12.5418
tempo	-12.5418
▁exemp	-12.5418
solute	-12.5418
▁ecsta	-12.5418
hibit	-12.5418
▁anima	-12.5418
▁obscen	-12.5418
▁sculpt	-12.5418
munition	-12.5419
▁succ	-12.5419
sustain	-12.5419
▁werewol	-12.5419
▁neighbour	-12.5419
yenne	-12.5419
▁vladi	-12.5419
flavo	-12.5419
mistak	-12.5419
fthan	-12.5419
funct	-12.5419
▁gymnast	-12.5419
melani	-12.5419
▁leban	-12.5419
brough	-12.5419
▁atrocit	-12.5419
▁basquiat	-12.5419
▁fibro	-12.5419
▁gruesome	-12.5419
▁hitchhik	-12.5419
▁pediatric	-12.5419
▁synth	-12.5419
afferty	-12.5419
again	-12.5419
andahalf	-12.5419
dorfe	-12.5419
hausen	-12.5419
mplified	-12.5419
mptu	-12.5419
oeuvre	-12.5419
ooooooh	-12.5419
rdenas	-12.5419
selfpreservation	-12.5419
▁abbott	-12.5419
▁abreast	-12.5419
▁absorb	-12.5419
▁acclimate	-12.5419
▁accompanied	-12.5419
▁accumulate	-12.5419
▁achilles	-12.5419
▁adequate	-12.5419
▁admonish	-12.5419
▁aerosmith	-12.5419
▁afeard	-12.5419
▁agamemnon	-12.5419
▁aggressor	-12.5419
▁agoraphobic	-12.5419
▁agrarian	-12.5419
▁airconditioning	-12.5419
▁allamerican	-12.5419
▁aluminum	-12.5419
▁alzheimers	-12.5419
▁ambassador	-12.5419
▁angola	-12.5419
▁anointe	-12.5419
▁anticipati	-12.5419
▁anyplace	-12.5419
▁appetizer	-12.5419
▁apprentice	-12.5419
▁aronsson	-12.5419
▁asparagus	-12.5419
▁association	-12.5419
▁asswipes	-12.5419
▁augment	-12.5419
▁avenge	-12.5419
▁avocado	-12.5419
▁baaab	-12.5419
▁babbling	-12.5419
▁baghdad	-12.5419
▁barbeque	-12.5419
▁bartending	-12.5419
▁bazooka	-12.5419
▁beguile	-12.5419
▁bellevue	-12.5419
▁berkeley	-12.5419
▁bestseller	-12.5419
▁beyonce	-12.5419
▁biblical	-12.5419
▁bittersweet	-12.5419
▁blazing	-12.5419
▁bloodstains	-12.5419
▁boisterous	-12.5419
▁bottega	-12.5419
▁bourbon	-12.5419
▁bourdieu	-12.5419
▁brethren	-12.5419
▁buhbye	-12.5419
▁butbut	-12.5419
▁bwana	-12.5419
▁cactus	-12.5419
▁cagney	-12.5419
▁cannibalism	-12.5419
▁carpentry	-12.5419
▁castelcuto	-12.5419
▁cauldron	-12.5419
▁cauliflower	-12.5419
▁cctv	-12.5419
▁cellophane	-12.5419
▁centinela	-12.5419
▁chamberlain	-12.5419
▁charitable	-12.5419
▁charlatan	-12.5419
▁chipmunk	-12.5419
▁chlamydia	-12.5419
▁cimarron	-12.5419
▁claudette	-12.5419
▁climax	-12.5419
▁coldblooded	-12.5419
▁columbia	-12.5419
▁commute	-12.5419
▁comparison	-12.5419
▁comprehensi	-12.5419
▁comprende	-12.5419
▁concede	-12.5419
▁conceived	-12.5419
▁concentration	-12.5419
▁concessions	-12.5419
▁confiscate	-12.5419
▁congrats	-12.5419
▁connecticut	-12.5419
▁consolation	-12.5419
▁constrict	-12.5419
▁contemplat	-12.5419
▁contusion	-12.5419
▁conundrum	-12.5419
▁cordelia	-12.5419
▁coronary	-12.5419
▁corsica	-12.5419
▁couscous	-12.5419
▁crematorium	-12.5419
▁crossreference	-12.5419
▁crusoes	-12.5419
▁cruz	-12.5419
▁curfew	-12.5419
▁daydream	-12.5419
▁debating	-12.5419
▁deceiving	-12.5419
▁default	-12.5419
▁defeo	-12.5419
▁denucleariz	-12.5419
▁deportation	-12.5419
▁derivative	-12.5419
▁desperation	-12.5419
▁detachment	-12.5419
▁detonator	-12.5419
▁digiorgio	-12.5419
▁dimension	-12.5419
▁dinwoodie	-12.5419
▁discredit	-12.5419
▁disintegrate	-12.5419
▁disoriented	-12.5419
▁dispose	-12.5419
▁distill	-12.5419
▁divvy	-12.5419
▁dominique	-12.5419
▁doodle	-12.5419
▁dracula	-12.5419
▁dresden	-12.5419
▁dysfunction	-12.5419
▁earthquake	-12.5419
▁efficient	-12.5419
▁eivis	-12.5419
▁emphatic	-12.5419
▁enclos	-12.5419
▁endearment	-12.5419
▁engulf	-12.5419
▁enhance	-12.5419
▁entrepreneur	-12.5419
▁escalate	-12.5419
▁evict	-12.5419
▁exposure	-12.5419
▁extravagant	-12.5419
▁eyewitness	-12.5419
▁fabritius	-12.5419
▁facilitat	-12.5419
▁factchecker	-12.5419
▁faculties	-12.5419
▁fantasiz	-12.5419
▁fencing	-12.5419
▁fertil	-12.5419
▁firecracker	-12.5419
▁flandreau	-12.5419
▁fonnesbechs	-12.5419
▁foreclose	-12.5419
▁foreclosure	-12.5419
▁foretold	-12.5419
▁frenzy	-12.5419
▁fugue	-12.5419
▁fundamental	-12.5419
▁galleries	-12.5419
▁gallstones	-12.5419
▁generosity	-12.5419
▁geographic	-12.5419
▁gilcrest	-12.5419
▁giuseppe	-12.5419
▁glacier	-12.5419
▁glorif	-12.5419
▁gobshite	-12.5419
▁grizzly	-12.5419
▁groceries	-12.5419
▁gumchew	-12.5419
▁hajsky	-12.5419
▁hammock	-12.5419
▁hampshire	-12.5419
▁headbutt	-12.5419
▁heartbreak	-12.5419
▁heartbroken	-12.5419
▁hiccup	-12.5419
▁hillbilly	-12.5419
▁hippopotamus	-12.5419
▁historian	-12.5419
▁hombre	-12.5419
▁horribly	-12.5419
▁hygien	-12.5419
▁hypothetical	-12.5419
▁hysteri	-12.5419
▁improvis	-12.5419
▁inadequa	-12.5419
▁inconsisten	-12.5419
▁inequality	-12.5419
▁infatuation	-12.5419
▁infiltrat	-12.5419
[...]
