<unk>	0
<s>	0
</s>	0
s	-4.08561
▁im	-4.35313
▁dont	-4.4148
▁know	-4.47682
▁get	-4.64773
▁like	-4.76287
▁right	-4.77187
▁go	-4.80756
▁yeah	-4.82194
▁got	-4.83384
▁youre	-4.90286
▁come	-4.9981
▁na	-5.03756
▁oh	-5.06482
▁thats	-5.08226
▁want	-5.13033
▁one	-5.13832
▁well	-5.15355
▁okay	-5.15475
▁gon	-5.2475
▁think	-5.25625
▁good	-5.28979
▁see	-5.39764
▁man	-5.44242
▁look	-5.49673
▁hey	-5.55894
ing	-5.57266
▁back	-5.57997
▁time	-5.58053
▁ill	-5.59681
▁take	-5.61265
▁yes	-5.61561
▁going	-5.63421
▁hes	-5.64411
▁us	-5.6862
▁fuck	-5.69202
▁cant	-5.72974
▁need	-5.74564
▁fucking	-5.74579
▁would	-5.79002
▁tell	-5.79747
▁shit	-5.80636
▁say	-5.81426
ed	-5.82255
▁really	-5.84291
▁could	-5.84638
▁didnt	-5.8798
▁something	-5.92027
▁make	-5.92665
▁lets	-5.92823
▁way	-5.97107
▁mean	-5.97213
▁sorry	-6.00085
▁please	-6.00554
▁people	-6.01115
▁love	-6.01581
▁let	-6.028
▁little	-6.03402
▁god	-6.04781
▁two	-6.05646
▁whats	-6.07145
▁thank	-6.07292
▁ive	-6.10401
▁theres	-6.11333
▁give	-6.16832
▁said	-6.17565
▁never	-6.18569
▁	-6.21911
▁uh	-6.23946
▁help	-6.2401
▁guys	-6.28578
▁call	-6.28945
▁thing	-6.29988
▁much	-6.31227
d	-6.31637
▁sure	-6.32124
▁l	-6.32303
▁theyre	-6.37127
▁shes	-6.37293
▁even	-6.39433
▁maybe	-6.40562
▁anything	-6.41262
▁stop	-6.43232
▁great	-6.44106
▁put	-6.44272
▁wait	-6.4449
▁talk	-6.4622
▁first	-6.48712
▁day	-6.48851
▁find	-6.50274
▁mr	-6.50573
▁sir	-6.51147
▁money	-6.51323
▁work	-6.52604
▁life	-6.52693
▁ever	-6.53073
▁night	-6.5366
▁nothing	-6.54007
y	-6.5561
▁away	-6.58254
▁new	-6.58886
▁still	-6.60956
▁years	-6.61258
▁long	-6.61378
▁home	-6.62349
▁guy	-6.62703
▁around	-6.63737
▁hell	-6.63814
▁nice	-6.65165
▁name	-6.65807
▁three	-6.66097
▁keep	-6.66208
▁everything	-6.66557
▁last	-6.66787
ly	-6.66931
▁thought	-6.69987
▁kill	-6.70542
▁id	-6.7082
▁stay	-6.71509
▁leave	-6.71894
▁car	-6.72366
▁feel	-6.72572
▁things	-6.73022
▁listen	-6.74346
▁better	-6.74518
▁fine	-6.74711
▁told	-6.75504
▁place	-6.76858
▁lot	-6.77099
▁always	-6.7791
▁wan	-6.78203
▁house	-6.78317
▁hello	-6.78781
▁ta	-6.79223
▁doesnt	-6.79548
▁youve	-6.81213
▁talking	-6.81948
▁old	-6.83892
▁done	-6.83981
▁made	-6.84211
▁hi	-6.8446
▁coming	-6.84635
▁bad	-6.84713
▁kind	-6.84865
▁girl	-6.85488
▁wont	-6.8638
▁big	-6.86809
▁youll	-6.86824
▁move	-6.86933
▁mom	-6.88032
▁father	-6.89843
e	-6.90811
▁baby	-6.91358
▁hear	-6.92037
▁remember	-6.92945
▁happened	-6.94567
▁next	-6.94911
▁understand	-6.95992
▁every	-6.96814
▁wanted	-6.97192
er	-6.97828
▁ok	-6.9784
▁dad	-6.97858
▁dead	-6.98196
▁son	-6.98606
▁left	-6.99089
▁believe	-6.99668
▁boy	-7.00343
▁must	-7.00548
▁door	-7.00626
▁real	-7.00988
▁aint	-7.01117
▁morning	-7.01374
▁hold	-7.02179
▁wrong	-7.03448
▁isnt	-7.04238
▁today	-7.06105
▁thanks	-7.06476
▁huh	-7.06917
▁world	-7.07092
▁else	-7.07143
▁might	-7.07746
▁enough	-7.08557
▁try	-7.08799
▁ask	-7.08951
▁looking	-7.09255
▁care	-7.10664
▁mother	-7.10672
▁came	-7.10854
▁open	-7.11155
▁getting	-7.11472
▁woman	-7.12207
▁room	-7.12454
▁friend	-7.13119
▁john	-7.1327
▁start	-7.13778
▁um	-7.14119
▁another	-7.15407
▁course	-7.15409
▁together	-7.16895
▁best	-7.16901
▁wasnt	-7.17496
▁show	-7.18132
▁live	-7.18175
▁head	-7.18496
▁whole	-7.19016
▁took	-7.19018
▁someone	-7.20977
▁ass	-7.21481
▁cause	-7.21789
▁trying	-7.22233
▁play	-7.22436
▁jesus	-7.234
▁job	-7.24122
▁tonight	-7.25012
▁saw	-7.25018
▁run	-7.25448
▁phone	-7.26149
▁used	-7.26236
▁guess	-7.26303
▁mind	-7.2693
▁weve	-7.26983
▁actually	-7.26995
▁ready	-7.27747
▁family	-7.28992
▁die	-7.2904
▁wife	-7.29263
▁hard	-7.2936
▁went	-7.29673
▁may	-7.30006
▁many	-7.30213
▁killed	-7.31225
▁days	-7.3145
▁men	-7.31593
▁seen	-7.32099
▁wouldnt	-7.32488
▁kids	-7.32537
▁saying	-7.32693
▁found	-7.32773
▁damn	-7.32839
a	-7.33136
▁jack	-7.33403
▁watch	-7.33486
▁four	-7.33843
▁bitch	-7.34167
▁nobody	-7.34202
▁use	-7.34463
▁gun	-7.35575
▁five	-7.35645
▁called	-7.36116
▁pretty	-7.36729
▁friends	-7.37232
▁bit	-7.37361
▁game	-7.38159
▁without	-7.38574
▁check	-7.38707
▁school	-7.38983
▁turn	-7.39015
▁face	-7.39331
▁heard	-7.39613
▁meet	-7.39704
▁whos	-7.39759
▁goddamn	-7.40459
▁idea	-7.408
▁second	-7.41983
▁youd	-7.41986
▁em	-7.42124
▁excuse	-7.4237
▁knew	-7.4237
▁somebody	-7.43537
▁sit	-7.43781
▁hit	-7.44074
▁minute	-7.44754
▁un	-7.45548
▁alone	-7.46316
▁problem	-7.46396
▁inside	-7.47539
▁couldnt	-7.48407
▁miss	-7.48418
▁everybody	-7.48461
▁ago	-7.4876
▁shut	-7.49484
▁already	-7.50004
▁probably	-7.50425
▁easy	-7.51264
▁police	-7.51274
▁pay	-7.51452
▁boys	-7.5173
▁tomorrow	-7.52114
▁gone	-7.52348
▁bring	-7.52484
r	-7.52745
▁couple	-7.52971
▁drink	-7.53242
in	-7.53553
▁ah	-7.54055
▁stuff	-7.55276
▁lost	-7.56033
t	-7.56081
▁beautiful	-7.56472
▁whatever	-7.56472
▁matter	-7.56742
▁hand	-7.57559
▁music	-7.58262
▁whoa	-7.5873
▁eat	-7.58786
▁says	-7.59016
▁later	-7.59235
▁end	-7.5928
▁part	-7.59343
▁thinking	-7.59753
▁eyes	-7.60758
▁read	-7.60819
▁hope	-7.61095
▁hurt	-7.61406
▁walk	-7.61617
n	-7.6175
▁point	-7.62594
▁heart	-7.62665
▁kid	-7.62774
▁playing	-7.62989
▁hands	-7.63226
▁dog	-7.63237
▁crazy	-7.63389
▁fire	-7.6362
▁wheres	-7.63621
▁late	-7.63686
▁girls	-7.63894
▁close	-7.64675
▁cool	-7.64704
▁anyone	-7.64829
▁deal	-7.65261
▁shot	-7.65736
▁honey	-7.65803
▁set	-7.65811
▁water	-7.6583
al	-7.65865
▁worry	-7.6591
o	-7.66446
▁case	-7.66596
▁minutes	-7.67241
▁taking	-7.67294
▁since	-7.67749
▁speaking	-7.6855
▁everyone	-7.69273
▁havent	-7.69285
▁yet	-7.69286
▁happy	-7.69288
▁happen	-7.69437
▁though	-7.70242
▁week	-7.70283
▁number	-7.70509
▁supposed	-7.71917
▁cut	-7.72295
▁six	-7.72296
▁sleep	-7.72371
▁fun	-7.72585
▁looks	-7.72695
▁gave	-7.73382
▁young	-7.73857
▁sighs	-7.73971
▁stand	-7.74126
▁wants	-7.7439
▁bye	-7.74484
▁fight	-7.75478
▁black	-7.75787
▁blood	-7.75956
▁soon	-7.76006
▁mine	-7.76333
▁hours	-7.76518
▁change	-7.76557
▁brother	-7.7672
▁anyway	-7.76788
▁exactly	-7.77194
▁working	-7.7847
es	-7.79017
▁far	-7.79264
ve	-7.79266
▁richard	-7.79402
▁body	-7.79406
▁year	-7.79957
▁true	-7.79982
▁half	-7.80532
▁different	-7.80963
▁business	-7.81063
▁funny	-7.81098
▁town	-7.81109
▁lose	-7.81138
▁alright	-7.81667
▁forget	-7.81757
▁book	-7.82718
▁welcome	-7.82819
▁also	-7.8282
▁word	-7.83013
▁motherfucker	-7.83609
▁pick	-7.84342
▁trust	-7.84467
▁women	-7.84574
▁afraid	-7.85166
▁party	-7.85941
▁death	-7.8636
▁rest	-7.86371
▁truth	-7.86949
▁front	-7.87565
▁story	-7.8757
▁asked	-7.88205
▁side	-7.88501
▁arent	-7.88792
▁million	-7.89745
▁full	-7.89876
▁doctor	-7.90351
▁started	-7.9065
▁bullshit	-7.90655
▁shoot	-7.91013
▁anymore	-7.91284
▁chuckles	-7.91389
▁christ	-7.91737
▁making	-7.91918
▁free	-7.92345
▁hate	-7.9243
▁telling	-7.92433
l	-7.92639
▁high	-7.93576
▁line	-7.93696
▁drive	-7.94197
▁goes	-7.94881
▁wish	-7.95042
▁outside	-7.95079
▁makes	-7.95356
▁behind	-7.95801
▁least	-7.95803
▁molly	-7.95805
▁times	-7.96059
▁safe	-7.96329
▁hot	-7.96459
▁war	-7.96789
▁dance	-7.96878
▁daughter	-7.96921
▁break	-7.97174
▁street	-7.97596
▁chance	-7.97606
▁touch	-7.98429
▁speak	-7.98475
▁means	-7.9894
▁sometimes	-7.99379
i	-7.99423
▁person	-7.995
p	-8.00364
on	-8.00443
▁mrs	-8.0048
▁stupid	-8.00531
m	-8.00599
▁heres	-8.00615
▁clear	-8.00943
▁sick	-8.01214
▁jim	-8.01221
▁anybody	-8.01226
▁bed	-8.01467
▁months	-8.01495
▁th	-8.01772
▁pull	-8.01862
▁almost	-8.01925
▁either	-8.02629
▁brought	-8.02629
▁buy	-8.02925
less	-8.0309
▁team	-8.03244
▁married	-8.03338
▁sam	-8.03345
▁news	-8.03454
▁met	-8.03983
▁office	-8.03989
▁hurry	-8.04053
▁send	-8.04409
▁died	-8.04504
▁david	-8.0477
▁hang	-8.05114
▁feeling	-8.05316
▁save	-8.05318
▁special	-8.0535
▁g	-8.05451
▁question	-8.05736
▁york	-8.06227
▁trouble	-8.06778
▁serious	-8.06835
▁itll	-8.06962
▁theyll	-8.06962
▁leaving	-8.06963
▁radio	-8.06965
▁top	-8.07133
▁alive	-8.07708
▁dale	-8.07722
▁michael	-8.08405
▁city	-8.08421
man	-8.08666
▁plan	-8.09642
▁light	-8.09697
▁j	-8.09805
▁hows	-8.10054
▁red	-8.10405
▁clean	-8.10438
▁cover	-8.10606
▁joel	-8.11496
▁sound	-8.11968
▁law	-8.12169
▁white	-8.12273
▁ahead	-8.1305
▁re	-8.13505
▁order	-8.13565
▁ten	-8.1377
▁perfect	-8.13837
▁ben	-8.1427
▁ii	-8.1436
▁kidding	-8.14636
▁reason	-8.14653
▁moment	-8.147
▁waiting	-8.15054
▁cops	-8.15117
▁bill	-8.15323
▁drop	-8.15487
▁win	-8.1581
▁comes	-8.16072
▁straight	-8.16181
▁calling	-8.1619
▁tried	-8.16258
▁daddy	-8.16317
▁follow	-8.16424
▁dream	-8.17184
▁laughing	-8.17249
▁s	-8.1737
▁sweet	-8.17679
▁continues	-8.17791
▁till	-8.17842
▁alexander	-8.17868
▁children	-8.17869
▁lady	-8.17885
▁table	-8.1799
c	-8.1817
g	-8.18233
▁country	-8.18698
▁fucked	-8.18831
▁billy	-8.18837
▁needs	-8.192
▁truck	-8.19201
▁happening	-8.19298
▁wow	-8.19529
▁sort	-8.19542
▁bet	-8.19614
est	-8.19633
▁able	-8.19658
▁promise	-8.20194
▁hair	-8.2022
▁write	-8.20246
▁control	-8.20342
▁quite	-8.20432
▁catch	-8.20769
▁boss	-8.21171
▁screaming	-8.21297
▁sister	-8.21368
▁careful	-8.21978
▁food	-8.22073
▁important	-8.22076
▁king	-8.22565
▁running	-8.22944
▁sent	-8.22944
▁piece	-8.23113
ers	-8.23312
▁dr	-8.23544
▁weird	-8.23802
▁looked	-8.23868
▁r	-8.23919
▁parents	-8.23954
▁dude	-8.23998
▁hour	-8.24012
▁de	-8.2418
▁fact	-8.24888
▁somewhere	-8.25564
▁information	-8.25566
▁gets	-8.2569
▁officer	-8.25856
▁knows	-8.26034
▁sex	-8.26319
▁child	-8.26418
▁air	-8.26453
▁glad	-8.26457
▁holy	-8.2651
▁asshole	-8.26701
▁wake	-8.26701
▁report	-8.26803
en	-8.26941
▁american	-8.27084
▁song	-8.27442
▁ride	-8.28076
▁seven	-8.28261
▁lives	-8.2834
▁sign	-8.28716
▁lie	-8.28774
▁mouth	-8.29093
▁shouldnt	-8.29188
▁husband	-8.29474
▁asking	-8.29491
▁beat	-8.29744
ion	-8.29984
ies	-8.29999
▁sergeant	-8.3011
▁moving	-8.30113
▁lawyer	-8.30418
ic	-8.3063
▁answer	-8.30685
▁weeks	-8.31077
▁scared	-8.31116
▁ones	-8.31342
▁agent	-8.31375
▁happens	-8.31429
▁b	-8.31504
▁dollars	-8.31545
▁quiet	-8.31859
▁company	-8.31988
▁tired	-8.32001
▁throw	-8.32515
▁record	-8.32619
▁prison	-8.32819
▁finish	-8.33611
▁luck	-8.3387
▁rock	-8.34078
▁cop	-8.34085
▁sense	-8.34242
▁cia	-8.34824
▁none	-8.34934
▁pain	-8.35715
▁living	-8.35856
▁fuckin	-8.35975
▁picture	-8.36065
▁ha	-8.36194
▁dinner	-8.36843
▁coffee	-8.36844
▁kiss	-8.37121
▁ya	-8.37202
▁k	-8.37236
▁yo	-8.37258
▁dick	-8.37268
▁less	-8.3728
▁fast	-8.37624
▁small	-8.37812
▁gentlemen	-8.37843
▁hmm	-8.37859
▁power	-8.38509
▁fair	-8.38709
▁george	-8.38853
▁groans	-8.38853
▁band	-8.39208
▁chatter	-8.39491
▁quick	-8.39647
▁shall	-8.3987
▁zodiac	-8.4036
▁america	-8.40472
▁floor	-8.40904
▁panting	-8.40906
▁maam	-8.40907
▁bob	-8.40917
▁meeting	-8.41385
▁taken	-8.41712
▁step	-8.41761
▁captain	-8.41946
▁buddy	-8.41947
▁pass	-8.42166
▁lm	-8.42205
▁words	-8.42655
▁act	-8.42753
▁indistinct	-8.42871
▁honor	-8.42988
▁sounds	-8.43003
▁bobby	-8.43005
▁park	-8.43162
▁bag	-8.43788
▁paul	-8.43865
▁wed	-8.4399
▁accident	-8.44056
▁early	-8.44101
▁code	-8.44481
▁names	-8.44577
▁human	-8.44635
▁worked	-8.44948
▁along	-8.45139
▁cold	-8.45139
▁broke	-8.45203
▁nine	-8.45323
▁state	-8.45323
▁road	-8.45733
▁lord	-8.46225
▁ronnie	-8.46225
▁grunts	-8.46356
h	-8.46684
▁dress	-8.46983
▁eye	-8.47139
f	-8.47224
▁dave	-8.47344
▁plane	-8.47531
▁hed	-8.47556
▁voice	-8.47984
▁stick	-8.48217
▁tv	-8.48445
▁shouting	-8.48471
▁figure	-8.48921
▁become	-8.49114
▁blue	-8.49122
▁month	-8.49168
▁eight	-8.49411
▁past	-8.49435
▁fbi	-8.49562
▁ladies	-8.49562
▁laughs	-8.49609
▁cell	-8.50335
▁sell	-8.50425
▁m	-8.50492
▁low	-8.50636
▁lying	-8.50705
▁army	-8.5078
▁blow	-8.50932
▁fall	-8.51076
▁needed	-8.51804
▁cash	-8.51838
▁amazing	-8.51844
▁double	-8.51844
▁phil	-8.51878
▁unit	-8.5202
▁seems	-8.52062
▁attention	-8.53007
▁werent	-8.53007
▁sitting	-8.53038
▁bar	-8.53156
▁questions	-8.53162
▁lucky	-8.53178
▁learn	-8.53507
▁seat	-8.53552
▁meant	-8.53686
▁charge	-8.53777
▁machine	-8.538
▁leg	-8.53968
▁drunk	-8.54184
▁middle	-8.54184
▁paid	-8.54188
▁poor	-8.54189
▁security	-8.54194
▁watching	-8.54235
▁mm	-8.54249
▁p	-8.54338
▁murder	-8.54559
▁choice	-8.54989
▁shell	-8.55228
▁evil	-8.55374
▁absolutely	-8.55379
▁others	-8.55403
▁seeing	-8.55535
▁roll	-8.55713
or	-8.55959
▁worth	-8.56096
▁turned	-8.56303
▁theyve	-8.56579
▁dear	-8.56593
▁owe	-8.56859
ie	-8.57021
▁wear	-8.57097
▁nick	-8.57129
▁longer	-8.57228
▁soldier	-8.57455
▁slow	-8.57576
▁strong	-8.57674
▁fault	-8.57799
▁wedding	-8.57832
▁respect	-8.5876
▁near	-8.58899
▁tough	-8.59003
▁hospital	-8.59022
▁felt	-8.59034
▁tommy	-8.59034
▁chef	-8.59034
▁dangerous	-8.59035
▁gunfire	-8.59037
▁n	-8.59681
▁master	-8.59945
▁rose	-8.6007
▁born	-8.6017
▁goodbye	-8.60283
▁yall	-8.60299
▁board	-8.60866
▁frank	-8.61152
▁spend	-8.6117
▁computer	-8.61255
▁talked	-8.61483
▁church	-8.61501
▁ooh	-8.6155
▁fear	-8.61551
▁calm	-8.61563
▁finally	-8.61607
▁seriously	-8.61769
▁screams	-8.62068
▁given	-8.62118
▁fix	-8.62155
▁killing	-8.6241
▁service	-8.62571
▁possible	-8.62831
▁mmhmm	-8.62842
▁tucker	-8.62854
▁hotel	-8.62855
up	-8.63322
us	-8.63349
▁boat	-8.63859
▁hide	-8.63881
▁smell	-8.63887
▁dark	-8.6404
▁peter	-8.64192
▁uncle	-8.65163
▁smart	-8.65304
▁loved	-8.65324
▁president	-8.65446
▁seem	-8.65751
▁miles	-8.65752
▁works	-8.66225
▁ground	-8.66521
▁moved	-8.6653
▁quit	-8.66625
▁steve	-8.66702
▁program	-8.66774
▁worse	-8.6678
▁swear	-8.6678
▁knock	-8.67458
▁share	-8.67459
▁handle	-8.67729
▁beer	-8.67966
▁system	-8.68128
▁future	-8.68131
▁apple	-8.68134
▁decided	-8.68253
▁shh	-8.68429
▁explain	-8.68804
▁group	-8.69311
▁college	-8.695
able	-8.69523
▁cross	-8.69855
k	-8.70241
▁contact	-8.70571
▁imagine	-8.70683
▁suppose	-8.70707
▁history	-8.70889
▁turkish	-8.70889
▁department	-8.70889
▁upset	-8.70889
▁giving	-8.70896
▁mommy	-8.70897
▁grunting	-8.70928
▁crying	-8.71235
▁finished	-8.71322
▁protect	-8.7156
▁fat	-8.71862
▁adam	-8.72124
▁ball	-8.72202
▁french	-8.72261
▁ran	-8.72272
▁court	-8.72282
▁anywhere	-8.72297
▁appreciate	-8.72547
▁using	-8.72819
▁known	-8.72878
▁reach	-8.73059
▁ring	-8.73182
▁liked	-8.73224
▁fly	-8.73365
▁la	-8.73482
▁list	-8.73681
▁terrible	-8.73726
▁robert	-8.73726
▁green	-8.7373
▁wonderful	-8.73737
▁feet	-8.73739
▁totally	-8.73804
▁tom	-8.73823
▁wearing	-8.74162
▁changed	-8.74214
▁dies	-8.74559
▁bro	-8.74655
▁ann	-8.74725
▁savage	-8.75028
▁pleasure	-8.75175
▁earth	-8.75178
▁bought	-8.75179
▁writing	-8.75184
▁tony	-8.75198
▁dan	-8.75394
▁mad	-8.75549
▁join	-8.75799
▁mess	-8.75918
▁sun	-8.76318
▁walking	-8.76334
re	-8.76408
▁brothers	-8.76412
▁yesterday	-8.76646
▁cowhand	-8.76646
▁sweetheart	-8.76646
▁busy	-8.76758
▁crime	-8.77064
▁lovely	-8.77142
▁kick	-8.77277
▁bomb	-8.77321
ant	-8.7734
▁laugh	-8.7739
▁wonder	-8.77754
▁cry	-8.77785
▁smoke	-8.7804
▁across	-8.78138
▁kept	-8.78138
▁jail	-8.78139
▁lt	-8.78142
▁skin	-8.78162
▁horse	-8.78196
▁personal	-8.78439
▁doug	-8.79485
▁except	-8.79542
▁window	-8.7961
▁movie	-8.79611
▁russian	-8.79612
▁perhaps	-8.79653
▁proud	-8.79653
▁forever	-8.79653
▁charlie	-8.79653
▁instead	-8.79654
▁rather	-8.79654
▁danni	-8.79655
▁jake	-8.79661
▁obviously	-8.79683
▁train	-8.7985
▁c	-8.80613
▁lead	-8.80652
▁gas	-8.80684
▁honest	-8.80924
▁worried	-8.81192
▁military	-8.81192
▁clothes	-8.81195
▁hungry	-8.81198
▁mmm	-8.81198
▁thousand	-8.812
▁max	-8.81204
▁games	-8.81431
is	-8.81747
▁evening	-8.82227
▁entire	-8.82623
▁rich	-8.82665
▁pete	-8.82668
▁a	-8.82674
▁secret	-8.82747
▁adela	-8.82754
▁spent	-8.82755
▁single	-8.82758
▁girlfriend	-8.82759
▁definitely	-8.82759
▁wrote	-8.82763
▁key	-8.82784
▁named	-8.82856
▁f	-8.82872
v	-8.829
▁expect	-8.83655
▁missed	-8.83875
▁short	-8.84001
▁forgive	-8.84274
▁government	-8.84323
▁seconds	-8.84336
▁spot	-8.84338
▁distance	-8.84342
▁evidence	-8.84342
▁relax	-8.84342
▁grace	-8.84343
▁bunch	-8.84344
▁north	-8.84344
▁eh	-8.84362
▁soul	-8.84371
▁dying	-8.84373
▁stopped	-8.84378
▁hundred	-8.84379
st	-8.85273
▁bank	-8.85573
▁keys	-8.85943
▁forgot	-8.85953
▁forward	-8.85955
▁darius	-8.85955
▁area	-8.85983
▁sarah	-8.85986
▁message	-8.86016
▁mary	-8.8604
▁carry	-8.86063
▁anna	-8.86063
▁grab	-8.86526
▁rules	-8.86957
▁offer	-8.86975
▁english	-8.87594
▁spanish	-8.87594
▁mama	-8.87597
▁bastard	-8.87669
▁partner	-8.87677
▁paper	-8.87695
▁balls	-8.87764
▁suck	-8.87802
▁states	-8.8781
▁certain	-8.88128
▁count	-8.88359
▁push	-8.88528
▁jump	-8.88574
▁lived	-8.88585
▁mark	-8.88627
▁general	-8.89124
▁surprise	-8.89166
▁card	-8.89168
▁lunch	-8.89264
▁chief	-8.8927
▁press	-8.89272
▁marriage	-8.89317
▁flight	-8.89318
▁idiot	-8.89347
▁carter	-8.89375
▁brain	-8.8938
▁breathing	-8.89461
▁store	-8.89555
▁wall	-8.8961
▁calls	-8.90796
▁t	-8.90831
▁club	-8.90921
▁mate	-8.90926
▁senator	-8.90955
▁driving	-8.90956
▁christmas	-8.90956
▁karen	-8.90957
▁pants	-8.9096
▁jem	-8.90972
▁super	-8.90976
▁joke	-8.90983
▁guilty	-8.91
▁mistake	-8.91039
▁mace	-8.9104
▁station	-8.91058
▁round	-8.91068
▁weekend	-8.91102
▁interesting	-8.9112
▁e	-8.91198
▁letter	-8.91253
▁continue	-8.91831
▁enjoy	-8.91997
▁deep	-8.92462
▁dreams	-8.92507
▁normal	-8.92565
▁d	-8.92571
▁foot	-8.92679
▁jennifer	-8.9268
▁libby	-8.9268
▁throat	-8.9268
▁outta	-8.92684
▁engine	-8.92717
▁broken	-8.92765
▁experience	-8.92825
▁animal	-8.92853
▁copy	-8.92937
▁training	-8.93101
▁saved	-8.93117
▁in	-8.9314
▁class	-8.93283
le	-8.93298
▁fell	-8.93667
▁killer	-8.93687
▁box	-8.93895
▁drugs	-8.94086
▁ice	-8.94246
▁realize	-8.94279
b	-8.94356
▁doc	-8.9438
▁gold	-8.94415
▁yep	-8.94435
▁birthday	-8.94436
▁built	-8.94437
▁third	-8.9444
▁marry	-8.9444
▁certainly	-8.94569
▁sake	-8.94619
▁date	-8.94777
▁gods	-8.94816
▁trip	-8.94825
▁dogs	-8.94866
▁holding	-8.95195
▁al	-8.95225
▁fighting	-8.95656
▁feels	-8.95923
▁public	-8.95962
▁mike	-8.96094
ment	-8.96126
▁lincoln	-8.9622
▁neither	-8.9622
▁zeke	-8.9622
▁stalin	-8.9622
▁dancing	-8.96228
▁congratulations	-8.96236
▁sea	-8.96413
▁favor	-8.96422
▁uhhuh	-8.96447
▁cat	-8.96478
▁bucks	-8.96524
▁building	-8.9671
u	-8.9672
▁player	-8.96983
▁v	-8.97068
▁blame	-8.97803
▁land	-8.97814
▁lay	-8.97876
▁medical	-8.97926
▁simple	-8.97979
▁nothin	-8.9801
▁heavy	-8.98038
▁watson	-8.98038
▁moondog	-8.98038
▁andy	-8.98039
▁lisa	-8.98041
▁chair	-8.98051
▁arm	-8.98054
▁bus	-8.98094
▁softly	-8.98119
▁interested	-8.98177
ry	-8.98286
▁guard	-8.98308
▁track	-8.98323
▁breathe	-8.98342
▁ow	-8.98351
▁wine	-8.98578
▁test	-8.99532
▁h	-8.99667
▁missing	-8.99708
▁olive	-8.99827
▁peace	-8.99878
▁neil	-8.9989
▁doin	-8.99909
▁involved	-8.99926
▁warm	-8.9995
▁completely	-8.99977
ll	-9.00015
▁age	-9.00017
▁hole	-9.00255
te	-9.00321
ation	-9.00748
ive	-9.01046
w	-9.0107
▁hero	-9.01176
▁star	-9.01453
▁listening	-9.01557
▁san	-9.01588
▁judge	-9.01761
▁delorean	-9.01777
▁kitchen	-9.01777
▁price	-9.01779
▁cream	-9.0178
▁gasping	-9.01797
▁usually	-9.01831
▁gasps	-9.01859
▁force	-9.01912
▁difference	-9.02034
▁suspect	-9.02099
no	-9.02608
▁tea	-9.03192
▁jobs	-9.03218
▁paris	-9.03679
▁return	-9.03691
▁upstairs	-9.03699
▁charley	-9.037
▁investigation	-9.03701
▁lonnie	-9.03705
▁coach	-9.03714
▁michelle	-9.03721
▁gay	-9.03723
▁male	-9.03738
▁speed	-9.03738
▁losing	-9.03826
▁mikey	-9.03851
▁position	-9.04055
▁drug	-9.04087
▁whose	-9.04227
▁st	-9.04363
▁fired	-9.04441
▁pray	-9.04832
▁beach	-9.05618
▁apart	-9.05649
▁choose	-9.05661
▁hasnt	-9.05661
▁address	-9.05662
▁darling	-9.05663
▁camp	-9.05663
▁everywhere	-9.05667
▁knife	-9.05671
▁shed	-9.05826
▁locked	-9.05957
▁conversation	-9.0604
▁situation	-9.06045
▁shoes	-9.06062
▁finger	-9.06082
▁promised	-9.06122
▁grow	-9.06571
▁shooting	-9.06831
▁goin	-9.07136
▁fish	-9.07158
▁correct	-9.07333
▁drinking	-9.0737
▁attack	-9.07396
▁babe	-9.07462
▁loud	-9.07501
▁victor	-9.07513
▁glass	-9.07618
▁groaning	-9.0766
▁matthew	-9.0766
▁worst	-9.07661
▁bodies	-9.07665
▁favorite	-9.07667
▁account	-9.07675
▁sad	-9.07716
▁blind	-9.07759
ful	-9.07774
▁gotten	-9.07789
▁allowed	-9.07882
▁decide	-9.07889
▁fit	-9.07957
▁nuts	-9.08033
▁apartment	-9.08076
▁queen	-9.08211
▁br	-9.0853
ch	-9.08952
▁fill	-9.09019
▁weapons	-9.09167
▁cab	-9.09176
▁accept	-9.09378
▁players	-9.09606
▁banks	-9.09629
▁ought	-9.0965
▁major	-9.0969
▁tight	-9.09694
▁lieutenant	-9.09701
▁albert	-9.09702
▁angry	-9.09703
▁henry	-9.09703
▁within	-9.09705
▁stuck	-9.09705
▁dumb	-9.09707
▁space	-9.0972
▁director	-9.09734
▁crowd	-9.09737
▁juan	-9.09806
▁jay	-9.09867
▁indistinctly	-9.0995
▁field	-9.10203
▁crap	-9.10227
▁pal	-9.10281
▁opens	-9.10475
▁wouldve	-9.10857
▁piss	-9.11108
▁steal	-9.11392
▁paying	-9.11517
▁taste	-9.11544
▁burn	-9.11549
▁waste	-9.116
▁keith	-9.11784
▁pregnant	-9.11785
▁priest	-9.11785
▁chicago	-9.11785
▁jewell	-9.11791
▁lock	-9.11841
▁keeping	-9.11856
▁ed	-9.11952
▁block	-9.12027
▁weapon	-9.12318
▁begin	-9.12325
nt	-9.12728
▁ho	-9.12764
▁books	-9.13216
▁standing	-9.13263
ness	-9.13478
▁support	-9.13509
▁search	-9.13529
▁arrest	-9.13713
▁legal	-9.13862
▁afternoon	-9.13912
▁caught	-9.13912
▁often	-9.13913
▁sold	-9.13913
▁willie	-9.13913
▁nose	-9.13919
▁awful	-9.13921
▁wild	-9.13922
▁amy	-9.13933
▁texas	-9.13999
▁singing	-9.1418
▁van	-9.14283
▁wondering	-9.14448
▁scene	-9.14476
▁reporter	-9.14667
▁hall	-9.14717
th	-9.14756
▁fathers	-9.15224
▁cos	-9.15303
▁co	-9.15334
▁ex	-9.15609
▁cute	-9.15706
ous	-9.15918
▁private	-9.15942
▁mac	-9.16012
▁large	-9.16043
▁cap	-9.16058
▁twenty	-9.16083
▁became	-9.16086
▁breakfast	-9.16086
▁theyd	-9.16086
▁credit	-9.16086
▁teeth	-9.16087
▁jerry	-9.1609
▁jones	-9.16091
▁paco	-9.16095
▁markos	-9.16097
▁summer	-9.1611
▁joey	-9.16131
▁dirty	-9.16134
▁putting	-9.16239
ar	-9.16323
▁surprised	-9.16324
▁figured	-9.16462
▁gives	-9.16539
▁level	-9.16698
▁comrade	-9.16704
▁corner	-9.16723
an	-9.16976
z	-9.17055
▁doctors	-9.17148
it	-9.17657
▁sue	-9.17707
▁teach	-9.1782
▁pro	-9.17847
▁extra	-9.18228
▁lied	-9.18271
▁south	-9.18282
▁pashto	-9.18308
▁takes	-9.18311
▁cleo	-9.18314
▁basement	-9.18318
▁boom	-9.18337
▁faster	-9.18516
▁folks	-9.18542
▁present	-9.18915
ity	-9.19063
▁mothers	-9.19208
ur	-9.19469
▁da	-9.19505
▁note	-9.1958
▁fucker	-9.19734
▁form	-9.19791
▁risk	-9.20104
▁mention	-9.20311
▁played	-9.20379
▁pop	-9.20398
▁fresh	-9.20516
et	-9.20532
el	-9.20542
▁advice	-9.20581
▁bottom	-9.20581
▁especially	-9.20581
▁threw	-9.20581
▁bathroom	-9.20582
▁jimmy	-9.20585
▁travel	-9.20587
▁written	-9.20588
▁devil	-9.2059
▁emily	-9.20592
▁kathy	-9.20612
▁honestly	-9.20771
▁fool	-9.20849
▁agree	-9.21048
▁starts	-9.2111
ish	-9.21132
▁crew	-9.21249
▁kinda	-9.21285
▁sheriff	-9.21298
▁decision	-9.21302
▁ticket	-9.21318
▁legs	-9.21327
▁ship	-9.21343
▁action	-9.21372
ary	-9.22351
▁eating	-9.22487
▁arms	-9.22536
▁staying	-9.22744
▁should	-9.22772
▁total	-9.2278
▁percent	-9.22899
▁dylan	-9.22907
▁neck	-9.22909
▁cancer	-9.22911
▁innocent	-9.22912
▁alma	-9.22915
▁plus	-9.22925
▁center	-9.22958
▁out	-9.23076
▁burned	-9.23233
▁sexy	-9.23275
▁bother	-9.23364
at	-9.23381
▁pressure	-9.23403
▁learned	-9.23492
▁over	-9.23526
▁passed	-9.23563
▁firm	-9.23628
▁falling	-9.2367
▁closed	-9.23797
▁walked	-9.24372
▁draw	-9.24609
▁pack	-9.24615
time	-9.24681
▁suggest	-9.2487
▁pretend	-9.24892
▁rent	-9.24958
▁strange	-9.25222
▁rabbi	-9.25223
▁ruth	-9.25231
▁witness	-9.25241
▁exhales	-9.25288
▁federal	-9.25288
▁laura	-9.25288
▁impossible	-9.25288
▁tongue	-9.25288
▁nope	-9.25288
▁jared	-9.2529
▁local	-9.25292
▁plenty	-9.25293
▁ronit	-9.25297
▁size	-9.25303
▁west	-9.25312
▁cup	-9.25327
▁suit	-9.25336
ting	-9.25512
▁union	-9.25538
▁ro	-9.25549
▁east	-9.2571
▁color	-9.25769
son	-9.25888
▁pig	-9.26062
▁spirit	-9.2609
▁video	-9.26117
▁condition	-9.26275
▁shower	-9.26312
▁older	-9.26325
▁type	-9.26394
▁magic	-9.26905
▁crash	-9.26963
▁access	-9.27128
▁rain	-9.27343
▁build	-9.27352
▁smile	-9.27384
▁letters	-9.27582
▁strength	-9.27696
▁whatd	-9.27703
id	-9.27715
▁clay	-9.27724
▁heaven	-9.27727
▁larry	-9.27727
▁maggie	-9.27727
▁twice	-9.27727
▁taught	-9.27727
▁funeral	-9.27727
▁torture	-9.27728
▁awake	-9.2773
ri	-9.2774
▁willing	-9.2775
▁freak	-9.27751
▁loves	-9.28069
out	-9.28193
▁starting	-9.28404
▁speaks	-9.28432
▁client	-9.28656
▁mission	-9.28725
▁art	-9.29205
▁bell	-9.29224
▁reading	-9.29712
▁spoke	-9.3018
▁difficult	-9.30199
▁apologize	-9.30227
▁pussy	-9.30235
▁mister	-9.30238
▁bread	-9.30239
▁liar	-9.30242
▁simon	-9.30254
▁arrested	-9.3057
▁dis	-9.30575
▁everythings	-9.30761
▁expecting	-9.30821
▁ringing	-9.3089
▁deserve	-9.30978
▁prisoners	-9.31094
▁rule	-9.31194
▁camera	-9.3123
▁pulled	-9.31281
▁huge	-9.31469
▁breaking	-9.31641
▁lee	-9.31645
▁files	-9.31676
to	-9.31876
▁motherfuckers	-9.3188
go	-9.31989
▁cock	-9.3205
▁consider	-9.32376
▁amen	-9.32592
▁command	-9.32649
▁con	-9.32765
▁kirk	-9.32783
▁female	-9.32791
▁gallegos	-9.32791
▁nowhere	-9.32791
▁bigger	-9.32791
▁mitch	-9.32791
▁shame	-9.32792
▁thatll	-9.32792
▁washington	-9.32792
▁whether	-9.32794
▁football	-9.32796
▁danny	-9.32804
▁rid	-9.32812
▁james	-9.32814
▁w	-9.32822
▁main	-9.32877
▁nicky	-9.3309
▁quickly	-9.33116
▁escape	-9.33546
um	-9.33598
▁operation	-9.33773
▁vampire	-9.33836
▁cost	-9.3388
do	-9.34345
▁nah	-9.34357
▁gi	-9.34835
na	-9.35046
▁weak	-9.35131
▁allow	-9.35135
▁so	-9.35202
▁notice	-9.35218
▁sexual	-9.35329
▁due	-9.3542
▁attorney	-9.35422
▁beria	-9.35422
▁grew	-9.35422
▁insane	-9.35423
▁desk	-9.35423
▁heavily	-9.35431
▁grand	-9.35468
▁z	-9.35469
▁pot	-9.35479
▁cheering	-9.35498
▁aw	-9.35527
▁visit	-9.35714
▁guns	-9.36024
▁flying	-9.36119
▁doubt	-9.36131
▁alien	-9.36331
▁wind	-9.36368
▁ghost	-9.364
▁river	-9.36435
▁gift	-9.36459
▁avery	-9.36469
▁lots	-9.36519
line	-9.37278
▁writer	-9.37287
▁everybodys	-9.37386
▁complete	-9.37812
▁doors	-9.37906
▁matt	-9.37906
▁stole	-9.38077
▁bird	-9.38083
▁sugar	-9.38089
▁justice	-9.38125
▁nervous	-9.38125
▁pembroke	-9.38125
▁restaurant	-9.38125
▁shirt	-9.38125
▁morgan	-9.38125
▁whitaker	-9.38125
▁detective	-9.38126
▁beginning	-9.38128
▁famous	-9.38131
▁castle	-9.38136
▁laughter	-9.38138
▁kevin	-9.38141
▁layne	-9.38145
▁numbers	-9.38149
▁sweetie	-9.38188
land	-9.38241
▁yelling	-9.38266
▁hiding	-9.38272
▁o	-9.38276
▁remind	-9.38583
▁fixed	-9.38752
▁el	-9.39098
▁file	-9.39141
▁horn	-9.39153
▁film	-9.39252
▁criminal	-9.39262
▁julie	-9.39278
▁ray	-9.39346
▁pulling	-9.39583
▁cook	-9.40172
ass	-9.40319
▁guards	-9.40489
▁focus	-9.40596
▁final	-9.4068
▁howd	-9.40711
▁raise	-9.40757
▁natural	-9.40772
▁esti	-9.40877
▁freedom	-9.40903
▁ammo	-9.40904
▁committee	-9.40904
▁mmmhmm	-9.40904
▁sophie	-9.40907
▁boring	-9.40935
▁glasses	-9.40967
▁jacket	-9.40983
▁heat	-9.40994
▁naked	-9.41016
▁whimpers	-9.41017
▁invited	-9.41041
▁letting	-9.41199
▁pre	-9.41265
▁jane	-9.41378
▁dry	-9.4138
▁crack	-9.41662
▁self	-9.41983
▁thinks	-9.42056
▁shop	-9.42096
▁chicken	-9.42124
▁gunshot	-9.42132
co	-9.42192
▁following	-9.42199
▁page	-9.42204
▁bottle	-9.42238
▁pa	-9.42367
▁sin	-9.42964
▁career	-9.43115
▁checked	-9.4312
▁i	-9.43318
▁sharp	-9.43398
▁animals	-9.43471
▁settle	-9.43573
▁survive	-9.43576
▁papers	-9.43611
▁showed	-9.43627
▁soft	-9.437
▁aah	-9.43731
▁grandpa	-9.43759
▁awesome	-9.4376
▁violence	-9.4376
▁monday	-9.43761
▁process	-9.43763
▁juice	-9.43764
▁meat	-9.43767
▁sunday	-9.43768
▁abby	-9.43769
▁flat	-9.43769
▁emergency	-9.4377
▁rav	-9.43771
▁common	-9.43779
▁stage	-9.43788
▁manager	-9.43869
▁oneil	-9.43872
▁everyones	-9.43884
▁bleeding	-9.43885
▁cake	-9.43901
▁concerned	-9.43989
▁shine	-9.43991
▁helping	-9.44013
▁forced	-9.44068
▁celebrate	-9.44126
▁remain	-9.44371
▁bloody	-9.44513
▁bear	-9.44706
▁battle	-9.45014
▁whore	-9.45066
▁er	-9.45153
▁dollar	-9.45188
▁rio	-9.45604
ng	-9.45698
▁treat	-9.46
▁bite	-9.4609
▁problems	-9.46104
▁prove	-9.46199
▁release	-9.46514
▁bridge	-9.46655
▁hearing	-9.4669
▁admit	-9.46697
▁afford	-9.46701
▁excellent	-9.46701
▁someplace	-9.46701
▁donnie	-9.46702
▁ripley	-9.46703
▁stock	-9.46704
▁stifler	-9.46705
▁aware	-9.46707
▁practice	-9.46718
▁held	-9.4674
▁kable	-9.46752
▁match	-9.46776
▁bike	-9.46776
▁lake	-9.4678
▁besides	-9.47013
▁whispers	-9.47014
▁nation	-9.47042
▁siren	-9.47184
▁services	-9.47347
ent	-9.47692
rs	-9.47738
▁base	-9.47857
ian	-9.47979
▁subject	-9.4806
▁tree	-9.48105
▁picked	-9.48187
ance	-9.48336
▁heads	-9.48342
▁loser	-9.48437
▁pictures	-9.48445
▁records	-9.48602
▁project	-9.48693
x	-9.48811
ist	-9.49017
▁lift	-9.49021
▁loose	-9.49129
▁bringing	-9.49321
▁appear	-9.49423
led	-9.49449
▁rick	-9.49473
▁sing	-9.49498
▁introduce	-9.49554
▁cards	-9.49565
▁joan	-9.49706
▁split	-9.4971
▁faith	-9.49719
▁purge	-9.49722
▁downstairs	-9.49731
▁dwayne	-9.49731
▁easier	-9.49731
▁progress	-9.49731
▁toilet	-9.49731
▁vietnam	-9.49731
▁neighborhood	-9.49732
▁pardon	-9.49732
▁whoever	-9.49732
▁beauty	-9.49733
▁onto	-9.49734
▁handwriting	-9.49736
▁airport	-9.4974
▁several	-9.49741
▁cameron	-9.49745
▁pool	-9.49748
▁footsteps	-9.49759
▁row	-9.4976
▁butter	-9.49775
▁sky	-9.49777
ter	-9.49834
▁served	-9.49882
▁county	-9.49989
▁bone	-9.50051
▁ness	-9.50053
▁u	-9.50132
▁frances	-9.50202
▁dare	-9.50323
▁seemed	-9.50538
▁breath	-9.50678
▁members	-9.50797
▁target	-9.50869
▁text	-9.50892
▁blues	-9.50933
▁stone	-9.50969
▁boyfriend	-9.51167
▁amount	-9.51185
▁border	-9.512
▁explosion	-9.51233
▁repeat	-9.51246
▁patient	-9.51258
▁character	-9.51696
▁range	-9.52083
▁wash	-9.5214
▁ears	-9.52348
▁wire	-9.52674
em	-9.52682
▁freeze	-9.52805
▁blew	-9.52856
▁excited	-9.52856
▁lockhart	-9.52856
▁opportunity	-9.52856
▁prick	-9.52856
▁otherwise	-9.52856
▁asleep	-9.52857
▁square	-9.52857
▁example	-9.52857
▁harold	-9.52857
▁alarm	-9.52859
▁organization	-9.52861
▁memory	-9.52862
▁slept	-9.52867
▁benny	-9.5287
▁sight	-9.5287
▁immediately	-9.52871
▁runner	-9.52883
▁motherfucking	-9.5291
▁weight	-9.52921
▁dig	-9.5294
▁rings	-9.53178
▁stops	-9.5321
▁keeps	-9.53322
▁closes	-9.53365
▁di	-9.53513
▁ohh	-9.53636
▁harder	-9.53727
ling	-9.53734
▁loan	-9.53965
▁where	-9.53992
▁chain	-9.54198
▁matters	-9.54273
▁holiday	-9.54424
▁value	-9.54451
▁monster	-9.54476
▁claim	-9.54507
ce	-9.54612
▁driver	-9.54735
▁clients	-9.54881
▁sleeping	-9.55147
▁whoo	-9.55511
▁chest	-9.55564
▁hunt	-9.55596
▁rush	-9.55703
▁actual	-9.55964
▁race	-9.5605
▁tax	-9.56067
lng	-9.56067
▁eben	-9.56082
▁empty	-9.56082
▁kincaid	-9.56082
▁language	-9.56082
▁opinion	-9.56082
▁period	-9.56082
▁central	-9.56084
▁basically	-9.56084
▁chocolate	-9.56087
▁beamen	-9.56088
▁mask	-9.56091
▁penis	-9.561
▁freeway	-9.56105
▁trial	-9.56109
▁wet	-9.5611
▁announcer	-9.5611
▁brave	-9.56154
▁arrived	-9.56199
▁prefer	-9.56219
▁dads	-9.56224
▁plans	-9.5625
▁blessed	-9.56339
▁destroyed	-9.56349
▁hat	-9.56401
▁lack	-9.56504
▁bath	-9.56535
▁flowers	-9.56545
▁en	-9.56741
am	-9.57217
▁stars	-9.57487
▁pat	-9.5767
▁article	-9.5774
▁nigger	-9.57741
▁regular	-9.57742
▁angel	-9.57755
▁quarter	-9.57765
▁chick	-9.57778
▁pocket	-9.57804
▁sentence	-9.57804
▁magazine	-9.57808
▁bullet	-9.57825
▁ghosts	-9.58018
▁whip	-9.58111
▁strike	-9.58278
▁laz	-9.58323
gest	-9.58486
▁se	-9.58537
▁officers	-9.58605
ty	-9.59091
▁borrow	-9.59108
▁switch	-9.59113
▁post	-9.59125
▁trade	-9.59248
▁according	-9.59265
▁hung	-9.59311
▁chose	-9.59364
▁alcohol	-9.59384
▁somethin	-9.59388
▁style	-9.5939
▁thirty	-9.5941
os	-9.59415
▁andrew	-9.59415
▁beyond	-9.59415
▁drank	-9.59415
▁leigh	-9.59415
▁stomach	-9.59415
▁vallejo	-9.59415
▁hadnt	-9.59416
▁darlene	-9.59416
▁itd	-9.59416
▁available	-9.59416
▁social	-9.59416
▁navy	-9.59417
▁agency	-9.59418
▁section	-9.59419
▁smoking	-9.5942
▁suicide	-9.59421
▁jerk	-9.59422
▁allen	-9.59429
▁noise	-9.5943
▁confused	-9.59431
▁pge	-9.59433
▁bedroom	-9.59436
▁brad	-9.59517
▁hired	-9.59597
age	-9.59672
▁x	-9.59673
▁pissed	-9.59892
▁shots	-9.59901
▁burning	-9.60022
▁clears	-9.60184
▁dressed	-9.60334
▁mar	-9.60538
▁fan	-9.60608
▁chattering	-9.60664
▁beating	-9.60801
▁bum	-9.60805
▁sat	-9.60862
ts	-9.60863
▁purpose	-9.61216
▁pilot	-9.61237
▁teacher	-9.61389
▁gal	-9.61441
▁songs	-9.61897
▁medic	-9.62178
ma	-9.62398
▁sacrifice	-9.62689
▁regret	-9.6285
▁ganz	-9.62864
▁garbage	-9.62864
▁moustache	-9.62864
▁responsible	-9.62864
▁sunshine	-9.62864
▁feck	-9.62866
▁lucas	-9.62867
▁arthur	-9.62868
▁truly	-9.62879
▁silly	-9.62882
▁translating	-9.62884
▁upon	-9.62893
▁marion	-9.62894
▁incredible	-9.62916
▁coke	-9.62954
▁movies	-9.62961
▁tall	-9.62991
▁created	-9.62996
▁lights	-9.63009
▁tits	-9.63131
▁agreed	-9.63142
▁perfectly	-9.63435
▁murdered	-9.6373
ine	-9.63813
▁hurts	-9.63824
▁knees	-9.63915
▁streets	-9.63934
▁signed	-9.63986
▁talkin	-9.64041
▁si	-9.64181
▁he	-9.64224
▁gul	-9.64607
▁lil	-9.64729
▁grandma	-9.64795
▁shark	-9.6484
▁ave	-9.64919
bo	-9.65174
▁lawyers	-9.65242
▁tape	-9.65258
▁who	-9.65329
▁tear	-9.65396
io	-9.65575
▁fingers	-9.65678
▁pieces	-9.6569
▁screw	-9.657
▁destroy	-9.65739
▁sisters	-9.65801
▁market	-9.66031
▁lies	-9.66087
▁sucks	-9.66242
▁doll	-9.66269
▁cheap	-9.66298
▁claire	-9.66435
▁desert	-9.66435
▁hephaistion	-9.66435
▁kumail	-9.66435
▁saturday	-9.66435
▁twelve	-9.66435
▁william	-9.66435
▁ugly	-9.66435
▁including	-9.66435
▁somehow	-9.66435
▁graham	-9.66436
▁sheep	-9.66436
▁earlier	-9.66437
▁stories	-9.66437
▁kurt	-9.66438
▁vacation	-9.66439
▁mail	-9.6644
▁mummy	-9.66441
▁changing	-9.66444
▁model	-9.6646
▁highway	-9.6646
▁statement	-9.66479
▁mood	-9.6648
▁erin	-9.66501
▁hoping	-9.66512
▁opened	-9.66527
▁swim	-9.6654
▁sofi	-9.66563
▁prepared	-9.66578
▁turns	-9.6665
ne	-9.66807
▁nights	-9.6681
▁nearly	-9.66813
▁wayne	-9.66919
▁higher	-9.6696
▁pounds	-9.66994
▁ma	-9.67119
▁sauce	-9.67125
▁pen	-9.6733
▁towards	-9.67346
▁sand	-9.67478
▁hells	-9.67509
▁ways	-9.67663
▁concern	-9.67764
▁helped	-9.68006
ber	-9.68038
▁product	-9.68059
▁per	-9.68081
▁ms	-9.68162
▁guitar	-9.68435
▁relationship	-9.68436
▁disease	-9.68526
▁leader	-9.68654
▁cars	-9.68752
▁picking	-9.68758
▁ended	-9.68775
▁score	-9.68819
ck	-9.68896
▁hon	-9.69477
▁collect	-9.69563
and	-9.69586
▁bless	-9.69596
ro	-9.6963
▁patch	-9.69643
▁chill	-9.69652
▁tour	-9.69751
▁li	-9.69838
▁serve	-9.69884
▁invite	-9.6996
▁proper	-9.70036
▁add	-9.70077
▁martin	-9.70104
▁success	-9.70107
▁sara	-9.70123
▁gang	-9.70136
▁allison	-9.70139
▁brilliant	-9.70139
▁donna	-9.70139
▁jealous	-9.70139
▁attitude	-9.70139
▁cheese	-9.70139
▁staff	-9.70139
▁whenever	-9.7014
▁francisco	-9.7014
▁piano	-9.7014
▁toast	-9.70141
▁television	-9.70142
▁chuckling	-9.70142
▁permission	-9.70143
▁gaga	-9.70146
▁comfortable	-9.70147
▁harm	-9.70148
▁package	-9.7015
▁linda	-9.70153
▁barely	-9.70166
▁thatd	-9.70175
▁chad	-9.70199
▁beeping	-9.70231
▁cates	-9.70236
▁nasty	-9.70299
▁mo	-9.70331
▁noticed	-9.70405
▁personally	-9.70494
▁realized	-9.70593
▁bitches	-9.7063
▁mass	-9.70691
▁clearly	-9.70835
▁staring	-9.70887
▁smells	-9.70893
▁details	-9.70965
▁clicks	-9.71026
ir	-9.71034
▁knocking	-9.71189
ut	-9.71218
▁opening	-9.713
▁tie	-9.71346
▁selling	-9.71382
▁ends	-9.71427
▁victims	-9.7151
▁woods	-9.71692
▁interest	-9.71696
ta	-9.71843
▁tapes	-9.71845
▁spread	-9.71876
▁scream	-9.72033
▁bones	-9.72099
▁stayed	-9.72121
▁scare	-9.72215
lin	-9.72316
▁abe	-9.72326
▁roger	-9.72335
▁shake	-9.72396
▁gate	-9.72422
ich	-9.72474
▁wood	-9.72832
▁tim	-9.73163
▁bombing	-9.73294
▁study	-9.73613
ship	-9.73647
▁talent	-9.7367
▁disappear	-9.7368
▁brains	-9.73725
▁divorce	-9.73798
▁original	-9.73837
▁speech	-9.73936
▁thomas	-9.73941
▁mmhm	-9.73959
▁among	-9.73967
▁fletcher	-9.73985
▁halloween	-9.73985
▁hooyah	-9.73985
▁janice	-9.73985
▁margaret	-9.73985
▁oclock	-9.73985
▁ridiculous	-9.73985
▁science	-9.73985
▁cocaine	-9.73985
▁argue	-9.73986
▁senate	-9.73986
▁joking	-9.73986
▁finch	-9.73989
▁familiar	-9.73991
▁princess	-9.73993
▁rowan	-9.74001
▁secretary	-9.7401
▁zone	-9.74016
▁terry	-9.74019
▁fake	-9.74032
▁pure	-9.7404
▁suddenly	-9.74053
▁weed	-9.74081
▁farm	-9.74096
▁received	-9.74112
▁former	-9.74143
▁fisher	-9.74203
▁deeply	-9.74276
▁lily	-9.74335
▁closer	-9.74432
▁coughs	-9.74526
as	-9.74755
▁heading	-9.74828
▁points	-9.74873
▁acting	-9.75383
▁fellas	-9.75466
ai	-9.75601
▁interview	-9.76031
▁vehicle	-9.76334
▁nicola	-9.76339
▁pair	-9.76362
▁issue	-9.76366
▁moves	-9.76553
▁tickets	-9.76691
▁swing	-9.76869
▁reports	-9.76877
head	-9.77053
tic	-9.77279
▁coma	-9.77328
the	-9.77381
▁cats	-9.77461
▁limit	-9.777
▁shows	-9.77741
▁recognize	-9.7779
▁headed	-9.77822
▁vote	-9.7793
▁birth	-9.77981
▁families	-9.77985
▁genius	-9.77985
▁literally	-9.77985
▁london	-9.77985
▁ocean	-9.77985
▁pathetic	-9.77985
▁whirring	-9.77985
▁nokes	-9.77985
▁however	-9.77985
▁friday	-9.77986
▁century	-9.77987
▁june	-9.77987
▁duty	-9.77988
▁parry	-9.77989
▁clock	-9.77992
▁property	-9.77992
▁kitty	-9.77992
▁capone	-9.77994
▁up	-9.78001
▁complicated	-9.78002
▁papa	-9.78002
▁positive	-9.78004
▁milk	-9.78004
▁wives	-9.78008
▁fortune	-9.78011
▁july	-9.78023
▁moon	-9.78029
▁sally	-9.78049
▁map	-9.78051
▁protection	-9.78056
▁harlan	-9.78069
▁lana	-9.78074
▁nature	-9.78076
▁designed	-9.78101
▁refuse	-9.78134
▁ruined	-9.78138
▁tower	-9.78141
▁failed	-9.78148
▁based	-9.78251
▁cheers	-9.78488
ah	-9.78597
▁cure	-9.78672
▁feelings	-9.7868
▁kicked	-9.78789
▁sec	-9.78851
▁tip	-9.78875
▁bin	-9.78881
▁egg	-9.78912
ge	-9.79169
▁places	-9.79193
▁charges	-9.79335
▁parking	-9.79439
▁photos	-9.7954
▁eggs	-9.79549
▁covered	-9.79562
▁throwing	-9.79604
by	-9.79614
▁ken	-9.79676
▁hanging	-9.8012
▁button	-9.80161
▁load	-9.80318
▁cares	-9.80338
▁feed	-9.80351
▁cent	-9.80437
▁route	-9.80451
▁runs	-9.80503
▁procedure	-9.80517
▁photo	-9.80563
▁official	-9.80564
▁plant	-9.80609
▁dive	-9.80816
▁dancer	-9.80834
▁assholes	-9.81017
▁pie	-9.81145
ac	-9.81254
▁discuss	-9.81412
▁dump	-9.81415
▁suffer	-9.81462
▁ad	-9.81761
▁porn	-9.81989
▁foreign	-9.82018
▁physical	-9.82025
▁michel	-9.82054
▁hundreds	-9.82075
▁beg	-9.82102
▁abraham	-9.82152
▁anger	-9.82152
▁apparently	-9.82152
▁ashamed	-9.82152
▁clamoring	-9.82152
▁courage	-9.82152
▁defense	-9.82152
▁dovid	-9.82152
▁enemy	-9.82152
▁license	-9.82152
▁majesty	-9.82152
▁necessary	-9.82152
▁possibly	-9.82152
▁understood	-9.82152
▁vodka	-9.82152
▁trigger	-9.82152
▁clinch	-9.82152
▁eddie	-9.82152
▁glory	-9.82153
▁unbelievable	-9.82153
▁yellow	-9.82154
▁sobbing	-9.82154
▁slight	-9.82158
▁horrible	-9.82158
▁rome	-9.82159
▁rare	-9.8216
▁beef	-9.8216
▁poker	-9.82165
▁dropped	-9.82169
▁franklin	-9.82172
▁buttle	-9.82176
▁launch	-9.82179
▁role	-9.82181
▁jill	-9.82182
▁pipe	-9.82187
▁lonely	-9.82199
▁yearold	-9.82209
▁chanting	-9.8221
▁hm	-9.82213
▁buzzing	-9.8224
▁bench	-9.82262
▁approaching	-9.82321
▁barking	-9.82359
ally	-9.8237
▁chase	-9.82403
▁fella	-9.82441
▁wasted	-9.82526
▁golf	-9.82546
▁fuckers	-9.82642
▁expected	-9.82943
ra	-9.83596
▁math	-9.83736
▁voices	-9.83892
nk	-9.83914
▁friendly	-9.84055
▁photograph	-9.84154
▁hook	-9.843
▁sending	-9.84402
▁trick	-9.84412
▁bust	-9.84446
▁sins	-9.845
▁request	-9.84565
▁phones	-9.84633
▁szell	-9.8479
▁mirror	-9.84816
▁connection	-9.84837
▁ar	-9.84868
▁email	-9.8487
▁winner	-9.8487
▁victim	-9.84908
▁plays	-9.85285
▁exist	-9.85461
▁under	-9.85569
▁mi	-9.85712
▁deliver	-9.8606
▁hill	-9.86082
▁rise	-9.86122
house	-9.86227
▁sons	-9.86235
▁require	-9.86311
▁deuce	-9.8635
▁bright	-9.86432
▁village	-9.86492
▁ron	-9.86492
▁corn	-9.86495
ennial	-9.865
▁california	-9.865
▁cleitus	-9.865
▁cristina	-9.865
▁internet	-9.865
▁khrushchev	-9.865
▁luther	-9.865
▁mcdeere	-9.865
▁mullins	-9.865
▁research	-9.865
▁society	-9.865
▁surgery	-9.865
▁valek	-9.865
▁vegas	-9.865
▁conduct	-9.865
▁nicole	-9.865
▁cyrus	-9.865
▁barbara	-9.865
▁flesh	-9.865
▁mexico	-9.865
▁squad	-9.865
▁appointment	-9.86502
▁allyson	-9.86503
▁gear	-9.86503
▁lydia	-9.86504
▁view	-9.86505
▁buried	-9.86506
▁cassie	-9.86514
▁clive	-9.86515
▁cries	-9.86517
▁planning	-9.86521
▁ryan	-9.86527
▁usual	-9.86548
▁pink	-9.86554
▁tiny	-9.86561
▁national	-9.86571
▁grown	-9.86591
▁jackie	-9.86738
ill	-9.86787
▁disappeared	-9.86835
▁raised	-9.86862
▁slowly	-9.86969
▁cases	-9.86969
▁ear	-9.86993
▁attacked	-9.87149
▁balance	-9.87275
▁younger	-9.87285
▁schedule	-9.87467
▁carol	-9.87488
▁hearts	-9.87706
▁bi	-9.87771
la	-9.87962
▁documents	-9.87983
▁of	-9.88095
▁demo	-9.88238
▁sub	-9.88275
▁tears	-9.88495
▁bang	-9.88726
▁vampires	-9.89217
▁to	-9.8924
▁spit	-9.89292
▁album	-9.89293
▁helicopter	-9.89293
▁standard	-9.89332
▁jean	-9.89391
▁debt	-9.89408
▁snake	-9.89409
▁member	-9.89449
▁beth	-9.8953
▁pm	-9.89589
▁hurting	-9.90101
ia	-9.90117
▁smash	-9.9031
▁perform	-9.9032
il	-9.90376
▁mix	-9.90724
▁bills	-9.90729
▁trash	-9.90733
▁provide	-9.90775
mo	-9.90782
▁messages	-9.90891
▁orders	-9.90892
▁rough	-9.9091
▁ideas	-9.90922
▁regard	-9.9101
▁silver	-9.9101
▁alpha	-9.91043
▁chelsea	-9.91045
▁elevator	-9.91045
▁fabulous	-9.91045
▁fantastic	-9.91045
▁illegal	-9.91045
▁kovic	-9.91045
▁library	-9.91045
▁neiman	-9.91045
▁patricia	-9.91045
▁weather	-9.91045
▁wednesday	-9.91045
▁yunger	-9.91045
▁community	-9.91046
▁garden	-9.91046
▁insurance	-9.91046
▁lexi	-9.91046
▁studio	-9.91046
▁chapter	-9.91051
▁deputy	-9.91055
▁mental	-9.91057
▁philip	-9.91058
▁began	-9.91058
▁harper	-9.91075
▁whyd	-9.91093
▁recently	-9.91096
▁rex	-9.91106
▁oil	-9.91107
▁stolen	-9.9113
▁christie	-9.91185
▁louise	-9.91203
▁reality	-9.91234
▁ate	-9.91251
▁clicking	-9.91303
▁rep	-9.915
▁lll	-9.91527
▁shouts	-9.91691
▁bat	-9.91852
ier	-9.91918
▁enjoying	-9.92063
▁yells	-9.92069
▁mis	-9.92126
▁stan	-9.92127
▁mum	-9.92197
▁machines	-9.92581
▁closet	-9.92666
▁hardly	-9.92825
▁bags	-9.93187
▁bullets	-9.9328
azz	-9.93337
▁pump	-9.93365
▁moms	-9.93586
▁term	-9.9368
▁aliens	-9.9382
▁document	-9.93861
loans	-9.94149
▁traffic	-9.94166
▁greek	-9.94182
▁sometime	-9.94233
▁manage	-9.94338
ure	-9.94488
▁thoughts	-9.94496
▁nail	-9.94526
▁snap	-9.94821
▁triple	-9.9488
▁path	-9.95005
▁cheat	-9.95117
ol	-9.95372
▁mistakes	-9.95419
▁partners	-9.95571
▁dust	-9.95658
▁turning	-9.95777
▁pride	-9.95794
▁activity	-9.95807
▁bloom	-9.95807
▁borras	-9.95807
▁district	-9.95807
▁dungeon	-9.95807
▁georgy	-9.95807
▁luke	-9.95807
▁pizza	-9.95807
▁simply	-9.95807
▁wherever	-9.95807
▁drove	-9.95807
▁laurie	-9.95807
▁presence	-9.95807
▁steady	-9.95807
▁powder	-9.95807
▁stood	-9.95807
▁miami	-9.95808
▁authorities	-9.95808
▁firing	-9.95809
▁finding	-9.95813
▁smith	-9.95813
▁assistant	-9.95813
▁wack	-9.95814
▁extreme	-9.95815
▁boz	-9.95817
▁cunt	-9.95817
▁alice	-9.95823
▁peterson	-9.95844
▁whimpering	-9.95854
▁penny	-9.95859
▁lowry	-9.95863
▁trapped	-9.95863
▁trailer	-9.95869
▁duel	-9.95886
▁gim	-9.95888
▁exchange	-9.95913
▁badge	-9.95935
▁windows	-9.95955
▁bay	-9.95962
▁tt	-9.95969
▁bobi	-9.95973
▁moaning	-9.95999
▁johnson	-9.96
▁eva	-9.96177
▁screwed	-9.96207
▁pin	-9.96218
▁treated	-9.96294
▁tires	-9.96316
▁lips	-9.96319
ig	-9.96346
ism	-9.96352
▁slaves	-9.96408
▁carefully	-9.96545
▁offered	-9.96684
▁highly	-9.96788
▁computers	-9.96962
▁hardt	-9.96972
les	-9.9721
▁dean	-9.97289
▁parts	-9.97392
▁units	-9.97514
▁rude	-9.97548
▁lo	-9.97689
▁ri	-9.97723
▁touched	-9.97949
▁sharks	-9.97993
▁rat	-9.98666
▁badly	-9.98739
▁print	-9.98801
▁create	-9.98908
▁ana	-9.98913
▁motor	-9.99059
▁island	-9.99093
▁brown	-9.99098
▁nurse	-9.99121
▁location	-9.99122
▁bud	-9.99151
▁fellow	-9.99151
▁interrogation	-9.99171
▁carli	-9.99172
▁option	-9.99182
▁plate	-9.99332
▁pe	-9.99559
▁indian	-9.99581
▁prisoner	-9.99716
▁changes	-9.99852
lo	-9.99856
▁enter	-10.0019
▁counsel	-10.0035
▁weekends	-10.004
ee	-10.0046
▁discover	-10.0051
▁reasons	-10.0053
▁advise	-10.0061
▁prepare	-10.0062
▁remove	-10.0063
▁health	-10.0067
▁particular	-10.0067
▁drag	-10.0073
▁meaning	-10.0074
ard	-10.0075
▁waited	-10.0077
▁gettin	-10.0078
▁secrets	-10.008
▁accent	-10.0081
▁although	-10.0081
▁amelia	-10.0081
▁enemies	-10.0081
▁eventually	-10.0081
▁slim	-10.0081
▁smooth	-10.0081
▁mostly	-10.0081
▁scusa	-10.0081
▁behalf	-10.0081
▁cherry	-10.0081
▁flew	-10.0081
▁italian	-10.0081
▁jordan	-10.0081
▁hoffman	-10.0081
▁saving	-10.0081
▁decent	-10.0081
▁harry	-10.0081
▁baseball	-10.0081
▁telephone	-10.0081
▁atlanta	-10.0082
▁moron	-10.0082
▁japanese	-10.0082
▁edge	-10.0083
▁media	-10.0083
▁treatment	-10.0083
▁dating	-10.0084
▁forty	-10.0084
▁background	-10.0086
▁err	-10.0087
▁bout	-10.0087
▁barry	-10.0088
▁shape	-10.0091
▁clark	-10.0103
▁warning	-10.0103
▁scoffs	-10.011
▁provided	-10.0113
der	-10.0116
▁anne	-10.0121
▁comedy	-10.0125
▁suffering	-10.0127
de	-10.0128
▁mentioned	-10.0147
▁quietly	-10.0151
▁tells	-10.0154
ability	-10.0162
▁lower	-10.0162
▁minds	-10.0172
▁growing	-10.0177
im	-10.0181
oo	-10.0223
▁odds	-10.0235
ha	-10.0271
▁recording	-10.0284
▁mid	-10.033
▁patients	-10.0344
om	-10.0345
▁drinks	-10.0347
▁sides	-10.0349
▁leaves	-10.0359
alam	-10.0366
▁flag	-10.0381
▁knee	-10.0411
▁belong	-10.0414
▁bo	-10.0426
▁answers	-10.0427
▁expert	-10.0431
▁season	-10.0434
▁grandmother	-10.0436
▁steak	-10.044
▁signs	-10.0443
▁student	-10.0446
▁odd	-10.0447
▁wh	-10.047
▁med	-10.049
way	-10.0515
▁pi	-10.0529
▁defend	-10.0533
▁wave	-10.0538
▁do	-10.0558
▁sh	-10.0565
▁walls	-10.0571
▁crush	-10.0576
▁twist	-10.0576
▁shock	-10.0577
▁severe	-10.0591
▁creep	-10.0593
▁guilt	-10.0593
per	-10.0593
boy	-10.0596
▁bull	-10.0601
▁pakistan	-10.0603
▁custody	-10.0607
▁dallas	-10.0607
▁describe	-10.0607
▁graeme	-10.0607
▁infection	-10.0607
▁lindsey	-10.0607
▁mccormack	-10.0607
▁nightmare	-10.0607
▁oskar	-10.0607
▁paradise	-10.0607
▁revenge	-10.0607
▁reynolds	-10.0607
▁slide	-10.0607
▁thursday	-10.0607
▁woodcock	-10.0607
▁woz	-10.0607
▁larson	-10.0607
▁therapist	-10.0607
▁swimming	-10.0607
▁warrant	-10.0607
▁booze	-10.0607
▁blanc	-10.0607
▁intelligence	-10.0607
▁expensive	-10.0607
▁steel	-10.0607
▁memories	-10.0607
▁marcus	-10.0607
▁raw	-10.0607
▁zeus	-10.0607
▁fought	-10.0607
▁sneak	-10.0607
▁padre	-10.0608
▁fancy	-10.0608
▁negative	-10.0608
▁jury	-10.0609
▁quarterback	-10.0609
▁planned	-10.0609
▁loving	-10.061
▁satan	-10.061
▁babylon	-10.061
▁error	-10.061
▁snow	-10.0611
▁meal	-10.0611
▁review	-10.0612
▁wallet	-10.0612
▁safety	-10.0612
▁waitress	-10.0613
▁mercy	-10.0614
▁proof	-10.0616
▁nest	-10.0621
▁creepy	-10.0621
▁laid	-10.0622
▁healthy	-10.0623
▁pickup	-10.0624
▁coughing	-10.0625
▁dope	-10.063
▁signal	-10.0635
▁bowl	-10.0636
▁discovered	-10.0639
▁jam	-10.0644
▁dumped	-10.0645
▁sobs	-10.0647
ize	-10.065
▁chin	-10.0654
▁carrie	-10.066
▁pills	-10.0673
▁jackal	-10.068
▁slayers	-10.0682
▁beers	-10.0695
▁mustve	-10.0698
▁showing	-10.0729
red	-10.0733
▁strip	-10.0747
▁loss	-10.075
▁lately	-10.0754
▁fate	-10.0754
▁terrorists	-10.0761
▁daughters	-10.0777
me	-10.0794
ious	-10.0814
▁led	-10.0827
ton	-10.0911
▁bottles	-10.0912
▁lou	-10.0934
men	-10.0937
▁costs	-10.0942
▁le	-10.0956
▁pigs	-10.0963
▁material	-10.0987
▁doughnut	-10.0991
▁cousin	-10.0995
▁ja	-10.0996
bi	-10.0996
ities	-10.0998
▁cigarette	-10.1001
▁terrorist	-10.1003
▁yard	-10.1004
▁toe	-10.1011
▁farmer	-10.1016
▁lesson	-10.102
▁shoulder	-10.1021
▁dealing	-10.1032
▁murderer	-10.1038
▁rev	-10.1042
▁ski	-10.105
one	-10.1067
▁vision	-10.107
▁holes	-10.1074
▁link	-10.109
be	-10.1093
▁engines	-10.1109
▁rosa	-10.1113
▁sink	-10.1123
just	-10.1139
▁gut	-10.1139
▁separate	-10.1142
▁cancel	-10.1143
you	-10.1145
▁und	-10.1152
▁muff	-10.1152
day	-10.1153
▁express	-10.1157
di	-10.1157
▁sail	-10.116
▁psycho	-10.1162
▁bamb	-10.1162
▁checking	-10.1162
▁andand	-10.1163
▁angie	-10.1163
▁bravo	-10.1163
▁corporate	-10.1163
▁exciting	-10.1163
▁modern	-10.1163
▁reggie	-10.1163
▁slut	-10.1163
▁southjet	-10.1163
▁svetlana	-10.1163
▁tragedy	-10.1163
▁uniform	-10.1163
▁graysmith	-10.1163
▁trauma	-10.1163
▁susie	-10.1163
▁jodie	-10.1163
▁cadence	-10.1163
▁silence	-10.1163
▁alert	-10.1163
▁valley	-10.1163
▁wilson	-10.1163
▁kidnapped	-10.1163
while	-10.1163
▁closing	-10.1163
▁lras	-10.1163
▁combat	-10.1163
▁motion	-10.1163
▁wikus	-10.1163
▁flash	-10.1163
▁aboard	-10.1164
▁energy	-10.1164
▁kansas	-10.1164
▁sack	-10.1165
▁touchdown	-10.1165
▁rae	-10.1166
▁cage	-10.1166
▁warden	-10.1166
▁benway	-10.1166
▁trap	-10.1166
▁darkness	-10.1167
▁knowing	-10.1168
▁counselor	-10.1169
▁airline	-10.1169
▁witnesses	-10.1174
▁setting	-10.1175
▁diego	-10.1178
▁knowledge	-10.118
▁arse	-10.1181
▁hire	-10.1185
▁sniffs	-10.1196
▁beard	-10.1199
▁managed	-10.1207
▁las	-10.1208
▁banging	-10.121
▁depends	-10.1215
▁timing	-10.1218
▁gloves	-10.1223
▁event	-10.1224
ted	-10.1227
▁pub	-10.1234
▁filled	-10.1246
▁pr	-10.1247
▁riding	-10.1248
▁ba	-10.1251
ized	-10.1261
ba	-10.1268
▁connect	-10.1272
▁reached	-10.1282
▁wipe	-10.1314
▁ni	-10.1321
▁backup	-10.1337
ler	-10.1343
▁johner	-10.135
▁reported	-10.1352
▁falls	-10.1372
▁inter	-10.1384
▁grave	-10.1396
▁shakes	-10.1401
▁steps	-10.1453
ite	-10.1471
▁buying	-10.1473
▁hug	-10.1482
▁touching	-10.1485
▁pages	-10.1486
he	-10.1513
cha	-10.1533
▁wound	-10.1553
tion	-10.1556
▁ambulance	-10.1575
▁nerve	-10.1582
▁beast	-10.1583
▁tank	-10.1585
▁burger	-10.1585
▁marine	-10.1586
▁defendant	-10.1587
▁degree	-10.1589
▁neighbor	-10.1589
▁artist	-10.1589
▁believed	-10.159
▁christian	-10.1591
▁tune	-10.1592
▁kings	-10.1643
li	-10.1657
▁los	-10.1668
ial	-10.1669
▁lookin	-10.1678
▁sweat	-10.1684
▁receive	-10.1702
▁march	-10.1702
off	-10.1707
▁flow	-10.1724
▁advance	-10.1729
▁acknowledge	-10.1733
ad	-10.1735
▁spin	-10.1741
▁souls	-10.1742
▁asia	-10.1743
▁contest	-10.1744
▁woke	-10.1745
▁sandwich	-10.1746
▁faces	-10.1749
▁stab	-10.1749
▁homosexual	-10.175
▁behavior	-10.1751
▁benefit	-10.1751
▁ceiling	-10.1751
▁dozen	-10.1751
▁dukhovich	-10.1751
▁ferguson	-10.1751
▁gretta	-10.1751
▁irene	-10.1751
▁lazarus	-10.1751
▁maintain	-10.1751
▁moscow	-10.1751
▁random	-10.1751
▁senior	-10.1751
▁taylor	-10.1751
▁traitor	-10.1751
▁whistling	-10.1751
▁boston	-10.1751
▁proceed	-10.1751
▁romesha	-10.1751
▁advantage	-10.1751
▁douglas	-10.1751
▁false	-10.1751
▁frawley	-10.1751
▁whiskey	-10.1751
▁cried	-10.1751
▁sherwood	-10.1751
▁polite	-10.1751
▁trunk	-10.1751
▁midnight	-10.1751
▁moonlight	-10.1751
▁zoil	-10.1751
▁fadela	-10.1751
▁cowboy	-10.1751
▁babies	-10.1751
▁failure	-10.1751
▁interzone	-10.1751
▁rope	-10.1751
▁incident	-10.1751
▁stella	-10.1751
▁scratch	-10.1752
▁tuttle	-10.1752
▁edward	-10.1752
▁roof	-10.1752
▁alley	-10.1752
▁secure	-10.1752
▁coward	-10.1752
▁medicine	-10.1752
▁practically	-10.1752
▁paperwork	-10.1752
▁handsome	-10.1752
▁peyton	-10.1753
▁label	-10.1753
▁intend	-10.1753
▁santa	-10.1753
▁data	-10.1753
▁financial	-10.1753
▁fifty	-10.1753
▁hush	-10.1753
▁candy	-10.1754
▁responsibility	-10.1754
▁therapy	-10.1754
▁reaction	-10.1754
▁creaking	-10.1754
▁impression	-10.1755
▁drill	-10.1755
▁steam	-10.1755
▁winning	-10.1755
▁commissioner	-10.1756
▁jenny	-10.1757
▁fruit	-10.1757
▁storm	-10.1757
▁spring	-10.1759
▁stopping	-10.1759
▁wise	-10.1759
▁germany	-10.176
▁salt	-10.1762
▁jamie	-10.1764
▁birds	-10.1765
▁subtitles	-10.1766
▁net	-10.1766
▁nancy	-10.1768
▁emotional	-10.1769
▁physically	-10.1769
▁properly	-10.1772
▁latest	-10.1773
▁houses	-10.1774
▁louder	-10.178
▁pimp	-10.1781
▁wide	-10.1782
▁movement	-10.1787
un	-10.1788
▁pit	-10.179
▁stronger	-10.1797
▁be	-10.1804
▁rig	-10.1813
sa	-10.1819
▁cooking	-10.1833
▁jt	-10.1834
▁planet	-10.1835
▁rooms	-10.1836
▁gosh	-10.1839
▁drawing	-10.1847
▁mel	-10.1897
▁goodness	-10.1899
▁slice	-10.19
▁demon	-10.1901
▁kicking	-10.1905
gu	-10.1906
art	-10.1909
▁feelin	-10.191
▁soldiers	-10.1924
ern	-10.1927
▁lev	-10.1942
▁answered	-10.1944
ries	-10.196
ake	-10.1964
ina	-10.1971
▁punch	-10.1973
▁drives	-10.1976
▁ordered	-10.198
▁lines	-10.1984
▁hated	-10.1989
▁ld	-10.1992
▁nicolas	-10.1994
ile	-10.2022
ley	-10.2034
▁cleaning	-10.2054
▁commit	-10.208
▁remains	-10.2086
ez	-10.2094
▁classic	-10.2095
▁confirm	-10.2166
▁demand	-10.217
▁all	-10.218
▁contract	-10.2197
▁league	-10.22
▁faggot	-10.2204
▁effect	-10.2207
▁mountain	-10.2213
▁toward	-10.2217
▁burns	-10.2218
▁professional	-10.2226
op	-10.2228
▁mile	-10.2239
work	-10.2295
▁paint	-10.2297
▁asses	-10.2298
▁tuck	-10.2326
ow	-10.2331
mer	-10.2332
▁aunt	-10.2337
▁swallow	-10.2343
ps	-10.2346
▁bastards	-10.2347
▁stu	-10.2347
▁clue	-10.2353
▁abuse	-10.2356
▁dirt	-10.2362
▁obvious	-10.2363
▁rapid	-10.2363
▁chris	-10.2366
▁bunk	-10.2368
▁irish	-10.2372
▁announce	-10.2372
▁gross	-10.2373
▁dancin	-10.2374
▁superior	-10.2375
▁virgin	-10.2375
▁alison	-10.2376
▁audience	-10.2376
▁candidate	-10.2376
▁dawn	-10.2376
▁explosiveskull	-10.2376
▁facility	-10.2376
▁gorgeous	-10.2376
▁harvard	-10.2376
▁injured	-10.2376
▁intel	-10.2376
▁ludlow	-10.2376
▁malenkov	-10.2376
▁neena	-10.2376
▁nonsense	-10.2376
▁oath	-10.2376
▁parmenion	-10.2376
▁popular	-10.2376
▁professor	-10.2376
▁retrieval	-10.2376
▁suspicious	-10.2376
▁desmond	-10.2376
▁jeannie	-10.2376
▁uneas	-10.2376
▁headaches	-10.2376
▁ransom	-10.2376
▁hawkins	-10.2376
▁someday	-10.2376
▁ellen	-10.2376
▁clever	-10.2376
▁becoming	-10.2376
▁helpmann	-10.2376
▁flashlight	-10.2376
▁current	-10.2376
▁kidnapping	-10.2376
▁craig	-10.2376
▁transport	-10.2376
razie	-10.2376
▁grail	-10.2376
▁insist	-10.2376
▁bride	-10.2376
▁device	-10.2377
▁marshall	-10.2377
▁flea	-10.2377
▁species	-10.2377
▁passport	-10.2377
▁response	-10.2377
▁haul	-10.2378
▁bert	-10.2378
▁exercise	-10.2379
▁filthy	-10.2379
▁plain	-10.2379
▁unfortunately	-10.238
▁madness	-10.2381
▁betty	-10.2381
▁johnny	-10.2381
▁mobile	-10.2381
▁exit	-10.2383
▁ugh	-10.2384
▁doo	-10.2385
▁taxes	-10.2385
▁bored	-10.2386
▁cutting	-10.2388
▁committed	-10.2389
▁china	-10.2391
▁active	-10.2391
▁circumstances	-10.2392
▁when	-10.2392
▁spoken	-10.2394
▁trains	-10.2395
▁sean	-10.2396
▁delivery	-10.2397
▁embarrassing	-10.2397
▁russians	-10.2397
▁lab	-10.2398
▁cave	-10.24
▁removed	-10.2402
▁fee	-10.2404
ka	-10.2406
▁wounded	-10.2408
▁released	-10.2416
▁lifetime	-10.2416
▁pile	-10.2417
▁transfer	-10.2419
▁victory	-10.2422
▁tap	-10.2434
▁joint	-10.245
▁gu	-10.245
▁image	-10.2455
▁starks	-10.2456
▁drawer	-10.246
▁armed	-10.2479
▁ph	-10.2485
▁lend	-10.2486
▁dolphins	-10.2487
▁sports	-10.2497
▁trained	-10.2501
j	-10.251
▁speakers	-10.2514
▁sales	-10.2515
▁pushing	-10.2523
▁panic	-10.2527
▁messing	-10.2544
▁pee	-10.2562
▁spending	-10.257
▁students	-10.2572
sh	-10.2576
▁pu	-10.2577
▁rolling	-10.2581
▁tone	-10.2582
▁murders	-10.2584
cy	-10.2592
▁seats	-10.2596
▁non	-10.2598
▁resist	-10.26
▁mu	-10.2604
▁events	-10.2607
▁cells	-10.2621
▁bend	-10.2657
▁hu	-10.2683
▁magazines	-10.2689
ions	-10.2698
▁monsters	-10.27
▁kills	-10.2712
▁understanding	-10.2725
▁shove	-10.2739
▁menu	-10.2762
ot	-10.2766
da	-10.2774
▁organ	-10.2796
▁cocks	-10.2797
▁shift	-10.2816
▁moral	-10.2828
▁notes	-10.2838
▁click	-10.2845
▁butt	-10.286
▁mexican	-10.2866
ving	-10.2866
▁creature	-10.287
▁tuesday	-10.2873
▁monkey	-10.2873
▁instrument	-10.2875
▁olympic	-10.2876
▁bond	-10.2882
▁belt	-10.2885
che	-10.2922
▁forces	-10.2927
▁watched	-10.2928
▁stands	-10.295
▁bow	-10.296
▁faint	-10.2994
▁marks	-10.3001
▁lick	-10.3003
▁auto	-10.3003
▁screech	-10.3004
▁moments	-10.3004
▁fart	-10.3006
ball	-10.3008
▁attempt	-10.301
▁poison	-10.301
▁dealer	-10.3011
▁su	-10.3017
woman	-10.3018
▁guarantee	-10.3021
▁louis	-10.3021
▁curse	-10.3023
▁assume	-10.3023
▁multipl	-10.3026
ring	-10.3029
▁exact	-10.303
▁incredibl	-10.3032
▁produce	-10.3037
▁mornin	-10.304
▁dial	-10.3041
▁pitch	-10.3042
▁confident	-10.3042
▁favour	-10.3042
▁despi	-10.3042
▁punk	-10.3042
▁jeff	-10.3042
▁comin	-10.3042
▁appeal	-10.3042
▁challenge	-10.3042
▁charlotte	-10.3042
▁clarissa	-10.3042
▁claude	-10.3042
▁coincidence	-10.3042
▁confidence	-10.3042
▁cynthia	-10.3042
▁cyril	-10.3042
▁darrell	-10.3042
▁elijah	-10.3042
▁equipment	-10.3042
▁executive	-10.3042
▁fridge	-10.3042
▁frozen	-10.3042
▁gasoline	-10.3042
▁glenn	-10.3042
▁grendel	-10.3042
▁heinrich	-10.3042
▁initial	-10.3042
▁knives	-10.3042
▁liquor	-10.3042
▁melvin	-10.3042
▁ntsb	-10.3042
▁perimeter	-10.3042
▁political	-10.3042
▁potential	-10.3042
▁rehearsal	-10.3042
▁sarge	-10.3042
▁byebye	-10.3042
▁lewis	-10.3042
▁plastic	-10.3042
▁similar	-10.3042
▁chromium	-10.3042
▁indictment	-10.3043
▁blaring	-10.3043
▁motorcycle	-10.3043
▁adult	-10.3043
▁chinese	-10.3043
▁cube	-10.3043
▁ksm	-10.3043
▁timmy	-10.3043
▁kiki	-10.3043
▁shopping	-10.3043
▁therell	-10.3043
▁industry	-10.3043
▁university	-10.3043
▁greg	-10.3043
▁forgotten	-10.3043
▁status	-10.3043
▁couch	-10.3043
▁violet	-10.3043
▁roussel	-10.3043
▁fence	-10.3044
▁clayton	-10.3044
▁lena	-10.3044
▁duck	-10.3044
▁villagers	-10.3044
▁grass	-10.3044
▁inspector	-10.3045
▁possibility	-10.3045
▁tempo	-10.3046
con	-10.3046
▁lucy	-10.3046
▁agreement	-10.3046
▁joe	-10.3047
▁wray	-10.3047
▁forgiveness	-10.3047
▁roaring	-10.3049
▁persian	-10.305
▁soak	-10.305
▁stable	-10.305
▁growling	-10.3051
▁murphy	-10.3051
▁powerful	-10.3051
▁danger	-10.3052
▁inch	-10.3052
▁scary	-10.3053
▁engaged	-10.3053
▁site	-10.3054
▁authorized	-10.3054
▁joy	-10.3054
▁disgusting	-10.3057
▁fallen	-10.3058
▁whispering	-10.306
▁hitting	-10.306
▁fourth	-10.3063
▁jackson	-10.3065
▁its	-10.3068
▁direct	-10.307
▁squealing	-10.307
▁thankyou	-10.3072
▁highest	-10.3073
▁meters	-10.3074
▁naturally	-10.3075
▁divorced	-10.3075
▁confirmed	-10.3076
▁thrown	-10.3079
▁eaten	-10.3081
▁stoned	-10.3084
▁survived	-10.3088
▁metal	-10.3089
▁stress	-10.309
▁loaded	-10.3092
▁singer	-10.3092
▁cheating	-10.3097
▁shitty	-10.3103
▁rip	-10.3104
▁tied	-10.3106
▁hunting	-10.3123
▁replace	-10.3124
▁freaked	-10.3126
▁considering	-10.3144
▁landed	-10.3155
▁fishing	-10.3174
▁laying	-10.3187
▁walks	-10.3194
▁knocked	-10.3195
▁oi	-10.3207
▁neighbors	-10.323
▁tanks	-10.323
▁guts	-10.3235
▁cigarettes	-10.3241
ned	-10.3241
▁chances	-10.3245
▁kissed	-10.325
▁prints	-10.3264
▁bush	-10.3281
▁lover	-10.3291
▁fund	-10.3294
▁passing	-10.3294
▁worlds	-10.3296
▁officials	-10.3309
ita	-10.3323
its	-10.3327
▁gates	-10.3332
▁slip	-10.3386
▁she	-10.3394
▁waiter	-10.3423
▁fighter	-10.3425
ate	-10.3446
▁suits	-10.3509
▁cal	-10.351
▁yell	-10.3525
▁actions	-10.353
▁dai	-10.3545
▁detail	-10.3562
▁va	-10.3563
▁damage	-10.3569
▁arrive	-10.3573
▁version	-10.3581
▁taliban	-10.3585
▁rate	-10.3585
▁desire	-10.3587
▁arrangement	-10.3588
▁cow	-10.359
▁towel	-10.359
▁miracle	-10.3591
▁wheel	-10.3592
▁result	-10.3593
▁blade	-10.3593
▁award	-10.3594
back	-10.3604
▁diet	-10.3609
▁rabbit	-10.3611
▁coat	-10.3615
her	-10.3632
lie	-10.3635
hu	-10.364
ell	-10.3648
▁deposit	-10.3661
of	-10.3677
▁gain	-10.3682
▁me	-10.3686
▁fail	-10.3686
▁rap	-10.3702
▁respond	-10.3711
shit	-10.3736
▁effective	-10.3744
▁sudden	-10.3744
▁trail	-10.3748
▁inhale	-10.3751
▁sale	-10.3751
▁fold	-10.3754
▁julia	-10.3754
▁confession	-10.3754
▁memo	-10.3756
▁bound	-10.3756
▁stamm	-10.3757
▁represent	-10.3757
▁ambassador	-10.3757
▁argument	-10.3757
▁barbecue	-10.3757
▁becker	-10.3757
▁boomboom	-10.3757
▁chrisann	-10.3757
▁elgyn	-10.3757
▁grenade	-10.3757
▁herakles	-10.3757
▁hertzfeld	-10.3757
▁hinkley	-10.3757
▁income	-10.3757
▁isabella	-10.3757
▁lutz	-10.3757
▁measure	-10.3757
▁mechanic	-10.3757
▁molotov	-10.3757
▁prevent	-10.3757
▁rhythm	-10.3757
▁routine	-10.3757
▁sculley	-10.3757
▁struggle	-10.3757
▁terrific	-10.3757
▁vasily	-10.3757
▁watts	-10.3757
▁wolf	-10.3757
▁zubaydah	-10.3757
▁stairs	-10.3757
▁toschi	-10.3757
▁recipe	-10.3757
▁selva	-10.3757
▁remote	-10.3757
▁opposite	-10.3757
▁outfit	-10.3757
▁underground	-10.3757
▁olga	-10.3757
▁worship	-10.3757
▁cubs	-10.3757
▁silent	-10.3757
▁survival	-10.3757
▁babysitter	-10.3757
▁poetry	-10.3757
▁curious	-10.3757
▁durant	-10.3757
▁garage	-10.3757
▁enforcement	-10.3757
▁favourite	-10.3757
▁virus	-10.3757
▁keating	-10.3757
▁capital	-10.3757
▁elwood	-10.3757
▁messiah	-10.3757
▁palace	-10.3758
▁testify	-10.3758
▁reverse	-10.3758
▁bishop	-10.3758
▁wreck	-10.3758
▁fuel	-10.3758
▁circle	-10.3758
▁aside	-10.3758
▁intense	-10.3758
▁barrel	-10.3758
▁royal	-10.3758
▁katie	-10.3759
▁colin	-10.3759
▁blanket	-10.3759
▁bonus	-10.3759
▁dora	-10.3759
▁wore	-10.3759
▁laden	-10.376
▁thirsty	-10.376
▁stream	-10.3761
▁limp	-10.3761
▁policy	-10.3762
▁personality	-10.3762
▁shore	-10.3763
▁battery	-10.3764
▁lola	-10.3764
▁samson	-10.3767
▁rape	-10.3769
▁sword	-10.3769
▁handling	-10.3769
▁core	-10.3771
▁sonia	-10.3772
▁off	-10.3772
▁thee	-10.3776
▁eve	-10.3777
▁shy	-10.3777
▁boxes	-10.3779
▁taxi	-10.378
▁finale	-10.3784
▁pity	-10.3784
▁brit	-10.3787
ware	-10.3788
▁ham	-10.3791
▁cue	-10.3791
▁closest	-10.3796
▁joker	-10.3798
▁darts	-10.3799
▁bombs	-10.38
▁steven	-10.3801
▁filed	-10.3808
▁kat	-10.3808
▁escaped	-10.381
▁normally	-10.3813
▁entirely	-10.3819
▁washed	-10.3827
▁blessing	-10.3832
▁techniques	-10.3836
▁anti	-10.3846
▁strings	-10.3848
ped	-10.3852
▁groups	-10.3863
▁yay	-10.3864
▁returned	-10.3871
▁freaking	-10.3871
▁tested	-10.3876
▁para	-10.3878
▁teaching	-10.3884
▁drums	-10.3885
▁spells	-10.3897
▁parker	-10.3905
ium	-10.3905
▁tend	-10.3928
▁fully	-10.3928
ga	-10.3932
▁shutter	-10.3937
▁acted	-10.3967
▁bon	-10.4005
▁terms	-10.4007
▁cooperate	-10.4021
▁pet	-10.4022
▁followed	-10.4031
▁tricks	-10.4033
▁fe	-10.4046
ding	-10.4089
▁dreaming	-10.4105
▁thin	-10.4116
▁angels	-10.4118
▁pockets	-10.4119
br	-10.4121
▁trusted	-10.4137
ors	-10.4158
tle	-10.416
▁ca	-10.416
▁pays	-10.4167
▁mud	-10.4185
▁ahh	-10.4199
ose	-10.4205
▁no	-10.4209
▁cameras	-10.423
ya	-10.4236
end	-10.4256
▁carly	-10.4277
▁husbands	-10.4278
▁decisions	-10.428
▁comrades	-10.4304
▁rag	-10.4305
▁americans	-10.4311
▁bark	-10.4312
▁leak	-10.4324
▁chop	-10.4326
▁permit	-10.4327
▁ruin	-10.4329
▁the	-10.4331
▁admire	-10.4341
▁patrol	-10.4345
▁ti	-10.4348
▁ankle	-10.4349
▁stake	-10.435
▁bug	-10.4352
▁channel	-10.4354
▁threat	-10.4355
▁prawn	-10.4356
▁fits	-10.4357
▁terror	-10.4359
▁stink	-10.4364
▁guest	-10.4366
cat	-10.4376
▁hunter	-10.4379
▁payment	-10.4384
▁suspects	-10.4392
▁aid	-10.4405
▁bets	-10.4416
▁pan	-10.4417
▁boot	-10.4418
▁mans	-10.4436
▁flu	-10.4449
▁insult	-10.4451
▁dec	-10.4452
▁aim	-10.4455
au	-10.4465
▁fa	-10.4476
▁sa	-10.4479
▁junk	-10.4481
▁comfort	-10.4483
▁counts	-10.4485
▁convict	-10.4488
board	-10.4493
▁contain	-10.4496
▁stain	-10.4497
▁convince	-10.4507
▁brand	-10.451
▁desperate	-10.4512
▁thick	-10.4513
▁custom	-10.4513
▁chuck	-10.4524
▁laws	-10.4524
▁prior	-10.4525
▁kidnap	-10.4525
▁fashion	-10.4525
▁charles	-10.4526
▁beneath	-10.4526
▁bronco	-10.4526
▁bryce	-10.4526
▁bureau	-10.4526
▁congress	-10.4526
▁cortez	-10.4526
▁council	-10.4526
▁domestic	-10.4526
▁florida	-10.4526
▁fraud	-10.4526
▁hillbilly	-10.4526
▁hockey	-10.4526
▁identity	-10.4526
▁individual	-10.4526
▁maximum	-10.4526
▁mccool	-10.4526
▁mnu	-10.4526
▁october	-10.4526
▁ordinary	-10.4526
▁precious	-10.4526
▁profile	-10.4526
▁rifki	-10.4526
▁shboom	-10.4526
▁sheppard	-10.4526
▁solution	-10.4526
▁teresa	-10.4526
▁unusual	-10.4526
▁caleb	-10.4526
▁genie	-10.4526
▁instance	-10.4526
▁mercedes	-10.4526
▁recruit	-10.4526
▁saint	-10.4526
▁application	-10.4526
▁drain	-10.4526
▁rizzo	-10.4526
▁plug	-10.4526
▁choking	-10.4526
▁declan	-10.4526
▁hollywood	-10.4526
▁playoffs	-10.4526
▁xray	-10.4526
▁chinatown	-10.4526
▁skull	-10.4526
▁colonel	-10.4526
▁solid	-10.4526
▁begged	-10.4526
▁yankee	-10.4526
▁delicious	-10.4526
▁scorpion	-10.4526
▁bail	-10.4526
▁specifically	-10.4526
▁chaos	-10.4527
▁strawberry	-10.4527
▁josie	-10.4527
▁possession	-10.4527
▁terrified	-10.4527
▁coast	-10.4527
▁mitchell	-10.4527
▁communicate	-10.4527
▁operator	-10.4527
▁diana	-10.4527
▁masry	-10.4527
▁sunset	-10.4527
▁saul	-10.4527
▁jeep	-10.4527
▁stack	-10.4527
▁significant	-10.4527
▁hayes	-10.4527
▁leadership	-10.4527
▁quote	-10.4527
▁chirping	-10.4528
▁obey	-10.4528
▁dice	-10.4528
▁thumb	-10.4528
▁factory	-10.4528
▁fifteen	-10.4529
▁sensitive	-10.4529
▁reward	-10.4529
▁bucket	-10.4529
▁fore	-10.4529
▁bible	-10.453
▁series	-10.453
▁queer	-10.453
▁toss	-10.453
▁objection	-10.4532
▁distress	-10.4533
▁winter	-10.4534
▁noone	-10.4534
▁wailing	-10.4534
▁discussion	-10.4534
▁foy	-10.4534
▁madame	-10.4535
▁threatened	-10.4535
▁helen	-10.4536
▁organized	-10.4536
▁murmuring	-10.4537
▁bass	-10.4538
▁shithole	-10.4539
▁highness	-10.454
▁title	-10.4541
▁daily	-10.4541
▁homework	-10.4543
▁earned	-10.4545
▁damaged	-10.4547
▁host	-10.455
▁carried	-10.4554
▁realise	-10.4556
▁seek	-10.4558
▁brakes	-10.4559
▁unable	-10.4561
▁hugh	-10.4563
▁horses	-10.4567
▁counter	-10.4571
▁cable	-10.4575
▁whi	-10.4577
▁interrupt	-10.4578
▁lap	-10.4578
▁deck	-10.4579
▁fi	-10.4579
▁belly	-10.458
▁painting	-10.4582
▁discussed	-10.4583
▁busted	-10.4583
▁jr	-10.4585
▁musicians	-10.4586
we	-10.4587
com	-10.4587
▁concentrate	-10.4588
field	-10.4589
▁useless	-10.4602
▁appeared	-10.4604
▁bal	-10.4613
▁buyin	-10.4615
▁whistles	-10.4625
ip	-10.4627
▁tag	-10.4638
▁blocked	-10.464
gina	-10.4641
▁hut	-10.4651
▁shown	-10.466
▁charged	-10.4662
▁wings	-10.4664
▁sooner	-10.4667
ster	-10.467
▁tools	-10.4678
▁joined	-10.4691
▁sting	-10.4696
▁pace	-10.4696
ey	-10.4711
▁bomber	-10.4717
▁mountains	-10.4731
down	-10.4754
▁lessons	-10.476
▁breaks	-10.4763
▁dealers	-10.4765
hmer	-10.4787
▁tw	-10.4793
tar	-10.4819
▁demons	-10.4832
▁becomes	-10.4846
▁mim	-10.4846
ward	-10.4848
▁squeeze	-10.485
▁issues	-10.4851
▁answering	-10.4855
havin	-10.4856
▁du	-10.4861
cr	-10.4862
▁generation	-10.4883
▁chicks	-10.4918
▁claims	-10.493
▁gig	-10.4946
▁breaths	-10.4947
▁likely	-10.4956
ns	-10.4961
king	-10.4987
▁rays	-10.4998
▁caused	-10.5011
▁scrape	-10.5047
▁gee	-10.5061
face	-10.5063
▁agents	-10.5064
▁videos	-10.5066
▁grade	-10.5066
▁barb	-10.5071
ical	-10.5074
▁sheriffs	-10.5093
▁hal	-10.5093
▁stepp	-10.5108
▁goal	-10.5109
ho	-10.5145
▁camel	-10.5146
▁fr	-10.5147
▁blocks	-10.5147
▁begins	-10.5148
▁tastes	-10.5151
▁accounts	-10.5174
▁attacks	-10.5178
hen	-10.5185
▁wilkinson	-10.5187
▁plot	-10.5188
▁tryin	-10.519
▁complaint	-10.5192
▁rifle	-10.5194
▁seal	-10.5197
▁tool	-10.5197
▁spell	-10.5198
▁sport	-10.5201
ul	-10.5207
▁nut	-10.5207
▁billion	-10.5209
▁stranger	-10.5214
▁commander	-10.5218
▁diner	-10.5231
▁cart	-10.5238
▁trucks	-10.5253
▁gather	-10.5287
looking	-10.529
▁dip	-10.5316
▁te	-10.5319
▁bleed	-10.5322
book	-10.5323
load	-10.5324
▁recommend	-10.5326
▁hack	-10.533
▁charm	-10.5336
▁pleased	-10.5342
▁violent	-10.5345
▁recover	-10.5348
▁qu	-10.5348
▁norma	-10.535
▁kev	-10.5356
▁europe	-10.5357
▁susan	-10.5357
ization	-10.5358
▁flip	-10.5359
▁slap	-10.5359
▁antoine	-10.5359
▁disagree	-10.5359
▁dispatch	-10.5359
▁oscar	-10.5359
▁tattoo	-10.5359
▁transplant	-10.5359
▁anonymous	-10.5359
▁applause	-10.5359
▁brennan	-10.5359
▁connolly	-10.5359
▁dennis	-10.5359
▁dunno	-10.5359
▁fernando	-10.5359
▁hebrew	-10.5359
▁identify	-10.5359
▁judas	-10.5359
▁memphis	-10.5359
▁minimum	-10.5359
▁miserable	-10.5359
▁montreal	-10.5359
▁november	-10.5359
▁offense	-10.5359
▁platoon	-10.5359
▁politics	-10.5359
▁rachel	-10.5359
▁religious	-10.5359
▁retreat	-10.5359
▁rouge	-10.5359
▁shaft	-10.5359
▁sheryl	-10.5359
▁sonofabitch	-10.5359
▁stereo	-10.5359
▁surrounded	-10.5359
▁surveillance	-10.5359
▁tissue	-10.5359
▁typewriter	-10.5359
▁vessel	-10.5359
▁berlin	-10.5359
▁drew	-10.5359
▁gazelle	-10.5359
▁lambert	-10.5359
▁orang	-10.5359
▁prosecute	-10.5359
▁widow	-10.5359
▁avenue	-10.5359
▁hammond	-10.5359
▁invitation	-10.5359
▁turkey	-10.5359
▁conference	-10.5359
▁radlo	-10.5359
▁novel	-10.5359
▁gambling	-10.5359
▁branch	-10.5359
▁latin	-10.5359
▁vincent	-10.5359
▁grey	-10.5359
▁youyou	-10.5359
▁zero	-10.5359
▁downtown	-10.536
▁ambition	-10.536
▁generous	-10.536
▁purse	-10.536
▁malone	-10.536
▁authority	-10.536
▁classified	-10.536
▁crisis	-10.536
▁existence	-10.536
▁arrow	-10.536
fifth	-10.536
▁chronicle	-10.536
▁anytime	-10.536
▁maid	-10.536
▁bunny	-10.536
▁riverside	-10.536
▁elias	-10.536
▁whatre	-10.536
▁blah	-10.536
▁dramatic	-10.536
▁myers	-10.536
▁minor	-10.536
▁toby	-10.536
▁happier	-10.5361
▁forth	-10.5361
▁baptist	-10.5361
▁bagels	-10.5361
▁yup	-10.5361
▁ashes	-10.5361
▁haunt	-10.5361
▁doorbell	-10.5361
▁patty	-10.5361
▁flush	-10.5361
▁damon	-10.5361
▁theory	-10.5362
▁pact	-10.5362
▁hanson	-10.5362
▁population	-10.5362
▁joanna	-10.5362
▁torn	-10.5362
▁unique	-10.5362
▁uhuh	-10.5362
▁bookkeeper	-10.5363
▁brent	-10.5363
▁pepe	-10.5364
▁pepper	-10.5364
▁dna	-10.5364
▁direction	-10.5365
▁tammy	-10.5365
▁shining	-10.5365
▁vari	-10.5365
▁sober	-10.5365
▁inches	-10.5365
▁selfish	-10.5365
▁technically	-10.5366
▁chen	-10.5366
▁bait	-10.5366
▁robbery	-10.5366
▁captured	-10.5368
▁clattering	-10.5368
▁broad	-10.5368
▁grateful	-10.5368
▁chat	-10.5369
▁production	-10.537
▁bury	-10.5371
▁prom	-10.5371
▁chaser	-10.5371
▁threatening	-10.5372
▁matches	-10.5373
▁sickness	-10.5373
▁skirt	-10.5375
▁brat	-10.5375
▁betrayed	-10.5379
▁plead	-10.538
▁coordinates	-10.5381
▁jet	-10.5381
▁wicked	-10.5387
▁womans	-10.5391
▁convicted	-10.5392
▁darko	-10.5392
▁tanker	-10.5395
▁required	-10.5396
▁killers	-10.5409
▁mayor	-10.541
▁pole	-10.541
▁michaels	-10.5414
▁settled	-10.5416
▁loudly	-10.5416
▁raped	-10.5417
▁straighten	-10.5418
ins	-10.5422
▁flames	-10.5423
▁limited	-10.5425
▁shithead	-10.5427
▁automatic	-10.5438
▁homeless	-10.5438
▁mega	-10.5438
▁operate	-10.5443
▁manner	-10.5447
▁diamonds	-10.5453
▁jews	-10.5453
▁walkin	-10.546
▁down	-10.5463
▁mon	-10.5476
port	-10.548
▁visiting	-10.5484
▁daniels	-10.5496
gging	-10.5501
lu	-10.5511
▁lads	-10.5511
▁searching	-10.5516
▁pushed	-10.5517
▁sucked	-10.5517
py	-10.5528
▁stinks	-10.5539
ak	-10.555
▁explained	-10.5551
▁counting	-10.5561
▁offering	-10.5564
▁leading	-10.5576
▁joining	-10.5589
▁degrees	-10.5598
▁an	-10.5598
▁crossing	-10.56
▁yards	-10.5612
▁fixing	-10.5622
▁recorded	-10.5635
▁allie	-10.564
▁indians	-10.5641
▁options	-10.5641
ual	-10.5646
▁learning	-10.5646
▁blowing	-10.5653
▁greeks	-10.5656
▁sticking	-10.5661
▁lovers	-10.5661
▁dreamed	-10.5681
bl	-10.5692
▁cents	-10.5698
▁ru	-10.5712
▁worker	-10.5715
▁interviews	-10.5715
▁pies	-10.5725
ner	-10.5729
jo	-10.5729
▁bl	-10.576
ister	-10.5766
▁sentences	-10.5787
▁hip	-10.5807
▁parent	-10.5809
▁drivers	-10.5814
▁os	-10.5815
▁ton	-10.5818
▁ease	-10.5851
▁reminds	-10.5877
▁iron	-10.5909
▁fucks	-10.5922
▁poll	-10.593
▁someones	-10.5951
▁rub	-10.5965
ast	-10.5974
bed	-10.5981
▁mc	-10.5986
oma	-10.5993
ex	-10.6005
▁buck	-10.6038
▁facts	-10.6042
dy	-10.6042
▁po	-10.605
▁echo	-10.6054
▁som	-10.6055
ke	-10.6084
▁comment	-10.6091
▁prosecutor	-10.6091
▁thomson	-10.6091
▁cipher	-10.6093
▁arti	-10.6094
▁macedonian	-10.6096
▁screen	-10.6097
▁basic	-10.6098
▁muscle	-10.6103
▁dolphin	-10.6107
▁mit	-10.611
izing	-10.6112
▁chuckle	-10.6113
▁ending	-10.6116
▁drum	-10.6117
▁ram	-10.6122
▁prayer	-10.615
▁jo	-10.6154
▁cl	-10.6172
▁skip	-10.6174
four	-10.6181
▁opera	-10.6182
▁toy	-10.6194
▁approach	-10.6195
▁drown	-10.6199
▁jokes	-10.6202
▁india	-10.6203
▁labor	-10.621
▁ey	-10.6214
▁cooper	-10.6222
▁complain	-10.6223
▁monitor	-10.6226
qu	-10.6228
▁climb	-10.6228
ble	-10.623
▁squeal	-10.623
▁hammer	-10.6231
ade	-10.6233
▁crawl	-10.6234
wi	-10.6234
▁slaughter	-10.6237
▁delay	-10.6238
▁wick	-10.6238
▁unlock	-10.624
▁lad	-10.624
wood	-10.6246
▁grant	-10.6246
▁speaker	-10.6249
▁inform	-10.6251
▁german	-10.6254
away	-10.6255
▁numb	-10.6258
▁ivan	-10.6258
▁peck	-10.6259
▁corrupt	-10.6262
▁macedonia	-10.6263
▁africa	-10.6263
▁mattress	-10.6263
▁russia	-10.6263
▁axe	-10.6265
▁blank	-10.6266
▁western	-10.6266
▁sock	-10.6266
▁leather	-10.6268
▁lemon	-10.6268
▁cigar	-10.6268
▁japan	-10.6268
▁lamp	-10.6268
▁minnie	-10.6268
▁annabelle	-10.6268
▁beresford	-10.6268
▁champagne	-10.6268
▁crateros	-10.6268
▁damato	-10.6268
▁diondra	-10.6268
▁division	-10.6268
▁elephant	-10.6268
▁elizabeth	-10.6268
▁empire	-10.6268
▁england	-10.6268
▁escort	-10.6268
▁exposure	-10.6268
▁fiction	-10.6268
▁gardner	-10.6268
▁hannah	-10.6268
▁homicide	-10.6268
▁inaudible	-10.6268
▁interpol	-10.6268
▁junior	-10.6268
▁lease	-10.6268
▁manhattan	-10.6268
▁massacre	-10.6268
▁nffa	-10.6268
▁praise	-10.6268
▁promotion	-10.6268
▁proposal	-10.6268
▁protocol	-10.6268
▁ralph	-10.6268
▁reckon	-10.6268
▁reputation	-10.6268
▁restricted	-10.6268
▁strict	-10.6268
▁sturges	-10.6268
▁supply	-10.6268
▁surrender	-10.6268
▁theater	-10.6268
▁treasury	-10.6268
▁underneath	-10.6268
▁universe	-10.6268
▁kingdom	-10.6268
▁aksel	-10.6268
▁brutal	-10.6268
▁kraus	-10.6268
▁happily	-10.6268
▁instructions	-10.6268
▁babak	-10.6268
▁embrace	-10.6268
▁electric	-10.6269
▁ceo	-10.6269
▁investigating	-10.6269
▁burden	-10.6269
▁smiling	-10.6269
▁trey	-10.6269
▁imagination	-10.6269
▁hidden	-10.6269
viet	-10.6269
▁salad	-10.6269
▁apology	-10.6269
▁charlestown	-10.6269
▁thrill	-10.6269
▁harris	-10.6269
▁finance	-10.6269
▁miller	-10.6269
▁eliot	-10.6269
▁raf	-10.6269
▁misery	-10.6269
▁kayem	-10.6269
▁helmet	-10.6269
▁psychologist	-10.6269
▁culture	-10.6269
▁celebration	-10.6269
▁riff	-10.6269
▁begging	-10.6269
▁chasing	-10.6269
▁uptown	-10.6269
▁apologies	-10.6269
▁polish	-10.6269
▁dragged	-10.6269
▁overnight	-10.6269
▁uncomfortable	-10.6269
▁predator	-10.6269
▁punishment	-10.6269
▁doris	-10.6269
▁donald	-10.6269
▁fanny	-10.6269
▁bacon	-10.6269
▁urgent	-10.6269
▁stiff	-10.6269
▁transferred	-10.6269
▁facing	-10.6269
▁online	-10.6269
▁romance	-10.6269
▁subway	-10.6269
▁brush	-10.6269
▁pause	-10.6269
▁sanders	-10.6269
▁zip	-10.6269
▁qaeda	-10.627
▁rosie	-10.627
▁vagina	-10.627
▁josh	-10.627
▁seventeen	-10.627
▁southern	-10.627
▁recall	-10.627
▁broward	-10.627
▁surviving	-10.627
▁countries	-10.6271
▁owns	-10.6271
▁thunder	-10.6271
▁dropping	-10.6271
▁lean	-10.6272
▁footage	-10.6272
▁stammers	-10.6272
▁warn	-10.6273
mouth	-10.6273
▁successor	-10.6273
▁precisely	-10.6274
▁dime	-10.6274
▁cities	-10.6275
▁medication	-10.6275
▁julian	-10.6275
▁stray	-10.6275
▁alcoholic	-10.6276
▁mein	-10.6276
▁capable	-10.6276
▁dove	-10.6277
▁martini	-10.6277
▁cast	-10.6277
▁arranged	-10.6278
▁specialist	-10.6279
▁armor	-10.6279
▁housekeeper	-10.6279
▁apply	-10.628
▁michelin	-10.628
▁helene	-10.6281
▁consideration	-10.6282
▁sniffing	-10.6282
▁angeles	-10.6282
▁stroke	-10.6283
▁dish	-10.6284
▁abu	-10.6286
▁eli	-10.6286
▁directly	-10.6286
▁hood	-10.6288
▁wing	-10.6288
▁tail	-10.6291
▁fry	-10.6292
▁embarrassed	-10.6293
▁copies	-10.6294
▁scan	-10.63
▁cole	-10.6301
▁dot	-10.6301
▁gathered	-10.6302
▁por	-10.6303
▁this	-10.6303
▁tillman	-10.6306
▁inmates	-10.6308
▁dresses	-10.6309
▁iim	-10.6311
▁moan	-10.6311
low	-10.6333
▁requested	-10.6334
▁introduced	-10.6335
▁shatter	-10.6339
▁kit	-10.634
▁smiled	-10.6342
▁safer	-10.6352
ect	-10.6353
▁republicans	-10.6356
▁exam	-10.6358
eth	-10.6359
▁beeps	-10.637
▁on	-10.6371
▁nash	-10.638
▁distort	-10.638
▁ay	-10.638
ters	-10.6382
▁breasts	-10.6387
▁suggested	-10.6389
▁packed	-10.6389
▁bee	-10.6402
hand	-10.6407
sta	-10.6416
▁samples	-10.6419
▁objects	-10.6419
▁sheets	-10.6419
▁chips	-10.6419
▁packing	-10.6423
▁mall	-10.6439
▁marked	-10.6441
▁stealing	-10.6444
▁formal	-10.6445
▁mob	-10.6452
▁testing	-10.6466
▁guests	-10.6467
ning	-10.6468
▁crossed	-10.6476
▁sole	-10.6479
▁remembered	-10.6509
cut	-10.6511
ible	-10.6512
▁ted	-10.6512
▁closely	-10.653
▁protecting	-10.6531
ue	-10.6537
▁parked	-10.6542
▁ch	-10.6554
▁belongs	-10.6562
▁waves	-10.6562
all	-10.6573
▁cor	-10.6586
▁ofa	-10.6587
ology	-10.6616
▁emails	-10.6627
▁blows	-10.6627
▁requests	-10.6627
▁photographs	-10.6631
▁tin	-10.6638
▁boo	-10.6642
▁grad	-10.6649
▁scar	-10.6653
ated	-10.6666
▁scares	-10.668
▁solve	-10.6691
▁millions	-10.6714
▁les	-10.6716
▁teachers	-10.6736
serving	-10.6749
ory	-10.6757
▁explosions	-10.6772
▁trees	-10.6785
ph	-10.6788
▁ka	-10.6825
▁dicks	-10.6826
▁horns	-10.6837
tor	-10.6866
▁senses	-10.6867
▁barn	-10.6877
▁rocks	-10.6881
▁deserves	-10.6886
▁rod	-10.6886
inal	-10.6895
▁bells	-10.6896
▁mal	-10.6909
ax	-10.6917
▁myth	-10.6961
ence	-10.6968
▁belli	-10.7
ny	-10.7021
pping	-10.7023
▁dudes	-10.7036
▁hits	-10.7058
▁shoe	-10.7058
tra	-10.7058
▁homes	-10.7062
▁pound	-10.7065
▁weigh	-10.7083
▁intention	-10.7092
▁minister	-10.7093
▁champion	-10.7095
▁object	-10.7095
▁cocktail	-10.7096
▁scout	-10.7099
▁sample	-10.7105
▁daniel	-10.7106
▁chip	-10.7107
▁cookie	-10.7108
▁france	-10.7111
▁sheet	-10.7112
▁engineer	-10.7114
▁ages	-10.7117
▁tracks	-10.7129
▁port	-10.7142
▁tables	-10.7144
▁tri	-10.7145
▁breathes	-10.7145
▁buildings	-10.7147
▁seed	-10.7148
▁design	-10.7166
▁guessed	-10.7167
bs	-10.717
▁follows	-10.7171
▁mens	-10.7175
▁daddys	-10.7175
▁ap	-10.7207
▁johns	-10.7211
keeper	-10.7211
▁placed	-10.7214
▁surprises	-10.7215
▁attend	-10.722
▁impress	-10.7224
▁deny	-10.7227
▁squeak	-10.7228
▁react	-10.7228
▁reform	-10.7232
▁spy	-10.7233
oy	-10.7235
case	-10.7237
▁rot	-10.724
▁draft	-10.7242
▁cass	-10.7244
▁purchase	-10.7247
▁collapse	-10.7248
▁ignore	-10.7248
▁investigate	-10.7249
how	-10.7249
beat	-10.7252
▁jess	-10.7253
▁mag	-10.7255
stick	-10.7255
▁involve	-10.7256
▁successful	-10.7258
▁bars	-10.7258
▁commission	-10.7259
▁madam	-10.7263
▁extract	-10.7266
▁zoo	-10.7267
▁journal	-10.7267
▁specific	-10.7268
▁disney	-10.7268
▁architect	-10.7268
▁temple	-10.7268
▁satellite	-10.7268
▁achilles	-10.7268
▁addison	-10.7268
▁alyosha	-10.7268
▁anxious	-10.7268
▁awkward	-10.7268
▁bargain	-10.7268
▁behaviour	-10.7268
▁brodski	-10.7268
▁canadian	-10.7268
▁cease	-10.7268
▁celebrity	-10.7268
▁cindy	-10.7268
▁concussion	-10.7268
▁confusing	-10.7268
▁depressed	-10.7268
▁egypt	-10.7268
▁figaro	-10.7268
▁fugitive	-10.7268
▁gloria	-10.7268
▁goddammit	-10.7268
▁gracias	-10.7268
▁hathaway	-10.7268
▁hopkins	-10.7268
▁intellectual	-10.7268
▁jerusalem	-10.7268
▁journey	-10.7268
▁krug	-10.7268
▁lorenson	-10.7268
▁mcdonough	-10.7268
▁merger	-10.7268
▁mohammed	-10.7268
▁mulanax	-10.7268
▁mulqueen	-10.7268
▁prosecution	-10.7268
▁ritual	-10.7268
▁rooney	-10.7268
▁samantha	-10.7268
▁shotgun	-10.7268
▁slevin	-10.7268
▁solaris	-10.7268
▁sunrise	-10.7268
▁temperature	-10.7268
▁temporary	-10.7268
▁tequila	-10.7268
▁trevor	-10.7268
▁turbot	-10.7268
▁undateable	-10.7268
▁unknown	-10.7268
▁virgil	-10.7268
▁wheelchair	-10.7268
▁withdraw	-10.7268
▁womb	-10.7268
▁bryant	-10.7268
▁cocksucker	-10.7268
▁distant	-10.7268
▁humming	-10.7268
▁mourn	-10.7268
▁napkin	-10.7268
▁personnel	-10.7268
▁reece	-10.7268
▁rpg	-10.7268
▁soap	-10.7268
▁abandon	-10.7268
▁applaud	-10.7268
▁dragging	-10.7268
▁item	-10.7268
▁lamb	-10.7268
▁terribly	-10.7268
▁hopefully	-10.7268
▁janessa	-10.7268
▁onstage	-10.7268
▁yacht	-10.7268
▁cotton	-10.7268
▁hustle	-10.7268
▁wickwire	-10.7268
▁jungle	-10.7268
▁salute	-10.7268
▁creating	-10.7268
▁creek	-10.7268
▁titties	-10.7268
▁canada	-10.7269
▁freddy	-10.7269
▁fireworks	-10.7269
▁bahia	-10.7269
▁parole	-10.7269
▁cheek	-10.7269
▁testimony	-10.7269
▁tanner	-10.7269
▁celia	-10.7269
▁dialogue	-10.7269
▁nova	-10.7269
▁raylee	-10.7269
▁rotten	-10.7269
▁romantic	-10.7269
▁inject	-10.7269
▁tooth	-10.7269
▁vibe	-10.7269
▁swiss	-10.7269
▁ditch	-10.7269
▁principle	-10.7269
▁cheney	-10.7269
▁ginger	-10.7269
▁inviting	-10.7269
▁await	-10.7269
▁development	-10.7269
▁construction	-10.7269
▁acid	-10.7269
▁saber	-10.7269
▁humor	-10.7269
▁fever	-10.7269
▁unconscious	-10.7269
▁magnet	-10.7269
▁napa	-10.727
▁legitimate	-10.727
▁impressive	-10.727
▁airplane	-10.727
▁diving	-10.727
▁scotch	-10.727
▁dodge	-10.727
▁wallace	-10.727
▁caroline	-10.727
▁skate	-10.727
▁performance	-10.727
▁google	-10.727
▁oral	-10.727
▁sniffles	-10.727
▁owned	-10.727
▁billionaire	-10.7271
▁violation	-10.7271
▁sixteen	-10.7271
▁paralyzed	-10.7271
▁retired	-10.7271
▁recommendation	-10.7272
▁stabilize	-10.7272
▁frost	-10.7272
▁honk	-10.7272
▁informant	-10.7272
▁governor	-10.7273
▁yoga	-10.7273
▁after	-10.7273
▁chet	-10.7273
▁registered	-10.7273
▁heartbeat	-10.7274
▁disappointed	-10.7274
▁task	-10.7274
▁rug	-10.7274
▁christina	-10.7274
▁accidentally	-10.7275
▁backstage	-10.7275
ise	-10.7275
▁soda	-10.7275
▁blast	-10.7276
▁offended	-10.7277
▁kim	-10.7277
▁tab	-10.7277
▁dino	-10.7277
▁foryou	-10.7277
▁hatch	-10.7278
▁ofthe	-10.7278
▁sonny	-10.7278
▁backpack	-10.7279
▁disk	-10.7279
▁painful	-10.7281
▁ville	-10.7282
▁robbed	-10.7282
▁whooping	-10.7283
▁ford	-10.7285
▁vest	-10.7285
▁civil	-10.7287
▁bu	-10.7288
▁rattle	-10.7289
▁frightened	-10.7289
▁affected	-10.7289
oi	-10.7291
▁soup	-10.7292
▁fried	-10.7292
▁hose	-10.7294
▁relations	-10.7295
▁burnt	-10.7297
▁kath	-10.7297
▁leads	-10.7299
▁impressed	-10.7299
▁loner	-10.7303
▁clich	-10.7306
▁deadline	-10.7306
▁honking	-10.7308
▁charts	-10.7313
▁blown	-10.7316
▁voted	-10.7318
▁heroin	-10.7322
▁consult	-10.7324
▁horny	-10.7324
▁connected	-10.7324
▁screeching	-10.7328
▁kicks	-10.733
▁sacrificed	-10.7331
▁mas	-10.7345
▁finest	-10.7363
▁citizens	-10.7364
▁caymans	-10.7365
▁detainees	-10.7365
▁employees	-10.7365
▁deke	-10.7366
▁dougy	-10.7369
▁kate	-10.7372
▁helpless	-10.7375
▁pla	-10.7376
▁mortars	-10.7383
▁bitter	-10.7383
▁evans	-10.7383
▁shelly	-10.7397
▁fed	-10.7406
▁flo	-10.7414
▁vows	-10.7415
den	-10.7417
og	-10.7419
▁gl	-10.742
▁fairy	-10.742
▁accepted	-10.7425
▁palm	-10.7454
▁prime	-10.7457
▁sew	-10.7458
▁jumped	-10.746
▁pissing	-10.7466
▁prayers	-10.7469
▁messed	-10.7487
▁wa	-10.7488
▁thy	-10.7488
▁faci	-10.7489
▁boots	-10.7489
▁results	-10.7506
▁blades	-10.7506
▁rabbits	-10.7511
▁defin	-10.7513
▁jumping	-10.7515
▁differently	-10.7516
▁sucking	-10.7528
▁bea	-10.7529
▁boards	-10.7531
▁inc	-10.7553
▁imim	-10.7554
ev	-10.7562
▁alex	-10.7578
▁farmers	-10.7585
ack	-10.7598
ella	-10.76
▁owes	-10.7608
▁ward	-10.761
▁interrogations	-10.7613
▁structure	-10.7624
▁nails	-10.7636
ay	-10.7641
▁sc	-10.7644
▁debts	-10.7649
▁snakes	-10.7649
va	-10.7652
▁ironic	-10.7663
▁imma	-10.7668
▁clo	-10.7677
▁procedures	-10.7684
▁cleaned	-10.7691
▁tur	-10.7698
▁shoots	-10.7721
▁cleared	-10.7733
▁vi	-10.7763
pin	-10.7776
use	-10.7786
▁strikes	-10.7791
▁acts	-10.7792
▁amp	-10.7804
ou	-10.7807
▁predict	-10.782
▁stones	-10.7828
▁guide	-10.785
▁as	-10.7888
ug	-10.7896
rum	-10.7907
▁ditt	-10.7933
▁bart	-10.7937
▁tra	-10.8007
licate	-10.8027
val	-10.8053
bra	-10.8062
▁worrying	-10.8125
▁grows	-10.8146
▁shout	-10.815
ula	-10.8154
▁situations	-10.8154
▁op	-10.8155
▁positions	-10.8172
▁hid	-10.8173
▁prim	-10.8175
▁misunderstand	-10.8177
▁cha	-10.818
▁cough	-10.8182
▁bra	-10.8202
▁effort	-10.8203
▁associate	-10.8209
▁affair	-10.821
▁owner	-10.821
▁bodyguard	-10.821
▁corpse	-10.8211
▁shadow	-10.8211
▁symbol	-10.8211
▁survivor	-10.8212
▁equal	-10.8213
▁experiment	-10.8213
▁relative	-10.8213
▁tshirt	-10.8213
▁source	-10.8213
▁tests	-10.8214
▁tribe	-10.8217
▁slayer	-10.822
▁customer	-10.8225
▁lands	-10.8228
▁favors	-10.8246
our	-10.8246
▁poster	-10.8247
▁nazi	-10.8249
ec	-10.8253
hood	-10.8253
▁sakes	-10.8264
▁flower	-10.8266
ace	-10.8272
▁experiences	-10.8282
▁emma	-10.8282
ook	-10.8287
▁vow	-10.8289
▁publish	-10.8292
▁trans	-10.8298
for	-10.8302
▁flood	-10.8307
▁just	-10.8308
▁embarrass	-10.831
▁idiots	-10.8319
▁snarl	-10.834
▁tow	-10.8342
▁profession	-10.8346
▁retard	-10.8347
▁avoid	-10.8347
like	-10.8348
▁plea	-10.8354
dollar	-10.8358
year	-10.8358
▁encourage	-10.8359
▁engage	-10.8359
class	-10.8359
unt	-10.8359
▁behave	-10.836
▁approve	-10.836
▁propose	-10.836
town	-10.836
top	-10.8361
▁annas	-10.8361
▁wealth	-10.8364
▁visual	-10.8364
▁examine	-10.8365
▁cambodia	-10.8366
▁recent	-10.8368
▁persia	-10.8368
saw	-10.8371
▁preach	-10.8371
▁assassin	-10.8371
▁confess	-10.8374
▁noon	-10.8375
▁peyt	-10.8376
▁prince	-10.8377
▁runnin	-10.8377
▁lone	-10.8378
▁melt	-10.8378
▁excess	-10.8378
▁revolution	-10.8378
▁drama	-10.8379
▁assure	-10.8379
oulder	-10.8379
▁mamma	-10.8379
▁eleven	-10.8379
▁gunfight	-10.838
▁ambitious	-10.838
▁anniversary	-10.838
▁august	-10.838
▁bypass	-10.838
▁campaign	-10.838
▁cavalry	-10.838
▁cloquet	-10.838
▁complex	-10.838
▁declaration	-10.838
▁dildo	-10.838
▁disgrace	-10.838
▁divine	-10.838
▁dracula	-10.838
▁editor	-10.838
▁evolution	-10.838
▁furniture	-10.838
▁greece	-10.838
▁grief	-10.838
▁griffin	-10.838
▁haddonfield	-10.838
▁haggard	-10.838
▁hilarious	-10.838
▁honeymoon	-10.838
▁influence	-10.838
▁invisible	-10.838
▁judgment	-10.838
▁kendall	-10.838
▁krushka	-10.838
▁kumi	-10.838
▁lyrics	-10.838
▁mafia	-10.838
▁marquez	-10.838
▁massapequa	-10.838
▁ministry	-10.838
▁motel	-10.838
▁mystery	-10.838
▁naughty	-10.838
▁negotiate	-10.838
▁oldfashioned	-10.838
▁paranoid	-10.838
▁plaintiffs	-10.838
▁precinct	-10.838
▁razor	-10.838
▁regulations	-10.838
▁resume	-10.838
▁reverend	-10.838
▁sacred	-10.838
▁therefore	-10.838
▁tokyo	-10.838
▁valentina	-10.838
▁vanessa	-10.838
▁yitzchok	-10.838
▁afterwards	-10.838
▁correspond	-10.838
▁headquarters	-10.838
▁holler	-10.838
▁indeed	-10.838
▁jeez	-10.838
▁pervert	-10.838
▁tennis	-10.838
▁tiger	-10.838
▁oven	-10.838
▁preston	-10.838
▁residence	-10.838
▁annoying	-10.838
▁somewhat	-10.838
▁internal	-10.838
▁sondra	-10.838
▁tragic	-10.838
▁commercial	-10.838
▁cunningham	-10.838
▁freezing	-10.838
▁picnic	-10.838
▁benji	-10.838
▁shimmer	-10.838
▁dutch	-10.838
▁adventure	-10.838
▁cassander	-10.838
▁crutch	-10.838
▁brick	-10.838
▁hartog	-10.838
▁collins	-10.838
▁banjo	-10.838
▁robinson	-10.838
▁barrier	-10.838
▁polina	-10.838
▁stacy	-10.838
▁limb	-10.838
▁liquid	-10.838
▁psychiatrist	-10.838
▁radar	-10.838
▁hahaha	-10.838
▁frame	-10.838
▁reservation	-10.838
▁krista	-10.838
▁assistance	-10.838
▁wrapped	-10.838
▁theories	-10.838
▁comedian	-10.838
▁slick	-10.838
▁wong	-10.838
▁wasting	-10.838
▁architecture	-10.838
▁hostile	-10.838
▁discipline	-10.838
▁entertainment	-10.838
▁waking	-10.838
▁fork	-10.838
▁jewish	-10.838
▁backwards	-10.838
▁bruce	-10.838
▁cemetery	-10.838
▁philosophy	-10.838
▁waist	-10.838
▁portland	-10.838
▁piggy	-10.8381
▁groov	-10.8381
▁begun	-10.8381
▁suitcase	-10.8381
▁wrap	-10.8381
▁slavery	-10.8381
▁operating	-10.8381
▁supper	-10.8381
▁heather	-10.8381
chever	-10.8381
▁colour	-10.8381
▁grandfather	-10.8381
▁replacement	-10.8382
▁solo	-10.8382
▁starving	-10.8382
▁anus	-10.8382
▁gentleman	-10.8382
▁tripped	-10.8382
▁stall	-10.8382
▁fax	-10.8383
▁crackling	-10.8383
▁parade	-10.8383
▁radical	-10.8383
▁dyou	-10.8383
▁critical	-10.8383
▁stripper	-10.8383
▁generator	-10.8384
▁clamp	-10.8384
▁relief	-10.8384
▁deaf	-10.8384
▁forest	-10.8384
▁nsa	-10.8384
▁identified	-10.8384
▁haley	-10.8384
▁diary	-10.8385
▁irs	-10.8385
▁exhausted	-10.8385
▁grossman	-10.8385
▁spanky	-10.8386
▁fitch	-10.8386
▁tito	-10.8387
▁passage	-10.8387
▁collection	-10.8387
▁lighthouse	-10.8388
▁sandwiches	-10.8389
▁fist	-10.8389
▁temper	-10.8389
▁halfway	-10.8389
▁liberty	-10.8389
▁medal	-10.839
▁executed	-10.839
▁ticking	-10.839
▁controlling	-10.839
▁scissors	-10.8391
▁respectful	-10.8391
▁conviction	-10.8391
▁ferm	-10.8391
ab	-10.8392
▁attached	-10.8392
▁display	-10.8392
▁mankind	-10.8393
▁seventh	-10.8393
▁fran	-10.8395
▁folder	-10.8395
▁estate	-10.8397
▁beau	-10.8397
▁determined	-10.8398
▁rv	-10.84
▁jaw	-10.84
▁geez	-10.8401
▁kiddo	-10.8402
▁accused	-10.8406
▁ole	-10.8407
▁theme	-10.8407
ons	-10.8408
▁gary	-10.8408
med	-10.8409
▁convinced	-10.8409
▁clouds	-10.841
▁pancakes	-10.841
cu	-10.8411
▁weep	-10.8411
▁assumed	-10.8412
uck	-10.8417
zin	-10.8422
▁foundation	-10.8423
▁sealed	-10.8427
▁complaining	-10.8428
cible	-10.8429
▁shar	-10.843
▁passes	-10.8433
▁sharply	-10.8434
▁imitate	-10.8436
▁cargo	-10.8438
gy	-10.8439
▁sexually	-10.8439
▁howdy	-10.8441
tation	-10.8443
▁laser	-10.8445
▁deeper	-10.8445
▁shocked	-10.8446
▁belonged	-10.8447
▁ribs	-10.8449
▁entered	-10.845
▁tucking	-10.8451
▁demanding	-10.8452
▁rage	-10.8453
ify	-10.8454
▁mixed	-10.8457
▁ki	-10.846
▁delivered	-10.8461
jangle	-10.8469
▁rank	-10.8471
▁yesil	-10.8474
▁added	-10.8475
ological	-10.8475
▁carl	-10.8478
lf	-10.8478
▁actor	-10.8484
▁cans	-10.8486
▁log	-10.8486
▁app	-10.8489
▁chained	-10.8491
▁tactic	-10.8494
▁messy	-10.8497
▁helpful	-10.8499
▁swor	-10.8506
▁lists	-10.8506
▁marketing	-10.8507
▁nerds	-10.8508
▁instincts	-10.8508
▁stays	-10.8513
▁fires	-10.8527
fic	-10.854
ada	-10.8541
ko	-10.8543
▁pope	-10.8545
▁pauly	-10.8547
▁equals	-10.8548
▁tub	-10.855
▁guessing	-10.8559
od	-10.8566
▁mini	-10.8567
hold	-10.857
▁photographer	-10.857
▁cd	-10.8574
▁ak	-10.8581
▁muscles	-10.8587
ating	-10.8588
aging	-10.8588
▁enjoyed	-10.8589
▁supporting	-10.8595
▁liver	-10.8605
▁rifles	-10.8607
▁diners	-10.861
▁strangers	-10.8612
▁cooler	-10.8616
▁aaa	-10.8623
▁landing	-10.8631
▁makeup	-10.8639
▁hides	-10.8649
▁rd	-10.8651
nic	-10.8652
▁ras	-10.8662
gen	-10.8662
▁persons	-10.8663
▁merc	-10.868
ott	-10.8711
▁ac	-10.8724
▁din	-10.8728
▁wears	-10.8729
▁toes	-10.8739
▁shoulders	-10.8742
▁rolls	-10.8753
ana	-10.8754
side	-10.876
▁owed	-10.8763
▁cru	-10.8763
▁choices	-10.8765
▁plates	-10.8767
▁ag	-10.8771
▁improve	-10.8818
▁winners	-10.8828
▁ventilat	-10.8829
▁prop	-10.8834
ff	-10.8836
ov	-10.8843
▁kissing	-10.8845
▁sounded	-10.8847
▁loads	-10.8849
ral	-10.8855
▁har	-10.8895
lessness	-10.8901
▁scores	-10.8908
▁brings	-10.892
▁dio	-10.8925
▁anal	-10.8935
▁pilots	-10.8949
ied	-10.8976
▁sucker	-10.898
▁bel	-10.8981
▁values	-10.8987
ury	-10.8989
ations	-10.8997
let	-10.9004
▁repeats	-10.9007
▁booked	-10.9011
wa	-10.9011
▁meetings	-10.9015
▁chi	-10.9015
hi	-10.9022
▁deadly	-10.9026
▁ne	-10.903
▁powers	-10.904
▁how	-10.9042
▁clearing	-10.9052
▁losers	-10.9056
▁gunshots	-10.9071
bar	-10.9075
room	-10.9084
▁julies	-10.9092
que	-10.9111
▁update	-10.9148
▁quo	-10.9157
old	-10.9164
▁sayin	-10.9176
shi	-10.9183
gan	-10.9192
ane	-10.9202
▁tu	-10.9203
▁handed	-10.9205
ight	-10.9207
▁bothers	-10.9214
ital	-10.9222
▁fools	-10.9237
▁employ	-10.9244
▁occasion	-10.9268
▁uni	-10.9272
ore	-10.9273
▁scenes	-10.9296
gh	-10.9312
▁sch	-10.9318
▁queens	-10.9356
▁mortal	-10.9362
▁pointing	-10.9374
▁sha	-10.9376
▁conversations	-10.9378
▁crow	-10.9395
pped	-10.9405
ese	-10.9417
▁ec	-10.9419
▁addict	-10.9426
ington	-10.9427
▁volunteer	-10.9428
▁par	-10.9431
▁grunt	-10.9436
▁damned	-10.9437
▁cheer	-10.9439
ock	-10.9449
▁pattern	-10.9452
▁session	-10.9452
▁chamber	-10.9452
▁vital	-10.9453
▁warrior	-10.9456
▁network	-10.946
▁breast	-10.9466
▁whistle	-10.9467
▁cuts	-10.9469
▁boil	-10.9469
▁visitor	-10.9469
▁slave	-10.9472
▁pill	-10.9477
▁tire	-10.9477
▁stark	-10.9479
▁puts	-10.948
▁string	-10.9483
▁here	-10.9486
▁devi	-10.9486
▁schools	-10.9488
ties	-10.9495
▁provid	-10.9506
▁ally	-10.9515
▁drops	-10.953
▁tips	-10.9535
▁cu	-10.9542
▁exception	-10.9546
▁atta	-10.9548
▁betray	-10.9553
▁leo	-10.9558
▁heal	-10.9563
▁waters	-10.957
und	-10.9571
▁boost	-10.9573
▁soy	-10.9583
▁defeat	-10.9597
▁stamp	-10.9598
boat	-10.9602
▁dia	-10.9604
▁areas	-10.9606
berry	-10.9607
world	-10.9607
▁clar	-10.9607
hour	-10.9608
water	-10.9609
▁unh	-10.9609
▁determine	-10.961
▁graduate	-10.9611
▁trim	-10.9612
▁shave	-10.9613
▁earn	-10.9615
▁murph	-10.9615
▁rescue	-10.9616
▁georgia	-10.9618
▁float	-10.9619
▁phase	-10.9622
▁villa	-10.9623
▁concert	-10.9624
▁witch	-10.9625
run	-10.9626
▁heh	-10.9626
▁champ	-10.9627
▁movin	-10.9627
▁disrespect	-10.9628
▁refer	-10.9628
▁joseph	-10.9629
▁holly	-10.9629
▁rehab	-10.9629
▁wrist	-10.963
macintosh	-10.963
▁alternative	-10.963
▁amateur	-10.963
▁analysis	-10.963
▁armstrong	-10.963
▁assault	-10.963
▁assignment	-10.963
▁audible	-10.963
▁barracks	-10.963
▁berryessa	-10.963
▁breeze	-10.963
▁competitive	-10.963
▁conflict	-10.963
▁conscience	-10.963
▁cricket	-10.963
▁crucifix	-10.963
▁defeo	-10.963
▁depot	-10.963
▁dessert	-10.963
▁douche	-10.963
▁easily	-10.963
▁eivind	-10.963
▁entitled	-10.963
▁environment	-10.963
▁eternal	-10.963
▁extend	-10.963
▁fokkin	-10.963
▁hetrick	-10.963
▁illinois	-10.963
▁international	-10.963
▁jamaica	-10.963
▁koz	-10.963
▁kramer	-10.963
▁kurosawa	-10.963
▁lifeanddeath	-10.963
▁lloyd	-10.963
▁lounge	-10.963
▁mageau	-10.963
▁manufacture	-10.963
▁marvin	-10.963
▁mumbling	-10.963
▁nigga	-10.963
▁offensive	-10.963
▁orgasm	-10.963
▁passengers	-10.963
▁portuguese	-10.963
▁rawhide	-10.963
▁reliable	-10.963
▁russell	-10.963
▁sabotage	-10.963
▁salinas	-10.963
▁scenario	-10.963
▁seifert	-10.963
▁sentencing	-10.963
▁september	-10.963
▁shaffer	-10.963
▁slovnik	-10.963
▁smack	-10.963
▁snyder	-10.963
▁splash	-10.963
▁spoil	-10.963
▁stevie	-10.963
▁supplies	-10.963
▁surgeon	-10.963
▁teardrop	-10.963
▁terek	-10.963
▁terrain	-10.963
▁territory	-10.963
▁tiamat	-10.963
▁wisdom	-10.963
▁witherspoon	-10.963
▁envy	-10.963
▁harvey	-10.963
▁scale	-10.963
▁cnn	-10.963
▁importance	-10.963
▁philotas	-10.963
▁burbank	-10.963
▁happiness	-10.963
▁jocke	-10.963
▁plugger	-10.963
▁presume	-10.963
▁sparrow	-10.963
▁flies	-10.963
▁radiator	-10.963
▁reveal	-10.963
▁sydney	-10.963
▁minnieboo	-10.963
▁nazareth	-10.963
▁electronic	-10.963
▁nows	-10.963
▁numero	-10.963
▁bloke	-10.963
▁compete	-10.963
▁cowgirl	-10.963
▁whatwhat	-10.963
▁chalk	-10.963
▁worries	-10.963
▁assuming	-10.963
▁underwear	-10.963
▁plaza	-10.963
▁profit	-10.963
▁lobby	-10.963
▁exclusive	-10.963
▁pushups	-10.963
▁tuning	-10.963
▁jonah	-10.963
▁nicos	-10.963
▁moses	-10.963
▁occur	-10.963
▁clang	-10.963
▁guidance	-10.963
▁content	-10.963
▁cartoonist	-10.963
▁gregory	-10.963
▁jules	-10.963
▁millimeter	-10.963
▁tense	-10.963
▁basis	-10.963
▁righteous	-10.963
▁hissing	-10.963
▁stabbed	-10.963
▁circus	-10.963
▁terminal	-10.963
▁coughlin	-10.963
▁honour	-10.963
▁todd	-10.963
▁charity	-10.963
▁feast	-10.963
▁thirteenth	-10.963
▁remarkable	-10.963
▁tolar	-10.963
▁shush	-10.963
▁isis	-10.963
▁aaaah	-10.9631
▁noble	-10.9631
▁festival	-10.9631
▁journalist	-10.9631
▁riley	-10.9631
▁chaz	-10.9631
▁brace	-10.9631
▁krissi	-10.9631
▁nixon	-10.9631
▁trina	-10.9631
▁software	-10.9631
▁genetic	-10.9631
▁appropriate	-10.9631
▁knight	-10.9631
▁harling	-10.9631
▁cabinet	-10.9631
▁admitted	-10.9632
▁skinny	-10.9632
▁wiggle	-10.9632
▁cattle	-10.9632
▁raid	-10.9632
▁burst	-10.9632
▁obsessed	-10.9632
▁traditional	-10.9632
▁dock	-10.9632
▁addiction	-10.9632
▁tackle	-10.9632
▁shill	-10.9632
▁spots	-10.9632
▁kane	-10.9633
▁layton	-10.9633
▁european	-10.9633
▁stabbing	-10.9633
▁celebrating	-10.9633
▁elite	-10.9633
▁bobcat	-10.9634
▁gambler	-10.9634
▁soil	-10.9634
▁sofa	-10.9634
▁valuable	-10.9634
▁privilege	-10.9634
▁hash	-10.9634
▁bribe	-10.9634
▁argh	-10.9635
▁scent	-10.9635
▁relevant	-10.9635
▁grownup	-10.9635
▁brian	-10.9636
▁confirmation	-10.9636
▁dismissed	-10.9636
▁frustrated	-10.9636
▁nearby	-10.9636
▁portal	-10.9636
▁inspired	-10.9636
▁unlike	-10.9637
▁hedge	-10.9637
▁reilly	-10.9637
▁jesse	-10.9637
▁shipment	-10.9637
▁shield	-10.9637
▁reflection	-10.9638
▁mount	-10.9638
▁peaceful	-10.9638
▁pakistani	-10.9638
▁losin	-10.9639
▁shuffle	-10.9639
▁hank	-10.964
▁communist	-10.964
▁ranch	-10.964
▁yank	-10.964
▁fitting	-10.9641
▁hamburger	-10.9641
▁gently	-10.9641
▁metro	-10.9641
▁neighbours	-10.9642
▁seri	-10.9642
▁mere	-10.9642
▁bald	-10.9646
▁betting	-10.9646
▁popped	-10.9647
▁rear	-10.9648
▁dragon	-10.9649
stone	-10.9649
▁tan	-10.965
get	-10.965
▁chosen	-10.965
▁vet	-10.9651
▁attracted	-10.9652
▁dc	-10.9653
▁comb	-10.9654
▁spine	-10.9654
▁margie	-10.9654
▁cycl	-10.9654
▁crashes	-10.9656
▁rapidly	-10.9657
▁lawful	-10.9658
▁friendship	-10.9658
▁rake	-10.9661
▁brazil	-10.9661
▁spite	-10.9661
▁compound	-10.9661
▁fuckedup	-10.9662
▁heroes	-10.9663
▁allegations	-10.9664
▁heels	-10.9664
▁classes	-10.9666
▁preacher	-10.9667
▁beaten	-10.9668
▁goodnight	-10.9669
lt	-10.967
des	-10.9671
▁lane	-10.9672
oh	-10.9678
▁spying	-10.968
▁warned	-10.968
▁contained	-10.9681
▁scaring	-10.9683
▁dei	-10.9685
▁pastor	-10.9686
▁euros	-10.9686
▁roars	-10.9686
▁slots	-10.9687
▁stretch	-10.9687
▁useful	-10.969
▁vol	-10.969
▁mustnt	-10.9693
▁mop	-10.9694
▁locker	-10.9696
▁scheme	-10.9697
▁painted	-10.97
▁toll	-10.9703
set	-10.9706
rous	-10.9707
▁troops	-10.9709
▁nailed	-10.9716
▁monte	-10.9716
▁foreigners	-10.9718
▁performed	-10.9719
▁y	-10.9723
▁hooked	-10.9724
▁defending	-10.9727
▁sen	-10.9727
▁bowling	-10.9728
▁hopeless	-10.9729
▁deserved	-10.973
▁completed	-10.973
▁rumors	-10.9731
▁comics	-10.9732
▁bent	-10.9733
ckl	-10.9733
▁greatness	-10.9736
▁whoohoo	-10.9748
▁brief	-10.9749
▁borrowed	-10.9751
▁whys	-10.9753
▁grams	-10.9754
▁newspapers	-10.9754
▁lit	-10.9754
▁logical	-10.9757
▁studying	-10.9764
▁cracked	-10.9773
▁thinkin	-10.9775
▁rebuil	-10.9776
▁residents	-10.9776
umb	-10.9777
▁elders	-10.9777
▁iced	-10.9777
▁toxic	-10.978
▁cooked	-10.9781
▁dealt	-10.9782
▁misses	-10.9787
▁adams	-10.9795
▁crashed	-10.9798
▁addicts	-10.9799
▁justif	-10.98
▁bothered	-10.9803
▁lawn	-10.9806
▁treating	-10.9807
▁der	-10.9809
▁remaining	-10.9809
▁traveled	-10.981
ress	-10.9813
qualified	-10.9815
▁relatives	-10.9822
▁experiments	-10.9822
▁tshirts	-10.9822
▁tribes	-10.9823
▁ju	-10.9824
▁posters	-10.9834
▁ge	-10.9834
▁raining	-10.9843
▁elses	-10.9844
▁timeout	-10.985
▁rami	-10.9853
▁leon	-10.9858
▁wei	-10.986
▁toys	-10.9864
▁blonde	-10.9868
▁bees	-10.9871
▁mer	-10.9874
▁fu	-10.9878
▁lifes	-10.9895
▁safely	-10.9902
▁laughed	-10.9905
▁payments	-10.9913
▁goat	-10.9916
▁awards	-10.9934
▁wheels	-10.9935
▁miracles	-10.9935
berg	-10.9938
▁olympics	-10.9958
▁organs	-10.9959
▁sip	-10.9962
▁gar	-10.9972
▁rolled	-10.9974
▁images	-10.9984
▁reaching	-11.0001
▁troubled	-11.0002
▁marines	-11.0004
▁defendants	-11.0004
▁bookie	-11.0046
▁handy	-11.007
employment	-11.0097
▁haz	-11.0098
▁spits	-11.0118
▁jeans	-11.0119
▁bangs	-11.0122
▁fri	-11.013
▁exists	-11.0134
▁workers	-11.0143
▁finds	-11.0154
▁wha	-11.0167
▁carls	-11.0171
▁adore	-11.0179
▁vehicles	-11.0188
▁sticks	-11.0192
▁signing	-11.0208
▁rogers	-11.0211
▁sw	-11.0211
▁interests	-11.0214
▁shooter	-11.0218
▁reporting	-11.0219
ox	-11.0219
▁roads	-11.0242
ency	-11.0243
▁gra	-11.0253
▁grandmas	-11.0258
▁rode	-11.0259
▁humans	-11.0261
▁purposes	-11.0281
▁aa	-11.0288
▁quarters	-11.0301
▁nor	-11.0303
ze	-11.0397
▁whores	-11.0397
▁rac	-11.0416
▁pur	-11.0417
▁dam	-11.0424
▁fade	-11.0431
▁criminals	-11.0444
▁est	-11.0457
bc	-11.0465
▁writers	-11.0477
▁lai	-11.0488
▁val	-11.0492
under	-11.0525
gar	-11.0528
▁arts	-11.0538
uce	-11.0539
▁freaks	-11.0542
▁conditions	-11.0557
▁spirits	-11.0561
▁colors	-11.0564
cola	-11.0589
aged	-11.0593
ora	-11.0598
truck	-11.0603
▁ahhh	-11.0618
▁presents	-11.0631
▁levels	-11.0656
▁bur	-11.0664
▁corners	-11.0665
▁caps	-11.0666
▁sor	-11.067
▁crimes	-11.0676
fo	-11.0686
eye	-11.0689
▁bump	-11.0697
▁mines	-11.0703
▁locks	-11.0708
▁mae	-11.0723
eyed	-11.0724
pe	-11.0745
▁define	-11.075
▁hen	-11.075
▁decides	-11.0753
▁vic	-11.0769
not	-11.0772
ach	-11.0792
▁cra	-11.0801
▁am	-11.0802
ping	-11.0804
ado	-11.0815
▁writes	-11.0817
tile	-11.0824
▁ai	-11.0828
▁handing	-11.0833
▁rob	-11.0842
ub	-11.0854
▁talks	-11.0855
▁checks	-11.0859
▁increase	-11.0861
▁whisper	-11.0861
els	-11.088
▁obligation	-11.088
▁casino	-11.0881
▁assessment	-11.0881
▁habit	-11.0882
▁manwhore	-11.0883
▁sausage	-11.0885
▁barbarian	-11.0885
▁reference	-11.0886
▁thud	-11.0887
▁belief	-11.0888
▁pond	-11.0888
▁height	-11.0888
▁kidney	-11.0889
ery	-11.0889
▁poem	-11.0889
▁costume	-11.089
▁jew	-11.089
▁slam	-11.0891
▁resident	-11.0892
▁instinct	-11.0893
▁nerd	-11.0893
▁mortar	-11.0894
▁diamond	-11.0894
▁skill	-11.0895
▁technique	-11.0896
▁elder	-11.0896
▁disco	-11.0897
▁cliff	-11.0897
▁glove	-11.0898
▁beside	-11.0899
▁candle	-11.0903
▁sticky	-11.0905
▁folk	-11.0907
ks	-11.0908
arm	-11.091
ham	-11.0918
gul	-11.092
▁evan	-11.092
▁thug	-11.0933
▁ins	-11.0937
this	-11.0948
▁lip	-11.095
▁sixty	-11.0954
▁constitution	-11.0972
▁drift	-11.0979
▁era	-11.0982
▁disturb	-11.0984
tes	-11.0985
ily	-11.0987
▁marty	-11.0994
fucking	-11.0997
ification	-11.1007
▁sever	-11.1014
place	-11.1016
lles	-11.1022
▁encounter	-11.1024
▁affect	-11.1025
▁waterboard	-11.1027
▁offers	-11.1027
read	-11.1034
authorized	-11.1036
proof	-11.1036
service	-11.1037
▁sarahs	-11.1037
iest	-11.1038
▁frighten	-11.1039
▁chai	-11.1042
▁batter	-11.1043
▁pad	-11.1044
cover	-11.1045
▁what	-11.1045
▁rud	-11.105
▁coop	-11.1051
▁teenage	-11.1051
▁wander	-11.1052
▁warren	-11.1052
▁livin	-11.1055
▁abort	-11.1055
sis	-11.1055
▁gentle	-11.1056
▁scienti	-11.1056
▁motherfuckin	-11.1057
ilia	-11.1057
▁forbid	-11.1058
counterterrorism	-11.1058
▁academy	-11.1058
▁advisor	-11.1058
▁alaikum	-11.1058
▁albuquerque	-11.1058
▁ambush	-11.1058
▁amsterdam	-11.1058
▁anthony	-11.1058
▁approval	-11.1058
▁arbitration	-11.1058
▁arrogant	-11.1058
▁assigned	-11.1058
▁bailiff	-11.1058
▁beloved	-11.1058
▁brooklyn	-11.1058
▁carnival	-11.1058
▁centuries	-11.1058
▁clerk	-11.1058
▁comanche	-11.1058
▁competition	-11.1058
▁compliment	-11.1058
▁conspiracy	-11.1058
▁cripple	-11.1058
▁crucified	-11.1058
▁dammit	-11.1058
▁depressing	-11.1058
▁depression	-11.1058
▁detention	-11.1058
▁disaster	-11.1058
▁embassy	-11.1058
▁exotic	-11.1058
▁extinct	-11.1058
▁exwife	-11.1058
▁fantasy	-11.1058
▁fascinating	-11.1058
▁fitzpatrick	-11.1058
▁flaherty	-11.1058
▁funkyzeit	-11.1058
▁galaxy	-11.1058
▁georgie	-11.1058
▁graveyard	-11.1058
▁greedy	-11.1058
▁grohl	-11.1058
▁hexa	-11.1058
▁hodges	-11.1058
▁hulka	-11.1058
▁humungus	-11.1058
▁identification	-11.1058
▁infected	-11.1058
▁intercept	-11.1058
▁ireland	-11.1058
▁istanbul	-11.1058
▁jangers	-11.1058
▁jeffrey	-11.1058
▁kehoe	-11.1058
▁kuperman	-11.1058
▁loomis	-11.1058
▁lsrael	-11.1058
▁marianne	-11.1058
▁marvelous	-11.1058
▁mcdonalds	-11.1058
▁medevac	-11.1058
▁memorandum	-11.1058
▁memorial	-11.1058
▁mississippi	-11.1058
▁montoya	-11.1058
▁moreno	-11.1058
▁morgue	-11.1058
▁motive	-11.1058
▁nearchus	-11.1058
▁neglect	-11.1058
▁obliged	-11.1058
▁overwhelmed	-11.1058
▁peanut	-11.1058
▁politician	-11.1058
▁quality	-11.1058
▁radek	-11.1058
▁releasing	-11.1058
▁rumbling	-11.1058
▁shirley	-11.1058
▁shmoo	-11.1058
▁shura	-11.1058
▁southwest	-11.1058
▁spoon	-11.1058
▁squash	-11.1058
▁stairwell	-11.1058
▁struggling	-11.1058
▁sullivan	-11.1058
▁surrounding	-11.1058
▁swamp	-11.1058
▁switzerland	-11.1058
▁technology	-11.1058
▁thieves	-11.1058
▁thorough	-11.1058
▁tunnel	-11.1058
▁unhappy	-11.1058
▁valentine	-11.1058
▁vendor	-11.1058
▁veronica	-11.1058
▁vicente	-11.1058
▁wrestling	-11.1058
▁abanks	-11.1058
▁butterfly	-11.1058
▁caravan	-11.1058
▁cmon	-11.1058
▁companion	-11.1058
▁fingerprints	-11.1058
▁hippo	-11.1058
▁incoming	-11.1058
▁infant	-11.1058
▁mutual	-11.1058
▁parasite	-11.1058
▁pencil	-11.1058
▁ruched	-11.1058
▁thief	-11.1058
▁unstable	-11.1058
▁wren	-11.1058
▁kennedy	-11.1058
▁schlomo	-11.1058
▁vomit	-11.1058
▁skitter	-11.1058
▁aristotle	-11.1058
▁gallery	-11.1058
▁heap	-11.1058
▁omar	-11.1058
▁jelly	-11.1058
▁kelly	-11.1058
▁iraq	-11.1058
▁stomp	-11.1058
▁avie	-11.1058
▁grocer	-11.1058
▁granny	-11.1058
▁oops	-11.1058
▁ventress	-11.1058
▁yves	-11.1058
▁graphic	-11.1058
▁gym	-11.1058
▁basketball	-11.1058
▁lonesome	-11.1058
▁tuition	-11.1058
▁rattling	-11.1058
▁perspective	-11.1058
▁mickey	-11.1058
▁feather	-11.1058
▁statue	-11.1058
▁broadcast	-11.1058
▁muttering	-11.1058
▁destruction	-11.1058
▁believing	-11.1058
▁wagon	-11.1058
▁dentist	-11.1058
▁turks	-11.1058
▁carrot	-11.1058
▁merwe	-11.1058
▁blunt	-11.1058
▁butthole	-11.1058
▁grape	-11.1058
▁cynic	-11.1058
▁iggy	-11.1058
▁invasion	-11.1058
▁tech	-11.1058
▁retirement	-11.1058
▁disappointment	-11.1058
▁valium	-11.1058
▁clinic	-11.1058
▁veal	-11.1058
▁auction	-11.1058
▁cogs	-11.1058
▁robot	-11.1058
▁laptop	-11.1058
▁shaving	-11.1059
▁upside	-11.1059
▁hazard	-11.1059
▁paso	-11.1059
▁ketchup	-11.1059
▁antigonus	-11.1059
▁attic	-11.1059
▁thudding	-11.1059
▁winston	-11.1059
▁teddy	-11.1059
▁grill	-11.1059
▁investment	-11.1059
▁budget	-11.1059
▁princeton	-11.1059
▁reception	-11.1059
▁drummer	-11.1059
▁marcano	-11.1059
▁twentyfive	-11.1059
▁chipper	-11.1059
▁loyalty	-11.1059
▁description	-11.1059
▁boogeyman	-11.1059
▁lousy	-11.1059
▁audition	-11.1059
▁magdalene	-11.1059
▁arabic	-11.1059
▁hoover	-11.1059
▁scam	-11.1059
▁sunlight	-11.1059
▁colorado	-11.1059
▁maria	-11.1059
▁stanley	-11.1059
▁strategy	-11.1059
▁temptation	-11.1059
▁paycheck	-11.1059
▁racist	-11.106
▁brendan	-11.106
▁aaron	-11.106
▁dental	-11.106
▁erect	-11.106
▁oak	-11.106
▁binding	-11.106
▁electricity	-11.106
▁engagement	-11.106
▁breach	-11.106
▁resistance	-11.106
▁ferrin	-11.106
▁april	-11.106
▁coffin	-11.106
▁corporation	-11.106
▁patience	-11.106
▁volume	-11.106
▁ceremon	-11.106
▁fulfill	-11.106
▁circuit	-11.106
▁scientist	-11.106
▁priority	-11.106
▁pussies	-11.106
▁consistent	-11.1061
▁script	-11.1061
▁beginner	-11.1061
▁shack	-11.1061
▁burnley	-11.1061
▁korean	-11.1061
▁keyboard	-11.1061
▁hallway	-11.1061
▁flirting	-11.1062
▁ridge	-11.1062
▁pharmacy	-11.1062
▁jude	-11.1062
▁cooperation	-11.1062
▁prank	-11.1062
inski	-11.1062
▁chow	-11.1062
▁condor	-11.1062
▁sharon	-11.1062
▁buzzes	-11.1062
▁ripped	-11.1062
▁spotted	-11.1063
▁haircut	-11.1063
▁loyal	-11.1063
▁pirate	-11.1063
▁fog	-11.1063
▁stir	-11.1063
▁kirkland	-11.1063
▁chew	-11.1063
▁aggressive	-11.1063
▁departure	-11.1064
▁foolish	-11.1064
▁crystal	-11.1064
▁kara	-11.1064
▁axel	-11.1064
▁vera	-11.1064
▁guardian	-11.1064
▁bitten	-11.1065
▁dug	-11.1065
▁ark	-11.1065
▁baptized	-11.1066
▁hail	-11.1066
▁shorts	-11.1066
▁wholl	-11.1066
▁exposed	-11.1067
▁eagle	-11.1067
▁gent	-11.1067
▁dickhead	-11.1067
▁haha	-11.1068
▁bambi	-11.1068
▁frat	-11.1068
▁joanie	-11.1068
▁rusty	-11.1068
▁roth	-11.1068
▁dedicated	-11.1069
iro	-11.1069
▁daylight	-11.1069
anced	-11.1069
▁doggy	-11.1069
▁mice	-11.107
▁possessed	-11.107
▁dorm	-11.107
▁denied	-11.1071
▁producer	-11.1071
▁dash	-11.1072
▁phan	-11.1072
▁mchales	-11.1073
▁moroltos	-11.1073
▁lang	-11.1073
▁chopped	-11.1073
▁winger	-11.1074
▁programmed	-11.1074
▁expression	-11.1074
▁included	-11.1075
▁divided	-11.1075
▁adopted	-11.1075
▁alleged	-11.1075
▁tore	-11.1075
▁sim	-11.1075
▁mold	-11.1076
▁dous	-11.1077
▁prep	-11.1077
▁gray	-11.1078
▁bolt	-11.1078
▁gage	-11.1078
iece	-11.1079
▁hike	-11.1079
▁tenth	-11.1079
▁developed	-11.1082
▁dough	-11.1082
▁singin	-11.1083
▁assured	-11.1084
▁recovery	-11.1084
▁vanished	-11.1084
▁ants	-11.1086
▁beep	-11.1086
▁tender	-11.1086
▁repair	-11.1087
▁faintly	-11.1089
▁snapped	-11.109
▁mil	-11.1092
▁reasonable	-11.1093
▁modest	-11.1093
▁briefed	-11.1093
▁oro	-11.1094
einstein	-11.1096
▁cabin	-11.1096
▁creaks	-11.1098
▁larger	-11.1099
▁contractors	-11.1099
▁particularly	-11.1099
▁flooded	-11.1099
▁buses	-11.1099
▁choke	-11.1099
▁any	-11.1101
▁cursed	-11.1102
▁radi	-11.1102
▁hunger	-11.1103
▁cheri	-11.1104
▁floating	-11.1104
▁healing	-11.1104
▁ellie	-11.1105
▁mistaken	-11.1105
▁momma	-11.1105
▁bold	-11.1106
▁dod	-11.1107
▁rum	-11.1108
▁slaughtered	-11.1108
▁baron	-11.1109
▁snarling	-11.111
▁locke	-11.1113
▁growls	-11.1113
▁recommended	-11.1113
roll	-11.1115
▁followers	-11.1116
▁acknowledged	-11.112
▁pran	-11.1122
▁drowning	-11.1123
▁whine	-11.1124
▁poisoned	-11.1128
▁accus	-11.1128
▁wiped	-11.1128
▁recognized	-11.1132
▁ghostly	-11.1135
▁citys	-11.1138
▁milli	-11.1144
▁bosses	-11.1146
▁businessman	-11.1147
▁parties	-11.1148
▁elbows	-11.115
▁grind	-11.1154
▁sincere	-11.1155
▁cheated	-11.1157
▁risky	-11.1159
▁comms	-11.1159
▁hookers	-11.1161
▁manita	-11.1161
▁legally	-11.1164
▁capps	-11.1165
▁atm	-11.1169
▁suffered	-11.1171
▁wishes	-11.1173
▁endless	-11.1176
▁elements	-11.1176
test	-11.1179
▁eits	-11.118
▁slower	-11.1182
think	-11.1187
▁classy	-11.119
▁inventor	-11.1197
▁switched	-11.12
▁discussing	-11.1203
▁penn	-11.121
▁hans	-11.1215
eek	-11.1216
▁candles	-11.1217
▁tara	-11.1218
▁mute	-11.122
▁collecting	-11.1221
▁concerning	-11.1223
▁slams	-11.1228
▁skills	-11.1228
▁focused	-11.1229
bre	-11.1229
▁heights	-11.1229
▁qui	-11.1231
▁kin	-11.1233
▁deer	-11.1237
▁cam	-11.1238
▁visited	-11.1239
▁volunteers	-11.1256
▁com	-11.1263
lapping	-11.1266
▁shitting	-11.1273
▁cy	-11.1274
▁symbols	-11.1282
▁shadows	-11.1282
▁survivors	-11.1282
▁sources	-11.1282
▁doj	-11.1289
▁customers	-11.129
▁boner	-11.1292
▁prayed	-11.1303
za	-11.1308
▁needles	-11.131
▁handled	-11.1311
▁wedd	-11.1314
▁pretending	-11.1314
ker	-11.1321
▁cookies	-11.1323
▁pulls	-11.1331
▁sche	-11.1331
▁arc	-11.1337
▁mat	-11.134
▁bein	-11.1346
▁et	-11.1346
▁suite	-11.135
ii	-11.1354
▁filling	-11.1358
▁tease	-11.1369
▁wifes	-11.137
▁snapp	-11.1371
▁praying	-11.1371
they	-11.1382
▁aids	-11.1387
▁threats	-11.1388
▁inn	-11.1389
▁listed	-11.1393
ari	-11.14
ethe	-11.1409
▁towels	-11.1415
▁arrives	-11.1418
▁funds	-11.1435
▁instruments	-11.1441
ude	-11.1454
kov	-11.1462
▁wee	-11.1464
▁clues	-11.1465
▁demands	-11.1467
yes	-11.1468
▁effects	-11.1468
eggy	-11.1469
▁seated	-11.1473
▁roses	-11.1475
▁artists	-11.1495
▁wounds	-11.1496
▁sleepy	-11.1502
▁mash	-11.1509
▁danced	-11.1516
▁cousins	-11.1522
zed	-11.1525
▁casey	-11.153
▁ab	-11.155
▁steaks	-11.1551
▁there	-11.1557
▁scarf	-11.1569
▁fellows	-11.1577
lan	-11.158
▁ale	-11.1585
▁hem	-11.1604
▁emt	-11.1612
spare	-11.1628
▁nate	-11.1643
lus	-11.1645
ung	-11.1647
▁mort	-11.1654
gon	-11.1656
izz	-11.166
sty	-11.1668
estate	-11.1685
▁buttons	-11.1685
ame	-11.169
▁ping	-11.1693
▁figures	-11.1704
▁dancers	-11.1706
teen	-11.1712
▁bombings	-11.1739
hhh	-11.1757
▁diseases	-11.1764
over	-11.1766
▁committ	-11.1768
▁che	-11.1782
▁tor	-11.1785
▁caf	-11.1785
ants	-11.1792
▁iii	-11.1799
▁bums	-11.1821
▁causes	-11.1823
▁gr	-11.1827
predictable	-11.1839
▁chains	-11.1854
▁holidays	-11.1873
▁ros	-11.1887
ets	-11.1892
▁borders	-11.19
▁targets	-11.1903
wah	-11.1906
ris	-11.191
ani	-11.1913
▁bands	-11.1924
ult	-11.1927
▁subjects	-11.1928
▁proves	-11.1928
▁sle	-11.1932
▁ambi	-11.1933
▁picks	-11.195
▁gus	-11.1951
▁fo	-11.1951
rel	-11.1959
▁blacked	-11.1969
ja	-11.1975
▁hats	-11.1976
▁whipp	-11.1981
ever	-11.1982
▁chickens	-11.1983
▁films	-11.201
▁yi	-11.2019
card	-11.2039
▁doubts	-11.204
don	-11.2062
uz	-11.2063
▁operations	-11.2065
▁ver	-11.2073
▁pointed	-11.2096
mhm	-11.2102
▁beam	-11.2108
ipped	-11.214
▁types	-11.2146
▁pd	-11.2152
▁lion	-11.216
▁mouths	-11.2181
exia	-11.2216
own	-11.2218
▁pops	-11.2223
▁han	-11.2226
verage	-11.2242
▁wakes	-11.2249
ello	-11.226
▁evacuate	-11.2277
lock	-11.2278
▁trac	-11.2285
▁via	-11.2313
ute	-11.2314
list	-11.2317
cin	-11.2328
▁tr	-11.2333
▁reporters	-11.2341
▁fields	-11.2341
▁depend	-11.2355
▁nu	-11.2359
▁apartments	-11.237
▁rh	-11.2401
▁blond	-11.2409
▁appoint	-11.2412
▁eth	-11.2418
▁invi	-11.2422
cho	-11.2426
▁sere	-11.2436
▁min	-11.2459
wo	-11.2462
uc	-11.2471
sexual	-11.2487
aki	-11.2498
▁ami	-11.2501
ceived	-11.2516
▁sum	-11.2522
thats	-11.2522
▁include	-11.2527
▁invent	-11.2528
▁method	-11.2547
aron	-11.2547
▁marble	-11.2549
▁dune	-11.2549
▁sal	-11.255
▁pigeon	-11.2552
▁decade	-11.2554
▁dy	-11.2558
▁angle	-11.2558
▁newspaper	-11.2559
▁cayman	-11.256
▁detainee	-11.256
▁employee	-11.2561
▁republican	-11.2561
▁lucki	-11.2561
▁teenager	-11.2561
▁citizen	-11.2562
▁dates	-11.2563
▁trips	-11.2564
mmy	-11.2568
hes	-11.2577
▁roman	-11.2578
valent	-11.2579
ville	-11.2585
fuck	-11.259
▁pl	-11.2592
dad	-11.26
sch	-11.2602
▁logic	-11.2603
▁why	-11.2604
▁rem	-11.261
▁slippe	-11.2619
▁rounds	-11.2621
aa	-11.2628
▁stores	-11.2642
zi	-11.2643
▁mic	-11.2646
▁snatch	-11.2646
night	-11.2652
▁jumps	-11.2665
▁immortal	-11.267
▁buzz	-11.2671
▁promis	-11.2679
▁breed	-11.2683
▁protest	-11.2684
▁hump	-11.2686
▁disgust	-11.2687
▁mock	-11.2687
▁attract	-11.269
jack	-11.2691
fire	-11.2695
▁vanish	-11.2697
mark	-11.2699
▁thro	-11.2699
▁stat	-11.2699
what	-11.27
posed	-11.2701
phone	-11.2703
minute	-11.2703
space	-11.2703
letter	-11.2704
▁arrange	-11.2704
▁promote	-11.2706
▁chic	-11.2706
▁psycholog	-11.2708
▁elli	-11.2708
▁goddam	-11.2708
▁libert	-11.2711
▁recon	-11.2711
▁technical	-11.2712
▁felon	-11.2712
▁fright	-11.2712
call	-11.2713
▁jenn	-11.2715
▁puss	-11.2716
▁terr	-11.2716
▁inspect	-11.2719
wide	-11.2719
▁cruise	-11.2719
▁function	-11.2719
▁potato	-11.272
osha	-11.2721
▁agh	-11.2722
▁initiate	-11.2722
▁jewel	-11.2723
▁establish	-11.2723
▁thirteen	-11.2724
▁kilo	-11.2724
▁fox	-11.2724
▁bankrupt	-11.2725
▁spear	-11.2725
ijuana	-11.2725
▁absurd	-11.2725
▁activities	-11.2725
▁afghan	-11.2725
▁aldren	-11.2725
▁alligator	-11.2725
▁altogether	-11.2725
▁analyze	-11.2725
▁ancient	-11.2725
▁arizona	-11.2725
▁aspirin	-11.2725
▁bachelor	-11.2725
▁bangkok	-11.2725
▁bhai	-11.2725
▁blanston	-11.2725
▁brockovich	-11.2725
▁bruno	-11.2725
▁caesar	-11.2725
▁casoria	-11.2725
▁catholic	-11.2725
▁celebrities	-11.2725
▁centipede	-11.2725
▁certificate	-11.2725
▁column	-11.2725
▁companies	-11.2725
▁conclusion	-11.2725
▁controversy	-11.2725
▁corporal	-11.2725
▁creative	-11.2725
▁dalavan	-11.2725
▁debate	-11.2725
▁december	-11.2725
▁despair	-11.2725
▁dionysus	-11.2725
▁donkey	-11.2725
▁eduardo	-11.2725
▁elvis	-11.2725
▁emoji	-11.2725
▁encouraging	-11.2725
▁explanation	-11.2725
▁explore	-11.2725
▁extraordinary	-11.2725
▁fabric	-11.2725
▁fishbowl	-11.2725
▁forensic	-11.2725
▁geoffrey	-11.2725
▁gibson	-11.2725
▁giggling	-11.2725
▁graduation	-11.2725
▁harvest	-11.2725
▁hashtag	-11.2725
▁hollow	-11.2725
▁horror	-11.2725
▁inspiring	-11.2725
▁intact	-11.2725
▁january	-11.2725
▁jersey	-11.2725
▁judging	-11.2725
▁kassar	-11.2725
▁katerina	-11.2725
▁katrina	-11.2725
▁knicks	-11.2725
▁koslova	-11.2725
▁lobster	-11.2725
▁loneliness	-11.2725
▁lorenzo	-11.2725
▁manifest	-11.2725
▁markkula	-11.2725
▁martial	-11.2725
▁mckenna	-11.2725
▁millaney	-11.2725
▁misunderstood	-11.2725
▁monastery	-11.2725
▁murdock	-11.2725
▁muslim	-11.2725
▁necessarily	-11.2725
▁negro	-11.2725
▁nikita	-11.2725
▁obrien	-11.2725
▁outpost	-11.2725
▁overcome	-11.2725
▁overwhelming	-11.2725
▁pagniacci	-11.2725
▁painkillers	-11.2725
▁parlor	-11.2725
▁penguin	-11.2725
▁phenomenon	-11.2725
▁prometheus	-11.2725
▁psychic	-11.2725
▁refinery	-11.2725
▁samurai	-11.2725
▁scholar	-11.2725
▁scylla	-11.2725
▁seminar	-11.2725
▁shakespeare	-11.2725
▁shudders	-11.2725
▁slug	-11.2725
▁snitch	-11.2725
▁souvenir	-11.2725
▁spiral	-11.2725
▁spoor	-11.2725
▁stadium	-11.2725
▁stephanie	-11.2725
▁sunglasses	-11.2725
▁syndrome	-11.2725
▁synthetic	-11.2725
▁tomasino	-11.2725
▁twilight	-11.2725
▁unexpected	-11.2725
▁vacuum	-11.2725
▁vaughn	-11.2725
▁vengeance	-11.2725
▁verbier	-11.2725
▁vermin	-11.2725
▁walkietalkie	-11.2725
▁watkins	-11.2725
▁wheezing	-11.2725
▁whew	-11.2725
▁wozniak	-11.2725
▁yelps	-11.2725
▁yllescas	-11.2725
▁blackmail	-11.2725
▁bookstore	-11.2725
▁courtyard	-11.2725
▁distinguish	-11.2725
▁hague	-11.2725
▁lamar	-11.2725
▁nosebleed	-11.2725
▁noshow	-11.2725
▁phillip	-11.2725
▁reckless	-11.2725
▁smear	-11.2725
▁sponsor	-11.2725
▁utter	-11.2725
▁wrinkle	-11.2725
▁buddies	-11.2725
▁warehouse	-11.2725
▁bigalow	-11.2725
▁degrad	-11.2725
▁tarrance	-11.2725
donuts	-11.2725
▁bleach	-11.2725
▁carpet	-11.2725
▁craft	-11.2725
▁ethics	-11.2725
▁kessi	-11.2725
▁aircraft	-11.2725
▁elaine	-11.2725
▁inspiration	-11.2725
▁veil	-11.2725
▁compact	-11.2725
▁darwin	-11.2725
▁mustang	-11.2725
▁shadowchild	-11.2725
▁drool	-11.2725
▁applied	-11.2725
▁chiago	-11.2725
▁scumbag	-11.2725
▁mackenzie	-11.2725
▁phalanx	-11.2725
▁pulse	-11.2725
▁africanamerican	-11.2725
▁drugged	-11.2725
▁prescription	-11.2725
▁dripping	-11.2725
▁microphone	-11.2725
▁bleating	-11.2725
▁skinheads	-11.2725
▁illusion	-11.2725
▁alexandria	-11.2725
▁convo	-11.2725
▁inappropriate	-11.2725
▁kinky	-11.2725
▁notify	-11.2725
▁studied	-11.2725
▁blink	-11.2725
▁evasion	-11.2725
▁minivan	-11.2725
▁pornography	-11.2725
▁variety	-11.2725
▁causing	-11.2725
▁banana	-11.2725
▁almighty	-11.2725
▁lilith	-11.2725
▁northwestern	-11.2725
▁selfconscious	-11.2725
▁administration	-11.2725
▁obsession	-11.2725
▁resent	-11.2725
▁insight	-11.2725
▁briefcase	-11.2725
▁grip	-11.2725
▁orphanage	-11.2725
▁scott	-11.2725
▁passionate	-11.2725
▁duties	-11.2725
▁flank	-11.2725
▁stump	-11.2725
▁vende	-11.2725
▁friendlies	-11.2725
▁judy	-11.2725
▁previous	-11.2725
▁surface	-11.2725
▁designated	-11.2725
▁beverage	-11.2725
▁psst	-11.2725
logger	-11.2725
▁rail	-11.2725
▁antique	-11.2725
▁slipping	-11.2725
▁referring	-11.2725
▁vicious	-11.2725
▁nosy	-11.2725
▁complication	-11.2725
▁pursuing	-11.2725
▁kinsa	-11.2725
▁achievement	-11.2725
▁altitude	-11.2725
▁royce	-11.2725
▁stalk	-11.2725
▁arsch	-11.2725
▁occurred	-11.2725
▁revue	-11.2725
▁shook	-11.2725
▁racine	-11.2726
▁heck	-11.2726
▁hassle	-11.2726
▁bendini	-11.2726
▁youth	-11.2726
▁springfield	-11.2726
▁broadway	-11.2726
▁diversion	-11.2726
▁evacuation	-11.2726
▁edition	-11.2726
▁insert	-11.2726
▁ultimate	-11.2726
▁sync	-11.2726
▁allergic	-11.2726
ogue	-11.2726
▁verbal	-11.2726
▁vein	-11.2726
▁shaking	-11.2726
▁torch	-11.2726
▁vicar	-11.2726
▁cruel	-11.2726
▁quadrant	-11.2726
▁trent	-11.2726
▁approximately	-11.2726
▁heckle	-11.2726
▁hijackers	-11.2726
▁jingling	-11.2726
▁instructor	-11.2726
▁kilometer	-11.2726
bbet	-11.2726
▁ferry	-11.2726
▁void	-11.2727
▁frog	-11.2727
▁dummy	-11.2727
aux	-11.2727
▁beings	-11.2727
▁fruma	-11.2727
▁hostage	-11.2727
▁kong	-11.2727
▁embarrassment	-11.2727
▁woof	-11.2727
▁spiritual	-11.2727
▁hamas	-11.2727
▁sinned	-11.2727
▁chatting	-11.2727
▁objective	-11.2727
▁discretion	-11.2727
▁satisfied	-11.2727
▁servant	-11.2727
▁involvement	-11.2727
▁oj	-11.2727
▁waive	-11.2727
▁sweep	-11.2727
▁rising	-11.2727
▁courtroom	-11.2727
▁suspension	-11.2727
▁affection	-11.2727
▁lockdown	-11.2727
▁bartender	-11.2727
▁web	-11.2728
▁guine	-11.2728
▁buff	-11.2728
▁molina	-11.2728
▁herman	-11.2728
▁wax	-11.2728
▁elsa	-11.2728
▁whorehouse	-11.2728
▁reactor	-11.2728
▁fuss	-11.2729
▁bracelet	-11.2729
▁horseshit	-11.2729
▁trembling	-11.2729
▁margin	-11.2729
▁funky	-11.2729
▁crusader	-11.2729
▁childhood	-11.2729
▁herb	-11.2729
▁nichola	-11.2729
▁bingo	-11.2729
▁reset	-11.2729
▁allah	-11.273
▁potatoes	-11.273
▁hisse	-11.273
▁conscious	-11.273
▁penance	-11.273
▁interrogator	-11.273
▁roam	-11.273
▁coordinated	-11.273
▁percentage	-11.273
▁tango	-11.2731
▁elsewhere	-11.2731
▁phrase	-11.2731
▁lube	-11.2731
▁distraction	-11.2732
▁partnership	-11.2732
▁centre	-11.2732
▁witches	-11.2732
▁jammed	-11.2732
▁faithful	-11.2732
▁peek	-11.2732
▁gap	-11.2733
▁guido	-11.2733
hop	-11.2733
▁earl	-11.2734
▁oren	-11.2734
▁doomed	-11.2734
▁jaffey	-11.2734
▁jag	-11.2735
▁takin	-11.2735
▁african	-11.2735
▁dishes	-11.2735
▁publicity	-11.2736
▁constantly	-11.2736
was	-11.2736
▁blend	-11.2736
▁corruption	-11.2737
▁upper	-11.2737
▁lifestyle	-11.2738
▁moss	-11.2738
▁shuttle	-11.2739
▁rookie	-11.2739
▁facebook	-11.2739
▁vain	-11.2739
▁kris	-11.2739
▁rejected	-11.2739
▁inhaler	-11.2739
▁quitting	-11.2739
▁peep	-11.274
▁bardo	-11.274
▁felony	-11.274
▁enh	-11.2741
▁ox	-11.2741
▁tries	-11.2741
▁psychological	-11.2741
▁frontier	-11.2741
▁playbook	-11.2741
▁losses	-11.2741
▁fries	-11.2742
▁lime	-11.2742
▁nikki	-11.2742
▁drapes	-11.2742
▁splutters	-11.2742
▁wiser	-11.2743
▁tapped	-11.2744
▁controlled	-11.2744
inch	-11.2744
▁iv	-11.2744
▁policemen	-11.2744
▁conquered	-11.2745
▁crooked	-11.2745
▁accomplished	-11.2745
▁whacked	-11.2745
▁sur	-11.2745
uff	-11.2746
▁walker	-11.2747
▁speeches	-11.2748
▁wealthy	-11.2748
▁increased	-11.2748
▁mayday	-11.2748
▁parish	-11.2749
iah	-11.2749
▁rice	-11.2749
▁bidding	-11.275
▁annie	-11.275
▁distracting	-11.275
kids	-11.2751
▁sup	-11.2751
▁lingerie	-11.2752
▁backache	-11.2752
▁manchester	-11.2753
▁bunker	-11.2753
▁initiated	-11.2753
▁asian	-11.2753
▁shek	-11.2754
▁cord	-11.2756
▁honorable	-11.2756
▁kay	-11.2756
▁golden	-11.2756
▁styler	-11.2756
▁proposed	-11.2756
▁proven	-11.2757
cara	-11.2758
▁clothing	-11.2758
▁everyday	-11.2758
▁investigated	-11.2759
▁cuba	-11.2761
▁mmmm	-11.2762
▁approved	-11.2762
▁salam	-11.2762
▁kent	-11.2763
▁robber	-11.2764
▁madman	-11.2766
▁narrow	-11.277
▁pasa	-11.277
▁stamped	-11.277
▁hel	-11.2771
▁oysters	-11.2773
▁condoms	-11.2773
▁dee	-11.2773
▁newton	-11.2773
▁boobs	-11.2773
▁published	-11.2774
▁roommate	-11.2775
▁deals	-11.2778
▁roughly	-11.2779
ique	-11.2779
▁fastest	-11.278
izzl	-11.278
▁boiling	-11.278
▁tubes	-11.2783
▁simpler	-11.2783
▁undo	-11.2785
▁unlocked	-11.2785
▁drowned	-11.2785
▁granted	-11.2785
▁oughta	-11.2788
▁matte	-11.2789
▁ol	-11.2791
▁scoot	-11.2791
▁standup	-11.2792
▁addition	-11.2792
▁advised	-11.2797
▁chilly	-11.2798
▁setup	-11.2798
▁pacific	-11.2798
▁peel	-11.28
▁gooks	-11.2801
▁wills	-11.2801
▁climbing	-11.2802
▁headline	-11.2803
▁veterans	-11.2804
▁emotions	-11.2805
▁charming	-11.2809
itation	-11.2813
▁cycle	-11.2815
▁ciao	-11.2821
▁constitutional	-11.2828
▁strut	-11.2828
ugh	-11.2829
ending	-11.2829
▁traded	-11.2831
▁crushed	-11.2831
▁twisted	-11.2831
cal	-11.2833
▁apo	-11.2834
▁pearls	-11.2835
▁operatives	-11.2835
▁biscuits	-11.2835
▁whoops	-11.2835
▁ruler	-11.2836
ide	-11.2836
▁printed	-11.2838
▁coolest	-11.2838
▁vibrat	-11.2839
▁servers	-11.284
▁flop	-11.2844
▁pumped	-11.2844
▁gro	-11.2845
▁preserve	-11.2847
▁smashed	-11.2849
▁smokes	-11.285
▁kneel	-11.285
▁designer	-11.2851
▁usa	-11.2856
▁helps	-11.2858
▁medically	-11.2865
▁worms	-11.2866
▁bruises	-11.2866
▁civilians	-11.2866
▁counseling	-11.2868
▁talented	-11.2872
▁assets	-11.2875
▁bare	-11.2892
tta	-11.2896
▁tasted	-11.2896
▁romans	-11.2897
▁decades	-11.2898
▁teenagers	-11.2899
▁feeding	-11.2901
▁quicker	-11.2902
▁honesty	-11.2903
▁passion	-11.2907
▁needle	-11.2908
▁savages	-11.2909
tz	-11.2909
gra	-11.2911
▁touring	-11.292
▁blamed	-11.2922
▁sher	-11.2922
heim	-11.2925
▁destroying	-11.2928
ten	-11.2929
▁costumes	-11.293
▁ponds	-11.293
▁beliefs	-11.293
▁poems	-11.293
▁thuds	-11.293
▁ofyou	-11.2931
▁reminded	-11.2934
game	-11.2945
▁rushing	-11.2949
▁gram	-11.2953
▁networks	-11.2961
▁lighter	-11.2963
▁visitors	-11.2964
▁cds	-11.2969
▁hart	-11.2976
▁reminder	-11.2982
▁suited	-11.2986
▁vo	-11.2987
▁associates	-11.2993
▁affairs	-11.2993
▁bodyguards	-11.2993
pong	-11.2996
▁teams	-11.3002
▁trace	-11.3004
text	-11.3015
▁scouts	-11.3025
▁renting	-11.303
active	-11.3036
ition	-11.3037
▁conf	-11.3045
misunderstanding	-11.3045
▁reads	-11.3047
lar	-11.3049
▁rely	-11.305
ata	-11.3053
▁basics	-11.3057
▁engineers	-11.3057
▁rais	-11.3068
well	-11.3069
my	-11.3081
▁accounting	-11.3087
▁attacking	-11.3089
▁rack	-11.3089
▁fare	-11.3098
▁frankie	-11.3105
▁hitch	-11.3108
▁ban	-11.3115
▁prawns	-11.312
▁bugs	-11.3121
▁by	-11.3122
▁ga	-11.3132
▁reg	-11.3136
▁hunters	-11.3137
▁protected	-11.3138
ked	-11.3139
▁boats	-11.3142
▁desires	-11.3152
▁damages	-11.3153
▁arrangements	-11.3155
ego	-11.3162
▁stru	-11.3164
▁skipp	-11.3165
ening	-11.3173
ori	-11.3182
▁monkeys	-11.3184
▁tuesdays	-11.3184
▁butts	-11.3185
▁mode	-11.3206
▁professionals	-11.3215
▁stare	-11.3225
▁at	-11.3233
▁deceive	-11.3235
▁dom	-11.3244
▁can	-11.3245
▁beasts	-11.3249
▁nerves	-11.3249
▁christians	-11.3249
unch	-11.3251
▁explaining	-11.3266
▁hop	-11.3271
rice	-11.3306
▁her	-11.3311
cano	-11.3311
▁murderers	-11.3328
ano	-11.3337
▁bount	-11.3343
▁nurses	-11.3345
▁locations	-11.3346
ppy	-11.3354
▁scr	-11.3357
sucking	-11.3369
▁rec	-11.3383
ford	-11.3388
▁bounce	-11.3391
▁waitin	-11.3402
tch	-11.3403
▁hills	-11.3431
▁holder	-11.3437
▁ida	-11.3437
▁mirrors	-11.3443
▁connections	-11.3444
▁ste	-11.3466
▁hooks	-11.3469
nom	-11.3496
▁plants	-11.35
▁chan	-11.3508
▁arch	-11.3521
▁mouthing	-11.3535
ran	-11.354
▁unc	-11.3546
▁seduce	-11.3549
▁tad	-11.3554
▁intoxicat	-11.3574
hole	-11.3575
▁humiliate	-11.3575
▁concerns	-11.3578
▁shitless	-11.3589
zman	-11.3592
lez	-11.3603
▁catching	-11.3612
▁ku	-11.3614
induced	-11.3614
▁cli	-11.3622
▁wished	-11.3623
pret	-11.363
rated	-11.3646
▁regulars	-11.3672
▁articles	-11.3672
▁niggers	-11.3672
▁willy	-11.3675
▁strap	-11.3678
nce	-11.3679
uit	-11.3695
▁zodiacs	-11.3728
▁amounts	-11.3738
▁texts	-11.374
▁wad	-11.3749
ically	-11.375
▁questioning	-11.3756
▁bases	-11.3774
▁sings	-11.3776
▁that	-11.3802
chi	-11.3803
▁sticker	-11.3804
nia	-11.3805
but	-11.3822
▁shops	-11.3837
▁que	-11.3846
can	-11.3852
cher	-11.3854
▁numbered	-11.3879
▁mes	-11.3881
▁eric	-11.3899
▁averys	-11.3903
▁gifts	-11.3903
ky	-11.3913
▁hum	-11.3915
▁vl	-11.3918
▁kindly	-11.3923
▁peg	-11.393
▁spa	-11.3937
▁poo	-11.3954
fli	-11.3968
lk	-11.3972
▁cod	-11.3973
most	-11.3975
▁mol	-11.3987
aut	-11.3991
ifer	-11.4002
▁missions	-11.4022
zer	-11.4028
▁hips	-11.4049
▁bites	-11.4061
▁firms	-11.407
▁yan	-11.4077
enny	-11.408
▁stuffed	-11.4085
▁forms	-11.4099
▁crews	-11.4104
▁agrees	-11.4107
▁cob	-11.4109
atic	-11.4116
▁stra	-11.4117
▁anyways	-11.4132
bit	-11.4136
▁hos	-11.4139
▁woo	-11.4153
q	-11.417
▁fights	-11.4201
▁arrests	-11.4215
trapped	-11.4224
▁cont	-11.4225
kin	-11.4233
termination	-11.424
▁sta	-11.425
▁sy	-11.4258
ron	-11.4273
▁blinds	-11.428
ummy	-11.4295
▁rang	-11.4296
nes	-11.4296
▁roller	-11.4307
key	-11.4333
vering	-11.4333
gulf	-11.4336
▁easter	-11.4355
arian	-11.4357
▁rust	-11.436
azy	-11.4361
eep	-11.437
any	-11.4374
ppa	-11.4375
▁exc	-11.4388
lon	-11.4423
igan	-11.4443
amin	-11.4486
▁spark	-11.4492
cla	-11.4499
▁del	-11.4504
▁ev	-11.4522
▁author	-11.4537
▁recreation	-11.4541
▁institution	-11.4542
▁wins	-11.4542
▁moo	-11.4545
▁rebel	-11.4546
▁investigator	-11.4547
▁clown	-11.4551
▁colleague	-11.4552
▁giggle	-11.4552
▁receipt	-11.4552
▁gallon	-11.4552
▁bruise	-11.4554
▁civilian	-11.4556
▁element	-11.4557
▁worm	-11.4559
ney	-11.456
▁villain	-11.4561
▁rumor	-11.4561
▁comic	-11.4562
▁sob	-11.4566
▁eit	-11.4571
▁tit	-11.4575
▁hesitate	-11.4584
▁lowe	-11.4586
eenie	-11.4599
▁musician	-11.46
jays	-11.4612
▁stations	-11.4619
▁conti	-11.4627
lay	-11.4628
▁pol	-11.4631
▁asset	-11.4631
ette	-11.4636
▁polic	-11.4638
▁tang	-11.464
▁flights	-11.465
▁marriages	-11.4651
nit	-11.4657
▁cel	-11.4665
▁troubl	-11.4672
power	-11.4673
▁renew	-11.4677
▁ohhh	-11.4688
▁punish	-11.469
▁strain	-11.4691
▁detect	-11.4692
slav	-11.4692
▁develop	-11.4692
ought	-11.4696
▁dim	-11.4698
ngle	-11.4699
plane	-11.4701
fall	-11.4701
cloth	-11.4701
pitched	-11.4701
speed	-11.4701
mission	-11.4701
grateful	-11.4703
fruit	-11.4703
yearold	-11.4703
with	-11.4703
box	-11.4704
six	-11.4704
▁linger	-11.4704
▁sparkle	-11.4704
▁execute	-11.4706
▁cloth	-11.4706
wise	-11.4706
burger	-11.4706
▁compromise	-11.4706
▁locate	-11.4706
▁observe	-11.4707
erry	-11.4707
speaker	-11.4708
▁jerem	-11.4709
cast	-11.4709
around	-11.4709
string	-11.4709
▁mysterious	-11.471
▁snor	-11.471
▁constant	-11.4711
bag	-11.4711
▁precise	-11.4712
▁unfortunate	-11.4712
▁neat	-11.4712
train	-11.4713
▁programme	-11.4713
▁austria	-11.4714
▁prospect	-11.4714
▁cooperat	-11.4717
▁transmit	-11.4719
▁reflect	-11.4719
▁refuge	-11.472
▁marshal	-11.4721
fish	-11.4721
some	-11.4721
▁intent	-11.4722
▁suppress	-11.4722
olivia	-11.4722
▁sittin	-11.4722
▁mercenar	-11.4722
▁relev	-11.4723
▁authentic	-11.4724
▁cartoon	-11.4724
coat	-11.4724
▁consist	-11.4724
▁roxan	-11.4724
▁chronic	-11.4724
▁multi	-11.4724
▁survey	-11.4724
ficial	-11.4725
▁smurf	-11.4725
▁horizon	-11.4725
▁accommodate	-11.4725
▁acquire	-11.4725
▁aggravat	-11.4725
▁alejandro	-11.4725
▁amazon	-11.4725
▁analogy	-11.4725
▁andahalf	-11.4725
▁anxiety	-11.4725
▁arrgh	-11.4725
▁asparagus	-11.4725
▁avalanche	-11.4725
▁bannion	-11.4725
▁basileus	-11.4725
▁battalion	-11.4725
▁bellasarious	-11.4725
▁bikini	-11.4725
▁bolitonov	-11.4725
▁bourbon	-11.4725
▁briggs	-11.4725
▁brokaw	-11.4725
▁bucephalus	-11.4725
▁bundermann	-11.4725
▁canvas	-11.4725
▁capacity	-11.4725
▁catacombs	-11.4725
▁choochoo	-11.4725
▁choosing	-11.4725
▁chubby	-11.4725
▁combination	-11.4725
▁compartment	-11.4725
▁convention	-11.4725
▁coordinator	-11.4725
▁curtain	-11.4725
▁defect	-11.4725
▁dehaven	-11.4725
▁devotion	-11.4725
▁dignity	-11.4725
▁disbarred	-11.4725
▁discharged	-11.4725
▁disguise	-11.4725
▁disposable	-11.4725
▁dreadful	-11.4725
▁dunleavy	-11.4725
▁eamons	-11.4725
▁elegant	-11.4725
▁engel	-11.4725
▁enthusiasm	-11.4725
▁equation	-11.4725
▁eustice	-11.4725
▁excellence	-11.4725
▁excitement	-11.4725
▁exhibit	-11.4725
▁facetoface	-11.4725
▁february	-11.4725
▁fergie	-11.4725
▁forrest	-11.4725
▁fragment	-11.4725
▁freud	-11.4725
▁galilee	-11.4725
▁gendarmerie	-11.4725
▁giraffe	-11.4725
▁glorious	-11.4725
▁granddaddy	-11.4725
▁gretchen	-11.4725
▁grieving	-11.4725
▁hypothetically	-11.4725
▁imaginary	-11.4725
▁incarcerated	-11.4725
▁increasing	-11.4725
▁integrity	-11.4725
▁islam	-11.4725
▁isolation	-11.4725
▁johannesburg	-11.4725
▁joliet	-11.4725
▁joshua	-11.4725
▁kaganovich	-11.4725
▁kalina	-11.4725
▁kettle	-11.4725
▁kriticos	-11.4725
▁laundry	-11.4725
▁lavrenti	-11.4725
▁lombardi	-11.4725
▁louisiana	-11.4725
▁lsharp	-11.4725
▁luggage	-11.4725
▁magnificent	-11.4725
▁malaysia	-11.4725
▁malnick	-11.4725
▁manslaughter	-11.4725
▁martha	-11.4725
▁martinelli	-11.4725
▁massachusetts	-11.4725
▁miriam	-11.4725
▁mongrel	-11.4725
▁mortgage	-11.4725
▁museum	-11.4725
▁necklace	-11.4725
▁neighing	-11.4725
▁nickname	-11.4725
▁nipple	-11.4725
▁obama	-11.4725
▁obtain	-11.4725
▁oklahoma	-11.4725
▁olympia	-11.4725
▁pamela	-11.4725
▁patroclus	-11.4725
▁poverty	-11.4725
▁practicing	-11.4725
▁precaution	-11.4725
▁prettier	-11.4725
▁privacy	-11.4725
▁rehearsing	-11.4725
▁representative	-11.4725
▁revelation	-11.4725
▁rockefeller	-11.4725
▁sanatorium	-11.4725
▁sangria	-11.4725
▁sanitarium	-11.4725
▁sarcasm	-11.4725
▁satchmo	-11.4725
▁schanberg	-11.4725
▁scrawl	-11.4725
▁sfpd	-11.4725
▁shabbos	-11.4725
▁shapiro	-11.4725
▁sheik	-11.4725
▁shitbrick	-11.4725
▁shortsighted	-11.4725
▁shrieking	-11.4725
▁shrieks	-11.4725
▁shuddering	-11.4725
▁sinclair	-11.4725
▁soccer	-11.4725
▁stockholm	-11.4725
▁subpoena	-11.4725
▁subsequent	-11.4725
▁substance	-11.4725
▁swept	-11.4725
▁sykes	-11.4725
▁tanaka	-11.4725
▁tehronne	-11.4725
▁temporarily	-11.4725
▁theft	-11.4725
▁tremendous	-11.4725
▁tupperware	-11.4725
▁utilidor	-11.4725
▁vertical	-11.4725
▁vienna	-11.4725
▁vintage	-11.4725
▁vitamins	-11.4725
▁voorhees	-11.4725
▁whereabouts	-11.4725
▁whiplash	-11.4725
▁wolves	-11.4725
▁wrestle	-11.4725
▁yeehaw	-11.4725
▁zancona	-11.4725
▁zeca	-11.4725
▁arguing	-11.4725
▁butcher	-11.4725
▁canyon	-11.4725
▁consequences	-11.4725
▁depth	-11.4725
▁domain	-11.4725
▁donate	-11.4725
▁leap	-11.4725
▁legacy	-11.4725
▁machete	-11.4725
▁nuclear	-11.4725
▁preparing	-11.4725
▁proust	-11.4725
▁pursue	-11.4725
▁rahman	-11.4725
▁repuls	-11.4725
▁revenue	-11.4725
▁sensible	-11.4725
▁siege	-11.4725
▁sperm	-11.4725
▁babsie	-11.4725
▁brew	-11.4725
▁glorifie	-11.4725
▁hinda	-11.4725
▁outcome	-11.4725
▁succeed	-11.4725
▁transcript	-11.4725
▁unsolv	-11.4725
▁drumming	-11.4725
▁earrings	-11.4725
▁lodge	-11.4725
▁oversight	-11.4725
▁signature	-11.4725
▁cement	-11.4725
▁derek	-11.4725
▁rehabilitat	-11.4725
▁eighteen	-11.4725
▁invade	-11.4725
▁nevertheless	-11.4725
▁sinners	-11.4725
▁sketch	-11.4725
▁trousers	-11.4725
▁welfare	-11.4725
▁ninetythousand	-11.4725
▁squirrel	-11.4725
▁annoyed	-11.4725
▁democrat	-11.4725
▁donation	-11.4725
▁voltaire	-11.4725
▁entrance	-11.4725
▁gossip	-11.4725
▁middlesex	-11.4725
▁preparation	-11.4725
▁transgene	-11.4725
▁clutch	-11.4725
▁keg	-11.4725
▁ledger	-11.4725
▁narlow	-11.4725
▁condo	-11.4725
▁hummus	-11.4725
hnikov	-11.4725
▁brandnew	-11.4725
▁impotent	-11.4725
▁mammals	-11.4725
▁absence	-11.4725
▁nanex	-11.4725
▁maniac	-11.4725
▁lyons	-11.4725
▁salvation	-11.4725
▁walden	-11.4725
▁italy	-11.4725
▁morris	-11.4725
▁invoice	-11.4725
▁lomax	-11.4725
▁vicki	-11.4725
▁kristen	-11.4725
▁alexei	-11.4725
▁oldtimer	-11.4725
▁confidential	-11.4725
▁backyard	-11.4725
▁glide	-11.4725
▁entertain	-11.4725
▁booboo	-11.4725
▁dizzy	-11.4725
▁authorization	-11.4725
▁ashley	-11.4725
▁disrupt	-11.4725
▁education	-11.4725
▁insemination	-11.4725
▁harass	-11.4725
▁forbidden	-11.4725
▁saddle	-11.4725
▁corpsmen	-11.4725
▁concentration	-11.4725
▁comiccon	-11.4725
▁intensity	-11.4725
▁southeast	-11.4725
▁tsk	-11.4725
▁relocate	-11.4725
▁nolan	-11.4725
▁anesthetic	-11.4725
▁exorcism	-11.4725
▁proposition	-11.4725
▁arsehole	-11.4725
▁clack	-11.4725
▁compassion	-11.4725
▁confusion	-11.4725
▁dublin	-11.4725
▁preferably	-11.4725
▁foster	-11.4725
▁poach	-11.4725
▁mutt	-11.4725
▁overlook	-11.4725
▁leatherwood	-11.4725
▁volmer	-11.4725
▁delta	-11.4725
▁klaus	-11.4725
▁lyle	-11.4725
▁verde	-11.4725
▁waltz	-11.4725
▁pony	-11.4725
▁itit	-11.4726
▁leverage	-11.4726
▁beacon	-11.4726
▁enola	-11.4726
▁prius	-11.4726
▁chili	-11.4726
▁sprout	-11.4726
▁eviction	-11.4726
▁downey	-11.4726
▁inquiries	-11.4726
▁yyou	-11.4726
▁trading	-11.4726
▁beret	-11.4726
▁exclaim	-11.4726
▁cherita	-11.4726
▁edwin	-11.4726
▁pinkberry	-11.4726
▁creation	-11.4726
▁entry	-11.4726
▁semi	-11.4726
▁buggs	-11.4726
▁continuous	-11.4726
▁macray	-11.4726
▁confidentiality	-11.4726
▁reduction	-11.4726
▁polson	-11.4726
▁pike	-11.4726
▁slo	-11.4726
▁jeffries	-11.4726
▁salary	-11.4726
▁sector	-11.4726
▁mouse	-11.4726
▁kidnapper	-11.4726
▁terrorism	-11.4726
▁spinning	-11.4726
▁spotlight	-11.4726
▁barrett	-11.4726
▁decadent	-11.4726
affle	-11.4726
▁knickers	-11.4726
▁dvd	-11.4726
▁honklng	-11.4726
▁pervers	-11.4727
▁null	-11.4727
▁stash	-11.4727
witz	-11.4727
▁carolina	-11.4727
▁penalty	-11.4727
▁malia	-11.4727
▁ridden	-11.4727
elching	-11.4727
▁shaw	-11.4727
▁conny	-11.4727
▁prepped	-11.4727
▁hunk	-11.4727
▁nigerian	-11.4727
▁epic	-11.4727
fund	-11.4727
▁accessory	-11.4727
▁mvd	-11.4727
▁tele	-11.4727
▁thatthat	-11.4727
▁excessive	-11.4727
▁hotshot	-11.4727
▁wooh	-11.4727
▁lightweight	-11.4727
▁classroom	-11.4727
▁clapping	-11.4727
▁bolivia	-11.4727
▁innit	-11.4728
▁sacramento	-11.4728
▁accurate	-11.4728
▁association	-11.4728
▁hydro	-11.4728
▁kraut	-11.4728
▁orchestra	-11.4728
▁samuel	-11.4728
▁impact	-11.4728
▁harsh	-11.4728
▁membership	-11.4728
▁alike	-11.4728
▁confrontation	-11.4728
▁ballroom	-11.4728
▁tyrant	-11.4728
▁render	-11.4728
▁boundary	-11.4728
▁wend	-11.4728
▁thanksgiving	-11.4728
▁peach	-11.4728
▁scatter	-11.4728
▁bund	-11.4728
▁fame	-11.4729
▁lenses	-11.4729
▁sidewalk	-11.4729
▁pork	-11.4729
▁homosexuality	-11.4729
▁shipped	-11.4729
▁beamers	-11.4729
▁sustained	-11.4729
▁finn	-11.473
▁avenge	-11.473
▁klan	-11.473
▁randy	-11.473
▁tourist	-11.473
▁cloudy	-11.473
▁thread	-11.473
▁accountability	-11.473
fif	-11.473
▁mug	-11.473
▁narrat	-11.473
▁extraction	-11.473
▁countryside	-11.473
▁dried	-11.4731
▁spade	-11.4731
▁allan	-11.4731
▁demonstrate	-11.4731
▁indi	-11.4731
▁stunt	-11.4731
nine	-11.4731
▁duh	-11.4731
▁quest	-11.4731
▁hola	-11.4732
▁maiden	-11.4732
▁monies	-11.4732
▁magician	-11.4732
▁thou	-11.4732
▁harmful	-11.4732
▁firefighter	-11.4733
▁attendant	-11.4733
▁collective	-11.4733
▁chemical	-11.4733
▁erica	-11.4733
▁fordon	-11.4733
▁naveed	-11.4733
▁lightning	-11.4733
▁destiny	-11.4733
▁stine	-11.4733
▁courthouse	-11.4734
▁fourteen	-11.4735
▁conspir	-11.4735
▁devastated	-11.4736
▁inverted	-11.4736
▁intimately	-11.4736
▁vanity	-11.4736
▁controller	-11.4736
▁notion	-11.4737
▁lind	-11.4737
▁deeds	-11.4738
▁presentation	-11.4738
▁alba	-11.4738
▁drone	-11.4738
▁equi	-11.4739
▁flatter	-11.4739
▁panel	-11.4739
▁alan	-11.4739
▁thumping	-11.4739
▁ace	-11.474
▁crown	-11.474
▁sanderson	-11.4741
ffy	-11.4741
▁stretcher	-11.4741
▁ava	-11.4742
iterate	-11.4742
▁regardless	-11.4742
▁root	-11.4742
▁inner	-11.4742
▁tasty	-11.4742
▁suspended	-11.4743
▁declared	-11.4743
▁benton	-11.4744
▁blaze	-11.4744
▁exploded	-11.4744
▁dang	-11.4745
▁tide	-11.4745
▁flown	-11.4745
▁hospitality	-11.4745
▁sour	-11.4745
▁tranquili	-11.4745
▁protective	-11.4746
▁crt	-11.4746
▁skies	-11.4746
▁deadbeat	-11.4747
▁mich	-11.4747
orno	-11.4747
▁lenny	-11.4748
▁howling	-11.4748
▁compromised	-11.4749
▁difficulties	-11.4749
▁promoted	-11.4749
▁translate	-11.475
▁poured	-11.475
▁wra	-11.475
▁newberry	-11.475
ola	-11.475
▁baldy	-11.4751
▁schoolboy	-11.4753
reach	-11.4754
▁successfully	-11.4754
▁governments	-11.4755
▁fod	-11.4755
▁aye	-11.4755
▁chica	-11.4755
▁illustrate	-11.4756
▁clinking	-11.4757
▁adjusting	-11.4757
▁arriving	-11.4757
▁detected	-11.4757
▁eu	-11.4758
▁bedtime	-11.4759
▁pli	-11.4759
iance	-11.4759
▁descending	-11.476
▁punished	-11.476
▁bog	-11.4762
▁uhoh	-11.4762
▁sweater	-11.4762
▁exp	-11.4763
▁desperately	-11.4764
▁cove	-11.4764
▁invented	-11.4765
▁nathan	-11.4765
▁barf	-11.4766
▁twin	-11.4766
▁doorway	-11.4766
▁peeled	-11.4767
▁ignored	-11.4767
▁mustard	-11.4768
▁printer	-11.4769
▁freezer	-11.4771
▁disturbed	-11.4771
▁katy	-11.4772
▁sixth	-11.4772
sap	-11.4773
▁doe	-11.4775
▁shifty	-11.4775
▁depending	-11.4776
▁darkest	-11.4777
▁toughest	-11.478
▁levy	-11.478
▁strongest	-11.478
▁defeated	-11.4781
▁assist	-11.4781
▁babysit	-11.4782
▁puff	-11.4782
▁thr	-11.4783
▁nickel	-11.4784
▁restore	-11.4784
▁waterboarding	-11.4784
▁eyeballs	-11.4784
▁flares	-11.4784
▁avoided	-11.4785
▁homeboy	-11.4785
▁cheaper	-11.4787
▁expectations	-11.4787
▁nod	-11.4787
▁taller	-11.4789
through	-11.4792
▁smallest	-11.4793
▁abused	-11.4795
▁jumpin	-11.4795
▁countin	-11.4795
▁starve	-11.4796
ski	-11.4797
▁delayed	-11.48
▁pine	-11.48
▁approached	-11.48
▁tricky	-11.4803
▁separated	-11.4803
zo	-11.4803
▁topic	-11.4806
▁hacked	-11.4807
▁petes	-11.4808
▁wel	-11.4809
ong	-11.4809
▁digital	-11.481
▁resembl	-11.4811
▁squeaking	-11.4811
▁leaked	-11.4815
style	-11.4817
▁badass	-11.4822
▁expenses	-11.4823
▁explosives	-11.4823
▁jensens	-11.4823
▁apaches	-11.4823
▁lawsuits	-11.4823
▁delusions	-11.4823
▁jingles	-11.4823
▁fags	-11.4823
ote	-11.4823
▁claws	-11.4823
upin	-11.4825
▁pid	-11.4828
▁sou	-11.4831
rah	-11.4834
▁kisses	-11.4836
▁receiver	-11.4837
▁comforting	-11.4839
▁aiming	-11.4839
▁evolve	-11.4839
▁aha	-11.4841
▁failing	-11.4848
▁linked	-11.485
▁mow	-11.4851
▁pitched	-11.4852
▁severed	-11.4854
▁pale	-11.4855
▁licking	-11.4857
owski	-11.4862
▁lungs	-11.4862
▁rapists	-11.4862
▁snacks	-11.4862
▁episodes	-11.4862
▁parrots	-11.4862
▁puzzles	-11.4862
▁seizures	-11.4862
▁freaky	-11.4862
▁slit	-11.4863
▁smiley	-11.4863
▁roy	-11.4865
▁coins	-11.4865
▁wired	-11.4866
▁employer	-11.4869
▁flame	-11.4869
▁goodlooking	-11.487
▁lace	-11.4871
▁nighttime	-11.4874
▁sweating	-11.4876
▁lucs	-11.4876
▁kicker	-11.4878
▁dreamt	-11.4882
▁crackers	-11.4886
▁unwa	-11.4887
▁tricked	-11.4888
▁sod	-11.4889
▁gavel	-11.4894
▁twins	-11.4894
onald	-11.4899
▁giggles	-11.4901
▁colleagues	-11.4901
▁gallons	-11.4901
▁receipts	-11.4901
▁villains	-11.4902
▁hesitates	-11.4903
ole	-11.4904
▁breakin	-11.4905
lux	-11.4909
▁generally	-11.4911
▁chap	-11.4915
▁pumping	-11.4915
▁shortly	-11.492
▁performing	-11.4922
▁hardest	-11.4927
▁shorty	-11.4938
▁pigeons	-11.494
▁fort	-11.4942
▁angles	-11.4943
▁fasten	-11.4948
overs	-11.4951
▁jan	-11.4953
▁texted	-11.4953
▁cabr	-11.4957
▁lifted	-11.4959
ecto	-11.4959
▁rated	-11.496
▁spreading	-11.4961
▁goons	-11.4964
walk	-11.4965
▁frankly	-11.4972
▁painter	-11.4979
▁barbarians	-11.498
▁references	-11.498
▁kidneys	-11.498
▁sausages	-11.498
▁bumps	-11.4984
▁cope	-11.4985
▁goose	-11.4987
▁crop	-11.4987
▁seeking	-11.4987
vd	-11.4987
▁oneway	-11.4997
ray	-11.5
lia	-11.5002
▁summ	-11.5004
▁louie	-11.5006
verge	-11.5014
▁sil	-11.5017
▁warriors	-11.5019
▁boneing	-11.5021
▁lifting	-11.5024
sham	-11.5025
backs	-11.5029
▁colored	-11.5039
▁ranks	-11.5046
▁watches	-11.5052
▁owners	-11.5055
▁robb	-11.5057
▁efforts	-11.5059
▁corpses	-11.5063
▁wang	-11.5068
▁vern	-11.5074
▁blinded	-11.5077
▁syd	-11.5079
lid	-11.5088
▁feds	-11.5093
▁cocktails	-11.5098
▁crashing	-11.5099
▁weighs	-11.5099
wing	-11.5101
ui	-11.5102
▁myths	-11.5104
▁stared	-11.5127
▁echoe	-11.5133
▁lightly	-11.5138
▁jos	-11.5156
bet	-11.5157
▁hors	-11.5159
▁specially	-11.5159
▁uhh	-11.5169
dwell	-11.517
▁grounds	-11.5175
▁plots	-11.5178
▁wilkinsons	-11.5178
otto	-11.5179
▁complaints	-11.5181
▁resi	-11.5182
amber	-11.5189
▁generations	-11.5198
▁commanders	-11.5205
▁uncles	-11.5211
▁reader	-11.5212
▁channels	-11.5218
▁squ	-11.5218
▁leaks	-11.5219
▁ruins	-11.522
▁fet	-11.5238
▁contacted	-11.5242
pur	-11.5243
▁micro	-11.5251
▁tort	-11.5256
▁coats	-11.5256
▁cows	-11.5258
▁talibans	-11.5258
▁halt	-11.5272
▁comm	-11.5273
maker	-11.5279
▁creatures	-11.5298
▁belts	-11.5299
▁teller	-11.5301
▁crossbo	-11.5303
▁permitt	-11.5303
▁marg	-11.5309
▁marker	-11.5311
ander	-11.5313
▁respected	-11.5316
light	-11.5322
▁assess	-11.5324
ionist	-11.5336
▁faggots	-11.5339
▁char	-11.534
▁capp	-11.5355
ode	-11.5357
▁masters	-11.5357
▁killings	-11.5371
▁tunes	-11.5374
▁burgers	-11.5378
late	-11.5391
▁meds	-11.54
more	-11.5404
▁doughnuts	-11.5419
▁aqua	-11.5421
ddle	-11.5426
▁sno	-11.5433
fin	-11.5435
▁boarding	-11.5456
▁grandmothers	-11.5459
life	-11.5481
rink	-11.5484
▁static	-11.5487
itt	-11.5491
▁popp	-11.5492
▁workin	-11.5498
▁islands	-11.55
▁creates	-11.5501
msy	-11.5524
▁magical	-11.5524
▁pos	-11.5527
▁pumps	-11.5545
▁whit	-11.5571
onos	-11.5574
▁missy	-11.5587
▁we	-11.5589
ush	-11.5602
bbie	-11.5605
▁tik	-11.5616
▁szells	-11.5622
▁sells	-11.5636
mba	-11.5637
▁findings	-11.5643
▁spr	-11.5646
▁routes	-11.5663
worthy	-11.5663
▁trou	-11.5664
▁feeds	-11.5666
leen	-11.5668
rb	-11.5674
▁cad	-11.5677
▁pairs	-11.5703
▁speculate	-11.5711
aste	-11.5724
▁spreads	-11.5744
▁shov	-11.575
▁cleanse	-11.5752
▁guitars	-11.5787
▁relationships	-11.5787
▁for	-11.5801
▁mor	-11.5805
▁fin	-11.581
▁cutie	-11.5813
▁dictate	-11.582
▁leaders	-11.5833
▁independen	-11.5846
▁cho	-11.5853
▁probabl	-11.5853
▁pers	-11.587
stro	-11.5875
delia	-11.5879
rate	-11.5879
▁continu	-11.5886
▁contribut	-11.5904
▁fal	-11.5927
▁ranger	-11.5933
▁slum	-11.5941
▁races	-11.5943
ncy	-11.5968
sharing	-11.5982
▁boyfriends	-11.5994
▁meth	-11.6007
▁projects	-11.601
productive	-11.601
▁if	-11.6031
▁urge	-11.6037
▁compar	-11.6037
▁spike	-11.6053
▁fad	-11.606
▁dar	-11.6067
vel	-11.607
▁battles	-11.6074
▁bears	-11.6086
▁compare	-11.6086
▁cracks	-11.6113
urban	-11.6129
▁hearings	-11.6134
van	-11.6152
▁gravel	-11.6162
resistant	-11.6172
▁wishing	-11.6181
▁enforce	-11.6189
▁spru	-11.6193
▁rider	-11.6201
ret	-11.6203
▁rivers	-11.6203
aid	-11.6209
▁visits	-11.6214
▁not	-11.6232
sky	-11.6239
▁hor	-11.6247
▁escapes	-11.6249
▁wu	-11.6288
▁liberat	-11.6304
lab	-11.6306
ans	-11.633
▁tellin	-11.6338
▁trusting	-11.6352
▁loo	-11.6354
settling	-11.6363
▁pickle	-11.6374
wan	-11.6376
▁fla	-11.6377
▁luc	-11.639
▁aqu	-11.6402
▁dem	-11.6403
▁pressures	-11.642
uk	-11.6434
nya	-11.6449
▁ships	-11.6453
ota	-11.6457
▁nun	-11.6469
▁wip	-11.6487
▁sn	-11.6503
mine	-11.651
claim	-11.6533
▁cle	-11.6551
tors	-11.6553
bone	-11.6557
robe	-11.6562
nder	-11.6566
▁ven	-11.6586
▁vans	-11.6587
cul	-11.661
month	-11.6635
lle	-11.6637
▁hillar	-11.6638
▁cou	-11.6646
▁oppos	-11.6666
▁dub	-11.6672
formed	-11.6701
▁toc	-11.6707
erto	-11.6722
uel	-11.6724
urt	-11.6727
ces	-11.6729
▁colon	-11.6744
▁pero	-11.6767
▁curl	-11.6772
mat	-11.6778
▁alp	-11.6792
▁sniff	-11.68
▁charg	-11.6802
▁volk	-11.6804
▁hallo	-11.6805
▁returns	-11.681
▁yar	-11.6831
▁differences	-11.6849
▁travell	-11.6856
▁sauc	-11.6857
▁reserve	-11.6862
walkin	-11.6865
▁ra	-11.6865
act	-11.6869
▁comp	-11.6874
▁economic	-11.6904
tom	-11.6905
parable	-11.6923
▁lacke	-11.6925
ture	-11.6928
powered	-11.6957
▁hog	-11.6978
inister	-11.6983
five	-11.6997
▁dow	-11.7002
nfield	-11.7015
corn	-11.7029
yo	-11.7031
▁vent	-11.7037
▁essay	-11.7039
▁specimen	-11.7039
▁spec	-11.7042
▁fluid	-11.7042
▁athlete	-11.7047
▁donor	-11.7047
▁adjustment	-11.7048
▁episode	-11.7052
▁parrot	-11.7052
▁puzzle	-11.7052
▁seizure	-11.7052
▁snack	-11.7052
▁biscuit	-11.7055
▁appearance	-11.7055
graph	-11.7056
▁pearl	-11.7056
▁elbow	-11.7057
▁troop	-11.7058
▁rapist	-11.7059
▁accountant	-11.7063
▁scoff	-11.7065
▁rib	-11.7067
▁operative	-11.7068
lde	-11.7069
▁flap	-11.707
▁publisher	-11.7072
▁hitler	-11.7079
▁buyer	-11.7085
▁lung	-11.7088
ache	-11.709
▁sof	-11.7095
▁refu	-11.7097
▁cr	-11.7097
▁server	-11.71
mus	-11.71
▁critic	-11.7103
sided	-11.7113
▁flee	-11.7122
▁hooker	-11.7124
▁foreigner	-11.7127
cra	-11.7129
▁digit	-11.7129
▁coin	-11.713
▁bid	-11.7131
▁lame	-11.7133
▁arriv	-11.714
▁cre	-11.7141
▁il	-11.7142
▁persona	-11.7143
▁adjust	-11.7151
▁cracker	-11.7157
play	-11.7161
▁threaten	-11.7166
mind	-11.717
aching	-11.717
▁distract	-11.7174
rrow	-11.7175
▁poop	-11.7179
lasting	-11.7183
▁descend	-11.7184
▁forc	-11.7184
▁clink	-11.7185
▁murmur	-11.7186
ancy	-11.7187
▁spill	-11.719
▁accomplish	-11.7192
▁railroad	-11.7192
▁resurrect	-11.7192
▁spook	-11.7192
▁overheat	-11.7192
▁alleg	-11.7193
▁conquer	-11.7193
▁crook	-11.7194
▁adopt	-11.7194
▁pour	-11.7196
▁whack	-11.7196
safe	-11.7196
body	-11.7196
▁spe	-11.7197
mobile	-11.7202
weight	-11.7202
block	-11.7202
draft	-11.7202
related	-11.7202
bird	-11.7203
hmm	-11.7203
spoken	-11.7203
american	-11.7203
broad	-11.7203
lift	-11.7203
finished	-11.7203
important	-11.7203
market	-11.7203
course	-11.7204
shore	-11.7204
storm	-11.7204
high	-11.7204
▁declare	-11.7205
level	-11.7205
colored	-11.7205
▁educate	-11.7205
▁dedicate	-11.7205
half	-11.7205
▁puke	-11.7206
ofthe	-11.7206
shoot	-11.7207
▁steamin	-11.7207
hair	-11.7207
bang	-11.7208
veston	-11.7208
bath	-11.7209
person	-11.7209
▁swat	-11.721
▁jaffe	-11.721
seven	-11.721
▁thirst	-11.721
▁filth	-11.7211
▁responsibilit	-11.7211
▁intimate	-11.7211
▁instant	-11.7211
▁chore	-11.7212
▁brag	-11.7212
eight	-11.7212
▁absolute	-11.7212
inlaw	-11.7212
▁claus	-11.7213
lime	-11.7213
part	-11.7214
▁firefight	-11.7215
▁govern	-11.7215
playing	-11.7216
vot	-11.7217
ified	-11.7217
▁mik	-11.7217
▁poke	-11.7217
▁restrain	-11.7217
▁innocen	-11.7218
ebb	-11.7218
▁orient	-11.7219
▁with	-11.7219
▁explode	-11.7219
▁korea	-11.7219
▁tomato	-11.722
▁tradition	-11.722
▁populat	-11.722
▁confront	-11.7221
▁paranoia	-11.7221
▁epi	-11.7222
▁dustin	-11.7222
▁premi	-11.7222
▁leavin	-11.7222
▁darlin	-11.7223
▁makin	-11.7223
▁commend	-11.7224
▁retract	-11.7224
▁whee	-11.7224
▁francis	-11.7224
▁intelligen	-11.7224
xico	-11.7224
ccup	-11.7224
▁northwest	-11.7224
▁electro	-11.7225
ptured	-11.7225
▁clap	-11.7225
▁casual	-11.7225
▁cunning	-11.7225
▁retai	-11.7225
▁bootleg	-11.7225
▁cottage	-11.7225
▁span	-11.7225
feminist	-11.7225
strasse	-11.7225
▁abducted	-11.7225
▁accordance	-11.7225
▁adderall	-11.7225
▁affirmative	-11.7225
▁afghanistan	-11.7225
▁aggression	-11.7225
▁alibi	-11.7225
▁ammunition	-11.7225
▁amnesty	-11.7225
▁anchor	-11.7225
▁antibiotic	-11.7225
▁apollo	-11.7225
▁archibald	-11.7225
▁ashtray	-11.7225
▁aspire	-11.7225
▁asprey	-11.7225
▁asthma	-11.7225
▁barnicke	-11.7225
▁beautifui	-11.7225
▁belfast	-11.7225
▁belvedere	-11.7225
▁benedict	-11.7225
▁bereavement	-11.7225
▁berziers	-11.7225
▁brochure	-11.7225
▁bueno	-11.7225
▁burglar	-11.7225
▁burnaley	-11.7225
▁bushwick	-11.7225
▁butbut	-11.7225
▁catherine	-11.7225
▁cereal	-11.7225
▁characteristic	-11.7225
▁cheerleader	-11.7225
▁cherubini	-11.7225
▁chitchat	-11.7225
▁columbo	-11.7225
▁competitor	-11.7225
▁concept	-11.7225
▁confinement	-11.7225
▁congratulate	-11.7225
▁consecutive	-11.7225
▁convenience	-11.7225
▁copiague	-11.7225
▁courier	-11.7225
▁coventry	-11.7225
▁crib	-11.7225
▁crucify	-11.7225
▁cultivat	-11.7225
▁curtis	-11.7225
▁damascus	-11.7225
▁dawg	-11.7225
▁degenerate	-11.7225
▁democracy	-11.7225
▁disciple	-11.7225
▁disorder	-11.7225
▁dispute	-11.7225
▁distephano	-11.7225
▁dweeb	-11.7225
▁easiest	-11.7225
▁economy	-11.7225
▁elaziz	-11.7225
▁endtoend	-11.7225
▁engaging	-11.7225
▁envelope	-11.7225
▁essence	-11.7225
▁essential	-11.7225
▁eurydice	-11.7225
▁evident	-11.7225
▁exhusband	-11.7225
▁extension	-11.7225
▁fabio	-11.7225
▁factionalism	-11.7225
▁fantastisch	-11.7225
▁faulkner	-11.7225
▁fierce	-11.7225
▁florist	-11.7225
▁forgave	-11.7225
▁fountain	-11.7225
▁fracture	-11.7225
▁fumble	-11.7225
▁gabriel	-11.7225
▁gaugamela	-11.7225
▁genogram	-11.7225
▁globe	-11.7225
▁glynnis	-11.7225
▁goldfarb	-11.7225
▁gradually	-11.7225
▁gravy	-11.7225
▁greeting	-11.7225
▁greyhound	-11.7225
▁grievance	-11.7225
▁grudge	-11.7225
▁gypsy	-11.7225
▁hallelujah	-11.7225
▁hampton	-11.7225
▁hayslip	-11.7225
▁hebitch	-11.7225
▁hector	-11.7225
▁historian	-11.7225
▁horrid	-11.7225
▁hypo	-11.7225
▁hypocrite	-11.7225
▁identical	-11.7225
▁impolite	-11.7225
▁imprisoned	-11.7225
▁impulse	-11.7225
▁incriminating	-11.7225
▁ineffective	-11.7225
▁instagram	-11.7225
▁irresponsible	-11.7225
▁janitor	-11.7225
▁jigsaw	-11.7225
▁jonathan	-11.7225
▁jurisdiction	-11.7225
▁juvenile	-11.7225
▁katherine	-11.7225
▁kelevra	-11.7225
▁koppes	-11.7225
▁krystal	-11.7225
▁ledgard	-11.7225
▁leondria	-11.7225
▁literary	-11.7225
▁lizards	-11.7225
▁luong	-11.7225
▁magloan	-11.7225
▁mandatory	-11.7225
▁marathon	-11.7225
▁marshmallow	-11.7225
▁marvellous	-11.7225
▁masturbate	-11.7225
▁mccarthy	-11.7225
▁medieval	-11.7225
▁midwest	-11.7225
▁miguel	-11.7225
▁minnesota	-11.7225
▁monsieur	-11.7225
▁monterey	-11.7225
▁moonfog	-11.7225
▁mutilat	-11.7225
▁narcotic	-11.7225
▁necessity	-11.7225
▁negotiation	-11.7225
▁nephew	-11.7225
▁neutral	-11.7225
▁nietzsche	-11.7225
▁nightclub	-11.7225
▁nowadays	-11.7225
▁oggi	-11.7225
▁opponent	-11.7225
▁opportunities	-11.7225
▁optimistic	-11.7225
▁orlando	-11.7225
▁overflow	-11.7225
▁override	-11.7225
▁panetta	-11.7225
▁pausanias	-11.7225
▁pentagon	-11.7225
▁permanent	-11.7225
▁phoenix	-11.7225
▁plague	-11.7225
▁politovsky	-11.7225
▁polnikov	-11.7225
▁prague	-11.7225
▁prototype	-11.7225
▁puttnam	-11.7225
▁quarry	-11.7225
▁reassure	-11.7225
▁recognise	-11.7225
▁recognition	-11.7225
▁redemption	-11.7225
▁refrigerator	-11.7225
▁remanded	-11.7225
▁remix	-11.7225
▁rendezvous	-11.7225
▁reschedule	-11.7225
▁retrograde	-11.7225
▁rodriguez	-11.7225
▁rubbish	-11.7225
▁rutherford	-11.7225
▁sabbath	-11.7225
▁saloon	-11.7225
▁scallop	-11.7225
▁schmuck	-11.7225
▁schwarz	-11.7225
▁seatbelt	-11.7225
▁secrecy	-11.7225
▁selfrighteous	-11.7225
▁semester	-11.7225
▁sensational	-11.7225
▁sensitivity	-11.7225
▁shackleford	-11.7225
▁shelby	-11.7225
▁shelter	-11.7225
▁shepherds	-11.7225
▁shiff	-11.7225
▁shimotomo	-11.7225
▁shoelaces	-11.7225
▁shrapnel	-11.7225
▁shriveled	-11.7225
▁slack	-11.7225
▁smuggling	-11.7225
▁sorceress	-11.7225
▁southbound	-11.7225
▁spencer	-11.7225
▁spider	-11.7225
▁sputter	-11.7225
▁technician	-11.7225
▁terminate	-11.7225
▁thompson	-11.7225
▁toothbrush	-11.7225
▁toulette	-11.7225
▁travis	-11.7225
▁turbulence	-11.7225
▁unfair	-11.7225
▁unleash	-11.7225
▁unpleasant	-11.7225
▁urdu	-11.7225
▁videotape	-11.7225
▁violin	-11.7225
▁vititoe	-11.7225
▁vulnerable	-11.7225
▁watermelon	-11.7225
▁waturi	-11.7225
▁westlake	-11.7225
▁wizard	-11.7225
▁wrights	-11.7225
▁yakitito	-11.7225
▁zapped	-11.7225
▁zealot	-11.7225
▁zhenya	-11.7225
▁ballerina	-11.7225
▁carpenter	-11.7225
▁carriage	-11.7225
▁chloe	-11.7225
▁depriv	-11.7225
▁devoted	-11.7225
▁efficient	-11.7225
▁fingertips	-11.7225
▁harbor	-11.7225
▁jackpot	-11.7225
▁jacob	-11.7225
▁juicy	-11.7225
▁krass	-11.7225
▁levenstein	-11.7225
▁licence	-11.7225
▁malala	-11.7225
▁mugged	-11.7225
▁napoleon	-11.7225
▁pilates	-11.7225
▁refill	-11.7225
▁regain	-11.7225
▁sensations	-11.7225
▁strode	-11.7225
▁unlucky	-11.7225
▁wannabe	-11.7225
▁website	-11.7225
dext	-11.7225
▁arena	-11.7225
▁deploy	-11.7225
▁exploit	-11.7225
▁inherit	-11.7225
▁liberal	-11.7225
▁whatsoever	-11.7225
▁woah	-11.7225
▁acquaint	-11.7225
▁blares	-11.7225
▁clank	-11.7225
▁deadliest	-11.7225
▁gasket	-11.7225
▁linwood	-11.7225
▁marques	-11.7225
▁neighbourhood	-11.7225
▁sincerity	-11.7225
▁unmarked	-11.7225
▁vamos	-11.7225
▁callahan	-11.7225
▁carillo	-11.7225
▁coworker	-11.7225
▁disabled	-11.7225
▁fiona	-11.7225
▁senhor	-11.7225
▁yuppie	-11.7225
seif	-11.7225
▁apologise	-11.7225
▁relic	-11.7225
▁sponge	-11.7225
▁visas	-11.7225
▁wheat	-11.7225
▁congregati	-11.7225
▁coroner	-11.7225
▁creator	-11.7225
▁lumberjack	-11.7225
▁narked	-11.7225
▁minimal	-11.7225
▁testicle	-11.7225
▁tyre	-11.7225
▁aero	-11.7225
▁doyle	-11.7225
▁resolv	-11.7225
▁tweet	-11.7225
▁defy	-11.7225
▁nanny	-11.7225
▁notified	-11.7225
▁stewart	-11.7225
▁cheesy	-11.7225
▁composition	-11.7225
▁issa	-11.7225
bastian	-11.7225
clamation	-11.7225
▁exaggerating	-11.7225
▁oxygen	-11.7225
▁cinema	-11.7225
▁moderate	-11.7225
▁montana	-11.7225
▁collaborat	-11.7225
▁disconnect	-11.7225
▁housing	-11.7225
▁categor	-11.7225
▁notification	-11.7225
▁shaki	-11.7225
▁glaze	-11.7225
▁strangle	-11.7225
▁headphones	-11.7225
▁whinn	-11.7225
▁shaky	-11.7225
▁purified	-11.7225
gerald	-11.7225
▁mccabe	-11.7225
▁spray	-11.7225
▁titanium	-11.7225
dolph	-11.7225
▁aisle	-11.7225
▁storage	-11.7225
▁transition	-11.7225
▁bliss	-11.7225
▁cluster	-11.7225
▁jeopardize	-11.7225
▁bluff	-11.7225
▁entries	-11.7225
▁jaded	-11.7225
▁arabia	-11.7225
▁rafkin	-11.7225
rithm	-11.7225
▁humble	-11.7225
▁modifie	-11.7225
▁pajamas	-11.7225
▁stunn	-11.7225
▁wewe	-11.7225
▁justification	-11.7225
▁lethal	-11.7225
▁slammed	-11.7225
▁ploy	-11.7225
▁singular	-11.7225
▁majestic	-11.7225
▁cursing	-11.7225
▁fortyeight	-11.7225
▁pussay	-11.7225
▁fordham	-11.7225
▁hootch	-11.7225
▁respirator	-11.7225
▁calculator	-11.7225
▁divert	-11.7225
▁venom	-11.7225
▁carver	-11.7225
▁amazement	-11.7225
▁beneficial	-11.7225
▁nadya	-11.7225
▁refusing	-11.7225
▁ifyou	-11.7225
▁panicked	-11.7225
▁patron	-11.7225
▁humiliation	-11.7225
▁thems	-11.7225
▁garlic	-11.7225
▁pumpkin	-11.7226
▁muham	-11.7226
▁hawaii	-11.7226
▁whatcha	-11.7226
▁underrated	-11.7226
▁blackouts	-11.7226
▁marcos	-11.7226
▁mailbox	-11.7226
▁mario	-11.7226
▁merciful	-11.7226
▁tickle	-11.7226
▁sorrow	-11.7226
▁cristo	-11.7226
▁destination	-11.7226
▁roxanne	-11.7226
▁daisy	-11.7226
▁nadia	-11.7226
▁shady	-11.7226
▁entity	-11.7226
▁switchbacks	-11.7226
▁sidelines	-11.7226
▁password	-11.7226
▁persist	-11.7226
▁grasp	-11.7226
▁shelf	-11.7226
▁collar	-11.7226
▁flier	-11.7226
▁argentina	-11.7226
▁josef	-11.7226
▁boobies	-11.7226
▁outlaw	-11.7226
▁sanction	-11.7226
▁squat	-11.7226
▁boise	-11.7226
▁clung	-11.7226
▁deranged	-11.7226
▁alphabet	-11.7226
▁chapel	-11.7226
▁spank	-11.7226
▁attachment	-11.7226
▁authenticity	-11.7226
▁unemployed	-11.7226
▁lamont	-11.7226
agnostic	-11.7226
▁whwhat	-11.7226
ibbon	-11.7226
fathom	-11.7226
▁josephine	-11.7226
▁selected	-11.7226
▁walsh	-11.7226
▁bellhop	-11.7226
▁thigh	-11.7226
▁fatso	-11.7226
▁ogre	-11.7226
▁plateau	-11.7226
▁stitches	-11.7226
▁voting	-11.7227
▁grid	-11.7227
▁spie	-11.7227
▁torah	-11.7227
▁maury	-11.7227
▁harassment	-11.7227
mones	-11.7227
door	-11.7227
▁attractive	-11.7227
alcol	-11.7227
▁hunch	-11.7227
▁criticize	-11.7227
▁establishment	-11.7227
▁artery	-11.7227
▁sms	-11.7227
▁prize	-11.7227
▁virginia	-11.7227
▁penitentiary	-11.7227
▁edgar	-11.7227
▁sympathy	-11.7227
▁admin	-11.7227
▁revolutionary	-11.7227
▁shipping	-11.7227
osene	-11.7228
ooned	-11.7228
▁stanton	-11.7228
▁dealership	-11.7228
▁opel	-11.7228
▁filing	-11.7228
▁install	-11.7228
▁info	-11.7228
▁exterminator	-11.7228
▁bpd	-11.7228
▁perez	-11.7228
▁occupied	-11.7228
▁feat	-11.7228
▁gangster	-11.7228
▁psychotic	-11.7228
▁improvement	-11.7228
▁minus	-11.7228
▁citystate	-11.7228
▁esp	-11.7228
▁joyce	-11.7228
▁shyne	-11.7228
▁remark	-11.7228
▁standpoint	-11.7228
▁strack	-11.7228
▁cris	-11.7228
▁mercenaries	-11.7228
▁corona	-11.7228
▁leah	-11.7228
▁activate	-11.7229
▁election	-11.7229
▁gravity	-11.7229
▁habib	-11.7229
▁sophisticated	-11.7229
▁stepdad	-11.7229
▁clow	-11.7229
▁deduction	-11.7229
▁titan	-11.7229
▁caliber	-11.7229
▁chapman	-11.7229
minate	-11.7229
▁robberies	-11.7229
▁snl	-11.7229
shire	-11.7229
▁bushel	-11.7229
▁portis	-11.7229
▁cancelled	-11.7229
▁outof	-11.7229
▁unpack	-11.7229
▁porch	-11.7229
▁compuls	-11.7229
▁brotherinlaw	-11.723
▁manipulate	-11.723
▁breakthrough	-11.723
▁console	-11.723
▁abortion	-11.723
▁dull	-11.723
▁rational	-11.723
▁tomatoes	-11.723
where	-11.723
▁infinite	-11.723
▁batteries	-11.723
▁regional	-11.723
▁probability	-11.723
human	-11.723
▁heighten	-11.723
▁bore	-11.723
▁rico	-11.723
▁substitute	-11.723
ternity	-11.7231
▁massage	-11.7231
▁sym	-11.7231
▁danke	-11.7231
▁sammy	-11.7231
▁salon	-11.7231
▁commitment	-11.7231
mmmmm	-11.7231
▁overbilling	-11.7231
▁pursui	-11.7232
▁nooo	-11.7232
▁accompany	-11.7232
tzg	-11.7232
▁whale	-11.7232
▁lens	-11.7232
▁mech	-11.7232
▁pending	-11.7232
▁admission	-11.7232
▁region	-11.7232
▁overhead	-11.7233
▁vibrates	-11.7233
page	-11.7233
▁scum	-11.7233
▁canal	-11.7233
▁legend	-11.7233
▁management	-11.7233
▁tension	-11.7233
▁moore	-11.7233
▁wig	-11.7234
▁concluded	-11.7234
▁spicy	-11.7234
▁altar	-11.7234
▁ash	-11.7234
▁cruiser	-11.7234
acle	-11.7234
▁purgers	-11.7235
▁zoom	-11.7235
▁halfhour	-11.7235
▁plac	-11.7235
▁fundamentally	-11.7235
▁splitting	-11.7235
▁wither	-11.7235
▁hackers	-11.7235
▁chant	-11.7236
▁immediate	-11.7236
▁newborn	-11.7236
▁caen	-11.7236
▁payroll	-11.7236
▁pinch	-11.7236
▁concerto	-11.7236
▁brotherhood	-11.7237
▁cran	-11.7237
▁booth	-11.7237
▁bakery	-11.7237
▁bj	-11.7237
▁urgh	-11.7237
▁merit	-11.7237
▁magn	-11.7238
▁weakness	-11.7238
▁endure	-11.7238
▁studies	-11.7238
▁dumbass	-11.7238
▁tightass	-11.7238
▁shortage	-11.7238
▁boop	-11.7238
▁alas	-11.7239
▁austrian	-11.7239
▁integrated	-11.7239
▁postponed	-11.7239
▁instructed	-11.7239
▁decommissioned	-11.7239
▁pinned	-11.7239
▁instantly	-11.7239
▁truthfully	-11.7239
▁achieved	-11.724
▁intimidated	-11.724
cular	-11.724
▁homo	-11.724
▁approaches	-11.724
▁salesman	-11.724
▁colle	-11.724
▁coll	-11.724
▁majority	-11.7241
▁growth	-11.7241
▁stem	-11.7242
▁marie	-11.7242
▁youse	-11.7242
▁sworn	-11.7242
▁tong	-11.7243
wind	-11.7243
▁thora	-11.7243
▁gaming	-11.7243
▁flay	-11.7243
▁bib	-11.7243
▁disappointing	-11.7243
▁hysterical	-11.7243
▁neatly	-11.7243
▁seized	-11.7243
▁reeds	-11.7244
▁penh	-11.7244
shape	-11.7244
▁ninety	-11.7244
▁probe	-11.7244
▁forceful	-11.7244
▁weaponry	-11.7244
▁mason	-11.7245
▁typing	-11.7245
▁brass	-11.7245
▁jeremy	-11.7245
▁assassination	-11.7245
▁breaker	-11.7245
▁heathen	-11.7245
▁bouncing	-11.7246
▁smartass	-11.7246
▁selfie	-11.7246
▁poked	-11.7246
▁puked	-11.7246
▁silverman	-11.7246
▁unload	-11.7246
▁peers	-11.7247
wee	-11.7247
▁debo	-11.7247
▁fireball	-11.7247
▁eta	-11.7248
▁reai	-11.7248
▁ballet	-11.7248
lava	-11.7248
▁hijacked	-11.7248
▁georgian	-11.7248
▁hype	-11.7249
▁runaway	-11.7249
▁contingen	-11.7249
▁brighton	-11.7249
▁comput	-11.7249
▁ira	-11.725
▁inse	-11.725
▁cult	-11.725
ongi	-11.725
▁tracy	-11.7251
▁bun	-11.7251
▁login	-11.7251
▁incon	-11.7251
▁rlng	-11.7251
▁enterpriser	-11.7252
▁wager	-11.7252
▁goodsen	-11.7252
ragged	-11.7253
▁knuckles	-11.7254
▁symptoms	-11.7254
▁compelling	-11.7254
▁humanz	-11.7255
▁satisfying	-11.7255
▁campus	-11.7255
▁introducing	-11.7255
▁humanity	-11.7255
▁pap	-11.7255
▁fuzz	-11.7255
▁kam	-11.7256
▁retro	-11.7256
▁pecker	-11.7256
gb	-11.7256
▁partial	-11.7257
▁bates	-11.7257
▁flaming	-11.7257
▁bip	-11.7258
win	-11.7258
▁overheated	-11.7258
▁railroaded	-11.7258
▁resurrected	-11.7258
▁spooked	-11.7258
▁faa	-11.7259
▁clearance	-11.726
▁freshen	-11.7261
▁related	-11.7261
▁passive	-11.7262
▁scraping	-11.7263
▁hijo	-11.7264
▁gland	-11.7264
▁connector	-11.7264
▁mule	-11.7264
▁lecture	-11.7264
▁uk	-11.7264
ugging	-11.7265
▁dez	-11.7266
▁shaken	-11.7266
▁repel	-11.7266
▁bam	-11.7266
▁pouring	-11.7267
▁reel	-11.7268
▁aus	-11.7268
▁graduated	-11.7269
▁shaved	-11.7269
▁thicken	-11.727
ondo	-11.727
▁reich	-11.7271
▁truthful	-11.7271
▁violently	-11.7272
▁reanimat	-11.7272
▁trimm	-11.7274
rine	-11.7274
▁lug	-11.7274
▁sass	-11.7275
▁encouraged	-11.7275
▁herr	-11.7275
▁jackai	-11.7276
▁volt	-11.7276
▁examiner	-11.7277
▁crowning	-11.7279
▁muffin	-11.7279
▁behaved	-11.728
▁effectively	-11.728
▁pam	-11.728
▁communis	-11.7281
▁collapsed	-11.7281
▁brandy	-11.7281
▁pau	-11.7282
▁corps	-11.7284
▁jv	-11.7284
▁ridin	-11.7284
ttering	-11.7285
▁belles	-11.7285
▁smarten	-11.7285
▁crucial	-11.7289
▁kia	-11.729
▁breeding	-11.7291
▁signor	-11.7292
▁stud	-11.7294
▁bodi	-11.7294
▁cul	-11.7295
▁sung	-11.7295
▁healed	-11.7296
handed	-11.7296
▁volunteered	-11.7296
▁poly	-11.7296
▁mining	-11.7296
cable	-11.7297
▁burnin	-11.7299
▁beaches	-11.7299
▁suckered	-11.7299
▁deviate	-11.7301
▁humping	-11.7302
▁whoop	-11.7302
pensive	-11.7303
▁disturbing	-11.7303
▁handcuffs	-11.7303
▁handshakes	-11.7303
▁insects	-11.7303
▁merchants	-11.7303
▁peasants	-11.7303
▁prostitutes	-11.7303
▁truffles	-11.7303
▁investors	-11.7303
▁macke	-11.7304
▁retarded	-11.7305
▁guid	-11.7306
▁offender	-11.7306
▁gobble	-11.7314
▁betraying	-11.7315
▁verse	-11.7316
asey	-11.7318
▁og	-11.7319
▁forgiven	-11.7324
▁ze	-11.7325
▁deucey	-11.7326
▁flooding	-11.7327
▁publishing	-11.7327
▁rocket	-11.7328
▁harp	-11.7329
▁collector	-11.7331
▁painless	-11.7332
▁antid	-11.7334
▁dart	-11.7334
▁quitter	-11.7336
▁weaker	-11.7336
▁sewing	-11.7337
▁churches	-11.734
▁engineering	-11.7341
▁beans	-11.7342
▁stained	-11.7342
▁fred	-11.7342
▁ip	-11.7342
▁insulted	-11.7343
▁killian	-11.7347
▁sharpen	-11.7349
▁informing	-11.7351
▁hammering	-11.7351
▁monitoring	-11.7351
▁grove	-11.7353
▁cheques	-11.7354
▁features	-11.7354
▁obstacles	-11.7354
▁dumplings	-11.7354
▁porno	-11.7356
▁violat	-11.7356
▁dine	-11.736
▁attempted	-11.7361
▁crep	-11.7362
▁foul	-11.7362
▁gathering	-11.7364
▁resisted	-11.7364
▁genes	-11.7364
▁stoney	-11.7368
done	-11.737
▁paulo	-11.737
▁taco	-11.737
▁swallowed	-11.7371
▁ricky	-11.7373
▁insulting	-11.7376
▁jon	-11.7379
▁weakly	-11.7379
▁attach	-11.7385
round	-11.7385
▁hesped	-11.7386
▁responding	-11.7387
▁junkie	-11.7387
▁canceled	-11.7389
▁glance	-11.7392
▁manual	-11.7395
▁hint	-11.7396
ien	-11.7398
▁defended	-11.74
▁warmer	-11.74
▁suing	-11.7401
▁fide	-11.7403
▁mandy	-11.7403
▁donors	-11.7406
▁athletes	-11.7406
▁adjustments	-11.7406
▁appearances	-11.7406
▁specs	-11.7406
▁hitlers	-11.7406
▁privately	-11.7412
▁beto	-11.7413
▁publishers	-11.7413
ei	-11.7416
stand	-11.7417
▁carson	-11.7422
▁trashed	-11.7428
wait	-11.743
▁banged	-11.7431
▁intrud	-11.7434
▁bidd	-11.7442
▁touches	-11.7443
▁lien	-11.7443
▁buckle	-11.7444
ield	-11.7446
▁smarter	-11.745
▁sniffl	-11.745
▁amend	-11.7456
▁investigators	-11.7458
▁rebels	-11.7458
▁clowns	-11.7458
▁institutions	-11.7458
▁ambivalen	-11.7459
▁bio	-11.7459
opher	-11.7459
▁interviewed	-11.7459
▁entering	-11.746
ettes	-11.747
▁cardin	-11.747
▁chim	-11.7472
▁loc	-11.7473
oke	-11.7475
▁vers	-11.7475
mad	-11.7476
nium	-11.7477
▁provider	-11.7481
olate	-11.7483
▁smashing	-11.7485
▁erase	-11.7491
▁cro	-11.7496
erie	-11.7497
▁cand	-11.7498
lagged	-11.75
▁posted	-11.7504
untie	-11.7504
▁traces	-11.7508
▁dunes	-11.7509
▁methods	-11.751
▁marbles	-11.751
▁includes	-11.751
▁yous	-11.7514
▁recompil	-11.7521
▁busting	-11.7521
▁swinging	-11.7526
▁targeted	-11.7527
▁my	-11.7545
▁remained	-11.7547
ushi	-11.7548
ipe	-11.7556
▁screwing	-11.7559
▁cliffs	-11.7561
▁casinos	-11.7562
▁obligations	-11.7562
▁assessments	-11.7562
▁habits	-11.7562
▁increases	-11.7563
▁manwhores	-11.7564
▁crab	-11.7566
▁doubted	-11.7576
▁makers	-11.7582
▁ration	-11.7589
yu	-11.7597
▁bol	-11.7599
▁payin	-11.7603
▁bandit	-11.7607
▁washing	-11.7607
▁fades	-11.7608
stitution	-11.7609
▁sessions	-11.7614
▁patterns	-11.7614
▁chambers	-11.7614
▁vitals	-11.7614
bourg	-11.7616
▁crows	-11.7616
neak	-11.7617
▁goats	-11.7621
▁ththat	-11.7623
▁occasions	-11.7624
▁eighty	-11.7627
▁padd	-11.7639
▁risked	-11.764
▁imagined	-11.7652
▁nazis	-11.7667
itz	-11.7668
zers	-11.7677
itate	-11.768
▁rocky	-11.7693
▁corrected	-11.7696
▁champions	-11.7715
▁intentions	-11.772
▁wool	-11.7722
▁ministers	-11.7724
lets	-11.773
hoo	-11.7733
▁patholog	-11.7735
▁scars	-11.7747
▁fooling	-11.775
▁showin	-11.7754
orse	-11.7757
▁wi	-11.7759
ladi	-11.7762
▁hairy	-11.7767
▁generat	-11.777
▁wherea	-11.7771
▁comments	-11.7772
▁screens	-11.7772
▁ciphers	-11.7772
▁prosecutors	-11.7772
▁thomsons	-11.7772
▁macedonians	-11.7773
annoy	-11.7775
▁sweety	-11.778
▁arresting	-11.7789
▁counted	-11.7795
cum	-11.7796
aws	-11.7797
▁hend	-11.78
▁loosen	-11.78
▁sixer	-11.7802
▁volks	-11.7806
▁askin	-11.7808
pd	-11.7816
▁redact	-11.7821
▁pictured	-11.7837
▁tru	-11.7838
▁billions	-11.784
ator	-11.7847
▁kha	-11.7877
▁stakes	-11.7878
droid	-11.7878
▁ankles	-11.7878
▁patrols	-11.7879
▁rags	-11.7881
erate	-11.7887
▁iiii	-11.7908
eces	-11.7913
coup	-11.7921
bro	-11.7926
ours	-11.793
▁versions	-11.7932
aboo	-11.7933
state	-11.7943
mont	-11.7945
▁slips	-11.795
▁christy	-11.7955
▁rates	-11.7962
dog	-11.7973
▁humil	-11.7978
▁banking	-11.7979
randa	-11.7983
▁yea	-11.7984
▁chev	-11.7985
▁mexicans	-11.7985
▁bonds	-11.7987
▁shifts	-11.7989
▁seeks	-11.799
hard	-11.7993
▁chopp	-11.7994
phony	-11.7999
▁domin	-11.801
▁tones	-11.8023
▁leagues	-11.8039
▁contracts	-11.8039
▁farts	-11.8041
▁confirms	-11.8042
aver	-11.8066
lated	-11.8067
bby	-11.8085
▁boxer	-11.8088
▁ambulances	-11.8093
▁bash	-11.8102
sma	-11.8121
▁tac	-11.8123
▁visions	-11.8141
▁materials	-11.8147
▁strips	-11.8163
▁freed	-11.8182
nze	-11.8184
▁tol	-11.8192
▁toxin	-11.8196
▁revolve	-11.8198
▁experts	-11.8201
▁seasons	-11.8202
▁urinat	-11.8202
▁det	-11.8203
▁flags	-11.8205
zel	-11.824
chez	-11.8242
▁buds	-11.8249
▁motors	-11.8254
▁carlis	-11.826
▁scrap	-11.8276
gate	-11.8302
bel	-11.8304
▁manages	-11.8323
▁slav	-11.8351
▁albums	-11.8365
▁helicopters	-11.8365
▁standards	-11.8366
▁es	-11.8372
▁enforc	-11.8378
▁sites	-11.838
▁riot	-11.839
aking	-11.8391
▁pom	-11.8393
▁rece	-11.8399
▁sk	-11.84
swa	-11.8411
▁cit	-11.8442
nver	-11.8462
eased	-11.8466
▁ent	-11.8474
▁biologi	-11.8487
▁carte	-11.8487
▁gash	-11.8503
ient	-11.852
▁spik	-11.8552
▁maze	-11.8552
▁anticipat	-11.8559
▁urg	-11.8568
esy	-11.8572
iding	-11.8584
▁you	-11.8588
arily	-11.8593
dona	-11.8616
orium	-11.8619
▁rall	-11.8628
gum	-11.8637
kat	-11.8642
▁moos	-11.8662
▁gring	-11.8668
▁bor	-11.8732
▁kar	-11.8746
▁grin	-11.8752
liberation	-11.8768
▁shitter	-11.8781
yne	-11.8791
luxe	-11.8797
bach	-11.8801
▁prema	-11.8817
ryan	-11.8819
▁wal	-11.8848
oul	-11.885
▁trucker	-11.8853
nea	-11.8877
shot	-11.8878
▁beta	-11.8892
match	-11.8954
▁wil	-11.8955
▁spice	-11.8976
rney	-11.8989
anne	-11.9033
▁pent	-11.9053
mics	-11.9055
lag	-11.9061
fed	-11.9095
▁vaca	-11.9096
▁wwe	-11.9097
kers	-11.91
▁cite	-11.9102
▁ador	-11.9104
arleen	-11.9128
oid	-11.9129
eful	-11.9132
▁interfere	-11.9136
▁marc	-11.9145
ably	-11.9153
▁sto	-11.9157
tal	-11.9158
▁interrogate	-11.9171
elle	-11.9191
cuse	-11.9207
▁gener	-11.9211
hill	-11.922
▁punche	-11.9221
▁grabb	-11.9267
▁sau	-11.9269
▁pic	-11.927
ehydration	-11.9284
▁prob	-11.9311
▁structur	-11.9325
oil	-11.9337
▁urinate	-11.9339
▁anticipate	-11.9341
▁happ	-11.9344
writing	-11.9396
▁allies	-11.9404
lem	-11.9467
▁karma	-11.9483
hugging	-11.9499
nta	-11.952
tub	-11.9536
gger	-11.9572
▁defi	-11.9576
del	-11.9589
action	-11.9601
▁til	-11.9604
▁dye	-11.9629
▁slic	-11.9633
alter	-11.9664
▁squi	-11.9715
▁clu	-11.973
▁fou	-11.9731
▁raisin	-11.9744
atically	-11.9756
mple	-11.9768
tank	-11.9768
nickers	-11.977
▁projection	-11.9778
lee	-11.9791
▁crapp	-11.9795
▁gene	-11.9796
tures	-11.9796
▁itch	-11.9807
ogical	-11.9807
▁upsta	-11.9852
▁appreciat	-11.9887
iness	-11.9936
abilities	-11.9948
bility	-11.9981
bble	-11.9985
▁flam	-11.9993
▁tumb	-12.0008
▁cora	-12.0029
perfection	-12.0041
existing	-12.005
oscope	-12.0057
dow	-12.0062
wall	-12.0071
met	-12.0071
lik	-12.0076
▁hetero	-12.0095
▁kenn	-12.0131
placed	-12.0133
kel	-12.0147
ologist	-12.0149
quid	-12.0157
▁metaphor	-12.0157
▁synchroni	-12.0164
hea	-12.0166
▁bab	-12.0169
▁powerless	-12.0188
▁lust	-12.0191
▁unti	-12.0218
▁scrub	-12.0221
tec	-12.0226
▁saf	-12.023
lier	-12.0234
retches	-12.0236
▁milit	-12.0244
ofa	-12.0247
▁premat	-12.0249
▁dur	-12.0264
llis	-12.0268
▁emotion	-12.0269
conditioning	-12.0277
thering	-12.0304
witt	-12.0309
▁kee	-12.0323
▁divid	-12.0329
▁temp	-12.0332
▁clatter	-12.0334
▁wail	-12.0338
▁circ	-12.0339
▁sigh	-12.0346
▁consul	-12.0353
▁whimper	-12.0362
▁will	-12.0372
▁harlin	-12.0372
▁raccoon	-12.0372
▁redneck	-12.0372
▁balloon	-12.0372
▁roar	-12.0373
▁snail	-12.0373
▁firecracker	-12.0374
cake	-12.0376
mates	-12.0376
headed	-12.0378
▁cuff	-12.0378
▁delusion	-12.038
▁obstacle	-12.0381
▁mole	-12.0381
▁restraint	-12.0381
▁cheque	-12.0381
▁feature	-12.0381
print	-12.0383
▁expense	-12.0385
▁explosive	-12.0385
▁jensen	-12.0385
▁jingle	-12.0386
▁apache	-12.0386
▁groom	-12.0386
▁lawsuit	-12.0386
▁claw	-12.0387
▁sailor	-12.0388
▁veteran	-12.0388
▁dumpling	-12.0388
▁euro	-12.0393
▁inmate	-12.0395
▁chart	-12.0395
ility	-12.0396
▁fag	-12.0398
aggi	-12.0399
▁texa	-12.0402
that	-12.0402
▁mont	-12.0403
why	-12.0404
▁brake	-12.0405
▁slot	-12.0406
▁offend	-12.0417
ledge	-12.0438
uer	-12.0439
▁offli	-12.0443
▁prot	-12.0444
▁gran	-12.0447
tok	-12.0451
changed	-12.0451
▁gasp	-12.0459
eating	-12.0462
phill	-12.0464
falla	-12.0472
▁introduc	-12.0476
awa	-12.0482
apa	-12.0484
▁immigra	-12.0488
▁gook	-12.0495
born	-12.0498
nol	-12.0499
kind	-12.05
▁illustr	-12.0502
ground	-12.0502
▁pul	-12.0509
▁figur	-12.0515
▁expand	-12.0516
▁satisfy	-12.0516
▁rad	-12.0516
▁acknowledg	-12.0517
friend	-12.0517
than	-12.052
▁enterprise	-12.0521
rdon	-12.0523
▁hyper	-12.0524
▁condemn	-12.0524
▁pawn	-12.0524
▁advertis	-12.0524
▁pho	-12.0525
▁motherfuck	-12.0525
take	-12.0526
▁scoop	-12.0526
▁suspend	-12.0526
▁depart	-12.0526
speak	-12.0527
▁reject	-12.0527
▁mack	-12.0527
girl	-12.0528
▁possess	-12.0529
▁glow	-12.0531
issy	-12.0531
point	-12.0532
▁juli	-12.0532
closure	-12.0533
▁hyster	-12.0533
cycle	-12.0535
▁indicate	-12.0535
poke	-12.0535
tit	-12.0535
anza	-12.0535
rescue	-12.0535
track	-12.0535
mount	-12.0536
grams	-12.0536
screen	-12.0536
pepper	-12.0536
shield	-12.0536
stream	-12.0536
▁achieve	-12.0536
father	-12.0536
therapy	-12.0536
▁walt	-12.0536
lawful	-12.0537
practice	-12.0537
bridge	-12.0537
common	-12.0537
hundred	-12.0537
▁relieve	-12.0537
▁tox	-12.0537
knife	-12.0537
dream	-12.0537
wrote	-12.0537
chief	-12.0537
normal	-12.0537
thousand	-12.0537
security	-12.0537
first	-12.0537
official	-12.0537
group	-12.0537
wives	-12.0537
eagle	-12.0537
▁rook	-12.0538
▁intimidate	-12.0538
launch	-12.0538
foot	-12.0538
feed	-12.0538
root	-12.0538
sheet	-12.0538
client	-12.0538
wear	-12.0538
▁baptize	-12.0539
mega	-12.0539
athens	-12.0539
▁inspire	-12.0539
▁expose	-12.0539
▁supervis	-12.054
horse	-12.054
▁seque	-12.0541
▁destin	-12.0542
home	-12.0542
feel	-12.0542
▁pronounce	-12.0543
▁vampir	-12.0543
▁seize	-12.0544
ifies	-12.0544
seat	-12.0544
▁fundamental	-12.0544
▁demonstrat	-12.0544
▁crank	-12.0544
▁emergenc	-12.0544
bait	-12.0544
▁angl	-12.0544
borne	-12.0545
▁heavi	-12.0545
ambala	-12.0546
▁confuse	-12.0546
▁securit	-12.0546
▁bladd	-12.0546
plus	-12.0547
zone	-12.0547
master	-12.0547
▁flick	-12.0547
limp	-12.0548
▁gag	-12.0548
▁trib	-12.0549
▁fond	-12.055
▁hijack	-12.055
wart	-12.055
▁treasure	-12.0551
▁atlant	-12.0551
▁particip	-12.0552
lead	-12.0552
fucker	-12.0552
▁tyran	-12.0552
▁unsee	-12.0553
▁glitch	-12.0553
▁sacrament	-12.0553
mbal	-12.0553
▁baker	-12.0554
▁organize	-12.0554
▁invest	-12.0554
ouch	-12.0554
▁bough	-12.0554
▁fib	-12.0555
ject	-12.0555
▁permissi	-12.0555
reilly	-12.0555
mits	-12.0555
▁gersh	-12.0555
▁abdom	-12.0555
▁contaminat	-12.0555
▁lovin	-12.0555
▁givin	-12.0555
▁construct	-12.0556
arrett	-12.0556
▁punt	-12.0556
▁allerg	-12.0556
▁fled	-12.0556
▁monstro	-12.0556
▁chemist	-12.0557
▁lettin	-12.0557
fusion	-12.0557
▁arab	-12.0557
▁telepathic	-12.0557
▁orphan	-12.0557
tinent	-12.0557
huckle	-12.0558
▁jeopard	-12.0558
▁detain	-12.0558
israeli	-12.0558
▁mcca	-12.0558
▁basket	-12.0558
riety	-12.0558
▁frawl	-12.0558
▁mistress	-12.0558
▁transpo	-12.0558
▁deux	-12.0558
certified	-12.0558
chrome	-12.0558
disclosed	-12.0558
emorrhoid	-12.0558
norfolk	-12.0558
ogenic	-12.0558
percussion	-12.0558
polis	-12.0558
rrez	-12.0558
urtdale	-12.0558
▁abduction	-12.0558
▁accelerat	-12.0558
▁accomplice	-12.0558
▁adapt	-12.0558
▁adolescent	-12.0558
▁aesthetic	-12.0558
▁agencies	-12.0558
▁albino	-12.0558
▁alfred	-12.0558
▁alternate	-12.0558
▁alumin	-12.0558
▁anoint	-12.0558
▁antipater	-12.0558
▁apprehen	-12.0558
▁apprentice	-12.0558
▁aquarium	-12.0558
▁aqueduct	-12.0558
▁arigato	-12.0558
▁arrogance	-12.0558
▁aspects	-12.0558
▁asphyxiate	-12.0558
▁attire	-12.0558
▁attribute	-12.0558
▁auriga	-12.0558
▁australia	-12.0558
▁avila	-12.0558
▁avns	-12.0558
▁avril	-12.0558
▁azrael	-12.0558
▁bactria	-12.0558
▁baguette	-12.0558
▁bizarre	-12.0558
▁blackandwhite	-12.0558
▁blatant	-12.0558
▁bonjour	-12.0558
▁boogie	-12.0558
▁breaststroke	-12.0558
▁bridesmaid	-12.0558
▁brikowski	-12.0558
▁brunette	-12.0558
▁canaan	-12.0558
▁cannon	-12.0558
▁carnivore	-12.0558
▁casket	-12.0558
▁cavity	-12.0558
▁centimeters	-12.0558
▁cept	-12.0558
▁cerebral	-12.0558
▁cetera	-12.0558
▁chalfont	-12.0558
▁cholera	-12.0558
▁chuggins	-12.0558
▁cinnamon	-12.0558
▁cleodegaria	-12.0558
▁collateral	-12.0558
▁cologne	-12.0558
▁compliance	-12.0558
▁composite	-12.0558
▁concrete	-12.0558
▁congrats	-12.0558
▁convenient	-12.0558
▁coordinating	-12.0558
▁cordova	-12.0558
▁corridor	-12.0558
▁cortex	-12.0558
▁cosmetic	-12.0558
▁cosmopolitan	-12.0558
▁crawford	-12.0558
▁critters	-12.0558
▁crozier	-12.0558
▁cuckoo	-12.0558
▁cuisine	-12.0558
▁curfew	-12.0558
▁curtie	-12.0558
▁dafar	-12.0558
▁davrow	-12.0558
▁dawson	-12.0558
▁decepti	-12.0558
▁decisionmaking	-12.0558
▁deforest	-12.0558
▁demurrer	-12.0558
▁descent	-12.0558
▁describing	-12.0558
▁destitute	-12.0558
▁detlev	-12.0558
▁detroit	-12.0558
▁dingdong	-12.0558
▁discomfort	-12.0558
▁discreet	-12.0558
▁disobey	-12.0558
▁disregard	-12.0558
▁distinct	-12.0558
▁divorcing	-12.0558
▁donnel	-12.0558
▁donny	-12.0558
▁druzhinsky	-12.0558
▁dukakis	-12.0558
▁duncan	-12.0558
▁duplicate	-12.0558
▁earthbound	-12.0558
▁ecstasy	-12.0558
▁ecuador	-12.0558
▁electra	-12.0558
▁entrepreneur	-12.0558
▁eskimo	-12.0558
▁eugene	-12.0558
▁exboyfriend	-12.0558
▁exmilitary	-12.0558
▁expansion	-12.0558
▁expedition	-12.0558
▁experiencing	-12.0558
▁expired	-12.0558
▁exploring	-12.0558
▁exquisite	-12.0558
▁ferrari	-12.0558
▁filter	-12.0558
▁finnelli	-12.0558
▁flaccid	-12.0558
▁flavor	-12.0558
▁forfeit	-12.0558
▁foxtrot	-12.0558
▁fragile	-12.0558
▁frail	-12.0558
▁franchise	-12.0558
▁frederick	-12.0558
▁frequency	-12.0558
▁furious	-12.0558
▁furlough	-12.0558
▁futuristic	-12.0558
▁garnish	-12.0558
▁gatito	-12.0558
▁gaulle	-12.0558
▁genuine	-12.0558
▁gilbert	-12.0558
▁giuseppe	-12.0558
▁glaukos	-12.0558
▁godfearin	-12.0558
▁grapelli	-12.0558
▁grasshopper	-12.0558
▁gremlins	-12.0558
▁griffith	-12.0558
▁gryphon	-12.0558
▁guerrilla	-12.0558
▁halibut	-12.0558
▁hancock	-12.0558
▁hillbillies	-12.0558
▁hippies	-12.0558
▁hodgkins	-12.0558
▁houston	-12.0558
▁hydraulic	-12.0558
▁ignoring	-12.0558
▁imagining	-12.0558
▁imbecile	-12.0558
▁immune	-12.0558
▁implies	-12.0558
▁inclination	-12.0558
▁incomplete	-12.0558
▁incorporated	-12.0558
▁incorrect	-12.0558
▁incurable	-12.0558
▁indebted	-12.0558
▁indonesia	-12.0558
▁influential	-12.0558
▁ingredient	-12.0558
▁inhumane	-12.0558
▁injury	-12.0558
▁input	-12.0558
▁insanity	-12.0558
▁inshallah	-12.0558
▁institute	-12.0558
▁intestine	-12.0558
▁intolera	-12.0558
▁intricate	-12.0558
▁irregularities	-12.0558
▁irreplaceable	-12.0558
▁jaguar	-12.0558
▁jakarta	-12.0558
▁jiffy	-12.0558
▁kananga	-12.0558
▁kelvin	-12.0558
▁kessler	-12.0558
▁khadija	-12.0558
▁knackered	-12.0558
▁knoxville	-12.0558
▁kohl	-12.0558
▁koobus	-12.0558
▁landlady	-12.0558
▁landlord	-12.0558
▁laundromat	-12.0558
▁leash	-12.0558
▁leclerc	-12.0558
▁lesbian	-12.0558
▁ligament	-12.0558
▁limpdick	-12.0558
▁literature	-12.0558
▁lithuanian	-12.0558
▁lozano	-12.0558
▁lsaiah	-12.0558
▁lunatic	-12.0558
▁lynch	-12.0558
▁mainframe	-12.0558
▁maitre	-12.0558
▁malaria	-12.0558
▁malekai	-12.0558
▁mammoth	-12.0558
▁manufacturing	-12.0558
▁masseuse	-12.0558
▁masterpiece	-12.0558
▁masturbating	-12.0558
▁masturbation	-12.0558
▁matsumoto	-12.0558
▁mayonnaise	-12.0558
▁mcknight	-12.0558
▁melanie	-12.0558
▁melendez	-12.0558
▁melody	-12.0558
▁merchandise	-12.0558
▁midwicket	-12.0558
▁migraine	-12.0558
▁mugwump	-12.0558
▁mujahideen	-12.0558
▁mulholland	-12.0558
▁mulligan	-12.0558
▁mutating	-12.0558
▁narcissis	-12.0558
▁navigat	-12.0558
▁negotiating	-12.0558
▁neighs	-12.0558
▁nelson	-12.0558
▁newsweek	-12.0558
▁nitrous	-12.0558
▁nostril	-12.0558
▁notepad	-12.0558
▁notorious	-12.0558
▁obstruct	-12.0558
▁offseason	-12.0558
▁omelet	-12.0558
▁outnumbered	-12.0558
▁overcharged	-12.0558
▁overpriced	-12.0558
▁pamphlet	-12.0558
▁pancreatic	-12.0558
▁pappagallo	-12.0558
▁paramedic	-12.0558
▁parody	-12.0558
▁pascoe	-12.0558
▁pavitt	-12.0558
▁payperview	-12.0558
▁peacocks	-12.0558
▁perdiccas	-12.0558
▁perfume	-12.0558
▁pertect	-12.0558
▁pharaoh	-12.0558
▁pianist	-12.0558
▁pilgrim	-12.0558
▁platform	-12.0558
▁platter	-12.0558
▁pluto	-12.0558
▁pneumonia	-12.0558
▁podium	-12.0558
▁poncho	-12.0558
▁pontoon	-12.0558
▁porridge	-12.0558
▁portrait	-12.0558
▁producing	-12.0558
▁profanity	-12.0558
▁profound	-12.0558
▁protagonist	-12.0558
▁provinc	-12.0558
▁pyramid	-12.0558
▁quebec	-12.0558
▁rahim	-12.0558
▁rainbow	-12.0558
▁reagans	-12.0558
▁reassuring	-12.0558
▁rehearse	-12.0558
▁religion	-12.0558
▁remarried	-12.0558
▁resort	-12.0558
▁resuscitat	-12.0558
▁resync	-12.0558
▁retrieve	-12.0558
▁reunion	-12.0558
▁rewrite	-12.0558
▁rhyme	-12.0558
▁sarcastic	-12.0558
▁savor	-12.0558
▁saxophone	-12.0558
▁scope	-12.0558
▁scottsdale	-12.0558
▁scourge	-12.0558
▁sedative	-12.0558
▁selfdefense	-12.0558
▁semantics	-12.0558
▁serpent	-12.0558
▁seymour	-12.0558
▁sikander	-12.0558
▁smuggler	-12.0558
▁snooze	-12.0558
▁solano	-12.0558
▁sophistication	-12.0558
▁spectrum	-12.0558
▁spiro	-12.0558
▁stimulation	-12.0558
▁stubborn	-12.0558
▁subversi	-12.0558
▁sunburn	-12.0558
▁surgical	-12.0558
▁swapped	-12.0558
▁sweeney	-12.0558
▁swift	-12.0558
▁swollen	-12.0558
▁syracuse	-12.0558
▁tabloids	-12.0558
▁transparent	-12.0558
▁treason	-12.0558
▁treble	-12.0558
▁trespassing	-12.0558
▁triangle	-12.0558
▁trombone	-12.0558
▁tulips	-12.0558
▁tumours	-12.0558
▁uglier	-12.0558
▁unacceptable	-12.0558
▁unfaithful	-12.0558
▁unnecessary	-12.0558
▁unprecedented	-12.0558
▁unravel	-12.0558
▁uruguay	-12.0558
▁uterus	-12.0558
▁vague	-12.0558
▁vatican	-12.0558
▁vegetarian	-12.0558
▁verdict	-12.0558
▁vicechairman	-12.0558
▁vicenza	-12.0558
▁vicodin	-12.0558
▁vineyard	-12.0558
▁voicemail	-12.0558
▁voluntarily	-12.0558
▁voyles	-12.0558
▁wainwright	-12.0558
▁werewol	-12.0558
▁wertzner	-12.0558
▁wisconsin	-12.0558
▁wunderbar	-12.0558
▁yyyou	-12.0558
▁zombie	-12.0558
▁zovek	-12.0558
▁zykov	-12.0558
▁astrolog	-12.0558
▁aviator	-12.0558
▁ballistic	-12.0558
▁chunk	-12.0558
▁contradict	-12.0558
▁discourage	-12.0558
▁endeavor	-12.0558
▁execution	-12.0558
▁heartbreaking	-12.0558
▁hindu	-12.0558
▁malfunction	-12.0558
▁misspell	-12.0558
▁mistreat	-12.0558
▁nitti	-12.0558
▁sheila	-12.0558
▁surpass	-12.0558
▁youryour	-12.0558
andmother	-12.0558
jenkins	-12.0558
ldstein	-12.0558
▁baggage	-12.0558
▁blubber	-12.0558
▁catheter	-12.0558
▁censor	-12.0558
▁conceal	-12.0558
▁dalby	-12.0558
▁decisive	-12.0558
▁deplet	-12.0558
▁dispense	-12.0558
▁feisty	-12.0558
▁hafid	-12.0558
▁hastings	-12.0558
▁hobbyists	-12.0558
▁identities	-12.0558
▁loaf	-12.0558
▁memorable	-12.0558
▁metallic	-12.0558
▁missouri	-12.0558
▁municipal	-12.0558
▁noisy	-12.0558
▁nonetheless	-12.0558
▁okinawa	-12.0558
▁proposing	-12.0558
▁ptolemy	-12.0558
▁resources	-12.0558
▁salud	-12.0558
▁saturn	-12.0558
▁scrambl	-12.0558
▁snigger	-12.0558
▁squaw	-12.0558
▁stalingrad	-12.0558
▁stylus	-12.0558
▁swerve	-12.0558
▁toonie	-12.0558
▁valeron	-12.0558
▁vector	-12.0558
▁blaming	-12.0558
▁blisters	-12.0558
▁bronx	-12.0558
▁cici	-12.0558
▁davy	-12.0558
▁furn	-12.0558
▁greta	-12.0558
▁immense	-12.0558
▁isolate	-12.0558
▁kahn	-12.0558
▁madison	-12.0558
▁mvp	-12.0558
▁ninth	-12.0558
▁quench	-12.0558
▁roaches	-12.0558
▁strive	-12.0558
▁testament	-12.0558
▁thoracentesis	-12.0558
▁thurman	-12.0558
▁trench	-12.0558
▁twitter	-12.0558
▁tyler	-12.0558
▁ukrain	-12.0558
▁analyst	-12.0558
▁belarus	-12.0558
▁cozy	-12.0558
▁elevate	-12.0558
▁halfbreed	-12.0558
▁handicap	-12.0558
▁historic	-12.0558
▁hypno	-12.0558
▁inbred	-12.0558
▁looming	-12.0558
▁lrene	-12.0558
▁ringtone	-12.0558
▁romanians	-12.0558
▁scalp	-12.0558
▁stardom	-12.0558
▁waffles	-12.0558
▁cofound	-12.0558
▁communication	-12.0558
▁ctc	-12.0558
▁dinosaur	-12.0558
▁hilton	-12.0558
▁mosque	-12.0558
▁realistic	-12.0558
▁sedated	-12.0558
▁sleptsov	-12.0558
▁stranded	-12.0558
▁tainted	-12.0558
▁bugged	-12.0558
▁combined	-12.0558
▁commodit	-12.0558
▁harmony	-12.0558
▁lavay	-12.0558
▁memoirs	-12.0558
▁quinn	-12.0558
▁scandal	-12.0558
▁spectacular	-12.0558
▁mystic	-12.0558
▁prodig	-12.0558
again	-12.0558
▁charlene	-12.0558
▁jolly	-12.0558
▁duct	-12.0558
▁jukebox	-12.0558
▁stumbl	-12.0558
sphere	-12.0558
▁emperor	-12.0558
▁occupation	-12.0558
▁tsunaron	-12.0558
othy	-12.0558
▁acres	-12.0558
▁denise	-12.0558
▁inhibitions	-12.0558
▁satanists	-12.0558
▁alamo	-12.0558
▁exceed	-12.0558
▁panama	-12.0558
▁devas	-12.0558
▁djong	-12.0558
▁sunbeds	-12.0558
▁vulgar	-12.0558
▁detonat	-12.0558
▁ryess	-12.0558
▁shoppers	-12.0558
▁circulat	-12.0558
▁constitute	-12.0558
▁consume	-12.0558
▁captiv	-12.0558
▁chump	-12.0558
▁fertility	-12.0558
▁ninetynine	-12.0558
▁flaky	-12.0558
▁crotch	-12.0558
▁glockner	-12.0558
▁naomi	-12.0558
▁overdose	-12.0558
▁crumbl	-12.0558
▁fowl	-12.0558
▁stoked	-12.0558
▁bennet	-12.0558
▁granada	-12.0558
▁intimidating	-12.0558
▁blackberrys	-12.0558
▁commute	-12.0558
▁firearms	-12.0558
▁bloat	-12.0558
▁baroness	-12.0558
▁splendid	-12.0558
▁thrust	-12.0558
▁wormhole	-12.0558
▁casualties	-12.0558
▁dutchess	-12.0558
▁injuries	-12.0558
▁overreact	-12.0558
▁enrich	-12.0558
▁lottery	-12.0558
▁particle	-12.0558
▁stench	-12.0558
▁midterm	-12.0558
▁musk	-12.0558
▁presidium	-12.0558
▁sven	-12.0558
▁disbursement	-12.0558
▁farewell	-12.0558
▁snuffles	-12.0558
▁infamous	-12.0558
▁ipod	-12.0558
▁downhill	-12.0558
▁infiltrate	-12.0558
▁pastures	-12.0558
▁quorate	-12.0558
▁biography	-12.0558
▁puck	-12.0558
▁ails	-12.0559
▁waylander	-12.0559
▁slope	-12.0559
▁cooing	-12.0559
▁untouchable	-12.0559
▁spectacle	-12.0559
▁physician	-12.0559
▁venue	-12.0559
▁langham	-12.0559
▁inconvenience	-12.0559
▁repeatedly	-12.0559
▁autism	-12.0559
▁stylish	-12.0559
▁hyah	-12.0559
▁stool	-12.0559
▁oconnor	-12.0559
▁nobility	-12.0559
▁troy	-12.0559
▁carnal	-12.0559
▁constipation	-12.0559
▁lovebirds	-12.0559
▁satisfaction	-12.0559
▁ipad	-12.0559
▁fender	-12.0559
▁horrific	-12.0559
▁patriot	-12.0559
▁payoffs	-12.0559
▁anyhow	-12.0559
▁lupe	-12.0559
▁timetable	-12.0559
funct	-12.0559
▁dyke	-12.0559
▁depravity	-12.0559
▁gagging	-12.0559
▁geko	-12.0559
▁prolong	-12.0559
▁bootlegging	-12.0559
▁surveyors	-12.0559
▁antonio	-12.0559
▁ltaly	-12.0559
hertz	-12.0559
▁criticism	-12.0559
▁goofy	-12.0559
▁lakis	-12.0559
▁velv	-12.0559
▁enslave	-12.0559
▁excop	-12.0559
▁vault	-12.0559
▁pulpit	-12.0559
▁hernia	-12.0559
▁molestation	-12.0559
▁yuck	-12.0559
▁geology	-12.0559
▁detachment	-12.0559
▁powell	-12.0559
propria	-12.0559
▁bankruptcy	-12.0559
▁cathedral	-12.0559
▁diamondback	-12.0559
▁esther	-12.0559
▁ooooh	-12.0559
▁shshe	-12.0559
▁gangbang	-12.0559
winkle	-12.0559
▁doozy	-12.0559
▁doodle	-12.0559
▁flipping	-12.0559
▁huddle	-12.0559
▁vista	-12.0559
▁circum	-12.0559
▁choir	-12.0559
▁edmond	-12.0559
▁infer	-12.0559
▁audio	-12.0559
▁shann	-12.0559
▁barrow	-12.0559
▁inflat	-12.0559
▁lemonade	-12.0559
▁academic	-12.0559
▁pansy	-12.0559
▁thesis	-12.0559
▁magda	-12.0559
▁urine	-12.0559
▁gail	-12.0559
▁contempt	-12.0559
flakes	-12.0559
▁pillow	-12.0559
▁grim	-12.0559
▁anke	-12.056
▁malware	-12.056
▁cremat	-12.056
▁cloned	-12.056
▁dagger	-12.056
▁independence	-12.056
▁blowjob	-12.056
▁vouch	-12.056
▁diaper	-12.056
▁thermo	-12.056
▁chemistry	-12.056
▁rotate	-12.056
▁anton	-12.056
▁midget	-12.056
▁hydra	-12.056
▁hobby	-12.056
▁classmates	-12.056
▁janette	-12.056
▁telex	-12.056
▁csi	-12.056
▁manipulation	-12.056
▁whining	-12.056
▁completion	-12.056
▁twentyseven	-12.056
▁oui	-12.056
▁coloss	-12.056
▁libya	-12.056
▁modu	-12.056
▁expertise	-12.056
▁soph	-12.056
oooh	-12.056
▁stubs	-12.056
elimina	-12.056
▁probation	-12.056
▁hamster	-12.056
▁testified	-12.056
▁nibs	-12.056
▁sna	-12.056
▁amendment	-12.056
▁babysitting	-12.056
▁properties	-12.056
▁wage	-12.056
▁farther	-12.056
▁ladder	-12.056
▁spaz	-12.056
▁gump	-12.056
▁whoohoohoo	-12.056
▁dlal	-12.056
▁racket	-12.056
▁chatted	-12.056
▁twig	-12.0561
▁stuart	-12.0561
▁lyin	-12.0561
▁mummies	-12.0561
▁hornets	-12.0561
▁burrito	-12.0561
trovert	-12.0561
▁litter	-12.0561
▁insecure	-12.0561
▁mariana	-12.0561
▁bilb	-12.0561
▁disser	-12.0561
▁tillsman	-12.0561
▁acne	-12.0561
▁consciousness	-12.0561
▁carved	-12.0561
▁contamination	-12.0561
▁laminate	-12.0561
▁brute	-12.0561
▁spall	-12.0561
▁lisp	-12.0561
▁satou	-12.0561
▁abdomen	-12.0561
▁slov	-12.0561
▁merri	-12.0561
▁azu	-12.0561
▁caci	-12.0561
▁generic	-12.0561
osity	-12.0561
▁despised	-12.0561
▁upload	-12.0561
▁batshit	-12.0561
▁judi	-12.0561
▁brung	-12.0561
▁climate	-12.0561
▁rubber	-12.0561
▁voil	-12.0561
upper	-12.0561
▁polar	-12.0561
▁tenderness	-12.0561
▁roost	-12.0561
▁continental	-12.0561
▁purity	-12.0561
▁attendance	-12.0562
▁pyro	-12.0562
▁fittest	-12.0562
▁hashish	-12.0562
▁trang	-12.0562
▁cuddle	-12.0562
▁flaw	-12.0562
▁courtney	-12.0562
▁casa	-12.0562
▁denny	-12.0562
▁scarce	-12.0562
zech	-12.0562
▁uran	-12.0562
▁clarity	-12.0562
▁coco	-12.0562
▁referred	-12.0562
▁atom	-12.0562
▁stroll	-12.0562
▁liais	-12.0562
▁scrutiny	-12.0562
▁handpick	-12.0562
▁disneyland	-12.0562
▁massey	-12.0562
▁susanne	-12.0562
▁macworld	-12.0562
▁preference	-12.0562
▁quoting	-12.0562
▁linge	-12.0562
▁lightheaded	-12.0562
▁hound	-12.0562
▁observation	-12.0562
▁whatll	-12.0562
▁sniper	-12.0562
▁interim	-12.0562
▁mature	-12.0562
▁lowlife	-12.0562
▁liking	-12.0562
▁wor	-12.0562
▁frantic	-12.0562
▁rematch	-12.0562
▁sku	-12.0562
▁shred	-12.0562
▁johnnie	-12.0562
ovna	-12.0562
▁leper	-12.0562
▁dependable	-12.0563
▁granp	-12.0563
▁misha	-12.0563
▁bandaid	-12.0563
▁squish	-12.0563
▁casing	-12.0563
▁tonto	-12.0563
▁titty	-12.0563
▁irre	-12.0563
▁karl	-12.0563
▁contribution	-12.0563
▁milan	-12.0563
▁bummer	-12.0563
▁malefic	-12.0563
▁decapitated	-12.0563
▁capitalist	-12.0563
ummies	-12.0563
▁wuss	-12.0563
▁cache	-12.0563
▁carlos	-12.0563
▁pogo	-12.0563
▁suppression	-12.0563
▁transformed	-12.0563
▁beech	-12.0563
▁indigen	-12.0563
▁participant	-12.0564
▁notebook	-12.0564
▁glitches	-12.0564
▁delusional	-12.0564
▁salaam	-12.0564
▁howre	-12.0564
▁inflict	-12.0564
▁sufficient	-12.0564
▁pepsi	-12.0564
▁hollis	-12.0564
▁worn	-12.0564
▁stove	-12.0564
▁semen	-12.0564
▁firewall	-12.0564
▁logan	-12.0564
angelo	-12.0564
▁bonne	-12.0564
▁curve	-12.0564
▁attraction	-12.0564
▁limo	-12.0564
avala	-12.0564
▁invention	-12.0564
▁nev	-12.0565
▁brackett	-12.0565
▁tamper	-12.0565
▁phat	-12.0565
blis	-12.0565
▁distribution	-12.0565
▁unkind	-12.0565
▁nob	-12.0565
▁chimes	-12.0565
▁superiority	-12.0566
▁clint	-12.0566
▁portable	-12.0566
▁affiliation	-12.0566
▁fetus	-12.0566
▁entra	-12.0566
▁merci	-12.0566
▁freestyle	-12.0566
▁tilt	-12.0566
▁dum	-12.0566
▁foxman	-12.0566
▁heartache	-12.0566
▁viable	-12.0566
▁intra	-12.0566
▁pigsty	-12.0567
▁gabe	-12.0567
▁sightings	-12.0567
▁hoop	-12.0567
were	-12.0567
▁sundown	-12.0567
▁hangover	-12.0567
▁sickening	-12.0567
▁starring	-12.0567
took	-12.0567
▁gown	-12.0568
nitive	-12.0568
▁refugees	-12.0568
▁hull	-12.0568
mmage	-12.0568
▁undergo	-12.0568
▁zbi	-12.0568
▁tailor	-12.0568
▁irritating	-12.0568
▁trickortreating	-12.0568
▁fashionable	-12.0568
▁tracers	-12.0568
▁alta	-12.0568
▁hence	-12.0568
▁copied	-12.0568
▁institutional	-12.0568
▁dj	-12.0568
▁mentality	-12.0568
▁yapping	-12.0568
▁purp	-12.0568
▁shiny	-12.0569
iel	-12.0569
▁grandparent	-12.0569
holders	-12.0569
▁flicker	-12.0569
▁puppy	-12.0569
▁fivefive	-12.0569
▁prideful	-12.0569
▁comon	-12.0569
▁adri	-12.0569
▁spain	-12.0569
logue	-12.057
▁songwriter	-12.057
▁hallucination	-12.057
zek	-12.057
▁vanishes	-12.057
uick	-12.057
avia	-12.057
uvre	-12.057
▁functional	-12.057
▁changeover	-12.057
▁charter	-12.0571
▁perish	-12.0571
▁diane	-12.0571
▁transmitter	-12.0571
▁exaggerated	-12.0571
▁meaningful	-12.0571
essie	-12.0571
▁floorboard	-12.0571
▁innovation	-12.0571
▁effortless	-12.0571
▁cocon	-12.0571
▁spaceship	-12.0572
▁muk	-12.0572
agna	-12.0572
▁crypt	-12.0572
▁fiber	-12.0573
▁secondrate	-12.0573
▁perv	-12.0573
▁simulation	-12.0573
▁monk	-12.0573
▁tonic	-12.0573
▁whisk	-12.0573
▁vile	-12.0573
▁hawk	-12.0573
▁ramp	-12.0573
▁drip	-12.0573
▁regretful	-12.0573
▁shte	-12.0573
▁dynamic	-12.0573
▁mtv	-12.0573
▁booties	-12.0574
▁unwell	-12.0574
▁doable	-12.0574
▁berries	-12.0574
▁markings	-12.0574
▁eroti	-12.0575
▁prego	-12.0575
▁betrayal	-12.0575
▁knob	-12.0575
▁clause	-12.0575
▁idealist	-12.0575
▁weaver	-12.0575
▁overdo	-12.0575
▁murderee	-12.0576
▁wholesal	-12.0576
▁uncover	-12.0576
▁responders	-12.0576
▁supervisor	-12.0577
▁whoaoh	-12.0577
▁missionary	-12.0577
▁prospector	-12.0577
▁dago	-12.0577
▁infra	-12.0577
▁reside	-12.0577
abad	-12.0577
▁fuckups	-12.0577
▁hookup	-12.0578
▁oz	-12.0578
▁reduce	-12.0578
▁courtship	-12.0578
▁amongst	-12.0578
▁kiddie	-12.0578
▁breakdown	-12.0578
hut	-12.0578
▁settlement	-12.0579
▁delighted	-12.0579
▁endangered	-12.0579
▁bonesis	-12.0579
▁exile	-12.0579
▁aww	-12.0579
sequence	-12.0579
▁relieved	-12.058
▁empori	-12.058
▁fuse	-12.058
▁perry	-12.058
▁choreograph	-12.058
▁bung	-12.058
cakes	-12.058
▁barge	-12.058
▁stealth	-12.0581
▁marksman	-12.0581
▁unify	-12.0581
▁buzzer	-12.0582
oozing	-12.0582
▁poet	-12.0582
▁allud	-12.0582
▁glue	-12.0582
▁fatter	-12.0583
breaker	-12.0583
▁davidoff	-12.0583
▁closure	-12.0583
▁hern	-12.0584
▁surf	-12.0584
▁agony	-12.0584
▁stance	-12.0584
▁barnes	-12.0584
▁laure	-12.0585
▁amo	-12.0585
▁hooting	-12.0585
▁swelling	-12.0585
▁vine	-12.0585
▁observing	-12.0585
▁snooping	-12.0585
▁supportive	-12.0585
▁ahold	-12.0585
▁mysteriously	-12.0585
▁showboat	-12.0585
▁threesome	-12.0585
elley	-12.0586
▁logo	-12.0586
▁shovel	-12.0586
▁chinless	-12.0586
▁snorting	-12.0586
▁jessen	-12.0587
▁brightest	-12.0587
▁noticeable	-12.0588
▁payload	-12.0588
▁petal	-12.0588
▁bundy	-12.0588
▁deai	-12.0588
▁endured	-12.0588
▁declined	-12.0589
hto	-12.0589
▁judgement	-12.059
▁bile	-12.059
▁chatterlng	-12.0591
▁itchy	-12.0591
▁aut	-12.0591
yote	-12.0592
▁showcase	-12.0592
▁advertised	-12.0592
▁condemned	-12.0592
▁pawned	-12.0592
▁departed	-12.0592
▁presentable	-12.0593
▁oxy	-12.0593
▁scooped	-12.0593
▁vice	-12.0593
▁condu	-12.0593
▁kittie	-12.0594
etti	-12.0594
▁ruthie	-12.0594
▁norman	-12.0595
▁shmu	-12.0595
▁acceptable	-12.0596
▁hideous	-12.0596
▁located	-12.0597
▁nicolai	-12.0597
▁handoff	-12.0598
▁rene	-12.0598
▁hehe	-12.0599
▁firemen	-12.0599
▁legit	-12.0599
▁tomb	-12.0599
ndo	-12.06
▁murderous	-12.06
▁condolences	-12.06
▁pseudonyms	-12.06
▁suspicions	-12.06
▁marche	-12.0601
▁glowing	-12.0602
▁sighing	-12.0603
▁mono	-12.0603
minded	-12.0603
▁cambodian	-12.0604
▁cur	-12.0604
▁cellul	-12.0604
▁cum	-12.0605
▁bona	-12.0605
give	-12.0605
▁spilled	-12.0606
▁adjusted	-12.0606
▁pooped	-12.0607
▁breathless	-12.0607
▁expanding	-12.0608
▁visually	-12.0609
▁fundi	-12.0609
▁erm	-12.061
ographic	-12.061
▁sugarman	-12.0611
▁educated	-12.0611
▁mild	-12.0612
called	-12.0614
▁rut	-12.0615
▁masses	-12.0615
▁sline	-12.0615
▁interruption	-12.0615
▁gill	-12.0616
▁sig	-12.0616
▁observed	-12.0618
▁tray	-12.0618
▁ache	-12.0619
war	-12.0619
▁ante	-12.062
▁swingin	-12.062
▁sweetness	-12.062
▁armies	-12.0621
▁freshman	-12.0621
▁ruthless	-12.0622
▁rescued	-12.0622
▁bullhead	-12.0624
▁whwh	-12.0624
▁einstein	-12.0624
▁longhand	-12.0624
▁ore	-12.0625
▁esca	-12.0626
▁wea	-12.0626
▁bounced	-12.0627
▁irony	-12.0629
enance	-12.0629
migrant	-12.0629
▁jugg	-12.0631
▁shorten	-12.0631
▁fulltime	-12.0632
▁coup	-12.0632
▁assert	-12.0633
▁jive	-12.0633
▁escalat	-12.0634
▁payne	-12.0636
▁straining	-12.0637
▁renewing	-12.0637
zai	-12.0639
▁purchased	-12.064
▁bridget	-12.0641
▁punter	-12.0641
▁berry	-12.0641
▁bankers	-12.0641
▁hostilit	-12.0642
▁blameless	-12.0642
▁onion	-12.0644
▁marketa	-12.0644
sburg	-12.0644
▁walter	-12.0646
▁janet	-12.0646
▁capture	-12.0646
▁encountered	-12.0647
▁lesion	-12.0648
rsten	-12.0648
sorry	-12.065
▁embr	-12.0651
▁multiply	-12.0653
▁bumped	-12.0653
▁fro	-12.0654
▁mocking	-12.0654
▁protesting	-12.0654
fianc	-12.0655
▁chopper	-12.0657
▁frenchman	-12.066
▁pisses	-12.066
▁lsd	-12.0662
▁addicted	-12.0662
▁sweaty	-12.0667
▁tempt	-12.0667
ady	-12.0668
rrifying	-12.0668
▁hah	-12.0668
▁visi	-12.0669
▁nur	-12.0669
▁cabo	-12.0671
▁snorts	-12.0672
▁wandering	-12.0672
▁prophets	-12.0673
▁sleeves	-12.0673
▁gladiators	-12.0673
▁misdemeanors	-12.0673
▁sprinkles	-12.0673
▁vegetables	-12.0673
▁rooftops	-12.0673
▁fishin	-12.0673
▁concludes	-12.0673
▁stasis	-12.0673
▁paddles	-12.0673
▁fingernails	-12.0673
▁statistical	-12.0675
▁mona	-12.0675
rence	-12.0676
▁shouted	-12.0677
▁bully	-12.0679
rus	-12.0679
▁hick	-12.0681
▁guaranteed	-12.0683
▁lump	-12.0684
▁wits	-12.0685
itin	-12.0686
▁sparkler	-12.0686
▁pushes	-12.0686
meister	-12.0688
▁reacted	-12.0688
▁maint	-12.0688
▁employing	-12.0688
▁stretching	-12.0688
▁drafted	-12.0689
▁caved	-12.0691
oises	-12.0692
▁dusty	-12.0693
▁oliver	-12.0696
▁docking	-12.0696
▁dann	-12.0698
▁advanced	-12.07
stead	-12.07
▁pater	-12.0702
▁extr	-12.0702
▁crawled	-12.0702
▁carton	-12.0703
▁backside	-12.0708
▁denie	-12.0708
▁sharper	-12.0709
▁bearer	-12.0711
▁originally	-12.0711
▁fleet	-12.0712
▁imprint	-12.0714
▁melting	-12.0714
▁pier	-12.0715
▁ringo	-12.0715
▁presid	-12.0716
▁senseless	-12.0717
tensi	-12.0717
▁doped	-12.0719
▁lard	-12.0722
▁dreamers	-12.0723
uf	-12.0724
▁shade	-12.0725
▁denying	-12.0725
▁attending	-12.0725
▁pounding	-12.0726
▁accusation	-12.0727
▁compell	-12.073
▁childless	-12.0731
mitten	-12.0731
▁snatcher	-12.0732
▁patchy	-12.0733
▁enthusiastic	-12.0733
▁martyr	-12.0733
▁accordingly	-12.0735
▁cleaners	-12.0736
▁compose	-12.0739
▁dolly	-12.0739
▁emerge	-12.0743
▁gained	-12.0744
▁myr	-12.0745
▁aimed	-12.0746
▁detailed	-12.0746
▁yelled	-12.0746
▁cuffs	-12.0746
▁lv	-12.0747
▁wails	-12.0747
▁grooms	-12.0747
▁balloons	-12.0747
▁firecrackers	-12.0747
▁raccoons	-12.0747
▁rednecks	-12.0747
▁harlins	-12.0747
▁clatters	-12.0748
▁jman	-12.0749
▁restraints	-12.0749
▁suggestion	-12.0749
▁snails	-12.075
▁sailors	-12.075
▁brah	-12.075
▁scrubs	-12.0751
may	-12.0751
▁rollin	-12.0751
▁echoing	-12.0752
city	-12.0756
▁mach	-12.0757
▁fainted	-12.0758
▁cling	-12.0759
▁dialed	-12.076
▁blowin	-12.0761
▁shifted	-12.0761
▁aging	-12.0762
▁drifter	-12.0763
▁haze	-12.0766
▁pics	-12.0767
doyou	-12.0775
▁carat	-12.0792
▁booster	-12.0796
▁gaining	-12.0796
▁bono	-12.0796
▁cater	-12.0802
working	-12.0808
▁catches	-12.0813
▁fatal	-12.0814
▁crabs	-12.0815
▁pint	-12.0816
▁runup	-12.0819
graphs	-12.0821
pit	-12.0822
▁essays	-12.0823
▁specimens	-12.0823
▁fluids	-12.0823
▁accountants	-12.0826
▁jogg	-12.0827
▁appetit	-12.083
▁richer	-12.0836
▁keen	-12.084
▁bean	-12.0845
▁refract	-12.0846
▁documented	-12.0851
▁reformer	-12.0851
thefuck	-12.0854
▁marching	-12.0863
▁linking	-12.0868
▁howl	-12.0871
▁sinking	-12.0872
vious	-12.088
eville	-12.0883
▁covert	-12.0884
▁buttoned	-12.0887
▁holdup	-12.089
▁sparkl	-12.0892
▁publicly	-12.0894
▁recreational	-12.0894
cation	-12.0896
▁authors	-12.0896
▁fudd	-12.0902
▁browning	-12.0909
▁paste	-12.0922
▁pressured	-12.0923
▁chilled	-12.0925
▁carder	-12.0926
▁patched	-12.0926
▁robe	-12.093
wire	-12.0942
▁costa	-12.0944
▁outsider	-12.0952
horn	-12.0954
▁rash	-12.0956
▁tripled	-12.0967
▁gaz	-12.0972
▁borne	-12.0973
▁dumping	-12.0975
count	-12.0975
▁organiz	-12.0983
▁fightin	-12.0993
▁standin	-12.0999
▁redhead	-12.1015
▁ideal	-12.1015
itches	-12.1035
▁gorg	-12.1035
▁heterosex	-12.1044
▁hurtin	-12.1059
▁ifw	-12.107
▁mytholog	-12.1083
▁recta	-12.1087
▁discord	-12.1091
rican	-12.1103
▁exceptional	-12.1111
▁dogg	-12.112
titude	-12.1121
▁occasional	-12.1121
quake	-12.1126
▁tumbl	-12.1146
▁porto	-12.1161
gni	-12.1163
made	-12.1166
ingling	-12.1183
theres	-12.1185
▁recit	-12.1198
▁ye	-12.1212
▁ifl	-12.1225
▁seren	-12.1237
orum	-12.1239
oslo	-12.1246
chester	-12.1269
luck	-12.127
▁playin	-12.1298
▁swinger	-12.1307
look	-12.131
inq	-12.1318
▁startin	-12.1367
▁chinga	-12.1369
▁cali	-12.1406
▁handler	-12.142
butt	-12.1421
▁terrorize	-12.1432
▁usb	-12.1441
fl	-12.1443
▁tick	-12.1443
fat	-12.1463
mond	-12.1477
▁bumper	-12.15
▁admir	-12.1522
mento	-12.1531
▁friggin	-12.1571
▁procl	-12.1572
wage	-12.1573
▁brownie	-12.1599
▁evacuat	-12.1606
▁eliminat	-12.1614
▁fol	-12.1617
▁bod	-12.163
▁some	-12.1639
yde	-12.1645
pack	-12.1664
▁syn	-12.1738
erich	-12.1755
surprisingly	-12.1799
▁dent	-12.1809
ames	-12.1814
etch	-12.1818
▁replicat	-12.1844
leep	-12.1861
▁declin	-12.188
andali	-12.188
▁vir	-12.1898
itty	-12.1929
▁barr	-12.1936
▁carb	-12.1936
▁happie	-12.1939
▁tact	-12.1946
audi	-12.1957
urdy	-12.1958
▁hy	-12.196
▁divers	-12.1984
▁traffick	-12.1995
ugger	-12.2047
opper	-12.2059
omet	-12.208
hm	-12.21
rush	-12.2107
▁sinu	-12.2108
▁medi	-12.2115
alities	-12.2127
▁convert	-12.2132
▁updat	-12.2138
▁interrogat	-12.215
uddy	-12.2153
pido	-12.2184
litze	-12.2259
▁penetrat	-12.2263
into	-12.2267
▁calculate	-12.228
▁succ	-12.2287
pus	-12.2288
▁assemble	-12.2289
▁dor	-12.2291
▁distribute	-12.2304
▁disapprove	-12.231
▁affiliate	-12.2315
wich	-12.234
minator	-12.2343
wai	-12.2344
▁trainer	-12.2372
destructive	-12.2379
▁strippe	-12.2386
taking	-12.2393
osi	-12.2413
▁abs	-12.2418
▁spic	-12.2418
phan	-12.244
▁upgrade	-12.2447
▁domini	-12.2482
▁ringer	-12.2483
▁deli	-12.2495
ggy	-12.252
dish	-12.2531
▁audit	-12.2548
allel	-12.2551
hot	-12.2558
▁suburb	-12.2565
vania	-12.2576
▁grat	-12.2577
uate	-12.2612
▁kh	-12.2649
▁nic	-12.2657
▁growl	-12.2661
▁panti	-12.2713
▁hub	-12.2716
▁contribute	-12.2736
ki	-12.2737
▁solv	-12.2747
▁kir	-12.2751
ppe	-12.2769
nian	-12.2776
ino	-12.2784
▁wade	-12.2811
▁pose	-12.2855
▁seller	-12.2873
anja	-12.2895
▁induce	-12.2905
▁dictat	-12.2908
▁auditor	-12.2962
formation	-12.2965
▁beet	-12.2971
elain	-12.2976
ubbed	-12.3062
hhhh	-12.3062
your	-12.309
rent	-12.3091
▁eliminate	-12.31
bell	-12.3132
▁speculat	-12.3133
ara	-12.3139
uccin	-12.3245
▁squeez	-12.3265
▁penetrate	-12.3271
cdr	-12.3295
cute	-12.3302
▁nota	-12.3307
dependent	-12.3325
▁hav	-12.3326
itzer	-12.3346
▁bounc	-12.3358
▁pomp	-12.3365
arch	-12.3365
▁wit	-12.3441
erox	-12.3475
ncile	-12.3476
mov	-12.3478
afed	-12.3492
bin	-12.3498
aries	-12.3525
cial	-12.3561
▁peak	-12.3567
▁lib	-12.3572
▁bake	-12.36
▁modi	-12.3604
rsity	-12.3624
boo	-12.3636
icu	-12.364
icky	-12.3683
isse	-12.3726
▁bah	-12.3741
▁gigo	-12.3761
▁hoppin	-12.3762
▁scu	-12.3763
▁separati	-12.3776
operative	-12.3785
▁kno	-12.3877
ami	-12.3877
cci	-12.3889
▁patri	-12.3899
▁phon	-12.3905
sherman	-12.391
▁overpa	-12.3925
▁oppose	-12.3925
tori	-12.3934
▁sel	-12.3945
ebra	-12.3972
ith	-12.4
▁connecti	-12.4001
▁aven	-12.403
unny	-12.4031
▁threecar	-12.4064
taker	-12.4068
▁hym	-12.4134
atta	-12.4135
ouve	-12.4156
pen	-12.4167
ira	-12.4167
▁pac	-12.4173
gent	-12.4185
huh	-12.4214
▁reco	-12.4282
lot	-12.4327
▁bla	-12.4328
law	-12.4333
▁bak	-12.4335
▁compass	-12.4338
racking	-12.4368
▁neuro	-12.4388
onda	-12.4396
fact	-12.4442
▁bern	-12.4464
▁manwhorin	-12.4474
bony	-12.4486
ontext	-12.4531
▁yog	-12.4582
▁forgettin	-12.4594
▁strik	-12.4654
▁asi	-12.4677
love	-12.4689
niner	-12.469
itude	-12.4704
hades	-12.4707
▁substitut	-12.4718
▁emba	-12.4721
▁typ	-12.4729
inary	-12.4748
tortion	-12.4832
balanced	-12.4835
▁tube	-12.4839
▁shin	-12.4854
▁toxicolog	-12.4863
▁forge	-12.4909
jc	-12.4962
▁stor	-12.498
▁ple	-12.4984
urde	-12.499
tim	-12.5023
obbing	-12.5027
▁wav	-12.503
▁elde	-12.5032
▁bran	-12.5035
tale	-12.5092
▁intru	-12.5098
▁accuse	-12.5104
▁resuppl	-12.5128
▁vibra	-12.5149
adre	-12.5158
▁compel	-12.5221
volved	-12.5231
bert	-12.524
▁stif	-12.5247
▁ifthe	-12.5261
ranged	-12.5264
oof	-12.5267
berries	-12.5269
▁armad	-12.5273
merged	-12.5274
estimate	-12.5282
eferred	-12.5284
▁eri	-12.5288
▁straw	-12.5291
nstein	-12.5312
▁hesitat	-12.5316
▁scoo	-12.5325
spective	-12.5334
▁mur	-12.5337
▁conclude	-12.5353
▁creak	-12.5355
▁abb	-12.5356
idic	-12.5359
▁slain	-12.5362
▁imperfect	-12.5364
ntme	-12.5369
▁statistic	-12.537
▁fingernail	-12.5374
▁gladiator	-12.5374
▁prophet	-12.5374
▁sprinkle	-12.5374
▁vegetable	-12.5374
▁sleeve	-12.5374
▁misdemeanor	-12.5374
▁stasi	-12.5374
▁rooftop	-12.5377
sprit	-12.5377
▁coordinate	-12.5378
▁crim	-12.5379
▁cloud	-12.5379
▁paddle	-12.538
▁communi	-12.5382
▁merchant	-12.5382
▁peasant	-12.5382
▁prostitute	-12.5382
▁truffle	-12.5382
▁handshake	-12.5382
▁handcuff	-12.5382
▁insect	-12.5384
fraction	-12.5385
▁investor	-12.5386
▁oyster	-12.539
spots	-12.5391
▁flare	-12.5393
▁boob	-12.5394
▁relation	-12.5395
approved	-12.5395
▁pancake	-12.5395
▁allegation	-12.5397
▁circumstance	-12.5399
anita	-12.5399
▁subtitle	-12.5399
▁condom	-12.5402
▁other	-12.5403
tten	-12.5407
▁captur	-12.5407
▁automat	-12.5408
mpounded	-12.5408
▁eyeball	-12.5412
▁heel	-12.5417
▁contractor	-12.5417
▁scor	-12.5418
▁sodom	-12.5427
▁insid	-12.543
rried	-12.5434
bler	-12.5435
elena	-12.544
skirts	-12.5441
▁loop	-12.5444
▁expectation	-12.5451
▁gab	-12.5455
▁translat	-12.5457
outh	-12.5458
break	-12.5458
▁observ	-12.5464
orry	-12.5466
▁initiat	-12.5466
▁lectur	-12.5469
▁vip	-12.5472
▁colo	-12.5472
uggs	-12.548
▁deduc	-12.5482
▁nomin	-12.5484
▁disappoint	-12.5485
ban	-12.5487
chat	-12.5488
kid	-12.5495
zzy	-12.5496
▁civ	-12.5498
▁sacrific	-12.5499
▁tranquil	-12.5499
▁hamburg	-12.5503
▁complet	-12.5508
▁shuffl	-12.5511
▁sneakin	-12.5515
▁snoop	-12.5516
▁instruct	-12.552
▁lubricat	-12.5521
▁thump	-12.5522
▁endanger	-12.5524
▁scen	-12.5524
▁simul	-12.5525
john	-12.5525
▁decommission	-12.5526
worth	-12.5526
▁invert	-12.5527
▁devastat	-12.5527
▁remov	-12.5527
giving	-12.5527
▁dismiss	-12.5528
▁frustrat	-12.5528
▁exhaust	-12.5528
▁tamp	-12.5528
▁hoot	-12.5528
conscious	-12.5528
▁register	-12.5529
pick	-12.5531
nails	-12.5531
word	-12.5531
watch	-12.5532
school	-12.5532
liver	-12.5533
obbled	-12.5533
educated	-12.5533
knob	-12.5533
dynamic	-12.5533
hawk	-12.5533
paper	-12.5533
▁swell	-12.5534
dressed	-12.5534
ography	-12.5534
flat	-12.5534
studies	-12.5534
grove	-12.5534
▁delight	-12.5534
check	-12.5535
▁perpetrate	-12.5535
▁provoke	-12.5535
▁delete	-12.5535
chemical	-12.5535
respected	-12.5535
roommate	-12.5535
fare	-12.5535
jammed	-12.5535
aggressive	-12.5536
departure	-12.5536
loyal	-12.5536
written	-12.5536
privilege	-12.5536
valuable	-12.5536
cracks	-12.5536
cooked	-12.5536
clamp	-12.5536
relief	-12.5536
▁integrat	-12.5536
deaf	-12.5536
rabbit	-12.5536
selfish	-12.5536
sensitive	-12.5536
relevant	-12.5536
tune	-12.5536
caps	-12.5536
christian	-12.5536
tempo	-12.5536
reflection	-12.5536
▁aft	-12.5536
disk	-12.5536
japanese	-12.5537
interest	-12.5537
three	-12.5537
access	-12.5537
positive	-12.5537
prepared	-12.5537
pressure	-12.5537
fitting	-12.5537
jerk	-12.5537
slept	-12.5537
pool	-12.5537
fifteen	-12.5537
building	-12.5537
▁exaggerate	-12.5537
machine	-12.5537
trial	-12.5537
broken	-12.5537
michael	-12.5537
definitely	-12.5537
secret	-12.5537
church	-12.5537
green	-12.5537
child	-12.5537
third	-12.5537
blood	-12.5537
held	-12.5537
jesus	-12.5537
paint	-12.5537
nothing	-12.5537
kansas	-12.5538
drive	-12.5538
soft	-12.5538
humping	-12.5538
maybe	-12.5538
▁retire	-12.5538
heart	-12.5538
food	-12.5538
guard	-12.5538
▁gamble	-12.5538
bedroom	-12.5538
model	-12.5538
running	-12.5539
fifty	-12.5539
crazy	-12.5539
winning	-12.5539
▁mope	-12.5539
▁weave	-12.5539
finger	-12.5539
beach	-12.5539
nounced	-12.5539
▁paralyze	-12.5539
▁identifie	-12.5539
goddamn	-12.5539
uding	-12.554
trash	-12.554
meters	-12.554
phrase	-12.554
itchy	-12.554
stage	-12.5541
▁complicate	-12.5541
▁davi	-12.5541
jackson	-12.5541
bike	-12.5541
bul	-12.5541
▁authorize	-12.5541
wipe	-12.5541
front	-12.5542
▁buon	-12.5542
▁unanimous	-12.5542
loving	-12.5542
▁crusade	-12.5543
▁accompan	-12.5543
▁admiss	-12.5543
based	-12.5543
▁pharmac	-12.5543
▁pupp	-12.5544
hush	-12.5544
▁manipulat	-12.5544
▁possibilit	-12.5544
copy	-12.5544
▁deput	-12.5544
▁goldenbe	-12.5544
good	-12.5544
dead	-12.5544
bug	-12.5545
intend	-12.5545
▁conserv	-12.5545
theme	-12.5545
wine	-12.5545
▁intens	-12.5545
thora	-12.5545
argh	-12.5545
▁tampo	-12.5545
▁practical	-12.5545
bread	-12.5546
▁obscen	-12.5546
▁infinit	-12.5546
bank	-12.5546
therland	-12.5546
▁innovat	-12.5547
job	-12.5547
▁consol	-12.5547
▁kaw	-12.5547
gwriter	-12.5547
▁extrem	-12.5548
▁baptis	-12.5548
▁horribl	-12.5548
▁wiggl	-12.5548
kiss	-12.5548
johner	-12.5548
▁relate	-12.5548
pilot	-12.5549
pole	-12.5549
▁scatt	-12.5549
ayle	-12.555
uction	-12.5551
blow	-12.5551
mously	-12.5551
ussels	-12.5551
▁pip	-12.5551
fortunately	-12.5552
▁origin	-12.5552
▁snipe	-12.5553
▁brenda	-12.5553
dini	-12.5553
▁televis	-12.5553
▁quadr	-12.5553
boxes	-12.5554
▁shou	-12.5554
▁atro	-12.5554
▁investigati	-12.5554
▁pyr	-12.5554
stabiliz	-12.5554
roubles	-12.5554
two	-12.5554
▁continent	-12.5554
enetic	-12.5555
▁physi	-12.5555
[...]
