<unk>	0
<s>	0
</s>	0
s	-3.86176
▁im	-4.46673
▁dont	-4.60471
▁know	-4.63111
▁get	-4.79212
▁go	-4.8667
▁oh	-4.91506
▁right	-4.92079
▁like	-4.97753
▁youre	-4.99935
▁got	-5.04033
▁yeah	-5.0714
▁come	-5.09967
▁well	-5.13451
▁one	-5.181
▁thats	-5.19031
▁na	-5.25719
▁okay	-5.31564
ing	-5.33091
▁think	-5.41711
▁good	-5.42268
▁see	-5.47139
▁want	-5.485
▁gon	-5.49627
▁hey	-5.52405
▁man	-5.55745
▁look	-5.60283
▁back	-5.62067
▁us	-5.62647
ed	-5.64414
▁yes	-5.65429
▁ill	-5.66356
▁time	-5.67689
▁hes	-5.69119
▁going	-5.70805
▁take	-5.71727
▁	-5.74288
▁would	-5.75551
▁cant	-5.76519
▁need	-5.79968
▁tell	-5.87903
▁say	-5.91407
▁could	-5.93612
▁something	-5.94266
▁way	-5.96447
▁really	-5.97201
▁make	-6.00663
▁thank	-6.01096
d	-6.01847
▁never	-6.02119
▁love	-6.0245
▁sorry	-6.02756
▁l	-6.0276
▁let	-6.04489
▁lets	-6.06449
▁didnt	-6.07121
▁god	-6.08742
▁little	-6.10064
▁whats	-6.10422
▁please	-6.14761
▁theres	-6.17507
▁mean	-6.19188
▁mr	-6.23094
▁give	-6.24785
▁said	-6.26374
▁thing	-6.30633
▁ive	-6.30838
▁two	-6.31359
▁find	-6.32728
▁wait	-6.32932
▁help	-6.34389
▁sir	-6.35074
e	-6.36378
▁sure	-6.37211
y	-6.37468
▁people	-6.38891
▁life	-6.39192
▁shes	-6.39824
▁first	-6.42472
▁stop	-6.43526
▁much	-6.43758
▁still	-6.44217
▁call	-6.4424
▁day	-6.44629
ly	-6.46726
▁great	-6.46846
▁even	-6.4847
▁maybe	-6.53204
▁hell	-6.53656
▁guys	-6.54975
▁night	-6.55147
▁put	-6.55157
▁new	-6.55494
▁theyre	-6.5553
▁home	-6.56461
▁work	-6.57206
▁nothing	-6.59967
er	-6.60199
▁last	-6.60928
▁uh	-6.61695
▁keep	-6.6222
▁hi	-6.62537
▁ever	-6.64856
▁shit	-6.64858
▁must	-6.65397
▁anything	-6.66818
▁thought	-6.68088
i	-6.70568
▁better	-6.71593
▁years	-6.73131
▁name	-6.73431
▁ta	-6.74032
▁everything	-6.74394
▁away	-6.76833
▁leave	-6.77047
▁always	-6.77501
▁long	-6.78014
▁talk	-6.78682
▁guy	-6.79565
▁stay	-6.79966
▁id	-6.8051
▁old	-6.81048
▁ok	-6.81504
▁baby	-6.8188
▁things	-6.8202
▁nice	-6.82521
t	-6.82861
▁miss	-6.83154
▁every	-6.83498
n	-6.8385
▁believe	-6.8426
▁wont	-6.84264
▁told	-6.84509
▁three	-6.84751
▁car	-6.85009
▁around	-6.85723
▁hello	-6.86568
▁fine	-6.88424
▁made	-6.88749
▁wan	-6.88969
▁dad	-6.89244
▁youll	-6.90484
▁move	-6.90522
▁world	-6.9101
▁girl	-6.91021
▁dead	-6.91256
▁kind	-6.91691
▁hear	-6.92855
in	-6.93343
▁youve	-6.95216
▁coming	-6.95502
▁wrong	-6.95756
▁woman	-6.95761
▁remember	-6.95938
▁thanks	-6.96455
▁may	-6.97221
▁place	-6.98148
▁doesnt	-6.98778
▁kill	-6.98806
▁feel	-6.99502
▁done	-6.99621
▁isnt	-7.00466
▁listen	-7.00559
▁understand	-7.01387
▁left	-7.01894
▁boy	-7.03381
▁hold	-7.03759
▁son	-7.04033
▁someone	-7.05408
▁might	-7.06129
▁de	-7.06642
▁die	-7.06672
▁course	-7.06912
▁house	-7.07639
▁big	-7.08676
▁wanted	-7.09264
▁show	-7.09587
▁real	-7.10126
▁another	-7.10295
▁care	-7.10501
▁lot	-7.11002
▁mom	-7.11076
▁door	-7.12039
▁ask	-7.12959
▁getting	-7.13889
▁next	-7.14124
o	-7.14612
▁best	-7.14922
▁money	-7.15104
▁try	-7.15332
▁enough	-7.1676
a	-7.17061
▁morning	-7.18443
▁bad	-7.19641
▁looking	-7.19789
▁open	-7.20023
▁happened	-7.20683
▁today	-7.21233
▁trying	-7.21363
▁friend	-7.21776
▁talking	-7.21941
▁end	-7.22246
▁live	-7.22336
▁came	-7.23251
▁found	-7.23299
▁actually	-7.24037
▁mind	-7.24142
▁run	-7.2435
▁jay	-7.24794
r	-7.24852
▁ready	-7.24856
▁else	-7.25853
▁play	-7.2655
▁huh	-7.27315
▁meet	-7.27949
▁head	-7.28499
▁many	-7.28638
▁knew	-7.28809
▁start	-7.29199
▁family	-7.29565
▁job	-7.30175
▁guess	-7.30195
▁ik	-7.30727
es	-7.31773
▁wasnt	-7.32258
▁um	-7.32279
▁father	-7.3334
▁excuse	-7.33435
▁aint	-7.34235
▁watch	-7.34508
▁tonight	-7.34625
▁late	-7.35227
▁hard	-7.36614
▁damn	-7.37092
▁saw	-7.37465
▁took	-7.37875
▁whos	-7.38703
▁idea	-7.38736
▁bring	-7.3907
▁room	-7.39997
▁minutes	-7.40515
▁part	-7.40674
▁five	-7.40821
en	-7.41232
▁lost	-7.41239
▁together	-7.41653
▁whole	-7.41655
al	-7.41805
▁weve	-7.42515
▁turn	-7.42926
▁second	-7.43051
▁ah	-7.43144
▁use	-7.43234
▁seen	-7.43291
▁four	-7.43813
▁tomorrow	-7.43817
▁phone	-7.43938
▁everybody	-7.44257
▁yet	-7.44262
▁alone	-7.44698
▁school	-7.44705
▁mother	-7.44838
ve	-7.46153
▁ago	-7.46489
▁whoa	-7.46936
▁shut	-7.47358
▁already	-7.47381
▁hope	-7.47581
▁je	-7.47712
▁happy	-7.47835
▁without	-7.47836
▁wouldnt	-7.47874
▁called	-7.47921
▁honey	-7.48292
▁men	-7.48796
▁bit	-7.48957
▁used	-7.48981
▁music	-7.50073
▁heard	-7.50136
▁fire	-7.50335
▁cause	-7.50353
▁face	-7.51086
▁van	-7.51098
▁beautiful	-7.51378
▁kids	-7.51506
▁hand	-7.51615
▁lm	-7.52146
▁days	-7.52348
▁minute	-7.52351
▁friends	-7.52917
▁matter	-7.55304
▁dear	-7.55407
▁year	-7.55821
▁saying	-7.55934
▁dr	-7.56073
▁anyone	-7.56392
▁un	-7.57879
▁daisy	-7.57893
▁gone	-7.58238
▁pretty	-7.58397
▁chuckles	-7.58513
▁power	-7.58789
▁heart	-7.5936
▁captain	-7.60444
▁game	-7.6097
▁sit	-7.61948
▁john	-7.61987
▁everyone	-7.62019
▁met	-7.62219
▁welcome	-7.62534
▁kid	-7.6258
▁eyes	-7.62593
▁check	-7.62737
▁went	-7.64129
▁problem	-7.64203
▁pay	-7.64754
▁stuff	-7.65208
▁hit	-7.65321
▁true	-7.65749
▁point	-7.65854
▁inside	-7.66298
▁killed	-7.6644
l	-7.66594
▁playing	-7.67018
▁shall	-7.6739
▁somebody	-7.67584
▁break	-7.67922
▁wife	-7.67958
▁stand	-7.68019
▁since	-7.68487
▁whatever	-7.68512
▁air	-7.69084
▁couldnt	-7.69679
▁ass	-7.70196
▁probably	-7.70207
▁youd	-7.70213
▁looks	-7.70341
▁doctor	-7.70412
▁working	-7.70564
▁read	-7.71853
▁mine	-7.71972
▁close	-7.7212
▁wheres	-7.7258
▁mrs	-7.72918
▁wow	-7.73101
▁light	-7.73261
▁sighs	-7.73291
▁child	-7.73693
▁dog	-7.73807
▁en	-7.73874
▁water	-7.74045
▁set	-7.74091
▁supposed	-7.74197
▁crazy	-7.74281
▁exactly	-7.74301
▁save	-7.7464
▁question	-7.75202
▁city	-7.75507
▁een	-7.76138
▁trust	-7.76379
▁side	-7.76447
▁rest	-7.76676
▁ship	-7.77004
▁hurt	-7.7711
▁worry	-7.78001
▁clear	-7.78363
▁forget	-7.78517
▁hot	-7.78624
▁says	-7.78811
▁nobody	-7.78921
▁children	-7.79145
▁wish	-7.79398
▁story	-7.79769
▁sleep	-7.80537
on	-7.80969
▁blood	-7.81026
▁hands	-7.8126
▁deal	-7.81498
▁line	-7.82026
▁black	-7.82289
▁havent	-7.82307
▁later	-7.82431
▁anyway	-7.82951
▁war	-7.83187
▁change	-7.83227
▁word	-7.83417
▁death	-7.83421
▁wants	-7.83465
▁thinking	-7.83827
▁week	-7.84153
▁walk	-7.84905
▁fun	-7.85276
▁police	-7.85551
▁gave	-7.85589
▁laughing	-7.85769
▁means	-7.85772
▁chance	-7.8614
▁drive	-7.86175
▁eat	-7.86234
▁far	-7.86507
▁happen	-7.86695
▁white	-7.86811
▁afraid	-7.86912
▁died	-7.87495
▁speak	-7.87577
▁easy	-7.87588
▁pick	-7.87926
▁cut	-7.87952
▁i	-7.88639
▁drink	-7.88703
▁girls	-7.8894
▁funny	-7.88955
▁half	-7.8896
▁hang	-7.89164
▁business	-7.89619
▁em	-7.89652
▁high	-7.90015
▁taking	-7.90354
▁promise	-7.90749
▁trouble	-7.91023
▁moment	-7.91027
▁town	-7.91049
▁person	-7.91679
▁bye	-7.91741
▁jesus	-7.91741
▁number	-7.91786
▁quite	-7.91797
▁order	-7.92866
▁sweet	-7.9314
▁almost	-7.93164
▁lord	-7.93168
▁lady	-7.93185
▁fight	-7.9327
▁yo	-7.9349
g	-7.93656
▁living	-7.93884
▁hmm	-7.93893
an	-7.93942
▁c	-7.94384
▁earth	-7.94611
▁hours	-7.95396
▁free	-7.95447
▁cool	-7.95928
▁soon	-7.96015
▁plan	-7.96526
▁though	-7.96702
▁brother	-7.9697
ic	-7.97431
▁alive	-7.9757
▁lose	-7.97652
▁follow	-7.98213
▁safe	-7.98863
▁young	-7.98897
▁sometimes	-7.99287
▁truth	-7.99823
▁anymore	-7.99833
▁send	-8.00125
▁bitch	-8.00565
▁s	-8.0058
▁shot	-8.00832
▁human	-8.00867
ion	-8.01492
▁frank	-8.01995
▁behind	-8.02159
▁different	-8.02159
▁six	-8.02161
▁maam	-8.02947
▁president	-8.02949
▁makes	-8.04186
▁arent	-8.04541
▁laughs	-8.04738
▁mij	-8.04974
▁dat	-8.05156
▁het	-8.05372
▁hate	-8.06056
▁outside	-8.06148
▁least	-8.0616
▁ride	-8.06543
▁chris	-8.06643
▁perfect	-8.06786
▁married	-8.0698
▁also	-8.07008
▁boys	-8.07026
able	-8.07056
▁either	-8.07805
▁asked	-8.07888
▁answer	-8.08158
▁reason	-8.08161
c	-8.08222
▁russian	-8.08231
▁control	-8.08623
▁drop	-8.09018
▁husband	-8.09047
▁gun	-8.09094
▁book	-8.09109
▁full	-8.09301
▁sick	-8.09468
▁making	-8.09496
▁bed	-8.09699
or	-8.10095
▁running	-8.1033
▁grunts	-8.10408
▁win	-8.10639
k	-8.11056
▁island	-8.11181
▁red	-8.11605
▁speaking	-8.11796
▁church	-8.12837
▁bet	-8.12881
▁anybody	-8.12913
▁ladies	-8.12915
▁ahead	-8.12922
▁attack	-8.13008
▁sound	-8.13105
▁times	-8.13136
▁stupid	-8.14662
▁case	-8.14696
▁started	-8.15512
▁throw	-8.15857
▁waiting	-8.1589
▁sounds	-8.15893
▁re	-8.16375
est	-8.16392
▁body	-8.16478
▁jack	-8.16998
▁secret	-8.17101
▁date	-8.17508
▁perhaps	-8.18295
▁niet	-8.18902
▁voice	-8.18994
▁they	-8.19211
▁an	-8.1947
m	-8.19471
▁months	-8.19559
▁catch	-8.19691
▁train	-8.20023
▁office	-8.20074
▁shoot	-8.20163
▁gasps	-8.21212
▁telling	-8.21347
▁feeling	-8.21575
▁wear	-8.21579
▁blue	-8.21644
▁fair	-8.21711
▁daughter	-8.21801
▁boat	-8.21853
▁st	-8.2196
▁important	-8.22057
▁couple	-8.22059
▁party	-8.22182
▁serious	-8.22857
▁david	-8.23013
▁food	-8.23013
▁clean	-8.23089
▁asking	-8.23506
re	-8.23847
▁needs	-8.23909
▁road	-8.23984
▁mama	-8.24
▁eye	-8.24
▁lives	-8.24149
▁parents	-8.2416
▁news	-8.24328
▁dance	-8.24417
▁continues	-8.24768
▁seems	-8.24931
▁seven	-8.24958
▁leaving	-8.24966
▁touch	-8.25001
▁heres	-8.25343
▁top	-8.25359
▁able	-8.25362
u	-8.25393
▁fly	-8.25559
▁dark	-8.25794
▁hour	-8.25899
▁gentlemen	-8.25956
▁zach	-8.2596
▁cold	-8.25976
▁tried	-8.26016
▁happens	-8.26029
▁la	-8.26348
p	-8.26384
ers	-8.26897
▁possible	-8.26954
▁ball	-8.27015
▁special	-8.27545
▁protect	-8.2789
▁henry	-8.27967
▁feet	-8.27982
▁bella	-8.28004
▁in	-8.28147
▁pull	-8.28153
▁k	-8.28878
▁team	-8.28927
▁front	-8.28985
▁spanish	-8.28985
▁finally	-8.29074
st	-8.29127
▁loved	-8.29286
▁pain	-8.29439
▁mike	-8.29844
▁smart	-8.2986
▁upon	-8.30029
▁goes	-8.30125
▁lie	-8.30841
▁shell	-8.31082
▁sign	-8.311
▁mary	-8.31104
▁buy	-8.31587
▁cover	-8.31762
▁step	-8.31867
▁small	-8.31963
▁goodbye	-8.32111
▁moving	-8.32112
▁till	-8.32116
▁dream	-8.32224
▁holy	-8.32233
▁breathe	-8.32361
us	-8.32803
▁ten	-8.33005
▁comes	-8.3328
▁finish	-8.33293
▁lucky	-8.33344
▁count	-8.34123
▁past	-8.34224
▁brought	-8.34249
▁english	-8.34249
▁general	-8.34249
▁seem	-8.34477
▁goddamn	-8.35336
▁future	-8.35336
▁history	-8.35336
▁women	-8.35337
▁itll	-8.35339
▁theyll	-8.35355
▁james	-8.35356
▁scared	-8.35458
▁kiss	-8.35573
▁mad	-8.36158
▁luck	-8.36268
▁hows	-8.36541
▁words	-8.36633
ie	-8.36794
▁fast	-8.37337
▁entire	-8.37388
▁dinner	-8.37546
▁ooh	-8.37547
▁wonderful	-8.37559
▁tv	-8.37584
▁choice	-8.37619
▁sister	-8.37692
▁te	-8.37983
▁honor	-8.38282
▁bilbo	-8.3867
▁loud	-8.38711
▁none	-8.38829
▁groans	-8.38875
▁song	-8.38958
▁state	-8.39098
ity	-8.39483
man	-8.3953
▁fact	-8.39748
▁company	-8.39806
▁forever	-8.39807
▁hair	-8.39935
▁breathing	-8.40078
ar	-8.40121
▁land	-8.4022
▁ground	-8.40587
▁fall	-8.40633
▁green	-8.4067
▁strong	-8.40788
▁figure	-8.40838
▁hurry	-8.40956
▁radio	-8.40956
▁spend	-8.40959
▁fear	-8.41002
z	-8.41102
▁ow	-8.41118
▁street	-8.41124
▁th	-8.41304
▁a	-8.41412
▁taken	-8.41419
▁wake	-8.41505
▁wild	-8.41807
▁near	-8.4211
▁space	-8.42118
▁finn	-8.42119
▁known	-8.42222
▁sea	-8.42903
▁beat	-8.43022
▁indistinct	-8.43134
▁write	-8.43155
▁careful	-8.4317
▁caleb	-8.43295
▁kidding	-8.43299
▁sense	-8.43302
▁grunting	-8.43321
▁single	-8.43322
▁million	-8.43562
▁system	-8.43592
▁building	-8.43718
▁b	-8.43874
▁ha	-8.43875
ation	-8.44016
le	-8.44022
f	-8.44202
▁grace	-8.44251
▁given	-8.44261
▁slow	-8.44331
▁handle	-8.44445
▁gandalf	-8.44485
▁rather	-8.44487
▁cady	-8.44487
▁calm	-8.44489
▁country	-8.44489
▁become	-8.44751
▁sing	-8.44865
▁broke	-8.45509
▁york	-8.45689
▁somewhere	-8.4569
▁sent	-8.45727
▁screaming	-8.45754
▁force	-8.45778
▁screams	-8.45962
▁sort	-8.45965
▁message	-8.45974
▁happening	-8.46569
▁weird	-8.46791
▁susan	-8.4691
▁charles	-8.46911
▁security	-8.46923
▁law	-8.47153
▁bernie	-8.47166
▁learn	-8.47283
less	-8.47652
▁knows	-8.47726
▁meant	-8.4796
▁hospital	-8.48144
▁professor	-8.48144
▁shouldnt	-8.48145
▁absolutely	-8.48165
▁born	-8.48194
▁unless	-8.48196
▁lts	-8.48267
▁dan	-8.48299
▁machine	-8.48482
▁cell	-8.48493
▁meeting	-8.48521
▁master	-8.48585
▁ya	-8.48786
ous	-8.49021
h	-8.49042
▁jane	-8.49326
▁buddy	-8.49395
▁calling	-8.49396
▁richard	-8.49398
▁return	-8.49399
▁fault	-8.49401
w	-8.49518
▁rey	-8.49636
▁trip	-8.49699
▁soul	-8.49795
▁king	-8.50479
▁respect	-8.50488
▁wat	-8.5049
▁werent	-8.5066
▁cat	-8.51082
▁picture	-8.51145
▁questions	-8.51238
▁launch	-8.51754
▁class	-8.51831
▁er	-8.51869
▁relax	-8.51942
▁birthday	-8.51944
▁others	-8.51984
▁rock	-8.52249
▁floor	-8.52378
▁park	-8.52416
▁missed	-8.52574
▁p	-8.52675
▁longer	-8.52713
it	-8.53234
▁coffee	-8.53241
▁glad	-8.53246
▁ones	-8.534
▁pass	-8.53599
▁daddy	-8.5376
▁imagine	-8.54299
▁worth	-8.54366
▁peace	-8.54548
▁middle	-8.54557
▁amazing	-8.54559
▁felt	-8.54595
▁aye	-8.54612
▁push	-8.55025
▁suit	-8.554
▁evening	-8.55733
▁terrible	-8.5589
▁mgan	-8.55897
▁crowd	-8.55921
el	-8.55966
▁wed	-8.56118
▁star	-8.56406
▁officer	-8.56583
▁planet	-8.56798
▁short	-8.57074
▁worked	-8.57134
▁lead	-8.57193
▁anywhere	-8.57241
▁stephen	-8.57244
▁danny	-8.57245
▁dude	-8.57252
▁voor	-8.57254
▁favor	-8.57271
▁e	-8.57478
ies	-8.57562
▁g	-8.58338
▁sex	-8.58445
▁blow	-8.58609
▁straight	-8.58614
▁gas	-8.58807
▁mm	-8.58866
▁christ	-8.58945
▁hed	-8.59002
▁ja	-8.59125
▁window	-8.59255
▁queen	-8.59293
▁horse	-8.59296
▁explain	-8.59333
▁strange	-8.59918
▁except	-8.59966
▁george	-8.60001
▁whoo	-8.60141
▁hero	-8.60238
▁bank	-8.60525
▁mistake	-8.60599
▁act	-8.60835
▁les	-8.61159
▁accident	-8.6133
▁grab	-8.61347
▁college	-8.61409
▁impossible	-8.61409
▁panting	-8.61434
▁mouth	-8.61525
▁op	-8.61533
▁code	-8.62009
▁piece	-8.62167
▁less	-8.62448
▁u	-8.62542
▁quick	-8.62683
▁test	-8.62783
▁across	-8.6284
▁swear	-8.6284
▁information	-8.62844
▁ben	-8.63012
▁watching	-8.63155
▁service	-8.63579
▁hazel	-8.64286
▁along	-8.64288
▁zijn	-8.64295
▁jason	-8.64302
▁sun	-8.64571
▁mess	-8.64686
▁wonder	-8.64877
▁battle	-8.65025
▁robert	-8.6565
▁tom	-8.65738
▁fantasy	-8.65757
▁greville	-8.65757
▁michael	-8.65757
▁bar	-8.65783
▁early	-8.65822
▁seriously	-8.65998
▁fool	-8.66224
▁ii	-8.66474
▁weekend	-8.66591
▁command	-8.66824
▁killing	-8.6686
▁seconds	-8.66884
▁deep	-8.66976
▁alright	-8.67251
▁thorin	-8.67266
▁table	-8.67293
▁totally	-8.67301
▁missing	-8.67311
▁lll	-8.67478
▁nine	-8.67716
▁club	-8.68101
▁station	-8.68132
▁plane	-8.68134
▁month	-8.68223
▁bag	-8.68228
▁giving	-8.68765
▁gemma	-8.68774
▁north	-8.68777
▁sky	-8.68783
▁hotel	-8.68813
▁destroy	-8.68842
▁looked	-8.68857
▁age	-8.6892
▁weeks	-8.69009
▁om	-8.69108
ch	-8.69282
▁truck	-8.69662
▁alien	-8.69759
▁key	-8.698
▁gerry	-8.70303
▁wind	-8.70371
ive	-8.706
ment	-8.70872
▁gift	-8.70926
▁lovely	-8.71031
▁zo	-8.71278
▁movie	-8.71305
▁produce	-8.71394
▁fix	-8.71503
▁west	-8.71661
▁emergency	-8.71866
▁works	-8.72053
▁dress	-8.72476
▁expect	-8.72595
▁smell	-8.72916
▁mission	-8.73041
▁turned	-8.73161
▁foot	-8.73264
▁chief	-8.73453
▁worried	-8.73453
▁thou	-8.73465
▁poor	-8.7347
▁list	-8.736
ll	-8.73607
▁interesting	-8.73716
▁join	-8.74115
▁saved	-8.74151
▁poe	-8.74232
po	-8.74319
▁weapon	-8.74612
▁joke	-8.74707
▁worse	-8.75066
▁evil	-8.75069
▁pleasure	-8.75085
▁aah	-8.75091
▁roll	-8.75241
up	-8.75541
▁art	-8.7564
▁t	-8.75675
▁wedding	-8.76138
▁language	-8.76159
▁ho	-8.76172
▁round	-8.76177
▁position	-8.76179
▁anna	-8.76225
▁begin	-8.76306
▁standing	-8.76497
▁bullshit	-8.76705
▁darling	-8.76706
▁chuckling	-8.76706
▁tough	-8.76707
▁definitely	-8.76708
▁simple	-8.7671
▁dying	-8.76757
▁hide	-8.76888
▁speaks	-8.76965
▁needed	-8.76971
▁laugh	-8.77077
▁miles	-8.772
▁keys	-8.77277
▁crewe	-8.77372
▁singing	-8.77383
▁offer	-8.77943
▁heb	-8.78277
▁drunk	-8.78372
▁kappa	-8.78372
▁favorite	-8.78373
▁paid	-8.78377
▁amy	-8.78406
▁eight	-8.78502
▁cheering	-8.78511
▁joe	-8.78655
▁stick	-8.79111
▁h	-8.79215
v	-8.79369
▁hundred	-8.79634
▁accept	-8.79647
▁moved	-8.79984
▁strike	-8.80067
▁v	-8.80067
▁lunch	-8.8007
▁brian	-8.80071
▁yall	-8.80089
▁gasping	-8.80119
▁low	-8.80379
▁chatter	-8.81303
▁tower	-8.81309
▁girlfriend	-8.81312
▁spirit	-8.81341
▁feed	-8.81442
▁fell	-8.81554
▁seat	-8.81735
▁sydney	-8.81791
▁christmas	-8.81791
▁duke	-8.81801
▁ran	-8.8222
▁crew	-8.82841
▁hij	-8.82923
th	-8.82945
b	-8.83038
▁smile	-8.83098
▁summer	-8.83148
▁suppose	-8.83306
▁tire	-8.83308
▁quiet	-8.83382
▁america	-8.83436
▁ge	-8.8353
▁forgot	-8.83531
▁attention	-8.83545
▁clothes	-8.83552
▁throat	-8.83555
▁rain	-8.83573
▁burn	-8.83582
▁stopped	-8.83643
▁shoes	-8.84205
▁changed	-8.84269
▁kick	-8.84465
▁flight	-8.84916
▁base	-8.85053
▁final	-8.85175
▁grand	-8.8532
▁driving	-8.85332
▁rachel	-8.85333
▁group	-8.85337
▁uncle	-8.8534
▁maar	-8.85343
▁yep	-8.85349
▁south	-8.85369
▁thee	-8.85382
▁board	-8.85402
▁mayor	-8.85625
▁wearing	-8.86258
son	-8.86298
▁travel	-8.86638
▁hat	-8.8673
▁reading	-8.86861
▁american	-8.87012
▁beach	-8.87072
▁personal	-8.87122
▁worst	-8.87149
▁french	-8.87149
▁thomas	-8.87149
▁third	-8.87158
▁proud	-8.87161
▁military	-8.87167
▁obviously	-8.872
▁mmm	-8.8819
▁sell	-8.88511
▁maid	-8.88611
▁stole	-8.88893
▁difference	-8.89001
▁spent	-8.89005
▁bathroom	-8.89005
▁boss	-8.89019
▁watson	-8.89023
▁holly	-8.89028
▁owe	-8.89058
▁dean	-8.89141
la	-8.89305
▁wondering	-8.89624
▁reach	-8.90312
▁ex	-8.9038
▁gets	-8.90388
▁contact	-8.90508
by	-8.90563
▁appreciate	-8.90625
▁agree	-8.90625
▁area	-8.90629
ce	-8.90632
▁robot	-8.90659
▁field	-8.90661
▁brain	-8.90685
▁rule	-8.90767
▁hole	-8.90772
ten	-8.90825
▁super	-8.90868
▁forgive	-8.90874
▁aibileen	-8.90888
▁langdon	-8.90888
▁public	-8.90888
▁forward	-8.90897
▁kept	-8.909
▁center	-8.9091
▁hilly	-8.91008
▁guards	-8.91033
▁plant	-8.91106
ur	-8.91138
▁feels	-8.91512
▁record	-8.91732
ke	-8.91806
▁f	-8.91856
▁guard	-8.92252
▁visit	-8.92259
▁marry	-8.92294
▁walking	-8.92308
▁normal	-8.92648
▁magic	-8.92754
▁saturday	-8.92811
▁alice	-8.92816
▁junior	-8.92821
▁warm	-8.92912
▁rose	-8.93107
▁report	-8.93268
▁chattering	-8.9336
▁sad	-8.93383
li	-8.93497
▁pal	-8.93606
▁box	-8.93619
▁shh	-8.93619
▁al	-8.93842
▁knock	-8.93893
out	-8.94507
▁neither	-8.94772
▁caught	-8.94773
▁nose	-8.94781
▁dangerous	-8.94784
▁doin	-8.94841
▁tess	-8.9485
te	-8.94951
▁anne	-8.94962
▁thy	-8.95065
▁m	-8.95175
▁double	-8.95181
▁block	-8.95708
▁nick	-8.95945
▁lived	-8.96156
▁n	-8.96186
▁engine	-8.96334
▁complete	-8.96373
▁charge	-8.96424
▁ice	-8.96621
▁moon	-8.96681
▁mountain	-8.96689
▁rich	-8.96762
▁uhhuh	-8.96772
▁vatican	-8.96772
▁yesterday	-8.96772
▁katie	-8.96773
▁christian	-8.96791
▁marie	-8.96792
▁immediately	-8.96795
▁wide	-8.96928
▁lay	-8.96951
▁breath	-8.97839
▁cross	-8.97875
▁del	-8.97921
▁enjoy	-8.97946
ry	-8.98073
▁bus	-8.98155
▁cop	-8.98176
▁ed	-8.98357
ng	-8.9844
▁allow	-8.98463
▁thousand	-8.98767
▁lt	-8.98783
▁ring	-8.9879
▁bond	-8.98792
▁beyond	-8.98812
▁majesty	-8.98812
▁research	-8.98812
▁situation	-8.98812
▁detective	-8.98814
▁heavily	-8.98817
▁football	-8.98819
▁jo	-8.99597
▁per	-8.9985
um	-9.00302
▁animals	-9.0038
▁prove	-9.00579
ra	-9.00665
▁howd	-9.00726
▁target	-9.00849
▁koning	-9.00874
▁bought	-9.00896
▁mirror	-9.00896
▁congratulations	-9.00896
▁minny	-9.00898
▁outta	-9.009
▁cindy	-9.00901
▁satine	-9.00901
▁tree	-9.00909
▁paper	-9.00923
▁whatd	-9.00924
▁level	-9.00929
▁cops	-9.0093
▁copy	-9.01072
▁decided	-9.01095
▁broken	-9.01106
▁be	-9.01193
ance	-9.01575
▁whose	-9.0178
▁jump	-9.01982
▁talked	-9.02072
ness	-9.02445
is	-9.02548
▁present	-9.02618
▁surprise	-9.0276
▁quit	-9.02884
▁doc	-9.02918
▁seeing	-9.02923
▁glass	-9.02955
▁extra	-9.03022
▁cash	-9.03023
▁enemy	-9.03023
▁italian	-9.03023
▁twice	-9.03024
▁dumb	-9.03024
▁government	-9.03026
▁diane	-9.03027
▁universe	-9.03029
▁within	-9.03041
▁fleet	-9.03057
▁teacher	-9.03066
▁shouting	-9.03126
▁completely	-9.03192
▁named	-9.03312
▁wall	-9.03375
▁folks	-9.03505
▁weapons	-9.03638
▁finished	-9.03741
il	-9.04139
▁murder	-9.04611
and	-9.04685
▁fish	-9.04721
to	-9.04932
▁river	-9.05092
▁heat	-9.05095
▁bill	-9.0514
▁video	-9.05197
▁council	-9.05201
▁stuck	-9.05202
▁shield	-9.05204
▁agent	-9.05264
▁whispering	-9.05335
▁rules	-9.05404
▁interested	-9.05462
▁tired	-9.05505
▁greatest	-9.05581
▁crying	-9.05646
▁wine	-9.05648
▁unit	-9.05731
▁takes	-9.06085
▁lights	-9.0632
▁training	-9.06346
▁press	-9.06438
▁fit	-9.06954
▁lock	-9.07025
▁correct	-9.0718
de	-9.07294
▁angry	-9.0742
▁colonel	-9.0742
▁linda	-9.07422
▁charlie	-9.07423
▁store	-9.07427
▁josh	-9.0743
▁apartment	-9.07435
▁jail	-9.07441
▁clay	-9.07443
▁leg	-9.07449
▁chicken	-9.0745
▁dit	-9.07454
▁gary	-9.0749
▁edward	-9.07495
▁mask	-9.07506
▁button	-9.07536
▁army	-9.07588
▁peter	-9.07613
▁als	-9.0765
ate	-9.07902
▁passed	-9.08031
▁pop	-9.08258
▁gold	-9.08936
▁teach	-9.0909
▁bomb	-9.09196
▁pro	-9.09349
▁clark	-9.09499
▁east	-9.09539
▁faith	-9.09599
▁deserve	-9.0961
▁holmes	-9.09692
▁instead	-9.09692
▁dracula	-9.09692
▁indeed	-9.09692
▁hasnt	-9.09693
▁lisa	-9.09693
▁sharon	-9.09695
▁shouldve	-9.09701
▁stories	-9.09704
▁carl	-9.09707
▁choose	-9.09748
▁tony	-9.09752
▁busy	-9.09886
▁spider	-9.09898
▁bird	-9.09945
▁arm	-9.09993
as	-9.10188
▁ringing	-9.10241
▁learned	-9.1036
▁certain	-9.10377
▁tape	-9.1046
▁books	-9.10779
▁calls	-9.11074
▁crash	-9.11143
▁pa	-9.11189
▁lies	-9.11294
▁wouldve	-9.11353
▁o	-9.11423
▁stars	-9.11571
▁san	-9.11718
▁realize	-9.11817
▁legs	-9.11847
▁weak	-9.12012
▁afternoon	-9.12018
▁especially	-9.12018
▁seymour	-9.12018
▁skeeter	-9.12018
▁brenda	-9.12018
▁shame	-9.12021
▁jim	-9.12023
▁hungry	-9.12026
▁built	-9.1203
▁blind	-9.1203
▁mmhmm	-9.12037
▁price	-9.12039
▁milo	-9.12041
▁science	-9.12076
▁losing	-9.12107
▁bastard	-9.12239
▁gate	-9.12263
▁spot	-9.12267
▁soldier	-9.12286
▁sam	-9.12306
▁locked	-9.12393
▁map	-9.12493
▁dare	-9.12777
▁doors	-9.1314
▁cute	-9.1317
ton	-9.13184
▁du	-9.13646
▁steal	-9.13886
▁cry	-9.14056
▁prins	-9.14069
ri	-9.14101
▁health	-9.14229
▁support	-9.14383
▁evidence	-9.14399
▁heavy	-9.14399
▁pardon	-9.14399
▁ridiculous	-9.14399
▁william	-9.14399
▁teeth	-9.14399
▁beginning	-9.144
▁dick	-9.14402
▁major	-9.14403
▁access	-9.14403
▁bobby	-9.14405
▁nina	-9.1441
▁paul	-9.14428
▁rings	-9.14435
▁lf	-9.14456
▁hath	-9.14458
▁pope	-9.14464
▁corner	-9.14477
▁woody	-9.14538
▁certainly	-9.14563
▁doubt	-9.14564
▁shed	-9.14575
▁x	-9.1464
▁guardian	-9.14649
▁fucking	-9.14697
▁rome	-9.14717
▁w	-9.14789
▁signal	-9.14817
▁aw	-9.14839
▁growing	-9.14866
ass	-9.14936
▁barr	-9.14972
▁tea	-9.15024
▁waste	-9.15138
▁mate	-9.15729
▁couldve	-9.15851
▁pack	-9.16124
▁using	-9.16419
ma	-9.1655
▁taste	-9.16599
▁arms	-9.16604
▁excited	-9.16655
▁soft	-9.1668
▁dreams	-9.16744
▁farm	-9.16794
▁r	-9.16799
▁sweetheart	-9.16838
▁freedom	-9.16838
▁jerry	-9.16838
▁rafo	-9.16838
▁helsing	-9.16839
▁location	-9.1684
▁innocent	-9.16842
▁grail	-9.16845
▁medical	-9.16865
▁vader	-9.16869
▁amen	-9.16909
▁fill	-9.16924
▁nature	-9.16983
▁balls	-9.17008
▁se	-9.17086
▁quickly	-9.17109
▁wave	-9.17243
▁camera	-9.17315
▁mi	-9.17582
▁ender	-9.17818
▁liked	-9.18202
▁mo	-9.18427
▁color	-9.18753
▁focus	-9.18971
▁grow	-9.19053
▁share	-9.19101
▁horn	-9.19132
▁court	-9.19331
▁audrey	-9.19338
▁awesome	-9.19338
▁pretend	-9.19338
▁sarge	-9.19338
▁truly	-9.19338
▁gollum	-9.19338
▁denise	-9.19338
▁boyfriend	-9.19339
▁alex	-9.1934
▁ronan	-9.19343
▁awful	-9.19433
▁groaning	-9.19446
ist	-9.19557
▁due	-9.19598
▁crime	-9.19664
▁card	-9.19714
▁heaven	-9.19731
▁gosh	-9.20086
▁promised	-9.2023
na	-9.20319
▁closed	-9.20414
▁nu	-9.20518
▁starts	-9.20529
▁gus	-9.20665
et	-9.20888
▁fighting	-9.21076
▁sleeping	-9.21318
▁serve	-9.21321
▁lift	-9.2154
▁honest	-9.21568
▁decide	-9.21657
▁lou	-9.21676
▁prison	-9.21736
▁steve	-9.21797
▁worlds	-9.21803
▁breakfast	-9.21902
▁elizabeth	-9.21902
▁wherever	-9.21903
▁taught	-9.21903
▁ought	-9.21903
▁bruce	-9.21904
▁strength	-9.21907
▁practice	-9.21908
▁apparently	-9.21916
▁pressure	-9.21937
▁sitting	-9.21948
▁skin	-9.21952
▁band	-9.21987
▁putting	-9.22026
▁sake	-9.22299
▁pet	-9.22619
▁seemed	-9.22773
▁lied	-9.22783
ia	-9.23125
▁common	-9.23517
▁consider	-9.23618
▁search	-9.23648
▁bear	-9.23648
▁d	-9.23754
▁brothers	-9.23973
▁plays	-9.23984
▁build	-9.24045
▁da	-9.24065
▁track	-9.24226
▁secure	-9.24299
▁ga	-9.24306
▁daniel	-9.24354
▁numbers	-9.24366
▁sara	-9.24517
▁everywhere	-9.24534
▁kitchen	-9.24534
▁wrote	-9.24534
▁vacation	-9.24534
▁local	-9.24535
▁salt	-9.24535
▁twenty	-9.24541
▁christine	-9.24549
▁paddle	-9.2455
▁sonny	-9.24555
▁purpose	-9.24556
▁speed	-9.24637
▁honestly	-9.24696
▁warning	-9.24711
ta	-9.24746
▁large	-9.24833
▁staying	-9.24834
▁lo	-9.24837
▁bell	-9.2493
▁egg	-9.25246
▁yi	-9.25467
▁con	-9.25511
▁pre	-9.2594
▁continue	-9.26183
▁rid	-9.26373
ter	-9.26497
▁systems	-9.26565
▁plans	-9.26695
▁suggest	-9.26799
▁gods	-9.26838
▁trade	-9.26841
▁ends	-9.26852
▁hill	-9.26861
▁mention	-9.26905
▁carry	-9.26908
▁breaking	-9.2691
▁mark	-9.2692
▁survive	-9.27003
▁escape	-9.27008
▁fresh	-9.27226
▁bottom	-9.27236
▁ryan	-9.27236
▁audience	-9.27237
▁address	-9.27237
▁friday	-9.27243
▁license	-9.2725
▁shaw	-9.27282
▁shake	-9.27344
▁sand	-9.2735
▁fate	-9.27352
▁male	-9.27394
▁robots	-9.27503
▁indian	-9.27587
▁tight	-9.27604
▁size	-9.27689
▁paris	-9.27718
▁conversation	-9.27798
▁idiot	-9.27828
▁student	-9.27906
▁animal	-9.27935
▁diamonds	-9.27966
▁beep	-9.28019
▁iron	-9.28021
▁starting	-9.28061
sh	-9.282
▁dogs	-9.28653
▁older	-9.28866
▁shine	-9.29017
▁following	-9.29032
▁listening	-9.29241
▁freak	-9.29587
▁problems	-9.2963
▁goin	-9.29709
▁notice	-9.29777
ty	-9.29981
▁program	-9.29987
▁doug	-9.29994
▁cars	-9.29995
▁admit	-9.30004
▁ancient	-9.30014
▁computer	-9.30014
▁dillon	-9.30014
▁excellent	-9.30014
▁fought	-9.30014
▁insurance	-9.30014
▁upstairs	-9.30014
▁alert	-9.30014
▁whether	-9.30015
▁heh	-9.30028
▁judge	-9.30036
▁safety	-9.30049
▁whered	-9.30054
▁jacket	-9.3006
rs	-9.30107
▁uit	-9.30133
▁remain	-9.30203
▁do	-9.30233
▁plus	-9.30325
▁fat	-9.30379
▁screeching	-9.30466
▁shop	-9.30532
▁regret	-9.30637
▁seek	-9.30644
▁ze	-9.30671
▁account	-9.30693
▁ticket	-9.30743
▁asshole	-9.30746
▁prince	-9.30747
▁appear	-9.30892
▁letter	-9.31048
ary	-9.31192
be	-9.314
▁picked	-9.31502
▁surf	-9.31802
▁screw	-9.31992
▁crap	-9.31997
▁hier	-9.32021
▁drinking	-9.32044
ful	-9.32073
▁private	-9.32699
▁nervous	-9.32702
▁spoke	-9.32761
▁paint	-9.3278
▁foreign	-9.32837
▁birth	-9.32865
▁storm	-9.3287
▁beg	-9.3287
▁christopher	-9.32871
▁smoke	-9.32871
▁silly	-9.32871
▁larry	-9.32875
▁asleep	-9.32876
▁dudley	-9.32876
▁repeat	-9.32877
▁biggest	-9.32881
▁literally	-9.32892
▁beauty	-9.32893
▁switch	-9.32913
▁subject	-9.32918
▁rise	-9.32938
▁harm	-9.32941
▁invited	-9.32989
▁spy	-9.32993
▁hall	-9.33202
▁match	-9.33222
▁closer	-9.33234
▁commander	-9.33279
▁angel	-9.33443
▁figured	-9.33491
▁ty	-9.33504
▁ghost	-9.33595
▁bridge	-9.33626
▁partner	-9.33632
▁file	-9.33654
▁missile	-9.33715
ped	-9.33723
▁stone	-9.33793
▁cost	-9.33795
▁over	-9.34147
▁queens	-9.34335
▁holding	-9.34837
▁hanging	-9.34956
▁interest	-9.34982
▁dis	-9.35136
▁swing	-9.35277
▁j	-9.35432
▁arrest	-9.3545
▁russia	-9.35704
▁adaline	-9.35812
▁bertleman	-9.35812
▁chirping	-9.35812
▁plenty	-9.35812
▁monday	-9.35813
▁exciting	-9.35813
▁grew	-9.35814
▁cancer	-9.35814
▁sammy	-9.35815
▁department	-9.35816
▁possibly	-9.35818
▁credit	-9.35818
▁scratch	-9.35824
▁scene	-9.35837
▁dropped	-9.35844
▁neck	-9.35862
▁lab	-9.35877
▁incredible	-9.35882
▁bigger	-9.35912
▁lying	-9.35957
▁softly	-9.36003
go	-9.3626
▁decision	-9.36676
▁cardinal	-9.36701
▁bones	-9.36719
▁roberta	-9.36731
▁wood	-9.3674
▁toy	-9.36795
▁besides	-9.36805
▁orc	-9.36843
▁leader	-9.36992
▁fan	-9.37
men	-9.37524
▁bro	-9.3762
▁bite	-9.37742
ow	-9.38252
▁treat	-9.38326
▁screech	-9.38352
▁experience	-9.38624
▁clock	-9.38764
▁difficult	-9.38843
▁female	-9.38843
▁kitai	-9.38843
▁london	-9.38843
▁somehow	-9.38843
▁thief	-9.38843
▁chinese	-9.38843
▁fantastic	-9.38843
▁pregnant	-9.38843
▁romantic	-9.38844
▁quill	-9.38847
▁dna	-9.38856
▁waar	-9.3887
▁exhales	-9.3888
▁carver	-9.38892
▁held	-9.38904
▁ch	-9.38909
▁believed	-9.38909
▁coat	-9.38916
▁sold	-9.38923
▁willing	-9.39
▁wil	-9.39007
▁hoping	-9.39044
▁confirmed	-9.39047
▁showed	-9.39297
▁butt	-9.39422
▁cap	-9.39473
▁risk	-9.3953
▁kinda	-9.39778
ro	-9.39925
▁pin	-9.39939
▁names	-9.40236
▁flying	-9.40379
▁hum	-9.40847
▁pray	-9.40889
at	-9.41276
▁orchestra	-9.41302
▁watched	-9.41641
speaks	-9.41641
▁headed	-9.41842
▁opens	-9.41905
▁orb	-9.41953
▁earlier	-9.41968
▁galaxy	-9.41968
▁macho	-9.41968
▁response	-9.41968
▁traffic	-9.41968
▁zidler	-9.41968
▁insane	-9.41968
▁cousin	-9.41968
▁spock	-9.4197
▁campbell	-9.4197
▁augustus	-9.41971
▁tyler	-9.41971
▁thatll	-9.41972
▁naked	-9.41977
▁memory	-9.41988
▁director	-9.41993
▁usually	-9.42066
▁fred	-9.42107
▁zoon	-9.42108
▁bb	-9.42126
▁mac	-9.42132
▁grave	-9.42134
▁surprised	-9.42333
▁suck	-9.42373
▁bucks	-9.42411
▁remind	-9.42467
ial	-9.42489
se	-9.42559
▁dollars	-9.42683
▁chest	-9.42916
▁operation	-9.42936
▁tommy	-9.42957
▁sub	-9.42966
▁el	-9.43026
ian	-9.43218
▁trained	-9.43242
▁driver	-9.43397
age	-9.43509
ling	-9.4351
▁fired	-9.4366
▁up	-9.43702
ting	-9.43719
▁player	-9.44207
▁eating	-9.44327
▁piss	-9.44381
ant	-9.44448
▁sat	-9.44747
▁raise	-9.45029
x	-9.45065
lo	-9.45081
▁cruel	-9.45183
▁zamunda	-9.45191
▁cheese	-9.45193
▁doubtfire	-9.45193
▁dwarf	-9.45193
▁otherwise	-9.45193
▁soviet	-9.45193
▁snow	-9.45194
▁however	-9.45194
▁susie	-9.45194
▁grandfather	-9.45195
▁roarke	-9.45197
▁anderson	-9.45198
▁blackwood	-9.45201
▁often	-9.45201
▁simply	-9.45201
▁martin	-9.45203
▁max	-9.45206
▁professional	-9.45207
▁brave	-9.45218
▁abby	-9.45224
▁priory	-9.45225
▁pipe	-9.45248
▁path	-9.4526
▁form	-9.45288
▁grown	-9.45335
▁row	-9.45368
▁geen	-9.45372
ine	-9.4538
▁powerful	-9.45385
▁sight	-9.45409
▁approaching	-9.45429
▁stage	-9.45446
▁created	-9.45459
▁pants	-9.45461
▁film	-9.4571
▁nuts	-9.45829
▁cup	-9.45875
▁nurse	-9.45917
▁destroyed	-9.45963
▁voices	-9.46
▁whispers	-9.46078
▁ian	-9.46097
▁chase	-9.46121
▁returned	-9.46135
▁trick	-9.46182
▁pocket	-9.46249
▁patrick	-9.46255
▁noise	-9.46258
▁type	-9.46264
▁suspect	-9.46326
▁monster	-9.46339
▁co	-9.46382
▁saving	-9.46406
ba	-9.46455
▁nah	-9.46732
▁laws	-9.47455
▁draw	-9.47508
▁ar	-9.47607
▁cook	-9.47615
ck	-9.47683
▁orders	-9.48224
pe	-9.48292
▁so	-9.48351
am	-9.48356
▁mmhm	-9.48499
▁aunt	-9.48501
▁games	-9.48505
▁apart	-9.48506
▁upset	-9.48517
▁available	-9.48527
▁enemies	-9.48527
▁lomax	-9.48527
▁moscow	-9.48527
▁piragua	-9.48527
▁relationship	-9.48527
▁stormtrooper	-9.48527
▁kelly	-9.48527
▁threw	-9.48529
▁blame	-9.48529
▁oak	-9.48529
▁bunch	-9.4853
▁trash	-9.48531
▁ugh	-9.48532
▁familiar	-9.48533
▁nuclear	-9.48533
▁treasure	-9.48534
▁baseball	-9.48536
▁balin	-9.48541
▁virgin	-9.48545
▁danger	-9.48547
▁hiding	-9.48548
▁decent	-9.48549
▁barely	-9.48551
▁hut	-9.48557
▁announcer	-9.48559
▁sue	-9.48675
▁ver	-9.48697
▁stolen	-9.48726
▁sexy	-9.48952
▁pen	-9.49285
▁tie	-9.49513
ne	-9.49735
▁kingdom	-9.49735
▁fingers	-9.49878
▁model	-9.49887
▁le	-9.49933
▁beer	-9.49939
▁keeps	-9.50306
▁shows	-9.50666
un	-9.50786
▁bounce	-9.51121
▁thinks	-9.51123
▁woods	-9.51505
▁hearing	-9.51514
▁chew	-9.51877
▁silver	-9.51973
▁roof	-9.51975
▁abuela	-9.51975
▁alarm	-9.51975
▁brilliant	-9.51975
▁marriage	-9.51975
▁minho	-9.51975
▁piano	-9.51975
▁sheriff	-9.51975
▁cheap	-9.51975
▁empty	-9.51975
▁sugar	-9.51975
▁speech	-9.51976
▁jimmy	-9.51978
▁jij	-9.51979
▁distance	-9.51982
▁weather	-9.51982
▁trapped	-9.51982
▁allison	-9.51983
▁johnny	-9.5199
▁penny	-9.51992
▁freeze	-9.51997
▁claudio	-9.52004
▁famous	-9.52006
▁kate	-9.52028
▁writing	-9.5206
▁suddenly	-9.52067
▁blast	-9.52076
▁dirty	-9.52087
▁sweetie	-9.52092
▁spare	-9.52111
▁national	-9.5216
▁zero	-9.52167
▁maria	-9.52201
▁hoe	-9.52337
▁murdered	-9.52551
▁bringing	-9.52599
▁ear	-9.52902
▁apologize	-9.53164
▁disease	-9.5323
▁blowing	-9.53231
▁manager	-9.53321
▁ray	-9.53378
▁guest	-9.53398
▁action	-9.53459
▁stranger	-9.53514
▁sin	-9.5361
▁horses	-9.53761
▁cleaning	-9.53774
▁waters	-9.53862
ge	-9.53889
ah	-9.53909
▁pictures	-9.54219
▁circle	-9.54228
▁beeps	-9.54673
▁ka	-9.54709
▁shower	-9.54875
▁mile	-9.54889
▁cares	-9.55012
▁killer	-9.55039
▁loose	-9.5518
▁birds	-9.55215
just	-9.55298
▁prepare	-9.55345
▁natural	-9.55414
▁split	-9.55538
▁although	-9.55546
▁babies	-9.55546
▁horrible	-9.55546
▁mercedes	-9.55546
▁particular	-9.55546
▁precious	-9.55546
▁vittoria	-9.55546
▁signior	-9.55547
▁england	-9.55547
▁lawyer	-9.55549
▁source	-9.55549
▁spring	-9.5555
▁suicide	-9.55553
▁property	-9.55554
▁jody	-9.5556
▁market	-9.55561
▁slide	-9.55565
▁comfortable	-9.55571
▁meat	-9.55575
▁cody	-9.55577
▁belt	-9.55585
▁darkness	-9.55592
▁coughing	-9.55629
▁baron	-9.55648
▁hired	-9.55714
▁tail	-9.55716
▁reports	-9.55811
off	-9.55824
▁personally	-9.55894
▁failed	-9.55896
▁heights	-9.55977
tic	-9.56168
▁race	-9.56174
▁families	-9.56211
ca	-9.5642
▁bug	-9.56483
▁shape	-9.56502
ts	-9.56753
▁contract	-9.56797
▁note	-9.56819
▁aliens	-9.56851
▁shirt	-9.56932
▁restaurant	-9.56978
▁vehicle	-9.5701
▁monitor	-9.57032
dy	-9.57042
▁pilot	-9.5705
▁ships	-9.5705
▁quarter	-9.57089
▁view	-9.57103
▁stu	-9.57242
da	-9.57439
▁showing	-9.57675
▁masters	-9.58013
▁fail	-9.58368
▁hunt	-9.58414
▁po	-9.58592
▁deliver	-9.58669
▁states	-9.5868
▁illuminati	-9.58725
▁rush	-9.58745
▁grant	-9.58898
▁ruin	-9.58922
▁saun	-9.58975
▁sacrifice	-9.58988
▁introduce	-9.58991
▁create	-9.59072
▁cure	-9.59097
▁helen	-9.5921
▁wise	-9.59217
▁thunder	-9.59248
▁benedick	-9.5925
▁calvin	-9.5925
▁extreme	-9.5925
▁gilcrest	-9.5925
▁heeft	-9.5925
▁sophie	-9.5925
▁surveillance	-9.5925
▁oxygen	-9.59251
▁katherine	-9.59251
▁mood	-9.59251
▁whoever	-9.59252
▁nope	-9.59255
▁hydra	-9.59256
▁bourne	-9.59257
▁marshall	-9.59258
▁panic	-9.59278
▁pink	-9.59287
▁tomb	-9.59288
▁technically	-9.59295
▁labor	-9.59306
▁ruby	-9.59335
▁directly	-9.59367
▁ren	-9.5937
▁opened	-9.59389
▁prom	-9.59402
▁gives	-9.5943
▁wolf	-9.59493
▁wayne	-9.59544
▁entirely	-9.59787
▁bother	-9.59877
▁aan	-9.59926
▁goodness	-9.60051
▁si	-9.60109
▁highly	-9.60114
▁greene	-9.60186
nt	-9.60239
▁expecting	-9.60428
▁concern	-9.6049
▁covered	-9.60543
▁wheel	-9.60596
▁hardly	-9.60728
▁spell	-9.60784
he	-9.60792
▁claim	-9.60857
▁effect	-9.60928
▁project	-9.60941
▁plate	-9.60987
▁guns	-9.6108
▁keeping	-9.61295
▁lots	-9.61306
▁heads	-9.61556
▁newt	-9.61635
ize	-9.61763
▁groot	-9.61956
time	-9.61991
▁forces	-9.62017
im	-9.62191
▁respond	-9.6258
▁bless	-9.62672
me	-9.62794
▁checking	-9.62822
▁schedule	-9.62854
▁scott	-9.62942
▁exact	-9.62945
▁among	-9.63066
▁advice	-9.63096
▁celebrate	-9.63096
▁desperate	-9.63096
▁intelligence	-9.63096
▁potential	-9.63096
▁square	-9.63096
▁accord	-9.63096
▁desert	-9.63096
▁ugly	-9.63097
▁giggling	-9.63097
▁avoid	-9.63097
▁bunny	-9.63097
▁interview	-9.63097
▁opportunity	-9.63098
▁celia	-9.63098
▁jonathan	-9.63099
▁route	-9.63099
▁adler	-9.63099
▁bread	-9.631
▁dancing	-9.63117
▁mommy	-9.6312
▁bride	-9.6313
▁chili	-9.63135
▁winter	-9.63142
▁honking	-9.63148
▁yearold	-9.63153
▁non	-9.63186
▁proof	-9.63195
▁hem	-9.63225
▁yelling	-9.63325
▁phil	-9.63374
▁rent	-9.63412
ad	-9.63429
▁bent	-9.63446
▁concerned	-9.63465
▁allowed	-9.63784
▁sooner	-9.63826
▁fuck	-9.63968
▁dressed	-9.63989
▁turner	-9.64337
▁pulled	-9.64491
▁creatures	-9.64579
line	-9.64704
▁sp	-9.64774
▁pie	-9.64779
▁sunday	-9.64785
▁helped	-9.64852
▁bullet	-9.64948
▁belong	-9.64966
▁rip	-9.64986
▁nation	-9.65138
no	-9.65165
ul	-9.65198
▁sending	-9.65639
▁doctors	-9.65644
▁bert	-9.65665
▁ad	-9.65946
▁discuss	-9.66132
▁cons	-9.66151
▁cameras	-9.66472
cy	-9.66488
▁brown	-9.66549
▁parts	-9.66627
▁vote	-9.66691
▁spiders	-9.66732
▁paying	-9.66758
▁swim	-9.66786
▁assume	-9.66839
▁social	-9.66921
tion	-9.66941
▁original	-9.6698
▁walls	-9.66982
▁chill	-9.67029
▁event	-9.6706
▁akeem	-9.67096
▁alabanza	-9.67096
▁became	-9.67096
▁chirps	-9.67096
▁disaster	-9.67096
▁elliot	-9.67096
▁gabriel	-9.67096
▁kobayashi	-9.67096
▁lanning	-9.67096
▁atari	-9.67096
▁joffer	-9.67096
▁hidden	-9.67097
▁desire	-9.67097
▁policy	-9.67097
▁afford	-9.67097
▁tongue	-9.67098
▁hadnt	-9.67098
▁conference	-9.67098
▁tracy	-9.67099
▁yellow	-9.67101
▁merry	-9.67101
▁fake	-9.67101
▁vanessa	-9.67102
▁governor	-9.67104
▁michelle	-9.67104
▁miracle	-9.67104
▁surgery	-9.67104
▁cliff	-9.67105
▁wet	-9.67105
▁santa	-9.67113
▁china	-9.67113
▁energy	-9.67121
▁deaf	-9.67124
▁under	-9.67135
▁nathan	-9.67171
▁huge	-9.67188
▁involved	-9.67191
▁chewie	-9.67211
▁eric	-9.6722
▁gotham	-9.67296
ally	-9.67303
▁raised	-9.67502
▁ms	-9.67604
▁agreed	-9.6763
▁hogs	-9.67707
▁ay	-9.67709
▁data	-9.67835
▁tall	-9.67959
▁fixed	-9.68036
▁feelings	-9.6804
▁knocking	-9.68127
gen	-9.68303
▁ohh	-9.68359
▁gra	-9.68363
▁dry	-9.68393
▁ld	-9.68465
▁acting	-9.68538
▁exist	-9.68706
▁score	-9.68762
▁can	-9.68783
▁attacked	-9.68785
den	-9.68884
▁patient	-9.68955
▁jerk	-9.69048
▁bottle	-9.69061
▁waited	-9.69066
▁beast	-9.69069
▁pirate	-9.69112
ard	-9.69129
▁he	-9.69739
▁checked	-9.69906
▁mothers	-9.69946
▁orcs	-9.6998
▁ca	-9.70372
▁camp	-9.70684
▁sisters	-9.70717
▁soldiers	-9.70795
▁meaning	-9.70821
▁units	-9.71006
▁damage	-9.7101
▁curse	-9.71014
▁require	-9.71037
▁brand	-9.71046
▁bright	-9.71086
▁jealous	-9.71092
▁bath	-9.711
▁loan	-9.71169
▁threat	-9.71198
▁gentle	-9.71231
▁papers	-9.71257
▁benjamin	-9.71263
▁carlisle	-9.71263
▁jacob	-9.71263
▁lucinda	-9.71263
▁penguin	-9.71263
▁italy	-9.71263
▁insist	-9.71265
▁pepper	-9.71265
▁easier	-9.71265
▁permission	-9.71266
▁rough	-9.71266
▁equipment	-9.71266
▁harry	-9.71267
▁guldan	-9.71268
▁empire	-9.71269
▁coach	-9.71269
▁france	-9.71269
▁spread	-9.7127
▁funeral	-9.71272
▁desk	-9.71272
▁thud	-9.71272
▁milk	-9.71273
▁hawaiian	-9.71278
▁wicked	-9.71286
▁droid	-9.71292
▁witch	-9.71294
▁drill	-9.71307
▁pool	-9.71311
▁fury	-9.71314
▁written	-9.71315
▁basement	-9.71319
▁growling	-9.71331
▁weight	-9.71332
▁pm	-9.71357
▁flat	-9.71357
▁ln	-9.71389
▁shift	-9.71405
▁fourth	-9.71435
▁buzzing	-9.71485
▁main	-9.71552
▁healthy	-9.7157
▁cage	-9.71701
▁deeply	-9.71714
om	-9.71765
▁port	-9.7177
▁faster	-9.71789
▁ross	-9.71807
▁cooking	-9.7189
▁filled	-9.71907
▁armed	-9.72008
▁flowers	-9.72242
▁enter	-9.72396
▁princess	-9.72427
▁cheers	-9.72791
▁condition	-9.72899
▁scare	-9.73047
▁chair	-9.73277
▁monkey	-9.73297
▁pair	-9.73357
▁chick	-9.73359
▁symbol	-9.73409
▁satellite	-9.73441
▁walked	-9.73604
▁closes	-9.73642
ent	-9.73656
▁post	-9.73657
one	-9.74037
▁bo	-9.74417
▁letters	-9.74466
j	-9.7447
▁students	-9.74559
▁ma	-9.74596
▁ne	-9.74867
▁intend	-9.75219
▁rob	-9.75241
▁borrow	-9.75244
▁release	-9.75352
▁spoon	-9.75383
ism	-9.75429
▁refuse	-9.7548
▁played	-9.75499
▁somethin	-9.75572
▁ira	-9.75578
▁asgard	-9.7558
▁amsterdam	-9.75611
▁arizona	-9.75611
▁current	-9.75611
▁lieutenant	-9.75611
▁miranda	-9.75611
▁niece	-9.75611
▁sergeant	-9.75611
▁sobbing	-9.75611
▁teresa	-9.75611
▁erik	-9.75611
▁personnel	-9.75611
▁presence	-9.75611
▁opinion	-9.75611
▁genius	-9.75611
▁whenever	-9.75611
▁modern	-9.75612
▁recognize	-9.75617
▁internet	-9.75618
▁prevent	-9.75619
▁practical	-9.7562
▁impressive	-9.7562
▁mister	-9.75638
▁responsible	-9.75645
▁bodies	-9.75658
▁lonely	-9.75662
▁glen	-9.75667
▁dave	-9.7571
▁eh	-9.75718
▁dez	-9.75764
▁zone	-9.75797
▁crack	-9.75983
▁nee	-9.76014
▁records	-9.76024
▁noticed	-9.76029
▁powers	-9.76049
▁writer	-9.76262
▁chas	-9.76355
ier	-9.76359
▁closet	-9.76569
▁fathers	-9.76728
▁begins	-9.76847
▁disappear	-9.76909
▁heading	-9.77015
▁remembered	-9.77069
mo	-9.77263
do	-9.77312
▁kan	-9.77341
▁grade	-9.77444
ey	-9.77473
▁talkin	-9.77511
▁opening	-9.77527
▁falling	-9.77532
▁fel	-9.77536
▁wings	-9.77601
▁drugs	-9.77616
▁counting	-9.7766
▁mistakes	-9.77815
▁duck	-9.77854
▁bike	-9.77859
▁elevator	-9.77917
▁rap	-9.78012
▁ranger	-9.78051
▁artist	-9.7819
▁career	-9.78263
▁sucks	-9.78587
▁somebodys	-9.78605
dog	-9.78607
▁mar	-9.78697
id	-9.78884
io	-9.79197
▁suite	-9.79207
▁streets	-9.79275
▁snap	-9.79307
▁spots	-9.7962
▁study	-9.79789
▁and	-9.79812
▁challenge	-9.79891
▁total	-9.80034
▁comfort	-9.80131
▁courage	-9.80132
▁prefer	-9.80143
▁proper	-9.8015
▁percent	-9.8015
▁amount	-9.80156
▁berlin	-9.80156
▁camerlengo	-9.80156
▁complicated	-9.80156
▁downstairs	-9.80156
▁eventually	-9.80156
▁footsteps	-9.80156
▁maintain	-9.80156
▁ninetysix	-9.80156
▁unusual	-9.80156
▁usnavi	-9.80156
▁taylor	-9.80156
▁devil	-9.80157
▁evelyn	-9.80157
▁hermia	-9.80157
▁mostly	-9.80157
▁agency	-9.80157
▁andrew	-9.80157
▁mitchell	-9.80157
▁buried	-9.80158
▁beneath	-9.80158
▁youth	-9.80159
▁staff	-9.80159
▁assistant	-9.8016
▁basically	-9.8016
▁howard	-9.8016
▁rita	-9.80163
▁diana	-9.80165
▁fortune	-9.80165
▁understood	-9.80165
▁jenny	-9.80173
▁applause	-9.80177
▁reid	-9.80188
▁rumbling	-9.8019
▁destiny	-9.80193
▁theory	-9.80193
▁cabin	-9.80202
▁tiny	-9.80202
▁aware	-9.80203
▁betty	-9.80207
▁lena	-9.80208
▁range	-9.80223
▁joan	-9.80241
▁homework	-9.80246
▁jackson	-9.80264
▁arrived	-9.80287
▁mountains	-9.80348
▁pleased	-9.8043
▁scan	-9.80533
▁letting	-9.80548
uw	-9.80674
▁wipe	-9.80705
▁stronger	-9.80711
▁blessing	-9.80747
▁out	-9.80761
▁hatch	-9.80807
▁loss	-9.8084
▁taxi	-9.80862
▁county	-9.80905
▁riding	-9.81006
▁changes	-9.81179
▁fully	-9.81181
▁matters	-9.81268
▁clearly	-9.81359
ious	-9.81398
▁bust	-9.81655
▁harder	-9.81736
▁parking	-9.8195
ger	-9.81975
▁siren	-9.82132
▁dot	-9.82213
▁matt	-9.82326
▁sword	-9.82602
ily	-9.8263
▁babe	-9.82704
▁holiday	-9.82755
▁stayed	-9.82763
▁dragon	-9.82796
▁cos	-9.8293
way	-9.8311
red	-9.83163
co	-9.83233
▁there	-9.83434
ure	-9.83455
▁painting	-9.83568
ff	-9.83729
▁marks	-9.83807
▁goed	-9.83849
▁wing	-9.83989
▁viv	-9.84112
▁who	-9.84473
fi	-9.845
les	-9.84504
▁talent	-9.84548
ose	-9.84576
▁moet	-9.84904
▁receive	-9.84905
▁signs	-9.84911
▁archibald	-9.84918
▁arthur	-9.84918
▁dwarves	-9.84918
▁freya	-9.84918
▁marisa	-9.84918
▁mortal	-9.84918
▁necessary	-9.84918
▁responsibility	-9.84918
▁village	-9.84918
▁bandera	-9.84918
▁byebye	-9.84918
▁champagne	-9.84918
▁appointment	-9.84918
▁florida	-9.84918
▁telephone	-9.84918
▁baggins	-9.84919
▁neighborhood	-9.84919
▁pathetic	-9.84919
▁woodward	-9.8492
▁guide	-9.8492
▁washington	-9.84921
▁ridley	-9.84925
▁benefit	-9.84929
▁barrio	-9.8493
▁plain	-9.84934
▁maze	-9.84935
▁electric	-9.84936
▁nasty	-9.84942
▁gentleman	-9.84945
▁ocean	-9.84946
▁highway	-9.84957
▁colt	-9.84961
▁began	-9.8498
▁print	-9.85026
▁host	-9.85032
▁nest	-9.85042
▁doen	-9.85053
▁page	-9.85085
▁discovered	-9.85113
▁powerless	-9.85124
▁coast	-9.85135
▁joy	-9.85329
▁prepared	-9.85333
▁stairs	-9.85394
▁joint	-9.85462
▁cia	-9.85485
▁rat	-9.85492
▁ate	-9.8569
▁perfectly	-9.85868
▁bat	-9.85934
▁fellas	-9.85956
▁likely	-9.86108
▁messed	-9.86126
▁lines	-9.86222
▁tip	-9.86284
▁signed	-9.86609
▁loves	-9.86611
▁nobodys	-9.86662
com	-9.86684
onto	-9.86782
▁repair	-9.87238
▁ted	-9.87373
▁slap	-9.87385
▁spit	-9.87441
▁belongs	-9.87513
▁fe	-9.8754
▁tiger	-9.87605
ated	-9.87606
▁blade	-9.87606
▁fellow	-9.87631
zal	-9.87633
▁toilet	-9.87677
▁clue	-9.87721
▁knight	-9.87756
▁cave	-9.8777
▁issue	-9.87792
▁lesson	-9.87941
▁ab	-9.88315
▁humans	-9.884
▁tickets	-9.88608
nova	-9.8864
▁defend	-9.88996
▁suffer	-9.8904
▁waves	-9.89152
der	-9.89172
ball	-9.89551
▁crush	-9.89556
▁direct	-9.89681
▁knowing	-9.89788
▁swan	-9.89809
down	-9.89823
▁strip	-9.89837
▁wiggin	-9.89895
▁usual	-9.89907
▁affair	-9.89918
▁arrival	-9.89918
▁attorney	-9.89918
▁beatrice	-9.89918
▁complex	-9.89918
▁firm	-9.89918
▁gorgeous	-9.89918
▁gwen	-9.89918
▁jerome	-9.89918
▁julia	-9.89918
▁mandarin	-9.89918
▁medivh	-9.89918
▁negative	-9.89918
▁nemerov	-9.89918
▁silence	-9.89918
▁smoking	-9.89918
▁species	-9.89918
▁becoming	-9.89918
▁british	-9.89919
▁ellis	-9.89919
▁downtown	-9.89919
▁nowhere	-9.89919
▁prime	-9.89921
▁curious	-9.89921
▁stink	-9.89921
▁pearl	-9.89922
▁society	-9.89923
▁league	-9.89928
▁revenge	-9.89928
▁hillard	-9.8993
▁cake	-9.89936
▁grandma	-9.89937
▁duty	-9.89939
▁batman	-9.89942
▁meal	-9.89944
▁toss	-9.89953
▁dawn	-9.89956
▁guilty	-9.89958
▁sarah	-9.8996
▁loving	-9.89966
▁apple	-9.89971
▁murmuring	-9.89983
▁beth	-9.89983
▁nog	-9.89984
▁eve	-9.89998
▁chain	-9.90006
▁stark	-9.90013
▁fifty	-9.90034
▁glasses	-9.90094
▁tank	-9.90106
▁navy	-9.90107
▁eden	-9.90112
▁spoken	-9.90114
▁highest	-9.90135
▁scotty	-9.90148
▁net	-9.90177
▁banging	-9.90243
▁designed	-9.90245
▁lower	-9.90331
▁wheeler	-9.90359
▁sean	-9.90476
▁wel	-9.90481
▁sequence	-9.90508
ak	-9.90513
▁arrested	-9.90543
▁bail	-9.90631
▁mae	-9.90736
▁degrees	-9.90752
▁kicked	-9.90961
▁forced	-9.91005
▁sc	-9.91247
▁pr	-9.91351
▁burning	-9.91361
▁vampires	-9.91424
▁secrets	-9.91475
▁cr	-9.91556
▁rogers	-9.91761
▁alle	-9.91864
▁bags	-9.91917
istic	-9.91999
▁naar	-9.92302
een	-9.92343
ible	-9.92346
ther	-9.92377
▁request	-9.92537
▁para	-9.92545
▁leads	-9.92756
▁bull	-9.92787
▁tone	-9.92862
▁increase	-9.92865
▁rocket	-9.92908
▁device	-9.92979
▁toward	-9.93025
▁inter	-9.93028
▁finger	-9.93065
▁hates	-9.93079
▁que	-9.93185
bo	-9.93329
▁here	-9.93379
mi	-9.93392
land	-9.93627
▁points	-9.94203
▁falls	-9.94231
▁dies	-9.94267
di	-9.94275
▁photograph	-9.94347
▁thoughts	-9.94534
▁text	-9.94761
▁cu	-9.94779
▁awake	-9.94814
▁confirm	-9.94823
▁image	-9.94898
▁provide	-9.94928
▁rod	-9.9493
▁dirt	-9.95009
ir	-9.95018
▁spin	-9.95051
▁sharp	-9.95082
▁hm	-9.95103
▁federal	-9.95105
▁confess	-9.95145
▁zac	-9.95172
▁attend	-9.95173
▁broadcast	-9.95181
▁charlotte	-9.95181
▁chemical	-9.95181
▁gardner	-9.95181
▁grateful	-9.95181
▁harvard	-9.95181
▁including	-9.95181
▁someday	-9.95181
▁texas	-9.95181
▁toulouse	-9.95181
▁unbelievable	-9.95181
▁worship	-9.95181
▁caroline	-9.95181
▁illegal	-9.95181
▁laura	-9.95181
▁penkovsky	-9.95182
▁scoffs	-9.95182
▁nicole	-9.95182
▁fireworks	-9.95182
▁whirring	-9.95182
▁honour	-9.95182
▁stewart	-9.95182
▁kimble	-9.95183
▁bravo	-9.95183
▁catholic	-9.95184
▁midnight	-9.95184
▁closing	-9.95184
▁supper	-9.95185
▁choking	-9.95185
▁existence	-9.95186
▁pride	-9.95187
▁foul	-9.9519
▁houten	-9.9519
▁behavior	-9.95191
▁oclock	-9.95191
▁pledge	-9.95191
▁role	-9.95192
▁unique	-9.95193
▁benny	-9.95194
▁surface	-9.95196
▁saint	-9.95197
▁task	-9.95199
▁media	-9.952
▁liar	-9.95205
▁forest	-9.95205
▁richter	-9.95208
▁oil	-9.9521
▁dozen	-9.95211
▁louisa	-9.95231
▁zori	-9.95232
▁jedi	-9.95246
▁rusty	-9.95255
▁mis	-9.95292
▁cole	-9.953
▁badge	-9.95301
▁rope	-9.95314
▁castle	-9.95319
▁stopping	-9.95322
▁self	-9.95322
▁royal	-9.95331
▁deck	-9.95339
▁skull	-9.95371
▁classic	-9.95375
▁squealing	-9.95385
▁gray	-9.95411
▁off	-9.95415
▁thatd	-9.95471
ot	-9.95508
▁barn	-9.95533
▁mu	-9.95576
ol	-9.9559
▁lungs	-9.95592
▁sighing	-9.9561
▁jean	-9.95619
▁billy	-9.95631
▁depends	-9.95666
▁butter	-9.95672
▁coughs	-9.95712
▁pissed	-9.95784
▁hills	-9.96041
▁crossed	-9.96153
▁wie	-9.96212
▁burned	-9.96291
▁stealing	-9.96306
▁expected	-9.96421
▁sh	-9.96513
▁pushed	-9.96661
king	-9.96664
▁boo	-9.96813
▁ending	-9.97399
▁beating	-9.97484
▁sides	-9.9762
als	-9.97751
over	-9.97884
▁hook	-9.97921
▁patients	-9.97967
▁it	-9.98236
ee	-9.98476
▁moe	-9.98478
▁season	-9.98495
▁client	-9.98557
▁link	-9.98579
▁creature	-9.98616
▁shoe	-9.98645
▁yard	-9.98722
doth	-9.98787
▁prisoner	-9.98793
▁vi	-9.99009
hi	-9.99066
▁missiles	-9.99167
▁transport	-9.99436
▁turns	-9.99489
▁wit	-9.9963
▁va	-9.99648
▁all	-10.0003
▁lake	-10.0006
▁design	-10.0021
lin	-10.0033
▁pee	-10.0033
▁attempt	-10.0035
▁jam	-10.0036
▁dump	-10.0037
▁stress	-10.0038
ag	-10.0039
▁moul	-10.0047
▁random	-10.0055
▁obvious	-10.0058
▁success	-10.0068
▁europe	-10.007
▁witness	-10.007
▁anniversary	-10.0074
▁bofur	-10.0074
▁carnaval	-10.0074
▁ceremony	-10.0074
▁chicago	-10.0074
▁clever	-10.0074
▁disgusting	-10.0074
▁elrond	-10.0074
▁false	-10.0074
▁isaac	-10.0074
▁leigh	-10.0074
▁megget	-10.0074
▁nonsense	-10.0074
▁rouge	-10.0074
▁several	-10.0074
▁temperature	-10.0074
▁therefore	-10.0074
▁unknown	-10.0074
▁vault	-10.0074
▁journey	-10.0074
▁butch	-10.0074
▁physical	-10.0074
▁material	-10.0074
▁claire	-10.0074
▁biosyn	-10.0074
▁pump	-10.0074
▁trunk	-10.0074
▁example	-10.0074
▁cream	-10.0074
▁sista	-10.0074
▁memories	-10.0074
▁value	-10.0074
▁application	-10.0074
▁theme	-10.0074
▁kitty	-10.0074
▁failure	-10.0075
▁emotional	-10.0075
▁shadow	-10.0075
▁joking	-10.0075
▁bedroom	-10.0075
▁owner	-10.0075
▁cmon	-10.0075
▁status	-10.0075
▁purse	-10.0075
▁aim	-10.0076
▁massive	-10.0076
▁wallet	-10.0077
▁dom	-10.0077
▁community	-10.0077
▁math	-10.0077
▁jones	-10.0077
▁unfortunately	-10.0078
▁penis	-10.0078
▁forgotten	-10.0079
▁trial	-10.0081
▁sacred	-10.0081
▁scary	-10.0082
▁portal	-10.0082
▁legend	-10.0087
▁thus	-10.0087
▁trace	-10.0087
▁engaged	-10.0087
▁protection	-10.0093
▁bleeding	-10.0095
▁pity	-10.0096
▁betrayed	-10.0098
▁sitar	-10.0099
▁statement	-10.01
▁developed	-10.0101
▁engines	-10.0102
▁impressed	-10.0107
▁hebt	-10.0111
▁iyou	-10.0114
▁gay	-10.0115
▁gloves	-10.0117
▁served	-10.0129
pa	-10.0141
▁onz	-10.0142
▁nights	-10.0151
▁bob	-10.0158
▁younger	-10.0178
▁fairy	-10.0178
▁sec	-10.018
▁her	-10.018
▁reached	-10.0184
▁trap	-10.0193
▁metal	-10.0198
▁fishing	-10.0204
▁backup	-10.0205
▁mid	-10.0221
art	-10.024
▁li	-10.0241
lden	-10.0254
▁legal	-10.0255
oo	-10.0262
▁settle	-10.0274
▁helping	-10.0294
▁par	-10.0326
▁fifth	-10.033
▁primar	-10.0352
▁cheer	-10.0399
▁bugs	-10.0409
▁greek	-10.043
▁vision	-10.0443
▁cloud	-10.0447
▁roger	-10.0449
▁bean	-10.045
▁tells	-10.0485
▁tear	-10.0486
▁shots	-10.0487
▁gl	-10.0499
▁files	-10.0499
▁wee	-10.0499
▁tale	-10.0508
▁assholes	-10.0509
let	-10.0525
▁beats	-10.0532
▁seal	-10.061
▁sink	-10.0616
▁corn	-10.0626
spite	-10.0627
▁guarantee	-10.0635
▁ignore	-10.0637
▁invite	-10.0637
▁sudden	-10.0646
bacc	-10.0646
▁kom	-10.0655
▁counsel	-10.0658
▁specific	-10.0661
▁central	-10.0662
▁chekov	-10.0662
▁durotan	-10.0662
▁empress	-10.0662
▁exegol	-10.0662
▁explosive	-10.0662
▁figaro	-10.0662
▁megasaki	-10.0662
▁mexico	-10.0662
▁rebecca	-10.0662
▁salmon	-10.0662
▁senior	-10.0662
▁snails	-10.0662
▁spectacular	-10.0662
▁anytime	-10.0662
▁loki	-10.0662
▁shore	-10.0662
▁stood	-10.0662
▁boldwood	-10.0662
▁committed	-10.0662
▁justice	-10.0662
▁everdene	-10.0662
▁divine	-10.0662
▁cowboy	-10.0662
▁museum	-10.0662
▁milt	-10.0662
▁throne	-10.0662
▁punch	-10.0663
▁competition	-10.0663
▁wiggle	-10.0663
▁survival	-10.0663
▁century	-10.0663
▁custody	-10.0663
▁proceed	-10.0663
▁fancy	-10.0663
▁begun	-10.0663
▁mental	-10.0664
▁handsome	-10.0664
▁dropping	-10.0665
▁pleasant	-10.0665
▁march	-10.0666
▁screen	-10.0667
▁captured	-10.0667
▁mobile	-10.0669
▁bury	-10.0669
▁chosen	-10.067
▁apply	-10.0675
ep	-10.0675
▁ended	-10.0678
▁advanced	-10.0679
▁abandoned	-10.0685
▁sealed	-10.0701
▁crushed	-10.0705
▁jackie	-10.0713
em	-10.0716
▁ruined	-10.0721
▁of	-10.0739
▁americans	-10.0756
▁dinosaurs	-10.0761
▁freaking	-10.077
▁pe	-10.0779
▁gifted	-10.0804
ken	-10.0824
▁ra	-10.0833
▁options	-10.0841
ties	-10.0845
▁jacks	-10.0847
▁scientists	-10.0854
▁sla	-10.0865
▁ook	-10.0867
▁testing	-10.0874
ill	-10.088
▁touched	-10.0888
▁stops	-10.0901
▁lately	-10.0907
▁chip	-10.0907
▁hurts	-10.0921
▁sweep	-10.0938
▁followed	-10.0958
▁di	-10.0967
▁min	-10.0968
▁ordered	-10.0974
▁sigh	-10.099
▁led	-10.0996
▁lion	-10.1
▁experiment	-10.1012
▁bid	-10.1013
▁officers	-10.1015
▁bi	-10.102
ish	-10.103
ted	-10.105
▁channel	-10.1055
▁equal	-10.1055
▁giant	-10.1056
▁buckingham	-10.106
ha	-10.1069
▁sport	-10.1072
▁no	-10.1073
▁beside	-10.1077
▁cardinals	-10.1098
▁add	-10.1102
▁appears	-10.1124
▁millions	-10.1144
ping	-10.1151
▁af	-10.1151
▁tracks	-10.1157
▁fighter	-10.1177
▁flow	-10.1184
▁cheat	-10.1205
▁ir	-10.1208
per	-10.1219
tu	-10.123
▁blink	-10.1232
▁gather	-10.1233
▁twist	-10.1233
▁process	-10.1233
▁trigger	-10.1248
ea	-10.1252
ster	-10.1252
▁retire	-10.1259
▁separate	-10.126
▁balance	-10.1261
▁remove	-10.1261
▁divorce	-10.1262
▁bills	-10.1264
▁rescue	-10.1266
▁ease	-10.1268
▁mass	-10.1277
▁custom	-10.1284
▁cancan	-10.1287
▁centuries	-10.1287
▁coincidence	-10.1287
▁cypher	-10.1287
▁deputy	-10.1287
▁dwalin	-10.1287
▁eminence	-10.1287
▁flesh	-10.1287
▁lavelle	-10.1287
▁lysander	-10.1287
▁magazine	-10.1287
▁maisie	-10.1287
▁malekith	-10.1287
▁margaret	-10.1287
▁mmmhmm	-10.1287
▁mystery	-10.1287
▁period	-10.1287
▁pyramus	-10.1287
▁rabbit	-10.1287
▁scientific	-10.1287
▁sheila	-10.1287
▁smooth	-10.1287
▁subtitles	-10.1287
▁supply	-10.1287
▁terug	-10.1287
▁traitor	-10.1287
▁vessel	-10.1287
▁virus	-10.1287
▁collins	-10.1287
▁ursa	-10.1287
▁kili	-10.1287
▁jasper	-10.1287
▁verris	-10.1287
▁bachelorette	-10.1287
▁drove	-10.1287
▁terrific	-10.1287
▁evacuation	-10.1287
▁fruit	-10.1287
▁digging	-10.1287
▁grandmother	-10.1287
▁authorities	-10.1287
▁division	-10.1287
▁pillow	-10.1287
▁university	-10.1287
▁dentist	-10.1287
▁diner	-10.1287
▁solution	-10.1287
▁dewey	-10.1287
▁superstar	-10.1287
▁planning	-10.1287
▁gunshot	-10.1287
▁quarterback	-10.1288
▁embassy	-10.1288
▁section	-10.1288
▁winning	-10.1288
▁thirty	-10.1288
▁garbage	-10.1288
▁daily	-10.1288
▁exam	-10.1288
▁aboard	-10.1288
▁steady	-10.1289
▁exercise	-10.1289
▁genetic	-10.1289
▁gim	-10.1289
▁annie	-10.1289
▁swell	-10.129
▁affection	-10.129
▁patriot	-10.1291
▁incident	-10.1291
▁campus	-10.1291
led	-10.1292
▁tour	-10.1292
▁hank	-10.1292
▁recently	-10.1293
▁confused	-10.1293
▁auto	-10.1293
▁sally	-10.1294
▁breed	-10.1296
▁setting	-10.1297
▁fry	-10.1297
▁unto	-10.1298
▁wailing	-10.1299
▁smith	-10.1299
▁forty	-10.1301
▁bay	-10.1302
▁ability	-10.1302
▁leaves	-10.1303
▁thousands	-10.1305
aged	-10.1306
▁pitch	-10.1314
je	-10.1315
▁laid	-10.1319
▁charges	-10.132
▁chanting	-10.1321
▁drinks	-10.1323
▁sadly	-10.134
▁beard	-10.135
▁musketeers	-10.1364
▁screwed	-10.1372
▁ev	-10.1374
▁clicks	-10.1379
▁turning	-10.1382
▁knees	-10.1393
▁lamb	-10.1396
▁enjoyed	-10.1402
▁bass	-10.1406
▁shouts	-10.1422
▁crossing	-10.1446
▁tag	-10.1491
▁habit	-10.1503
▁wrap	-10.151
▁anti	-10.1518
▁clouds	-10.1521
▁tears	-10.1523
▁doll	-10.1532
▁transfer	-10.1542
ight	-10.1555
▁fools	-10.1562
▁badly	-10.1593
ja	-10.1595
ify	-10.16
▁pieces	-10.1601
▁pulling	-10.1609
▁conditions	-10.1609
pped	-10.1635
op	-10.1648
▁tor	-10.1648
▁answering	-10.168
▁limit	-10.1685
▁drag	-10.1689
▁models	-10.1694
her	-10.1698
▁rocks	-10.1703
▁official	-10.1713
▁sail	-10.1728
▁touchdown	-10.1729
▁dork	-10.1729
▁photo	-10.173
▁drivers	-10.1733
▁nightmare	-10.1733
▁generation	-10.1733
▁result	-10.1735
▁direction	-10.1736
▁heel	-10.1738
▁scientist	-10.1739
▁gear	-10.1747
ver	-10.1752
▁murderer	-10.1765
▁ton	-10.1781
▁remains	-10.1784
ities	-10.1788
▁loser	-10.1803
kin	-10.1814
row	-10.1828
▁gee	-10.1837
▁ac	-10.1861
▁z	-10.187
▁kyl	-10.1888
▁jet	-10.1895
▁bump	-10.1895
▁approach	-10.1896
▁crawl	-10.1903
▁bowl	-10.1905
▁interrupt	-10.1915
like	-10.192
the	-10.192
▁rep	-10.1921
▁alli	-10.1923
▁torture	-10.1926
bell	-10.193
we	-10.1933
▁regular	-10.1935
▁corps	-10.1935
▁glob	-10.1936
▁actual	-10.1939
▁object	-10.194
▁flash	-10.1945
▁on	-10.1945
▁hahaha	-10.1949
▁express	-10.195
▁bow	-10.1951
▁surge	-10.1952
▁expert	-10.1953
▁loop	-10.1953
▁bargain	-10.1954
▁california	-10.1954
▁cavendish	-10.1954
▁falcon	-10.1954
▁flew	-10.1954
▁invasion	-10.1954
▁jersey	-10.1954
▁jessica	-10.1954
▁krall	-10.1954
▁prick	-10.1954
▁rufus	-10.1954
▁silent	-10.1954
▁splash	-10.1954
▁surrender	-10.1954
▁terribly	-10.1954
▁traynor	-10.1954
▁uncomfortable	-10.1954
▁xandar	-10.1954
▁aether	-10.1954
▁kathy	-10.1954
▁kurt	-10.1954
▁physics	-10.1954
▁robbed	-10.1954
▁struggle	-10.1954
▁visual	-10.1954
▁squeez	-10.1954
▁benedict	-10.1954
▁kemosabe	-10.1954
▁harold	-10.1954
▁rhoda	-10.1954
▁treadstone	-10.1954
▁demetrius	-10.1954
▁positive	-10.1954
▁shelter	-10.1954
▁golf	-10.1954
▁fache	-10.1954
▁invisible	-10.1954
▁constantine	-10.1954
▁fuel	-10.1954
▁yorktown	-10.1954
▁temple	-10.1954
▁radar	-10.1954
▁review	-10.1955
▁twelve	-10.1955
▁sexual	-10.1955
▁happiness	-10.1955
berg	-10.1955
▁groom	-10.1955
▁contest	-10.1955
▁motion	-10.1955
▁aidan	-10.1956
▁lamia	-10.1956
▁lothar	-10.1957
▁weakness	-10.1957
▁comin	-10.1958
▁reaction	-10.1958
▁cabot	-10.1958
▁stealth	-10.1958
▁whyd	-10.1958
▁exchange	-10.1958
▁to	-10.1959
▁lap	-10.1959
▁lucy	-10.196
▁dull	-10.196
▁della	-10.1961
▁hail	-10.1961
▁capable	-10.1962
▁wacht	-10.1966
▁warden	-10.1966
▁cellar	-10.1966
▁lean	-10.1967
▁embarrassing	-10.1969
▁shave	-10.197
▁bumpy	-10.1971
▁recall	-10.1973
▁q	-10.1975
▁cargo	-10.1979
▁lane	-10.198
▁kane	-10.1983
ern	-10.1985
▁meer	-10.1986
▁limited	-10.1997
▁surely	-10.1999
ax	-10.2
wa	-10.2001
▁requested	-10.2001
▁nicky	-10.2014
▁union	-10.2021
▁lily	-10.2021
▁hostages	-10.2022
▁survived	-10.2024
▁coordinates	-10.2026
▁hearts	-10.2034
▁mutants	-10.2037
▁su	-10.2038
ized	-10.2041
▁counter	-10.2042
▁smaller	-10.2044
▁worthy	-10.2045
▁slowly	-10.2047
▁sentence	-10.205
▁med	-10.2078
▁alan	-10.208
▁carrying	-10.2081
▁boom	-10.2082
▁frankly	-10.2096
ied	-10.2097
▁teaching	-10.2106
▁site	-10.2114
▁yells	-10.2129
▁grad	-10.2129
ina	-10.2144
▁cha	-10.2148
▁sm	-10.2149
▁jokes	-10.2168
▁mc	-10.2182
side	-10.2192
▁or	-10.2201
ative	-10.2201
▁places	-10.2213
▁pok	-10.2218
▁passing	-10.222
▁yards	-10.222
ap	-10.2224
test	-10.2244
▁odd	-10.225
▁issues	-10.225
▁sch	-10.226
▁dragons	-10.2266
▁pirates	-10.2314
▁russians	-10.2323
▁wast	-10.2335
▁cow	-10.2342
▁throwing	-10.2344
▁ju	-10.236
▁events	-10.2363
pin	-10.2366
▁the	-10.2398
▁bon	-10.2402
ence	-10.2431
▁bone	-10.2434
▁pig	-10.2442
▁tunnel	-10.2444
▁connection	-10.2444
▁rumor	-10.2446
▁civilian	-10.2448
ley	-10.245
▁member	-10.2452
▁vampire	-10.2455
▁billion	-10.2455
▁option	-10.2457
▁sometime	-10.2459
▁stones	-10.2468
tched	-10.2476
▁manner	-10.2477
▁rate	-10.2487
▁predict	-10.2536
▁tryin	-10.2556
▁deserves	-10.2613
▁rooms	-10.2613
▁stock	-10.2615
back	-10.2621
▁spa	-10.2633
▁usr	-10.2637
ium	-10.2646
▁pale	-10.2649
▁incredibl	-10.2651
▁coward	-10.2651
▁german	-10.2652
▁load	-10.2653
▁assure	-10.2654
▁olive	-10.2654
▁gain	-10.2658
▁gi	-10.2659
▁progress	-10.2666
▁rude	-10.2667
▁dispatch	-10.2668
▁widow	-10.2668
▁ambulance	-10.2668
▁burglar	-10.2668
▁chechnya	-10.2668
▁clattering	-10.2668
▁compliment	-10.2668
▁conclave	-10.2668
▁davis	-10.2668
▁december	-10.2668
▁delicious	-10.2668
▁easily	-10.2668
▁expensive	-10.2668
▁extend	-10.2668
▁grenade	-10.2668
▁hebben	-10.2668
▁helmet	-10.2668
▁ipkiss	-10.2668
▁jarvis	-10.2668
▁kgb	-10.2668
▁koninklijk	-10.2668
▁lemarc	-10.2668
▁manhattan	-10.2668
▁maximum	-10.2668
▁mississippi	-10.2668
▁muffled	-10.2668
▁rehearsal	-10.2668
▁sciama	-10.2668
▁sparrow	-10.2668
▁thieves	-10.2668
▁velkan	-10.2668
▁whoaohoh	-10.2668
▁concert	-10.2668
▁courtesan	-10.2668
▁kijk	-10.2668
▁privacy	-10.2668
▁pursue	-10.2668
▁wynne	-10.2668
▁incoming	-10.2668
▁satisfied	-10.2668
▁wellesley	-10.2668
▁crisis	-10.2668
▁bishop	-10.2668
▁dolittle	-10.2668
▁inspiration	-10.2668
▁mankind	-10.2668
▁circus	-10.2668
▁pizza	-10.2668
▁yahoo	-10.2668
▁intense	-10.2668
▁firing	-10.2668
▁francisco	-10.2668
▁phase	-10.2668
▁television	-10.2668
▁argue	-10.2668
▁valley	-10.2668
▁zeggen	-10.2668
▁destruction	-10.2668
▁inspector	-10.2668
▁selfish	-10.2668
▁stuart	-10.2669
▁rapid	-10.2669
▁authority	-10.2669
▁shaking	-10.2669
▁federation	-10.2669
▁grandpa	-10.267
▁witter	-10.267
▁mercy	-10.267
▁forth	-10.2671
▁edge	-10.2671
▁tuck	-10.2671
▁series	-10.2671
▁laser	-10.2672
▁claus	-10.2672
▁airport	-10.2672
▁anger	-10.2672
▁formation	-10.2673
▁scraping	-10.2674
▁moeder	-10.2675
▁ballet	-10.2676
▁formic	-10.2676
▁hack	-10.2676
▁style	-10.2677
▁gene	-10.2677
▁shrieks	-10.2677
▁frightened	-10.2677
▁trees	-10.268
▁ofthe	-10.268
▁hitting	-10.268
▁haha	-10.268
▁metro	-10.268
▁poem	-10.2682
▁daylight	-10.2683
▁owned	-10.2684
▁dia	-10.2684
▁chart	-10.2686
▁outer	-10.269
▁earned	-10.2692
▁cast	-10.2696
▁core	-10.2696
▁comment	-10.2697
▁divorced	-10.2698
▁halt	-10.27
▁spooner	-10.2706
▁warn	-10.2708
▁changing	-10.2709
▁cheated	-10.271
▁civil	-10.2719
▁lai	-10.2724
work	-10.2727
▁disappeared	-10.2728
▁edie	-10.273
▁janet	-10.2735
▁gal	-10.2736
▁bitches	-10.274
ps	-10.2755
▁brains	-10.2756
▁realized	-10.2757
▁treated	-10.2757
▁indistinctly	-10.2769
▁madam	-10.2775
▁magnet	-10.2778
▁nss	-10.2785
▁tend	-10.2797
▁tracking	-10.2808
▁lee	-10.2809
▁traveling	-10.2873
▁lovers	-10.2875
▁ere	-10.2909
oid	-10.2925
▁sale	-10.2937
▁app	-10.2937
▁protected	-10.294
▁pushing	-10.2951
ti	-10.296
▁ti	-10.2963
▁ward	-10.2964
house	-10.297
▁vo	-10.297
▁towards	-10.2971
▁dig	-10.2974
▁learning	-10.2974
lar	-10.2976
▁lookin	-10.2979
ko	-10.2982
ella	-10.3002
ach	-10.3009
▁hung	-10.301
ice	-10.3025
ors	-10.3025
ito	-10.3027
▁answers	-10.3069
▁bullets	-10.3071
▁fift	-10.3072
▁dedicate	-10.3092
va	-10.3108
▁retrieve	-10.3114
low	-10.3118
▁guests	-10.3122
▁trans	-10.3124
▁gr	-10.3129
lijk	-10.3137
▁ahh	-10.3139
▁creak	-10.3158
▁cats	-10.3166
▁bang	-10.3167
▁whisper	-10.3176
ble	-10.3184
▁kings	-10.3188
▁represent	-10.3205
▁toys	-10.3206
▁tradition	-10.3206
▁hop	-10.3208
▁cuba	-10.3209
▁effort	-10.321
▁criminal	-10.3217
▁border	-10.3217
▁luke	-10.322
▁victim	-10.3221
▁goat	-10.3222
▁leaders	-10.3222
▁demon	-10.3223
▁diamond	-10.3227
▁toe	-10.323
len	-10.3236
itd	-10.3243
▁farmer	-10.325
▁jew	-10.3252
▁idiots	-10.3258
▁eggs	-10.3265
port	-10.3272
▁ski	-10.3296
▁wash	-10.3347
ide	-10.3352
▁hits	-10.3361
▁sweat	-10.3367
▁comp	-10.3373
▁trail	-10.3374
▁protest	-10.3379
▁sneak	-10.3383
▁invest	-10.3386
▁penni	-10.3392
▁bl	-10.3394
▁connect	-10.3396
▁succeed	-10.3397
▁develop	-10.3397
▁reward	-10.3398
▁por	-10.34
ige	-10.34
▁term	-10.3404
▁dial	-10.341
▁victor	-10.3418
▁toast	-10.3421
▁chose	-10.3428
▁sandwich	-10.3429
▁possess	-10.343
▁flag	-10.3434
▁viki	-10.3436
▁pimp	-10.3436
▁revolution	-10.3436
▁gettin	-10.3436
▁punk	-10.3437
▁fashion	-10.3437
▁atlant	-10.3437
▁absurd	-10.3437
▁chadwick	-10.3437
▁chenkov	-10.3437
▁distress	-10.3437
▁dormov	-10.3437
▁emmett	-10.3437
▁emperor	-10.3437
▁encounter	-10.3437
▁generaal	-10.3437
▁gracias	-10.3437
▁guitar	-10.3437
▁hobbit	-10.3437
▁identify	-10.3437
▁independent	-10.3437
▁leather	-10.3437
▁library	-10.3437
▁natasha	-10.3437
▁nebula	-10.3437
▁pamela	-10.3437
▁patience	-10.3437
▁radagast	-10.3437
▁renesmee	-10.3437
▁scroll	-10.3437
▁sebastian	-10.3437
▁sensitive	-10.3437
▁specimen	-10.3437
▁stanley	-10.3437
▁swore	-10.3437
▁technology	-10.3437
▁thanos	-10.3437
▁ventura	-10.3437
▁vodka	-10.3437
▁wizard	-10.3437
▁wolves	-10.3437
▁crystal	-10.3437
▁uniform	-10.3437
▁maharajah	-10.3437
▁bonzo	-10.3437
▁outlaw	-10.3437
▁sensors	-10.3437
▁latin	-10.3437
▁polite	-10.3437
▁foster	-10.3437
▁legacy	-10.3437
▁drank	-10.3438
▁pulse	-10.3438
▁grid	-10.3438
▁fox	-10.3438
▁lenny	-10.3438
▁chapel	-10.3438
▁lightning	-10.3438
▁display	-10.3438
▁garage	-10.3438
▁online	-10.3438
▁spill	-10.3438
▁steel	-10.3438
▁kirk	-10.3438
▁whatre	-10.3438
▁mitch	-10.3439
▁inhales	-10.3439
▁knife	-10.3439
▁facing	-10.3439
▁pause	-10.3439
▁marta	-10.3439
▁ripped	-10.3439
▁spray	-10.3439
▁atmosphere	-10.3439
▁mail	-10.3439
▁aside	-10.344
▁bowman	-10.344
▁vincent	-10.344
▁collection	-10.344
▁quest	-10.344
▁management	-10.344
▁raji	-10.3441
▁communication	-10.3441
▁precisely	-10.3442
▁regard	-10.3442
▁laughter	-10.3442
▁hopefully	-10.3442
▁cries	-10.3442
▁cities	-10.3442
▁bedtime	-10.3444
▁discussion	-10.3444
▁scale	-10.3445
▁sock	-10.3445
▁log	-10.3446
▁elves	-10.3446
▁title	-10.3446
▁levels	-10.3447
▁successful	-10.3447
▁debt	-10.3447
▁critical	-10.3448
▁sailor	-10.3449
▁hood	-10.3452
▁officially	-10.3456
▁background	-10.3457
▁leven	-10.3458
▁dragged	-10.3459
▁bernard	-10.3461
▁giggles	-10.3464
▁sobs	-10.3464
▁whimpers	-10.3464
▁passion	-10.3465
▁boring	-10.3467
▁pat	-10.3469
▁sith	-10.3473
▁hug	-10.3474
▁provided	-10.3475
▁ruth	-10.3477
ned	-10.3477
▁fallen	-10.3481
▁goodnight	-10.3481
▁instructions	-10.3481
▁growls	-10.3481
▁honks	-10.3482
▁treaty	-10.3483
▁jan	-10.3484
▁fort	-10.3486
▁loaded	-10.3486
light	-10.3489
▁hooked	-10.349
▁actor	-10.3493
▁suffered	-10.3495
▁refused	-10.3496
▁reacher	-10.3496
▁archives	-10.3499
▁boot	-10.3502
▁rub	-10.3508
▁mall	-10.3515
ments	-10.3535
lor	-10.3535
▁lack	-10.3543
▁hunting	-10.3545
▁makeup	-10.3563
▁pot	-10.3569
▁yea	-10.3584
▁skills	-10.3587
▁rot	-10.3587
ph	-10.362
head	-10.3634
▁enjoying	-10.3636
nah	-10.3642
▁selling	-10.3656
cular	-10.3657
▁victims	-10.3658
▁maya	-10.3661
▁lin	-10.3674
▁members	-10.3678
▁pan	-10.3691
▁cab	-10.3698
▁ba	-10.3701
▁smells	-10.371
os	-10.3783
ise	-10.3799
▁holidays	-10.3802
▁clan	-10.3804
▁kissing	-10.3812
you	-10.3819
▁dreaming	-10.3823
▁finding	-10.3824
▁tests	-10.3829
▁princes	-10.3831
▁tri	-10.3835
▁protecting	-10.3842
▁husbands	-10.3856
▁plates	-10.3898
▁odds	-10.3922
▁cleared	-10.3922
▁tra	-10.3924
▁ears	-10.393
ij	-10.3935
night	-10.3943
ler	-10.3954
▁stare	-10.3958
▁tricks	-10.3967
▁yell	-10.3977
▁reminds	-10.3988
▁inc	-10.3995
▁bra	-10.3998
▁occasion	-10.4
▁cells	-10.4017
▁we	-10.4021
▁ye	-10.4028
▁sa	-10.4042
▁picking	-10.4045
▁terrorist	-10.4046
▁brake	-10.405
▁phones	-10.4051
▁warrior	-10.4051
▁pound	-10.4052
▁standard	-10.4053
▁neighbor	-10.4053
▁walter	-10.4054
▁sample	-10.4054
▁shoulder	-10.406
▁cancel	-10.4064
▁asset	-10.4067
▁mol	-10.4078
▁dealing	-10.4089
ada	-10.4128
▁greater	-10.4129
▁wo	-10.4135
ring	-10.4137
▁hou	-10.4156
▁flip	-10.416
how	-10.4166
▁betray	-10.4169
▁climb	-10.4173
▁signals	-10.4175
▁bastards	-10.4189
end	-10.4195
▁mor	-10.4197
▁lu	-10.4204
▁complain	-10.4217
q	-10.4225
▁recommend	-10.4226
▁insult	-10.4228
▁wreck	-10.4231
▁slaughter	-10.4231
▁deny	-10.4232
▁ideas	-10.4237
box	-10.4239
▁lame	-10.424
▁gar	-10.4242
▁replace	-10.4243
▁convince	-10.4245
▁louis	-10.4247
▁solve	-10.4249
▁sauce	-10.425
▁fetch	-10.4261
▁rare	-10.4261
five	-10.4261
▁environment	-10.4263
▁amerika	-10.4266
▁dust	-10.4268
▁favour	-10.427
▁popular	-10.427
▁pussy	-10.427
▁assignment	-10.427
▁awkward	-10.427
▁beacon	-10.427
▁belief	-10.427
▁brucie	-10.427
▁caesar	-10.427
▁companion	-10.427
▁conclusion	-10.427
▁disciples	-10.427
▁entrance	-10.427
▁extraordinary	-10.427
▁fantasies	-10.427
▁galadriel	-10.427
▁gamora	-10.427
▁glorious	-10.427
▁grief	-10.427
▁judgment	-10.427
▁kennedy	-10.427
▁leefolt	-10.427
▁leonato	-10.427
▁luggage	-10.427
▁mexican	-10.427
▁monsieur	-10.427
▁palpatine	-10.427
▁plastic	-10.427
▁profion	-10.427
▁proposal	-10.427
▁rattling	-10.427
▁republic	-10.427
▁sanctuary	-10.427
▁shreck	-10.427
▁someplace	-10.427
▁swallow	-10.427
▁terrified	-10.427
▁wednesday	-10.427
▁whistling	-10.427
▁worries	-10.427
▁yondu	-10.427
▁chieftain	-10.427
▁blew	-10.427
▁palmer	-10.427
▁swimming	-10.427
▁elite	-10.427
▁kidnapping	-10.427
▁explosion	-10.4271
▁rail	-10.4271
▁banana	-10.4271
▁kidnapped	-10.4271
▁mobley	-10.4271
▁generous	-10.4271
▁dori	-10.4271
▁override	-10.4271
▁purple	-10.4271
▁kendra	-10.4271
▁apology	-10.4271
▁stein	-10.4271
▁fluid	-10.4271
▁orange	-10.4271
▁drew	-10.4271
▁goddess	-10.4271
▁iets	-10.4271
▁medicine	-10.4271
▁underground	-10.4271
▁brief	-10.4271
▁urgent	-10.4271
▁noble	-10.4271
▁violent	-10.4271
▁begging	-10.4271
▁serum	-10.4271
▁mouse	-10.4271
▁tool	-10.4271
▁facility	-10.4271
▁ordinary	-10.4271
▁calor	-10.4271
▁assistance	-10.4271
▁faint	-10.4271
▁poetry	-10.4271
▁medication	-10.4271
▁pogue	-10.4272
▁commitment	-10.4272
▁myth	-10.4272
▁shopping	-10.4272
▁leak	-10.4272
▁connie	-10.4272
▁yup	-10.4272
▁estate	-10.4272
▁escort	-10.4272
▁possibility	-10.4272
▁powder	-10.4272
▁candy	-10.4272
▁creative	-10.4272
▁gross	-10.4272
▁basic	-10.4272
▁chocolate	-10.4273
▁retirement	-10.4273
▁bij	-10.4273
▁engagement	-10.4273
▁wore	-10.4273
▁creation	-10.4273
ile	-10.4273
▁winner	-10.4274
▁liddy	-10.4274
▁wander	-10.4274
▁effective	-10.4274
▁internal	-10.4274
▁electricity	-10.4275
▁bible	-10.4275
▁stamper	-10.4275
▁stake	-10.4275
▁tonto	-10.4275
▁memorial	-10.4275
▁lecture	-10.4275
▁gang	-10.4276
▁inches	-10.4276
▁solid	-10.4277
▁uhuh	-10.4277
▁temporary	-10.4278
▁noon	-10.4278
▁scotch	-10.4278
▁carried	-10.4279
▁lester	-10.4279
▁treatment	-10.4279
▁thisby	-10.4281
▁cutting	-10.4282
▁steps	-10.4283
▁tech	-10.4284
▁ciao	-10.4285
▁triple	-10.4286
▁queenie	-10.4286
▁waitress	-10.4287
▁discovery	-10.4287
▁logical	-10.4287
▁authorized	-10.429
▁fee	-10.4293
▁prize	-10.4293
▁angela	-10.4294
▁kit	-10.4295
▁convinced	-10.4296
▁johnson	-10.4297
▁tooth	-10.4298
▁skid	-10.4298
▁resources	-10.43
▁businessman	-10.43
▁sewer	-10.4301
▁policeman	-10.4301
▁stable	-10.4303
▁adopted	-10.4304
▁toes	-10.4306
▁sayin	-10.4307
▁former	-10.4308
▁naturally	-10.4309
▁stud	-10.4312
▁await	-10.4312
▁parties	-10.4313
▁useless	-10.4315
ste	-10.4321
▁pole	-10.4323
▁required	-10.4324
if	-10.4326
▁down	-10.4328
bar	-10.4331
▁ken	-10.4337
▁payment	-10.4341
▁borrowed	-10.4343
▁jd	-10.4345
▁beta	-10.4355
▁cock	-10.4359
▁escaped	-10.4362
▁engineer	-10.4369
win	-10.4372
▁proved	-10.4376
▁sta	-10.4385
▁plants	-10.4386
▁holes	-10.4387
▁fianc	-10.4392
▁considered	-10.4392
▁lips	-10.4398
▁pit	-10.44
bb	-10.44
▁kin	-10.4402
▁crashed	-10.4408
▁bigg	-10.441
▁bikers	-10.4417
▁mikey	-10.442
▁prayers	-10.4422
▁average	-10.443
ture	-10.443
cha	-10.4433
▁knocked	-10.4435
▁minu	-10.4436
ab	-10.4447
▁crashing	-10.446
▁boats	-10.4463
▁details	-10.4473
▁reporter	-10.4477
▁jumping	-10.4478
▁rear	-10.4482
▁neighbors	-10.4492
▁samples	-10.4492
▁walters	-10.4492
▁hundreds	-10.4493
oon	-10.4496
▁pigs	-10.4532
▁lit	-10.4537
▁papa	-10.4554
▁ons	-10.456
ms	-10.4565
▁movies	-10.4591
▁gifts	-10.4595
▁staring	-10.4601
▁cleaned	-10.4606
▁ap	-10.4609
▁wh	-10.4616
▁est	-10.4621
▁sounded	-10.4642
ions	-10.465
ient	-10.4664
▁mit	-10.4665
▁wha	-10.4681
▁shooter	-10.4688
▁satellites	-10.4709
owns	-10.4713
▁behave	-10.4724
▁touching	-10.4726
▁hated	-10.4732
▁shooting	-10.4749
▁dim	-10.4755
▁drug	-10.4756
▁effects	-10.4769
▁goal	-10.478
tie	-10.478
aar	-10.4817
▁am	-10.4817
▁val	-10.4867
▁manage	-10.4871
▁scream	-10.4882
▁souls	-10.4886
ect	-10.4902
▁email	-10.4907
rd	-10.4909
▁decisions	-10.491
▁thor	-10.493
▁costs	-10.4931
hot	-10.4935
▁candidate	-10.4941
▁root	-10.4948
▁accounts	-10.495
▁string	-10.4952
▁helicopter	-10.4952
▁wound	-10.4953
while	-10.4954
▁employee	-10.4957
▁protocol	-10.4958
▁colleague	-10.4958
▁cullen	-10.4963
dig	-10.4964
▁detail	-10.4967
▁folk	-10.4969
▁dollar	-10.4972
▁chuckle	-10.4972
▁observe	-10.4976
ud	-10.4976
ating	-10.4978
▁com	-10.4987
ont	-10.5
▁dock	-10.5016
▁patrol	-10.5017
▁cur	-10.5026
▁bio	-10.5027
▁flower	-10.5035
▁sha	-10.5037
▁grows	-10.5037
▁songs	-10.5075
tro	-10.5076
even	-10.508
▁todays	-10.5081
ock	-10.5083
▁damned	-10.5084
▁perform	-10.5085
▁tis	-10.5101
▁fights	-10.5123
▁discover	-10.5127
▁buzz	-10.513
▁charm	-10.5131
well	-10.5132
▁chant	-10.5133
maker	-10.5135
▁impress	-10.5138
▁adopt	-10.5138
board	-10.5138
▁deploy	-10.5141
▁summon	-10.5142
▁reveal	-10.5143
▁abandon	-10.5143
skull	-10.5146
play	-10.5148
▁delight	-10.515
▁dads	-10.5153
▁collapse	-10.5154
▁violate	-10.5154
▁evacuate	-10.5155
▁agents	-10.5155
▁advance	-10.5159
▁tram	-10.516
▁constant	-10.5162
▁creep	-10.5162
loo	-10.5163
▁severe	-10.5163
▁couch	-10.5165
▁dive	-10.5169
boy	-10.5171
▁claudi	-10.5172
▁cruise	-10.5172
▁zie	-10.5173
▁nothin	-10.5176
▁collect	-10.5176
▁defense	-10.5177
▁terror	-10.5177
▁combat	-10.5177
ville	-10.5177
▁resist	-10.5178
▁horizon	-10.5179
▁routine	-10.518
▁alpha	-10.518
▁applauding	-10.518
▁athos	-10.518
▁attitude	-10.518
▁azeroth	-10.518
▁beowulf	-10.518
▁bohemian	-10.518
▁buddies	-10.518
▁budget	-10.518
▁celebration	-10.518
▁cheque	-10.518
▁comanche	-10.518
▁dessert	-10.518
▁eagle	-10.518
▁enterprise	-10.518
▁envelope	-10.518
▁explanation	-10.518
▁invalid	-10.518
▁jullie	-10.518
▁lewis	-10.518
▁maddox	-10.518
▁pacific	-10.518
▁rochefort	-10.518
▁saruman	-10.518
▁selina	-10.518
▁slept	-10.518
▁sobiech	-10.518
▁spencer	-10.518
▁switzerland	-10.518
▁tequila	-10.518
▁terrence	-10.518
▁vagina	-10.518
▁vietnam	-10.518
▁wisdom	-10.518
▁anchor	-10.518
▁ashes	-10.518
▁dutch	-10.518
▁horde	-10.518
▁junk	-10.518
▁survey	-10.518
▁tomato	-10.518
▁wayfinder	-10.518
▁gloin	-10.518
▁harris	-10.518
▁pagan	-10.518
▁plaza	-10.518
▁alai	-10.518
▁gringo	-10.518
▁nerve	-10.518
▁magnificent	-10.518
▁assuming	-10.518
▁breeze	-10.518
▁garona	-10.518
▁unconscious	-10.518
▁battery	-10.518
▁sniper	-10.518
▁squawking	-10.518
▁aloha	-10.518
▁babu	-10.518
▁vortex	-10.518
▁langley	-10.518
▁collar	-10.518
▁thick	-10.518
▁priest	-10.518
▁rodney	-10.518
▁violence	-10.518
▁chapter	-10.518
▁psychic	-10.518
▁accurate	-10.518
▁lawrence	-10.518
▁sulu	-10.518
▁network	-10.518
sigu	-10.518
▁clapping	-10.518
▁grey	-10.518
▁honeymoon	-10.518
▁wrist	-10.5181
▁tribe	-10.5181
▁fbi	-10.5181
▁thumb	-10.5181
▁gently	-10.5181
▁blah	-10.5181
▁crackling	-10.5181
▁superior	-10.5181
▁fence	-10.5181
▁production	-10.5182
▁crab	-10.5182
▁halley	-10.5182
▁objective	-10.5182
▁identity	-10.5182
▁toll	-10.5182
▁foolish	-10.5182
▁leia	-10.5183
▁potatoes	-10.5183
terior	-10.5184
▁elder	-10.5184
▁tide	-10.5184
▁financial	-10.5184
▁billings	-10.5184
▁intention	-10.5184
▁minor	-10.5184
▁weaver	-10.5184
▁valuable	-10.5184
▁fortunately	-10.5185
▁franklin	-10.5185
▁frequency	-10.5186
▁peaceful	-10.5186
▁friendship	-10.5186
▁spice	-10.5186
▁oleg	-10.5187
▁whimpering	-10.5187
▁stray	-10.5187
▁craft	-10.5188
▁laat	-10.5188
▁agreement	-10.5188
▁ladder	-10.5188
▁hammer	-10.5189
▁web	-10.519
▁dinky	-10.5191
▁vast	-10.5191
▁annoying	-10.5192
▁clucking	-10.5192
▁thirsty	-10.5192
▁heal	-10.5192
▁outsiders	-10.5193
ren	-10.5195
▁infected	-10.5195
▁sack	-10.5195
▁fist	-10.5195
▁embarrassed	-10.5196
▁bout	-10.5196
▁creepy	-10.5197
▁mild	-10.5198
▁grass	-10.5199
▁haar	-10.52
▁blackout	-10.52
▁victory	-10.5201
▁gaan	-10.5201
▁strongest	-10.5204
▁thr	-10.5205
▁lad	-10.5208
▁pure	-10.5208
▁iim	-10.5208
▁gem	-10.521
▁magical	-10.5211
▁contained	-10.5211
▁circumstances	-10.5212
▁politics	-10.5212
▁troops	-10.5212
▁assured	-10.5215
▁active	-10.5216
▁africa	-10.5217
▁revealed	-10.5217
▁connected	-10.5226
▁mud	-10.5226
▁nor	-10.5228
▁heroes	-10.523
▁oops	-10.5232
▁survivors	-10.5233
▁sol	-10.5233
▁damaged	-10.5237
▁moons	-10.5242
▁willy	-10.5247
▁belly	-10.5247
▁blocks	-10.5248
▁teams	-10.5252
▁closest	-10.5252
▁whistles	-10.5254
▁normally	-10.526
▁dew	-10.5272
▁granted	-10.5273
▁twins	-10.5274
▁resumes	-10.5275
▁safer	-10.5276
▁studying	-10.5284
▁affect	-10.5284
▁deserved	-10.5285
▁finest	-10.529
▁journals	-10.5296
▁tied	-10.5299
▁mentioned	-10.5309
▁crate	-10.5311
▁tracker	-10.5313
pt	-10.5319
▁lend	-10.532
▁chances	-10.5328
▁chop	-10.5328
▁pete	-10.5344
▁mages	-10.5357
▁nails	-10.5361
pen	-10.5363
▁searching	-10.5363
▁bearing	-10.5364
▁higher	-10.5374
▁ori	-10.5379
▁visitors	-10.5383
▁safely	-10.5386
▁pur	-10.5394
▁cullens	-10.5402
▁formal	-10.5404
▁wars	-10.5411
▁psycho	-10.5412
ack	-10.5421
▁trains	-10.5424
▁shoulders	-10.5426
▁tot	-10.5432
ner	-10.5442
vo	-10.5445
▁lukes	-10.5445
▁kills	-10.545
eld	-10.5474
▁landed	-10.549
bi	-10.5535
▁walker	-10.5536
▁leading	-10.554
▁clients	-10.5553
▁au	-10.5559
▁hip	-10.5562
▁winds	-10.5568
▁bulls	-10.5576
▁reed	-10.5578
▁dates	-10.558
▁jobs	-10.5581
▁knights	-10.5597
▁lessons	-10.5597
▁faces	-10.5598
▁friendly	-10.5633
▁indicate	-10.5636
▁diet	-10.5642
▁buying	-10.5648
jo	-10.5656
▁planes	-10.5676
▁tele	-10.5691
▁windows	-10.5707
▁catching	-10.571
▁reasons	-10.5714
▁sets	-10.572
▁notes	-10.5757
▁fare	-10.5758
▁mighty	-10.5759
▁cal	-10.5762
▁circles	-10.5767
▁bud	-10.5778
▁inform	-10.578
uc	-10.5781
ress	-10.5794
too	-10.5796
▁dating	-10.58
▁will	-10.5817
▁swi	-10.5821
ese	-10.5843
▁shock	-10.5847
ins	-10.5856
▁aro	-10.5863
▁suburb	-10.588
▁sniff	-10.5889
▁minds	-10.5902
▁players	-10.5916
▁shout	-10.5917
▁usi	-10.592
▁understanding	-10.5938
▁roommate	-10.5941
▁operat	-10.5942
hole	-10.5942
▁homes	-10.5944
▁outfit	-10.5948
▁becomes	-10.5949
▁candle	-10.5952
▁zombie	-10.5952
▁cigarette	-10.5953
▁document	-10.5954
▁tornado	-10.5958
▁jewel	-10.596
▁beam	-10.5965
▁visitor	-10.5979
▁lifetime	-10.6003
▁fella	-10.602
▁moves	-10.6033
▁cards	-10.6043
▁stat	-10.6049
▁initial	-10.6059
▁jou	-10.6067
▁hol	-10.6068
uff	-10.6069
igor	-10.6079
▁poison	-10.6085
▁paci	-10.611
▁ascend	-10.6122
▁recover	-10.6123
fa	-10.613
▁defeat	-10.614
▁delay	-10.6141
▁register	-10.6141
▁brings	-10.6151
▁wire	-10.6151
▁sports	-10.6152
▁engage	-10.6154
encia	-10.6157
▁my	-10.616
▁gravit	-10.6162
eyed	-10.6162
▁roy	-10.6163
▁absolute	-10.6164
▁thrill	-10.6165
▁hawaii	-10.6176
▁rug	-10.6177
▁sleeve	-10.6177
▁viol	-10.6177
▁logic	-10.6178
▁speaker	-10.6178
▁snack	-10.6179
▁album	-10.618
▁apologies	-10.618
▁aurelia	-10.618
▁aurelio	-10.618
▁bastaard	-10.618
▁bedankt	-10.618
▁campaign	-10.618
▁canaima	-10.618
▁character	-10.618
▁cheek	-10.618
▁damodar	-10.618
▁district	-10.618
▁explode	-10.618
▁extension	-10.618
▁fabulous	-10.618
▁forbid	-10.618
▁frankenstein	-10.618
▁frodo	-10.618
▁hazard	-10.618
▁hurricane	-10.618
▁intelligent	-10.618
▁investigator	-10.618
▁kennelly	-10.618
▁kovaks	-10.618
▁lancaster	-10.618
▁lobby	-10.618
▁mademoiselle	-10.618
▁matveyev	-10.618
▁newspaper	-10.618
▁oswald	-10.618
▁phelan	-10.618
▁phenomenon	-10.618
▁praise	-10.618
▁promotion	-10.618
▁raphael	-10.618
▁reputation	-10.618
▁residence	-10.618
▁roxanne	-10.618
▁storage	-10.618
▁therapy	-10.618
▁transmission	-10.618
▁tuscany	-10.618
▁unexpected	-10.618
▁unleash	-10.618
▁venice	-10.618
▁volturi	-10.618
▁yorgi	-10.618
▁alexander	-10.618
▁bleep	-10.618
▁distant	-10.618
▁dochter	-10.618
▁misunderstand	-10.618
▁plot	-10.618
▁smiling	-10.618
▁windigo	-10.618
▁canyon	-10.618
▁caretaker	-10.618
▁typical	-10.618
▁strauss	-10.618
▁appeal	-10.618
▁dorm	-10.618
▁lassie	-10.618
▁essay	-10.618
▁profit	-10.618
▁ritual	-10.618
▁steep	-10.618
▁moaning	-10.618
▁uhura	-10.618
▁insight	-10.618
▁jeez	-10.618
▁turkey	-10.618
▁meteor	-10.618
▁starfleet	-10.618
▁echt	-10.618
▁underneath	-10.618
▁huntsman	-10.618
▁fraud	-10.618
▁slim	-10.618
▁combination	-10.618
▁myrna	-10.618
▁flava	-10.618
▁winston	-10.618
▁farewell	-10.618
▁valentine	-10.618
▁eternal	-10.618
▁ferry	-10.618
▁feast	-10.618
▁basketball	-10.618
▁utter	-10.618
▁flank	-10.618
▁burden	-10.618
▁paddling	-10.618
▁chorus	-10.618
▁tennis	-10.618
▁izmer	-10.618
▁brush	-10.618
▁pony	-10.618
▁loyalty	-10.618
▁karen	-10.618
▁veel	-10.618
▁radiation	-10.618
▁palace	-10.618
▁eternity	-10.6181
▁appropriate	-10.6181
▁miserable	-10.6181
▁investigation	-10.6181
▁brax	-10.6181
▁blank	-10.6181
▁containment	-10.6181
▁performance	-10.6181
▁spear	-10.6181
▁ribbon	-10.6181
▁significant	-10.6181
▁entry	-10.6181
▁subway	-10.6181
▁disappointment	-10.6181
▁argument	-10.6182
▁committee	-10.6182
▁pipeline	-10.6182
▁construction	-10.6182
▁soda	-10.6182
▁marina	-10.6182
▁filthy	-10.6182
▁struck	-10.6182
▁juice	-10.6183
▁announcement	-10.6183
▁infection	-10.6183
▁impression	-10.6183
▁remarkable	-10.6184
▁alza	-10.6184
▁corporation	-10.6184
▁customers	-10.6184
▁petra	-10.6185
▁religion	-10.6185
▁latte	-10.6185
▁ox	-10.6185
▁gig	-10.6185
▁humble	-10.6185
▁development	-10.6186
▁vow	-10.6186
▁political	-10.6188
▁uhoh	-10.6188
▁snarling	-10.6188
▁coverage	-10.6188
▁halfway	-10.6188
▁squeak	-10.6188
▁stroke	-10.6189
▁qualified	-10.6189
▁bald	-10.6189
▁humor	-10.619
▁robertson	-10.6191
▁bloodline	-10.6191
▁realms	-10.6192
▁digit	-10.6192
▁zeg	-10.6193
▁skip	-10.6193
▁exhausted	-10.6193
▁mmmm	-10.6194
▁spain	-10.6194
▁sickness	-10.6195
▁nap	-10.6196
▁secretary	-10.6196
▁fed	-10.6197
▁surrounded	-10.6197
▁echoing	-10.6198
▁hawking	-10.6199
▁kent	-10.62
▁delete	-10.6201
▁clearance	-10.6201
▁targets	-10.6203
▁miller	-10.6203
▁disco	-10.6206
▁angeles	-10.6206
▁globe	-10.6207
▁deadline	-10.6207
▁identified	-10.6209
▁crypt	-10.621
act	-10.6214
▁clicking	-10.6215
▁pills	-10.6216
▁gally	-10.6218
▁mustnt	-10.6218
▁removed	-10.6221
▁jealousy	-10.6224
▁cycle	-10.6224
bur	-10.6224
▁converting	-10.6225
▁canceled	-10.6225
▁zei	-10.6227
mar	-10.6229
▁kay	-10.6235
▁breasts	-10.6238
▁meantime	-10.624
▁liver	-10.6242
▁cursed	-10.6244
▁harp	-10.6246
▁settled	-10.6247
tti	-10.6252
▁hast	-10.6254
▁frickin	-10.6258
▁crawling	-10.6258
▁cable	-10.6261
▁fuegos	-10.6262
▁guts	-10.6262
▁experienced	-10.6274
ung	-10.6276
▁suffering	-10.6285
▁moron	-10.6288
▁cooked	-10.6296
▁ag	-10.6313
▁rushing	-10.6323
▁rd	-10.6331
▁methods	-10.6332
au	-10.6337
tle	-10.6339
▁drawing	-10.634
face	-10.6359
▁vice	-10.6362
▁len	-10.6367
▁endure	-10.6376
▁citizens	-10.638
ath	-10.6385
four	-10.6387
▁laten	-10.6396
▁beams	-10.6403
ay	-10.6435
▁define	-10.6435
▁seats	-10.6441
▁speakers	-10.6447
nie	-10.6451
▁pounds	-10.6451
▁warriors	-10.6451
▁assets	-10.6451
▁tested	-10.6454
▁fl	-10.6456
blo	-10.647
▁jews	-10.6475
ical	-10.648
▁sales	-10.6481
hand	-10.6483
ship	-10.6499
▁rolling	-10.6516
▁tim	-10.6521
▁heels	-10.6523
▁results	-10.6523
▁mei	-10.6525
▁communicate	-10.6529
ade	-10.6535
▁pod	-10.6541
▁kissed	-10.6542
▁ri	-10.6548
zi	-10.6553
▁dove	-10.6561
▁fo	-10.6564
tri	-10.6581
▁dei	-10.6601
ana	-10.6603
nder	-10.6624
az	-10.6643
▁bats	-10.6656
▁lar	-10.6658
▁bars	-10.6658
ery	-10.6666
hh	-10.669
▁tre	-10.6706
▁translate	-10.6732
▁dec	-10.674
▁exists	-10.6745
val	-10.6788
▁wheels	-10.6793
▁leo	-10.6802
▁favors	-10.6805
▁mop	-10.6807
▁quarters	-10.6817
▁planets	-10.6822
who	-10.6823
cra	-10.6847
▁mer	-10.6853
bl	-10.6857
gh	-10.6858
▁daddys	-10.6869
tor	-10.6872
▁els	-10.6889
▁monsters	-10.6891
▁tro	-10.6894
mp	-10.6904
evin	-10.6981
▁needle	-10.6983
▁bridges	-10.6991
▁cary	-10.7
zz	-10.7009
ka	-10.7016
▁freaks	-10.7026
▁groan	-10.7033
▁rev	-10.7035
▁mag	-10.7039
▁clip	-10.7044
▁qu	-10.705
▁volunteer	-10.7053
▁pyramid	-10.7053
▁garden	-10.7054
▁distraction	-10.7054
▁scanner	-10.7061
▁dungeon	-10.7064
▁snake	-10.7064
▁statue	-10.7064
▁bells	-10.7069
▁whip	-10.7072
▁citizen	-10.7072
▁skill	-10.7078
▁familie	-10.7079
▁bound	-10.7085
▁parent	-10.7093
▁virtu	-10.71
▁loses	-10.7101
▁organ	-10.7103
▁ol	-10.7104
▁that	-10.7104
▁maniac	-10.711
rand	-10.7113
▁heavens	-10.7117
▁sole	-10.712
▁shi	-10.7122
▁lands	-10.7126
ified	-10.713
▁nut	-10.713
▁movement	-10.7138
tender	-10.7141
▁india	-10.7142
▁offend	-10.7182
▁chang	-10.7183
▁chil	-10.7194
▁drown	-10.72
▁calib	-10.7211
▁placed	-10.7215
zen	-10.7223
▁swarm	-10.7233
rr	-10.7233
self	-10.7233
▁ci	-10.7235
▁coma	-10.7235
▁convert	-10.724
▁buttons	-10.7245
▁nic	-10.725
▁bu	-10.725
▁breach	-10.7252
eful	-10.7253
uit	-10.7254
▁alter	-10.7256
room	-10.7257
▁ps	-10.7259
level	-10.726
stick	-10.726
aging	-10.7261
day	-10.7261
▁bake	-10.7261
▁privilege	-10.7264
▁woo	-10.7269
▁instant	-10.7273
▁involve	-10.7273
▁slave	-10.7273
▁june	-10.7273
▁realise	-10.7275
▁vince	-10.7279
▁slice	-10.7279
▁hustle	-10.7281
▁painful	-10.7283
▁unlike	-10.7283
▁education	-10.7284
ounce	-10.7289
▁vital	-10.7289
▁defect	-10.7289
▁roman	-10.7289
▁napalm	-10.7291
▁reclaim	-10.7291
▁stubborn	-10.7291
▁afflict	-10.7291
▁aibee	-10.7291
▁algorithm	-10.7291
▁allergic	-10.7291
▁altijd	-10.7291
▁antimatter	-10.7291
▁artifact	-10.7291
▁barbara	-10.7291
▁cadillac	-10.7291
▁capitol	-10.7291
▁capsule	-10.7291
▁cheeseburger	-10.7291
▁clutch	-10.7291
▁cobblepot	-10.7291
▁column	-10.7291
▁commercial	-10.7291
▁crucial	-10.7291
▁dammit	-10.7291
▁dartagnan	-10.7291
▁dorothy	-10.7291
▁election	-10.7291
▁elegant	-10.7291
▁equation	-10.7291
▁erebor	-10.7291
▁favourite	-10.7291
▁ganush	-10.7291
▁gianni	-10.7291
▁giselle	-10.7291
▁graduation	-10.7291
▁gunfire	-10.7291
▁impulse	-10.7291
▁individual	-10.7291
▁injuries	-10.7291
▁inmate	-10.7291
▁investigate	-10.7291
▁jennifer	-10.7291
▁krelborn	-10.7291
▁liefde	-10.7291
▁lloyd	-10.7291
▁malcolm	-10.7291
▁natalie	-10.7291
▁orlov	-10.7291
▁paprika	-10.7291
▁pentagon	-10.7291
▁permanent	-10.7291
▁picnic	-10.7291
▁proportion	-10.7291
▁ramsay	-10.7291
▁richelieu	-10.7291
▁rosalie	-10.7291
▁sattler	-10.7291
▁scenario	-10.7291
▁silvano	-10.7291
▁stereo	-10.7291
▁strict	-10.7291
▁tuesday	-10.7291
▁jennings	-10.7291
▁pursuit	-10.7291
▁reckon	-10.7291
▁revving	-10.7291
▁senshi	-10.7291
▁terminal	-10.7291
▁volume	-10.7291
▁xander	-10.7291
▁cadet	-10.7291
▁salad	-10.7291
▁fourteen	-10.7291
▁madrid	-10.7291
▁region	-10.7291
▁gym	-10.7291
▁leroy	-10.7291
▁dominican	-10.7291
▁carpet	-10.7291
▁joseph	-10.7291
▁fridge	-10.7291
▁ntl	-10.7291
▁asap	-10.7291
▁lazy	-10.7291
▁whoohoo	-10.7291
▁spank	-10.7291
▁turtle	-10.7291
▁scholarship	-10.7291
▁wagon	-10.7291
▁blunt	-10.7291
▁arriving	-10.7291
▁miami	-10.7291
▁autograph	-10.7291
▁international	-10.7291
▁connors	-10.7291
▁nattie	-10.7291
▁addition	-10.7291
▁freezing	-10.7291
▁lindsey	-10.7291
▁sunset	-10.7291
▁upgrade	-10.7291
▁stomach	-10.7291
▁imagination	-10.7291
▁tragic	-10.7291
▁choir	-10.7291
▁felix	-10.7291
▁amanda	-10.7291
▁wives	-10.7291
▁toxic	-10.7291
▁milady	-10.7291
▁influence	-10.7291
▁glory	-10.7291
▁moans	-10.7291
▁whens	-10.7291
▁moira	-10.7291
▁chamber	-10.7291
▁fortress	-10.7291
▁robbie	-10.7291
▁accent	-10.7291
▁morrow	-10.7291
▁devr	-10.7291
▁doughnut	-10.7291
▁expertise	-10.7291
▁burger	-10.7291
▁riot	-10.7291
▁edition	-10.7291
▁southwest	-10.7291
▁bucket	-10.7291
▁pierce	-10.7291
▁nooo	-10.7292
▁festival	-10.7292
▁motor	-10.7292
▁yield	-10.7292
▁salute	-10.7292
▁altar	-10.7292
▁nickname	-10.7292
▁jonas	-10.7292
▁oath	-10.7292
▁mew	-10.7292
▁han	-10.7292
▁heir	-10.7292
▁administration	-10.7292
▁jewelry	-10.7292
▁debbie	-10.7292
▁airplane	-10.7293
▁phrase	-10.7293
▁relief	-10.7293
▁sloane	-10.7293
▁elected	-10.7293
▁klaa	-10.7293
▁simulation	-10.7293
▁southern	-10.7293
▁hula	-10.7293
▁studies	-10.7293
▁canister	-10.7294
▁irv	-10.7294
▁attractive	-10.7294
▁version	-10.7294
▁mum	-10.7294
▁deacon	-10.7294
▁mensen	-10.7294
▁pension	-10.7294
▁whooping	-10.7294
▁polish	-10.7294
▁grabb	-10.7295
▁welch	-10.7295
▁award	-10.7295
▁include	-10.7295
▁worldwide	-10.7295
▁invention	-10.7295
▁transportation	-10.7295
▁scent	-10.7296
▁rotten	-10.7296
▁leslie	-10.7297
▁modest	-10.7298
▁reference	-10.7298
▁prostitute	-10.7299
▁odin	-10.73
▁surprises	-10.73
▁snoring	-10.73
▁woodman	-10.73
▁runner	-10.73
▁fili	-10.73
▁mayday	-10.7301
▁stomp	-10.7302
▁undo	-10.7303
▁bold	-10.7303
▁signore	-10.7303
▁earn	-10.7303
▁tina	-10.7304
▁emotions	-10.7305
▁backward	-10.7307
▁unlikely	-10.7307
▁eig	-10.7308
▁chat	-10.7309
▁cutter	-10.7309
▁dug	-10.731
▁assist	-10.7311
▁inject	-10.7313
▁komt	-10.7313
▁advised	-10.7313
▁multiple	-10.7313
▁troubles	-10.7315
▁determined	-10.7315
▁mode	-10.7317
andere	-10.7318
▁simon	-10.7319
▁germany	-10.7319
▁tune	-10.7324
▁nail	-10.7324
▁threatened	-10.7324
▁disturbed	-10.7324
▁killian	-10.7326
▁aid	-10.7326
▁bitten	-10.7327
▁bully	-10.7331
▁rhodes	-10.7331
▁jeb	-10.7331
▁fore	-10.7333
▁offense	-10.7333
▁summoned	-10.7337
ue	-10.7338
▁pile	-10.7339
▁temper	-10.734
▁yelled	-10.7343
▁deano	-10.7343
▁coin	-10.7345
▁deze	-10.7346
▁washed	-10.7346
▁timing	-10.7346
yl	-10.7347
▁delivery	-10.7347
▁fa	-10.7348
▁koningin	-10.7348
▁shitty	-10.7349
▁gained	-10.735
▁woke	-10.7352
▁dame	-10.7353
▁charming	-10.7354
▁useful	-10.7355
▁chimes	-10.7357
▁consequences	-10.7357
▁vegas	-10.7357
▁tender	-10.7357
▁passes	-10.7357
▁shaki	-10.736
▁classes	-10.7361
▁assumed	-10.7365
▁locker	-10.7366
▁helpful	-10.7367
▁stressed	-10.7368
▁creaking	-10.7368
▁thin	-10.7368
▁obey	-10.7373
▁gotcha	-10.7383
▁forks	-10.7383
▁santi	-10.7384
▁if	-10.7384
▁busted	-10.7387
▁vin	-10.7387
cer	-10.7391
heid	-10.7396
▁discussed	-10.74
▁quietly	-10.7401
▁iii	-10.7406
▁locusts	-10.7409
▁perk	-10.741
▁dreamt	-10.7417
▁apes	-10.7427
▁hunter	-10.7427
▁entering	-10.7431
▁wishes	-10.7431
▁spark	-10.7433
▁coaster	-10.7433
▁imp	-10.7437
▁cre	-10.7438
▁thrown	-10.7441
▁areas	-10.7453
▁cents	-10.7463
ably	-10.7463
gs	-10.7463
▁mont	-10.7464
▁colored	-10.7466
▁boil	-10.747
▁hon	-10.7475
▁landy	-10.7476
▁opu	-10.748
▁armor	-10.7481
▁virtual	-10.7485
▁stepp	-10.7489
stop	-10.7497
▁jumped	-10.7499
▁screwing	-10.7502
▁remaining	-10.7506
unnen	-10.7511
lan	-10.7512
▁ally	-10.7529
▁with	-10.754
▁plat	-10.754
▁owes	-10.7551
for	-10.7551
▁summers	-10.7565
▁docks	-10.7568
▁y	-10.7572
▁hu	-10.7572
▁reverse	-10.7575
▁pi	-10.7579
▁mage	-10.7593
▁wondered	-10.7594
▁nato	-10.7595
ac	-10.7598
▁ke	-10.7598
stone	-10.7598
bound	-10.7604
▁recording	-10.7608
▁dote	-10.7615
▁boots	-10.7616
▁terms	-10.7617
▁frigg	-10.7621
oom	-10.7621
▁supposedly	-10.7623
▁criminals	-10.7624
▁borders	-10.7624
▁civilians	-10.7651
yo	-10.7664
▁ru	-10.7672
▁nightmares	-10.7678
ette	-10.768
▁negotiate	-10.77
▁destroyer	-10.7729
mber	-10.774
▁shin	-10.7777
▁admire	-10.7785
▁devices	-10.7787
▁caf	-10.7802
▁lil	-10.7807
▁col	-10.7813
▁tips	-10.7822
▁weekends	-10.7827
▁landing	-10.7828
▁answered	-10.7831
▁mmmmm	-10.7834
▁mole	-10.7842
▁snaps	-10.7861
▁trie	-10.7862
▁moms	-10.7864
▁bend	-10.7864
berry	-10.7867
▁finishing	-10.7869
base	-10.7878
▁services	-10.7881
▁symbols	-10.7898
ology	-10.7898
▁codes	-10.7915
▁bottles	-10.7925
▁bas	-10.7927
▁wakes	-10.793
▁explains	-10.7945
▁drops	-10.7946
ator	-10.7957
▁sting	-10.796
▁caused	-10.796
▁blows	-10.7975
▁lover	-10.7992
▁pilots	-10.8009
▁views	-10.8009
▁fla	-10.8016
ang	-10.8023
▁trusted	-10.8045
anda	-10.807
name	-10.8078
▁cart	-10.8079
▁suspects	-10.8094
▁kim	-10.811
▁operations	-10.8123
▁rust	-10.8124
▁tube	-10.8126
ny	-10.8138
▁jaw	-10.8143
▁talks	-10.8144
▁unh	-10.8152
bert	-10.8162
▁returns	-10.8165
▁vol	-10.8167
nia	-10.8168
mon	-10.8179
▁drum	-10.818
▁machines	-10.8186
▁partners	-10.8207
▁kon	-10.8212
▁goede	-10.8222
▁cans	-10.8233
▁messages	-10.8242
▁roar	-10.825
▁biologica	-10.8271
▁molecul	-10.8274
▁adventure	-10.8277
ual	-10.8282
▁unite	-10.8282
ologist	-10.8283
▁contain	-10.8285
bra	-10.8291
▁knee	-10.8291
▁vangor	-10.8303
▁flame	-10.8304
▁teenager	-10.8304
▁crop	-10.8305
▁slip	-10.8308
▁measure	-10.8312
▁crown	-10.8313
▁towel	-10.8317
▁carrier	-10.8323
▁package	-10.8323
▁dinosaur	-10.8327
▁mam	-10.833
▁degree	-10.8335
▁decade	-10.8337
▁latest	-10.8344
▁biker	-10.8345
▁assassin	-10.8354
▁ob	-10.8359
iss	-10.837
▁prayer	-10.8383
▁guardians	-10.841
▁dancer	-10.8414
▁allo	-10.8423
tz	-10.8427
▁gates	-10.8438
▁disturb	-10.8448
▁tempt	-10.8451
▁wa	-10.8453
etti	-10.8457
▁mil	-10.8466
▁quant	-10.8467
▁threaten	-10.8472
atic	-10.8475
▁malfunction	-10.8485
▁mix	-10.8491
▁bleed	-10.8491
▁squeal	-10.8492
ational	-10.8493
born	-10.8493
▁sew	-10.8495
▁masks	-10.8497
▁edwards	-10.8497
▁punish	-10.8499
air	-10.85
field	-10.8501
▁crook	-10.8502
▁float	-10.8505
▁peters	-10.8507
proof	-10.8508
life	-10.8508
science	-10.8508
▁dragg	-10.8512
▁clone	-10.8514
▁shove	-10.8514
active	-10.8514
▁propose	-10.8515
itable	-10.8516
▁vari	-10.8517
▁bark	-10.8517
▁thirst	-10.8523
▁stretch	-10.8525
▁technical	-10.8525
▁immediate	-10.8525
▁slight	-10.8528
▁convers	-10.853
▁rec	-10.853
uction	-10.8532
▁meg	-10.8533
▁vrouw	-10.8533
▁flush	-10.8534
▁leeuw	-10.8534
▁origin	-10.8534
▁invent	-10.8535
▁alcohol	-10.8537
▁runnin	-10.8538
▁conceal	-10.8539
▁imperial	-10.854
▁moral	-10.854
▁loyal	-10.854
▁administer	-10.8541
▁conflict	-10.8541
▁guild	-10.8541
▁immortal	-10.8541
▁similar	-10.8541
▁academic	-10.8541
▁advantage	-10.8541
▁aleera	-10.8541
▁alfred	-10.8541
▁ashamed	-10.8541
▁atherton	-10.8541
▁athlete	-10.8541
▁batroc	-10.8541
▁bextrum	-10.8541
▁blithe	-10.8541
▁buffalo	-10.8541
▁butler	-10.8541
▁chalice	-10.8541
▁clamoring	-10.8541
▁conklin	-10.8541
▁curtain	-10.8541
▁dainard	-10.8541
▁deceased	-10.8541
▁disguise	-10.8541
▁einstein	-10.8541
▁elsewhere	-10.8541
▁exclaiming	-10.8541
▁exotic	-10.8541
▁eyelash	-10.8541
▁faculty	-10.8541
▁feather	-10.8541
▁fitzhugh	-10.8541
▁friar	-10.8541
▁galileo	-10.8541
▁harvest	-10.8541
▁housekeeping	-10.8541
▁infinite	-10.8541
▁injured	-10.8541
▁injury	-10.8541
▁january	-10.8541
▁junson	-10.8541
▁khadgar	-10.8541
▁leonard	-10.8541
▁luxury	-10.8541
▁mactaggert	-10.8541
▁magdalene	-10.8541
▁mcdowell	-10.8541
▁metaphor	-10.8541
▁metcalf	-10.8541
▁midget	-10.8541
▁necessarily	-10.8541
▁neski	-10.8541
▁nigel	-10.8541
▁outstanding	-10.8541
▁pakistan	-10.8541
▁peculiar	-10.8541
▁pennsylvania	-10.8541
▁phoenix	-10.8541
▁pistol	-10.8541
▁planchet	-10.8541
▁popcorn	-10.8541
▁principal	-10.8541
▁puddle	-10.8541
▁puppet	-10.8541
▁rendezvous	-10.8541
▁respira	-10.8541
▁scepter	-10.8541
▁shampoo	-10.8541
▁sophisticated	-10.8541
▁squish	-10.8541
▁switowski	-10.8541
▁symptoms	-10.8541
▁technique	-10.8541
▁thursday	-10.8541
▁toulour	-10.8541
▁tremendous	-10.8541
▁truce	-10.8541
▁typewriter	-10.8541
▁venom	-10.8541
▁videotape	-10.8541
▁airborne	-10.8541
▁brogan	-10.8541
▁brooklyn	-10.8541
▁editor	-10.8541
▁identical	-10.8541
▁lundy	-10.8541
▁praten	-10.8541
▁warrant	-10.8541
▁coffin	-10.8541
▁ellie	-10.8541
▁flood	-10.8541
▁izzi	-10.8541
▁pigeon	-10.8541
▁vomit	-10.8541
▁epic	-10.8541
▁headquarters	-10.8541
▁madison	-10.8541
▁norris	-10.8541
▁scorn	-10.8541
▁tackle	-10.8541
jamas	-10.8541
▁causing	-10.8541
▁irene	-10.8541
▁jimeno	-10.8541
▁angle	-10.8541
▁conspiracy	-10.8541
▁humming	-10.8541
▁kree	-10.8541
▁yelena	-10.8541
▁boston	-10.8541
▁boobs	-10.8541
▁radius	-10.8541
▁fond	-10.8541
▁roast	-10.8541
▁turley	-10.8541
▁vulnerable	-10.8541
▁gurkin	-10.8541
▁achter	-10.8541
▁oye	-10.8541
▁hyper	-10.8541
▁blaring	-10.8541
▁flex	-10.8541
▁ignition	-10.8541
▁reproduce	-10.8541
▁devastating	-10.8541
▁celebrating	-10.8541
▁liquid	-10.8541
▁enforcement	-10.8541
▁impact	-10.8541
▁concourse	-10.8541
▁terra	-10.8541
▁tissue	-10.8541
▁forehead	-10.8541
▁metallic	-10.8541
▁underwear	-10.8541
▁lct	-10.8541
▁mignon	-10.8541
▁uptown	-10.8541
▁waking	-10.8541
▁edgar	-10.8541
▁granny	-10.8541
▁biology	-10.8541
▁initiative	-10.8541
▁nodig	-10.8541
▁twee	-10.8541
▁savage	-10.8541
▁rattle	-10.8541
▁novel	-10.8541
▁eaux	-10.8541
▁integrity	-10.8541
▁starving	-10.8541
▁suspicious	-10.8542
▁champion	-10.8542
▁narrat	-10.8542
▁navigation	-10.8542
▁bonny	-10.8542
▁behold	-10.8542
▁chaos	-10.8542
▁obsession	-10.8542
▁shark	-10.8542
▁grill	-10.8542
▁dining	-10.8542
▁furry	-10.8542
▁liking	-10.8542
▁zulu	-10.8542
▁territory	-10.8542
▁bizarre	-10.8542
▁preparation	-10.8542
▁hissing	-10.8542
▁skinny	-10.8542
▁suitcase	-10.8542
▁limo	-10.8542
▁slot	-10.8542
▁migs	-10.8542
▁priority	-10.8542
▁audition	-10.8542
▁brace	-10.8543
▁troth	-10.8543
▁depressed	-10.8543
▁basket	-10.8543
▁token	-10.8543
▁smack	-10.8543
▁raid	-10.8543
▁paperwork	-10.8543
▁leap	-10.8543
▁patch	-10.8543
▁errand	-10.8543
▁onder	-10.8543
▁bulb	-10.8543
▁deposit	-10.8543
▁remote	-10.8543
▁capital	-10.8543
▁hydrant	-10.8543
▁dressler	-10.8544
▁lamp	-10.8544
▁violation	-10.8544
▁scum	-10.8544
▁mooi	-10.8544
▁flies	-10.8544
▁passport	-10.8544
▁toch	-10.8544
▁liberty	-10.8544
▁robbery	-10.8544
▁parade	-10.8544
▁gps	-10.8545
▁programme	-10.8545
▁gaat	-10.8545
▁geez	-10.8545
▁kidney	-10.8546
▁dice	-10.8546
▁artoo	-10.8546
▁blackhand	-10.8546
▁relative	-10.8546
▁attached	-10.8546
▁donor	-10.8546
▁alike	-10.8547
▁taxes	-10.8547
▁dish	-10.8548
▁planned	-10.8548
▁bolt	-10.8548
▁aggressive	-10.8548
▁wilson	-10.8548
▁darn	-10.8548
▁dishes	-10.8548
▁haul	-10.8548
▁drained	-10.8548
▁hele	-10.8548
▁vanquished	-10.8548
▁obsessed	-10.8548
▁whore	-10.8548
▁bush	-10.8549
▁shelley	-10.8549
▁arranged	-10.8549
▁vig	-10.8549
▁located	-10.855
▁traditional	-10.8552
▁label	-10.8552
▁skies	-10.8553
tract	-10.8553
▁accused	-10.8554
▁everyday	-10.8554
▁brandon	-10.8554
▁paulie	-10.8554
▁daar	-10.8555
▁mansion	-10.8555
▁exit	-10.8555
▁approved	-10.8556
▁compromised	-10.8556
▁tense	-10.8556
▁structure	-10.8556
▁raptor	-10.8557
▁aaah	-10.8557
▁jeff	-10.8557
▁poppet	-10.8559
▁dc	-10.8559
▁sustained	-10.856
▁restored	-10.856
▁forgetting	-10.856
▁anton	-10.8561
▁rex	-10.8561
fall	-10.8561
▁stream	-10.8561
▁hind	-10.8563
▁hotter	-10.8563
▁worthless	-10.8563
▁hah	-10.8563
▁gravity	-10.8564
▁racing	-10.8564
▁protective	-10.8564
▁vest	-10.8565
▁damp	-10.8565
▁manual	-10.8566
▁rarely	-10.8566
▁komen	-10.8566
▁proposed	-10.8567
▁shutting	-10.8567
▁shovel	-10.8568
▁weet	-10.8568
▁disappointed	-10.8569
▁dusty	-10.8569
▁rodin	-10.8571
imp	-10.8571
▁vera	-10.8573
▁bitter	-10.8574
▁matches	-10.8575
▁melt	-10.8577
▁inch	-10.8578
▁bc	-10.8578
▁ditch	-10.8579
▁moest	-10.858
▁evacuated	-10.858
▁ink	-10.8583
▁factor	-10.8584
▁shy	-10.8586
▁veins	-10.8586
▁taller	-10.8587
▁orions	-10.8587
▁slams	-10.8587
made	-10.8587
▁mayoral	-10.8588
▁thrilled	-10.8588
▁wilt	-10.859
▁boxes	-10.8592
▁floating	-10.8593
▁roaring	-10.8594
▁bored	-10.8594
▁reasonable	-10.8594
▁faithful	-10.8595
▁threatening	-10.8595
▁shining	-10.8596
▁dood	-10.8602
▁thoughtful	-10.8603
▁drowning	-10.8607
▁mechanical	-10.8609
▁tighter	-10.861
ex	-10.8611
af	-10.8613
▁bonds	-10.8615
▁warned	-10.8616
▁released	-10.8619
▁twisted	-10.8619
▁tactic	-10.862
▁teen	-10.8621
▁broker	-10.8627
▁dumped	-10.8629
▁newton	-10.8641
▁reality	-10.8644
ado	-10.8645
▁robotics	-10.8646
▁talented	-10.8647
▁cheating	-10.8648
▁lando	-10.8652
▁weed	-10.8655
▁sinking	-10.8657
uce	-10.8657
▁ant	-10.8661
▁spite	-10.8666
▁goblins	-10.8667
▁deeper	-10.8668
▁ranks	-10.8669
▁secured	-10.8672
▁arrangements	-10.8677
ipping	-10.8677
berries	-10.8683
▁meter	-10.8684
▁shortly	-10.8704
▁messy	-10.8706
▁lesbians	-10.8707
▁charged	-10.8713
▁responding	-10.8718
▁worms	-10.8719
tempo	-10.8719
▁scar	-10.8719
▁smarter	-10.8726
▁searched	-10.8732
▁fields	-10.8734
▁yay	-10.8735
▁adults	-10.8737
▁marked	-10.8737
▁loudly	-10.8738
▁demands	-10.8738
polit	-10.8741
▁walkin	-10.8747
▁sum	-10.8749
▁bees	-10.875
heads	-10.8762
▁jur	-10.8767
▁packages	-10.8768
▁carriers	-10.8768
▁margi	-10.8774
▁illness	-10.8775
here	-10.8777
▁mut	-10.8777
▁interpret	-10.878
▁suggesting	-10.8795
▁ont	-10.8803
▁considering	-10.8804
▁imagined	-10.8805
▁whit	-10.881
▁nav	-10.8823
▁tornados	-10.8829
▁sank	-10.8832
▁handled	-10.8846
▁fund	-10.8851
fu	-10.8855
ast	-10.8857
▁colleagues	-10.886
▁protocols	-10.886
away	-10.8862
otch	-10.8866
▁brakes	-10.8891
ron	-10.8898
▁danced	-10.8899
hola	-10.891
itation	-10.892
▁demons	-10.8921
▁lone	-10.8924
▁debate	-10.8925
▁sticks	-10.8925
▁kicking	-10.8933
▁conc	-10.8941
▁mal	-10.8943
▁rumors	-10.8953
▁manners	-10.8953
▁offering	-10.896
▁br	-10.897
▁hump	-10.8976
▁rounds	-10.8977
▁generations	-10.8984
▁directions	-10.8985
▁nicer	-10.8996
▁author	-10.9005
▁guessing	-10.9015
▁gu	-10.9015
▁bor	-10.9019
▁messing	-10.9021
▁ali	-10.9029
▁salesman	-10.903
ological	-10.9032
▁wilde	-10.9037
▁beans	-10.9046
▁grease	-10.9052
▁handy	-10.9063
▁qua	-10.9067
ability	-10.9072
▁tu	-10.9084
ame	-10.9101
▁jon	-10.9131
▁pap	-10.914
▁caves	-10.9141
▁clues	-10.9144
▁paintings	-10.9173
▁neat	-10.9173
▁gir	-10.9173
ple	-10.919
▁hog	-10.9192
▁bikes	-10.9205
▁rangers	-10.9209
ney	-10.9226
cent	-10.9228
oul	-10.924
▁prima	-10.9259
oe	-10.9259
▁beasts	-10.9269
▁jerks	-10.9269
tage	-10.9269
▁scores	-10.9271
umb	-10.9275
▁declare	-10.9289
▁ads	-10.9295
ization	-10.9301
ques	-10.9303
▁stays	-10.9308
▁vers	-10.9332
▁monitors	-10.9365
right	-10.9385
▁nay	-10.9389
ante	-10.9395
cal	-10.9397
▁rage	-10.9405
▁suits	-10.9407
▁strangers	-10.9408
▁hoped	-10.941
ries	-10.9418
▁los	-10.9419
our	-10.943
▁fi	-10.9444
eemed	-10.945
vol	-10.9458
home	-10.9467
▁floors	-10.9479
▁tops	-10.9486
▁butts	-10.9532
▁rag	-10.9543
▁ghosts	-10.9594
▁angels	-10.9596
titude	-10.9601
▁kn	-10.9618
▁via	-10.9623
nob	-10.9627
▁lever	-10.9637
▁sorts	-10.9641
▁suggests	-10.9672
▁arrive	-10.9688
▁tattoo	-10.969
▁demand	-10.9691
cation	-10.9699
nes	-10.9702
▁click	-10.9703
▁buildings	-10.9706
▁sav	-10.971
▁flor	-10.9716
▁now	-10.9716
▁wi	-10.9717
city	-10.972
▁clearing	-10.9723
my	-10.9727
▁announce	-10.9728
▁worrying	-10.9728
▁elbow	-10.9731
▁cue	-10.9733
▁rhyme	-10.9733
▁function	-10.9734
▁buck	-10.9736
▁article	-10.9738
▁curve	-10.9741
▁adult	-10.9747
▁muscle	-10.975
▁method	-10.975
▁appearance	-10.9752
▁intern	-10.9757
▁ava	-10.9758
▁spe	-10.9762
ug	-10.9764
▁colors	-10.9774
▁cent	-10.9782
term	-10.9784
▁tax	-10.9794
▁drawer	-10.9796
▁boyd	-10.98
▁steven	-10.981
▁sau	-10.9815
▁for	-10.9841
▁ly	-10.9841
▁domestic	-10.9842
▁der	-10.9843
▁poppe	-10.987
▁choices	-10.9871
▁publish	-10.9872
▁hom	-10.9876
▁crow	-10.9877
▁ns	-10.9881
tale	-10.9886
print	-10.989
▁deb	-10.9893
▁phi	-10.9893
ground	-10.9898
▁rais	-10.99
▁offens	-10.9914
▁depart	-10.9917
aint	-10.9918
▁tick	-10.992
▁salv	-10.9922
▁conquer	-10.9929
master	-10.9931
place	-10.9933
school	-10.9933
vision	-10.9934
flu	-10.9934
identified	-10.9935
▁advise	-10.9936
beat	-10.9936
cause	-10.9937
▁update	-10.9941
▁riddle	-10.9942
▁should	-10.9946
▁eugen	-10.9951
▁pour	-10.9951
▁dink	-10.9951
▁crank	-10.9952
▁shoo	-10.9954
▁krijg	-10.9956
▁weigh	-10.9958
▁intent	-10.9962
ford	-10.9962
▁bum	-10.9962
▁corporat	-10.9963
▁react	-10.9963
▁ches	-10.9963
▁shields	-10.9965
▁comm	-10.9965
▁intel	-10.9965
▁suspens	-10.9965
▁extinct	-10.9966
▁consult	-10.9966
▁rook	-10.9967
▁cannibal	-10.9969
▁hobby	-10.9969
▁abilities	-10.9969
▁academy	-10.9969
▁apocalypse	-10.9969
▁assigned	-10.9969
▁athens	-10.9969
▁baltimore	-10.9969
▁batteries	-10.9969
▁becca	-10.9969
▁bicycle	-10.9969
▁cemetery	-10.9969
▁deliberate	-10.9969
▁delicate	-10.9969
▁eject	-10.9969
▁exhaling	-10.9969
▁fierce	-10.9969
▁fraternity	-10.9969
▁grazie	-10.9969
▁happily	-10.9969
▁harbor	-10.9969
▁increasing	-10.9969
▁infinity	-10.9969
▁inflict	-10.9969
▁instructor	-10.9969
▁invitation	-10.9969
▁itsits	-10.9969
▁janitor	-10.9969
▁jungle	-10.9969
▁knauer	-10.9969
▁koestler	-10.9969
▁lestrade	-10.9969
▁luister	-10.9969
▁lunatic	-10.9969
▁mahalik	-10.9969
▁maintenance	-10.9969
▁martha	-10.9969
▁matthews	-10.9969
▁merchant	-10.9969
▁naughty	-10.9969
▁nealberry	-10.9969
▁necklace	-10.9969
▁nigga	-10.9969
▁nixon	-10.9969
▁patricia	-10.9969
▁persuade	-10.9969
▁postcard	-10.9969
▁profound	-10.9969
▁prospect	-10.9969
▁reelection	-10.9969
▁reign	-10.9969
▁rooster	-10.9969
▁skarratt	-10.9969
▁stammering	-10.9969
▁streak	-10.9969
▁sumdall	-10.9969
▁sunshine	-10.9969
▁sworn	-10.9969
▁thanksgiving	-10.9969
▁therapist	-10.9969
▁threshold	-10.9969
▁tshirt	-10.9969
▁unfair	-10.9969
▁vegetable	-10.9969
▁vegetarian	-10.9969
▁venezia	-10.9969
▁wereld	-10.9969
▁werewolf	-10.9969
▁xavier	-10.9969
▁yuri	-10.9969
▁bronx	-10.9969
▁chemo	-10.9969
▁crib	-10.9969
▁crumbs	-10.9969
▁deactivate	-10.9969
▁dignity	-10.9969
▁frik	-10.9969
▁gerald	-10.9969
▁harvey	-10.9969
▁honeycutt	-10.9969
▁instance	-10.9969
▁skywalker	-10.9969
▁tijd	-10.9969
▁trouwen	-10.9969
▁xray	-10.9969
▁zelf	-10.9969
▁vinci	-10.9969
▁greg	-10.9969
▁sentiment	-10.9969
▁steam	-10.9969
▁jammed	-10.9969
▁yule	-10.9969
▁activate	-10.9969
▁afterward	-10.9969
▁cherish	-10.9969
▁neveu	-10.9969
▁convergence	-10.9969
▁presume	-10.9969
▁error	-10.9969
▁goedemorgen	-10.9969
▁humiliat	-10.9969
▁mistress	-10.9969
▁hayseed	-10.9969
▁spontane	-10.9969
▁mcgivern	-10.9969
▁emerge	-10.9969
▁frakel	-10.9969
▁lottery	-10.9969
▁aisle	-10.9969
▁swam	-10.9969
▁sculpture	-10.9969
▁bernini	-10.9969
▁relations	-10.9969
▁calnet	-10.9969
▁yawn	-10.9969
▁decorate	-10.9969
▁sheep	-10.9969
▁mysterious	-10.9969
▁alfonz	-10.9969
▁anarchy	-10.9969
▁senator	-10.9969
▁acquired	-10.9969
▁pond	-10.9969
▁gemini	-10.9969
▁salon	-10.9969
▁psychological	-10.997
▁casualties	-10.997
▁ensure	-10.997
▁ifyou	-10.997
▁mourn	-10.997
▁theories	-10.997
▁gibbons	-10.997
beloved	-10.997
▁fingerprint	-10.997
▁occurred	-10.997
▁rham	-10.997
▁bosom	-10.997
▁holiness	-10.997
▁gutter	-10.997
▁flashlight	-10.997
▁database	-10.997
▁hyde	-10.997
▁decree	-10.997
▁motel	-10.997
▁vetra	-10.997
▁dagger	-10.997
▁stormwind	-10.997
▁jacksonville	-10.997
▁ravagers	-10.997
▁booze	-10.997
▁parley	-10.997
▁bingo	-10.997
▁lockwood	-10.997
▁irish	-10.997
▁slipped	-10.997
▁ruling	-10.997
▁alignment	-10.997
▁dolce	-10.997
▁senate	-10.997
▁alternative	-10.997
▁hollywood	-10.997
▁charity	-10.9971
▁dios	-10.9971
▁fanny	-10.9971
lle	-10.9971
▁stunning	-10.9971
▁elaborate	-10.9971
▁inaudible	-10.9971
▁destination	-10.9971
▁specifically	-10.9971
▁translation	-10.9971
▁titan	-10.9971
▁executive	-10.9971
▁romance	-10.9971
▁dwell	-10.9971
▁victoria	-10.9971
▁unnatural	-10.9971
▁naples	-10.9971
▁involvement	-10.9972
▁attendant	-10.9972
▁sellner	-10.9972
▁reflect	-10.9972
▁lousy	-10.9972
▁classified	-10.9972
▁actress	-10.9972
▁khrushchev	-10.9972
▁profile	-10.9972
▁damon	-10.9972
▁lima	-10.9972
▁rodeo	-10.9972
▁population	-10.9972
▁minister	-10.9973
▁starboard	-10.9973
▁dodo	-10.9973
▁toby	-10.9973
▁inbound	-10.9973
▁beef	-10.9973
▁counts	-10.9973
▁sunlight	-10.9973
▁cabinet	-10.9973
▁melon	-10.9973
▁dawg	-10.9973
▁slapped	-10.9973
▁fuss	-10.9973
▁alcoholic	-10.9973
▁quality	-10.9973
▁marcus	-10.9974
actic	-10.9974
▁operator	-10.9974
▁trauma	-10.9975
▁twistle	-10.9975
▁frozen	-10.9975
▁weg	-10.9976
▁stall	-10.9976
▁daycare	-10.9976
▁hallway	-10.9976
▁meeka	-10.9977
▁logan	-10.9977
▁injection	-10.9977
▁litera	-10.9977
ooit	-10.9977
▁carlton	-10.9977
▁expression	-10.9977
▁deac	-10.9977
▁beings	-10.9977
▁ballot	-10.9977
istine	-10.9978
▁chairman	-10.9978
▁eastern	-10.9978
some	-10.9979
▁rossi	-10.9979
▁meaningless	-10.9979
▁fame	-10.9979
▁cerebr	-10.9979
▁torment	-10.9979
▁growth	-10.9979
ration	-10.9979
▁hoef	-10.9979
▁mason	-10.9979
▁upper	-10.998
▁compared	-10.998
▁brutal	-10.998
▁tapping	-10.998
▁monk	-10.998
▁arrogant	-10.998
▁elf	-10.9981
▁harmless	-10.9981
▁asteroid	-10.9981
▁marcy	-10.9981
▁whoosh	-10.9981
▁dough	-10.9982
▁preacher	-10.9982
▁toon	-10.9982
▁mock	-10.9983
▁merely	-10.9983
▁ultimately	-10.9983
▁bind	-10.9984
▁scattered	-10.9984
tre	-10.9984
▁dose	-10.9985
▁newborn	-10.9987
▁ahem	-10.9987
▁madness	-10.9987
▁nearby	-10.9988
▁bucky	-10.9988
▁slightly	-10.9989
▁keer	-10.9989
▁clacking	-10.9989
▁witnesses	-10.999
▁attracted	-10.999
▁mumbling	-10.999
▁moor	-10.9991
▁sharing	-10.9991
▁graduated	-10.9991
▁medal	-10.9991
▁mature	-10.9992
▁factory	-10.9993
▁nori	-10.9993
assic	-10.9994
▁solo	-10.9994
▁torn	-10.9996
▁yale	-10.9998
▁sur	-11
▁oliver	-11
pane	-11
▁rational	-11
▁creating	-11.0003
▁twister	-11.0004
▁swann	-11.0004
▁consumed	-11.0005
▁gele	-11.0006
▁dried	-11.0007
▁saucer	-11.0008
▁tickle	-11.001
▁fur	-11.001
two	-11.0012
▁violated	-11.0012
▁mixed	-11.0013
▁suggestion	-11.0014
▁lip	-11.0015
pot	-11.0015
rmal	-11.0018
▁humanity	-11.0018
▁hmo	-11.002
▁robin	-11.0021
▁acres	-11.0022
▁illusions	-11.0023
▁maiden	-11.0023
▁momma	-11.0023
▁allen	-11.0024
gree	-11.0026
▁alley	-11.0029
▁hint	-11.0031
▁retired	-11.0032
▁screamed	-11.0032
▁vibrate	-11.0033
dingen	-11.0034
▁barking	-11.0035
▁lang	-11.0038
▁andand	-11.0039
▁sucker	-11.0039
▁dena	-11.004
▁sen	-11.0041
▁legion	-11.0041
gel	-11.0044
bu	-11.0045
▁fog	-11.0045
▁tricky	-11.0054
▁proven	-11.0054
▁diapers	-11.0057
▁insects	-11.0057
▁soy	-11.0058
▁tent	-11.006
▁complaining	-11.0062
▁scheduled	-11.0072
▁sion	-11.0075
▁sacrificed	-11.0076
▁sandy	-11.0077
▁honesty	-11.0078
heim	-11.0084
▁adore	-11.0087
▁nukes	-11.0092
▁organisms	-11.0092
▁procedures	-11.0092
▁bailed	-11.0094
▁mistaken	-11.0096
▁arch	-11.0099
▁dw	-11.0099
wind	-11.0101
▁bur	-11.0103
▁churches	-11.0103
▁existed	-11.011
▁kyle	-11.0116
▁fucked	-11.0117
▁eaten	-11.012
▁pains	-11.0126
mond	-11.0127
▁lawn	-11.0127
▁patterns	-11.0127
▁instincts	-11.0127
▁elements	-11.0127
pro	-11.0129
▁padd	-11.013
core	-11.0131
▁rach	-11.0144
▁shared	-11.0146
▁cater	-11.0148
yard	-11.0152
▁nou	-11.0152
tec	-11.0158
▁singer	-11.0159
nny	-11.0163
burg	-11.0167
ough	-11.0168
ane	-11.0171
▁hire	-11.0174
▁freaked	-11.0179
▁commence	-11.0181
▁dy	-11.0182
▁suggested	-11.0185
▁failing	-11.0185
▁stumbl	-11.0186
▁fumble	-11.0189
▁appearances	-11.0198
▁muscles	-11.0199
▁focused	-11.0203
▁ranch	-11.0208
▁bugg	-11.0211
▁od	-11.0218
▁wasted	-11.0219
▁wester	-11.022
▁praying	-11.0227
▁vip	-11.023
▁workers	-11.023
▁contains	-11.0232
▁beter	-11.0234
▁towels	-11.0234
all	-11.0237
▁fairly	-11.0243
▁maids	-11.0243
▁surfer	-11.0248
▁seize	-11.0253
▁sis	-11.0254
▁itch	-11.026
▁moed	-11.0264
▁den	-11.0265
cut	-11.0276
▁lent	-11.0281
▁contacted	-11.0281
▁warp	-11.0292
ory	-11.0297
▁deem	-11.0297
▁lifetimes	-11.0306
▁lars	-11.0306
▁walks	-11.0317
▁meters	-11.0319
▁pressing	-11.0335
▁har	-11.0336
▁burns	-11.0338
▁employees	-11.0342
▁fib	-11.035
▁parker	-11.0352
▁bounc	-11.0355
▁papi	-11.0355
rie	-11.036
▁passenger	-11.0374
▁daughters	-11.0379
iest	-11.038
▁spirits	-11.0384
▁reporting	-11.0387
▁marrying	-11.0392
▁visiting	-11.0392
▁mee	-11.0394
rate	-11.0414
▁scrambl	-11.0414
▁traditions	-11.0415
▁carr	-11.0416
▁closely	-11.0422
▁qui	-11.0445
▁ros	-11.0445
comb	-11.0447
▁tunnels	-11.0451
▁sticking	-11.0453
▁billions	-11.0453
tory	-11.0464
oy	-11.0475
▁tub	-11.0485
▁photos	-11.0486
▁dorks	-11.0487
▁officials	-11.0488
▁pil	-11.0489
▁languages	-11.0491
▁positions	-11.0491
cor	-11.0501
ost	-11.0512
▁losers	-11.0513
cla	-11.0525
▁dreamed	-11.0534
▁cared	-11.0536
▁disable	-11.0543
▁feelin	-11.0558
▁shown	-11.056
▁chi	-11.0563
gul	-11.0568
que	-11.0577
▁ro	-11.0593
▁scr	-11.0605
▁wre	-11.0608
▁specialize	-11.0611
▁prisoners	-11.0616
▁batt	-11.0619
▁operate	-11.063
▁images	-11.0635
▁trucks	-11.0636
▁consume	-11.0646
▁pu	-11.0667
▁roller	-11.0669
▁toilets	-11.0672
▁clubs	-11.0672
▁stations	-11.0673
bag	-11.0674
ace	-11.0674
▁elk	-11.0677
ever	-11.0688
▁rats	-11.0692
zonder	-11.0702
ured	-11.0739
▁elevators	-11.0747
▁cla	-11.0749
old	-11.0757
use	-11.0766
mbling	-11.0768
▁denk	-11.0769
▁scares	-11.0796
bel	-11.0812
▁rem	-11.0814
tar	-11.0824
▁mouths	-11.0833
▁generat	-11.0835
rend	-11.0836
▁acts	-11.0857
▁za	-11.0857
gie	-11.0861
▁fucks	-11.0868
▁peek	-11.0881
▁projects	-11.0898
▁claims	-11.0898
▁concerns	-11.0902
spies	-11.0906
▁flo	-11.0909
olo	-11.0916
▁vehicles	-11.0937
▁drie	-11.0938
▁presente	-11.0938
tical	-11.0941
eren	-11.0961
eye	-11.0961
▁sins	-11.0977
▁actions	-11.0979
rock	-11.0996
▁houses	-11.1006
▁kingdoms	-11.1013
ime	-11.1041
oma	-11.1048
▁savings	-11.1052
▁pockets	-11.1071
▁runs	-11.1084
▁tommys	-11.1091
▁shad	-11.1099
ire	-11.1121
▁showers	-11.113
▁trips	-11.116
uch	-11.1166
▁thinkin	-11.1189
▁hal	-11.119
ze	-11.1193
ula	-11.1216
▁regrets	-11.1247
ius	-11.1258
▁seeks	-11.1265
des	-11.1277
▁conversations	-11.1287
▁opera	-11.1294
year	-11.1297
▁fil	-11.1331
▁dime	-11.1333
▁fates	-11.134
▁sons	-11.1363
▁sakes	-11.1366
mmer	-11.1396
▁cannon	-11.1398
▁sheet	-11.1399
▁hostile	-11.1399
▁where	-11.1403
▁troll	-11.1405
▁signature	-11.1405
▁crimes	-11.1406
▁generator	-11.1408
▁convict	-11.1408
▁fugitive	-11.1409
▁worm	-11.1414
▁lesbian	-11.1414
▁gasp	-11.1416
▁barrel	-11.1418
▁musketeer	-11.1421
▁mutant	-11.1422
▁height	-11.1427
▁journal	-11.1427
ola	-11.1431
▁cata	-11.1433
▁figures	-11.1436
▁not	-11.1445
▁tac	-11.1471
▁pays	-11.1474
ept	-11.1478
▁gort	-11.1504
▁ban	-11.1504
armed	-11.1506
real	-11.1509
looking	-11.1539
▁sip	-11.1539
hood	-11.1543
▁tit	-11.1544
ware	-11.1577
▁meek	-11.158
▁entertain	-11.1581
woman	-11.1583
▁ph	-11.1584
▁atom	-11.1586
▁recruit	-11.1588
▁stir	-11.1589
book	-11.1589
wood	-11.1593
▁reject	-11.1593
▁orbit	-11.1593
▁bru	-11.1594
trap	-11.1594
▁disappoint	-11.1595
▁smash	-11.1596
▁inherit	-11.1597
▁examine	-11.1597
lic	-11.1599
bird	-11.1599
household	-11.1599
what	-11.16
owned	-11.1601
nathan	-11.1602
▁tab	-11.1602
smith	-11.1603
chick	-11.1603
prince	-11.1603
american	-11.1603
three	-11.1603
yeah	-11.1604
minute	-11.1604
trained	-11.1606
▁patter	-11.1606
coat	-11.1607
tail	-11.1608
action	-11.1608
free	-11.161
case	-11.161
▁restore	-11.1611
cover	-11.1612
that	-11.1612
▁graduate	-11.1613
▁eliminate	-11.1615
▁rick	-11.1615
door	-11.1616
▁stab	-11.1616
▁prior	-11.1616
▁hull	-11.1616
half	-11.1617
▁mill	-11.1617
▁locks	-11.1617
bone	-11.1617
▁essential	-11.1618
▁ultimate	-11.1619
▁mel	-11.1621
rational	-11.1622
▁korea	-11.1624
▁recent	-11.1625
▁flee	-11.1625
▁heave	-11.1626
▁geef	-11.1628
▁potato	-11.1629
▁compete	-11.1629
▁continent	-11.1629
▁atta	-11.163
▁execut	-11.1631
▁bleach	-11.1632
▁intercept	-11.1632
▁acid	-11.1633
▁fortuna	-11.1634
▁dodg	-11.1634
▁raven	-11.1635
▁ravage	-11.1635
▁soc	-11.1635
▁orphan	-11.1635
▁bodyguard	-11.1635
▁occur	-11.1635
▁francis	-11.1635
▁zip	-11.1635
▁neighbour	-11.1636
▁ambassad	-11.1636
▁apprehend	-11.1636
▁commission	-11.1636
▁convention	-11.1636
▁disrupt	-11.1636
▁vladimir	-11.1636
▁abducted	-11.1636
▁accustomed	-11.1636
▁afghanistan	-11.1636
▁alejandro	-11.1636
▁amateur	-11.1636
▁amazon	-11.1636
▁architect	-11.1636
▁argentinean	-11.1636
▁assault	-11.1636
▁athenian	-11.1636
▁barbossa	-11.1636
▁beresford	-11.1636
▁bikini	-11.1636
▁bordeaux	-11.1636
▁bruiloft	-11.1636
▁budapest	-11.1636
▁bureau	-11.1636
▁civic	-11.1636
▁collision	-11.1636
▁colombia	-11.1636
▁commodore	-11.1636
▁communist	-11.1636
▁curfew	-11.1636
▁cyrus	-11.1636
▁defcon	-11.1636
▁defence	-11.1636
▁delacourt	-11.1636
▁deterrent	-11.1636
▁diplomat	-11.1636
▁dontknow	-11.1636
▁doreena	-11.1636
▁dowry	-11.1636
▁earthquake	-11.1636
▁elephant	-11.1636
▁enormous	-11.1636
▁expense	-11.1636
▁fascinating	-11.1636
▁frostwolves	-11.1636
▁furzee	-11.1636
▁gupta	-11.1636
▁happier	-11.1636
▁helicarriers	-11.1636
▁housekeeper	-11.1636
▁inappropriate	-11.1636
▁inviting	-11.1636
▁israel	-11.1636
▁jefferson	-11.1636
▁judging	-11.1636
▁jurisdiction	-11.1636
▁koninkrijk	-11.1636
▁lehnsherr	-11.1636
▁leprechaun	-11.1636
▁liaison	-11.1636
▁lidewij	-11.1636
▁lnjun	-11.1636
▁louisiana	-11.1636
▁lydia	-11.1636
▁manipulate	-11.1636
▁marishka	-11.1636
▁mathematics	-11.1636
▁matsui	-11.1636
▁melanie	-11.1636
▁melissa	-11.1636
▁michigan	-11.1636
▁miraculous	-11.1636
▁misschien	-11.1636
▁monica	-11.1636
▁motorcycle	-11.1636
▁municipal	-11.1636
▁nelec	-11.1636
▁nikto	-11.1636
▁nypd	-11.1636
▁oakenshield	-11.1636
▁oklahoma	-11.1636
▁oracle	-11.1636
▁orleans	-11.1636
▁parliament	-11.1636
▁paycheck	-11.1636
▁penalty	-11.1636
▁penthouse	-11.1636
▁perimeter	-11.1636
▁perspective	-11.1636
▁peterquince	-11.1636
▁phelpmitter	-11.1636
▁physicist	-11.1636
▁possibilities	-11.1636
▁prefect	-11.1636
▁qualify	-11.1636
▁radiant	-11.1636
▁ralph	-11.1636
▁rebuild	-11.1636
▁refrigerator	-11.1636
▁resident	-11.1636
▁rodrigue	-11.1636
▁savior	-11.1636
▁scranton	-11.1636
▁southeast	-11.1636
▁sprinkle	-11.1636
▁stockbroker	-11.1636
▁supreme	-11.1636
▁tiffany	-11.1636
▁tortuga	-11.1636
▁transplant	-11.1636
▁trophy	-11.1636
▁tyrant	-11.1636
▁underestimate	-11.1636
▁unpredictable	-11.1636
▁venezuela	-11.1636
▁vulcan	-11.1636
▁wagner	-11.1636
▁wealth	-11.1636
▁wheezing	-11.1636
▁whiff	-11.1636
▁bleak	-11.1636
▁bmw	-11.1636
▁bueno	-11.1636
▁curtis	-11.1636
▁donald	-11.1636
▁excess	-11.1636
▁grandparents	-11.1636
▁gulf	-11.1636
▁koushik	-11.1636
▁predator	-11.1636
▁puerto	-11.1636
▁resign	-11.1636
▁artific	-11.1636
▁isolation	-11.1636
▁keala	-11.1636
▁limb	-11.1636
▁venus	-11.1636
▁backseat	-11.1636
▁capacity	-11.1636
▁doggychop	-11.1636
▁hypothetical	-11.1636
▁shalt	-11.1636
▁siempre	-11.1636
▁zich	-11.1636
▁circuit	-11.1636
▁dvd	-11.1636
▁perfume	-11.1636
▁sherlock	-11.1636
▁skirt	-11.1636
▁sushi	-11.1636
▁jolene	-11.1636
▁rackham	-11.1636
▁adios	-11.1636
▁platform	-11.1636
▁prosper	-11.1636
▁panicked	-11.1636
▁terry	-11.1636
▁ankle	-11.1636
▁reef	-11.1636
▁carbon	-11.1636
▁transform	-11.1636
▁lemonade	-11.1636
▁cement	-11.1636
▁yoohoo	-11.1636
▁alicia	-11.1636
▁neighbourhood	-11.1636
▁silas	-11.1636
▁gracious	-11.1636
▁excitement	-11.1636
▁probability	-11.1636
▁aaron	-11.1636
▁santos	-11.1636
▁hallelujah	-11.1636
▁hugging	-11.1636
▁stadium	-11.1636
▁previous	-11.1636
▁bubble	-11.1636
▁commandeer	-11.1636
▁skate	-11.1636
▁minimum	-11.1636
▁dixon	-11.1636
▁recogni	-11.1636
▁content	-11.1636
▁laptop	-11.1636
▁whwhat	-11.1636
▁confidential	-11.1636
▁montana	-11.1636
▁vague	-11.1636
▁abort	-11.1636
▁harley	-11.1636
▁oblivion	-11.1636
▁griev	-11.1636
▁venture	-11.1636
▁lampley	-11.1636
▁vicious	-11.1636
▁darcy	-11.1636
▁saturn	-11.1636
▁denied	-11.1636
rics	-11.1637
▁elaine	-11.1637
▁scarlet	-11.1637
▁biologist	-11.1637
▁infant	-11.1637
▁axe	-11.1637
▁evict	-11.1637
▁repay	-11.1637
▁egyptian	-11.1637
▁onboard	-11.1637
▁shiva	-11.1637
▁confront	-11.1637
▁descendant	-11.1637
▁formula	-11.1637
▁wheat	-11.1637
▁representative	-11.1637
▁darts	-11.1637
▁nancy	-11.1637
▁cotton	-11.1637
▁studied	-11.1637
▁yyou	-11.1637
ography	-11.1637
▁probation	-11.1637
▁tinker	-11.1637
▁filter	-11.1637
▁kansas	-11.1637
▁assessment	-11.1637
▁prada	-11.1637
▁irina	-11.1637
▁settlements	-11.1637
▁terrorism	-11.1637
▁titania	-11.1637
▁inconvenience	-11.1637
▁bern	-11.1637
▁studio	-11.1637
▁chopper	-11.1637
tawny	-11.1637
▁avenge	-11.1637
▁nonny	-11.1638
▁eleven	-11.1638
▁nooit	-11.1638
▁electronic	-11.1638
▁transferred	-11.1638
▁medium	-11.1638
▁prank	-11.1638
▁rapper	-11.1638
▁grote	-11.1638
▁philosophy	-11.1638
▁handshake	-11.1638
▁blanket	-11.1638
▁bacon	-11.1638
▁retreat	-11.1638
▁orient	-11.1638
▁judy	-11.1638
▁portland	-11.1638
▁descend	-11.1638
▁aircraft	-11.1638
▁noah	-11.1638
▁upside	-11.1638
▁stalk	-11.1638
▁unlock	-11.1638
scription	-11.1638
▁vials	-11.1638
▁preferred	-11.1638
▁advisor	-11.1638
▁rodent	-11.1638
▁denser	-11.1638
▁resistance	-11.1638
▁demonstration	-11.1638
▁promote	-11.1638
▁skipped	-11.1639
▁keystone	-11.1639
▁revolutionary	-11.1639
▁typing	-11.1639
▁adorable	-11.1639
▁willis	-11.1639
▁extraction	-11.1639
▁establishment	-11.1639
▁peak	-11.1639
▁asses	-11.1639
▁pageant	-11.1639
▁geze	-11.1639
▁wack	-11.1639
▁centre	-11.1639
▁luv	-11.1639
▁various	-11.1639
▁execution	-11.1639
▁furniture	-11.1639
▁mcdunnough	-11.1639
▁northeast	-11.1639
▁quote	-11.1639
▁submit	-11.1639
▁frog	-11.164
▁manifest	-11.164
▁promising	-11.164
▁heck	-11.164
▁drift	-11.164
▁janson	-11.164
▁adam	-11.164
▁replacement	-11.164
▁spotted	-11.164
▁cupid	-11.164
▁semi	-11.164
▁costume	-11.164
▁sober	-11.164
▁asian	-11.164
▁crave	-11.164
▁claw	-11.164
▁slightest	-11.164
▁panel	-11.1641
▁hun	-11.1641
▁recommendation	-11.1641
▁trek	-11.1641
▁lono	-11.1641
▁rice	-11.1641
▁recon	-11.1642
▁trager	-11.1642
▁mick	-11.1642
▁heartbeat	-11.1642
▁fran	-11.1642
ynn	-11.1643
▁condom	-11.1643
teau	-11.1643
▁amazed	-11.1643
▁combined	-11.1643
▁brah	-11.1644
▁rotation	-11.1644
▁chuck	-11.1644
▁warren	-11.1644
▁notion	-11.1644
▁admiral	-11.1645
▁cuff	-11.1645
▁cloth	-11.1645
▁delta	-11.1645
▁footage	-11.1646
▁luckily	-11.1646
▁continental	-11.1646
▁controlled	-11.1646
▁booth	-11.1646
▁elevated	-11.1647
▁havin	-11.1647
▁lighthouse	-11.1647
▁confession	-11.1648
▁inspired	-11.1648
▁clap	-11.1648
▁sour	-11.1648
▁ego	-11.1649
▁restricted	-11.165
▁sincerely	-11.165
▁amongst	-11.165
▁marion	-11.165
▁spre	-11.165
▁shipping	-11.165
▁banish	-11.1651
▁mona	-11.1651
▁toxin	-11.1652
▁darkling	-11.1652
▁rivers	-11.1652
▁dacht	-11.1652
▁armies	-11.1653
▁zoo	-11.1653
▁described	-11.1653
▁possession	-11.1656
▁betting	-11.1656
▁zola	-11.1656
▁sanders	-11.1657
▁embrace	-11.1657
▁masses	-11.1657
▁plead	-11.1658
▁eugene	-11.1658
▁stain	-11.1658
▁through	-11.1659
▁remy	-11.166
▁bench	-11.166
▁slamming	-11.166
▁trespassing	-11.166
▁hooting	-11.166
▁federales	-11.1662
▁divide	-11.1662
▁deceived	-11.1663
▁brat	-11.1664
▁allies	-11.1664
▁frost	-11.1665
▁sore	-11.1666
▁folded	-11.1667
▁weten	-11.1668
▁pak	-11.1669
▁what	-11.1669
▁flown	-11.1669
▁moss	-11.167
▁frightening	-11.167
▁takin	-11.167
▁mere	-11.1672
▁haste	-11.1673
▁yen	-11.1674
▁spinn	-11.1676
▁signor	-11.1676
▁this	-11.1677
▁fatal	-11.1677
▁jac	-11.1678
▁july	-11.1679
muri	-11.1681
▁deeds	-11.1684
▁exposed	-11.1684
open	-11.1685
▁kneel	-11.1685
▁corpse	-11.1685
▁cone	-11.1685
look	-11.1685
▁correction	-11.1686
▁crooked	-11.1688
▁entertaining	-11.1689
▁solved	-11.1691
▁pana	-11.1692
▁prinses	-11.1694
▁immune	-11.1696
▁offended	-11.1696
▁klein	-11.1697
▁gale	-11.1698
▁earrings	-11.17
▁handcuffs	-11.17
▁posers	-11.1701
▁nanny	-11.1701
▁crosses	-11.1704
ende	-11.1705
▁notifi	-11.1706
▁performed	-11.171
▁rescued	-11.1711
▁registered	-11.1712
▁originally	-11.1713
iberia	-11.1713
▁cube	-11.1715
▁brandy	-11.1716
▁owl	-11.1716
▁usgs	-11.172
▁omen	-11.1722
nae	-11.1722
▁blonde	-11.1723
▁dresses	-11.1724
▁ron	-11.1724
▁robe	-11.1727
▁sniffing	-11.173
▁dol	-11.1732
▁moments	-11.1733
▁interrupted	-11.1738
▁arquillians	-11.1741
▁parasites	-11.1741
▁nervously	-11.1743
▁chilly	-11.1745
▁promises	-11.1746
▁engineering	-11.1746
oh	-11.1749
▁challenged	-11.175
▁pol	-11.1751
cru	-11.1751
▁grape	-11.1752
▁oer	-11.1752
▁cookies	-11.1753
▁hen	-11.1755
▁irony	-11.1758
▁daniela	-11.176
▁warg	-11.1771
▁touches	-11.1778
▁umm	-11.1778
erk	-11.1783
poppin	-11.1783
▁arrows	-11.1783
▁seizures	-11.1783
▁tourists	-11.1784
bie	-11.1785
▁starters	-11.1787
▁bee	-11.1788
▁blown	-11.1791
▁whe	-11.1792
▁tin	-11.1793
donna	-11.1793
▁cracked	-11.1794
▁sab	-11.18
plat	-11.18
▁carries	-11.1801
▁wai	-11.1805
▁mur	-11.1806
acks	-11.181
▁pickle	-11.1817
▁contend	-11.1825
▁yelps	-11.1825
▁peanuts	-11.1826
▁defending	-11.1826
▁cooper	-11.1832
▁prinselijk	-11.1834
geven	-11.1835
▁inn	-11.1837
▁joey	-11.1843
▁foote	-11.185
▁disappearing	-11.185
▁owen	-11.1855
date	-11.1856
▁prayed	-11.186
▁voter	-11.1861
▁maken	-11.1863
▁fugitives	-11.1868
▁newman	-11.1886
▁illuminat	-11.1892
▁jess	-11.1896
▁appreciated	-11.1896
hound	-11.1898
▁rocky	-11.1898
▁darker	-11.1906
▁carefully	-11.1906
▁lifted	-11.1908
▁anticipate	-11.1913
▁sim	-11.1921
▁ai	-11.1923
▁helpless	-11.1924
▁hay	-11.1924
▁organiz	-11.1926
top	-11.1929
rous	-11.193
▁leaf	-11.1939
▁produced	-11.1947
▁sneeze	-11.1957
were	-11.1958
▁whites	-11.1975
lit	-11.1976
▁breakin	-11.1981
▁rely	-11.1984
▁cracker	-11.1986
hold	-11.1992
▁bree	-11.1995
▁dungeons	-11.1997
▁snakes	-11.1997
▁statues	-11.1997
▁dent	-11.1997
▁eats	-11.1998
▁plu	-11.1999
▁reported	-11.1999
▁cooler	-11.2002
▁burner	-11.2003
ete	-11.2004
▁recorded	-11.2009
rudy	-11.2024
▁vows	-11.203
▁packing	-11.2034
▁observ	-11.2035
▁marker	-11.2036
ament	-11.2038
▁jewels	-11.204
▁cigarettes	-11.204
▁zombies	-11.204
▁candles	-11.204
▁dances	-11.2043
▁accepted	-11.2054
▁transporter	-11.2054
▁fra	-11.2055
▁ave	-11.2058
▁mira	-11.2059
▁bombing	-11.2063
▁laughed	-11.2065
▁flights	-11.2067
▁lens	-11.2069
▁callan	-11.2083
▁helicopters	-11.2083
▁magn	-11.2084
▁lads	-11.2086
▁banker	-11.2095
gon	-11.2101
erial	-11.2102
▁ew	-11.2106
▁smiles	-11.211
bre	-11.2114
▁standards	-11.2127
▁terrorists	-11.2127
▁aged	-11.2128
▁ann	-11.2146
▁scal	-11.2148
▁towers	-11.2153
▁partys	-11.2154
▁girlfriends	-11.2154
chita	-11.2162
▁deaths	-11.2163
▁bangs	-11.2167
▁efforts	-11.2171
za	-11.2172
▁creaks	-11.2174
▁thorn	-11.2177
▁harding	-11.218
▁flick	-11.2185
▁cleary	-11.2194
ati	-11.2196
▁feeding	-11.2206
▁connections	-11.2216
▁dip	-11.2217
ell	-11.2221
▁bou	-11.2232
▁fr	-11.2235
eva	-11.2235
▁iso	-11.2243
▁rates	-11.2243
your	-11.2252
hub	-11.2252
▁sails	-11.226
onic	-11.2261
▁habits	-11.2273
▁niets	-11.2278
▁gall	-11.2279
▁weddings	-11.2282
▁accelerate	-11.2285
tration	-11.2287
gress	-11.2292
▁buckinghams	-11.2304
▁spike	-11.2309
▁beautifully	-11.2311
wiss	-11.2315
tel	-11.2317
▁naive	-11.2328
▁idol	-11.2339
▁carro	-11.2339
▁flu	-11.2342
▁audi	-11.2368
rig	-11.2374
▁commoner	-11.2378
uh	-11.2378
▁links	-11.2393
▁missions	-11.2396
▁tales	-11.24
dict	-11.2408
▁beds	-11.2414
▁unsu	-11.2434
ois	-11.2436
▁requests	-11.2441
▁ahhh	-11.2457
ita	-11.2463
▁artistic	-11.2464
▁me	-11.2474
▁don	-11.2478
▁fu	-11.2479
▁hel	-11.248
▁dub	-11.2482
▁repairs	-11.2487
▁ser	-11.2491
ches	-11.2492
▁ages	-11.2497
▁declar	-11.2505
▁doe	-11.252
pping	-11.253
▁matts	-11.2533
▁slug	-11.2536
▁dogg	-11.2537
▁bes	-11.2545
▁attacks	-11.2549
▁pier	-11.2581
▁dealer	-11.2595
▁battles	-11.2596
rom	-11.2608
ini	-11.2619
▁pairs	-11.262
▁chicks	-11.2621
▁rad	-11.2641
har	-11.2662
not	-11.268
▁frame	-11.2686
▁beste	-11.2732
▁mat	-11.2735
▁mon	-11.275
▁coordinate	-11.2752
▁bothers	-11.277
▁wr	-11.2781
ogue	-11.2793
▁vic	-11.2802
▁restaurants	-11.2806
hem	-11.2809
som	-11.2845
▁rays	-11.2853
oway	-11.2871
▁ape	-11.2872
▁prep	-11.2901
▁wrappe	-11.2906
star	-11.2906
kers	-11.2923
▁jest	-11.2926
▁beers	-11.2929
gue	-11.2933
▁era	-11.2934
▁ham	-11.294
fo	-11.2946
▁noises	-11.2947
▁patricks	-11.2947
▁types	-11.2947
▁films	-11.2955
idge	-11.2959
▁forms	-11.2962
▁medic	-11.2973
ata	-11.3
▁more	-11.3004
▁ware	-11.3005
▁eng	-11.3011
wij	-11.3012
▁equip	-11.303
▁risks	-11.3045
▁legi	-11.3063
▁killers	-11.3065
▁passengers	-11.308
itating	-11.3084
▁sti	-11.3085
▁fans	-11.3085
osaurus	-11.3089
▁robertas	-11.3108
▁perish	-11.3119
▁cro	-11.3122
niner	-11.3136
gious	-11.3142
▁bernies	-11.3189
▁gro	-11.3193
▁luc	-11.3226
▁tights	-11.3238
▁amor	-11.3255
udge	-11.3256
dont	-11.327
▁temp	-11.3272
▁multi	-11.3289
kel	-11.3302
▁wishing	-11.3314
ev	-11.332
▁pets	-11.3327
lag	-11.3327
▁alo	-11.333
▁hurting	-11.3353
lies	-11.3361
ogen	-11.3362
west	-11.3362
▁trusting	-11.3371
▁cosm	-11.3372
gone	-11.3372
▁sparkl	-11.3377
▁cough	-11.3378
bit	-11.338
▁whin	-11.3383
▁infect	-11.3385
▁grunt	-11.339
▁product	-11.3392
▁euro	-11.3398
▁mushnik	-11.3398
▁shaft	-11.34
▁headache	-11.3404
▁scout	-11.3405
▁genie	-11.3405
▁feature	-11.3405
▁particle	-11.3405
▁yankee	-11.3405
▁templar	-11.3405
▁tap	-11.3406
atch	-11.3407
▁peanut	-11.3409
▁yelp	-11.3409
▁element	-11.3411
▁mutter	-11.3412
▁instinct	-11.3412
▁megan	-11.3414
▁goblin	-11.3414
▁arrangement	-11.3415
▁locust	-11.3416
▁resume	-11.3418
▁hostage	-11.3426
▁cord	-11.3426
▁chu	-11.3428
▁lighting	-11.3429
▁stair	-11.3429
▁bites	-11.3429
▁pattern	-11.3451
▁packs	-11.3454
hu	-11.3459
ists	-11.3459
▁twin	-11.3462
▁gen	-11.3472
▁ador	-11.3477
tallis	-11.3479
▁cult	-11.3488
rah	-11.3492
▁how	-11.3494
▁dus	-11.3497
▁blo	-11.3498
▁bla	-11.351
isha	-11.352
aving	-11.3524
▁mechanic	-11.3524
▁ammo	-11.3535
▁writ	-11.3536
gging	-11.354
▁refus	-11.3541
▁embarrass	-11.3547
squ	-11.3547
▁stra	-11.3556
roni	-11.356
neck	-11.3561
tomy	-11.3561
load	-11.3562
▁whir	-11.3566
▁prepar	-11.3571
▁refer	-11.3574
▁exception	-11.3575
▁chooses	-11.3584
mery	-11.3585
wat	-11.3587
▁mug	-11.3589
▁dash	-11.3589
rank	-11.3593
▁had	-11.3594
▁detect	-11.3596
▁bombs	-11.3596
▁dismiss	-11.3596
▁haunt	-11.3597
break	-11.3597
▁have	-11.3598
▁surround	-11.3599
view	-11.3599
frost	-11.3601
town	-11.3601
▁conduct	-11.3601
stream	-11.3602
front	-11.3602
ofthe	-11.3602
castle	-11.3603
bomb	-11.3603
girl	-11.3603
▁forge	-11.3604
walk	-11.3604
six	-11.3605
listen	-11.3606
▁doom	-11.3607
letter	-11.3607
▁concentrate	-11.3607
▁plea	-11.3608
▁approve	-11.361
▁compromise	-11.361
▁scot	-11.3611
new	-11.3612
▁crunch	-11.3616
▁destin	-11.3616
▁eerst	-11.3617
▁aa	-11.3617
▁guilt	-11.3619
▁exclusive	-11.3619
fold	-11.362
▁unfortunate	-11.362
▁pops	-11.3621
reason	-11.3621
never	-11.3622
▁electro	-11.3623
▁clown	-11.3625
▁virg	-11.3627
▁cockroach	-11.3627
▁profession	-11.3627
▁torpedo	-11.3628
▁branch	-11.3628
▁literal	-11.3628
▁supervis	-11.3628
▁rang	-11.3629
will	-11.3629
▁sketch	-11.3629
▁stom	-11.3629
▁improve	-11.363
▁marshal	-11.3631
▁marty	-11.3632
▁leavin	-11.3633
▁lauren	-11.3633
▁addict	-11.3633
kki	-11.3633
▁assembly	-11.3633
▁align	-11.3634
▁stew	-11.3635
▁disrespect	-11.3635
▁resent	-11.3635
▁conscious	-11.3635
appointed	-11.3635
▁fold	-11.3635
▁kir	-11.3635
▁casual	-11.3635
▁commit	-11.3635
▁fuzz	-11.3635
▁accur	-11.3636
▁drama	-11.3636
▁scholar	-11.3636
mine	-11.3636
authorized	-11.3636
▁oblig	-11.3636
▁refresh	-11.3636
▁mathematical	-11.3636
discretion	-11.3636
responsibilities	-11.3636
▁adrenaline	-11.3636
▁aldrich	-11.3636
▁allergies	-11.3636
▁annihilate	-11.3636
▁antidote	-11.3636
▁approval	-11.3636
▁aramis	-11.3636
▁ascertain	-11.3636
▁assumption	-11.3636
▁astronaut	-11.3636
▁australia	-11.3636
▁azog	-11.3636
▁barbecue	-11.3636
▁beaver	-11.3636
▁believing	-11.3636
▁berklee	-11.3636
▁blijf	-11.3636
▁bridetobe	-11.3636
▁buongiorno	-11.3636
▁cackling	-11.3636
▁cambridge	-11.3636
▁cassiopeia	-11.3636
▁cavalry	-11.3636
▁clerk	-11.3636
▁clumsy	-11.3636
▁companies	-11.3636
▁compressor	-11.3636
▁comrade	-11.3636
▁conceived	-11.3636
▁constellation	-11.3636
▁convenient	-11.3636
▁cramps	-11.3636
▁curiosity	-11.3636
▁defensive	-11.3636
▁depression	-11.3636
▁depths	-11.3636
▁devonshire	-11.3636
▁distorted	-11.3636
▁doppler	-11.3636
▁douche	-11.3636
▁dunbar	-11.3636
▁dunmeyer	-11.3636
▁enchanted	-11.3636
▁encoder	-11.3636
▁erfgenaam	-11.3636
▁exhibit	-11.3636
▁extremis	-11.3636
▁eyelids	-11.3636
▁ezekiel	-11.3636
▁fabric	-11.3636
▁freckles	-11.3636
▁frypan	-11.3636
▁gattaca	-11.3636
▁gefeliciteerd	-11.3636
▁genuine	-11.3636
▁ghastly	-11.3636
▁gierasch	-11.3636
▁groceries	-11.3636
▁hendrix	-11.3636
▁hiphop	-11.3636
▁huwelijk	-11.3636
▁imbecile	-11.3636
▁incantation	-11.3636
▁indulge	-11.3636
▁injustice	-11.3636
▁inquir	-11.3636
▁insanity	-11.3636
▁invincible	-11.3636
▁ipswich	-11.3636
▁jfk	-11.3636
▁jupiter	-11.3636
▁kabul	-11.3636
▁kalashov	-11.3636
▁karazhan	-11.3636
▁kijimi	-11.3636
▁kilometers	-11.3636
▁koji	-11.3636
▁lahiri	-11.3636
▁landfill	-11.3636
▁lsabel	-11.3636
▁machtig	-11.3636
▁mccoy	-11.3636
▁microphone	-11.3636
▁millennium	-11.3636
▁monopoly	-11.3636
▁mount	-11.3636
▁necromancer	-11.3636
▁nigger	-11.3636
▁nonsmoking	-11.3636
▁october	-11.3636
▁opposite	-11.3636
▁osteosarcoma	-11.3636
▁overdue	-11.3636
▁pancakes	-11.3636
▁parachute	-11.3636
▁paradise	-11.3636
▁paralysis	-11.3636
▁pencil	-11.3636
▁peppermint	-11.3636
▁porthos	-11.3636
▁pretence	-11.3636
▁prevail	-11.3636
▁prototype	-11.3636
▁rehearse	-11.3636
▁releasing	-11.3636
▁roosevelt	-11.3636
▁rumour	-11.3636
▁sarcophagus	-11.3636
▁schmuck	-11.3636
▁selenium	-11.3636
▁selvig	-11.3636
▁semester	-11.3636
▁sequel	-11.3636
▁servant	-11.3636
▁shankland	-11.3636
▁snoop	-11.3636
▁solemn	-11.3636
▁stanford	-11.3636
▁struggling	-11.3636
▁substance	-11.3636
▁sunglasses	-11.3636
▁superhero	-11.3636
▁surprising	-11.3636
▁swept	-11.3636
▁tennessee	-11.3636
▁tivan	-11.3636
▁triumph	-11.3636
▁tulip	-11.3636
▁tupac	-11.3636
▁unnecessary	-11.3636
▁unprecedented	-11.3636
▁urinating	-11.3636
▁vacuum	-11.3636
▁vandaag	-11.3636
▁villain	-11.3636
▁vriend	-11.3636
▁vroeg	-11.3636
▁wardrobe	-11.3636
▁wheelchair	-11.3636
▁womb	-11.3636
▁zurich	-11.3636
franchise	-11.3636
▁alumn	-11.3636
▁charging	-11.3636
▁chastity	-11.3636
▁comfy	-11.3636
▁copeland	-11.3636
▁creek	-11.3636
▁examination	-11.3636
▁genoeg	-11.3636
▁imminent	-11.3636
▁nfl	-11.3636
▁noisy	-11.3636
▁railroad	-11.3636
▁reckless	-11.3636
▁serving	-11.3636
▁spassky	-11.3636
▁stabbed	-11.3636
▁tierra	-11.3636
▁unworthy	-11.3636
▁woude	-11.3636
▁adapt	-11.3636
▁cairo	-11.3636
▁gospel	-11.3636
▁heathen	-11.3636
▁scoffing	-11.3636
▁amusing	-11.3636
▁chef	-11.3636
▁constable	-11.3636
▁edison	-11.3636
▁oui	-11.3636
▁purga	-11.3636
▁steak	-11.3636
▁tanya	-11.3636
▁tumor	-11.3636
▁yacht	-11.3636
▁serpent	-11.3636
▁slurp	-11.3636
▁ahmm	-11.3636
▁chiming	-11.3636
▁kuwait	-11.3636
▁lovin	-11.3636
▁session	-11.3636
▁sixteen	-11.3636
▁unstable	-11.3636
▁activity	-11.3636
▁reece	-11.3636
▁strive	-11.3636
▁swindle	-11.3636
▁worn	-11.3636
▁guidelines	-11.3636
▁insert	-11.3636
▁kremlin	-11.3636
▁bouquet	-11.3636
▁eulogy	-11.3636
▁francesca	-11.3636
▁sync	-11.3636
▁teabing	-11.3636
▁vacant	-11.3636
▁alaska	-11.3636
▁flares	-11.3636
▁jolly	-11.3636
▁durin	-11.3636
▁revolve	-11.3636
▁exgirlfriend	-11.3636
▁escalat	-11.3636
▁lvan	-11.3636
▁manuel	-11.3636
▁grandchildren	-11.3636
▁colony	-11.3636
▁concept	-11.3636
▁vent	-11.3636
▁engaging	-11.3636
▁sermon	-11.3636
▁annual	-11.3636
▁facilities	-11.3636
▁puzzle	-11.3636
▁bootstrap	-11.3636
▁offcourse	-11.3636
▁registration	-11.3636
▁compound	-11.3636
▁inventory	-11.3636
▁extract	-11.3636
▁wormhole	-11.3636
▁koi	-11.3636
▁outrun	-11.3636
▁phillip	-11.3636
▁scrub	-11.3636
▁esme	-11.3636
▁internship	-11.3636
▁valerious	-11.3636
▁cocktail	-11.3636
▁grudge	-11.3636
▁nanites	-11.3636
▁youyou	-11.3636
▁ambition	-11.3636
▁thorough	-11.3636
▁cryptex	-11.3636
▁appreciation	-11.3636
▁irritat	-11.3636
▁broadway	-11.3636
▁decoy	-11.3636
▁bleat	-11.3636
▁baggage	-11.3636
▁hamster	-11.3636
▁uplink	-11.3636
▁overflow	-11.3636
▁analysis	-11.3636
▁titanium	-11.3636
▁jelly	-11.3636
▁josie	-11.3636
▁sorority	-11.3636
▁civilization	-11.3636
▁outbreak	-11.3636
▁patron	-11.3636
▁stiff	-11.3637
▁cartoon	-11.3637
▁covenant	-11.3637
▁decay	-11.3637
▁flapping	-11.3637
▁bodyguarddog	-11.3637
▁dreadful	-11.3637
▁holler	-11.3637
▁investigating	-11.3637
▁bonnie	-11.3637
▁dummy	-11.3637
▁elector	-11.3637
▁exwife	-11.3637
▁collet	-11.3637
▁loft	-11.3637
▁terrifying	-11.3637
▁dedication	-11.3637
▁glue	-11.3637
▁upload	-11.3637
▁grind	-11.3637
▁granddad	-11.3637
▁pervert	-11.3637
▁polland	-11.3637
▁flea	-11.3637
▁starlord	-11.3637
▁gorman	-11.3637
▁congress	-11.3637
▁interven	-11.3637
▁waving	-11.3637
▁rico	-11.3637
▁devot	-11.3637
▁swap	-11.3637
▁reordan	-11.3637
▁babysitter	-11.3637
▁ravenna	-11.3637
▁contrary	-11.3637
▁politician	-11.3637
▁harsh	-11.3637
▁huddl	-11.3637
▁ouch	-11.3638
▁dizz	-11.3638
▁hiya	-11.3638
▁energies	-11.3638
▁distribut	-11.3638
▁marvelous	-11.3638
▁courtney	-11.3638
▁psychotic	-11.3638
▁turf	-11.3638
▁sunrise	-11.3638
▁subtle	-11.3638
▁leadership	-11.3638
▁armour	-11.3638
▁oog	-11.3638
▁kelt	-11.3638
▁faia	-11.3638
▁dodgson	-11.3638
▁whiskey	-11.3638
▁rising	-11.3638
▁homicide	-11.3638
▁nazis	-11.3638
strial	-11.3638
zoek	-11.3638
▁mainland	-11.3639
▁kikk	-11.3639
▁litter	-11.3639
▁pike	-11.3639
▁sympathy	-11.3639
▁klau	-11.3639
▁pinned	-11.3639
▁compass	-11.3639
▁sasha	-11.3639
▁shortcut	-11.3639
▁archies	-11.3639
▁potter	-11.3639
▁shack	-11.3639
▁slack	-11.3639
▁haircut	-11.3639
▁contra	-11.3639
▁noem	-11.3639
▁sniffles	-11.364
▁compassion	-11.364
▁panties	-11.364
▁teddy	-11.364
▁craz	-11.364
▁rash	-11.364
▁draka	-11.364
▁marines	-11.364
▁moonlight	-11.364
▁fever	-11.364
zero	-11.364
▁breakthrough	-11.364
▁gelu	-11.364
▁twig	-11.364
▁checkpoint	-11.364
▁cellula	-11.364
▁grimes	-11.364
▁sunny	-11.364
▁barbie	-11.364
▁heather	-11.364
▁amuse	-11.364
▁alliance	-11.364
▁alternat	-11.364
▁syrup	-11.364
▁motive	-11.364
▁rejection	-11.364
▁knowledge	-11.364
▁amber	-11.364
▁espn	-11.364
▁courtesy	-11.364
▁programming	-11.364
▁cattle	-11.3641
▁huff	-11.3641
▁snot	-11.3641
▁copper	-11.3641
▁feedback	-11.3641
▁geld	-11.3641
▁ratings	-11.3641
▁winehouse	-11.3641
▁erase	-11.3641
▁extinction	-11.3641
▁wax	-11.3641
diac	-11.3641
▁waist	-11.3641
▁leah	-11.3641
▁unfold	-11.3642
▁whup	-11.3642
polis	-11.3642
▁approximately	-11.3642
▁ciara	-11.3642
▁belongings	-11.3642
▁messina	-11.3642
▁greedy	-11.3642
▁strategy	-11.3642
clover	-11.3642
▁blaze	-11.3642
▁fax	-11.3642
▁regardless	-11.3642
▁rally	-11.3642
▁zit	-11.3642
wear	-11.3643
▁stevenson	-11.3643
▁shrieking	-11.3643
▁grove	-11.3643
▁hence	-11.3643
▁hoop	-11.3643
▁lionel	-11.3644
▁reese	-11.3644
▁diary	-11.3644
▁bandage	-11.3644
▁dune	-11.3644
▁troon	-11.3644
▁makin	-11.3644
▁kira	-11.3644
▁slick	-11.3645
▁vivian	-11.3645
▁restraint	-11.3645
▁paw	-11.3645
▁fitting	-11.3645
▁saul	-11.3645
▁fig	-11.3645
▁marco	-11.3646
▁larson	-11.3646
▁apri	-11.3646
▁render	-11.3646
▁coke	-11.3646
▁dings	-11.3646
▁recipe	-11.3646
▁frontier	-11.3647
▁surfng	-11.3647
▁dictate	-11.3647
ancho	-11.3647
▁episode	-11.3647
▁barber	-11.3647
▁bunker	-11.3647
▁reem	-11.3647
lasses	-11.3647
eze	-11.3648
▁proton	-11.3648
▁lust	-11.3648
▁tread	-11.3648
cher	-11.3649
▁shattered	-11.3649
▁exile	-11.365
eggy	-11.365
▁fowler	-11.365
▁lifestyle	-11.365
▁korean	-11.365
▁nsa	-11.365
▁vicky	-11.3651
▁stung	-11.3651
▁passage	-11.3651
▁dunk	-11.3651
▁asgardian	-11.3651
▁fade	-11.3651
▁frigga	-11.3652
coin	-11.3652
▁pose	-11.3652
▁brightest	-11.3652
▁trim	-11.3652
cup	-11.3653
▁adjust	-11.3653
▁supportive	-11.3653
▁betrayal	-11.3653
▁exclusively	-11.3653
▁willen	-11.3653
▁radical	-11.3653
speed	-11.3654
▁playboy	-11.3654
▁compelling	-11.3654
▁snorting	-11.3654
▁hinge	-11.3654
▁fitch	-11.3654
▁cruiser	-11.3654
▁antique	-11.3654
▁warmth	-11.3655
▁eerste	-11.3655
▁crest	-11.3655
▁colo	-11.3655
▁wager	-11.3656
▁accidentally	-11.3656
quisition	-11.3656
▁crippled	-11.3657
▁doggy	-11.3657
▁whipped	-11.3657
▁examiner	-11.3658
▁halen	-11.3658
▁felon	-11.3659
▁waylon	-11.3659
▁copies	-11.3659
▁keen	-11.366
▁plumber	-11.366
▁itit	-11.366
▁controlling	-11.366
▁inner	-11.3661
▁hose	-11.3661
▁unger	-11.3662
▁ober	-11.3663
▁fried	-11.3663
▁yah	-11.3663
▁peel	-11.3666
▁personality	-11.3666
▁accomplished	-11.3666
▁encourage	-11.3667
▁initiated	-11.3667
▁gambling	-11.3667
▁examined	-11.3669
▁porn	-11.3669
▁cafe	-11.367
▁related	-11.367
▁whale	-11.367
▁installed	-11.367
▁vanished	-11.367
▁jury	-11.3671
▁starry	-11.3671
▁rifle	-11.3671
▁farts	-11.3671
▁choo	-11.3672
▁losses	-11.3673
▁jingl	-11.3673
▁shallow	-11.3674
▁onion	-11.3674
▁doomed	-11.3675
▁haunted	-11.3675
▁inhaler	-11.3676
xon	-11.3676
▁recovery	-11.3676
▁zien	-11.3676
▁oni	-11.3677
▁guin	-11.3677
▁linger	-11.3678
▁howling	-11.3679
▁cloned	-11.3681
▁operational	-11.3682
▁spat	-11.3683
▁vet	-11.3683
ager	-11.3683
▁meid	-11.3684
▁inherited	-11.3684
▁rejected	-11.3684
gio	-11.3686
▁privileged	-11.3687
▁showtime	-11.3689
▁thine	-11.3689
▁helena	-11.3689
▁snag	-11.3689
▁esc	-11.369
▁published	-11.3693
▁backyard	-11.3694
▁daw	-11.3694
▁hooker	-11.3695
▁murders	-11.3697
▁pac	-11.3698
▁dar	-11.3698
▁homeland	-11.37
▁pinch	-11.37
▁sni	-11.37
ereen	-11.3701
▁acceptable	-11.3701
▁determine	-11.3702
▁jin	-11.3703
▁buyers	-11.3703
▁collapsed	-11.3704
▁dale	-11.3706
▁sharply	-11.3707
▁breached	-11.371
▁mustard	-11.371
▁pouring	-11.3714
▁departing	-11.3714
▁ribs	-11.3715
▁horrors	-11.3715
▁premises	-11.3715
▁drowned	-11.3718
▁defeated	-11.3719
▁spine	-11.3719
▁poisoned	-11.3719
▁shocked	-11.3721
▁scaring	-11.3721
▁topic	-11.3722
▁matty	-11.3725
▁cel	-11.3725
▁stepped	-11.3726
▁disturbing	-11.3726
▁deployed	-11.3728
▁lime	-11.3728
▁ford	-11.3728
▁youngest	-11.3729
▁separated	-11.3729
▁fled	-11.3733
compens	-11.3733
▁balanced	-11.3734
▁sincere	-11.3734
▁guaranteed	-11.3735
▁slaughtered	-11.3736
▁grabbing	-11.3737
▁ignored	-11.374
▁ole	-11.374
▁powering	-11.3743
▁herd	-11.3743
▁pad	-11.3744
▁cay	-11.3745
▁tang	-11.3749
▁kindness	-11.3751
▁shocking	-11.3753
▁fireman	-11.3755
▁cot	-11.3756
▁leid	-11.3757
▁readers	-11.3759
▁entit	-11.376
▁beaten	-11.3763
▁teachers	-11.3764
▁ancestors	-11.3767
▁crickets	-11.3767
▁drones	-11.3767
▁manley	-11.3767
▁privately	-11.3769
▁snores	-11.377
▁offender	-11.377
▁revel	-11.377
▁risky	-11.3771
▁triggered	-11.3771
▁cape	-11.3775
▁menu	-11.3776
▁meen	-11.3777
▁sor	-11.3778
▁expos	-11.3779
▁waive	-11.3781
▁washing	-11.3786
maal	-11.3786
▁sneaking	-11.3786
▁sweating	-11.3786
▁heater	-11.3788
potent	-11.3788
▁dialing	-11.3789
▁attempted	-11.3789
culture	-11.3789
▁sid	-11.3791
▁introduced	-11.3801
▁defended	-11.3808
▁gogh	-11.3808
▁urg	-11.3812
▁bowling	-11.3813
▁reli	-11.3814
vy	-11.3814
▁presently	-11.3816
▁eyebrows	-11.3819
rete	-11.382
▁bub	-11.383
▁intended	-11.3833
▁entered	-11.3839
▁thankful	-11.3848
▁frie	-11.3848
▁pul	-11.3848
▁chap	-11.3856
▁weirdo	-11.3857
▁bothered	-11.3866
▁worden	-11.3867
▁just	-11.3868
rian	-11.387
▁ofh	-11.387
▁templars	-11.3872
▁yankees	-11.3872
esa	-11.3873
▁particles	-11.3875
▁imaging	-11.388
▁lid	-11.3881
▁respectful	-11.3887
▁flipp	-11.3891
told	-11.3894
eb	-11.3895
▁cured	-11.3898
gram	-11.3903
▁nicks	-11.3904
▁cracking	-11.3907
▁bare	-11.3917
▁rig	-11.3922
▁homeless	-11.3922
▁enlighten	-11.3924
▁convicts	-11.3925
▁signatures	-11.3925
▁generators	-11.3926
daan	-11.3926
▁unity	-11.3938
▁wage	-11.3948
▁bothering	-11.3953
▁beck	-11.3957
▁musical	-11.3957
orge	-11.396
▁launchy	-11.3965
▁vel	-11.3966
▁aha	-11.3968
▁completed	-11.3969
▁capabilit	-11.3969
▁stevens	-11.3974
▁functions	-11.3979
▁articles	-11.3979
▁div	-11.398
▁maniacal	-11.3985
▁stillman	-11.3986
▁roses	-11.399
▁mayan	-11.3995
▁packed	-11.3995
▁duel	-11.3996
shaw	-11.4
▁filming	-11.4003
▁keepers	-11.4007
▁bore	-11.4012
▁sucking	-11.4016
▁rank	-11.4016
▁decades	-11.4031
▁slips	-11.4032
dium	-11.4037
▁swinging	-11.4045
▁blain	-11.4045
▁pressed	-11.4047
▁zwarte	-11.4052
▁dealt	-11.4057
▁dancers	-11.4057
▁surfing	-11.406
▁inf	-11.4075
▁scanners	-11.4087
zed	-11.4089
▁admir	-11.4093
▁disgrace	-11.4095
▁prejudice	-11.4095
▁coded	-11.4096
▁peas	-11.41
▁cor	-11.4106
▁rotat	-11.4108
ically	-11.4112
gd	-11.4115
▁reek	-11.4116
▁movements	-11.4119
▁waiters	-11.4138
▁documents	-11.4141
▁outfits	-11.4141
rise	-11.4145
herei	-11.4152
▁seated	-11.4163
▁religio	-11.417
cia	-11.4181
▁hy	-11.4184
altitude	-11.4192
prop	-11.4192
▁patrols	-11.4192
▁wounds	-11.4196
▁roots	-11.4196
▁strings	-11.4196
▁emails	-11.4198
ease	-11.4212
▁hats	-11.4221
▁bora	-11.4231
▁fooled	-11.4235
▁industri	-11.4244
chten	-11.4246
say	-11.4248
▁blocking	-11.425
▁depend	-11.4278
▁equi	-11.4279
ector	-11.4287
urban	-11.4299
▁represents	-11.4306
▁oud	-11.4328
▁cuban	-11.4334
▁farmers	-11.4334
▁mob	-11.434
▁creat	-11.4344
thing	-11.435
▁ach	-11.4351
▁rustl	-11.4358
▁occasional	-11.4361
ilia	-11.4361
▁cows	-11.4369
sustainable	-11.4375
▁coco	-11.4398
ppa	-11.4403
▁touchdowns	-11.4417
▁dressing	-11.4419
▁grounded	-11.442
▁tha	-11.4424
▁painter	-11.4425
▁seri	-11.4426
▁honored	-11.4439
▁destroying	-11.4444
▁murderers	-11.4449
▁limits	-11.4451
read	-11.4471
▁counted	-11.4473
▁adds	-11.4473
▁equals	-11.4474
▁channels	-11.4474
▁giants	-11.4474
ase	-11.4476
▁experiments	-11.4477
▁fre	-11.4482
jes	-11.4486
are	-11.4495
▁overhea	-11.4498
ique	-11.4507
▁mouthing	-11.4513
rat	-11.4523
▁banking	-11.4524
ways	-11.4526
▁visions	-11.453
▁greeks	-11.4531
dding	-11.4542
▁tic	-11.4553
▁vas	-11.4556
ijn	-11.4566
lant	-11.4568
▁fighters	-11.4572
uga	-11.4586
▁seasons	-11.4587
ullen	-11.4589
▁hooks	-11.4592
hor	-11.4596
gate	-11.4604
▁gill	-11.4626
▁tan	-11.4636
▁hadd	-11.4639
▁increases	-11.4645
▁rockets	-11.4645
▁fram	-11.4691
▁goals	-11.4692
▁fellows	-11.4702
▁tigers	-11.4702
▁blades	-11.4702
▁spits	-11.4704
sail	-11.4705
aker	-11.4707
uld	-11.4708
zo	-11.4712
▁pages	-11.4721
itte	-11.4744
▁lined	-11.4748
▁babes	-11.4759
teria	-11.4759
▁swords	-11.476
▁gewe	-11.4769
but	-11.477
lance	-11.4793
eel	-11.4799
▁bene	-11.4803
timate	-11.4803
▁ducks	-11.4818
▁disappears	-11.483
▁jar	-11.483
ail	-11.4845
▁signing	-11.4846
▁cracks	-11.485
▁monkeys	-11.4877
▁chairs	-11.4877
▁enters	-11.4891
▁dispose	-11.4891
▁dominat	-11.4909
aid	-11.4916
chy	-11.4941
lau	-11.4961
▁continu	-11.4975
▁converge	-11.499
▁eradicate	-11.4994
▁discharge	-11.4997
▁sundays	-11.4997
▁nations	-11.4999
ound	-11.5002
fully	-11.5013
▁faced	-11.5024
love	-11.5026
▁eu	-11.5036
▁shhh	-11.5043
▁begon	-11.5052
▁pies	-11.5055
▁spells	-11.5055
ading	-11.5059
▁settl	-11.5062
▁kans	-11.5067
ference	-11.5078
▁conti	-11.5086
ando	-11.5088
ush	-11.5092
▁gru	-11.5095
gger	-11.5096
▁grip	-11.5111
iate	-11.5115
alia	-11.5115
▁shirts	-11.5115
▁contracts	-11.5118
▁biz	-11.512
▁cho	-11.5122
moeten	-11.5125
pre	-11.5127
▁wished	-11.5141
nsen	-11.5143
ux	-11.5146
▁macki	-11.5155
▁ied	-11.5162
▁diseases	-11.5176
▁dank	-11.5178
▁managers	-11.5179
shire	-11.5191
ifa	-11.5205
hard	-11.5218
▁apologiz	-11.5223
▁sustain	-11.5224
ians	-11.5227
net	-11.5243
▁ut	-11.5257
ona	-11.5267
▁poet	-11.527
nte	-11.5329
wel	-11.5337
fol	-11.5359
▁friggin	-11.5365
▁establish	-11.5385
▁philip	-11.5422
cker	-11.5455
▁ties	-11.5462
changing	-11.5471
▁hips	-11.5477
▁zul	-11.5485
▁rena	-11.549
ello	-11.5502
terre	-11.5539
▁nurs	-11.5544
▁cit	-11.5556
lunk	-11.5559
▁doubl	-11.5572
▁heroic	-11.5575
car	-11.558
tham	-11.5654
try	-11.5664
logical	-11.5672
▁calculat	-11.5687
wart	-11.5689
inch	-11.5694
aria	-11.5699
ole	-11.5726
▁pam	-11.5739
ition	-11.5746
▁irre	-11.5759
nks	-11.5786
▁evolution	-11.5795
posing	-11.5799
▁prohibit	-11.5812
ook	-11.582
tub	-11.5838
▁wig	-11.584
sky	-11.5862
▁provo	-11.5864
gling	-11.5871
troy	-11.5891
▁cheerleader	-11.5899
▁carrie	-11.5901
▁eyebrow	-11.5905
▁investment	-11.5905
▁seizure	-11.5909
▁procedure	-11.5912
▁arrow	-11.5913
▁urge	-11.5913
▁organism	-11.5914
▁tourist	-11.5914
▁fuego	-11.5917
▁whistle	-11.5918
▁fork	-11.5922
▁archive	-11.5923
▁glove	-11.5925
more	-11.594
▁gut	-11.5941
▁nuke	-11.5942
▁geno	-11.5945
bil	-11.5948
▁wal	-11.5956
oise	-11.5957
▁strap	-11.5962
▁remark	-11.5963
▁robotic	-11.5972
▁neuro	-11.5999
▁lung	-11.6
▁blond	-11.6001
cel	-11.6007
▁cycl	-11.6017
ouder	-11.603
▁mak	-11.603
▁distract	-11.6039
mbo	-11.6042
▁cod	-11.6049
▁neutral	-11.6052
▁frighten	-11.6053
▁poo	-11.6055
ency	-11.6056
▁rac	-11.6056
▁vanish	-11.6058
ward	-11.6063
cola	-11.6064
▁plac	-11.6078
▁expand	-11.6078
▁stamp	-11.6081
plane	-11.6081
▁complet	-11.6082
style	-11.6085
▁echo	-11.6086
izer	-11.6087
▁hawk	-11.6088
jack	-11.6092
▁jilt	-11.6094
▁plaster	-11.6094
▁exhaust	-11.6095
through	-11.6095
▁fulfill	-11.6096
▁attract	-11.6096
▁accomplish	-11.6097
caution	-11.6097
kerry	-11.6097
▁critic	-11.6098
▁wail	-11.6099
knit	-11.6099
produc	-11.6099
iemand	-11.61
limits	-11.61
▁flaw	-11.61
treat	-11.6101
point	-11.6101
wide	-11.6102
mobile	-11.6102
written	-11.6103
lon	-11.6103
thug	-11.6103
thisby	-11.6103
aaah	-11.6105
clip	-11.6105
yearold	-11.6106
vader	-11.6106
▁discipline	-11.6107
▁resolve	-11.6107
block	-11.6107
▁evolve	-11.6108
▁relieve	-11.6108
▁cripple	-11.6109
eech	-11.6109
watch	-11.6109
▁abuse	-11.6109
tag	-11.611
▁layer	-11.6111
count	-11.6112
kiss	-11.6112
addie	-11.6113
▁describe	-11.6114
▁capture	-11.6114
party	-11.6114
vp	-11.6115
▁hijack	-11.6116
▁energ	-11.6117
▁temporar	-11.6118
▁precise	-11.612
▁transmitt	-11.612
▁zij	-11.612
▁apparent	-11.612
path	-11.612
▁hamburg	-11.6121
acy	-11.6122
zoon	-11.6122
▁fortunate	-11.6122
▁marc	-11.6124
▁froze	-11.6124
▁tempe	-11.6125
ban	-11.6125
▁cosmo	-11.6125
▁vick	-11.6126
▁brow	-11.6127
▁negro	-11.6127
▁preside	-11.6127
lson	-11.6128
▁govern	-11.6129
drum	-11.613
▁bal	-11.6131
kom	-11.6131
▁afrika	-11.6131
▁corrupt	-11.6132
▁bam	-11.6132
▁trage	-11.6132
▁howl	-11.6132
page	-11.6132
▁thrust	-11.6132
▁movin	-11.6132
▁fright	-11.6133
▁sittin	-11.6133
magine	-11.6133
unning	-11.6133
▁august	-11.6133
▁scandal	-11.6134
▁marvel	-11.6134
▁expose	-11.6134
▁practi	-11.6134
▁guld	-11.6135
▁empti	-11.6135
▁differ	-11.6135
▁liqu	-11.6135
▁squaw	-11.6135
▁compartment	-11.6136
▁allegian	-11.6136
▁imprison	-11.6136
▁astrophysic	-11.6136
▁theseus	-11.6136
ceivable	-11.6136
ezvous	-11.6136
sacrificing	-11.6136
▁achieve	-11.6136
▁ambush	-11.6136
▁amigo	-11.6136
▁annihilation	-11.6136
▁anxiety	-11.6136
▁apologise	-11.6136
▁apparel	-11.6136
▁aqua	-11.6136
▁arguing	-11.6136
▁armstrong	-11.6136
▁artillery	-11.6136
▁ashore	-11.6136
▁aspect	-11.6136
▁astonishing	-11.6136
▁attachment	-11.6136
▁attribute	-11.6136
▁bathsheba	-11.6136
▁beechwood	-11.6136
▁betekent	-11.6136
▁blijven	-11.6136
▁blitz	-11.6136
▁bounty	-11.6136
▁brothel	-11.6136
▁burroughs	-11.6136
▁buzzkill	-11.6136
▁bypass	-11.6136
▁calendar	-11.6136
▁caucasian	-11.6136
▁chemistry	-11.6136
▁chittering	-11.6136
▁clandestine	-11.6136
▁clatters	-11.6136
▁comprehend	-11.6136
▁congruent	-11.6136
▁conrade	-11.6136
▁convincing	-11.6136
▁corridor	-11.6136
▁crawdad	-11.6136
▁crawfish	-11.6136
▁credential	-11.6136
▁cucina	-11.6136
▁cyber	-11.6136
▁czech	-11.6136
▁declined	-11.6136
▁definitive	-11.6136
▁delgado	-11.6136
▁devastate	-11.6136
▁diptet	-11.6136
▁disobedien	-11.6136
▁disorder	-11.6136
▁dispute	-11.6136
▁dissolve	-11.6136
▁doilies	-11.6136
▁dongdongdong	-11.6136
▁dwarvish	-11.6136
▁egeus	-11.6136
▁electromagnet	-11.6136
▁emerald	-11.6136
▁enrique	-11.6136
▁enslave	-11.6136
▁evolving	-11.6136
▁exhusband	-11.6136
▁expired	-11.6136
▁exploding	-11.6136
▁facial	-11.6136
▁february	-11.6136
▁ferrari	-11.6136
▁flavaflav	-11.6136
▁frenzy	-11.6136
▁galaxies	-11.6136
▁gebeur	-11.6136
▁gebruik	-11.6136
▁gedroomd	-11.6136
▁gehoord	-11.6136
▁generosity	-11.6136
▁ghetto	-11.6136
▁glitch	-11.6136
▁gloat	-11.6136
▁gokarts	-11.6136
▁gretel	-11.6136
▁grocery	-11.6136
▁grushkov	-11.6136
▁hancock	-11.6136
▁heimdall	-11.6136
▁highpitch	-11.6136
▁historian	-11.6136
▁holbrook	-11.6136
▁houseguests	-11.6136
▁inconvenient	-11.6136
▁incorrect	-11.6136
▁independence	-11.6136
▁indestructible	-11.6136
▁infinities	-11.6136
▁institution	-11.6136
▁instructed	-11.6136
▁intensifie	-11.6136
▁interfere	-11.6136
▁invoke	-11.6136
▁isolate	-11.6136
▁jeremy	-11.6136
▁kaufman	-11.6136
▁laboratory	-11.6136
▁lassiter	-11.6136
▁leisure	-11.6136
▁leukemia	-11.6136
▁lnteresting	-11.6136
▁lobster	-11.6136
▁majesteit	-11.6136
▁malibu	-11.6136
▁maserati	-11.6136
▁mathematician	-11.6136
▁mcdonalds	-11.6136
▁mclntyre	-11.6136
▁mcloughlin	-11.6136
▁mcqueen	-11.6136
▁michelangelo	-11.6136
▁milinov	-11.6136
▁moneypenny	-11.6136
▁moriarty	-11.6136
▁mortuary	-11.6136
▁mystique	-11.6136
▁nachttrein	-11.6136
▁napoleon	-11.6136
▁nexdoria	-11.6136
▁november	-11.6136
▁obituary	-11.6136
▁offspring	-11.6136
▁oldfashioned	-11.6136
▁opponent	-11.6136
▁ordinance	-11.6136
▁parrot	-11.6136
▁password	-11.6136
▁pedestrian	-11.6136
▁petroleum	-11.6136
▁physician	-11.6136
▁policies	-11.6136
▁prachtig	-11.6136
▁prague	-11.6136
▁principle	-11.6136
▁propulsion	-11.6136
▁quarantine	-11.6136
▁rafael	-11.6136
▁receiving	-11.6136
▁reception	-11.6136
▁reconsider	-11.6136
▁redirect	-11.6136
▁regulate	-11.6136
▁relentless	-11.6136
▁resurrect	-11.6136
▁revoir	-11.6136
▁rigorous	-11.6136
▁rosario	-11.6136
▁salamander	-11.6136
▁sassmouthing	-11.6136
▁scissors	-11.6136
▁september	-11.6136
▁shepherd	-11.6136
▁shrewd	-11.6136
▁smaug	-11.6136
▁snitch	-11.6136
▁snoutfever	-11.6136
▁somewhat	-11.6136
▁sonofabitch	-11.6136
▁souvenir	-11.6136
▁splendid	-11.6136
▁sponge	-11.6136
▁sprung	-11.6136
▁storyteller	-11.6136
▁strumming	-11.6136
▁subversive	-11.6136
▁sufficient	-11.6136
▁suicidal	-11.6136
▁supertrain	-11.6136
▁suspicion	-11.6136
▁swedish	-11.6136
▁syndrome	-11.6136
▁technician	-11.6136
▁theoretically	-11.6136
▁thirteen	-11.6136
▁toekomst	-11.6136
▁toothbrush	-11.6136
▁tortoise	-11.6136
▁trevor	-11.6136
▁tsunami	-11.6136
▁umbrella	-11.6136
▁unanswered	-11.6136
▁undeniable	-11.6136
▁unpack	-11.6136
▁vengeance	-11.6136
▁villalobos	-11.6136
▁vreugde	-11.6136
▁wakita	-11.6136
▁warfare	-11.6136
▁website	-11.6136
▁welfare	-11.6136
▁zafrina	-11.6136
cryption	-11.6136
▁caddy	-11.6136
▁carriage	-11.6136
▁constance	-11.6136
▁detroit	-11.6136
▁dexter	-11.6136
▁diagnostics	-11.6136
▁disagree	-11.6136
▁doomsday	-11.6136
▁erotic	-11.6136
▁essence	-11.6136
▁fiesta	-11.6136
▁greeting	-11.6136
▁kensington	-11.6136
▁leuk	-11.6136
▁lillian	-11.6136
▁outcome	-11.6136
▁praat	-11.6136
▁purchase	-11.6136
▁quarrel	-11.6136
▁rebellion	-11.6136
▁reenact	-11.6136
▁refract	-11.6136
▁rubber	-11.6136
▁rumble	-11.6136
▁smuggle	-11.6136
▁sovereign	-11.6136
▁spenser	-11.6136
▁theatre	-11.6136
▁thuis	-11.6136
▁voyage	-11.6136
▁waffles	-11.6136
▁wassen	-11.6136
▁zorkin	-11.6136
snorharen	-11.6136
▁anduin	-11.6136
▁applied	-11.6136
▁beltzer	-11.6136
▁cherry	-11.6136
▁crashlanded	-11.6136
▁grotesque	-11.6136
▁leash	-11.6136
▁lydie	-11.6136
▁meddle	-11.6136
▁nieuw	-11.6136
▁practicing	-11.6136
▁preferiti	-11.6136
▁sierra	-11.6136
▁simeon	-11.6136
▁slippers	-11.6136
▁stranded	-11.6136
▁threepio	-11.6136
▁twitch	-11.6136
acci	-11.6136
▁ragged	-11.6136
▁checkmate	-11.6136
▁forcing	-11.6136
▁hysterical	-11.6136
▁income	-11.6136
▁swimsuit	-11.6136
▁uncovered	-11.6136
▁warchief	-11.6136
ajun	-11.6136
▁attic	-11.6136
▁endanger	-11.6136
▁flirt	-11.6136
▁gezin	-11.6136
▁items	-11.6136
▁seventeen	-11.6136
iterate	-11.6136
▁backpack	-11.6136
▁camilla	-11.6136
▁canvas	-11.6136
▁confine	-11.6136
▁jaylah	-11.6136
▁microscop	-11.6136
▁tugboat	-11.6136
▁cavern	-11.6136
▁handicap	-11.6136
▁oldtimer	-11.6136
▁pavement	-11.6136
▁straining	-11.6136
▁consummat	-11.6136
▁gracie	-11.6136
▁carcass	-11.6136
▁cpr	-11.6136
▁dissect	-11.6136
▁drafted	-11.6136
▁gascon	-11.6136
▁motherfuck	-11.6136
▁saddle	-11.6136
▁seduce	-11.6136
▁barbershop	-11.6136
▁bundle	-11.6136
▁grozny	-11.6136
▁rivington	-11.6136
▁alec	-11.6136
▁aerosmith	-11.6136
▁gesture	-11.6136
▁repuls	-11.6136
▁heilig	-11.6136
▁plutonium	-11.6136
▁deenz	-11.6136
▁emerson	-11.6136
▁ignorant	-11.6136
▁shylock	-11.6136
▁specs	-11.6136
▁afterlife	-11.6136
▁cafeteria	-11.6136
▁squadron	-11.6136
▁vapor	-11.6136
▁unhappy	-11.6136
▁narrow	-11.6136
▁opportunities	-11.6136
▁balloons	-11.6136
▁lhc	-11.6136
▁putnam	-11.6136
▁modification	-11.6136
▁tuition	-11.6136
▁acquaintance	-11.6136
▁danvers	-11.6136
▁tinkl	-11.6136
refund	-11.6136
▁blouse	-11.6136
▁crust	-11.6136
▁muller	-11.6136
▁swift	-11.6136
▁robbin	-11.6136
▁brook	-11.6136
▁sulph	-11.6136
▁oates	-11.6136
▁olsen	-11.6136
▁allfather	-11.6136
▁unharmed	-11.6136
▁verenig	-11.6136
▁defy	-11.6136
▁wrath	-11.6136
▁cologne	-11.6136
▁concentration	-11.6136
▁horizontal	-11.6136
▁belied	-11.6136
▁adversary	-11.6136
▁syllabus	-11.6136
▁donating	-11.6136
▁incapable	-11.6136
▁zocht	-11.6136
▁conform	-11.6136
▁dunham	-11.6136
▁lgor	-11.6136
▁oxford	-11.6136
▁recharge	-11.6136
▁scoop	-11.6136
▁parole	-11.6136
bereid	-11.6136
▁championship	-11.6136
▁alibi	-11.6136
▁mineral	-11.6136
▁exploration	-11.6136
▁regiment	-11.6137
▁dialogue	-11.6137
▁groping	-11.6137
▁troubling	-11.6137
▁cocaine	-11.6137
▁subterranean	-11.6137
▁icon	-11.6137
▁maggot	-11.6137
▁valid	-11.6137
▁freight	-11.6137
▁dunno	-11.6137
▁loneliness	-11.6137
▁unseen	-11.6137
▁notify	-11.6137
▁bathtub	-11.6137
▁gezien	-11.6137
▁gallery	-11.6137
▁untouch	-11.6137
▁vocal	-11.6137
▁diagnosis	-11.6137
▁medford	-11.6137
▁baggia	-11.6137
▁llane	-11.6137
▁seks	-11.6137
▁kwam	-11.6137
▁obsessive	-11.6137
▁quiver	-11.6137
▁circulat	-11.6137
▁brandnew	-11.6137
▁baldwin	-11.6137
▁expectations	-11.6137
▁pryde	-11.6137
▁vernet	-11.6137
▁nobel	-11.6137
▁slipping	-11.6137
▁summar	-11.6137
▁anonymous	-11.6137
▁ceo	-11.6137
▁dramatic	-11.6137
▁infestation	-11.6137
▁accusation	-11.6137
▁leftovers	-11.6137
▁riley	-11.6137
▁peasant	-11.6137
▁rump	-11.6137
▁frig	-11.6137
▁headlines	-11.6137
▁petition	-11.6137
▁prado	-11.6137
▁feeble	-11.6137
▁rooftop	-11.6137
▁simpson	-11.6137
▁keenser	-11.6137
▁wewe	-11.6137
▁employment	-11.6137
▁anxious	-11.6137
▁faking	-11.6137
▁antonio	-11.6137
▁meow	-11.6137
▁patsy	-11.6137
▁timetable	-11.6137
▁beverage	-11.6137
▁geneva	-11.6138
▁cellphone	-11.6138
▁burial	-11.6138
▁raige	-11.6138
▁kunt	-11.6138
▁consciousness	-11.6138
▁pantry	-11.6138
▁skipping	-11.6138
▁theater	-11.6138
▁avenue	-11.6138
▁norway	-11.6138
▁afoot	-11.6138
▁singularity	-11.6138
muffin	-11.6138
▁brew	-11.6138
▁romanoff	-11.6138
▁syd	-11.6138
▁zitten	-11.6138
avond	-11.6138
▁stepfather	-11.6138
▁zamundaans	-11.6138
▁birthright	-11.6138
▁contempt	-11.6138
▁tinder	-11.6138
▁blake	-11.6138
▁chute	-11.6138
▁courtyard	-11.6138
▁selection	-11.6138
▁undone	-11.6138
sthetic	-11.6138
▁foam	-11.6138
▁sublevel	-11.6138
▁lawsuit	-11.6138
▁paso	-11.6138
▁zwa	-11.6138
▁lurk	-11.6138
▁marble	-11.6138
▁norda	-11.6138
▁philosopher	-11.6138
▁stap	-11.6138
▁chimp	-11.6138
▁harness	-11.6138
▁hathaway	-11.6138
▁steed	-11.6139
▁bidder	-11.6139
▁cried	-11.6139
▁ufo	-11.6139
▁entertainment	-11.6139
▁niko	-11.6139
▁clink	-11.6139
▁overboard	-11.6139
▁warlock	-11.6139
▁ferre	-11.6139
▁accompany	-11.6139
▁utility	-11.6139
▁tummy	-11.6139
▁flock	-11.6139
▁restrain	-11.6139
▁rotting	-11.6139
▁colby	-11.6139
▁tasty	-11.6139
▁mod	-11.6139
▁tedious	-11.6139
▁soap	-11.6139
▁voting	-11.614
▁tull	-11.614
▁verify	-11.614
▁productive	-11.614
▁transition	-11.614
▁paranoia	-11.614
▁huis	-11.614
▁milano	-11.614
▁potts	-11.614
▁padre	-11.614
▁trina	-11.614
▁hux	-11.614
▁punishment	-11.614
▁renew	-11.614
▁capita	-11.614
▁battlefield	-11.614
▁hunch	-11.614
▁riva	-11.614
▁renee	-11.614
▁choke	-11.614
▁supervisor	-11.614
▁kle	-11.614
▁oakland	-11.614
▁seattle	-11.614
▁scam	-11.6141
▁brutality	-11.6141
▁wherere	-11.6141
▁addiction	-11.6141
▁hesitate	-11.6141
▁ahchoo	-11.6141
▁cease	-11.6141
▁sterk	-11.6141
▁bidet	-11.6141
▁pathway	-11.6141
▁tyrel	-11.6141
▁zap	-11.6141
▁classroom	-11.6141
▁verge	-11.6141
▁premi	-11.6142
▁thrive	-11.6142
▁bachelor	-11.6142
thrand	-11.6142
▁doover	-11.6142
▁cinc	-11.6142
▁rebel	-11.6142
▁climate	-11.6142
▁sponsor	-11.6142
▁mamma	-11.6142
▁merci	-11.6142
▁wrestle	-11.6142
▁ditties	-11.6142
▁burst	-11.6142
▁sideways	-11.6142
▁stunt	-11.6142
▁lethal	-11.6142
▁paleis	-11.6142
▁frantic	-11.6142
▁condemned	-11.6142
▁bedford	-11.6142
▁jj	-11.6142
▁grandmama	-11.6142
▁hunk	-11.6142
▁amends	-11.6142
▁cinch	-11.6143
▁purge	-11.6143
▁vinden	-11.6143
▁mega	-11.6143
▁railway	-11.6143
▁nerd	-11.6143
▁suspension	-11.6143
▁popping	-11.6143
▁sector	-11.6143
▁cess	-11.6143
▁tur	-11.6143
irgin	-11.6143
▁progressive	-11.6143
hoog	-11.6143
▁overtime	-11.6143
▁seaboard	-11.6143
▁mannelijk	-11.6143
▁splitting	-11.6143
▁childhood	-11.6144
▁coven	-11.6144
▁dj	-11.6144
▁jewish	-11.6144
▁scavenger	-11.6144
▁buff	-11.6144
onkey	-11.6144
▁muse	-11.6144
▁overcome	-11.6144
▁testify	-11.6145
pire	-11.6145
rink	-11.6145
▁introducing	-11.6145
ventilat	-11.6145
▁void	-11.6145
▁cashier	-11.6145
▁streetlight	-11.6145
▁violet	-11.6145
▁cruelty	-11.6145
▁psst	-11.6145
▁trippin	-11.6145
▁sensation	-11.6145
▁eighteen	-11.6146
▁bunk	-11.6146
▁jongen	-11.6146
▁prego	-11.6146
▁panhead	-11.6146
▁spout	-11.6146
exap	-11.6147
▁lordship	-11.6147
▁employer	-11.6147
▁soil	-11.6147
▁sundown	-11.6147
▁moat	-11.6147
▁airfield	-11.6147
▁sheer	-11.6147
▁hardware	-11.6147
▁induct	-11.6147
eopard	-11.6147
▁stack	-11.6147
▁markings	-11.6148
▁hush	-11.6148
▁bullies	-11.6148
▁menace	-11.6148
▁provoked	-11.6148
▁pork	-11.6148
▁mime	-11.6148
▁werd	-11.6148
▁acquainted	-11.6148
▁glow	-11.6148
▁controller	-11.6149
▁eddy	-11.6149
▁broom	-11.6149
▁enact	-11.6149
gora	-11.6149
▁shrink	-11.6149
▁shades	-11.6149
▁jamie	-11.6149
▁hornet	-11.615
▁liever	-11.615
▁funki	-11.615
▁zon	-11.615
▁wholly	-11.615
▁improvement	-11.615
▁clownin	-11.615
▁geek	-11.615
▁batch	-11.615
▁headmaster	-11.615
▁midst	-11.615
▁buckley	-11.615
▁travelling	-11.6151
▁dorian	-11.6151
▁ahole	-11.6151
▁info	-11.6151
▁broad	-11.6151
▁jock	-11.6151
fth	-11.6151
band	-11.6151
▁hisse	-11.6152
▁ballistic	-11.6152
▁fern	-11.6152
▁oooh	-11.6152
▁parallel	-11.6152
▁educational	-11.6152
▁poop	-11.6153
▁anders	-11.6153
▁zaak	-11.6153
▁erupted	-11.6153
▁decommissioned	-11.6153
▁exaggerated	-11.6153
▁prolonged	-11.6153
▁suspended	-11.6153
▁unwell	-11.6153
▁pawn	-11.6153
▁tegen	-11.6154
▁oppos	-11.6154
loaded	-11.6154
rummy	-11.6154
▁tolerate	-11.6154
▁wedge	-11.6155
▁philippe	-11.6155
▁hitler	-11.6155
▁veranderd	-11.6156
▁associated	-11.6156
▁lull	-11.6156
▁sadness	-11.6156
▁overex	-11.6156
▁lace	-11.6156
▁kinderen	-11.6156
▁forgiveness	-11.6156
▁payback	-11.6157
isters	-11.6157
theres	-11.6157
▁knockout	-11.6157
▁cds	-11.6158
▁char	-11.6158
▁yuck	-11.6158
ennis	-11.6159
litary	-11.6159
▁standish	-11.616
▁obsessing	-11.616
▁ahab	-11.616
▁cabo	-11.616
▁ihe	-11.616
eith	-11.6161
▁conta	-11.6161
▁contd	-11.6161
▁dandr	-11.6161
akin	-11.6161
▁driveway	-11.6162
wall	-11.6162
▁cj	-11.6162
▁cuss	-11.6163
▁relieved	-11.6164
▁abused	-11.6164
▁essentially	-11.6164
▁turd	-11.6164
▁sandwiches	-11.6164
▁spoiled	-11.6165
▁employed	-11.6165
▁doet	-11.6165
▁investor	-11.6165
▁wade	-11.6166
▁jeep	-11.6166
otage	-11.6166
▁nickel	-11.6167
▁vase	-11.6168
▁rack	-11.6168
▁ithe	-11.6169
cul	-11.6169
▁diga	-11.6169
mingle	-11.6169
▁bin	-11.6169
▁sif	-11.617
▁evolved	-11.617
▁homemade	-11.617
▁lease	-11.617
eddie	-11.617
▁likewise	-11.6171
▁forged	-11.6172
ilus	-11.6172
song	-11.6173
▁iemand	-11.6173
▁ix	-11.6173
▁truthful	-11.6174
▁manually	-11.6174
▁astronomer	-11.6174
▁biscuits	-11.6174
▁regulations	-11.6174
▁sixty	-11.6174
▁trooper	-11.6175
▁belch	-11.6175
▁stewarding	-11.6175
▁vito	-11.6176
▁hijacked	-11.6176
▁morally	-11.6176
▁fulfilled	-11.6176
▁milton	-11.6176
▁distracted	-11.6176
▁knit	-11.6177
▁calculated	-11.6177
▁weeping	-11.6178
▁thug	-11.6178
▁rosa	-11.6178
▁phd	-11.618
▁stripes	-11.618
eight	-11.6181
▁sage	-11.6181
▁coucher	-11.6182
▁barnes	-11.6182
▁zin	-11.6183
abbing	-11.6184
▁objection	-11.6185
▁gur	-11.6185
▁sple	-11.6186
▁barb	-11.6186
▁riddled	-11.6187
▁detected	-11.6188
▁dismissed	-11.6188
▁severely	-11.6189
▁universal	-11.6189
▁jab	-11.619
▁foe	-11.619
▁hiring	-11.6191
▁distracting	-11.6191
▁condo	-11.6192
▁chile	-11.6192
rington	-11.6192
▁handling	-11.6192
▁steph	-11.6193
▁hunger	-11.6194
▁fearless	-11.6195
elvet	-11.6195
▁hoor	-11.6195
▁morgue	-11.6196
▁handful	-11.6197
▁continuing	-11.6198
▁wiser	-11.6198
▁parkus	-11.6198
▁cocky	-11.6199
erina	-11.6199
▁smashed	-11.6199
▁recruited	-11.6199
▁bumper	-11.62
▁astr	-11.6201
▁sunk	-11.6202
▁cowardly	-11.6204
▁bigtime	-11.6206
▁dashing	-11.6207
▁volt	-11.6208
▁bui	-11.6208
▁pressur	-11.6208
▁household	-11.621
▁conquered	-11.6211
▁garbl	-11.6211
▁wigging	-11.6212
▁tattooed	-11.6212
▁participat	-11.6213
ji	-11.6213
▁riders	-11.6214
▁saber	-11.6214
▁lawson	-11.6215
▁paralyze	-11.6216
▁respectable	-11.6216
▁lineup	-11.6216
contaminat	-11.6216
enter	-11.6217
saw	-11.6218
▁meeker	-11.6219
▁klo	-11.6219
▁hoss	-11.622
▁punished	-11.6222
▁licenc	-11.6222
▁orbiting	-11.6223
▁gunman	-11.6223
▁tempted	-11.6223
▁salvage	-11.6224
▁neutralize	-11.6226
gegaan	-11.6227
▁brad	-11.623
▁rightfully	-11.6231
▁cleaners	-11.6233
wish	-11.6233
▁replaced	-11.6233
▁altered	-11.6234
▁bugging	-11.6235
▁contractor	-11.6236
▁loaner	-11.6239
▁brighter	-11.6239
▁ticking	-11.624
▁badass	-11.624
▁memor	-11.624
▁colours	-11.6241
▁gallons	-11.6241
▁lise	-11.6241
▁paramedics	-11.6241
▁shudders	-11.6241
▁squirrels	-11.6241
▁moroes	-11.6241
▁demanding	-11.6241
▁scraps	-11.6241
▁aris	-11.6242
▁delayed	-11.6245
▁recovered	-11.6245
▁flipper	-11.6246
▁buses	-11.6248
▁nagel	-11.6248
▁restless	-11.6248
▁purr	-11.6249
▁cutie	-11.625
▁tortured	-11.6251
hunt	-11.6252
▁mainly	-11.6255
▁malfunctioning	-11.6255
▁reaches	-11.6256
▁sher	-11.6257
▁patiently	-11.6257
▁socially	-11.626
▁beaches	-11.626
ida	-11.6264
▁perfection	-11.6267
▁thro	-11.6271
▁referr	-11.6272
▁startup	-11.6272
▁stirr	-11.6272
▁reminder	-11.6273
▁firsttime	-11.6273
▁testen	-11.6274
▁wrecked	-11.6274
powers	-11.6277
▁fuse	-11.6277
▁rewarded	-11.628
▁succeeded	-11.628
▁invested	-11.628
▁makeover	-11.6281
▁cane	-11.6284
▁funk	-11.6284
▁bein	-11.6285
▁poisoning	-11.6287
▁exceptional	-11.629
▁predicted	-11.6293
ayas	-11.6293
▁pace	-11.6299
▁deceive	-11.63
▁bearer	-11.6301
▁performing	-11.6303
icu	-11.6304
▁bori	-11.6306
▁ledge	-11.6307
▁knots	-11.6309
▁reservations	-11.6309
▁strippers	-11.6309
▁cigars	-11.6309
▁ochis	-11.6309
▁jenk	-11.6309
▁whys	-11.631
▁dread	-11.6312
▁fasten	-11.6315
▁easter	-11.6315
▁denying	-11.6319
▁climbing	-11.6319
▁meth	-11.632
equ	-11.632
culate	-11.6321
▁willie	-11.6321
▁mace	-11.6324
▁dearest	-11.6326
▁umb	-11.6332
▁freaky	-11.6333
▁burnt	-11.6334
▁foundation	-11.6335
▁awaken	-11.6337
▁presto	-11.634
▁occupation	-11.6343
▁prey	-11.6344
▁julie	-11.6345
tilton	-11.635
▁stocking	-11.6351
▁mutt	-11.6355
▁genome	-11.6355
▁horny	-11.6356
▁hanse	-11.6362
▁correctly	-11.6363
▁hike	-11.6364
▁hardest	-11.6366
▁steer	-11.6369
▁decreases	-11.6369
▁aging	-11.6375
▁greatness	-11.6375
iness	-11.6376
▁recalibrat	-11.6376
▁clarky	-11.6378
▁cheerleaders	-11.6379
▁verse	-11.6379
▁dell	-11.6379
▁investments	-11.638
▁wigg	-11.638
▁blinking	-11.6383
▁gathering	-11.6383
▁processing	-11.6383
▁imprint	-11.6384
▁flowing	-11.6384
▁tame	-11.639
position	-11.6393
▁barry	-11.6394
▁savin	-11.6397
▁posted	-11.6402
▁howdy	-11.6402
ocht	-11.6408
▁varie	-11.641
▁pant	-11.642
▁layers	-11.6422
▁sealing	-11.6423
▁pion	-11.6426
▁carla	-11.6427
▁traded	-11.6429
▁sacr	-11.6429
▁loosen	-11.6433
hus	-11.6434
ervo	-11.6435
▁strapp	-11.6437
pul	-11.6437
▁rik	-11.6443
▁battl	-11.6443
▁diver	-11.6446
▁cords	-11.6449
▁megans	-11.6449
▁scouts	-11.6449
▁mushniks	-11.6449
▁shafts	-11.6449
▁headaches	-11.6449
▁euros	-11.6449
▁products	-11.6449
▁delivered	-11.6451
▁genies	-11.6452
▁mutters	-11.6452
▁yon	-11.6452
▁features	-11.6452
▁favore	-11.6456
▁escap	-11.6456
▁compos	-11.6464
▁tasted	-11.6464
▁doo	-11.6472
▁lighten	-11.6475
years	-11.649
did	-11.6495
▁reminded	-11.65
hall	-11.65
▁taps	-11.6508
▁conditioning	-11.6511
▁slu	-11.6513
▁camping	-11.6514
▁producer	-11.6514
▁server	-11.6515
▁assess	-11.6517
▁numero	-11.6518
▁trolls	-11.6519
▁cannons	-11.652
▁hostiles	-11.652
▁sheets	-11.652
▁barrels	-11.652
helf	-11.653
▁discussing	-11.6532
▁assassinate	-11.654
▁iced	-11.6541
▁longest	-11.6554
ductive	-11.6555
▁announc	-11.656
seed	-11.6561
avari	-11.6567
▁redeem	-11.6569
▁camel	-11.6573
▁christy	-11.658
▁curves	-11.6591
▁elbows	-11.6591
▁interns	-11.6591
▁photographer	-11.6592
▁rhymes	-11.6592
▁tattoos	-11.6593
▁arrives	-11.6593
mile	-11.6594
▁multipl	-11.6598
▁drawers	-11.6617
▁import	-11.6622
hamm	-11.6623
abo	-11.6625
kke	-11.6631
▁pissing	-11.6631
▁zed	-11.6646
▁funds	-11.666
▁flames	-11.6663
▁vangors	-11.6663
▁teenagers	-11.6663
▁crops	-11.6663
▁crowns	-11.6665
▁adventures	-11.6666
▁roars	-11.6666
▁il	-11.6666
cro	-11.6674
days	-11.6686
borg	-11.669
merit	-11.6698
▁ants	-11.6699
▁decrease	-11.6707
▁measur	-11.6711
▁timeout	-11.6716
haun	-11.6719
▁blocked	-11.6724
▁cra	-11.6725
▁cob	-11.6727
▁watches	-11.6727
▁bounds	-11.6735
▁gardens	-11.6735
▁pyramids	-11.6735
▁volunteers	-11.6735
▁distractions	-11.6736
tized	-11.6738
▁guarded	-11.6746
▁uphol	-11.6761
ington	-11.6764
▁pods	-11.6771
lam	-11.6773
▁elm	-11.6778
▁coloring	-11.678
swipe	-11.6785
▁runes	-11.6788
▁you	-11.6793
oop	-11.6805
▁feds	-11.6808
▁roommates	-11.6808
▁conn	-11.6809
tif	-11.6812
▁shocks	-11.6815
kopen	-11.6816
▁nana	-11.6821
▁imitat	-11.684
ollock	-11.6844
▁whil	-11.6848
▁clearer	-11.6863
inish	-11.6865
▁candidates	-11.6882
▁philipp	-11.6885
▁brul	-11.6886
▁lighter	-11.6902
opia	-11.6904
ption	-11.691
▁coping	-11.6939
nedens	-11.694
ache	-11.6961
▁boxing	-11.6976
▁acted	-11.6986
ibut	-11.6987
▁startin	-11.6994
▁favori	-11.7001
graph	-11.7027
cou	-11.7038
anticipated	-11.7045
human	-11.707
mcc	-11.7081
mont	-11.7092
oney	-11.7095
▁beaut	-11.7097
otto	-11.7102
habitat	-11.7119
rdes	-11.7121
bodies	-11.7121
▁riv	-11.7123
iden	-11.7144
▁gand	-11.7161
elves	-11.7165
▁uni	-11.7187
▁interr	-11.721
▁psyche	-11.7246
▁crapp	-11.7261
▁cont	-11.7262
▁hond	-11.7263
▁tien	-11.7275
ilant	-11.7278
stage	-11.7305
▁ark	-11.7366
▁lure	-11.7374
▁meri	-11.7379
neer	-11.7388
vert	-11.7396
elt	-11.7397
▁alg	-11.7461
iii	-11.7481
logy	-11.749
ips	-11.749
jaar	-11.7491
mmy	-11.7508
izz	-11.7519
▁maca	-11.7533
pher	-11.7555
▁grap	-11.7571
▁dispos	-11.7579
dige	-11.7585
ussen	-11.7589
lum	-11.7597
▁gab	-11.7619
▁shel	-11.7626
ellen	-11.7632
▁pep	-11.7637
etic	-11.7641
▁exterminate	-11.7648
▁intimat	-11.7672
awn	-11.7683
aux	-11.7706
aka	-11.7708
▁halo	-11.7756
▁vale	-11.7769
▁zus	-11.7775
dag	-11.7792
rader	-11.7802
▁aros	-11.7803
▁andr	-11.7808
▁valer	-11.7813
▁nov	-11.7823
▁scha	-11.7824
nscript	-11.7828
▁yoke	-11.783
rence	-11.7844
most	-11.7859
▁dani	-11.7878
pid	-11.7889
▁playa	-11.7892
ility	-11.7897
gart	-11.7899
asp	-11.7902
oof	-11.7902
▁gek	-11.7912
▁mobiliz	-11.7939
▁todd	-11.7941
▁dag	-11.7946
step	-11.7977
script	-11.7979
take	-11.7981
wan	-11.7982
▁drinker	-11.7987
▁educate	-11.7988
▁beet	-11.799
▁starr	-11.8023
▁audit	-11.8038
▁shar	-11.8042
pho	-11.8051
▁soak	-11.8062
▁compa	-11.8064
▁greas	-11.8089
anor	-11.8091
▁alma	-11.8103
▁som	-11.8121
issan	-11.8137
stem	-11.8148
smanship	-11.8155
plies	-11.8159
this	-11.8184
▁negotiat	-11.8186
rake	-11.8222
▁ku	-11.8242
▁communicat	-11.8252
▁desc	-11.8273
rab	-11.8275
▁shu	-11.8284
▁dam	-11.8305
▁corona	-11.8317
hell	-11.8321
▁nowi	-11.8354
▁ingre	-11.837
▁ref	-11.8376
▁sadde	-11.84
wag	-11.8403
▁bun	-11.8409
▁leche	-11.8431
ham	-11.8441
job	-11.8446
gal	-11.8487
mean	-11.8491
▁chin	-11.8494
iva	-11.8525
gar	-11.8534
eave	-11.8546
ished	-11.855
illa	-11.857
tonic	-11.858
shaped	-11.8583
circled	-11.8584
cute	-11.8616
▁scarf	-11.8628
▁baile	-11.8651
▁rega	-11.8703
▁pollute	-11.8725
▁pla	-11.8743
▁hale	-11.875
mish	-11.8778
▁fer	-11.8799
bite	-11.8803
unch	-11.8821
▁prosecut	-11.8835
▁oude	-11.8858
▁blur	-11.8868
midd	-11.8873
bro	-11.8877
▁tho	-11.8915
cot	-11.8917
mous	-11.8924
▁vertel	-11.8941
▁numer	-11.8961
▁elvis	-11.8968
rted	-11.8983
ask	-11.8992
thou	-11.8993
run	-11.9004
▁obliterate	-11.9016
tribute	-11.9018
▁geda	-11.9018
▁viva	-11.9034
hic	-11.9038
▁pea	-11.9044
headed	-11.9051
▁precede	-11.9056
cated	-11.9062
▁cooperat	-11.9092
aldi	-11.9131
dad	-11.9135
▁siz	-11.9135
span	-11.9139
netic	-11.9144
dieu	-11.915
essa	-11.9163
▁integr	-11.9168
▁yihe	-11.9173
▁mul	-11.9184
▁occup	-11.9188
▁fric	-11.9189
power	-11.9197
▁sac	-11.9198
rine	-11.9202
▁frag	-11.9202
dacht	-11.9203
▁eighth	-11.921
▁honk	-11.9216
eering	-11.9223
egged	-11.9233
▁ochi	-11.9233
▁cigar	-11.9233
▁iyo	-11.9234
▁reservation	-11.9235
▁stripper	-11.9237
▁til	-11.9239
tact	-11.9239
▁ancestor	-11.9239
▁cricket	-11.9239
urn	-11.924
▁knot	-11.924
▁arquillian	-11.9243
▁parasite	-11.9243
▁insect	-11.9247
▁ambi	-11.9247
▁diaper	-11.9249
▁consequence	-11.925
▁vega	-11.925
▁breast	-11.9251
appy	-11.9251
▁snore	-11.9252
▁instruction	-11.9254
▁chime	-11.9254
▁survivor	-11.9256
▁she	-11.9258
marked	-11.9261
▁determin	-11.9271
▁cookie	-11.928
nstitute	-11.9287
▁growl	-11.9289
▁drone	-11.9295
▁why	-11.9297
▁memo	-11.9298
ocus	-11.9303
▁oop	-11.931
▁historic	-11.9313
care	-11.9317
lery	-11.9319
▁ratio	-11.9319
ancy	-11.932
▁honger	-11.9321
▁ceremoni	-11.9323
gaan	-11.9323
into	-11.9326
owa	-11.9331
tamin	-11.9342
ench	-11.935
rated	-11.9354
called	-11.9356
handed	-11.9356
▁clu	-11.9359
▁paralyz	-11.9359
▁medi	-11.9367
▁sul	-11.9369
phers	-11.937
▁confus	-11.9372
▁defi	-11.9377
▁nin	-11.9384
▁inhal	-11.9392
fianc	-11.9392
▁surviv	-11.9397
probabl	-11.94
▁initiat	-11.9406
▁ww	-11.9408
▁reboot	-11.9412
▁employ	-11.9413
▁automat	-11.9414
▁steward	-11.9416
▁trespass	-11.9417
▁gambl	-11.9417
▁slamm	-11.9419
▁clack	-11.942
lift	-11.942
▁murmur	-11.942
▁cluck	-11.9423
▁invad	-11.9425
▁plumb	-11.9428
choo	-11.9428
nuts	-11.9428
craft	-11.9428
▁slander	-11.9429
▁spoil	-11.9429
broken	-11.9431
assemble	-11.9431
phew	-11.9431
natural	-11.9431
▁hoot	-11.9431
risk	-11.9431
uchi	-11.9431
▁scatter	-11.9431
▁install	-11.9432
park	-11.9432
safe	-11.9433
acceptable	-11.9433
screen	-11.9434
cloth	-11.9434
foot	-11.9434
father	-11.9434
body	-11.9434
▁acqui	-11.9434
parent	-11.9435
worms	-11.9435
temper	-11.9435
qualified	-11.9435
mind	-11.9435
wife	-11.9435
world	-11.9435
grass	-11.9436
piece	-11.9436
limited	-11.9436
▁wick	-11.9436
rescue	-11.9436
process	-11.9436
electric	-11.9436
▁annoy	-11.9436
original	-11.9436
hoe	-11.9436
animal	-11.9437
purpose	-11.9437
secure	-11.9437
track	-11.9437
study	-11.9437
pants	-11.9437
complete	-11.9437
mouth	-11.9437
worth	-11.9437
security	-11.9437
shoot	-11.9437
chuckles	-11.9437
believe	-11.9437
people	-11.9437
first	-11.9437
something	-11.9437
kick	-11.9437
thinking	-11.9437
course	-11.9437
blood	-11.9438
scene	-11.9438
stroke	-11.9438
ppie	-11.9438
famous	-11.9438
military	-11.9438
common	-11.9438
mature	-11.9439
floor	-11.9439
▁devise	-11.944
ladder	-11.944
nati	-11.9441
vito	-11.9441
▁pronounce	-11.9441
dream	-11.9442
▁associate	-11.9442
weight	-11.9442
phone	-11.9443
▁inspire	-11.9443
boat	-11.9444
toxin	-11.9445
digit	-11.9445
lasting	-11.9445
shop	-11.9446
itters	-11.9447
▁compare	-11.9448
▁verander	-11.9448
class	-11.9449
web	-11.945
rosa	-11.945
pool	-11.945
▁weave	-11.945
▁penetrat	-11.945
▁recip	-11.945
link	-11.945
▁reduce	-11.9451
bug	-11.9452
▁frequenc	-11.9452
▁applaus	-11.9452
▁locate	-11.9453
komen	-11.9453
▁blend	-11.9454
lady	-11.9454
pick	-11.9455
traumati	-11.9455
▁transylvania	-11.9455
▁buckle	-11.9457
▁croque	-11.9457
plications	-11.9457
hammer	-11.9458
▁germa	-11.9458
▁mumbl	-11.9458
▁arrange	-11.9458
wait	-11.9459
▁jonge	-11.946
▁nominat	-11.946
▁frustrat	-11.946
▁simulat	-11.9461
loop	-11.9461
planet	-11.9462
▁inspect	-11.9462
▁raj	-11.9462
high	-11.9463
bill	-11.9464
▁investigati	-11.9464
▁triang	-11.9464
▁bash	-11.9464
▁econom	-11.9465
▁secre	-11.9465
▁wholl	-11.9466
▁mornin	-11.9466
▁competiti	-11.9466
▁gaze	-11.9466
junct	-11.9466
▁brid	-11.9466
▁twel	-11.9466
▁authentic	-11.9466
convenience	-11.9466
mere	-11.9467
▁singular	-11.9467
ographic	-11.9467
▁outrage	-11.9467
▁egypt	-11.9467
▁isabel	-11.9468
▁kiddin	-11.9468
venue	-11.9468
▁disdain	-11.9468
price	-11.9468
terranean	-11.9468
▁regime	-11.9468
eater	-11.9468
▁confident	-11.9469
▁imagina	-11.9469
negotia	-11.9469
▁congratulat	-11.9469
▁squad	-11.9469
▁champ	-11.9469
▁jenni	-11.9469
▁incarcerat	-11.9469
▁apollo	-11.9469
▁gluten	-11.9469
▁higgin	-11.9469
▁motivat	-11.9469
▁outsmart	-11.9469
▁overwhelm	-11.9469
▁potassium	-11.9469
▁refuge	-11.9469
▁susceptib	-11.9469
▁undefeat	-11.9469
druk	-11.9469
feminine	-11.9469
saturationcrisis	-11.9469
▁abbott	-11.9469
▁abronath	-11.9469
▁abrupt	-11.9469
▁accomplice	-11.9469
▁admission	-11.9469
▁advocat	-11.9469
▁affiliat	-11.9469
▁afghan	-11.9469
▁allergy	-11.9469
▁almighty	-11.9469
▁ambitious	-11.9469
▁andiamo	-11.9469
▁anomalies	-11.9469
▁appalling	-11.9469
▁appartment	-11.9469
▁appetit	-11.9469
▁association	-11.9469
▁astound	-11.9469
▁autopsy	-11.9469
▁backbuilding	-11.9469
▁baghdad	-11.9469
▁bagpipes	-11.9469
▁bamboo	-11.9469
▁bazooka	-11.9469
▁begrijpen	-11.9469
▁belangrijk	-11.9469
▁bennett	-11.9469
▁beuken	-11.9469
▁bifur	-11.9469
▁bodega	-11.9469
▁boulevard	-11.9469
▁bpositive	-11.9469
▁braille	-11.9469
▁brazil	-11.9469
▁breastfeed	-11.9469
▁brochure	-11.9469
▁broncos	-11.9469
▁brussels	-11.9469
▁buonasera	-11.9469
▁caffeine	-11.9469
▁camouflage	-11.9469
▁caribbean	-11.9469
▁carnivore	-11.9469
▁carolina	-11.9469
▁casablanca	-11.9469
▁casino	-11.9469
▁casket	-11.9469
▁caspian	-11.9469
▁cassette	-11.9469
▁category	-11.9469
▁celestial	-11.9469
▁challenging	-11.9469
▁chauffeur	-11.9469
▁chellini	-11.9469
▁cherlinski	-11.9469
▁cherpitski	-11.9469
▁chipmunks	-11.9469
▁chortling	-11.9469
▁chunky	-11.9469
▁clarissa	-11.9469
▁clergy	-11.9469
▁compatible	-11.9469
▁component	-11.9469
▁confidence	-11.9469
▁consensus	-11.9469
▁conspicuous	-11.9469
▁cosmonaut	-11.9469
▁counterfeit	-11.9469
▁courier	-11.9469
▁coyote	-11.9469
▁cretaceous	-11.9469
▁crossroads	-11.9469
▁crucifi	-11.9469
▁crumple	-11.9469
▁currency	-11.9469
▁dadadada	-11.9469
▁davina	-11.9469
▁debrief	-11.9469
▁decorator	-11.9469
▁delegation	-11.9469
▁despicable	-11.9469
▁despise	-11.9469
▁diagramma	-11.9469
▁diarrhoea	-11.9469
▁discard	-11.9469
▁discreet	-11.9469
▁distorting	-11.9469
▁dogcatchers	-11.9469
▁dolphins	-11.9469
▁dwaas	-11.9469
▁dwergi	-11.9469
▁emissions	-11.9469
▁enchanting	-11.9469
▁enteprise	-11.9469
▁equator	-11.9469
▁exclaims	-11.9469
▁expelled	-11.9469
▁exponentially	-11.9469
▁fabonan	-11.9469
▁farfetched	-11.9469
▁fascinated	-11.9469
▁fingernails	-11.9469
▁finnegan	-11.9469
▁firecracker	-11.9469
▁flavor	-11.9469
▁fleurdelis	-11.9469
▁forecast	-11.9469
▁fracture	-11.9469
▁frohm	-11.9469
▁frostwolf	-11.9469
▁fundamental	-11.9469
▁garrison	-11.9469
▁georgia	-11.9469
▁georgie	-11.9469
▁gezicht	-11.9469
▁glimlach	-11.9469
▁gloria	-11.9469
▁graffiti	-11.9469
▁granddaughter	-11.9469
▁greenwich	-11.9469
▁guidance	-11.9469
▁gullible	-11.9469
▁haiku	-11.9469
▁havoc	-11.9469
▁hemorrhag	-11.9469
▁henceforth	-11.9469
▁henderson	-11.9469
▁hernandez	-11.9469
▁hologram	-11.9469
▁hoogheid	-11.9469
▁hurley	-11.9469
▁hybrid	-11.9469
▁hygiene	-11.9469
▁hypnotize	-11.9469
▁impeccable	-11.9469
▁impenetrable	-11.9469
▁incorporat	-11.9469
▁infirm	-11.9469
▁interject	-11.9469
▁intoleran	-11.9469
▁intruder	-11.9469
▁iphitos	-11.9469
▁irrelevant	-11.9469
▁kaarsjes	-11.9469
▁kaartjes	-11.9469
▁kamehameha	-11.9469
▁knuckle	-11.9469
▁kovacs	-11.9469
▁laoghaire	-11.9469
▁laundry	-11.9469
▁legacies	-11.9469
▁liberal	-11.9469
▁limousine	-11.9469
▁lizard	-11.9469
▁lubricant	-11.9469
▁luminosity	-11.9469
▁majordomo	-11.9469
▁maneuver	-11.9469
▁mcgoo	-11.9469
▁medieval	-11.9469
▁melody	-11.9469
▁merchandise	-11.9469
▁metronome	-11.9469
▁microwave	-11.9469
▁millennia	-11.9469
▁minnesota	-11.9469
▁miriam	-11.9469
▁mischief	-11.9469
▁mitosis	-11.9469
▁mortgage	-11.9469
▁motorbike	-11.9469
▁natuurlijk	-11.9469
▁nebraska	-11.9469
▁necessity	-11.9469
▁neglect	-11.9469
▁neighing	-11.9469
▁nightcrawler	-11.9469
▁nigra	-11.9469
▁nutmeg	-11.9469
▁oasis	-11.9469
▁obituaries	-11.9469
▁obstacle	-11.9469
▁obtain	-11.9469
▁odwyer	-11.9469
▁offshore	-11.9469
▁ontdekt	-11.9469
▁oregon	-11.9469
▁organisation	-11.9469
▁outnumber	-11.9469
▁overseas	-11.9469
▁pantheon	-11.9469
▁papajohn	-11.9469
▁papyrus	-11.9469
▁peacekeep	-11.9469
▁pentacle	-11.9469
▁perceive	-11.9469
▁percept	-11.9469
▁persuasi	-11.9469
▁pezzulo	-11.9469
▁piazza	-11.9469
▁pixie	-11.9469
▁precinct	-11.9469
▁primitive	-11.9469
▁promontory	-11.9469
▁propriet	-11.9469
▁prosecco	-11.9469
▁psylocke	-11.9469
▁puppy	-11.9469
▁puppysnap	-11.9469
▁pussycat	-11.9469
▁qualms	-11.9469
▁quileute	-11.9469
▁quincy	-11.9469
▁raccoon	-11.9469
▁rainbow	-11.9469
▁raleigh	-11.9469
▁ramsey	-11.9469
▁reconfigur	-11.9469
▁recuerdo	-11.9469
▁reflex	-11.9469
▁rehearsing	-11.9469
▁relevant	-11.9469
▁rescuing	-11.9469
▁retarded	-11.9469
▁retribution	-11.9469
▁rhetoric	-11.9469
▁rochelle	-11.9469
▁rumlow	-11.9469
▁russell	-11.9469
▁safeguard	-11.9469
▁scaffold	-11.9469
▁scarborough	-11.9469
▁schumann	-11.9469
▁scribble	-11.9469
▁seatbelt	-11.9469
▁semmi	-11.9469
▁shenanigans	-11.9469
▁shrapnel	-11.9469
▁skeleton	-11.9469
▁skydiving	-11.9469
▁sleigh	-11.9469
▁slippery	-11.9469
▁sloppy	-11.9469
▁slouch	-11.9469
▁smithsonian	-11.9469
▁soothing	-11.9469
▁spongebob	-11.9469
▁spooky	-11.9469
▁squint	-11.9469
▁stamina	-11.9469
▁straddl	-11.9469
▁stuttering	-11.9469
▁subconscious	-11.9469
▁substantial	-11.9469
▁summit	-11.9469
▁supermarket	-11.9469
▁supplement	-11.9469
▁synthesize	-11.9469
▁syria	-11.9469
▁tabitha	-11.9469
▁tarconi	-11.9469
▁technologie	-11.9469
▁tengallon	-11.9469
▁thumping	-11.9469
▁thunderstorm	-11.9469
▁tinzaparin	-11.9469
▁tiptoeing	-11.9469
▁toupee	-11.9469
▁tranquil	-11.9469
▁transducing	-11.9469
▁trinket	-11.9469
▁tuxedos	-11.9469
▁twinkie	-11.9469
▁udub	-11.9469
▁ultimatum	-11.9469
▁unattended	-11.9469
▁unconditional	-11.9469
▁ungrateful	-11.9469
▁unhunh	-11.9469
▁unnoticed	-11.9469
▁unorthodox	-11.9469
▁unpainted	-11.9469
▁unscramble	-11.9469
▁unstoppable	-11.9469
▁veilig	-11.9469
▁velocities	-11.9469
▁verhinder	-11.9469
▁verkoop	-11.9469
▁vertrekt	-11.9469
▁viaduct	-11.9469
▁vildan	-11.9469
▁vocalizing	-11.9469
▁volleyball	-11.9469
▁waimanalo	-11.9469
▁walkietalkie	-11.9469
▁watanabe	-11.9469
▁watchtower	-11.9469
▁welterusten	-11.9469
▁wendys	-11.9469
▁wobbly	-11.9469
▁wrestling	-11.9469
▁youtube	-11.9469
▁angmar	-11.9469
▁bailiff	-11.9469
▁bloodsuck	-11.9469
▁bulk	-11.9469
▁cactus	-11.9469
▁conduit	-11.9469
▁delegate	-11.9469
▁distill	-11.9469
▁kapu	-11.9469
▁mcflur	-11.9469
▁messenger	-11.9469
▁orthodont	-11.9469
▁pacifist	-11.9469
▁penrose	-11.9469
▁preserv	-11.9469
▁resembl	-11.9469
▁rupert	-11.9469
▁sensual	-11.9469
▁serendip	-11.9469
▁shotgun	-11.9469
▁tipov	-11.9469
▁twinkle	-11.9469
▁ubilla	-11.9469
▁veteran	-11.9469
▁vigilante	-11.9469
adequate	-11.9469
iririr	-11.9469
maakt	-11.9469
undant	-11.9469
▁anagram	-11.9469
▁anomaly	-11.9469
▁billionaire	-11.9469
▁bubbly	-11.9469
▁crude	-11.9469
▁curtsy	-11.9469
▁deciding	-11.9469
▁dertig	-11.9469
▁emblem	-11.9469
▁empathy	-11.9469
▁enlarge	-11.9469
▁fancies	-11.9469
▁fenway	-11.9469
▁galvin	-11.9469
▁glorieu	-11.9469
▁housepets	-11.9469
▁index	-11.9469
▁lavender	-11.9469
▁lchaim	-11.9469
▁lindir	-11.9469
▁marilyn	-11.9469
▁marvin	-11.9469
▁misfit	-11.9469
▁ochre	-11.9469
▁optimis	-11.9469
▁payroll	-11.9469
▁precies	-11.9469
▁quince	-11.9469
▁quoting	-11.9469
▁replicate	-11.9469
▁resort	-11.9469
▁rigged	-11.9469
▁sanctioned	-11.9469
▁siegel	-11.9469
▁snoke	-11.9469
▁sought	-11.9469
▁squat	-11.9469
▁starvation	-11.9469
▁stroll	-11.9469
▁systolic	-11.9469
▁theft	-11.9469
hiroshi	-11.9469
ughn	-11.9469
▁alumnae	-11.9469
▁binnen	-11.9469
▁bookstore	-11.9469
▁bruises	-11.9469
▁cronan	-11.9469
▁deranged	-11.9469
▁drapes	-11.9469
▁eightyone	-11.9469
▁gasoline	-11.9469
▁hobbies	-11.9469
▁ireland	-11.9469
▁jimmie	-11.9469
▁keef	-11.9469
▁keller	-11.9469
▁kroon	-11.9469
▁overdose	-11.9469
▁oyster	-11.9469
▁reopened	-11.9469
▁shareholder	-11.9469
▁stabilize	-11.9469
▁tahiti	-11.9469
▁veterinar	-11.9469
▁welcoming	-11.9469
▁beijing	-11.9469
▁biased	-11.9469
▁butterfly	-11.9469
▁draai	-11.9469
▁fingertip	-11.9469
▁juicy	-11.9469
▁nevertheless	-11.9469
▁offiic	-11.9469
▁omnis	-11.9469
▁ongoing	-11.9469
▁affer	-11.9469
▁anaph	-11.9469
▁axis	-11.9469
▁collectibles	-11.9469
▁drought	-11.9469
▁embele	-11.9469
▁glitter	-11.9469
▁kobe	-11.9469
▁permit	-11.9469
▁salary	-11.9469
▁silk	-11.9469
▁stabilis	-11.9469
▁surgical	-11.9469
▁vermin	-11.9469
▁wending	-11.9469
▁barricad	-11.9469
▁cozy	-11.9469
▁depose	-11.9469
▁extent	-11.9469
▁riddance	-11.9469
akku	-11.9469
▁scheme	-11.9469
▁tyrann	-11.9469
▁contracepti	-11.9469
▁debris	-11.9469
▁duct	-11.9469
▁excellenc	-11.9469
▁gorilla	-11.9469
▁toshi	-11.9469
▁consumption	-11.9469
▁cutlass	-11.9469
▁degas	-11.9469
▁kike	-11.9469
▁zeker	-11.9469
▁arteries	-11.9469
▁beloof	-11.9469
▁ibet	-11.9469
▁obligations	-11.9469
▁rennen	-11.9469
▁segment	-11.9469
▁charisse	-11.9469
▁millionaire	-11.9469
▁zamundanen	-11.9469
munition	-11.9469
▁aeroplane	-11.9469
▁angst	-11.9469
▁harmony	-11.9469
▁mandela	-11.9469
▁coroner	-11.9469
▁macerated	-11.9469
▁ponies	-11.9469
▁collide	-11.9469
▁indoors	-11.9469
▁kip	-11.9469
▁meatballs	-11.9469
▁relay	-11.9469
▁strawberries	-11.9469
▁banquet	-11.9469
▁decode	-11.9469
▁detain	-11.9469
▁mercenar	-11.9469
▁oven	-11.9469
▁ringtone	-11.9469
▁strawberry	-11.9469
▁estimate	-11.9469
▁hazy	-11.9469
▁insured	-11.9469
▁mushroom	-11.9469
scious	-11.9469
▁plague	-11.9469
▁cathy	-11.9469
▁flemming	-11.9469
▁intuiti	-11.9469
▁nessie	-11.9469
▁traditie	-11.9469
▁contaminated	-11.9469
▁enthusiastic	-11.9469
▁luncheon	-11.9469
▁scoring	-11.9469
▁avia	-11.9469
▁beginnen	-11.9469
▁ukrainian	-11.9469
stolic	-11.9469
▁bergin	-11.9469
splatter	-11.9469
▁pillars	-11.9469
▁monstro	-11.9469
pregna	-11.9469
▁gypsy	-11.9469
▁funnel	-11.9469
▁smits	-11.947
▁tarry	-11.947
▁atrocities	-11.947
▁physi	-11.947
▁tacky	-11.947
▁whatnot	-11.947
▁freddie	-11.947
▁altogether	-11.947
▁gridlock	-11.947
▁obedience	-11.947
▁parameter	-11.947
▁oversee	-11.947
▁clinic	-11.947
▁stimulati	-11.947
▁consort	-11.947
hehheh	-11.947
imaginative	-11.947
▁cdc	-11.947
▁persist	-11.947
▁implant	-11.947
metric	-11.947
▁aero	-11.947
▁puppies	-11.947
▁snatch	-11.947
portrait	-11.947
▁marionette	-11.947
▁trouwd	-11.947
▁drool	-11.947
▁recess	-11.947
▁temperament	-11.947
▁withhold	-11.947
▁inhabitant	-11.947
▁thatthat	-11.947
▁darren	-11.947
▁dealership	-11.947
oohoo	-11.947
▁bummer	-11.947
▁peepee	-11.947
▁download	-11.947
▁ronnie	-11.947
▁moisture	-11.947
▁chomp	-11.947
▁dylan	-11.947
▁wreath	-11.947
▁witchcraft	-11.947
▁niks	-11.947
▁quaint	-11.947
▁tripod	-11.947
▁underpants	-11.947
hearted	-11.947
▁villette	-11.947
▁brick	-11.947
▁dynamic	-11.947
▁storing	-11.947
▁allenville	-11.947
▁chainsaw	-11.947
▁pompo	-11.947
▁upstate	-11.947
▁weasel	-11.947
▁earpiece	-11.947
▁terminate	-11.947
▁decaf	-11.947
▁interference	-11.947
▁kirill	-11.947
▁psychiatric	-11.947
▁wield	-11.947
▁necro	-11.947
▁outward	-11.947
▁snapcount	-11.947
▁fiery	-11.947
▁rubbing	-11.947
▁smug	-11.947
▁recap	-11.947
▁fatalities	-11.947
▁charley	-11.947
▁bashful	-11.947
▁fiction	-11.947
▁donuts	-11.947
▁zipper	-11.947
▁premature	-11.947
▁churn	-11.947
▁restoring	-11.947
▁rambling	-11.947
▁knap	-11.947
haald	-11.947
▁fashionably	-11.947
▁thudding	-11.9471
▁fortified	-11.9471
▁gravy	-11.9471
▁elkaar	-11.9471
▁mutual	-11.9471
▁famine	-11.9471
▁ferri	-11.9471
▁ravish	-11.9471
▁wreak	-11.9471
▁outdoor	-11.9471
▁odorous	-11.9471
▁cornfield	-11.9471
▁hollow	-11.9471
▁affirmative	-11.9471
▁descendent	-11.9471
▁bruid	-11.9471
▁evelle	-11.9471
▁blanc	-11.9471
▁isabella	-11.9471
▁pennyways	-11.9471
▁abroad	-11.9471
▁garwin	-11.9471
▁gloom	-11.9471
▁lump	-11.9471
▁dennis	-11.9471
▁walnut	-11.9471
▁trache	-11.9471
vrij	-11.9471
▁vauit	-11.9471
acious	-11.9471
▁casa	-11.9471
▁silverware	-11.9471
▁voltage	-11.9471
▁convertible	-11.9471
▁demoli	-11.9471
▁elementary	-11.9471
▁spani	-11.9471
▁emptiness	-11.9471
▁knul	-11.9471
▁extr	-11.9471
▁shaneequa	-11.9471
▁bonehead	-11.9471
▁orphanage	-11.9471
termination	-11.9471
▁navier	-11.9471
▁subscription	-11.9471
▁amper	-11.9471
▁outbound	-11.9471
▁comfortably	-11.9471
▁preferably	-11.9471
▁horseshit	-11.9471
older	-11.9471
▁allegiance	-11.9471
▁chopping	-11.9471
▁merger	-11.9471
▁vergeten	-11.9471
▁kidnapper	-11.9472
▁urine	-11.9472
▁ugli	-11.9472
▁intersection	-11.9472
▁parcha	-11.9472
▁wepa	-11.9472
rille	-11.9472
▁outrageous	-11.9472
▁graveyard	-11.9472
induce	-11.9472
▁guinness	-11.9472
▁bloom	-11.9472
▁halfhour	-11.9472
▁pontif	-11.9472
▁humour	-11.9472
ferti	-11.9472
▁renounce	-11.9472
▁drugg	-11.9472
▁lemon	-11.9472
▁rogue	-11.9472
▁begged	-11.9472
chaux	-11.9472
▁baking	-11.9472
▁wiener	-11.9472
▁disney	-11.9472
▁dabu	-11.9472
▁fanatic	-11.9472
▁maroon	-11.9472
▁dominion	-11.9472
▁wedded	-11.9472
▁ramp	-11.9472
▁plateau	-11.9472
▁pointshaving	-11.9472
▁intact	-11.9472
▁scandalous	-11.9473
▁pincer	-11.9473
▁sofa	-11.9473
▁invaders	-11.9473
▁embarrassment	-11.9473
inclined	-11.9473
▁boundary	-11.9473
▁chatty	-11.9473
▁amun	-11.9473
▁booster	-11.9473
▁denial	-11.9473
▁puke	-11.9473
salaam	-11.9473
▁combo	-11.9473
▁cupboard	-11.9473
▁inspection	-11.9473
▁buddh	-11.9473
▁pub	-11.9473
▁minimal	-11.9473
▁todo	-11.9473
▁economic	-11.9473
▁courtroom	-11.9473
furnish	-11.9473
ngelo	-11.9473
▁dyke	-11.9473
ignon	-11.9473
▁disturbance	-11.9474
▁satisfy	-11.9474
▁staat	-11.9474
▁cspan	-11.9474
▁industrious	-11.9474
▁institute	-11.9474
▁delbert	-11.9474
▁assemblyman	-11.9474
flamma	-11.9474
▁overnight	-11.9474
endell	-11.9474
▁confusion	-11.9474
▁sandbar	-11.9474
▁presiden	-11.9474
▁complaints	-11.9474
▁whack	-11.9474
▁oppression	-11.9475
▁moria	-11.9475
▁furthe	-11.9475
▁tux	-11.9475
▁bongo	-11.9475
▁amass	-11.9475
mpson	-11.9475
edwina	-11.9475
▁aura	-11.9475
▁bouch	-11.9475
▁dislike	-11.9475
▁sisterhood	-11.9475
▁housing	-11.9475
▁unsafe	-11.9475
▁cork	-11.9475
▁panicking	-11.9475
▁hopping	-11.9475
▁punkass	-11.9476
▁vond	-11.9476
▁biped	-11.9476
okaya	-11.9476
▁firepower	-11.9476
▁chilidog	-11.9476
▁fearsome	-11.9476
▁rolex	-11.9476
▁babar	-11.9476
▁factories	-11.9476
▁bonus	-11.9476
▁cheerful	-11.9476
dolin	-11.9476
▁swag	-11.9477
▁cam	-11.9477
uffet	-11.9477
▁hardliner	-11.9477
▁incur	-11.9477
▁grasp	-11.9477
▁sportster	-11.9477
▁thermo	-11.9477
▁catalys	-11.9477
▁blog	-11.9477
▁fleek	-11.9477
▁interceptor	-11.9477
▁hallowe	-11.9477
▁renard	-11.9477
▁mystic	-11.9477
▁marino	-11.9477
▁triangulat	-11.9477
abble	-11.9478
▁rookie	-11.9478
▁astoria	-11.9478
▁length	-11.9478
▁saturation	-11.9478
▁trivial	-11.9478
▁trustworthy	-11.9478
▁enlist	-11.9478
▁pudgie	-11.9478
▁banner	-11.9478
▁coca	-11.9478
▁heant	-11.9478
▁brotherhood	-11.9478
▁envy	-11.9479
▁wireless	-11.9479
▁critter	-11.9479
▁florist	-11.9479
▁weep	-11.9479
▁frustration	-11.9479
▁allah	-11.9479
▁nomination	-11.9479
▁spaceship	-11.9479
▁defiler	-11.9479
▁quadr	-11.9479
▁arsenal	-11.9479
▁font	-11.9479
▁worthwhile	-11.9479
▁minne	-11.9479
▁moose	-11.9479
▁detonator	-11.9479
▁gentlewoman	-11.9479
▁peur	-11.9479
▁jurk	-11.948
▁polar	-11.948
▁defenseless	-11.948
avity	-11.948
▁legos	-11.948
union	-11.948
▁receivers	-11.948
law	-11.948
▁native	-11.948
▁hassl	-11.948
▁caption	-11.948
▁yiyou	-11.948
▁heartbreak	-11.948
foresee	-11.948
▁slab	-11.948
▁factual	-11.948
▁outline	-11.948
controll	-11.9481
▁voil	-11.9481
▁earnest	-11.9481
▁heet	-11.9481
aware	-11.9481
▁viking	-11.9481
▁booby	-11.9481
▁upsetting	-11.9481
▁indication	-11.9481
▁shred	-11.9481
zny	-11.9481
ahead	-11.9481
avish	-11.9481
▁katy	-11.9481
▁lamar	-11.9481
▁retaliate	-11.9482
▁silicone	-11.9482
oblast	-11.9482
▁disappearance	-11.9482
▁croquet	-11.9482
▁intriguing	-11.9482
▁ignoring	-11.9482
▁advising	-11.9482
▁naming	-11.9482
▁matchmaker	-11.9482
▁glance	-11.9482
▁dringend	-11.9482
ishment	-11.9483
▁relic	-11.9483
▁retro	-11.9483
▁facebook	-11.9483
▁admitting	-11.9483
▁shook	-11.9484
▁suction	-11.9484
▁branches	-11.9484
▁sketches	-11.9484
▁torpedoes	-11.9484
kerel	-11.9484
▁martyr	-11.9484
othe	-11.9485
▁linus	-11.9485
▁diaz	-11.9485
▁docent	-11.9485
▁endeavor	-11.9485
▁tug	-11.9486
▁brag	-11.9486
▁coil	-11.9486
▁salem	-11.9486
▁slut	-11.9486
▁pago	-11.9486
zoeken	-11.9487
▁parri	-11.9487
▁klan	-11.9487
▁googled	-11.9487
zette	-11.9487
▁recruitment	-11.9487
▁plug	-11.9487
▁nini	-11.9487
▁princeton	-11.9487
▁neuron	-11.9487
etts	-11.9487
▁lunchtime	-11.9488
ipad	-11.9488
▁tango	-11.9488
▁functional	-11.9488
▁herman	-11.9488
▁electron	-11.9488
▁spotter	-11.9489
▁disintegrat	-11.9489
▁stern	-11.9489
▁teasing	-11.9489
▁comic	-11.9489
▁few	-11.949
▁digest	-11.949
▁courageous	-11.949
▁aster	-11.949
▁iti	-11.949
▁drac	-11.949
▁fastball	-11.9491
▁vrouwen	-11.9491
▁moist	-11.9491
erhaal	-11.9491
▁hamburger	-11.9491
▁transmitter	-11.9491
▁processor	-11.9492
▁alight	-11.9492
▁junction	-11.9493
▁forsake	-11.9493
▁counselor	-11.9493
▁clang	-11.9493
▁compet	-11.9493
visible	-11.9493
▁sitwell	-11.9494
▁verla	-11.9494
▁flushes	-11.9494
▁tuba	-11.9494
shit	-11.9494
▁vred	-11.9494
haired	-11.9494
▁gassed	-11.9495
▁enhanced	-11.9495
▁flunked	-11.9495
▁diagnosed	-11.9495
▁embarked	-11.9495
▁shuttle	-11.9495
▁alton	-11.9496
amos	-11.9496
▁headstone	-11.9496
▁hardship	-11.9497
▁spotsu	-11.9497
flower	-11.9497
▁youngster	-11.9497
▁drumming	-11.9497
matis	-11.9498
▁devised	-11.9498
▁pronounced	-11.9498
▁reduced	-11.9498
▁basis	-11.9498
▁rival	-11.9499
▁european	-11.9499
▁mouthful	-11.9499
▁nssl	-11.9499
▁brie	-11.9499
journe	-11.95
▁detonat	-11.95
▁nica	-11.95
▁signori	-11.9501
▁vincen	-11.9501
▁fout	-11.9502
▁environmental	-11.9502
▁puncture	-11.9502
▁auntie	-11.9502
▁krijgt	-11.9502
▁staple	-11.9502
luded	-11.9502
▁cora	-11.9502
▁alleg	-11.9502
▁dung	-11.9502
▁countrymen	-11.9503
▁relat	-11.9503
uitt	-11.9504
▁becky	-11.9504
▁saal	-11.9504
▁hovering	-11.9504
▁exceeding	-11.9504
▁iooking	-11.9504
▁shushing	-11.9504
▁shattering	-11.9504
▁biggie	-11.9504
▁drax	-11.9505
▁restart	-11.9505
▁soli	-11.9505
▁vary	-11.9505
▁uncha	-11.9505
▁superb	-11.9505
▁lick	-11.9505
▁crunchy	-11.9505
▁vibe	-11.9506
▁evan	-11.9506
▁bulga	-11.9507
▁sewn	-11.9508
▁pts	-11.9508
▁consideration	-11.9508
▁assemble	-11.9508
▁phew	-11.9508
▁analyst	-11.9509
▁mah	-11.9509
▁disciplined	-11.951
▁resolved	-11.951
▁shagg	-11.951
▁tomas	-11.9511
▁lila	-11.9511
▁spasm	-11.9511
▁slandered	-11.9511
▁invaded	-11.9511
▁drugged	-11.9511
▁stru	-11.9512
big	-11.9512
▁yahi	-11.9512
sensor	-11.9512
▁reserv	-11.9513
▁fetchi	-11.9513
▁specialty	-11.9513
▁humbl	-11.9513
▁seventy	-11.9514
▁bumbl	-11.9514
▁savor	-11.9514
▁conserv	-11.9514
▁maple	-11.9514
▁eggses	-11.9514
▁oof	-11.9515
▁mutin	-11.9515
▁peterson	-11.9515
iq	-11.9516
▁foreigners	-11.9516
▁stretcher	-11.9517
▁mixer	-11.9517
▁presentation	-11.9517
▁jackass	-11.9517
▁flashes	-11.9517
▁approaches	-11.9518
▁eten	-11.9518
▁hotline	-11.9519
▁uv	-11.9519
▁smartass	-11.9519
▁concentrated	-11.9521
▁cranky	-11.9521
▁gum	-11.9522
▁layman	-11.9522
▁caution	-11.9523
▁cling	-11.9523
▁kerry	-11.9523
▁causeway	-11.9524
fusion	-11.9524
▁vind	-11.9524
▁paar	-11.9524
▁cove	-11.9525
▁antibiotics	-11.9525
▁bahamas	-11.9525
▁cucumbers	-11.9525
▁forensics	-11.9525
▁manufacturers	-11.9525
▁orgasms	-11.9525
▁supplies	-11.9525
▁accuser	-11.9526
▁automatical	-11.9526
▁fam	-11.9526
▁rebooting	-11.9527
▁confusing	-11.9527
▁stupidass	-11.9528
▁flawed	-11.9528
▁jilted	-11.9528
▁plastered	-11.9528
▁bombers	-11.9529
mistak	-11.9529
▁idiotic	-11.9529
▁vle	-11.9529
▁interst	-11.953
faced	-11.9531
▁tenant	-11.9532
▁instantly	-11.9532
▁gaping	-11.9533
▁smear	-11.9534
▁linds	-11.9534
▁emts	-11.9535
▁vu	-11.9535
▁massac	-11.9536
▁painfully	-11.9537
▁stamped	-11.9537
capacit	-11.9537
▁lopen	-11.9537
▁marti	-11.9537
▁peep	-11.9537
▁canal	-11.9538
▁juney	-11.9539
▁coverup	-11.954
▁artie	-11.9541
▁eliminated	-11.9542
▁wanderer	-11.9542
▁loopt	-11.9543
▁demo	-11.9543
▁parttime	-11.9543
▁kyln	-11.9544
▁quad	-11.9544
▁pinched	-11.9544
▁updated	-11.9544
▁haw	-11.9546
▁prob	-11.9546
▁stitch	-11.9547
▁constantly	-11.9547
▁hopeful	-11.9548
▁toaster	-11.9549
▁sweater	-11.9549
▁expanding	-11.955
▁vanishing	-11.955
▁overlapp	-11.9551
rew	-11.9553
hnai	-11.9553
▁vamo	-11.9553
▁entera	-11.9554
ucat	-11.9554
▁speel	-11.9555
▁coal	-11.9555
▁bop	-11.9556
spouse	-11.9556
▁lawman	-11.9556
▁radiat	-11.9556
assup	-11.9558
water	-11.9561
▁disen	-11.9561
migration	-11.9562
▁adventurer	-11.9565
▁slaved	-11.9567
▁realised	-11.9568
▁louise	-11.9568
▁cum	-11.9569
▁hud	-11.9569
avin	-11.957
▁manhood	-11.9571
▁conducting	-11.9573
▁nein	-11.9574
▁lact	-11.9574
draft	-11.9575
▁shutter	-11.9576
▁regularly	-11.9576
▁pest	-11.9578
▁pines	-11.9578
mpet	-11.9579
lore	-11.958
isch	-11.9581
▁designer	-11.9581
▁tailor	-11.9581
▁whot	-11.9582
lord	-11.9583
▁winch	-11.9585
▁pitt	-11.9591
nsie	-11.9592
▁bestow	-11.9593
▁pont	-11.9593
▁sliced	-11.9593
▁nod	-11.9594
▁bac	-11.9595
receding	-11.9595
▁doormen	-11.9596
▁whirl	-11.9596
▁dang	-11.9597
▁randomly	-11.9599
▁patched	-11.9602
▁acc	-11.9602
▁pastor	-11.9603
▁blair	-11.9603
▁corny	-11.9603
▁wired	-11.9605
rything	-11.9607
▁bel	-11.9608
▁degrad	-11.961
▁grou	-11.961
▁idealist	-11.9611
▁withdraw	-11.9611
▁wooed	-11.9612
▁incit	-11.9613
▁rode	-11.9614
▁oneyear	-11.9614
▁nailed	-11.9617
▁presses	-11.9619
▁publishing	-11.962
▁crowing	-11.962
▁hongerig	-11.9622
▁dome	-11.9622
towe	-11.9623
▁dryer	-11.9626
▁ceremonie	-11.9627
▁pillag	-11.9627
▁informed	-11.9635
▁rivera	-11.9636
▁historical	-11.9637
trouwe	-11.9638
▁reset	-11.9638
▁trampl	-11.9641
▁grim	-11.9642
▁peach	-11.9642
▁chad	-11.9645
▁tempting	-11.9645
▁delighted	-11.9646
▁eased	-11.9649
▁emailed	-11.965
▁constitut	-11.965
▁accidental	-11.9653
▁breng	-11.9654
▁ammoni	-11.9654
▁gap	-11.9655
myself	-11.9661
▁delen	-11.9662
▁fest	-11.9663
▁insulted	-11.9663
▁recommended	-11.9663
▁modifi	-11.9664
▁climbed	-11.9664
▁earning	-11.9666
▁swarming	-11.9666
hun	-11.9667
▁twoey	-11.9667
turn	-11.9668
▁bathe	-11.967
▁pry	-11.967
▁bagg	-11.9671
▁shitting	-11.9674
▁mould	-11.9674
isse	-11.9675
ookie	-11.9675
▁quake	-11.9678
▁disarm	-11.9682
absence	-11.9685
▁nun	-11.9687
▁ascending	-11.969
▁ambien	-11.9693
▁az	-11.9693
▁moi	-11.9696
▁starve	-11.9698
voluntarily	-11.971
▁mea	-11.971
▁bumped	-11.9718
▁allied	-11.9718
▁poli	-11.9721
▁sedat	-11.9727
▁experimented	-11.9737
▁betraying	-11.9738
▁scored	-11.9749
▁idio	-11.9751
▁fragil	-11.9754
▁jammi	-11.976
▁protesting	-11.9761
▁runway	-11.9763
▁verbal	-11.9764
▁jumper	-11.9771
▁excitedly	-11.9772
▁lining	-11.9777
▁texted	-11.9783
▁finishes	-11.9783
sibi	-11.9788
▁careless	-11.9791
▁trailer	-11.9794
▁entrust	-11.9794
ulgar	-11.9797
▁sauna	-11.9798
domesticated	-11.9803
▁repaired	-11.9808
▁pasta	-11.9813
▁myr	-11.9818
▁feller	-11.9844
▁stoke	-11.9858
▁banne	-11.987
▁penn	-11.9871
dental	-11.9871
▁leer	-11.9875
game	-11.9878
▁bil	-11.9884
▁noted	-11.9887
hook	-11.9888
▁psychologi	-11.9907
▁skimm	-11.9908
zam	-11.992
▁after	-11.9922
▁ofyou	-11.9922
roo	-11.9923
▁contribut	-11.9941
ngue	-11.9951
▁eco	-11.9956
evolutionary	-11.9963
ithis	-11.9964
▁quart	-11.9973
▁mia	-11.9982
▁fend	-11.9986
▁shipment	-11.9987
bucha	-11.9989
elvish	-11.9997
regard	-12.0007
geho	-12.0007
▁whine	-12.0016
tox	-12.0017
▁rollin	-12.003
tual	-12.0041
▁verteld	-12.006
▁commando	-12.0065
empt	-12.0067
▁brit	-12.0086
llaba	-12.009
ensions	-12.0091
▁zak	-12.0092
▁pun	-12.0096
▁trav	-12.0107
ext	-12.0122
▁obi	-12.0148
▁protector	-12.015
▁wool	-12.0151
flow	-12.0164
liner	-12.0186
activ	-12.0201
lock	-12.0205
raw	-12.0205
▁corresponden	-12.0211
orsten	-12.0229
vies	-12.0265
ggie	-12.0284
▁graceful	-12.029
okken	-12.0303
▁mold	-12.0313
▁orchestrate	-12.0336
drawn	-12.0347
▁iit	-12.035
▁whipp	-12.0357
fitted	-12.0359
rhythmi	-12.0359
▁cancell	-12.0372
▁poon	-12.0392
▁rotte	-12.0419
ification	-12.0449
neration	-12.0491
yph	-12.0501
saurus	-12.0524
nik	-12.0525
▁revere	-12.0546
▁oppressi	-12.0549
▁broaden	-12.0564
ride	-12.0565
nza	-12.0567
▁poster	-12.0567
talk	-12.0568
morgen	-12.0568
▁aut	-12.0573
mino	-12.0585
everage	-12.0596
established	-12.0609
ubby	-12.0623
visa	-12.064
▁verb	-12.0683
▁veron	-12.0714
▁boxer	-12.0742
▁admirabl	-12.0778
▁tremo	-12.0872
state	-12.0915
ooga	-12.092
▁marin	-12.0967
aig	-12.0995
▁aggravat	-12.1076
rumbling	-12.1078
▁demonstrat	-12.1087
▁berth	-12.1091
▁conclude	-12.1108
▁advertise	-12.112
▁cub	-12.1141
uden	-12.1146
plicit	-12.1182
educated	-12.1206
eraan	-12.1216
▁anno	-12.1222
▁hart	-12.1256
ddler	-12.1273
mobilize	-12.1278
issy	-12.1284
quet	-12.132
▁garg	-12.1373
jar	-12.138
last	-12.1389
stability	-12.1418
▁select	-12.1446
▁keg	-12.1487
▁dominate	-12.1498
▁adhe	-12.1508
▁bri	-12.1522
▁blim	-12.1549
▁translat	-12.1606
▁presenter	-12.1641
▁exterminat	-12.1688
▁navigat	-12.1708
▁evaluat	-12.1716
joined	-12.1785
▁indicat	-12.1804
▁hungar	-12.1809
range	-12.1831
abby	-12.1846
mmm	-12.1853
escent	-12.1858
▁anticipat	-12.1879
ehouse	-12.1887
eared	-12.1915
▁consum	-12.1931
randy	-12.1961
▁authoriz	-12.1981
▁trou	-12.1993
part	-12.2038
elective	-12.2057
▁hym	-12.2103
mite	-12.2108
elijke	-12.2146
okey	-12.2168
ebee	-12.22
▁donde	-12.2234
▁behav	-12.2252
▁demonstrate	-12.2272
▁aggravate	-12.2291
▁rappin	-12.2305
hgrade	-12.2349
▁spik	-12.2382
▁accelerat	-12.2447
gula	-12.2461
okay	-12.2536
▁beau	-12.2551
gui	-12.2568
▁disse	-12.2572
nno	-12.2576
▁isob	-12.2577
ebys	-12.2588
embe	-12.2617
▁uncertain	-12.2621
ronic	-12.2648
▁saf	-12.268
ambo	-12.2727
▁decreas	-12.2823
perm	-12.2836
luck	-12.2843
▁purifi	-12.287
▁industr	-12.2873
▁lokke	-12.2962
neath	-12.297
chester	-12.3032
▁mist	-12.3043
▁liege	-12.3043
▁revers	-12.3053
▁defin	-12.3068
grade	-12.3073
broer	-12.3092
▁debat	-12.3102
irth	-12.3142
ucky	-12.3144
reeks	-12.3186
▁dishonor	-12.3192
▁opge	-12.3235
forced	-12.3288
▁zwart	-12.3347
structure	-12.3355
▁averag	-12.3358
▁correspond	-12.3362
interpreted	-12.3384
ulated	-12.3469
▁esp	-12.3497
nnel	-12.3557
▁bewi	-12.3564
cop	-12.3631
▁twi	-12.3632
▁kend	-12.3647
▁escapin	-12.3651
blime	-12.3682
matched	-12.3693
gard	-12.3711
▁quar	-12.3728
took	-12.373
cocked	-12.3738
▁sequenc	-12.3755
pressed	-12.3762
▁cort	-12.3768
kimo	-12.381
ternal	-12.3823
lude	-12.3832
▁muc	-12.3834
hairy	-12.3842
▁domini	-12.3863
stokes	-12.3865
▁chr	-12.3895
▁vul	-12.3948
laine	-12.3959
posed	-12.3973
bbie	-12.3978
▁deceiv	-12.4011
civiliz	-12.4023
racht	-12.4024
doubted	-12.4036
hoi	-12.4059
arious	-12.4061
▁pill	-12.4061
▁yith	-12.4083
explained	-12.4089
▁lalala	-12.4113
▁repri	-12.4114
dancing	-12.4139
atten	-12.4144
▁troop	-12.4169
tumbling	-12.4174
jector	-12.4184
▁scrap	-12.4189
humed	-12.4193
▁politic	-12.4202
▁vibrat	-12.4203
▁whimper	-12.4205
wise	-12.4212
mentary	-12.4218
adjust	-12.4224
▁squirrel	-12.4235
▁paramedic	-12.4235
▁shudder	-12.4236
▁moroe	-12.4237
▁colour	-12.4241
▁horror	-12.4242
▁premise	-12.4245
▁handcuff	-12.4246
▁illusion	-12.4251
▁gallon	-12.4253
▁earring	-12.4253
▁rib	-12.4253
▁rhode	-12.4254
▁circumstance	-12.4254
▁resource	-12.4255
▁vein	-12.4257
▁ec	-12.4258
▁giggle	-12.4259
▁enti	-12.4259
citing	-12.4268
▁immun	-12.4272
rote	-12.4274
▁sob	-12.4277
▁poser	-12.4278
▁acre	-12.428
▁other	-12.4281
istisch	-12.4286
founder	-12.4292
▁participatin	-12.4296
▁slam	-12.4296
▁toot	-12.431
musk	-12.4311
▁garb	-12.4317
etting	-12.432
▁orion	-12.4325
celled	-12.4328
rican	-12.433
▁snor	-12.433
▁univers	-12.433
▁absen	-12.4332
▁slic	-12.4333
▁sapp	-12.4347
▁accus	-12.4348
▁sizzl	-12.4349
close	-12.4354
omic	-12.4355
▁obsess	-12.437
solut	-12.4371
▁shatter	-12.4374
scribe	-12.4378
vided	-12.4379
▁encourag	-12.438
▁rifl	-12.4381
▁lov	-12.4383
▁astronom	-12.4383
▁coop	-12.4386
▁experienc	-12.4386
damer	-12.439
▁embrac	-12.4394
entine	-12.4399
▁phon	-12.4403
▁yum	-12.4404
▁squea	-12.4409
▁exceed	-12.4413
prehensi	-12.4413
cules	-12.4414
▁punct	-12.4416
▁shush	-12.4416
▁suppos	-12.4417
▁compell	-12.4418
▁snarl	-12.4419
steroids	-12.442
hines	-12.4421
▁iook	-12.4424
oxi	-12.4424
▁diagnos	-12.4426
▁pleasur	-12.4426
▁fowl	-12.4427
▁embark	-12.4428
▁preach	-12.4428
▁elevat	-12.443
▁exaggerat	-12.443
▁suspend	-12.443
▁decommission	-12.443
▁prolong	-12.4431
analyst	-12.4431
vibe	-12.4431
forsake	-12.4431
wired	-12.4431
broad	-12.4432
basis	-12.4432
nants	-12.4432
▁flunk	-12.4432
truck	-12.4433
▁vanquish	-12.4433
parallel	-12.4433
▁drain	-12.4433
▁notic	-12.4433
ambles	-12.4434
installed	-12.4434
grunt	-12.4434
related	-12.4434
junior	-12.4434
challenged	-12.4434
registered	-12.4434
restricted	-12.4434
thorn	-12.4434
zaak	-12.4435
drowning	-12.4435
aggressive	-12.4435
milton	-12.4435
model	-12.4435
moral	-12.4435
settled	-12.4436
summers	-12.4436
valuable	-12.4436
contained	-12.4436
form	-12.4436
memorial	-12.4436
tram	-12.4436
respect	-12.4436
touchdown	-12.4436
secretary	-12.4436
exchange	-12.4436
screwed	-12.4436
pleasant	-12.4436
spice	-12.4436
community	-12.4436
witness	-12.4436
issue	-12.4436
quarter	-12.4436
ocean	-12.4437
wheel	-12.4437
effect	-12.4437
groot	-12.4437
schedule	-12.4437
responsible	-12.4437
experience	-12.4437
filled	-12.4437
student	-12.4437
camera	-12.4437
built	-12.4437
teacher	-12.4437
spirit	-12.4437
weapon	-12.4437
movie	-12.4437
thousand	-12.4437
perfect	-12.4437
throat	-12.4437
pleasure	-12.4437
uncle	-12.4437
engine	-12.4437
gemma	-12.4437
third	-12.4437
fault	-12.4437
white	-12.4437
blind	-12.4437
important	-12.4437
oooh	-12.4437
mgan	-12.4437
street	-12.4437
week	-12.4437
welcome	-12.4437
north	-12.4437
problem	-12.4437
help	-12.4437
maybe	-12.4437
james	-12.4437
stories	-12.4437
hydra	-12.4437
little	-12.4437
would	-12.4437
▁myse	-12.4438
forward	-12.4438
license	-12.4438
system	-12.4438
couple	-12.4438
paying	-12.4438
junction	-12.4438
▁enhanc	-12.4438
forget	-12.4438
kids	-12.4438
theory	-12.4439
find	-12.4439
jacket	-12.444
funk	-12.444
▁accuse	-12.444
▁google	-12.4441
▁amaze	-12.4441
▁analys	-12.4441
havin	-12.4442
beast	-12.4442
document	-12.4443
felt	-12.4443
▁erupt	-12.4443
▁endeavo	-12.4443
▁featur	-12.4443
▁combine	-12.4443
wound	-12.4444
slide	-12.4444
around	-12.4445
hour	-12.4445
mask	-12.4445
dunk	-12.4446
▁provoke	-12.4446
oleg	-12.4447
minu	-12.4447
▁discriminat	-12.4447
tooth	-12.4448
ggle	-12.4449
▁stev	-12.4449
▁silicon	-12.4449
▁retaliat	-12.4449
▁strateg	-12.4451
mother	-12.4451
▁robber	-12.4451
upper	-12.4452
▁atmospher	-12.4452
▁responsibl	-12.4452
▁stead	-12.4452
▁twent	-12.4452
▁greed	-12.4452
▁frida	-12.4453
▁sizzle	-12.4453
deep	-12.4454
▁heavi	-12.4454
▁libert	-12.4455
▁nutritio	-12.4455
▁hover	-12.4455
ambler	-12.4455
meter	-12.4456
assure	-12.4456
▁securit	-12.4456
▁coupl	-12.4456
▁arsen	-12.4456
wyn	-12.4457
▁nigh	-12.4457
ibbons	-12.4457
▁benefi	-12.4457
chop	-12.4457
▁innocen	-12.4458
▁significan	-12.4458
▁attache	-12.4459
▁filth	-12.4459
▁asia	-12.4459
cogniti	-12.4459
▁approximate	-12.446
▁merc	-12.4461
▁administrat	-12.4461
giver	-12.4461
▁instrument	-12.4461
killer	-12.4463
▁festiv	-12.4463
▁paranoi	-12.4464
▁sculpt	-12.4465
▁posit	-12.4465
uspicious	-12.4465
▁overcom	-12.4465
▁accommodat	-12.4465
aught	-12.4465
▁destructi	-12.4465
▁permissi	-12.4465
▁intersect	-12.4465
▁livin	-12.4466
quisit	-12.4466
▁starvin	-12.4466
▁closin	-12.4466
▁sarcas	-12.4466
▁teenage	-12.4466
▁mechani	-12.4466
▁givin	-12.4466
▁aouuu	-12.4466
▁winnin	-12.4466
▁dinin	-12.4466
▁nausea	-12.4466
distribute	-12.4466
▁reord	-12.4466
▁opportun	-12.4467
rrifying	-12.4467
nite	-12.4467
nternet	-12.4467
▁anonym	-12.4467
▁chokin	-12.4467
▁hypocri	-12.4467
▁kidnap	-12.4468
riving	-12.4468
▁valenti	-12.4468
▁influen	-12.4468
▁pronoun	-12.4468
aggot	-12.4468
ecutive	-12.4468
▁blu	-12.4468
▁devastati	-12.4468
ezelf	-12.4468
[...]
