<unk>	0
<s>	0
</s>	0
s	-4.13529
▁im	-4.56206
▁dont	-4.59912
▁know	-4.6521
▁get	-4.81323
▁oh	-4.86098
▁well	-4.87134
▁go	-4.88792
▁like	-4.89005
▁come	-4.97111
▁right	-4.98387
▁youre	-5.11775
▁one	-5.1245
▁got	-5.13554
▁thats	-5.21033
▁see	-5.2396
▁good	-5.27968
▁yeah	-5.29125
▁think	-5.386
▁want	-5.39355
▁yes	-5.44159
▁na	-5.48503
▁back	-5.5269
▁time	-5.56748
▁going	-5.5901
▁us	-5.59162
▁ill	-5.60458
▁look	-5.61049
▁okay	-5.61735
▁take	-5.65705
▁hey	-5.70338
▁man	-5.71727
▁cant	-5.72885
▁hes	-5.73274
▁gon	-5.73281
▁would	-5.74279
▁say	-5.84614
▁tell	-5.86501
▁way	-5.8678
▁little	-5.87744
▁could	-5.89075
▁really	-5.90306
▁never	-5.91596
ing	-5.92632
▁make	-5.94673
▁lets	-5.98243
▁love	-5.99125
▁something	-6.0218
▁need	-6.05985
▁let	-6.061
▁whats	-6.07073
▁didnt	-6.09863
▁mean	-6.11307
▁ive	-6.12753
▁give	-6.13474
▁thank	-6.13866
▁l	-6.14084
ed	-6.16212
▁theres	-6.18237
▁two	-6.187
▁please	-6.19015
▁people	-6.2078
▁sure	-6.21834
▁mr	-6.22084
▁	-6.28182
▁help	-6.28352
▁sorry	-6.28354
▁said	-6.29513
▁much	-6.30411
▁sir	-6.30531
▁day	-6.33314
▁thing	-6.33836
▁music	-6.34459
▁must	-6.3472
▁uh	-6.3665
▁first	-6.36716
▁even	-6.37571
▁find	-6.40233
▁wait	-6.41678
▁great	-6.44332
▁life	-6.45386
▁home	-6.47218
▁theyre	-6.47928
▁away	-6.48258
▁shes	-6.48786
▁new	-6.49481
▁better	-6.51688
▁still	-6.52221
▁nothing	-6.52887
▁god	-6.53913
▁ever	-6.55029
▁keep	-6.55429
▁stop	-6.55917
▁maybe	-6.56406
▁work	-6.56587
d	-6.56956
▁boy	-6.57742
▁night	-6.58688
▁big	-6.58917
▁anything	-6.59185
▁put	-6.61093
▁long	-6.61736
▁always	-6.6194
▁call	-6.62758
▁thought	-6.64389
▁things	-6.64609
▁old	-6.65813
▁youll	-6.6583
▁around	-6.66783
▁world	-6.69401
▁wont	-6.70927
▁last	-6.71006
▁id	-6.71407
▁told	-6.73668
▁talk	-6.74311
▁believe	-6.7486
y	-6.74863
▁youve	-6.76611
▁guys	-6.76689
▁made	-6.77068
▁everything	-6.77863
▁feel	-6.78021
▁every	-6.79333
▁leave	-6.80045
▁name	-6.80835
▁years	-6.81137
▁place	-6.81159
▁nice	-6.83033
▁stay	-6.8338
▁hear	-6.8373
▁three	-6.84101
▁fine	-6.86208
▁father	-6.86244
▁coming	-6.86624
▁lot	-6.8678
▁girl	-6.86883
▁hell	-6.87242
▁remember	-6.88225
▁money	-6.89363
▁huh	-6.89544
▁hello	-6.89599
▁course	-6.89826
▁hi	-6.90536
▁listen	-6.91293
▁kind	-6.91955
▁show	-6.92605
▁enough	-6.93146
▁thanks	-6.93882
▁dad	-6.94016
▁doesnt	-6.95297
▁isnt	-6.95673
▁may	-6.96158
▁left	-6.97115
▁another	-6.9788
▁mother	-6.98274
▁ta	-6.9902
ly	-6.99506
▁done	-6.99981
▁try	-7.00439
▁might	-7.01991
▁real	-7.02132
▁best	-7.0233
▁miss	-7.02478
▁care	-7.02627
▁came	-7.0297
e	-7.04155
▁bad	-7.04795
▁hold	-7.05161
▁getting	-7.0541
▁mind	-7.05796
▁mom	-7.06013
▁ready	-7.06167
▁today	-7.06641
▁ok	-7.0667
▁wanted	-7.07244
▁wrong	-7.08079
▁son	-7.09293
▁car	-7.09789
▁wan	-7.1119
▁together	-7.11724
▁next	-7.11901
▁move	-7.11915
▁house	-7.12076
▁weve	-7.12433
▁baby	-7.12622
▁morning	-7.12703
▁ah	-7.12824
er	-7.14076
▁understand	-7.14218
▁men	-7.14683
▁many	-7.14805
▁woman	-7.15324
▁seen	-7.17175
▁family	-7.1872
▁without	-7.18867
▁friend	-7.1889
▁trying	-7.19088
▁else	-7.20996
▁ask	-7.21756
▁whole	-7.21854
▁live	-7.21905
▁found	-7.22323
▁guy	-7.22519
▁looking	-7.22975
in	-7.23045
▁happened	-7.23937
▁whoa	-7.24443
▁talking	-7.25065
▁head	-7.25116
▁pretty	-7.25337
▁run	-7.25578
▁hope	-7.264
▁beautiful	-7.26466
▁ha	-7.27031
▁water	-7.27122
▁someone	-7.27274
▁aint	-7.28945
▁saw	-7.29367
▁door	-7.30108
▁play	-7.3091
▁guess	-7.30916
▁alone	-7.31283
▁heard	-7.31299
▁happy	-7.31498
▁hand	-7.3168
▁start	-7.31741
▁playing	-7.3176
▁matter	-7.31778
▁eat	-7.31948
▁idea	-7.32044
▁went	-7.32146
▁wouldnt	-7.32308
▁bring	-7.33503
▁tomorrow	-7.33538
▁young	-7.33567
▁tonight	-7.33674
▁la	-7.33752
▁job	-7.33996
▁hard	-7.34529
▁knew	-7.34893
▁room	-7.34909
▁school	-7.35936
▁meet	-7.36769
▁kill	-7.37376
▁use	-7.3772
▁turn	-7.37876
▁excuse	-7.38729
▁yet	-7.39112
▁true	-7.39699
▁watch	-7.39758
▁open	-7.40117
▁heart	-7.40261
▁wasnt	-7.40271
▁kids	-7.40278
▁days	-7.41449
▁far	-7.41505
▁dear	-7.42163
▁laughing	-7.42481
▁lost	-7.43019
▁worry	-7.43112
▁minute	-7.43952
a	-7.44036
▁friends	-7.44203
▁gone	-7.44386
▁dog	-7.44415
▁dead	-7.45117
▁em	-7.45305
▁looks	-7.47236
▁forget	-7.47583
▁girls	-7.47596
▁actually	-7.47719
▁bit	-7.47827
▁already	-7.48222
▁used	-7.48615
▁youd	-7.48759
▁called	-7.49222
▁um	-7.49227
▁everyone	-7.49337
▁soon	-7.4943
▁havent	-7.49891
▁couldnt	-7.50466
▁since	-7.50528
▁easy	-7.50541
▁end	-7.50957
▁late	-7.51738
▁everybody	-7.51839
▁part	-7.52074
▁face	-7.52124
▁cause	-7.52374
▁whos	-7.52987
▁year	-7.53974
▁sit	-7.544
▁kid	-7.54787
▁christmas	-7.54935
▁eyes	-7.55386
▁took	-7.55755
▁mine	-7.56662
▁king	-7.56691
u	-7.56897
▁says	-7.57112
▁brother	-7.57602
▁boys	-7.59393
▁shall	-7.59671
o	-7.60014
▁four	-7.60284
▁word	-7.60611
▁problem	-7.61812
▁wish	-7.62057
▁anyone	-7.6316
▁fun	-7.63694
▁town	-7.64735
▁rest	-7.64927
▁later	-7.6501
▁also	-7.65102
▁ago	-7.65134
▁change	-7.65161
▁damn	-7.65346
▁die	-7.66303
▁business	-7.66864
▁stand	-7.66888
▁fire	-7.67452
▁pay	-7.67665
▁laughs	-7.68219
▁crazy	-7.68317
▁story	-7.69253
▁read	-7.69283
▁afraid	-7.69412
▁mrs	-7.69514
▁sleep	-7.69522
▁five	-7.69579
▁close	-7.69648
▁hurry	-7.69728
▁sighs	-7.70009
▁saying	-7.70606
▁shit	-7.70672
▁stuff	-7.70841
t	-7.70874
▁drink	-7.71123
▁second	-7.7116
▁hit	-7.71306
▁wants	-7.71361
▁free	-7.71969
▁high	-7.72204
▁moment	-7.72599
▁dr	-7.73062
▁horse	-7.73243
▁important	-7.73825
▁lady	-7.73847
▁arent	-7.74249
▁honey	-7.74249
▁set	-7.74982
▁children	-7.75141
▁black	-7.75169
▁thinking	-7.7536
▁ya	-7.75578
i	-7.76014
▁city	-7.76091
▁hurt	-7.76369
▁check	-7.76776
▁quite	-7.7679
▁doctor	-7.77151
▁taking	-7.77275
▁chance	-7.7734
▁fuck	-7.77435
▁wheres	-7.77713
▁number	-7.77838
r	-7.77957
▁wife	-7.78436
▁fight	-7.78849
▁side	-7.78971
▁comes	-7.7934
▁chuckles	-7.79451
▁trouble	-7.79482
▁point	-7.79544
▁different	-7.79762
▁full	-7.80262
▁least	-7.80557
▁anyway	-7.80561
▁walk	-7.80869
▁hands	-7.81044
▁goes	-7.81831
n	-7.81901
▁welcome	-7.81971
▁captain	-7.81971
▁waiting	-7.82147
▁cool	-7.82418
▁probably	-7.82507
▁inside	-7.83048
▁working	-7.83072
▁phone	-7.83455
▁makes	-7.83545
▁nobody	-7.83554
▁whatever	-7.8359
▁country	-7.83773
▁minutes	-7.83823
▁dream	-7.8426
▁wow	-7.84686
▁somebody	-7.84688
es	-7.84994
▁lm	-7.85087
▁making	-7.85424
▁along	-7.85602
▁light	-7.8562
▁team	-7.85623
▁gave	-7.85791
▁exactly	-7.8617
▁half	-7.87075
▁mama	-7.87164
▁bye	-7.87472
l	-7.87872
▁happen	-7.88282
▁almost	-7.8861
▁times	-7.8863
▁break	-7.89012
▁ahead	-7.89376
▁lord	-7.90015
▁asked	-7.90169
▁shut	-7.90908
▁goodbye	-7.90924
▁brought	-7.91119
▁food	-7.91684
▁ooh	-7.91918
▁white	-7.91991
▁book	-7.92427
▁dance	-7.92482
▁cut	-7.92496
▁bed	-7.92634
▁women	-7.92697
▁seems	-7.92812
▁line	-7.92841
▁started	-7.93082
▁gentlemen	-7.93095
▁princess	-7.93123
▁deal	-7.93907
▁case	-7.9392
▁supposed	-7.9429
▁though	-7.94291
▁hmm	-7.9448
▁wonderful	-7.94619
▁clear	-7.94674
▁daddy	-7.94893
▁perfect	-7.95003
▁y	-7.95061
▁rock	-7.95174
▁special	-7.95277
▁game	-7.95453
▁sweet	-7.95588
▁speak	-7.95704
▁dinner	-7.95734
▁win	-7.95784
▁sound	-7.96101
al	-7.96828
▁speaking	-7.97013
▁pick	-7.97313
▁anymore	-7.97371
▁death	-7.97373
▁war	-7.98171
▁uncle	-7.98269
▁stupid	-7.98403
▁child	-7.98415
▁catch	-7.98504
▁killed	-7.99011
▁jack	-7.99225
▁air	-7.99245
▁means	-7.99583
▁week	-8.00015
▁ladies	-8.00116
▁sister	-8.00118
▁save	-8.00226
▁funny	-8.00332
▁poor	-8.00545
▁person	-8.00775
▁party	-8.00823
▁follow	-8.01367
▁behind	-8.01405
▁hot	-8.01642
▁hate	-8.01712
▁cold	-8.01848
▁crowd	-8.02305
▁fly	-8.02416
▁star	-8.02439
▁truth	-8.02698
▁sometimes	-8.02934
▁bet	-8.03391
▁promise	-8.03568
▁theyll	-8.03597
▁hours	-8.03714
▁shot	-8.03898
▁news	-8.04168
▁six	-8.04355
▁met	-8.04955
▁married	-8.0584
▁bear	-8.05957
▁earth	-8.06143
▁luck	-8.06417
▁heres	-8.06747
▁gun	-8.07352
▁knows	-8.07931
▁red	-8.08014
▁land	-8.0819
▁sing	-8.08251
▁fuckin	-8.08418
▁able	-8.09179
▁reason	-8.09435
▁learn	-8.09478
▁top	-8.09859
▁sea	-8.10272
▁send	-8.10405
▁either	-8.10472
▁power	-8.10632
▁ball	-8.1068
▁trust	-8.10708
▁alive	-8.10715
▁sounds	-8.1078
▁sort	-8.10872
▁screaming	-8.11004
▁wonder	-8.11162
▁anybody	-8.11184
▁become	-8.11624
▁feet	-8.1167
▁cheering	-8.11712
▁front	-8.11904
▁perhaps	-8.11905
▁glad	-8.12073
▁body	-8.12153
▁lose	-8.12609
▁president	-8.12616
▁order	-8.12753
▁touch	-8.12846
▁question	-8.13089
▁running	-8.13369
▁gasps	-8.13777
▁fact	-8.14333
▁daughter	-8.14344
▁tried	-8.14351
▁needs	-8.14535
▁fast	-8.14599
▁safe	-8.147
▁outside	-8.15334
▁voice	-8.15854
▁itll	-8.16085
▁ride	-8.16102
▁lives	-8.16651
▁dark	-8.16947
▁hang	-8.17131
▁feeling	-8.17145
▁plan	-8.17224
▁living	-8.17611
▁buy	-8.17651
c	-8.1775
▁sun	-8.18424
▁john	-8.18617
▁small	-8.19062
▁shoot	-8.19167
▁scared	-8.19188
▁couple	-8.19402
▁months	-8.19443
▁gold	-8.19616
▁wake	-8.2005
▁answer	-8.2058
▁aah	-8.20976
▁professor	-8.21762
▁telling	-8.21854
▁fall	-8.22072
▁hair	-8.22908
m	-8.22945
▁human	-8.23214
▁beat	-8.23221
▁blood	-8.23794
▁seem	-8.23862
▁step	-8.23883
▁grunting	-8.23918
▁lovely	-8.23953
g	-8.24007
▁hour	-8.24065
▁pull	-8.24089
▁maam	-8.24456
▁wed	-8.2452
▁lead	-8.2453
▁boat	-8.24895
▁song	-8.24915
▁office	-8.2495
▁fucking	-8.25196
▁shouldnt	-8.25276
▁leaving	-8.25552
▁past	-8.25602
▁secret	-8.25608
▁strong	-8.26467
▁max	-8.26941
▁quick	-8.27048
▁prince	-8.27186
▁jesus	-8.2722
▁alright	-8.27221
▁evening	-8.27286
▁sam	-8.27501
▁un	-8.27592
▁amazing	-8.28065
▁straight	-8.28322
▁quiet	-8.28826
▁sign	-8.28955
▁ten	-8.29611
▁lucky	-8.29637
▁possible	-8.29777
▁fish	-8.29924
▁gets	-8.29964
▁continues	-8.29997
▁control	-8.30053
▁s	-8.30106
▁serious	-8.30263
▁buddy	-8.30356
▁words	-8.30494
▁died	-8.30959
▁write	-8.31186
▁th	-8.31194
▁group	-8.31207
▁finally	-8.31275
▁sick	-8.31514
▁parents	-8.31611
▁throw	-8.31832
▁race	-8.31836
▁careful	-8.32065
▁police	-8.32077
▁wind	-8.32096
▁somewhere	-8.32106
▁marry	-8.32141
▁till	-8.32311
▁bird	-8.32716
▁train	-8.32815
▁drive	-8.33065
▁boss	-8.3326
▁tree	-8.33282
ers	-8.33375
▁return	-8.33738
▁sense	-8.34066
▁sent	-8.34593
▁husband	-8.34819
ic	-8.35035
▁forever	-8.35096
en	-8.35199
▁born	-8.35411
▁master	-8.3542
▁count	-8.35701
▁drop	-8.35953
▁fault	-8.36011
▁charlie	-8.36026
▁taken	-8.36195
▁blue	-8.37427
▁street	-8.37619
▁majesty	-8.37663
▁darling	-8.37867
▁frank	-8.38166
▁deep	-8.38298
▁ow	-8.38512
▁de	-8.3922
▁worth	-8.39316
▁theyve	-8.39439
▁rather	-8.39439
▁mary	-8.3946
▁american	-8.39515
▁less	-8.39884
▁moving	-8.40077
▁known	-8.40317
▁others	-8.40393
▁grunts	-8.4077
▁church	-8.40991
▁clothes	-8.41363
▁suppose	-8.41543
▁york	-8.41683
▁picture	-8.41809
▁early	-8.42081
▁bell	-8.42293
▁longer	-8.4248
▁hows	-8.42506
p	-8.42585
▁wear	-8.42718
▁giving	-8.42988
est	-8.43334
▁million	-8.43339
▁ice	-8.43673
▁ones	-8.43887
▁calling	-8.44254
▁simple	-8.44265
▁seven	-8.44345
▁singing	-8.44354
▁proud	-8.44546
▁road	-8.44644
▁dreams	-8.44735
▁lts	-8.44742
▁strange	-8.44832
▁felt	-8.44955
▁across	-8.44977
▁future	-8.45313
▁lunch	-8.456
▁ass	-8.45782
▁summer	-8.4587
▁hed	-8.46418
▁c	-8.46458
▁animals	-8.46739
▁figure	-8.46745
▁language	-8.46911
▁radio	-8.48025
▁meeting	-8.48044
▁weeks	-8.48044
▁fear	-8.48761
▁eye	-8.48817
▁lie	-8.48838
▁class	-8.48846
▁mad	-8.48853
▁happens	-8.49168
le	-8.49359
▁warm	-8.4939
▁george	-8.49429
man	-8.4972
▁english	-8.4976
▁join	-8.4989
▁lll	-8.49951
▁kidding	-8.50495
▁worked	-8.50505
▁short	-8.50517
▁barking	-8.50544
▁none	-8.50556
▁act	-8.50625
▁movie	-8.51122
▁plane	-8.51182
on	-8.51233
▁shell	-8.51386
▁ho	-8.5144
h	-8.51575
▁billy	-8.51995
▁clean	-8.52039
▁forgive	-8.52216
▁kiss	-8.52263
▁surprise	-8.52451
▁certain	-8.52541
▁french	-8.52604
▁loved	-8.52933
▁tired	-8.53012
▁state	-8.53236
▁pass	-8.53522
▁expect	-8.53615
▁evil	-8.53714
▁coffee	-8.54457
▁ring	-8.54569
▁crying	-8.5467
▁attention	-8.54826
▁general	-8.55116
▁turned	-8.55124
▁yesterday	-8.55197
▁bill	-8.5541
▁o	-8.55641
▁busy	-8.55642
▁given	-8.55684
▁miles	-8.55733
▁trip	-8.55949
▁pain	-8.56282
▁roll	-8.56314
able	-8.56562
▁changed	-8.56671
▁present	-8.56754
▁hungry	-8.57071
▁law	-8.57472
▁mountain	-8.57603
▁looked	-8.57636
▁slow	-8.57768
▁round	-8.58136
▁stick	-8.58235
▁mouth	-8.58254
▁chief	-8.58271
▁certainly	-8.58307
▁wild	-8.584
▁throat	-8.58595
▁absolutely	-8.58608
or	-8.58757
▁peace	-8.58852
▁papa	-8.58903
▁middle	-8.5897
▁company	-8.58978
▁record	-8.59053
▁cat	-8.59081
▁shh	-8.5942
▁groans	-8.59444
▁film	-8.59727
▁forgot	-8.5975
▁david	-8.59752
▁foot	-8.59764
▁pleasure	-8.59837
▁fool	-8.60037
▁yo	-8.60134
▁finish	-8.60405
▁mark	-8.60445
▁asking	-8.60799
▁narrator	-8.60924
▁birds	-8.60952
▁magic	-8.61095
▁entire	-8.61226
▁folks	-8.61489
▁sad	-8.61625
v	-8.61734
▁ship	-8.61783
▁hide	-8.61842
▁ground	-8.61999
▁teach	-8.62106
▁takes	-8.63073
▁choice	-8.63197
▁band	-8.63251
▁harry	-8.63314
▁al	-8.63418
▁date	-8.63485
▁dangerous	-8.63624
ie	-8.63683
▁tv	-8.63732
▁fair	-8.63904
▁piece	-8.64257
▁blow	-8.64351
▁eh	-8.64375
▁imagine	-8.64383
▁sell	-8.64419
▁mmm	-8.64594
▁explain	-8.64605
▁handle	-8.64694
▁eight	-8.65211
▁visit	-8.65256
▁tom	-8.65309
▁bitch	-8.65331
▁royal	-8.65337
▁horses	-8.65402
▁bank	-8.65533
▁highness	-8.65787
▁heaven	-8.65816
▁meant	-8.65915
st	-8.65952
▁caught	-8.66168
▁unless	-8.66181
▁happening	-8.66323
▁ringing	-8.66461
▁terrible	-8.66582
▁groaning	-8.66597
▁age	-8.66678
▁mike	-8.66881
▁smart	-8.66897
▁ohh	-8.67172
▁cute	-8.67183
▁enjoy	-8.67352
▁green	-8.67357
▁ahh	-8.6742
▁watching	-8.6752
▁christ	-8.67557
▁queen	-8.67614
▁near	-8.67638
▁peter	-8.67641
▁camp	-8.67833
▁worried	-8.67837
▁worse	-8.67837
▁dress	-8.68604
▁calm	-8.68727
▁dogs	-8.68751
▁elvis	-8.69108
▁history	-8.69111
▁shouting	-8.69171
▁quickly	-8.69247
▁seeing	-8.69637
▁america	-8.69717
▁except	-8.69919
▁sarah	-8.69966
▁paul	-8.7024
▁joy	-8.70389
▁decided	-8.70469
▁missed	-8.70645
▁pig	-8.70689
▁relax	-8.70751
▁spend	-8.70999
▁tough	-8.71161
▁afternoon	-8.71263
▁wall	-8.71406
▁engine	-8.71411
▁south	-8.71443
▁reach	-8.71624
▁rain	-8.71738
▁flying	-8.71795
▁board	-8.71899
▁carry	-8.71922
▁chattering	-8.72304
▁realize	-8.72465
▁kept	-8.72579
▁bob	-8.7286
▁impossible	-8.73022
▁laughter	-8.73029
▁push	-8.73033
▁flowers	-8.73203
▁needed	-8.73338
▁werent	-8.73466
▁attack	-8.73511
▁laugh	-8.7372
▁besides	-8.73757
▁camera	-8.73773
▁instead	-8.73913
▁questions	-8.73979
▁double	-8.73992
▁honor	-8.74
▁st	-8.74018
▁finished	-8.74151
▁quit	-8.74216
▁anywhere	-8.74361
▁shoes	-8.7449
▁grow	-8.74664
▁joe	-8.74674
▁lonely	-8.74814
ll	-8.74975
ion	-8.75033
▁swear	-8.75244
▁mister	-8.75275
▁whoo	-8.75623
▁completely	-8.75772
▁bag	-8.76022
▁table	-8.76127
ve	-8.76167
▁applause	-8.76175
▁forward	-8.76175
▁wedding	-8.76197
▁cry	-8.76326
▁snow	-8.76335
▁b	-8.76504
▁north	-8.76513
▁field	-8.7654
▁river	-8.76581
▁third	-8.76634
▁island	-8.76995
▁broke	-8.77147
▁faster	-8.77241
▁fell	-8.77415
▁brave	-8.77722
▁upon	-8.78026
▁france	-8.78029
▁animal	-8.78396
▁re	-8.78407
▁moon	-8.78508
▁letter	-8.7851
▁west	-8.78576
▁tea	-8.78796
▁soul	-8.79263
▁rules	-8.7946
▁greatest	-8.79659
▁works	-8.79767
▁monster	-8.7983
▁month	-8.79836
▁paid	-8.79924
▁flight	-8.80331
▁taste	-8.80346
▁major	-8.80369
▁lt	-8.80389
▁dancing	-8.8039
▁yelling	-8.80453
▁spirit	-8.808
▁fix	-8.80823
▁danny	-8.80862
▁park	-8.81167
▁indistinct	-8.8125
▁club	-8.81292
▁doubt	-8.81301
▁beginning	-8.81343
▁hotel	-8.81367
▁pa	-8.81524
▁service	-8.8178
▁store	-8.8213
ies	-8.82251
▁a	-8.82257
▁college	-8.82309
▁walking	-8.82547
▁ii	-8.82651
▁personal	-8.8277
▁sergeant	-8.82797
▁charge	-8.83137
▁wine	-8.83208
▁henry	-8.83288
▁totally	-8.83326
▁interested	-8.83428
▁legs	-8.83725
▁station	-8.83776
b	-8.84035
▁idiot	-8.84239
▁court	-8.84257
▁agree	-8.84322
▁officer	-8.84343
▁rich	-8.84397
▁aw	-8.84476
▁arms	-8.84492
▁hero	-8.84706
▁brown	-8.84758
▁silly	-8.84789
▁army	-8.84867
▁names	-8.8513
▁chuckling	-8.85276
▁cover	-8.85301
▁hat	-8.85594
▁x	-8.85607
▁report	-8.85716
▁broken	-8.85819
▁cave	-8.85845
▁p	-8.85986
▁grab	-8.86032
▁bright	-8.86045
▁dare	-8.86139
▁mess	-8.86273
▁respect	-8.86592
▁mistake	-8.86774
▁panting	-8.86789
▁sex	-8.87187
▁indeed	-8.87298
▁sky	-8.87314
▁window	-8.87403
▁holy	-8.87434
▁guard	-8.87634
▁smell	-8.87763
▁village	-8.87854
▁santa	-8.8786
▁message	-8.87864
k	-8.88048
▁saved	-8.88182
▁grandpa	-8.88329
▁hospital	-8.88374
▁box	-8.88453
▁lived	-8.88542
▁weird	-8.88762
▁smile	-8.88766
▁became	-8.88844
▁bottom	-8.88916
▁leg	-8.88958
▁teacher	-8.8901
▁tight	-8.89086
▁mm	-8.89172
ful	-8.89343
▁list	-8.89445
▁low	-8.89525
it	-8.89666
▁especially	-8.89888
▁outta	-8.89989
an	-8.90009
▁interesting	-8.90079
▁pop	-8.90153
▁promised	-8.90219
▁dee	-8.90275
▁share	-8.90277
▁glass	-8.90376
▁cross	-8.90432
▁system	-8.90503
▁offer	-8.90591
▁cake	-8.90636
▁stars	-8.90658
▁dan	-8.90943
▁security	-8.90945
f	-8.91135
▁loves	-8.91424
▁colonel	-8.91476
▁jump	-8.91598
▁begin	-8.9162
▁liked	-8.91691
▁hoo	-8.91802
▁mission	-8.92157
▁grand	-8.92304
▁cook	-8.92391
▁marriage	-8.92548
▁inspector	-8.92549
▁merry	-8.9255
▁paris	-8.92761
▁brothers	-8.92901
▁d	-8.92952
ity	-8.92997
▁angel	-8.93045
▁favorite	-8.93091
▁ran	-8.93131
ness	-8.93216
▁knock	-8.93293
▁walls	-8.93328
▁building	-8.93453
▁standing	-8.93473
us	-8.93574
▁played	-8.93595
▁continue	-8.93623
▁wrote	-8.93632
▁j	-8.93707
▁gods	-8.93832
▁kate	-8.93887
ur	-8.93992
▁difference	-8.94332
▁k	-8.94408
▁area	-8.94409
▁neither	-8.94728
▁lights	-8.94772
▁hundred	-8.94842
▁missing	-8.94871
▁floor	-8.94888
▁nose	-8.94898
▁forest	-8.94899
▁test	-8.94986
▁i	-8.95037
▁prison	-8.95178
▁nervous	-8.95187
▁ought	-8.9522
▁final	-8.95268
▁hasnt	-8.95281
▁cash	-8.95284
▁horn	-8.95296
▁spot	-8.95444
▁everywhere	-8.95844
▁vou	-8.95978
▁honest	-8.96184
▁fresh	-8.96326
▁learned	-8.9633
▁charles	-8.96397
▁rat	-8.96479
▁starting	-8.96649
▁truck	-8.96719
▁sweetheart	-8.96957
▁stuck	-8.9696
▁breathe	-8.96972
▁mmhmm	-8.96975
▁protect	-8.96984
▁screams	-8.97159
▁situation	-8.97521
▁daisy	-8.97525
▁doc	-8.97643
▁single	-8.97647
▁stone	-8.97899
▁wearing	-8.97977
▁position	-8.9803
▁pray	-8.98079
▁milk	-8.98097
▁space	-8.98097
▁uhhuh	-8.98099
▁force	-8.98171
▁heh	-8.98456
▁bar	-8.9846
▁art	-8.9849
re	-8.98494
▁nature	-8.98661
▁taught	-8.98662
z	-8.98817
▁fit	-8.98897
▁fighting	-8.98958
▁kitchen	-8.99814
▁dirty	-8.99845
▁machine	-8.99866
up	-8.99892
▁difficult	-9.0026
▁richard	-9.00393
▁definitely	-9.00402
▁stage	-9.00449
▁sight	-9.00466
▁dick	-9.00637
▁sake	-9.00653
▁lve	-9.00676
▁congratulations	-9.00981
▁driving	-9.00986
▁feels	-9.01103
▁lf	-9.01211
▁seconds	-9.01529
▁often	-9.01569
▁emma	-9.01601
▁n	-9.01627
▁figured	-9.01809
is	-9.01838
▁scott	-9.02027
▁aunt	-9.02058
▁london	-9.0216
▁yall	-9.02231
▁judge	-9.02278
▁lay	-9.02465
▁garden	-9.02488
▁dude	-9.02529
▁bus	-9.02549
▁asleep	-9.02755
▁sitting	-9.02787
▁g	-9.03026
▁eating	-9.03027
▁belong	-9.03164
▁super	-9.03326
▁jason	-9.03357
▁bang	-9.03422
▁lots	-9.03471
w	-9.03492
▁coach	-9.03631
▁paper	-9.03691
▁stopped	-9.03991
▁build	-9.04104
▁ms	-9.0416
▁national	-9.04354
▁kick	-9.04417
▁within	-9.04569
▁aye	-9.04718
▁seriously	-9.04754
▁rings	-9.04758
▁f	-9.04784
▁nine	-9.04865
▁thousand	-9.04888
▁whose	-9.04964
▁soft	-9.04975
▁private	-9.05077
▁accident	-9.05168
▁favor	-9.05171
▁speed	-9.05172
▁bought	-9.05172
▁choose	-9.05172
▁beauty	-9.05173
▁benny	-9.05182
▁key	-9.05482
▁pack	-9.05509
▁danger	-9.05521
▁burn	-9.05577
▁kings	-9.05632
▁awful	-9.05711
▁whether	-9.05786
▁arrived	-9.05842
▁arm	-9.06
▁dramatic	-9.064
▁beyond	-9.06403
▁plenty	-9.06403
▁teeth	-9.06404
▁yogi	-9.06405
▁bother	-9.06547
▁states	-9.06882
▁tour	-9.06953
▁grandfather	-9.07024
▁wolf	-9.07024
▁immediately	-9.07041
▁allowed	-9.07227
▁german	-9.07281
▁brand	-9.07285
▁books	-9.07334
▁government	-9.07399
▁accept	-9.07417
▁brain	-9.07423
▁contact	-9.07649
▁information	-9.07652
▁famous	-9.07669
▁smoke	-9.07813
to	-9.07818
▁talked	-9.079
▁fingers	-9.07977
▁using	-9.07987
▁goin	-9.08247
▁in	-9.08257
▁excellent	-9.08278
▁birthday	-9.08279
▁weather	-9.08281
▁fat	-9.08381
ar	-9.08402
▁shed	-9.08406
▁winter	-9.08697
▁reading	-9.08701
▁dumb	-9.08753
▁champ	-9.08886
▁breakfast	-9.08911
▁lieutenant	-9.08911
▁bible	-9.08915
▁suddenly	-9.08966
▁gasping	-9.08991
▁consider	-9.09046
▁san	-9.0907
▁named	-9.09078
▁lock	-9.09297
▁castle	-9.09334
▁huge	-9.09339
▁starts	-9.09363
▁faith	-9.09533
▁planet	-9.09687
▁search	-9.09712
▁upset	-9.10183
▁swim	-9.10185
▁orders	-9.10291
▁allow	-9.10794
▁extra	-9.1083
▁bunch	-9.10841
▁destroy	-9.11007
▁prove	-9.11114
▁spring	-9.11272
▁owe	-9.11368
▁m	-9.11445
▁heavy	-9.11483
▁sheep	-9.11483
▁england	-9.11484
nt	-9.11742
▁pardon	-9.12138
▁tiny	-9.12188
minous	-9.12395
▁track	-9.12485
▁strength	-9.12667
▁madam	-9.12719
▁staying	-9.12752
▁admit	-9.12781
▁dying	-9.12796
▁steal	-9.13007
ous	-9.13113
▁practice	-9.13132
▁direction	-9.13285
▁thunder	-9.13456
▁lying	-9.13469
▁holding	-9.13566
▁gift	-9.13733
▁joke	-9.1382
▁decision	-9.13955
▁public	-9.1398
▁rid	-9.141
▁grace	-9.14105
▁among	-9.14105
▁jim	-9.14136
▁bigger	-9.14158
▁card	-9.1417
▁guns	-9.14458
▁growing	-9.14514
▁ray	-9.14689
▁neck	-9.14795
▁worst	-9.14795
▁built	-9.14797
▁smith	-9.14804
▁fathers	-9.15039
▁seat	-9.15079
▁mountains	-9.15194
▁native	-9.15319
▁twice	-9.15471
▁putting	-9.15557
▁tape	-9.15615
▁bomb	-9.15633
▁breath	-9.1587
▁chicken	-9.16023
ation	-9.16074
▁apart	-9.16142
▁tony	-9.16195
▁bo	-9.16247
▁per	-9.1631
▁speaks	-9.16349
▁chris	-9.16387
▁tires	-9.16477
▁battle	-9.16696
▁loud	-9.16743
▁stranger	-9.1679
▁biggest	-9.16836
▁suit	-9.16875
▁maria	-9.16904
▁perfectly	-9.17145
▁cinderella	-9.17525
▁empty	-9.17525
▁awesome	-9.17526
▁incredible	-9.17547
▁games	-9.17742
▁an	-9.17903
▁risk	-9.17988
▁beach	-9.18178
▁chatter	-9.18658
▁waste	-9.18776
▁alex	-9.18803
▁closed	-9.18836
▁howd	-9.18854
▁excited	-9.18927
▁growling	-9.1897
▁hole	-9.18986
▁appreciate	-9.19477
▁price	-9.19541
▁yellow	-9.19608
▁dig	-9.19649
▁theyd	-9.19737
▁closer	-9.19811
▁el	-9.19864
▁trick	-9.19896
▁talent	-9.20045
▁mention	-9.2013
▁scene	-9.2024
▁match	-9.20295
▁martin	-9.20307
▁cheese	-9.20334
▁ugh	-9.20349
▁whispers	-9.20733
▁study	-9.20789
▁ghost	-9.20968
▁bastard	-9.20974
▁goodness	-9.21004
▁brian	-9.21044
▁angry	-9.21047
▁gas	-9.21056
▁problems	-9.21182
▁listening	-9.21509
▁feed	-9.21536
less	-9.21551
▁form	-9.21706
▁cost	-9.21707
▁tail	-9.2175
▁ridiculous	-9.21766
▁spent	-9.21768
▁happiness	-9.21771
▁james	-9.2178
▁trees	-9.21786
▁interest	-9.21974
▁parker	-9.21985
▁ocean	-9.22438
▁matt	-9.22484
▁audience	-9.22491
▁kingdom	-9.22491
▁inaudible	-9.22492
▁obviously	-9.22548
▁travel	-9.22577
▁beg	-9.22644
▁support	-9.22692
▁boo	-9.22807
▁rule	-9.22952
▁base	-9.23118
▁upstairs	-9.23221
▁spanish	-9.23221
▁jail	-9.23222
▁post	-9.23302
▁keeping	-9.23361
▁calls	-9.23743
▁storm	-9.23805
▁robert	-9.23868
▁rose	-9.23869
▁hearts	-9.23911
▁video	-9.23921
▁operation	-9.23925
▁giant	-9.23927
▁department	-9.23957
▁duty	-9.23964
▁sold	-9.23975
▁cup	-9.24057
▁passed	-9.24379
▁pal	-9.24389
▁color	-9.24455
▁goddamn	-9.24705
▁action	-9.24712
▁writing	-9.24712
▁united	-9.24777
▁treat	-9.2481
▁following	-9.24856
▁gosh	-9.25113
▁opens	-9.25136
▁w	-9.25168
▁shame	-9.25174
▁helping	-9.25301
▁wood	-9.25347
▁large	-9.25382
▁tigger	-9.25437
▁common	-9.25445
▁rex	-9.25453
▁pants	-9.25455
▁involved	-9.25455
▁usually	-9.25511
▁sal	-9.25532
▁hoping	-9.25569
▁surprised	-9.25732
▁bloody	-9.25767
▁blind	-9.25978
▁loose	-9.26001
▁correct	-9.26011
▁escape	-9.26055
▁crew	-9.26189
▁tommy	-9.26205
▁rope	-9.26206
▁agent	-9.26219
▁fairy	-9.26413
▁spell	-9.26706
th	-9.26721
▁wouldve	-9.26739
▁mothers	-9.26916
▁melinda	-9.26953
▁meat	-9.26955
▁journey	-9.26958
▁fellow	-9.26976
▁wondering	-9.27028
▁pictures	-9.27421
▁dry	-9.27428
▁notice	-9.27556
▁prepare	-9.27576
▁seemed	-9.2766
▁drunk	-9.27693
▁willing	-9.27768
▁hill	-9.27917
▁bringing	-9.28012
▁keys	-9.28063
▁e	-9.28069
ling	-9.28385
▁plans	-9.28394
▁bridge	-9.28416
▁steve	-9.2844
▁rome	-9.28451
▁fantastic	-9.28487
▁hanging	-9.28513
▁sand	-9.28536
▁mum	-9.28627
▁sleeping	-9.29
▁complete	-9.29037
▁knowing	-9.29155
▁normal	-9.29175
▁heidi	-9.29261
▁simply	-9.29261
▁minister	-9.29308
▁restaurant	-9.29309
▁bottle	-9.29315
▁hunt	-9.29461
▁serve	-9.29504
▁dressed	-9.29643
▁fellas	-9.29739
▁arrest	-9.29833
▁sisters	-9.30023
▁somehow	-9.30042
▁hadnt	-9.30042
▁alice	-9.30046
▁corner	-9.30048
▁whistle	-9.30105
▁foreign	-9.30235
▁students	-9.30344
▁fill	-9.30397
ch	-9.30475
▁mayor	-9.30481
▁training	-9.30738
▁jungle	-9.30832
▁football	-9.30837
▁gentleman	-9.30843
▁guitar	-9.30901
▁uhoh	-9.30912
▁winner	-9.30916
▁press	-9.31189
▁plays	-9.31428
▁hall	-9.31456
ro	-9.31499
▁health	-9.31508
▁friday	-9.31623
▁thatll	-9.31631
▁chirping	-9.31639
▁size	-9.3165
▁command	-9.31796
▁da	-9.31947
▁farm	-9.32026
▁ears	-9.32174
▁main	-9.32263
▁hardly	-9.32279
▁whistling	-9.32423
▁handsome	-9.32443
▁pool	-9.3245
▁se	-9.32765
▁moved	-9.32881
ist	-9.32928
▁trail	-9.32959
▁dollars	-9.33084
▁strike	-9.3319
▁memory	-9.3323
▁flat	-9.33239
rs	-9.3324
▁fred	-9.33255
▁shop	-9.3331
▁christian	-9.3334
▁fan	-9.33657
and	-9.3374
te	-9.33852
▁lake	-9.33896
▁stole	-9.34003
▁afford	-9.34042
▁jacob	-9.34042
▁due	-9.34151
▁rise	-9.34184
▁survive	-9.34721
▁east	-9.34774
▁pat	-9.34825
▁silver	-9.3486
▁ancient	-9.34862
▁johnny	-9.34872
▁roof	-9.34875
▁boyfriend	-9.34875
▁crap	-9.34887
▁heat	-9.34922
▁madame	-9.34971
▁locked	-9.3513
ive	-9.35164
▁leader	-9.35234
ment	-9.35287
ry	-9.35292
▁tie	-9.35296
▁gives	-9.35348
ant	-9.3539
▁raise	-9.35549
▁gadget	-9.35688
▁distance	-9.35689
▁hyah	-9.3569
▁champion	-9.3572
▁hiding	-9.35788
▁gotten	-9.3582
ne	-9.35942
▁ed	-9.36052
ton	-9.3609
▁address	-9.36262
▁wide	-9.36489
▁possibly	-9.36522
▁crystal	-9.36522
▁example	-9.36522
▁claus	-9.36525
▁yep	-9.3654
▁beer	-9.36667
▁pete	-9.36719
▁humans	-9.36979
▁crime	-9.36984
▁chinese	-9.37362
▁competition	-9.37362
▁necessary	-9.37362
▁truly	-9.3737
▁weight	-9.37387
▁experience	-9.37396
▁movies	-9.37538
▁account	-9.37545
▁rocks	-9.37624
▁climb	-9.37943
▁kinda	-9.38049
▁shows	-9.3815
▁saturday	-9.3821
▁bullshit	-9.38211
▁written	-9.38217
▁everythings	-9.38225
▁center	-9.38248
▁screeching	-9.38319
▁valley	-9.38404
▁h	-9.38524
▁ben	-9.38629
▁clicks	-9.38846
▁turns	-9.38965
▁orchestra	-9.39058
▁luna	-9.39062
▁cornelius	-9.39064
▁morgan	-9.39064
▁purpose	-9.39064
▁sobbing	-9.39064
▁boris	-9.39065
▁horrible	-9.39065
▁balto	-9.39066
▁began	-9.3908
▁whatd	-9.39108
▁ticket	-9.39281
▁path	-9.39303
▁boots	-9.3953
▁natural	-9.39835
▁murder	-9.3991
▁falling	-9.39918
▁stories	-9.39926
▁picked	-9.39926
▁emergency	-9.39928
▁according	-9.39943
▁fired	-9.40046
▁wings	-9.40073
▁places	-9.4017
▁killing	-9.40189
▁ways	-9.40337
▁wash	-9.4036
▁expected	-9.40421
▁male	-9.40503
▁thinks	-9.40604
▁blame	-9.40654
▁introduce	-9.40654
▁freedom	-9.40796
▁however	-9.40797
▁forgotten	-9.408
▁larry	-9.40804
▁alan	-9.4083
▁tim	-9.40885
▁detective	-9.41031
▁sunday	-9.41041
▁turning	-9.41045
▁cell	-9.41063
▁breathing	-9.41134
▁harder	-9.41413
▁shake	-9.41445
▁rescue	-9.41531
▁leaves	-9.41597
▁tall	-9.41668
▁nonsense	-9.41673
▁opportunity	-9.41673
▁sheriff	-9.41673
▁someday	-9.41673
▁midnight	-9.41673
▁wet	-9.41679
▁pressure	-9.41686
▁beast	-9.41836
▁losing	-9.41847
▁toy	-9.41913
▁studio	-9.41959
▁lesson	-9.41989
▁repeat	-9.42072
▁papers	-9.42112
▁bull	-9.42267
though	-9.4237
▁ear	-9.42389
▁feelings	-9.42523
▁view	-9.42523
▁ugly	-9.42558
▁romantic	-9.4256
▁sweetie	-9.42634
▁lies	-9.42728
▁opening	-9.42764
▁alarm	-9.43177
▁laura	-9.43416
▁scoffs	-9.43451
▁giggling	-9.43451
▁pair	-9.4347
▁steele	-9.43523
▁style	-9.43744
▁older	-9.43808
▁records	-9.44248
▁enemy	-9.44352
▁local	-9.44352
▁stanley	-9.44353
▁shouldve	-9.44353
▁lena	-9.44367
ia	-9.44626
▁andy	-9.4468
▁driver	-9.44785
▁bears	-9.44869
▁nuts	-9.45026
▁grant	-9.45073
▁cop	-9.45109
el	-9.45234
▁noble	-9.45249
▁shooting	-9.45282
▁dave	-9.45284
▁mile	-9.45348
▁walked	-9.4542
▁earl	-9.45423
▁project	-9.45544
▁asshole	-9.45579
▁realized	-9.45591
▁rent	-9.45712
▁dads	-9.45846
▁advice	-9.46178
▁responsible	-9.46178
▁gordy	-9.46179
▁nowhere	-9.46179
▁matilda	-9.4618
▁andrea	-9.46184
▁guilty	-9.46204
▁duke	-9.46204
▁bite	-9.46224
▁honking	-9.46286
▁nearly	-9.46379
▁clears	-9.46491
▁brazil	-9.46505
▁female	-9.46514
▁noise	-9.46516
▁weekend	-9.46518
▁devil	-9.46525
▁mac	-9.46548
▁discuss	-9.46642
▁millions	-9.46682
▁heads	-9.46739
▁lee	-9.46965
▁where	-9.46965
▁cream	-9.46981
go	-9.47079
▁note	-9.47092
▁gang	-9.47105
▁steady	-9.47106
▁cheers	-9.47226
▁bones	-9.47334
▁mate	-9.47489
▁deliver	-9.47614
no	-9.47861
▁bravo	-9.48039
▁penny	-9.48041
▁bathroom	-9.48041
▁chef	-9.48041
▁proof	-9.48057
▁ash	-9.48134
▁telephone	-9.48146
▁season	-9.48231
▁exist	-9.4824
▁fella	-9.48376
▁shark	-9.48416
▁director	-9.4845
▁map	-9.488
▁coast	-9.48893
▁program	-9.48978
▁apologize	-9.48982
▁jenny	-9.48983
▁soup	-9.48991
▁planned	-9.48995
▁cow	-9.49049
▁ba	-9.49337
▁riding	-9.49357
▁opinion	-9.49365
▁gate	-9.49387
▁draw	-9.4953
ism	-9.49685
▁celebrate	-9.4979
▁guards	-9.49863
▁comfortable	-9.4994
▁whispering	-9.50028
▁dolly	-9.50028
▁player	-9.50072
▁deserve	-9.50201
▁decide	-9.50203
▁hank	-9.5023
▁guest	-9.50354
the	-9.50592
▁paying	-9.50604
▁doin	-9.50649
▁fans	-9.50756
▁remain	-9.50836
▁exciting	-9.50896
▁whenever	-9.50896
▁martha	-9.50897
▁vacation	-9.50897
▁annie	-9.50916
▁dean	-9.50969
▁lips	-9.50996
▁invited	-9.51006
▁agreed	-9.51167
ter	-9.51231
▁patient	-9.51235
▁miracle	-9.51321
▁level	-9.51337
▁suggest	-9.51352
▁partner	-9.51353
▁mommy	-9.51371
ta	-9.514
▁sally	-9.51447
▁showed	-9.51702
▁event	-9.51707
▁wise	-9.51755
▁dust	-9.51793
et	-9.51821
▁bucks	-9.51837
▁akita	-9.51867
▁dawn	-9.51868
▁eric	-9.51885
▁adventure	-9.5196
▁nobodys	-9.52058
▁letters	-9.52073
▁rob	-9.52229
▁rainbow	-9.52301
▁cousin	-9.52316
▁couldve	-9.52474
out	-9.52485
▁fancy	-9.5285
▁humming	-9.52855
▁manager	-9.52898
▁ringle	-9.52901
▁ends	-9.53115
▁create	-9.53158
▁settle	-9.53213
▁thy	-9.53243
▁finger	-9.53324
il	-9.53431
▁self	-9.53442
▁gee	-9.53447
▁cops	-9.53492
▁square	-9.53689
▁recognize	-9.53696
▁rats	-9.537
men	-9.53716
▁nothin	-9.53812
▁joseph	-9.53837
▁medicine	-9.53839
▁comin	-9.5384
▁birth	-9.53842
▁beeping	-9.53924
▁code	-9.5394
▁van	-9.54115
▁soldiers	-9.54146
▁emperor	-9.54308
▁girlfriend	-9.54322
▁target	-9.54326
▁cock	-9.54337
▁bless	-9.54383
▁ideas	-9.54395
▁pre	-9.54425
▁drinking	-9.54478
▁streets	-9.54644
▁hook	-9.54709
▁followed	-9.54795
▁split	-9.54831
▁knife	-9.54838
▁california	-9.54839
▁teddy	-9.54839
▁usual	-9.54839
▁jones	-9.54842
▁bro	-9.54842
▁shape	-9.54883
you	-9.54992
▁noticed	-9.55021
▁crashing	-9.55079
▁ye	-9.5513
▁roger	-9.55339
▁pretend	-9.55592
▁pure	-9.55738
▁hearing	-9.55772
▁europe	-9.55824
▁universe	-9.55848
▁piano	-9.55848
▁onto	-9.55851
▁babe	-9.55893
▁coughing	-9.55931
▁golden	-9.55938
▁skin	-9.55994
▁believed	-9.56124
▁oil	-9.56131
▁chair	-9.5636
▁t	-9.56435
▁paint	-9.56441
▁meaning	-9.56504
▁ships	-9.56647
▁brilliant	-9.56868
▁japanese	-9.56868
▁science	-9.56868
▁rumbling	-9.56868
▁annabel	-9.5687
▁li	-9.56882
▁mail	-9.56891
▁powerful	-9.56927
la	-9.5703
▁slowly	-9.57114
▁sword	-9.57392
▁computer	-9.57406
ty	-9.57509
▁heavens	-9.57523
▁community	-9.579
▁creaking	-9.57917
▁bout	-9.57921
▁china	-9.57926
▁destroyed	-9.58233
▁appear	-9.58259
▁add	-9.5826
▁ja	-9.58307
ting	-9.58325
▁creatures	-9.58347
▁mighty	-9.58373
▁indian	-9.58439
▁russian	-9.58486
▁signal	-9.5859
▁en	-9.5859
▁william	-9.58814
▁rough	-9.58849
▁sudden	-9.58849
▁vote	-9.5886
▁evidence	-9.58941
▁threw	-9.58941
▁stuart	-9.58941
▁grew	-9.58942
▁monday	-9.58942
▁junior	-9.58944
▁kelly	-9.58964
▁winning	-9.58969
▁lift	-9.59037
▁stayed	-9.59052
▁hm	-9.59077
ha	-9.59224
▁bay	-9.59356
▁nights	-9.59395
▁type	-9.59399
▁belongs	-9.59475
▁contract	-9.59505
▁jean	-9.59522
▁creature	-9.59538
▁canyon	-9.59539
▁spread	-9.5957
▁pulled	-9.59743
▁pounds	-9.59772
▁louis	-9.59914
mon	-9.59939
▁awake	-9.59943
▁friendly	-9.59948
▁clouseau	-9.59993
▁footsteps	-9.59993
▁jordan	-9.59993
▁mexico	-9.59993
▁neecro	-9.59993
▁pizza	-9.59993
▁tongue	-9.59993
▁justice	-9.59994
▁century	-9.59996
▁held	-9.59998
▁woof	-9.60005
na	-9.60007
▁roaring	-9.60029
▁amen	-9.60033
▁copy	-9.60127
▁ruin	-9.60127
▁hercules	-9.60132
▁killer	-9.60248
▁keeps	-9.60343
▁breaking	-9.60387
▁score	-9.60483
▁treasure	-9.60599
▁coat	-9.6066
▁anna	-9.60672
▁acting	-9.60783
▁woods	-9.60998
▁grass	-9.6101
ri	-9.61024
▁courage	-9.61049
▁energy	-9.61057
▁joshua	-9.61057
▁understood	-9.61057
▁british	-9.61057
▁merlin	-9.61058
▁planning	-9.61069
▁announcer	-9.61075
▁goodnight	-9.61116
▁softly	-9.61217
▁indistinctly	-9.6126
▁cars	-9.61404
▁butt	-9.61486
▁surely	-9.61622
▁higher	-9.61678
▁character	-9.61684
▁conversation	-9.61693
▁shine	-9.61711
▁sooner	-9.61711
▁flower	-9.61763
▁returned	-9.61802
▁towards	-9.61971
▁remind	-9.62001
▁prefer	-9.62126
▁contest	-9.62127
▁innocent	-9.62132
▁hollywood	-9.62134
▁dropped	-9.62142
▁intense	-9.62144
▁giggles	-9.62274
▁grandma	-9.62291
▁worlds	-9.62307
▁itd	-9.62316
▁brad	-9.62339
▁warning	-9.62403
▁cap	-9.62459
▁block	-9.6259
▁thousands	-9.62638
▁iii	-9.62654
▁duck	-9.62791
▁explosion	-9.62792
▁snake	-9.62797
▁student	-9.62807
▁meal	-9.62899
▁younger	-9.62904
se	-9.63133
▁thief	-9.63219
▁insane	-9.63219
▁aboard	-9.63223
▁bread	-9.63229
▁commander	-9.63443
ate	-9.63706
▁knocking	-9.6375
▁weak	-9.63797
▁crash	-9.63799
▁saint	-9.63903
▁pole	-9.63905
ii	-9.63995
▁signed	-9.64017
▁sharp	-9.64135
▁pleased	-9.6428
▁knowledge	-9.64318
▁mercy	-9.64319
▁trap	-9.64322
▁desk	-9.64332
▁tears	-9.64398
▁professional	-9.64412
▁buzzing	-9.64516
▁scream	-9.6455
▁challenge	-9.64715
▁helped	-9.64729
▁metal	-9.64884
▁mo	-9.65017
▁chase	-9.65048
▁passing	-9.6512
▁career	-9.65147
▁punch	-9.65173
▁africa	-9.6538
▁march	-9.65396
▁michael	-9.65429
▁theodore	-9.65429
▁delicious	-9.6543
▁wherever	-9.65433
▁jimmy	-9.65438
▁molly	-9.65443
▁hugo	-9.65469
▁warn	-9.65487
▁gamble	-9.65494
at	-9.65533
▁research	-9.6565
ian	-9.65733
▁pie	-9.65884
▁heading	-9.66095
▁wagon	-9.66152
▁walter	-9.66193
▁expecting	-9.66239
▁doors	-9.66298
▁desert	-9.66344
▁port	-9.66346
▁chip	-9.66436
▁proper	-9.66471
▁sugar	-9.66552
▁arthur	-9.66553
▁whimpering	-9.66553
▁concerned	-9.66705
▁prepared	-9.66765
▁goal	-9.66797
▁request	-9.67082
▁prom	-9.67166
▁prize	-9.67229
▁nurse	-9.67294
▁clock	-9.67297
▁lawyer	-9.67309
▁bow	-9.67394
▁tischendorf	-9.67689
▁chocolate	-9.6769
▁property	-9.67696
▁maddy	-9.67702
▁bound	-9.67735
▁mei	-9.67948
▁closes	-9.68056
▁cubs	-9.68244
▁enter	-9.68363
▁nation	-9.68417
▁spoke	-9.68426
▁greek	-9.68464
▁relationship	-9.68472
▁member	-9.68484
▁soldier	-9.68491
▁toys	-9.68501
▁bike	-9.6868
ley	-9.68696
▁obvious	-9.68747
▁total	-9.68751
▁plain	-9.68752
▁simon	-9.68753
▁painting	-9.68796
▁military	-9.68839
▁sterling	-9.68839
▁wednesday	-9.68839
▁otherwise	-9.68839
▁washington	-9.68842
▁edward	-9.68842
▁bobby	-9.68854
▁medical	-9.68858
▁scary	-9.68881
ra	-9.68915
▁charming	-9.69025
be	-9.69125
▁brings	-9.69203
ma	-9.69394
▁lines	-9.69399
▁showing	-9.69514
▁waves	-9.69675
▁switch	-9.69742
▁jealous	-9.69882
▁gentle	-9.69996
▁byebye	-9.70002
▁cancer	-9.70002
▁groove	-9.70002
▁plus	-9.70003
▁whoever	-9.70003
▁bud	-9.70024
▁boring	-9.70037
▁howling	-9.70068
age	-9.70154
▁personally	-9.70242
▁letting	-9.70255
▁artist	-9.70256
um	-9.70632
▁apple	-9.70725
▁social	-9.70744
▁lately	-9.70815
▁snap	-9.70841
▁claw	-9.70988
▁spare	-9.71038
da	-9.71045
▁fought	-9.71178
▁murray	-9.71178
▁pregnant	-9.71178
▁clever	-9.71179
▁circus	-9.71179
▁trash	-9.71179
▁kitty	-9.71179
▁aii	-9.71218
▁sonny	-9.71219
▁stolen	-9.71237
▁received	-9.71267
▁jane	-9.7133
lo	-9.71463
▁filled	-9.71505
▁fate	-9.71523
▁bee	-9.71552
▁hunting	-9.7157
▁pok	-9.71734
for	-9.71786
ure	-9.71812
▁scare	-9.7193
▁blows	-9.71986
▁regret	-9.72025
▁di	-9.7211
▁ordered	-9.72195
▁cheap	-9.72286
▁easier	-9.72368
▁equipment	-9.72368
▁candy	-9.7237
▁nope	-9.72373
▁no	-9.7252
▁pup	-9.72707
▁deeply	-9.72718
▁sail	-9.72771
ine	-9.72961
▁led	-9.73158
▁r	-9.73244
▁shirt	-9.7326
▁page	-9.73273
▁market	-9.73348
▁depends	-9.73392
ce	-9.73453
▁concert	-9.7357
▁bastian	-9.73573
▁italian	-9.73573
▁rotten	-9.73574
▁expensive	-9.73575
▁several	-9.73576
▁swimming	-9.73579
▁snoring	-9.73592
▁barely	-9.736
▁jamie	-9.73607
▁claire	-9.73615
▁dusty	-9.73719
▁ln	-9.73826
▁bat	-9.73992
▁burning	-9.74096
▁lou	-9.74157
▁pro	-9.74192
as	-9.74262
▁elephant	-9.74505
▁mans	-9.74611
▁invite	-9.74653
▁particular	-9.74704
▁barks	-9.74704
▁original	-9.74719
▁attempt	-9.74793
▁oclock	-9.74793
▁upbeat	-9.74793
▁earlier	-9.74801
▁warren	-9.74821
▁thirsty	-9.74846
▁squealing	-9.7486
▁glasses	-9.749
▁headed	-9.74904
id	-9.74936
▁learning	-9.74942
ted	-9.74945
▁balls	-9.75119
by	-9.75236
▁bone	-9.75266
▁gettin	-9.754
▁lookin	-9.75469
▁shower	-9.75502
▁perform	-9.75543
▁blowing	-9.75589
▁wheel	-9.75729
▁hound	-9.75741
▁pilot	-9.75747
▁weapon	-9.75748
am	-9.75765
▁guide	-9.75884
▁product	-9.75885
▁smells	-9.75928
▁legal	-9.76016
▁amount	-9.76027
▁buried	-9.76028
▁pride	-9.7603
▁abigail	-9.76031
▁albert	-9.76031
▁jewish	-9.76033
▁emily	-9.76046
ca	-9.76047
▁loving	-9.76051
▁disgusting	-9.76078
▁mule	-9.76109
▁discovered	-9.76153
▁ruined	-9.76272
▁carefully	-9.76433
▁covered	-9.76562
me	-9.76637
▁leo	-9.76719
▁harm	-9.76772
▁numbers	-9.76829
▁rabbit	-9.77017
▁ham	-9.77019
▁mount	-9.77059
▁spin	-9.77141
▁success	-9.77142
▁regular	-9.77182
▁chuck	-9.77227
▁pleasant	-9.77277
▁whirring	-9.77277
▁bunny	-9.77278
▁puppy	-9.77278
▁davy	-9.77279
▁glory	-9.77279
▁familiar	-9.77281
▁murmuring	-9.77309
▁grown	-9.77384
▁bath	-9.7739
▁parts	-9.77405
▁served	-9.77514
▁who	-9.77738
▁clearly	-9.77844
▁ruth	-9.78025
▁selling	-9.78101
▁taxi	-9.78258
ish	-9.78386
▁release	-9.78402
▁speech	-9.78502
▁easily	-9.78543
▁humphrey	-9.78543
▁taylor	-9.78543
▁moses	-9.78544
▁aware	-9.78549
▁apparently	-9.78551
▁edge	-9.78551
▁abby	-9.78555
▁moaning	-9.78579
▁lucy	-9.78586
▁victory	-9.78591
▁over	-9.78606
▁butter	-9.78647
▁rip	-9.78651
▁out	-9.78762
▁rare	-9.78766
ier	-9.78996
▁condition	-9.79021
▁cares	-9.79517
▁grandmother	-9.79577
▁helen	-9.79764
▁beloved	-9.79825
▁invincible	-9.79825
▁stomach	-9.79825
▁whimpers	-9.79825
▁silence	-9.79826
▁university	-9.79827
▁ethan	-9.79828
▁staff	-9.79848
▁unfortunately	-9.79866
▁buying	-9.79874
ee	-9.79927
▁moments	-9.79931
▁created	-9.80008
▁lily	-9.80062
▁powers	-9.80154
▁stronger	-9.80189
▁coins	-9.80233
ey	-9.8027
ho	-9.80278
▁planes	-9.80281
▁cast	-9.80353
▁pigs	-9.80355
▁crown	-9.80521
▁focus	-9.8063
▁plant	-9.80631
▁dressing	-9.80631
▁avoid	-9.80631
▁suffer	-9.80647
▁wing	-9.80707
▁pieces	-9.80718
▁nick	-9.80849
▁governor	-9.80906
▁fruit	-9.80909
▁daniel	-9.80913
▁monkey	-9.80919
son	-9.8105
▁napoleon	-9.81124
▁period	-9.81124
▁permission	-9.81124
▁responsibility	-9.81124
▁international	-9.81124
▁precious	-9.81125
▁unique	-9.81129
▁ronnie	-9.81131
▁barry	-9.81145
▁safety	-9.81161
▁changing	-9.81164
▁le	-9.81226
▁finding	-9.81229
▁heroes	-9.8123
ah	-9.81394
▁growls	-9.81512
ary	-9.81518
▁moms	-9.81565
▁songs	-9.81708
▁matters	-9.81827
▁trained	-9.82055
▁desire	-9.82084
▁shoe	-9.821
▁opened	-9.82129
▁suspect	-9.82151
▁credit	-9.82244
▁pet	-9.8229
▁damage	-9.82298
▁cure	-9.82329
▁harris	-9.82397
▁mostly	-9.8244
▁eggs	-9.82444
▁deck	-9.82453
▁pity	-9.82544
▁exhales	-9.82552
▁nah	-9.82633
▁arrested	-9.82794
▁pot	-9.82829
▁crack	-9.82889
▁brains	-9.82991
▁design	-9.83047
▁ned	-9.83085
▁load	-9.83312
▁cheer	-9.83342
▁lied	-9.83351
▁row	-9.83422
▁jerk	-9.83469
▁effort	-9.83592
▁divorce	-9.83631
▁barn	-9.83681
▁pink	-9.83702
▁presents	-9.83732
▁empire	-9.83773
▁glorious	-9.83773
▁available	-9.83774
▁heck	-9.83775
▁airport	-9.83782
▁nasty	-9.83783
li	-9.83849
▁los	-9.83922
▁everybodys	-9.83925
▁lad	-9.84063
sh	-9.8411
▁pope	-9.8412
▁tied	-9.84216
▁si	-9.84516
▁guests	-9.8454
▁dis	-9.84621
▁v	-9.84684
▁skate	-9.84919
▁counting	-9.84935
▁owner	-9.84977
▁proceed	-9.8512
▁krasta	-9.85124
▁monsieur	-9.85124
▁sunshine	-9.85124
▁ryan	-9.85124
▁terrific	-9.85125
▁enemies	-9.85125
▁tiggers	-9.85146
▁hallie	-9.85156
▁latin	-9.8516
▁cabin	-9.85177
▁laid	-9.85238
▁honestly	-9.85347
▁raised	-9.85355
j	-9.85588
▁germans	-9.85681
▁ad	-9.85728
▁attacked	-9.85761
▁prime	-9.85773
▁siren	-9.85798
▁backup	-9.8607
▁pen	-9.86156
em	-9.86169
▁aim	-9.86279
▁lodge	-9.86343
▁priest	-9.86354
▁fort	-9.86389
▁button	-9.86392
▁actor	-9.86427
▁education	-9.8646
▁fortune	-9.86494
▁broadway	-9.86496
▁hidden	-9.86499
▁liar	-9.8651
▁firm	-9.86526
▁bride	-9.86533
▁darkness	-9.86567
▁forth	-9.86638
do	-9.86673
▁sighing	-9.86686
▁anne	-9.86703
time	-9.86776
▁lower	-9.86871
x	-9.86901
▁sat	-9.86963
im	-9.87048
▁route	-9.87074
▁you	-9.8709
▁fixed	-9.87096
▁swing	-9.87105
co	-9.87389
▁answers	-9.8742
▁doctors	-9.87437
ol	-9.87746
▁apartment	-9.87754
▁whore	-9.87768
▁fang	-9.87788
▁genius	-9.87839
▁blew	-9.87883
▁destiny	-9.87883
▁modern	-9.87883
▁quixote	-9.87883
▁croatian	-9.87884
▁knight	-9.87885
▁smoking	-9.87887
▁chest	-9.87985
▁tara	-9.88246
▁secrets	-9.8844
▁crow	-9.88524
▁suck	-9.8854
▁rush	-9.88812
▁yay	-9.88855
▁clouds	-9.88866
▁tickets	-9.88939
▁begins	-9.89028
▁express	-9.89044
▁whale	-9.89167
▁photo	-9.89193
▁medal	-9.89199
▁gunshot	-9.89203
▁witch	-9.89268
▁popular	-9.8928
▁crumb	-9.89281
▁caesar	-9.89292
▁caitlyn	-9.89292
▁elizabeth	-9.89292
▁screen	-9.89292
▁therefore	-9.89292
▁starving	-9.89293
▁juice	-9.89302
▁friendship	-9.89326
▁tense	-9.89331
▁successful	-9.89394
▁shy	-9.89394
▁manage	-9.89458
▁con	-9.89661
▁cab	-9.89759
my	-9.8984
▁levi	-9.90089
▁degrees	-9.90112
▁ended	-9.90128
▁uhh	-9.90148
▁claim	-9.90152
▁trade	-9.90355
▁fashion	-9.90484
▁refuse	-9.90488
▁tear	-9.90505
▁freeze	-9.906
▁assure	-9.90604
▁catholic	-9.9062
▁doll	-9.90655
▁claude	-9.90719
▁champagne	-9.9072
▁farnaz	-9.9072
▁nelson	-9.9072
▁susan	-9.9072
▁presence	-9.90721
▁appointment	-9.90723
▁toby	-9.90723
▁extraordinary	-9.9073
▁therell	-9.90731
▁ivy	-9.90746
line	-9.90758
▁maid	-9.90767
▁steps	-9.9085
▁talkin	-9.90921
▁iron	-9.90923
▁hans	-9.90924
▁cards	-9.91115
▁treated	-9.91123
▁mole	-9.91198
▁salt	-9.91265
▁searching	-9.91316
▁lion	-9.91343
per	-9.91422
▁rolling	-9.91742
▁tower	-9.9183
▁stock	-9.91912
▁boom	-9.91957
▁ty	-9.92049
▁swan	-9.92097
▁generation	-9.92105
▁pocket	-9.92105
▁subject	-9.92109
▁pulling	-9.92125
▁marshal	-9.92135
▁ca	-9.92151
▁ashamed	-9.92169
▁slept	-9.92169
▁suspense	-9.92169
▁gordon	-9.92169
▁presley	-9.92171
▁botat	-9.92171
▁marvelous	-9.92172
▁literally	-9.92174
▁voiceover	-9.92185
▁flipper	-9.9219
▁luke	-9.92196
▁lack	-9.92317
▁reporter	-9.92323
▁kat	-9.92324
▁soo	-9.92326
▁mud	-9.92343
▁woody	-9.92402
▁sub	-9.92543
bo	-9.92815
▁cape	-9.92835
▁cooking	-9.92886
▁knee	-9.92993
▁cigarettes	-9.9315
▁co	-9.9318
▁buzz	-9.93254
▁touched	-9.9343
▁faces	-9.93537
▁material	-9.93579
▁experiment	-9.93605
▁holiday	-9.93606
▁chloe	-9.9364
▁donald	-9.9364
▁expedition	-9.9364
▁magnificent	-9.9364
▁palace	-9.9364
▁manolo	-9.9364
▁museum	-9.9364
▁forbidden	-9.93641
▁gorgeous	-9.93642
▁false	-9.93642
▁rachel	-9.93642
▁shopping	-9.93646
▁tj	-9.93648
▁trapped	-9.93654
▁sanna	-9.93656
▁robbery	-9.93676
▁saving	-9.93731
▁gay	-9.93753
▁tricks	-9.9381
▁odd	-9.93932
os	-9.93935
▁everyones	-9.94173
▁divine	-9.94237
he	-9.94404
▁grade	-9.94474
▁forces	-9.94583
▁hurts	-9.9473
▁flash	-9.94815
▁mon	-9.94922
▁yells	-9.94939
▁hal	-9.94977
▁bounce	-9.94985
▁mood	-9.95069
▁album	-9.95097
▁somethin	-9.95106
▁issue	-9.9512
▁andrew	-9.9512
▁whip	-9.9513
▁expert	-9.9513
▁basket	-9.9513
▁sport	-9.95131
▁charlotte	-9.95133
▁television	-9.95133
▁yussef	-9.95133
▁muffled	-9.95133
▁picnic	-9.95133
▁basically	-9.95136
▁performance	-9.95136
▁theater	-9.95137
▁flies	-9.95142
▁ashley	-9.95142
▁dex	-9.95158
▁oliver	-9.95158
▁johnson	-9.95167
▁fake	-9.95195
▁factory	-9.95196
▁someones	-9.95203
▁corn	-9.95233
▁tinker	-9.95235
▁movement	-9.95243
▁egg	-9.95286
▁sending	-9.95308
▁prayer	-9.95327
ge	-9.95344
▁ape	-9.95387
▁checked	-9.95497
▁mustnt	-9.95551
▁ko	-9.95662
▁offered	-9.95726
▁stealing	-9.95738
▁tin	-9.95811
▁ld	-9.95862
▁casey	-9.9601
▁gather	-9.96171
▁do	-9.96174
▁terms	-9.96189
▁zoo	-9.96304
▁arrive	-9.96515
▁goats	-9.96541
▁wrap	-9.96638
▁seek	-9.96645
▁babies	-9.96648
▁julio	-9.96648
▁mystery	-9.96648
▁magazine	-9.96648
▁attitude	-9.96648
▁breeze	-9.96648
▁jeff	-9.96649
▁becoming	-9.96649
▁thudding	-9.96649
▁recall	-9.96651
▁celebi	-9.96652
▁sometime	-9.96657
▁thou	-9.96659
▁servant	-9.96662
▁monty	-9.96682
▁knees	-9.96687
▁disappointed	-9.9672
▁approaching	-9.96857
▁goose	-9.96867
▁reality	-9.96903
▁er	-9.96924
▁eaten	-9.96972
▁weapons	-9.9698
▁forced	-9.97022
ad	-9.97034
▁woo	-9.97089
ize	-9.97127
▁squeaks	-9.97155
▁mi	-9.97248
▁freak	-9.97498
▁details	-9.97581
▁concern	-9.97718
de	-9.97928
▁vi	-9.98073
▁buck	-9.98137
▁chose	-9.98155
▁audition	-9.98186
▁license	-9.98186
▁wilson	-9.98187
▁stroke	-9.98191
▁pumpkin	-9.98218
▁shoulder	-9.98232
▁baron	-9.98288
▁disappeared	-9.9833
▁lab	-9.9839
og	-9.98447
▁passion	-9.98458
▁germany	-9.98477
▁theme	-9.98485
▁roars	-9.98486
▁tracks	-9.9851
▁unh	-9.98526
▁ex	-9.98607
▁thin	-9.98701
▁ro	-9.98702
▁teaching	-9.99237
▁angels	-9.9939
▁sale	-9.99587
▁sacrifice	-9.99623
▁sink	-9.99642
▁tapes	-9.9965
▁twenty	-9.99742
▁downstairs	-9.99749
▁society	-9.99749
▁toast	-9.99749
▁closing	-9.9975
▁cliff	-9.9975
▁zero	-9.99752
▁section	-9.99752
▁charity	-9.99753
▁norman	-9.99758
▁setting	-9.99812
▁axel	-9.99851
▁ab	-9.99902
▁badly	-9.99918
▁fur	-9.99935
▁clicking	-9.99954
▁salad	-9.99966
▁monsters	-10
▁cha	-10.0001
▁wins	-10.0008
▁wishes	-10.0018
▁members	-10.0024
▁bells	-10.0066
▁bowl	-10.0071
▁defend	-10.0072
▁dump	-10.0086
▁blast	-10.0086
▁marc	-10.0098
▁tradition	-10.0103
▁reward	-10.0112
▁interview	-10.0116
▁praise	-10.0118
▁positive	-10.0125
▁hills	-10.0128
▁ken	-10.013
▁honour	-10.0132
▁afshin	-10.0134
▁heavily	-10.0134
▁surrender	-10.0134
▁unusual	-10.0134
▁funeral	-10.0134
▁isaac	-10.0134
▁vision	-10.0134
▁disaster	-10.0134
▁rude	-10.0134
▁parade	-10.0135
▁practically	-10.0137
▁tiger	-10.0139
▁brandon	-10.014
▁source	-10.0141
▁belt	-10.0142
▁caused	-10.0142
▁fourth	-10.0144
▁naturally	-10.0151
▁aaah	-10.0151
▁lions	-10.0152
▁grave	-10.016
▁sh	-10.0172
▁runs	-10.0173
ba	-10.0173
▁wa	-10.0181
▁hood	-10.0184
▁slave	-10.0188
▁banging	-10.0204
▁reached	-10.021
▁sharks	-10.023
▁notes	-10.0236
▁shock	-10.0247
▁capital	-10.0248
▁changes	-10.025
▁youth	-10.0254
▁bernie	-10.0273
▁cats	-10.0274
▁schedule	-10.0281
▁whistles	-10.0282
▁image	-10.0284
▁wound	-10.0284
▁hung	-10.0286
▁india	-10.0291
▁progress	-10.0294
▁someplace	-10.0295
▁fetch	-10.0295
▁including	-10.0295
▁ignacio	-10.0295
▁flesh	-10.0295
▁stood	-10.0295
▁thirty	-10.0295
▁political	-10.0296
▁official	-10.0296
▁obey	-10.0297
▁ellen	-10.0297
▁iike	-10.0301
▁clue	-10.0304
▁cowboy	-10.0305
▁stopping	-10.0305
▁savage	-10.0307
▁useless	-10.0309
▁that	-10.0313
▁dreamed	-10.0317
▁thrown	-10.0317
▁loss	-10.0319
▁bark	-10.032
▁prisoner	-10.0329
io	-10.0331
ow	-10.0346
▁sire	-10.0364
▁beth	-10.0366
▁jet	-10.037
▁charm	-10.0406
▁waited	-10.0409
▁goat	-10.0443
▁sauce	-10.0444
▁beating	-10.0455
tic	-10.0457
▁georgie	-10.0459
▁tunnel	-10.0459
▁accent	-10.0459
▁mmmhmm	-10.0459
▁secure	-10.0459
▁failure	-10.0459
▁intelligence	-10.046
▁authority	-10.046
▁foolish	-10.046
▁babar	-10.046
▁howard	-10.046
▁june	-10.046
▁border	-10.0461
▁hop	-10.0462
▁bored	-10.0469
▁legend	-10.0469
▁flag	-10.0471
▁donkey	-10.0471
▁naked	-10.0473
▁oughta	-10.0477
▁hee	-10.048
▁healthy	-10.0484
▁hug	-10.0488
▁ate	-10.0493
▁elephants	-10.0498
▁bags	-10.0504
▁range	-10.0508
▁quietly	-10.0512
▁net	-10.0513
▁spelling	-10.0517
▁me	-10.0517
▁fore	-10.0522
▁dreaming	-10.0532
▁indians	-10.0534
▁coughs	-10.0537
all	-10.0538
▁magical	-10.0551
▁lover	-10.0553
one	-10.0563
▁fully	-10.0575
▁screw	-10.0576
oh	-10.0584
▁seal	-10.0585
▁watched	-10.0588
ng	-10.0597
▁meow	-10.0614
▁slaves	-10.0616
▁cruel	-10.0625
▁basic	-10.0625
▁fantasy	-10.0625
▁piranha	-10.0625
▁reputation	-10.0625
▁alvin	-10.0625
▁families	-10.0626
▁weii	-10.0626
▁virgil	-10.0626
▁lisa	-10.0626
▁series	-10.0626
▁collection	-10.0627
▁complicated	-10.0628
▁blanket	-10.064
▁channel	-10.0641
▁nightmare	-10.0641
▁former	-10.0644
▁pip	-10.0644
un	-10.0653
▁escaped	-10.0657
▁based	-10.0658
▁hire	-10.0659
▁sean	-10.0663
▁writer	-10.0667
ai	-10.0667
▁picking	-10.0671
▁pitch	-10.0674
▁blessing	-10.0686
▁studying	-10.0688
▁sin	-10.0697
▁til	-10.0701
▁behave	-10.0724
▁honks	-10.0738
▁separate	-10.0772
▁ignore	-10.0781
▁branch	-10.0791
▁agency	-10.0795
▁district	-10.0795
▁beneath	-10.0795
▁shining	-10.0795
▁committee	-10.0795
▁solid	-10.0795
▁wasting	-10.0795
▁assistant	-10.0795
▁decent	-10.0796
▁chorus	-10.0796
▁ego	-10.0797
▁title	-10.0798
▁inner	-10.0799
▁recently	-10.08
▁nest	-10.0804
▁sniffing	-10.0805
▁angeles	-10.0808
▁frankie	-10.0813
▁trial	-10.0814
▁neighbor	-10.0814
▁jobs	-10.0815
▁parties	-10.0815
▁plate	-10.0816
▁model	-10.0817
▁drum	-10.0822
▁bearing	-10.0824
▁yard	-10.0826
▁moves	-10.0828
▁magnet	-10.0848
▁formula	-10.0853
▁frog	-10.0857
▁county	-10.0861
▁snakes	-10.0861
▁boats	-10.0867
▁stops	-10.0869
▁glow	-10.0894
▁recording	-10.0913
▁lessons	-10.0918
▁hundreds	-10.0919
▁junk	-10.0937
▁yell	-10.0939
▁ls	-10.0939
ti	-10.094
ac	-10.0946
▁curse	-10.0953
▁assume	-10.0953
▁advance	-10.0953
▁desperate	-10.0958
▁shoo	-10.0963
▁scientific	-10.0967
▁eve	-10.0967
▁curious	-10.0967
▁floyd	-10.0967
▁gertrude	-10.0967
▁mirror	-10.0967
▁throne	-10.0967
▁bonnie	-10.0967
▁cardinal	-10.0967
▁memories	-10.0967
▁subtitle	-10.0967
▁whiskey	-10.0967
▁motor	-10.0968
▁phil	-10.0968
▁neighborhood	-10.0968
▁clapping	-10.0968
▁eddie	-10.0968
▁lousy	-10.0968
▁confidence	-10.0968
▁aside	-10.0969
▁childhood	-10.0969
▁confused	-10.0969
▁filthy	-10.097
▁tap	-10.0972
▁extremely	-10.0973
▁circumstances	-10.0979
▁file	-10.098
▁slip	-10.0987
▁failed	-10.0988
▁raccoon	-10.0988
▁statue	-10.0989
▁angela	-10.1003
▁lean	-10.1007
▁u	-10.1015
▁reasons	-10.1021
▁be	-10.1023
▁mu	-10.1029
▁souls	-10.1034
▁dive	-10.1035
▁tale	-10.1036
▁appears	-10.1046
▁stands	-10.1059
▁sons	-10.107
▁lords	-10.1084
▁collect	-10.1089
▁fail	-10.1094
head	-10.1098
▁sneak	-10.1101
▁thee	-10.1107
▁fools	-10.1114
▁shout	-10.1119
▁intend	-10.1122
just	-10.1124
▁laws	-10.1128
▁provide	-10.1129
▁convince	-10.1129
▁julie	-10.1134
▁drag	-10.1135
▁witness	-10.1139
▁patch	-10.1141
▁depend	-10.1142
▁egypt	-10.1142
▁georgina	-10.1143
▁grateful	-10.1143
▁kevin	-10.1143
▁patience	-10.1143
▁revving	-10.1143
▁tentrees	-10.1143
▁simonides	-10.1143
▁jeannette	-10.1143
▁turkey	-10.1143
▁surface	-10.1143
▁sunset	-10.1143
▁razz	-10.1143
▁urgent	-10.1143
▁fascinating	-10.1143
▁jenna	-10.1143
▁frozen	-10.1143
▁juan	-10.1144
▁sports	-10.1144
▁joking	-10.1146
▁bedroom	-10.1146
▁secretary	-10.1146
▁wailing	-10.1147
▁role	-10.1149
▁miller	-10.1151
▁navy	-10.1151
▁tune	-10.1152
▁gim	-10.1153
▁convinced	-10.1157
▁lance	-10.1162
▁hated	-10.1163
▁toward	-10.117
▁loaded	-10.1171
▁tip	-10.1173
▁fucked	-10.1182
▁sexy	-10.1184
▁lifetime	-10.1188
▁fields	-10.119
▁bon	-10.119
▁brooks	-10.1197
▁pin	-10.12
▁likely	-10.1201
▁peaceful	-10.1202
▁praying	-10.1225
▁tells	-10.124
▁talks	-10.1245
▁direct	-10.1252
▁poison	-10.1272
▁marks	-10.129
▁pump	-10.1295
▁insist	-10.1298
▁defeat	-10.13
▁understanding	-10.1304
ts	-10.1305
▁windows	-10.1309
▁supper	-10.1321
▁eventually	-10.1321
▁library	-10.1321
▁religion	-10.1321
▁tuesday	-10.1321
▁chicago	-10.1322
▁francisco	-10.1322
▁swearnet	-10.1322
▁zeus	-10.1322
▁starbird	-10.1322
▁fuel	-10.1322
▁logan	-10.1323
▁rosie	-10.1323
▁demand	-10.1323
▁oksana	-10.1325
▁cutting	-10.1327
▁squeaking	-10.1332
▁fallen	-10.1337
▁spit	-10.1341
▁passes	-10.1341
▁screwed	-10.1344
▁landing	-10.1346
▁drinks	-10.1346
▁principal	-10.1348
▁latest	-10.135
▁diamond	-10.135
▁all	-10.1351
▁jar	-10.1365
▁pups	-10.1368
▁mentioned	-10.1375
▁considered	-10.1381
▁oops	-10.1381
om	-10.1382
▁victim	-10.14
ally	-10.1421
▁partners	-10.1422
▁bust	-10.1448
▁earn	-10.1472
of	-10.1473
▁spy	-10.1487
▁toilet	-10.1488
▁fishing	-10.1488
▁slice	-10.1488
▁bum	-10.1491
▁physical	-10.1494
▁leading	-10.1497
▁philip	-10.1503
▁akhoba	-10.1503
▁anxious	-10.1503
▁mysterious	-10.1503
▁nikki	-10.1503
▁underneath	-10.1503
▁garbage	-10.1503
▁underground	-10.1503
▁bamboo	-10.1503
▁surgery	-10.1503
▁register	-10.1503
▁ollie	-10.1504
▁mummy	-10.1504
▁bodies	-10.1505
▁text	-10.1508
▁chanting	-10.1512
▁jesse	-10.1513
▁deed	-10.1522
▁aha	-10.1525
▁hanky	-10.1526
▁dollar	-10.153
▁threat	-10.153
▁tally	-10.1531
▁math	-10.1531
▁value	-10.1535
▁minds	-10.1535
▁affair	-10.1536
▁chickens	-10.1541
▁finest	-10.1554
▁accepted	-10.1565
▁fed	-10.1569
▁ra	-10.1569
▁gum	-10.1573
▁es	-10.1581
▁cage	-10.1588
▁falls	-10.1608
▁waters	-10.1612
▁ranch	-10.1619
hi	-10.1628
back	-10.1641
▁cheat	-10.1643
▁brush	-10.1662
▁receive	-10.1664
ated	-10.1668
ner	-10.1676
▁carriage	-10.1688
▁central	-10.1688
▁rebecca	-10.1688
▁sergei	-10.1688
▁territory	-10.1688
▁thomas	-10.1688
▁throughout	-10.1688
▁twelve	-10.1688
▁drove	-10.1688
▁barbara	-10.1688
▁distant	-10.1688
▁reverend	-10.1688
▁routine	-10.1688
leberry	-10.1689
▁nicole	-10.1689
▁theory	-10.1689
▁hush	-10.169
▁marie	-10.1698
▁impressed	-10.1704
▁wire	-10.1708
▁defense	-10.172
▁cart	-10.172
▁becomes	-10.172
▁peanut	-10.1721
▁troops	-10.1725
▁task	-10.1726
▁so	-10.1728
ard	-10.1744
▁sp	-10.1744
▁guts	-10.1744
▁toes	-10.1754
▁lili	-10.1755
▁musicians	-10.1756
▁singer	-10.1786
▁judges	-10.1788
▁hay	-10.1792
▁joined	-10.18
lin	-10.1801
op	-10.1863
▁guarantee	-10.1863
▁teams	-10.1867
▁fox	-10.1873
▁anytime	-10.1877
▁darryl	-10.1877
▁generous	-10.1877
▁jermaine	-10.1877
▁location	-10.1877
▁miserable	-10.1877
▁paradise	-10.1877
▁prevent	-10.1877
▁satellite	-10.1877
▁tammy	-10.1877
▁violence	-10.1877
▁blaring	-10.1877
▁flew	-10.1877
▁sanada	-10.1877
▁jeez	-10.1877
▁diane	-10.1877
▁grayson	-10.1878
▁impressive	-10.1878
▁kim	-10.1878
▁cattle	-10.1878
▁dico	-10.1878
▁doorbell	-10.1878
ir	-10.188
▁determined	-10.1881
▁yearold	-10.1886
▁clattering	-10.1887
▁br	-10.1889
▁yup	-10.1889
▁captured	-10.1891
▁pound	-10.1893
▁slide	-10.1896
▁classes	-10.1899
▁howdy	-10.1909
▁conditions	-10.1911
▁eagle	-10.1913
▁vehicle	-10.1914
▁mask	-10.1916
▁staring	-10.1916
▁roman	-10.1916
▁manuscript	-10.1916
▁coward	-10.1916
▁dish	-10.1916
▁quarter	-10.1918
▁bombs	-10.1919
▁entirely	-10.1921
▁tank	-10.1923
▁sucker	-10.1926
▁armed	-10.1942
▁burned	-10.1942
▁wand	-10.195
off	-10.1961
▁checking	-10.1983
▁panic	-10.1989
▁carrying	-10.1993
▁vo	-10.2007
▁shots	-10.2009
▁interrupt	-10.2012
▁approach	-10.2017
▁z	-10.2024
▁attend	-10.2041
like	-10.2049
▁capture	-10.2055
▁solve	-10.2061
▁sigh	-10.2064
▁reports	-10.2065
▁lauren	-10.2069
▁holly	-10.2069
▁traffic	-10.2069
▁derice	-10.2069
▁glauben	-10.2069
▁pikachu	-10.2069
▁thompson	-10.2069
▁vietnamese	-10.2069
▁western	-10.2069
▁trigger	-10.2069
▁strawberry	-10.2069
▁jazz	-10.207
▁wiii	-10.207
▁unknown	-10.207
▁fbi	-10.207
▁carried	-10.2072
▁skies	-10.2073
▁chosen	-10.2075
▁delighted	-10.2078
▁ahem	-10.2081
ical	-10.2091
▁blown	-10.2091
▁mass	-10.2094
pa	-10.2096
▁settled	-10.2097
▁managed	-10.2099
▁stormy	-10.21
▁ren	-10.2107
▁culture	-10.2109
▁du	-10.211
▁denny	-10.2111
▁dozen	-10.2111
▁uniform	-10.2111
▁hon	-10.2111
▁criminal	-10.2112
▁alien	-10.2112
▁lend	-10.2113
dy	-10.2136
oo	-10.2136
▁locker	-10.2138
ball	-10.2146
▁points	-10.2149
▁habit	-10.2152
▁mar	-10.2165
mi	-10.2178
sa	-10.2185
▁chicks	-10.2191
les	-10.2193
▁stones	-10.2194
▁greater	-10.2212
▁cleaning	-10.2213
▁confess	-10.2214
▁mix	-10.2216
▁rub	-10.2222
ill	-10.2225
▁husbands	-10.2249
▁exact	-10.2257
▁prisoners	-10.226
▁anabel	-10.2263
▁civil	-10.2264
▁jelly	-10.2265
▁pussy	-10.2265
▁claudia	-10.2265
▁drummond	-10.2265
▁maggie	-10.2265
▁policy	-10.2265
▁higgins	-10.2265
▁excitement	-10.2266
▁dummy	-10.2266
▁zone	-10.2266
▁nina	-10.2267
▁halloween	-10.2269
▁firing	-10.227
▁hopefully	-10.227
▁instrumental	-10.2271
▁goofy	-10.2273
▁diego	-10.2276
▁trumpeting	-10.2285
▁owl	-10.229
▁designed	-10.2297
▁warned	-10.2305
▁bend	-10.2306
▁elevator	-10.2308
▁traitor	-10.2308
▁disease	-10.2309
▁fence	-10.231
▁trunk	-10.2311
▁clown	-10.2312
▁pretending	-10.2317
▁tent	-10.2322
▁sa	-10.2334
▁documents	-10.2341
▁skills	-10.2341
▁knocked	-10.2342
▁goodman	-10.2353
▁loser	-10.2358
▁beans	-10.2371
▁spending	-10.2387
ial	-10.2396
ent	-10.2396
▁twist	-10.2444
▁rooms	-10.2451
▁sled	-10.2463
▁aussie	-10.2465
▁celebration	-10.2465
▁ceremony	-10.2465
▁dakota	-10.2465
▁explanation	-10.2465
▁puppies	-10.2465
▁senior	-10.2465
▁shelter	-10.2465
▁remote	-10.2465
▁opposite	-10.2465
▁splendid	-10.2465
▁hissing	-10.2466
▁smiling	-10.2466
▁unbelievable	-10.2466
▁mason	-10.2466
▁patrol	-10.2466
▁invention	-10.2467
▁timmy	-10.2467
▁selfish	-10.2468
▁gail	-10.2468
▁janie	-10.2468
▁lightning	-10.2469
▁capable	-10.2469
▁gear	-10.2471
▁swifty	-10.2472
▁frightened	-10.2474
▁nathan	-10.2476
ized	-10.2476
▁noon	-10.2477
▁hooting	-10.2478
▁robin	-10.248
▁mixed	-10.2486
▁ghosts	-10.2486
▁carla	-10.2487
▁click	-10.2491
▁highest	-10.2493
▁awfully	-10.2496
▁sandy	-10.2497
▁chain	-10.2504
▁media	-10.2507
▁feather	-10.2517
▁somethings	-10.2521
▁papi	-10.2522
▁traveling	-10.254
▁thick	-10.2544
▁canyons	-10.2553
▁dancer	-10.2558
▁randy	-10.2559
▁testing	-10.2562
▁fires	-10.2565
▁bangs	-10.2567
land	-10.2573
▁highly	-10.258
▁rot	-10.2581
▁chap	-10.2584
▁nd	-10.2585
▁shadows	-10.2595
way	-10.2609
▁ka	-10.2623
▁yah	-10.2626
▁oooh	-10.2632
▁films	-10.2638
ut	-10.2638
▁screech	-10.2639
▁yards	-10.2643
▁escort	-10.2647
▁steam	-10.2648
▁borrow	-10.2648
▁replace	-10.2653
▁wipe	-10.2656
▁mistakes	-10.2659
▁alfred	-10.2664
▁ralph	-10.2669
▁rhythm	-10.2669
▁absurd	-10.267
▁alexander	-10.267
▁imagination	-10.267
▁kabuna	-10.267
▁reckon	-10.267
▁stephanie	-10.267
▁technology	-10.267
▁terribly	-10.267
▁thursday	-10.267
▁illusion	-10.267
▁oscar	-10.267
▁potential	-10.267
▁otto	-10.267
▁percent	-10.267
▁electricity	-10.267
▁dating	-10.2671
▁hup	-10.2673
▁rosa	-10.2676
▁stairs	-10.2681
▁spirits	-10.2696
▁jade	-10.2697
ass	-10.2701
▁wasted	-10.2711
▁remove	-10.2713
di	-10.2716
▁bush	-10.2718
▁fe	-10.2721
▁nephew	-10.2722
▁loan	-10.2722
▁lamp	-10.2727
▁talented	-10.273
▁string	-10.2735
▁po	-10.2739
▁kicked	-10.2741
▁discover	-10.2743
▁hunter	-10.2747
▁reminds	-10.2752
ps	-10.2761
▁peppers	-10.2767
▁del	-10.2772
▁ay	-10.2787
▁manners	-10.2796
▁units	-10.2807
house	-10.2842
▁darn	-10.2856
▁throwing	-10.2856
▁sandwich	-10.2874
▁sensation	-10.2874
▁advertising	-10.2878
▁irena	-10.2878
▁kangaroo	-10.2878
▁matthew	-10.2878
▁suicide	-10.2878
▁kyle	-10.2878
▁pecos	-10.2878
▁clark	-10.2878
▁linh	-10.2878
▁mistress	-10.2878
▁garcia	-10.2878
▁pathetic	-10.2878
▁tummy	-10.2878
▁pudding	-10.2878
▁daily	-10.2878
▁miami	-10.2879
▁baseball	-10.2879
▁fever	-10.2879
▁hammer	-10.2879
▁josh	-10.288
▁allen	-10.2881
▁bucket	-10.2881
▁halfway	-10.2882
▁dishes	-10.2883
▁betty	-10.2885
▁vow	-10.2886
▁bitter	-10.2889
▁jacket	-10.2889
▁shift	-10.2895
▁touching	-10.2896
▁ranger	-10.2911
▁monkeys	-10.2912
▁sentence	-10.2921
▁tone	-10.2927
▁finds	-10.293
▁copper	-10.2937
▁wave	-10.2941
▁standard	-10.2942
▁et	-10.2944
▁cases	-10.2944
▁chips	-10.2949
▁packed	-10.295
▁pe	-10.2969
ka	-10.2978
▁it	-10.2998
▁jam	-10.3003
▁pushing	-10.3004
▁filming	-10.3022
if	-10.3027
▁horns	-10.3028
▁brief	-10.3031
▁kissing	-10.3034
omber	-10.3036
▁spoil	-10.3042
▁players	-10.305
▁flood	-10.3062
▁wondered	-10.3063
▁marrying	-10.3069
▁wreck	-10.3069
▁voices	-10.3071
▁deny	-10.3072
▁santas	-10.3073
▁arrange	-10.3076
▁argue	-10.3076
▁remembered	-10.3083
▁compete	-10.3089
▁daughters	-10.3089
▁resist	-10.309
▁attorney	-10.3091
▁caleb	-10.3091
▁jessica	-10.3091
▁negative	-10.3091
▁plastic	-10.3091
▁rascal	-10.3091
▁religious	-10.3091
▁revenge	-10.3091
▁sarafina	-10.3091
▁unhappy	-10.3091
▁vandergelder	-10.3091
▁investigation	-10.3091
▁mumbling	-10.3091
▁aircraft	-10.3091
▁cochi	-10.3091
▁mouse	-10.3091
▁stake	-10.3092
▁cathy	-10.3092
▁fifty	-10.3092
▁cries	-10.3093
▁nearby	-10.3094
▁politics	-10.3096
▁wicked	-10.3097
▁sparkle	-10.3099
▁bleeding	-10.3101
▁embarrassing	-10.3102
▁ruby	-10.3104
▁union	-10.3105
▁uhuh	-10.3105
▁nap	-10.3109
what	-10.3116
led	-10.3121
▁rafe	-10.313
▁gotcha	-10.3134
▁suffering	-10.3135
▁gasp	-10.3136
▁blessed	-10.3136
▁alec	-10.3139
▁cloud	-10.3143
▁rifle	-10.315
▁outfit	-10.3151
▁squeals	-10.3159
▁chuckle	-10.316
▁term	-10.3161
pe	-10.3175
▁enjoyed	-10.3199
▁zach	-10.3206
▁there	-10.321
▁palm	-10.3212
▁publish	-10.3236
pl	-10.324
▁americans	-10.3242
▁tou	-10.3257
well	-10.3283
▁pan	-10.3287
▁award	-10.3289
▁dirt	-10.3297
▁actual	-10.33
▁admiral	-10.3307
▁behavior	-10.3308
▁irene	-10.3308
▁jeanclaude	-10.3308
▁solution	-10.3308
▁survival	-10.3308
▁wolves	-10.3308
▁worn	-10.3308
▁creek	-10.3308
▁device	-10.3308
▁quinn	-10.3308
▁duncan	-10.3308
▁ginny	-10.3308
▁feast	-10.3308
espite	-10.3308
▁rising	-10.3309
▁purse	-10.3309
▁chasing	-10.3309
▁cunt	-10.3309
▁bills	-10.331
▁sacred	-10.3311
▁owns	-10.3311
▁beef	-10.3311
▁jake	-10.3311
▁deposit	-10.3311
▁sanka	-10.3312
▁ridge	-10.3312
▁idiots	-10.3313
▁whooshing	-10.3315
▁fleet	-10.3315
▁african	-10.3318
▁spoken	-10.3318
▁arranged	-10.3322
▁directly	-10.3325
▁properly	-10.3326
▁hired	-10.3333
▁mattie	-10.3346
▁kindness	-10.3348
▁signs	-10.3349
▁payment	-10.3351
▁counter	-10.3356
▁kit	-10.3358
▁trace	-10.3358
▁grip	-10.3361
▁murdered	-10.3361
▁review	-10.3365
▁christy	-10.3372
we	-10.3372
▁advantage	-10.3372
▁connection	-10.3373
side	-10.3373
▁hip	-10.3379
▁val	-10.338
▁skip	-10.3383
ck	-10.3384
▁belonged	-10.3385
▁sang	-10.3388
▁gal	-10.3389
▁package	-10.3389
ns	-10.3391
▁jumped	-10.3394
▁murderer	-10.3395
ler	-10.3447
▁enjoying	-10.3448
▁customers	-10.3458
▁ch	-10.3458
iy	-10.3475
▁pour	-10.3484
vi	-10.3491
gged	-10.3498
▁butch	-10.3502
▁returning	-10.3504
▁commission	-10.3511
▁concentrate	-10.3515
▁thoughts	-10.3519
▁smooth	-10.3527
▁liquor	-10.3529
▁bobsled	-10.353
▁combination	-10.353
▁dooyoung	-10.353
▁environment	-10.353
▁excellency	-10.353
▁gideon	-10.353
▁intelligent	-10.353
▁jeannie	-10.353
▁piccolo	-10.353
▁sheryl	-10.353
▁strict	-10.353
▁suspicious	-10.353
▁winslow	-10.353
▁fifteen	-10.353
▁peggy	-10.353
▁whining	-10.353
▁studied	-10.353
▁appetite	-10.353
▁farewell	-10.353
▁bruce	-10.353
▁motion	-10.353
▁rubber	-10.3531
▁woke	-10.3531
▁wellington	-10.3531
▁happily	-10.3531
▁remarkable	-10.3531
▁sweden	-10.3531
▁coke	-10.3531
▁begun	-10.3532
▁hut	-10.3532
▁whyd	-10.3532
▁anger	-10.3532
▁cindy	-10.3533
▁christine	-10.3535
▁engaged	-10.3536
▁treatment	-10.3537
▁surrounded	-10.3539
▁invented	-10.354
▁inhales	-10.3546
▁particularly	-10.3547
▁refused	-10.3552
▁disappear	-10.3553
▁clap	-10.3555
▁organ	-10.3556
▁lap	-10.3559
▁instructions	-10.3563
▁placed	-10.3567
iest	-10.3568
▁musketeers	-10.3588
▁championship	-10.36
val	-10.3601
▁temperature	-10.3603
▁virgin	-10.3603
▁cigarette	-10.3605
▁customer	-10.3609
▁honk	-10.3613
▁safely	-10.3614
▁belly	-10.3614
▁damned	-10.3616
▁crossed	-10.362
▁flame	-10.3628
▁ski	-10.3643
▁now	-10.3656
▁deserves	-10.366
▁kissed	-10.3662
▁ar	-10.3664
▁stretch	-10.3665
▁boarding	-10.3667
▁bullet	-10.3676
▁sweat	-10.3678
▁events	-10.3681
▁pi	-10.3704
▁drown	-10.3709
▁chill	-10.3717
▁faint	-10.3726
▁process	-10.3726
▁adopt	-10.3735
▁toss	-10.3738
▁cancel	-10.374
▁tooth	-10.3746
▁elliot	-10.3748
▁vatican	-10.3756
▁access	-10.3757
▁squad	-10.3757
▁baxter	-10.3758
▁callahan	-10.3758
▁campaign	-10.3758
▁ordinary	-10.3758
▁prefontaine	-10.3758
▁steak	-10.3758
▁supplies	-10.3758
▁supply	-10.3758
▁gym	-10.3758
▁aggie	-10.3758
▁ambassador	-10.3758
▁jenkins	-10.3758
▁kathy	-10.3758
▁radar	-10.3758
▁hooray	-10.3758
▁allyson	-10.3758
▁campbell	-10.3758
▁hostage	-10.3758
▁draft	-10.3758
▁reef	-10.3758
▁virginia	-10.3758
▁broad	-10.3758
▁punishment	-10.3759
▁snorting	-10.376
▁mexican	-10.376
▁ease	-10.3761
▁protection	-10.3764
▁july	-10.3764
▁merely	-10.3765
▁von	-10.3766
▁rear	-10.3766
▁fame	-10.3768
▁snorts	-10.3769
▁jr	-10.3775
▁ol	-10.3776
▁bastards	-10.3781
▁au	-10.3788
▁mid	-10.3793
▁flow	-10.3797
▁catching	-10.3816
▁shortly	-10.3817
▁joey	-10.3818
▁mikey	-10.3823
▁current	-10.3824
▁cal	-10.3824
▁pearl	-10.3831
▁pipe	-10.3833
▁shore	-10.3834
▁reservation	-10.3835
▁newspaper	-10.3836
▁effect	-10.3836
▁beside	-10.3838
▁drug	-10.384
▁figures	-10.3842
▁beard	-10.3844
▁herd	-10.3846
ance	-10.385
▁bi	-10.3859
▁non	-10.386
▁root	-10.3863
▁towns	-10.3873
ak	-10.3875
▁remains	-10.3888
▁flip	-10.3888
▁chances	-10.3889
▁results	-10.3891
▁rider	-10.3901
▁breaks	-10.3905
▁unit	-10.3906
▁hah	-10.3907
ming	-10.3939
eth	-10.3949
▁groom	-10.3951
▁pace	-10.3962
▁influence	-10.3975
wood	-10.3979
▁silent	-10.3981
▁emotional	-10.3982
▁meg	-10.3982
▁recommend	-10.3988
▁skull	-10.399
▁gray	-10.399
▁catherine	-10.399
▁chittering	-10.399
▁kantmiss	-10.399
▁lincoln	-10.399
▁pablo	-10.399
▁phoenix	-10.399
▁rimspoke	-10.399
▁rosebud	-10.399
▁supreme	-10.399
▁agnes	-10.399
▁racing	-10.399
▁alert	-10.399
▁clara	-10.399
▁species	-10.3991
▁balance	-10.3991
▁flock	-10.3991
▁abbie	-10.3991
▁stella	-10.3991
▁pageant	-10.3992
▁reeko	-10.3992
▁sounded	-10.3993
▁linda	-10.3993
▁mall	-10.3995
▁holidays	-10.3995
▁exhausted	-10.3996
▁betsy	-10.3996
▁unto	-10.4
▁michele	-10.4
▁marco	-10.4
▁seth	-10.4004
▁boxes	-10.4009
▁wanting	-10.4013
▁cheating	-10.4024
ning	-10.4025
ell	-10.4035
▁closet	-10.4042
▁theo	-10.4043
▁scout	-10.4046
▁mis	-10.405
▁kindly	-10.4051
▁gifts	-10.4051
▁sum	-10.4051
▁dealing	-10.4064
▁climbing	-10.4064
▁nations	-10.4065
▁godmother	-10.407
▁object	-10.407
▁session	-10.4072
▁shadow	-10.4075
ny	-10.4076
ring	-10.4114
▁reporting	-10.4114
▁cousins	-10.4118
▁carl	-10.4136
ko	-10.4138
▁nut	-10.4149
ster	-10.415
▁pit	-10.4157
▁littlest	-10.4163
ni	-10.4178
▁launch	-10.4179
▁smash	-10.4179
que	-10.4191
▁trusted	-10.4199
▁lit	-10.42
▁up	-10.4211
▁compare	-10.4214
▁describe	-10.4216
▁embrace	-10.4216
▁teen	-10.4218
▁absolute	-10.4219
▁mmhm	-10.4221
▁unlike	-10.4222
▁somebodys	-10.4222
ding	-10.4223
▁superhero	-10.4224
▁mornin	-10.4226
▁revolution	-10.4228
▁dove	-10.4228
▁incident	-10.4228
▁runt	-10.4228
▁average	-10.4228
▁carnival	-10.4228
▁clifford	-10.4228
▁fabulous	-10.4228
▁godzilla	-10.4228
▁hammond	-10.4228
▁milady	-10.4228
▁wisdom	-10.4228
▁digging	-10.4228
▁apology	-10.4228
▁japan	-10.4229
▁temple	-10.4229
▁wore	-10.4229
▁kolo	-10.4229
▁passport	-10.4229
▁codex	-10.423
▁salary	-10.423
▁fuss	-10.423
▁version	-10.4232
▁site	-10.4232
▁iove	-10.4233
▁argh	-10.4234
▁colors	-10.4235
▁background	-10.4236
▁il	-10.4236
▁suggestion	-10.4237
▁sore	-10.424
▁jp	-10.4243
▁tax	-10.4243
▁abandoned	-10.4244
▁provided	-10.4247
▁fastest	-10.425
▁lu	-10.4251
▁momma	-10.4256
▁mir	-10.4258
rr	-10.4262
▁plants	-10.4273
▁decisions	-10.4289
▁protestant	-10.4315
▁impression	-10.4316
▁orange	-10.4316
▁chick	-10.4317
▁adult	-10.4319
▁olympics	-10.4327
▁messed	-10.4329
▁socks	-10.4339
ped	-10.4341
ina	-10.4342
▁cocks	-10.435
▁winds	-10.4354
rat	-10.4367
▁paws	-10.4369
▁drugs	-10.4387
▁whoops	-10.4399
ke	-10.4408
▁joining	-10.4411
▁fond	-10.4412
▁buildings	-10.4414
▁strip	-10.4418
▁crush	-10.4423
▁odds	-10.4424
▁piss	-10.4425
▁diamonds	-10.4432
▁cloth	-10.4437
▁listened	-10.4443
▁neighbors	-10.4444
▁float	-10.4445
▁coop	-10.4446
▁swell	-10.4448
▁announce	-10.4452
▁classic	-10.4462
▁loyal	-10.4471
▁charlene	-10.4472
▁grumpy	-10.4472
▁insurance	-10.4472
▁symbol	-10.4472
▁stephen	-10.4472
▁warrant	-10.4472
▁southern	-10.4472
▁copperfield	-10.4472
▁resistance	-10.4472
▁pony	-10.4472
▁robot	-10.4473
▁diana	-10.4473
▁abbott	-10.4473
▁rattling	-10.4473
▁crackling	-10.4474
▁gently	-10.4474
▁precisely	-10.4476
▁russ	-10.4477
▁sack	-10.4477
▁drama	-10.4478
▁largest	-10.4479
▁clanging	-10.4479
▁ballet	-10.448
▁mingle	-10.448
▁wallet	-10.4481
▁required	-10.4483
▁dolls	-10.4485
▁ne	-10.4487
▁whooping	-10.4488
▁gunshots	-10.4489
▁kite	-10.4491
▁commissioner	-10.4494
▁leon	-10.4495
▁mack	-10.4498
▁lamb	-10.4503
▁moans	-10.4513
▁ai	-10.4522
▁pages	-10.4535
▁walks	-10.4536
▁jokes	-10.4536
ping	-10.4543
ig	-10.4544
▁frankly	-10.4545
▁artists	-10.4545
▁detail	-10.4549
ious	-10.456
▁article	-10.4564
▁individual	-10.4566
▁banana	-10.4567
▁appearance	-10.4567
▁benefit	-10.4568
▁statement	-10.457
▁hopes	-10.4573
▁spark	-10.4575
▁cookie	-10.4577
▁hail	-10.4579
▁thev	-10.4589
▁pushed	-10.4589
▁beeps	-10.4593
▁recorded	-10.4607
▁manner	-10.4614
▁exists	-10.4623
▁bars	-10.4625
▁banks	-10.4629
▁schools	-10.4641
▁host	-10.4644
▁or	-10.4656
▁sleepy	-10.4657
▁grounds	-10.466
▁com	-10.4661
▁jan	-10.467
▁observe	-10.467
ide	-10.4671
▁forge	-10.4674
▁leavey	-10.4674
▁log	-10.4691
▁gain	-10.4693
▁wha	-10.4695
▁delay	-10.4702
▁liz	-10.4707
▁greg	-10.4719
▁rape	-10.4721
▁adorable	-10.4722
▁dartagnan	-10.4722
▁edgar	-10.4722
▁nuclear	-10.4722
▁recipe	-10.4722
▁valuable	-10.4722
▁vineyard	-10.4722
▁crisis	-10.4722
▁phase	-10.4722
▁powder	-10.4722
▁struck	-10.4722
▁chalk	-10.4722
▁angie	-10.4722
▁beings	-10.4723
▁rita	-10.4723
▁rusty	-10.4724
▁applauding	-10.4724
▁data	-10.4725
▁tries	-10.4725
▁exit	-10.4726
▁hats	-10.4728
▁bleating	-10.4733
▁hunger	-10.4734
▁costs	-10.4742
▁dresses	-10.4746
▁buttons	-10.4747
▁published	-10.4747
▁kinds	-10.475
▁claimed	-10.476
▁survived	-10.4766
▁dope	-10.4773
▁foundation	-10.4775
▁greetings	-10.4775
ik	-10.479
▁wally	-10.4794
▁pastor	-10.4801
▁pills	-10.4802
▁bra	-10.4816
▁feeding	-10.4818
▁client	-10.4823
▁republican	-10.4825
▁scientists	-10.483
▁farmer	-10.4852
▁parking	-10.4862
▁shown	-10.4864
▁gates	-10.4872
▁hopeless	-10.4891
▁driven	-10.4903
ons	-10.4923
bit	-10.4935
▁hates	-10.4938
ya	-10.4949
▁impress	-10.4955
▁swallow	-10.4957
▁ni	-10.4963
▁pee	-10.4963
▁propose	-10.4964
▁silk	-10.4968
▁ace	-10.4969
▁pm	-10.4971
▁opera	-10.4974
▁potato	-10.4974
▁sue	-10.4976
▁barnaby	-10.4979
▁constance	-10.4979
▁contrary	-10.4979
▁delicate	-10.4979
▁destruction	-10.4979
▁duggal	-10.4979
▁invitation	-10.4979
▁jacques	-10.4979
▁jennifer	-10.4979
▁joaquin	-10.4979
▁kimberly	-10.4979
▁memphis	-10.4979
▁previous	-10.4979
▁response	-10.4979
▁similar	-10.4979
▁snack	-10.4979
▁headquarters	-10.4979
▁voyage	-10.4979
▁italy	-10.4979
▁squeeze	-10.4979
▁anchor	-10.4979
▁jerry	-10.4979
▁butler	-10.4979
▁vault	-10.4979
▁assignment	-10.4979
▁civilization	-10.4979
▁retreat	-10.4979
▁quint	-10.4979
▁ouch	-10.4979
▁digger	-10.498
▁wrapped	-10.498
▁flavor	-10.498
▁tess	-10.498
▁lemon	-10.498
▁clay	-10.4981
▁labor	-10.4982
▁carol	-10.4984
▁nto	-10.4984
▁committed	-10.4985
▁robbie	-10.4985
▁hitting	-10.4989
▁splashing	-10.4992
▁squawks	-10.4992
▁chat	-10.4993
▁homework	-10.4994
▁compared	-10.4994
▁bury	-10.4994
▁groups	-10.4996
▁beaten	-10.5001
room	-10.5003
▁earned	-10.5009
▁kay	-10.5009
eerie	-10.5009
▁hits	-10.5009
▁ancestors	-10.5017
▁hatch	-10.502
▁imp	-10.5026
▁worrying	-10.5026
▁dearest	-10.5026
▁delivered	-10.5037
▁gil	-10.5041
▁passengers	-10.5057
▁grows	-10.506
▁result	-10.5067
▁struggle	-10.5068
▁mona	-10.5074
▁paw	-10.5082
▁commercial	-10.5087
▁nerve	-10.5087
▁citizen	-10.5088
▁degree	-10.5089
▁label	-10.5092
over	-10.5093
▁slams	-10.5097
▁makeup	-10.5097
▁grains	-10.5106
▁tod	-10.5108
▁helpless	-10.5112
▁patients	-10.5125
▁trumpets	-10.5126
fa	-10.513
▁machines	-10.5135
eyed	-10.5142
▁cu	-10.5145
▁drawing	-10.516
▁quarters	-10.5187
▁complain	-10.5188
▁affairs	-10.5195
▁counts	-10.5199
▁hare	-10.5202
▁down	-10.5208
der	-10.5227
▁stag	-10.5231
▁walt	-10.5234
▁mental	-10.5234
▁rate	-10.5235
▁margo	-10.5238
▁council	-10.5239
▁author	-10.524
▁dockerty	-10.5242
▁essential	-10.5242
▁grief	-10.5242
▁identity	-10.5242
▁illegal	-10.5242
▁jersey	-10.5242
▁jorge	-10.5242
▁relief	-10.5242
▁stubborn	-10.5242
▁whew	-10.5242
▁zarkorr	-10.5242
▁rode	-10.5242
▁kidnapped	-10.5242
▁estate	-10.5242
▁confident	-10.5242
▁piggy	-10.5243
▁raid	-10.5243
▁static	-10.5243
▁patty	-10.5244
▁fork	-10.5244
▁clamoring	-10.5246
▁alley	-10.5247
▁hitler	-10.5247
ger	-10.5247
▁kita	-10.525
▁embarrassed	-10.5253
▁vegas	-10.5256
▁discovery	-10.5257
▁developed	-10.5257
▁photos	-10.526
▁robbed	-10.5262
▁par	-10.5265
▁pr	-10.5274
▁useful	-10.5274
▁he	-10.5294
▁ann	-10.5299
▁neat	-10.5303
▁ron	-10.5304
ible	-10.5308
▁to	-10.5309
▁lucas	-10.5311
▁je	-10.5315
▁smaller	-10.5323
▁timing	-10.5323
▁paintings	-10.5326
▁vour	-10.533
▁heels	-10.5331
▁trumpet	-10.5333
▁whisper	-10.5333
▁anti	-10.5334
▁instruments	-10.5339
▁circle	-10.5342
▁nicely	-10.5343
▁cents	-10.5343
▁creep	-10.5346
work	-10.5349
▁equal	-10.5349
▁leads	-10.5349
▁occasion	-10.5353
▁exercise	-10.5355
▁option	-10.5358
ga	-10.5376
but	-10.5378
▁rocket	-10.5388
▁sounder	-10.539
▁hurting	-10.5393
▁inform	-10.5395
▁worship	-10.5414
▁fu	-10.5416
▁haul	-10.5424
▁sticking	-10.5428
lle	-10.5442
▁scratch	-10.546
ja	-10.5461
▁clack	-10.5485
▁sins	-10.5486
▁mel	-10.5486
▁accomplish	-10.5491
▁maintain	-10.5491
▁torture	-10.5497
▁jamaica	-10.5507
▁complex	-10.5508
▁agents	-10.5511
▁bishop	-10.5512
▁caitlin	-10.5512
▁chisolm	-10.5512
▁choking	-10.5512
▁doyle	-10.5512
▁farooqi	-10.5512
▁florida	-10.5512
▁pacific	-10.5512
▁regan	-10.5512
▁shakespeare	-10.5512
▁tattoo	-10.5512
▁narrow	-10.5512
▁quality	-10.5512
▁gracious	-10.5512
▁zebra	-10.5512
▁sharing	-10.5512
▁cease	-10.5512
▁henri	-10.5513
▁lori	-10.5513
▁massive	-10.5513
▁daniella	-10.5513
▁attractive	-10.5514
▁development	-10.5514
▁haha	-10.5514
▁cities	-10.5514
▁chi	-10.5514
▁pinto	-10.5516
▁mice	-10.5517
▁mere	-10.5518
▁agreement	-10.552
▁bug	-10.5533
▁poop	-10.5539
▁delivery	-10.5547
▁holes	-10.5555
some	-10.5561
▁gorgonites	-10.5565
ied	-10.5566
▁strangers	-10.5572
▁wheels	-10.5573
▁brakes	-10.5574
▁lovers	-10.5581
▁sobs	-10.5584
▁grapes	-10.5586
▁tools	-10.5591
ul	-10.5593
▁springs	-10.5598
tain	-10.56
▁ahhh	-10.561
▁limit	-10.5613
▁worthy	-10.5614
▁joint	-10.5615
▁chess	-10.5626
▁sunk	-10.5626
▁visitors	-10.5626
▁considering	-10.5627
ex	-10.5632
▁structure	-10.5632
▁bubble	-10.5636
▁crab	-10.5637
▁intention	-10.5638
▁height	-10.5638
▁trailer	-10.5639
▁guardian	-10.5639
uck	-10.5644
▁hoped	-10.5649
▁offering	-10.565
▁of	-10.5654
▁sales	-10.5668
va	-10.5672
▁robb	-10.5674
ze	-10.5679
▁cr	-10.5688
▁visiting	-10.5691
▁melt	-10.5702
▁danced	-10.5708
bb	-10.5715
▁deadly	-10.5718
▁feathers	-10.5719
▁steel	-10.5767
blank	-10.577
▁ding	-10.5773
▁hiya	-10.5778
ok	-10.5779
▁instant	-10.578
▁chop	-10.5781
▁incredibl	-10.5781
▁gross	-10.5782
▁mutt	-10.5785
▁russia	-10.5786
▁arguing	-10.579
▁division	-10.579
▁django	-10.579
▁empress	-10.579
▁fifth	-10.579
▁misunderstand	-10.579
▁mohsen	-10.579
▁duchess	-10.579
▁corporal	-10.579
▁babysitter	-10.579
▁bruno	-10.579
▁leila	-10.579
▁plethora	-10.5791
▁glue	-10.5791
▁signature	-10.5791
▁punk	-10.5791
▁issues	-10.5792
▁reaction	-10.5793
▁dreadful	-10.5793
▁lazy	-10.5793
▁cia	-10.5794
▁potatoes	-10.5794
▁pork	-10.5794
▁wholl	-10.5794
▁cried	-10.5794
▁cmon	-10.5796
▁scooter	-10.5797
▁ability	-10.5797
▁corey	-10.5797
▁bass	-10.5799
▁gage	-10.5801
▁roses	-10.5801
▁giants	-10.5802
▁cos	-10.5804
▁officially	-10.5806
▁larger	-10.5806
▁matches	-10.5806
▁pu	-10.5806
che	-10.5808
▁pam	-10.5808
▁whales	-10.581
so	-10.5813
▁ticking	-10.5814
▁tucker	-10.5815
▁ton	-10.5815
▁off	-10.5815
our	-10.5846
▁sec	-10.5849
▁traditional	-10.5857
▁how	-10.5859
▁stink	-10.5876
▁smack	-10.5892
▁volunteer	-10.5896
▁ted	-10.5899
▁boot	-10.59
ned	-10.5901
ot	-10.5902
▁asks	-10.5905
▁thuds	-10.5915
und	-10.5918
ou	-10.5919
▁election	-10.5921
▁element	-10.5921
▁guessing	-10.5922
▁announcement	-10.5922
gg	-10.5924
▁ending	-10.5926
▁mars	-10.5927
▁bean	-10.5927
▁equals	-10.595
ber	-10.5956
▁bands	-10.5991
▁areas	-10.5998
▁wishing	-10.602
▁resign	-10.6023
▁thrill	-10.6028
▁tuck	-10.6029
▁speaker	-10.6029
▁here	-10.6041
▁landed	-10.6047
ities	-10.605
ise	-10.6051
▁moral	-10.6061
▁link	-10.6065
▁unfortunate	-10.6066
▁recent	-10.6067
▁extreme	-10.6069
▁content	-10.6069
▁shoulders	-10.607
▁porn	-10.6071
▁faithful	-10.6072
▁francis	-10.6075
▁bureau	-10.6075
▁benjamin	-10.6075
▁fifi	-10.6075
▁harbor	-10.6075
▁laundry	-10.6075
▁lebraque	-10.6075
▁neighing	-10.6075
▁texas	-10.6075
▁tournament	-10.6075
▁miep	-10.6075
▁promotion	-10.6075
▁soap	-10.6075
▁davis	-10.6075
▁klara	-10.6075
▁jingle	-10.6075
▁canada	-10.6075
▁collar	-10.6075
▁conference	-10.6075
▁granny	-10.6075
▁humble	-10.6076
▁favourite	-10.6076
▁freezing	-10.6076
▁saddle	-10.6076
▁sniffles	-10.6076
▁studies	-10.6076
▁internet	-10.6076
▁network	-10.6076
▁isabella	-10.6076
▁upper	-10.6076
▁spinning	-10.6076
▁whoohoo	-10.6076
▁irv	-10.6076
▁attic	-10.6076
▁rice	-10.6076
▁mickey	-10.6077
▁inter	-10.6077
▁jasmine	-10.6077
▁answering	-10.6077
▁colony	-10.6078
▁shawn	-10.6078
▁michelle	-10.6078
▁nome	-10.608
▁dang	-10.6082
▁branches	-10.6082
herz	-10.6083
▁babylon	-10.6084
▁dismissed	-10.6084
▁laney	-10.6088
▁bah	-10.609
▁fold	-10.609
▁reverse	-10.6092
▁bam	-10.6103
▁slap	-10.6105
▁released	-10.6108
▁commit	-10.6108
▁billion	-10.6109
▁surprises	-10.611
▁liver	-10.6112
▁gathered	-10.6116
▁seeds	-10.6122
▁meantime	-10.6123
▁lame	-10.6123
▁insects	-10.6141
▁bur	-10.6141
ip	-10.6146
▁washed	-10.6146
▁under	-10.6152
▁sounding	-10.6158
▁stuffed	-10.6165
ana	-10.6178
▁vice	-10.6184
▁fo	-10.6189
pin	-10.6192
▁am	-10.6201
its	-10.6209
bar	-10.6211
▁poem	-10.6212
▁towel	-10.6212
▁belief	-10.6215
▁monk	-10.6216
▁tribe	-10.6218
cy	-10.6221
▁dragon	-10.6221
▁shutter	-10.6224
▁visited	-10.6225
q	-10.6236
▁bugs	-10.624
▁ages	-10.6249
▁adults	-10.6258
▁sav	-10.6272
▁vet	-10.628
▁jewel	-10.6288
▁lil	-10.6299
▁maker	-10.63
lon	-10.6315
▁dock	-10.6317
▁chew	-10.6323
▁admire	-10.6324
cha	-10.633
▁ew	-10.6338
▁stress	-10.6347
▁leak	-10.6348
▁comp	-10.635
▁adore	-10.6355
▁sexual	-10.6359
ick	-10.6359
▁bold	-10.6363
▁react	-10.6363
▁hawaii	-10.6367
▁minor	-10.6369
▁poet	-10.6369
▁airplane	-10.637
▁arrival	-10.637
▁bargain	-10.637
▁dammit	-10.637
▁entrance	-10.637
▁gandhi	-10.637
▁havana	-10.637
▁hebrew	-10.637
▁horace	-10.637
▁judgment	-10.637
▁manhattan	-10.637
▁tortoise	-10.637
▁violet	-10.637
▁worries	-10.637
▁mumbles	-10.637
▁federal	-10.637
▁muttering	-10.637
▁susie	-10.637
▁sheila	-10.637
▁hockey	-10.637
▁tracy	-10.637
▁polar	-10.637
▁pollen	-10.637
▁oui	-10.6371
▁whatll	-10.6371
▁billboard	-10.6371
▁craft	-10.6371
▁harsh	-10.6372
▁andrews	-10.6372
▁stepped	-10.6373
▁dull	-10.6373
▁dante	-10.6375
▁mv	-10.6378
▁dale	-10.638
▁brightest	-10.6383
▁creepy	-10.6383
▁charges	-10.6383
▁tender	-10.6384
▁officers	-10.6384
▁hooh	-10.6384
▁thus	-10.6384
▁prayers	-10.6385
▁outer	-10.6388
▁disturbed	-10.6391
▁mistaken	-10.6394
▁handy	-10.6395
▁highway	-10.6396
▁fedor	-10.6403
ite	-10.6405
▁sirens	-10.6406
▁churches	-10.6407
▁chased	-10.6408
▁tend	-10.6414
▁confession	-10.6414
ably	-10.642
▁halt	-10.6425
▁suits	-10.6426
▁brandy	-10.6426
▁classical	-10.6446
▁lo	-10.6454
▁bees	-10.6459
▁fist	-10.6463
▁lands	-10.6464
▁represent	-10.6465
▁goof	-10.6485
▁blocks	-10.6488
▁spider	-10.6493
▁crickets	-10.6493
▁burns	-10.6502
▁measure	-10.6503
▁ri	-10.6504
ward	-10.6508
▁tire	-10.6515
▁jumping	-10.6519
▁mets	-10.6522
▁sailor	-10.6524
▁gardens	-10.6525
▁peters	-10.6543
▁reaching	-10.6553
▁chin	-10.6553
▁scouts	-10.6563
lt	-10.6569
▁drivers	-10.6579
▁beasts	-10.6584
▁ink	-10.6596
▁tick	-10.6606
▁victims	-10.6622
▁disturb	-10.6624
ium	-10.6639
▁appeal	-10.6644
▁teii	-10.6644
▁august	-10.6645
▁drift	-10.6646
▁greet	-10.6646
▁succeed	-10.6651
▁produce	-10.6653
▁elle	-10.6656
▁declare	-10.6658
▁doug	-10.6662
▁electric	-10.6668
▁alcohol	-10.667
▁almighty	-10.6673
▁dillon	-10.6673
▁disguise	-10.6673
▁dynamite	-10.6673
▁hannah	-10.6673
▁iook	-10.6673
▁meanwhile	-10.6673
▁moscow	-10.6673
▁murky	-10.6673
▁necessarily	-10.6673
▁novel	-10.6673
▁offense	-10.6673
▁preparing	-10.6673
▁september	-10.6673
▁stepmother	-10.6673
▁thanksgiving	-10.6673
▁vodka	-10.6673
▁buffalo	-10.6673
▁importance	-10.6673
▁sanchez	-10.6673
▁operator	-10.6673
▁display	-10.6673
▁foul	-10.6673
▁shaking	-10.6673
▁possibility	-10.6673
▁evelyn	-10.6673
▁sensitive	-10.6674
▁countries	-10.6674
▁dexter	-10.6674
▁stiff	-10.6674
▁humor	-10.6674
▁attached	-10.6675
▁grover	-10.6676
▁spain	-10.6676
▁tania	-10.6676
▁pepe	-10.6677
▁nour	-10.6677
▁elf	-10.6678
▁shattering	-10.668
▁mayday	-10.668
▁misty	-10.6682
▁roam	-10.6682
face	-10.6682
▁sanders	-10.6683
▁macon	-10.6683
▁katie	-10.6683
▁stew	-10.6684
▁stinky	-10.6685
▁swearman	-10.6687
▁presidents	-10.6687
▁discipline	-10.6688
▁can	-10.6689
▁katy	-10.6692
▁dip	-10.6696
▁exclaims	-10.6699
▁shams	-10.67
▁halo	-10.67
▁jen	-10.6702
▁trainer	-10.6705
▁louder	-10.6709
▁defeated	-10.671
▁busted	-10.6711
▁auntie	-10.6727
▁drops	-10.6728
▁smarter	-10.6731
▁porter	-10.6733
▁appeared	-10.6735
ship	-10.6738
▁hen	-10.6739
▁marketing	-10.6741
▁needle	-10.6746
▁victor	-10.6748
▁shared	-10.6755
▁washing	-10.6766
res	-10.6773
wa	-10.6774
▁imagined	-10.678
▁contain	-10.6781
▁ju	-10.6785
▁cl	-10.6786
▁protected	-10.6788
▁photograph	-10.6797
▁cub	-10.6798
▁reported	-10.6801
▁engines	-10.6802
▁bothering	-10.6805
▁sponsor	-10.6808
▁comb	-10.6825
king	-10.6827
▁argument	-10.6829
▁costume	-10.6829
▁profit	-10.6831
▁stream	-10.6831
▁muscle	-10.6831
▁grain	-10.6832
▁exception	-10.6848
▁citizens	-10.6853
▁cleaned	-10.6854
▁cows	-10.6857
▁ki	-10.686
▁fits	-10.6864
▁musical	-10.6867
▁devils	-10.687
▁brick	-10.687
▁beep	-10.688
▁tad	-10.6914
▁waiter	-10.6922
med	-10.6926
▁scar	-10.6927
ff	-10.6927
▁mini	-10.6929
▁eva	-10.6942
▁comfort	-10.6957
field	-10.6959
▁signing	-10.6962
▁polish	-10.6963
water	-10.6963
ack	-10.6963
▁returns	-10.6964
▁abandon	-10.6964
▁teachers	-10.6966
▁peoples	-10.6967
▁beck	-10.697
▁technical	-10.6976
▁mat	-10.6976
▁widow	-10.6976
▁garret	-10.698
▁withdraw	-10.6981
▁pale	-10.6981
▁servants	-10.6983
▁kurt	-10.6984
▁spiritual	-10.6985
▁ambulance	-10.6985
▁armelle	-10.6985
▁cougar	-10.6985
▁crusoe	-10.6985
▁curiosity	-10.6985
▁genuine	-10.6985
▁hudson	-10.6985
▁independent	-10.6985
▁meadow	-10.6985
▁olivia	-10.6985
▁pharaoh	-10.6985
▁prophecy	-10.6985
▁samantha	-10.6985
▁socalled	-10.6985
▁tragedy	-10.6985
▁whinnies	-10.6985
▁pedro	-10.6985
▁violent	-10.6985
▁creative	-10.6985
▁neecha	-10.6985
▁scrub	-10.6985
▁imperial	-10.6985
▁telegram	-10.6985
▁population	-10.6985
▁peck	-10.6985
▁assistance	-10.6985
▁envy	-10.6985
▁bogue	-10.6985
▁centuries	-10.6986
▁status	-10.6986
▁cycle	-10.6986
▁thieves	-10.6986
▁chrissy	-10.6986
▁dining	-10.6986
▁switzerland	-10.6986
▁poetry	-10.6986
▁herman	-10.6986
▁slipped	-10.6986
▁percy	-10.6986
▁chaos	-10.6986
▁painful	-10.6987
▁flicka	-10.6987
▁alike	-10.6988
▁dropping	-10.6988
▁kane	-10.6989
▁ciao	-10.6991
▁production	-10.6991
▁european	-10.6993
▁diving	-10.6994
▁fairies	-10.6997
▁forgetting	-10.7002
▁heal	-10.7002
▁tempo	-10.701
▁services	-10.7014
▁gown	-10.7017
▁rivers	-10.7019
down	-10.702
▁butcher	-10.7026
▁laser	-10.7026
▁sonar	-10.7028
▁tits	-10.7029
▁viva	-10.7032
▁lawn	-10.7033
▁mal	-10.7037
hh	-10.7039
▁lecture	-10.704
ue	-10.7048
▁cracking	-10.7049
▁badge	-10.7052
qui	-10.7052
▁painted	-10.7056
▁rented	-10.7059
▁noo	-10.7069
si	-10.7077
▁clearing	-10.7082
▁era	-10.7085
away	-10.7095
▁cooked	-10.7117
▁lighter	-10.7121
▁packing	-10.7123
▁cough	-10.7129
▁require	-10.7138
ov	-10.7145
▁meters	-10.7146
▁explained	-10.715
▁suitcase	-10.715
▁spear	-10.7151
▁jew	-10.7152
▁candle	-10.7153
▁pepper	-10.7155
▁beam	-10.7158
▁dings	-10.7162
▁gale	-10.7163
▁brat	-10.7173
▁mam	-10.7182
▁barrel	-10.719
▁flames	-10.7201
▁umm	-10.7216
▁ward	-10.722
▁sch	-10.7226
▁reveal	-10.726
▁awaken	-10.7273
▁drums	-10.7274
▁sis	-10.7276
▁gu	-10.728
▁broadcast	-10.728
▁bond	-10.7282
▁mock	-10.7282
▁lick	-10.7283
▁camel	-10.7284
▁roast	-10.7286
▁apply	-10.7287
▁drain	-10.7287
▁facts	-10.7289
▁mob	-10.7289
▁increase	-10.7293
▁immediate	-10.7299
▁fighter	-10.73
▁isabel	-10.7301
▁inspiration	-10.7304
▁specific	-10.7304
▁concept	-10.7304
▁arrives	-10.7306
▁permit	-10.7307
▁avocado	-10.7308
▁dessert	-10.7308
▁holiness	-10.7308
▁liberty	-10.7308
▁midvale	-10.7308
▁muriel	-10.7308
▁protocol	-10.7308
▁rochelle	-10.7308
▁senator	-10.7308
▁sinaiticus	-10.7308
▁spectacular	-10.7308
▁tanamashu	-10.7308
▁udala	-10.7308
▁communicate	-10.7308
▁jolly	-10.7308
▁motherfucker	-10.7308
▁brigadoon	-10.7308
▁coincidence	-10.7308
▁spindle	-10.7308
▁behalf	-10.7308
▁sophie	-10.7308
▁scotland	-10.7308
▁debate	-10.7308
▁squadron	-10.7308
▁scholarship	-10.7308
▁burden	-10.7308
▁downtown	-10.7308
▁miguel	-10.7308
▁referee	-10.7308
▁garage	-10.7308
▁existence	-10.7308
▁tyler	-10.7308
▁ladder	-10.7308
▁anniversary	-10.7309
▁pistol	-10.7309
▁dixie	-10.7309
▁wax	-10.7309
▁affection	-10.731
▁chapel	-10.731
▁satisfied	-10.731
▁squawking	-10.7311
▁typical	-10.7312
▁inches	-10.7312
▁barton	-10.7312
▁coal	-10.7315
▁shrieks	-10.7315
▁doomed	-10.7316
▁tapping	-10.7316
▁slightly	-10.7316
▁witches	-10.7317
▁cleared	-10.7318
▁stations	-10.7318
▁mansion	-10.7318
▁roberts	-10.7319
▁afterwards	-10.732
ct	-10.7323
▁alban	-10.7323
▁aleu	-10.7324
▁wes	-10.7325
▁wandering	-10.7326
ec	-10.7326
▁connected	-10.7326
▁solved	-10.7332
▁interests	-10.7334
▁nagra	-10.7334
▁canceled	-10.7338
▁tata	-10.7339
▁just	-10.7346
▁lads	-10.7358
▁bait	-10.736
▁suffered	-10.7361
ude	-10.7361
▁fa	-10.7363
▁safer	-10.7364
▁sends	-10.7366
▁vegetables	-10.7371
▁sides	-10.7373
▁added	-10.7375
▁proved	-10.7379
▁arrangements	-10.7382
mp	-10.7393
▁pays	-10.7397
▁penguins	-10.7407
tor	-10.741
▁thinkin	-10.7414
▁helpful	-10.7427
▁ma	-10.7446
▁jesuits	-10.7448
▁is	-10.7449
▁ban	-10.745
▁nails	-10.7454
are	-10.7455
▁russians	-10.7457
▁muscles	-10.7469
▁crossing	-10.7474
▁misses	-10.7474
▁helicopter	-10.7482
▁comment	-10.7482
▁chestnut	-10.7484
▁stray	-10.7484
▁rehearsal	-10.7485
▁scholar	-10.7486
▁brazilian	-10.7487
▁shade	-10.7487
▁fi	-10.7488
▁formal	-10.7488
▁adventures	-10.7489
▁slam	-10.749
▁sock	-10.7491
▁archer	-10.7498
▁oran	-10.7506
unken	-10.751
tu	-10.7514
cl	-10.7527
looking	-10.7529
ach	-10.7536
▁ches	-10.7557
ery	-10.7558
▁not	-10.7558
den	-10.7563
▁recover	-10.7579
▁insult	-10.7593
▁tryin	-10.7604
town	-10.7607
▁bb	-10.761
▁bullets	-10.7614
▁confirm	-10.762
old	-10.762
ville	-10.762
▁explore	-10.7621
▁explode	-10.7626
▁ti	-10.7628
▁swift	-10.7629
▁operate	-10.763
▁vicious	-10.7632
her	-10.7635
▁absalom	-10.7641
▁academy	-10.7641
▁beware	-10.7641
▁dulcinea	-10.7641
▁hallelujah	-10.7641
▁harriet	-10.7641
▁harvest	-10.7641
▁humbug	-10.7641
▁injury	-10.7641
▁kruger	-10.7641
▁necklace	-10.7641
▁swiss	-10.7641
▁tarzan	-10.7641
▁transmission	-10.7641
▁unexpected	-10.7641
▁unfair	-10.7641
▁superior	-10.7641
▁yawns	-10.7641
▁buffins	-10.7641
▁electronic	-10.7641
▁debbie	-10.7641
▁apache	-10.7641
▁whens	-10.7641
▁webster	-10.7641
▁eleven	-10.7641
▁leather	-10.7641
▁royce	-10.7641
▁sermon	-10.7641
▁loco	-10.7642
▁tasty	-10.7642
▁zira	-10.7642
▁erik	-10.7642
▁blah	-10.7642
▁ditch	-10.7642
▁chapter	-10.7642
▁muffy	-10.7642
▁teammate	-10.7643
▁psycho	-10.7643
▁wives	-10.7643
▁slappy	-10.7643
▁inch	-10.7643
▁oak	-10.7644
▁megan	-10.7644
▁dough	-10.7644
▁whinnying	-10.7645
▁ox	-10.7646
▁accused	-10.7646
▁exclaiming	-10.7646
▁maiden	-10.7647
▁pierre	-10.7647
▁apes	-10.7647
▁sammy	-10.7647
▁potion	-10.7649
▁fried	-10.7649
▁personality	-10.7651
▁bribe	-10.7654
▁critical	-10.7654
▁jackson	-10.7655
▁discussion	-10.7657
▁worker	-10.7658
more	-10.7659
▁revealed	-10.7663
▁sincere	-10.7664
▁sucks	-10.7666
▁advanced	-10.7669
▁mash	-10.767
▁factor	-10.7673
▁prey	-10.7682
com	-10.7682
▁bowling	-10.7701
▁experienced	-10.7703
▁acts	-10.7703
▁americana	-10.7704
▁sailing	-10.7716
iff	-10.7723
▁emotions	-10.7733
▁pirates	-10.7739
▁sings	-10.7748
▁print	-10.7759
▁cameras	-10.7764
▁explosions	-10.7775
ists	-10.7789
▁beats	-10.7791
▁honored	-10.7801
▁ohoh	-10.7805
▁sailors	-10.7814
▁cor	-10.7823
▁region	-10.7824
▁moron	-10.7828
▁hippo	-10.7829
▁expression	-10.783
▁exam	-10.783
▁item	-10.7831
▁principle	-10.7831
▁communication	-10.7831
▁thud	-10.7832
▁mortal	-10.7833
▁folk	-10.7834
▁maps	-10.7844
▁bid	-10.7845
▁hike	-10.7856
▁demon	-10.7873
bi	-10.7878
ors	-10.7895
▁demo	-10.79
▁hunters	-10.7904
▁flush	-10.7904
▁wee	-10.7909
▁dime	-10.7914
▁manuscripts	-10.7914
▁ana	-10.7922
ever	-10.7927
▁demands	-10.793
▁masters	-10.7932
▁tag	-10.7938
▁strikes	-10.7938
▁nail	-10.7947
▁walker	-10.7956
tail	-10.7956
▁profession	-10.7959
▁ideal	-10.7959
▁transport	-10.7963
▁writers	-10.7963
▁drill	-10.7967
▁michel	-10.7968
▁advise	-10.7971
▁slight	-10.7976
▁eleanor	-10.7976
▁fellows	-10.7979
▁luther	-10.7983
ence	-10.7984
ress	-10.7984
▁republic	-10.7984
▁awkward	-10.7986
▁bacon	-10.7986
▁birkin	-10.7986
▁cahill	-10.7986
▁caravan	-10.7986
▁ceiling	-10.7986
▁companies	-10.7986
▁dispatch	-10.7986
▁fierce	-10.7986
▁henrietta	-10.7986
▁industry	-10.7986
▁jeanpaul	-10.7986
▁lantern	-10.7986
▁phantom	-10.7986
▁rubbish	-10.7986
▁sentimental	-10.7986
▁shrimp	-10.7986
▁snowflake	-10.7986
▁submarine	-10.7986
▁facing	-10.7986
▁buddies	-10.7986
▁skunk	-10.7986
▁suzette	-10.7986
▁eliot	-10.7986
▁ronald	-10.7986
▁nigel	-10.7986
▁breach	-10.7986
▁tobin	-10.7986
▁tropic	-10.7986
▁uncomfortable	-10.7986
▁psst	-10.7986
▁celebrating	-10.7986
▁cuzco	-10.7986
▁pouch	-10.7986
▁cotton	-10.7986
▁vital	-10.7986
▁rudy	-10.7986
▁thisll	-10.7986
▁upside	-10.7986
▁juliette	-10.7986
▁chili	-10.7986
▁amber	-10.7987
▁romance	-10.7987
▁scotch	-10.7987
▁ardi	-10.7987
▁dignity	-10.7987
▁mainland	-10.7987
▁exchange	-10.7987
▁denise	-10.7988
▁trish	-10.7988
▁perfume	-10.7988
▁gladys	-10.7988
▁raw	-10.7989
▁commandant	-10.799
▁scent	-10.799
▁cabinet	-10.799
▁yuck	-10.799
▁solo	-10.7991
▁stunt	-10.7993
▁publicity	-10.7993
▁fry	-10.7994
▁kent	-10.7998
cr	-10.8
▁claims	-10.8007
▁tillie	-10.8007
▁nailed	-10.8007
▁unable	-10.801
▁oceans	-10.8011
▁lane	-10.8012
▁dial	-10.8013
▁reasonable	-10.8015
▁separated	-10.8016
▁adopted	-10.8018
▁removed	-10.8018
▁transfer	-10.8023
▁divorced	-10.8023
▁rug	-10.8025
▁tis	-10.8028
▁rd	-10.8029
▁pounding	-10.8035
this	-10.8035
▁recognized	-10.8036
▁ga	-10.8041
▁lotso	-10.8042
▁commence	-10.8044
ang	-10.8044
▁bald	-10.8048
▁phillips	-10.8049
▁sweater	-10.8049
▁deserted	-10.8051
▁villa	-10.8055
▁pile	-10.8061
▁existed	-10.8064
▁pine	-10.8065
▁marching	-10.807
▁script	-10.8072
▁seats	-10.8074
▁deeper	-10.8078
▁directions	-10.8081
▁troubles	-10.8087
▁mer	-10.8094
ves	-10.8113
uh	-10.8118
▁booker	-10.8127
ions	-10.8142
▁laying	-10.8145
▁fee	-10.8166
▁targets	-10.8167
▁hid	-10.8167
▁privilege	-10.8172
▁holds	-10.8176
▁limits	-10.8181
▁fixing	-10.8183
▁technique	-10.8184
▁sha	-10.8185
▁autograph	-10.8185
▁scripture	-10.8189
▁jesuit	-10.8189
▁marine	-10.819
▁scientist	-10.819
▁sil	-10.8196
▁waitin	-10.8197
▁chart	-10.8205
▁farmers	-10.8208
▁positions	-10.821
kin	-10.822
▁dates	-10.8232
▁tests	-10.8238
▁roo	-10.8239
▁recorder	-10.824
pping	-10.8252
▁puts	-10.8257
▁web	-10.8259
pensive	-10.8281
▁distract	-10.8291
▁clinic	-10.8294
▁mata	-10.831
▁steer	-10.8316
▁burst	-10.8318
▁bottles	-10.8319
▁preserve	-10.8328
▁leap	-10.8328
that	-10.833
▁eternal	-10.8334
▁phones	-10.8334
▁australia	-10.8336
▁poole	-10.8337
▁journal	-10.8338
▁breed	-10.8339
▁continent	-10.834
▁luc	-10.8342
▁triumph	-10.8342
▁april	-10.8343
▁cathedral	-10.8343
▁cleveland	-10.8343
▁congratulate	-10.8343
▁corporation	-10.8343
▁derek	-10.8343
▁happier	-10.8343
▁herbert	-10.8343
▁kansas	-10.8343
▁length	-10.8343
▁liquid	-10.8343
▁melissa	-10.8343
▁messenger	-10.8343
▁offscreen	-10.8343
▁practicing	-10.8343
▁proctor	-10.8343
▁razor	-10.8343
▁sinestro	-10.8343
▁sweetmeat	-10.8343
▁thread	-10.8343
▁holler	-10.8343
▁financial	-10.8343
▁mortville	-10.8343
▁tennis	-10.8343
▁scramble	-10.8343
▁behold	-10.8343
▁stewart	-10.8343
▁consent	-10.8343
▁duties	-10.8343
▁cawing	-10.8343
▁garland	-10.8343
▁thunderbird	-10.8344
▁sancho	-10.8344
▁seattle	-10.8344
▁herc	-10.8344
▁engagement	-10.8344
▁naughty	-10.8345
▁choir	-10.8345
▁lowell	-10.8345
▁pooh	-10.8346
▁madrat	-10.8346
▁grey	-10.8348
▁bump	-10.8348
▁magician	-10.8349
▁fortunately	-10.835
▁fink	-10.835
▁inspired	-10.8351
▁caring	-10.8351
▁bueno	-10.8351
▁mamas	-10.8353
po	-10.8354
▁yum	-10.8355
▁threatened	-10.8355
▁hayes	-10.8358
▁sixth	-10.8358
▁homemade	-10.8358
▁drunken	-10.836
▁endless	-10.8362
▁punished	-10.8363
▁cared	-10.8365
▁indiana	-10.8365
▁replaced	-10.8368
▁bridget	-10.8369
▁guaranteed	-10.837
▁francs	-10.8374
▁pissed	-10.8374
▁manual	-10.8374
▁assured	-10.8379
▁actors	-10.8383
▁cable	-10.8385
▁normally	-10.8386
▁bore	-10.8387
▁dies	-10.8398
▁wig	-10.8399
▁focused	-10.8402
▁scotty	-10.8416
▁suggested	-10.8422
▁wool	-10.8425
sk	-10.8426
▁on	-10.8427
ham	-10.8428
ju	-10.8433
▁lifting	-10.8436
▁tables	-10.844
▁lang	-10.844
▁constant	-10.8444
▁sweep	-10.8448
▁q	-10.8455
let	-10.8455
▁sniffs	-10.8466
jo	-10.8474
▁jackie	-10.848
▁saints	-10.8481
▁cy	-10.8483
▁cue	-10.8484
▁tan	-10.8493
end	-10.8499
▁tia	-10.8504
ug	-10.8511
▁tao	-10.8513
▁laughed	-10.8515
▁sorrow	-10.8516
▁hog	-10.8533
▁cantrell	-10.8553
▁terror	-10.8554
▁curtain	-10.8558
▁comrade	-10.8559
▁panda	-10.856
▁cricket	-10.856
▁rumor	-10.856
▁olympic	-10.856
arm	-10.856
lit	-10.8563
▁childrens	-10.8572
▁menu	-10.8574
▁visitor	-10.8577
▁cookies	-10.8578
od	-10.8583
▁fianc	-10.8585
red	-10.8614
▁aid	-10.8619
▁abe	-10.863
▁punish	-10.866
▁respond	-10.8663
▁kai	-10.8664
▁sticks	-10.8668
▁frogs	-10.867
▁martini	-10.8679
▁establish	-10.8688
▁disgrace	-10.8688
▁spill	-10.8693
▁guessed	-10.8693
fl	-10.87
▁polite	-10.8703
▁effective	-10.8705
▁practical	-10.8705
▁interpret	-10.871
▁movin	-10.8711
▁ropes	-10.8712
▁gin	-10.8712
▁clan	-10.8713
▁favour	-10.8713
▁apologies	-10.8713
▁brittany	-10.8713
▁cyclone	-10.8713
▁decree	-10.8713
▁dinosaur	-10.8713
▁goreslimey	-10.8713
▁hoggett	-10.8713
▁horror	-10.8713
▁identified	-10.8713
▁identify	-10.8713
▁injured	-10.8713
▁jekyll	-10.8713
▁judging	-10.8713
▁klaus	-10.8713
▁meredith	-10.8713
▁november	-10.8713
▁peggotty	-10.8713
▁platform	-10.8713
▁racist	-10.8713
▁sebastian	-10.8713
▁sioux	-10.8713
▁tahime	-10.8713
▁testament	-10.8713
▁deaf	-10.8713
▁dragged	-10.8713
▁linguini	-10.8713
▁monitor	-10.8713
▁gloria	-10.8713
▁perrin	-10.8713
▁aisle	-10.8713
▁occurred	-10.8713
▁sarge	-10.8714
▁bicycle	-10.8714
▁ahoy	-10.8714
▁trotwood	-10.8714
▁drank	-10.8714
▁editor	-10.8714
▁appropriate	-10.8714
▁circuit	-10.8714
▁proposal	-10.8714
▁russell	-10.8714
▁entertainment	-10.8714
▁wilderness	-10.8714
▁fog	-10.8714
▁tractor	-10.8714
▁backwards	-10.8714
▁income	-10.8714
▁warwick	-10.8714
▁basketball	-10.8714
▁brent	-10.8714
▁whatre	-10.8715
▁creation	-10.8715
▁centre	-10.8715
▁tide	-10.8715
▁haircut	-10.8715
▁stack	-10.8715
▁untie	-10.8716
▁stammering	-10.8716
▁skating	-10.8717
▁commitment	-10.8717
▁dug	-10.8717
▁hughes	-10.8717
▁vast	-10.8718
▁electrical	-10.8718
▁backpack	-10.8718
▁journalist	-10.8718
made	-10.8719
▁hypnotized	-10.872
▁obliged	-10.872
▁isabelle	-10.8721
▁divided	-10.8726
▁becky	-10.8727
▁madness	-10.8728
▁currently	-10.8728
▁echoing	-10.8729
▁subjects	-10.8729
ette	-10.8729
▁finn	-10.8732
▁chen	-10.8732
▁presentation	-10.8735
▁skateboarding	-10.8736
▁bully	-10.8737
▁riot	-10.8738
▁clip	-10.8743
din	-10.8749
▁borrowed	-10.8752
▁floating	-10.8754
▁insisted	-10.8758
▁skirt	-10.8759
▁loudly	-10.8764
▁cracks	-10.8766
▁plot	-10.8767
▁goodlooking	-10.8772
▁angle	-10.8776
▁booming	-10.8784
▁sucking	-10.8785
▁rabbits	-10.8793
▁awaits	-10.8793
▁bower	-10.8795
▁products	-10.8798
▁fights	-10.8808
aw	-10.8812
▁su	-10.8816
▁deer	-10.8838
▁filling	-10.8842
▁lila	-10.8849
▁airlines	-10.8852
▁ducks	-10.8862
▁bert	-10.8864
▁conversations	-10.8868
▁app	-10.8871
▁gala	-10.8878
▁apples	-10.8886
▁missy	-10.8888
▁jews	-10.8894
▁dudes	-10.8914
▁stinks	-10.8917
▁marked	-10.8918
▁repair	-10.892
▁tramp	-10.8924
▁options	-10.8929
▁canoe	-10.8938
▁chamber	-10.894
▁depth	-10.8941
▁nicer	-10.8952
▁knot	-10.8954
cat	-10.8963
not	-10.8979
▁tickle	-10.898
ened	-10.8983
▁triple	-10.8984
ire	-10.899
▁persons	-10.8999
▁hind	-10.9
yes	-10.9001
day	-10.901
▁accounts	-10.9012
ble	-10.9027
▁puff	-10.9029
▁pops	-10.9037
▁for	-10.9041
▁moo	-10.9042
▁connect	-10.9047
▁doo	-10.9049
▁crawl	-10.9049
▁trans	-10.906
▁wh	-10.9072
▁wounds	-10.9073
▁drives	-10.9076
▁extend	-10.9076
▁teenage	-10.9078
▁approve	-10.9084
▁seize	-10.9085
▁restore	-10.9086
▁meter	-10.9088
▁johnston	-10.9089
▁pumpkins	-10.9091
▁disagree	-10.9092
tka	-10.9092
▁heave	-10.9094
▁mitchel	-10.9094
▁drummin	-10.9095
▁livin	-10.9095
▁congress	-10.9096
▁mush	-10.9096
▁encourage	-10.9097
▁forbid	-10.9097
▁yank	-10.9098
ory	-10.9098
▁advisor	-10.9098
▁arnaud	-10.9098
▁banquet	-10.9098
▁bleep	-10.9098
▁canyoneering	-10.9098
▁caribou	-10.9098
▁chinook	-10.9098
▁clarissa	-10.9098
▁december	-10.9098
▁description	-10.9098
▁fantasia	-10.9098
▁furniture	-10.9098
▁hobby	-10.9098
▁lawrence	-10.9098
▁motorcycle	-10.9098
▁penelope	-10.9098
▁perspective	-10.9098
▁tremendous	-10.9098
▁zorro	-10.9098
▁lambert	-10.9098
▁madeleine	-10.9098
▁rancor	-10.9098
▁slut	-10.9098
▁instance	-10.9098
▁zeena	-10.9098
▁canterville	-10.9098
▁cereal	-10.9098
▁miranda	-10.9098
▁wiggle	-10.9098
▁proposition	-10.9098
▁gilbert	-10.9098
▁underwear	-10.9098
▁parrot	-10.9098
▁bouncy	-10.9098
▁rustling	-10.9098
▁impact	-10.9098
▁kidnapping	-10.9098
▁snickering	-10.9098
▁misery	-10.9098
▁overcome	-10.9098
▁foster	-10.9098
▁pokemon	-10.9098
▁waking	-10.9099
▁orphanage	-10.9099
▁whack	-10.9099
▁alpha	-10.9099
▁convention	-10.9099
▁caption	-10.9099
▁loyalty	-10.9099
▁eager	-10.9099
▁civilized	-10.9099
▁skinny	-10.9099
▁summon	-10.9099
▁cherie	-10.9099
▁runnin	-10.91
▁instructor	-10.91
▁chiru	-10.91
▁will	-10.9101
▁elsewhere	-10.9102
▁glenn	-10.9103
▁relieved	-10.9103
▁basement	-10.9103
▁borel	-10.9103
▁cellar	-10.9103
▁coley	-10.9103
▁fitting	-10.9104
▁footage	-10.9104
▁takin	-10.9106
▁witnesses	-10.9107
▁constantly	-10.9108
▁pom	-10.9108
▁bedtime	-10.9108
▁organized	-10.9109
▁auto	-10.911
▁jessie	-10.9111
▁sadness	-10.9111
▁rejected	-10.9113
▁budget	-10.9114
▁tina	-10.9115
▁produced	-10.9116
▁drawn	-10.9116
▁desperately	-10.9119
▁confirmed	-10.9122
▁stores	-10.9126
▁strongest	-10.9129
▁dash	-10.914
▁feelin	-10.9142
▁ribs	-10.9144
▁owners	-10.9145
▁ruler	-10.9145
▁des	-10.9148
▁tastes	-10.9149
tech	-10.9151
▁rank	-10.9164
▁entered	-10.917
ino	-10.9173
▁rely	-10.9175
▁granted	-10.9189
▁mines	-10.9194
▁para	-10.9195
▁traveled	-10.9212
how	-10.9238
▁twins	-10.9242
▁workin	-10.9244
▁orphans	-10.9248
▁meals	-10.9252
▁destroying	-10.9261
▁kneel	-10.9261
▁gr	-10.9262
▁ac	-10.9269
▁wished	-10.9269
▁at	-10.9274
▁ins	-10.928
▁ru	-10.9297
▁skill	-10.9297
▁messing	-10.9298
▁quot	-10.9302
▁boxing	-10.9302
▁fooled	-10.9312
▁familys	-10.9316
▁heights	-10.9316
▁lava	-10.9318
▁blues	-10.9319
▁document	-10.9322
tt	-10.9327
▁slipper	-10.9328
▁sets	-10.9337
▁niece	-10.934
▁brutal	-10.934
▁feature	-10.9341
▁cent	-10.9342
▁ingredient	-10.9343
▁orphan	-10.9343
ending	-10.9344
▁peak	-10.9345
▁gene	-10.9347
lv	-10.9352
▁ram	-10.9353
▁plum	-10.9358
▁dete	-10.937
▁spots	-10.9375
▁rattle	-10.9383
▁males	-10.9394
str	-10.9402
gy	-10.9407
new	-10.9412
▁deeds	-10.9435
ten	-10.9436
▁develop	-10.9445
▁cleo	-10.9449
▁fart	-10.9449
ski	-10.9455
▁gar	-10.9468
▁stall	-10.9468
▁tales	-10.9468
foot	-10.9469
▁lively	-10.9472
point	-10.9474
▁ge	-10.9482
▁choke	-10.9484
▁shave	-10.9488
▁surprising	-10.9488
▁shaw	-10.9491
▁inn	-10.9492
▁convent	-10.9493
yeah	-10.9493
▁glen	-10.9494
▁lovin	-10.9495
ellow	-10.9496
▁aggressive	-10.9498
▁anthony	-10.9498
▁applied	-10.9498
▁cackling	-10.9498
▁collins	-10.9498
▁deputy	-10.9498
▁faraday	-10.9498
▁honeymoon	-10.9498
▁invisible	-10.9498
▁literature	-10.9498
▁micawber	-10.9498
▁molloy	-10.9498
▁pencil	-10.9498
▁qualified	-10.9498
▁samadhi	-10.9498
▁sesame	-10.9498
▁snarling	-10.9498
▁soviet	-10.9498
▁squirrel	-10.9498
▁stacy	-10.9498
▁strategy	-10.9498
▁treason	-10.9498
▁welfare	-10.9498
▁acquaintance	-10.9498
▁elena	-10.9498
▁harmony	-10.9498
▁kandi	-10.9498
▁nyx	-10.9498
▁stove	-10.9498
▁timberwolves	-10.9498
▁viren	-10.9498
▁oregon	-10.9498
▁steerforth	-10.9498
▁conscience	-10.9498
▁enormous	-10.9498
▁mermaid	-10.9498
▁devito	-10.9498
▁vessel	-10.9498
▁sherry	-10.9498
▁terrified	-10.9498
▁clemons	-10.9498
▁yacht	-10.9498
▁gallery	-10.9498
▁creating	-10.9498
▁montana	-10.9498
▁couid	-10.9498
▁deploy	-10.9498
▁pillow	-10.9498
▁capsule	-10.9498
▁colorado	-10.9498
▁begging	-10.9498
▁online	-10.9499
▁thornton	-10.9499
▁assault	-10.9499
▁hogue	-10.9499
▁saxon	-10.9499
▁heiio	-10.9499
▁doian	-10.95
▁bein	-10.95
▁reliable	-10.95
▁dora	-10.95
▁slavery	-10.95
▁abilities	-10.9501
▁gunfire	-10.9501
▁classroom	-10.9501
▁barbie	-10.9502
▁amos	-10.9502
▁hahaha	-10.9502
▁delightful	-10.9504
▁satan	-10.9504
▁christianity	-10.9505
▁abc	-10.9505
▁mankind	-10.9505
▁annoying	-10.9506
▁grades	-10.9508
▁battery	-10.9508
gh	-10.9509
▁hideous	-10.9509
top	-10.951
▁harrison	-10.9511
▁actions	-10.9512
▁gary	-10.9515
▁ashes	-10.9516
▁rig	-10.9517
▁tum	-10.9518
▁betrayed	-10.9518
▁faced	-10.9522
▁romeo	-10.9525
▁photographer	-10.9525
▁bunk	-10.9527
▁medals	-10.9528
▁hackl	-10.9529
▁scale	-10.953
ient	-10.9532
▁jose	-10.9536
▁drowned	-10.9536
▁bitches	-10.9539
▁clubs	-10.9539
thats	-10.9541
▁sweetest	-10.9542
▁clothing	-10.9543
▁saucer	-10.9544
▁vari	-10.9546
▁intended	-10.9547
right	-10.9552
▁sew	-10.9553
▁shells	-10.9555
▁suspected	-10.9563
▁hint	-10.9566
▁performed	-10.9568
▁norther	-10.9569
▁altar	-10.9569
▁dine	-10.9569
▁freaking	-10.9569
▁ruled	-10.9578
▁rounds	-10.9578
▁completed	-10.958
▁shorter	-10.9589
▁ber	-10.9592
▁pilots	-10.9592
▁pur	-10.9604
hu	-10.9607
▁geez	-10.9616
rv	-10.962
▁maxie	-10.9629
▁jo	-10.9631
▁bothered	-10.9638
▁seated	-10.9639
▁za	-10.9639
▁treating	-10.9645
tle	-10.9647
▁ph	-10.9648
▁robe	-10.9648
nce	-10.9658
▁har	-10.9662
▁tracking	-10.9665
▁comrades	-10.9667
▁kel	-10.9681
▁prints	-10.9682
ily	-10.9699
▁league	-10.9709
bed	-10.9711
ments	-10.9724
▁guardians	-10.9725
▁sakes	-10.9732
ama	-10.9734
ock	-10.9734
▁reserve	-10.9742
ron	-10.9742
▁acted	-10.9743
▁attacking	-10.9745
▁instrument	-10.9749
row	-10.9753
▁earthquake	-10.9754
▁procedure	-10.9754
▁bare	-10.9754
▁executive	-10.9755
▁toot	-10.9756
▁twin	-10.9759
▁companion	-10.9759
▁gusteau	-10.976
▁compliment	-10.976
▁sample	-10.976
▁ike	-10.9761
▁disc	-10.9769
lies	-10.977
▁quote	-10.977
▁effects	-10.9771
▁airline	-10.9771
▁bandit	-10.9774
nn	-10.9775
ks	-10.9783
▁weed	-10.9787
▁rod	-10.9791
▁historic	-10.9795
▁cells	-10.9796
za	-10.9799
▁surf	-10.98
ual	-10.982
▁rap	-10.9825
▁musician	-10.9828
▁eats	-10.9833
▁gi	-10.9835
▁suckers	-10.9836
▁rep	-10.9839
▁losers	-10.984
▁den	-10.9844
▁spits	-10.9849
▁fucker	-10.985
▁nun	-10.985
▁boil	-10.985
▁lifetimes	-10.9855
▁files	-10.9864
▁pinch	-10.9866
▁blessings	-10.9875
▁messages	-10.9875
board	-10.988
▁marty	-10.9881
▁clues	-10.9887
▁betray	-10.9891
▁conquer	-10.9894
▁traditions	-10.9895
▁images	-10.9895
▁improve	-10.9896
▁charli	-10.9899
▁acknowledge	-10.9901
▁eliminate	-10.9902
▁graduate	-10.9902
▁wealth	-10.9903
▁guilt	-10.9903
▁pronounce	-10.9904
▁ultimate	-10.9905
▁whee	-10.9906
ice	-10.9907
▁kosh	-10.9908
▁boob	-10.9908
▁arrow	-10.9914
▁arriving	-10.9915
▁association	-10.9915
▁barcuna	-10.9915
▁beggar	-10.9915
▁bfg	-10.9915
▁challenging	-10.9915
▁christopher	-10.9915
▁clawdeen	-10.9915
▁conflict	-10.9915
▁floud	-10.9915
▁gratitude	-10.9915
▁gruberman	-10.9915
▁mademoiselle	-10.9915
▁nixon	-10.9915
▁oxygen	-10.9915
▁pineapple	-10.9915
▁primitive	-10.9915
▁seltzer	-10.9915
▁sinbad	-10.9915
▁skeleton	-10.9915
▁spica	-10.9915
▁struggling	-10.9915
▁velrans	-10.9915
▁vulgar	-10.9915
▁yonkers	-10.9915
ezvous	-10.9915
▁clerk	-10.9915
▁eminence	-10.9915
▁grasp	-10.9915
▁kayera	-10.9915
▁missouri	-10.9915
▁timmie	-10.9915
▁watergate	-10.9915
▁assuming	-10.9915
▁pardeep	-10.9915
▁carpet	-10.9915
▁turtle	-10.9915
▁imitating	-10.9915
▁terrance	-10.9915
▁patrice	-10.9915
▁antonio	-10.9915
▁shiny	-10.9915
▁lemonade	-10.9915
▁motel	-10.9915
▁criticism	-10.9915
▁reference	-10.9915
▁willard	-10.9915
▁darius	-10.9915
▁acid	-10.9915
▁basis	-10.9915
▁global	-10.9915
▁saloon	-10.9915
▁inspection	-10.9915
▁construction	-10.9915
▁depressed	-10.9916
▁righteous	-10.9916
▁jury	-10.9916
▁quest	-10.9916
▁rally	-10.9916
▁egyptian	-10.9916
▁slum	-10.9916
▁torn	-10.9916
▁celeste	-10.9917
▁rover	-10.9917
▁ridgeway	-10.9917
▁fireplace	-10.9917
▁moonlight	-10.9917
▁winston	-10.9917
▁amazed	-10.9917
▁anderson	-10.9917
▁popping	-10.9918
bie	-10.9918
▁umney	-10.9919
▁regional	-10.9919
▁serving	-10.9919
▁cannon	-10.992
▁aldo	-10.992
▁duh	-10.9921
▁cassie	-10.9921
▁copies	-10.9922
▁julien	-10.9925
▁carface	-10.9926
▁betting	-10.9928
▁kiddo	-10.9931
▁assist	-10.9932
▁operations	-10.9933
ez	-10.9934
▁postal	-10.9936
▁wandi	-10.994
▁mmmm	-10.994
▁iet	-10.9944
▁mandie	-10.9944
▁concludes	-10.9945
▁lip	-10.9948
▁corpse	-10.9949
▁gl	-10.995
▁ignored	-10.995
▁forms	-10.995
▁agh	-10.9951
▁coordinates	-10.9951
▁reaches	-10.9955
▁wrecked	-10.9957
▁directed	-10.9965
▁drowning	-10.9966
▁shocked	-10.997
▁ally	-10.9971
▁bernier	-10.9972
▁efforts	-10.9972
▁credits	-10.9978
▁amin	-10.998
▁uns	-10.9994
▁mae	-10.9994
▁aires	-10.9998
▁annu	-11.0001
▁tourists	-11.0006
▁heavenly	-11.001
ooh	-11.0022
▁ants	-11.0029
▁mai	-11.0029
▁charged	-11.0038
▁discussing	-11.0038
▁pose	-11.005
▁relationships	-11.0051
▁relatives	-11.0051
▁realm	-11.0053
▁searched	-11.0056
▁ce	-11.0062
▁comedy	-11.0075
▁tab	-11.0078
ittie	-11.0079
coming	-11.0104
▁crimes	-11.0111
▁av	-11.0121
ded	-11.0128
▁arch	-11.0135
▁zip	-11.0145
▁tons	-11.0149
▁closely	-11.0166
▁gig	-11.0169
tro	-11.017
▁seasons	-11.0176
▁include	-11.0179
▁arts	-11.0182
▁what	-11.0182
▁camping	-11.0188
▁conclusion	-11.0189
▁mutant	-11.0192
▁shepherd	-11.0193
fe	-11.0194
▁balloon	-11.0194
▁op	-11.02
▁petal	-11.0202
▁cheek	-11.0202
fire	-11.021
ator	-11.0213
▁debt	-11.0217
▁sundays	-11.0229
hole	-11.0236
she	-11.0243
▁dodge	-11.0245
▁booth	-11.0249
▁and	-11.0252
ppy	-11.0255
▁skateboard	-11.0274
▁pic	-11.0276
▁cleaner	-11.029
▁disappoint	-11.0297
▁plates	-11.0301
▁mus	-11.031
▁leaders	-11.0314
ru	-11.0321
▁spray	-11.0322
▁quack	-11.0322
▁attract	-11.0325
▁conduct	-11.0325
▁cruise	-11.0327
▁workers	-11.0329
bound	-11.033
▁amuse	-11.0334
▁compromise	-11.0335
▁coz	-11.0341
▁fulfill	-11.0341
lloween	-11.0342
▁darlin	-11.0347
▁slot	-11.0349
▁interfere	-11.0349
▁barlow	-11.0349
▁believing	-11.0349
▁cavalry	-11.0349
▁christophene	-11.0349
▁cinderelly	-11.0349
▁custody	-11.0349
▁eclipse	-11.0349
▁economic	-11.0349
▁eternity	-11.0349
▁gesture	-11.0349
▁gfg	-11.0349
▁integrity	-11.0349
▁karell	-11.0349
▁luggage	-11.0349
▁marilyn	-11.0349
▁mkan	-11.0349
▁mousavi	-11.0349
▁nascimento	-11.0349
▁osaka	-11.0349
▁phrase	-11.0349
▁poverty	-11.0349
▁rendezvous	-11.0349
▁rhyme	-11.0349
▁rudolph	-11.0349
▁sophia	-11.0349
▁suzanne	-11.0349
▁swept	-11.0349
▁trembling	-11.0349
▁amusing	-11.0349
▁landscape	-11.0349
▁andrada	-11.0349
▁chimes	-11.0349
▁whatsoever	-11.0349
▁aurora	-11.0349
▁drew	-11.0349
▁gypsy	-11.0349
▁hustle	-11.0349
▁prophet	-11.0349
▁reckless	-11.0349
▁gossip	-11.0349
▁lonesome	-11.0349
▁croft	-11.0349
▁zaius	-11.0349
▁profile	-11.035
▁blake	-11.035
▁atwater	-11.035
▁overnight	-11.035
▁chimp	-11.035
▁hmph	-11.035
▁munchie	-11.035
▁reformation	-11.035
▁burger	-11.035
▁ginger	-11.035
▁chiming	-11.035
▁prick	-11.035
▁feminine	-11.035
▁cherry	-11.035
▁gregorio	-11.035
▁nathanial	-11.035
▁observation	-11.035
▁kidnap	-11.035
▁nova	-11.035
▁modest	-11.035
▁abortion	-11.035
▁priority	-11.0351
▁minus	-11.0351
▁litter	-11.0351
▁armor	-11.0351
▁ripped	-11.0351
ified	-11.0351
▁elise	-11.0351
▁paperwork	-11.0351
▁allowance	-11.0352
▁canine	-11.0352
▁grub	-11.0352
▁flare	-11.0352
▁solar	-11.0353
▁itch	-11.0353
▁baker	-11.0353
▁luckily	-11.0353
▁bingo	-11.0353
▁admitted	-11.0353
▁pele	-11.0354
▁stain	-11.0355
▁soil	-11.0356
▁ration	-11.0356
▁evilia	-11.0359
▁temper	-11.0359
▁justin	-11.0359
▁related	-11.036
▁eastman	-11.0361
▁va	-11.0361
▁wealthy	-11.0362
▁clinking	-11.0362
▁consideration	-11.0363
▁nickel	-11.0363
▁straighten	-11.0364
▁wretch	-11.0364
▁equally	-11.0365
▁punches	-11.0366
▁thorn	-11.0366
▁pockets	-11.0369
▁eel	-11.0369
▁declared	-11.037
zer	-11.0372
▁farley	-11.0373
▁cheerful	-11.0373
▁proposed	-11.0374
▁wildest	-11.0375
▁sole	-11.0376
▁blank	-11.0379
▁wiped	-11.038
▁simians	-11.0381
uff	-11.0381
▁accomplished	-11.0384
▁scaring	-11.0387
▁iim	-11.0387
▁easter	-11.0388
▁consult	-11.0392
▁survivors	-11.0395
▁downing	-11.0395
ere	-11.0397
▁daddys	-11.0398
▁cord	-11.0399
▁blonde	-11.0411
▁bind	-11.0413
▁diet	-11.0415
▁pets	-11.0417
▁rescued	-11.0421
▁daniels	-11.0422
▁introduced	-11.0422
▁ramp	-11.0424
tra	-11.0427
▁darko	-11.0438
▁realise	-11.0452
bing	-11.0454
▁counselors	-11.0457
ef	-11.0473
▁gammas	-11.0478
ab	-11.0479
▁callin	-11.048
▁mc	-11.0482
ini	-11.0487
▁trot	-11.0497
▁gloves	-11.0498
▁ihe	-11.05
ras	-11.051
▁compliments	-11.0513
▁harp	-11.0514
▁ap	-11.0515
▁communications	-11.0548
▁bal	-11.0556
▁ming	-11.056
▁candles	-11.0562
▁protecting	-11.0562
▁requires	-11.0563
▁toe	-11.0575
good	-11.058
istic	-11.058
▁pea	-11.0581
▁whoop	-11.0587
▁med	-11.0587
▁weigh	-11.059
▁elements	-11.0591
▁sniff	-11.0593
▁filmed	-11.0593
▁git	-11.0594
▁rin	-11.0595
oding	-11.0612
▁mist	-11.0613
ction	-11.0622
▁squeak	-11.0625
mm	-11.0632
▁noises	-11.0636
▁custom	-11.0639
▁dun	-11.064
▁introduction	-11.0644
▁straw	-11.0645
▁lunatic	-11.0646
▁blade	-11.0647
▁carrot	-11.0647
▁method	-11.0648
▁colleague	-11.0649
▁jamaican	-11.0651
▁crane	-11.0652
▁complaint	-11.0654
▁steven	-11.0668
light	-11.0671
▁standards	-11.0675
art	-11.0682
▁heel	-11.0683
▁vin	-11.069
▁glove	-11.0693
ngel	-11.0705
cent	-11.0707
▁answered	-11.0711
cho	-11.0716
tes	-11.0717
▁mouths	-11.0745
▁thump	-11.076
▁nightmares	-11.076
▁rail	-11.0775
▁restaurants	-11.0775
▁rolls	-11.0776
ux	-11.0779
▁rio	-11.0783
▁delight	-11.0783
▁vanish	-11.0785
five	-11.0786
▁rehearse	-11.0789
headed	-11.0789
▁divide	-11.0791
▁thirst	-11.0792
▁frame	-11.0792
▁initial	-11.0794
▁origin	-11.0796
▁lucia	-11.0796
▁olive	-11.0798
▁sketch	-11.08
▁grove	-11.0803
▁raven	-11.0803
▁reception	-11.0803
▁tragic	-11.0803
▁joan	-11.0804
▁plug	-11.0804
▁abroad	-11.0804
▁antarctica	-11.0804
▁anyhow	-11.0804
▁cajella	-11.0804
▁caution	-11.0804
▁chelsea	-11.0804
▁cinema	-11.0804
▁column	-11.0804
▁cultural	-11.0804
▁cunning	-11.0804
▁dalton	-11.0804
▁dialogue	-11.0804
▁dorothy	-11.0804
▁elaine	-11.0804
▁elbow	-11.0804
▁envelope	-11.0804
▁ernie	-11.0804
▁estimate	-11.0804
▁exploring	-11.0804
▁geronimo	-11.0804
▁giuliano	-11.0804
▁goetaborg	-11.0804
▁guidance	-11.0804
▁independence	-11.0804
▁jeiiystone	-11.0804
▁jonatan	-11.0804
▁kaguya	-11.0804
▁larrabee	-11.0804
▁lobby	-11.0804
▁marvin	-11.0804
▁maureen	-11.0804
▁niflheim	-11.0804
▁opponent	-11.0804
▁pheasant	-11.0804
▁phew	-11.0804
▁philosophy	-11.0804
▁portrait	-11.0804
▁puppet	-11.0804
▁roosevelt	-11.0804
▁specimen	-11.0804
▁stadium	-11.0804
▁swine	-11.0804
▁therapy	-11.0804
▁tokyo	-11.0804
▁volume	-11.0804
▁wardrobe	-11.0804
▁zelda	-11.0804
▁athos	-11.0804
▁brinstead	-11.0804
▁hollow	-11.0804
▁nevertheless	-11.0804
▁roxy	-11.0804
▁goddess	-11.0804
▁microphone	-11.0804
▁fisherman	-11.0804
▁fraud	-11.0804
▁yippee	-11.0804
▁ransom	-11.0804
▁bernard	-11.0804
▁bullseye	-11.0804
▁steep	-11.0804
▁obama	-11.0804
▁wickfield	-11.0804
▁jojo	-11.0804
▁alternative	-11.0804
▁sinister	-11.0804
▁interior	-11.0804
▁rooster	-11.0804
▁trent	-11.0804
▁postcard	-11.0804
▁salvation	-11.0804
▁sophisticated	-11.0804
▁veil	-11.0804
▁specifically	-11.0805
▁madison	-11.0805
▁andand	-11.0805
▁couch	-11.0805
▁roland	-11.0805
▁venture	-11.0805
▁jewelry	-11.0805
▁lndian	-11.0805
▁distorted	-11.0805
▁shortcut	-11.0806
▁tanner	-11.0806
▁soda	-11.0806
▁hugh	-11.0806
▁democratic	-11.0806
▁sensible	-11.0806
▁atmosphere	-11.0806
▁fiction	-11.0806
▁diary	-11.0806
▁slightest	-11.0807
▁jeanne	-11.0808
ush	-11.0808
▁legendary	-11.0808
▁phony	-11.0808
▁grady	-11.0809
▁core	-11.0809
▁weaver	-11.081
▁ricky	-11.081
▁management	-11.081
▁condemned	-11.081
▁crust	-11.0811
▁opposed	-11.0812
▁golf	-11.0814
boy	-11.0815
▁skipper	-11.0816
▁gravel	-11.0816
ven	-11.0816
▁amongst	-11.0817
▁everyday	-11.0818
▁mira	-11.0818
▁brooke	-11.0819
rt	-11.0823
▁massage	-11.0824
▁generations	-11.0824
▁waitress	-11.0827
▁horne	-11.0828
▁ator	-11.0828
▁teenager	-11.0829
▁pawn	-11.0829
▁fingerprints	-11.0829
▁pickup	-11.0832
▁preacher	-11.0835
▁sewing	-11.0835
▁limited	-11.084
▁sho	-11.0842
▁comforting	-11.0843
▁idol	-11.0845
▁rumbles	-11.0851
stone	-11.0853
▁twisted	-11.0853
▁tink	-11.0857
▁mainly	-11.0858
▁talents	-11.0861
▁gag	-11.0865
▁gram	-11.0865
▁dumped	-11.0866
▁cone	-11.0867
▁sealed	-11.087
▁germ	-11.087
▁dearie	-11.0874
▁glowing	-11.0877
▁screwing	-11.0879
▁closest	-11.0879
▁baboons	-11.088
▁sinking	-11.0884
▁guineas	-11.0895
▁hardest	-11.0897
▁frightful	-11.0898
▁mightve	-11.0899
▁kom	-11.0905
▁achieve	-11.0906
ologist	-11.0906
▁remained	-11.0906
▁homeless	-11.0907
▁fairly	-11.0911
▁smelly	-11.0912
▁crops	-11.0912
can	-11.0918
thing	-11.0923
▁patterns	-11.0924
▁sting	-11.0925
▁loosen	-11.0927
▁suggesting	-11.0933
▁choices	-11.0934
▁claws	-11.0937
▁cane	-11.0939
ile	-11.0941
▁tra	-11.0941
▁howls	-11.0945
▁mushrooms	-11.0946
▁sticky	-11.0949
▁lawyers	-11.096
▁customs	-11.0961
▁fin	-11.0965
▁weary	-11.0974
ute	-11.0987
▁suite	-11.099
▁checks	-11.0993
▁listed	-11.0995
▁fiddle	-11.0998
▁mill	-11.1
ura	-11.1004
▁signals	-11.1018
▁beau	-11.1023
els	-11.1023
til	-11.1039
▁inc	-11.1052
▁covering	-11.1055
▁ser	-11.106
▁bubbles	-11.1064
▁miracles	-11.1069
▁char	-11.1076
▁aa	-11.1083
▁squeal	-11.11
▁newspapers	-11.1116
▁relative	-11.1116
▁exp	-11.1117
▁presume	-11.1119
▁spoon	-11.112
▁tshirt	-11.1123
▁instinct	-11.1124
▁warrior	-11.1124
▁headache	-11.1126
▁parent	-11.1129
▁pill	-11.1133
▁heroic	-11.1139
▁stable	-11.1147
▁coin	-11.1151
▁criminals	-11.1175
car	-11.1181
rie	-11.1192
▁systems	-11.1199
▁marker	-11.1212
▁shouts	-11.1214
hood	-11.1221
▁invent	-11.1226
▁embarrass	-11.1232
▁beautifully	-11.1232
▁vicki	-11.1233
▁frighten	-11.1234
▁winners	-11.1236
▁have	-11.1242
▁handed	-11.1245
▁serves	-11.1249
ations	-11.1249
▁protest	-11.1253
▁clatter	-11.1254
maker	-11.1256
▁undress	-11.126
shot	-11.126
ric	-11.1262
▁cans	-11.1263
▁retire	-11.1265
ito	-11.1265
▁numb	-11.127
▁permanent	-11.1271
▁fortunate	-11.1271
box	-11.1272
▁tomato	-11.1276
▁saknussem	-11.1277
▁melanchol	-11.1278
▁crews	-11.1279
▁toro	-11.128
▁autumn	-11.128
▁buckingham	-11.128
▁bumblebee	-11.128
▁butterflies	-11.128
▁cheryl	-11.128
▁collision	-11.128
▁cuckoo	-11.128
▁distress	-11.128
▁embassy	-11.128
▁exploding	-11.128
▁fanfare	-11.128
▁fernfield	-11.128
▁fountain	-11.128
▁furthermore	-11.128
▁grumio	-11.128
▁habibeh	-11.128
▁houston	-11.128
▁inevitable	-11.128
▁inviting	-11.128
▁melvin	-11.128
▁minnie	-11.128
▁morteza	-11.128
▁october	-11.128
▁orleans	-11.128
▁peculiar	-11.128
▁scoop	-11.128
▁scrooge	-11.128
▁slick	-11.128
▁soccer	-11.128
▁sutemaru	-11.128
▁translation	-11.128
▁trophy	-11.128
▁valerie	-11.128
▁yoohoo	-11.128
▁bacteria	-11.128
▁causing	-11.128
▁fragile	-11.128
▁email	-11.128
▁stunned	-11.128
▁columbia	-11.128
▁institution	-11.128
▁plague	-11.128
▁vince	-11.128
▁oei	-11.128
▁purple	-11.128
▁rebuild	-11.128
▁fireworks	-11.128
▁melody	-11.128
▁anonymous	-11.128
▁curry	-11.128
▁nickname	-11.128
▁grrr	-11.1281
▁homesick	-11.1281
▁claudette	-11.1281
▁gambling	-11.1281
▁lulu	-11.1281
▁marcello	-11.1281
▁disturbance	-11.1281
▁fridge	-11.1281
▁arena	-11.1281
▁gravity	-11.1281
▁walsh	-11.1281
oi	-11.1281
▁tuna	-11.1281
▁heir	-11.1281
▁outrageous	-11.1281
▁snowbell	-11.1281
▁nancy	-11.1281
▁philippe	-11.1281
▁kenny	-11.1281
▁riley	-11.1281
▁garth	-11.1281
▁ambition	-11.1281
▁muffin	-11.1281
▁dentist	-11.1281
▁hesitate	-11.1282
▁oven	-11.1282
▁shrieking	-11.1282
▁reyes	-11.1282
▁bouncing	-11.1282
▁slay	-11.1283
▁attraction	-11.1283
▁household	-11.1283
▁potter	-11.1283
▁actress	-11.1283
▁snoop	-11.1283
▁fluffy	-11.1283
▁heap	-11.1284
▁radical	-11.1284
▁snowball	-11.1284
▁bonus	-11.1284
▁mutters	-11.1285
▁comic	-11.1285
▁greedy	-11.1286
▁sunlight	-11.1286
▁toron	-11.1286
▁spectra	-11.1286
▁colin	-11.1287
▁doggy	-11.1287
▁wander	-11.1288
▁machinery	-11.1288
▁alongside	-11.1289
▁growth	-11.129
▁rambalcochet	-11.1291
▁treats	-11.1292
▁aww	-11.1292
▁reno	-11.1292
▁bok	-11.1293
▁sincerely	-11.1294
▁remy	-11.1294
▁technically	-11.1294
▁cro	-11.1295
▁included	-11.1296
▁haunted	-11.1296
▁francois	-11.1296
▁iam	-11.1297
▁colour	-11.1299
▁resources	-11.1299
▁plead	-11.1301
▁tub	-11.1301
▁bash	-11.1301
▁honorable	-11.1301
▁shaken	-11.1303
▁toughest	-11.1305
▁satin	-11.1306
▁nearest	-11.1306
▁clanking	-11.1306
ake	-11.1306
▁hick	-11.1307
▁furlings	-11.1307
▁travels	-11.1312
▁keyes	-11.1313
▁forged	-11.1313
▁dealer	-11.1316
▁hells	-11.1317
youre	-11.1317
▁burnt	-11.1319
act	-11.132
▁disturbing	-11.1323
▁cargo	-11.1325
▁questioning	-11.1325
▁complaining	-11.133
▁bridesmaids	-11.133
▁priests	-11.1331
▁whines	-11.1337
▁mechanical	-11.1339
▁lust	-11.134
▁finance	-11.1343
▁hearne	-11.1343
bel	-11.1344
ita	-11.1344
tock	-11.1345
▁limb	-11.1345
▁acres	-11.1345
uch	-11.1347
▁jab	-11.1347
▁ups	-11.1352
▁chu	-11.1352
▁carries	-11.1353
▁rushed	-11.1354
han	-11.1356
▁fruits	-11.1361
hand	-11.1362
▁deepu	-11.1363
▁gathering	-11.1367
▁reminded	-11.1377
▁coon	-11.1381
▁honesty	-11.1385
▁rum	-11.1385
▁dose	-11.1388
▁sip	-11.1404
▁spreading	-11.1405
▁shootin	-11.1413
▁democrats	-11.1422
▁formed	-11.1424
▁tasted	-11.1427
▁historical	-11.1428
ker	-11.143
▁employees	-11.143
▁meetings	-11.1431
▁attacks	-11.1445
▁hairy	-11.1449
▁walters	-11.1457
▁bandits	-11.1464
▁ivan	-11.1468
▁rains	-11.147
▁sur	-11.1473
▁goals	-11.148
▁shines	-11.1482
▁pandas	-11.1484
▁respected	-11.1485
▁trucks	-11.1488
▁lass	-11.1499
▁exams	-11.1499
▁gardener	-11.1518
▁takers	-11.1519
port	-11.1522
▁she	-11.1528
master	-11.1537
sel	-11.1547
▁nu	-11.1551
▁ali	-11.1551
gen	-11.1557
ub	-11.156
▁rocky	-11.1567
▁nerves	-11.1569
▁republicans	-11.1577
mat	-11.1579
die	-11.159
▁females	-11.1596
▁stays	-11.1617
▁dado	-11.162
▁thumb	-11.1621
▁sneeze	-11.1623
▁particle	-11.1625
▁dragonball	-11.1625
▁employee	-11.1626
▁mushroom	-11.1626
▁penguin	-11.1626
▁passenger	-11.1627
▁robber	-11.1627
▁jaw	-11.163
▁missile	-11.1631
▁keeper	-11.1632
▁coppers	-11.1639
▁ammo	-11.1642
fish	-11.1676
ay	-11.168
▁troubled	-11.1683
▁squaw	-11.1706
▁tips	-11.1709
▁my	-11.1711
▁shove	-11.1712
▁stir	-11.1713
▁lope	-11.172
ules	-11.1722
▁howl	-11.1728
▁sleeps	-11.1734
▁seals	-11.1738
▁jess	-11.174
ji	-11.174
▁splash	-11.1749
▁possess	-11.1756
▁clank	-11.1759
▁growl	-11.1761
ose	-11.1763
ative	-11.1765
▁bu	-11.1766
▁examine	-11.1771
▁pond	-11.1772
▁ooo	-11.1772
▁virg	-11.1772
▁exhibit	-11.1778
▁roads	-11.1778
▁wheat	-11.1779
▁maj	-11.1779
orita	-11.1779
▁scum	-11.178
▁amateur	-11.178
▁amsterdam	-11.178
▁arizona	-11.178
▁avenue	-11.178
▁blackmail	-11.178
▁celebrity	-11.178
▁certificate	-11.178
▁crockett	-11.178
▁denver	-11.178
▁destination	-11.178
▁detention	-11.178
▁downhill	-11.178
▁explosiveskull	-11.178
▁exquisite	-11.178
▁gonggil	-11.178
▁harlene	-11.178
▁hoffman	-11.178
▁horvath	-11.178
▁hurricane	-11.178
▁ieyasu	-11.178
▁insomnia	-11.178
▁jeffords	-11.178
▁jerusalem	-11.178
▁kirby	-11.178
▁lloyd	-11.178
▁luxury	-11.178
▁nebuchadnezzar	-11.178
▁nottingham	-11.178
▁nursing	-11.178
▁obsession	-11.178
▁prosecutor	-11.178
▁reaiiy	-11.178
▁ritual	-11.178
▁rufus	-11.178
▁shirin	-11.178
▁shrink	-11.178
▁siege	-11.178
▁somewhat	-11.178
▁sworn	-11.178
▁sylvester	-11.178
▁tolerate	-11.178
▁tuppence	-11.178
▁unconscious	-11.178
▁verdict	-11.178
▁vienna	-11.178
▁voysey	-11.178
▁yappasha	-11.178
▁yield	-11.178
▁yummies	-11.178
▁hazel	-11.178
▁website	-11.178
▁physics	-11.178
▁resort	-11.178
▁ryker	-11.178
▁yuri	-11.178
▁sasha	-11.178
▁scrappy	-11.178
▁conservative	-11.178
▁keen	-11.178
▁pigeon	-11.178
▁consort	-11.178
▁fabric	-11.178
▁plaza	-11.178
▁nigger	-11.178
▁interference	-11.178
▁medfield	-11.178
▁chitra	-11.178
▁hazard	-11.178
▁gregory	-11.1781
▁heavyweight	-11.1781
▁rival	-11.1781
▁riddle	-11.1781
▁rosy	-11.1781
▁charley	-11.1781
▁clare	-11.1781
▁viking	-11.1781
▁ellie	-11.1781
▁graceful	-11.1781
▁furious	-11.1781
▁retirement	-11.1781
▁consciousness	-11.1781
▁sleigh	-11.1781
▁chores	-11.1781
▁compassion	-11.1781
▁wong	-11.1781
▁snapping	-11.1782
▁ernesto	-11.1782
▁oath	-11.1782
▁preston	-11.1782
▁scaris	-11.1782
▁spaceship	-11.1782
▁melancholic	-11.1783
▁petty	-11.1783
▁raft	-11.1783
▁calf	-11.1783
▁passage	-11.1783
▁entry	-11.1784
▁blend	-11.1784
▁ahchoo	-11.1785
▁donna	-11.1785
▁sank	-11.1785
▁loses	-11.1786
▁dedicated	-11.1786
▁sunny	-11.1786
▁terry	-11.1787
▁travelling	-11.1787
▁grandson	-11.1788
▁occur	-11.179
▁hamlet	-11.179
▁funky	-11.1791
▁located	-11.1791
▁active	-11.1793
▁cody	-11.1793
▁grabbed	-11.1793
▁gibbering	-11.1795
▁sixty	-11.1796
▁controlling	-11.1797
▁selected	-11.1798
▁sling	-11.1799
▁campus	-11.1801
▁brighton	-11.1801
▁cups	-11.1803
▁metro	-11.1803
▁corps	-11.1807
▁wonders	-11.1807
▁askey	-11.181
▁macka	-11.1812
▁described	-11.1813
▁roy	-11.1815
▁crawling	-11.1816
▁rarely	-11.1818
▁thrilled	-11.1818
▁poker	-11.1818
▁ver	-11.1821
▁lyrics	-11.1824
▁consequences	-11.1824
▁fade	-11.1829
▁lois	-11.183
▁seas	-11.1832
▁coup	-11.1832
▁neon	-11.1832
▁str	-11.1835
▁raped	-11.1836
▁cured	-11.1836
▁shovel	-11.1837
▁quito	-11.1839
pen	-11.1846
▁wounded	-11.1847
▁jerks	-11.1849
▁scored	-11.1849
▁oo	-11.1855
▁tr	-11.1859
eat	-11.1871
▁sailed	-11.1871
▁youngest	-11.1884
▁commandos	-11.1884
▁slower	-11.1888
▁payal	-11.1897
▁designer	-11.1901
▁entering	-11.1901
▁shirts	-11.1914
▁sails	-11.1917
gra	-11.1919
▁quicker	-11.1927
▁gut	-11.1937
get	-11.1948
dog	-11.1958
▁und	-11.1959
▁ant	-11.1974
with	-11.1976
mal	-11.1981
▁sweeter	-11.1981
▁fl	-11.1983
▁brands	-11.1984
▁pies	-11.1988
ther	-11.1993
▁rumors	-11.1995
fo	-11.2002
▁marines	-11.2003
▁via	-11.2006
▁pata	-11.2007
▁coaching	-11.2011
▁scholars	-11.2019
▁shades	-11.2019
ight	-11.2024
▁promises	-11.2041
▁queens	-11.2057
ways	-11.2059
▁crabs	-11.2068
▁levels	-11.2072
▁lovell	-11.2079
ib	-11.2083
▁cakes	-11.2095
▁benefits	-11.2101
▁rang	-11.2107
ano	-11.2115
ran	-11.2117
▁pits	-11.2117
▁roots	-11.2123
▁flows	-11.2125
your	-11.2131
ira	-11.214
▁scheme	-11.2146
▁gorilla	-11.2149
▁possession	-11.2149
▁nazi	-11.2149
▁pulse	-11.2149
▁error	-11.2149
▁democrat	-11.2149
▁vampire	-11.215
▁forests	-11.215
▁gamma	-11.2152
▁expense	-11.2152
▁pirate	-11.2153
▁tool	-11.2154
▁runner	-11.2169
▁hum	-11.2169
▁hoot	-11.217
▁tellin	-11.2171
▁ripe	-11.2185
▁cowards	-11.2199
▁hose	-11.2201
▁wars	-11.2206
▁vent	-11.2211
ries	-11.2212
▁petes	-11.2217
▁refer	-11.2223
▁mare	-11.2225
▁tar	-11.2228
▁hack	-11.2236
▁yea	-11.2239
ela	-11.2239
ink	-11.2241
▁mechanic	-11.2241
▁sr	-11.2241
ization	-11.2242
ked	-11.2243
ave	-11.2247
▁entertain	-11.2248
lock	-11.2257
▁ohhh	-11.2258
▁surround	-11.2258
▁trains	-11.2266
tan	-11.2274
▁limp	-11.2279
▁addition	-11.228
▁ep	-11.2281
▁corrupt	-11.2282
▁sol	-11.2283
▁blaze	-11.2284
▁install	-11.2285
▁soak	-11.2286
▁engage	-11.229
▁belle	-11.2291
▁bun	-11.2291
▁exile	-11.2292
▁organize	-11.2293
▁reflect	-11.2303
▁grind	-11.2304
▁giddy	-11.2305
▁gusta	-11.2305
▁prior	-11.2305
▁tusk	-11.2306
▁mario	-11.2306
▁johannes	-11.2306
▁magazines	-11.2306
▁academic	-11.2306
▁activities	-11.2306
▁activity	-11.2306
▁bonnelli	-11.2306
▁brenda	-11.2306
▁caviar	-11.2306
▁cetera	-11.2306
▁coocoo	-11.2306
▁despair	-11.2306
▁eugene	-11.2306
▁incompetent	-11.2306
▁ingenious	-11.2306
▁innocence	-11.2306
▁janitor	-11.2306
▁kahuna	-11.2306
▁kennedy	-11.2306
▁kumalo	-11.2306
▁lesbian	-11.2306
▁mcmurdo	-11.2306
▁oldfashioned	-11.2306
▁outstanding	-11.2306
▁perimeter	-11.2306
▁pluto	-11.2306
▁rameses	-11.2306
▁sabotage	-11.2306
▁sesemann	-11.2306
▁shield	-11.2306
▁snuck	-11.2306
▁temporary	-11.2306
▁theatre	-11.2306
▁tortoni	-11.2306
▁umbrella	-11.2306
▁virtue	-11.2306
▁weasel	-11.2306
▁barista	-11.2306
▁beverly	-11.2306
▁buddha	-11.2306
▁cackle	-11.2306
▁cummings	-11.2306
▁knives	-11.2306
▁hurray	-11.2306
▁jimmie	-11.2306
▁personnel	-11.2306
▁pringle	-11.2306
▁pursuit	-11.2307
▁contribution	-11.2307
▁lenore	-11.2307
▁sidney	-11.2307
▁aspirin	-11.2307
▁adios	-11.2307
▁bovs	-11.2307
▁britain	-11.2307
▁gadgetmobile	-11.2307
▁donne	-11.2307
▁alaska	-11.2307
▁havin	-11.2307
▁definition	-11.2307
▁underwater	-11.2307
▁banned	-11.2307
▁fleece	-11.2307
▁racket	-11.2307
▁heip	-11.2307
▁oniy	-11.2307
▁occupied	-11.2307
▁carolina	-11.2307
▁bugger	-11.2307
▁whwhat	-11.2307
▁nasties	-11.2307
▁patriot	-11.2307
▁melba	-11.2307
▁spinach	-11.2307
▁significant	-11.2308
▁housekeeper	-11.2308
▁serum	-11.2308
▁madrid	-11.2308
▁connor	-11.2308
▁abuse	-11.2308
▁iceberg	-11.2308
▁carlos	-11.2308
▁booze	-11.2308
▁kurtz	-11.2309
▁leash	-11.2309
▁dugan	-11.2309
▁temptation	-11.2309
▁duran	-11.2309
▁senor	-11.2311
▁lionel	-11.2311
▁sundown	-11.2311
▁curly	-11.2311
▁salmon	-11.2311
▁leaf	-11.2312
▁mitchell	-11.2312
▁spotted	-11.2312
▁starr	-11.2313
▁foreb	-11.2314
▁slimy	-11.2314
▁clucking	-11.2316
▁lighthouse	-11.2317
▁chairman	-11.2317
▁sayers	-11.232
▁ramy	-11.2324
▁worthless	-11.2324
▁exposed	-11.2325
▁specialty	-11.2325
▁wi	-11.2327
zz	-11.2329
▁shooter	-11.2331
▁starve	-11.2332
▁humanity	-11.2334
▁fathoms	-11.2336
▁regulations	-11.2336
▁tang	-11.2336
▁additional	-11.2337
▁established	-11.2337
▁visa	-11.2339
▁heath	-11.234
▁backyard	-11.2343
▁sorts	-11.2345
▁daylight	-11.2348
test	-11.2349
▁informed	-11.2351
▁joel	-11.2353
▁tails	-11.2353
▁forty	-11.2354
▁taller	-11.2356
▁mustard	-11.2357
▁spoiled	-11.236
▁relations	-11.2362
▁sardines	-11.2362
▁creaks	-11.2362
▁dodgers	-11.2364
▁gaining	-11.2364
▁cling	-11.237
▁pouring	-11.2372
▁skates	-11.2373
▁herbs	-11.2378
▁overlook	-11.238
▁hu	-11.2383
▁cracked	-11.2393
▁meowing	-11.2393
▁scrap	-11.2394
▁blamed	-11.2395
▁athletes	-11.2404
chi	-11.2406
▁bella	-11.2408
▁crashed	-11.2412
▁peel	-11.2414
▁evans	-11.2422
▁residents	-11.2424
▁performing	-11.2425
▁specialist	-11.2428
ung	-11.2433
zy	-11.2435
yah	-11.2435
ograph	-11.244
▁tu	-11.244
▁dreamt	-11.2443
▁fran	-11.245
▁continued	-11.2454
shed	-11.2457
▁remaining	-11.2458
▁particles	-11.2474
▁robbers	-11.2478
▁seeking	-11.2502
▁booing	-11.2507
▁gusteaus	-11.2507
▁dol	-11.2511
▁handled	-11.2515
▁carder	-11.2516
aaa	-11.2519
▁twa	-11.2521
▁ranks	-11.2522
▁sow	-11.2522
▁evolution	-11.2525
▁bonjour	-11.2525
▁tro	-11.2527
▁las	-11.2543
lk	-11.2544
▁principles	-11.255
▁types	-11.255
▁kicks	-11.2557
▁relaxed	-11.2574
▁attacker	-11.2583
▁artistic	-11.2587
▁tribes	-11.2596
▁amp	-11.2599
▁announcements	-11.2602
▁moneys	-11.2604
▁presented	-11.2614
they	-11.2618
▁occasions	-11.2619
▁qu	-11.2619
cut	-11.2635
▁shoots	-11.2639
▁raining	-11.2642
▁fatal	-11.2643
▁regard	-11.2655
roll	-11.2655
▁the	-11.2666
▁bloom	-11.2675
ull	-11.268
▁reject	-11.2682
▁finishing	-11.2684
▁was	-11.269
▁bulls	-11.2694
▁sausage	-11.2701
▁slope	-11.2701
▁rec	-11.2702
▁lined	-11.2702
▁jacks	-11.2703
▁ankle	-11.2704
▁emotion	-11.2704
▁trump	-11.2705
▁breast	-11.2705
▁amigo	-11.2706
▁grape	-11.2709
▁contestant	-11.2711
▁tri	-11.2712
▁tube	-11.2713
▁sewer	-11.2715
▁sheet	-11.272
▁youngster	-11.272
▁chains	-11.2724
▁clowns	-11.2732
▁homer	-11.2737
▁dozens	-11.274
▁uniforms	-11.274
tial	-11.2741
star	-11.2746
brain	-11.2746
▁drawer	-11.2749
▁poster	-11.2753
▁texts	-11.2769
log	-11.2781
arn	-11.2784
▁smiles	-11.2792
▁preach	-11.2799
▁affect	-11.2808
▁meows	-11.281
▁dated	-11.2819
▁bail	-11.2824
▁cowboys	-11.2827
▁ministers	-11.2828
▁detect	-11.2832
▁satisfy	-11.2834
▁bleed	-11.2836
tie	-11.2836
▁belts	-11.2836
▁bites	-11.2837
▁herr	-11.2838
▁chant	-11.2841
▁believes	-11.2842
▁mills	-11.2846
▁pursue	-11.2847
four	-11.2847
▁collapse	-11.2847
▁persuade	-11.2848
▁promote	-11.2849
iving	-11.2849
▁batter	-11.2849
▁weave	-11.2855
▁precise	-11.2857
▁volcano	-11.2858
▁bouncin	-11.2859
▁icon	-11.286
▁merci	-11.2861
▁vocal	-11.2861
▁clo	-11.2862
▁accompany	-11.2862
▁altogether	-11.2862
▁anastasia	-11.2862
▁aramis	-11.2862
▁boatwright	-11.2862
▁brooklyn	-11.2862
▁brutus	-11.2862
▁chimney	-11.2862
▁clumsy	-11.2862
▁convenient	-11.2862
▁crusade	-11.2862
▁daisuke	-11.2862
▁dalloway	-11.2862
▁daphne	-11.2862
▁deborah	-11.2862
▁deliberately	-11.2862
▁demonstration	-11.2862
▁elegant	-11.2862
▁ensign	-11.2862
▁hiccup	-11.2862
▁horizon	-11.2862
▁invasion	-11.2862
▁israel	-11.2862
▁marvellous	-11.2862
▁neighs	-11.2862
▁nowadays	-11.2862
▁overlapping	-11.2862
▁reunion	-11.2862
▁rosamaria	-11.2862
▁rottenmeier	-11.2862
▁rudolf	-11.2862
▁saizo	-11.2862
▁serpent	-11.2862
▁sought	-11.2862
▁squash	-11.2862
▁sydney	-11.2862
▁thruppence	-11.2862
▁vacuum	-11.2862
▁valdez	-11.2862
▁velvet	-11.2862
▁veronica	-11.2862
▁zelen	-11.2862
▁ginnie	-11.2862
▁gospel	-11.2862
▁savior	-11.2862
▁warehouse	-11.2862
▁crisp	-11.2862
▁jeep	-11.2862
▁seaweed	-11.2862
▁cern	-11.2862
▁resent	-11.2862
▁holmesburg	-11.2862
▁olsen	-11.2862
▁sorrv	-11.2862
▁zoe	-11.2862
▁generate	-11.2862
▁johannesburg	-11.2862
▁grease	-11.2862
▁marakeet	-11.2862
▁arctic	-11.2862
▁hawkins	-11.2862
▁granddaughter	-11.2862
▁oxford	-11.2862
▁hisham	-11.2862
▁spike	-11.2862
▁zeke	-11.2862
▁panties	-11.2862
▁shaft	-11.2862
▁upsidedown	-11.2862
▁departure	-11.2862
▁onward	-11.2862
▁lassard	-11.2862
▁tension	-11.2862
▁doggone	-11.2862
▁throbbing	-11.2863
▁authorities	-11.2863
▁scarf	-11.2863
▁tutor	-11.2863
▁underway	-11.2863
▁laddie	-11.2863
▁theft	-11.2863
▁lizard	-11.2863
▁shack	-11.2863
▁clint	-11.2863
▁tyres	-11.2863
▁flaw	-11.2863
▁edition	-11.2863
▁abner	-11.2863
▁combat	-11.2863
▁operating	-11.2864
▁irish	-11.2864
▁batteries	-11.2864
▁kaos	-11.2864
▁stump	-11.2864
▁confined	-11.2864
▁heartbeat	-11.2865
▁expectations	-11.2865
▁epic	-11.2865
▁noah	-11.2865
▁feedback	-11.2865
▁togo	-11.2865
▁barney	-11.2866
▁sympathy	-11.2866
▁reflection	-11.2866
▁marcel	-11.2866
▁disappointment	-11.2866
▁ghostier	-11.2867
▁owned	-11.2867
▁moose	-11.2868
▁torch	-11.2868
▁zman	-11.2868
▁hallway	-11.2868
▁jammed	-11.2869
▁penis	-11.287
▁oof	-11.287
▁perry	-11.287
▁tango	-11.2871
▁maa	-11.2871
▁khan	-11.2871
▁samba	-11.2871
▁sync	-11.2872
▁educated	-11.2872
▁hunk	-11.2873
▁condo	-11.2873
▁mild	-11.2873
▁croaking	-11.2875
▁tray	-11.2876
▁tow	-11.2877
▁isle	-11.2878
▁seventh	-11.2878
▁lola	-11.2878
▁suitable	-11.2878
▁mustache	-11.288
▁barnes	-11.288
▁hawk	-11.2881
▁gable	-11.2881
▁scalp	-11.2884
▁stammers	-11.2885
come	-11.2886
▁wager	-11.2888
▁vanished	-11.2888
▁badass	-11.2889
▁lace	-11.2894
▁posts	-11.2895
▁pros	-11.2895
▁fled	-11.2895
▁queer	-11.2896
▁ache	-11.29
▁developing	-11.29
▁proven	-11.2901
▁houses	-11.2904
▁louise	-11.2912
▁whys	-11.2912
▁crushed	-11.2912
▁handling	-11.2913
▁pinky	-11.2913
▁chewing	-11.2914
▁zoom	-11.2914
▁dinging	-11.2918
▁scratching	-11.2919
▁jealousy	-11.2921
▁flowing	-11.2929
izing	-11.2929
▁jay	-11.2929
▁scenes	-11.2931
▁yelled	-11.2932
▁bri	-11.2935
▁interrupting	-11.2942
▁chic	-11.2943
▁naser	-11.2945
too	-11.2946
▁yi	-11.2948
▁sneaking	-11.295
▁rev	-11.2952
▁sada	-11.2953
▁ag	-11.2956
▁defending	-11.2959
▁crowns	-11.296
▁iit	-11.2966
ath	-11.2969
▁participate	-11.2972
▁cuts	-11.2975
▁pointed	-11.298
▁difficulty	-11.298
▁sob	-11.298
eur	-11.2989
going	-11.2998
fully	-11.3006
▁hips	-11.3006
▁funds	-11.3008
▁mast	-11.301
▁breasts	-11.302
▁sheets	-11.302
▁snaps	-11.3025
ford	-11.3027
▁colored	-11.3032
▁fades	-11.3036
▁repeating	-11.3038
▁dragonballs	-11.3038
▁posters	-11.304
▁instincts	-11.3047
▁colleagues	-11.3056
▁princes	-11.3059
▁pitcher	-11.3068
▁orderly	-11.3083
▁ingredients	-11.3083
▁hairs	-11.3093
▁walkin	-11.3095
▁rappel	-11.3097
▁curtains	-11.3102
▁carve	-11.3102
▁nothings	-11.3107
▁caster	-11.3109
▁charts	-11.3111
▁tal	-11.3117
▁americas	-11.3127
▁cod	-11.3127
▁rack	-11.3127
▁wo	-11.3133
ui	-11.3136
ties	-11.3142
▁sponsors	-11.3148
▁min	-11.3163
▁beliefs	-11.3166
rill	-11.3176
▁exceptional	-11.3176
▁sixteen	-11.3178
▁ladys	-11.318
▁circles	-11.3194
▁ve	-11.3196
oon	-11.3202
▁commercials	-11.3202
ology	-11.3207
lay	-11.3217
▁brazils	-11.3234
ido	-11.3238
▁ec	-11.3239
▁pens	-11.3241
▁andys	-11.3252
▁counted	-11.3265
▁ze	-11.3272
▁crook	-11.3273
▁stan	-11.3284
hes	-11.3287
▁fluid	-11.329
▁civilian	-11.3292
▁chopper	-11.3294
▁strings	-11.3294
▁pattern	-11.3295
▁musketeer	-11.3297
win	-11.3299
▁patron	-11.3301
▁foreigner	-11.3302
tte	-11.331
▁luca	-11.331
▁trunks	-11.3312
boo	-11.3316
▁scan	-11.3324
ney	-11.3325
▁youyou	-11.3339
wig	-11.3345
▁engineer	-11.3348
▁values	-11.3349
▁offers	-11.3349
▁painter	-11.3351
▁asses	-11.3363
▁blond	-11.3369
use	-11.3369
az	-11.337
▁fra	-11.3379
ans	-11.3388
ify	-11.339
▁they	-11.3395
who	-11.3399
▁maya	-11.3399
▁stocking	-11.3401
▁pos	-11.3401
▁races	-11.3405
▁donkeys	-11.3405
▁respects	-11.3412
yard	-11.3413
▁rever	-11.3418
▁stomp	-11.3422
▁sources	-11.3423
bird	-11.3424
▁bleat	-11.3424
▁select	-11.3425
▁devour	-11.3427
two	-11.3429
▁grill	-11.343
yearold	-11.343
▁gap	-11.3431
famous	-11.3432
jack	-11.3433
ache	-11.3434
▁covers	-11.3434
▁purchase	-11.3435
▁humiliate	-11.3436
▁strain	-11.3436
job	-11.3438
▁wick	-11.3439
▁casual	-11.344
▁grumbl	-11.344
▁coco	-11.3442
▁passionate	-11.3443
▁expose	-11.3443
▁medic	-11.3443
▁julia	-11.3445
▁assassin	-11.3446
▁advertise	-11.3446
▁distinct	-11.3446
▁dutch	-11.3448
▁stereo	-11.3449
▁regime	-11.3449
▁marvel	-11.3449
▁fundamental	-11.3449
▁makin	-11.3449
▁visual	-11.345
▁accurate	-11.345
▁agenda	-11.345
▁analysis	-11.345
▁antitoxin	-11.345
▁approximately	-11.345
▁awhile	-11.345
▁berkshire	-11.345
▁bethlehem	-11.345
▁bizarre	-11.345
▁blimey	-11.345
▁borotyn	-11.345
▁burglar	-11.345
▁chakal	-11.345
▁chariot	-11.345
▁cheyenne	-11.345
▁colbert	-11.345
▁electromagneti	-11.345
▁everlasting	-11.345
▁godfather	-11.345
▁hypnoray	-11.345
▁identification	-11.345
▁industrial	-11.345
▁injustice	-11.345
▁institute	-11.345
▁intimate	-11.345
▁karthik	-11.345
▁laboratory	-11.345
▁literary	-11.345
▁loudspeaker	-11.345
▁marianne	-11.345
▁mfundisi	-11.345
▁minnesota	-11.345
▁miraculous	-11.345
▁mutual	-11.345
▁oonaya	-11.345
▁ouessant	-11.345
▁outlaw	-11.345
▁pollinators	-11.345
▁possibilities	-11.345
▁prairie	-11.345
▁priscilla	-11.345
▁quigley	-11.345
▁racial	-11.345
▁reconsider	-11.345
▁rudder	-11.345
▁rupees	-11.345
▁salvatore	-11.345
▁sasuke	-11.345
▁satterfield	-11.345
▁serene	-11.345
▁stannis	-11.345
▁stockholm	-11.345
▁sultan	-11.345
▁sundancer	-11.345
▁supermarket	-11.345
▁sylvia	-11.345
▁telugu	-11.345
▁uriah	-11.345
▁vaslov	-11.345
▁violation	-11.345
▁vivian	-11.345
▁willett	-11.345
▁ahearn	-11.345
▁fiona	-11.345
▁noisy	-11.345
▁tesla	-11.345
▁plow	-11.345
▁reign	-11.345
▁versus	-11.345
▁frown	-11.345
▁sigrid	-11.345
▁variety	-11.345
▁sondra	-11.345
▁ensure	-11.345
▁residence	-11.345
▁lindenbrook	-11.345
▁antoinette	-11.345
▁freight	-11.345
▁refund	-11.345
▁loneliness	-11.345
▁eyepoppers	-11.345
▁apron	-11.345
▁candidate	-11.345
▁onboard	-11.3451
▁rowboat	-11.3451
▁dewey	-11.3451
▁transferred	-11.3451
▁drummer	-11.3451
▁refrigerator	-11.3451
▁auction	-11.3451
▁baggage	-11.3451
▁graveyard	-11.3451
▁moines	-11.3451
▁scam	-11.3451
▁authentic	-11.3451
▁cocksucker	-11.3451
▁pimp	-11.3451
▁errand	-11.3451
▁ashore	-11.3451
▁stripped	-11.3451
▁climate	-11.3451
▁overboard	-11.3451
▁petition	-11.3451
▁josie	-11.3451
▁conspiracy	-11.3451
▁toad	-11.3451
▁expand	-11.3451
▁unison	-11.3451
▁recess	-11.3451
▁frustrated	-11.3452
▁triumphant	-11.3452
▁alison	-11.3452
▁trina	-11.3452
▁leadership	-11.3452
▁leland	-11.3452
▁flank	-11.3452
rquez	-11.3452
▁hayley	-11.3452
▁organization	-11.3452
▁vibe	-11.3453
▁blog	-11.3453
▁elite	-11.3453
▁conductor	-11.3453
▁glimpse	-11.3453
▁goku	-11.3453
▁whv	-11.3453
▁weakness	-11.3453
▁hence	-11.3453
▁assigned	-11.3454
▁beak	-11.3454
▁calvin	-11.3454
▁whipped	-11.3455
▁gutter	-11.3455
▁spies	-11.3455
▁improvement	-11.3455
▁shook	-11.3455
long	-11.3456
▁latte	-11.3456
▁manuel	-11.3456
▁settlement	-11.3456
▁batch	-11.3456
▁eastern	-11.3456
▁courageous	-11.3457
▁translated	-11.3457
▁establishment	-11.3457
▁thoroughly	-11.3457
▁maxwell	-11.3458
▁devoted	-11.3458
▁hark	-11.3458
▁carrier	-11.3458
▁ames	-11.3459
▁neal	-11.3459
▁quitting	-11.3459
▁rapidly	-11.346
▁thrust	-11.346
▁proclaim	-11.3461
play	-11.3461
▁margot	-11.3461
▁combined	-11.3461
▁warden	-11.3461
▁riverton	-11.3462
▁screeches	-11.3462
▁appointed	-11.3463
▁shivering	-11.3463
▁elected	-11.3463
▁ultimately	-11.3464
▁jackass	-11.3464
sis	-11.3466
▁pub	-11.3467
▁shushing	-11.3468
▁reel	-11.3468
▁retired	-11.3468
▁heep	-11.3469
▁savings	-11.347
▁hitch	-11.347
▁lease	-11.3471
▁approved	-11.3472
▁define	-11.3472
▁awaiting	-11.3473
▁europa	-11.3474
ax	-11.3474
▁formation	-11.3474
▁flute	-11.3476
▁rage	-11.3477
▁threatening	-11.3478
▁storms	-11.3479
▁fulfilled	-11.348
▁govern	-11.348
▁iive	-11.3481
▁ira	-11.3481
▁rapid	-11.3481
▁wider	-11.3482
ust	-11.3483
▁refuses	-11.3489
▁booked	-11.3489
▁recovered	-11.3489
▁dieter	-11.3491
▁roberto	-11.3492
▁pager	-11.3493
▁volunteered	-11.3496
▁wr	-11.3497
▁crows	-11.3498
▁mocking	-11.35
wing	-11.3501
▁parks	-11.3503
▁bot	-11.3504
▁dame	-11.3506
▁biting	-11.3509
▁clacking	-11.351
▁tada	-11.3511
▁erase	-11.3511
▁morales	-11.3511
▁damaged	-11.3516
▁internal	-11.3518
▁buster	-11.3521
▁competitors	-11.3522
▁guided	-11.3523
▁collected	-11.3524
▁foods	-11.3527
▁handful	-11.353
hr	-11.3532
▁placement	-11.3533
▁spying	-11.354
▁ghouls	-11.3541
▁sucked	-11.3542
▁collecting	-11.3544
▁risks	-11.3549
▁peasants	-11.3551
▁governors	-11.3554
▁concerning	-11.3556
kins	-11.3557
▁junkie	-11.3559
▁requested	-11.3564
▁pickle	-11.3565
▁swinging	-11.3569
▁blocked	-11.357
▁onions	-11.357
▁roller	-11.3571
▁flu	-11.3579
▁decades	-11.358
▁geraniums	-11.358
▁producers	-11.3581
▁fears	-11.3586
▁subs	-11.359
▁lens	-11.359
▁worms	-11.3599
ki	-11.3616
▁contestants	-11.3618
▁regards	-11.3619
ique	-11.3619
▁scares	-11.3628
lar	-11.3633
bil	-11.3642
▁spokes	-11.3645
▁camper	-11.3652
▁her	-11.3654
▁secretly	-11.3656
▁locks	-11.3664
▁ikes	-11.3676
ong	-11.3682
▁ci	-11.3689
▁blacks	-11.3709
▁scores	-11.3712
▁jeans	-11.3723
▁ger	-11.3724
▁morons	-11.3726
berry	-11.3728
▁tug	-11.3746
▁weep	-11.375
lie	-11.3751
▁photographs	-11.3753
▁swords	-11.3753
▁rogers	-11.3761
▁measures	-11.3763
alo	-11.377
▁prop	-11.3772
take	-11.3772
▁importantly	-11.3799
nic	-11.3802
ora	-11.3806
▁col	-11.3809
tre	-11.3825
▁explains	-11.3837
▁temperatures	-11.387
▁cons	-11.3872
▁pipes	-11.3877
ump	-11.3877
shit	-11.3886
▁magn	-11.389
▁maniac	-11.3894
▁puzzle	-11.39
▁associate	-11.3903
▁sayin	-11.3908
▁needy	-11.3914
▁intellectual	-11.3914
▁application	-11.3915
▁dolphin	-11.3915
▁dawg	-11.3916
▁feminist	-11.3917
lop	-11.3917
▁elsa	-11.392
▁cher	-11.392
▁bolt	-11.3921
▁counselor	-11.3921
▁spec	-11.3921
▁wowser	-11.3922
▁rebel	-11.3923
▁severe	-11.3925
eating	-11.3928
berg	-11.3931
▁flags	-11.3932
▁worm	-11.3934
▁bev	-11.3934
▁skater	-11.3937
▁dennys	-11.3939
▁fright	-11.3945
▁elses	-11.3948
▁dancers	-11.3949
▁tame	-11.3953
now	-11.396
▁offend	-11.3962
most	-11.3989
▁babys	-11.399
▁seventeen	-11.3993
aged	-11.3994
▁trials	-11.4008
▁laps	-11.401
▁che	-11.4023
▁haunt	-11.4026
▁pla	-11.4035
▁threaten	-11.4035
▁dam	-11.4038
▁echo	-11.4046
book	-11.4048
▁disgust	-11.4049
▁avenge	-11.4049
▁generals	-11.4053
part	-11.4053
▁slaughter	-11.4053
▁encounter	-11.4053
▁stu	-11.4054
▁uno	-11.4054
have	-11.4054
▁glide	-11.4056
free	-11.4059
▁deceive	-11.406
▁locate	-11.4061
▁inspire	-11.4061
▁frost	-11.4064
▁solemn	-11.4065
horse	-11.4067
▁reduce	-11.4068
▁leavin	-11.4073
▁sittin	-11.4073
▁banner	-11.4074
▁conscious	-11.4074
▁compass	-11.4074
▁anders	-11.4075
▁automatic	-11.4075
▁antidote	-11.4075
▁atlantic	-11.4075
▁biblical	-11.4075
▁bronze	-11.4075
▁bubbly	-11.4075
▁carpenter	-11.4075
▁chamberlain	-11.4075
▁chemical	-11.4075
▁chimpanzee	-11.4075
▁choosing	-11.4075
▁compartment	-11.4075
▁convoy	-11.4075
▁corporate	-11.4075
▁decline	-11.4075
▁democracy	-11.4075
▁enrique	-11.4075
▁flamethrower	-11.4075
▁gigante	-11.4075
▁haldeman	-11.4075
▁happiest	-11.4075
▁indulge	-11.4075
▁krinkle	-11.4075
▁kungfu	-11.4075
▁massacre	-11.4075
▁meerkat	-11.4075
▁merchandise	-11.4075
▁merrinoe	-11.4075
▁minimum	-11.4075
▁opportunities	-11.4075
▁paolo	-11.4075
▁pervert	-11.4075
▁pledge	-11.4075
▁privacy	-11.4075
▁propaganda	-11.4075
▁qualities	-11.4075
▁racism	-11.4075
▁rekker	-11.4075
▁schooner	-11.4075
▁simpson	-11.4075
▁squirt	-11.4075
▁substitute	-11.4075
▁suicune	-11.4075
▁suppress	-11.4075
▁tardone	-11.4075
▁tavern	-11.4075
▁typewriter	-11.4075
▁absence	-11.4075
▁ballerina	-11.4075
▁flirt	-11.4075
▁herald	-11.4075
▁morris	-11.4075
▁muerte	-11.4075
▁pelias	-11.4075
▁chancellor	-11.4075
▁thrive	-11.4075
▁liberal	-11.4075
▁thirteen	-11.4075
▁constitution	-11.4075
▁hiram	-11.4075
▁psychological	-11.4075
▁telegraph	-11.4075
▁barrier	-11.4075
▁maintenance	-11.4075
▁scumbag	-11.4075
▁seminar	-11.4075
▁mollie	-11.4075
▁communities	-11.4075
▁rutland	-11.4075
▁stingray	-11.4075
▁boston	-11.4075
▁worid	-11.4075
▁vocalizing	-11.4075
▁hanssen	-11.4075
▁krys	-11.4075
▁cuando	-11.4075
▁exposure	-11.4075
▁briefcase	-11.4075
▁norwood	-11.4075
▁fund	-11.4075
▁cooperate	-11.4075
▁wimp	-11.4075
▁commentator	-11.4076
▁limo	-11.4076
▁charlon	-11.4076
▁dizzy	-11.4076
anjar	-11.4076
▁panther	-11.4076
▁kilometers	-11.4076
▁zora	-11.4076
▁cooperation	-11.4076
▁harmonica	-11.4076
▁gagging	-11.4076
▁butterfree	-11.4076
▁margaret	-11.4076
▁panama	-11.4076
▁porch	-11.4076
▁twinkle	-11.4076
▁omar	-11.4076
▁dumpster	-11.4077
▁countess	-11.4077
▁chiid	-11.4077
▁genie	-11.4077
▁caroline	-11.4077
▁forehead	-11.4077
▁yonder	-11.4077
▁keg	-11.4077
▁mmmmmm	-11.4077
▁singular	-11.4077
▁hungary	-11.4077
▁stakeout	-11.4078
▁denne	-11.4078
▁booga	-11.4078
▁objective	-11.4078
▁raspy	-11.4078
▁stab	-11.4078
▁brew	-11.4078
▁arne	-11.4079
▁waist	-11.4079
▁popped	-11.4079
▁authorized	-11.4079
▁echoes	-11.4079
▁selection	-11.4079
▁terrifying	-11.408
▁judy	-11.408
▁benson	-11.408
▁dart	-11.408
▁starboard	-11.408
▁occasionally	-11.4081
▁fuzzy	-11.4081
▁alcoholic	-11.4081
▁scattered	-11.4081
▁detector	-11.4081
▁accountant	-11.4082
▁utterly	-11.4082
▁inventory	-11.4083
▁dj	-11.4083
▁courts	-11.4084
▁snuffy	-11.4084
▁imbecile	-11.4085
▁sober	-11.4085
▁presidential	-11.4085
▁beds	-11.4085
▁protective	-11.4085
lessly	-11.4086
▁fading	-11.4086
▁hansen	-11.4086
▁captive	-11.4086
▁flown	-11.4087
▁ross	-11.4087
▁alas	-11.4087
▁chunk	-11.4087
▁nora	-11.4087
▁frontier	-11.4091
▁bench	-11.4091
▁woolly	-11.4092
▁homicide	-11.4092
▁reduced	-11.4093
▁endure	-11.4094
▁slippery	-11.4095
▁yul	-11.4095
▁paddle	-11.4096
▁speeches	-11.4096
▁forgiveness	-11.41
▁unlikely	-11.41
▁thumper	-11.41
▁standby	-11.4101
▁straining	-11.4104
▁globe	-11.4105
▁engineering	-11.4105
▁sickness	-11.4105
▁physically	-11.4108
▁buzzer	-11.411
▁sidewalks	-11.4111
▁sitter	-11.4111
▁bellow	-11.4114
▁catholics	-11.4117
▁lair	-11.4117
▁wage	-11.4124
▁originally	-11.4125
▁doubts	-11.4128
▁verse	-11.413
▁delayed	-11.413
▁gained	-11.413
▁deliverer	-11.4131
▁goodwin	-11.4133
▁scheduled	-11.4134
▁stinking	-11.4138
▁teaches	-11.4143
▁interrupted	-11.4147
▁anim	-11.4147
▁louie	-11.415
▁forgiven	-11.415
▁merit	-11.4154
▁allies	-11.4156
▁rational	-11.4158
▁fuse	-11.4162
▁crate	-11.4162
▁challenger	-11.4165
▁tart	-11.4167
▁pep	-11.4169
▁pumping	-11.4173
▁pots	-11.4174
▁cryin	-11.4175
▁nana	-11.4178
▁wifes	-11.4182
▁outs	-11.4195
▁nipp	-11.4196
▁takeoff	-11.4197
▁rushing	-11.42
▁planted	-11.4202
▁catches	-11.4203
▁spectacles	-11.4203
▁mes	-11.4206
▁boxers	-11.4214
▁hooked	-11.4215
▁japs	-11.4215
▁te	-11.4224
▁poking	-11.4224
▁heed	-11.4225
ather	-11.423
▁goody	-11.423
▁judged	-11.4231
▁bats	-11.4233
▁midst	-11.4235
▁needles	-11.4239
burg	-11.424
▁crooks	-11.4244
▁needing	-11.4245
▁businesses	-11.425
ani	-11.4255
▁strangely	-11.4257
▁are	-11.4257
▁randal	-11.4258
tali	-11.4262
▁expenses	-11.4265
▁bandy	-11.4269
▁affiliate	-11.4271
▁oy	-11.4276
▁rocking	-11.4279
▁poke	-11.4284
▁warriors	-11.4285
▁pulls	-11.4286
▁commanding	-11.4295
▁methods	-11.4295
▁bobs	-11.43
▁disco	-11.4301
▁cheeks	-11.4306
▁crop	-11.4309
▁companions	-11.4315
▁toots	-11.4318
▁lookout	-11.4326
▁tested	-11.4327
▁qui	-11.4328
▁repairs	-11.4337
▁treasures	-11.4356
▁scriptures	-11.4358
▁sara	-11.4358
▁packs	-11.4359
▁contracts	-11.4364
▁kicking	-11.4365
oid	-11.4366
▁dealers	-11.4366
ification	-11.4368
urban	-11.437
▁chairs	-11.4397
▁witt	-11.4398
▁contains	-11.44
▁bent	-11.4421
▁smelling	-11.4422
aught	-11.4422
▁differently	-11.4426
▁nod	-11.443
▁vic	-11.4443
▁prim	-11.4447
hmm	-11.4456
rap	-11.4459
▁drawings	-11.4462
▁vas	-11.4462
▁parish	-11.447
▁mont	-11.4471
▁clients	-11.4472
ade	-11.4476
▁ani	-11.4477
▁om	-11.448
▁sells	-11.4487
▁peep	-11.4487
ix	-11.4489
▁fla	-11.4492
▁bets	-11.4497
▁weekends	-11.4498
▁ku	-11.45
▁murders	-11.4509
▁reservations	-11.4513
elli	-11.4528
▁fooling	-11.4532
rum	-11.4535
▁finals	-11.4539
▁rag	-11.4543
nder	-11.455
▁murderers	-11.4553
▁ut	-11.4561
▁ei	-11.4578
don	-11.4581
▁scoundrel	-11.4581
lets	-11.4585
▁panel	-11.4585
▁overall	-11.4585
▁surgeon	-11.4585
▁woohoo	-11.4585
▁resting	-11.4585
▁maneuver	-11.4587
▁brace	-11.4587
▁objection	-11.4588
ala	-11.4588
▁insect	-11.4588
iah	-11.4589
▁arrangement	-11.4591
pp	-11.4591
▁collector	-11.4592
▁corners	-11.4592
▁coo	-11.4598
▁buyer	-11.46
▁brake	-11.46
▁restless	-11.4604
▁tanks	-11.4608
ky	-11.4615
▁ak	-11.4622
oke	-11.4627
▁os	-11.4627
▁pap	-11.4636
▁tunes	-11.465
▁slips	-11.4659
▁raccoons	-11.466
▁spa	-11.4662
▁ale	-11.467
▁channels	-11.4681
▁ie	-11.4683
uring	-11.4684
▁vip	-11.469
▁descend	-11.4692
mer	-11.4693
▁dinners	-11.4694
▁flatter	-11.4699
ised	-11.47
▁savages	-11.4702
▁len	-11.4708
▁stroll	-11.4716
▁function	-11.4717
▁addict	-11.4717
piece	-11.4718
fall	-11.4719
▁alba	-11.4719
▁dismiss	-11.4721
girl	-11.4722
mouth	-11.4723
track	-11.4723
about	-11.4724
▁scoot	-11.4725
▁demonstrate	-11.4726
▁negotiate	-11.4726
▁dispose	-11.4727
▁determine	-11.4728
▁rem	-11.473
▁exclusive	-11.4733
▁agrees	-11.4741
▁exploit	-11.4741
▁outrage	-11.4741
▁gaze	-11.4741
▁mmmmmmmm	-11.4742
▁abraham	-11.4742
▁afghanistan	-11.4742
▁amazon	-11.4742
▁ambrose	-11.4742
▁angrily	-11.4742
▁anxiety	-11.4742
▁apollo	-11.4742
▁arrogant	-11.4742
▁bachelor	-11.4742
▁barbecue	-11.4742
▁bdawg	-11.4742
▁bradshaw	-11.4742
▁caballeros	-11.4742
▁cactus	-11.4742
▁charleshenri	-11.4742
▁confusing	-11.4742
▁conrad	-11.4742
▁convincing	-11.4742
▁costello	-11.4742
▁cradle	-11.4742
▁cripple	-11.4742
▁crucial	-11.4742
▁cyclops	-11.4742
▁deception	-11.4742
▁depressing	-11.4742
▁depression	-11.4742
▁domestic	-11.4742
▁driscoll	-11.4742
▁elegance	-11.4742
▁emptiness	-11.4742
▁enthusiasm	-11.4742
▁examination	-11.4742
▁fernando	-11.4742
▁festival	-11.4742
▁frederick	-11.4742
▁giuseppe	-11.4742
▁graham	-11.4742
▁groovy	-11.4742
▁halliwell	-11.4742
▁heritage	-11.4742
▁huerta	-11.4742
▁improving	-11.4742
▁infection	-11.4742
▁infinite	-11.4742
▁injuries	-11.4742
▁january	-11.4742
▁jethro	-11.4742
▁julius	-11.4742
▁khanoum	-11.4742
▁lapporte	-11.4742
▁lollipop	-11.4742
▁lucifer	-11.4742
▁munroe	-11.4742
▁obsessed	-11.4742
▁parkhurst	-11.4742
▁portuguese	-11.4742
▁probation	-11.4742
▁providing	-11.4742
▁receiving	-11.4742
▁registration	-11.4742
▁souvenir	-11.4742
▁syrup	-11.4742
▁teardrop	-11.4742
▁testimony	-11.4742
▁trundle	-11.4742
▁tumbleweed	-11.4742
▁unpleasant	-11.4742
▁vulture	-11.4742
▁wilhelm	-11.4742
▁wondrous	-11.4742
▁yonggary	-11.4742
▁ambush	-11.4742
▁gypsies	-11.4742
▁imminent	-11.4742
▁karl	-11.4742
▁metallic	-11.4742
▁possum	-11.4742
▁bastion	-11.4742
▁contempt	-11.4742
▁vomit	-11.4742
▁starlite	-11.4742
▁stokes	-11.4742
▁austria	-11.4742
▁cognac	-11.4742
▁defy	-11.4742
bowwow	-11.4742
▁ephraim	-11.4742
▁junction	-11.4742
▁housing	-11.4742
▁patrick	-11.4742
▁tingle	-11.4742
▁cherries	-11.4742
▁quince	-11.4742
▁cornwall	-11.4742
▁juicy	-11.4742
▁eligible	-11.4742
▁sontee	-11.4742
▁linus	-11.4742
▁mallinger	-11.4742
▁nonstop	-11.4742
▁clarence	-11.4742
▁auburn	-11.4742
▁justify	-11.4742
▁essay	-11.4742
▁inheritance	-11.4742
▁diplomatic	-11.4742
▁ferry	-11.4742
▁singsong	-11.4742
▁parole	-11.4742
▁butterfly	-11.4742
▁banjo	-11.4742
▁administration	-11.4742
▁boundaries	-11.4742
▁expelled	-11.4742
▁unnecessary	-11.4742
▁denied	-11.4742
▁niju	-11.4742
▁piay	-11.4742
▁prank	-11.4742
▁coosh	-11.4742
▁radiation	-11.4742
▁rumba	-11.4743
▁involvement	-11.4743
▁huey	-11.4743
▁oome	-11.4743
▁gatlin	-11.4743
▁twig	-11.4743
▁subtle	-11.4743
▁dumas	-11.4743
▁tryouts	-11.4743
▁primary	-11.4743
▁achievement	-11.4743
▁aaaah	-11.4743
▁nerd	-11.4743
▁tosh	-11.4743
▁foam	-11.4743
▁jody	-11.4743
▁reformers	-11.4744
▁tux	-11.4744
▁spotlight	-11.4744
lestine	-11.4744
▁robinson	-11.4744
▁brute	-11.4744
▁evie	-11.4744
▁cox	-11.4744
▁spice	-11.4744
▁atom	-11.4744
▁blockhead	-11.4745
▁skinner	-11.4745
▁toyland	-11.4745
▁judo	-11.4745
▁hatred	-11.4745
▁motherinlaw	-11.4745
▁daring	-11.4745
▁classified	-11.4745
▁balan	-11.4745
▁equality	-11.4745
▁advertisement	-11.4746
▁katia	-11.4746
▁puert	-11.4746
▁spooky	-11.4746
▁overwhelming	-11.4747
▁constantine	-11.4747
▁shep	-11.4747
▁anybodys	-11.4747
▁fries	-11.4747
▁geese	-11.4748
▁gallon	-11.4748
▁resignation	-11.4748
▁drumming	-11.4748
▁brite	-11.4748
▁petersen	-11.4748
▁debut	-11.4748
▁youi	-11.4748
▁aban	-11.4748
▁whizz	-11.4749
▁foal	-11.475
▁churchill	-11.475
▁franklin	-11.4751
▁semi	-11.4751
▁gunny	-11.4751
▁bitsy	-11.4752
▁stein	-11.4752
▁evolved	-11.4752
▁replacement	-11.4753
▁grim	-11.4753
▁zion	-11.4753
▁alter	-11.4754
▁gus	-11.4754
▁villagers	-11.4755
▁baked	-11.4755
▁koh	-11.4757
▁reply	-11.4757
▁experiments	-11.4758
▁transformed	-11.4759
▁educational	-11.476
▁lurking	-11.476
▁arse	-11.476
▁dougie	-11.4761
▁childish	-11.4761
▁crunching	-11.4762
▁invested	-11.4763
▁portion	-11.4763
▁heartland	-11.4763
ius	-11.4764
▁shallow	-11.4764
▁runway	-11.4766
▁tomb	-11.4766
▁crooked	-11.4767
▁restored	-11.4767
tal	-11.4771
▁wiser	-11.4773
▁shitty	-11.4773
▁eighth	-11.4776
▁scraping	-11.4776
did	-11.4777
▁spite	-11.4777
coat	-11.4779
▁hash	-11.4781
▁swamp	-11.4782
▁sneaky	-11.4789
▁policeman	-11.4791
▁fling	-11.4791
▁taco	-11.4796
▁tuned	-11.4798
▁revealing	-11.4799
▁smashed	-11.4804
▁northeast	-11.4807
▁whores	-11.4807
▁uk	-11.4808
▁thankful	-11.4809
▁chabots	-11.4813
▁goblins	-11.4813
▁cheated	-11.4822
▁flights	-11.4824
▁preparations	-11.4824
▁veterans	-11.4824
▁poisoned	-11.4825
seven	-11.4829
▁denying	-11.483
▁trusting	-11.4831
▁crom	-11.4834
▁diapers	-11.4835
▁stamps	-11.4846
▁poisoning	-11.4847
▁depending	-11.4848
▁failing	-11.4848
▁tighter	-11.4849
▁richie	-11.4851
▁finale	-11.4854
▁nervously	-11.4859
▁harmed	-11.4861
▁risky	-11.4862
▁but	-11.4866
▁miner	-11.4867
▁stare	-11.4871
▁pad	-11.4874
▁rips	-11.4874
▁stav	-11.4876
▁foe	-11.4882
▁popes	-11.4889
▁fal	-11.4892
▁excused	-11.4896
▁hem	-11.4897
▁maneuvers	-11.4899
▁smoked	-11.4901
▁rags	-11.4901
▁dealt	-11.4902
▁discussed	-11.4903
▁prof	-11.4906
ional	-11.4907
▁sadly	-11.4907
▁messy	-11.4907
▁tomorrows	-11.4909
itch	-11.4909
ark	-11.4919
▁dud	-11.4922
▁fallin	-11.4928
odo	-11.4932
▁mow	-11.4936
▁with	-11.494
▁vents	-11.4943
ero	-11.4944
▁posted	-11.4945
▁hoof	-11.4963
▁proves	-11.4963
▁greeks	-11.4968
▁shelly	-11.4975
▁ee	-11.4978
▁iv	-11.4997
▁nuns	-11.4999
▁samples	-11.5
▁challenges	-11.5003
▁lighten	-11.5008
cular	-11.5017
▁longest	-11.5033
▁allowing	-11.5034
▁princey	-11.504
▁resident	-11.5045
▁cd	-11.5046
▁harmoni	-11.5047
▁hors	-11.5049
▁parked	-11.5052
▁perch	-11.5077
▁divers	-11.5077
▁arguments	-11.5089
▁costumes	-11.5089
▁mic	-11.5091
▁hens	-11.5093
see	-11.5094
▁naive	-11.5098
fer	-11.5099
▁peer	-11.5103
▁lowing	-11.5105
▁monks	-11.5112
rry	-11.5113
▁yoyo	-11.5119
hair	-11.5126
▁pus	-11.5133
▁tracker	-11.5135
cens	-11.5139
▁creeps	-11.5142
▁uses	-11.5148
▁caress	-11.5148
▁opinions	-11.5162
▁directors	-11.517
▁bananas	-11.5178
mb	-11.5179
▁fighters	-11.518
there	-11.5192
▁objects	-11.5201
▁rates	-11.5202
▁assholes	-11.5206
rai	-11.5207
▁kin	-11.5207
▁explaining	-11.5208
bble	-11.5223
▁cooke	-11.5223
▁noses	-11.5238
▁floors	-11.5243
any	-11.5249
▁await	-11.5253
▁hides	-11.5259
▁detectives	-11.526
rid	-11.5269
▁wink	-11.5277
▁groan	-11.5279
▁intern	-11.5287
▁suspicion	-11.5295
▁scroll	-11.5295
▁kitten	-11.5296
▁noodle	-11.5296
▁insert	-11.5298
▁donation	-11.5298
▁warming	-11.5299
▁habits	-11.5299
▁decade	-11.53
▁geranium	-11.53
▁aliens	-11.5301
vie	-11.5309
▁producer	-11.5311
▁evan	-11.5312
▁tourist	-11.5312
▁lat	-11.5314
▁drone	-11.5318
▁senses	-11.532
tory	-11.5329
▁rises	-11.5347
▁greeting	-11.5368
▁fab	-11.5371
▁commands	-11.5373
tti	-11.5375
▁jap	-11.5377
haha	-11.5391
mill	-11.5399
▁singers	-11.5402
▁fig	-11.5404
▁invade	-11.5409
▁dum	-11.5412
▁officials	-11.5415
▁diver	-11.5416
born	-11.5416
▁brag	-11.5418
school	-11.542
▁dori	-11.5421
▁anyways	-11.5425
▁fare	-11.5431
cell	-11.5432
walk	-11.5433
▁dwell	-11.5433
▁conceal	-11.5434
▁writes	-11.5435
child	-11.5435
▁crowded	-11.5436
warren	-11.5437
minute	-11.5437
▁unlock	-11.5438
▁disrespect	-11.5441
▁dos	-11.5441
▁poof	-11.5443
▁definite	-11.5448
▁undo	-11.5448
▁concerns	-11.5451
▁manchuria	-11.5452
▁torpedo	-11.5452
▁cockroach	-11.5452
▁stitch	-11.5453
▁strangle	-11.5454
▁iris	-11.5454
▁waltz	-11.5455
▁architect	-11.5455
▁convert	-11.5456
posito	-11.5456
▁trini	-11.5456
▁antoine	-11.5456
▁holmes	-11.5456
▁ezekiel	-11.5456
▁clutch	-11.5456
▁tobacco	-11.5456
▁vietnam	-11.5456
▁alligator	-11.5456
▁approval	-11.5456
▁bibbidibobbidi	-11.5456
▁boulder	-11.5456
▁bulldozer	-11.5456
▁canadian	-11.5456
▁catastrophe	-11.5456
▁category	-11.5456
▁chauvet	-11.5456
▁clarinet	-11.5456
▁convenience	-11.5456
▁desirable	-11.5456
▁desmond	-11.5456
▁detroit	-11.5456
▁devotion	-11.5456
▁dictionary	-11.5456
▁discreet	-11.5456
▁dogtective	-11.5456
▁dolores	-11.5456
▁dominique	-11.5456
▁entitled	-11.5456
▁erasmus	-11.5456
▁faggot	-11.5456
▁furnace	-11.5456
▁garlic	-11.5456
▁garrincha	-11.5456
▁generosity	-11.5456
▁gnome	-11.5456
▁halifax	-11.5456
▁hamburger	-11.5456
▁hideyori	-11.5456
▁humiliation	-11.5456
▁juvenile	-11.5456
▁karate	-11.5456
▁lobster	-11.5456
▁mechagodzilla	-11.5456
▁michelangelo	-11.5456
▁mozart	-11.5456
▁octopus	-11.5456
▁overseas	-11.5456
▁penthouse	-11.5456
▁plunge	-11.5456
▁pocahontas	-11.5456
▁popcorn	-11.5456
▁pornography	-11.5456
▁precaution	-11.5456
▁pyramid	-11.5456
▁rafael	-11.5456
▁recognise	-11.5456
▁relevant	-11.5456
▁ribbon	-11.5456
▁scenario	-11.5456
▁schooi	-11.5456
▁sloppy	-11.5456
▁spenlow	-11.5456
▁sputtering	-11.5456
▁sunrise	-11.5456
▁supernatural	-11.5456
▁talbot	-11.5456
▁throttle	-11.5456
▁tremble	-11.5456
▁trifle	-11.5456
▁whilst	-11.5456
▁yarmouth	-11.5456
▁yukimura	-11.5456
▁coffin	-11.5456
▁dahl	-11.5456
▁dennis	-11.5456
▁leisure	-11.5456
▁ninth	-11.5456
▁odette	-11.5456
▁rookie	-11.5456
▁sperm	-11.5456
▁whereabouts	-11.5456
▁visible	-11.5456
▁jingling	-11.5456
▁loretta	-11.5456
▁winnie	-11.5456
▁inquisition	-11.5456
▁porthos	-11.5456
▁proclamation	-11.5456
▁mandela	-11.5456
▁africanamerican	-11.5456
▁canvas	-11.5456
▁jensen	-11.5456
▁welcoming	-11.5456
▁ketchum	-11.5456
▁waffle	-11.5456
▁vague	-11.5456
▁fraction	-11.5456
▁prettier	-11.5456
▁rye	-11.5456
▁kibble	-11.5456
▁navid	-11.5456
▁revoir	-11.5456
▁pesky	-11.5456
▁geologist	-11.5456
▁baroness	-11.5457
▁gurdy	-11.5457
▁lenny	-11.5457
▁spicy	-11.5457
▁rogue	-11.5457
▁slumber	-11.5457
▁truce	-11.5457
▁discount	-11.5457
▁maori	-11.5457
▁hunch	-11.5457
▁psychiatrist	-11.5457
▁savannah	-11.5457
▁whiff	-11.5457
▁pow	-11.5457
▁descent	-11.5457
▁carbonation	-11.5457
▁rudi	-11.5457
▁cupcake	-11.5457
▁nico	-11.5457
▁slamming	-11.5457
▁burke	-11.5457
▁ginga	-11.5457
▁repent	-11.5457
▁lottery	-11.5457
▁recite	-11.5457
▁craving	-11.5457
▁mijo	-11.5457
▁frequently	-11.5457
▁roadblock	-11.5457
▁xray	-11.5457
▁knit	-11.5457
▁cruising	-11.5457
▁whiskers	-11.5457
▁slipping	-11.5458
▁mature	-11.5458
▁bondage	-11.5458
▁scarce	-11.5458
▁perkins	-11.5458
▁solene	-11.5458
▁daft	-11.5458
▁genetic	-11.5458
▁unfold	-11.5458
▁liking	-11.5458
▁neil	-11.5458
▁gabe	-11.5458
▁dietz	-11.5458
▁misha	-11.5458
▁kris	-11.5459
▁fax	-11.5459
▁computerized	-11.5459
▁oink	-11.5459
▁osor	-11.5459
▁spitting	-11.5459
▁boze	-11.5459
▁gurgling	-11.5459
▁hooves	-11.5459
▁worldwide	-11.546
▁iq	-11.546
▁trout	-11.546
▁freddy	-11.546
▁rash	-11.546
▁wizard	-11.546
▁overwhelmed	-11.546
▁defenseless	-11.546
▁brock	-11.546
▁marina	-11.5461
▁acquainted	-11.5461
▁salsa	-11.5461
▁accidentally	-11.5461
▁convey	-11.5461
▁izzy	-11.5461
▁subway	-11.5461
▁berries	-11.5462
▁pomp	-11.5462
▁flee	-11.5462
▁cuch	-11.5462
▁slit	-11.5462
▁tripped	-11.5462
▁harmless	-11.5462
▁chopped	-11.5463
▁gena	-11.5463
▁distinguished	-11.5463
▁transmitter	-11.5464
▁stepping	-11.5465
▁slurping	-11.5465
▁lsnt	-11.5466
▁barge	-11.5466
▁lifestyle	-11.5466
▁assembled	-11.5467
▁carbonated	-11.5468
▁distributed	-11.5468
▁discouraged	-11.5469
▁vouch	-11.547
▁acquired	-11.547
▁vain	-11.5471
▁drago	-11.5473
▁funnies	-11.5473
▁humiliated	-11.5474
▁promoted	-11.5475
▁persuaded	-11.5475
▁coverup	-11.5475
▁examined	-11.5477
▁fearless	-11.5478
▁exhausting	-11.548
▁offended	-11.5481
▁spellers	-11.5482
▁shutting	-11.5482
▁mentally	-11.5482
▁lawson	-11.5483
▁intro	-11.5484
▁affected	-11.5484
▁crashes	-11.5484
▁pear	-11.5484
▁achieved	-11.5485
▁dared	-11.5485
▁negotiations	-11.5486
▁tempt	-11.5487
gi	-11.5488
▁vase	-11.5489
▁chessy	-11.5489
▁freshen	-11.5489
▁weeping	-11.5489
▁muck	-11.5492
▁amy	-11.5493
▁dani	-11.5496
▁smartest	-11.5496
▁lind	-11.5496
nin	-11.5497
▁stutters	-11.5498
▁spilled	-11.5499
▁towers	-11.5499
▁toyo	-11.5499
▁kang	-11.5499
inkling	-11.5503
▁funding	-11.5504
▁rand	-11.5505
▁crowe	-11.5507
▁ford	-11.5507
▁succeeded	-11.5508
▁kidnappers	-11.5509
▁nude	-11.5511
▁bursting	-11.5512
▁breeding	-11.5512
eight	-11.5513
▁setup	-11.5513
▁homeland	-11.5515
▁goldman	-11.5516
▁swallowed	-11.5518
▁assumed	-11.5518
▁shipment	-11.5518
▁cum	-11.5518
▁dadda	-11.5519
▁sharply	-11.552
▁martyr	-11.5522
▁equ	-11.5524
lum	-11.5524
▁thrilling	-11.5526
▁reporters	-11.553
▁spades	-11.5532
▁pod	-11.5532
▁unite	-11.5534
▁adam	-11.5534
poli	-11.5535
▁robbing	-11.5538
▁maine	-11.5543
▁marbles	-11.5545
▁sinners	-11.5545
aye	-11.5546
▁disappearing	-11.5546
▁followers	-11.5546
▁dances	-11.5549
▁correctly	-11.5549
▁challenged	-11.5552
▁daytime	-11.5554
▁pancakes	-11.5556
▁blasted	-11.5557
▁cre	-11.5559
▁attending	-11.5561
three	-11.5562
▁suspects	-11.5574
▁voted	-11.5575
▁brighter	-11.5575
▁desires	-11.5575
▁kip	-11.5576
▁shocking	-11.5581
aire	-11.5585
▁lungs	-11.5589
▁dent	-11.5592
▁politicians	-11.5604
▁pasta	-11.5604
▁lifted	-11.5608
▁princesses	-11.5612
▁doris	-11.5614
▁interns	-11.5617
▁islands	-11.5621
▁gro	-11.5627
▁if	-11.5633
▁ian	-11.5635
▁esp	-11.5638
iz	-11.5642
ridden	-11.5644
▁generally	-11.5645
▁climbed	-11.5645
wei	-11.5646
▁thoughtful	-11.5649
▁tee	-11.566
▁reminder	-11.566
▁trumps	-11.5663
▁amigos	-11.5665
▁languages	-11.5667
▁runners	-11.5675
▁honors	-11.5683
▁greatness	-11.5683
▁shhh	-11.5689
▁wayne	-11.5711
▁nurses	-11.5712
▁pressing	-11.5714
▁gae	-11.5722
▁shepherds	-11.5722
▁includes	-11.5723
tomi	-11.5723
▁wagons	-11.5724
▁lure	-11.5729
▁prayed	-11.5738
▁starters	-11.5743
▁trib	-11.575
ort	-11.5754
ara	-11.5756
▁tickles	-11.5758
▁yous	-11.5762
ability	-11.5773
▁cleaners	-11.5775
ister	-11.5776
▁privileges	-11.5782
▁ruins	-11.5786
▁items	-11.5794
▁ideals	-11.5795
▁wears	-11.5795
▁jug	-11.5801
▁que	-11.5802
▁chico	-11.5805
war	-11.5805
▁rehearsals	-11.5806
▁computers	-11.5813
▁warmer	-11.5825
air	-11.5825
▁lightly	-11.5837
▁wakes	-11.5841
▁heresy	-11.5853
six	-11.5858
mate	-11.586
▁grounded	-11.5862
▁lent	-11.5866
▁follows	-11.587
▁chops	-11.5873
▁gen	-11.5873
▁pac	-11.5874
▁gla	-11.5886
▁bub	-11.5898
▁perk	-11.5902
▁decides	-11.5902
cal	-11.591
▁hangs	-11.5912
liest	-11.5917
tious	-11.592
▁hale	-11.5926
▁appearances	-11.5926
▁franks	-11.594
▁mates	-11.5946
▁sessions	-11.595
great	-11.596
▁herds	-11.5962
hoo	-11.5971
▁troop	-11.5979
▁wd	-11.5988
▁illness	-11.5988
atic	-11.5995
▁slowing	-11.5996
where	-11.6
▁bea	-11.6
▁rach	-11.6003
▁scr	-11.6004
▁shorts	-11.6019
▁riders	-11.602
▁knocks	-11.6021
▁remembering	-11.6036
rit	-11.6043
▁gall	-11.6047
▁ion	-11.6049
jan	-11.6052
▁roar	-11.6052
▁pleasures	-11.6056
▁ruff	-11.6058
▁mop	-11.6058
▁openly	-11.606
▁km	-11.6062
▁regent	-11.6068
▁outdoor	-11.6068
▁politician	-11.6069
▁footprint	-11.6069
▁spectacle	-11.6069
oral	-11.607
▁guinea	-11.6071
▁vegetable	-11.6072
ets	-11.6072
▁vehicles	-11.6072
▁gorgonite	-11.6072
▁onion	-11.6073
▁dot	-11.6082
▁cages	-11.6092
▁bel	-11.6097
▁caf	-11.61
▁emerge	-11.61
▁chiefs	-11.61
▁insists	-11.6111
▁commando	-11.6121
cept	-11.6133
wn	-11.6135
▁villages	-11.6144
▁halls	-11.6148
▁dev	-11.6149
▁trips	-11.6152
▁snip	-11.6159
▁wedd	-11.6163
▁bl	-11.6167
▁hai	-11.617
▁swam	-11.6179
▁yahoo	-11.6184
och	-11.6186
cess	-11.6187
bin	-11.6194
▁tweet	-11.6197
▁exc	-11.6197
▁bake	-11.6198
▁clair	-11.6198
illa	-11.6202
▁adapt	-11.6202
▁invest	-11.6203
▁retard	-11.6203
▁inherit	-11.6203
▁sustain	-11.6204
quot	-11.6206
directly	-11.6206
people	-11.6207
white	-11.6207
lookin	-11.6207
▁investigate	-11.621
▁update	-11.6211
▁combine	-11.6214
▁filth	-11.6214
▁thorough	-11.6216
▁increasing	-11.6217
why	-11.6217
▁inf	-11.6219
▁teachings	-11.622
hour	-11.622
▁intens	-11.6221
▁slug	-11.6223
▁monstro	-11.6224
mile	-11.6225
▁cult	-11.6225
▁shabbes	-11.6225
dominant	-11.6225
oksanochka	-11.6225
▁alliance	-11.6225
▁alyssa	-11.6225
▁amanda	-11.6225
▁appalled	-11.6225
▁armistice	-11.6225
▁astronomy	-11.6225
▁asylum	-11.6225
▁balcony	-11.6225
▁beverage	-11.6225
▁blenac	-11.6225
▁brenner	-11.6225
▁brezhnev	-11.6225
▁brodsky	-11.6225
▁budderball	-11.6225
▁calendar	-11.6225
▁celebrities	-11.6225
▁cemetery	-11.6225
▁charmander	-11.6225
▁charmeleon	-11.6225
▁chauffeur	-11.6225
▁chemistry	-11.6225
▁coigne	-11.6225
▁coolidge	-11.6225
▁defence	-11.6225
▁emissary	-11.6225
▁epidemic	-11.6225
▁espresso	-11.6225
▁facial	-11.6225
▁facility	-11.6225
▁fascist	-11.6225
▁fouquet	-11.6225
▁gashade	-11.6225
▁goonches	-11.6225
▁henderson	-11.6225
▁hilarious	-11.6225
▁hitchcock	-11.6225
▁holland	-11.6225
▁identical	-11.6225
▁ignoring	-11.6225
▁industries	-11.6225
▁inferior	-11.6225
▁jacqueline	-11.6225
▁kartik	-11.6225
▁katherine	-11.6225
▁keach	-11.6225
▁kelekian	-11.6225
▁kettle	-11.6225
▁lewis	-11.6225
▁lucille	-11.6225
▁manchukuo	-11.6225
▁memnet	-11.6225
▁mercedes	-11.6225
▁mistletoe	-11.6225
▁misunderstood	-11.6225
▁mixture	-11.6225
▁monastery	-11.6225
▁moonshine	-11.6225
▁muslim	-11.6225
▁occupation	-11.6225
▁offensive	-11.6225
▁offspring	-11.6225
▁papoose	-11.6225
▁paranoid	-11.6225
▁parliament	-11.6225
▁parlor	-11.6225
▁peopie	-11.6225
▁physicist	-11.6225
▁pomegranate	-11.6225
▁precinct	-11.6225
▁presidency	-11.6225
▁prosecution	-11.6225
▁quarrel	-11.6225
▁rainforest	-11.6225
▁regain	-11.6225
▁schmauss	-11.6225
▁schuyler	-11.6225
▁scope	-11.6225
▁seizure	-11.6225
▁sikh	-11.6225
▁sloshing	-11.6225
▁snarls	-11.6225
▁superstition	-11.6225
▁surviving	-11.6225
▁swore	-11.6225
▁tendency	-11.6225
▁thunderclap	-11.6225
▁tokugawa	-11.6225
▁violin	-11.6225
▁wharf	-11.6225
▁worthwhile	-11.6225
▁wrestling	-11.6225
▁zombie	-11.6225
▁austin	-11.6225
▁dainty	-11.6225
▁dubovsky	-11.6225
▁lovelace	-11.6225
▁nashville	-11.6225
▁pendant	-11.6225
▁protein	-11.6225
▁taafe	-11.6225
▁unarmed	-11.6225
▁yawning	-11.6225
responsibilities	-11.6225
▁deuce	-11.6225
▁bagdad	-11.6225
▁bozo	-11.6225
▁donnybrook	-11.6225
▁sneer	-11.6225
▁affirmative	-11.6225
▁cottage	-11.6225
▁offshore	-11.6225
▁dictate	-11.6225
▁investigating	-11.6225
▁spunky	-11.6225
▁terrain	-11.6225
▁chihuahua	-11.6226
▁swat	-11.6226
▁stunning	-11.6226
▁uptight	-11.6226
▁menacing	-11.6226
▁totoche	-11.6226
▁bonanza	-11.6226
▁francesco	-11.6226
▁tribute	-11.6226
▁grandchildren	-11.6226
▁stanford	-11.6226
▁ardent	-11.6226
▁zazz	-11.6226
▁intercept	-11.6226
▁coraz	-11.6226
▁practising	-11.6226
▁graduation	-11.6226
▁siwon	-11.6226
▁vesper	-11.6226
▁definiteiy	-11.6226
▁backstage	-11.6226
▁onlv	-11.6226
▁dorm	-11.6226
▁fuji	-11.6226
▁vava	-11.6226
▁automatically	-11.6226
▁sunnyside	-11.6226
▁oska	-11.6226
▁ravenwood	-11.6226
▁sector	-11.6226
▁stride	-11.6226
▁unpack	-11.6226
▁canned	-11.6226
▁berlin	-11.6226
▁courtmartial	-11.6226
▁february	-11.6226
▁satisfaction	-11.6226
▁investment	-11.6226
▁tidy	-11.6226
▁myth	-11.6226
▁ashford	-11.6226
▁documentary	-11.6227
▁shred	-11.6227
▁arise	-11.6227
▁maze	-11.6227
▁altitude	-11.6227
jump	-11.6227
▁sniffling	-11.6227
▁slate	-11.6227
▁unload	-11.6227
▁mound	-11.6227
▁controls	-11.6227
▁giddyup	-11.6227
▁stix	-11.6227
▁raising	-11.6227
▁stax	-11.6227
▁hamster	-11.6227
▁relay	-11.6228
▁keyboard	-11.6228
▁shane	-11.6228
▁preferred	-11.6228
▁robberies	-11.6228
▁ripping	-11.6228
▁kung	-11.6228
▁timber	-11.6228
▁admiralty	-11.6228
▁overhead	-11.6228
▁rodan	-11.6228
▁bracelet	-11.6228
▁cuz	-11.6229
▁bertha	-11.6229
▁jackpot	-11.6229
▁piglet	-11.6229
▁grande	-11.6229
▁jeb	-11.623
▁defendant	-11.623
▁bowerman	-11.623
▁furry	-11.623
▁glaive	-11.623
▁merv	-11.623
▁vaticanus	-11.6231
▁puck	-11.6231
▁pieta	-11.6231
▁jespah	-11.6231
▁hawaiian	-11.6231
▁oory	-11.6231
▁frequency	-11.6231
▁countdown	-11.6232
▁tomatoes	-11.6232
▁buckle	-11.6233
▁cove	-11.6233
ft	-11.6233
▁troll	-11.6233
▁evils	-11.6234
▁sonnet	-11.6234
▁pj	-11.6234
band	-11.6234
▁checkpoint	-11.6234
▁increasingly	-11.6235
▁breakdown	-11.6235
▁grandmama	-11.6236
▁dna	-11.6236
▁weddin	-11.6236
▁vanity	-11.6236
▁convicted	-11.6237
▁executed	-11.6238
▁clearance	-11.6238
▁summertime	-11.6238
▁gem	-11.6239
▁dice	-11.6239
▁sensational	-11.6239
▁taxes	-11.6239
▁nile	-11.6239
▁vile	-11.624
▁jamal	-11.624
▁heather	-11.624
▁countryside	-11.624
▁permanently	-11.6241
▁strangled	-11.6241
▁sandwiches	-11.6241
▁agony	-11.6242
▁tolling	-11.6242
thank	-11.6243
▁realistic	-11.6243
▁hormones	-11.6245
▁superb	-11.6245
▁rue	-11.6245
▁eternally	-11.6246
▁hospitality	-11.6247
▁bullfighter	-11.6247
▁ida	-11.6247
▁jac	-11.625
▁rolfe	-11.625
▁instantly	-11.6252
▁hotter	-11.6253
▁rl	-11.6253
yrus	-11.6256
▁clam	-11.6256
▁rental	-11.6257
▁calculations	-11.6257
▁cooing	-11.6258
▁advised	-11.6258
▁soaked	-11.6261
astic	-11.6262
▁yeller	-11.6263
▁silky	-11.6263
▁robby	-11.6265
▁erin	-11.6265
▁surrounding	-11.6266
▁entertaining	-11.6266
▁woe	-11.6266
▁skilled	-11.6269
▁panchos	-11.627
▁applauds	-11.627
▁frightening	-11.627
▁thumping	-11.6273
▁madman	-11.6274
▁quacking	-11.6275
▁pry	-11.6276
▁insulted	-11.6277
▁boiling	-11.6277
miss	-11.6281
▁manda	-11.6281
▁hast	-11.6282
▁spank	-11.6282
▁whims	-11.6283
▁nan	-11.6289
▁scratched	-11.6289
ado	-11.6289
▁billys	-11.629
▁corny	-11.6291
▁cursed	-11.6292
▁broadcasting	-11.6292
▁duet	-11.6297
▁representing	-11.6298
▁leaking	-11.6299
▁sonia	-11.63
▁tossed	-11.6301
▁smacking	-11.6302
▁ordering	-11.6311
▁vickie	-11.6314
▁stirr	-11.6316
▁logical	-11.6318
▁spared	-11.6324
▁coolest	-11.6326
▁loot	-11.6327
▁shatters	-11.6334
▁prices	-11.6335
▁tele	-11.6338
▁bosses	-11.6338
▁mol	-11.6341
▁robbin	-11.6343
▁designs	-11.6346
▁demanding	-11.6346
▁referr	-11.635
▁richer	-11.6356
hard	-11.6359
▁injuns	-11.6359
try	-11.6367
▁wrists	-11.6373
▁critics	-11.6373
▁tougher	-11.6375
▁claiming	-11.6378
ula	-11.6379
▁battles	-11.6383
pitched	-11.6385
▁lala	-11.6385
▁avoiding	-11.6394
▁napa	-11.6405
▁braces	-11.6411
▁plea	-11.6415
▁careless	-11.6416
▁rebels	-11.6424
▁bolts	-11.6424
▁associates	-11.6424
▁wowsers	-11.6425
▁presently	-11.6426
▁console	-11.6431
was	-11.6434
▁getaway	-11.6438
▁pressed	-11.6445
▁regrets	-11.6453
▁scraps	-11.6456
▁vampires	-11.6462
bat	-11.6465
pan	-11.6472
▁amor	-11.6475
▁sneezes	-11.6475
▁lam	-11.6478
heim	-11.648
▁summers	-11.6482
▁tshirts	-11.6488
▁finer	-11.649
▁tease	-11.649
▁bows	-11.6499
▁weighs	-11.6502
▁cranes	-11.6504
▁classy	-11.6506
▁watches	-11.6513
▁err	-11.6513
▁rearrange	-11.652
▁heartbreak	-11.6524
▁forming	-11.6531
ettes	-11.6534
▁cutie	-11.6536
▁lash	-11.6537
▁scales	-11.6538
▁features	-11.654
▁maximu	-11.6545
ugh	-11.655
▁knots	-11.6552
▁depths	-11.6553
▁bombing	-11.6555
net	-11.6556
▁kn	-11.6571
▁cate	-11.6574
▁owes	-11.6579
iness	-11.6582
▁newman	-11.6582
▁pun	-11.6582
▁cooler	-11.659
▁lighting	-11.659
chen	-11.6591
than	-11.6591
▁demons	-11.6592
▁wilder	-11.6601
▁belonging	-11.6602
▁votes	-11.6603
▁crep	-11.6603
▁sid	-11.6603
▁nationals	-11.6605
▁brazilians	-11.6605
▁supposedly	-11.6605
▁wonderfully	-11.6608
pot	-11.6625
▁streams	-11.6629
icken	-11.6635
▁represents	-11.6646
▁jewels	-11.6651
nine	-11.6655
▁dragons	-11.6657
▁smacks	-11.667
▁hyp	-11.6677
▁intentions	-11.6681
▁fasten	-11.6683
▁mommys	-11.6692
▁sallys	-11.6692
▁hooker	-11.6697
▁picky	-11.6698
▁partys	-11.6699
▁nava	-11.6702
▁checker	-11.6719
▁construct	-11.6721
pop	-11.6729
▁villain	-11.673
bal	-11.6735
▁chee	-11.6735
▁sic	-11.6754
▁playful	-11.6757
▁eatin	-11.6767
▁cooks	-11.6771
mere	-11.6783
▁tik	-11.6785
▁critic	-11.6788
▁disappears	-11.679
gie	-11.6791
▁styles	-11.6793
▁uncles	-11.6806
▁kl	-11.681
▁studios	-11.6814
▁guer	-11.6823
▁dw	-11.6829
▁bing	-11.6836
▁nor	-11.6849
tag	-11.6855
▁paths	-11.6857
opo	-11.686
▁jumps	-11.6863
▁wu	-11.6867
▁monarch	-11.6883
▁grunt	-11.6884
▁involve	-11.6885
▁sap	-11.6887
year	-11.6893
▁masks	-11.6893
▁elder	-11.6895
▁beal	-11.6896
▁cigar	-11.6898
▁resume	-11.6898
▁grenade	-11.6898
▁cheerleader	-11.6899
▁explosive	-11.6899
▁communist	-11.6899
▁leprechaun	-11.69
▁critter	-11.6901
▁wrist	-11.6903
▁distraction	-11.6903
▁athlete	-11.6903
▁phillip	-11.6905
▁grownup	-11.6905
▁peanuts	-11.6906
▁wires	-11.6908
▁ami	-11.6909
▁showers	-11.6909
▁contractor	-11.6915
▁oi	-11.6915
tone	-11.6918
▁threats	-11.692
etic	-11.6941
▁cuff	-11.6941
▁bottoms	-11.6944
▁remov	-11.6944
▁trails	-11.6951
▁doe	-11.6952
▁swap	-11.6957
▁statues	-11.6957
pped	-11.6958
▁pins	-11.696
ata	-11.6965
▁magnets	-11.697
▁throws	-11.6972
▁chang	-11.6977
▁owed	-11.6977
▁lookie	-11.6978
▁blankets	-11.6986
gger	-11.6987
gorically	-11.6995
▁sites	-11.7011
▁caps	-11.7012
▁exhaust	-11.7013
friend	-11.7015
iddle	-11.7017
place	-11.7018
▁lung	-11.7019
hearted	-11.7023
▁decid	-11.7025
▁execution	-11.7026
▁utter	-11.7027
into	-11.703
body	-11.7031
▁furs	-11.7032
▁kilo	-11.7033
▁franco	-11.7035
▁transform	-11.7035
▁disobey	-11.7036
▁obtain	-11.7037
▁neglect	-11.7037
known	-11.7037
▁slim	-11.7038
burn	-11.7039
▁renew	-11.7039
worm	-11.7039
count	-11.7039
worth	-11.704
street	-11.704
score	-11.704
ically	-11.7041
▁duk	-11.7042
pipe	-11.7043
▁deals	-11.7043
▁perish	-11.7043
▁rankin	-11.7044
▁stumble	-11.7044
▁distribute	-11.7044
▁relate	-11.7046
▁restrain	-11.7047
▁snuff	-11.7048
▁vincent	-11.7048
ooooo	-11.7048
yo	-11.7054
▁norm	-11.7055
▁soy	-11.7055
▁inspect	-11.7055
▁donny	-11.7059
▁glitter	-11.7059
▁manufacture	-11.7059
▁mischief	-11.7059
▁allergic	-11.7059
▁alphabatical	-11.7059
▁anyplace	-11.7059
▁apostle	-11.7059
▁apprentice	-11.7059
▁athletic	-11.7059
▁atlanta	-11.7059
▁balthazar	-11.7059
▁behaviour	-11.7059
▁belgium	-11.7059
▁bounty	-11.7059
▁bouquet	-11.7059
▁bourgeois	-11.7059
▁brennan	-11.7059
▁brookhaven	-11.7059
▁bubbling	-11.7059
▁bunyan	-11.7059
▁burrito	-11.7059
▁carlotta	-11.7059
▁celsius	-11.7059
▁cinnamon	-11.7059
▁cocaine	-11.7059
▁cochiloco	-11.7059
▁comparison	-11.7059
▁concussion	-11.7059
▁contemporary	-11.7059
▁crail	-11.7059
▁credibility	-11.7059
▁defensive	-11.7059
▁despise	-11.7059
▁determination	-11.7059
▁dungeon	-11.7059
▁easiest	-11.7059
▁economy	-11.7059
▁efficient	-11.7059
▁effie	-11.7059
▁elaborate	-11.7059
▁ermengarde	-11.7059
▁escaping	-11.7059
▁exotic	-11.7059
▁exploration	-11.7059
▁extinct	-11.7059
▁filiberto	-11.7059
▁gavin	-11.7059
▁generator	-11.7059
▁genevieve	-11.7059
▁georgia	-11.7059
▁grizelda	-11.7059
▁hyena	-11.7059
▁ignit	-11.7059
▁illustrious	-11.7059
▁infinity	-11.7059
▁infrared	-11.7059
▁insanity	-11.7059
▁irina	-11.7059
▁irritating	-11.7059
▁jorma	-11.7059
▁jotham	-11.7059
▁knuckles	-11.7059
▁lalala	-11.7059
▁loopdeloop	-11.7059
▁mammoth	-11.7059
▁margarita	-11.7059
▁mastronardi	-11.7059
▁mathalon	-11.7059
▁mcgirk	-11.7059
▁mckible	-11.7059
▁ministry	-11.7059
▁misfortune	-11.7059
▁mississippi	-11.7059
▁mumbai	-11.7059
▁nebraska	-11.7059
▁negro	-11.7059
▁ninja	-11.7059
▁odessa	-11.7059
▁olympus	-11.7059
▁onethird	-11.7059
▁orgasm	-11.7059
▁pellegrini	-11.7059
▁philadelphia	-11.7059
▁preposterous	-11.7059
▁producing	-11.7059
▁railroad	-11.7059
▁reindeer	-11.7059
▁rewrite	-11.7059
▁rosemary	-11.7059
▁saemonnosuke	-11.7059
▁scandal	-11.7059
▁scribe	-11.7059
▁sheldon	-11.7059
▁shelf	-11.7059
▁shouid	-11.7059
▁slykes	-11.7059
▁spaghetti	-11.7059
▁sphinx	-11.7059
▁sprout	-11.7059
▁stench	-11.7059
▁substance	-11.7059
▁sufficient	-11.7059
▁surveillance	-11.7059
▁survey	-11.7059
▁syracuse	-11.7059
▁tetsuzo	-11.7059
▁token	-11.7059
▁toothbrush	-11.7059
▁toothpaste	-11.7059
▁toxic	-11.7059
▁treacherous	-11.7059
▁tread	-11.7059
▁treasury	-11.7059
▁troubling	-11.7059
▁tweak	-11.7059
▁unlimited	-11.7059
▁destined	-11.7059
▁entei	-11.7059
▁esteem	-11.7059
▁halfbreed	-11.7059
▁hardware	-11.7059
▁maestro	-11.7059
▁mural	-11.7059
▁pioneer	-11.7059
▁rosita	-11.7059
▁samuel	-11.7059
▁shaving	-11.7059
▁squish	-11.7059
▁tissue	-11.7059
▁almond	-11.7059
▁atlas	-11.7059
▁bundle	-11.7059
▁coroner	-11.7059
▁forcing	-11.7059
▁onao	-11.7059
▁douglas	-11.7059
▁riverhorses	-11.7059
▁waving	-11.7059
▁ciccio	-11.7059
▁opposition	-11.7059
▁sopr	-11.7059
▁eighteen	-11.7059
▁anticipation	-11.7059
▁wallace	-11.7059
▁curve	-11.7059
▁downstream	-11.7059
▁posada	-11.7059
▁sanctuary	-11.7059
▁zahara	-11.7059
▁dripping	-11.7059
▁piease	-11.7059
▁prettiest	-11.7059
▁steinberg	-11.7059
▁redeem	-11.7059
▁defect	-11.7059
▁thigh	-11.7059
▁excessive	-11.7059
▁odor	-11.7059
▁cairo	-11.7059
▁hippie	-11.7059
▁drought	-11.7059
▁kiki	-11.7059
▁overflow	-11.7059
▁representative	-11.7059
▁harold	-11.7059
▁nicholson	-11.7059
▁twitter	-11.7059
▁gooz	-11.7059
▁tumble	-11.7059
▁fiery	-11.7059
▁collaboration	-11.7059
▁intercom	-11.7059
▁sponsorship	-11.7059
▁pendragon	-11.706
▁allez	-11.706
▁boarst	-11.706
▁prospect	-11.706
▁properties	-11.706
▁willow	-11.706
▁zipper	-11.706
▁homesteaders	-11.706
▁shotgun	-11.706
▁venus	-11.706
▁revive	-11.706
▁orbit	-11.706
▁elmer	-11.706
▁disarm	-11.706
▁phenomenal	-11.706
▁grizzly	-11.706
▁regardless	-11.706
▁wildlife	-11.706
▁handwriting	-11.706
▁mariachi	-11.706
▁dependent	-11.7061
▁matson	-11.7061
▁sheepdog	-11.7061
▁cupboard	-11.7061
▁kodi	-11.7061
▁java	-11.7061
▁jung	-11.7061
▁flashlight	-11.7061
▁buff	-11.7061
▁piace	-11.7061
▁mattress	-11.7061
▁laurence	-11.7062
▁purity	-11.7062
▁masterpiece	-11.7062
▁iife	-11.7062
▁catfish	-11.7062
▁outrun	-11.7062
▁slinky	-11.7062
▁distinction	-11.7063
▁wwhat	-11.7063
▁asian	-11.7063
▁ugo	-11.7063
▁equipped	-11.7063
▁drunkard	-11.7063
▁catholicism	-11.7063
▁mimic	-11.7063
▁kong	-11.7064
▁crude	-11.7064
▁railway	-11.7064
▁poisonous	-11.7064
▁chump	-11.7064
▁goldfoot	-11.7065
▁granddaddy	-11.7065
▁torches	-11.7065
▁intruder	-11.7065
▁shipped	-11.7066
▁moth	-11.7066
▁iceland	-11.7066
▁cupid	-11.7066
▁showcase	-11.7066
▁facebook	-11.7066
▁troublemaker	-11.7066
▁polo	-11.7066
▁notion	-11.7067
▁blackstone	-11.7067
▁touchdown	-11.7067
▁stuttering	-11.7067
▁broom	-11.7067
▁marcia	-11.7068
▁gloomy	-11.7068
▁gravy	-11.7068
▁rejoice	-11.7068
▁iran	-11.7069
▁ninety	-11.7069
▁ceo	-11.7069
▁diesel	-11.7069
▁elton	-11.7069
▁feei	-11.707
▁brass	-11.707
▁stine	-11.7071
▁sway	-11.7071
▁priceless	-11.7072
▁vp	-11.7073
▁fag	-11.7073
when	-11.7074
▁bulk	-11.7074
▁colorful	-11.7075
▁rodeo	-11.7076
▁after	-11.7076
▁mint	-11.7076
▁invaded	-11.7076
▁youse	-11.7076
▁departed	-11.7079
▁adjusted	-11.7079
▁leeman	-11.7079
▁doom	-11.7079
▁whoosh	-11.7079
▁controlled	-11.7079
▁albums	-11.7079
▁yelps	-11.708
▁horseback	-11.708
▁distiller	-11.708
▁neglected	-11.708
▁ahold	-11.7081
▁collapsed	-11.7081
▁juliet	-11.7081
▁liza	-11.7081
▁sustained	-11.7082
▁warmth	-11.7082
▁plumber	-11.7083
▁orin	-11.7083
▁buzzes	-11.7083
▁bakery	-11.7084
▁dickie	-11.7086
▁keno	-11.7087
▁alto	-11.7088
▁reserved	-11.7089
▁warmup	-11.7091
▁greatly	-11.7092
▁photography	-11.7092
▁elliott	-11.7094
▁emotionally	-11.7094
▁privileged	-11.7095
▁janet	-11.7097
▁loom	-11.7098
▁helena	-11.71
▁videos	-11.7101
▁preaching	-11.7101
▁attracted	-11.7101
lot	-11.7102
▁publication	-11.7106
▁lid	-11.7109
▁frenchman	-11.711
▁announced	-11.711
▁positively	-11.711
▁distracted	-11.7111
▁ville	-11.7111
▁starring	-11.7116
▁duel	-11.7116
▁sheer	-11.712
iev	-11.7121
▁inning	-11.7122
▁tucked	-11.7124
▁steering	-11.7125
▁tailor	-11.7126
▁diner	-11.7127
▁freaky	-11.7127
▁mooch	-11.7129
▁magneto	-11.7129
▁funk	-11.7129
▁moody	-11.7131
▁rump	-11.7132
table	-11.7132
▁aspects	-11.7135
▁inmates	-11.7135
▁haw	-11.7135
▁heartless	-11.7136
▁drifting	-11.7136
▁launched	-11.7137
▁tres	-11.7138
▁snug	-11.7141
▁stretched	-11.7142
enne	-11.7144
▁finishes	-11.7152
▁ads	-11.7155
tion	-11.7155
▁freezer	-11.7155
▁loop	-11.7156
▁santos	-11.7159
▁viper	-11.716
ola	-11.7161
▁trooper	-11.7161
nu	-11.7163
▁highlands	-11.7163
▁stretching	-11.7164
▁lard	-11.7164
▁williams	-11.7165
▁aring	-11.7169
▁colt	-11.717
▁fizz	-11.7171
▁hopeful	-11.7171
▁carter	-11.7172
ime	-11.7172
▁freeman	-11.7173
▁vitamins	-11.7177
▁wits	-11.7178
▁marita	-11.718
▁spreads	-11.7187
▁celebrated	-11.7191
▁deserved	-11.7193
▁catcher	-11.7197
▁did	-11.7197
▁spine	-11.7197
▁dune	-11.7205
▁ahha	-11.7206
▁les	-11.721
▁critters	-11.7219
▁elders	-11.7219
▁backside	-11.722
rus	-11.7224
▁fri	-11.7224
▁grandmothers	-11.7227
▁nearer	-11.7227
▁punched	-11.7228
▁earths	-11.7231
pata	-11.7231
▁tearing	-11.7231
▁sor	-11.7232
▁footprints	-11.7233
▁outdoors	-11.7233
▁regents	-11.7233
▁aaa	-11.7235
▁stat	-11.7244
▁conditioning	-11.7245
aaaaah	-11.7252
▁shaker	-11.7253
gue	-11.7253
unk	-11.726
▁collectors	-11.7262
▁hounds	-11.7268
▁rays	-11.727
▁repeated	-11.7273
▁ruining	-11.7285
▁adding	-11.7293
name	-11.7297
▁rube	-11.7297
▁madly	-11.7297
▁smiled	-11.7303
▁youngsters	-11.7303
▁prejudice	-11.7304
▁aura	-11.7305
▁mamma	-11.7309
choo	-11.7309
▁painters	-11.7311
▁manure	-11.7311
▁pulses	-11.7317
▁goya	-11.7323
▁tricked	-11.7325
rov	-11.7326
▁pres	-11.7328
▁shi	-11.7329
▁dares	-11.7332
▁jape	-11.7333
oop	-11.7341
ility	-11.7342
▁builder	-11.7342
▁allows	-11.7343
▁stables	-11.7346
▁tracked	-11.7346
▁pest	-11.7352
▁blades	-11.736
▁mug	-11.7361
▁requests	-11.7364
ple	-11.7364
▁deserts	-11.7373
▁mutants	-11.7374
▁hiphop	-11.7387
▁meaningless	-11.7392
▁disk	-11.7403
▁gladly	-11.7404
▁poles	-11.7408
iam	-11.7424
▁earthly	-11.7425
dam	-11.7425
▁characters	-11.7427
▁bugle	-11.7431
▁etc	-11.7436
▁wil	-11.7438
▁panick	-11.744
▁clove	-11.7442
▁riches	-11.7443
▁ohio	-11.745
▁mortals	-11.7459
▁salesman	-11.7461
nous	-11.7463
eater	-11.7467
▁specially	-11.7468
rk	-11.7474
mber	-11.7475
▁eco	-11.7477
▁positioning	-11.7482
▁profits	-11.7502
▁enforce	-11.7504
▁brood	-11.7521
▁girlfriends	-11.7527
▁shutters	-11.753
▁slaps	-11.7535
▁pointing	-11.7539
▁acomin	-11.7552
▁rainbows	-11.7554
icy	-11.7555
hhhhh	-11.7563
hey	-11.7564
▁exercises	-11.7573
▁hanks	-11.7583
▁rah	-11.7587
put	-11.761
▁sparks	-11.7612
bre	-11.7616
lessness	-11.7621
aca	-11.7621
▁dur	-11.7626
▁oranges	-11.763
▁gaw	-11.7633
▁majestys	-11.764
▁scann	-11.7644
▁projects	-11.7645
▁reads	-11.7647
▁killers	-11.7648
▁speakers	-11.7655
▁pearls	-11.7659
▁mari	-11.7668
▁sk	-11.7671
▁stuffing	-11.7671
▁gals	-11.7673
ore	-11.7683
▁packages	-11.7686
night	-11.77
▁fourteen	-11.7706
▁pans	-11.7712
▁askin	-11.7714
▁sentences	-11.7717
▁rab	-11.7722
▁nephews	-11.7731
▁lamps	-11.7731
vus	-11.7738
dont	-11.7741
has	-11.7743
▁hub	-11.7745
▁fences	-11.776
▁dearly	-11.7763
▁imim	-11.7772
▁gigantic	-11.7779
▁experiences	-11.7781
▁researcher	-11.7782
▁eagles	-11.7788
▁clang	-11.7788
▁papas	-11.7789
▁romans	-11.7789
rest	-11.7789
ood	-11.7794
▁helmet	-11.7806
▁fossil	-11.7806
▁interaction	-11.7807
▁sleeve	-11.7808
▁coyote	-11.7809
▁crocodile	-11.781
▁injun	-11.781
▁cocktail	-11.7811
▁bloke	-11.7812
▁peasant	-11.7812
▁blossom	-11.7812
▁baboon	-11.7813
▁dumpling	-11.7815
▁snob	-11.7815
talk	-11.7819
▁committ	-11.783
▁sos	-11.7831
▁principals	-11.7832
uous	-11.784
lap	-11.7842
▁christians	-11.7846
▁questioned	-11.7849
▁hospitals	-11.7854
▁animat	-11.7864
wise	-11.7868
▁models	-11.7869
ole	-11.7871
▁oop	-11.7877
ando	-11.7881
▁correction	-11.7919
▁downs	-11.7923
class	-11.7923
card	-11.7923
▁tops	-11.7927
▁cran	-11.7934
▁shush	-11.7937
▁rolf	-11.7939
▁bros	-11.7939
▁moan	-11.7939
▁qualify	-11.794
▁whirl	-11.794
▁gibber	-11.794
▁crunch	-11.7941
▁clink	-11.7941
power	-11.7942
▁defi	-11.7944
▁adjust	-11.7945
hypnotic	-11.7947
▁depart	-11.7948
record	-11.7949
oksana	-11.795
making	-11.7951
▁shabo	-11.7952
▁underestimate	-11.7953
▁execute	-11.7953
▁assemble	-11.7953
force	-11.7954
▁accuse	-11.7954
▁carbonate	-11.7954
▁hypnotize	-11.7955
bank	-11.7955
▁rick	-11.7955
aki	-11.7956
▁twitch	-11.7957
▁reek	-11.7959
▁boxer	-11.796
▁hydro	-11.796
▁penetrate	-11.796
▁shant	-11.7964
▁wal	-11.7964
▁smokin	-11.7965
▁squat	-11.7967
▁diploma	-11.7967
▁regis	-11.7967
▁granddad	-11.7967
▁gorgon	-11.7968
▁metaphor	-11.7968
▁sensual	-11.7968
▁advancing	-11.7968
▁aladdin	-11.7968
▁apologizing	-11.7968
▁arkansas	-11.7968
▁artificial	-11.7968
▁artillery	-11.7968
▁athens	-11.7968
▁avalanche	-11.7968
▁babbling	-11.7968
▁bankrupt	-11.7968
▁bannock	-11.7968
▁baptist	-11.7968
▁barcelona	-11.7968
▁barouche	-11.7968
▁bathtub	-11.7968
▁behaving	-11.7968
▁bogey	-11.7968
▁bypass	-11.7968
▁calamity	-11.7968
▁cautious	-11.7968
▁churring	-11.7968
▁ciolino	-11.7968
▁colchis	-11.7968
▁commute	-11.7968
▁compensation	-11.7968
▁concentration	-11.7968
▁confusion	-11.7968
▁conservation	-11.7968
▁contribute	-11.7968
▁crabtree	-11.7968
▁desperation	-11.7968
▁diablo	-11.7968
▁dialect	-11.7968
▁dilemma	-11.7968
▁diphtheria	-11.7968
▁disrupt	-11.7968
▁dynamic	-11.7968
▁ecstasy	-11.7968
▁einstein	-11.7968
▁elaheh	-11.7968
▁elixir	-11.7968
▁emmanuelle	-11.7968
▁extension	-11.7968
▁extent	-11.7968
▁extinguish	-11.7968
▁eyebrows	-11.7968
▁fantasies	-11.7968
▁feihung	-11.7968
▁felicia	-11.7968
▁fitzgerald	-11.7968
▁fritz	-11.7968
▁frustration	-11.7968
▁fuhrer	-11.7968
▁gabriel	-11.7968
▁gammoudi	-11.7968
▁gannon	-11.7968
▁garrison	-11.7968
▁giddap	-11.7968
▁glitches	-11.7968
▁grandparents	-11.7968
▁greece	-11.7968
▁grifter	-11.7968
▁handcuff	-11.7968
▁handkerchief	-11.7968
▁harvey	-11.7968
▁hurrah	-11.7968
▁impostor	-11.7968
▁intact	-11.7968
▁irresistible	-11.7968
▁lettuce	-11.7968
▁libertus	-11.7968
▁lmpossible	-11.7968
▁marijuana	-11.7968
▁mcewen	-11.7968
▁mercury	-11.7968
▁mermoz	-11.7968
▁morgue	-11.7968
▁murdoch	-11.7968
▁nectar	-11.7968
▁neutrino	-11.7968
▁noctis	-11.7968
▁norwegian	-11.7968
▁notorious	-11.7968
▁nuisance	-11.7968
▁obedient	-11.7968
▁oklahoma	-11.7968
▁ordeal	-11.7968
▁orlando	-11.7968
▁overture	-11.7968
▁paradox	-11.7968
▁parlezvous	-11.7968
▁parviz	-11.7968
▁piplup	-11.7968
▁pollination	-11.7968
▁precision	-11.7968
▁premature	-11.7968
▁profound	-11.7968
▁pursuing	-11.7968
▁roissy	-11.7968
▁rucio	-11.7968
▁sabela	-11.7968
▁scold	-11.7968
▁shackelford	-11.7968
▁smut	-11.7968
▁striking	-11.7968
▁tbone	-11.7968
▁tequila	-11.7968
▁therapist	-11.7968
▁transcript	-11.7968
▁tregelles	-11.7968
▁trivial	-11.7968
▁truffle	-11.7968
▁twilight	-11.7968
▁undercover	-11.7968
▁universal	-11.7968
▁vegetarian	-11.7968
▁winsiow	-11.7968
▁wunko	-11.7968
▁wyoming	-11.7968
▁xibalba	-11.7968
▁appalling	-11.7968
▁caprice	-11.7968
▁charging	-11.7968
▁chemo	-11.7968
▁competing	-11.7968
▁curb	-11.7968
▁daemon	-11.7968
▁hardcore	-11.7968
▁illinois	-11.7968
▁milkweed	-11.7968
▁parasite	-11.7968
▁senate	-11.7968
▁urmi	-11.7968
▁virtual	-11.7968
▁draculaura	-11.7968
▁gwen	-11.7968
▁parallel	-11.7968
▁ahyuck	-11.7968
▁noticing	-11.7968
▁nonenglish	-11.7968
▁hardworking	-11.7968
▁purgatory	-11.7968
▁stiles	-11.7968
▁emerson	-11.7968
▁lundie	-11.7968
▁bosom	-11.7968
▁courtesy	-11.7968
▁immense	-11.7968
▁rafferty	-11.7968
▁taiking	-11.7968
▁braying	-11.7968
ovich	-11.7968
▁psychologist	-11.7968
▁venice	-11.7968
▁lhc	-11.7968
▁lolly	-11.7968
▁ignorant	-11.7968
▁grouch	-11.7968
▁algeria	-11.7968
▁wrath	-11.7968
▁bahamas	-11.7968
▁pedal	-11.7968
▁hostess	-11.7968
▁blares	-11.7968
▁estella	-11.7968
▁regal	-11.7968
▁blaming	-11.7968
▁biological	-11.7968
▁hyde	-11.7968
▁norway	-11.7968
▁repay	-11.7968
▁supposing	-11.7968
▁lounge	-11.7968
▁sculpture	-11.7968
▁widowmaker	-11.7968
▁fruitcake	-11.7968
▁unbearable	-11.7968
gulf	-11.7968
▁pajamas	-11.7968
▁cloak	-11.7968
▁opium	-11.7968
▁ellis	-11.7968
▁theories	-11.7968
▁nitro	-11.7968
▁cellphone	-11.7968
▁dickens	-11.7968
▁motto	-11.7968
▁blaine	-11.7968
▁brink	-11.7969
▁filter	-11.7969
▁employment	-11.7969
▁esther	-11.7969
▁workshop	-11.7969
▁laptop	-11.7969
▁torment	-11.7969
▁eboat	-11.7969
▁ibs	-11.7969
▁glance	-11.7969
▁kiko	-11.7969
▁rigged	-11.7969
▁anthem	-11.7969
▁blunt	-11.7969
▁vulnerable	-11.7969
▁hummingbird	-11.7969
vation	-11.7969
▁dork	-11.7969
▁ooooh	-11.7969
▁scram	-11.7969
▁bandaid	-11.7969
▁trotter	-11.7969
▁incidentally	-11.7969
▁blush	-11.797
▁labour	-11.797
▁monstrous	-11.797
▁murphy	-11.797
▁sorcerers	-11.797
▁finch	-11.797
▁receptionist	-11.797
▁cement	-11.797
▁karr	-11.797
▁psychic	-11.797
▁whipping	-11.797
▁slash	-11.797
▁katrina	-11.797
▁tipper	-11.7971
▁vanya	-11.7971
▁dislike	-11.7971
▁wate	-11.7971
▁cooperative	-11.7971
▁transportation	-11.7971
▁spunn	-11.7971
▁siva	-11.7971
▁toid	-11.7971
▁flap	-11.7971
▁peaches	-11.7971
▁delta	-11.7971
▁render	-11.7971
▁mirage	-11.7971
dress	-11.7971
▁annette	-11.7971
▁inquiry	-11.7971
▁lucis	-11.7972
▁juliana	-11.7972
▁eww	-11.7972
▁crowley	-11.7972
▁attendant	-11.7972
ancy	-11.7972
▁minority	-11.7972
▁factories	-11.7972
▁lightyear	-11.7972
▁morality	-11.7972
▁directive	-11.7973
▁trim	-11.7973
▁playground	-11.7973
▁mineral	-11.7973
▁rodent	-11.7973
▁corruption	-11.7973
▁saknussemm	-11.7973
▁fogle	-11.7973
▁miii	-11.7973
▁retain	-11.7973
▁fatso	-11.7973
▁arf	-11.7974
▁warlock	-11.7974
▁airways	-11.7975
▁sliding	-11.7975
▁iot	-11.7975
▁checkmate	-11.7975
▁enchanted	-11.7975
▁obscene	-11.7975
▁suede	-11.7975
▁dem	-11.7975
▁muk	-11.7975
▁nursery	-11.7975
▁prominen	-11.7976
▁migration	-11.7976
▁shipping	-11.7976
▁kano	-11.7976
▁sipes	-11.7976
▁teasing	-11.7976
▁scissors	-11.7976
▁dax	-11.7976
▁crumply	-11.7976
▁lining	-11.7976
▁continental	-11.7977
▁ramen	-11.7977
▁millie	-11.7977
▁decoy	-11.7978
▁bien	-11.7978
▁slime	-11.7978
▁pause	-11.7978
▁canal	-11.7979
▁endeavor	-11.7979
▁flicky	-11.7979
▁slapped	-11.7979
▁kiddin	-11.798
▁coverage	-11.798
chat	-11.7981
▁gayle	-11.7981
▁endangered	-11.7981
▁stealth	-11.7982
▁emile	-11.7982
▁typing	-11.7982
▁scratches	-11.7983
▁orion	-11.7983
▁cocoa	-11.7984
▁dried	-11.7985
▁skipped	-11.7985
▁polly	-11.7985
▁hoid	-11.7985
▁instructed	-11.7985
▁shattered	-11.7986
▁cameron	-11.7987
▁ole	-11.7988
▁foxes	-11.7989
▁transition	-11.7989
▁mentor	-11.7989
▁gina	-11.799
▁tur	-11.7992
▁rm	-11.7993
▁referred	-11.7994
▁bucky	-11.7994
▁sour	-11.7994
▁flashes	-11.7995
▁viciously	-11.7995
▁cozy	-11.7995
▁barber	-11.7995
▁hart	-11.7996
▁auguste	-11.7996
▁whalen	-11.7996
▁flattered	-11.7998
▁acceptable	-11.7998
▁judgement	-11.7999
▁mcc	-11.7999
▁about	-11.8
▁lump	-11.8
▁hiking	-11.8001
▁choked	-11.8002
▁recovery	-11.8002
▁dew	-11.8005
▁regarded	-11.8005
▁immigration	-11.8005
▁cantata	-11.8006
▁installed	-11.8006
▁corrupted	-11.8006
▁fearful	-11.8007
▁materials	-11.8007
▁haunting	-11.8009
▁exploded	-11.8009
▁invader	-11.801
▁undressed	-11.801
▁movements	-11.8011
▁luk	-11.8011
▁mayer	-11.8011
▁leech	-11.8013
▁hometown	-11.8014
▁reschedule	-11.8014
▁blooming	-11.8014
▁regarding	-11.8014
▁admired	-11.8015
▁bellies	-11.8015
▁idiotic	-11.8016
vy	-11.8017
▁toothy	-11.8018
▁chilly	-11.8019
▁jc	-11.8019
▁dollart	-11.802
▁your	-11.802
▁crawled	-11.8021
▁accusations	-11.8021
ggle	-11.8022
▁caii	-11.8025
▁englishman	-11.8025
▁rv	-11.8026
▁crib	-11.8026
▁stayin	-11.8027
▁oid	-11.8027
▁poly	-11.8028
▁roasted	-11.8031
▁sickle	-11.8036
▁packet	-11.8036
▁showtime	-11.8038
▁salon	-11.8039
▁iti	-11.8039
▁resigned	-11.804
▁regularly	-11.804
▁dye	-11.8044
▁printing	-11.8044
▁legally	-11.8049
▁chipmunks	-11.8052
▁gulps	-11.8052
▁roughly	-11.8055
▁nicky	-11.8057
▁prep	-11.8063
▁fangs	-11.8066
▁kidneys	-11.8067
▁varmints	-11.8067
▁ridin	-11.807
ular	-11.8072
▁desired	-11.8073
▁berate	-11.8074
▁swelling	-11.8075
▁leer	-11.8075
▁daggers	-11.8083
▁oysters	-11.8083
▁sweating	-11.8083
were	-11.8086
▁discovering	-11.8094
▁jumpin	-11.8097
▁predators	-11.8098
▁lotte	-11.8098
▁bred	-11.81
▁decode	-11.8102
▁maud	-11.8104
▁optimistic	-11.8108
wan	-11.8114
▁earning	-11.8116
run	-11.8116
▁privately	-11.8117
▁holdup	-11.8117
▁bombers	-11.8119
▁weirdo	-11.812
▁tc	-11.8124
▁crocodiles	-11.8129
▁conditioned	-11.813
▁blokes	-11.813
▁sola	-11.8132
▁cork	-11.8144
▁sethi	-11.8145
▁shun	-11.8145
▁striker	-11.8146
▁switched	-11.8146
ray	-11.8149
▁crowing	-11.8154
▁layers	-11.8155
▁dots	-11.8157
▁rim	-11.816
eye	-11.8165
▁loading	-11.8165
▁poi	-11.817
▁lotus	-11.8174
▁compos	-11.8175
▁taxis	-11.8175
▁inserts	-11.8175
▁donations	-11.8175
bell	-11.8175
▁picket	-11.8177
▁practiced	-11.8178
▁horny	-11.8178
▁surgeons	-11.8191
▁publisher	-11.8194
wee	-11.8196
▁wages	-11.8199
▁py	-11.82
▁snag	-11.8204
▁caller	-11.8214
▁ada	-11.822
▁tangle	-11.8221
▁jon	-11.8228
▁tor	-11.8234
▁hunted	-11.8236
vers	-11.8244
▁blinded	-11.8245
stop	-11.8249
▁gorillas	-11.8252
▁eighty	-11.8254
▁multi	-11.8254
▁renting	-11.826
▁jaws	-11.8268
▁nazis	-11.8271
hhh	-11.8274
▁strap	-11.8285
wear	-11.8285
▁molt	-11.8286
▁erma	-11.8295
▁shorty	-11.8298
▁complaints	-11.83
▁clocks	-11.8303
▁hehe	-11.8304
▁prizes	-11.8305
▁atta	-11.8312
▁span	-11.8314
▁balloons	-11.8314
▁aide	-11.8316
▁yowl	-11.8322
▁sly	-11.8325
▁winters	-11.8329
▁supporting	-11.8332
▁ev	-11.8333
hoohoo	-11.8336
▁terr	-11.8337
▁comeback	-11.8342
▁socialist	-11.8345
▁peaks	-11.8346
▁boing	-11.8355
▁governments	-11.8358
▁blu	-11.8359
▁chambers	-11.8361
▁ruthless	-11.8367
ane	-11.8367
▁smelled	-11.8374
▁guarded	-11.8375
▁pai	-11.8382
sky	-11.8389
▁pint	-11.8396
▁weekly	-11.8397
▁gre	-11.8401
▁drinkin	-11.8405
▁hippos	-11.8408
▁dangers	-11.8409
▁tru	-11.8413
▁chestnuts	-11.8424
▁loo	-11.8437
▁elect	-11.8439
▁ob	-11.8448
mas	-11.8451
▁scal	-11.8462
aries	-11.8465
▁smoker	-11.8465
mble	-11.8468
▁nag	-11.8468
▁lib	-11.8473
▁barb	-11.8481
▁emperors	-11.8484
ological	-11.8484
▁poll	-11.8495
▁sep	-11.8498
▁creates	-11.85
▁elections	-11.8502
heat	-11.8508
▁barre	-11.851
▁dicks	-11.8517
ipped	-11.8528
city	-11.8537
▁bio	-11.8539
▁remark	-11.8547
▁labels	-11.8551
▁senseless	-11.8552
▁logs	-11.8577
▁individuals	-11.8579
▁vermin	-11.858
▁relaxing	-11.8586
▁protestants	-11.8597
▁sac	-11.8599
pha	-11.86
iate	-11.862
▁playin	-11.8625
▁currents	-11.863
▁brook	-11.8633
▁brid	-11.8642
def	-11.8643
ico	-11.8654
▁partly	-11.8667
▁bru	-11.8676
▁outfits	-11.8676
▁differences	-11.8678
▁dona	-11.8691
▁ledge	-11.8694
▁shifts	-11.8695
here	-11.8699
▁fil	-11.8703
self	-11.8704
▁climber	-11.8706
eau	-11.8707
▁reins	-11.8712
▁grabb	-11.8718
tto	-11.8733
▁ironic	-11.8735
▁valleys	-11.8743
mph	-11.8743
▁gent	-11.8766
▁phoned	-11.8768
▁cot	-11.8778
▁recruit	-11.8779
lham	-11.8782
▁temp	-11.8786
▁defenses	-11.8788
▁tasks	-11.8789
▁stamp	-11.8789
▁sar	-11.8794
minded	-11.8801
▁merchant	-11.8808
even	-11.8808
▁hungarian	-11.8808
▁ghoul	-11.8811
▁ancestor	-11.8814
▁instruction	-11.8816
▁dodo	-11.8817
▁neutral	-11.8827
▁div	-11.8827
▁jars	-11.8828
▁freeway	-11.8829
▁deb	-11.8831
▁quant	-11.8838
▁sparkl	-11.8839
life	-11.8839
▁tilt	-11.8855
▁chord	-11.8868
▁cracker	-11.887
▁guitars	-11.8873
▁mystic	-11.8874
▁hoop	-11.8877
will	-11.8901
reen	-11.8905
▁gamb	-11.8907
▁coma	-11.8907
▁bor	-11.891
▁caves	-11.891
▁murmur	-11.8919
▁euro	-11.8927
▁bridges	-11.8929
izzi	-11.8929
▁lurk	-11.893
▁axe	-11.893
▁refresh	-11.8933
boat	-11.8935
woo	-11.8937
▁plac	-11.8939
▁reform	-11.8942
print	-11.8943
guard	-11.8944
▁bowls	-11.8944
▁appoint	-11.8945
▁cramp	-11.8946
▁wail	-11.8946
view	-11.8948
historic	-11.8949
thirsty	-11.8949
▁flick	-11.8949
finding	-11.8949
perfect	-11.8949
guy	-11.8949
fold	-11.8949
front	-11.895
letter	-11.8951
beck	-11.8952
▁congregation	-11.8952
turn	-11.8953
▁evacuate	-11.8953
▁pierce	-11.8953
▁layer	-11.8954
▁mick	-11.8954
▁should	-11.8955
▁acquire	-11.8956
bury	-11.8957
fui	-11.8957
▁donate	-11.8957
▁crump	-11.8959
▁inventor	-11.896
▁infant	-11.8961
▁choi	-11.8962
▁raisin	-11.8965
▁puttin	-11.8966
okay	-11.8967
▁interact	-11.8967
▁wouid	-11.8967
▁arab	-11.8967
▁hortens	-11.8967
▁baiul	-11.8968
▁musket	-11.8968
malenkaya	-11.8968
▁acoustic	-11.8968
▁allegiance	-11.8968
▁analyze	-11.8968
▁apprehend	-11.8968
▁arthritis	-11.8968
▁assembly	-11.8968
▁autopsy	-11.8968
▁baltimore	-11.8968
▁bopeep	-11.8968
▁boulevard	-11.8968
▁bourbon	-11.8968
▁budapest	-11.8968
▁buzhardt	-11.8968
▁caboose	-11.8968
▁cadillac	-11.8968
▁caramba	-11.8968
▁censorship	-11.8968
▁cologne	-11.8968
▁commotion	-11.8968
▁concur	-11.8968
▁condolences	-11.8968
▁contraption	-11.8968
▁cortez	-11.8968
▁crossbow	-11.8968
▁curfew	-11.8968
▁decipher	-11.8968
▁degenerate	-11.8968
▁delinquent	-11.8968
▁denomination	-11.8968
▁deputies	-11.8968
▁diabolical	-11.8968
▁disregard	-11.8968
▁dissolve	-11.8968
▁dobson	-11.8968
▁dominion	-11.8968
▁dovlatov	-11.8968
▁dunkirk	-11.8968
▁dwarf	-11.8968
▁edinburgh	-11.8968
▁encouraging	-11.8968
▁eskimo	-11.8968
▁ethiopia	-11.8968
▁evacuation	-11.8968
▁evident	-11.8968
▁exwife	-11.8968
▁ferdinand	-11.8968
▁foretold	-11.8968
▁galaxy	-11.8968
▁ghetto	-11.8968
▁gourmet	-11.8968
▁gradually	-11.8968
▁grazie	-11.8968
▁grazing	-11.8968
▁harbour	-11.8968
▁heechul	-11.8968
▁holmsby	-11.8968
▁humbly	-11.8968
▁humidity	-11.8968
▁humiliating	-11.8968
▁hylas	-11.8968
▁infernal	-11.8968
▁inhabitants	-11.8968
▁insignificant	-11.8968
▁inspiring	-11.8968
▁instagram	-11.8968
▁irresponsible	-11.8968
▁isolation	-11.8968
▁jeanmarc	-11.8968
▁jeopardize	-11.8968
▁jerome	-11.8968
▁jinnie	-11.8968
▁kalahari	-11.8968
▁kenneth	-11.8968
▁khaku	-11.8968
▁kichisan	-11.8968
▁krstic	-11.8968
▁lacrique	-11.8968
▁leprosy	-11.8968
▁leyasu	-11.8968
▁loaf	-11.8968
▁lugash	-11.8968
▁lunafreya	-11.8968
▁macdonald	-11.8968
▁mayonnaise	-11.8968
▁mcdonald	-11.8968
▁mechanism	-11.8968
▁mehran	-11.8968
▁munich	-11.8968
▁murdstone	-11.8968
▁mwah	-11.8968
▁navigator	-11.8968
▁nelda	-11.8968
▁norbert	-11.8968
▁nudge	-11.8968
▁olympia	-11.8968
▁omega	-11.8968
▁outnumbered	-11.8968
▁overthrow	-11.8968
▁paramount	-11.8968
▁pediatric	-11.8968
▁penalty	-11.8968
▁periscope	-11.8968
▁persecuted	-11.8968
▁poirier	-11.8968
▁pornographic	-11.8968
▁prevail	-11.8968
▁prostitute	-11.8968
▁province	-11.8968
▁radioactive	-11.8968
▁rebellion	-11.8968
▁refusing	-11.8968
▁releasing	-11.8968
▁riviera	-11.8968
▁sarafine	-11.8968
▁scarecrow	-11.8968
▁secrecy	-11.8968
▁semester	-11.8968
▁septimus	-11.8968
▁sequel	-11.8968
▁shakily	-11.8968
▁sigurd	-11.8968
▁slob	-11.8968
▁sneffels	-11.8968
▁sovereign	-11.8968
▁splattering	-11.8968
▁submersible	-11.8968
▁summit	-11.8968
▁swish	-11.8968
▁symptom	-11.8968
▁temperament	-11.8968
▁tenebrae	-11.8968
▁teresa	-11.8968
▁terlip	-11.8968
▁thessaly	-11.8968
▁thorensen	-11.8968
▁titanic	-11.8968
▁topsecret	-11.8968
▁transaction	-11.8968
▁tremor	-11.8968
▁tyranny	-11.8968
▁unaware	-11.8968
▁uncharted	-11.8968
▁ungrateful	-11.8968
▁unreasonable	-11.8968
▁valiant	-11.8968
▁vengeance	-11.8968
▁veryvery	-11.8968
▁analyst	-11.8968
▁beacon	-11.8968
▁bmw	-11.8968
▁cheeseburger	-11.8968
▁dearborne	-11.8968
▁festive	-11.8968
▁legacy	-11.8968
▁ltalian	-11.8968
▁northwest	-11.8968
▁ornament	-11.8968
▁rehab	-11.8968
▁salami	-11.8968
▁squid	-11.8968
▁aloud	-11.8968
▁mussels	-11.8968
▁quinoa	-11.8968
▁reggie	-11.8968
▁snappy	-11.8968
▁staircase	-11.8968
▁swab	-11.8968
▁thoth	-11.8968
▁awav	-11.8968
▁briggs	-11.8968
▁hepworth	-11.8968
▁klein	-11.8968
▁yourseif	-11.8968
▁eldest	-11.8968
▁lumberjack	-11.8968
▁porridge	-11.8968
▁proving	-11.8968
▁sgt	-11.8968
▁ndye	-11.8968
▁salvage	-11.8968
▁whitney	-11.8968
▁manpowered	-11.8968
▁intervene	-11.8968
▁multiple	-11.8968
▁hobbs	-11.8968
▁pinchcliffe	-11.8968
▁salmonella	-11.8968
▁shuffl	-11.8968
▁distribution	-11.8968
▁armenti	-11.8968
▁attaboy	-11.8968
▁hisses	-11.8968
▁hydrogen	-11.8968
▁wilkins	-11.8968
▁islam	-11.8968
politan	-11.8968
▁matrix	-11.8968
▁wiggling	-11.8968
▁womb	-11.8968
▁casualties	-11.8968
▁ieave	-11.8968
▁ribbit	-11.8968
▁venue	-11.8968
▁colonial	-11.8968
▁hermit	-11.8968
▁disorder	-11.8968
▁stemming	-11.8968
▁wheelchair	-11.8968
▁stabbed	-11.8968
▁unstable	-11.8968
▁clunk	-11.8968
▁natty	-11.8968
▁shiva	-11.8968
▁atkins	-11.8968
▁benevolence	-11.8968
▁consistent	-11.8968
▁notify	-11.8968
▁sirree	-11.8968
▁colette	-11.8968
▁tyrant	-11.8968
▁homo	-11.8968
▁yeehaw	-11.8968
▁beckwith	-11.8968
▁cheque	-11.8968
▁tanino	-11.8968
▁stratton	-11.8968
▁nanny	-11.8968
▁wiring	-11.8968
▁hostile	-11.8969
▁levinson	-11.8969
▁hassle	-11.8969
▁offence	-11.8969
▁stork	-11.8969
▁whobble	-11.8969
▁mugger	-11.8969
▁gibus	-11.8969
▁hallowed	-11.8969
▁infantry	-11.8969
▁revision	-11.8969
▁utah	-11.8969
▁guidebook	-11.8969
▁vanilla	-11.8969
▁enforcement	-11.8969
▁thirtyfive	-11.8969
▁breathtaking	-11.8969
▁comedian	-11.8969
▁didi	-11.8969
▁occurrence	-11.8969
▁mitch	-11.8969
▁promoting	-11.8969
▁dusk	-11.8969
▁felon	-11.8969
▁sheba	-11.8969
▁assumption	-11.8969
▁vernon	-11.8969
▁rapper	-11.8969
▁descendant	-11.8969
▁galina	-11.8969
▁gutting	-11.8969
▁kasi	-11.8969
▁mailbox	-11.8969
▁tanya	-11.8969
▁assessment	-11.8969
▁chika	-11.897
▁oriental	-11.897
▁luti	-11.897
▁confidential	-11.897
▁expertise	-11.897
▁gerry	-11.897
▁raul	-11.897
▁stefano	-11.897
▁regiment	-11.897
▁pooch	-11.897
▁elementary	-11.897
▁amma	-11.897
▁undone	-11.897
▁freddie	-11.897
▁indige	-11.897
▁sheetz	-11.897
▁orson	-11.897
▁leonard	-11.897
▁transformation	-11.897
▁foil	-11.897
▁trois	-11.897
▁whoohoohoo	-11.897
▁partnership	-11.897
▁revolutionary	-11.897
▁sinai	-11.897
▁chatting	-11.8971
▁braid	-11.8971
▁vertical	-11.8971
▁pelt	-11.8971
▁depot	-11.8971
▁fillmore	-11.8971
▁barron	-11.8971
▁testified	-11.8971
▁valid	-11.8971
▁gauge	-11.8971
▁salute	-11.8971
▁marries	-11.8971
dysh	-11.8971
▁hoax	-11.8971
▁dragging	-11.8971
▁babysit	-11.8971
join	-11.8972
▁casa	-11.8972
▁baka	-11.8972
▁hover	-11.8972
▁piling	-11.8972
ault	-11.8973
▁howre	-11.8973
▁chute	-11.8973
▁skyship	-11.8973
▁travelled	-11.8973
▁luciana	-11.8973
▁doorstep	-11.8973
▁equation	-11.8974
▁disconnected	-11.8974
▁donut	-11.8974
▁colton	-11.8974
▁golly	-11.8974
▁speedball	-11.8974
▁livestock	-11.8975
▁purge	-11.8975
▁yarn	-11.8975
▁wales	-11.8975
▁mileage	-11.8975
▁gps	-11.8975
▁dandy	-11.8976
▁chow	-11.8976
▁mori	-11.8976
▁stance	-11.8976
▁gull	-11.8976
▁doggie	-11.8977
▁straightaway	-11.8977
▁imitate	-11.8977
▁fudge	-11.8977
▁sketches	-11.8977
▁forgery	-11.8977
▁awoo	-11.8978
▁marcus	-11.8978
▁discharged	-11.8978
▁popularity	-11.8978
▁seism	-11.8978
▁suspended	-11.8978
logging	-11.8979
▁harass	-11.8979
▁gregg	-11.8979
▁richardson	-11.8979
▁organic	-11.8979
▁greed	-11.898
▁unhand	-11.898
▁moore	-11.898
▁swirled	-11.8981
▁stranded	-11.8981
▁spooked	-11.8981
▁metres	-11.8981
▁parisian	-11.8981
▁activated	-11.8981
▁conventional	-11.8981
▁benton	-11.8982
▁deai	-11.8982
▁consist	-11.8982
▁imply	-11.8983
▁playboy	-11.8984
▁editing	-11.8984
▁revolting	-11.8984
▁tore	-11.8984
▁urge	-11.8985
rig	-11.8986
▁perse	-11.8986
▁quitter	-11.8986
▁anton	-11.8986
▁royalty	-11.8986
▁tranquil	-11.8987
▁porno	-11.8987
▁stashed	-11.8987
▁confronted	-11.8987
▁employed	-11.8988
▁lime	-11.8988
▁relatively	-11.8989
▁crank	-11.8989
▁firewood	-11.899
▁soaring	-11.899
▁disrespectful	-11.899
▁donated	-11.8991
▁hardship	-11.8991
▁observing	-11.8991
▁middleton	-11.8992
rite	-11.8992
▁runaway	-11.8992
▁pasture	-11.8993
fly	-11.8994
▁bom	-11.8995
▁refreshing	-11.8996
▁numberone	-11.8996
▁starved	-11.8997
▁inherited	-11.8997
▁difficulties	-11.8997
▁itchy	-11.8997
▁gorge	-11.8997
▁mao	-11.8998
▁whirling	-11.8998
▁grosser	-11.8999
▁melon	-11.8999
▁zay	-11.8999
▁beckon	-11.9
▁scottie	-11.9001
▁addicted	-11.9001
▁descended	-11.9001
▁schoolhouse	-11.9001
▁rehearsed	-11.9002
▁bumpy	-11.9003
▁mold	-11.9003
▁encountered	-11.9004
▁faithfully	-11.9005
cious	-11.9005
▁coachman	-11.9005
▁secondary	-11.9005
▁partial	-11.9006
▁drier	-11.9006
▁freshman	-11.9008
▁wilt	-11.9008
▁pals	-11.9009
▁soften	-11.901
▁descending	-11.901
▁reinforcements	-11.9011
▁raging	-11.9011
▁deadline	-11.9012
▁pronounced	-11.9012
▁trend	-11.9014
▁seduc	-11.9014
pee	-11.9015
▁snowman	-11.9017
▁hiring	-11.9017
▁cameraman	-11.9018
▁measured	-11.9019
▁hopelessly	-11.9019
▁devise	-11.9019
owski	-11.902
home	-11.9021
▁grinding	-11.9022
▁teeny	-11.9022
▁conquered	-11.9022
▁farid	-11.9023
▁swans	-11.9023
▁laurat	-11.9024
▁tortured	-11.9024
▁documented	-11.9025
▁extended	-11.9027
▁receiver	-11.9027
▁biscuits	-11.9027
▁bridger	-11.9028
rsh	-11.9029
kers	-11.903
▁weighing	-11.9032
hopper	-11.9033
▁spraying	-11.9034
lou	-11.9039
▁argued	-11.904
▁awakened	-11.9041
▁mooing	-11.9042
▁buses	-11.9043
ati	-11.9043
▁represented	-11.9044
▁enthusiastic	-11.9044
▁beginners	-11.9044
▁zu	-11.9046
▁explorers	-11.9047
▁linked	-11.9047
▁zak	-11.9048
▁sponsored	-11.9049
▁wired	-11.905
▁dialing	-11.9052
▁insulting	-11.9054
▁asia	-11.9055
▁messes	-11.9056
▁licking	-11.9057
▁boost	-11.9058
▁dia	-11.9058
▁healing	-11.906
▁detailed	-11.906
▁historians	-11.9061
▁ounces	-11.9061
▁giris	-11.9061
▁numer	-11.9062
▁salty	-11.9067
▁fainted	-11.9068
▁poured	-11.9071
▁feeds	-11.9073
▁backyeah	-11.9076
▁nighttime	-11.9077
▁tactics	-11.9078
▁filed	-11.908
▁apartments	-11.9082
▁beastly	-11.9082
▁approached	-11.9087
▁kisses	-11.9092
▁eunuchs	-11.9095
▁obligations	-11.9095
▁curls	-11.9096
state	-11.9096
▁jared	-11.9097
▁cass	-11.9098
▁habitats	-11.9098
▁zi	-11.9099
ain	-11.91
▁naughti	-11.91
▁spoiling	-11.9104
▁briefing	-11.9104
▁interviewed	-11.9112
pelled	-11.9112
▁neighbours	-11.9112
▁yankees	-11.9112
▁veins	-11.9113
▁hath	-11.9113
itha	-11.9116
▁mixing	-11.9116
▁publicly	-11.9119
▁fishes	-11.9123
▁pointers	-11.9128
▁dodos	-11.9129
▁barker	-11.913
▁believers	-11.9142
▁cocktails	-11.9147
▁coyotes	-11.9147
▁corrections	-11.9149
▁dumplings	-11.915
▁tricky	-11.915
▁touches	-11.9152
▁alexandr	-11.9152
▁mounted	-11.9152
▁valle	-11.9153
ody	-11.9161
▁leprechauns	-11.9164
▁involves	-11.9164
▁foolin	-11.9166
▁screamed	-11.9176
▁bandage	-11.9177
▁aiming	-11.9182
▁tighten	-11.9183
nia	-11.9183
hhhh	-11.9183
▁jig	-11.9183
▁rowing	-11.9187
▁appreciated	-11.9188
▁flora	-11.9188
▁dodg	-11.9195
▁tinkl	-11.9198
▁drones	-11.9198
▁letha	-11.92
▁oer	-11.9201
▁natives	-11.9209
▁objections	-11.9216
sync	-11.9222
▁paps	-11.9224
▁chica	-11.923
▁dawgs	-11.9232
▁feminists	-11.9232
▁bla	-11.9236
taking	-11.9237
▁skaters	-11.924
▁props	-11.924
▁tha	-11.9242
▁sorta	-11.9244
▁weaken	-11.9251
▁steals	-11.9252
▁hauler	-11.9253
throp	-11.9255
▁revs	-11.9257
▁practices	-11.9259
▁alo	-11.926
▁ankles	-11.9267
▁maniacal	-11.9271
izer	-11.9273
▁sewers	-11.9273
▁grandmas	-11.9279
▁hera	-11.9282
▁errors	-11.9284
▁stro	-11.9285
▁supported	-11.9286
▁stored	-11.9287
▁patti	-11.9297
[...]
