<unk>	0
<s>	0
</s>	0
s	-4.09024
▁dont	-4.55394
▁im	-4.56046
▁know	-4.59435
▁get	-4.78883
▁well	-4.83146
▁go	-4.87834
▁come	-4.93075
▁right	-4.94591
▁oh	-4.94824
▁like	-4.9581
▁got	-5.06989
▁youre	-5.09954
▁one	-5.1184
▁thats	-5.19064
▁yeah	-5.19732
▁good	-5.25862
▁see	-5.27342
▁na	-5.37592
▁think	-5.38287
▁want	-5.39365
ing	-5.42931
▁yes	-5.46657
▁okay	-5.48584
▁back	-5.51863
▁ill	-5.53596
▁look	-5.55316
▁going	-5.57104
▁gon	-5.59393
▁time	-5.62344
▁hey	-5.62562
▁	-5.63254
▁us	-5.63294
▁man	-5.67286
▁take	-5.6832
▁would	-5.6892
▁hes	-5.71201
▁cant	-5.74933
ed	-5.82618
▁tell	-5.8274
▁way	-5.84588
▁could	-5.87849
▁little	-5.88954
▁say	-5.89112
▁mr	-5.89426
▁never	-5.93436
▁really	-5.94373
▁something	-5.94908
▁lets	-5.96166
▁whats	-5.98974
▁didnt	-5.99813
▁need	-6.0164
▁make	-6.03392
▁thank	-6.03487
▁let	-6.04702
▁love	-6.0475
▁mean	-6.0701
▁music	-6.09689
▁ive	-6.13234
▁please	-6.1362
▁two	-6.16106
▁sir	-6.17538
▁give	-6.17987
▁people	-6.18057
▁theres	-6.20309
▁sorry	-6.21559
▁said	-6.23424
▁l	-6.24257
▁help	-6.24976
d	-6.25586
▁sure	-6.25751
▁thing	-6.2801
▁much	-6.31838
▁wait	-6.32187
▁uh	-6.36484
▁even	-6.38001
▁day	-6.39298
▁first	-6.44452
▁life	-6.44613
▁maybe	-6.46805
▁nothing	-6.47316
▁better	-6.48519
▁must	-6.49666
▁boy	-6.51575
▁shes	-6.52964
▁great	-6.53168
▁god	-6.53397
▁ever	-6.53893
▁call	-6.54532
▁new	-6.55062
y	-6.55744
▁keep	-6.56215
▁find	-6.56633
▁theyre	-6.57562
▁anything	-6.58507
▁home	-6.58625
▁away	-6.58706
▁work	-6.59411
▁night	-6.60122
▁thought	-6.60988
▁always	-6.61414
▁still	-6.62405
▁guys	-6.63795
▁stop	-6.64156
u	-6.64744
▁talk	-6.65075
▁made	-6.6545
▁youve	-6.66045
ly	-6.667
▁around	-6.66871
▁long	-6.67164
▁old	-6.672
▁dad	-6.69167
▁y	-6.69738
▁put	-6.70196
▁id	-6.7073
▁wont	-6.71547
▁world	-6.71604
▁everything	-6.71993
▁fine	-6.73302
▁father	-6.75137
▁believe	-6.7539
▁big	-6.75542
e	-6.75644
▁youll	-6.75773
▁things	-6.75785
▁money	-6.76225
▁hell	-6.76324
▁last	-6.76922
▁told	-6.77834
▁feel	-6.81038
▁name	-6.81107
▁remember	-6.83017
▁years	-6.83264
▁course	-6.86041
▁doesnt	-6.87053
▁coming	-6.87841
▁hello	-6.8787
▁hear	-6.87937
▁three	-6.90151
▁lot	-6.90228
▁isnt	-6.90675
▁every	-6.91392
▁place	-6.91639
▁may	-6.921
▁hi	-6.92135
▁nice	-6.92608
er	-6.9309
▁done	-6.93352
▁hold	-6.93389
▁enough	-6.93617
▁mom	-6.93734
▁leave	-6.94018
▁listen	-6.94253
▁morning	-6.94711
▁car	-6.9481
▁stay	-6.94811
▁try	-6.96165
▁ta	-6.99767
▁getting	-7.00187
▁might	-7.005
▁baby	-7.01244
▁wanted	-7.01512
▁mind	-7.0152
▁best	-7.0152
▁thanks	-7.01837
▁kind	-7.02181
▁girl	-7.02631
▁left	-7.02773
▁care	-7.03371
▁huh	-7.03597
▁wrong	-7.04803
▁bad	-7.05016
▁weve	-7.0695
▁came	-7.07819
▁show	-7.07919
▁another	-7.08198
▁matter	-7.08259
▁play	-7.09716
▁son	-7.09901
▁understand	-7.10303
▁today	-7.11065
▁ready	-7.11153
▁mother	-7.11471
▁hope	-7.11671
▁wan	-7.12728
▁next	-7.13352
▁friend	-7.14665
▁else	-7.15024
▁talking	-7.15389
▁house	-7.16325
▁door	-7.17266
▁run	-7.17722
▁ah	-7.17893
▁move	-7.1955
▁happened	-7.19989
▁real	-7.20653
▁trying	-7.2074
▁many	-7.21194
▁found	-7.21587
▁together	-7.22347
▁kids	-7.22378
▁head	-7.2376
▁seen	-7.2376
▁whole	-7.23799
▁live	-7.24995
▁without	-7.25276
▁ask	-7.25634
▁havent	-7.25649
▁happy	-7.264
▁men	-7.26498
▁miss	-7.26543
▁excuse	-7.26794
▁boys	-7.27818
▁went	-7.2946
▁use	-7.29723
▁guy	-7.31041
▁wouldnt	-7.31084
▁um	-7.319
▁start	-7.32075
▁idea	-7.32356
▁everybody	-7.33091
▁guess	-7.33104
▁wasnt	-7.33824
▁mrs	-7.33876
▁jack	-7.33892
▁minute	-7.34304
▁tonight	-7.34639
▁aint	-7.34642
▁yet	-7.34655
▁beautiful	-7.34915
▁woman	-7.35052
▁whoa	-7.35417
▁family	-7.3546
ll	-7.357
▁turn	-7.36195
▁bring	-7.36448
▁dead	-7.36577
▁meet	-7.36691
▁knew	-7.36706
▁sit	-7.36923
▁saw	-7.37968
▁true	-7.38401
▁hand	-7.38472
▁ok	-7.38829
▁wish	-7.38872
▁hard	-7.39002
▁school	-7.39043
▁friends	-7.39097
▁kill	-7.39255
▁says	-7.39387
▁pretty	-7.39672
▁town	-7.40317
▁four	-7.40527
▁forget	-7.40552
▁someone	-7.40739
▁young	-7.41258
▁heard	-7.41295
▁far	-7.4132
▁youd	-7.41867
▁horse	-7.42483
▁gone	-7.42676
▁lost	-7.42733
▁looking	-7.42858
▁eat	-7.43529
▁they	-7.4432
▁playing	-7.44672
▁actually	-7.45891
▁couldnt	-7.4594
es	-7.46286
▁bit	-7.46618
▁laughing	-7.46908
r	-7.46946
▁looks	-7.47464
▁pay	-7.47653
▁water	-7.47678
▁end	-7.48017
▁tomorrow	-7.48197
▁girls	-7.48315
▁whos	-7.48324
▁days	-7.48592
in	-7.49222
▁open	-7.49242
l	-7.49296
▁watch	-7.50242
▁ha	-7.50479
▁alone	-7.50571
▁everyone	-7.50592
▁job	-7.50965
▁war	-7.51284
▁dear	-7.51999
▁used	-7.52212
▁easy	-7.52498
▁shall	-7.52999
▁cause	-7.53292
▁since	-7.5397
▁lady	-7.53992
▁part	-7.54237
▁already	-7.54479
▁em	-7.54826
▁took	-7.54979
▁kid	-7.55439
▁worry	-7.55545
▁soon	-7.55895
▁ago	-7.56494
t	-7.56826
▁late	-7.5736
▁read	-7.57383
▁team	-7.57511
▁second	-7.5803
▁fire	-7.58924
▁dog	-7.59056
▁room	-7.59108
▁called	-7.59386
▁mine	-7.59511
▁wife	-7.5964
▁later	-7.60187
▁damn	-7.60879
▁moment	-7.61255
ve	-7.61747
▁side	-7.61824
▁crazy	-7.62256
▁fight	-7.62427
▁word	-7.63419
▁president	-7.63979
▁group	-7.64011
▁eyes	-7.64032
▁honey	-7.64435
▁somebody	-7.64545
▁business	-7.64979
▁important	-7.64987
▁year	-7.65661
▁change	-7.66616
▁five	-7.67175
▁free	-7.67203
▁saying	-7.67495
▁laughs	-7.67707
▁problem	-7.67948
▁exactly	-7.68951
▁brother	-7.69118
n	-7.69404
al	-7.69501
▁daddy	-7.69535
▁un	-7.69694
▁heart	-7.70451
▁face	-7.70636
▁probably	-7.70687
▁captain	-7.70688
▁party	-7.70852
▁hurt	-7.71038
▁comes	-7.71044
▁number	-7.71497
o	-7.7217
▁wheres	-7.7222
▁least	-7.72464
▁white	-7.72464
▁wants	-7.72493
▁nobody	-7.72701
▁stuff	-7.73062
▁rest	-7.73209
▁chance	-7.73315
▁win	-7.73349
▁minutes	-7.73561
▁whatever	-7.73663
▁country	-7.73665
▁sighs	-7.73814
▁anyone	-7.74269
▁also	-7.74272
a	-7.74515
▁close	-7.74685
▁point	-7.74791
▁screaming	-7.74953
▁wow	-7.75495
▁walk	-7.76843
▁anyway	-7.77075
i	-7.78345
▁line	-7.78361
▁stand	-7.78546
▁makes	-7.78591
▁thinking	-7.78885
▁anybody	-7.79255
▁arent	-7.79256
▁welcome	-7.79256
▁die	-7.79389
▁doctor	-7.79623
▁check	-7.80211
▁fun	-7.80237
▁hit	-7.80368
▁cut	-7.81087
▁taking	-7.81204
▁quite	-7.81249
▁full	-7.81322
▁dave	-7.81708
▁working	-7.81999
▁phone	-7.82061
▁save	-7.82319
▁children	-7.82503
▁gentlemen	-7.83166
▁light	-7.83521
▁six	-7.83817
▁heh	-7.83832
▁dr	-7.84148
▁ball	-7.84311
▁supposed	-7.84633
▁trouble	-7.84762
▁killed	-7.84958
▁week	-7.84965
▁high	-7.85007
▁afraid	-7.85178
▁happen	-7.85559
▁times	-7.85722
▁either	-7.86543
▁anymore	-7.86543
▁ahead	-7.86545
▁deal	-7.86743
▁set	-7.87022
▁hmm	-7.87225
▁clear	-7.87611
▁dinner	-7.87767
▁luck	-7.87791
▁shut	-7.87928
▁break	-7.87965
▁chuckles	-7.88
▁seems	-7.88184
▁speaking	-7.88351
▁worth	-7.88475
▁along	-7.88629
▁different	-7.8863
▁book	-7.88768
▁nick	-7.89183
▁speak	-7.89331
▁ya	-7.89649
▁hands	-7.89802
▁behind	-7.9004
▁hurry	-7.9004
▁story	-7.90041
▁sleep	-7.90042
▁making	-7.90049
▁half	-7.90664
▁alright	-7.90756
▁asked	-7.91309
▁hate	-7.91954
▁drink	-7.92329
▁buy	-7.92447
▁dream	-7.92708
▁married	-7.92949
▁bet	-7.93067
▁send	-7.93236
▁dan	-7.93453
▁lose	-7.93623
▁ladies	-7.93665
▁gave	-7.93667
▁wonderful	-7.93738
▁brought	-7.94404
▁bye	-7.94409
▁child	-7.95142
▁funny	-7.95157
ur	-7.95593
▁cool	-7.95902
▁follow	-7.95933
▁though	-7.95937
▁andrew	-7.9666
▁de	-7.96743
▁goes	-7.97227
▁gun	-7.97381
▁almost	-7.97423
▁ooh	-7.97424
▁death	-7.98197
▁red	-7.98661
▁case	-7.98832
▁shot	-7.98967
ic	-7.99226
▁cal	-7.99281
▁george	-8.00536
▁lm	-8.00671
▁game	-8.01361
▁food	-8.01365
▁air	-8.02035
▁john	-8.02043
▁waiting	-8.02066
▁city	-8.02139
▁heres	-8.02207
▁truth	-8.02931
▁applause	-8.02936
▁france	-8.02937
▁running	-8.02994
▁news	-8.03239
▁al	-8.0339
▁inside	-8.03751
▁mama	-8.03848
▁scared	-8.04632
▁perfect	-8.05247
▁fact	-8.05471
▁pick	-8.06147
▁itll	-8.06231
▁able	-8.06484
▁king	-8.06537
▁means	-8.06551
▁sam	-8.07034
▁police	-8.07037
▁stupid	-8.07917
▁alive	-8.07931
▁black	-8.08771
▁sarah	-8.08776
▁sort	-8.0969
▁sister	-8.098
▁ow	-8.1025
▁started	-8.10267
▁feeling	-8.10476
▁hot	-8.10624
▁s	-8.10867
▁land	-8.10914
on	-8.10926
▁lord	-8.1138
▁tried	-8.11409
▁wed	-8.11493
▁sing	-8.11537
▁fault	-8.12265
▁reason	-8.12462
▁special	-8.1309
▁write	-8.13117
▁knows	-8.13168
▁train	-8.13221
▁cheering	-8.13227
▁become	-8.13385
▁human	-8.13385
▁hang	-8.13584
▁mad	-8.13984
▁careful	-8.13995
h	-8.14311
▁quiet	-8.14838
▁straight	-8.1489
▁pull	-8.14915
▁promise	-8.15017
▁c	-8.1533
▁wind	-8.15623
▁glad	-8.15908
▁wake	-8.16155
▁sometimes	-8.16202
▁met	-8.16335
▁shoot	-8.16631
▁aah	-8.16837
▁bed	-8.17007
▁sergeant	-8.17748
▁princess	-8.17817
▁person	-8.18009
▁died	-8.18104
▁sound	-8.18247
▁la	-8.18276
ers	-8.18344
▁sounds	-8.18366
▁plan	-8.18599
▁bob	-8.18652
▁billy	-8.18819
▁law	-8.18944
▁power	-8.1909
▁sign	-8.1918
▁professor	-8.19642
▁couple	-8.19642
▁months	-8.19669
▁safe	-8.20406
▁small	-8.20502
▁dark	-8.20587
▁perhaps	-8.20603
▁catch	-8.20603
▁shouldnt	-8.20606
▁lives	-8.20791
▁office	-8.20875
▁question	-8.215
▁order	-8.21531
▁leaving	-8.21575
▁rock	-8.22926
▁goodbye	-8.23545
▁living	-8.23546
▁touch	-8.23547
▁till	-8.23552
est	-8.23893
▁ride	-8.23931
▁voice	-8.23962
▁telling	-8.24306
▁gold	-8.24511
▁poor	-8.24548
▁hair	-8.2499
▁hour	-8.25021
▁hours	-8.25102
▁lucy	-8.25557
▁body	-8.25559
▁front	-8.25563
▁suppose	-8.26389
▁earth	-8.26438
▁uncle	-8.26544
▁david	-8.2657
▁fall	-8.26599
▁chattering	-8.2675
▁giant	-8.27066
▁trust	-8.273
▁blood	-8.2747
▁french	-8.27576
▁ringing	-8.27804
▁street	-8.28115
▁coach	-8.28135
▁sun	-8.28176
▁g	-8.2848
▁certain	-8.28521
▁others	-8.28648
▁bell	-8.28859
▁class	-8.29021
▁sweet	-8.29046
▁club	-8.29179
▁fast	-8.29558
▁sense	-8.2997
▁horses	-8.30258
▁throw	-8.30371
▁dramatic	-8.30765
▁needs	-8.30772
▁top	-8.30775
▁grunting	-8.30785
▁beat	-8.30873
▁parents	-8.30875
▁hed	-8.30916
▁join	-8.31065
▁step	-8.31095
▁j	-8.31235
▁women	-8.31319
▁th	-8.31416
▁feet	-8.31846
▁master	-8.32363
▁blue	-8.32417
▁ten	-8.32503
▁evening	-8.32662
▁slow	-8.328
▁outside	-8.32917
▁absolutely	-8.32936
▁re	-8.33144
▁dance	-8.33256
▁weeks	-8.33273
▁whoo	-8.33502
▁husband	-8.33547
▁fear	-8.33685
▁past	-8.33965
▁rather	-8.34026
▁moving	-8.34038
▁cold	-8.34047
▁answer	-8.34356
▁i	-8.3454
▁drop	-8.34635
▁taken	-8.34683
ie	-8.34716
▁middle	-8.35132
▁secret	-8.35348
▁bill	-8.35567
▁peter	-8.35573
▁woods	-8.35877
▁bear	-8.35911
▁wonder	-8.36062
▁proud	-8.36117
▁serious	-8.36133
g	-8.36192
▁short	-8.36548
▁ahh	-8.37112
▁strong	-8.37128
▁engine	-8.37246
▁radio	-8.37401
▁darling	-8.37402
▁hows	-8.37479
▁lead	-8.37505
▁drive	-8.37532
▁lovely	-8.37544
▁learn	-8.37812
▁continues	-8.38327
▁words	-8.38388
▁quick	-8.38419
▁lts	-8.38428
▁samurai	-8.38546
▁henry	-8.38547
▁crowd	-8.38567
▁ones	-8.39282
▁papa	-8.3937
▁known	-8.39428
▁given	-8.40131
nous	-8.40476
▁star	-8.40485
▁american	-8.40547
▁annie	-8.40898
▁p	-8.41025
man	-8.41497
▁sick	-8.41585
▁entire	-8.41945
▁seven	-8.4208
▁maddy	-8.42083
▁yelling	-8.42167
▁finish	-8.42529
▁lie	-8.42549
▁seem	-8.42578
▁omi	-8.43104
▁maria	-8.43277
▁language	-8.4328
▁forever	-8.43281
▁born	-8.43338
▁bo	-8.43515
▁roll	-8.43543
ies	-8.44103
▁choice	-8.4411
ful	-8.44133
able	-8.4417
▁m	-8.44372
▁champ	-8.44481
▁english	-8.44482
▁future	-8.445
▁felt	-8.44509
▁gets	-8.44631
▁worked	-8.4511
▁eye	-8.4543
▁york	-8.457
▁pa	-8.46148
▁present	-8.46178
▁calm	-8.46446
▁village	-8.46614
▁road	-8.46652
▁handle	-8.46825
▁somewhere	-8.46984
▁shell	-8.46994
▁ii	-8.47862
▁boat	-8.47959
▁piece	-8.47986
▁birds	-8.47993
▁round	-8.48249
▁lunch	-8.48262
▁control	-8.492
▁picture	-8.49241
▁wedding	-8.49534
▁maam	-8.49534
▁stick	-8.49815
▁figure	-8.50347
▁million	-8.50554
▁mary	-8.50584
▁charlie	-8.50831
▁happens	-8.51217
▁changed	-8.51276
▁expect	-8.51415
▁longer	-8.5144
▁ed	-8.51536
▁america	-8.51816
▁fool	-8.51844
p	-8.51974
▁quit	-8.52013
▁paris	-8.52113
▁finally	-8.52229
▁decided	-8.52232
▁grunts	-8.52243
▁less	-8.52459
▁wear	-8.52811
▁band	-8.5304
▁fair	-8.53177
▁general	-8.5319
▁x	-8.53832
▁date	-8.54657
▁amazing	-8.54831
▁buddy	-8.54832
▁hallie	-8.54846
▁chief	-8.54849
▁aron	-8.54862
▁busy	-8.54889
▁st	-8.54987
ous	-8.55063
▁finished	-8.55161
▁return	-8.55211
▁pass	-8.55416
▁singing	-8.55499
▁sell	-8.55731
▁mess	-8.55819
▁meeting	-8.55952
▁state	-8.561
▁hero	-8.56107
▁christmas	-8.56201
▁worse	-8.56202
▁simple	-8.56209
▁sent	-8.5623
▁none	-8.56232
▁lucky	-8.56498
▁flowers	-8.5668
▁turned	-8.5719
▁realize	-8.57412
▁field	-8.57459
▁summer	-8.57578
▁attention	-8.5759
▁quixote	-8.5759
▁possible	-8.5759
▁across	-8.57591
▁majesty	-8.57593
▁kiss	-8.57729
▁certainly	-8.5776
▁base	-8.57796
▁spend	-8.58559
▁martin	-8.58691
▁afternoon	-8.58999
▁south	-8.58999
▁coffee	-8.58999
▁lonely	-8.59005
▁dreams	-8.59189
▁saved	-8.59413
▁miles	-8.59422
▁fix	-8.59681
▁b	-8.59752
▁teach	-8.59874
b	-8.59888
▁carry	-8.59993
▁cat	-8.6009
ion	-8.60147
▁service	-8.6024
▁mountain	-8.60288
▁forgive	-8.60359
▁plane	-8.60366
▁eight	-8.60398
▁invincible	-8.60427
▁werent	-8.60427
▁race	-8.6045
▁unless	-8.60467
m	-8.60484
▁early	-8.60494
▁camp	-8.61229
▁happening	-8.61339
▁marry	-8.6143
▁cow	-8.61708
▁murray	-8.61877
▁botat	-8.61878
▁tough	-8.61883
▁paid	-8.61896
▁shouting	-8.61905
▁gasps	-8.62008
▁report	-8.62155
▁count	-8.62361
▁calling	-8.62376
▁clean	-8.62455
▁meant	-8.62549
▁wine	-8.63036
▁trip	-8.63193
▁foot	-8.63229
▁except	-8.63264
▁birthday	-8.63347
ure	-8.63795
▁hearts	-8.64397
▁explain	-8.64414
▁missed	-8.64495
▁imagine	-8.64638
c	-8.64639
▁a	-8.64733
▁sweetheart	-8.6484
▁price	-8.64841
▁pete	-8.64877
▁ice	-8.64885
▁wild	-8.64911
▁offer	-8.65822
▁loved	-8.6592
▁honor	-8.66035
▁month	-8.66324
▁kidding	-8.66357
▁public	-8.66358
▁jewish	-8.66359
▁rain	-8.66366
▁mister	-8.6637
▁evil	-8.66372
▁west	-8.66385
▁eh	-8.66437
▁tea	-8.66556
▁record	-8.66664
▁pal	-8.67306
▁brand	-8.67737
▁works	-8.67776
▁queen	-8.67826
▁strange	-8.67829
▁company	-8.67893
▁pleasure	-8.67893
▁terrible	-8.67894
▁floor	-8.67895
▁hungry	-8.67896
▁tommy	-8.67896
▁sky	-8.679
▁chirping	-8.67917
▁dex	-8.67919
▁completely	-8.67975
▁sad	-8.67998
▁training	-8.68638
▁dress	-8.68726
ness	-8.69073
▁frank	-8.69319
▁indistinct	-8.69328
▁yesterday	-8.69456
▁government	-8.69456
▁army	-8.69546
▁song	-8.69567
▁mum	-8.69614
us	-8.70077
▁shoes	-8.70165
ation	-8.70733
▁relax	-8.70735
▁fly	-8.70747
▁played	-8.70894
▁takes	-8.70982
▁glass	-8.70982
▁court	-8.70989
▁moon	-8.71056
▁daughter	-8.71056
▁age	-8.71251
▁aw	-8.7203
▁bank	-8.72099
▁deep	-8.72244
▁suit	-8.72406
▁guitar	-8.72592
or	-8.72627
▁max	-8.72645
▁forgot	-8.72653
▁midnight	-8.72656
▁kept	-8.72657
▁kate	-8.72663
▁shit	-8.72665
▁sitting	-8.7271
▁groans	-8.72774
▁tree	-8.72825
▁missing	-8.72889
▁besides	-8.7293
▁e	-8.73001
▁pain	-8.73097
▁beans	-8.7327
le	-8.73737
▁agree	-8.74087
▁joe	-8.74107
▁surprise	-8.74141
▁near	-8.74174
▁in	-8.74218
▁german	-8.74242
▁green	-8.74292
▁marshal	-8.74293
▁clouseau	-8.74295
▁kelly	-8.74295
▁whether	-8.74295
▁wolf	-8.74295
▁tired	-8.74305
▁grant	-8.74324
▁jay	-8.74336
▁totally	-8.74343
▁heaven	-8.74363
▁louise	-8.74397
▁bar	-8.74416
en	-8.74498
▁asking	-8.74543
st	-8.74945
▁walking	-8.75447
▁low	-8.75782
less	-8.75921
▁hospital	-8.75962
▁ought	-8.75964
▁caught	-8.75964
▁brazil	-8.75969
▁doubt	-8.76005
▁roaring	-8.7601
▁wall	-8.76012
▁joke	-8.76045
▁starting	-8.7611
▁promised	-8.76315
▁grow	-8.76617
▁names	-8.76697
▁act	-8.76949
is	-8.76958
▁r	-8.7728
▁smart	-8.77569
▁jesus	-8.77657
▁kevin	-8.77657
▁giving	-8.77658
▁favorite	-8.77659
▁harry	-8.77659
▁prince	-8.77701
▁begin	-8.77792
▁shed	-8.77816
▁reed	-8.78114
▁ass	-8.78124
▁arms	-8.78756
▁problems	-8.7892
▁magic	-8.7902
▁test	-8.791
▁ernest	-8.79335
▁church	-8.79376
▁extra	-8.79379
▁darryl	-8.79381
▁instead	-8.79381
▁impossible	-8.79381
▁within	-8.79384
▁upon	-8.79389
▁groaning	-8.79415
▁mouth	-8.79417
▁sight	-8.79463
▁united	-8.79465
▁difference	-8.79498
▁brooks	-8.79535
▁animal	-8.796
▁interesting	-8.79615
▁anne	-8.79646
▁cup	-8.79679
▁crying	-8.79718
▁looked	-8.79744
▁push	-8.80151
▁wing	-8.80249
▁cross	-8.80785
▁honest	-8.80861
▁witch	-8.81071
▁christ	-8.81081
▁personal	-8.81081
▁nowhere	-8.81135
▁often	-8.81136
▁milk	-8.81137
▁bought	-8.81138
▁beginning	-8.81138
▁colonel	-8.81139
▁dangerous	-8.81148
▁sonny	-8.8116
▁tires	-8.81208
▁folks	-8.81491
▁ohh	-8.82093
▁shh	-8.82224
▁fathers	-8.82546
▁watching	-8.82745
▁soft	-8.82792
▁san	-8.8295
▁metal	-8.83014
▁saturday	-8.83076
▁faster	-8.83088
▁position	-8.83096
▁judge	-8.8311
▁taste	-8.83128
▁thousand	-8.83161
▁brave	-8.83162
▁wearing	-8.83508
▁lll	-8.83774
▁lived	-8.83859
▁needed	-8.84122
▁fish	-8.84267
▁blow	-8.84556
▁anywhere	-8.84739
▁thunder	-8.84739
▁derice	-8.84742
▁tj	-8.84742
▁linh	-8.84743
▁self	-8.84783
▁lf	-8.84903
▁machine	-8.84954
▁nose	-8.84971
▁soul	-8.84972
▁station	-8.84972
▁letter	-8.85176
▁cover	-8.85312
▁listening	-8.85803
▁lay	-8.85845
▁trail	-8.85917
▁pop	-8.85928
▁standing	-8.86037
▁knock	-8.86099
▁laugh	-8.86153
▁study	-8.86157
▁respect	-8.86291
▁dogs	-8.8656
▁peace	-8.8657
▁everywhere	-8.86591
▁lieutenant	-8.86591
▁manolo	-8.86591
▁practice	-8.86591
▁swear	-8.86591
▁history	-8.86591
▁island	-8.86592
▁bunch	-8.86593
▁clothes	-8.86595
▁boss	-8.86636
▁hide	-8.86655
▁seeing	-8.8698
▁enjoy	-8.87712
▁legs	-8.87926
▁attack	-8.88015
w	-8.88026
▁lt	-8.88057
▁double	-8.88263
▁strike	-8.88278
▁ground	-8.88476
▁worried	-8.88478
▁marriage	-8.88479
▁ryan	-8.88479
▁axel	-8.8848
▁eric	-8.88504
▁idiot	-8.88737
▁sake	-8.88741
▁area	-8.88781
ive	-8.88881
▁hat	-8.89105
▁building	-8.89157
▁cook	-8.89524
▁major	-8.9039
▁especially	-8.90401
▁jenny	-8.90402
▁dying	-8.90402
▁dirty	-8.90427
▁single	-8.90435
▁continue	-8.90612
▁bloody	-8.90666
▁mistake	-8.90716
ch	-8.90738
▁track	-8.90767
▁bag	-8.90791
▁battle	-8.90792
▁ho	-8.90808
ment	-8.90825
▁cost	-8.90859
▁flying	-8.9093
▁rules	-8.91577
▁rid	-8.91597
ar	-8.91817
▁bird	-8.91972
▁box	-8.922
▁weird	-8.92256
▁film	-8.92273
▁super	-8.92353
▁inspector	-8.92362
▁sunshine	-8.92366
▁system	-8.92366
▁third	-8.92366
▁national	-8.92387
▁nature	-8.92416
▁guns	-8.92435
▁yo	-8.92631
▁danny	-8.92684
▁truck	-8.92698
▁bitch	-8.9274
ry	-8.93123
▁talked	-8.93194
▁player	-8.93371
▁match	-8.93422
▁bother	-8.93617
▁ran	-8.93869
▁allow	-8.94092
▁simon	-8.94243
▁tom	-8.94275
▁list	-8.94288
▁computer	-8.9436
▁hadnt	-8.94362
▁situation	-8.94362
▁breakfast	-8.94362
▁chuckling	-8.94364
▁dico	-8.94367
▁mm	-8.94527
▁interested	-8.94545
▁figured	-8.9466
▁window	-8.94797
re	-8.95048
▁questions	-8.95598
▁tapes	-8.95782
▁brothers	-8.95789
▁revolution	-8.96354
▁claude	-8.96403
▁upset	-8.96403
▁twice	-8.96403
▁became	-8.96403
▁uhhuh	-8.96403
▁mmhmm	-8.96407
▁dumb	-8.96408
▁hans	-8.96416
▁main	-8.96468
▁fairy	-8.96621
▁seriously	-8.96635
▁final	-8.96654
▁states	-8.967
▁whose	-8.96916
▁homer	-8.97357
▁park	-8.97596
▁visit	-8.97715
▁kick	-8.97717
an	-8.97719
▁breathe	-8.97958
▁fighting	-8.98079
▁appreciate	-8.9826
▁neither	-8.98486
▁nervous	-8.98486
▁address	-8.98486
▁rumbling	-8.98487
▁football	-8.98491
▁emma	-8.98508
▁smell	-8.98509
▁daniel	-8.98519
▁hank	-8.98563
▁mark	-8.98614
▁mmm	-8.98628
▁mayor	-8.98646
▁north	-8.98744
▁w	-8.98879
▁charge	-8.98937
▁dollars	-8.98977
▁movie	-8.99014
▁learned	-8.99022
▁key	-8.9904
▁peppers	-8.99113
▁teacher	-8.99157
▁card	-8.99178
▁pok	-8.99189
▁staying	-8.9969
▁following	-8.99698
▁consider	-8.99866
▁jump	-8.99871
▁dare	-9.00088
▁search	-9.00136
▁hal	-9.00225
▁east	-9.00489
f	-9.00547
▁accident	-9.00601
▁congratulations	-9.00613
▁glauben	-9.00613
▁pikachu	-9.00613
▁vietnamese	-9.00613
▁angry	-9.00614
▁hasnt	-9.00614
▁sanka	-9.00617
▁tense	-9.00628
▁board	-9.00834
▁quickly	-9.00851
▁store	-9.00953
▁ned	-9.01008
▁books	-9.0111
▁gas	-9.01127
▁elephant	-9.0114
▁studio	-9.01152
▁medal	-9.01169
▁officer	-9.0129
▁awful	-9.01605
▁spirit	-9.01654
ting	-9.018
▁using	-9.02272
ant	-9.0233
▁build	-9.02352
▁germans	-9.02685
▁eating	-9.02754
▁tight	-9.02772
▁sheriff	-9.02787
▁friday	-9.02788
▁anabel	-9.02788
▁department	-9.0279
▁information	-9.02792
▁royal	-9.02793
▁path	-9.0281
▁van	-9.02824
▁screeching	-9.0284
▁rich	-9.03036
▁hall	-9.03113
▁brain	-9.03404
▁table	-9.03406
▁owe	-9.03438
▁per	-9.03464
▁k	-9.03482
▁leg	-9.03673
▁foreign	-9.03997
▁reach	-9.0415
▁cry	-9.04564
▁named	-9.04586
▁over	-9.04596
▁grab	-9.04852
▁f	-9.04863
▁broke	-9.04865
▁trees	-9.04939
▁fred	-9.04976
▁admit	-9.05003
▁bamboo	-9.0501
▁dooyoung	-9.0501
▁goddamn	-9.0501
▁jeanclaude	-9.0501
▁taught	-9.05011
▁jail	-9.05011
▁forward	-9.05012
▁pants	-9.05018
▁immediately	-9.05051
▁nine	-9.0506
▁message	-9.0566
▁decision	-9.05668
▁paper	-9.05729
▁ring	-9.06058
▁tape	-9.06633
▁post	-9.0682
▁pardon	-9.06944
▁burn	-9.0718
▁games	-9.07204
▁faith	-9.07255
▁hyah	-9.07282
▁worst	-9.07284
▁definitely	-9.07292
▁instrumental	-9.07309
▁tv	-9.07311
▁bay	-9.07338
▁clicks	-9.07413
▁broken	-9.07442
▁driver	-9.07511
▁dry	-9.07783
▁dude	-9.07934
▁explosion	-9.08004
▁stars	-9.08037
▁feels	-9.0815
▁d	-9.08169
▁protect	-9.08666
▁score	-9.08686
▁lift	-9.08844
out	-9.08921
▁normal	-9.0949
▁teeth	-9.09609
▁river	-9.09619
▁space	-9.09624
▁stopped	-9.0963
▁throat	-9.0963
▁writing	-9.09649
eat	-9.09657
up	-9.09789
▁greatest	-9.09956
▁belong	-9.10088
▁form	-9.10191
▁bones	-9.10215
nt	-9.10256
▁ghost	-9.10348
▁horn	-9.10379
▁action	-9.1041
▁lights	-9.10417
▁wood	-9.10543
▁o	-9.10983
▁orders	-9.11049
ce	-9.11088
▁pack	-9.11252
▁ron	-9.11332
▁mothers	-9.11384
▁treat	-9.11611
▁complete	-9.11658
▁accept	-9.11663
▁arrest	-9.11694
ally	-9.11736
▁difficult	-9.11837
▁paul	-9.11958
▁leo	-9.11976
▁drunk	-9.1198
▁view	-9.11988
▁awesome	-9.11989
▁london	-9.11989
▁scene	-9.11989
▁wilson	-9.1199
▁stuck	-9.11991
▁yep	-9.11993
▁sold	-9.11993
▁laughter	-9.12025
▁hotel	-9.1203
▁willing	-9.12039
▁dean	-9.12047
▁suddenly	-9.12058
▁prove	-9.12304
▁h	-9.12455
▁loves	-9.12493
▁expected	-9.12525
▁growing	-9.12607
▁seat	-9.12708
▁monster	-9.12779
th	-9.12788
▁student	-9.12846
he	-9.13425
▁pray	-9.13546
z	-9.13585
▁appear	-9.14116
▁jim	-9.14176
▁animals	-9.1419
▁everythings	-9.1431
▁arm	-9.14333
▁lock	-9.14362
▁choose	-9.14428
▁dartagnan	-9.14428
▁excellent	-9.14428
▁jordan	-9.14428
▁orchestra	-9.14428
▁plenty	-9.14428
▁strength	-9.14428
▁driving	-9.1443
▁allyson	-9.14432
▁coat	-9.14436
▁amy	-9.14442
▁frosty	-9.14447
▁joy	-9.14468
▁highness	-9.1449
▁sea	-9.14766
▁hardly	-9.15167
ter	-9.15242
▁apartment	-9.15257
▁winter	-9.15268
▁fell	-9.15345
▁ears	-9.15447
▁pro	-9.15517
▁chatter	-9.16508
▁risk	-9.16762
▁howd	-9.16805
▁empty	-9.16928
▁freedom	-9.16928
▁heavy	-9.16928
▁private	-9.16928
▁upstairs	-9.16928
▁asleep	-9.16928
▁thudding	-9.16928
▁favor	-9.16931
▁simply	-9.16937
▁james	-9.16947
▁whatd	-9.16948
▁thatll	-9.16968
▁gage	-9.16978
▁madame	-9.17011
▁art	-9.17019
it	-9.17044
▁losing	-9.17062
▁liked	-9.17083
▁yall	-9.17186
▁musicians	-9.17276
▁calls	-9.17424
▁garden	-9.17726
▁account	-9.17755
▁beer	-9.1781
▁indian	-9.17843
▁moved	-9.1832
▁t	-9.18394
▁co	-9.18555
son	-9.19151
▁destroy	-9.19199
▁rent	-9.19481
▁journey	-9.19492
▁opinion	-9.19492
▁copperfield	-9.19492
▁patty	-9.19493
▁beach	-9.19493
▁cancer	-9.19493
▁abby	-9.19495
▁governor	-9.19495
▁truly	-9.19498
▁steady	-9.19498
▁cash	-9.19503
▁planning	-9.19505
▁incredible	-9.19514
▁announcer	-9.19515
▁gotten	-9.19709
▁boots	-9.19835
▁tall	-9.19963
▁butt	-9.20167
▁bang	-9.20222
▁rule	-9.20368
▁wondering	-9.20492
▁followed	-9.20501
▁bottle	-9.20558
um	-9.20584
▁wave	-9.20767
▁where	-9.20816
mon	-9.2155
▁notice	-9.21929
▁raise	-9.21929
▁experience	-9.21964
▁bright	-9.21997
▁bridge	-9.22035
k	-9.22093
▁college	-9.22124
▁duggal	-9.22124
▁ugh	-9.22124
▁ethan	-9.22124
▁indeed	-9.22125
▁rough	-9.22125
▁chocolate	-9.22129
▁bobby	-9.22142
▁gentleman	-9.22144
▁nurse	-9.22171
▁serve	-9.22215
▁warm	-9.223
▁knocking	-9.22745
▁keeping	-9.22917
▁farm	-9.22958
▁tower	-9.23125
▁donkey	-9.23209
▁camera	-9.23218
▁hundred	-9.23232
▁remind	-9.23244
▁theyd	-9.23273
▁cute	-9.24245
▁steve	-9.24409
▁er	-9.24478
▁hooh	-9.24503
▁waste	-9.24627
▁loud	-9.24637
▁beg	-9.24708
▁loose	-9.24804
▁fresh	-9.24814
▁bobsled	-9.24823
▁beyond	-9.24826
▁boddy	-9.24826
▁california	-9.24826
▁jacob	-9.24826
▁however	-9.24827
▁medicine	-9.24827
▁beauty	-9.24827
▁outta	-9.24832
▁alvin	-9.24833
▁clapping	-9.24834
▁spot	-9.24836
▁spread	-9.24842
▁size	-9.24847
▁lying	-9.2486
▁mommy	-9.24861
▁danger	-9.24867
▁hire	-9.2487
▁stormy	-9.2495
▁arrived	-9.24959
▁nearly	-9.25038
▁closer	-9.25087
ity	-9.25093
▁oil	-9.25515
▁closed	-9.257
▁fellas	-9.25711
▁gang	-9.25961
▁stone	-9.26045
▁couldve	-9.263
▁cap	-9.26403
▁shame	-9.26532
▁blind	-9.27281
▁correct	-9.27333
ist	-9.27358
▁prison	-9.27478
▁large	-9.2753
▁russia	-9.27555
▁ash	-9.27557
▁ancient	-9.27604
▁british	-9.27604
▁cheese	-9.27604
▁innocent	-9.27604
▁junior	-9.27604
▁rainbow	-9.27604
▁slappy	-9.27604
▁yellow	-9.27605
▁baseball	-9.27611
▁daniella	-9.27612
▁winner	-9.2762
▁weight	-9.27622
▁abra	-9.27624
▁spell	-9.27639
▁hiding	-9.2771
▁squealing	-9.2771
▁allowed	-9.28014
▁introduce	-9.28197
▁passed	-9.28208
▁bears	-9.28722
▁contact	-9.28752
▁fit	-9.28787
▁fruit	-9.28822
▁fellow	-9.2883
▁comrade	-9.2886
▁guard	-9.28867
▁walked	-9.28932
▁lion	-9.29232
▁holding	-9.29277
▁do	-9.29455
▁keys	-9.29729
▁grace	-9.29906
▁climb	-9.30017
▁louis	-9.30292
▁jamaica	-9.3041
▁gentle	-9.30448
▁birth	-9.30461
▁humming	-9.30461
▁joaquin	-9.30461
▁lebraque	-9.30461
▁miep	-9.30461
▁telegram	-9.30461
▁threw	-9.30461
▁video	-9.30461
▁davy	-9.30462
▁kitty	-9.30462
▁sheep	-9.30462
▁giggling	-9.30462
▁buttermaker	-9.30462
▁several	-9.30464
▁emergency	-9.30464
▁grandfather	-9.30467
▁robert	-9.3047
▁written	-9.30478
▁silly	-9.3048
▁style	-9.3049
▁center	-9.30494
▁sean	-9.30543
▁helping	-9.30856
▁con	-9.30902
▁so	-9.31075
ized	-9.31195
▁snake	-9.31291
▁blame	-9.31499
▁force	-9.31598
▁falling	-9.31691
▁chicken	-9.31781
▁conversation	-9.31784
▁russian	-9.31828
▁awake	-9.3265
▁plays	-9.32818
though	-9.33032
▁mention	-9.33164
▁decide	-9.3321
ance	-9.33313
ng	-9.33375
▁bullshit	-9.3339
▁tour	-9.334
▁possibly	-9.33402
▁someday	-9.33402
▁whistling	-9.33402
▁wrote	-9.33402
▁kitchen	-9.33403
▁pecos	-9.33403
▁bread	-9.33403
▁committee	-9.33403
▁bravo	-9.33404
▁katy	-9.33405
▁fought	-9.33405
▁operation	-9.3341
▁season	-9.33421
▁charles	-9.33423
▁barking	-9.33453
▁huge	-9.33457
▁obviously	-9.33458
▁male	-9.33459
▁records	-9.33487
▁scoffs	-9.33572
▁hearing	-9.33624
▁le	-9.33651
▁mountains	-9.33692
▁dads	-9.3371
▁destroyed	-9.33741
▁locked	-9.33756
▁perfectly	-9.33864
▁travel	-9.33884
▁towards	-9.33958
▁sooner	-9.3398
▁nicky	-9.34004
▁crap	-9.34034
▁riding	-9.34066
▁vote	-9.34297
▁younger	-9.34397
▁owner	-9.34779
▁lies	-9.34834
▁hanging	-9.34853
▁streets	-9.34932
▁who	-9.35037
▁jet	-9.35228
▁en	-9.35334
▁support	-9.35607
▁hunt	-9.35818
ling	-9.35905
▁showed	-9.36211
▁share	-9.36241
▁tim	-9.36278
▁rise	-9.36394
▁apologize	-9.36433
▁suspense	-9.36433
▁fantastic	-9.36433
▁famous	-9.36434
▁neck	-9.36436
▁built	-9.36439
▁forgotten	-9.36439
▁greg	-9.3644
▁held	-9.36442
▁valley	-9.36457
▁hoping	-9.36545
▁holy	-9.36638
▁indistinctly	-9.36683
no	-9.36766
▁slowly	-9.36794
▁realized	-9.3694
▁cheers	-9.37311
▁cars	-9.37407
▁passing	-9.37415
ul	-9.37484
▁dig	-9.37524
▁block	-9.37573
co	-9.37671
▁storm	-9.37673
▁shark	-9.37804
▁adam	-9.37807
▁guide	-9.37814
▁pair	-9.37904
▁smile	-9.3791
▁whistle	-9.37928
▁ko	-9.38022
at	-9.38061
▁buying	-9.3829
▁sleeping	-9.3832
▁ex	-9.38464
▁snakes	-9.38658
▁discuss	-9.38764
▁goal	-9.38801
▁mo	-9.38923
▁kim	-9.38991
▁fill	-9.38993
▁kings	-9.39144
▁feed	-9.39276
▁paying	-9.39329
▁corn	-9.39332
▁prepare	-9.39364
▁ranch	-9.3954
▁chair	-9.39542
▁brilliant	-9.39558
▁dulcinea	-9.39558
▁enemy	-9.39558
▁farooqi	-9.39558
▁kingdom	-9.39558
▁pizza	-9.39558
▁revving	-9.39558
▁superhero	-9.39558
▁sweetmeat	-9.39558
▁example	-9.39558
▁umney	-9.39558
▁local	-9.39558
▁split	-9.3956
▁upb	-9.39567
▁hm	-9.39568
▁energy	-9.39569
▁cream	-9.39578
▁wand	-9.39621
▁involved	-9.39641
▁prepared	-9.39752
▁murderer	-9.39757
▁there	-9.40309
▁interest	-9.40408
▁picked	-9.40676
go	-9.407
▁ruin	-9.40738
▁screams	-9.40976
te	-9.40987
▁angel	-9.41021
▁swan	-9.41128
▁rose	-9.41139
▁gunshot	-9.4116
▁prefer	-9.41414
▁papers	-9.41812
▁breath	-9.42051
▁bless	-9.42078
▁steal	-9.42345
▁defeat	-9.42505
▁stole	-9.42743
▁scott	-9.42761
▁courage	-9.42762
▁phoenix	-9.42784
▁terrific	-9.42784
▁military	-9.42784
▁flicka	-9.42784
▁manage	-9.42785
▁stanley	-9.42785
▁piano	-9.42785
▁extreme	-9.42786
▁voiceover	-9.4279
▁security	-9.42791
▁irv	-9.42791
▁howard	-9.42792
▁honking	-9.42802
▁switch	-9.42803
▁kite	-9.42806
▁pure	-9.42846
ta	-9.42848
▁grand	-9.42892
▁trick	-9.42926
▁contract	-9.43536
▁pounds	-9.43664
▁balls	-9.43849
▁murder	-9.43958
▁shape	-9.44023
▁fired	-9.44025
▁deserve	-9.44271
▁goin	-9.4444
▁lawyer	-9.44467
▁defend	-9.44493
▁sunday	-9.44496
▁bomb	-9.44502
▁finger	-9.4452
ts	-9.44631
▁bus	-9.44898
▁wouldve	-9.44926
▁draw	-9.44973
▁note	-9.4517
▁ben	-9.45391
▁march	-9.45551
▁event	-9.4565
▁suggest	-9.45777
▁particular	-9.45987
▁harris	-9.46084
▁aurora	-9.46117
▁byebye	-9.46117
▁england	-9.46117
▁kathy	-9.46117
▁ridiculous	-9.46117
▁weather	-9.46117
▁justice	-9.46117
▁afford	-9.46117
▁minister	-9.46118
▁washington	-9.46118
▁gail	-9.46118
▁sanchez	-9.46118
▁whoever	-9.46119
▁counselor	-9.46121
▁emily	-9.46122
▁whirring	-9.46125
▁flat	-9.46136
▁program	-9.46148
▁loving	-9.4617
▁tiny	-9.46174
▁tillie	-9.46198
▁treasure	-9.46227
▁whispering	-9.46245
▁turning	-9.46252
▁signal	-9.46281
ian	-9.46411
▁corner	-9.46413
▁dis	-9.46438
▁lee	-9.46673
▁seemed	-9.46949
▁exist	-9.47106
▁press	-9.47142
▁remain	-9.47442
v	-9.47471
▁se	-9.47649
▁ma	-9.47796
▁credit	-9.4781
▁garret	-9.47881
▁priest	-9.47892
▁giants	-9.47913
ne	-9.48151
▁breaking	-9.48246
▁turns	-9.48639
▁lots	-9.48802
▁hill	-9.48833
im	-9.48952
▁ham	-9.49048
▁surely	-9.49309
▁hook	-9.49361
▁should	-9.49424
▁natural	-9.49436
el	-9.49458
▁legal	-9.49498
▁flight	-9.4955
▁gandhi	-9.49564
▁accord	-9.49565
▁bottom	-9.49565
▁cardinal	-9.49565
▁chinook	-9.49565
▁gideon	-9.49565
▁girlfriend	-9.49565
▁halloween	-9.49565
▁jacques	-9.49565
▁japanese	-9.49565
▁knife	-9.49565
▁nonsense	-9.49565
▁perrin	-9.49565
▁responsible	-9.49565
▁sancho	-9.49565
▁ugly	-9.49565
▁necessary	-9.49565
▁whenever	-9.49565
▁cahill	-9.49566
▁trotwood	-9.49566
▁constance	-9.49566
▁nope	-9.49567
▁competition	-9.49567
▁roof	-9.49567
▁swim	-9.49568
▁candy	-9.49569
▁palace	-9.4957
▁common	-9.4957
▁jimmy	-9.4957
▁cape	-9.49572
▁grandpa	-9.49572
▁physical	-9.49573
▁zeena	-9.49573
▁paddle	-9.49578
▁kane	-9.49578
▁plus	-9.49588
▁off	-9.4959
▁grass	-9.49592
▁memory	-9.49595
▁meat	-9.49603
▁code	-9.49606
▁babe	-9.4962
▁speed	-9.49649
▁poole	-9.49649
▁beeping	-9.49805
▁crashing	-9.49836
▁higher	-9.50074
▁heads	-9.50216
▁speaks	-9.503
▁pictures	-9.50366
▁bucks	-9.50448
▁tie	-9.50734
▁ca	-9.50759
▁goodness	-9.50764
▁skin	-9.50814
▁scream	-9.5111
▁create	-9.51178
▁lines	-9.51221
▁shooting	-9.51225
▁fingers	-9.51246
▁di	-9.51375
▁jean	-9.51452
▁cell	-9.51493
▁miller	-9.51493
▁gift	-9.51504
▁due	-9.51583
▁prayer	-9.51656
▁students	-9.51879
▁nation	-9.51928
▁color	-9.52334
▁starts	-9.52631
▁gods	-9.52794
▁sharp	-9.52814
ah	-9.52905
▁chris	-9.52924
▁escape	-9.52973
▁keeps	-9.53029
▁spoke	-9.53089
▁knowledge	-9.53108
▁advice	-9.53137
▁gertrude	-9.53137
▁gloria	-9.53137
▁somehow	-9.53137
▁yvette	-9.53137
▁pride	-9.53137
▁eddie	-9.53137
▁doyle	-9.53138
▁thou	-9.53138
▁shopping	-9.53141
▁whooshing	-9.53141
▁christine	-9.53147
▁jamie	-9.53148
▁coke	-9.53149
▁seconds	-9.53151
▁panic	-9.53161
▁trapped	-9.53169
▁handsome	-9.53174
▁clanging	-9.53177
▁planet	-9.53382
▁pie	-9.53387
▁agreed	-9.53565
▁lips	-9.53577
▁breathing	-9.53624
▁dressed	-9.53822
▁members	-9.54052
▁sports	-9.54348
de	-9.54353
▁older	-9.54856
▁official	-9.54946
▁mighty	-9.54963
▁mattie	-9.55085
▁granny	-9.55156
▁shoe	-9.55164
▁sled	-9.55189
▁session	-9.55219
▁wins	-9.55272
▁pleased	-9.55275
▁ne	-9.55345
▁nobodys	-9.55346
you	-9.55352
da	-9.554
▁powers	-9.55529
▁plans	-9.55561
▁rings	-9.55723
▁wash	-9.5583
▁marks	-9.55902
▁bite	-9.56094
▁career	-9.56335
ra	-9.56354
▁weak	-9.5649
▁wreck	-9.56495
ated	-9.56627
et	-9.56666
▁original	-9.56717
▁madam	-9.56746
▁project	-9.56752
▁apart	-9.56826
▁russ	-9.5683
▁bryant	-9.5684
▁exciting	-9.5684
▁purpose	-9.5684
▁staff	-9.5684
▁steerforth	-9.5684
▁watergate	-9.5684
▁whiskey	-9.5684
▁zarkorr	-9.5684
▁silver	-9.5684
▁dancing	-9.56841
▁register	-9.56841
▁norman	-9.56842
▁pokemon	-9.56843
▁june	-9.56843
▁firing	-9.56844
▁property	-9.56844
▁aunt	-9.56846
▁michael	-9.56848
▁understood	-9.56862
▁excited	-9.56873
▁medical	-9.56877
▁killing	-9.5689
▁doin	-9.56916
▁scary	-9.56921
▁sweetie	-9.56926
▁gasping	-9.56941
▁manager	-9.56946
▁mustard	-9.56968
▁bringing	-9.56986
▁lily	-9.57041
▁booming	-9.57185
▁letting	-9.57313
▁banging	-9.57469
age	-9.58112
ent	-9.5821
▁sh	-9.58288
tion	-9.58568
▁refuse	-9.58793
▁ear	-9.58809
▁noble	-9.58926
▁cantrell	-9.58966
▁effort	-9.5901
▁saving	-9.59012
▁adventure	-9.59034
▁partner	-9.59065
▁rocks	-9.59077
▁out	-9.59114
▁bat	-9.59295
▁fat	-9.59502
▁feelings	-9.60015
ke	-9.60051
▁believed	-9.60124
▁gene	-9.60127
▁players	-9.60238
▁wise	-9.60484
▁europe	-9.60646
▁nothin	-9.60664
▁among	-9.6067
▁lil	-9.60684
▁attorney	-9.60686
▁downstairs	-9.60686
▁equipment	-9.60686
▁footsteps	-9.60686
▁holiness	-9.60686
▁international	-9.60686
▁jekyll	-9.60686
▁monsieur	-9.60686
▁munchie	-9.60686
▁peggotty	-9.60686
▁telephone	-9.60687
▁monday	-9.60687
▁joseph	-9.60687
▁crime	-9.60687
▁sweden	-9.60688
▁otto	-9.60688
▁apparently	-9.60689
▁stood	-9.6069
▁dick	-9.60692
▁dropped	-9.60693
▁opportunity	-9.60695
▁hammer	-9.60701
▁labor	-9.60704
▁winning	-9.60704
▁yearold	-9.60704
▁began	-9.60706
▁pressure	-9.60709
▁splashing	-9.60713
▁ego	-9.60715
▁familiar	-9.60724
▁eastman	-9.60728
▁bigger	-9.60729
▁teams	-9.60753
▁itd	-9.60753
▁wailing	-9.60764
▁usually	-9.60801
▁shop	-9.60814
▁invited	-9.60874
▁add	-9.60922
▁stayed	-9.60938
▁sighing	-9.60958
▁thinks	-9.61018
▁coast	-9.61252
▁kinda	-9.61273
na	-9.6134
▁heading	-9.6138
▁returned	-9.61535
rs	-9.61808
▁smoke	-9.62273
▁bro	-9.62412
ish	-9.62491
▁bull	-9.62618
ring	-9.62885
▁comrades	-9.62894
▁quarter	-9.62962
ton	-9.6298
▁forest	-9.62998
▁roger	-9.63034
▁cave	-9.63039
▁noise	-9.63045
▁drinking	-9.63052
▁pocket	-9.63058
▁patient	-9.63061
▁bastard	-9.63064
▁that	-9.63169
▁wh	-9.63336
▁shower	-9.63374
▁leader	-9.6339
to	-9.6351
time	-9.63624
▁request	-9.63831
▁robot	-9.63895
▁repeat	-9.63904
▁killer	-9.63919
▁everybodys	-9.63946
▁cake	-9.64
▁reading	-9.64064
▁thousands	-9.64184
▁surrender	-9.64375
▁survive	-9.64487
tain	-9.64602
▁whip	-9.64679
▁boyfriend	-9.64686
▁nascimento	-9.64686
▁paradise	-9.64686
▁proctor	-9.64686
▁andrada	-9.64686
▁bernie	-9.64686
▁birkin	-9.64686
▁anxious	-9.64687
▁duchess	-9.64687
▁steam	-9.64688
▁horrible	-9.64688
▁stories	-9.64688
▁authority	-9.64688
▁supper	-9.64689
▁crew	-9.64693
▁electric	-9.64721
▁unfortunately	-9.64723
▁duty	-9.64724
▁native	-9.64733
▁creaking	-9.64767
▁perform	-9.64782
▁grown	-9.64787
▁sandy	-9.64818
▁received	-9.6488
▁union	-9.64884
me	-9.65023
ted	-9.65024
▁mis	-9.65027
▁recall	-9.65055
▁county	-9.65083
▁fort	-9.65138
▁arrested	-9.65188
▁fields	-9.65217
tic	-9.65448
▁reporter	-9.65539
▁yay	-9.65578
▁fishing	-9.65668
▁lately	-9.65713
▁presents	-9.65765
▁cares	-9.65984
▁selling	-9.65994
▁pulled	-9.66005
▁knees	-9.66129
▁for	-9.66557
ro	-9.66883
▁stomach	-9.67087
▁ticket	-9.67237
▁bean	-9.67276
▁lesson	-9.67347
▁hole	-9.67353
▁an	-9.67499
▁cha	-9.68034
▁sisters	-9.68039
▁mistakes	-9.68063
▁ding	-9.6817
▁cop	-9.68331
▁settle	-9.68344
▁grave	-9.68369
▁v	-9.68507
▁pet	-9.68549
▁dump	-9.68567
▁likes	-9.68617
▁spare	-9.68653
▁health	-9.68713
▁proper	-9.68735
▁spit	-9.68741
▁holly	-9.68851
▁represent	-9.68852
▁champagne	-9.68853
▁evidence	-9.68853
▁magazine	-9.68853
▁sioux	-9.68853
▁theodore	-9.68853
▁sandwich	-9.68854
▁gruberman	-9.68855
▁ginny	-9.68855
▁prize	-9.68855
▁hollywood	-9.68855
▁romantic	-9.68856
▁walter	-9.68861
▁happiness	-9.68862
▁jealous	-9.68862
▁magnet	-9.68862
▁pele	-9.68863
▁electricity	-9.68863
▁dummy	-9.68866
▁comin	-9.68869
▁route	-9.6887
▁spent	-9.68871
▁fang	-9.68875
▁castle	-9.68878
▁deny	-9.68878
▁coughing	-9.68882
▁salt	-9.68903
▁dust	-9.68905
▁bridget	-9.68938
▁ray	-9.6894
▁howling	-9.68978
▁ator	-9.68987
▁glasses	-9.69021
▁concerned	-9.6909
▁doc	-9.69097
▁noticed	-9.69174
▁warning	-9.69177
▁germany	-9.6922
▁joey	-9.69223
▁ruined	-9.69243
men	-9.69593
▁nuts	-9.69608
▁magical	-9.6975
la	-9.69921
▁putt	-9.6998
▁sa	-9.70162
▁expecting	-9.70276
▁americans	-9.70311
▁stands	-9.70339
▁buttons	-9.70342
▁yard	-9.7062
▁el	-9.70847
▁closes	-9.71144
▁bangs	-9.71472
▁spider	-9.71476
▁miracle	-9.71478
▁taxi	-9.71506
x	-9.71528
▁christian	-9.7153
▁creature	-9.71578
▁hurts	-9.71609
▁rope	-9.71639
▁seek	-9.71842
▁movies	-9.72095
▁cards	-9.72146
▁da	-9.72199
▁resign	-9.72341
▁bags	-9.72374
▁rush	-9.72407
▁led	-9.72558
▁surf	-9.72582
▁command	-9.72858
▁mount	-9.7288
▁port	-9.72899
▁earn	-9.72978
▁recognize	-9.72999
▁julie	-9.73015
▁assure	-9.73043
▁sudden	-9.73073
▁total	-9.73074
▁usual	-9.7309
▁africa	-9.73127
▁speech	-9.73137
▁bound	-9.73137
▁express	-9.7317
▁progress	-9.73185
▁alarm	-9.73201
▁audience	-9.73201
▁audition	-9.73201
▁beloved	-9.73201
▁kruger	-9.73201
▁maleficent	-9.73201
▁research	-9.73201
▁responsibility	-9.73201
▁szalinski	-9.73201
▁velrans	-9.73201
▁biggest	-9.73201
▁spanish	-9.73201
▁buried	-9.73201
▁wickfield	-9.73201
▁university	-9.73202
▁miami	-9.73202
▁smith	-9.73202
▁heck	-9.73203
▁hissing	-9.73203
▁melba	-9.73203
▁society	-9.73205
▁resistance	-9.73205
▁snow	-9.73206
▁shawn	-9.73207
▁rescue	-9.7321
▁edge	-9.73212
▁ox	-9.73213
▁panting	-9.73213
▁comfortable	-9.73213
▁western	-9.73215
▁wet	-9.73238
▁changing	-9.73243
▁gim	-9.73245
▁stolen	-9.73265
▁whereve	-9.73306
▁jesse	-9.73308
▁mae	-9.73364
▁pre	-9.73392
▁passes	-9.73401
▁zoe	-9.73422
by	-9.73447
▁br	-9.73517
led	-9.73546
land	-9.73701
▁ian	-9.73737
▁cents	-9.73745
▁bass	-9.73764
▁n	-9.74094
▁loss	-9.74117
▁po	-9.74136
▁jews	-9.74253
▁pieces	-9.74285
▁yells	-9.74476
▁ordered	-9.74547
▁lessons	-9.74907
▁caused	-9.74971
▁francis	-9.7515
▁sc	-9.75297
▁market	-9.75464
▁picking	-9.7555
▁knee	-9.75589
▁guards	-9.75711
ard	-9.75718
▁canterville	-9.75978
▁expert	-9.75978
▁ended	-9.76024
▁spring	-9.76025
▁clock	-9.76032
▁numbers	-9.76038
▁claudia	-9.76048
▁communist	-9.76059
▁equal	-9.76059
▁restaurant	-9.76067
▁laws	-9.76111
▁map	-9.76121
▁sometime	-9.76162
▁sale	-9.76181
▁button	-9.762
▁egg	-9.76298
▁flower	-9.76318
▁meaning	-9.76412
▁reasons	-9.76635
omber	-9.76641
▁tail	-9.7665
▁plant	-9.7674
▁casey	-9.76869
▁fail	-9.76925
▁letters	-9.7711
▁opening	-9.77356
▁celebrate	-9.77519
▁invite	-9.77552
▁assume	-9.77624
▁practical	-9.77746
▁babies	-9.77746
▁cheryl	-9.77746
▁croft	-9.77746
▁kaguya	-9.77746
▁micawber	-9.77746
▁rapunzel	-9.77746
▁seltzer	-9.77746
▁shakespeare	-9.77746
▁sheila	-9.77746
▁sobbing	-9.77746
▁moaning	-9.77746
▁festival	-9.77748
▁basketball	-9.77748
▁italian	-9.77748
▁marvin	-9.77748
▁value	-9.77748
▁wagon	-9.77751
▁investigation	-9.77751
▁aware	-9.77751
▁doorbell	-9.77753
▁popular	-9.77754
▁merry	-9.77756
▁suspect	-9.77756
▁plain	-9.77766
▁engaged	-9.77769
▁noon	-9.77772
▁mumbles	-9.77788
▁gosh	-9.77807
▁stock	-9.77816
▁golden	-9.77818
▁dora	-9.77992
▁deeply	-9.78117
▁knowing	-9.7812
▁rat	-9.78147
▁deepu	-9.78272
▁bon	-9.78322
▁belonged	-9.78326
▁details	-9.78393
▁shadows	-9.78543
▁gives	-9.7868
▁millions	-9.78737
▁harder	-9.78823
▁thuds	-9.79076
▁soldiers	-9.79078
ate	-9.79323
▁barn	-9.79865
▁notes	-9.79993
▁you	-9.80002
▁mission	-9.80132
▁swing	-9.80309
▁sending	-9.80551
▁iii	-9.80562
▁bike	-9.80652
▁belt	-9.8075
▁nights	-9.80753
▁weekend	-9.80755
▁grandmother	-9.80809
▁criminal	-9.80828
▁godmother	-9.80828
▁knight	-9.80832
▁affair	-9.80852
▁cloud	-9.80868
▁sport	-9.80921
▁grade	-9.80923
▁payment	-9.8095
▁sin	-9.80995
am	-9.81249
▁humans	-9.81279
cha	-9.81436
▁siren	-9.81497
oo	-9.81573
▁et	-9.81587
▁shock	-9.81713
▁sand	-9.8184
▁boom	-9.82102
▁ruth	-9.82153
▁poison	-9.82193
▁advance	-9.82313
▁mike	-9.82362
▁chap	-9.82485
▁brown	-9.82491
▁accent	-9.82508
▁april	-9.82508
▁athos	-9.82508
▁border	-9.82508
▁caravan	-9.82508
▁decent	-9.82508
▁insurance	-9.82508
▁oclock	-9.82508
▁otherwise	-9.82508
▁reckon	-9.82508
▁science	-9.82508
▁unusual	-9.82508
▁vacation	-9.82508
▁zorin	-9.82508
▁delicious	-9.82508
▁barely	-9.82509
▁insane	-9.82509
▁interview	-9.82509
▁agnes	-9.82509
▁appointment	-9.82509
▁salary	-9.82509
▁pilot	-9.82509
▁campbell	-9.8251
▁glory	-9.8251
▁richard	-9.8251
▁earlier	-9.82511
▁goku	-9.82511
▁bathroom	-9.82512
▁diana	-9.82512
▁grew	-9.82515
▁crackling	-9.82516
▁desperate	-9.82517
▁junk	-9.82518
▁grateful	-9.82519
▁gladys	-9.8252
▁cattle	-9.82523
▁pink	-9.82525
▁oliver	-9.82526
▁sacred	-9.82527
▁math	-9.82531
▁laid	-9.82539
▁reverend	-9.82542
▁bow	-9.82545
▁mail	-9.82558
▁inner	-9.8257
▁impression	-9.8259
▁ruby	-9.82597
▁copy	-9.82671
▁stage	-9.82672
id	-9.82834
▁troops	-9.82867
▁fate	-9.82905
▁payal	-9.82994
▁psycho	-9.83024
▁unto	-9.83033
▁martini	-9.83139
▁trumpets	-9.83189
▁booker	-9.83192
▁wishes	-9.83217
▁lower	-9.83279
▁clearly	-9.83416
▁mar	-9.83466
▁searching	-9.83512
▁all	-9.83554
▁uniforms	-9.83585
▁enter	-9.83717
▁opens	-9.83721
▁acting	-9.83782
ster	-9.83808
▁teaching	-9.84013
▁sub	-9.84019
▁flame	-9.84045
▁fella	-9.84076
▁wire	-9.84084
▁tip	-9.84129
▁trainer	-9.84366
▁secrets	-9.8451
▁beard	-9.84599
▁wheel	-9.85385
▁opened	-9.85575
▁baker	-9.85626
▁starr	-9.85635
▁pool	-9.85725
▁object	-9.85726
▁chop	-9.85727
▁thompson	-9.85736
▁female	-9.85743
▁rabbit	-9.85743
▁nightmare	-9.8578
▁edward	-9.85796
▁ti	-9.85803
▁material	-9.85808
▁cowboy	-9.8581
▁apple	-9.85841
▁checking	-9.85854
▁brings	-9.8587
▁gate	-9.85873
▁beast	-9.85876
▁type	-9.85906
▁explosions	-9.85917
▁mate	-9.85945
▁file	-9.8602
▁trap	-9.86103
▁chu	-9.86292
▁teachers	-9.86352
ma	-9.86379
▁artist	-9.86431
▁matters	-9.8657
▁presidents	-9.86614
▁sp	-9.86753
▁complain	-9.8691
ii	-9.86933
▁pretend	-9.87041
▁freak	-9.87055
board	-9.87058
well	-9.87085
screen	-9.87122
▁range	-9.87155
▁delay	-9.8718
▁walls	-9.87218
▁provide	-9.87307
▁release	-9.87311
▁fianc	-9.87369
▁load	-9.87445
▁wide	-9.87476
▁somethin	-9.87485
▁darlin	-9.87486
▁slip	-9.87494
▁lucia	-9.87502
▁triumph	-9.87508
▁ashamed	-9.87508
▁earthquake	-9.87508
▁elizabeth	-9.87508
▁enemies	-9.87508
▁kakamucho	-9.87508
▁milady	-9.87508
▁political	-9.87508
▁rhythm	-9.87508
▁aramis	-9.87508
▁chimes	-9.87508
▁texas	-9.87508
▁cheap	-9.87509
▁thornton	-9.87509
▁permission	-9.87509
▁silence	-9.87509
▁clever	-9.87509
▁chandler	-9.87509
▁toast	-9.8751
▁lousy	-9.8751
▁ryker	-9.87511
▁distance	-9.87513
▁toilet	-9.87517
▁regular	-9.87519
▁factory	-9.8752
▁dawn	-9.8752
▁hitler	-9.87522
▁toby	-9.87527
▁tradition	-9.87528
▁secretary	-9.87532
▁macka	-9.87534
▁tony	-9.87546
▁shots	-9.87563
▁thirsty	-9.87564
▁fake	-9.87565
▁chain	-9.87575
▁mere	-9.87577
▁kai	-9.87589
▁level	-9.87596
▁growling	-9.87609
dy	-9.87627
▁commissioner	-9.87659
▁uhoh	-9.87665
▁hearne	-9.87672
▁healthy	-9.87681
▁goldman	-9.87691
▁naturally	-9.87698
▁exhales	-9.87719
ri	-9.87773
▁charming	-9.87859
▁frankly	-9.8793
▁stronger	-9.87953
▁chipmunks	-9.8797
▁ate	-9.88
▁mentioned	-9.8802
▁deliver	-9.88077
▁tied	-9.88138
▁thy	-9.88184
▁olympics	-9.884
▁jan	-9.88453
ow	-9.88568
▁jackie	-9.88583
▁fixed	-9.88586
▁boats	-9.8877
▁workers	-9.88906
▁counting	-9.89043
▁touched	-9.89076
▁trained	-9.89233
▁mans	-9.89287
▁eggs	-9.89313
▁cops	-9.89486
if	-9.89542
ary	-9.89662
il	-9.89689
▁crack	-9.90121
▁leaves	-9.90128
▁paint	-9.90134
▁moms	-9.90217
▁concern	-9.90256
▁someones	-9.9027
ck	-9.90275
▁pan	-9.90292
▁condition	-9.90316
▁chances	-9.90526
lin	-9.90673
▁places	-9.90787
▁hon	-9.90851
se	-9.90923
▁habit	-9.90933
▁sugar	-9.91
▁belongs	-9.91016
▁scare	-9.91023
▁champion	-9.91116
▁devil	-9.91183
▁pepper	-9.91183
▁mile	-9.91242
▁gee	-9.91314
▁pope	-9.91419
ee	-9.91517
ac	-9.9165
▁tracks	-9.91782
▁blows	-9.92054
▁blond	-9.92286
▁si	-9.92426
▁heavens	-9.92551
▁under	-9.92585
▁rooms	-9.92601
▁cab	-9.92684
▁india	-9.9273
▁buckingham	-9.92771
▁challenge	-9.92771
▁chelsea	-9.92771
▁devito	-9.92771
▁eventually	-9.92771
▁giuliano	-9.92771
▁magnificent	-9.92771
▁meredith	-9.92771
▁modern	-9.92771
▁policy	-9.92771
▁routine	-9.92771
▁signature	-9.92771
▁wednesday	-9.92771
▁alien	-9.92772
▁character	-9.92772
▁eerie	-9.92772
▁possibility	-9.92772
▁serum	-9.92772
▁santos	-9.92772
▁olsen	-9.92772
▁legend	-9.92772
▁neighborhood	-9.92773
▁jazz	-9.92773
▁balance	-9.92774
▁steel	-9.92774
▁beef	-9.92775
▁impressive	-9.92776
▁congress	-9.92776
▁curse	-9.92777
▁deposit	-9.9278
▁slipper	-9.92782
▁defense	-9.92785
▁airport	-9.92786
▁failure	-9.92793
▁butcher	-9.92796
▁safety	-9.92798
▁cliff	-9.92803
▁rear	-9.92807
▁clay	-9.92809
▁songs	-9.92813
▁sophie	-9.92815
▁dragon	-9.92826
▁bout	-9.92828
▁arth	-9.92835
▁passion	-9.92873
▁disappeared	-9.92911
▁chip	-9.92912
▁ernesto	-9.92914
▁umm	-9.93026
▁jr	-9.93065
▁instruments	-9.93171
▁personally	-9.93235
line	-9.93253
▁depends	-9.93262
▁ship	-9.93306
▁filled	-9.93314
▁butter	-9.93337
▁il	-9.93361
▁surprised	-9.93412
▁helped	-9.93464
the	-9.93484
▁considered	-9.93523
▁carefully	-9.93629
▁professional	-9.93635
ig	-9.93774
mp	-9.9378
▁gal	-9.9399
▁blowing	-9.94071
▁mustve	-9.94359
▁ends	-9.94361
ism	-9.94444
▁pi	-9.94481
ine	-9.94636
▁rolling	-9.94742
▁friendly	-9.94867
▁doctors	-9.95102
▁husbands	-9.95145
▁hated	-9.95183
▁checked	-9.953
ca	-9.95544
▁points	-9.9572
▁yell	-9.96101
▁cheer	-9.96286
let	-9.96291
▁claim	-9.96335
▁privilege	-9.96552
▁benefit	-9.96554
▁discussion	-9.96628
▁election	-9.9663
▁structure	-9.96641
▁plate	-9.96643
▁desire	-9.96644
▁issue	-9.96658
▁socialist	-9.96666
▁damage	-9.96683
ern	-9.96687
▁coward	-9.9669
▁fan	-9.96705
▁thud	-9.96718
▁soldier	-9.96725
▁actor	-9.96734
▁shine	-9.96741
▁stranger	-9.96898
▁mask	-9.96926
▁shows	-9.97223
▁rider	-9.97241
io	-9.9726
▁iron	-9.9738
▁attend	-9.97491
▁crash	-9.97493
tle	-9.97616
ty	-9.97752
▁suffer	-9.97946
▁honour	-9.97985
▁gather	-9.98024
▁receive	-9.98088
▁pitch	-9.98108
▁ls	-9.98112
▁daughters	-9.98281
▁ambassador	-9.98327
▁attitude	-9.98327
▁gfg	-9.98327
▁samadhi	-9.98327
▁sutemaru	-9.98327
▁twelve	-9.98327
▁porthos	-9.98327
▁swimming	-9.98327
▁bodies	-9.98327
▁cathy	-9.98327
▁rochelle	-9.98327
▁susie	-9.98327
▁italy	-9.98327
▁robbie	-9.98328
▁quark	-9.98328
▁engelberg	-9.98328
▁trash	-9.98328
▁individual	-9.98329
▁pregnant	-9.9833
▁broad	-9.98332
▁mood	-9.98333
▁jones	-9.98334
▁section	-9.98335
▁desk	-9.98339
▁lightning	-9.98349
▁santa	-9.98354
▁proof	-9.98363
▁disappointed	-9.9837
▁wallet	-9.98372
▁navy	-9.98376
▁forth	-9.98381
▁cried	-9.98384
▁drum	-9.98389
▁bleeding	-9.98391
▁recently	-9.98412
▁jane	-9.9842
▁african	-9.98421
one	-9.9844
▁disgusting	-9.98441
▁juice	-9.9845
▁pity	-9.9845
▁powerful	-9.9846
ba	-9.98487
▁hiya	-9.98606
▁sat	-9.9861
les	-9.98703
▁mustnt	-9.98725
▁discipline	-9.98735
▁suffering	-9.98768
▁jumped	-9.99156
▁attacked	-9.99221
▁enjoyed	-9.99227
▁crossed	-9.99293
▁burning	-9.99424
ping	-9.9955
▁cookies	-9.99567
▁stops	-9.99697
▁cleaning	-10.0005
▁lo	-10.0009
▁bing	-10.0029
▁chi	-10.0043
sa	-10.0052
▁doors	-10.0068
▁pin	-10.0076
▁catching	-10.0096
▁no	-10.0096
▁can	-10.0096
ise	-10.0111
ned	-10.0115
ery	-10.0116
▁nah	-10.0127
▁youth	-10.0149
ot	-10.0158
ill	-10.0176
▁hundreds	-10.0177
om	-10.019
▁ram	-10.0206
▁pound	-10.0211
▁loan	-10.0212
▁ac	-10.0215
▁meal	-10.0232
▁arrive	-10.0235
▁ocean	-10.0243
▁snap	-10.0245
▁direction	-10.0245
▁subject	-10.0254
▁neighbor	-10.0255
▁sword	-10.0259
▁dragonball	-10.0259
▁sons	-10.0261
▁worlds	-10.0267
▁ar	-10.027
ley	-10.027
▁smells	-10.0274
▁lookin	-10.0292
▁bu	-10.0306
▁profession	-10.0325
▁avoid	-10.0341
▁collect	-10.0356
▁ka	-10.0357
way	-10.0371
▁pig	-10.0373
ny	-10.0379
▁harm	-10.0382
▁bowl	-10.0384
▁focus	-10.0389
▁ahhh	-10.0393
▁sex	-10.0406
▁current	-10.0407
▁tune	-10.0409
▁rare	-10.0409
▁flag	-10.0412
▁witness	-10.0415
▁chose	-10.0416
▁dutch	-10.0418
▁firm	-10.0419
▁capital	-10.0419
▁doll	-10.042
ak	-10.0421
▁apology	-10.0421
▁barbara	-10.0421
▁bfg	-10.0421
▁cackle	-10.0421
▁chakal	-10.0421
▁extraordinary	-10.0421
▁fifth	-10.0421
▁mexico	-10.0421
▁solid	-10.0421
▁someplace	-10.0421
▁thief	-10.0421
▁tournament	-10.0421
▁vesper	-10.0421
▁wisdom	-10.0421
▁chiming	-10.0421
▁larry	-10.0421
▁remote	-10.0421
▁expensive	-10.0421
▁slight	-10.0421
▁daisy	-10.0421
▁becoming	-10.0421
▁senator	-10.0421
▁wasting	-10.0421
▁virginia	-10.0421
▁excitement	-10.0421
▁fbi	-10.0421
▁rumba	-10.0421
▁model	-10.0421
▁source	-10.0421
▁assistance	-10.0421
▁jimbo	-10.0421
▁brake	-10.0422
▁onto	-10.0422
▁unique	-10.0422
▁duck	-10.0422
▁herman	-10.0422
▁nome	-10.0422
▁glue	-10.0422
▁eagle	-10.0422
▁destiny	-10.0422
▁zone	-10.0423
▁remarkable	-10.0423
▁chapel	-10.0423
▁arrange	-10.0423
▁complicated	-10.0423
▁pump	-10.0423
▁toron	-10.0423
▁planned	-10.0424
▁scooter	-10.0424
▁halfway	-10.0425
▁sumo	-10.0425
▁concludes	-10.0427
▁farley	-10.0427
▁cmon	-10.0428
▁peaceful	-10.0428
▁homework	-10.0429
▁agh	-10.0431
▁statement	-10.0432
▁darkness	-10.0433
▁bitter	-10.0435
▁mall	-10.0436
▁circumstances	-10.0436
▁outer	-10.0436
▁quot	-10.0438
▁aye	-10.0439
▁screwed	-10.0442
▁eaten	-10.0442
▁latest	-10.0442
▁discovered	-10.0444
▁seal	-10.0444
▁particularly	-10.0444
▁joel	-10.0446
▁buzzing	-10.0447
▁beth	-10.0447
▁sucker	-10.0449
▁earned	-10.0462
▁softly	-10.0465
▁bath	-10.0471
▁defeated	-10.0476
▁treated	-10.05
▁kicked	-10.0507
▁traveling	-10.051
▁covered	-10.0519
▁chase	-10.0539
▁lied	-10.0546
ell	-10.0553
▁talkin	-10.058
▁dragonballs	-10.0586
oh	-10.0635
▁non	-10.0655
▁tickets	-10.0656
▁learning	-10.0656
▁answers	-10.0679
▁coaching	-10.0681
▁pot	-10.0693
▁hits	-10.0693
▁steps	-10.0716
▁du	-10.0737
ical	-10.0742
▁forces	-10.0759
▁warn	-10.0767
ho	-10.079
▁waves	-10.0798
▁sigh	-10.0815
▁opera	-10.0827
▁wound	-10.0846
▁humble	-10.0857
▁assignment	-10.0868
▁brains	-10.0868
▁vehicle	-10.0873
▁grandma	-10.0874
▁effect	-10.0876
▁agent	-10.0881
▁becomes	-10.0884
▁buck	-10.0885
▁member	-10.0885
▁shoulder	-10.0899
▁tear	-10.0909
▁ways	-10.0928
pa	-10.0959
▁mamas	-10.0992
▁leak	-10.0995
▁beep	-10.0997
▁proceed	-10.0998
ward	-10.1001
▁charm	-10.1011
▁rob	-10.1012
▁delight	-10.1019
▁convince	-10.1026
▁commission	-10.1027
▁actual	-10.1033
▁director	-10.1034
▁freeze	-10.1042
▁contain	-10.1046
▁beneath	-10.1046
▁bethlehem	-10.1046
▁closing	-10.1046
▁colbert	-10.1046
▁council	-10.1046
▁genius	-10.1046
▁haldeman	-10.1046
▁lndistinct	-10.1046
▁patience	-10.1046
▁spenlow	-10.1046
▁stroke	-10.1046
▁supply	-10.1046
▁tattoo	-10.1046
▁uriah	-10.1046
▁chinese	-10.1046
▁miranda	-10.1046
▁stokes	-10.1046
▁warrant	-10.1046
▁pleasant	-10.1046
▁sondra	-10.1046
▁bleating	-10.1046
▁neigh	-10.1046
▁rustling	-10.1046
▁destruction	-10.1046
▁presence	-10.1046
▁diane	-10.1046
▁marvelous	-10.1046
▁ordinary	-10.1046
▁positive	-10.1046
▁swallow	-10.1046
▁blew	-10.1046
▁portia	-10.1046
▁fancy	-10.1046
▁tooth	-10.1046
▁liberty	-10.1046
▁evie	-10.1047
▁mouse	-10.1047
▁logan	-10.1047
▁russell	-10.1047
▁strawberry	-10.1047
▁alice	-10.1047
▁oak	-10.1047
▁brian	-10.1047
▁schedule	-10.1047
▁available	-10.1047
▁performance	-10.1047
▁aside	-10.1047
▁tax	-10.1048
▁attractive	-10.1048
ities	-10.1048
▁aboard	-10.1048
▁spain	-10.1049
▁guilty	-10.105
▁clattering	-10.105
▁anger	-10.1051
▁expedition	-10.1051
▁thee	-10.1051
▁potatoes	-10.1052
▁lack	-10.1053
▁hut	-10.1054
▁beaten	-10.1055
▁spoken	-10.1056
▁yank	-10.1056
▁clicking	-10.1056
▁directly	-10.1057
▁betting	-10.1058
▁frightened	-10.1059
▁trade	-10.1061
▁shining	-10.1062
▁fourth	-10.1063
▁shattering	-10.1065
▁properly	-10.1067
▁jacket	-10.1071
▁sum	-10.1072
▁busted	-10.1073
▁delighted	-10.1076
▁odd	-10.1077
▁seth	-10.1078
ezvous	-10.1079
▁created	-10.1082
▁ki	-10.1084
▁license	-10.1085
▁forced	-10.1089
▁ant	-10.1095
▁woke	-10.1096
▁served	-10.1098
▁finest	-10.1099
▁reports	-10.11
▁crickets	-10.1104
▁degrees	-10.1115
▁entirely	-10.1116
▁cats	-10.1119
▁prisoners	-10.1122
▁pipe	-10.1123
▁deed	-10.1123
▁armed	-10.1124
▁accepted	-10.1126
▁packed	-10.1126
▁burned	-10.113
▁bolsheviks	-10.1136
▁hunting	-10.114
▁knocked	-10.1149
tu	-10.115
▁dates	-10.1155
▁pushed	-10.1156
▁demands	-10.1158
▁whoohoo	-10.1159
▁bothering	-10.1189
▁boo	-10.1196
▁ally	-10.1208
▁dani	-10.1229
▁offering	-10.1234
j	-10.1242
▁signed	-10.1248
▁hug	-10.1257
▁somethings	-10.1264
▁mumbl	-10.1265
▁runs	-10.1291
▁leading	-10.1301
and	-10.1307
▁dreamed	-10.131
▁thin	-10.1325
▁fi	-10.1349
▁print	-10.1385
▁ja	-10.1425
▁host	-10.1439
▁endless	-10.1441
res	-10.1464
▁suck	-10.1472
▁as	-10.1487
▁interfere	-10.1502
▁talent	-10.1508
red	-10.1524
▁thrill	-10.1535
▁string	-10.1538
▁rambalcochet	-10.1539
▁tuesday	-10.1542
▁bug	-10.1544
▁nun	-10.1549
head	-10.1549
▁sally	-10.155
▁jew	-10.155
▁toy	-10.1557
▁dollar	-10.1564
▁somebodys	-10.1576
▁ideas	-10.1581
▁bone	-10.1582
▁headed	-10.1583
ize	-10.16
▁snor	-10.1611
▁attempt	-10.1633
what	-10.1634
▁stretch	-10.1655
house	-10.1663
▁interrupt	-10.1665
▁grove	-10.1668
▁jewel	-10.167
▁confess	-10.1681
ol	-10.1684
▁insult	-10.1684
▁describe	-10.1691
▁u	-10.1691
▁twenty	-10.1695
▁elliot	-10.1698
▁obvious	-10.17
▁immediate	-10.17
▁plum	-10.1705
▁potato	-10.1706
▁stefan	-10.1708
▁social	-10.1711
▁republic	-10.1711
▁ahearn	-10.1713
▁appetite	-10.1713
▁bueno	-10.1713
▁cinderella	-10.1713
▁determined	-10.1713
▁disguise	-10.1713
▁escort	-10.1713
▁fetch	-10.1713
▁fouquet	-10.1713
▁garrincha	-10.1713
▁holiday	-10.1713
▁joshua	-10.1713
▁judgment	-10.1713
▁lincoln	-10.1713
▁period	-10.1713
▁smythe	-10.1713
▁subtitle	-10.1713
▁suicide	-10.1713
▁supplies	-10.1713
▁terribly	-10.1713
▁thumb	-10.1713
▁turkey	-10.1713
▁ulysses	-10.1713
▁amanda	-10.1713
▁francs	-10.1713
▁lassard	-10.1713
▁territory	-10.1713
▁nerve	-10.1713
▁confidence	-10.1713
▁lolly	-10.1713
▁susan	-10.1713
▁plaza	-10.1713
▁specific	-10.1713
▁vicious	-10.1713
▁steinberg	-10.1713
▁ginga	-10.1713
▁lamb	-10.1713
▁sherry	-10.1713
▁mijo	-10.1713
▁precisely	-10.1713
▁rotten	-10.1713
▁lenny	-10.1713
▁charity	-10.1713
▁rising	-10.1713
▁inaudible	-10.1713
▁beam	-10.1714
▁marco	-10.1714
▁saul	-10.1714
▁bible	-10.1714
▁centre	-10.1714
▁jake	-10.1715
▁regard	-10.1715
▁squad	-10.1715
▁cupboard	-10.1715
▁heavily	-10.1715
▁humor	-10.1715
▁chessy	-10.1715
▁heep	-10.1715
▁unlike	-10.1716
▁summertime	-10.1716
▁fold	-10.1716
▁robbery	-10.1716
▁owns	-10.1716
▁masses	-10.1716
▁johnny	-10.1716
▁income	-10.1717
▁phase	-10.1717
▁pumpkin	-10.1717
▁protection	-10.1718
▁flies	-10.1718
▁robin	-10.1719
▁text	-10.1721
▁donna	-10.1725
▁erin	-10.1727
▁successful	-10.1729
▁stopping	-10.173
▁scar	-10.1731
▁reality	-10.1732
▁limited	-10.1735
ass	-10.1737
▁crown	-10.1737
▁easter	-10.1739
▁amen	-10.1741
▁exclaims	-10.1741
▁eve	-10.1748
▁refused	-10.1748
▁tang	-10.1763
▁raised	-10.1764
▁bowling	-10.1765
▁fe	-10.1766
▁managed	-10.1768
▁para	-10.1769
▁locker	-10.1773
▁toes	-10.1781
▁drinks	-10.1811
▁up	-10.182
▁citizens	-10.1821
lic	-10.1823
▁diamonds	-10.1832
▁jobs	-10.1842
▁fools	-10.1852
▁boarding	-10.1855
▁remembered	-10.1856
be	-10.187
▁cooking	-10.1872
▁testing	-10.1889
▁tears	-10.1893
pl	-10.1899
▁rate	-10.1904
▁creep	-10.1915
▁spending	-10.1931
▁sirens	-10.1947
▁creatures	-10.197
▁unh	-10.1974
▁bastards	-10.1993
▁me	-10.1993
▁beating	-10.2001
▁counter	-10.2011
▁sessions	-10.2016
hi	-10.2037
min	-10.2056
fully	-10.2059
▁fu	-10.2091
▁events	-10.2092
▁conversations	-10.2097
nce	-10.2108
▁ba	-10.2121
▁lions	-10.2123
▁hah	-10.2128
▁donkeys	-10.2131
▁cl	-10.2137
▁chat	-10.2154
▁indians	-10.2156
▁gi	-10.2159
ner	-10.2165
▁signs	-10.217
▁runt	-10.2179
▁decisions	-10.2213
▁changes	-10.2239
▁helicopter	-10.2249
▁lecture	-10.2249
▁experiment	-10.2249
▁disease	-10.2249
▁maiden	-10.225
▁chick	-10.2251
▁elevator	-10.2253
▁executive	-10.2256
▁uniform	-10.2266
ew	-10.2273
▁jamaican	-10.2273
▁hum	-10.2274
▁films	-10.2285
▁farmer	-10.2291
▁ch	-10.2296
ship	-10.2316
▁pe	-10.233
▁singer	-10.2332
▁slam	-10.2339
▁blackmail	-10.2347
ns	-10.2374
▁direct	-10.2376
▁smack	-10.2381
▁guest	-10.2385
lo	-10.2386
▁cast	-10.2386
▁recover	-10.2396
▁crush	-10.2398
que	-10.2404
▁guarantee	-10.2406
▁separate	-10.2408
▁shake	-10.241
my	-10.2413
▁foolish	-10.2416
▁drag	-10.2421
▁region	-10.2423
▁runnin	-10.2425
▁minor	-10.2426
▁process	-10.2426
▁autograph	-10.2427
▁ceremony	-10.2427
▁compete	-10.2427
▁compromise	-10.2427
▁district	-10.2427
▁dynamite	-10.2427
▁easily	-10.2427
▁families	-10.2427
▁fitzgerald	-10.2427
▁hypnoray	-10.2427
▁intelligent	-10.2427
▁jessica	-10.2427
▁lollipop	-10.2427
▁mirror	-10.2427
▁muerte	-10.2427
▁mystery	-10.2427
▁peacock	-10.2427
▁phrase	-10.2427
▁piccolo	-10.2427
▁polite	-10.2427
▁sigrid	-10.2427
▁solution	-10.2427
▁tumbleweed	-10.2427
▁hartounian	-10.2427
▁bertha	-10.2427
▁essay	-10.2427
▁mostly	-10.2427
▁sweep	-10.2427
▁butler	-10.2427
▁nixon	-10.2427
▁civilization	-10.2427
▁jeez	-10.2427
▁tongue	-10.2427
▁slept	-10.2427
▁squeeze	-10.2427
▁bride	-10.2427
▁eminence	-10.2427
▁puppy	-10.2427
▁channel	-10.2427
▁bishop	-10.2427
▁zero	-10.2427
▁garbage	-10.2427
▁abner	-10.2427
▁community	-10.2427
▁rude	-10.2427
▁viva	-10.2427
▁couch	-10.2427
▁carried	-10.2427
▁isabella	-10.2427
▁beings	-10.2427
▁purse	-10.2427
▁whack	-10.2427
▁argue	-10.2428
▁tanner	-10.2428
▁basic	-10.2428
▁juan	-10.2428
▁flock	-10.2428
▁operator	-10.2428
▁francois	-10.2428
▁hahaha	-10.2428
▁passport	-10.2428
▁wrap	-10.2428
▁clown	-10.2428
▁education	-10.2428
▁hidden	-10.2429
▁illusion	-10.2429
▁francisco	-10.2429
▁mercy	-10.2429
▁thick	-10.2429
▁journalist	-10.2429
▁revolutionary	-10.2429
▁ramen	-10.2429
▁stine	-10.243
▁echo	-10.243
▁confused	-10.2431
▁barber	-10.2431
▁principal	-10.2431
▁quality	-10.2431
▁occupied	-10.2431
ebod	-10.2432
▁china	-10.2432
▁giggles	-10.2434
▁background	-10.2435
▁jessie	-10.2435
▁chanting	-10.2438
▁sail	-10.244
▁canceled	-10.2441
▁cheating	-10.2442
▁coughs	-10.2446
▁dolly	-10.2447
▁row	-10.2448
▁heat	-10.2456
▁highest	-10.2457
▁squeaking	-10.2462
▁settled	-10.2463
▁down	-10.2464
kin	-10.2464
wa	-10.2466
▁gl	-10.2469
▁warned	-10.247
▁vegetables	-10.247
▁loaded	-10.247
▁spark	-10.2478
▁screen	-10.2483
▁aires	-10.2485
▁wayne	-10.2494
▁parts	-10.2494
▁gettin	-10.2494
▁blessed	-10.2495
▁inform	-10.2497
▁guts	-10.2504
▁blessing	-10.2529
▁hip	-10.253
▁cigarettes	-10.2543
▁twins	-10.2543
▁backup	-10.2558
▁weapons	-10.2568
▁results	-10.2569
ola	-10.2574
▁jumping	-10.2582
▁toys	-10.2605
▁studying	-10.2605
▁bugs	-10.2607
▁pigs	-10.2629
▁carrying	-10.2659
▁unit	-10.2688
▁scratch	-10.2707
▁dish	-10.2728
▁dove	-10.2728
▁holes	-10.2728
▁patients	-10.2729
▁bust	-10.2738
▁throwing	-10.274
▁badly	-10.2749
▁prayers	-10.2775
▁au	-10.2782
▁sundays	-10.2791
▁mon	-10.2795
▁clubs	-10.2804
▁bells	-10.2809
mo	-10.2812
▁towns	-10.2819
▁tells	-10.2829
ten	-10.2858
▁vi	-10.2869
▁finds	-10.2887
▁trace	-10.2889
do	-10.2896
▁yards	-10.2901
▁hoped	-10.2902
▁faces	-10.2913
▁lab	-10.2921
▁seats	-10.293
ky	-10.2932
▁anti	-10.2933
▁peters	-10.2935
▁engineer	-10.2942
ank	-10.2948
▁fare	-10.295
▁hoo	-10.2984
▁com	-10.2985
▁ra	-10.299
▁stores	-10.2992
▁inter	-10.2993
▁charges	-10.3004
▁reservation	-10.3018
▁ni	-10.3019
▁banana	-10.3023
▁comment	-10.3025
▁league	-10.3025
▁shirt	-10.3025
▁task	-10.3027
▁customer	-10.3029
▁moron	-10.303
▁height	-10.303
▁saint	-10.3031
▁domin	-10.3032
▁skill	-10.3032
▁folk	-10.3037
▁cookie	-10.3044
und	-10.3062
▁grounds	-10.3069
▁tale	-10.3077
▁tosh	-10.3094
▁worrying	-10.3096
▁pr	-10.3139
▁skip	-10.314
▁tempo	-10.3141
▁sneak	-10.3145
▁yup	-10.3147
▁discover	-10.3151
▁flash	-10.3154
born	-10.3154
▁punch	-10.3156
ball	-10.3157
quot	-10.3158
▁william	-10.3158
throw	-10.3159
▁reward	-10.3165
▁rub	-10.3165
▁bars	-10.3165
▁announce	-10.3174
▁mental	-10.3181
▁emotional	-10.3182
▁hung	-10.3184
ga	-10.3186
▁australia	-10.3186
▁rome	-10.3193
▁convention	-10.3193
▁jam	-10.3194
▁threat	-10.3194
▁fond	-10.3195
▁lovin	-10.3195
▁trans	-10.3195
▁polar	-10.3196
▁cackling	-10.3196
▁celebrating	-10.3196
▁central	-10.3196
▁century	-10.3196
▁disaster	-10.3196
▁dogtective	-10.3196
▁driscoll	-10.3196
▁giuseppe	-10.3196
▁gorgeous	-10.3196
▁illegal	-10.3196
▁marcus	-10.3196
▁melanchol	-10.3196
▁mistress	-10.3196
▁negative	-10.3196
▁practicing	-10.3196
▁purchase	-10.3196
▁religion	-10.3196
▁reputation	-10.3196
▁revenge	-10.3196
▁scotch	-10.3196
▁sensitive	-10.3196
▁splendid	-10.3196
▁telegraph	-10.3196
▁thursday	-10.3196
▁brief	-10.3196
▁muscle	-10.3196
▁plastic	-10.3196
▁tesla	-10.3196
▁ahmad	-10.3196
▁entei	-10.3196
▁trunk	-10.3196
through	-10.3196
▁keach	-10.3196
▁widowmaker	-10.3196
▁sunset	-10.3196
▁joking	-10.3196
▁statue	-10.3196
▁francesco	-10.3196
▁surgery	-10.3196
▁golf	-10.3196
▁butterfree	-10.3196
▁patrol	-10.3196
▁suitcase	-10.3196
▁izzy	-10.3197
▁detective	-10.3197
▁claus	-10.3197
▁blaring	-10.3197
▁bacon	-10.3197
▁commitment	-10.3197
▁persuade	-10.3197
▁sobs	-10.3197
▁liar	-10.3197
▁jose	-10.3197
▁intense	-10.3197
▁development	-10.3197
▁admiral	-10.3198
▁unbelievable	-10.3198
▁carriage	-10.3198
▁shore	-10.3198
▁groom	-10.3198
▁toss	-10.3198
▁eli	-10.3198
▁harsh	-10.3198
▁cox	-10.3198
▁mayday	-10.3198
▁mummy	-10.3199
▁starving	-10.3199
▁effective	-10.32
▁fascinating	-10.32
▁filthy	-10.32
▁stall	-10.32
▁trial	-10.32
▁theme	-10.3201
▁marie	-10.3201
▁personality	-10.3201
▁andy	-10.3201
▁boring	-10.3201
▁surface	-10.3201
▁spear	-10.3201
▁soup	-10.3201
▁gurgling	-10.3202
▁chairman	-10.3202
▁suggestion	-10.3204
▁fortune	-10.3204
▁chin	-10.3204
▁flush	-10.3205
▁bedroom	-10.3205
▁violence	-10.3207
▁link	-10.3208
ci	-10.3208
▁fallen	-10.3208
▁sore	-10.321
▁tucker	-10.3211
▁q	-10.3212
▁cutting	-10.3214
▁compared	-10.3216
▁sinners	-10.3216
▁tricks	-10.3218
▁fri	-10.3218
▁approaching	-10.322
▁dori	-10.322
▁exercise	-10.322
▁mansion	-10.3222
▁mixed	-10.3222
▁mid	-10.3224
▁musketeers	-10.3229
▁useless	-10.323
▁aid	-10.3232
▁normally	-10.3241
▁delivered	-10.3242
▁howdy	-10.3242
▁nails	-10.3243
▁kindness	-10.3244
▁haul	-10.325
▁documents	-10.3256
▁washed	-10.3266
▁socks	-10.3271
▁painting	-10.3271
▁wheeler	-10.3278
▁sang	-10.329
ier	-10.3293
▁fur	-10.3293
▁ay	-10.3298
▁quietly	-10.3312
▁visited	-10.3312
▁conc	-10.3324
▁fed	-10.3324
▁painful	-10.3325
▁pages	-10.3346
▁terms	-10.3349
un	-10.336
▁losers	-10.3361
▁guests	-10.3372
▁units	-10.3374
▁farmers	-10.3385
▁ted	-10.3398
down	-10.3403
sm	-10.3414
▁moves	-10.3414
▁shines	-10.3432
▁observe	-10.345
▁remove	-10.3456
▁likely	-10.3465
side	-10.3467
▁glen	-10.3469
▁sales	-10.3483
▁understanding	-10.3494
▁hells	-10.3496
▁showing	-10.3515
▁pockets	-10.3523
▁carol	-10.3526
light	-10.3538
li	-10.354
▁classic	-10.3568
iii	-10.3589
▁deserves	-10.3591
▁los	-10.3592
ence	-10.3593
pping	-10.3598
▁gunshots	-10.3604
oc	-10.367
▁voices	-10.367
▁las	-10.3692
▁usa	-10.3694
ably	-10.3734
▁sec	-10.3742
▁rats	-10.3771
▁grip	-10.3774
chi	-10.3775
▁fashion	-10.3785
ite	-10.3785
some	-10.3801
▁medals	-10.3808
▁result	-10.3817
▁crook	-10.3821
ge	-10.3839
▁jerk	-10.3841
▁desert	-10.3841
▁windows	-10.3849
▁target	-10.3851
▁item	-10.3851
▁photo	-10.3855
▁aisle	-10.3856
▁jeff	-10.3859
▁generation	-10.3859
▁ingredient	-10.3861
▁yankee	-10.3866
▁weapon	-10.3866
▁toward	-10.387
▁ike	-10.3871
▁term	-10.3878
▁ln	-10.3897
▁shove	-10.3904
▁rip	-10.3909
▁judges	-10.3932
ble	-10.3945
ious	-10.3947
▁loser	-10.3948
▁insist	-10.3952
▁screw	-10.3954
▁wings	-10.3955
rez	-10.3963
for	-10.3973
▁bump	-10.3985
▁obey	-10.3995
em	-10.3997
▁mix	-10.4001
▁organ	-10.4001
▁shoo	-10.4003
▁replace	-10.4008
▁sacrifice	-10.4008
▁suits	-10.4013
▁mysterious	-10.4017
▁recent	-10.4017
▁exact	-10.4017
▁banks	-10.4018
▁branch	-10.4023
▁faithful	-10.4023
▁chuck	-10.4027
▁kinds	-10.4028
▁cruel	-10.4029
▁cigar	-10.4029
▁authentic	-10.4029
▁advantage	-10.4029
▁amount	-10.4029
▁bannock	-10.4029
▁brooklyn	-10.4029
▁buffalo	-10.4029
▁bulldozer	-10.4029
▁campaign	-10.4029
▁caribou	-10.4029
▁envelope	-10.4029
▁gustav	-10.4029
▁hortense	-10.4029
▁invitation	-10.4029
▁lacrique	-10.4029
▁manhattan	-10.4029
▁moscow	-10.4029
▁oozaru	-10.4029
▁opposite	-10.4029
▁phantom	-10.4029
▁politics	-10.4029
▁rattling	-10.4029
▁religious	-10.4029
▁shelter	-10.4029
▁shogun	-10.4029
▁stephanie	-10.4029
▁subpoena	-10.4029
▁urmi	-10.4029
▁vacuum	-10.4029
▁volunteer	-10.4029
▁wadsworth	-10.4029
▁whimpers	-10.4029
▁winsiow	-10.4029
▁xibalba	-10.4029
▁apologies	-10.4029
▁concert	-10.4029
▁suzanne	-10.4029
▁stuart	-10.4029
▁stairs	-10.403
▁whining	-10.403
▁banquet	-10.403
▁muffled	-10.403
▁stiles	-10.403
▁including	-10.403
▁florida	-10.403
▁precious	-10.403
▁bushwood	-10.403
▁zito	-10.403
▁inspiration	-10.403
▁clinic	-10.403
▁smoking	-10.403
▁mmmhmm	-10.403
▁bruno	-10.403
▁marva	-10.403
▁preston	-10.403
▁civilized	-10.403
▁literally	-10.403
▁propaganda	-10.403
▁temple	-10.403
▁editor	-10.403
▁title	-10.403
▁urgent	-10.403
▁obliged	-10.403
▁opposed	-10.403
▁timmy	-10.403
▁memories	-10.4031
▁mario	-10.4031
▁fantasy	-10.4031
▁alaska	-10.4031
▁foul	-10.4031
▁basically	-10.4031
▁nasty	-10.4031
▁assistant	-10.4031
▁bold	-10.4031
▁appeal	-10.4031
▁shane	-10.4031
▁faint	-10.4032
▁response	-10.4032
▁alexander	-10.4032
▁network	-10.4032
▁latin	-10.4032
▁divine	-10.4032
▁maid	-10.4033
▁chest	-10.4033
▁appointed	-10.4033
▁dropping	-10.4034
▁inches	-10.4034
▁gain	-10.4034
▁gig	-10.4034
▁ability	-10.4035
▁iike	-10.4035
▁chill	-10.4035
▁claire	-10.4035
▁studi	-10.4035
▁invented	-10.4036
▁kiddo	-10.4036
▁vet	-10.4036
▁mice	-10.4037
▁heartland	-10.4039
▁arrow	-10.404
▁dammit	-10.4041
▁stein	-10.4043
▁pm	-10.4044
off	-10.4044
▁abandoned	-10.4044
▁abe	-10.4045
▁tribe	-10.4046
▁lawson	-10.4046
▁dining	-10.4046
▁coma	-10.4046
▁handling	-10.4048
▁elliott	-10.4048
▁fastest	-10.4052
▁minds	-10.4054
▁complaint	-10.4055
▁julien	-10.4055
▁convinced	-10.4056
▁officially	-10.406
▁lend	-10.4061
eth	-10.4062
▁pace	-10.4065
▁lifetime	-10.4065
▁former	-10.4066
▁hood	-10.407
▁athletics	-10.408
▁useful	-10.408
▁classes	-10.4083
▁failed	-10.4086
▁tri	-10.4087
▁lawn	-10.4096
▁added	-10.4096
▁aim	-10.4097
▁eclipse	-10.41
▁recording	-10.4102
mond	-10.4105
▁page	-10.4106
▁complaining	-10.4106
▁spin	-10.4112
▁instructions	-10.4124
▁inn	-10.4126
▁protected	-10.4142
▁reached	-10.4147
▁stealing	-10.4149
▁japs	-10.4153
▁tap	-10.4162
▁fo	-10.4172
▁praying	-10.4189
▁lad	-10.419
▁parker	-10.4193
▁ikes	-10.4196
▁yankees	-10.4196
▁fl	-10.421
os	-10.4212
▁sucks	-10.424
▁thoughts	-10.4254
▁roads	-10.4265
ai	-10.4275
▁troubles	-10.4298
▁camping	-10.4299
▁gen	-10.43
▁finding	-10.4302
▁beasts	-10.4313
va	-10.432
▁cu	-10.4334
ad	-10.434
▁phones	-10.4352
▁ropes	-10.4357
▁staring	-10.4361
ka	-10.4369
▁behave	-10.439
thank	-10.4396
▁cease	-10.4397
▁cleared	-10.4411
▁pu	-10.4415
ms	-10.4419
▁gifts	-10.4431
▁remains	-10.4447
▁bombs	-10.4457
▁whistles	-10.449
▁comfort	-10.45
▁falls	-10.451
▁russians	-10.4521
tin	-10.4581
▁watched	-10.4588
▁dealing	-10.4606
▁struggle	-10.4615
zer	-10.4626
▁sor	-10.464
▁flames	-10.4645
▁winds	-10.4671
▁plug	-10.4678
▁design	-10.468
gged	-10.4683
▁trains	-10.4703
▁bla	-10.4705
▁shift	-10.472
▁squeak	-10.4726
▁swell	-10.4727
▁mi	-10.4735
▁photograph	-10.4739
▁rang	-10.474
ade	-10.474
▁sentence	-10.4741
▁limit	-10.4743
▁require	-10.475
▁ad	-10.4753
▁album	-10.476
▁towel	-10.476
ified	-10.4766
▁soviet	-10.4768
▁argument	-10.477
▁principle	-10.477
▁rumor	-10.4771
▁barrel	-10.4773
▁herb	-10.4773
▁client	-10.4773
▁servant	-10.4773
▁diamond	-10.4776
▁demand	-10.4776
▁olympic	-10.4777
▁shadow	-10.478
▁beside	-10.478
▁nut	-10.4782
▁ideal	-10.479
ick	-10.4793
▁movement	-10.4802
ay	-10.4807
▁manner	-10.4814
▁pops	-10.4819
▁hats	-10.4823
▁facts	-10.4833
▁pour	-10.4867
▁bi	-10.4875
di	-10.4875
▁fuck	-10.4884
▁sweat	-10.4889
▁blast	-10.4891
good	-10.4903
▁intend	-10.4906
▁prevent	-10.4906
▁sire	-10.4907
▁borrow	-10.4908
▁saddle	-10.4916
▁reserve	-10.4917
▁adore	-10.4918
▁divorce	-10.4921
▁beck	-10.4923
▁wi	-10.4924
▁wicked	-10.4934
▁comb	-10.4934
▁regret	-10.4936
▁mmhm	-10.4937
▁doug	-10.4938
▁basket	-10.4938
▁albrecht	-10.4939
▁antitoxin	-10.4939
▁arizona	-10.4939
▁armistice	-10.4939
▁ashford	-10.4939
▁bargain	-10.4939
▁bunyan	-10.4939
▁charmeleon	-10.4939
▁chicago	-10.4939
▁cinema	-10.4939
▁ciolino	-10.4939
▁costello	-10.4939
▁deputies	-10.4939
▁dobson	-10.4939
▁dozen	-10.4939
▁empire	-10.4939
▁explanation	-10.4939
▁extend	-10.4939
▁gibus	-10.4939
▁grogan	-10.4939
▁jotham	-10.4939
▁lunatic	-10.4939
▁mavericks	-10.4939
▁meerut	-10.4939
▁morgan	-10.4939
▁november	-10.4939
▁october	-10.4939
▁orange	-10.4939
▁outfit	-10.4939
▁piplup	-10.4939
▁rafael	-10.4939
▁reckless	-10.4939
▁rucio	-10.4939
▁sarge	-10.4939
▁september	-10.4939
▁shrink	-10.4939
▁tedesco	-10.4939
▁television	-10.4939
▁traffic	-10.4939
▁tragic	-10.4939
▁trigger	-10.4939
▁unexpected	-10.4939
▁unhappy	-10.4939
▁whimpering	-10.4939
▁impact	-10.4939
▁iook	-10.4939
▁radar	-10.4939
▁reef	-10.4939
▁slamming	-10.4939
▁scholarship	-10.4939
▁thisll	-10.4939
▁reaiiy	-10.4939
▁trask	-10.4939
▁presidency	-10.4939
▁tunnel	-10.4939
▁kidnapped	-10.4939
▁struck	-10.4939
▁revs	-10.4939
▁expose	-10.4939
▁crail	-10.4939
▁nudge	-10.4939
▁helen	-10.4939
▁felicia	-10.4939
▁solo	-10.4939
▁hurst	-10.4939
▁swine	-10.4939
▁moses	-10.4939
▁slipped	-10.4939
▁muttering	-10.4939
▁headquarters	-10.4939
▁swiss	-10.4939
▁generous	-10.4939
▁hazel	-10.4939
▁administration	-10.4939
▁engagement	-10.4939
▁camus	-10.4939
▁ninja	-10.4939
▁woof	-10.4939
▁asshole	-10.4939
▁series	-10.4939
▁existence	-10.4939
▁batter	-10.4939
▁plot	-10.4939
▁influence	-10.4939
▁duke	-10.494
▁laztec	-10.494
▁shook	-10.494
▁entertain	-10.494
▁portland	-10.494
▁gross	-10.494
▁punishment	-10.494
▁debbie	-10.494
▁rita	-10.494
▁universe	-10.494
▁data	-10.494
▁stake	-10.4941
▁essential	-10.4941
▁rifle	-10.4941
▁drama	-10.4941
▁refund	-10.4941
▁skies	-10.4941
▁elton	-10.4941
▁stew	-10.4941
▁naked	-10.4941
▁incident	-10.4942
▁poop	-10.4942
▁japan	-10.4942
▁admitted	-10.4942
▁lemon	-10.4942
▁nearby	-10.4942
▁cellar	-10.4942
▁strain	-10.4942
▁resignation	-10.4942
▁anna	-10.4943
▁surrounded	-10.4943
▁missile	-10.4943
▁cities	-10.4943
▁parade	-10.4944
▁romeo	-10.4944
▁treatment	-10.4944
▁ouch	-10.4944
▁rode	-10.4944
▁shield	-10.4944
▁daan	-10.4944
▁coverup	-10.4945
▁wore	-10.4945
▁amazed	-10.4945
▁identified	-10.4945
▁square	-10.4946
▁role	-10.4946
▁scottie	-10.4946
▁chosen	-10.4946
▁dishes	-10.4946
▁cage	-10.4947
▁tries	-10.4947
▁mack	-10.4947
▁sink	-10.4947
▁clank	-10.4948
▁accused	-10.4948
▁european	-10.4948
▁janet	-10.4949
▁ballet	-10.4949
▁expression	-10.495
▁wei	-10.495
▁ana	-10.4951
▁captured	-10.4952
▁capable	-10.4952
▁lame	-10.4953
▁battery	-10.4953
▁hopeless	-10.4955
▁formal	-10.4957
▁momma	-10.4958
▁lane	-10.4959
▁roy	-10.4963
▁heroic	-10.4963
▁wiped	-10.4963
▁oughta	-10.4964
▁bah	-10.4965
▁pastor	-10.4968
▁matches	-10.4969
▁goodnight	-10.4973
▁fade	-10.4974
▁gardener	-10.4976
▁crushed	-10.4978
▁veterans	-10.4979
▁heroes	-10.4982
▁parties	-10.4983
▁goodlooking	-10.4983
▁survived	-10.4985
▁gathered	-10.4989
▁meantime	-10.4995
late	-10.4997
▁escaped	-10.4998
▁wasted	-10.5008
ix	-10.5017
▁blonde	-10.502
▁average	-10.5021
▁poet	-10.5022
▁proved	-10.5024
▁murdered	-10.5025
▁grapes	-10.5026
▁pills	-10.5026
▁hale	-10.5026
▁bush	-10.5031
▁oops	-10.5042
▁armor	-10.5045
▁whoops	-10.5046
▁shortly	-10.5049
▁rep	-10.5053
▁appeared	-10.5056
▁seated	-10.5062
▁youi	-10.5069
▁safely	-10.5069
▁slaves	-10.5074
▁whispers	-10.5074
its	-10.5078
▁lighter	-10.5082
▁bothered	-10.5083
▁qua	-10.5084
▁bullets	-10.509
▁palm	-10.5102
▁cakes	-10.5104
ni	-10.5105
▁manners	-10.5106
▁cleaned	-10.5136
▁worthy	-10.5139
▁visiting	-10.5145
ir	-10.5149
▁fore	-10.5153
her	-10.5153
▁breaks	-10.5161
▁reverse	-10.5162
q	-10.5164
▁tramp	-10.5205
ries	-10.5218
▁strangers	-10.5224
▁drums	-10.5224
▁ships	-10.523
▁devils	-10.5234
yeah	-10.525
▁clouds	-10.5267
ia	-10.5275
ps	-10.5285
▁sha	-10.529
▁cher	-10.5292
▁needle	-10.5295
▁dings	-10.5311
art	-10.532
bs	-10.534
ions	-10.5348
▁ri	-10.535
ct	-10.5365
uous	-10.5372
▁ting	-10.5376
▁nations	-10.5381
▁ap	-10.5401
▁sweets	-10.5432
ors	-10.5439
▁chickens	-10.5478
▁pen	-10.5492
ast	-10.5503
▁don	-10.5506
▁reminds	-10.5527
▁occasion	-10.5539
fa	-10.5539
▁cre	-10.557
use	-10.5581
▁punk	-10.5627
▁rem	-10.5627
pped	-10.5645
▁bev	-10.5648
ut	-10.5672
▁flow	-10.5672
▁officers	-10.5684
▁sorrow	-10.5715
aging	-10.572
▁frog	-10.5721
▁qui	-10.5722
▁crow	-10.5736
▁mart	-10.574
tte	-10.5747
▁believer	-10.5748
▁lick	-10.5749
▁measure	-10.5749
▁powder	-10.5752
▁duran	-10.5752
▁fee	-10.5756
▁mel	-10.5758
▁theater	-10.576
▁motion	-10.5762
▁warrior	-10.5765
▁relationship	-10.5765
▁cousin	-10.5768
▁marine	-10.5768
▁bullet	-10.5769
▁option	-10.5773
▁ration	-10.5774
▁idiots	-10.5775
▁buildings	-10.5775
▁cigarette	-10.5776
▁citizen	-10.5776
tone	-10.5776
▁twin	-10.5777
▁twist	-10.579
▁moments	-10.5804
▁machines	-10.5808
ano	-10.5808
▁maker	-10.5809
work	-10.582
po	-10.5844
▁net	-10.585
▁wifes	-10.585
uff	-10.5851
▁vice	-10.5854
▁on	-10.5864
▁begins	-10.5875
old	-10.5881
▁buzz	-10.5884
▁jokes	-10.5891
▁excuses	-10.5892
like	-10.5896
field	-10.5897
▁steer	-10.5898
away	-10.5899
walla	-10.59
bang	-10.5903
ning	-10.5906
▁scalp	-10.5906
▁success	-10.5906
load	-10.5906
▁propose	-10.5918
▁bum	-10.5924
▁dirt	-10.5925
▁strip	-10.5925
▁wipe	-10.5931
▁locate	-10.5932
aboom	-10.5937
▁franco	-10.5937
▁mornin	-10.5938
▁isabel	-10.5938
▁symbol	-10.5938
▁loyal	-10.5938
▁abbott	-10.5939
▁afterwards	-10.5939
▁anytime	-10.5939
▁application	-10.5939
▁association	-10.5939
▁belief	-10.5939
▁bettsbridge	-10.5939
▁buzhardt	-10.5939
▁centuries	-10.5939
▁charmander	-10.5939
▁dessert	-10.5939
▁dialogue	-10.5939
▁division	-10.5939
▁honeymoon	-10.5939
▁hyde	-10.5939
▁intelligence	-10.5939
▁iww	-10.5939
▁kikakee	-10.5939
▁krader	-10.5939
▁library	-10.5939
▁liquor	-10.5939
▁meanwhile	-10.5939
▁murdstone	-10.5939
▁naughty	-10.5939
▁nebraska	-10.5939
▁nelda	-10.5939
▁nephew	-10.5939
▁nucle	-10.5939
▁panther	-10.5939
▁phupho	-10.5939
▁prosecutor	-10.5939
▁relief	-10.5939
▁rutherford	-10.5939
▁smooth	-10.5939
▁stadium	-10.5939
▁stubborn	-10.5939
▁survival	-10.5939
▁trophy	-10.5939
▁vichy	-10.5939
▁vodka	-10.5939
▁weasel	-10.5939
▁whinnies	-10.5939
▁yarmouth	-10.5939
▁crisis	-10.5939
▁ollie	-10.5939
▁austria	-10.5939
▁gym	-10.5939
▁posada	-10.5939
▁marshadow	-10.5939
▁fabulous	-10.5939
▁picnic	-10.5939
▁conscience	-10.5939
▁cruisin	-10.5939
▁revoir	-10.5939
▁therefore	-10.5939
▁cantata	-10.5939
▁institution	-10.5939
▁brawley	-10.5939
▁tyler	-10.5939
▁whyd	-10.5939
▁roshi	-10.5939
▁worries	-10.5939
▁burger	-10.5939
▁envy	-10.5939
▁sunyu	-10.5939
▁shabbes	-10.5939
▁wel	-10.5939
▁delhi	-10.5939
▁kayla	-10.5939
▁transmitter	-10.5939
▁avenue	-10.5939
▁ladder	-10.5939
▁adorable	-10.5939
▁tasty	-10.5939
▁remission	-10.5939
▁species	-10.5939
▁pistol	-10.5939
▁moose	-10.5939
▁restrain	-10.5939
▁garage	-10.5939
▁pork	-10.5939
▁alert	-10.5939
▁consciousness	-10.5939
▁merv	-10.5939
▁philip	-10.5939
▁fever	-10.5939
▁airplane	-10.5939
▁easier	-10.594
▁patch	-10.594
▁slide	-10.594
▁inhales	-10.594
▁leonard	-10.594
▁brick	-10.594
▁jerry	-10.594
▁denne	-10.594
▁independent	-10.5941
▁household	-10.5941
▁chew	-10.5941
▁karr	-10.5941
▁fifty	-10.5941
▁pegasus	-10.5941
▁jungle	-10.5941
▁sensible	-10.5941
▁connection	-10.5941
▁drove	-10.5941
▁miguel	-10.5941
▁colton	-10.5941
▁checkpoint	-10.5941
▁collection	-10.5942
▁ciao	-10.5942
▁production	-10.5942
▁injured	-10.5942
▁intention	-10.5942
▁maxwell	-10.5942
▁earl	-10.5942
▁genetic	-10.5942
▁fuss	-10.5942
▁begging	-10.5943
▁rod	-10.5943
▁cure	-10.5944
▁dragged	-10.5944
▁aii	-10.5944
▁depressed	-10.5944
▁wager	-10.5945
▁penny	-10.5945
▁eco	-10.5945
▁stefano	-10.5946
▁crop	-10.5946
▁shrieking	-10.5946
▁jip	-10.5947
▁gregg	-10.5947
▁victory	-10.5947
▁bingo	-10.5947
▁alto	-10.5947
▁agreement	-10.5948
▁ignore	-10.5948
▁possession	-10.5948
▁agony	-10.5948
▁hustle	-10.5948
▁seventh	-10.5949
▁ease	-10.5949
▁friendship	-10.595
▁tapping	-10.5951
▁stain	-10.5952
▁presentation	-10.5953
▁stream	-10.5953
▁threatened	-10.5953
▁sixth	-10.5953
▁stepped	-10.5954
▁dang	-10.5956
▁bend	-10.5956
▁punished	-10.5959
▁angeles	-10.5959
▁setting	-10.596
▁bora	-10.5961
▁organized	-10.5964
▁starve	-10.5964
▁spiritual	-10.5965
▁wandering	-10.5965
▁embarrassing	-10.5965
▁homesteaders	-10.5965
▁shrieks	-10.5966
▁awaits	-10.5966
▁dial	-10.5968
▁she	-10.597
▁lit	-10.5971
▁borrowed	-10.5972
▁designed	-10.5973
▁sniffing	-10.5976
▁involve	-10.5976
ok	-10.5976
▁laser	-10.598
▁released	-10.5982
▁bunk	-10.5985
▁fucking	-10.5989
▁suffered	-10.5994
▁ju	-10.5998
▁bess	-10.5998
lm	-10.6001
▁robbers	-10.6003
▁deeper	-10.6004
▁walla	-10.6005
▁commander	-10.6005
▁haha	-10.6006
reme	-10.6014
▁honestly	-10.6018
▁goats	-10.6019
▁christy	-10.6028
▁rack	-10.6029
▁image	-10.6032
▁capers	-10.6032
▁insects	-10.6036
▁mechanical	-10.605
▁makeup	-10.6051
▁acres	-10.6054
ger	-10.6056
▁tend	-10.6073
▁victims	-10.6089
▁belly	-10.6092
▁cooked	-10.6111
▁helpful	-10.6114
▁speakers	-10.6116
▁wars	-10.6116
▁returns	-10.6117
▁limits	-10.6125
sherman	-10.613
▁hates	-10.6133
▁fart	-10.6141
▁wha	-10.6142
▁photos	-10.6142
▁ins	-10.6149
▁sleepy	-10.6157
so	-10.6161
▁messed	-10.6173
▁figures	-10.618
▁sticks	-10.6185
▁attacking	-10.619
fic	-10.6209
▁pushing	-10.6213
▁shoulders	-10.6223
▁wondered	-10.6224
lk	-10.6227
▁mc	-10.6233
▁vari	-10.6235
▁corpora	-10.6238
▁menac	-10.6245
▁dressing	-10.6245
▁fans	-10.6251
▁actors	-10.6251
▁chips	-10.6256
▁marrying	-10.6269
▁conditions	-10.627
▁dared	-10.6277
▁scares	-10.6278
▁ol	-10.6284
▁wheels	-10.6287
▁grades	-10.6303
gen	-10.6304
ung	-10.6311
▁ab	-10.6319
▁loop	-10.6319
how	-10.6353
▁lover	-10.6359
▁engines	-10.6363
▁robots	-10.6371
▁noises	-10.6375
▁leaders	-10.6403
▁cart	-10.6422
▁twos	-10.6436
▁hills	-10.6448
gi	-10.6453
▁pies	-10.6457
▁murders	-10.6468
▁crate	-10.647
▁landing	-10.6489
▁wands	-10.6504
▁fortunate	-10.6508
▁rot	-10.6529
▁turner	-10.6542
▁op	-10.6545
ess	-10.6552
▁fellows	-10.6556
▁pile	-10.6557
▁fruits	-10.6557
our	-10.6557
▁mer	-10.6567
▁je	-10.6569
▁dreaming	-10.6601
nd	-10.6607
▁har	-10.6624
pr	-10.6675
ey	-10.6677
▁hu	-10.6677
▁horns	-10.6683
der	-10.6696
▁shoots	-10.6699
misunderstanding	-10.6717
▁corporat	-10.672
▁messages	-10.6722
▁wo	-10.6746
ncy	-10.6758
▁placed	-10.6766
▁possess	-10.677
berg	-10.6774
▁imitat	-10.6791
▁disappear	-10.6794
▁nu	-10.6816
ium	-10.6819
▁repair	-10.6828
▁squeal	-10.6836
rie	-10.684
▁trumpet	-10.684
▁whisper	-10.6841
all	-10.6842
▁detail	-10.6856
▁callaghan	-10.6863
▁celebration	-10.6863
▁museum	-10.6863
▁technique	-10.6863
▁instance	-10.6863
▁championship	-10.6864
▁vow	-10.6864
ue	-10.6865
▁areas	-10.6869
▁monkey	-10.6879
▁pickup	-10.6879
▁gown	-10.6881
▁error	-10.6882
▁stir	-10.6883
▁victim	-10.6884
▁jap	-10.6887
▁bolshevik	-10.689
▁prom	-10.6905
▁len	-10.6907
▁nazi	-10.6916
▁or	-10.6917
▁pier	-10.6919
▁hunter	-10.6922
end	-10.6935
▁examine	-10.6938
▁slave	-10.6948
▁pap	-10.6951
▁pit	-10.6959
▁access	-10.6963
▁musician	-10.6969
▁spoil	-10.697
looking	-10.6972
▁fires	-10.6974
▁odds	-10.6993
wood	-10.6995
▁ending	-10.6995
▁draft	-10.6997
but	-10.7001
▁flu	-10.7001
just	-10.7008
class	-10.7013
piece	-10.7013
water	-10.7015
▁jess	-10.7016
▁surprises	-10.7021
shop	-10.7025
▁improve	-10.7025
▁deck	-10.703
▁hee	-10.7031
▁gre	-10.7031
▁compare	-10.7034
▁bore	-10.7043
▁toro	-10.7046
▁journal	-10.7046
ternal	-10.7047
▁convent	-10.7047
lasting	-10.7047
▁recommend	-10.7048
▁mass	-10.7048
▁prior	-10.7048
▁resist	-10.7049
▁catholic	-10.7049
▁margo	-10.7049
▁phil	-10.7049
▁bachelor	-10.705
▁potential	-10.705
▁abilene	-10.705
▁advise	-10.705
▁alligator	-10.705
▁ambulance	-10.705
▁anyhow	-10.705
▁apologizing	-10.705
▁barcelona	-10.705
▁blatz	-10.705
▁blenac	-10.705
▁briggs	-10.705
▁choking	-10.705
▁chores	-10.705
▁colleague	-10.705
▁commercial	-10.705
▁connolly	-10.705
▁couid	-10.705
▁defence	-10.705
▁delmann	-10.705
▁democracy	-10.705
▁diphtheria	-10.705
▁disgrace	-10.705
▁economic	-10.705
▁elixir	-10.705
▁epidemic	-10.705
▁fifteen	-10.705
▁forfeit	-10.705
▁fuhrer	-10.705
▁happily	-10.705
▁kerensky	-10.705
▁koophuis	-10.705
▁lettuce	-10.705
▁liedholm	-10.705
▁mckay	-10.705
▁milkywhite	-10.705
▁murdoch	-10.705
▁mutual	-10.705
▁obtain	-10.705
▁ogilvie	-10.705
▁oklahoma	-10.705
▁outlaw	-10.705
▁parlor	-10.705
▁primitive	-10.705
▁ralph	-10.705
▁retreat	-10.705
▁satisfied	-10.705
▁stereo	-10.705
▁superior	-10.705
▁suspicious	-10.705
▁swift	-10.705
▁thomas	-10.705
▁toothpaste	-10.705
▁truffle	-10.705
▁undercover	-10.705
▁vegas	-10.705
▁vengeance	-10.705
▁vivian	-10.705
▁whirling	-10.705
▁withdraw	-10.705
▁bounce	-10.705
▁crawl	-10.705
▁dolores	-10.705
▁importance	-10.705
▁preserve	-10.705
▁arguing	-10.705
▁activity	-10.705
▁coincidence	-10.705
▁lindsey	-10.705
▁abroad	-10.705
▁albert	-10.705
▁drug	-10.705
▁dumas	-10.705
▁communicate	-10.705
▁constitution	-10.705
▁transmission	-10.705
▁proposition	-10.705
▁tractor	-10.705
▁vault	-10.705
▁boston	-10.705
▁yuri	-10.705
▁pacific	-10.705
▁parling	-10.705
▁disrupt	-10.705
▁flood	-10.705
▁salad	-10.705
▁scale	-10.705
▁stunned	-10.705
▁kurt	-10.705
▁bunny	-10.705
▁imagination	-10.705
▁conference	-10.705
▁retard	-10.705
▁competitive	-10.705
▁steak	-10.705
▁email	-10.705
▁garlic	-10.705
▁rudy	-10.705
▁occurred	-10.705
▁jody	-10.705
▁roque	-10.705
▁silent	-10.705
▁otis	-10.705
▁roman	-10.705
▁worship	-10.705
▁feast	-10.705
▁caprice	-10.705
▁fudge	-10.705
▁sinister	-10.705
▁smiling	-10.705
▁employee	-10.705
▁upside	-10.705
▁riley	-10.705
▁riddle	-10.705
▁whatre	-10.705
▁chili	-10.705
▁chrissy	-10.705
▁federation	-10.705
▁miserable	-10.705
▁fox	-10.7051
▁identity	-10.7051
▁gear	-10.7051
▁contest	-10.7051
▁begun	-10.7051
▁seism	-10.7051
▁hamilton	-10.7051
▁static	-10.7052
▁loyalty	-10.7052
▁chasing	-10.7052
▁bait	-10.7052
▁trotter	-10.7052
▁harp	-10.7052
▁countries	-10.7052
▁childhood	-10.7052
▁jewelry	-10.7052
▁peak	-10.7052
▁zoo	-10.7052
▁identify	-10.7052
▁necessarily	-10.7052
▁sox	-10.7052
right	-10.7052
▁equality	-10.7053
▁mock	-10.7053
▁dug	-10.7053
▁fork	-10.7053
▁whatll	-10.7053
▁entry	-10.7053
▁worn	-10.7053
▁feature	-10.7053
▁bucket	-10.7053
▁declared	-10.7053
▁dedicated	-10.7053
▁raw	-10.7053
▁ellie	-10.7053
▁assist	-10.7054
▁daily	-10.7054
▁dating	-10.7054
▁poppa	-10.7054
▁distraction	-10.7054
▁robertson	-10.7054
▁lndian	-10.7055
▁terry	-10.7055
▁beal	-10.7055
▁glow	-10.7055
▁typical	-10.7055
▁weakness	-10.7055
▁reaction	-10.7055
▁bench	-10.7055
▁boil	-10.7056
▁upper	-10.7057
▁hous	-10.7057
▁middleton	-10.7057
▁drunken	-10.7057
▁slurp	-10.7058
▁argh	-10.7058
▁sincerely	-10.7058
▁gray	-10.706
tennis	-10.706
▁shillings	-10.7061
▁sup	-10.7061
eeh	-10.7061
▁federa	-10.7061
▁zay	-10.7062
▁exhausted	-10.7062
▁retired	-10.7062
▁facing	-10.7063
▁humanity	-10.7063
▁racing	-10.7063
▁fry	-10.7064
▁forgiveness	-10.7065
▁boot	-10.7065
▁acquire	-10.7066
▁popping	-10.7066
▁drummer	-10.7066
▁whore	-10.7066
▁mill	-10.7066
▁su	-10.7068
▁thumping	-10.7068
▁clothing	-10.7068
▁crunching	-10.7068
▁ticking	-10.7069
▁embarrassed	-10.707
▁of	-10.707
▁financial	-10.7072
▁toughest	-10.7072
▁coal	-10.7072
▁proposed	-10.7072
▁smashed	-10.7073
▁realise	-10.7074
▁rarely	-10.7076
▁ye	-10.7078
▁delivery	-10.7083
▁clue	-10.7083
▁corpse	-10.7084
▁spy	-10.7084
▁floating	-10.7085
▁leon	-10.7086
▁reasonable	-10.7087
▁separated	-10.7087
▁photographer	-10.7088
▁stinking	-10.7089
▁brighter	-10.7095
▁dope	-10.7096
▁provided	-10.7096
▁arranged	-10.7102
▁recognized	-10.7103
▁lobster	-10.7104
▁boxes	-10.7106
▁screwing	-10.7112
▁sweater	-10.7114
▁manny	-10.712
▁pus	-10.7121
▁simone	-10.7122
▁safer	-10.7124
▁shared	-10.7129
nows	-10.7132
▁automatic	-10.7139
▁ban	-10.7147
▁straighten	-10.715
▁lance	-10.715
▁freaking	-10.7154
▁shown	-10.7158
▁brandy	-10.7163
▁drown	-10.7163
▁listened	-10.7163
▁smaller	-10.7174
ko	-10.7175
▁concentrate	-10.7176
▁messy	-10.7177
▁roars	-10.7179
▁continued	-10.7193
ham	-10.7193
▁helpless	-10.7195
▁products	-10.7198
▁passengers	-10.7199
▁sniffs	-10.7203
▁imagined	-10.7209
youre	-10.7213
tial	-10.7214
▁filling	-10.722
▁pres	-10.7226
▁hunters	-10.723
▁climbing	-10.7236
▁rank	-10.7238
▁options	-10.7239
▁frogs	-10.724
vin	-10.7243
▁laughed	-10.7243
▁respected	-10.7244
lapping	-10.7253
kins	-10.7258
▁herbs	-10.7259
▁requires	-10.7259
▁sleeps	-10.727
▁packing	-10.7274
▁lads	-10.7277
▁eva	-10.7277
▁lifting	-10.7282
▁til	-10.7284
▁cor	-10.729
▁recorded	-10.7292
▁heights	-10.7299
▁saints	-10.7299
▁carl	-10.7299
▁considering	-10.7301
▁americas	-10.7302
▁awaken	-10.7304
gne	-10.7313
▁jamaicans	-10.7321
▁funk	-10.7322
ris	-10.7325
sum	-10.7327
▁fatal	-10.7328
▁enjoying	-10.7335
▁gus	-10.7347
▁neighbors	-10.738
▁banking	-10.7382
▁ants	-10.7387
ans	-10.7389
▁masks	-10.7398
▁cue	-10.7416
▁reporting	-10.7417
▁fixing	-10.7428
▁deadly	-10.7431
tor	-10.7436
▁gum	-10.7438
ial	-10.7441
unk	-10.7448
▁affairs	-10.746
▁struggl	-10.7464
▁sting	-10.7467
yes	-10.7492
▁dam	-10.7495
▁inc	-10.7495
cy	-10.7499
rt	-10.7524
port	-10.7536
▁rogers	-10.7542
▁joining	-10.7546
▁partners	-10.7561
▁adventures	-10.7562
sey	-10.7566
ists	-10.7599
▁dies	-10.7608
tan	-10.7627
com	-10.7642
▁lawyers	-10.7644
iro	-10.7654
els	-10.7662
▁swans	-10.7664
▁roses	-10.7664
▁hopes	-10.7666
▁mun	-10.7685
tel	-10.7687
▁mor	-10.7695
▁gangs	-10.7767
▁stan	-10.7798
bra	-10.7801
▁spa	-10.7827
▁appli	-10.783
▁sniff	-10.7841
his	-10.7875
▁hop	-10.7881
▁pins	-10.7881
▁ghosts	-10.7891
▁hid	-10.7893
▁actions	-10.7893
▁at	-10.7895
ik	-10.7899
▁ver	-10.7921
▁bas	-10.7936
▁handed	-10.7936
▁tables	-10.7953
▁regime	-10.7968
▁hen	-10.7973
lessly	-10.7979
pe	-10.7987
norm	-10.7988
ister	-10.7992
▁ro	-10.8003
▁fighter	-10.8004
▁finals	-10.8018
room	-10.8054
▁gin	-10.8061
▁maniac	-10.8065
▁costs	-10.8076
▁sides	-10.8099
▁stamp	-10.8102
▁attacks	-10.8107
▁ku	-10.8111
▁device	-10.8113
▁bullfighter	-10.8113
▁estate	-10.8121
▁cheek	-10.8121
▁rocket	-10.8123
▁li	-10.8123
▁knot	-10.8126
▁cent	-10.8128
▁curtain	-10.8128
▁jaw	-10.813
▁circle	-10.8131
▁mule	-10.8132
▁passenger	-10.8133
▁herd	-10.8137
▁label	-10.814
▁souls	-10.8141
▁noses	-10.8145
▁hay	-10.8154
king	-10.817
val	-10.8175
▁cock	-10.8177
▁fin	-10.8183
▁bond	-10.8188
▁babys	-10.8218
▁product	-10.8221
▁heal	-10.8223
▁writer	-10.8223
ought	-10.8225
▁critic	-10.8226
ility	-10.8232
▁z	-10.8233
▁talks	-10.8237
ki	-10.8237
▁employ	-10.8242
▁lean	-10.8252
▁burst	-10.8255
▁asks	-10.8258
▁uhh	-10.8259
▁biting	-10.8262
▁badge	-10.8262
ator	-10.8263
▁establish	-10.8264
▁select	-10.8265
▁accomplish	-10.8267
▁nurs	-10.8269
▁haunt	-10.8269
▁tuck	-10.8276
▁shave	-10.8282
lock	-10.8283
▁thirst	-10.8285
▁matt	-10.8285
▁uhuh	-10.8286
▁ultimate	-10.8286
▁teenage	-10.8294
▁rio	-10.8294
adios	-10.8298
▁virgin	-10.8298
▁attract	-10.8298
audible	-10.8298
▁fema	-10.8299
▁widow	-10.83
▁casual	-10.83
▁thirty	-10.83
▁musket	-10.83
▁bureau	-10.83
▁confusing	-10.83
▁convenient	-10.83
▁detergent	-10.83
▁peculiar	-10.83
▁schroeder	-10.83
▁unfair	-10.83
▁absurd	-10.83
▁amnesia	-10.83
▁andrea	-10.83
▁arkansas	-10.83
▁awkward	-10.83
▁behavior	-10.83
▁brenner	-10.83
▁calamity	-10.83
▁cavalry	-10.83
▁choir	-10.83
▁clermont	-10.83
▁combination	-10.83
▁companion	-10.83
▁confined	-10.83
▁congratulate	-10.83
▁crusade	-10.83
▁cunning	-10.83
▁delicate	-10.83
▁display	-10.83
▁dispose	-10.83
▁ellerbeck	-10.83
▁encounter	-10.83
▁excellency	-10.83
▁exploding	-10.83
▁false	-10.83
▁hallelujah	-10.83
▁hightower	-10.83
▁increase	-10.83
▁inevitable	-10.83
▁jouvet	-10.83
▁liberal	-10.83
▁liquid	-10.83
▁longeverne	-10.83
▁macailler	-10.83
▁mexican	-10.83
▁montepetra	-10.83
▁motorcycle	-10.83
▁norbert	-10.83
▁offense	-10.83
▁poverty	-10.83
▁precinct	-10.83
▁procedure	-10.83
▁pronounce	-10.83
▁pursuit	-10.83
▁rendezvous	-10.83
▁rochefort	-10.83
▁sauna	-10.83
▁savage	-10.83
▁spaniard	-10.83
▁tragedy	-10.83
▁trullinger	-10.83
▁underneath	-10.83
▁update	-10.83
▁valuable	-10.83
▁wardrobe	-10.83
▁zinoviev	-10.83
▁activities	-10.83
▁solar	-10.83
▁thoth	-10.83
▁lupus	-10.83
▁squash	-10.83
▁wilderness	-10.83
▁hiram	-10.83
▁luggage	-10.83
▁messenger	-10.83
▁stiff	-10.83
▁winnie	-10.83
▁dissent	-10.83
▁holler	-10.83
▁veil	-10.83
▁beware	-10.83
▁geologist	-10.83
▁greek	-10.83
▁macauley	-10.83
▁mossop	-10.83
▁explore	-10.83
▁beckwith	-10.83
▁funeral	-10.83
▁jingle	-10.83
▁mildred	-10.83
▁flesh	-10.83
▁perspective	-10.83
▁jenkins	-10.83
▁kumar	-10.83
▁referring	-10.83
▁underground	-10.83
▁debate	-10.83
▁graham	-10.83
▁lobby	-10.83
▁rudi	-10.83
▁perfume	-10.83
▁crystal	-10.83
▁frome	-10.83
▁integrity	-10.83
▁giddyup	-10.83
▁vava	-10.83
▁matrix	-10.83
▁panties	-10.83
▁vital	-10.83
▁alternative	-10.83
▁zoca	-10.83
▁destination	-10.83
▁frozen	-10.83
▁unconscious	-10.83
▁cleon	-10.83
▁seren	-10.83
▁assault	-10.83
▁northwest	-10.83
▁razor	-10.83
▁curious	-10.83
▁previous	-10.83
▁whiff	-10.83
▁discount	-10.83
▁chopped	-10.83
▁chef	-10.83
▁chemo	-10.83
▁gavin	-10.83
▁seville	-10.83
▁catherine	-10.83
▁overcome	-10.83
▁copyright	-10.83
▁sober	-10.83
▁deploy	-10.83
▁anchovies	-10.83
▁hornsby	-10.83
▁ambition	-10.83
▁massage	-10.8301
▁gayle	-10.8301
▁togo	-10.8301
▁peck	-10.8301
▁jeep	-10.8301
▁frequently	-10.8301
▁construct	-10.8301
▁bonnie	-10.8301
▁coupon	-10.8301
▁grenade	-10.8301
▁denis	-10.8301
▁romance	-10.8301
▁mitch	-10.8301
▁fuel	-10.8301
▁clayton	-10.8301
▁basis	-10.8301
▁tipton	-10.8302
▁wool	-10.8302
▁eternal	-10.8302
▁scientist	-10.8302
▁tripped	-10.8302
▁ashley	-10.8302
▁bham	-10.8302
▁saki	-10.8302
▁scarce	-10.8302
▁kung	-10.8302
▁dj	-10.8302
▁legendary	-10.8303
▁increasing	-10.8303
▁elected	-10.8303
▁sauce	-10.8303
▁chord	-10.8303
▁richardson	-10.8303
uz	-10.8303
▁crud	-10.8303
▁dignity	-10.8303
▁affection	-10.8303
▁soda	-10.8303
▁wrapped	-10.8303
▁depot	-10.8303
▁snickering	-10.8303
▁blitzer	-10.8303
▁sharing	-10.8303
▁secure	-10.8304
▁cooperative	-10.8304
▁whipping	-10.8304
▁selfish	-10.8305
▁laundry	-10.8305
▁theory	-10.8305
▁realistic	-10.8305
▁sammy	-10.8305
▁sulk	-10.8306
▁rv	-10.8306
▁amongst	-10.8306
▁lenin	-10.8306
▁margot	-10.8306
▁passage	-10.8306
▁package	-10.8306
▁fa	-10.8306
▁majester	-10.8307
▁neat	-10.8307
hearted	-10.8307
▁waited	-10.8307
▁copies	-10.8307
▁duh	-10.8307
▁appropriate	-10.8308
▁highway	-10.8309
▁inch	-10.8309
▁committed	-10.831
▁alley	-10.831
▁drill	-10.831
▁studies	-10.831
▁wheat	-10.8312
▁ahem	-10.8312
▁cabin	-10.8313
▁basement	-10.8313
▁hamlet	-10.8314
▁conduct	-10.8314
▁backyard	-10.8314
▁dull	-10.8315
▁vision	-10.8316
▁stray	-10.8316
▁witnesses	-10.8317
▁objection	-10.8317
▁revealed	-10.8318
▁hopefully	-10.8319
▁divided	-10.8319
▁speeches	-10.8319
▁onion	-10.8319
▁dime	-10.832
▁rice	-10.8323
▁mimic	-10.8324
▁robbing	-10.8324
▁speaker	-10.8325
▁version	-10.8325
▁thus	-10.8325
▁quote	-10.8327
▁lamp	-10.8328
▁pee	-10.833
▁col	-10.833
▁bridger	-10.833
▁divorced	-10.8331
▁pole	-10.8331
▁te	-10.8331
▁stunt	-10.8332
▁hitting	-10.8333
▁mistaken	-10.8333
▁consequences	-10.8334
▁merchants	-10.8334
▁rattlesnakes	-10.8334
▁bursting	-10.8346
▁leaning	-10.8346
▁removed	-10.8348
▁deserted	-10.8348
▁originally	-10.8348
▁impressed	-10.835
▁highp	-10.835
▁shy	-10.8351
▁biker	-10.8353
self	-10.8356
▁phillips	-10.8357
▁sleeve	-10.8357
▁spades	-10.8357
▁employer	-10.8357
▁backyeah	-10.8357
▁attempted	-10.836
▁lighten	-10.8361
▁tam	-10.8363
▁loudly	-10.8365
▁tempt	-10.8366
▁filly	-10.8371
▁growls	-10.8374
▁dearest	-10.8377
▁mustangs	-10.8379
▁ufos	-10.8379
▁brazilians	-10.8379
▁conditioned	-10.838
▁barks	-10.8381
▁smacking	-10.8382
▁scaring	-10.8386
▁mainly	-10.8387
card	-10.8392
▁gamble	-10.8395
▁wy	-10.8399
▁avoiding	-10.8401
▁patterns	-10.8402
▁peanuts	-10.8402
▁spinn	-10.8409
cre	-10.8413
▁ew	-10.8416
▁existed	-10.8419
▁gar	-10.842
▁suggested	-10.8422
▁closet	-10.8424
▁sailors	-10.8425
▁lap	-10.8428
▁fairly	-10.8434
▁communications	-10.8447
▁emotions	-10.8447
▁athletes	-10.8448
▁tasted	-10.8451
▁repeating	-10.8451
ini	-10.8456
▁nap	-10.8457
▁oneill	-10.8461
▁bb	-10.8463
▁stinks	-10.8464
▁kneel	-10.8464
tly	-10.8466
▁rd	-10.8467
▁funds	-10.847
▁urge	-10.847
▁stamps	-10.8471
▁stink	-10.8477
▁marching	-10.8482
▁orderly	-10.8484
▁waters	-10.8488
▁errors	-10.8493
▁discussing	-10.8494
▁hare	-10.8494
bre	-10.8503
▁liver	-10.8503
▁bd	-10.8504
▁listed	-10.8505
▁pat	-10.8516
▁ale	-10.8522
▁servants	-10.8539
▁sl	-10.8542
▁acted	-10.8544
mitted	-10.8546
▁yous	-10.8553
▁relaxed	-10.8559
▁fund	-10.856
▁camel	-10.856
lan	-10.8566
▁explained	-10.8578
▁skills	-10.8583
▁closely	-10.8598
▁feelin	-10.861
▁creeps	-10.8612
▁kip	-10.8615
▁nuns	-10.8631
▁naive	-10.8649
▁holds	-10.8655
▁char	-10.8656
▁deeds	-10.8657
▁sets	-10.8658
lor	-10.8659
ti	-10.8665
▁fame	-10.8671
▁severe	-10.8676
▁subjects	-10.8677
▁swords	-10.8677
zz	-10.869
▁misunderstand	-10.8691
▁issues	-10.87
▁cowards	-10.87
▁socialists	-10.87
ze	-10.8704
▁rolls	-10.8727
▁kissing	-10.873
rous	-10.8738
▁sounded	-10.8739
▁beautifully	-10.8744
▁apples	-10.8746
▁pools	-10.8747
▁gates	-10.8748
▁poster	-10.8754
▁seize	-10.8765
▁bikes	-10.877
▁landed	-10.8774
car	-10.8779
▁tails	-10.8789
▁waitin	-10.8808
▁lease	-10.8813
▁hail	-10.883
iege	-10.8835
▁tin	-10.8839
over	-10.8845
▁worker	-10.8848
serving	-10.886
▁ga	-10.886
ction	-10.8871
▁ken	-10.8877
ab	-10.8891
▁bra	-10.8926
▁stra	-10.8927
con	-10.8929
▁af	-10.8937
▁signing	-10.8952
▁cr	-10.8952
▁exists	-10.8962
vast	-10.8968
▁beats	-10.8969
ora	-10.8974
▁careless	-10.8976
agging	-10.8978
▁angels	-10.9004
▁wa	-10.9014
▁blocks	-10.9028
▁votes	-10.9055
ition	-10.9063
▁undo	-10.9092
▁damned	-10.9095
▁scarf	-10.9102
erson	-10.9123
gue	-10.9129
ap	-10.913
▁mol	-10.915
▁hai	-10.9159
▁bottles	-10.9168
pot	-10.9182
▁accounts	-10.9193
ire	-10.9196
▁trot	-10.9219
▁monsters	-10.924
▁persons	-10.9247
ye	-10.9248
bo	-10.9249
ants	-10.9258
per	-10.927
▁is	-10.9305
iy	-10.9347
sion	-10.9348
ound	-10.9358
▁que	-10.9359
▁elephants	-10.936
▁studios	-10.936
▁batt	-10.9366
ari	-10.9367
▁driven	-10.9368
▁hurting	-10.9374
ph	-10.9415
▁lands	-10.9421
▁breathes	-10.9424
▁za	-10.9429
▁lin	-10.9441
itched	-10.9455
▁remark	-10.9457
ler	-10.9464
▁mort	-10.9468
gy	-10.947
▁concept	-10.9476
aw	-10.9494
▁review	-10.9501
▁profit	-10.9517
▁indicate	-10.9519
▁roar	-10.952
▁float	-10.9522
put	-10.9526
▁edit	-10.9534
▁knocks	-10.9534
ong	-10.9536
▁traitor	-10.9541
▁depth	-10.9541
▁costume	-10.9541
▁martha	-10.9541
▁villain	-10.9542
▁parrot	-10.9545
▁politician	-10.9554
ink	-10.9554
▁turtle	-10.9554
▁emotion	-10.9555
▁recipe	-10.9555
▁muffin	-10.9559
▁twit	-10.9559
▁candle	-10.9559
called	-10.956
▁athlete	-10.9562
▁merci	-10.9563
▁instruction	-10.9565
▁degree	-10.9566
ied	-10.9566
▁acre	-10.9569
fi	-10.9569
▁parent	-10.957
▁communication	-10.957
▁incredibl	-10.957
▁chuckle	-10.9573
▁brace	-10.9577
▁oop	-10.9578
▁lip	-10.9579
ished	-10.9592
▁mines	-10.9592
▁poi	-10.9608
▁exp	-10.9612
ezmoi	-10.9612
▁prisoner	-10.9621
▁sm	-10.9625
ripe	-10.9625
▁differences	-10.9626
cat	-10.9626
▁tests	-10.9628
ave	-10.9636
ull	-10.9637
night	-10.9638
▁approach	-10.9644
▁disturb	-10.9649
▁todd	-10.9649
fire	-10.9649
▁cro	-10.9653
▁demon	-10.9658
▁ph	-10.966
ome	-10.9674
▁foods	-10.9675
▁clink	-10.968
▁greet	-10.9682
qui	-10.9684
ole	-10.9686
point	-10.9686
standing	-10.9691
write	-10.9691
▁connect	-10.9693
▁her	-10.9693
dont	-10.9694
▁residen	-10.9694
▁develop	-10.9695
▁confirm	-10.9697
▁smash	-10.9698
▁cancel	-10.9698
▁frighten	-10.97
▁shatter	-10.9701
▁ohhh	-10.9702
oid	-10.9707
▁grind	-10.9707
▁achieve	-10.9707
▁solve	-10.971
▁howl	-10.9711
▁meter	-10.9713
▁organize	-10.9714
▁weigh	-10.9718
▁elder	-10.9721
▁mamma	-10.9722
▁origin	-10.9722
▁react	-10.9724
▁depart	-10.9724
▁disagree	-10.9725
▁yea	-10.9725
▁hart	-10.9726
▁scienti	-10.9726
▁adopt	-10.9726
▁web	-10.9726
▁compass	-10.9727
ible	-10.9727
▁civil	-10.9728
▁serpent	-10.9728
▁pow	-10.9728
▁confident	-10.9728
▁forbid	-10.9728
▁solemn	-10.9728
▁abigail	-10.9728
▁bastille	-10.9728
▁behalf	-10.9728
▁believing	-10.9728
▁bicycle	-10.9728
▁bizarre	-10.9728
▁bordeaux	-10.9728
▁brenda	-10.9728
▁brezhnev	-10.9728
▁buddha	-10.9728
▁calgary	-10.9728
▁carpenter	-10.9728
▁challenging	-10.9728
▁clacking	-10.9728
▁companies	-10.9728
▁contempt	-10.9728
▁credentials	-10.9728
▁curiosity	-10.9728
▁cycle	-10.9728
▁dictabelt	-10.9728
▁dinosaur	-10.9728
▁dispatch	-10.9728
▁eleanore	-10.9728
▁eleven	-10.9728
▁emptied	-10.9728
▁exchange	-10.9728
▁explode	-10.9728
▁fletcher	-10.9728
▁forgave	-10.9728
▁furniture	-10.9728
▁gabriel	-10.9728
▁guidance	-10.9728
▁happier	-10.9728
▁hooray	-10.9728
▁immortal	-10.9728
▁industry	-10.9728
▁innocence	-10.9728
▁judging	-10.9728
▁kansas	-10.9728
▁levine	-10.9728
▁literature	-10.9728
▁lugash	-10.9728
▁lumberjack	-10.9728
▁maximillius	-10.9728
▁mclean	-10.9728
▁nicole	-10.9728
▁oldfashioned	-10.9728
▁opponent	-10.9728
▁oxgodby	-10.9728
▁paralympics	-10.9728
▁petrograd	-10.9728
▁pheasant	-10.9728
▁planchet	-10.9728
▁platform	-10.9728
▁prime	-10.9728
▁prophecy	-10.9728
▁proposal	-10.9728
▁puppet	-10.9728
▁raft	-10.9728
▁rebuild	-10.9728
▁regatta	-10.9728
▁relevant	-10.9728
▁respond	-10.9728
▁rupert	-10.9728
▁saknussemm	-10.9728
▁scotland	-10.9728
▁sepp	-10.9728
▁seppala	-10.9728
▁sneffels	-10.9728
▁soccer	-10.9728
▁sophisticat	-10.9728
▁striking	-10.9728
▁surviving	-10.9728
▁technology	-10.9728
▁tribute	-10.9728
▁umbrella	-10.9728
▁underwear	-10.9728
▁vatican	-10.9728
▁vineyard	-10.9728
▁volume	-10.9728
▁zamora	-10.9728
▁deputy	-10.9728
▁flirt	-10.9728
▁gibber	-10.9728
▁location	-10.9728
▁regain	-10.9728
▁robbed	-10.9728
▁survey	-10.9728
▁whatsoever	-10.9728
▁conceal	-10.9728
▁inferior	-10.9728
▁noticing	-10.9728
▁decree	-10.9728
▁madrid	-10.9728
▁nicholai	-10.9728
▁statistic	-10.9728
▁token	-10.9728
▁doodle	-10.9728
▁whims	-10.9728
▁amber	-10.9728
▁behold	-10.9728
▁brutal	-10.9728
▁nanna	-10.9728
▁fridge	-10.9728
▁scheme	-10.9728
▁feather	-10.9728
▁tutor	-10.9728
▁exhibition	-10.9728
▁occupation	-10.9728
▁drift	-10.9728
▁andand	-10.9728
▁frame	-10.9728
▁robotics	-10.9728
▁entrance	-10.9728
▁duane	-10.9728
▁graveyard	-10.9728
▁communism	-10.9728
▁authorities	-10.9729
▁roast	-10.9729
▁narrow	-10.9729
▁execution	-10.9729
▁content	-10.9729
▁kiog	-10.9729
▁senate	-10.9729
▁grasp	-10.9729
▁inlaws	-10.9729
▁compliment	-10.9729
▁handwriting	-10.9729
▁pushcart	-10.9729
▁repay	-10.9729
▁cissy	-10.9729
▁crane	-10.9729
▁blog	-10.9729
▁sheba	-10.9729
▁colby	-10.9729
▁blaine	-10.9729
▁population	-10.9729
▁outrageous	-10.9729
▁blank	-10.9729
▁organization	-10.9729
▁mudde	-10.9729
▁membership	-10.9729
▁disturbance	-10.9729
▁bert	-10.9729
▁torn	-10.9729
▁poem	-10.9729
▁festive	-10.9729
▁pathetic	-10.9729
▁shack	-10.9729
▁unknown	-10.9729
▁swap	-10.9729
▁institute	-10.9729
▁keating	-10.9729
▁desc	-10.9729
▁dodge	-10.973
▁yoshi	-10.973
▁meow	-10.973
▁alpha	-10.973
▁byron	-10.973
▁gascon	-10.973
▁luis	-10.973
▁raid	-10.973
▁torches	-10.973
▁gracious	-10.973
▁pony	-10.973
▁combat	-10.973
▁anticipated	-10.973
▁invention	-10.973
▁qualified	-10.973
▁wax	-10.973
▁luckily	-10.973
▁luciana	-10.973
▁slash	-10.973
▁involvement	-10.973
▁lazy	-10.973
▁fab	-10.973
▁diary	-10.9731
▁internal	-10.9731
▁perky	-10.9731
▁installment	-10.9731
▁loco	-10.9731
▁alex	-10.9731
▁embrace	-10.9731
▁virtue	-10.9731
▁scarlet	-10.9731
▁technically	-10.9731
▁gigant	-10.9732
▁leaf	-10.9732
▁marilyn	-10.9732
▁murphy	-10.9732
▁sylvia	-10.9732
▁wealth	-10.9732
▁tide	-10.9732
▁chittering	-10.9732
▁snarling	-10.9732
▁ridge	-10.9732
▁roon	-10.9732
▁indi	-10.9733
▁diesel	-10.9733
▁travelling	-10.9733
▁priority	-10.9733
▁drought	-10.9733
▁invader	-10.9733
▁graduate	-10.9733
▁sundown	-10.9733
▁dose	-10.9733
▁maintain	-10.9733
▁stennis	-10.9733
▁benton	-10.9734
▁dice	-10.9734
▁cheerful	-10.9735
▁bonus	-10.9735
▁jab	-10.9735
▁allowance	-10.9735
▁footage	-10.9735
▁complex	-10.9736
▁fitting	-10.9736
▁grandson	-10.9736
▁pussy	-10.9736
▁define	-10.9736
▁accidentally	-10.9737
▁swore	-10.9737
▁chamber	-10.9738
▁lilies	-10.9738
▁allies	-10.9738
▁frenchmen	-10.9738
▁pub	-10.9738
▁largest	-10.9738
▁comply	-10.9738
▁fatherinlaw	-10.9739
▁murmuring	-10.9739
▁hup	-10.9739
▁constantly	-10.974
▁collar	-10.974
▁dandy	-10.974
▁drew	-10.974
▁quitter	-10.9741
▁bury	-10.9742
▁chopper	-10.9743
▁harrison	-10.9743
▁pokey	-10.9744
▁province	-10.9745
▁instructed	-10.9745
▁nailed	-10.9746
▁mud	-10.9746
▁peel	-10.9747
▁pla	-10.9748
▁willie	-10.9748
▁puffer	-10.9749
▁solved	-10.9749
▁johnson	-10.975
▁angela	-10.975
▁sickness	-10.9752
▁fist	-10.9755
▁fairies	-10.9756
▁cia	-10.9758
▁burp	-10.9759
▁confirmed	-10.9759
▁disturbed	-10.976
▁produce	-10.976
▁breeding	-10.976
▁stammering	-10.976
revolutionaries	-10.976
▁eighth	-10.9761
▁brandon	-10.9761
▁spoon	-10.9761
▁fleet	-10.9761
▁daylight	-10.9762
▁bored	-10.9762
▁larger	-10.9762
▁lake	-10.9763
▁ashes	-10.9764
▁threatening	-10.9764
▁replaced	-10.9765
▁worthless	-10.9766
▁mushrooms	-10.9768
▁gymnasts	-10.9769
▁moors	-10.977
▁greed	-10.977
▁policeman	-10.9772
▁hmmm	-10.9772
▁tying	-10.9774
▁developed	-10.9775
▁mikey	-10.9776
▁produced	-10.9779
▁didi	-10.978
▁insisted	-10.9784
▁dreadful	-10.9787
ula	-10.9789
▁disappearing	-10.979
▁recovered	-10.9793
▁iim	-10.9794
▁fer	-10.9794
▁fingerprints	-10.9795
▁knuckles	-10.9795
▁ellis	-10.9795
▁worms	-10.9795
▁charts	-10.9796
▁steering	-10.9796
ven	-10.9796
▁bending	-10.9796
▁queens	-10.9797
▁sling	-10.9797
▁insulted	-10.9798
▁bandits	-10.9798
▁confession	-10.98
▁debt	-10.9801
▁williams	-10.9802
▁assured	-10.9804
▁ford	-10.9804
▁spite	-10.9808
▁va	-10.981
▁engineering	-10.9819
▁teammates	-10.9823
▁entered	-10.9823
▁rebels	-10.9824
▁scratching	-10.9824
▁shocked	-10.9827
▁hardest	-10.9831
▁ty	-10.9832
▁gut	-10.9843
temporar	-10.9845
ach	-10.9846
▁requested	-10.9846
▁bru	-10.9848
▁shouts	-10.9848
nes	-10.9849
▁explains	-10.9851
▁experienced	-10.9854
uv	-10.9855
▁porter	-10.9855
▁tons	-10.9856
ker	-10.9858
▁roller	-10.9859
▁honesty	-10.986
▁pushy	-10.9861
▁walkin	-10.9866
▁bubbles	-10.9871
▁nd	-10.9872
▁pale	-10.9874
▁roots	-10.9875
▁swinging	-10.9878
▁counts	-10.9879
▁bees	-10.988
▁scored	-10.9883
▁he	-10.9887
▁surfing	-10.989
▁marri	-10.9894
▁presently	-10.9895
▁candles	-10.99
▁twits	-10.99
uld	-10.9903
▁scan	-10.991
▁colt	-10.9917
▁mules	-10.9927
▁circles	-10.9931
▁disco	-10.9931
▁lifted	-10.9934
▁snort	-10.9943
▁torture	-10.9948
▁nazis	-10.9954
ept	-10.9954
ks	-10.9957
▁comedy	-10.9966
▁fuller	-10.9971
▁measures	-10.9982
▁occasions	-10.9988
▁aura	-10.999
ich	-10.999
▁arguments	-11.0007
▁principles	-11.0007
▁rumors	-11.0007
▁squeaks	-11.0008
ove	-11.0013
▁bid	-11.0017
▁drawer	-11.0018
▁planes	-11.0023
▁ingredients	-11.0034
rock	-11.0035
▁melt	-11.0049
▁stripp	-11.0059
▁morons	-11.006
▁customers	-11.0062
▁kissed	-11.0073
not	-11.0078
▁nicer	-11.0086
▁lovers	-11.0108
▁pea	-11.0133
▁dive	-11.0134
ja	-11.0141
▁effects	-11.0141
▁wounds	-11.0142
ative	-11.0153
▁karat	-11.0157
▁goose	-11.0168
▁shal	-11.0176
lit	-11.018
▁cooperat	-11.0183
▁condo	-11.0184
▁damages	-11.0195
▁desires	-11.0195
▁claims	-11.0196
▁realm	-11.0197
▁trusted	-11.0199
▁waiter	-11.024
eye	-11.0251
ake	-11.0253
▁shi	-11.0258
▁to	-11.0274
▁knights	-11.0276
▁criminals	-11.0277
▁godmothers	-11.0277
▁sins	-11.0281
▁sticking	-11.0286
▁faced	-11.0287
lt	-11.0287
▁equals	-11.0303
▁restaurants	-11.0304
▁maps	-11.0304
▁eats	-11.0306
▁papas	-11.0319
▁christians	-11.0331
▁finishing	-11.0331
▁iti	-11.0333
▁spe	-11.0336
▁wage	-11.035
rit	-11.0351
▁straw	-11.0356
berries	-11.039
▁savings	-11.0413
▁efforts	-11.0413
▁slo	-11.0417
ight	-11.0423
▁ink	-11.0441
▁kindly	-11.045
poo	-11.0462
▁millers	-11.0472
▁hem	-11.0475
▁blues	-11.0477
▁masters	-11.0477
fortunately	-11.048
▁schools	-11.0493
▁priests	-11.0495
▁womens	-11.0499
termination	-11.0508
▁ward	-11.0514
▁pointed	-11.0531
▁distan	-11.054
▁interests	-11.0556
▁smiles	-11.0578
coming	-11.0586
stone	-11.0588
ust	-11.0601
▁owners	-11.0603
▁jets	-11.0606
▁greater	-11.0633
▁del	-11.064
▁hairs	-11.0657
▁sen	-11.0658
▁toe	-11.0661
den	-11.068
sta	-11.0702
▁cameras	-11.0717
▁here	-11.0732
▁patri	-11.0738
ppy	-11.0743
▁victor	-11.0753
hony	-11.076
▁gardens	-11.0774
ving	-11.078
▁seas	-11.08
za	-11.0806
▁gra	-11.0812
ically	-11.0812
▁render	-11.0826
▁locks	-11.0826
▁pana	-11.0858
▁hike	-11.0867
og	-11.087
▁poke	-11.0877
▁wakes	-11.0881
▁scores	-11.0881
uh	-11.09
erial	-11.0911
zi	-11.0916
▁continu	-11.093
rai	-11.0932
ened	-11.0956
▁resting	-11.0966
ita	-11.0969
icle	-11.0971
▁spirits	-11.0974
ile	-11.0986
▁reds	-11.0988
▁injun	-11.099
▁groups	-11.099
▁commit	-11.0995
▁ton	-11.1036
ppu	-11.1043
▁aha	-11.1048
fu	-11.1053
▁bud	-11.1064
▁yah	-11.1072
back	-11.1076
▁memor	-11.1094
▁vers	-11.1109
eezing	-11.1138
hand	-11.1139
▁depend	-11.1152
▁robo	-11.1154
▁produc	-11.1157
▁ann	-11.1168
ets	-11.117
▁root	-11.1175
▁stations	-11.1198
▁motor	-11.1205
▁valid	-11.1206
▁rum	-11.1207
▁muslim	-11.1208
▁pearl	-11.1208
▁snack	-11.1208
▁gasp	-11.1209
ever	-11.1209
▁mechanic	-11.121
▁occur	-11.1212
▁culture	-11.1212
▁chapter	-11.1212
▁melon	-11.1213
▁cupcake	-11.1216
▁tshirt	-11.1216
▁decade	-11.1217
▁transcript	-11.1218
mat	-11.1218
▁surgeon	-11.1221
▁helmet	-11.1221
▁blade	-11.1222
▁newspaper	-11.1222
▁bee	-11.1223
▁temperature	-11.1224
▁tool	-11.1224
▁slice	-11.1225
▁positions	-11.1225
▁glove	-11.1226
▁brook	-11.1228
▁arrangement	-11.1228
▁insect	-11.1229
▁grape	-11.123
▁sailor	-11.1232
▁cricket	-11.1232
▁chipmunk	-11.1233
▁visitor	-11.1236
▁sock	-11.1237
vious	-11.124
▁robe	-11.1243
▁thinkin	-11.125
▁tan	-11.1254
▁stable	-11.1255
▁homes	-11.1256
▁pill	-11.126
▁rap	-11.1264
etic	-11.1267
▁gamb	-11.1272
▁ste	-11.1273
▁sis	-11.1276
▁cla	-11.1296
▁stomp	-11.1298
▁fad	-11.1298
eating	-11.1308
▁abandon	-11.1313
bel	-11.1317
▁embarrass	-11.1318
▁ignor	-11.1319
arch	-11.1325
▁acts	-11.1334
promising	-11.1336
ado	-11.134
▁satisfy	-11.1346
▁clamor	-11.1349
▁screech	-11.1352
spite	-11.1357
crown	-11.1357
pipe	-11.1357
free	-11.1357
mouth	-11.1358
together	-11.1358
okay	-11.1359
lighten	-11.1359
▁convert	-11.136
bar	-11.136
▁swamp	-11.1361
burn	-11.1362
▁punish	-11.1362
▁piss	-11.1363
▁betray	-11.1363
▁flee	-11.1365
▁spill	-11.1365
inlaw	-11.1367
amp	-11.1368
▁vanish	-11.1369
hood	-11.1369
▁unlock	-11.137
▁deaf	-11.1372
▁twitch	-11.1374
▁cub	-11.1375
▁approve	-11.1375
▁associate	-11.1376
▁impress	-11.1378
▁frost	-11.1381
▁rug	-11.1382
▁constant	-11.1382
▁valle	-11.1382
▁bunt	-11.1382
▁absolute	-11.1383
▁clair	-11.1383
▁keen	-11.1385
nard	-11.1385
▁lndia	-11.1387
▁forsake	-11.1389
▁infant	-11.139
▁limb	-11.1391
▁squirt	-11.1393
▁industrial	-11.1394
▁dentist	-11.1394
▁egypt	-11.1394
▁favour	-11.1395
▁euro	-11.1395
▁protest	-11.1395
▁drei	-11.1395
▁environment	-11.1395
▁ignit	-11.1395
conceivable	-11.1395
▁accountancy	-11.1395
▁acquaintance	-11.1395
▁agenda	-11.1395
▁airstrip	-11.1395
▁amsterdam	-11.1395
▁artillery	-11.1395
▁aspirin	-11.1395
▁awhile	-11.1395
▁bailiff	-11.1395
▁beanstalk	-11.1395
▁bistro	-11.1395
▁brito	-11.1395
▁capacity	-11.1395
▁carlisle	-11.1395
▁caviar	-11.1395
▁cecilia	-11.1395
▁celeste	-11.1395
▁ceramic	-11.1395
▁charizard	-11.1395
▁cheasel	-11.1395
▁concussion	-11.1395
▁conflict	-11.1395
▁conspiracy	-11.1395
▁convincing	-11.1395
▁crescent	-11.1395
▁crosscountry	-11.1395
▁curfew	-11.1395
▁cynthia	-11.1395
▁deceive	-11.1395
▁democrat	-11.1395
▁dennis	-11.1395
▁despair	-11.1395
▁diwedi	-11.1395
▁doady	-11.1395
▁dysfunctional	-11.1395
▁economy	-11.1395
▁edmund	-11.1395
▁ehrlichman	-11.1395
▁elbow	-11.1395
▁emiko	-11.1395
▁emptiness	-11.1395
▁enthusiasm	-11.1395
▁exotic	-11.1395
▁exquisite	-11.1395
▁fascist	-11.1395
▁fragile	-11.1395
▁griba	-11.1395
▁happiest	-11.1395
▁hercule	-11.1395
▁injustice	-11.1395
▁intact	-11.1395
▁jerusalem	-11.1395
▁jinnah	-11.1395
▁julius	-11.1395
▁lounge	-11.1395
▁lucille	-11.1395
▁metaphor	-11.1395
▁microphone	-11.1395
▁moravietti	-11.1395
▁nigel	-11.1395
▁ochopee	-11.1395
▁phiibin	-11.1395
▁policies	-11.1395
▁possibilities	-11.1395
▁purge	-11.1395
▁pursue	-11.1395
▁qualities	-11.1395
▁quarrel	-11.1395
▁rachel	-11.1395
▁rafferty	-11.1395
▁raphael	-11.1395
▁rascal	-11.1395
▁reception	-11.1395
▁reject	-11.1395
▁resources	-11.1395
▁rocinante	-11.1395
▁rooster	-11.1395
▁salinas	-11.1395
▁satellite	-11.1395
▁senior	-11.1395
▁sharrief	-11.1395
▁sidney	-11.1395
▁significant	-11.1395
▁slogan	-11.1395
▁sloopy	-11.1395
▁spectacular	-11.1395
▁splattering	-11.1395
▁squire	-11.1395
▁squirrel	-11.1395
▁starkfield	-11.1395
▁submarine	-11.1395
▁suspicion	-11.1395
▁sverre	-11.1395
▁thiago	-11.1395
▁thieves	-11.1395
▁thread	-11.1395
▁tolerate	-11.1395
▁treason	-11.1395
▁unpack	-11.1395
▁upgrade	-11.1395
▁vitamins	-11.1395
▁winslow	-11.1395
▁wrench	-11.1395
▁zwei	-11.1395
▁characteristics	-11.1395
▁concertina	-11.1395
▁convict	-11.1395
▁doggone	-11.1395
▁gratitude	-11.1395
▁herbert	-11.1395
▁irene	-11.1395
▁jonas	-11.1395
▁lantern	-11.1395
▁risner	-11.1395
▁surveillance	-11.1395
▁treacher	-11.1395
▁cartoon	-11.1395
▁disabled	-11.1395
▁glorious	-11.1395
▁jolly	-11.1395
▁amein	-11.1395
▁daft	-11.1395
▁flynn	-11.1395
▁modest	-11.1395
▁panicked	-11.1395
▁raynor	-11.1395
▁ernie	-11.1395
▁causing	-11.1395
▁josh	-11.1395
▁jubilee	-11.1395
▁laura	-11.1395
▁salmonella	-11.1395
▁yuko	-11.1395
▁frolic	-11.1395
▁jingling	-11.1395
▁maneuvers	-11.1395
▁marijuana	-11.1395
▁mazzola	-11.1395
▁deuce	-11.1395
▁offshore	-11.1395
▁higgins	-11.1395
▁prophet	-11.1395
▁donald	-11.1395
▁gauche	-11.1395
▁baku	-11.1395
▁sludge	-11.1395
▁craving	-11.1395
▁fireworks	-11.1395
▁racial	-11.1395
▁stump	-11.1395
▁wolves	-11.1395
▁bennet	-11.1395
▁simonsson	-11.1395
▁eternity	-11.1395
▁refrigerator	-11.1395
▁eliminate	-11.1395
▁persistent	-11.1395
▁broadcast	-11.1395
▁canada	-11.1395
▁discharge	-11.1395
▁introduction	-11.1395
▁summary	-11.1395
▁trimble	-11.1395
▁clark	-11.1395
▁creative	-11.1395
▁favourite	-11.1395
ficial	-11.1395
▁aaaa	-11.1395
▁flittin	-11.1395
▁kidnapping	-11.1395
▁stalk	-11.1395
▁fright	-11.1395
▁macho	-11.1395
▁profound	-11.1395
▁wives	-11.1395
▁pension	-11.1395
▁grill	-11.1395
▁psst	-11.1395
piration	-11.1395
▁candidate	-11.1395
▁slay	-11.1395
▁volcano	-11.1395
▁michelson	-11.1395
▁croak	-11.1395
▁historical	-11.1395
▁collaboration	-11.1395
▁burke	-11.1395
▁fantan	-11.1395
▁foolproof	-11.1395
▁giris	-11.1395
▁confusion	-11.1396
▁hamburger	-11.1396
▁grim	-11.1396
▁bugger	-11.1396
▁cluck	-11.1396
▁rubble	-11.1396
▁status	-11.1396
▁sensation	-11.1396
▁plato	-11.1396
▁harvey	-11.1396
▁belgian	-11.1396
▁charro	-11.1396
▁psychiatrist	-11.1396
▁circus	-11.1396
▁aircraft	-11.1396
▁eins	-11.1396
▁gambling	-11.1396
▁feola	-11.1396
▁monitor	-11.1396
▁scold	-11.1396
▁bald	-11.1396
▁ketchum	-11.1396
▁gday	-11.1396
▁gutter	-11.1396
▁motel	-11.1396
▁broadway	-11.1396
▁gallon	-11.1396
▁robberies	-11.1396
▁therapy	-11.1396
▁subtle	-11.1397
▁subway	-11.1397
▁investment	-11.1397
▁gutting	-11.1397
▁trout	-11.1397
▁hesitate	-11.1397
▁factories	-11.1397
▁chaos	-11.1397
▁sample	-11.1397
▁backwards	-11.1397
▁sympathy	-11.1397
▁maze	-11.1397
▁mining	-11.1397
▁passionate	-11.1397
▁raising	-11.1397
▁tremble	-11.1397
▁furthe	-11.1397
▁paperwork	-11.1397
▁harvest	-11.1397
▁conductor	-11.1397
▁gert	-11.1397
▁fireplace	-11.1397
▁construction	-11.1397
▁bobsledder	-11.1398
▁blueback	-11.1398
idge	-11.1398
▁tomatoes	-11.1398
▁misled	-11.1398
▁daba	-11.1398
▁motorist	-11.1398
▁leadership	-11.1399
▁classroom	-11.1399
▁moonlight	-11.1399
▁enthusiastic	-11.1399
▁obstruct	-11.1399
▁pulse	-11.1399
▁travelled	-11.1399
▁conquer	-11.1399
▁chivalry	-11.1399
▁strategy	-11.1399
▁burden	-11.1399
▁royalty	-11.1399
▁gunfire	-11.1399
▁henri	-11.1399
▁nora	-11.14
▁advertising	-11.14
▁applauding	-11.14
▁hound	-11.14
▁faust	-11.14
▁fiddler	-11.14
▁ross	-11.14
▁guardian	-11.14
▁establishment	-11.14
▁grownup	-11.14
▁churchill	-11.14
▁troll	-11.14
▁invaded	-11.1401
▁doggy	-11.1402
▁tailor	-11.1402
▁appearance	-11.1402
▁mustache	-11.1402
▁summerlin	-11.1402
▁whitewood	-11.1402
▁allen	-11.1403
▁presidential	-11.1403
▁booth	-11.1403
▁auguste	-11.1403
▁slightest	-11.1404
▁breakdown	-11.1404
▁rodeo	-11.1404
▁corporation	-11.1404
▁colo	-11.1405
▁owned	-11.1405
▁bail	-11.1405
▁horseback	-11.1406
▁bloom	-11.1406
▁aagh	-11.1406
▁guer	-11.1406
▁crank	-11.1407
▁retain	-11.1407
▁ag	-11.1407
▁regional	-11.1407
▁tov	-11.1407
▁depressing	-11.1408
▁gently	-11.1408
▁taik	-11.1409
▁chute	-11.1409
▁hamster	-11.1409
▁machinery	-11.1409
artes	-11.1409
▁punches	-11.141
▁twitchy	-11.141
▁imbecile	-11.141
▁ndr	-11.1411
▁clip	-11.1412
▁childish	-11.1412
▁plead	-11.1412
▁corbetts	-11.1413
▁pamphlets	-11.1413
▁survivors	-11.1413
▁standard	-11.1413
oud	-11.1413
▁loaf	-11.1413
▁taxes	-11.1413
▁darn	-11.1413
▁tia	-11.1414
▁invested	-11.1415
▁scatter	-11.1415
▁quitting	-11.1415
▁regimen	-11.1416
▁sadness	-11.1417
▁riot	-11.1417
▁pledge	-11.1417
▁scraping	-11.1418
▁juliet	-11.1418
▁achieved	-11.1419
▁exit	-11.1421
▁doomed	-11.1421
▁fulfilled	-11.1421
▁yang	-11.1422
▁barry	-11.1422
▁freezer	-11.1422
▁approved	-11.1423
▁armory	-11.1424
▁joust	-11.1425
▁july	-11.1425
▁wander	-11.1426
▁betrayed	-11.1426
▁unlocked	-11.1426
ture	-11.1427
▁jiggl	-11.1428
▁pitcher	-11.1428
▁starved	-11.1431
▁antie	-11.1432
▁cured	-11.1432
▁rah	-11.1432
▁honks	-11.1433
▁paula	-11.1433
▁creepy	-11.1433
working	-11.1433
▁dip	-11.1434
▁accountant	-11.1434
▁sincere	-11.1434
▁sentenced	-11.1435
▁required	-11.1435
▁currently	-11.1436
▁resident	-11.1437
▁haunted	-11.1438
▁established	-11.1438
▁mic	-11.144
▁sexy	-11.1441
▁arriv	-11.1441
▁wade	-11.1441
▁arriving	-11.1441
▁clamoring	-11.1442
▁peasants	-11.1443
▁snails	-11.1443
▁relations	-11.1443
▁bubble	-11.1444
▁carla	-11.1444
▁lungs	-11.1445
▁restless	-11.1447
▁robbins	-11.1447
▁jackson	-11.1448
▁whooping	-11.1449
oming	-11.1452
▁operate	-11.1452
hole	-11.1453
▁silk	-11.1454
shing	-11.1455
▁sable	-11.1457
▁forgiven	-11.1458
▁tuned	-11.1458
chal	-11.146
▁witches	-11.1463
▁ignored	-11.1463
▁fuzz	-11.1468
▁fled	-11.1468
▁directed	-11.1473
▁prema	-11.1473
▁blackmailed	-11.1473
▁exams	-11.1474
▁ines	-11.1474
▁whales	-11.1475
▁billion	-11.1475
▁drawing	-11.1476
▁daytime	-11.1477
▁rollin	-11.1478
▁bella	-11.1478
▁talented	-11.1479
▁hint	-11.1483
▁badger	-11.1484
▁spared	-11.1485
▁pouring	-11.1485
▁wounded	-11.1485
▁joint	-11.1489
▁exception	-11.149
▁focused	-11.149
▁ace	-11.1491
▁rein	-11.1492
▁shin	-11.1495
wing	-11.1498
▁reign	-11.1499
▁miners	-11.1501
▁dancer	-11.1501
▁manicur	-11.1505
▁kidneys	-11.1506
▁landlords	-11.1506
▁articles	-11.1506
▁tourists	-11.1507
▁producers	-11.151
▁difficulty	-11.151
▁stutter	-11.1514
▁divers	-11.1515
▁sucking	-11.152
▁liter	-11.1526
▁dreamin	-11.1535
▁dreamt	-11.1536
▁mancha	-11.1536
▁greetings	-11.1537
liance	-11.1543
▁planted	-11.1545
▁settler	-11.1547
earing	-11.1548
ji	-11.1556
▁perch	-11.1558
▁pretending	-11.1562
▁tools	-11.1569
▁gloves	-11.1569
▁temperatures	-11.1569
▁tricked	-11.1569
▁stables	-11.1569
▁arrangements	-11.1569
▁drawings	-11.1569
row	-11.1577
▁discussed	-11.1577
▁lang	-11.1578
▁diet	-11.158
▁wit	-11.1582
▁ge	-11.1587
ncer	-11.159
▁gro	-11.1592
▁muffins	-11.1601
▁camps	-11.1603
rried	-11.1604
ient	-11.1619
going	-11.1625
▁rely	-11.1628
▁bonds	-11.1633
▁curtains	-11.1633
▁labels	-11.1633
▁moral	-11.1635
▁services	-11.1638
ville	-11.1648
▁writers	-11.1652
▁ranks	-11.1653
nne	-11.1655
▁semi	-11.1661
▁monkeys	-11.1665
▁gowns	-11.1665
▁pits	-11.1665
▁squeals	-11.1666
▁supporting	-11.1675
▁trad	-11.1678
theft	-11.1682
▁zo	-11.1689
▁cousins	-11.1697
▁crows	-11.1698
▁promot	-11.1703
gging	-11.1709
▁fees	-11.1716
sha	-11.1724
▁clients	-11.1729
▁soviets	-11.1729
▁swells	-11.173
▁shifts	-11.1735
relli	-11.1741
▁mist	-11.1742
▁locking	-11.1742
▁bolt	-11.1751
▁graceful	-11.1752
▁bent	-11.1752
▁capt	-11.1753
▁carve	-11.1759
▁generations	-11.1761
▁jerks	-11.1762
▁protecting	-11.1764
▁gent	-11.1764
een	-11.1764
▁admire	-11.1788
▁reported	-11.1791
▁pickle	-11.1793
▁leagues	-11.1793
▁shirts	-11.1793
ax	-11.1794
more	-11.1795
▁coco	-11.1816
▁sil	-11.1818
▁dinners	-11.182
mar	-11.1821
▁gren	-11.1825
▁executives	-11.1825
▁tales	-11.1828
rad	-11.1839
▁tuesdays	-11.1858
▁prints	-11.1867
▁controls	-11.1869
▁pav	-11.1878
▁comic	-11.188
▁ke	-11.1882
▁agents	-11.189
▁lis	-11.1894
ummy	-11.1899
▁fears	-11.1904
▁partly	-11.1904
ular	-11.191
▁stamped	-11.1911
▁answered	-11.1918
▁villages	-11.193
▁arrives	-11.193
▁plates	-11.1955
▁structures	-11.1956
merse	-11.1963
▁mam	-11.1971
▁whoop	-11.1977
▁loo	-11.1981
ron	-11.1984
▁choices	-11.1989
▁concerns	-11.1992
▁kin	-11.2001
▁riders	-11.2001
ob	-11.2008
bet	-11.2009
▁materials	-11.2021
▁objects	-11.2021
▁cowboys	-11.2021
▁types	-11.2022
op	-11.2025
▁returning	-11.2029
▁av	-11.2043
▁assemble	-11.2047
▁mates	-11.2048
ace	-11.2051
▁grandmothers	-11.2053
▁popes	-11.2055
▁deli	-11.2056
▁payments	-11.2058
▁handy	-11.2061
▁agenc	-11.2063
▁encourage	-11.2063
stop	-11.2064
▁rick	-11.2067
edition	-11.2068
iv	-11.2078
▁clu	-11.208
▁sancti	-11.2082
roy	-11.2086
▁claudias	-11.2086
▁communists	-11.2086
▁cuts	-11.2088
▁plants	-11.2101
▁ber	-11.211
▁wil	-11.2117
▁mayer	-11.2125
rate	-11.2141
ripping	-11.2151
▁ref	-11.2153
▁missy	-11.2153
▁wink	-11.2153
▁scr	-11.2156
▁hose	-11.2178
▁quarters	-11.219
▁qu	-11.2195
▁wonders	-11.2201
jo	-11.2205
▁refuses	-11.2219
ped	-11.2222
▁bats	-11.2231
▁duel	-11.2231
▁grannys	-11.2251
▁foreigner	-11.2252
▁bills	-11.226
▁drops	-11.2267
▁colors	-11.2271
ette	-11.2278
▁touching	-11.2279
▁jeans	-11.2285
maker	-11.2289
▁oi	-11.2293
▁skins	-11.2293
▁goodman	-11.2298
rabs	-11.2312
▁mal	-11.2312
▁garrets	-11.2318
▁killers	-11.2322
▁sounding	-11.2323
▁lou	-11.2326
▁gu	-11.2351
▁nicely	-11.2359
▁senses	-11.2363
▁mac	-11.2374
▁es	-11.2384
▁will	-11.2388
▁rec	-11.2419
▁animat	-11.2429
▁sy	-11.243
tezvous	-11.2449
▁sw	-11.2467
▁blames	-11.2487
inky	-11.2495
▁mend	-11.2503
▁fil	-11.2511
outs	-11.2513
▁fits	-11.2522
ski	-11.2523
▁when	-11.2535
hh	-11.2535
▁behav	-11.2536
why	-11.2537
▁stones	-11.2553
▁just	-11.2571
▁bil	-11.2578
bat	-11.2582
ame	-11.2583
▁cann	-11.2593
▁tar	-11.2595
▁porc	-11.2618
▁pose	-11.2632
here	-11.2657
lenda	-11.2669
▁clearing	-11.2679
▁apartments	-11.2689
oul	-11.2725
ric	-11.2729
met	-11.2744
▁els	-11.2748
▁comp	-11.276
▁forms	-11.2761
lle	-11.2783
▁tame	-11.2789
▁dudes	-11.2791
▁burns	-11.2798
▁wished	-11.2813
▁promises	-11.2829
▁sew	-11.2829
▁be	-11.2833
sel	-11.2852
▁by	-11.2853
gt	-11.2856
▁sue	-11.287
gon	-11.2889
▁revers	-11.2894
▁hears	-11.2894
▁playful	-11.2895
ami	-11.2898
▁boards	-11.29
ber	-11.2907
bbie	-11.2908
▁bets	-11.2916
▁admir	-11.2941
tes	-11.2944
▁penetrate	-11.2947
▁exc	-11.2954
▁lan	-11.2958
ips	-11.2968
▁author	-11.298
▁sch	-11.2983
▁trucks	-11.3026
▁sip	-11.3032
▁battles	-11.3068
iest	-11.3069
shi	-11.3081
▁terror	-11.3093
nky	-11.3093
▁sakes	-11.3103
▁yyou	-11.3113
▁refuge	-11.3132
▁rehearse	-11.3135
ana	-11.3155
▁barb	-11.3166
▁addict	-11.3173
ose	-11.3179
sk	-11.3179
▁colour	-11.3188
▁document	-11.3192
▁grunt	-11.3193
▁slap	-11.3194
▁groan	-11.3194
pend	-11.3202
▁saturdays	-11.3207
▁method	-11.3208
▁instrument	-11.3208
▁shout	-11.3209
istic	-11.3212
▁saloon	-11.3216
▁railroad	-11.3216
▁radical	-11.3216
▁capitalist	-11.322
▁summon	-11.322
▁fig	-11.3221
▁orchid	-11.3221
▁expense	-11.3221
▁sheet	-11.3222
▁requirement	-11.3224
▁splinter	-11.3224
▁tank	-11.3226
▁pattern	-11.3227
▁peanut	-11.3227
▁runner	-11.323
oil	-11.323
▁aaah	-11.3237
▁troop	-11.3248
▁how	-11.3264
unch	-11.3266
▁caps	-11.3273
▁cable	-11.3283
▁greeting	-11.3292
▁preach	-11.3299
▁affect	-11.3305
▁tack	-11.3308
mine	-11.3309
▁reveal	-11.3315
▁matin	-11.3318
vous	-11.3319
tail	-11.3323
▁cheat	-11.3323
▁threaten	-11.3323
▁tele	-11.3331
▁doubts	-11.3339
▁eg	-11.3339
▁gran	-11.334
▁receiv	-11.3341
aching	-11.3343
▁descend	-11.3348
box	-11.3348
▁stammer	-11.3349
▁drumm	-11.3349
rey	-11.335
▁disgust	-11.3351
▁brush	-11.3352
▁creak	-11.3352
▁wail	-11.3353
▁distract	-11.3354
bolt	-11.3354
▁reflect	-11.3355
▁corrupt	-11.3355
turned	-11.3355
rmore	-11.3355
robbing	-11.3355
donna	-11.3356
hru	-11.3356
count	-11.3356
mark	-11.3357
girl	-11.3357
version	-11.3357
▁polish	-11.3357
level	-11.3357
american	-11.3357
worth	-11.3358
▁caper	-11.336
year	-11.336
type	-11.3361
▁sack	-11.3362
▁fulfill	-11.3363
long	-11.3368
oxi	-11.3368
▁chilli	-11.3368
▁doom	-11.3369
▁acknowledge	-11.337
roll	-11.3371
▁avenge	-11.3371
▁plea	-11.3373
▁include	-11.3374
▁erase	-11.3374
▁choke	-11.3374
orn	-11.3374
chris	-11.3375
▁retire	-11.3375
ando	-11.3375
▁pierce	-11.3375
bir	-11.3377
▁suspend	-11.3379
bah	-11.3379
▁breed	-11.338
▁guilt	-11.338
▁glob	-11.3381
▁unfortunate	-11.3382
▁irr	-11.3383
▁capture	-11.3383
▁scrub	-11.3384
war	-11.3384
▁beau	-11.3386
▁grub	-11.3387
▁fiddle	-11.3389
▁migue	-11.339
▁peach	-11.339
▁olive	-11.339
stitute	-11.3392
▁counsel	-11.3392
▁raisin	-11.3392
▁script	-11.3392
▁harv	-11.3393
▁leavin	-11.3393
▁influen	-11.3393
▁distinct	-11.3393
▁livin	-11.3393
▁instinct	-11.3393
▁invo	-11.3393
▁incidental	-11.3394
▁similar	-11.3394
▁din	-11.3394
▁granddad	-11.3394
▁transfer	-11.3395
▁hom	-11.3395
▁intellect	-11.3395
▁vietnam	-11.3395
percussion	-11.3395
responsibilities	-11.3395
▁abalone	-11.3395
▁allergic	-11.3395
▁anniversary	-11.3395
▁apparatus	-11.3395
▁auggie	-11.3395
▁autumn	-11.3395
▁baltimore	-11.3395
▁bermejo	-11.3395
▁beverley	-11.3395
▁blankensoft	-11.3395
▁bonacieux	-11.3395
▁breeze	-11.3395
▁bronze	-11.3395
▁burgundy	-11.3395
▁cetera	-11.3395
▁champaran	-11.3395
▁chatwal	-11.3395
▁clutch	-11.3395
▁corral	-11.3395
▁cottage	-11.3395
▁crotononhudson	-11.3395
▁curtis	-11.3395
▁czar	-11.3395
▁dandelion	-11.3395
▁deborah	-11.3395
▁decline	-11.3395
▁dedication	-11.3395
▁desirable	-11.3395
▁despise	-11.3395
▁detroit	-11.3395
▁einstein	-11.3395
▁elaborate	-11.3395
▁elegant	-11.3395
▁elsewhere	-11.3395
▁enchantment	-11.3395
▁erasure	-11.3395
▁erroneous	-11.3395
▁esterhaus	-11.3395
▁explosiveskull	-11.3395
▁extent	-11.3395
▁factrytown	-11.3395
▁felix	-11.3395
▁flavor	-11.3395
▁fountain	-11.3395
▁fraina	-11.3395
▁frequenc	-11.3395
▁frobscottle	-11.3395
▁galatea	-11.3395
▁grief	-11.3395
▁griffiths	-11.3395
▁gypsy	-11.3395
▁harbor	-11.3395
▁hendri	-11.3395
▁horror	-11.3395
▁hydro	-11.3395
▁ibori	-11.3395
▁impatient	-11.3395
▁infection	-11.3395
▁insurrection	-11.3395
▁ishitsukuri	-11.3395
▁kashkuh	-11.3395
▁kraler	-11.3395
▁krispy	-11.3395
▁length	-11.3395
▁lodging	-11.3395
▁luxray	-11.3395
▁mahatma	-11.3395
▁marietherese	-11.3395
▁mcmillan	-11.3395
▁melody	-11.3395
▁mickey	-11.3395
▁mississippi	-11.3395
▁mmmmmm	-11.3395
▁moniteur	-11.3395
▁nanananana	-11.3395
▁napoleon	-11.3395
▁nelson	-11.3395
▁nenana	-11.3395
▁nigger	-11.3395
▁notify	-11.3395
▁notorious	-11.3395
▁nowadays	-11.3395
▁oath	-11.3395
▁oxygen	-11.3395
▁parole	-11.3395
▁porsche	-11.3395
▁prejudice	-11.3395
▁priscilla	-11.3395
▁privacy	-11.3395
▁prosecution	-11.3395
▁recognise	-11.3395
▁registration	-11.3395
▁rehearsal	-11.3395
▁reliable	-11.3395
▁reynolds	-11.3395
▁roadblock	-11.3395
▁sabotage	-11.3395
▁scoundrel	-11.3395
▁skull	-11.3395
▁snozzcumber	-11.3395
▁somewhat	-11.3395
▁stepfather	-11.3395
▁suicune	-11.3395
▁supermarket	-11.3395
▁surprising	-11.3395
▁teresa	-11.3395
▁thanksgiving	-11.3395
▁thomkins	-11.3395
▁thunderclap	-11.3395
▁translation	-11.3395
▁transplant	-11.3395
▁ultimatum	-11.3395
▁uncomfortable	-11.3395
▁undesirable	-11.3395
▁unemployed	-11.3395
▁unpleasant	-11.3395
▁vancouver	-11.3395
▁verdun	-11.3395
▁vibrations	-11.3395
▁wardenclyffe	-11.3395
▁weenie	-11.3395
▁wilbur	-11.3395
▁wouid	-11.3395
▁wrath	-11.3395
▁zelda	-11.3395
▁alamo	-11.3395
▁automobile	-11.3395
▁ballplayer	-11.3395
▁bourgeois	-11.3395
▁bureaucrat	-11.3395
▁clerk	-11.3395
▁disney	-11.3395
▁endorse	-11.3395
▁imposter	-11.3395
▁leather	-11.3395
▁lewis	-11.3395
▁mercedes	-11.3395
▁munkd	-11.3395
▁neglect	-11.3395
▁niece	-11.3395
▁norwegian	-11.3395
▁novel	-11.3395
▁overwhelm	-11.3395
▁pepperoni	-11.3395
▁pigeon	-11.3395
▁prairie	-11.3395
▁proportion	-11.3395
▁purity	-11.3395
▁refusing	-11.3395
▁sprout	-11.3395
▁anonym	-11.3395
▁buoy	-11.3395
▁cyber	-11.3395
▁decay	-11.3395
▁douglas	-11.3395
▁edgar	-11.3395
▁intellectual	-11.3395
▁protein	-11.3395
▁quinn	-11.3395
▁styx	-11.3395
▁tweet	-11.3395
▁gunnar	-11.3395
▁pavement	-11.3395
▁academ	-11.3395
▁detect	-11.3395
▁cleveland	-11.3395
▁trespass	-11.3395
▁altar	-11.3395
▁cambridge	-11.3395
▁defy	-11.3395
▁attaboy	-11.3395
▁carpet	-11.3395
▁electronic	-11.3395
▁hindu	-11.3395
▁alleluia	-11.3395
▁bulletproof	-11.3395
▁crutchfield	-11.3395
▁facility	-11.3395
▁facial	-11.3395
▁hackett	-11.3395
▁hassle	-11.3395
▁snappy	-11.3395
▁ancestors	-11.3395
▁keith	-11.3395
▁bambi	-11.3395
▁florence	-11.3395
▁fraud	-11.3395
▁yuma	-11.3395
▁bosom	-11.3395
▁cruikshank	-11.3395
▁leonhard	-11.3395
▁therapist	-11.3395
▁uncover	-11.3395
▁bernard	-11.3395
▁creek	-11.3395
▁rumbles	-11.3395
▁streak	-11.3395
▁willett	-11.3395
▁terrified	-11.3395
▁zebra	-11.3395
▁holland	-11.3395
▁infinite	-11.3395
▁january	-11.3395
▁jersey	-11.3395
▁tuition	-11.3395
▁cocktail	-11.3395
▁mankind	-11.3395
▁carrot	-11.3395
▁devotion	-11.3395
▁drury	-11.3395
▁rhyme	-11.3395
▁voyage	-11.3395
▁isolated	-11.3395
▁breast	-11.3395
▁forbidden	-11.3395
▁blink	-11.3395
▁armenian	-11.3395
▁ashore	-11.3395
▁concentration	-11.3395
▁kitten	-11.3395
▁creating	-11.3395
▁freezing	-11.3395
▁necklace	-11.3395
▁stool	-11.3395
▁incomplete	-11.3395
▁rogue	-11.3395
▁waltz	-11.3395
▁arena	-11.3395
▁utilize	-11.3395
▁rubber	-11.3395
▁blogger	-11.3395
▁diplomatic	-11.3395
▁primo	-11.3395
▁waking	-11.3395
aught	-11.3395
▁errant	-11.3395
▁vienna	-11.3395
▁caesar	-11.3395
▁whizz	-11.3395
▁hunky	-11.3395
▁adjust	-11.3395
▁transferred	-11.3395
▁nomine	-11.3395
▁altafini	-11.3395
▁irish	-11.3395
▁approval	-11.3396
▁fiction	-11.3396
▁tuna	-11.3396
▁properties	-11.3396
▁loath	-11.3396
▁midfield	-11.3396
▁judo	-11.3396
▁constable	-11.3396
▁veal	-11.3396
▁novice	-11.3396
▁priorities	-11.3396
▁babysitter	-11.3396
▁mitchell	-11.3396
▁representative	-11.3396
▁motto	-11.3396
▁bingham	-11.3396
▁rapid	-11.3396
▁invisible	-11.3396
▁gentlegirl	-11.3396
▁kidnapper	-11.3396
▁teii	-11.3396
▁dormant	-11.3396
▁timber	-11.3396
▁herring	-11.3396
▁digging	-11.3396
▁ripped	-11.3396
▁roam	-11.3396
▁haida	-11.3396
▁vroom	-11.3396
▁baggage	-11.3396
▁reference	-11.3396
▁rasp	-11.3396
▁complication	-11.3396
hehheh	-11.3396
▁sorrel	-11.3396
▁yonder	-11.3396
▁diversity	-11.3396
ification	-11.3396
▁cabinet	-11.3396
▁venga	-11.3396
▁transportation	-11.3396
wich	-11.3396
▁chalk	-11.3396
▁ginger	-11.3396
▁woohoo	-11.3396
▁sixteen	-11.3396
▁tummy	-11.3396
▁wedded	-11.3396
▁finance	-11.3396
▁yeeha	-11.3396
▁atmosphere	-11.3396
▁catastrophe	-11.3396
▁lurk	-11.3397
▁packets	-11.3397
▁recite	-11.3397
▁nva	-11.3397
▁additional	-11.3397
▁facebook	-11.3397
▁jockey	-11.3397
▁deliberately	-11.3397
▁injury	-11.3397
▁oink	-11.3397
▁depression	-11.3397
▁hotshot	-11.3397
▁geography	-11.3397
▁reflection	-11.3397
▁racket	-11.3397
▁them	-11.3397
▁sofa	-11.3397
▁whys	-11.3397
▁capitol	-11.3397
▁dressmaker	-11.3397
▁lyon	-11.3397
▁stroll	-11.3397
orita	-11.3397
▁snapping	-11.3397
▁garment	-11.3397
▁fourteen	-11.3397
▁slipping	-11.3397
▁loma	-11.3397
▁hoover	-11.3397
▁disappointment	-11.3397
▁equi	-11.3397
▁puke	-11.3397
▁petty	-11.3398
▁webb	-11.3398
▁cynical	-11.3398
▁improvement	-11.3398
▁departure	-11.3398
▁mush	-11.3398
▁pillar	-11.3398
omic	-11.3398
▁klein	-11.3398
▁vai	-11.3398
▁mint	-11.3398
▁preferred	-11.3398
▁weaver	-11.3398
▁flea	-11.3398
▁scent	-11.3398
▁karl	-11.3399
▁replacement	-11.3399
▁infield	-11.3399
▁limo	-11.3399
▁lumi	-11.3399
▁furry	-11.3399
▁sisterinlaw	-11.3399
▁blanket	-11.3399
▁disagreement	-11.3399
▁hooting	-11.3399
▁blum	-11.3399
▁mohan	-11.3399
▁alike	-11.3399
▁raph	-11.3399
▁stack	-11.3399
▁obsession	-11.3399
▁tanney	-11.3399
▁rodent	-11.34
▁primate	-11.34
▁wwhat	-11.34
▁instructor	-11.34
▁premi	-11.34
▁trim	-11.34
▁distress	-11.34
▁theatre	-11.34
▁knives	-11.34
▁cody	-11.34
igan	-11.34
▁dut	-11.34
▁fuse	-11.34
▁collective	-11.3401
▁foreman	-11.3401
▁scram	-11.3401
▁infanta	-11.3401
▁hoof	-11.3401
▁andr	-11.3401
▁sputtering	-11.3401
▁connie	-11.3401
▁superstitio	-11.3401
▁whipped	-11.3401
▁everyday	-11.3401
▁dwell	-11.3401
▁edith	-11.3401
▁harmless	-11.3401
▁nhe	-11.3401
▁eyeball	-11.3401
▁objective	-11.3402
▁boast	-11.3402
denb	-11.3402
▁terrorist	-11.3402
▁untie	-11.3402
▁stabb	-11.3402
▁dried	-11.3403
▁bake	-11.3403
▁dough	-11.3403
▁franklin	-11.3403
▁heath	-11.3403
▁skipper	-11.3403
▁dak	-11.3403
▁spooky	-11.3404
▁youthful	-11.3404
▁jung	-11.3404
▁continental	-11.3404
▁observing	-11.3404
▁vb	-11.3404
▁hansel	-11.3404
▁tray	-11.3405
▁georgie	-11.3405
▁management	-11.3405
▁teenager	-11.3405
▁ramp	-11.3406
▁yuck	-11.3406
▁launched	-11.3406
▁sustained	-11.3406
▁undressed	-11.3406
▁flattered	-11.3406
▁brownies	-11.3406
▁crippled	-11.3406
▁richter	-11.3407
▁vocaliz	-11.3407
▁everett	-11.3407
▁specialty	-11.3408
▁volt	-11.3408
tory	-11.3409
▁vain	-11.3409
▁courageous	-11.3409
▁bre	-11.341
▁shaken	-11.341
▁groovy	-11.341
▁ballot	-11.3411
▁award	-11.3411
▁samba	-11.3411
▁swarming	-11.3411
▁surrounding	-11.3411
▁thrashing	-11.3411
▁awaiting	-11.3411
▁humiliated	-11.3411
▁hack	-11.3411
▁villagers	-11.3412
▁molar	-11.3412
▁reduced	-11.3412
▁enjoyment	-11.3412
arily	-11.3413
▁consideration	-11.3414
▁mop	-11.3414
▁sole	-11.3415
▁elderly	-11.3415
▁halter	-11.3415
▁inspired	-11.3415
▁superb	-11.3416
▁claw	-11.3416
▁choked	-11.3416
▁erased	-11.3416
▁mmmm	-11.3416
▁dens	-11.3416
▁aww	-11.3416
▁included	-11.3416
▁puzzle	-11.3416
▁eastern	-11.3417
illiard	-11.3417
▁delinquents	-11.3417
▁rupees	-11.3417
▁buzzer	-11.3417
▁estimate	-11.3418
▁ultimately	-11.3418
▁fries	-11.3418
▁carries	-11.3419
▁distributed	-11.342
▁crashes	-11.3421
▁triple	-11.3421
▁haig	-11.3422
▁jeri	-11.3422
▁wedge	-11.3423
▁takin	-11.3423
▁australian	-11.3423
quet	-11.3424
▁sur	-11.3424
▁soil	-11.3424
▁hunger	-11.3425
▁pulley	-11.3425
▁samson	-11.3425
▁youngster	-11.3426
▁alter	-11.3427
▁lust	-11.3427
▁putey	-11.3427
▁affected	-11.3427
▁cheated	-11.3428
historic	-11.3429
▁fearless	-11.343
▁rage	-11.3431
▁wiser	-11.3431
▁drawn	-11.3432
▁jo	-11.3432
▁naming	-11.3433
▁spilled	-11.3434
▁pissed	-11.3434
▁stove	-11.3434
▁chilly	-11.3434
▁cutter	-11.3435
▁vanished	-11.3436
▁weep	-11.3436
▁sour	-11.3437
aud	-11.3437
ivan	-11.3438
▁rental	-11.3438
▁doo	-11.3438
▁tender	-11.3438
▁discovery	-11.3438
frey	-11.3439
▁legi	-11.3439
ush	-11.3439
▁englishman	-11.3439
▁buses	-11.344
▁descending	-11.3443
▁preaching	-11.3444
avai	-11.3444
▁leach	-11.3444
▁reserved	-11.3444
zy	-11.3445
▁preacher	-11.3445
rence	-11.3445
▁jen	-11.3446
▁connected	-11.3446
▁shaker	-11.3447
▁hysterical	-11.3448
▁leaned	-11.3448
▁teen	-11.3449
▁healed	-11.3449
▁sacrificed	-11.3449
uine	-11.3451
▁strongest	-11.3452
▁jumpin	-11.3453
▁laces	-11.3454
▁whines	-11.3454
▁depending	-11.3454
▁initials	-11.3455
▁drowned	-11.3455
▁hoodlums	-11.3455
▁pancakes	-11.3455
▁superstars	-11.3455
▁headaches	-11.3455
▁coins	-11.3455
▁thorns	-11.3455
▁spoiled	-11.3456
▁foolin	-11.3457
▁guaranteed	-11.3458
▁grinding	-11.3464
▁disturbing	-11.3464
▁announced	-11.3465
▁gies	-11.3467
▁flip	-11.3467
▁graci	-11.3468
▁log	-11.3472
▁hawk	-11.3477
▁hog	-11.348
vent	-11.3481
▁gest	-11.3482
▁awakening	-11.3485
▁spoiling	-11.3485
▁trumpeting	-11.3486
▁shepherds	-11.3494
▁relatives	-11.3494
▁clangs	-11.3494
▁legally	-11.3496
▁mushers	-11.3497
▁printed	-11.3502
▁tone	-11.3503
▁ru	-11.3507
▁foundation	-11.3508
▁swelling	-11.3508
▁shifting	-11.3508
dum	-11.3508
▁comforting	-11.3509
▁whwh	-11.3511
▁designer	-11.3511
▁deserting	-11.3519
▁claimed	-11.3522
▁oy	-11.3522
▁groov	-11.3525
▁pist	-11.3527
▁sneaking	-11.3528
msy	-11.3529
▁kno	-11.3531
▁shootin	-11.3533
▁meadows	-11.3533
▁adults	-11.3533
▁smarter	-11.3534
phone	-11.3538
▁poisoned	-11.3542
mbles	-11.3545
▁interrupting	-11.3549
▁voted	-11.3551
▁wilt	-11.3551
▁brad	-11.3553
▁mounted	-11.3556
loyd	-11.3556
▁rushed	-11.3557
▁ruthless	-11.356
▁proceeding	-11.356
▁fences	-11.3562
▁cos	-11.3564
▁cater	-11.3569
▁surrendered	-11.3571
▁expenses	-11.3572
▁orchids	-11.3572
▁tanks	-11.3572
▁requirements	-11.3573
▁sheets	-11.3573
▁splinters	-11.3573
▁bankers	-11.3576
▁pitching	-11.3581
ex	-11.3586
▁tag	-11.3593
▁johnston	-11.3602
▁completed	-11.3603
ood	-11.3604
▁muck	-11.3604
anglo	-11.3608
▁investigate	-11.3611
▁helmets	-11.3612
▁newspapers	-11.3612
▁surgeons	-11.3612
▁blades	-11.3612
▁visitors	-11.3615
▁sweeter	-11.3621
▁greatness	-11.3627
▁supported	-11.3629
▁rushing	-11.3636
▁nipp	-11.3643
asco	-11.3644
▁oneil	-11.3648
▁braces	-11.3651
▁informer	-11.3651
▁politicians	-11.3651
▁turtles	-11.3651
▁recipes	-11.3652
▁profits	-11.3652
▁sticky	-11.3662
▁kay	-11.3663
cl	-11.3663
aron	-11.3668
▁cows	-11.367
▁evolve	-11.3673
▁belle	-11.3675
▁prayed	-11.3688
je	-11.3689
▁bur	-11.3689
▁cocks	-11.3689
▁oni	-11.3691
▁jaws	-11.3691
▁earthly	-11.3701
▁ohoh	-11.3702
ocks	-11.3706
▁mutt	-11.3709
▁bombing	-11.3712
▁barr	-11.3716
▁nik	-11.3726
▁rapp	-11.3728
▁graves	-11.373
▁feeding	-11.3732
▁swor	-11.3732
nic	-11.3733
oohoo	-11.3734
▁askin	-11.3741
▁piers	-11.3749
▁bras	-11.3762
▁not	-11.3763
▁relationships	-11.3771
▁warriors	-11.3771
▁marines	-11.3771
▁timeout	-11.3778
▁rational	-11.3793
▁goat	-11.3802
itch	-11.3803
▁barrels	-11.3811
▁movements	-11.3819
▁dominate	-11.3829
▁danced	-11.383
▁houses	-11.3841
▁aisles	-11.3851
▁crooks	-11.3853
▁tryin	-11.3859
▁pai	-11.3862
berry	-11.3871
▁marker	-11.3875
▁pays	-11.3875
▁counted	-11.3885
▁generals	-11.3885
▁comments	-11.3888
▁tasks	-11.3892
jury	-11.3893
cia	-11.3894
▁bands	-11.3898
▁cuddle	-11.3898
bing	-11.3899
▁toi	-11.3904
▁spic	-11.3906
nto	-11.3908
ones	-11.3916
▁lava	-11.3927
▁elevators	-11.3932
▁chicks	-11.3933
▁site	-11.3938
oe	-11.3939
▁regi	-11.3947
▁marys	-11.3958
▁verb	-11.397
▁rambalcochets	-11.3973
▁talents	-11.3974
▁stepp	-11.3974
tto	-11.3975
▁ir	-11.3989
▁grandmas	-11.4013
▁vehicles	-11.4013
ngs	-11.4014
patriotic	-11.4017
▁tu	-11.4018
▁rave	-11.4019
tie	-11.4025
vit	-11.4027
▁recorder	-11.4036
▁senseless	-11.4039
▁nos	-11.4068
ionary	-11.4068
▁arc	-11.4069
▁undertake	-11.4073
▁mat	-11.408
▁luch	-11.4083
▁kisser	-11.409
▁elections	-11.4095
▁discussions	-11.4097
▁lib	-11.4115
▁callin	-11.4115
star	-11.4119
▁bl	-11.4119
cut	-11.4121
▁pra	-11.4127
▁troubled	-11.4128
▁habits	-11.4137
▁champions	-11.4142
▁wor	-11.4143
▁fence	-11.4153
▁shorts	-11.4166
▁bel	-11.4173
▁nightmares	-11.4177
▁edwards	-11.4177
▁bakers	-11.4179
▁jar	-11.4183
vial	-11.4189
▁cane	-11.4194
bon	-11.4201
▁lined	-11.4217
▁sta	-11.4233
▁dur	-11.4235
▁ironic	-11.4235
two	-11.4249
▁presum	-11.4251
dale	-11.4251
▁springs	-11.4259
▁clocks	-11.426
▁caseys	-11.426
▁checks	-11.4267
mos	-11.4272
▁clam	-11.4285
▁spiders	-11.4301
▁miracles	-11.4301
▁taxis	-11.4307
face	-11.4316
▁mare	-11.4339
▁abuse	-11.4348
▁leads	-11.4349
▁decorate	-11.4364
nch	-11.4375
▁caves	-11.438
▁mu	-11.4382
▁forests	-11.4384
▁flo	-11.4398
ett	-11.4416
▁amp	-11.4419
▁cantrells	-11.4426
▁booked	-11.4442
▁anyways	-11.4443
ret	-11.4488
▁dances	-11.4493
rated	-11.4498
▁shad	-11.4505
▁cells	-11.4508
▁questioning	-11.4529
hoo	-11.4536
ison	-11.4539
▁what	-11.4553
▁mont	-11.4564
ice	-11.4572
oui	-11.461
▁mars	-11.4623
▁breaths	-11.4623
rk	-11.4633
▁trac	-11.4645
▁alan	-11.4649
umptious	-11.4664
▁val	-11.4667
▁digs	-11.4681
boxes	-11.4697
▁jacks	-11.4707
▁lu	-11.4722
▁goals	-11.4729
arcel	-11.4731
▁dine	-11.475
▁keeper	-11.4756
▁walker	-11.4769
yeahyeah	-11.4775
this	-11.4777
ceased	-11.4781
▁scor	-11.4782
ties	-11.4798
▁submit	-11.48
▁contacts	-11.4806
▁bites	-11.4814
▁pos	-11.4823
▁presume	-11.4848
nny	-11.485
ez	-11.488
air	-11.4883
▁towers	-11.4895
org	-11.4902
ported	-11.4907
▁rides	-11.4913
▁butts	-11.4941
▁offices	-11.4952
▁evacuate	-11.4984
▁beers	-11.4986
▁garb	-11.4993
▁medi	-11.4996
▁infl	-11.5001
oph	-11.5013
▁winters	-11.5022
cc	-11.5035
▁copa	-11.5038
▁mes	-11.5047
uki	-11.505
▁ski	-11.5063
rice	-11.5078
llen	-11.5103
stil	-11.513
▁cra	-11.5145
▁mets	-11.5146
uli	-11.5153
ane	-11.5153
▁ven	-11.5154
▁pulls	-11.5161
▁patriot	-11.5165
abe	-11.5182
▁ther	-11.5182
ammed	-11.5194
▁ev	-11.5208
▁gr	-11.5222
▁dell	-11.5233
▁it	-11.5281
▁fili	-11.5283
▁fog	-11.5286
ela	-11.5288
▁guessed	-11.5297
▁remov	-11.5299
term	-11.5316
brows	-11.5318
▁nod	-11.533
ments	-11.5348
▁spect	-11.5351
ou	-11.5351
squ	-11.5365
overall	-11.5371
▁sings	-11.5385
bling	-11.54
hhh	-11.5411
▁cam	-11.5444
▁sal	-11.5454
tile	-11.5454
▁dannys	-11.5462
ization	-11.5477
▁cared	-11.5479
mal	-11.5489
▁rebel	-11.5494
▁spine	-11.5501
▁lays	-11.5522
▁logic	-11.5545
come	-11.5546
▁booger	-11.5555
ates	-11.5571
hen	-11.5584
▁riches	-11.5597
aise	-11.5601
▁prima	-11.5605
▁princes	-11.5612
cher	-11.5619
▁investigat	-11.5622
ural	-11.5637
▁fr	-11.565
▁mut	-11.565
▁jill	-11.5661
powered	-11.5663
about	-11.5664
▁temp	-11.5669
▁editorial	-11.5671
▁puff	-11.5677
test	-11.568
▁click	-11.5692
eem	-11.5696
▁bark	-11.5703
▁adult	-11.5706
▁accomplice	-11.5708
▁burglar	-11.5708
▁delegate	-11.5708
▁pencil	-11.5708
▁neighbour	-11.5708
▁bloke	-11.5708
▁groper	-11.5708
▁jock	-11.5709
▁praise	-11.571
▁robber	-11.5714
▁orphan	-11.5714
▁element	-11.5716
▁ounce	-11.5716
▁bribe	-11.5716
▁outdoor	-11.5717
▁donut	-11.5717
▁meadow	-11.5721
▁landlord	-11.5724
▁kidney	-11.5724
▁runnings	-11.5724
▁article	-11.5726
▁ufo	-11.5727
▁mustang	-11.5728
▁teammate	-11.5731
▁headstone	-11.5732
▁vegetable	-11.5734
▁tourist	-11.5734
▁scoff	-11.5737
▁brazilian	-11.5742
▁arrang	-11.5753
▁producer	-11.576
lum	-11.5768
▁outfield	-11.5769
▁von	-11.5782
▁forrest	-11.5784
formed	-11.5784
▁dread	-11.5787
▁rh	-11.5791
▁athletic	-11.5792
▁scout	-11.5793
▁fran	-11.5802
▁scam	-11.5803
▁demo	-11.5805
▁grande	-11.5806
▁ama	-11.5809
ional	-11.5826
▁nip	-11.5829
person	-11.5831
▁writ	-11.5836
town	-11.584
▁mimi	-11.5844
▁tick	-11.5845
keeper	-11.5846
action	-11.5846
▁qualify	-11.5846
▁litter	-11.5847
▁crunch	-11.585
▁juic	-11.5851
▁chirp	-11.5852
four	-11.5852
park	-11.5854
view	-11.5855
▁stress	-11.5856
▁confront	-11.5856
▁instruct	-11.5856
stream	-11.5856
dammit	-11.5856
dollar	-11.5857
violence	-11.5857
life	-11.5857
chief	-11.5857
drops	-11.5857
▁install	-11.5857
final	-11.5858
school	-11.5858
drive	-11.5858
▁hush	-11.5859
seven	-11.5859
lookin	-11.586
▁succeed	-11.5861
▁stash	-11.5861
▁invest	-11.5861
job	-11.5861
▁cloth	-11.5863
▁offend	-11.5864
▁exhaust	-11.5864
stock	-11.5865
▁slim	-11.5866
▁brazils	-11.5868
▁ado	-11.5869
▁distribut	-11.587
▁wick	-11.5871
▁with	-11.5871
tical	-11.5871
gage	-11.5872
▁boxer	-11.5872
▁execute	-11.5872
urban	-11.5873
▁restore	-11.5873
▁humiliate	-11.5874
▁reduce	-11.5874
▁amaze	-11.5875
etti	-11.5877
▁lime	-11.5879
▁reveren	-11.588
▁instant	-11.588
joy	-11.588
▁georgi	-11.5882
▁filth	-11.5882
▁davi	-11.5882
▁august	-11.5882
▁numb	-11.5884
▁colla	-11.5884
▁intent	-11.5886
itable	-11.5887
five	-11.5888
▁dub	-11.5888
▁atta	-11.5888
▁wee	-11.5889
▁alfred	-11.5889
▁obsess	-11.5889
▁independen	-11.5889
▁consume	-11.589
▁commun	-11.589
▁continent	-11.589
hoohoo	-11.589
▁shant	-11.589
▁optimist	-11.5891
▁confe	-11.5891
uck	-11.5891
▁marg	-11.5891
▁jug	-11.5892
▁drivin	-11.5893
▁ketchu	-11.5893
▁inspire	-11.5893
▁pudd	-11.5893
▁intro	-11.5893
▁midge	-11.5893
▁inherit	-11.5894
▁differ	-11.5894
▁transport	-11.5894
▁immun	-11.5894
▁visual	-11.5894
ament	-11.5895
▁info	-11.5895
▁snook	-11.5895
▁pluto	-11.5895
preservation	-11.5895
rescind	-11.5895
▁accompany	-11.5895
▁accustomed	-11.5895
▁adolf	-11.5895
▁akita	-11.5895
▁analyze	-11.5895
▁angrier	-11.5895
▁apprentice	-11.5895
▁approximately	-11.5895
▁artifact	-11.5895
▁artificial	-11.5895
▁aspect	-11.5895
▁atlantic	-11.5895
▁balcony	-11.5895
▁ballerina	-11.5895
▁bartolo	-11.5895
▁behaviour	-11.5895
▁benjamin	-11.5895
▁boilermaker	-11.5895
▁bouillon	-11.5895
▁bouquet	-11.5895
▁brethren	-11.5895
▁brigade	-11.5895
▁budapest	-11.5895
▁burrito	-11.5895
▁calendar	-11.5895
▁candlestick	-11.5895
▁certificate	-11.5895
▁choosing	-11.5895
▁chorus	-11.5895
▁churros	-11.5895
▁clermontferrand	-11.5895
▁columbia	-11.5895
▁comprendo	-11.5895
▁contrary	-11.5895
▁contribute	-11.5895
▁convoy	-11.5895
▁cruise	-11.5895
▁cultural	-11.5895
▁curveball	-11.5895
▁custody	-11.5895
▁danaisser	-11.5895
▁decipher	-11.5895
▁declaration	-11.5895
▁demonstrate	-11.5895
▁demonstration	-11.5895
▁devastating	-11.5895
▁diapers	-11.5895
▁dierdre	-11.5895
▁dilemma	-11.5895
▁disadvantage	-11.5895
▁discouraged	-11.5895
▁dismount	-11.5895
▁dreyfus	-11.5895
▁dunhill	-11.5895
▁duprez	-11.5895
▁ecsta	-11.5895
▁elvis	-11.5895
▁embassy	-11.5895
▁esplandian	-11.5895
▁evident	-11.5895
▁excessive	-11.5895
▁expired	-11.5895
▁explosive	-11.5895
▁fackler	-11.5895
▁fleshlumpeater	-11.5895
▁fontaine	-11.5895
▁forgiving	-11.5895
▁freight	-11.5895
▁freud	-11.5895
▁frustrated	-11.5895
▁galaxy	-11.5895
▁geronimo	-11.5895
▁gitundu	-11.5895
▁hampshire	-11.5895
▁hannaberry	-11.5895
▁harmonica	-11.5895
▁heip	-11.5895
▁heritage	-11.5895
▁hialeah	-11.5895
▁hilarious	-11.5895
▁horizon	-11.5895
▁hurdles	-11.5895
▁identical	-11.5895
▁illusory	-11.5895
▁inconvenience	-11.5895
▁ingenious	-11.5895
▁interpret	-11.5895
▁intestines	-11.5895
▁invading	-11.5895
▁israel	-11.5895
▁ithaca	-11.5895
▁jennifer	-11.5895
▁judicia	-11.5895
▁judith	-11.5895
▁justify	-11.5895
▁juvenile	-11.5895
▁kettle	-11.5895
▁kugel	-11.5895
▁lanervo	-11.5895
▁latrine	-11.5895
▁loretta	-11.5895
▁lorraine	-11.5895
▁lucinda	-11.5895
▁lullaby	-11.5895
▁luppus	-11.5895
▁manipedi	-11.5895
▁matthew	-11.5895
▁melodramatic	-11.5895
▁minivan	-11.5895
▁modification	-11.5895
▁montoire	-11.5895
▁moustache	-11.5895
▁nazareth	-11.5895
▁neutral	-11.5895
▁noodles	-11.5895
▁paolo	-11.5895
▁pardonnezmoi	-11.5895
▁parsley	-11.5895
▁participate	-11.5895
▁pentagon	-11.5895
▁perceive	-11.5895
▁permanent	-11.5895
▁persecuted	-11.5895
▁petrocite	-11.5895
▁pharmacist	-11.5895
▁pharmacy	-11.5895
▁picaroon	-11.5895
▁pleiku	-11.5895
▁portrait	-11.5895
▁precaution	-11.5895
▁proposing	-11.5895
▁pyramid	-11.5895
▁reassuring	-11.5895
▁reggae	-11.5895
▁renounce	-11.5895
▁richelieu	-11.5895
▁rookery	-11.5895
▁rubbish	-11.5895
▁sagami	-11.5895
▁sarsaparilla	-11.5895
▁sausage	-11.5895
▁scissors	-11.5895
▁shivers	-11.5895
▁shotgun	-11.5895
▁sinatra	-11.5895
▁skunk	-11.5895
▁slumber	-11.5895
▁snatched	-11.5895
▁snug	-11.5895
▁stebbins	-11.5895
▁summit	-11.5895
▁suspension	-11.5895
▁sydney	-11.5895
▁syrup	-11.5895
▁tallulah	-11.5895
▁tchan	-11.5895
▁throttle	-11.5895
▁tibbett	-11.5895
▁tokyo	-11.5895
▁tortoise	-11.5895
▁unavoidable	-11.5895
▁unlimited	-11.5895
▁unnatural	-11.5895
▁unnecessary	-11.5895
▁vampire	-11.5895
▁vanessa	-11.5895
▁velocity	-11.5895
▁vessel	-11.5895
▁violin	-11.5895
▁vomiting	-11.5895
▁watermelon	-11.5895
▁wheelchair	-11.5895
▁whitechapel	-11.5895
▁wield	-11.5895
▁worrell	-11.5895
▁worthwhile	-11.5895
▁wrestle	-11.5895
▁absence	-11.5895
▁accusations	-11.5895
▁apply	-11.5895
▁astonish	-11.5895
▁battalion	-11.5895
▁blossom	-11.5895
▁bouncy	-11.5895
▁cloak	-11.5895
▁column	-11.5895
▁disobey	-11.5895
▁dussel	-11.5895
▁dwarf	-11.5895
▁inviting	-11.5895
▁jello	-11.5895
▁katzmans	-11.5895
▁khan	-11.5895
▁maroiyeur	-11.5895
▁medallion	-11.5895
▁nicholas	-11.5895
▁ninth	-11.5895
▁noisy	-11.5895
▁ostrich	-11.5895
▁perception	-11.5895
▁sliding	-11.5895
▁spiral	-11.5895
▁sponsor	-11.5895
▁succumb	-11.5895
▁testify	-11.5895
▁testimon	-11.5895
▁backpack	-11.5895
▁bauru	-11.5895
▁bergmark	-11.5895
▁detour	-11.5895
▁distinguish	-11.5895
▁eager	-11.5895
▁fierce	-11.5895
▁fiesta	-11.5895
▁initiat	-11.5895
▁keller	-11.5895
▁monkees	-11.5895
▁nightfall	-11.5895
▁pederson	-11.5895
▁personnel	-11.5895
▁portray	-11.5895
▁predator	-11.5895
▁spool	-11.5895
▁spray	-11.5895
▁tranquilizer	-11.5895
▁trotsky	-11.5895
▁utopia	-11.5895
▁vaccin	-11.5895
▁whereabouts	-11.5895
▁ranieri	-11.5895
▁absent	-11.5895
▁blaming	-11.5895
▁crisp	-11.5895
▁danvers	-11.5895
▁hamrin	-11.5895
▁hormones	-11.5895
▁kilometers	-11.5895
▁marbles	-11.5895
▁siberia	-11.5895
▁dvd	-11.5895
▁jaunt	-11.5895
▁magnifique	-11.5895
▁thesis	-11.5895
▁currie	-11.5895
▁adapt	-11.5895
▁classify	-11.5895
▁sharma	-11.5895
▁toothbrush	-11.5895
▁antisemitism	-11.5895
▁carrier	-11.5895
▁jelly	-11.5895
▁railink	-11.5895
▁alsace	-11.5895
▁infam	-11.5895
▁mourn	-11.5895
▁pathways	-11.5895
▁prune	-11.5895
▁lynch	-11.5895
▁pluck	-11.5895
▁actress	-11.5895
▁grammar	-11.5895
▁esteem	-11.5895
▁grudge	-11.5895
▁huddle	-11.5895
▁programmed	-11.5895
▁shredder	-11.5895
▁braying	-11.5895
▁grandchildren	-11.5895
▁salami	-11.5895
kraut	-11.5895
lifications	-11.5895
▁wrongdoing	-11.5895
▁matron	-11.5895
▁souven	-11.5895
▁extensi	-11.5895
▁rash	-11.5895
▁trench	-11.5895
▁uphill	-11.5895
▁dagger	-11.5895
▁hisses	-11.5895
▁venture	-11.5895
uku	-11.5895
▁posse	-11.5895
▁negotiations	-11.5895
▁casualties	-11.5895
▁ankle	-11.5895
▁flipped	-11.5895
▁injuries	-11.5895
▁loft	-11.5895
▁fractions	-11.5895
▁paranoi	-11.5895
▁flakes	-11.5895
▁interior	-11.5895
▁cafe	-11.5895
▁percent	-11.5895
▁patron	-11.5895
▁physicist	-11.5895
▁weeds	-11.5895
▁cheque	-11.5895
▁hooves	-11.5895
▁postpone	-11.5895
▁lifesav	-11.5895
▁measurements	-11.5895
▁commenc	-11.5895
▁customary	-11.5895
▁damsel	-11.5895
▁splat	-11.5895
▁apron	-11.5895
▁hinges	-11.5895
▁twentyfive	-11.5895
▁twentyfour	-11.5895
▁extort	-11.5895
▁uptown	-11.5895
▁visualize	-11.5895
▁bluff	-11.5895
▁funnel	-11.5895
▁gossip	-11.5895
▁pedal	-11.5895
▁resolve	-11.5895
▁jamison	-11.5895
▁collins	-11.5895
▁derby	-11.5895
▁seadragon	-11.5895
▁subver	-11.5895
▁hypocrite	-11.5895
▁cretan	-11.5895
▁venom	-11.5895
▁butterfly	-11.5895
▁disability	-11.5895
▁kidnap	-11.5895
▁violent	-11.5895
▁balto	-11.5896
▁mathematic	-11.5896
▁expectations	-11.5896
▁duggi	-11.5896
▁polaroid	-11.5896
▁snitch	-11.5896
▁candlelight	-11.5896
▁dispute	-11.5896
▁garner	-11.5896
virus	-11.5896
▁regal	-11.5896
▁allez	-11.5896
▁polls	-11.5896
▁shaking	-11.5896
▁witchcraft	-11.5896
▁dusk	-11.5896
▁orphanage	-11.5896
▁eligible	-11.5896
▁medina	-11.5896
▁senhora	-11.5896
▁oyster	-11.5896
▁supervisor	-11.5896
▁compell	-11.5896
▁oriental	-11.5896
▁farther	-11.5896
▁fizz	-11.5896
▁bubbling	-11.5896
▁wiretap	-11.5896
▁cens	-11.5896
▁fanatic	-11.5896
▁boredom	-11.5896
▁mischief	-11.5896
▁booze	-11.5896
▁dairy	-11.5896
▁haste	-11.5896
▁shaky	-11.5896
▁salmon	-11.5896
▁obligation	-11.5896
▁coffie	-11.5896
▁tedious	-11.5896
▁pelt	-11.5896
▁violation	-11.5896
▁clara	-11.5896
▁memo	-11.5896
▁iife	-11.5896
▁armenti	-11.5896
▁forehead	-11.5896
▁furious	-11.5896
▁rubbed	-11.5896
▁indoor	-11.5896
▁aior	-11.5896
▁egyptian	-11.5896
▁harley	-11.5896
▁prank	-11.5896
▁finland	-11.5896
▁mince	-11.5896
▁online	-11.5896
▁feedback	-11.5896
▁roland	-11.5896
▁overrated	-11.5897
▁babysit	-11.5897
▁bastion	-11.5897
▁fluke	-11.5897
▁brute	-11.5897
▁depositors	-11.5897
▁limp	-11.5897
▁translate	-11.5897
▁confrontation	-11.5897
▁rattle	-11.5897
▁liz	-11.5897
▁demoli	-11.5897
▁panicking	-11.5897
▁puddle	-11.5897
▁oooh	-11.5897
slation	-11.5897
▁thigh	-11.5897
▁moneypenny	-11.5897
▁cruella	-11.5897
▁musi	-11.5897
▁arro	-11.5897
▁chipped	-11.5897
▁germ	-11.5897
▁navigat	-11.5897
▁sprinters	-11.5897
▁embarrassment	-11.5897
▁coloni	-11.5897
wind	-11.5897
▁distinction	-11.5897
▁corruption	-11.5897
▁coffin	-11.5898
▁steward	-11.5898
▁squirtle	-11.5898
▁globus	-11.5898
▁perez	-11.5898
▁wedgie	-11.5898
▁hover	-11.5898
▁frontiers	-11.5898
▁admirable	-11.5898
▁canine	-11.5898
▁tug	-11.5898
▁attic	-11.5898
▁dugout	-11.5898
▁clog	-11.5898
▁poof	-11.5898
▁shortcut	-11.5898
▁ooo	-11.5898
▁hunch	-11.5898
▁heathen	-11.5898
▁dye	-11.5898
▁tore	-11.5898
▁eww	-11.5898
▁drain	-11.5898
▁kimmy	-11.5898
▁fax	-11.5898
▁foil	-11.5898
▁mineral	-11.5899
▁overwork	-11.5899
▁clap	-11.5899
▁gilman	-11.5899
▁duties	-11.5899
▁exile	-11.5899
▁marx	-11.5899
▁mixup	-11.5899
▁clueless	-11.5899
▁rewing	-11.59
▁dorm	-11.59
▁conscious	-11.59
▁conley	-11.59
▁cornell	-11.59
▁allah	-11.59
▁erupt	-11.59
▁lumber	-11.59
▁fascinated	-11.59
▁footwork	-11.59
▁sprinkler	-11.59
▁heap	-11.5901
▁pawn	-11.5901
▁sniffles	-11.5901
▁streetcar	-11.5901
▁earring	-11.5901
▁pitman	-11.5901
▁inquiry	-11.5901
▁hypothetically	-11.5901
▁republican	-11.5901
▁strictly	-11.5901
▁utterly	-11.5901
mary	-11.5901
▁bellini	-11.5901
▁notion	-11.5901
▁syne	-11.5901
▁winston	-11.5901
▁hallway	-11.5901
▁discreet	-11.5902
▁sufficient	-11.5902
▁unfold	-11.5902
vory	-11.5902
▁activate	-11.5902
▁marketts	-11.5902
▁luxury	-11.5902
▁olie	-11.5902
▁budget	-11.5902
▁satisfaction	-11.5902
jour	-11.5902
▁consol	-11.5902
▁terminal	-11.5902
▁scum	-11.5902
▁rake	-11.5902
▁hazard	-11.5902
▁cornet	-11.5902
▁spam	-11.5903
▁mortal	-11.5903
▁realizing	-11.5903
sexual	-11.5903
▁combine	-11.5903
▁fluent	-11.5903
▁cuff	-11.5904
▁roch	-11.5904
▁deserving	-11.5904
▁salesman	-11.5904
▁arden	-11.5904
▁zen	-11.5904
▁luce	-11.5904
▁recon	-11.5904
▁redwood	-11.5904
▁collapsed	-11.5904
▁relieved	-11.5904
▁defenseless	-11.5904
▁marshals	-11.5904
▁squat	-11.5905
▁ballroom	-11.5905
dog	-11.5905
▁progressive	-11.5905
▁twer	-11.5905
▁tickle	-11.5905
▁housekeeper	-11.5905
▁copper	-11.5906
▁batch	-11.5906
▁prob	-11.5906
▁pros	-11.5906
▁blur	-11.5906
▁queue	-11.5906
▁patel	-11.5907
▁mammal	-11.5907
▁announcement	-11.5907
▁mba	-11.5908
▁approaches	-11.5908
▁eddy	-11.5908
▁warmth	-11.5908
▁quench	-11.5908
▁sunny	-11.5909
▁blush	-11.5909
▁starboard	-11.5909
▁blondie	-11.5909
▁condemned	-11.5909
▁vested	-11.5909
▁frankel	-11.591
▁toll	-11.591
▁lodged	-11.591
▁banker	-11.5911
▁mugged	-11.5911
▁overdo	-11.5911
▁majority	-11.5911
▁brew	-11.5912
▁angle	-11.5912
▁laval	-11.5912
▁stomper	-11.5912
▁turd	-11.5912
▁howe	-11.5912
▁imprison	-11.5913
▁mentor	-11.5913
▁craft	-11.5913
▁abilities	-11.5913
▁arg	-11.5913
▁successor	-11.5914
▁forge	-11.5914
▁stripes	-11.5914
▁spicy	-11.5915
▁squawk	-11.5916
del	-11.5916
▁devoted	-11.5916
▁ceiling	-11.5916
▁twinkling	-11.5916
▁hazy	-11.5916
▁brooke	-11.5917
▁controlling	-11.5917
▁rally	-11.5917
▁stun	-11.5917
▁formation	-11.5917
▁tighten	-11.5917
▁branches	-11.5917
▁calva	-11.5918
▁brainless	-11.5918
▁verse	-11.5918
▁rene	-11.5918
▁dismissed	-11.5918
▁aides	-11.5919
▁mashed	-11.592
▁manufacturer	-11.592
▁isa	-11.592
▁restored	-11.592
▁protective	-11.5921
hini	-11.5921
▁monk	-11.5922
▁orion	-11.5922
▁growth	-11.5922
▁cull	-11.5922
▁pierced	-11.5923
▁quarterback	-11.5923
▁vic	-11.5923
dial	-11.5923
▁arthritis	-11.5924
▁allegations	-11.5924
▁resumes	-11.5924
▁armies	-11.5924
▁kit	-11.5924
▁bootsie	-11.5924
▁thump	-11.5924
▁postman	-11.5926
nnel	-11.5926
ndler	-11.5926
▁tamer	-11.5927
▁brightest	-11.5927
lasses	-11.5927
▁fucker	-11.5928
▁offended	-11.5928
▁installed	-11.5928
▁dah	-11.5928
▁hideous	-11.5928
▁seduc	-11.5929
▁iine	-11.5929
▁annoying	-11.593
▁taunting	-11.593
▁terrifying	-11.593
▁giraffe	-11.5932
▁mini	-11.5932
gant	-11.5933
▁viewers	-11.5934
▁barge	-11.5935
▁flags	-11.5935
tford	-11.5935
▁angu	-11.5936
▁thor	-11.5936
▁redeem	-11.5937
▁distracted	-11.5937
▁expel	-11.5937
▁grey	-11.5938
▁coloured	-11.5938
▁gay	-11.5939
▁peterson	-11.5939
gauge	-11.594
they	-11.594
▁mold	-11.5941
▁perf	-11.5941
▁becky	-11.5943
▁qualifying	-11.5944
calculations	-11.5944
stein	-11.5945
▁mona	-11.5945
▁dum	-11.5945
▁llt	-11.5945
booboo	-11.5946
▁davidson	-11.5946
▁idol	-11.5947
▁projection	-11.5947
▁drownd	-11.5948
▁loosen	-11.5949
▁foolishly	-11.595
▁collector	-11.5951
▁lineup	-11.5952
▁bestow	-11.5952
ehouse	-11.5953
sault	-11.5953
▁taka	-11.5954
▁dent	-11.5955
▁approached	-11.5956
▁wither	-11.5956
▁temper	-11.5956
▁momentum	-11.5957
▁peeled	-11.5957
▁cupid	-11.5957
▁fearful	-11.5958
▁revealing	-11.5958
▁brushing	-11.5958
▁nail	-11.5959
taking	-11.596
▁sewer	-11.5963
▁frenchman	-11.5964
▁monte	-11.5964
▁accomplished	-11.5965
▁selected	-11.5966
▁carmen	-11.5967
ean	-11.5967
▁boor	-11.5968
▁measured	-11.5969
▁toil	-11.5969
▁dock	-11.597
▁burnt	-11.597
▁satisfying	-11.5972
bit	-11.5972
▁stomping	-11.5973
▁slacks	-11.5974
▁halt	-11.5974
▁smuts	-11.5974
▁civilians	-11.5974
▁cyclones	-11.5974
▁tremors	-11.5974
▁irony	-11.5975
▁reassign	-11.5975
▁painter	-11.5975
hoe	-11.5975
▁coordinates	-11.5977
▁seams	-11.5978
▁suspenders	-11.5978
▁sung	-11.598
▁tub	-11.598
did	-11.5981
▁lone	-11.5983
▁scalped	-11.5984
▁clinking	-11.5986
▁reviewing	-11.5987
▁courts	-11.599
▁assum	-11.5991
ith	-11.5991
▁pry	-11.5992
▁sto	-11.5992
▁cargo	-11.5993
▁intended	-11.5994
▁prevented	-11.5994
antes	-11.5994
▁hesitation	-11.5995
of	-11.6
▁cato	-11.6002
▁surg	-11.6002
▁bene	-11.6003
▁zi	-11.6004
▁hub	-11.6005
▁forrester	-11.6008
▁forty	-11.6009
▁louder	-11.601
▁pine	-11.601
▁pic	-11.601
▁wir	-11.6012
▁carryin	-11.6012
▁warmer	-11.6012
▁dash	-11.6014
▁ripe	-11.6015
▁taller	-11.6015
▁informed	-11.602
▁lizzy	-11.6022
▁motives	-11.6025
▁conclusions	-11.6025
▁microchips	-11.6025
▁parathas	-11.6025
▁operatives	-11.6025
▁weaken	-11.6025
▁icons	-11.6025
▁vocals	-11.6025
▁protestants	-11.6025
▁closest	-11.6026
▁beauti	-11.6026
▁heels	-11.6026
▁pasta	-11.6027
▁nest	-11.6028
▁intrud	-11.6028
▁heed	-11.6031
▁nancy	-11.6034
▁advanced	-11.6037
erm	-11.6039
lery	-11.6039
fly	-11.6042
▁blaz	-11.6042
▁weirdo	-11.6048
icon	-11.6052
▁loaned	-11.6053
▁insisting	-11.6056
▁attended	-11.6061
▁crashed	-11.6061
▁tres	-11.6061
▁tabs	-11.6062
▁iive	-11.6064
▁mastermind	-11.607
take	-11.6076
▁bribes	-11.6077
▁elements	-11.6077
▁ounces	-11.6077
▁headstones	-11.6077
▁outdoors	-11.6077
▁donuts	-11.6077
▁scouts	-11.6078
▁delayed	-11.6079
▁readers	-11.608
aha	-11.608
▁deserved	-11.6081
antly	-11.6084
▁treaty	-11.6084
▁blackmailing	-11.6085
bled	-11.6088
▁walde	-11.6088
▁bile	-11.6091
fusion	-11.6094
▁rump	-11.6094
▁bumper	-11.6096
▁catches	-11.6099
▁attempting	-11.6099
▁stretching	-11.61
▁lid	-11.6101
▁prop	-11.6105
▁blamed	-11.6107
▁resigned	-11.6109
▁jars	-11.6113
▁ruler	-11.6114
▁dumped	-11.6117
▁consen	-11.6121
▁logs	-11.6121
▁nord	-11.6122
▁boxers	-11.6124
▁ret	-11.6124
▁collecting	-11.6128
▁repeated	-11.6128
▁radicals	-11.6129
▁summons	-11.6129
▁railroads	-11.6129
▁saloons	-11.6129
▁colours	-11.613
▁capitalists	-11.613
▁cables	-11.6132
▁pining	-11.6135
bard	-11.6135
holes	-11.6136
▁sharpen	-11.6157
▁conditioning	-11.616
▁cracking	-11.616
▁sadly	-11.6162
▁martine	-11.6167
▁acalm	-11.6168
▁peer	-11.6169
▁skipp	-11.6174
▁offers	-11.6174
▁pointer	-11.618
▁transcripts	-11.6181
▁cupcakes	-11.6181
▁tshirts	-11.6181
▁decades	-11.6182
▁ohga	-11.6183
▁shocking	-11.6185
▁stored	-11.6186
▁presumpt	-11.6196
▁stac	-11.6197
▁striker	-11.6197
▁blocked	-11.6198
cious	-11.6201
abolic	-11.6204
▁traveled	-11.6209
▁fightin	-11.621
ops	-11.6214
dodo	-11.6223
▁doubled	-11.623
▁blinded	-11.6232
▁grabb	-11.6233
▁rust	-11.6234
▁facet	-11.6234
▁reviews	-11.6235
oof	-11.6239
▁kati	-11.624
▁sickly	-11.6242
leep	-11.6245
▁coasting	-11.625
▁bes	-11.625
▁adding	-11.6253
eek	-11.6261
arctic	-11.6262
▁deserter	-11.6264
▁proudly	-11.6269
▁tis	-11.6271
▁washe	-11.6273
gh	-11.6275
urray	-11.6277
▁washing	-11.628
pie	-11.6286
▁cheeks	-11.6287
▁herds	-11.6287
▁fins	-11.6288
▁knots	-11.6288
alma	-11.6288
▁geez	-11.6297
▁remaining	-11.6304
▁squee	-11.6311
▁existing	-11.6313
▁puss	-11.6318
▁dea	-11.6327
▁joan	-11.6333
▁gau	-11.6337
tung	-11.6337
▁formed	-11.634
▁disappears	-11.6343
▁smelled	-11.6345
▁cri	-11.6346
▁clearer	-11.635
bear	-11.635
▁sic	-11.6352
▁lens	-11.6355
▁ci	-11.6355
▁seeking	-11.6361
ock	-11.6365
oss	-11.6368
pas	-11.6376
conception	-11.6379
top	-11.6379
ids	-11.6379
▁sull	-11.6385
▁cord	-11.6389
▁licks	-11.6389
▁theaters	-11.6393
▁grounded	-11.6394
▁jamm	-11.6395
▁griev	-11.6399
gling	-11.64
▁tw	-11.6407
▁maniacal	-11.6415
▁chant	-11.6416
▁bal	-11.6424
▁misses	-11.6427
uisin	-11.6429
▁colli	-11.6434
uve	-11.6435
can	-11.644
▁albums	-11.6447
▁towels	-11.6447
▁sentences	-11.6448
▁photographs	-11.6448
▁designs	-11.6451
now	-11.6458
heads	-11.646
▁tent	-11.6464
▁suited	-11.6482
ades	-11.6486
▁amo	-11.6497
▁boost	-11.6497
▁pl	-11.65
▁items	-11.65
▁targets	-11.65
▁recordings	-11.6502
ira	-11.6504
▁wal	-11.6505
▁brow	-11.6522
▁honored	-11.6525
▁meetings	-11.6529
▁bubb	-11.6531
lves	-11.6534
lash	-11.6535
ench	-11.6535
▁reaching	-11.6539
hoots	-11.6539
udge	-11.6541
▁occasional	-11.6543
lets	-11.6543
▁jer	-11.6549
▁touche	-11.6549
▁bananas	-11.6554
▁reservations	-11.6554
aki	-11.6558
wee	-11.6567
logical	-11.657
▁kicking	-11.6576
ama	-11.6592
matic	-11.66
▁growl	-11.6607
hugging	-11.6608
▁experiments	-11.6608
▁maidens	-11.6608
▁diseases	-11.6608
▁lectures	-11.6608
▁helicopters	-11.6608
▁davey	-11.6609
▁grin	-11.6612
▁filming	-11.6615
rammed	-11.6617
▁timeless	-11.662
iers	-11.663
handed	-11.6631
▁hau	-11.6633
▁scars	-11.6633
▁dor	-11.6635
tant	-11.6639
▁sallys	-11.6661
▁thrills	-11.6662
▁strings	-11.6662
▁presented	-11.6666
rick	-11.6674
▁mir	-11.6676
▁subs	-11.6702
▁hobb	-11.6715
▁singers	-11.6716
▁assignments	-11.6717
▁stevens	-11.6725
lance	-11.6737
▁operat	-11.6739
▁illness	-11.6753
▁snaps	-11.6764
arrow	-11.6771
▁oceans	-11.6771
▁meals	-11.6772
▁directions	-11.6773
▁loans	-11.6775
▁divide	-11.6787
▁keepin	-11.681
hmm	-11.6819
▁privileges	-11.6826
▁benefits	-11.6826
bri	-11.6838
ital	-11.6849
eyed	-11.6861
lide	-11.6872
izing	-11.6872
▁sugars	-11.688
rich	-11.6887
lore	-11.6891
▁cracks	-11.6891
▁nam	-11.6894
▁phoned	-11.6897
stage	-11.691
erry	-11.6921
sunda	-11.6924
▁chops	-11.6934
▁artists	-11.6935
▁thompsons	-11.6937
dle	-11.6937
▁rabbits	-11.6937
▁females	-11.6938
▁imim	-11.6949
▁kne	-11.6954
rel	-11.6959
▁ang	-11.6965
▁weekends	-11.6992
▁belts	-11.6993
▁swings	-11.6997
▁parallel	-11.7019
▁and	-11.7031
rodu	-11.7038
▁experts	-11.7047
▁cantervilles	-11.7048
▁chatt	-11.7049
▁markets	-11.7056
▁hor	-11.7072
iana	-11.7085
▁musical	-11.7085
▁che	-11.7092
fer	-11.7099
▁mit	-11.7106
▁barre	-11.7118
▁quest	-11.7124
▁disc	-11.7136
▁gand	-11.714
▁tur	-11.7145
▁stomachs	-11.716
▁relate	-11.7169
owning	-11.718
▁tre	-11.719
▁smokes	-11.723
▁bros	-11.7231
cbs	-11.7264
▁nobles	-11.7272
▁gow	-11.7288
▁bulls	-11.7291
yker	-11.7294
▁rena	-11.7295
▁imper	-11.7298
igio	-11.7303
mate	-11.7307
▁sleds	-11.7328
▁officials	-11.7331
▁owed	-11.7332
▁matties	-11.7335
▁serv	-11.7336
▁defender	-11.7369
▁catcher	-11.7371
oke	-11.739
▁creates	-11.739
▁doi	-11.7399
gie	-11.7399
▁sou	-11.7405
▁funnie	-11.7408
prone	-11.7412
jah	-11.7415
▁ze	-11.7418
achi	-11.7419
arne	-11.7431
sen	-11.7435
▁credits	-11.7437
▁exterminat	-11.7462
▁hugg	-11.7479
▁funnies	-11.7483
▁trampl	-11.7535
▁mus	-11.7542
▁violate	-11.7549
▁multi	-11.7559
▁ruins	-11.7563
new	-11.7567
lier	-11.7568
▁ties	-11.7587
name	-11.759
▁storms	-11.7605
▁guides	-11.7613
▁adams	-11.7615
▁sharks	-11.7616
▁pairs	-11.7617
phony	-11.7617
▁boing	-11.7622
yle	-11.7636
▁haz	-11.765
lot	-11.7653
▁parc	-11.7664
▁scru	-11.7684
aged	-11.7685
▁rott	-11.7688
▁travels	-11.7688
lain	-11.7692
marty	-11.7694
haha	-11.7699
nder	-11.77
▁sayin	-11.7702
act	-11.7714
vile	-11.7715
▁zap	-11.7742
mmer	-11.7761
ctic	-11.7779
▁your	-11.7804
▁hearings	-11.7806
rousing	-11.7812
▁leas	-11.7856
▁panz	-11.7861
▁shade	-11.7866
tis	-11.787
▁unc	-11.7886
esh	-11.7898
▁terr	-11.7928
▁bind	-11.7928
ricky	-11.7946
pine	-11.7961
▁popp	-11.7982
elle	-11.8007
▁scrib	-11.8007
doz	-11.8017
backs	-11.8019
tam	-11.8022
are	-11.805
▁hilt	-11.8054
urse	-11.8066
amore	-11.8071
▁rab	-11.8106
ella	-11.8107
iller	-11.8115
umps	-11.8118
▁boa	-11.8133
▁titan	-11.8154
▁div	-11.8154
overs	-11.8185
▁captiv	-11.819
▁spiritu	-11.8217
log	-11.8223
eology	-11.8237
mont	-11.8251
eys	-11.8261
ffe	-11.8263
▁ruf	-11.8269
▁stampede	-11.8275
▁aa	-11.8275
illa	-11.8281
▁hun	-11.8286
▁vern	-11.8295
▁shap	-11.8311
scribe	-11.8311
▁gooseb	-11.8316
andal	-11.8319
▁tro	-11.8333
▁rape	-11.8338
colored	-11.8349
devil	-11.8362
▁horri	-11.8364
pers	-11.842
addy	-11.8422
igh	-11.8435
▁der	-11.8459
umbling	-11.8537
eden	-11.8548
▁circ	-11.8553
▁tra	-11.8556
still	-11.8573
▁dol	-11.8583
ple	-11.8603
nen	-11.8609
eft	-11.861
▁bin	-11.8615
ipper	-11.8619
▁jul	-11.8625
▁glo	-11.8659
metres	-11.8666
▁pac	-11.867
▁luri	-11.8701
fying	-11.8712
moving	-11.8715
ulation	-11.8725
▁the	-11.8737
ggin	-11.8741
▁dag	-11.8745
awn	-11.8749
▁vill	-11.8757
arr	-11.8762
▁ump	-11.8802
minded	-11.8807
▁sher	-11.8809
▁scrap	-11.8828
sand	-11.8847
iate	-11.8848
atic	-11.8852
apped	-11.8854
▁kar	-11.8857
try	-11.8907
▁ble	-11.891
▁magi	-11.8933
ika	-11.8941
▁theo	-11.8948
acious	-11.8948
hold	-11.8952
▁bathe	-11.8959
fish	-11.8963
ribu	-11.8971
▁accelerat	-11.8972
antoni	-11.898
oop	-11.8982
pon	-11.8984
▁rag	-11.8986
▁simpl	-11.8988
▁involv	-11.8989
▁clang	-11.9016
▁divin	-11.9016
▁gam	-11.9016
fia	-11.9023
▁vocal	-11.9031
▁toot	-11.904
▁intru	-11.9041
▁relative	-11.9041
▁miffy	-11.9041
▁receipt	-11.9041
▁interval	-11.9043
▁kilo	-11.9044
▁rib	-11.9045
▁microchip	-11.905
▁slug	-11.905
▁paratha	-11.905
▁conclusion	-11.905
▁operative	-11.9052
reen	-11.9052
▁protestant	-11.9053
▁wav	-11.9054
▁shepherd	-11.9054
▁exam	-11.9058
▁knuckle	-11.906
▁fingerprint	-11.9061
boy	-11.9061
▁phillip	-11.9061
▁veteran	-11.9064
▁musketeer	-11.9065
▁spade	-11.9066
▁exclaim	-11.9066
▁tire	-11.9066
▁exhale	-11.9067
ender	-11.9073
▁cube	-11.9073
▁worm	-11.9073
▁heel	-11.9075
▁musher	-11.9075
▁motive	-11.9077
▁elli	-11.908
▁chart	-11.9081
cal	-11.9089
▁nickel	-11.909
▁paw	-11.9095
▁bandit	-11.9095
amba	-11.91
asters	-11.9103
ologist	-11.9104
▁icon	-11.9116
nam	-11.9118
▁cracker	-11.9126
▁tab	-11.913
look	-11.9141
▁disappoint	-11.9143
cka	-11.9144
▁zip	-11.9145
▁stud	-11.9148
ground	-11.9151
lars	-11.9154
▁rac	-11.9156
▁hea	-11.9158
▁imagina	-11.916
cart	-11.9163
ggies	-11.9163
arity	-11.9164
▁negotiat	-11.9164
▁gaj	-11.9172
▁appall	-11.9177
izer	-11.9179
flat	-11.9179
plane	-11.9179
▁terrify	-11.918
▁annoy	-11.918
▁taunt	-11.918
cra	-11.9181
print	-11.9183
front	-11.9183
garet	-11.9185
▁plac	-11.9187
place	-11.9187
▁whale	-11.9188
▁troubl	-11.9188
▁suppos	-11.9188
▁invent	-11.9188
loaf	-11.9188
shaw	-11.9188
paper	-11.9188
flower	-11.9188
bald	-11.9188
▁pinch	-11.9189
developed	-11.9189
cross	-11.9189
shot	-11.919
drums	-11.919
fortune	-11.919
style	-11.919
▁compar	-11.919
changing	-11.9191
familiar	-11.9191
bottle	-11.9191
mighty	-11.9191
thousand	-11.9191
throat	-11.9191
consider	-11.9191
minute	-11.9191
world	-11.9191
strong	-11.9191
hello	-11.9191
sweet	-11.9192
flash	-11.9192
bridge	-11.9192
walk	-11.9193
▁linger	-11.9193
married	-11.9193
▁medic	-11.9194
▁manufacture	-11.9194
lucky	-11.9195
case	-11.9195
▁dismiss	-11.9195
▁mash	-11.9196
wheel	-11.9197
whoa	-11.9197
door	-11.9199
master	-11.92
round	-11.9202
ough	-11.9203
mura	-11.9204
band	-11.9204
ncineroar	-11.9205
▁lodge	-11.9207
made	-11.9207
▁engage	-11.9208
▁scoot	-11.9208
wit	-11.9208
▁confuse	-11.9209
tale	-11.9209
▁devote	-11.921
▁curl	-11.9212
▁philosoph	-11.9212
signor	-11.9212
▁exclusive	-11.9212
▁spook	-11.9213
therland	-11.9213
fare	-11.9214
▁conservative	-11.9214
▁laundr	-11.9214
▁energ	-11.9214
▁snuff	-11.9214
▁mug	-11.9214
▁custom	-11.9215
▁escap	-11.9215
▁pompo	-11.9215
▁heavi	-11.9215
▁moderat	-11.9217
▁wond	-11.9217
trilo	-11.9218
▁blitz	-11.9218
ubbed	-11.9218
laughter	-11.9219
▁bleed	-11.9219
▁alexand	-11.9219
iche	-11.922
▁clan	-11.922
▁chess	-11.922
ilton	-11.9221
▁plumb	-11.9221
▁sketch	-11.9221
west	-11.9221
▁tomato	-11.9222
▁prettie	-11.9222
▁weave	-11.9222
▁rabbi	-11.9222
▁korea	-11.9222
▁shush	-11.9222
▁cork	-11.9223
▁cynic	-11.9223
ease	-11.9224
▁secre	-11.9224
▁veget	-11.9224
▁gilma	-11.9225
▁guild	-11.9225
▁tow	-11.9225
odo	-11.9225
▁anchov	-11.9226
▁inject	-11.9226
▁croton	-11.9226
▁michel	-11.9226
▁canvas	-11.9226
▁labour	-11.9226
▁weddin	-11.9226
yard	-11.9227
▁mechani	-11.9227
▁combust	-11.9227
▁outrage	-11.9227
▁ordina	-11.9227
▁posit	-11.9227
▁transmit	-11.9227
▁diploma	-11.9227
▁absolu	-11.9227
▁anchor	-11.9227
▁choco	-11.9228
snortin	-11.9228
▁holla	-11.9228
▁sponge	-11.9228
▁skelet	-11.9228
▁anthropo	-11.9228
▁emerge	-11.9228
▁grizz	-11.9228
▁migra	-11.9228
▁nourish	-11.9228
▁ornament	-11.9228
apolis	-11.9228
because	-11.9228
clamation	-11.9228
obedience	-11.9228
sfrance	-11.9228
technician	-11.9228
▁abalardi	-11.9228
▁accommodation	-11.9228
▁acquainted	-11.9228
▁akina	-11.9228
▁alcohol	-11.9228
▁algebra	-11.9228
▁alibi	-11.9228
▁allegiance	-11.9228
▁amateur	-11.9228
▁ambush	-11.9228
▁amsucco	-11.9228
▁anarchists	-11.9228
▁anglophobia	-11.9228
▁anjou	-11.9228
▁annabelle	-11.9228
▁annihilat	-11.9228
▁answersheet	-11.9228
▁anticipation	-11.9228
▁anyplace	-11.9228
▁archetypal	-11.9228
▁architect	-11.9228
▁argentin	-11.9228
▁ashtray	-11.9228
▁auvergne	-11.9228
▁baboon	-11.9228
▁ballgame	-11.9228
▁basilica	-11.9228
▁baudelaire	-11.9228
▁before	-11.9228
▁belfry	-11.9228
▁bimbo	-11.9228
▁biondi	-11.9228
▁blindfold	-11.9228
▁blizzard	-11.9228
▁bolshevism	-11.9228
▁brunette	-11.9228
▁bulbasaur	-11.9228
▁bulma	-11.9228
▁caliber	-11.9228
▁camouflage	-11.9228
▁cannybull	-11.9228
▁carnival	-11.9228
▁casserole	-11.9228
▁castilho	-11.9228
▁celebrity	-11.9228
▁cervantes	-11.9228
▁chatbag	-11.9228
▁civilisation	-11.9228
▁clarinet	-11.9228
▁clemente	-11.9228
▁clunking	-11.9228
▁cockroaches	-11.9228
▁comintern	-11.9228
▁commute	-11.9228
▁convenience	-11.9228
▁coyote	-11.9228
▁creativity	-11.9228
▁cremation	-11.9228
▁crypto	-11.9228
▁cuckoo	-11.9228
▁culprit	-11.9228
▁daydream	-11.9228
▁defensive	-11.9228
▁definition	-11.9228
▁degrad	-11.9228
▁delegation	-11.9228
▁delude	-11.9228
▁demoralize	-11.9228
▁diagram	-11.9228
▁diaval	-11.9228
▁dijon	-11.9228
▁discerning	-11.9228
▁disqualified	-11.9228
▁dupont	-11.9228
▁dweeb	-11.9228
▁dynamic	-11.9228
▁eccentric	-11.9228
▁eisenhower	-11.9228
▁enchanted	-11.9228
▁encore	-11.9228
▁engelpuke	-11.9228
▁enhance	-11.9228
▁eugene	-11.9228
▁evaluate	-11.9228
▁exhaling	-11.9228
▁exploit	-11.9228
▁exploring	-11.9228
▁extravagance	-11.9228
▁february	-11.9228
▁fettuccine	-11.9228
▁filipino	-11.9228
▁fonzanoon	-11.9228
▁fracture	-11.9228
▁fraternity	-11.9228
▁freemason	-11.9228
▁frustration	-11.9228
▁galaktico	-11.9228
▁gasoline	-11.9228
▁generosity	-11.9228
▁geranium	-11.9228
▁ghibli	-11.9228
▁gingerbread	-11.9228
▁gleaming	-11.9228
▁glisten	-11.9228
▁godfather	-11.9228
▁granddaughter	-11.9228
▁gravity	-11.9228
▁guinea	-11.9228
▁haggadah	-11.9228
▁hallucinations	-11.9228
▁heavyweight	-11.9228
▁hebrides	-11.9228
▁hoffman	-11.9228
▁holtbrow	-11.9228
▁hulahoop	-11.9228
▁humidity	-11.9228
▁humiliating	-11.9228
▁hyphenated	-11.9228
▁identifiable	-11.9228
▁identification	-11.9228
▁immoral	-11.9228
▁impeachment	-11.9228
▁implicated	-11.9228
▁incompeten	-11.9228
▁incriminat	-11.9228
▁indestructible	-11.9228
▁indictment	-11.9228
▁infinity	-11.9228
▁iniquity	-11.9228
▁insensitiv	-11.9228
▁intimidat	-11.9228
▁jabbeling	-11.9228
▁jittery	-11.9228
▁juniper	-11.9228
▁katheryn	-11.9228
▁kennedy	-11.9228
▁kilimanjaro	-11.9228
▁kindergarten	-11.9228
▁knockknock	-11.9228
▁kuramochi	-11.9228
▁lacerations	-11.9228
▁leotards	-11.9228
▁limousine	-11.9228
▁lutheran	-11.9228
▁lycanroc	-11.9228
▁maestro	-11.9228
▁makeawish	-11.9228
▁marshmallow	-11.9228
▁marvellous	-11.9228
▁matzo	-11.9228
▁menthol	-11.9228
▁merchandise	-11.9228
▁metapod	-11.9228
▁metatron	-11.9228
▁meticulous	-11.9228
▁miniature	-11.9228
▁mishap	-11.9228
▁mitzvah	-11.9228
▁miyatsuko	-11.9228
▁moccasins	-11.9228
▁monocle	-11.9228
▁monologue	-11.9228
▁monroe	-11.9228
▁mosquito	-11.9228
▁mumbojumbo	-11.9228
▁myriad	-11.9228
▁mythology	-11.9228
▁nagasaki	-11.9228
▁negro	-11.9228
▁nineyearold	-11.9228
▁nitwit	-11.9228
▁nostalgi	-11.9228
▁nunnery	-11.9228
▁olafsen	-11.9228
▁opportunist	-11.9228
▁opportunities	-11.9228
▁ostos	-11.9228
▁overseas	-11.9228
▁overslept	-11.9228
▁pablo	-11.9228
▁parachute	-11.9228
▁paragraph	-11.9228
▁pennington	-11.9228
▁perilous	-11.9228
▁perimeter	-11.9228
▁perpetrator	-11.9228
▁perplexing	-11.9228
▁perverse	-11.9228
▁pfft	-11.9228
▁philadelphia	-11.9228
▁phlebitis	-11.9228
▁pianist	-11.9228
▁pignet	-11.9228
▁pineapple	-11.9228
▁pirouette	-11.9228
▁pitiful	-11.9228
▁pizzeria	-11.9228
▁platter	-11.9228
▁popcorn	-11.9228
▁portfolio	-11.9228
▁preparation	-11.9228
▁prosecute	-11.9228
▁protocol	-11.9228
▁puberty	-11.9228
▁pulveriz	-11.9228
▁purchasing	-11.9228
▁puritan	-11.9228
▁purple	-11.9228
▁pursuing	-11.9228
▁pyjamas	-11.9228
▁quarry	-11.9228
▁radek	-11.9228
▁raikou	-11.9228
▁reappear	-11.9228
▁recognition	-11.9228
▁reconnaissance	-11.9228
▁recruit	-11.9228
▁rectang	-11.9228
▁reggie	-11.9228
▁regulations	-11.9228
▁reinforce	-11.9228
▁relaps	-11.9228
▁replacing	-11.9228
▁resolution	-11.9228
▁resourceful	-11.9228
▁rookie	-11.9228
▁sardine	-11.9228
▁savior	-11.9228
▁saxophon	-11.9228
▁scumbag	-11.9228
▁seizure	-11.9228
▁semester	-11.9228
▁sequel	-11.9228
▁shelf	-11.9228
▁shirley	-11.9228
▁shrewd	-11.9228
▁shrunk	-11.9228
▁singapore	-11.9228
▁skoglund	-11.9228
▁slingshots	-11.9228
▁snoot	-11.9228
▁soggy	-11.9228
▁spangler	-11.9228
▁specimen	-11.9228
▁spectacle	-11.9228
▁sprained	-11.9228
▁steroids	-11.9228
▁stooge	-11.9228
▁substantial	-11.9228
▁superpowers	-11.9228
▁sursicks	-11.9228
▁switzerland	-11.9228
▁taffy	-11.9228
▁tepee	-11.9228
▁thirteen	-11.9228
▁thoreau	-11.9228
▁thoroughbred	-11.9228
▁thoroughly	-11.9228
▁thrust	-11.9228
▁tibbs	-11.9228
▁tightrope	-11.9228
▁toodleoo	-11.9228
▁trawler	-11.9228
▁trevor	-11.9228
▁trogglehumper	-11.9228
▁tuberculosis	-11.9228
▁twilight	-11.9228
▁typewriter	-11.9228
▁ugli	-11.9228
▁underestimate	-11.9228
▁unforgivable	-11.9228
▁unforgiving	-11.9228
▁unofficially	-11.9228
▁unorthodox	-11.9228
▁utility	-11.9228
▁vanquished	-11.9228
▁vargas	-11.9228
▁vintage	-11.9228
▁voiunteer	-11.9228
▁voodoo	-11.9228
▁whichever	-11.9228
▁whigham	-11.9228
▁whitman	-11.9228
▁wichita	-11.9228
▁womb	-11.9228
▁wrestling	-11.9228
▁xobytes	-11.9228
▁yield	-11.9228
▁yourseif	-11.9228
▁zombie	-11.9228
▁absorb	-11.9228
▁britain	-11.9228
▁crumpl	-11.9228
▁duffle	-11.9228
▁pollut	-11.9228
▁purif	-11.9228
▁segment	-11.9228
▁wannabe	-11.9228
▁beaver	-11.9228
▁bicker	-11.9228
▁buddies	-11.9228
▁clientele	-11.9228
▁commendations	-11.9228
▁droite	-11.9228
▁emmenezle	-11.9228
▁flaws	-11.9228
▁galena	-11.9228
▁hittite	-11.9228
▁hubert	-11.9228
▁hudson	-11.9228
▁immigrants	-11.9228
▁inclined	-11.9228
▁kgb	-11.9228
▁machinegun	-11.9228
▁magnif	-11.9228
▁overdue	-11.9228
▁preparing	-11.9228
▁pulp	-11.9228
▁sarcas	-11.9228
▁wrist	-11.9228
▁bapu	-11.9228
▁botot	-11.9228
▁crumble	-11.9228
▁denial	-11.9228
▁essence	-11.9228
▁ipod	-11.9228
▁millionaires	-11.9228
▁partlow	-11.9228
▁physics	-11.9228
▁reopen	-11.9228
▁shucks	-11.9228
▁sunrise	-11.9228
▁sykes	-11.9228
▁thawed	-11.9228
▁throne	-11.9228
▁wray	-11.9228
pathy	-11.9228
▁laddie	-11.9228
▁misfit	-11.9228
▁parme	-11.9228
▁parson	-11.9228
▁peekaboo	-11.9228
▁sedative	-11.9228
▁boulder	-11.9228
▁consensus	-11.9228
▁crocodile	-11.9228
▁felon	-11.9228
▁licence	-11.9228
▁pioneer	-11.9228
▁provision	-11.9228
▁skate	-11.9228
▁stumble	-11.9228
▁taylor	-11.9228
▁udon	-11.9228
▁xray	-11.9228
▁beverly	-11.9228
▁denied	-11.9228
▁kosher	-11.9228
▁lucario	-11.9228
▁melodi	-11.9228
▁mobiliz	-11.9228
▁relied	-11.9228
▁relive	-11.9228
▁slander	-11.9228
▁splurg	-11.9228
▁pvt	-11.9228
▁atroci	-11.9228
▁bozo	-11.9228
▁homosexual	-11.9228
▁lnspector	-11.9228
▁trembling	-11.9228
▁firerat	-11.9228
▁orlando	-11.9228
▁cantonese	-11.9228
▁minus	-11.9228
▁publish	-11.9228
▁shears	-11.9228
▁transgression	-11.9228
▁josie	-11.9228
▁articu	-11.9228
▁knack	-11.9228
▁oslo	-11.9228
▁trough	-11.9228
▁woozy	-11.9228
▁barrows	-11.9228
▁caleb	-11.9228
▁sledders	-11.9228
▁wsga	-11.9228
▁shenlong	-11.9228
▁cavern	-11.9228
▁radiator	-11.9228
▁scrabble	-11.9228
▁siggy	-11.9228
▁cradle	-11.9228
▁deleting	-11.9228
▁janitor	-11.9228
▁balloon	-11.9228
▁gaulle	-11.9228
▁quiche	-11.9228
▁tombstone	-11.9228
▁graduation	-11.9228
▁tactics	-11.9228
▁harass	-11.9228
▁ceremoni	-11.9228
▁gangsters	-11.9228
▁iisten	-11.9228
▁goddess	-11.9228
▁undead	-11.9228
▁agnew	-11.9228
▁demented	-11.9228
▁compact	-11.9228
▁courtesy	-11.9228
▁humiliation	-11.9228
▁seminar	-11.9228
▁barbarians	-11.9228
▁necessity	-11.9228
▁picketing	-11.9228
▁turbo	-11.9228
▁biological	-11.9228
▁sunya	-11.9228
▁barging	-11.9229
▁compose	-11.9229
▁agitat	-11.9229
▁proclaim	-11.9229
▁steep	-11.9229
dictable	-11.9229
▁charitable	-11.9229
▁ozgood	-11.9229
▁errand	-11.9229
▁gallop	-11.9229
▁referred	-11.9229
▁debris	-11.9229
▁bellows	-11.9229
▁referee	-11.9229
▁communicating	-11.9229
▁breach	-11.9229
▁compound	-11.9229
▁psychology	-11.9229
▁dreiser	-11.9229
▁airways	-11.9229
▁nominate	-11.9229
▁oars	-11.9229
▁triangle	-11.9229
▁skirt	-11.9229
▁tread	-11.9229
▁bonnet	-11.9229
▁clough	-11.9229
▁grease	-11.9229
▁vionnet	-11.9229
▁convertible	-11.9229
▁spokesman	-11.9229
▁appreciation	-11.9229
▁inspection	-11.9229
▁mountaineer	-11.9229
▁atti	-11.9229
▁magique	-11.9229
▁bias	-11.9229
▁girlyman	-11.9229
▁banjo	-11.9229
▁shoelace	-11.9229
▁shudder	-11.9229
▁depriv	-11.9229
▁gohan	-11.9229
▁bouncing	-11.9229
▁tuning	-11.9229
songwriter	-11.9229
▁glare	-11.9229
▁beggar	-11.9229
▁cere	-11.9229
▁disrespect	-11.9229
▁plague	-11.9229
▁clergyman	-11.9229
▁downtown	-11.9229
▁groceries	-11.9229
▁simpson	-11.9229
▁vague	-11.9229
▁sideways	-11.9229
▁waffles	-11.9229
▁reld	-11.9229
▁sirica	-11.9229
▁quirk	-11.9229
▁tinker	-11.9229
▁barrier	-11.9229
▁overreacting	-11.9229
▁rebuilt	-11.9229
▁aftershock	-11.9229
▁ciose	-11.9229
▁observation	-11.9229
▁coup	-11.9229
▁indicating	-11.9229
▁indignity	-11.9229
▁movin	-11.9229
▁dawson	-11.9229
▁domain	-11.9229
▁humanitarian	-11.9229
▁ragtime	-11.9229
▁seasick	-11.9229
▁patsy	-11.9229
▁penalt	-11.9229
▁balby	-11.9229
▁cuppy	-11.9229
▁fiasco	-11.9229
▁meditation	-11.9229
▁outlook	-11.9229
▁aryan	-11.9229
▁munks	-11.9229
▁shaving	-11.9229
▁ceasefire	-11.9229
▁flashback	-11.9229
▁lncoming	-11.9229
▁plow	-11.9229
▁buttonholes	-11.9229
▁daddies	-11.9229
▁spinach	-11.9229
▁yelp	-11.9229
▁supplement	-11.9229
▁rasta	-11.9229
▁dishonour	-11.9229
▁waff	-11.9229
▁shlain	-11.9229
▁terrorism	-11.9229
▁oblivion	-11.9229
▁transition	-11.9229
▁sprint	-11.9229
▁berlin	-11.9229
▁harold	-11.9229
▁kilt	-11.9229
▁tux	-11.9229
▁pirate	-11.9229
▁morocco	-11.9229
▁lump	-11.9229
▁liking	-11.9229
▁outcome	-11.9229
▁junction	-11.9229
▁grid	-11.9229
▁trance	-11.923
▁stalin	-11.923
▁brood	-11.923
▁collectible	-11.923
▁vandal	-11.923
▁boundaries	-11.923
▁hippo	-11.923
▁evian	-11.923
▁pillow	-11.923
▁forthcoming	-11.923
▁intimate	-11.923
▁ensure	-11.923
▁epic	-11.923
▁kaiser	-11.923
▁amuse	-11.923
▁bruise	-11.923
▁fritz	-11.923
▁rigged	-11.923
▁flank	-11.923
▁assessment	-11.923
▁harassment	-11.923
▁senhores	-11.923
▁immunity	-11.923
▁download	-11.923
▁arab	-11.923
▁noname	-11.923
▁luke	-11.923
▁dawg	-11.923
▁fiend	-11.923
eisure	-11.923
▁pupil	-11.923
▁vouch	-11.923
▁asia	-11.923
▁swat	-11.923
▁madonna	-11.923
▁fairhair	-11.923
▁raving	-11.923
▁assumption	-11.923
▁sistersinlaw	-11.923
▁homesick	-11.923
▁sanderson	-11.923
▁ronnie	-11.923
▁enroll	-11.923
▁medium	-11.923
▁truman	-11.923
▁michelle	-11.923
▁affectionate	-11.923
▁fortnight	-11.923
▁freddie	-11.923
▁wildflower	-11.923
▁bowels	-11.923
▁ruling	-11.923
▁coconut	-11.923
▁imprisonment	-11.923
▁kipper	-11.923
▁selfdestructive	-11.9231
▁tumbling	-11.9231
▁nuke	-11.9231
gnant	-11.9231
▁vase	-11.9231
▁beret	-11.9231
▁vince	-11.9231
▁carlos	-11.9231
▁esto	-11.9231
▁injection	-11.9231
▁overdone	-11.9231
▁onix	-11.9231
▁parr	-11.9231
▁springfield	-11.9231
visible	-11.9231
▁lowlife	-11.9231
awk	-11.9231
▁pinball	-11.9231
▁glovers	-11.9231
▁barney	-11.9231
▁soap	-11.9231
▁retirement	-11.9231
▁howre	-11.9231
▁meade	-11.9231
▁theories	-11.9231
▁wildlife	-11.9231
▁tsk	-11.9231
▁capitalize	-11.9231
▁compensate	-11.9231
▁dribble	-11.9231
▁spank	-11.9231
▁goldfish	-11.9231
▁mega	-11.9231
▁computerette	-11.9231
▁vicar	-11.9231
▁manifesto	-11.9231
▁visa	-11.9231
▁sentimental	-11.9231
▁socialism	-11.9232
derate	-11.9232
▁revo	-11.9232
▁umpire	-11.9232
▁mortar	-11.9232
▁verity	-11.9232
▁guilders	-11.9232
▁labourers	-11.9232
▁potty	-11.9232
▁oven	-11.9232
▁stressful	-11.9232
▁archi	-11.9232
▁delec	-11.9232
▁dishonesty	-11.9232
▁fluffy	-11.9232
▁ruck	-11.9232
▁pimp	-11.9232
▁valor	-11.9232
▁stitch	-11.9232
▁humpback	-11.9232
▁vipers	-11.9232
▁plop	-11.9232
▁spaz	-11.9232
▁charne	-11.9232
▁creditors	-11.9232
▁carlson	-11.9232
▁irrita	-11.9232
▁refill	-11.9232
▁lockwood	-11.9233
▁moth	-11.9233
▁tangled	-11.9233
etary	-11.9233
▁plumage	-11.9233
▁assets	-11.9233
▁squall	-11.9233
▁fabric	-11.9233
▁dickhead	-11.9233
ronic	-11.9233
▁archer	-11.9233
▁dunk	-11.9233
▁leakage	-11.9233
▁employment	-11.9233
▁pooh	-11.9233
▁formality	-11.9233
▁preference	-11.9233
▁quaker	-11.9233
▁strangled	-11.9233
▁linda	-11.9233
▁possessive	-11.9233
▁requi	-11.9233
▁compassion	-11.9234
▁concluded	-11.9234
▁pike	-11.9234
▁adoption	-11.9234
▁royce	-11.9234
▁prediction	-11.9234
▁soso	-11.9234
▁cannon	-11.9234
▁massive	-11.9234
▁coastline	-11.9234
▁lug	-11.9234
▁mongo	-11.9234
ritz	-11.9234
▁temptation	-11.9234
▁jett	-11.9234
▁grandeur	-11.9234
ique	-11.9234
▁madison	-11.9234
▁seder	-11.9234
ltitude	-11.9234
▁imagery	-11.9234
▁mutters	-11.9234
▁minority	-11.9234
▁puck	-11.9235
▁reich	-11.9235
▁abor	-11.9235
▁payday	-11.9235
▁profitable	-11.9235
▁stockings	-11.9235
▁mower	-11.9235
▁infi	-11.9235
▁gallic	-11.9235
owling	-11.9235
▁shushes	-11.9235
▁sketches	-11.9235
▁hardware	-11.9236
▁bleach	-11.9236
▁caii	-11.9236
▁derailed	-11.9236
▁uk	-11.9236
▁generator	-11.9236
▁wad	-11.9236
▁sisterhood	-11.9236
▁flour	-11.9236
▁woodward	-11.9236
▁assess	-11.9237
▁stale	-11.9237
▁zoom	-11.9237
▁buff	-11.9237
▁vip	-11.9237
▁cuban	-11.9237
▁topped	-11.9237
▁timid	-11.9237
▁immensely	-11.9237
▁dumbass	-11.9237
▁inventor	-11.9237
onnie	-11.9237
▁troublemaker	-11.9238
▁byr	-11.9238
▁hutch	-11.9238
▁duch	-11.9238
▁wallace	-11.9238
▁satch	-11.9238
centennial	-11.9238
▁contradiction	-11.9238
▁shaft	-11.9238
▁tarzan	-11.9238
▁variety	-11.9238
▁vulnerable	-11.9238
▁jumbo	-11.9238
▁tissue	-11.9238
▁koto	-11.9238
▁attendant	-11.9238
▁nickname	-11.9238
▁harmony	-11.9238
▁christianity	-11.9239
▁amor	-11.9239
▁regardless	-11.9239
▁weakling	-11.9239
▁ashton	-11.9239
▁batteries	-11.9239
▁freddy	-11.9239
▁chiddler	-11.9239
▁procession	-11.9239
▁attain	-11.924
oohooh	-11.924
▁flori	-11.924
▁assembly	-11.924
▁abdu	-11.924
▁kiii	-11.924
▁roadside	-11.924
insured	-11.924
▁ark	-11.924
▁corker	-11.924
▁suss	-11.924
▁texture	-11.924
▁nuh	-11.924
▁lionel	-11.924
▁wiggle	-11.9241
▁ferry	-11.9241
▁entit	-11.9241
▁lisa	-11.9241
▁polyt	-11.9241
imaginative	-11.9241
▁secondhand	-11.9242
▁scul	-11.9242
▁ury	-11.9242
▁vien	-11.9242
▁negotiate	-11.9242
▁arse	-11.9242
▁debut	-11.9242
manship	-11.9242
▁irie	-11.9243
▁benson	-11.9243
▁fleur	-11.9243
▁moderate	-11.9243
ippin	-11.9243
▁settlement	-11.9243
▁conservatively	-11.9243
▁relatively	-11.9243
▁blah	-11.9243
▁fairway	-11.9244
▁yawn	-11.9244
▁ricket	-11.9244
▁bein	-11.9244
▁lsnt	-11.9244
▁bullshitter	-11.9245
▁philosophy	-11.9245
▁snuffy	-11.9245
▁damp	-11.9245
▁greenland	-11.9245
▁tyrant	-11.9245
▁oz	-11.9245
▁delete	-11.9245
▁ccc	-11.9246
▁pompom	-11.9246
▁napkin	-11.9247
▁slime	-11.9248
▁meaningless	-11.9248
▁wham	-11.9248
▁thisi	-11.9248
▁projector	-11.9248
▁motivation	-11.9248
▁tablets	-11.9249
▁hacker	-11.9249
▁valve	-11.9249
▁joyce	-11.9249
▁soaked	-11.9249
▁conveyed	-11.9249
▁attached	-11.9249
▁instantly	-11.9249
▁spies	-11.9249
▁cameron	-11.9249
▁gunner	-11.9249
▁stow	-11.925
▁banished	-11.925
▁rearrange	-11.9251
▁oppress	-11.9251
▁hometown	-11.9251
▁teamwork	-11.9251
▁lncineroar	-11.9251
▁slimy	-11.9251
nium	-11.9252
▁glenn	-11.9252
▁countryside	-11.9253
▁globe	-11.9254
▁balder	-11.9254
▁nursery	-11.9254
▁freshen	-11.9254
▁frump	-11.9255
▁wizard	-11.9255
▁feat	-11.9256
ority	-11.9256
▁granddaddy	-11.9256
▁informal	-11.9256
▁hideout	-11.9257
▁deriv	-11.9257
ulous	-11.9257
▁betty	-11.9258
▁trustee	-11.9258
▁bushes	-11.9258
▁trio	-11.9259
▁bullock	-11.9259
▁blu	-11.9259
▁payoff	-11.9259
ggot	-11.9259
cer	-11.9259
▁cries	-11.926
▁hull	-11.926
theists	-11.9261
▁sixty	-11.9261
▁prof	-11.9261
anda	-11.9261
▁gaping	-11.9261
▁thatthat	-11.9262
▁bitten	-11.9263
▁runaway	-11.9263
▁kissinger	-11.9263
▁typing	-11.9263
▁judgement	-11.9263
▁messi	-11.9264
▁bunty	-11.9265
▁freeway	-11.9265
▁outsiders	-11.9265
▁conventional	-11.9265
▁baldy	-11.9265
▁deme	-11.9266
▁sna	-11.9266
▁hitched	-11.9266
scoop	-11.9267
▁forsaken	-11.9267
tton	-11.9267
▁but	-11.9268
▁spew	-11.9269
▁lloyd	-11.9269
▁daring	-11.9269
▁snores	-11.927
▁fere	-11.927
▁bulbs	-11.927
▁cheeseburgers	-11.927
▁condolences	-11.927
▁eskimos	-11.927
▁gnomes	-11.927
▁seagulls	-11.927
▁sprinkles	-11.9271
▁moss	-11.9271
thats	-11.9271
hene	-11.9272
opes	-11.9272
hat	-11.9274
▁seaman	-11.9275
▁jackass	-11.9275
▁loner	-11.9275
▁lair	-11.9275
oots	-11.9276
nno	-11.9276
▁swipe	-11.9276
▁shaw	-11.9276
▁succeeded	-11.9276
▁stashed	-11.9278
▁associated	-11.9278
▁leaping	-11.9278
▁richie	-11.9278
▁laud	-11.9279
▁appalling	-11.9279
▁lingering	-11.9279
▁pinching	-11.9279
▁disappointing	-11.928
▁plumbing	-11.928
gee	-11.928
▁satan	-11.928
▁deafen	-11.928
▁swed	-11.9281
tv	-11.9282
▁wider	-11.9283
▁scrapp	-11.9283
▁hotter	-11.9284
urized	-11.9285
▁elt	-11.9285
syph	-11.9287
▁kle	-11.9287
▁yyeah	-11.9287
▁cuba	-11.9288
▁unclear	-11.9288
▁bullying	-11.9289
▁unclean	-11.9289
▁hitch	-11.929
▁cello	-11.929
oes	-11.9291
▁addicted	-11.9291
▁wickedly	-11.9291
▁snipp	-11.9291
jojo	-11.9292
ware	-11.9294
▁tropica	-11.9295
▁ax	-11.9296
▁boggl	-11.9296
▁mysteriously	-11.9297
▁organiz	-11.9298
▁charmer	-11.9299
▁beeper	-11.9299
▁mea	-11.93
▁spike	-11.93
gation	-11.93
amami	-11.9301
▁calf	-11.9301
▁hamp	-11.9302
▁mentally	-11.9303
▁converted	-11.9303
▁swamped	-11.9303
▁depended	-11.9305
▁improved	-11.9305
books	-11.9307
rah	-11.9307
▁accuse	-11.9307
▁shen	-11.9309
▁portion	-11.931
▁littering	-11.931
▁growers	-11.931
▁idiotic	-11.9311
▁peep	-11.9311
▁paraly	-11.9313
▁stab	-11.9314
▁closeup	-11.9315
atory	-11.9315
▁cove	-11.9316
▁brat	-11.9317
▁pate	-11.9317
▁casa	-11.9317
▁mable	-11.9318
▁calculat	-11.9318
▁profited	-11.9319
▁fury	-11.9319
▁juggl	-11.9319
▁affecting	-11.932
erto	-11.9321
bones	-11.9321
▁dew	-11.9322
▁aris	-11.9322
▁saddled	-11.9323
▁auto	-11.9324
▁dart	-11.9325
▁drog	-11.9326
▁carole	-11.9326
▁dictate	-11.9327
▁trifle	-11.9327
▁perfection	-11.9327
▁operated	-11.9328
lucid	-11.9328
▁horseist	-11.9328
illes	-11.933
▁directory	-11.9331
▁blend	-11.9332
▁stickers	-11.9335
▁parish	-11.9338
▁yorkers	-11.934
▁abandoning	-11.9341
▁bully	-11.9342
▁rooting	-11.9342
▁fiance	-11.9342
▁thugs	-11.9343
▁amigos	-11.9343
▁delusions	-11.9343
▁fossils	-11.9343
▁hendersons	-11.9343
▁psalms	-11.9343
▁creations	-11.9343
▁warmups	-11.9343
▁aches	-11.9344
▁adored	-11.9345
▁gaps	-11.9345
▁decked	-11.9345
▁drafted	-11.9345
▁poly	-11.9347
▁continuing	-11.9347
▁repaired	-11.9347
▁cleaner	-11.9348
▁detailed	-11.9349
▁pointless	-11.9351
▁ridin	-11.9353
▁mealy	-11.9355
▁reaches	-11.9357
▁bom	-11.9357
▁chuy	-11.9358
▁licked	-11.936
▁described	-11.9362
▁liberat	-11.9362
▁examin	-11.9362
aga	-11.9362
▁bakery	-11.9362
▁campus	-11.9363
pture	-11.9366
▁padd	-11.9366
ernst	-11.9367
▁suz	-11.9368
▁swo	-11.9369
▁poured	-11.9373
▁surfers	-11.9373
esar	-11.9374
▁ai	-11.9376
boys	-11.938
▁wisely	-11.9381
▁cooke	-11.9383
▁healing	-11.9383
▁guitarist	-11.9385
▁leap	-11.9386
▁obeyed	-11.9386
▁weakly	-11.9387
▁crooked	-11.9389
▁clim	-11.9389
▁wanda	-11.939
headed	-11.939
▁crosses	-11.9391
▁dries	-11.9391
▁alon	-11.9395
▁faded	-11.9397
▁rewarded	-11.94
▁bea	-11.9403
▁export	-11.9403
▁kissin	-11.9403
▁foundry	-11.9406
▁tomb	-11.9409
▁chaser	-11.941
▁punched	-11.9411
▁suing	-11.9411
▁dee	-11.9412
▁endure	-11.9414
▁freeman	-11.9414
▁sens	-11.9417
▁rags	-11.9417
▁paws	-11.9418
▁kilos	-11.9419
▁miffys	-11.9419
▁intervals	-11.9419
▁receipts	-11.9419
▁soy	-11.942
▁toots	-11.942
▁permits	-11.9423
mates	-11.9424
▁celebrated	-11.9424
▁ribs	-11.9424
ermon	-11.9425
▁rejoice	-11.9426
bility	-11.9427
walnut	-11.9427
veg	-11.9431
▁dealers	-11.9431
mpson	-11.9431
▁tricky	-11.9432
▁nickels	-11.9433
▁cubes	-11.9434
whoo	-11.9435
day	-11.9435
▁flowing	-11.9437
▁simpler	-11.9438
▁turnover	-11.9439
▁trib	-11.944
▁rockin	-11.9441
▁correctly	-11.9442
▁prey	-11.9444
▁crackers	-11.9444
gammon	-11.9445
hey	-11.9446
▁drivein	-11.9446
▁putz	-11.9447
▁tenant	-11.9449
▁govern	-11.945
▁blasting	-11.9452
▁backside	-11.9453
▁smoked	-11.9456
▁harmed	-11.9456
▁bling	-11.9457
▁avoided	-11.9457
▁shades	-11.9458
▁consequen	-11.9459
▁bobo	-11.946
▁tackle	-11.9461
▁godf	-11.9463
ripper	-11.9467
▁resulting	-11.9467
▁honoured	-11.947
nishi	-11.947
▁fitch	-11.9472
▁yelled	-11.9473
▁contend	-11.9475
▁tube	-11.9476
pass	-11.9478
gallant	-11.9481
arn	-11.9481
▁are	-11.9482
▁por	-11.9482
▁flashing	-11.9485
eep	-11.9489
▁theor	-11.949
ddlers	-11.949
▁risky	-11.9492
▁mori	-11.9493
▁praises	-11.9494
▁orphans	-11.9495
▁blokes	-11.9495
▁accomplices	-11.9495
▁burglars	-11.9495
▁delegates	-11.9495
▁neighbours	-11.9495
▁pencils	-11.9495
▁gropers	-11.9495
▁puffs	-11.9495
▁jocks	-11.95
▁hangin	-11.9503
▁coaches	-11.9505
▁grover	-11.9506
▁casting	-11.9506
▁frogg	-11.9507
being	-11.9507
▁tob	-11.9507
▁specialist	-11.951
▁cleaners	-11.951
▁seeds	-11.9512
▁did	-11.9514
▁aaahh	-11.9516
far	-11.9517
umption	-11.952
▁cont	-11.9521
ache	-11.9525
▁accessor	-11.9526
▁footer	-11.9539
lumin	-11.9542
▁aroma	-11.9543
▁elde	-11.9543
▁smelly	-11.9544
▁parky	-11.9548
▁leaking	-11.9548
irs	-11.955
skin	-11.9553
▁smite	-11.9558
▁scrape	-11.9565
▁iong	-11.9565
▁hostil	-11.9567
▁drinkin	-11.9567
▁duet	-11.9567
▁buyin	-11.9568
▁figs	-11.9569
yan	-11.9569
▁methods	-11.9571
▁voter	-11.9572
▁runners	-11.9572
▁addicts	-11.9572
▁pounding	-11.9573
rics	-11.9574
▁breakin	-11.9583
▁montag	-11.9583
illian	-11.9586
▁ahhhhhh	-11.9587
▁attending	-11.9591
▁happenin	-11.9591
▁dealt	-11.9592
▁wrecked	-11.9596
▁wip	-11.9608
▁incredib	-11.9611
▁sicker	-11.9615
▁concerning	-11.9617
▁aff	-11.9617
▁standin	-11.9618
▁hooked	-11.9624
zech	-11.9633
▁shorter	-11.9633
▁slices	-11.9644
▁occurs	-11.9648
ansel	-11.9648
▁cultures	-11.9648
flex	-11.9648
▁melons	-11.9648
▁pearls	-11.9648
▁muslims	-11.9648
▁snacks	-11.9648
▁chapters	-11.9649
▁motors	-11.9649
ily	-11.9649
▁crust	-11.965
▁milli	-11.9654
▁usda	-11.9656
▁goeth	-11.9656
▁kindest	-11.9657
▁knowhow	-11.9658
▁sui	-11.9658
unn	-11.9665
▁appreciated	-11.9674
▁failing	-11.9674
▁marketing	-11.9681
▁robes	-11.9693
▁resigning	-11.9697
rits	-11.9697
done	-11.9701
▁diver	-11.9709
▁consult	-11.9709
▁typh	-11.9716
▁fiver	-11.9717
▁mythic	-11.9718
itsu	-11.9719
▁demons	-11.9721
▁fle	-11.9724
▁parrots	-11.9726
▁marthas	-11.9726
▁depths	-11.9726
▁costumes	-11.9726
▁villains	-11.9726
▁traitors	-11.9726
▁indicates	-11.9727
▁floats	-11.9727
whee	-11.9727
▁gram	-11.9729
▁prep	-11.973
▁weary	-11.9734
▁dai	-11.9738
▁ditch	-11.9746
▁whoao	-11.9755
step	-11.9755
▁intensi	-11.9756
▁strongly	-11.9763
ducted	-11.9765
▁bandage	-11.9767
▁wart	-11.9773
ack	-11.9774
▁perjur	-11.9784
base	-11.9791
trust	-11.9794
▁harlo	-11.9796
▁estates	-11.9804
▁bullfighters	-11.9805
▁devices	-11.9805
loop	-11.9809
▁twister	-11.9811
▁rockets	-11.9812
euf	-11.9816
ario	-11.9823
chez	-11.9824
hara	-11.9825
▁turnin	-11.9826
▁tee	-11.9829
▁pardoned	-11.9838
▁watches	-11.9843
▁longest	-11.9844
▁geek	-11.9868
▁classy	-11.9876
▁ard	-11.9878
▁vows	-11.9882
▁celebrations	-11.9883
▁instances	-11.9883
▁callaghans	-11.9883
▁museums	-11.9883
▁techniques	-11.9883
▁championships	-11.9883
▁pickups	-11.9883
ored	-11.9885
▁repairs	-11.9885
pid	-11.9889
rooms	-11.9893
▁parked	-11.9898
▁meters	-11.9902
▁generat	-11.9908
▁rede	-11.9911
▁sympathi	-11.9915
sburg	-11.992
▁fend	-11.9932
▁morn	-11.9937
▁motions	-11.9962
▁powders	-11.9962
▁durans	-11.9963
▁images	-11.9967
▁flows	-11.9967
▁punks	-11.9972
dam	-11.9979
har	-11.998
▁permit	-11.9997
▁sniffl	-12.0003
▁fai	-12.0005
▁tramps	-12.0012
stance	-12.0016
▁shorten	-12.0016
▁continual	-12.0018
▁mayo	-12.0036
fec	-12.0036
nick	-12.0036
▁boogereatin	-12.004
▁handled	-12.0047
illon	-12.0057
▁prospect	-12.0067
▁penetrat	-12.008
▁miner	-12.0119
▁riv	-12.0119
▁committ	-12.0123
mie	-12.0124
milton	-12.0149
▁stat	-12.016
▁slob	-12.0197
▁hump	-12.0209
▁grat	-12.0224
epa	-12.0241
dex	-12.0252
verne	-12.027
▁sites	-12.0271
▁vou	-12.028
bina	-12.0285
ograph	-12.029
nflation	-12.0291
▁youno	-12.0302
joined	-12.0303
tious	-12.0327
tze	-12.0341
add	-12.0343
▁sash	-12.0362
xie	-12.0392
call	-12.0402
▁versa	-12.0431
▁skim	-12.0437
cast	-12.0466
▁ranger	-12.0471
▁compress	-12.0481
az	-12.0488
▁nort	-12.0497
▁trapp	-12.05
▁humbl	-12.0505
hard	-12.0562
▁lever	-12.0616
▁num	-12.062
▁whopp	-12.0633
▁evacuat	-12.0649
▁penn	-12.067
▁tru	-12.0675
▁iv	-12.0692
▁jani	-12.0696
▁deport	-12.0712
▁revolv	-12.0755
osi	-12.0758
▁media	-12.0761
▁educate	-12.0765
▁trailer	-12.077
▁applie	-12.0806
too	-12.0807
with	-12.0838
▁tha	-12.0862
rummy	-12.0871
▁shameful	-12.0872
▁reviv	-12.0885
lab	-12.0891
▁apol	-12.0911
▁fac	-12.0955
errari	-12.0973
▁kn	-12.0987
ffling	-12.0988
▁compi	-12.1023
▁unite	-12.1032
▁regardez	-12.1046
▁promet	-12.1049
▁illustr	-12.1071
there	-12.1082
tive	-12.1088
ffler	-12.1093
say	-12.1096
▁criticiz	-12.1097
▁affirm	-12.1134
immer	-12.1141
▁phon	-12.1183
▁comeback	-12.1203
▁multipl	-12.1207
▁violat	-12.1241
ais	-12.1267
cm	-12.1269
▁cram	-12.1278
▁dim	-12.1284
▁rebell	-12.1287
kan	-12.129
evil	-12.1295
quin	-12.13
cloth	-12.1317
▁rig	-12.1319
aut	-12.1331
rami	-12.1356
▁vol	-12.1358
▁nor	-12.1368
inf	-12.137
▁bran	-12.1406
▁inquire	-12.1411
ogie	-12.1431
▁ple	-12.1434
till	-12.1463
bby	-12.1469
▁vali	-12.1485
tiers	-12.1549
▁prov	-12.156
zvous	-12.1573
▁bearer	-12.1585
vid	-12.1603
anny	-12.1703
▁morel	-12.1736
▁interfer	-12.1758
▁scratche	-12.1759
▁deb	-12.1759
▁muff	-12.1777
dan	-12.1783
▁paralyze	-12.1784
▁illustrat	-12.1804
plied	-12.1814
▁relat	-12.1835
▁decorat	-12.185
▁cosm	-12.1877
▁abus	-12.1883
aries	-12.1896
▁woo	-12.1961
ollo	-12.1968
▁rebellio	-12.1992
▁bli	-12.1993
▁revive	-12.1994
▁wwi	-12.2003
verage	-12.2044
parallele	-12.2059
▁alli	-12.207
▁outlin	-12.2078
▁wag	-12.2087
educated	-12.213
upp	-12.2152
▁encourag	-12.2154
jano	-12.218
▁criticize	-12.2187
▁assembl	-12.2194
▁revolve	-12.2207
tine	-12.2222
▁hur	-12.2238
▁soi	-12.2244
raz	-12.2245
hair	-12.228
▁mhm	-12.2327
than	-12.2328
vy	-12.2355
▁fol	-12.2355
cola	-12.2367
▁divid	-12.2389
▁ava	-12.2404
ain	-12.2414
▁luc	-12.2415
rian	-12.2488
▁pil	-12.2492
nson	-12.2492
▁cooper	-12.2509
partial	-12.2509
▁sever	-12.2624
▁fam	-12.2631
▁chan	-12.2635
graphy	-12.264
ference	-12.2684
zzy	-12.2713
igge	-12.2714
▁infer	-12.272
▁lefthand	-12.2766
rett	-12.2791
▁chic	-12.2803
coaster	-12.2829
▁pun	-12.2841
▁entr	-12.2851
contractor	-12.2852
onsnous	-12.2887
▁mai	-12.2904
▁hel	-12.2904
bell	-12.2908
nant	-12.2926
▁krem	-12.2929
teria	-12.2941
▁introduc	-12.2959
uzzling	-12.3017
cade	-12.3069
▁var	-12.3085
tat	-12.3098
tha	-12.3122
pressed	-12.3135
located	-12.3138
guillo	-12.3146
elli	-12.3161
▁grieve	-12.3164
inted	-12.3165
ottie	-12.3168
motion	-12.3172
irk	-12.318
▁xxxx	-12.3192
▁molt	-12.32
▁sig	-12.3228
timate	-12.3246
chen	-12.3259
ldman	-12.3282
▁dragg	-12.3285
▁lav	-12.3313
▁joa	-12.332
ada	-12.3341
iezvous	-12.336
ories	-12.3407
ode	-12.3431
▁deduc	-12.3435
ente	-12.3436
▁steven	-12.3451
▁sadde	-12.3451
ishi	-12.3453
volved	-12.3457
kson	-12.3461
▁typ	-12.3467
▁myth	-12.3476
▁consul	-12.3488
baden	-12.3531
fulness	-12.356
onne	-12.3565
mpa	-12.3574
ddle	-12.358
▁gall	-12.3586
hour	-12.3632
neu	-12.3653
▁inquir	-12.3677
pic	-12.3689
trick	-12.3694
timing	-12.3703
▁dar	-12.3703
▁pigle	-12.3719
ravel	-12.3724
fied	-12.3731
german	-12.3732
mption	-12.3742
▁arri	-12.3744
▁destruct	-12.3745
tailed	-12.3748
making	-12.3764
▁automat	-12.3765
racks	-12.3766
▁sparkl	-12.3799
oboto	-12.3816
uttering	-12.3819
▁wok	-12.3822
ufferin	-12.3829
▁spec	-12.3844
▁fini	-12.3845
who	-12.385
▁iso	-12.3851
tender	-12.3853
amble	-12.3874
▁mil	-12.388
estce	-12.3898
lugging	-12.3903
▁puttin	-12.3913
alnut	-12.3913
▁rejoic	-12.3914
icia	-12.3924
itchy	-12.3927
▁via	-12.3931
▁lung	-12.3932
▁supervis	-12.3934
▁aro	-12.3935
obsters	-12.3937
lky	-12.3944
▁grabbin	-12.3951
▁blaze	-12.3951
list	-12.3962
bbles	-12.3965
crates	-12.3971
▁await	-12.398
▁forgettin	-12.3999
▁pond	-12.4003
book	-12.4004
▁gap	-12.4018
aint	-12.4019
▁shriek	-12.402
▁cough	-12.403
rupt	-12.4031
attered	-12.4035
▁swi	-12.4036
▁am	-12.4038
▁exercis	-12.4038
sided	-12.4038
▁accus	-12.4039
▁spik	-12.4039
▁maxim	-12.4042
▁henderson	-12.4043
▁psalm	-12.4043
▁amigo	-12.4043
▁fossil	-12.4043
▁delusion	-12.4043
▁thug	-12.4043
▁corps	-12.4044
▁cyclone	-12.4051
▁slack	-12.4052
▁smut	-12.4053
▁tremor	-12.4053
▁civilian	-12.4055
that	-12.4056
▁pancake	-12.4056
▁creation	-12.4056
▁initial	-12.4056
▁robbin	-12.4057
▁hoodlum	-12.4057
▁peasant	-12.4059
▁gymnast	-12.4059
▁snail	-12.406
▁superstar	-12.4061
▁relation	-12.4061
▁thorn	-12.4062
▁mushroom	-12.4062
▁humo	-12.4062
▁merchant	-12.4063
▁rattlesnake	-12.4063
▁homesteader	-12.4065
▁consequence	-12.4065
▁dictat	-12.4069
▁trifl	-12.4069
▁circumstance	-12.407
▁headache	-12.407
wig	-12.4071
▁sinner	-12.4072
bone	-12.4073
ashed	-12.4076
▁warmup	-12.4078
jumps	-12.4079
▁recreat	-12.408
glades	-12.4083
▁coordinate	-12.4084
▁bourb	-12.4086
▁suspender	-12.4087
▁mmh	-12.4095
parag	-12.4098
logy	-12.4098
▁moor	-12.4107
ological	-12.4111
▁caram	-12.4113
pho	-12.4113
▁seam	-12.4119
▁tropic	-12.412
▁varn	-12.4125
▁histori	-12.4127
▁esca	-12.4129
cien	-12.413
▁lov	-12.4132
▁announc	-12.4133
▁ache	-12.4133
hop	-12.4134
inity	-12.4135
izen	-12.4137
▁tex	-12.4139
▁sni	-12.4139
▁acqui	-12.4144
▁thrash	-12.4144
▁depress	-12.415
▁surround	-12.4152
▁experienc	-12.4157
▁whine	-12.4161
▁indu	-12.4161
ability	-12.4164
▁advanc	-12.4166
▁provinc	-12.417
▁flatter	-12.417
▁revolt	-12.4173
cubat	-12.4174
▁mugg	-12.4175
circul	-12.4175
boat	-12.4176
▁stov	-12.4177
▁sophi	-12.4177
▁ahhhh	-12.4178
▁complet	-12.4178
▁squa	-12.4179
▁ceil	-12.418
acceptable	-12.418
leavened	-12.418
▁majest	-12.4181
▁twinkl	-12.4181
▁swarm	-12.4181
craft	-12.4182
▁murmur	-12.4183
▁squaw	-12.4183
sphere	-12.4184
▁gurgl	-12.4184
frump	-12.4184
▁clatter	-12.4185
forsaken	-12.4185
wizard	-12.4185
granddaddy	-12.4185
motive	-12.4185
grin	-12.4185
respect	-12.4186
▁separat	-12.4186
foot	-12.4186
▁splash	-12.4187
abilities	-12.4187
davidson	-12.4187
election	-12.4187
▁invade	-12.4187
known	-12.4187
nuts	-12.4187
woman	-12.4188
troop	-12.4188
clip	-12.4188
dress	-12.4188
bloom	-12.4189
planted	-12.4189
quality	-12.4189
proof	-12.4189
chamber	-12.4189
communication	-12.4189
aagh	-12.4189
tube	-12.4189
appropriate	-12.4189
wheat	-12.4189
trained	-12.419
reasonable	-12.419
dragon	-12.419
recorded	-12.419
laugh	-12.419
shield	-12.419
identified	-12.419
banana	-12.419
bedroom	-12.419
client	-12.419
severe	-12.419
charge	-12.419
occupied	-12.419
stretch	-12.419
regard	-12.4191
principal	-12.4191
jacket	-12.4191
habit	-12.4191
flies	-12.4191
statement	-12.4191
treated	-12.4191
fighting	-12.4191
cream	-12.4191
cliff	-12.4191
defense	-12.4191
jumped	-12.4191
leading	-12.4191
▁accumulat	-12.4191
▁disconnect	-12.4191
▁transform	-12.4191
▁extinguish	-12.4191
▁untouch	-12.4191
checked	-12.4191
filled	-12.4191
electric	-12.4191
excited	-12.4191
invited	-12.4191
hundred	-12.4191
guard	-12.4191
grass	-12.4191
understood	-12.4191
correct	-12.4191
written	-12.4191
spread	-12.4191
blow	-12.4191
secret	-12.4191
club	-12.4191
▁phas	-12.4191
united	-12.4192
brother	-12.4192
defeat	-12.4192
english	-12.4192
surface	-12.4192
blood	-12.4192
different	-12.4192
white	-12.4192
billy	-12.4192
easy	-12.4192
space	-12.4192
people	-12.4192
great	-12.4192
death	-12.4192
nothing	-12.4192
thinking	-12.4192
student	-12.4192
hamster	-12.4192
weeks	-12.4192
sorry	-12.4193
attend	-12.4193
loving	-12.4193
sarah	-12.4193
capable	-12.4193
label	-12.4194
mail	-12.4194
joel	-12.4194
wide	-12.4194
lton	-12.4194
▁convey	-12.4194
argh	-12.4195
▁measur	-12.4195
road	-12.4195
▁condemn	-12.4196
food	-12.4196
boots	-12.4196
mile	-12.4196
▁mag	-12.4197
▁sustain	-12.4197
found	-12.4197
▁attach	-12.4198
▁appoint	-12.4199
iam	-12.4199
▁banish	-12.4199
allows	-12.4199
wire	-12.42
▁cordon	-12.42
speed	-12.42
deck	-12.4201
▁butch	-12.4202
▁undress	-12.4202
kick	-12.4203
▁captur	-12.4203
▁terminate	-12.4204
▁slur	-12.4204
▁jou	-12.4204
shake	-12.4205
▁tyran	-12.4205
meters	-12.4205
human	-12.4207
▁coordinat	-12.4207
▁shou	-12.4207
▁collapse	-12.4207
▁relieve	-12.4207
▁launch	-12.4208
▁declare	-12.4208
▁dedicate	-12.4208
▁injure	-12.4208
▁excite	-12.4209
▁virtu	-12.4209
union	-12.4209
three	-12.4209
bob	-12.421
planet	-12.4211
letter	-12.4211
around	-12.4212
aflo	-12.4212
▁sociolog	-12.4212
▁soak	-12.4212
▁contradict	-12.4212
▁luxur	-12.4213
▁cripple	-12.4213
▁destin	-12.4213
▁quantit	-12.4213
▁apologis	-12.4213
▁strateg	-12.4213
▁chivalr	-12.4214
arians	-12.4214
▁immense	-12.4214
▁hypothetical	-12.4214
▁utter	-12.4214
▁strict	-12.4214
▁splint	-12.4215
▁insul	-12.4215
▁technical	-12.4215
plus	-12.4215
▁univers	-12.4215
elimina	-12.4215
▁stead	-12.4216
▁singlehanded	-12.4216
▁embrac	-12.4216
▁twent	-12.4216
▁unbelievabl	-12.4216
heart	-12.4217
▁definite	-12.4217
▁virtual	-12.4218
jet	-12.4218
negotia	-12.4219
▁ministr	-12.4219
▁predict	-12.4219
▁brim	-12.422
▁orde	-12.422
normal	-12.422
▁occu	-12.4221
▁manifest	-12.4221
interest	-12.4222
nscription	-12.4222
▁pisc	-12.4222
▁repetiti	-12.4222
▁torch	-12.4222
maste	-12.4222
▁inhal	-12.4222
▁capito	-12.4222
bonne	-12.4222
▁easie	-12.4223
▁radi	-12.4223
▁sentiment	-12.4223
▁conni	-12.4223
itude	-12.4223
▁adju	-12.4223
▁ninj	-12.4223
▁propagand	-12.4224
wordplay	-12.4224
▁competit	-12.4224
▁oreg	-12.4224
▁merc	-12.4224
▁administrat	-12.4225
▁psychiatr	-12.4225
▁shag	-12.4225
▁alas	-12.4225
▁dignit	-12.4225
atherine	-12.4225
▁physi	-12.4225
brain	-12.4226
▁surfer	-12.4226
magine	-12.4226
bom	-12.4226
▁junct	-12.4226
▁mysteri	-12.4226
▁smokin	-12.4226
▁marvel	-12.4226
▁stoppin	-12.4226
▁collaborat	-12.4226
▁smilin	-12.4226
▁heii	-12.4226
▁stru	-12.4226
▁confide	-12.4227
ploy	-12.4227
▁circumstan	-12.4227
▁vulgar	-12.4227
▁consiste	-12.4227
▁giddy	-12.4227
▁indign	-12.4227
▁vigil	-12.4227
errible	-12.4227
▁secondchance	-12.4227
servative	-12.4227
▁supple	-12.4227
tected	-12.4227
▁integr	-12.4227
clusion	-12.4227
rgot	-12.4227
▁addition	-12.4227
▁mirac	-12.4227
ombard	-12.4227
▁eligib	-12.4227
▁luca	-12.4227
▁marsh	-12.4227
▁accur	-12.4228
flake	-12.4228
dget	-12.4228
▁mystic	-12.4228
▁voy	-12.4228
gallo	-12.4228
▁jeopardi	-12.4228
▁indulge	-12.4228
iliation	-12.4228
raff	-12.4228
mney	-12.4228
▁quake	-12.4228
▁candid	-12.4228
▁crutch	-12.4228
▁allelu	-12.4228
▁electro	-12.4228
▁occupa	-12.4228
▁trump	-12.4228
▁givin	-12.4228
igato	-12.4228
▁volunt	-12.4228
▁immigra	-12.4228
▁ultra	-12.4228
▁yippee	-12.4228
▁backstabb	-12.4228
▁desecr	-12.4228
▁detrimental	-12.4228
▁excruciating	-12.4228
▁oneninety	-12.4228
▁overconfiden	-12.4228
▁pivot	-12.4228
▁reenact	-12.4228
▁reluctant	-12.4228
▁resurrect	-12.4228
▁simultaneous	-12.4228
▁uncommon	-12.4228
▁unplug	-12.4228
▁youknowwh	-12.4228
bourg	-12.4228
cccccccccounting	-12.4228
ciuded	-12.4228
oscope	-12.4228
rjourney	-12.4228
ropods	-12.4228
somethingorother	-12.4228
spirator	-12.4228
▁abracadabra	-12.4228
▁accompanied	-12.4228
▁additive	-12.4228
▁adequate	-12.4228
▁adolescent	-12.4228
▁adversary	-12.4228
▁advisor	-12.4228
▁advocate	-12.4228
▁airlift	-12.4228
▁amazon	-12.4228
▁amenezle	-12.4228
▁anglosaxon	-12.4228
▁antiserum	-12.4228
▁apprehend	-12.4228
▁apricot	-12.4228
▁arapaho	-12.4228
▁archenemy	-12.4228
▁arguably	-12.4228
▁artisans	-12.4228
▁aspire	-12.4228
▁astrolog	-12.4228
▁aubergine	-12.4228
▁auschwitz	-12.4228
▁australasian	-12.4228
▁baloney	-12.4228
▁bandaids	-12.4228
▁bannister	-12.4228
▁barbeque	-12.4228
▁beautifui	-12.4228
▁bergenbelson	-12.4228
▁bernstein	-12.4228
▁bethleham	-12.4228
▁bianca	-12.4228
▁biscuits	-12.4228
▁bitcoins	-12.4228
▁blackjack	-12.4228
▁bladder	-12.4228
▁bogota	-12.4228
▁brainwashing	-12.4228
▁briare	-12.4228
▁bridegroom	-12.4228
▁brisk	-12.4228
▁bromsgrove	-12.4228
▁bubblegum	-12.4228
▁buddhis	-12.4228
▁bunnycakes	-12.4228
▁busybody	-12.4228
▁calcutta	-12.4228
▁cannibal	-12.4228
▁canterbury	-12.4228
▁capitulate	-12.4228
▁carnofsky	-12.4228
▁category	-12.4228
▁cemetery	-12.4228
▁chablis	-12.4228
▁chafouin	-12.4228
▁champollion	-12.4228
▁cheshire	-12.4228
▁chevrolet	-12.4228
▁choudary	-12.4228
▁cincinnati	-12.4228
▁cinnamon	-12.4228
▁clarify	-12.4228
▁coccyx	-12.4228
▁colombia	-12.4228
▁commemorat	-12.4228
▁composure	-12.4228
▁compulsory	-12.4228
▁conceited	-12.4228
▁concubine	-12.4228
▁confiscate	-12.4228
▁contagious	-12.4228
▁contribution	-12.4228
▁controversial	-12.4228
▁copilot	-12.4228
▁coreega	-12.4228
▁corkscrew	-12.4228
▁cortina	-12.4228
▁critter	-12.4228
▁crossbow	-12.4228
▁cuatro	-12.4228
▁cucumber	-12.4228
▁culpa	-12.4228
▁cultist	-12.4228
▁cultivat	-12.4228
▁curtsy	-12.4228
▁cyclist	-12.4228
▁december	-12.4228
▁decency	-12.4228
▁deception	-12.4228
▁default	-12.4228
▁deferential	-12.4228
▁dementia	-12.4228
▁denver	-12.4228
▁description	-12.4228
▁desperados	-12.4228
▁devastated	-12.4228
▁devour	-12.4228
▁dialect	-12.4228
▁discomfort	-12.4228
▁dispense	-12.4228
▁disposal	-12.4228
▁diteslui	-12.4228
▁ditesmoi	-12.4228
▁domestic	-12.4228
▁donatello	-12.4228
▁dorothy	-12.4228
▁doughnut	-12.4228
▁duality	-12.4228
▁duncan	-12.4228
▁duplic	-12.4228
▁eavesdrop	-12.4228
▁edamame	-12.4228
▁eggnog	-12.4228
▁elusive	-12.4228
▁embark	-12.4228
▁embroider	-12.4228
▁emphasis	-12.4228
▁enlisted	-12.4228
▁envision	-12.4228
▁episode	-12.4228
▁equation	-12.4228
▁eradicate	-12.4228
▁estrier	-12.4228
▁etcetera	-12.4228
▁exaggerate	-12.4228
▁exboyfriend	-12.4228
▁excellence	-12.4228
▁excursion	-12.4228
▁existential	-12.4228
▁extravagant	-12.4228
▁faltered	-12.4228
▁fancies	-12.4228
▁fertilizer	-12.4228
▁fingernails	-12.4228
▁firecracker	-12.4228
▁flamingo	-12.4228
▁flapjack	-12.4228
▁flask	-12.4228
▁fofinho	-12.4228
▁fontainebleau	-12.4228
▁fragment	-12.4228
▁fraidycat	-12.4228
▁frankincense	-12.4228
▁fromage	-12.4228
▁frustrating	-12.4228
▁fundamental	-12.4228
▁fundraising	-12.4228
▁gaucho	-12.4228
▁ghastly	-12.4228
▁ghezzi	-12.4228
▁gilberto	-12.4228
▁gillette	-12.4228
▁glamorous	-12.4228
▁gokhale	-12.4228
▁gospel	-12.4228
▁graffiti	-12.4228
▁grandparents	-12.4228
▁grapefruit	-12.4228
▁guatemala	-12.4228
▁guggenheims	-12.4228
▁harbour	-12.4228
▁harriet	-12.4228
▁hasbeen	-12.4228
▁heartbreaker	-12.4228
▁hebron	-12.4228
▁heeheehee	-12.4228
▁henceforth	-12.4228
▁hiccup	-12.4228
▁highstrung	-12.4228
▁hippopotamus	-12.4228
▁hitchhike	-12.4228
▁horrigust	-12.4228
▁humbug	-12.4228
▁hurricane	-12.4228
▁hygien	-12.4228
▁hypertens	-12.4228
▁iawekon	-12.4228
▁impeccable	-12.4228
▁imperfection	-12.4228
▁implication	-12.4228
▁impostor	-12.4228
▁improvis	-12.4228
▁inadequa	-12.4228
▁incessant	-12.4228
▁incorporat	-12.4228
▁indisposed	-12.4228
▁inexperienced	-12.4228
▁infected	-12.4228
▁infectious	-12.4228
▁infiltrate	-12.4228
▁infinitive	-12.4228
▁infuriated	-12.4228
▁insanity	-12.4228
▁inseparable	-12.4228
▁internet	-12.4228
▁intimacy	-12.4228
▁intoxicate	-12.4228
▁intrepid	-12.4228
▁intriguing	-12.4228
[...]
