<unk>	0
<s>	0
</s>	0
s	-2.9698
t	-4.03621
ing	-4.12296
a	-4.17524
e	-4.20065
d	-4.20088
y	-4.29352
ed	-4.41698
i	-4.4392
m	-4.47756
n	-4.50467
o	-4.59241
▁	-4.65838
g	-4.69642
er	-4.75882
p	-4.7696
r	-4.80283
▁l	-4.85976
c	-4.8628
l	-4.92225
u	-4.94601
h	-4.98042
in	-5.00458
k	-5.09444
or	-5.11177
ar	-5.13666
b	-5.14363
le	-5.21029
▁know	-5.26369
▁go	-5.27394
▁im	-5.28032
▁dont	-5.31937
▁s	-5.32407
▁w	-5.37787
▁well	-5.3847
▁a	-5.40069
▁oh	-5.41806
▁p	-5.47512
▁f	-5.47707
al	-5.50828
▁get	-5.51562
▁like	-5.52335
v	-5.53257
▁come	-5.54162
ly	-5.56011
▁one	-5.56778
▁c	-5.58296
w	-5.58769
▁see	-5.59271
it	-5.61764
ic	-5.61956
on	-5.62014
ll	-5.62843
▁right	-5.66463
an	-5.68916
en	-5.76249
es	-5.76731
re	-5.77598
▁youre	-5.77617
▁g	-5.79946
▁re	-5.80922
▁us	-5.82924
▁t	-5.84502
▁got	-5.86591
▁good	-5.87016
▁look	-5.87703
ch	-5.88625
ur	-5.90436
f	-5.91414
il	-5.91776
▁de	-5.92168
ow	-5.924
th	-5.9423
▁think	-5.94669
▁thats	-5.95222
st	-5.96667
at	-5.98768
▁ch	-6.0142
ve	-6.01475
▁na	-6.01508
▁back	-6.02077
▁yes	-6.02356
▁take	-6.02461
▁want	-6.02514
▁st	-6.02577
▁time	-6.05224
ent	-6.09229
▁man	-6.10049
▁sh	-6.12662
▁e	-6.13239
▁yeah	-6.16724
▁be	-6.17603
▁ha	-6.17656
▁ho	-6.18349
ter	-6.20214
▁would	-6.21878
▁okay	-6.22911
▁o	-6.23756
el	-6.24245
▁pa	-6.24422
▁going	-6.24707
ne	-6.25938
▁ill	-6.26008
ce	-6.26081
▁in	-6.26527
ie	-6.27166
ir	-6.27663
▁say	-6.27788
ra	-6.30797
ion	-6.31132
▁co	-6.31223
▁little	-6.31536
▁make	-6.31722
▁cant	-6.34083
z	-6.35575
se	-6.37155
te	-6.37447
▁way	-6.37574
▁hes	-6.37604
ri	-6.38285
▁k	-6.38591
▁bo	-6.42105
▁love	-6.42324
▁ro	-6.43948
▁never	-6.44341
▁day	-6.45087
▁ma	-6.45339
▁n	-6.45351
▁hey	-6.46083
▁need	-6.46184
▁tell	-6.46245
and	-6.47407
id	-6.47468
▁could	-6.48354
▁ra	-6.48476
▁sp	-6.48815
lo	-6.4961
oo	-6.50602
▁let	-6.50636
un	-6.50949
▁la	-6.5126
▁gr	-6.51287
▁cr	-6.52478
ro	-6.5257
▁gon	-6.5293
▁help	-6.53364
ver	-6.542
us	-6.55669
▁tr	-6.55682
▁mr	-6.56068
▁po	-6.56221
▁really	-6.56757
ation	-6.56901
▁mean	-6.57531
▁sure	-6.5805
▁he	-6.58259
▁mi	-6.58422
▁give	-6.58634
ut	-6.58832
▁hi	-6.59599
▁find	-6.6052
is	-6.6058
ate	-6.61486
um	-6.61521
▁con	-6.61633
▁br	-6.61682
▁bu	-6.62016
▁must	-6.62129
▁mo	-6.62292
▁me	-6.62717
ul	-6.63993
▁to	-6.65105
▁wait	-6.65244
▁th	-6.65254
ant	-6.65309
▁great	-6.65476
▁work	-6.67274
▁even	-6.68184
ol	-6.68797
▁theres	-6.69088
ke	-6.70038
▁something	-6.70475
▁b	-6.71222
▁thank	-6.7143
▁music	-6.71895
im	-6.72009
ine	-6.72843
▁ba	-6.7301
▁ta	-6.73242
ff	-6.74444
est	-6.74456
he	-6.74997
▁two	-6.75021
▁home	-6.77203
ge	-6.77507
▁i	-6.78065
x	-6.78083
end	-6.78692
▁lets	-6.79299
▁whats	-6.79512
▁m	-6.79513
per	-6.79851
▁ca	-6.79874
▁people	-6.80533
qu	-6.80565
▁new	-6.80805
▁te	-6.80814
▁un	-6.8107
▁sir	-6.8125
la	-6.81306
ight	-6.81536
as	-6.8191
▁sc	-6.8207
▁please	-6.82356
▁da	-6.83069
et	-6.83292
▁ex	-6.84437
ill	-6.84475
▁big	-6.86751
age	-6.86818
▁no	-6.88013
ies	-6.88499
▁didnt	-6.89716
ip	-6.89801
▁call	-6.8982
▁ive	-6.90084
ive	-6.90917
▁su	-6.90959
▁ri	-6.91195
▁much	-6.91301
▁sa	-6.91419
de	-6.91566
me	-6.92004
▁miss	-6.92974
▁thing	-6.93031
ho	-6.93059
▁pro	-6.93091
▁we	-6.93329
▁night	-6.94532
▁keep	-6.94944
▁dr	-6.95526
▁friend	-6.96143
▁first	-6.97053
▁hand	-6.97097
▁di	-6.97883
▁away	-6.98077
▁boy	-6.98792
▁life	-6.98905
▁long	-6.98932
▁so	-6.9896
▁show	-6.99232
▁uh	-6.9961
ers	-7.00347
▁stop	-7.004
▁fa	-7.00918
▁sorry	-7.02044
uck	-7.02326
▁bl	-7.04293
▁theyre	-7.04718
▁put	-7.04722
ty	-7.05996
om	-7.06516
▁car	-7.06665
▁father	-7.06971
▁said	-7.07168
▁do	-7.07191
▁j	-7.07573
▁world	-7.07976
▁better	-7.07986
up	-7.09235
▁old	-7.1148
▁lo	-7.11779
ap	-7.12171
▁real	-7.12242
▁anything	-7.12847
op	-7.12929
▁youll	-7.13206
▁mar	-7.13545
ally	-7.13684
▁feel	-7.14308
▁place	-7.15011
ist	-7.15182
▁nothing	-7.1538
ee	-7.1541
▁wont	-7.15785
ha	-7.1585
▁leave	-7.16478
▁still	-7.18346
ment	-7.18489
▁al	-7.18669
▁mother	-7.18725
▁maybe	-7.19545
▁ask	-7.20076
▁things	-7.20279
▁se	-7.20313
▁every	-7.20428
▁son	-7.20788
ake	-7.20788
▁heart	-7.20864
▁around	-7.21021
▁em	-7.21217
▁ever	-7.21288
▁pre	-7.21341
▁god	-7.21403
▁may	-7.21541
▁always	-7.21792
▁stay	-7.21871
ath	-7.22196
▁hear	-7.2273
▁nice	-7.23807
act	-7.24157
▁shes	-7.24191
▁thought	-7.24826
▁kid	-7.25374
able	-7.25579
▁three	-7.25781
▁ru	-7.25802
ta	-7.26263
to	-7.26645
▁king	-7.26872
▁dad	-7.27295
▁last	-7.27417
▁bear	-7.2749
▁girl	-7.27619
▁water	-7.27666
▁live	-7.27773
▁made	-7.28196
▁watch	-7.28287
ack	-7.29409
▁everything	-7.29492
▁sw	-7.30052
▁another	-7.30333
▁kind	-7.30786
ance	-7.31333
▁start	-7.31388
▁course	-7.31617
▁fr	-7.32143
▁name	-7.32724
▁wa	-7.32771
▁part	-7.33113
▁care	-7.33206
▁fl	-7.33227
▁vi	-7.33439
▁believe	-7.33789
▁came	-7.34879
▁dis	-7.3521
if	-7.35582
▁sn	-7.36703
▁men	-7.36718
ble	-7.36747
▁mom	-7.37419
ock	-7.37617
ia	-7.37837
ue	-7.3808
ous	-7.38777
▁youve	-7.39209
▁coming	-7.40538
▁du	-7.40617
▁an	-7.41242
less	-7.41628
ling	-7.42205
▁laugh	-7.4251
▁hu	-7.42591
▁bring	-7.42831
▁lot	-7.43202
▁enough	-7.43474
▁fine	-7.44146
▁years	-7.44236
▁grow	-7.45115
▁told	-7.45465
▁head	-7.45496
▁plan	-7.45528
▁id	-7.46553
ful	-7.46805
▁young	-7.46924
ity	-7.47087
▁hold	-7.48478
be	-7.48661
▁dog	-7.48827
▁mu	-7.49201
▁horse	-7.49472
ise	-7.49797
ian	-7.50139
▁bar	-7.50274
▁isnt	-7.50497
▁might	-7.50742
▁done	-7.50818
▁en	-7.50909
▁family	-7.51539
ound	-7.52016
ish	-7.52158
▁try	-7.52451
ence	-7.53082
▁hello	-7.53296
▁ah	-7.53508
▁cla	-7.53557
▁ye	-7.544
▁best	-7.54735
▁dream	-7.56931
▁ya	-7.57781
▁sl	-7.58118
▁sal	-7.58444
▁move	-7.59154
▁brother	-7.59172
ture	-7.59402
ize	-7.59718
▁lm	-7.59743
▁turn	-7.59759
▁run	-7.6019
▁mind	-7.60383
▁sea	-7.6078
▁everyone	-7.60901
▁guys	-7.61128
▁far	-7.61625
▁eat	-7.61843
for	-7.62321
▁kill	-7.62447
▁remember	-7.62631
▁talk	-7.62786
ade	-7.62946
▁many	-7.63058
▁woman	-7.63222
▁bad	-7.63496
▁room	-7.63541
▁thanks	-7.64368
▁listen	-7.6441
▁found	-7.64856
▁left	-7.65006
▁hard	-7.65063
▁dear	-7.65307
▁sound	-7.65592
▁understand	-7.65607
▁comp	-7.65894
▁set	-7.65905
▁com	-7.65991
▁je	-7.66017
▁star	-7.66114
▁weve	-7.66195
▁open	-7.6684
▁shall	-7.66865
▁girls	-7.6713
▁seen	-7.68279
▁saw	-7.69521
▁ju	-7.69555
▁str	-7.70237
▁without	-7.70561
▁yogi	-7.70571
▁doesnt	-7.71199
▁whole	-7.71204
▁ready	-7.71259
▁hope	-7.71373
▁ad	-7.72518
▁house	-7.73154
▁close	-7.73155
▁wan	-7.7323
▁sweet	-7.73794
▁lost	-7.73836
▁idea	-7.74059
▁eye	-7.7487
▁app	-7.75199
ness	-7.75243
▁meet	-7.7555
▁wish	-7.75701
▁high	-7.75752
▁beautiful	-7.75774
▁change	-7.75781
east	-7.76199
▁sun	-7.76308
▁next	-7.76446
▁minute	-7.76446
▁sam	-7.77147
▁fly	-7.77736
ious	-7.77947
▁getting	-7.78076
board	-7.79739
▁morning	-7.79871
▁gone	-7.80132
▁true	-7.80173
▁bird	-7.80591
▁else	-7.80591
tch	-7.81441
▁happen	-7.81456
▁bi	-7.81842
▁bit	-7.82082
▁princess	-7.82206
▁together	-7.82697
▁knew	-7.82701
▁playing	-7.83525
▁yo	-7.84069
▁wrong	-7.84142
▁food	-7.84167
▁went	-7.84655
▁whoa	-7.8489
▁stand	-7.85161
▁light	-7.85603
▁huh	-7.85929
▁land	-7.85933
▁follow	-7.86348
▁sleep	-7.87096
▁fire	-7.87409
▁word	-7.87955
▁dead	-7.88008
▁play	-7.88509
▁gold	-7.88771
▁speaking	-7.88998
▁va	-7.89025
▁heard	-7.89265
▁aw	-7.89282
▁whos	-7.89461
▁soon	-7.89612
▁boo	-7.89739
▁mine	-7.89755
▁rest	-7.89941
▁perfect	-7.90136
▁someone	-7.90136
▁excuse	-7.90136
▁angel	-7.90142
▁aint	-7.90285
▁guess	-7.90914
▁pretty	-7.90915
▁end	-7.91524
▁trying	-7.9186
▁hurry	-7.9248
▁alone	-7.925
▁year	-7.92894
▁trouble	-7.93273
▁already	-7.9488
▁money	-7.9491
▁hell	-7.95207
▁arm	-7.95222
ction	-7.95393
▁fair	-7.95426
▁mon	-7.95429
▁count	-7.95713
▁where	-7.95714
▁face	-7.96284
▁worry	-7.96513
▁today	-7.96514
▁wouldnt	-7.96623
▁boat	-7.96973
▁luna	-7.97414
▁step	-7.97449
▁door	-7.98005
▁die	-7.988
▁talking	-7.98828
▁wasnt	-7.99015
▁crowd	-7.9903
▁harry	-7.99861
▁promise	-8.00718
▁job	-8.00729
▁free	-8.0098
▁late	-8.00988
▁lts	-8.01099
▁prince	-8.01306
▁fun	-8.01864
▁happy	-8.02447
▁ok	-8.03093
▁animal	-8.03325
▁walk	-8.0337
▁lady	-8.03427
▁max	-8.03885
▁ja	-8.03981
▁happened	-8.04871
▁since	-8.05125
▁four	-8.05136
▁yet	-8.05367
▁cut	-8.05501
▁war	-8.05997
▁akita	-8.06003
▁christmas	-8.06003
▁cave	-8.0627
▁sit	-8.0697
▁fell	-8.07053
▁lord	-8.0717
▁easy	-8.07849
▁town	-8.07874
▁city	-8.08649
▁welcome	-8.08755
▁earth	-8.08767
▁matter	-8.08778
▁black	-8.08953
▁tomorrow	-8.09689
▁return	-8.0969
▁baby	-8.09721
▁wonderful	-8.09727
▁rock	-8.09739
▁ball	-8.10223
▁everybody	-8.10633
▁order	-8.10637
▁along	-8.10642
▁camp	-8.10707
▁five	-8.11077
▁guy	-8.11287
▁quick	-8.11585
▁week	-8.11625
▁pup	-8.11935
▁tonight	-8.12556
▁pick	-8.12581
▁dance	-8.12593
▁fall	-8.12878
▁actually	-8.13517
▁cook	-8.13571
▁wind	-8.13678
ship	-8.1391
▁suppose	-8.14498
▁full	-8.14633
▁catch	-8.14678
▁child	-8.15517
▁also	-8.15637
pect	-8.15716
▁save	-8.1613
▁forget	-8.16488
▁break	-8.16489
▁learn	-8.16492
▁youd	-8.16503
▁secret	-8.17498
j	-8.17536
▁ago	-8.17745
▁fish	-8.1831
▁cool	-8.1843
▁person	-8.18527
▁heaven	-8.1955
▁pass	-8.19608
ward	-8.20521
▁neecro	-8.20591
▁havent	-8.20598
▁direction	-8.20646
▁check	-8.2078
▁ride	-8.21331
▁different	-8.21644
▁safe	-8.21688
▁gun	-8.22451
▁tree	-8.22556
▁strong	-8.22714
▁took	-8.22749
▁though	-8.23065
▁speak	-8.23224
▁skate	-8.23812
▁train	-8.23856
▁chance	-8.24423
▁business	-8.2487
▁quite	-8.2487
▁drink	-8.24885
▁couldnt	-8.24982
▁special	-8.25969
▁fool	-8.26011
▁clear	-8.26019
▁later	-8.26376
▁moment	-8.26949
▁hour	-8.27056
▁afraid	-8.2708
▁scream	-8.2708
▁stone	-8.27229
▁question	-8.28203
▁certain	-8.28203
▁gave	-8.28252
▁bye	-8.28297
▁maam	-8.28312
▁jack	-8.28435
▁band	-8.29055
▁second	-8.2934
▁stuff	-8.29348
▁point	-8.2945
▁vo	-8.30308
▁book	-8.30333
▁almost	-8.30489
▁small	-8.30491
▁half	-8.30506
▁dark	-8.30514
▁sign	-8.31655
▁lead	-8.31672
▁teach	-8.31673
▁taking	-8.31704
▁elvis	-8.32829
▁hmm	-8.32832
▁inaudible	-8.34019
▁krasta	-8.34019
▁fast	-8.34712
▁anyone	-8.35224
▁problem	-8.35227
▁strange	-8.35229
▁cause	-8.35295
▁forever	-8.36444
▁school	-8.36444
▁human	-8.36457
▁language	-8.37678
▁guard	-8.37679
▁sister	-8.3771
▁trust	-8.3771
▁power	-8.3776
▁read	-8.37879
▁ski	-8.38692
▁gasps	-8.38929
▁number	-8.38929
▁touch	-8.3894
▁ladies	-8.38941
▁making	-8.38998
▁daughter	-8.40194
▁mountain	-8.40194
▁nobody	-8.40194
▁reason	-8.40203
▁royal	-8.40235
▁singing	-8.4082
▁ahead	-8.41477
▁mama	-8.41637
▁hunt	-8.41655
ept	-8.41861
▁perhaps	-8.42774
▁broke	-8.42797
▁arent	-8.42871
▁tara	-8.44051
▁brought	-8.4409
▁behind	-8.44091
▁america	-8.45424
▁dinner	-8.45424
▁sort	-8.45762
▁they	-8.4623
nder	-8.46768
▁inside	-8.46777
▁groove	-8.46778
▁children	-8.46784
▁magic	-8.46801
▁feet	-8.46842
▁whale	-8.48158
▁side	-8.48263
▁ring	-8.48791
eck	-8.49487
▁important	-8.49534
▁summer	-8.49535
▁interest	-8.49536
▁group	-8.49542
mber	-8.50736
way	-8.50915
▁art	-8.50923
▁shoot	-8.50974
▁drop	-8.51376
▁quiet	-8.52371
▁danger	-8.52371
▁hang	-8.52479
▁theyll	-8.52746
▁wonder	-8.53768
▁captain	-8.5382
▁probably	-8.5382
▁argh	-8.53823
▁smell	-8.53833
▁monster	-8.53849
▁chef	-8.53875
▁julio	-8.55291
▁blood	-8.55302
▁throw	-8.5531
▁story	-8.554
▁park	-8.55424
▁careful	-8.55495
▁crazy	-8.56783
▁tommy	-8.56784
▁voice	-8.56797
▁honey	-8.56814
▁highness	-8.56883
▁moses	-8.56983
▁gentlemen	-8.58298
▁across	-8.58298
▁should	-8.58298
▁sanna	-8.58301
▁glad	-8.58357
▁heres	-8.58448
▁goodbye	-8.59838
▁paint	-8.60015
time	-8.60264
▁somebody	-8.61399
▁sometimes	-8.61399
▁phone	-8.61406
▁uncle	-8.61427
▁exactly	-8.62988
▁command	-8.62992
▁finish	-8.62995
▁under	-8.63092
▁fear	-8.63177
▁outside	-8.64599
▁flipper	-8.646
▁women	-8.64608
▁street	-8.64615
▁jump	-8.6463
▁dress	-8.64714
▁pumpkin	-8.66239
▁surprise	-8.66239
▁tinker	-8.6624
▁search	-8.66254
▁wife	-8.66267
ease	-8.66777
▁amazing	-8.67905
▁possible	-8.67905
▁figure	-8.67906
▁white	-8.67907
▁york	-8.6792
▁build	-8.67939
▁join	-8.6794
▁protect	-8.67953
▁expect	-8.68087
▁anymore	-8.696
▁leaving	-8.696
▁charlie	-8.696
▁office	-8.69603
▁truth	-8.69626
▁funny	-8.69631
▁jason	-8.69643
▁master	-8.69738
▁become	-8.71325
▁arrive	-8.71325
▁oksana	-8.71325
▁anyway	-8.71326
▁grunts	-8.71326
▁present	-8.71379
▁hurt	-8.71379
▁marry	-8.71381
▁slave	-8.71401
▁majesty	-8.73079
▁john	-8.73079
▁belong	-8.73079
▁others	-8.73083
▁forest	-8.73102
▁billy	-8.73118
▁soft	-8.73123
▁clean	-8.73128
▁pray	-8.73151
▁foot	-8.73163
▁pull	-8.73195
▁cold	-8.73253
▁tried	-8.73277
▁short	-8.73308
▁restaurant	-8.74864
▁morgan	-8.74865
▁answer	-8.74865
▁kingdom	-8.74871
▁tiny	-8.75037
nnie	-8.75277
▁frankie	-8.76683
▁vandergelder	-8.76683
▁chuckles	-8.76683
▁groan	-8.76727
▁honor	-8.76773
▁deep	-8.77056
▁akhoba	-8.78535
▁island	-8.78535
▁picture	-8.7854
▁agree	-8.78557
▁talent	-8.78567
▁six	-8.78581
▁running	-8.78594
▁enjoy	-8.80421
▁hungry	-8.80421
▁grunting	-8.80422
▁buddy	-8.80424
▁sheep	-8.80435
▁trick	-8.80444
▁front	-8.80454
▁dolly	-8.80465
▁sick	-8.80502
▁murder	-8.82345
▁champ	-8.82347
▁million	-8.82352
▁complete	-8.82353
▁married	-8.82357
▁months	-8.8238
▁game	-8.82387
▁spring	-8.8249
▁ooh	-8.82506
▁anybody	-8.84305
▁starbird	-8.84305
▁engine	-8.84311
▁spirit	-8.84314
▁allow	-8.8435
▁egypt	-8.86305
▁narrator	-8.86305
▁swifty	-8.86306
▁straight	-8.86314
▁serious	-8.86322
▁country	-8.86333
▁push	-8.86348
▁reach	-8.86398
▁afternoon	-8.88346
▁elephant	-8.88346
▁foreign	-8.88346
▁destroy	-8.88346
▁explain	-8.88346
▁deliver	-8.88346
▁living	-8.8835
▁damn	-8.88448
▁humphrey	-8.90429
▁indistinct	-8.90429
▁trumpet	-8.90429
▁kitchen	-8.90429
▁gift	-8.90457
▁kolo	-8.90466
▁tired	-8.90482
▁serve	-8.90567
▁whoo	-8.90744
▁village	-8.92559
▁spanish	-8.92559
▁sense	-8.92661
▁everywhere	-8.94731
▁somewhere	-8.94731
▁whatever	-8.94731
▁perform	-8.94731
▁position	-8.94731
▁doctor	-8.94731
▁either	-8.94732
▁chatter	-8.94743
▁south	-8.94753
▁attention	-8.96953
▁garden	-8.96954
▁dancing	-8.96954
▁choice	-8.96956
▁cindy	-8.96957
what	-8.98745
▁chicken	-8.99226
▁colonel	-8.99226
▁forgive	-8.99226
▁simple	-8.99226
▁giving	-8.99228
▁parents	-8.9923
▁flower	-8.99256
▁barnaby	-9.01551
▁impossible	-9.01551
▁decided	-9.01552
▁idiot	-9.01552
▁thousand	-9.01552
▁peace	-9.01553
▁except	-9.01553
▁couple	-9.0156
▁wedding	-9.01566
▁piece	-9.01568
▁gusteau	-9.03932
▁abbie	-9.03933
▁christ	-9.03967
▁cross	-9.03981
▁squeaks	-9.06371
▁entire	-9.06373
▁travel	-9.06374
▁report	-9.06382
▁chief	-9.06384
▁breath	-9.06388
▁smile	-9.06389
▁seven	-9.06414
▁johannes	-9.08871
▁professor	-9.08871
▁raccoon	-9.08871
▁william	-9.08871
▁president	-9.08871
▁creature	-9.08872
▁george	-9.08872
▁queen	-9.08872
▁imagine	-9.08873
▁prison	-9.08873
▁ranger	-9.08873
▁stupid	-9.08875
▁husband	-9.11436
▁police	-9.11437
▁relax	-9.11439
▁prepare	-9.11444
▁africa	-9.14067
▁forgot	-9.14067
▁design	-9.14067
▁attack	-9.14068
▁beyond	-9.14069
▁basket	-9.14069
▁coffee	-9.14069
▁heroes	-9.14075
▁glass	-9.14081
▁ocean	-9.14081
▁louis	-9.14098
▁anywhere	-9.1677
▁suddenly	-9.1677
▁madame	-9.1677
▁tough	-9.1677
▁double	-9.16774
▁randy	-9.16775
▁darling	-9.16777
▁forward	-9.16778
print	-9.17785
▁treasure	-9.19548
▁terrible	-9.19548
▁alright	-9.19555
▁detective	-9.22405
▁udala	-9.22405
▁inspector	-9.22405
▁radio	-9.22408
▁rescue	-9.22408
▁remind	-9.22409
▁caught	-9.25346
▁favorite	-9.25346
▁pleasure	-9.25346
▁neecha	-9.25346
▁impress	-9.25346
▁cloud	-9.25347
▁doubt	-9.25347
▁besides	-9.25347
q	-10.6096
