<unk>	0
<s>	0
</s>	0
s	-3.94972
▁dont	-4.79963
▁im	-4.81149
▁know	-4.81242
▁well	-4.86436
▁oh	-4.89347
▁go	-4.95767
▁like	-4.99565
▁get	-5.00851
▁one	-5.0372
▁come	-5.05878
▁right	-5.12198
ing	-5.12232
▁l	-5.15487
▁youre	-5.22638
▁see	-5.24265
▁good	-5.31306
▁got	-5.31335
▁thats	-5.41863
▁yes	-5.4664
ed	-5.51669
▁back	-5.52081
▁think	-5.53216
▁take	-5.57482
▁us	-5.59681
▁time	-5.60474
▁yeah	-5.62978
▁would	-5.67073
▁look	-5.67395
▁going	-5.68519
▁want	-5.69576
▁okay	-5.69628
▁na	-5.73184
▁ill	-5.73527
▁man	-5.77844
▁cant	-5.79462
▁hes	-5.81613
▁little	-5.86624
▁	-5.88681
▁way	-5.89003
▁hey	-5.91821
▁never	-5.92548
▁could	-5.92904
▁tell	-5.96861
▁make	-5.98412
▁gon	-5.99367
d	-6.00501
▁say	-6.0114
▁really	-6.02067
▁let	-6.02831
▁help	-6.08319
▁sure	-6.12214
▁find	-6.13137
▁need	-6.13388
▁theres	-6.16169
▁give	-6.16171
▁music	-6.16474
▁must	-6.16772
▁day	-6.16869
▁love	-6.19117
y	-6.1917
▁two	-6.22582
▁lets	-6.23073
▁home	-6.23074
▁something	-6.23657
▁thank	-6.23773
▁mr	-6.25079
▁great	-6.26832
▁people	-6.28999
▁sir	-6.2908
▁mean	-6.29721
▁please	-6.29808
▁whats	-6.30664
▁ive	-6.3308
▁much	-6.34161
ly	-6.34993
▁didnt	-6.37561
▁new	-6.38684
▁even	-6.4072
▁first	-6.41086
▁away	-6.429
▁thing	-6.4297
▁wait	-6.43545
▁life	-6.45985
▁night	-6.49042
▁sorry	-6.49177
▁keep	-6.49758
▁big	-6.50471
▁said	-6.51473
▁long	-6.53728
▁theyre	-6.53825
▁nothing	-6.55191
▁youll	-6.55536
▁put	-6.56223
▁stop	-6.57006
▁uh	-6.57589
▁work	-6.58605
▁world	-6.58736
▁better	-6.6013
▁anything	-6.62323
▁maybe	-6.63069
▁around	-6.63438
▁boy	-6.635
▁father	-6.64266
▁wont	-6.64565
e	-6.66058
▁ever	-6.66277
▁shes	-6.66888
▁thought	-6.68758
▁show	-6.69281
▁every	-6.70207
▁miss	-6.70402
▁still	-6.70407
▁always	-6.71209
▁things	-6.71609
▁made	-6.7169
▁old	-6.72275
▁last	-6.7288
▁mother	-6.73521
▁place	-6.73695
er	-6.73938
a	-6.73969
▁hear	-6.74725
▁coming	-6.75769
▁leave	-6.76509
▁nice	-6.78511
▁course	-6.7876
▁girl	-6.79127
▁three	-6.79198
▁years	-6.80643
▁water	-6.80961
▁everything	-6.8141
▁enough	-6.81857
▁stay	-6.83056
▁another	-6.83214
▁may	-6.86426
▁told	-6.86456
▁lm	-6.8671
▁name	-6.86779
▁kind	-6.86863
▁men	-6.88692
▁believe	-6.90045
▁real	-6.90068
▁dad	-6.90342
▁care	-6.90872
▁heart	-6.91591
▁god	-6.92162
i	-6.92268
▁king	-6.92569
▁youve	-6.93277
▁hold	-6.94627
▁done	-6.94797
▁bring	-6.96355
▁family	-6.96679
▁isnt	-6.96864
▁remember	-6.99098
▁came	-6.99428
▁call	-7.00313
▁la	-7.00687
▁fine	-7.01208
▁thanks	-7.01256
▁lot	-7.0176
▁id	-7.02234
▁might	-7.03125
▁son	-7.03227
▁best	-7.03355
▁guys	-7.03778
▁many	-7.04048
▁woman	-7.04454
▁mom	-7.04896
▁ready	-7.05667
▁girls	-7.05685
▁hand	-7.06333
▁try	-7.07246
▁left	-7.0731
▁hello	-7.07934
ve	-7.08331
▁young	-7.08352
▁without	-7.08477
▁ta	-7.08927
▁saw	-7.09657
▁found	-7.10179
▁friend	-7.10626
▁everyone	-7.1086
▁hi	-7.11181
▁feel	-7.11388
▁seen	-7.11952
es	-7.12772
▁bear	-7.13008
▁bad	-7.13182
▁ask	-7.13516
▁mind	-7.1397
▁next	-7.15145
▁talk	-7.1544
▁yogi	-7.15775
t	-7.16556
in	-7.16739
▁watch	-7.17296
▁doesnt	-7.18979
▁run	-7.19154
▁beautiful	-7.19447
n	-7.19556
▁room	-7.19809
▁getting	-7.20389
▁weve	-7.20962
▁live	-7.21055
▁head	-7.21475
▁dear	-7.21555
▁start	-7.22255
▁lost	-7.22978
▁shall	-7.24326
▁understand	-7.2441
▁gone	-7.24538
▁alone	-7.25022
▁hope	-7.25712
▁true	-7.26425
▁ha	-7.26493
▁playing	-7.26803
▁together	-7.27119
▁food	-7.27835
▁princess	-7.27855
▁wanted	-7.28328
▁pretty	-7.28543
▁money	-7.28545
▁whole	-7.28545
▁morning	-7.28546
▁listen	-7.28914
▁guess	-7.29262
▁wrong	-7.29987
▁else	-7.29993
▁horse	-7.30352
▁house	-7.30388
▁brother	-7.31095
▁hurry	-7.31454
▁speaking	-7.31787
▁hard	-7.31906
▁move	-7.32417
▁wan	-7.32841
▁went	-7.32942
▁eat	-7.32986
▁whoa	-7.34422
▁huh	-7.34449
▁someone	-7.35212
▁open	-7.35473
▁days	-7.35773
▁knew	-7.35982
▁today	-7.37538
▁hell	-7.38276
▁lll	-7.38609
▁year	-7.39719
▁part	-7.40144
▁dog	-7.40356
▁ah	-7.40391
▁worry	-7.41538
▁idea	-7.41949
▁dead	-7.42166
▁friends	-7.42398
▁trying	-7.43198
▁looking	-7.43258
▁far	-7.43265
▁soon	-7.43904
o	-7.44081
▁wouldnt	-7.44084
▁heard	-7.4451
▁prince	-7.44697
▁happened	-7.45065
▁wish	-7.45421
▁boat	-7.45579
▁aint	-7.45707
▁job	-7.45708
al	-7.45833
▁mine	-7.46301
▁happy	-7.46561
▁fly	-7.46901
▁excuse	-7.48022
r	-7.48106
▁talking	-7.48232
▁use	-7.48292
▁harry	-7.48293
▁un	-7.48306
▁max	-7.48372
▁sam	-7.48391
▁eyes	-7.49134
▁christmas	-7.49169
▁already	-7.50054
▁city	-7.50068
▁yet	-7.50106
▁lady	-7.50138
▁high	-7.50621
▁land	-7.50798
▁kid	-7.50921
▁tonight	-7.50947
▁tomorrow	-7.50948
▁ago	-7.50953
▁rest	-7.5098
▁luna	-7.51836
▁trouble	-7.52041
▁door	-7.52768
▁face	-7.52787
▁gold	-7.53626
▁fun	-7.53679
▁cave	-7.53928
▁lts	-7.54138
▁sweet	-7.54576
▁mrs	-7.54717
▁stand	-7.54985
▁dream	-7.55195
▁lord	-7.55552
▁cool	-7.56483
▁since	-7.57414
▁easy	-7.5743
▁akita	-7.57431
▁crowd	-7.57535
▁ya	-7.57734
▁called	-7.58136
▁black	-7.58392
▁wasnt	-7.58393
▁sea	-7.59015
▁ok	-7.59293
▁everybody	-7.59365
▁matter	-7.59487
▁along	-7.6034
▁kids	-7.60384
▁angel	-7.604
▁end	-7.61183
▁looks	-7.61331
▁four	-7.61333
▁five	-7.61348
▁whos	-7.61431
▁town	-7.61482
▁full	-7.62117
▁earth	-7.62332
▁welcome	-7.62396
▁perfect	-7.63169
▁guy	-7.63579
▁sun	-7.64144
▁change	-7.64323
▁anyone	-7.65397
▁actually	-7.65403
▁youd	-7.65433
▁wonderful	-7.66265
▁also	-7.66437
▁star	-7.66805
▁kill	-7.67188
▁late	-7.67396
▁fire	-7.67487
▁s	-7.67545
▁light	-7.67686
▁minute	-7.67778
▁bit	-7.67959
▁meet	-7.67964
▁play	-7.67984
▁havent	-7.68554
▁turn	-7.68948
▁bird	-7.69375
▁free	-7.69931
▁close	-7.69981
▁sleep	-7.70123
▁die	-7.70581
▁couldnt	-7.70782
▁stuff	-7.71398
▁sound	-7.71586
▁business	-7.71814
▁inaudible	-7.71814
▁taking	-7.71825
▁moment	-7.72169
▁though	-7.72845
▁took	-7.72926
▁quite	-7.72946
▁sal	-7.73116
l	-7.73861
▁neecro	-7.74049
▁laughing	-7.74257
▁dance	-7.74718
▁hmm	-7.75187
est	-7.75352
▁chance	-7.75582
▁ho	-7.75627
▁different	-7.76151
▁ride	-7.76262
▁forget	-7.76321
▁um	-7.76426
▁catch	-7.76873
▁comes	-7.76959
▁afraid	-7.77497
▁forever	-7.775
▁half	-7.77517
▁follow	-7.77547
▁hands	-7.77702
▁wheres	-7.7799
▁direction	-7.77994
▁promise	-7.78426
▁pay	-7.78546
▁used	-7.78981
▁singing	-7.78983
▁count	-7.79418
▁break	-7.79753
▁ball	-7.7988
▁least	-7.79894
▁em	-7.8007
▁set	-7.80469
f	-7.80679
▁m	-7.80882
▁camp	-7.80913
or	-7.81041
▁child	-7.81073
ies	-7.81412
▁word	-7.81675
▁hit	-7.81956
▁bed	-7.82122
▁special	-7.82283
▁language	-7.82289
▁goes	-7.82535
▁lt	-7.8284
▁boo	-7.83475
▁royal	-7.83517
▁maam	-7.83523
▁check	-7.8434
▁strong	-7.84606
▁waiting	-7.84676
▁gave	-7.84776
▁captain	-7.86039
▁almost	-7.86039
▁brought	-7.86039
▁elvis	-7.87321
▁arent	-7.87322
▁dinner	-7.87323
▁walk	-7.87354
▁later	-7.87461
▁speak	-7.87468
▁car	-7.87551
▁seems	-7.87555
▁second	-7.88067
▁return	-7.88317
▁bye	-7.8862
▁ahead	-7.88622
▁making	-7.88622
▁ladies	-7.8864
▁fish	-7.88741
▁nobody	-7.89937
▁air	-7.89942
▁gasps	-7.9015
▁whispers	-7.90323
▁safe	-7.90571
▁started	-7.90726
▁book	-7.90838
▁wow	-7.91233
▁children	-7.91278
▁tara	-7.91291
▁drink	-7.91467
▁heaven	-7.91956
▁needs	-7.92537
▁says	-7.92541
▁rock	-7.92897
▁point	-7.93441
▁cause	-7.93725
▁ye	-7.9383
▁small	-7.9387
▁saying	-7.93874
ion	-7.93879
▁theyll	-7.94013
▁reason	-7.94881
▁save	-7.95295
▁summer	-7.95379
▁sanna	-7.95387
▁wake	-7.95435
▁send	-7.95483
▁tree	-7.9631
▁behind	-7.9679
▁sit	-7.96941
▁sometimes	-7.96961
▁knows	-7.96964
▁times	-7.97602
▁mountain	-7.97967
▁probably	-7.98216
▁chef	-7.98219
▁feet	-7.98228
▁highness	-7.98247
▁makes	-7.98483
▁learn	-7.98654
▁order	-7.98848
▁pa	-7.99501
▁school	-7.99658
▁perhaps	-7.99665
▁goodbye	-7.99665
▁sort	-7.99667
▁groove	-7.99667
▁death	-7.99671
▁exactly	-7.99679
▁mama	-7.99833
▁dark	-8.01118
▁baby	-8.01136
m	-8.0118
▁pick	-8.01319
▁laughs	-8.01996
h	-8.02098
▁st	-8.02154
▁sister	-8.02274
▁across	-8.02628
▁poor	-8.02636
▁lovely	-8.03721
▁case	-8.03804
▁river	-8.03856
▁uncle	-8.04146
▁moses	-8.04147
▁hate	-8.04347
▁trust	-8.0454
▁cat	-8.05038
▁animals	-8.0528
▁mark	-8.05317
▁power	-8.0534
▁problem	-8.0536
▁daughter	-8.05371
▁fast	-8.05492
▁lead	-8.05537
▁tom	-8.0565
▁krasta	-8.05682
▁women	-8.05682
▁fear	-8.05686
▁alive	-8.0569
▁cheering	-8.05799
▁step	-8.06592
▁means	-8.06852
▁quiet	-8.07062
▁top	-8.07171
▁somebody	-8.07244
▁inside	-8.07248
▁story	-8.07249
▁tommy	-8.07253
▁white	-8.07254
▁cut	-8.08495
▁group	-8.08565
▁secret	-8.08572
▁boys	-8.08592
▁fo	-8.08651
▁seem	-8.08733
▁bears	-8.08791
▁honey	-8.08835
▁running	-8.08843
▁master	-8.08863
ll	-8.09152
▁happen	-8.09217
▁yo	-8.0934
▁train	-8.09568
ful	-8.09937
▁side	-8.1017
▁jack	-8.10344
▁evening	-8.1041
▁anyway	-8.10446
▁wife	-8.10448
▁forest	-8.10451
▁supposed	-8.10668
▁plan	-8.10815
▁horses	-8.11271
▁de	-8.11273
st	-8.11317
▁pup	-8.1166
▁whale	-8.11894
▁song	-8.11926
▁grunts	-8.12084
▁gentlemen	-8.12085
▁julio	-8.12087
▁crazy	-8.12093
▁cold	-8.12125
▁red	-8.12495
▁p	-8.12689
ers	-8.12702
▁ray	-8.13513
▁voice	-8.13529
▁number	-8.13572
▁blood	-8.13751
▁grunting	-8.13751
▁amazing	-8.13756
▁able	-8.14043
▁touch	-8.14313
▁clear	-8.14662
▁sounds	-8.14873
▁d	-8.15202
▁throw	-8.15216
▁week	-8.15306
▁till	-8.15342
▁band	-8.15353
▁outside	-8.15447
▁team	-8.15474
▁phone	-8.156
ic	-8.15831
▁marry	-8.16466
▁working	-8.16568
▁bell	-8.16737
▁feeling	-8.16973
▁important	-8.16975
▁sign	-8.17047
▁truth	-8.17137
▁possible	-8.1717
▁six	-8.1718
▁dolly	-8.17226
▁hide	-8.17228
▁lives	-8.17615
▁kings	-8.1835
▁minutes	-8.18444
▁b	-8.18754
▁grow	-8.18793
▁human	-8.18794
▁dreams	-8.18841
▁akhoba	-8.18924
▁whatever	-8.18924
▁york	-8.18926
▁charlie	-8.18929
▁jason	-8.18929
▁anymore	-8.18933
▁ooh	-8.18934
▁leaving	-8.18941
▁hot	-8.19285
▁c	-8.19969
▁shoot	-8.2003
▁cry	-8.2008
able	-8.20118
▁re	-8.20126
▁thinking	-8.20161
c	-8.20435
▁stone	-8.20678
▁others	-8.2071
▁island	-8.20712
▁santa	-8.20715
▁flipper	-8.20728
▁daddy	-8.20729
▁aye	-8.20738
an	-8.21431
▁read	-8.21514
▁deal	-8.21955
▁wants	-8.22192
▁quick	-8.22226
▁lve	-8.22489
▁billy	-8.22519
▁john	-8.22528
▁majesty	-8.22528
▁chuckles	-8.22528
▁hair	-8.22551
▁oksana	-8.22575
▁gun	-8.22627
▁dogs	-8.23013
▁fall	-8.23702
▁glad	-8.24009
▁they	-8.24119
▁mary	-8.24367
▁vandergelder	-8.2438
▁front	-8.2438
▁argh	-8.2438
▁hungry	-8.24382
▁smell	-8.24387
▁past	-8.244
▁wed	-8.24701
▁met	-8.24772
▁hours	-8.26096
▁morgan	-8.26267
▁dancing	-8.26267
▁spanish	-8.26268
▁starbird	-8.26269
▁sick	-8.26281
▁quickly	-8.26449
▁eye	-8.26503
▁suppose	-8.2795
▁buddy	-8.282
▁funny	-8.28203
▁married	-8.28207
▁rain	-8.28216
▁country	-8.2822
▁swifty	-8.2824
▁finally	-8.28243
▁heres	-8.285
▁party	-8.28685
▁given	-8.28824
▁months	-8.28831
▁cook	-8.2959
▁ten	-8.29716
▁fair	-8.29925
▁road	-8.29969
▁mad	-8.30022
▁strange	-8.30077
▁careful	-8.30094
▁shut	-8.3012
▁anybody	-8.30151
▁attention	-8.30151
▁ice	-8.30204
▁screaming	-8.3024
▁monster	-8.30269
▁question	-8.30292
▁happens	-8.30435
▁hurt	-8.31499
▁board	-8.31749
▁be	-8.31823
▁restaurant	-8.32151
▁shot	-8.32177
▁american	-8.3224
▁hour	-8.3235
en	-8.33088
▁park	-8.33386
▁gods	-8.33624
▁join	-8.33692
▁short	-8.33781
▁lose	-8.34006
▁snow	-8.34192
▁living	-8.34192
▁tiny	-8.3421
▁clothes	-8.34217
▁tried	-8.34275
▁spirit	-8.34335
▁become	-8.34361
▁lucky	-8.34405
▁street	-8.3443
▁less	-8.3447
▁taken	-8.34515
▁i	-8.34726
▁south	-8.34886
ie	-8.35243
▁ship	-8.35253
▁tinker	-8.35806
▁reach	-8.35849
reign	-8.35945
▁watching	-8.36109
▁person	-8.36203
▁claus	-8.36276
▁paul	-8.3629
▁spring	-8.36305
▁charge	-8.36489
▁rich	-8.36582
▁drop	-8.36801
▁line	-8.37132
▁wonder	-8.37265
▁hang	-8.37387
▁rat	-8.37761
▁fact	-8.38099
le	-8.38136
▁luck	-8.38233
▁fool	-8.3826
▁e	-8.38272
▁tea	-8.38286
▁barnaby	-8.38402
▁narrator	-8.38402
▁president	-8.38402
▁either	-8.38402
▁tired	-8.38458
▁born	-8.38488
▁kingdom	-8.38665
▁a	-8.38678
▁growls	-8.38779
▁buy	-8.39182
▁killed	-8.39223
▁arms	-8.39229
g	-8.39291
▁magic	-8.39781
▁bet	-8.3983
▁stars	-8.40008
man	-8.40039
▁honor	-8.40177
▁present	-8.40351
▁humphrey	-8.40576
▁simple	-8.40576
▁kolo	-8.40576
▁moving	-8.40584
▁spend	-8.40593
▁wild	-8.40611
▁wedding	-8.40626
▁sent	-8.40672
▁table	-8.40809
▁moon	-8.4085
▁belong	-8.40913
id	-8.41046
▁blue	-8.41559
▁miles	-8.41773
▁known	-8.41883
▁asked	-8.41999
▁crow	-8.42423
▁near	-8.42614
▁ground	-8.42737
ity	-8.42743
▁guard	-8.42784
▁george	-8.42799
▁kitchen	-8.42799
▁somewhere	-8.42799
▁thousand	-8.42799
▁impossible	-8.42799
▁sheep	-8.42799
▁everywhere	-8.428
▁shell	-8.42801
▁emma	-8.42823
▁frankie	-8.42827
▁mister	-8.42831
▁loved	-8.4286
▁certainly	-8.42954
▁million	-8.4316
▁died	-8.43548
▁words	-8.43943
▁clean	-8.44085
▁fight	-8.44231
▁da	-8.44659
on	-8.45056
▁upon	-8.45079
▁sing	-8.45142
▁west	-8.45157
▁squeaks	-8.45181
▁news	-8.45417
▁sighs	-8.4542
▁win	-8.4572
▁meeting	-8.46698
▁fathers	-8.46916
▁explain	-8.46968
▁box	-8.47309
▁straight	-8.4737
▁talent	-8.47377
▁answer	-8.47389
▁colonel	-8.47397
▁couple	-8.47397
▁afternoon	-8.47397
▁chief	-8.47401
▁nto	-8.4742
▁cindy	-8.47443
▁telling	-8.47503
▁se	-8.47571
▁worked	-8.4766
it	-8.49121
▁k	-8.49131
te	-8.49179
▁forgive	-8.49712
▁position	-8.49796
▁broken	-8.49841
less	-8.51302
▁picture	-8.51474
▁in	-8.51595
▁damn	-8.51799
▁share	-8.51942
▁except	-8.52153
▁village	-8.52202
▁foot	-8.52211
▁stupid	-8.52217
▁speed	-8.52217
▁professor	-8.52218
▁itll	-8.52222
▁kita	-8.52224
▁abbie	-8.52225
▁wings	-8.52227
▁none	-8.52236
▁decided	-8.52334
▁fairy	-8.52474
▁ow	-8.52504
▁skate	-8.5257
▁continues	-8.52623
▁sense	-8.52697
▁taste	-8.52756
▁joe	-8.52838
▁animal	-8.52862
▁growing	-8.53045
▁wear	-8.53885
▁birds	-8.53983
▁write	-8.54137
▁deep	-8.54389
▁worth	-8.54475
▁certain	-8.54542
▁carry	-8.54679
▁soup	-8.54729
▁dangerous	-8.5473
▁giving	-8.54753
▁trip	-8.54864
▁early	-8.54908
▁game	-8.55378
▁pumpkin	-8.55404
▁turned	-8.55659
▁choice	-8.56067
▁pull	-8.56165
▁search	-8.5625
▁enjoy	-8.56667
ness	-8.57047
▁husband	-8.57281
▁instead	-8.57281
▁raccoon	-8.57281
▁sky	-8.573
▁heroes	-8.57333
▁busy	-8.57338
▁unless	-8.57362
▁shh	-8.57366
▁hole	-8.57441
▁t	-8.57579
▁hed	-8.57916
▁wind	-8.58397
▁th	-8.59098
▁teach	-8.59142
▁kiss	-8.59467
▁imagine	-8.59642
▁law	-8.59734
▁heh	-8.5974
▁egypt	-8.59903
▁police	-8.59907
▁beyond	-8.59912
▁entire	-8.59913
▁levi	-8.59914
▁inspector	-8.5992
▁pleasure	-8.5992
▁lunch	-8.59926
▁green	-8.5993
▁storm	-8.59941
▁brave	-8.5995
▁prove	-8.59962
▁rise	-8.59972
▁calling	-8.60158
▁mayor	-8.60166
▁date	-8.60456
▁pole	-8.60617
▁doctor	-8.60664
▁idiot	-8.60665
▁age	-8.6071
▁horn	-8.60745
▁sad	-8.60826
▁north	-8.60851
▁serve	-8.62368
▁asking	-8.62495
▁tour	-8.62614
▁cornelius	-8.62615
▁marriage	-8.62615
▁parents	-8.62615
▁queen	-8.62615
▁alright	-8.62616
▁africa	-8.62617
▁coast	-8.62619
▁consider	-8.62628
▁terrible	-8.62639
▁madame	-8.62708
▁scared	-8.6276
▁lad	-8.62904
▁hat	-8.62974
w	-8.62995
▁teacher	-8.63468
▁longer	-8.63555
▁toy	-8.6358
▁groans	-8.63681
▁pass	-8.64295
▁looked	-8.64721
▁feed	-8.64876
▁agree	-8.65138
▁grab	-8.65392
▁anywhere	-8.65393
▁company	-8.65393
▁double	-8.65393
▁indeed	-8.65393
▁proud	-8.65393
▁forward	-8.65393
▁squawks	-8.65394
▁felt	-8.65398
▁sight	-8.65423
▁aii	-8.65459
▁growling	-8.65562
▁engine	-8.65768
to	-8.65879
▁lived	-8.66447
▁w	-8.66616
▁fans	-8.6682
▁n	-8.67537
▁push	-8.67641
▁destroy	-8.67842
erry	-8.67899
▁questions	-8.68049
▁fell	-8.68135
▁ohh	-8.68153
▁act	-8.68209
▁udala	-8.6825
▁within	-8.6825
▁choose	-8.6825
▁visit	-8.68252
▁evil	-8.68252
▁neecha	-8.68252
▁round	-8.68252
▁risk	-8.6826
▁ii	-8.68285
▁command	-8.68375
▁besides	-8.68607
▁cute	-8.68875
▁co	-8.69046
ation	-8.6911
▁ran	-8.69127
▁detective	-8.69253
▁state	-8.69593
▁works	-8.69665
ous	-8.70759
▁allow	-8.70835
re	-8.70862
▁fresh	-8.71058
▁personal	-8.71069
▁missed	-8.7118
▁coffee	-8.71191
▁empty	-8.71191
▁horace	-8.71191
▁caught	-8.71191
▁fault	-8.71191
▁future	-8.71192
▁william	-8.71192
▁swim	-8.71192
▁noble	-8.71193
▁g	-8.71199
▁pool	-8.71199
▁sand	-8.71201
▁winter	-8.71208
▁aah	-8.71213
▁louis	-8.71249
▁hows	-8.71279
▁broke	-8.71725
▁figure	-8.7205
▁crying	-8.72189
▁fit	-8.72229
▁piece	-8.72394
▁plane	-8.72468
▁an	-8.72526
▁protect	-8.73084
▁dare	-8.73327
▁respect	-8.73541
ry	-8.73577
▁slow	-8.73929
▁stick	-8.73974
▁tight	-8.7409
▁coop	-8.74147
▁often	-8.74222
▁swear	-8.74222
▁tough	-8.74222
▁cougar	-8.74222
▁jean	-8.74223
▁beginning	-8.74225
▁excited	-8.74226
▁radio	-8.74228
▁definitely	-8.7423
▁aggie	-8.74236
▁halo	-8.74259
▁dry	-8.74426
▁vo	-8.74553
▁wine	-8.74599
▁blow	-8.74631
▁screams	-8.7466
▁littlest	-8.74804
▁promised	-8.7487
▁changed	-8.74965
as	-8.75069
▁service	-8.75338
▁mate	-8.75504
▁aw	-8.76259
▁flying	-8.76391
▁needed	-8.76549
▁tum	-8.766
▁sell	-8.76678
▁low	-8.76903
▁soft	-8.77017
▁warm	-8.77093
▁realize	-8.77111
▁serious	-8.77171
▁seven	-8.77343
▁breakfast	-8.77347
▁danger	-8.77348
▁kidding	-8.77358
▁castle	-8.7736
▁boss	-8.7737
▁nature	-8.77413
▁chuck	-8.77427
▁jump	-8.77452
▁iii	-8.77472
▁laugh	-8.77661
▁handle	-8.77853
▁rose	-8.7853
▁darling	-8.78594
▁chicken	-8.78672
▁area	-8.78732
▁control	-8.78735
▁bag	-8.78904
▁war	-8.7994
▁office	-8.80515
▁among	-8.80536
▁cinderella	-8.80572
▁duty	-8.80576
▁randy	-8.8058
▁shouldnt	-8.8058
▁department	-8.80582
▁hup	-8.80587
▁rather	-8.80592
▁native	-8.80616
▁suddenly	-8.80639
▁weeks	-8.80839
▁cover	-8.81503
ge	-8.81562
▁lions	-8.81674
▁rocks	-8.81713
▁ring	-8.81943
▁ln	-8.82059
▁so	-8.8216
▁br	-8.82718
▁hearts	-8.82765
▁expect	-8.82883
▁dress	-8.83416
▁gets	-8.83744
▁prison	-8.83749
▁smart	-8.83785
▁babylon	-8.83899
▁body	-8.83906
▁absalom	-8.83906
▁buffins	-8.83906
▁sheriff	-8.83906
▁mandie	-8.83915
▁shaw	-8.83916
▁nour	-8.83919
▁ranger	-8.83944
▁mike	-8.84017
▁sail	-8.8434
▁surprise	-8.85187
▁basket	-8.85291
▁soul	-8.85431
▁mile	-8.85573
▁key	-8.85614
▁offer	-8.86376
b	-8.86642
▁relax	-8.86703
▁paris	-8.8675
▁finish	-8.86951
▁h	-8.87011
▁peace	-8.87136
▁pop	-8.8719
▁female	-8.87354
▁pharaoh	-8.87354
▁third	-8.87354
▁werent	-8.87354
▁zorro	-8.87354
▁audience	-8.87354
▁favorite	-8.87356
▁bride	-8.87359
▁size	-8.87365
▁color	-8.87366
▁tv	-8.87367
▁woof	-8.87374
▁lamp	-8.87401
ia	-8.87411
ar	-8.87566
▁list	-8.87676
▁ches	-8.87723
▁greatest	-8.87951
▁saved	-8.8803
▁san	-8.88101
▁rules	-8.8812
▁beat	-8.88299
▁trees	-8.88433
▁me	-8.8844
▁smile	-8.88621
▁bill	-8.88776
▁hebrew	-8.88911
▁wall	-8.89205
ka	-8.89434
▁lay	-8.89722
▁lie	-8.89753
up	-8.90502
▁mess	-8.90563
▁picnic	-8.90648
▁class	-8.90733
▁fedor	-8.908
▁court	-8.90925
▁armelle	-8.90925
▁brigadoon	-8.90925
▁especially	-8.90925
▁excellency	-8.90925
▁journey	-8.90925
▁neither	-8.90925
▁private	-8.90925
▁famous	-8.90927
▁mummy	-8.90927
▁advice	-8.90928
▁alban	-8.9093
▁borel	-8.9094
▁rusty	-8.90944
▁baron	-8.90946
▁fl	-8.91404
▁eh	-8.91407
▁perfectly	-8.91559
▁tall	-8.91631
▁yay	-8.91713
▁dis	-8.92092
▁fan	-8.92391
▁bottom	-8.92563
▁spot	-8.92618
▁dr	-8.92627
▁brothers	-8.92703
▁sauce	-8.9273
▁slave	-8.92762
▁fix	-8.93588
▁cross	-8.93964
▁bang	-8.93994
▁murder	-8.94017
▁statue	-8.94152
▁drive	-8.94592
▁doubt	-8.94596
▁silver	-8.94624
▁dalton	-8.94629
▁practice	-8.94629
▁bottle	-8.94629
▁cheese	-8.94629
▁biggest	-8.94629
▁competition	-8.9463
▁bunch	-8.9463
▁weather	-8.94631
▁parade	-8.94631
▁bank	-8.9467
▁silly	-8.94672
▁uhoh	-8.94673
▁art	-8.9478
▁arrived	-8.94829
▁gosh	-8.94903
▁interested	-8.94913
▁shame	-8.95013
▁finished	-8.95064
ter	-8.95091
▁hunting	-8.95149
k	-8.95192
▁chattering	-8.95209
ance	-8.95596
▁meant	-8.95783
▁lots	-8.95794
▁bark	-8.95995
the	-8.96054
▁fellas	-8.96344
▁truck	-8.96408
▁slaves	-8.96539
out	-8.96551
▁gift	-8.96587
▁elephant	-8.96596
▁leg	-8.96661
▁sleeping	-8.96713
▁treasure	-8.96728
ty	-8.96802
▁east	-8.96937
rs	-8.97273
▁hill	-8.97565
um	-8.97696
▁names	-8.97848
▁pre	-8.97855
▁chatter	-8.97881
▁honest	-8.9808
▁store	-8.98228
▁arnaud	-8.98475
▁beloved	-8.98475
▁brinstead	-8.98475
▁rameses	-8.98475
▁worried	-8.98475
▁shop	-8.98476
▁shark	-8.98476
▁floor	-8.98478
▁absolutely	-8.98479
▁billboard	-8.98479
▁wise	-8.98481
▁throne	-8.98482
▁yesterday	-8.98482
▁stuck	-8.98485
▁camera	-8.98529
▁station	-8.98556
▁single	-8.98675
el	-8.98898
p	-8.98938
▁riding	-8.98942
▁barking	-8.99092
and	-8.99228
▁goodness	-8.99235
us	-8.99384
▁tracks	-8.99386
ment	-8.99607
▁flowers	-8.99719
ine	-9.00325
▁bike	-9.0041
▁race	-9.00431
▁valley	-9.00454
▁window	-9.00539
ne	-9.00677
▁letter	-9.00783
▁pray	-9.01277
▁perform	-9.01311
▁row	-9.01869
▁form	-9.01875
▁male	-9.02264
▁bow	-9.0241
▁super	-9.0247
▁fashion	-9.02474
▁chinese	-9.02475
▁floud	-9.02475
▁jordan	-9.02475
▁karell	-9.02475
▁stroke	-9.02475
▁lisa	-9.02475
▁smith	-9.02475
▁teeth	-9.02478
▁pardon	-9.02482
▁coley	-9.02483
▁aboard	-9.02483
▁hackl	-9.02484
▁taught	-9.02485
▁kept	-9.02491
▁stella	-9.02496
▁yelling	-9.02515
▁social	-9.02526
▁mmm	-9.02534
▁mention	-9.0254
▁totally	-9.02551
▁indistinctly	-9.02609
▁planet	-9.02638
▁folks	-9.02671
▁bar	-9.02742
▁interesting	-9.02932
▁cubs	-9.0298
▁di	-9.03305
▁ideas	-9.03445
▁garden	-9.03911
ii	-9.03985
▁walking	-9.04376
▁distance	-9.04628
▁general	-9.04702
▁rings	-9.04783
▁fella	-9.04938
▁lights	-9.05539
▁paint	-9.05653
▁eating	-9.05778
▁steal	-9.05926
et	-9.0613
▁attack	-9.0623
came	-9.06339
▁el	-9.06372
▁health	-9.06424
▁champ	-9.066
▁map	-9.06622
▁forgot	-9.06639
▁difficult	-9.06642
▁sinbad	-9.06642
▁taylor	-9.06642
▁throat	-9.06642
▁worse	-9.06642
▁awesome	-9.06642
▁difference	-9.06642
▁alex	-9.06643
▁ugh	-9.06643
▁snoring	-9.06643
▁wandi	-9.06643
▁dawn	-9.06644
▁space	-9.06644
▁garland	-9.06645
▁neck	-9.06646
▁sunday	-9.06647
▁middle	-9.06648
▁onto	-9.0665
▁immediately	-9.06653
▁flight	-9.06655
▁prize	-9.06659
▁fancy	-9.0666
▁whoo	-9.06677
▁yep	-9.06682
▁mud	-9.06703
▁enter	-9.06722
▁bay	-9.06817
▁humans	-9.06842
▁closer	-9.06869
▁lips	-9.06922
▁cart	-9.06948
▁faster	-9.06974
▁wei	-9.072
ive	-9.07251
▁bringing	-9.07263
▁nah	-9.07611
▁wes	-9.07978
▁mothers	-9.08121
▁fellow	-9.09017
▁appear	-9.09038
▁chestnut	-9.09041
▁where	-9.09174
▁bite	-9.09188
▁standing	-9.09385
▁pen	-9.09456
▁sally	-9.09742
▁ways	-9.09792
▁hunt	-9.09799
▁opening	-9.09982
ah	-9.10283
▁climb	-9.10519
made	-9.10709
▁survive	-9.10711
▁correct	-9.10716
▁prepare	-9.10736
▁create	-9.10774
▁nervous	-9.10792
▁shake	-9.10827
▁tink	-9.10848
▁kosh	-9.10853
▁add	-9.109
ish	-9.10902
▁fox	-9.10905
▁glass	-9.10925
▁english	-9.1099
▁linguini	-9.1099
▁molloy	-9.1099
▁museum	-9.1099
▁jeff	-9.1099
▁clawdeen	-9.1099
▁johannesburg	-9.10991
▁cabin	-9.10995
▁jail	-9.10997
▁planned	-9.10997
▁diego	-9.11016
▁handsome	-9.11022
▁mata	-9.11033
▁action	-9.1107
▁pain	-9.11132
▁over	-9.11249
▁crown	-9.1126
▁shed	-9.11325
se	-9.11414
▁allowed	-9.11606
z	-9.11955
nt	-9.11981
▁leaves	-9.11988
▁ro	-9.12338
▁using	-9.12764
▁elephants	-9.13164
▁rescue	-9.13251
▁force	-9.13375
▁mistake	-9.13459
▁ocean	-9.13546
▁giant	-9.13551
▁mouth	-9.13619
▁cousin	-9.13627
▁gusteau	-9.13635
▁mon	-9.13639
▁pro	-9.13704
▁deliver	-9.14738
▁breath	-9.14769
▁si	-9.14973
▁desert	-9.15085
ate	-9.15165
▁natural	-9.15356
▁earl	-9.1536
▁hero	-9.15395
▁grand	-9.15417
▁stole	-9.15468
▁loose	-9.15489
▁large	-9.1551
▁walt	-9.15525
▁applaud	-9.15535
▁brown	-9.15535
▁built	-9.15535
▁davis	-9.15535
▁mfundisi	-9.15535
▁mkan	-9.15535
▁plenty	-9.15535
▁stepmother	-9.15535
▁support	-9.15535
▁upstairs	-9.15535
▁kayera	-9.15536
▁french	-9.15536
▁swimming	-9.15536
▁gram	-9.15539
▁chair	-9.15542
▁glory	-9.15543
▁tess	-9.15545
▁iike	-9.15547
▁suffer	-9.15549
▁hasnt	-9.1555
▁puppy	-9.15552
▁governor	-9.15552
▁ahem	-9.15557
▁message	-9.15557
▁square	-9.1556
▁ought	-9.15571
▁bread	-9.15572
▁hotel	-9.15572
▁witches	-9.15574
▁farm	-9.15584
▁tower	-9.1564
▁completely	-9.15655
▁charming	-9.15662
▁stones	-9.15672
▁willing	-9.1572
▁roars	-9.15849
▁sandy	-9.15873
▁ahh	-9.15991
▁grass	-9.16024
▁whales	-9.16108
▁theyd	-9.1616
▁whose	-9.16161
▁sat	-9.16854
▁travel	-9.16863
▁cooking	-9.16953
▁staying	-9.16975
▁heavens	-9.17256
▁happening	-9.17275
ce	-9.17699
▁design	-9.17773
▁following	-9.17943
▁walls	-9.17985
▁hundred	-9.18315
▁buck	-9.18332
▁judge	-9.18411
▁paper	-9.18415
▁groan	-9.18443
▁r	-9.1869
▁toys	-9.18715
▁x	-9.18719
▁test	-9.1879
▁building	-9.18933
▁arm	-9.19079
▁ones	-9.19119
▁guards	-9.19454
ting	-9.19581
▁angels	-9.19637
▁rats	-9.19664
▁pretend	-9.19704
▁ad	-9.19819
▁hoo	-9.19871
▁fill	-9.19919
▁ed	-9.19933
▁eight	-9.20038
▁raise	-9.20068
▁strength	-9.20208
▁america	-9.20217
▁admit	-9.20289
▁irena	-9.20297
▁nigel	-9.20297
▁pizza	-9.20297
▁purpose	-9.20297
▁rutland	-9.20297
▁samantha	-9.20297
▁whether	-9.20297
▁yappasha	-9.20297
▁ridiculous	-9.20298
▁delicious	-9.20298
▁irene	-9.203
▁wiii	-9.203
▁stopped	-9.20302
▁grandfather	-9.20306
▁dude	-9.20313
▁public	-9.2032
▁laughter	-9.20325
▁maid	-9.20352
▁christy	-9.20365
▁deliverer	-9.20421
▁huge	-9.20434
▁putting	-9.20454
▁goin	-9.2058
▁shine	-9.20622
▁figured	-9.20712
▁wishes	-9.2079
▁introduce	-9.20794
▁mission	-9.20812
ta	-9.20867
▁trumpeting	-9.20882
▁commander	-9.20894
▁closed	-9.21421
▁seemed	-9.21554
ey	-9.21585
▁awful	-9.21741
▁mighty	-9.22147
▁remain	-9.22601
u	-9.22685
▁trumpet	-9.22767
▁remind	-9.22787
▁con	-9.22854
▁turning	-9.2304
▁cajella	-9.2322
▁challenge	-9.2322
▁cell	-9.23236
▁bomb	-9.23274
▁servant	-9.23329
▁nose	-9.23388
▁ticket	-9.234
▁cloud	-9.234
▁lesson	-9.23414
▁begin	-9.23442
▁pumpkins	-9.23922
▁ham	-9.2402
▁ma	-9.24095
▁rid	-9.24102
▁card	-9.2441
▁build	-9.24572
▁spread	-9.24658
▁ju	-9.24772
▁should	-9.24822
▁wash	-9.24975
▁escape	-9.25063
▁weird	-9.2523
▁doug	-9.25262
▁doc	-9.2528
▁heat	-9.25282
▁college	-9.25297
▁elaine	-9.25297
▁ginnie	-9.25297
▁guitar	-9.25297
▁heavy	-9.25297
▁level	-9.25297
▁memory	-9.25297
▁nebuchadnezzar	-9.25297
▁protocol	-9.25297
▁upbeat	-9.25297
▁fiona	-9.25297
▁example	-9.25297
▁suspense	-9.25297
▁scrappy	-9.25297
▁situation	-9.25297
▁lonely	-9.25298
▁price	-9.25298
▁scaris	-9.25298
▁cuando	-9.25298
▁loco	-9.253
ho	-9.25301
▁devil	-9.25301
▁mexico	-9.25305
▁france	-9.25308
▁beach	-9.25309
▁junior	-9.25321
▁therell	-9.25327
▁path	-9.25328
▁mole	-9.25329
▁remy	-9.25336
▁safety	-9.25348
▁crew	-9.25349
▁sanders	-9.25355
▁holly	-9.25369
▁wet	-9.25381
▁officer	-9.25389
▁nest	-9.254
na	-9.25516
▁wa	-9.25751
▁stage	-9.25837
▁main	-9.25901
▁dressed	-9.25914
la	-9.26146
▁mountains	-9.2619
▁finding	-9.26237
▁o	-9.2633
▁creatures	-9.26528
▁hardly	-9.26531
▁orders	-9.26727
at	-9.26741
▁older	-9.2678
▁paintings	-9.26826
▁imp	-9.26955
▁places	-9.26957
▁liked	-9.27159
▁ja	-9.27468
▁lookin	-9.28023
▁arrive	-9.28328
▁deserve	-9.28384
▁alarm	-9.28483
▁adventure	-9.28534
▁machine	-9.2859
▁season	-9.28719
▁there	-9.28743
▁paw	-9.28894
▁draw	-9.28936
you	-9.28968
▁keeping	-9.29553
▁interest	-9.2958
▁harm	-9.30071
▁settle	-9.30295
▁capture	-9.30313
▁indistinct	-9.30384
▁mainland	-9.30524
cient	-9.3056
▁gideon	-9.3056
▁hoffman	-9.3056
▁jeiiystone	-9.3056
▁klaus	-9.3056
▁kumalo	-9.3056
▁memnet	-9.3056
▁patience	-9.3056
▁schooner	-9.3056
▁system	-9.3056
▁yonkers	-9.3056
▁zelen	-9.3056
▁strike	-9.3056
▁transport	-9.3056
▁congratulations	-9.30561
▁agency	-9.30561
▁contact	-9.30561
▁stacy	-9.30562
▁yellow	-9.30563
▁simon	-9.30563
▁henri	-9.30563
▁battle	-9.30564
▁roof	-9.30565
▁charity	-9.30565
▁ghostier	-9.30567
▁edward	-9.30568
▁cash	-9.30569
▁pressure	-9.30569
▁invention	-9.30575
▁weak	-9.30586
▁steele	-9.30593
▁pair	-9.30595
▁type	-9.30621
▁noise	-9.30635
▁bigger	-9.30638
▁sold	-9.30643
▁gee	-9.30661
▁glasses	-9.30665
▁fairies	-9.30676
▁golden	-9.30701
▁waters	-9.30726
▁cal	-9.3077
▁shouting	-9.30807
▁coat	-9.30857
▁press	-9.30875
v	-9.30886
tic	-9.30927
▁locked	-9.30987
▁backup	-9.31171
▁plans	-9.31295
▁vi	-9.31445
▁tears	-9.31614
ian	-9.31653
▁depends	-9.31673
▁woods	-9.31783
▁doo	-9.31792
▁searching	-9.3183
▁fired	-9.31925
▁salad	-9.32
▁falling	-9.32329
▁followed	-9.32444
way	-9.32486
▁pack	-9.32607
son	-9.32865
ng	-9.33017
▁trick	-9.33037
▁legs	-9.33213
▁missing	-9.33216
▁barks	-9.33238
▁stag	-9.33593
▁ear	-9.33799
▁task	-9.33951
▁iron	-9.33951
▁tail	-9.34013
▁spear	-9.34046
▁plain	-9.34063
▁whistle	-9.34122
▁cup	-9.34137
▁month	-9.34271
▁march	-9.35503
▁separate	-9.35838
ant	-9.35965
▁apart	-9.36041
▁jan	-9.36049
▁view	-9.36079
▁daniel	-9.36086
▁accept	-9.36099
▁accident	-9.3611
▁favor	-9.36112
▁extra	-9.36115
▁borotyn	-9.36116
▁england	-9.36116
▁ensign	-9.36116
▁excellent	-9.36116
▁families	-9.36116
▁godmother	-9.36116
▁grumio	-9.36116
▁jessica	-9.36116
▁kahuna	-9.36116
▁rebecca	-9.36116
▁wrote	-9.36116
▁mystery	-9.36116
▁ugly	-9.36116
▁clock	-9.36116
▁according	-9.36117
▁twice	-9.36117
▁genie	-9.36118
▁buried	-9.36118
▁wolf	-9.36118
▁beneath	-9.36119
▁history	-9.36119
▁bought	-9.3612
▁sweetheart	-9.36121
▁kitty	-9.36121
▁outta	-9.36123
▁applause	-9.36126
▁bok	-9.36127
▁gentleman	-9.36127
▁ego	-9.36133
▁ahchoo	-9.36133
▁laura	-9.36135
▁bath	-9.36137
▁lies	-9.3614
▁dust	-9.3614
▁calm	-9.3616
▁tie	-9.36193
▁ass	-9.36197
▁held	-9.36208
▁hook	-9.36211
▁stolen	-9.36211
▁thirsty	-9.36242
▁gotten	-9.3631
▁classical	-9.36327
▁army	-9.36366
▁warning	-9.36419
▁frank	-9.36437
▁slowly	-9.36448
▁grrr	-9.36588
▁secrets	-9.37048
▁spokes	-9.37053
▁ringing	-9.37153
▁artists	-9.37271
▁dive	-9.37281
▁cheers	-9.37505
▁bones	-9.3776
▁learned	-9.37783
▁waited	-9.3789
ist	-9.38113
▁f	-9.38464
▁beg	-9.38656
▁sire	-9.38913
▁gifts	-9.38934
▁record	-9.38963
▁fi	-9.39074
▁report	-9.39084
by	-9.39205
ur	-9.39319
il	-9.39535
for	-9.3954
ure	-9.39689
▁partner	-9.39813
▁states	-9.39829
▁aunt	-9.39833
▁album	-9.39918
▁block	-9.40034
▁guest	-9.40118
▁flower	-9.40166
▁suit	-9.40183
▁starts	-9.40202
▁v	-9.40374
he	-9.40735
▁knock	-9.40921
ee	-9.41162
▁no	-9.41194
▁fools	-9.41197
▁suggest	-9.41224
▁moan	-9.41339
res	-9.41398
▁lock	-9.41547
▁dig	-9.41581
▁bless	-9.41641
▁corner	-9.41652
▁experience	-9.4172
▁event	-9.41743
▁net	-9.41847
▁mornin	-9.41976
▁nothin	-9.41976
▁bright	-9.41987
▁ghost	-9.4199
▁comin	-9.41996
▁asleep	-9.41998
▁disaster	-9.41998
▁exciting	-9.41998
▁garbage	-9.41998
▁hudson	-9.41998
▁opportunity	-9.41998
▁stomach	-9.41998
▁tunnel	-9.41998
▁worst	-9.41998
▁cream	-9.41998
▁chauvet	-9.41998
▁magnificent	-9.41998
▁oui	-9.41998
▁struck	-9.41999
▁nonsense	-9.41999
▁romantic	-9.41999
▁ahoy	-9.41999
▁bonnie	-9.41999
▁robert	-9.42
▁grandpa	-9.42001
▁innocent	-9.42001
▁rope	-9.42001
▁kane	-9.42002
▁pieta	-9.42003
▁barton	-9.42006
▁shopping	-9.42011
▁familiar	-9.42021
▁panic	-9.42025
▁betty	-9.42035
▁weight	-9.42044
▁otto	-9.42051
▁whimpers	-9.42064
▁obviously	-9.42069
▁darkness	-9.42078
▁tick	-9.42079
▁refuse	-9.42084
▁hiding	-9.42132
▁boob	-9.42135
▁pity	-9.42139
▁sweetie	-9.42152
▁circumstances	-9.42291
▁fur	-9.42312
▁gasping	-9.4232
▁circle	-9.42414
▁counselors	-9.42524
▁bands	-9.42532
▁realized	-9.4255
▁feelings	-9.42552
▁lion	-9.42646
▁slum	-9.42761
▁fat	-9.42814
noot	-9.42847
▁hop	-9.42912
▁pirates	-9.43108
▁daughters	-9.43222
▁wearing	-9.43473
▁nuts	-9.43544
▁wondering	-9.4373
age	-9.43969
▁reading	-9.44032
▁hall	-9.44256
▁played	-9.44329
▁learning	-9.44552
▁pi	-9.44613
▁caring	-9.44856
▁ch	-9.44866
▁ba	-9.44877
raz	-9.45317
▁whisper	-9.45732
▁headed	-9.45753
▁demand	-9.45795
▁roll	-9.4599
▁club	-9.46068
▁mar	-9.46077
▁film	-9.46097
▁crime	-9.46219
▁movie	-9.46294
▁finger	-9.46306
▁photo	-9.46306
▁maria	-9.46393
▁turns	-9.46416
▁stranger	-9.46519
▁helping	-9.46536
▁faith	-9.46693
▁track	-9.46848
▁wood	-9.46951
▁image	-9.47101
my	-9.47115
▁under	-9.47198
▁painting	-9.47289
▁honk	-9.47704
▁grant	-9.4783
▁arrest	-9.47837
▁final	-9.47935
▁earn	-9.47977
▁doll	-9.48051
▁usual	-9.48069
▁heath	-9.48175
▁rome	-9.48192
▁grave	-9.48198
▁smells	-9.48224
▁somethin	-9.48226
▁feels	-9.48238
▁occasion	-9.48242
▁blind	-9.48247
▁easier	-9.48248
▁emergency	-9.48248
▁hawaii	-9.48248
▁lenore	-9.48248
▁minnie	-9.48248
▁splendid	-9.48248
▁suzanne	-9.48248
▁walsh	-9.48248
▁agnes	-9.48248
▁skating	-9.48248
▁hadnt	-9.48248
▁giggling	-9.48249
▁friday	-9.48249
▁praise	-9.48249
▁whoever	-9.48249
▁trail	-9.4825
▁hayley	-9.4825
▁hush	-9.48252
▁bathroom	-9.48253
▁huerta	-9.48253
▁punch	-9.48254
▁knight	-9.48255
▁shirt	-9.48256
▁foolish	-9.48259
▁several	-9.4826
▁comfortable	-9.48261
▁happiness	-9.48262
▁marty	-9.48262
▁rare	-9.4827
▁mercy	-9.48272
▁began	-9.48279
▁responsible	-9.48279
▁claim	-9.48281
▁guilty	-9.48284
▁proof	-9.48284
▁involved	-9.48288
▁sank	-9.48291
▁saint	-9.48293
▁dirty	-9.48307
▁fascinating	-9.48308
▁forth	-9.48312
▁wide	-9.48319
▁center	-9.48337
▁seth	-9.48355
▁united	-9.48368
▁professional	-9.48379
▁wasted	-9.48422
▁impressed	-9.48435
▁noticed	-9.48452
▁eaten	-9.48455
▁drama	-9.48528
▁degrees	-9.48561
▁captured	-9.48565
▁softly	-9.48613
▁created	-9.48633
▁ruined	-9.48638
▁driver	-9.48686
▁dumb	-9.48774
▁honking	-9.48861
▁gas	-9.48869
ier	-9.4911
▁milk	-9.49156
▁destroyed	-9.49162
▁rider	-9.49518
▁boots	-9.49519
▁killer	-9.49579
▁rotte	-9.49684
▁sisters	-9.49803
▁shoes	-9.5008
▁hanging	-9.50092
▁base	-9.50384
▁bo	-9.5041
▁moved	-9.50439
▁clouds	-9.50687
▁waiter	-9.50749
line	-9.51175
▁shows	-9.51362
▁treat	-9.51605
ke	-9.51743
▁up	-9.51848
▁pieces	-9.52331
▁ruin	-9.52443
▁tusk	-9.52808
▁brain	-9.52869
▁miracle	-9.52918
▁bone	-9.52965
▁mi	-9.52972
▁gate	-9.53002
▁agent	-9.53005
▁wheel	-9.53016
▁shoe	-9.53033
▁post	-9.53139
ra	-9.5321
▁you	-9.53252
▁leader	-9.53452
ow	-9.53519
▁cloth	-9.5375
▁gather	-9.53787
▁chase	-9.53867
▁per	-9.54055
▁we	-9.541
▁salt	-9.541
▁coach	-9.54223
▁streets	-9.54251
▁success	-9.54356
▁request	-9.54394
▁complete	-9.54489
▁monsters	-9.54511
▁cha	-9.54518
▁spare	-9.54622
▁equal	-9.54726
fore	-9.54745
▁can	-9.54754
▁joy	-9.54803
▁match	-9.54836
▁johannes	-9.54913
▁eventually	-9.54915
▁godzilla	-9.54915
▁khaku	-9.54915
▁modern	-9.54915
▁napoleon	-9.54915
▁orchestra	-9.54915
▁precious	-9.54915
▁rosamaria	-9.54915
▁sasha	-9.54915
▁sesame	-9.54915
▁stretch	-9.54915
▁thief	-9.54915
▁bridge	-9.54915
▁knife	-9.54915
▁neighborhood	-9.54915
▁palace	-9.54916
▁california	-9.54917
▁tongue	-9.54917
▁piano	-9.54917
▁squaw	-9.54917
▁guide	-9.54917
▁amanda	-9.54917
▁changing	-9.54917
▁sneak	-9.54918
▁feast	-9.54918
▁exist	-9.54919
▁celebration	-9.5492
▁information	-9.5492
▁potion	-9.54922
▁alice	-9.54922
▁robbery	-9.54923
▁leland	-9.54926
▁practical	-9.54927
▁uhhuh	-9.54927
▁field	-9.54927
▁charles	-9.54927
▁canine	-9.54928
▁grandma	-9.5493
▁incredible	-9.5493
▁normal	-9.54931
▁richard	-9.54932
▁weekend	-9.54933
▁whimpering	-9.54939
▁sex	-9.54944
▁sport	-9.54948
▁emily	-9.54954
▁owner	-9.54965
▁calf	-9.5497
▁goose	-9.54988
▁showed	-9.55015
sposit	-9.55015
▁original	-9.55032
▁brandy	-9.55042
▁dearie	-9.5516
▁bein	-9.552
▁skateboarding	-9.55231
▁honestly	-9.55231
▁that	-9.55238
▁seeds	-9.55281
▁seriously	-9.55305
▁beer	-9.55337
▁fate	-9.55434
▁hoping	-9.55628
▁tender	-9.55658
▁numbers	-9.5568
▁takers	-9.55751
▁pups	-9.55818
▁higher	-9.55831
▁pulled	-9.56014
▁talented	-9.56112
▁lately	-9.56152
▁highly	-9.56303
▁meaning	-9.56399
▁al	-9.56444
over	-9.56486
▁mo	-9.56552
ade	-9.56654
▁hills	-9.56926
▁friendly	-9.56984
▁guests	-9.57124
▁gives	-9.57233
▁reasons	-9.57241
▁tricks	-9.57271
▁sw	-9.57332
▁cards	-9.57532
▁books	-9.57628
▁nights	-9.57758
▁gusteaus	-9.578
ps	-9.57878
▁seconds	-9.57894
we	-9.57899
▁speaks	-9.57948
▁moves	-9.58061
▁seek	-9.58065
▁des	-9.58068
▁returning	-9.58146
▁fri	-9.58286
▁le	-9.5835
▁inn	-9.58497
▁named	-9.58644
▁owe	-9.59571
▁relationship	-9.59874
▁shape	-9.59941
▁winds	-9.59964
▁cake	-9.60012
▁video	-9.60026
▁gunshot	-9.60063
▁sake	-9.6009
▁style	-9.60115
▁meal	-9.60216
▁din	-9.60261
▁what	-9.6044
mp	-9.60898
gorically	-9.61257
▁bother	-9.6139
▁haul	-9.61405
▁aim	-9.61409
▁clam	-9.61792
▁moo	-9.618
▁madam	-9.61807
▁decide	-9.61846
▁howd	-9.61868
▁compare	-9.61874
▁heave	-9.61978
▁popular	-9.62033
▁aware	-9.6204
▁nope	-9.62043
▁although	-9.62058
▁appreciate	-9.62058
▁attempt	-9.62058
▁butler	-9.62058
▁caesar	-9.62058
▁carriage	-9.62058
▁cornwall	-9.62058
▁evidence	-9.62058
▁gashade	-9.62058
▁hidden	-9.62058
▁japanese	-9.62058
▁jesus	-9.62058
▁review	-9.62058
▁totoche	-9.62058
▁trundle	-9.62058
▁however	-9.62058
▁someday	-9.62058
▁cleo	-9.62058
▁whenever	-9.62058
▁concert	-9.62058
▁silence	-9.62058
▁rifle	-9.62059
▁security	-9.62059
▁vacation	-9.62059
▁quit	-9.62059
▁creek	-9.6206
▁monday	-9.6206
▁bobby	-9.62061
▁entrance	-9.62062
▁exile	-9.62063
▁clank	-9.62064
▁wherever	-9.62065
▁contest	-9.62068
▁shep	-9.62069
▁written	-9.6207
▁smiling	-9.62071
▁sharp	-9.62071
▁cody	-9.62072
▁coigne	-9.62077
▁whip	-9.6208
▁desk	-9.62081
▁determined	-9.62081
▁chosen	-9.62084
▁nearby	-9.62087
▁thatll	-9.62092
▁forgotten	-9.62099
▁blame	-9.62113
▁pants	-9.62114
▁justice	-9.6212
▁spit	-9.62133
▁celebrate	-9.62149
▁manage	-9.62155
▁kate	-9.62163
▁mommy	-9.62164
▁brooke	-9.62178
▁powerful	-9.62208
▁passes	-9.62288
▁lower	-9.62336
▁naturally	-9.62344
▁marie	-9.62398
▁ditch	-9.62399
▁reality	-9.62401
▁prepared	-9.62495
▁peaceful	-9.62529
▁deeply	-9.62585
▁lo	-9.62605
▁nearly	-9.62652
▁chi	-9.62669
▁filled	-9.62683
▁thy	-9.62715
▁seeing	-9.6283
▁loves	-9.62949
▁expected	-9.62964
▁traveling	-9.63012
▁tis	-9.63054
os	-9.63065
▁soldiers	-9.63136
do	-9.63186
▁plants	-9.6322
▁sailing	-9.63384
▁eggs	-9.63425
▁announcements	-9.63427
how	-9.63435
▁cats	-9.63614
▁touched	-9.63862
▁picked	-9.64115
▁parts	-9.64119
▁due	-9.64247
▁ni	-9.64396
lestine	-9.64396
▁calls	-9.64495
▁checked	-9.6467
▁training	-9.64866
▁youth	-9.64875
red	-9.64902
▁bat	-9.64922
oring	-9.65183
▁po	-9.65414
▁gardens	-9.65482
▁fishing	-9.65553
▁lou	-9.6562
▁showing	-9.65854
▁ri	-9.6588
de	-9.66141
▁sounding	-9.66202
ny	-9.6647
▁ms	-9.66503
▁wouldve	-9.66637
▁hopes	-9.66794
▁talked	-9.66944
▁skin	-9.6708
ch	-9.67105
▁nation	-9.6718
house	-9.67192
▁hats	-9.6725
▁cheer	-9.67369
▁horns	-9.67369
▁lndian	-9.67568
▁mule	-9.67575
▁fork	-9.67576
▁heads	-9.67605
▁peter	-9.67657
▁tradition	-9.67685
▁cow	-9.6783
▁indian	-9.67832
▁creature	-9.67862
▁signal	-9.6793
▁ac	-9.67932
▁maker	-9.67941
be	-9.68052
▁trap	-9.68093
▁who	-9.68305
time	-9.68495
▁belongs	-9.68543
▁towns	-9.68632
▁ne	-9.68743
▁stayed	-9.68881
ux	-9.68907
▁fa	-9.68924
▁drown	-9.69049
▁aha	-9.69147
ily	-9.69212
▁have	-9.69266
▁focus	-9.69287
▁kick	-9.6934
▁trace	-9.69432
im	-9.69486
▁notice	-9.69501
▁sh	-9.69534
▁swift	-9.69545
▁harmon	-9.69581
▁liz	-9.69624
ling	-9.6965
▁require	-9.69656
▁load	-9.69712
▁honour	-9.69729
▁journal	-9.69741
▁prefer	-9.69747
▁insist	-9.69747
▁british	-9.6975
▁cotton	-9.6975
▁cyclops	-9.6975
▁draculaura	-9.6975
▁effort	-9.6975
▁elegance	-9.6975
▁ermengarde	-9.6975
▁genius	-9.6975
▁heip	-9.6975
▁humming	-9.6975
▁italian	-9.6975
▁lapporte	-9.6975
▁leprosy	-9.6975
▁london	-9.6975
▁nikki	-9.6975
▁oonaya	-9.6975
▁paradise	-9.6975
▁penguins	-9.6975
▁prophecy	-9.6975
▁simply	-9.6975
▁split	-9.6975
▁spoil	-9.6975
▁twenty	-9.6975
▁whistling	-9.6975
▁hospital	-9.6975
▁complex	-9.6975
▁horrible	-9.6975
▁tyler	-9.6975
▁moines	-9.6975
▁upset	-9.6975
▁permission	-9.69751
▁garcia	-9.69751
▁drunk	-9.69751
▁flag	-9.69752
▁beauty	-9.69752
▁sunset	-9.69752
▁motor	-9.69752
▁trapped	-9.69752
▁minister	-9.69753
▁thieves	-9.69754
▁estate	-9.69754
▁spent	-9.69755
▁dropped	-9.69755
▁chamber	-9.69757
▁goldfoot	-9.69757
▁apparently	-9.69758
▁childhood	-9.69759
▁energy	-9.6976
▁freedom	-9.69762
▁fogle	-9.69762
▁candy	-9.69762
▁interaction	-9.69765
▁pendragon	-9.69766
▁saddle	-9.69766
▁chuckling	-9.69767
▁keno	-9.69767
▁reward	-9.69767
▁toyland	-9.69768
▁creaking	-9.69778
▁distan	-9.69778
▁meat	-9.6978
▁boyfriend	-9.69781
▁emile	-9.69787
▁steady	-9.69794
▁pure	-9.69798
▁nine	-9.698
▁deck	-9.69803
▁sitting	-9.69821
▁barely	-9.69829
▁dump	-9.6983
▁mail	-9.6984
▁lake	-9.6986
▁loud	-9.69864
all	-9.69865
▁guns	-9.69893
▁heather	-9.699
▁lifetime	-9.6993
▁ville	-9.69939
▁iook	-9.69949
▁momma	-9.69954
▁usually	-9.69974
▁curse	-9.69997
▁chest	-9.70012
▁reporter	-9.70088
▁burning	-9.70128
▁treated	-9.7024
▁forced	-9.70246
▁surprised	-9.7034
▁bells	-9.70376
▁swing	-9.7042
▁clears	-9.70549
▁out	-9.70557
▁carefully	-9.70559
▁alec	-9.70721
▁belly	-9.70814
▁hunters	-9.70835
▁dro	-9.70879
▁vampires	-9.70918
go	-9.70997
▁deer	-9.71015
▁boats	-9.71021
ri	-9.71034
▁pounds	-9.71074
land	-9.71732
▁ex	-9.72617
▁paws	-9.72647
▁seasons	-9.72657
▁bucks	-9.72832
▁papers	-9.72949
▁cousins	-9.73119
lo	-9.73591
▁counting	-9.73879
me	-9.73892
▁believed	-9.73973
▁sp	-9.73993
per	-9.74164
▁ming	-9.74177
▁lotte	-9.74421
▁va	-9.74661
▁thinks	-9.74704
▁dreaming	-9.75034
▁rub	-9.75231
light	-9.75323
▁career	-9.75358
▁van	-9.75585
no	-9.75864
ary	-9.75877
▁decision	-9.75896
▁shift	-9.75965
▁recipe	-9.75994
▁trunk	-9.75996
▁cent	-9.76071
▁print	-9.76072
▁target	-9.76125
▁bandit	-9.762
▁herd	-9.76311
▁rule	-9.76343
▁millions	-9.76641
▁grounds	-9.76665
▁to	-9.76746
▁lift	-9.77062
ern	-9.77284
▁matt	-9.77438
▁mix	-9.77619
▁pleased	-9.77627
▁wealth	-9.77816
▁sudden	-9.77907
if	-9.77917
▁switch	-9.77941
▁proper	-9.77974
▁discuss	-9.78024
▁zoo	-9.78051
▁trans	-9.78078
▁awake	-9.78081
▁courage	-9.78083
▁angry	-9.78083
▁ashamed	-9.78083
▁avoid	-9.78083
▁champagne	-9.78083
▁ciccio	-9.78083
▁duchess	-9.78083
▁enemies	-9.78083
▁ephraim	-9.78083
▁favour	-9.78083
▁filiberto	-9.78083
▁grifter	-9.78083
▁luanu	-9.78083
▁matthew	-9.78083
▁mechagodzilla	-9.78083
▁period	-9.78083
▁roosevelt	-9.78083
▁stephen	-9.78083
▁succeed	-9.78083
▁sylvester	-9.78083
▁thunder	-9.78083
▁traffic	-9.78083
▁voyage	-9.78083
▁whirring	-9.78083
▁willett	-9.78083
▁closing	-9.78084
▁glen	-9.78084
▁excitement	-9.78084
▁summon	-9.78084
▁surface	-9.78084
▁underneath	-9.78084
▁kiko	-9.78084
▁nowhere	-9.78084
▁rough	-9.78084
▁writing	-9.78085
▁ayak	-9.78085
▁pregnant	-9.78085
▁pride	-9.78086
▁content	-9.78087
▁heck	-9.78087
▁trash	-9.78089
▁crush	-9.78091
▁church	-9.78093
▁heiio	-9.78097
▁roland	-9.78097
▁ants	-9.78098
▁crowley	-9.78099
▁aside	-9.78102
▁steven	-9.78103
▁hyah	-9.78103
▁credit	-9.78112
▁necessary	-9.78112
▁blast	-9.78112
▁performance	-9.78112
▁basement	-9.78123
▁preto	-9.78124
▁concentrate	-9.78124
▁attend	-9.78128
▁dragon	-9.7813
▁computer	-9.78138
▁smoke	-9.78141
▁scooter	-9.78141
▁justin	-9.78144
▁fade	-9.78146
▁thee	-9.7815
▁mansion	-9.78165
▁churring	-9.78165
▁tune	-9.78169
▁dock	-9.7817
▁swell	-9.78199
▁carried	-9.78202
▁doors	-9.78214
▁hail	-9.78214
▁del	-9.78219
▁squeaking	-9.7822
▁sniffing	-9.78222
▁range	-9.78273
mber	-9.78274
▁paid	-9.78276
▁bend	-9.78292
▁eve	-9.78298
▁invited	-9.7831
▁failed	-9.78319
▁breathe	-9.78337
▁ames	-9.78345
▁string	-9.7837
▁gettin	-9.78474
▁tent	-9.7851
▁mustnt	-9.78517
lf	-9.78554
▁grows	-9.78583
▁hire	-9.78611
▁en	-9.78835
▁hauler	-9.78905
▁served	-9.78916
oda	-9.79036
▁lack	-9.79123
▁ghouls	-9.79187
▁towards	-9.79189
led	-9.79261
▁stealing	-9.7935
▁passed	-9.79374
▁mines	-9.79549
▁groups	-9.79557
▁sa	-9.79649
▁holding	-9.79666
▁bull	-9.79671
▁expecting	-9.79676
ted	-9.79676
▁am	-9.79875
▁problems	-9.79906
▁bid	-9.8004
▁pulling	-9.80168
▁nations	-9.80454
▁buying	-9.80562
▁strangers	-9.80793
▁returned	-9.80846
▁moans	-9.80853
▁events	-9.80894
▁shooting	-9.81098
▁magical	-9.81254
▁touching	-9.81265
▁begins	-9.81421
▁reminds	-9.81432
ton	-9.81907
ical	-9.81952
▁depend	-9.82286
th	-9.82518
▁seal	-9.82775
▁sets	-9.82931
yah	-9.82943
what	-9.83144
▁chickens	-9.83328
▁thinkin	-9.83469
▁pan	-9.83785
▁watched	-9.83786
ized	-9.83851
▁crab	-9.84098
pped	-9.84233
▁dun	-9.84236
▁games	-9.8473
▁pal	-9.84923
▁remembered	-9.84961
▁sword	-9.8499
▁drum	-9.84991
▁program	-9.85002
▁bubble	-9.8503
▁grandmother	-9.85084
▁issue	-9.85084
▁duck	-9.85138
▁button	-9.85187
▁hank	-9.85225
▁clue	-9.85238
▁artist	-9.85268
▁changes	-9.85299
▁lat	-9.85397
▁tip	-9.85406
▁do	-9.85692
ko	-9.85857
▁helped	-9.8586
▁bus	-9.85983
ard	-9.86006
▁disappear	-9.86053
▁howl	-9.86109
▁matters	-9.86147
▁ships	-9.86272
▁butter	-9.86273
▁roast	-9.86346
▁study	-9.86446
ise	-9.86521
ship	-9.86604
well	-9.8676
▁rent	-9.86793
▁stands	-9.86833
▁trade	-9.8688
▁arrange	-9.86894
▁ignore	-9.86897
▁waste	-9.86933
▁port	-9.86964
▁thirst	-9.86965
▁total	-9.86998
▁grace	-9.87139
▁poison	-9.87157
▁brilliant	-9.87174
▁rhythm	-9.87174
▁airport	-9.87174
▁chocolate	-9.87174
▁circus	-9.87174
▁commodore	-9.87174
▁condition	-9.87174
▁current	-9.87174
▁easily	-9.87174
▁effie	-9.87174
▁elliot	-9.87174
▁enemy	-9.87174
▁europe	-9.87174
▁frederick	-9.87174
▁giggles	-9.87174
▁gypsies	-9.87174
▁israel	-9.87174
▁joshua	-9.87174
▁kalahari	-9.87174
▁michelangelo	-9.87174
▁mirror	-9.87174
▁mugger	-9.87174
▁paleolithic	-9.87174
▁possibly	-9.87174
▁robbie	-9.87174
▁rudolph	-9.87174
▁steak	-9.87174
▁studio	-9.87174
▁unbelievable	-9.87174
▁wouid	-9.87174
through	-9.87174
▁byebye	-9.87174
▁logan	-9.87174
▁mostly	-9.87174
▁presence	-9.87174
▁stood	-9.87174
▁afford	-9.87175
▁continent	-9.87175
▁eminence	-9.87175
▁snack	-9.87175
▁flesh	-9.87175
▁midnight	-9.87176
▁temple	-9.87176
▁jerk	-9.87176
▁lemon	-9.87177
▁bible	-9.87177
▁irina	-9.87177
▁gray	-9.87178
▁bondage	-9.87179
▁fantastic	-9.87179
▁zak	-9.87179
▁toast	-9.87179
▁wasting	-9.87181
▁imagination	-9.87181
▁osor	-9.87181
▁kano	-9.87185
▁scott	-9.87186
▁visitors	-9.87187
▁government	-9.87187
▁stories	-9.87188
▁grew	-9.87188
▁generous	-9.87188
▁creation	-9.87189
▁property	-9.87189
▁extraordinary	-9.8719
▁century	-9.87191
▁influence	-9.87192
▁channel	-9.87192
▁drill	-9.87198
▁planning	-9.87202
▁skies	-9.87215
▁sub	-9.87216
▁data	-9.87218
▁palm	-9.87219
▁wagon	-9.87222
▁unlike	-9.87228
▁yup	-9.87228
▁penny	-9.8723
▁amen	-9.87232
▁skull	-9.87251
▁unfortunately	-9.87263
▁coughing	-9.87265
▁champion	-9.8727
▁toes	-9.87279
▁birth	-9.8728
▁silk	-9.87285
▁scare	-9.87287
▁protection	-9.87289
▁ai	-9.87311
▁faces	-9.87318
▁liza	-9.87319
▁diving	-9.87336
▁naked	-9.8735
▁hip	-9.8738
▁salta	-9.87432
▁comforting	-9.87447
▁discovered	-9.87482
▁wicked	-9.87511
▁diver	-9.87512
▁aring	-9.87538
▁sethi	-9.8754
▁blar	-9.87584
▁grown	-9.87598
que	-9.87603
▁scientists	-9.87643
▁plu	-9.87667
▁cost	-9.8769
▁raised	-9.87775
▁personally	-9.87779
▁cast	-9.87803
ill	-9.87807
▁goats	-9.87827
▁smaller	-9.88005
▁agreed	-9.88043
▁stronger	-9.88086
▁rolling	-9.881
▁clearly	-9.88191
▁factor	-9.88335
▁mist	-9.88383
ittie	-9.88392
▁knees	-9.88393
▁heavenly	-9.8847
▁pitch	-9.88492
▁tr	-9.88526
▁sooner	-9.88546
▁tire	-9.88546
▁meerkats	-9.88576
▁skills	-9.88581
▁praying	-9.8863
▁produce	-9.88824
▁boot	-9.88862
▁moms	-9.88873
ocal	-9.89085
▁younger	-9.89135
▁powers	-9.89156
▁siren	-9.89182
▁ida	-9.89287
▁passing	-9.89287
stage	-9.89298
king	-9.89321
▁cents	-9.89327
▁enjoying	-9.89458
▁faithful	-9.89517
▁fighting	-9.89765
▁not	-9.90152
ated	-9.9018
▁tri	-9.9029
ries	-9.90444
▁bro	-9.90578
that	-9.90614
▁cares	-9.90692
▁ra	-9.90745
▁tickets	-9.90845
▁trumpets	-9.90862
▁kindly	-9.90888
▁judges	-9.91061
ong	-9.91675
▁tear	-9.91872
▁keys	-9.92562
▁surprises	-9.92576
▁sails	-9.92639
▁directions	-9.92852
so	-9.92957
▁ven	-9.932
▁cos	-9.93405
▁somethings	-9.94003
men	-9.94122
▁account	-9.94393
▁fake	-9.94436
▁concern	-9.94661
▁er	-9.94914
▁nightmare	-9.94984
▁soap	-9.94991
▁eagle	-9.94994
▁cruise	-9.95073
▁magician	-9.95128
▁frog	-9.95145
▁rabbit	-9.95196
▁scale	-9.95198
▁trib	-9.95207
▁weapon	-9.95238
▁egg	-9.95263
▁pirate	-9.95276
▁announcement	-9.95278
▁jewel	-9.95288
▁sta	-9.95432
▁realm	-9.95692
▁pin	-9.9583
▁regret	-9.95969
▁gr	-9.96014
▁lines	-9.9605
▁score	-9.96062
▁her	-9.96079
▁heading	-9.96193
▁nap	-9.96275
▁til	-9.96382
▁itd	-9.96428
▁sink	-9.96581
▁ca	-9.96601
▁collect	-9.96618
▁pump	-9.96662
▁faint	-9.96704
▁thrill	-9.9673
▁direct	-9.96882
like	-9.96886
▁divide	-9.96909
▁invite	-9.96919
▁positive	-9.96968
▁cind	-9.9697
▁desperate	-9.9699
▁remo	-9.97004
▁melt	-9.97061
▁screech	-9.97065
▁speech	-9.97066
▁address	-9.97069
▁flash	-9.9708
▁witch	-9.97092
▁critic	-9.97108
▁corn	-9.97125
▁gro	-9.97139
▁villa	-9.97164
▁slip	-9.97164
▁jim	-9.97174
▁adult	-9.97174
▁amount	-9.97174
▁babette	-9.97174
▁backpack	-9.97174
▁bithiah	-9.97174
▁ceremony	-9.97174
▁culture	-9.97174
▁cyclone	-9.97174
▁destiny	-9.97174
▁elizabeth	-9.97174
▁essential	-9.97174
▁explanation	-9.97174
▁forsythe	-9.97174
▁individual	-9.97174
▁jerusalem	-9.97174
▁laurence	-9.97174
▁madison	-9.97174
▁matilda	-9.97174
▁mysterious	-9.97174
▁ndotsheni	-9.97174
▁otherwise	-9.97174
▁physics	-9.97174
▁sensible	-9.97174
▁sobbing	-9.97174
▁subtitle	-9.97174
▁survival	-9.97174
▁threw	-9.97174
▁burden	-9.97174
▁grip	-9.97174
▁hurricane	-9.97174
▁sacrifice	-9.97174
▁similar	-9.97174
▁spell	-9.97174
▁technical	-9.97174
▁unique	-9.97174
▁potential	-9.97174
▁lundie	-9.97175
▁chick	-9.97175
▁underground	-9.97175
▁flame	-9.97175
▁thudding	-9.97175
▁seattle	-9.97175
▁somehow	-9.97175
▁temperature	-9.97176
▁pleasant	-9.97176
▁instant	-9.97176
▁laddie	-9.97177
▁false	-9.97177
▁bagdad	-9.97177
▁item	-9.97177
▁desire	-9.97177
▁babysitter	-9.97178
▁wallace	-9.97178
▁dathan	-9.97178
▁flew	-9.97178
▁mount	-9.97178
▁underwater	-9.97179
▁farewell	-9.9718
▁bravo	-9.9718
▁oops	-9.9718
▁christian	-9.97181
▁fruit	-9.97181
▁snap	-9.97182
▁thick	-9.97184
▁narrow	-9.97185
▁disease	-9.97185
▁gracious	-9.97185
▁sentence	-9.97187
▁society	-9.97187
▁panel	-9.97188
▁papa	-9.97188
▁jerry	-9.97191
▁jamie	-9.97193
▁alien	-9.97195
▁sharing	-9.97196
tella	-9.97198
▁holler	-9.972
▁baiul	-9.97201
▁ranch	-9.97201
▁option	-9.97202
▁tomley	-9.97202
▁pink	-9.97204
▁hammer	-9.97204
▁appearance	-9.97207
▁snickering	-9.97207
▁firm	-9.9721
▁damage	-9.97212
▁swallow	-9.97212
▁route	-9.97213
▁junk	-9.97213
▁happily	-9.97222
▁jug	-9.97224
▁joking	-9.97224
▁nile	-9.97225
▁michael	-9.97226
▁jr	-9.97231
▁china	-9.97237
▁cage	-9.97241
▁vanish	-9.97243
▁glow	-9.97247
▁role	-9.97253
▁defend	-9.97263
▁bound	-9.97264
▁merely	-9.9728
▁falls	-9.97307
▁matches	-9.97312
dy	-9.97334
▁convinced	-9.97351
▁loving	-9.97364
▁mm	-9.97374
▁lying	-9.97401
▁on	-9.97408
▁driven	-9.97415
ways	-9.9742
▁developed	-9.97435
ando	-9.97467
▁farid	-9.97468
▁beeping	-9.97468
▁ke	-9.97481
▁yells	-9.97492
▁growl	-9.97527
▁metal	-9.97536
▁smarter	-9.97549
▁fallin	-9.97594
▁losing	-9.97611
▁kindness	-9.97618
▁sigh	-9.97647
▁thrown	-9.97665
▁seat	-9.97688
▁stairs	-9.97694
▁letting	-9.97755
lic	-9.97837
▁customer	-9.97874
ally	-9.97884
▁units	-9.97965
▁signs	-9.97971
▁dominan	-9.97992
▁deed	-9.98088
▁shoulder	-9.98138
▁provide	-9.98202
▁note	-9.98299
▁offered	-9.98438
▁covered	-9.98594
▁farmer	-9.9867
▁dodos	-9.98731
▁members	-9.98939
x	-9.98955
▁beating	-9.99036
▁weapons	-9.99149
▁deeds	-9.99154
▁gar	-9.99237
▁fisher	-9.99548
▁decree	-9.99805
ious	-9.99807
ept	-9.99838
▁hon	-10.0021
▁ordered	-10.0022
▁badly	-10.0033
fully	-10.0037
▁pictures	-10.004
▁cr	-10.0093
one	-10.0104
ent	-10.0127
▁buildings	-10.0147
▁crack	-10.015
▁wha	-10.0155
▁announce	-10.0164
ile	-10.0166
gar	-10.0168
yi	-10.0168
rising	-10.0189
uch	-10.0199
end	-10.0202
▁drinking	-10.0207
its	-10.0224
▁he	-10.0243
▁led	-10.025
▁treasures	-10.0253
▁breaking	-10.0269
li	-10.0272
▁hits	-10.0286
▁gu	-10.0331
ably	-10.0337
▁z	-10.0354
dino	-10.0357
▁shower	-10.0386
▁figures	-10.0405
oop	-10.0425
not	-10.0442
▁tu	-10.0447
▁all	-10.0449
▁engines	-10.0451
▁planes	-10.0462
mer	-10.0473
▁is	-10.0478
▁lads	-10.048
key	-10.0531
▁rooms	-10.0545
ma	-10.0557
▁du	-10.0571
ping	-10.0573
che	-10.0577
▁gasp	-10.0584
▁ace	-10.0586
▁tractor	-10.0609
▁tropic	-10.061
▁connection	-10.0611
▁jenny	-10.0611
▁egyptian	-10.0613
▁model	-10.0619
▁result	-10.0619
▁friendship	-10.062
▁magnet	-10.062
▁chap	-10.0621
▁shore	-10.0622
▁mer	-10.0622
▁yard	-10.0625
▁holiday	-10.0631
▁spoke	-10.0631
▁dollar	-10.0637
▁pound	-10.0638
▁member	-10.0639
▁continue	-10.0649
▁listening	-10.0652
▁prisoner	-10.0661
▁wave	-10.0662
▁ends	-10.0669
▁murderer	-10.067
ado	-10.0672
▁goal	-10.0678
bber	-10.0679
▁worlds	-10.0686
▁j	-10.0694
▁understanding	-10.0695
tch	-10.0704
▁camper	-10.0747
▁appeal	-10.0751
▁sale	-10.0754
▁warn	-10.0762
▁gain	-10.0764
▁pour	-10.0772
▁tee	-10.0774
▁comb	-10.0778
iy	-10.0782
▁murmur	-10.0784
▁wick	-10.079
back	-10.0795
finding	-10.0798
▁schedule	-10.0799
▁recognize	-10.0799
▁flat	-10.0806
▁bi	-10.081
▁whee	-10.0814
▁brand	-10.082
▁india	-10.0823
▁weigh	-10.0823
▁interpret	-10.0824
▁gentle	-10.0826
▁represent	-10.0827
▁divine	-10.0827
▁everyones	-10.0827
fish	-10.0828
▁studied	-10.0829
▁abraham	-10.0829
▁absurd	-10.0829
▁advise	-10.0829
▁ambrose	-10.0829
▁arthur	-10.0829
▁belknap	-10.0829
▁bieber	-10.0829
▁brianna	-10.0829
▁campaign	-10.0829
▁cliff	-10.0829
▁coffin	-10.0829
▁cyrus	-10.0829
▁equipment	-10.0829
▁fragile	-10.0829
▁interrupt	-10.0829
▁literally	-10.0829
▁monsieur	-10.0829
▁necklace	-10.0829
▁nefretiri	-10.0829
▁oclock	-10.0829
▁octopus	-10.0829
▁opinion	-10.0829
▁papoose	-10.0829
▁perspective	-10.0829
▁phantom	-10.0829
▁preparing	-10.0829
▁routine	-10.0829
▁scent	-10.0829
▁senior	-10.0829
▁shelter	-10.0829
▁shepherd	-10.0829
▁stubborn	-10.0829
▁uniform	-10.0829
▁urgent	-10.0829
▁yochabel	-10.0829
▁yacht	-10.0829
▁chanting	-10.0829
▁proceed	-10.0829
▁prophet	-10.0829
▁draft	-10.0829
▁deai	-10.0829
▁kathy	-10.0829
▁funeral	-10.0829
▁celebrating	-10.0829
▁scotland	-10.0829
▁chicago	-10.0829
▁oscar	-10.0829
▁birthday	-10.0829
▁cruel	-10.0829
▁romance	-10.0829
▁weave	-10.0829
▁heir	-10.0829
▁anxious	-10.0829
▁grain	-10.0829
▁fetch	-10.0829
▁raft	-10.0829
▁polite	-10.0829
▁rowboat	-10.0829
▁staff	-10.0829
▁alexander	-10.0829
▁elsewhere	-10.0829
▁behold	-10.0829
▁media	-10.0829
▁fence	-10.0829
▁bruno	-10.0829
▁branches	-10.0829
▁medal	-10.0829
▁access	-10.0829
▁mouse	-10.0829
▁thorn	-10.0829
▁elevator	-10.0829
▁truly	-10.0829
▁weddin	-10.083
▁terrific	-10.083
▁impressive	-10.083
▁winner	-10.083
▁helen	-10.083
▁gym	-10.083
▁debut	-10.083
▁filthy	-10.083
▁territory	-10.083
▁solid	-10.083
▁blah	-10.083
▁earlier	-10.0831
▁mistress	-10.0831
▁spill	-10.0831
▁amazed	-10.0831
▁code	-10.0831
▁universe	-10.0832
▁baka	-10.0832
▁despi	-10.0832
▁gap	-10.0833
▁expression	-10.0833
▁flap	-10.0833
▁edge	-10.0833
▁stake	-10.0833
▁zoom	-10.0833
▁torn	-10.0833
▁whatll	-10.0834
▁apple	-10.0834
▁eel	-10.0835
▁daily	-10.0836
▁disappointed	-10.0836
▁trial	-10.0836
▁coward	-10.0837
▁rush	-10.0837
▁cutting	-10.0838
▁dishes	-10.0838
▁vision	-10.0838
▁vast	-10.0839
▁setting	-10.084
▁recently	-10.084
▁frightened	-10.0841
▁whooping	-10.0841
▁breed	-10.0842
▁creepy	-10.0843
▁fallen	-10.0844
▁particularly	-10.0845
▁polly	-10.0846
▁tries	-10.0847
▁anna	-10.0847
▁lass	-10.0847
▁drawn	-10.0849
▁directly	-10.0849
▁exhausted	-10.0851
▁iet	-10.0853
▁unto	-10.0853
▁down	-10.0856
▁builder	-10.0857
▁harmony	-10.086
▁boom	-10.0861
▁former	-10.0864
▁tourists	-10.0864
▁buzzing	-10.0869
▁timing	-10.0869
▁boxes	-10.0873
▁latest	-10.0876
▁concerned	-10.0876
▁hired	-10.0877
▁disappeared	-10.0881
▁approaching	-10.0884
▁robe	-10.0887
▁bowl	-10.0891
▁prey	-10.0894
▁rescued	-10.0895
▁loaded	-10.09
▁arrested	-10.0905
▁students	-10.091
▁oil	-10.0914
rt	-10.0918
sh	-10.0919
ol	-10.0922
▁movement	-10.0922
▁fed	-10.093
▁colossa	-10.0931
co	-10.0934
▁gi	-10.0938
▁details	-10.0957
▁thuds	-10.0957
▁bon	-10.0958
▁youngsters	-10.0959
▁fixed	-10.0961
▁quietly	-10.0966
▁behave	-10.0967
▁ay	-10.0971
▁tur	-10.0972
▁meows	-10.098
▁snakes	-10.098
▁manners	-10.098
▁tryin	-10.0986
oksana	-10.0987
▁safely	-10.0991
▁at	-10.0994
▁here	-10.1028
▁honored	-10.1055
▁ir	-10.1056
▁steps	-10.1073
▁ren	-10.1073
▁clues	-10.1075
▁cars	-10.1081
▁ce	-10.109
▁feeding	-10.1092
▁danced	-10.1099
ul	-10.111
ster	-10.1122
▁finds	-10.1123
ellow	-10.1124
▁waitin	-10.1128
ons	-10.1138
ver	-10.1144
▁agents	-10.1169
▁dish	-10.1169
▁gates	-10.1169
▁vote	-10.1175
▁photos	-10.1192
▁fingers	-10.1193
▁suits	-10.1222
▁plant	-10.1233
▁ears	-10.1242
▁gre	-10.1243
▁marrying	-10.1259
▁bing	-10.1266
▁points	-10.1267
op	-10.1276
▁saf	-10.1287
▁lessons	-10.129
side	-10.1298
▁barn	-10.1303
ning	-10.1315
▁dreamed	-10.1361
▁letters	-10.1408
▁pie	-10.1472
▁missy	-10.1479
▁opened	-10.1481
▁souls	-10.1504
▁hallo	-10.1532
▁bags	-10.154
▁ld	-10.1566
▁placed	-10.158
rand	-10.1622
lin	-10.1629
▁ton	-10.1656
▁u	-10.1661
▁mor	-10.1668
ery	-10.1693
▁chat	-10.1725
▁lum	-10.1733
tz	-10.1733
ration	-10.1749
va	-10.1755
▁nut	-10.1761
▁runs	-10.1773
fare	-10.1788
▁discover	-10.1797
▁burn	-10.1807
▁mutt	-10.1825
▁scream	-10.1832
▁skill	-10.1842
▁scene	-10.1861
ley	-10.1862
▁stink	-10.1864
▁habit	-10.1869
un	-10.1869
▁feather	-10.1869
▁girlfriend	-10.1872
▁dolphin	-10.1875
▁mushroom	-10.1875
▁nephew	-10.1875
▁iove	-10.1878
▁shadow	-10.1878
▁canoe	-10.1878
berry	-10.188
▁generation	-10.1881
▁meerkat	-10.1886
▁dodo	-10.1886
▁vampire	-10.1888
▁soldier	-10.1889
▁sailor	-10.1894
▁pol	-10.19
ities	-10.1906
▁poop	-10.1907
▁kingdoms	-10.1922
▁mans	-10.1922
ward	-10.1923
▁bur	-10.193
▁tale	-10.1931
▁comp	-10.1935
▁meter	-10.1959
ight	-10.1966
▁disturb	-10.1966
▁becomes	-10.1972
▁bra	-10.1977
head	-10.1992
▁twitter	-10.2001
lous	-10.2003
▁organ	-10.2009
▁float	-10.2016
▁approach	-10.2016
▁skateboard	-10.202
▁rob	-10.2025
▁shout	-10.2027
▁neglect	-10.2027
▁confess	-10.2027
trick	-10.203
▁delay	-10.2032
board	-10.2033
▁intend	-10.2034
room	-10.2034
▁surround	-10.2036
▁reveal	-10.2038
about	-10.2038
▁blend	-10.2039
bag	-10.2042
just	-10.2045
ville	-10.2046
▁apologize	-10.2048
people	-10.2048
▁release	-10.2049
checked	-10.205
▁fee	-10.2051
▁advance	-10.2052
▁balance	-10.2053
cha	-10.2056
▁whisk	-10.2056
▁bor	-10.2057
your	-10.2058
▁particular	-10.206
▁director	-10.2063
▁hung	-10.2066
▁witness	-10.2068
▁joke	-10.2073
▁file	-10.2075
▁shat	-10.2076
▁sculpt	-10.2079
▁abigail	-10.2079
▁academy	-10.2079
▁antonio	-10.2079
▁aquarium	-10.2079
▁assassin	-10.2079
▁babies	-10.2079
▁bargain	-10.2079
▁breeze	-10.2079
▁buffalo	-10.2079
▁cathedral	-10.2079
▁chamberlain	-10.2079
▁cheesenewt	-10.2079
▁chittering	-10.2079
▁colony	-10.2079
▁complain	-10.2079
▁darius	-10.2079
▁dessert	-10.2079
▁disguise	-10.2079
▁downstairs	-10.2079
▁dozen	-10.2079
▁elegant	-10.2079
▁exercise	-10.2079
▁expensive	-10.2079
▁explosion	-10.2079
▁fifteen	-10.2079
▁garrett	-10.2079
▁griffen	-10.2079
▁herbie	-10.2079
▁interview	-10.2079
▁keegan	-10.2079
▁lieutenant	-10.2079
▁lonesome	-10.2079
▁miserable	-10.2079
▁mitchell	-10.2079
▁monteria	-10.2079
▁observe	-10.2079
▁parkwold	-10.2079
▁prevent	-10.2079
▁recommend	-10.2079
▁repeat	-10.2079
▁research	-10.2079
▁rochelle	-10.2079
▁sedgewick	-10.2079
▁sergeant	-10.2079
▁simmons	-10.2079
▁slept	-10.2079
▁squeal	-10.2079
▁straw	-10.2079
▁sunshine	-10.2079
▁supplies	-10.2079
▁suspicious	-10.2079
▁understood	-10.2079
▁unhappy	-10.2079
▁unusual	-10.2079
▁ventura	-10.2079
▁whew	-10.2079
▁worship	-10.2079
▁benson	-10.2079
▁expert	-10.2079
▁plastic	-10.2079
▁wilderness	-10.2079
▁delicate	-10.2079
▁sweep	-10.2079
▁television	-10.2079
▁almighty	-10.2079
▁orphanage	-10.2079
▁inheritance	-10.2079
▁presum	-10.2079
▁lawyer	-10.2079
▁jolly	-10.2079
▁sniveiy	-10.2079
▁destruction	-10.2079
▁palatine	-10.2079
▁quack	-10.2079
▁inspiration	-10.2079
▁anytime	-10.2079
▁gang	-10.2079
▁denver	-10.2079
▁spinning	-10.2079
▁basically	-10.2079
▁contrary	-10.2079
▁curious	-10.2079
▁bind	-10.2079
▁punishment	-10.2079
▁assume	-10.2079
bone	-10.2079
▁secure	-10.2079
▁failure	-10.2079
▁monarch	-10.2079
▁overcome	-10.208
▁electricity	-10.208
▁awoo	-10.208
▁colette	-10.208
▁captive	-10.208
▁ouch	-10.208
▁behavior	-10.208
▁express	-10.208
▁saloon	-10.208
▁lode	-10.208
▁dying	-10.208
orita	-10.208
▁couid	-10.208
▁digging	-10.208
▁panting	-10.208
▁boil	-10.2081
▁barrel	-10.2081
▁capable	-10.2081
▁measure	-10.2081
▁caroline	-10.2082
▁whoohoo	-10.2082
▁spain	-10.2082
▁kingsley	-10.2082
▁becoming	-10.2082
▁labor	-10.2082
▁starving	-10.2082
▁mattie	-10.2083
itary	-10.2083
▁uk	-10.2083
▁unknown	-10.2084
▁dug	-10.2084
▁mice	-10.2085
▁bert	-10.2085
▁beings	-10.2086
▁fourth	-10.2087
▁waitress	-10.2088
▁beaton	-10.2088
▁ruler	-10.2088
▁dating	-10.2088
▁largest	-10.2088
▁idol	-10.2089
▁hash	-10.209
▁slightly	-10.209
▁goshen	-10.209
▁spoken	-10.209
▁cries	-10.209
▁doin	-10.209
▁brat	-10.2091
▁embarrassing	-10.2092
▁forgetting	-10.2092
▁weeping	-10.2092
▁liar	-10.2092
▁scoffs	-10.2093
▁twist	-10.2093
▁regular	-10.2094
▁flies	-10.2097
▁solved	-10.2097
▁actor	-10.2098
▁scary	-10.2098
▁latin	-10.2099
▁driv	-10.21
▁legal	-10.21
▁jacket	-10.2102
▁pickle	-10.2103
▁slipper	-10.2105
▁suck	-10.2106
ou	-10.2106
oh	-10.211
▁sync	-10.2113
▁spy	-10.2114
▁text	-10.2115
take	-10.2118
▁revealed	-10.2121
▁surrounded	-10.2121
▁arranged	-10.2122
▁warned	-10.2128
▁completed	-10.2129
▁pig	-10.2139
▁tag	-10.2144
▁orcas	-10.2145
▁instructions	-10.2145
▁ribs	-10.2145
▁settled	-10.2146
▁roam	-10.2148
▁kicked	-10.2149
▁just	-10.215
▁jin	-10.2151
▁mid	-10.2152
▁pots	-10.2154
▁howling	-10.217
▁tied	-10.2181
▁jam	-10.2185
▁tape	-10.2189
▁shortly	-10.2199
▁ate	-10.2203
▁dated	-10.2216
▁knocking	-10.2218
▁isabel	-10.2246
▁pretending	-10.2251
▁terms	-10.2252
▁loss	-10.2255
▁jumped	-10.2255
▁sha	-10.2256
▁songs	-10.2273
ez	-10.2283
▁loser	-10.2297
▁harder	-10.2299
▁waves	-10.2305
▁dollars	-10.2305
▁cracks	-10.2316
▁murderers	-10.2317
hoo	-10.2338
ast	-10.2343
▁wondered	-10.2344
▁selling	-10.2346
ble	-10.2353
▁joined	-10.2355
▁hanks	-10.236
ba	-10.2362
▁acting	-10.2369
ber	-10.2369
tin	-10.237
▁pushing	-10.237
ach	-10.2377
▁deadly	-10.2382
ments	-10.2383
▁targets	-10.2386
▁cases	-10.2404
ite	-10.241
▁fully	-10.2413
mi	-10.2427
▁gaz	-10.2428
have	-10.244
▁styles	-10.2442
▁pipe	-10.2444
▁cleaning	-10.245
▁lively	-10.2453
ath	-10.2456
▁limit	-10.2487
ease	-10.2495
▁movies	-10.2495
▁hay	-10.2502
cy	-10.2522
▁records	-10.2526
▁lash	-10.2526
▁ver	-10.2538
▁ox	-10.2542
▁dee	-10.2546
▁opens	-10.2582
▁it	-10.2593
▁stuffed	-10.2599
▁assure	-10.261
▁bum	-10.2615
▁fra	-10.2622
▁designs	-10.2634
▁forces	-10.2662
ub	-10.2679
▁chestnuts	-10.2687
▁chas	-10.2698
▁rocking	-10.2699
ating	-10.2711
▁patch	-10.2714
ger	-10.2739
▁windows	-10.2742
ice	-10.2762
▁ge	-10.2775
ati	-10.2779
ude	-10.2797
ute	-10.281
▁alli	-10.2818
▁au	-10.2833
▁beats	-10.2833
ied	-10.2841
▁plate	-10.2848
▁dove	-10.2853
▁mono	-10.2863
let	-10.2883
▁sos	-10.2888
▁cap	-10.2899
▁tw	-10.2964
▁gal	-10.2968
tical	-10.2974
▁bri	-10.2992
▁detectives	-10.2993
gue	-10.3001
▁host	-10.3024
▁dates	-10.3081
mo	-10.3085
▁laws	-10.3102
▁hug	-10.3106
▁den	-10.3133
▁fires	-10.3147
work	-10.3159
ut	-10.3173
▁pet	-10.3176
▁or	-10.3198
▁loyal	-10.3243
▁scar	-10.3249
▁suspect	-10.3253
▁tires	-10.3255
▁wins	-10.3272
tions	-10.3272
ay	-10.3276
iest	-10.3277
▁knee	-10.3278
▁crystal	-10.3288
▁relative	-10.3288
▁quarter	-10.3288
▁spice	-10.3293
▁compliment	-10.3298
▁tiger	-10.3298
▁wound	-10.3299
▁legend	-10.3301
▁vessel	-10.3303
▁chain	-10.3305
▁victim	-10.3306
▁neighbor	-10.3307
▁term	-10.3312
▁ahhh	-10.3312
▁snake	-10.3312
▁manner	-10.3313
▁ghoul	-10.3313
▁meow	-10.3316
▁toward	-10.3316
▁page	-10.3317
▁sometime	-10.3322
▁beside	-10.3323
▁tribe	-10.3324
▁troubles	-10.3329
▁wrap	-10.3333
vy	-10.3339
▁minds	-10.335
▁hunter	-10.3358
▁prayer	-10.3358
▁charges	-10.3362
of	-10.3366
▁opera	-10.3367
▁cub	-10.3388
▁fail	-10.3389
▁spin	-10.3391
gging	-10.3394
▁tub	-10.3415
▁shin	-10.3424
▁flow	-10.3429
▁wander	-10.3436
▁drag	-10.3439
this	-10.3442
ock	-10.3443
▁cooks	-10.3451
▁invent	-10.3453
▁cancel	-10.3455
▁market	-10.3455
▁ar	-10.3456
▁conquer	-10.3459
▁accomplish	-10.346
▁sur	-10.346
▁mil	-10.3466
▁dum	-10.3467
even	-10.3469
mexic	-10.347
▁mat	-10.3474
▁title	-10.3475
street	-10.3476
piece	-10.3477
good	-10.3477
kind	-10.3477
▁christ	-10.3478
▁convince	-10.3481
▁german	-10.3484
fall	-10.3484
new	-10.3485
▁sole	-10.3489
▁obvious	-10.349
▁off	-10.3491
▁chart	-10.3491
▁bore	-10.3494
▁terribl	-10.3494
▁sandwich	-10.3498
▁classic	-10.3498
▁them	-10.3502
▁region	-10.3504
▁resist	-10.3506
ooding	-10.3507
▁cunning	-10.3507
▁annoying	-10.3507
▁antidote	-10.3507
▁appetite	-10.3507
▁awkward	-10.3507
▁azumi	-10.3507
▁bahamas	-10.3507
▁bopeep	-10.3507
▁caaccff	-10.3507
▁caliph	-10.3507
▁communicate	-10.3507
▁convict	-10.3507
▁cutlass	-10.3507
▁downstream	-10.3507
▁exhibit	-10.3507
▁fortune	-10.3507
▁frozen	-10.3507
▁headquarters	-10.3507
▁heeheehee	-10.3507
▁helpseeker	-10.3507
▁hmph	-10.3507
▁hortensia	-10.3507
▁ieave	-10.3507
▁jungle	-10.3507
▁laundry	-10.3507
▁loneliness	-10.3507
▁major	-10.3507
▁nicole	-10.3507
▁odessa	-10.3507
▁pafuri	-10.3507
▁pathetic	-10.3507
▁platform	-10.3507
▁procedure	-10.3507
▁pulido	-10.3507
▁purgatory	-10.3507
▁russell	-10.3507
▁saturday	-10.3507
▁scientific	-10.3507
▁spaghetti	-10.3507
▁specific	-10.3507
▁tattoo	-10.3507
▁thursday	-10.3507
▁tokyo	-10.3507
▁torpedo	-10.3507
▁unexpected	-10.3507
▁valuable	-10.3507
▁wisdom	-10.3507
▁wolves	-10.3507
▁ceiling	-10.3507
▁clerk	-10.3507
▁dainty	-10.3507
▁hooray	-10.3507
▁plead	-10.3507
▁technology	-10.3507
▁hinu	-10.3507
▁tools	-10.3507
▁unison	-10.3507
▁leak	-10.3507
▁struggle	-10.3507
▁nancy	-10.3507
▁prosper	-10.3507
▁doomed	-10.3507
▁someplace	-10.3507
▁contract	-10.3507
▁anchor	-10.3507
▁hawk	-10.3507
▁humble	-10.3507
▁stove	-10.3507
▁advantage	-10.3507
▁downtown	-10.3507
▁hurray	-10.3507
▁mumbling	-10.3507
▁lazy	-10.3507
▁hughes	-10.3507
▁robbed	-10.3507
▁villemont	-10.3507
▁cheap	-10.3507
▁gambling	-10.3507
▁steer	-10.3507
▁internet	-10.3507
▁piace	-10.3507
▁accent	-10.3507
▁contain	-10.3507
▁feature	-10.3507
▁lucy	-10.3507
▁argue	-10.3507
▁reverse	-10.3507
▁clapping	-10.3507
▁wailing	-10.3507
▁attractive	-10.3508
▁warden	-10.3508
▁trench	-10.3508
▁harsh	-10.3508
▁crossbow	-10.3508
▁principle	-10.3508
▁envy	-10.3508
▁fought	-10.3508
▁rode	-10.3508
▁galina	-10.3508
▁oreg	-10.3508
▁brush	-10.3508
▁savannah	-10.3508
▁chorus	-10.3508
▁humor	-10.3508
▁toymaker	-10.3508
▁iife	-10.3508
▁introduction	-10.3508
▁compete	-10.3508
▁exchange	-10.3508
▁whiskey	-10.3508
▁skateoff	-10.3509
▁lousy	-10.3509
▁valleyville	-10.3509
▁rude	-10.3509
▁silverback	-10.3509
▁flute	-10.3509
▁begun	-10.3509
▁martin	-10.3509
▁drain	-10.3509
▁monkey	-10.351
▁bison	-10.351
▁caw	-10.351
▁cowell	-10.351
▁thou	-10.351
▁slide	-10.351
▁nasty	-10.351
▁global	-10.351
▁remarkable	-10.3511
▁rice	-10.3511
▁coron	-10.3511
▁pilot	-10.3511
▁untie	-10.3511
▁transformed	-10.3511
fron	-10.3511
▁pinch	-10.3512
▁husk	-10.3512
▁burst	-10.3512
▁tucker	-10.3512
▁homesick	-10.3512
▁bedroom	-10.3512
▁authority	-10.3512
▁gross	-10.3512
▁cern	-10.3513
▁will	-10.3513
▁blinking	-10.3513
▁cheerful	-10.3513
▁creating	-10.3514
▁province	-10.3514
▁purple	-10.3514
▁obey	-10.3515
▁bedtime	-10.3516
▁sack	-10.3516
▁bricka	-10.3516
▁precisely	-10.3517
▁zachar	-10.3518
▁shutter	-10.3518
▁bitch	-10.3518
▁rm	-10.3519
▁reno	-10.352
gner	-10.352
▁official	-10.352
▁twin	-10.352
▁judy	-10.352
▁cycle	-10.352
▁gay	-10.3521
▁accused	-10.3521
▁sec	-10.3521
▁jane	-10.3521
▁banner	-10.3522
▁monk	-10.3523
▁knowledge	-10.3523
▁dismissed	-10.3524
▁tense	-10.3524
▁ob	-10.3526
▁sonny	-10.3526
▁gum	-10.3526
▁apartment	-10.3527
▁wee	-10.3529
▁fog	-10.3529
ten	-10.3531
▁manager	-10.3531
▁waaah	-10.3533
▁prop	-10.3534
▁arrow	-10.3535
▁sincere	-10.3536
▁roaring	-10.3542
ium	-10.3542
▁factory	-10.3542
▁princes	-10.3544
▁kneel	-10.3545
▁useless	-10.3546
▁wrecked	-10.3546
▁dresses	-10.3548
▁howdy	-10.3553
▁playful	-10.3554
▁vegetables	-10.3554
▁bully	-10.3554
▁link	-10.3555
▁arrangements	-10.3555
▁tend	-10.3557
iah	-10.3558
▁pod	-10.3559
▁greed	-10.356
▁crashing	-10.3563
▁kn	-10.3567
▁lab	-10.3571
▁laid	-10.3575
▁clawd	-10.3577
injured	-10.3577
▁predators	-10.3585
iyi	-10.3588
▁healthy	-10.3589
▁escaped	-10.3596
▁sinking	-10.36
▁successful	-10.3603
with	-10.3613
come	-10.3613
▁dearest	-10.3615
▁skater	-10.3615
▁coconuts	-10.3616
▁crocodiles	-10.3616
▁ti	-10.3619
▁greatness	-10.3628
▁bean	-10.3633
ank	-10.3658
▁om	-10.3662
▁attacked	-10.3662
▁worthy	-10.3664
▁mob	-10.3667
▁painted	-10.367
▁prayed	-10.367
▁recording	-10.3672
▁reservations	-10.3678
▁muscles	-10.3678
▁beasts	-10.3678
▁marching	-10.3679
▁customs	-10.368
▁moll	-10.3691
▁lied	-10.3696
▁closes	-10.3706
▁designer	-10.3708
▁breathing	-10.3719
▁su	-10.3721
▁prayers	-10.3722
▁nicer	-10.3726
▁bake	-10.3732
▁los	-10.3732
▁pigs	-10.3735
▁generations	-10.374
▁cleaner	-10.3752
▁own	-10.3753
▁bust	-10.3755
▁fixing	-10.3769
▁holidays	-10.3772
▁trains	-10.3774
▁damned	-10.3776
▁county	-10.3791
▁rivers	-10.3802
▁rabbits	-10.3803
▁inter	-10.3806
▁campers	-10.3815
use	-10.3828
▁caller	-10.386
▁herds	-10.3866
ff	-10.3867
▁teaching	-10.3878
▁indians	-10.3898
ture	-10.3915
▁meals	-10.3929
▁sakes	-10.3929
▁hee	-10.3949
▁beautifully	-10.3953
▁cans	-10.3955
ole	-10.399
▁cur	-10.4021
▁admire	-10.4025
ora	-10.403
ni	-10.4069
ial	-10.407
upper	-10.4075
▁machines	-10.4089
▁servants	-10.4121
▁noses	-10.4124
▁thin	-10.4136
some	-10.4137
▁drinks	-10.4139
▁dec	-10.4144
em	-10.4147
bs	-10.4178
▁ended	-10.4179
▁likely	-10.4183
▁mouths	-10.4185
▁pla	-10.4188
▁beard	-10.4201
▁appears	-10.4209
▁sallys	-10.4218
ir	-10.4223
▁walks	-10.4225
ris	-10.4227
▁adapt	-10.4273
▁beds	-10.4289
om	-10.4302
▁checking	-10.4302
▁che	-10.4327
lt	-10.4332
vice	-10.4335
▁mass	-10.4378
▁bills	-10.4381
ana	-10.4412
▁counts	-10.4413
▁listened	-10.4447
unt	-10.4452
▁jumps	-10.4488
▁killing	-10.4501
wed	-10.4508
ving	-10.4515
ug	-10.4516
▁regula	-10.4542
▁chop	-10.4589
▁bl	-10.4607
ax	-10.4609
hey	-10.4621
eva	-10.4624
▁seas	-10.4642
ino	-10.4643
▁idiots	-10.4677
▁doctors	-10.4677
▁wishing	-10.4707
▁remark	-10.4744
marine	-10.4758
ature	-10.4795
▁cor	-10.4804
tro	-10.4832
▁mu	-10.4838
▁answers	-10.485
▁custom	-10.4856
▁pe	-10.4868
▁jo	-10.4871
▁crash	-10.4938
▁basic	-10.4954
▁technique	-10.4954
▁peanut	-10.4954
▁blanket	-10.4955
nd	-10.496
▁repair	-10.4964
▁outfit	-10.4964
▁beast	-10.4965
anda	-10.4967
▁knot	-10.4968
▁vulture	-10.497
▁subject	-10.4973
▁affair	-10.4973
▁click	-10.4974
▁muscle	-10.4976
▁thud	-10.4979
▁detail	-10.4979
▁reservation	-10.4979
▁maiden	-10.4983
▁gras	-10.4989
▁youngster	-10.4994
▁saving	-10.5015
old	-10.5015
▁tinkers	-10.5037
▁await	-10.5044
▁spirits	-10.5048
▁wire	-10.5057
▁tik	-10.5058
bar	-10.5063
▁sol	-10.5083
▁tim	-10.5083
con	-10.5085
▁gil	-10.5094
▁enchant	-10.5097
▁splash	-10.5104
▁vault	-10.5109
▁buzz	-10.5115
▁crawl	-10.5122
▁register	-10.5123
▁darn	-10.5128
▁defeat	-10.5129
arch	-10.513
▁develop	-10.5131
▁wreck	-10.5131
▁fulfill	-10.5135
known	-10.5137
▁delight	-10.5138
oksanochka	-10.5139
▁bump	-10.514
▁hatch	-10.5141
wood	-10.5142
▁declare	-10.5143
box	-10.5144
coat	-10.5144
▁herman	-10.5146
arrow	-10.5146
ball	-10.5147
open	-10.515
▁creep	-10.5153
▁recent	-10.5156
▁exact	-10.5157
▁flip	-10.5159
mine	-10.5161
▁butt	-10.5163
▁glori	-10.5166
▁mmhm	-10.517
irty	-10.5172
wling	-10.5173
▁cont	-10.5173
▁shoo	-10.5173
▁jill	-10.5174
▁miguel	-10.5174
cular	-10.5174
rvis	-10.5174
▁antler	-10.5174
▁anzio	-10.5174
▁available	-10.5174
▁barbecue	-10.5174
▁belshazzar	-10.5174
▁bounty	-10.5174
▁capital	-10.5174
▁champlaine	-10.5174
▁chariie	-10.5174
▁chiyoko	-10.5174
▁client	-10.5174
▁cormoran	-10.5174
▁council	-10.5174
▁demonstrate	-10.5174
▁deuce	-10.5174
▁dialect	-10.5174
▁dreadful	-10.5174
▁eskimo	-10.5174
▁ethiopia	-10.5174
▁excellence	-10.5174
▁explosive	-10.5174
▁francisco	-10.5174
▁fundamental	-10.5174
▁gabriel	-10.5174
▁gamble	-10.5174
▁greatgranddad	-10.5174
▁gwen	-10.5174
▁jaak	-10.5174
▁jerome	-10.5174
▁location	-10.5174
▁mallet	-10.5174
▁meadow	-10.5174
▁oceanview	-10.5174
▁offense	-10.5174
▁patient	-10.5174
▁pencil	-10.5174
▁periscope	-10.5174
▁pheasant	-10.5174
▁photograph	-10.5174
▁porett	-10.5174
▁pulse	-10.5174
▁ratatouille	-10.5174
▁reduce	-10.5174
▁reindeer	-10.5174
▁relief	-10.5174
▁rosemary	-10.5174
▁rudder	-10.5174
▁sephora	-10.5174
▁sidney	-10.5174
▁squirrel	-10.5174
▁stonecutter	-10.5174
▁struggling	-10.5174
▁terror	-10.5174
▁tragedy	-10.5174
▁treason	-10.5174
▁twelve	-10.5174
▁unsaya	-10.5174
▁widow	-10.5174
▁barani	-10.5174
▁choochoo	-10.5174
▁expense	-10.5174
▁latigo	-10.5174
▁marcus	-10.5174
▁mdana	-10.5174
▁niece	-10.5174
▁phase	-10.5174
▁toothbrush	-10.5174
▁yoohoo	-10.5174
▁candle	-10.5174
▁passport	-10.5174
▁policy	-10.5174
▁scout	-10.5174
▁sensation	-10.5174
▁conversation	-10.5174
▁dumplings	-10.5174
▁sarin	-10.5174
▁kyle	-10.5174
▁modest	-10.5174
▁compass	-10.5174
▁forbidden	-10.5174
▁ndye	-10.5174
▁sensual	-10.5174
▁unseen	-10.5174
▁pronounce	-10.5174
▁telephone	-10.5174
▁benefit	-10.5174
▁common	-10.5174
▁banana	-10.5174
▁amusing	-10.5174
▁heels	-10.5174
▁casual	-10.5174
▁yuri	-10.5174
▁worn	-10.5174
▁tsk	-10.5174
▁uhuh	-10.5174
▁stiff	-10.5174
▁freight	-10.5174
▁yawn	-10.5174
▁bicycle	-10.5174
▁lira	-10.5174
▁practicing	-10.5174
▁arag	-10.5174
▁climate	-10.5174
▁fairchild	-10.5174
▁oooh	-10.5174
▁silent	-10.5174
▁anticipation	-10.5174
▁etta	-10.5174
▁suitcase	-10.5174
▁jackass	-10.5174
▁transformation	-10.5174
▁vidia	-10.5174
▁stray	-10.5174
▁consent	-10.5174
▁alert	-10.5174
▁poetry	-10.5174
▁average	-10.5174
mpire	-10.5174
▁submarine	-10.5174
▁wimp	-10.5174
▁salami	-10.5174
▁kilo	-10.5174
▁receptionist	-10.5175
▁fever	-10.5175
▁grouch	-10.5175
▁collar	-10.5175
▁hahaha	-10.5175
▁grabbed	-10.5175
▁tada	-10.5175
▁hermit	-10.5175
▁launch	-10.5175
▁bongo	-10.5175
▁mmmhmm	-10.5175
ixie	-10.5175
▁rainbow	-10.5175
▁massive	-10.5175
▁online	-10.5175
▁jimmy	-10.5175
▁university	-10.5175
▁overboard	-10.5175
▁clown	-10.5175
▁reaction	-10.5176
▁baboon	-10.5176
▁comic	-10.5176
▁ghoulia	-10.5176
▁polish	-10.5176
▁responsibility	-10.5176
▁tank	-10.5176
▁nerve	-10.5176
▁typical	-10.5176
▁stealth	-10.5176
▁mask	-10.5176
▁conductor	-10.5177
▁teii	-10.5177
▁plot	-10.5177
▁rita	-10.5177
▁nude	-10.5177
▁passenger	-10.5177
▁groom	-10.5177
▁shim	-10.5177
▁babushka	-10.5177
▁april	-10.5177
▁fivepointnine	-10.5177
▁hounds	-10.5177
▁warmth	-10.5177
▁shaft	-10.5177
▁matri	-10.5177
▁identif	-10.5178
▁mural	-10.5178
▁shade	-10.5178
▁potatoes	-10.5178
▁sundown	-10.5178
▁communit	-10.5178
▁relieved	-10.5178
▁operation	-10.5178
▁dash	-10.5178
▁broom	-10.5179
▁tuskless	-10.518
▁flipp	-10.518
▁interpretation	-10.518
▁collection	-10.518
▁fitting	-10.5181
▁tells	-10.5181
▁tweet	-10.5181
▁combined	-10.5181
uffer	-10.5181
▁bien	-10.5181
▁alongside	-10.5182
▁katya	-10.5182
▁fuss	-10.5182
▁newborn	-10.5182
▁schoolhouse	-10.5182
▁inventor	-10.5183
urity	-10.5183
▁suitable	-10.5183
▁recall	-10.5183
▁steam	-10.5183
▁promote	-10.5184
▁loom	-10.5184
▁now	-10.5185
▁western	-10.5185
▁belt	-10.5186
eek	-10.5187
▁insult	-10.5187
▁seize	-10.5187
▁flee	-10.5187
▁sadness	-10.5188
▁personality	-10.5188
▁swan	-10.5189
▁cried	-10.5189
▁muttering	-10.519
▁muffler	-10.519
▁eternal	-10.519
▁chew	-10.5191
▁hunger	-10.5191
▁award	-10.5191
▁propose	-10.5191
▁disgusting	-10.5192
▁escaping	-10.5192
▁wat	-10.5193
▁rail	-10.5193
▁ballet	-10.5193
▁sacred	-10.5193
▁limb	-10.5194
▁perros	-10.5194
▁documents	-10.5195
▁suggestion	-10.5195
▁moody	-10.5197
▁bout	-10.5198
▁coo	-10.5199
▁stopping	-10.52
▁haunted	-10.5201
▁lrene	-10.5201
▁archer	-10.5202
▁mere	-10.5204
▁rear	-10.5206
▁bury	-10.5206
▁oksanochka	-10.5207
▁dial	-10.5208
met	-10.5208
▁goodnight	-10.5208
▁finale	-10.5213
▁endless	-10.5214
▁fred	-10.5215
▁locker	-10.5217
▁properly	-10.5217
▁navy	-10.5217
▁orange	-10.5217
▁mood	-10.5217
▁ease	-10.5217
▁chilling	-10.522
▁divided	-10.522
▁pointers	-10.5221
▁blown	-10.5222
▁vene	-10.5224
▁equally	-10.5224
▁bond	-10.5224
▁bel	-10.5224
▁sonar	-10.5224
▁invented	-10.5225
▁shy	-10.5227
▁tomb	-10.5227
▁pale	-10.5228
▁ale	-10.5228
▁this	-10.523
▁heights	-10.523
▁lepers	-10.523
▁rags	-10.523
▁colleagues	-10.523
▁hait	-10.5231
▁package	-10.5232
▁yall	-10.5238
▁noone	-10.5238
▁sis	-10.5239
▁bush	-10.5243
▁lawn	-10.5247
ung	-10.525
▁marketing	-10.525
▁compared	-10.525
ism	-10.525
▁medica	-10.525
▁wandering	-10.5251
▁fort	-10.5259
▁y	-10.5259
ns	-10.5264
▁seated	-10.5265
▁bob	-10.5267
▁socks	-10.5268
▁bou	-10.5271
▁pouring	-10.5272
ence	-10.5277
▁cracking	-10.5279
▁solve	-10.5281
▁walkin	-10.5285
▁fore	-10.5286
▁gathered	-10.5292
▁studying	-10.5298
▁recover	-10.5301
▁blessed	-10.5304
▁odds	-10.5304
▁mammoths	-10.5304
▁pits	-10.531
▁carve	-10.5313
ania	-10.5316
▁closet	-10.5319
▁washed	-10.5329
▁har	-10.533
▁weed	-10.5332
▁pearls	-10.5341
▁vital	-10.5341
▁coyotes	-10.5341
▁bricks	-10.5341
▁angeles	-10.5342
▁val	-10.5356
vious	-10.5363
▁awaits	-10.5373
▁ann	-10.5377
▁clicks	-10.5378
▁subjects	-10.5378
▁affairs	-10.5378
▁maidens	-10.5379
▁messed	-10.5391
▁spreading	-10.5403
▁sailed	-10.5404
▁talkin	-10.5405
gie	-10.5406
▁neighbors	-10.5416
▁victims	-10.5416
▁iv	-10.542
▁lean	-10.5424
▁voices	-10.5427
▁traveler	-10.5448
▁protected	-10.5448
▁shadows	-10.5453
▁canoes	-10.5453
▁tales	-10.5454
▁sailors	-10.5455
▁burns	-10.5456
▁ideal	-10.5457
▁lovers	-10.5459
▁reign	-10.5463
▁carrie	-10.5467
▁ol	-10.5468
▁differently	-10.5474
▁searched	-10.5481
▁closely	-10.5492
▁hol	-10.5494
▁wonderfully	-10.551
▁offering	-10.5512
rious	-10.5513
▁explained	-10.5514
▁stas	-10.5518
▁span	-10.5519
▁guarded	-10.5525
▁caused	-10.553
▁scales	-10.5531
▁fooled	-10.5542
▁warming	-10.5546
ather	-10.5547
▁ned	-10.5548
▁reached	-10.5552
▁blowing	-10.5552
▁buttons	-10.5567
▁drums	-10.5571
ged	-10.5574
yan	-10.5583
▁bulls	-10.5589
▁ru	-10.559
ours	-10.5591
lot	-10.5608
▁bandits	-10.561
▁marks	-10.5616
▁mac	-10.5621
star	-10.5623
nda	-10.5631
▁cows	-10.5642
▁traditions	-10.5643
ick	-10.5678
▁gunshots	-10.5681
ller	-10.5685
water	-10.5687
▁pete	-10.5692
okie	-10.5699
▁def	-10.5708
▁wheels	-10.5718
▁miracles	-10.5719
▁lu	-10.5744
▁demands	-10.5755
▁leaders	-10.5759
rous	-10.5762
▁blocks	-10.5796
▁remove	-10.5797
ize	-10.5798
ogue	-10.5809
ac	-10.5818
▁images	-10.5819
▁dealing	-10.5831
▁whistles	-10.5834
▁gall	-10.5835
▁fame	-10.5872
▁arrives	-10.5877
▁cou	-10.588
▁keeper	-10.5882
▁sum	-10.5891
▁ka	-10.5893
▁was	-10.5897
▁handy	-10.5898
▁por	-10.5901
▁remains	-10.5916
▁formal	-10.5933
▁rog	-10.5937
▁vib	-10.5948
▁hundreds	-10.595
▁are	-10.5964
oo	-10.5987
▁giants	-10.5989
▁oceans	-10.599
▁nicely	-10.599
▁mistakes	-10.599
dog	-10.5996
▁ag	-10.6003
ring	-10.601
▁fellows	-10.6029
ified	-10.6035
more	-10.6061
▁choices	-10.6065
▁generals	-10.6067
▁est	-10.6069
▁houses	-10.6118
▁wished	-10.6129
▁pee	-10.6144
▁booing	-10.6147
▁mis	-10.6161
▁reg	-10.6172
ren	-10.6173
ripped	-10.6178
za	-10.6179
▁paying	-10.6197
lon	-10.62
▁nd	-10.6207
▁catching	-10.6216
▁ski	-10.6244
ations	-10.6251
pit	-10.6257
▁workshop	-10.6258
▁wh	-10.6271
ically	-10.6277
ette	-10.6288
ors	-10.6292
hh	-10.6295
ft	-10.6304
▁pays	-10.6313
▁rou	-10.6318
▁tor	-10.6318
▁fe	-10.6319
▁staring	-10.6322
▁deb	-10.6335
gh	-10.6337
▁ei	-10.6343
▁darlings	-10.6345
▁bud	-10.6348
▁pile	-10.6362
▁include	-10.6366
ku	-10.6367
▁unh	-10.6417
ans	-10.6433
▁wi	-10.6434
▁dares	-10.6447
▁commands	-10.6476
▁moments	-10.651
▁polk	-10.651
▁rip	-10.6512
▁tomato	-10.6535
low	-10.6596
ham	-10.6606
▁mini	-10.6608
▁hy	-10.6627
▁cu	-10.6629
▁begg	-10.6644
▁stops	-10.6661
▁nami	-10.6664
▁whi	-10.6674
▁comfort	-10.671
are	-10.6715
ink	-10.6733
bb	-10.6734
hand	-10.6742
▁pm	-10.6803
wa	-10.6819
ig	-10.6876
ina	-10.6889
▁finer	-10.6894
▁slu	-10.69
diction	-10.6912
ending	-10.6916
▁and	-10.6926
▁asks	-10.6936
▁slap	-10.6945
▁hack	-10.6952
ot	-10.6954
▁diamond	-10.6954
▁emotion	-10.6954
▁material	-10.6955
olic	-10.696
▁brick	-10.6967
▁contestant	-10.6967
▁scrap	-10.697
▁bastard	-10.697
▁concept	-10.697
▁coyote	-10.6973
▁sings	-10.6974
▁pearl	-10.6975
▁cons	-10.6983
▁counselor	-10.6984
▁drops	-10.6993
▁cheat	-10.7012
ca	-10.7013
▁bea	-10.7032
izing	-10.7043
pot	-10.7045
put	-10.7056
▁spark	-10.7056
▁aa	-10.7057
▁charm	-10.7065
▁fold	-10.707
ue	-10.7082
rearrange	-10.7097
▁greet	-10.7104
itation	-10.7111
▁scratch	-10.7119
down	-10.712
▁defi	-10.712
guard	-10.7121
▁depart	-10.7124
▁invest	-10.7125
▁str	-10.7126
▁abandon	-10.7127
▁borrow	-10.713
quit	-10.7132
▁exhaust	-10.7132
malenkaya	-10.7133
ama	-10.7135
▁hel	-10.7136
worthy	-10.7137
vinci	-10.7139
▁err	-10.7139
place	-10.7139
▁acknowledge	-10.7142
▁perfume	-10.7142
guy	-10.7143
▁outrage	-10.7143
phone	-10.7144
▁tow	-10.7146
▁describe	-10.7147
▁engage	-10.7148
right	-10.7149
▁receive	-10.715
▁continu	-10.7152
▁beep	-10.7153
▁extreme	-10.7154
▁constant	-10.7155
▁unfortunate	-10.7156
▁actual	-10.7156
▁threat	-10.7157
▁muffle	-10.7157
▁rains	-10.7159
▁endure	-10.7162
▁steel	-10.7163
▁leas	-10.7164
▁echo	-10.7164
▁possess	-10.7164
▁chose	-10.7166
▁smooth	-10.7167
eemed	-10.7168
izu	-10.717
▁slight	-10.7171
▁product	-10.7171
▁sch	-10.7172
vation	-10.7172
▁inform	-10.7172
▁ensu	-10.7172
▁retire	-10.7172
pect	-10.7173
▁freak	-10.7173
▁acquaintance	-10.7174
▁ambition	-10.7174
▁ancestors	-10.7174
▁angus	-10.7174
▁apprentice	-10.7174
▁astrologers	-10.7174
▁atlantis	-10.7174
▁australia	-10.7174
▁belteshazzar	-10.7174
▁bloodbath	-10.7174
▁bonanza	-10.7174
▁calcite	-10.7174
▁caradec	-10.7174
▁centuries	-10.7174
▁chalk	-10.7174
▁cherokee	-10.7174
▁circuit	-10.7174
▁clarion	-10.7174
▁clumsy	-10.7174
▁collaps	-10.7174
▁constance	-10.7174
▁cottage	-10.7174
▁crucial	-10.7174
▁cyril	-10.7174
▁dalrymple	-10.7174
▁david	-10.7174
▁disgrace	-10.7174
▁donkey	-10.7174
▁donna	-10.7174
▁dungeon	-10.7174
▁easiest	-10.7174
▁equator	-10.7174
▁ernestina	-10.7174
▁excelsis	-10.7174
▁footsteps	-10.7174
▁forefather	-10.7174
▁furniture	-10.7174
▁garlotti	-10.7174
▁glimpse	-10.7174
▁gnarly	-10.7174
▁gorgeous	-10.7174
▁granddaughter	-10.7174
▁grappling	-10.7174
▁heavily	-10.7174
▁honeymoon	-10.7174
▁imbecile	-10.7174
▁incident	-10.7174
▁insane	-10.7174
▁invitation	-10.7174
▁jethro	-10.7174
▁korda	-10.7174
▁landscape	-10.7174
▁length	-10.7174
▁lloyd	-10.7174
▁lobby	-10.7174
▁masahiko	-10.7174
▁mathilde	-10.7174
▁medicine	-10.7174
▁monaghan	-10.7174
▁negative	-10.7174
▁neumann	-10.7174
▁nowadays	-10.7174
▁patti	-10.7174
▁physical	-10.7174
▁powder	-10.7174
▁prague	-10.7174
▁preparations	-10.7174
▁privilege	-10.7174
▁railroad	-10.7174
▁rainforest	-10.7174
▁reckon	-10.7174
▁reconstruct	-10.7174
▁refresh	-10.7174
▁rescuing	-10.7174
▁resource	-10.7174
▁rodrigo	-10.7174
▁rosanna	-10.7174
▁samuel	-10.7174
▁scenario	-10.7174
▁sceptre	-10.7174
▁scissors	-10.7174
▁scoop	-10.7174
▁sigurd	-10.7174
▁skelita	-10.7174
▁snorting	-10.7174
▁snorts	-10.7174
▁sokurah	-10.7174
▁sorrow	-10.7174
▁source	-10.7174
▁strict	-10.7174
▁striking	-10.7174
▁studies	-10.7174
▁talitha	-10.7174
▁thistles	-10.7174
▁thorburn	-10.7174
▁throttle	-10.7174
▁titanium	-10.7174
▁toralei	-10.7174
▁udela	-10.7174
▁ulido	-10.7174
▁unlock	-10.7174
▁vancouver	-10.7174
▁vincenty	-10.7174
▁volauvent	-10.7174
▁yunque	-10.7174
▁altar	-10.7174
▁circums	-10.7174
▁destined	-10.7174
▁effect	-10.7174
▁finster	-10.7174
▁flirt	-10.7174
▁humiliat	-10.7174
▁illinois	-10.7174
▁ivory	-10.7174
▁pendant	-10.7174
▁philip	-10.7174
▁quinoa	-10.7174
▁slim	-10.7174
▁washington	-10.7174
▁willory	-10.7174
▁yonder	-10.7174
▁apologies	-10.7174
▁peasant	-10.7174
▁transfer	-10.7174
▁vamos	-10.7174
▁apology	-10.7174
▁hunk	-10.7174
▁stamps	-10.7174
▁myth	-10.7174
▁teedle	-10.7174
▁bodies	-10.7174
▁commercial	-10.7174
▁mumbles	-10.7174
▁bonjour	-10.7174
▁triumph	-10.7174
▁autograph	-10.7174
▁reflect	-10.7174
▁afterward	-10.7174
▁additional	-10.7174
▁ciose	-10.7174
▁sooth	-10.7174
▁arctic	-10.7174
▁mustache	-10.7174
▁mademoiselle	-10.7174
▁tragic	-10.7174
▁freezing	-10.7174
▁opposite	-10.7174
▁absence	-10.7174
▁headache	-10.7174
▁kitten	-10.7174
▁malaria	-10.7174
▁eloise	-10.7174
▁utter	-10.7174
▁pillow	-10.7174
▁verdes	-10.7174
▁devour	-10.7174
▁hostess	-10.7174
▁operator	-10.7174
▁fortress	-10.7174
▁refill	-10.7174
▁spider	-10.7174
▁whack	-10.7174
▁invisible	-10.7174
▁tixo	-10.7174
▁value	-10.7174
▁illustrious	-10.7174
▁priest	-10.7174
▁bailed	-10.7174
▁scorch	-10.7174
▁twig	-10.7174
▁hollow	-10.7174
▁winslow	-10.7174
▁injury	-10.7174
▁sorcerers	-10.7174
▁heap	-10.7174
▁detect	-10.7174
▁ricks	-10.7174
▁whining	-10.7174
▁assistant	-10.7174
▁ginger	-10.7174
▁eddie	-10.7174
▁profit	-10.7174
iards	-10.7174
▁blubber	-10.7174
▁calves	-10.7174
▁sugar	-10.7174
▁sabelotodo	-10.7175
▁bobble	-10.7175
▁insignificant	-10.7175
▁hooves	-10.7175
▁bessie	-10.7175
▁onboard	-10.7175
▁onward	-10.7175
▁sailboat	-10.7175
▁grainger	-10.7175
▁oven	-10.7175
▁shaking	-10.7175
▁mast	-10.7175
▁infant	-10.7175
▁adorable	-10.7175
▁merchant	-10.7175
▁sunrise	-10.7175
ssenger	-10.7175
▁judea	-10.7175
▁panicked	-10.7175
▁finch	-10.7175
▁arena	-10.7175
▁towel	-10.7175
▁dominion	-10.7175
▁wore	-10.7175
▁antarctica	-10.7175
▁softens	-10.7175
▁grade	-10.7175
▁lizard	-10.7175
▁elope	-10.7176
▁permit	-10.7176
▁feminine	-10.7176
▁interfere	-10.7176
▁demo	-10.7176
▁venture	-10.7176
▁copper	-10.7176
▁occasionally	-10.7176
▁pork	-10.7176
▁beck	-10.7176
▁vein	-10.7176
▁marsh	-10.7176
▁arrival	-10.7176
▁impression	-10.7176
▁copies	-10.7176
▁supply	-10.7176
▁ultimately	-10.7176
▁conver	-10.7176
▁audition	-10.7176
▁journalist	-10.7176
▁gau	-10.7176
▁fuse	-10.7176
▁disobey	-10.7177
▁vocal	-10.7177
lusive	-10.7177
▁beets	-10.7177
uvre	-10.7177
▁revol	-10.7177
▁appointment	-10.7177
▁coins	-10.7177
▁fatigued	-10.7177
▁coco	-10.7177
▁alley	-10.7177
▁sittin	-10.7177
▁campbell	-10.7177
▁salmon	-10.7178
▁gigi	-10.7178
▁cultural	-10.7178
▁fraud	-10.7178
▁overlapping	-10.7178
▁intention	-10.7178
▁pocket	-10.7178
▁promotion	-10.7178
drew	-10.7178
▁canada	-10.7178
▁clink	-10.7179
▁alter	-10.7179
▁spotted	-10.7179
▁prettier	-10.7179
tuary	-10.7179
▁andr	-10.7179
▁fond	-10.7179
▁politic	-10.7179
▁cities	-10.7179
▁complicated	-10.7179
▁confused	-10.7179
▁scam	-10.7179
▁settlement	-10.7179
▁cattle	-10.718
▁caption	-10.718
oid	-10.718
▁affection	-10.718
▁poacher	-10.718
▁passage	-10.718
▁keen	-10.718
▁rapidly	-10.718
▁anton	-10.718
▁alas	-10.718
▁shit	-10.718
▁alike	-10.718
▁duh	-10.718
▁abb	-10.7181
▁satisfied	-10.7181
▁torch	-10.7181
▁foolishness	-10.7181
▁prob	-10.7181
▁astronomy	-10.7181
▁license	-10.7182
▁atmosphere	-10.7182
▁puny	-10.7182
▁poaching	-10.7182
▁foster	-10.7182
▁artistic	-10.7182
▁kim	-10.7183
▁reception	-10.7183
▁guardian	-10.7184
▁loan	-10.7184
▁lightning	-10.7184
▁seventy	-10.7184
▁june	-10.7184
▁locke	-10.7185
▁grandson	-10.7185
▁national	-10.7186
▁thus	-10.7186
▁bullet	-10.7186
▁yearold	-10.7186
▁heal	-10.7187
▁stall	-10.7187
▁bene	-10.7188
▁airline	-10.7188
▁rc	-10.7188
▁dna	-10.7188
▁extend	-10.7189
▁discussion	-10.7189
▁raid	-10.719
▁collector	-10.7191
▁gravel	-10.7191
▁presentation	-10.7193
▁clay	-10.7193
▁gown	-10.7193
▁painters	-10.7193
▁constantly	-10.7193
▁paddle	-10.7194
▁compos	-10.7194
▁armor	-10.7194
▁inspired	-10.7194
▁spies	-10.7195
▁theme	-10.7195
▁onion	-10.7197
▁beastly	-10.7198
▁critters	-10.7199
▁fragments	-10.7199
▁peaks	-10.72
▁reel	-10.7201
▁anger	-10.7201
▁hose	-10.7202
▁rath	-10.7202
▁crook	-10.7202
▁bitter	-10.7202
▁shallow	-10.7204
▁humanity	-10.7204
▁select	-10.7204
▁passion	-10.7205
▁porter	-10.7205
iam	-10.7206
▁malenkaya	-10.7208
illa	-10.7208
▁peep	-10.7209
▁mum	-10.721
▁received	-10.7211
▁butcher	-10.7212
▁statement	-10.7217
▁borrowed	-10.7218
▁owl	-10.722
▁getaway	-10.722
▁brad	-10.7221
ome	-10.7224
▁particle	-10.7224
▁smoking	-10.7225
rief	-10.7225
▁delighted	-10.7228
▁classes	-10.7231
▁stan	-10.7233
▁daylight	-10.7234
▁mow	-10.7234
▁keeps	-10.7236
▁strip	-10.7237
▁conquered	-10.7237
▁fay	-10.7237
▁suspected	-10.7238
ails	-10.7243
▁lick	-10.7244
▁bare	-10.7244
▁coughs	-10.7244
▁hopeless	-10.7245
▁whoops	-10.7248
▁vaulting	-10.7254
▁slope	-10.7256
▁strongest	-10.7259
▁useful	-10.726
▁dave	-10.7264
▁sic	-10.7264
▁pope	-10.7265
▁slower	-10.7266
▁collected	-10.7267
▁joint	-10.7269
▁shootin	-10.7274
▁floating	-10.7283
▁disturbing	-10.7283
▁lifted	-10.7287
▁brakes	-10.7287
▁fantas	-10.7288
▁roots	-10.729
▁sniffs	-10.7292
▁smoothies	-10.7294
▁starters	-10.7294
our	-10.7297
▁suckers	-10.73
▁nail	-10.73
rn	-10.7301
▁heed	-10.7306
▁curls	-10.7308
▁woke	-10.7308
▁parker	-10.7312
icious	-10.7312
▁eli	-10.7315
▁lands	-10.7316
▁clothed	-10.7317
▁bal	-10.7319
▁yak	-10.732
going	-10.7328
▁quicker	-10.7328
▁followin	-10.7332
▁civiliz	-10.7333
▁rate	-10.7334
▁bounc	-10.7334
▁worms	-10.7336
▁highlands	-10.7339
▁recorded	-10.7339
▁tiller	-10.734
iss	-10.7341
ittle	-10.7351
▁lifting	-10.7354
▁connect	-10.736
▁reminded	-10.7368
▁parties	-10.7369
▁nationals	-10.7375
▁strain	-10.7376
▁bastards	-10.7382
▁concepts	-10.7382
▁scraps	-10.7382
▁clothing	-10.7387
tial	-10.7394
▁lookout	-10.7395
▁hunted	-10.7396
▁fang	-10.7398
gy	-10.7399
▁imagined	-10.7401
tra	-10.7403
▁spi	-10.7404
▁whispering	-10.7404
▁rely	-10.7414
▁performed	-10.7416
▁counter	-10.7417
▁shorty	-10.742
▁vultures	-10.7429
▁murdered	-10.7435
▁tricking	-10.7435
▁nau	-10.7437
▁oldest	-10.7438
og	-10.7441
▁ali	-10.7458
olling	-10.7464
▁askin	-10.7467
▁princesses	-10.7467
▁charts	-10.747
▁statues	-10.7472
▁vessels	-10.7475
▁independen	-10.7486
▁bred	-10.7486
▁tribes	-10.7495
aged	-10.7504
▁temper	-10.751
▁tha	-10.751
▁picky	-10.7515
▁puk	-10.7519
▁dolphins	-10.7522
▁mushrooms	-10.7522
▁nephews	-10.7522
▁ioves	-10.7522
▁drawer	-10.753
▁govern	-10.7534
▁ammo	-10.7558
▁banging	-10.7564
off	-10.7566
▁yards	-10.7569
▁stayin	-10.7574
▁penalt	-10.7582
▁relaxing	-10.7594
▁answered	-10.7596
▁dancer	-10.7605
▁grounded	-10.7612
ze	-10.7614
▁jewels	-10.7616
▁frogs	-10.7616
▁notes	-10.7626
▁jumping	-10.7635
▁hanged	-10.7638
▁sleepy	-10.7641
she	-10.7649
▁explod	-10.765
▁shown	-10.7651
▁te	-10.7651
eth	-10.7653
▁stepp	-10.7657
▁ducks	-10.7664
mes	-10.7672
▁pans	-10.7675
ex	-10.7677
▁sons	-10.7685
▁ab	-10.7708
▁pursue	-10.7725
▁prints	-10.773
▁tin	-10.7732
▁cleared	-10.7757
▁bats	-10.7783
▁lover	-10.7784
▁bumme	-10.7787
▁miner	-10.7801
▁videos	-10.7807
▁dos	-10.7811
▁vol	-10.7813
try	-10.7827
▁dragg	-10.7827
lette	-10.784
▁fianc	-10.7846
▁posts	-10.785
ms	-10.7864
▁gru	-10.7877
real	-10.7877
▁excused	-10.7883
ets	-10.7885
▁crimes	-10.7903
▁dev	-10.7911
▁rih	-10.7915
seif	-10.793
rance	-10.7933
▁familys	-10.7974
pping	-10.7982
ram	-10.7982
ack	-10.7985
▁singer	-10.7994
▁para	-10.8
▁cups	-10.8013
▁diplomat	-10.8019
▁salads	-10.8023
▁crackl	-10.8026
▁mel	-10.8046
▁adventures	-10.8049
▁includ	-10.8052
▁exp	-10.8062
▁bombs	-10.8098
▁ap	-10.8123
ap	-10.813
ulations	-10.8162
▁rap	-10.8172
▁picking	-10.819
▁rescues	-10.8199
▁sting	-10.8212
ading	-10.8224
snt	-10.8232
▁returns	-10.824
▁col	-10.8244
ked	-10.8247
tie	-10.8251
lets	-10.8275
▁dippe	-10.8276
▁distances	-10.8295
youre	-10.8312
▁bars	-10.8319
tive	-10.8323
lrus	-10.8329
atic	-10.8336
▁valleys	-10.8345
▁eag	-10.8399
▁swis	-10.8443
▁spots	-10.8447
▁entr	-10.846
▁site	-10.8478
ins	-10.8491
▁hebrews	-10.8495
▁smiles	-10.8499
ned	-10.8519
mon	-10.8531
pho	-10.8542
▁hoho	-10.8543
▁aut	-10.8551
pt	-10.8553
▁announc	-10.8561
ament	-10.8601
▁covers	-10.8601
▁nu	-10.864
▁areas	-10.8647
▁undo	-10.8656
▁bu	-10.8676
▁services	-10.8698
▁blows	-10.8701
ress	-10.8709
era	-10.8721
▁inf	-10.8743
fi	-10.8751
ks	-10.8761
zzle	-10.8763
▁pr	-10.8782
arm	-10.8788
▁mus	-10.8797
▁sadi	-10.8806
umn	-10.8819
▁dam	-10.882
▁sil	-10.8822
▁gia	-10.8826
▁char	-10.8854
limited	-10.8854
rr	-10.8871
hi	-10.8875
▁fu	-10.8886
pa	-10.8911
udge	-10.8914
▁player	-10.8931
mb	-10.8946
ro	-10.8987
rott	-10.8992
▁min	-10.8996
rant	-10.8997
moi	-10.9001
liness	-10.9003
shed	-10.9019
sis	-10.9022
▁bathe	-10.9047
▁pil	-10.9056
▁cav	-10.907
▁kinder	-10.9072
▁mash	-10.9089
▁sleeps	-10.9101
▁skates	-10.9105
▁tastes	-10.9109
ust	-10.9125
▁joes	-10.9125
igger	-10.9136
ction	-10.914
ano	-10.9142
ties	-10.918
▁pollen	-10.9184
▁fend	-10.9185
hem	-10.9185
zo	-10.9219
▁talks	-10.9219
▁tar	-10.9222
▁talents	-10.9226
ron	-10.9242
▁execut	-10.9254
▁meetings	-10.9276
j	-10.9276
▁sav	-10.9284
dict	-10.9306
▁za	-10.9335
▁cared	-10.935
▁pond	-10.9354
▁slo	-10.9357
▁moons	-10.937
▁mam	-10.938
▁cro	-10.938
▁maxim	-10.9426
▁roar	-10.9433
connected	-10.9436
lar	-10.9439
pe	-10.944
▁footprint	-10.9455
▁misfortune	-10.9455
▁reputation	-10.9455
▁border	-10.9455
▁wipe	-10.9456
▁cla	-10.9463
▁lyric	-10.9463
▁ingredient	-10.9464
▁glove	-10.9465
▁stream	-10.9466
▁mammoth	-10.9474
▁odd	-10.9474
▁crocodile	-10.9476
▁coconut	-10.9476
▁student	-10.9479
▁exception	-10.9489
ura	-10.9491
▁highland	-10.9492
▁worm	-10.9494
▁cookie	-10.9494
▁unit	-10.9495
ender	-10.9502
▁lip	-10.9511
▁menu	-10.9515
▁gunfight	-10.9527
▁clan	-10.9528
▁welcom	-10.9536
▁lam	-10.9536
inda	-10.9549
▁shock	-10.9551
▁hen	-10.956
▁pit	-10.9567
ook	-10.9568
eyed	-10.9574
▁noon	-10.9594
▁americans	-10.9595
▁smok	-10.9596
roll	-10.9597
▁lords	-10.9603
night	-10.9605
coming	-10.9606
▁hurts	-10.9608
burg	-10.9613
lder	-10.962
▁grumbl	-10.9622
ictions	-10.9624
▁butch	-10.9626
▁brook	-10.963
▁profession	-10.9631
▁she	-10.9631
free	-10.9631
▁punish	-10.9633
bell	-10.9634
handed	-10.9635
point	-10.9637
▁teenage	-10.9637
historic	-10.9638
regard	-10.9639
▁toss	-10.964
wise	-10.9642
▁grieve	-10.9642
birth	-10.9642
track	-10.9642
mouth	-10.9643
▁haunt	-10.9643
believe	-10.9643
giving	-10.9643
looking	-10.9645
▁preserve	-10.9645
▁sy	-10.9645
▁buen	-10.9645
year	-10.9646
half	-10.9646
▁restore	-10.9646
fair	-10.9647
vie	-10.9648
▁melod	-10.965
▁improve	-10.965
▁bubbl	-10.9651
▁deny	-10.9652
much	-10.9653
▁judg	-10.9653
▁precise	-10.9655
▁squa	-10.9656
▁dirt	-10.9656
▁glowin	-10.9657
east	-10.9657
▁refer	-10.9658
main	-10.9658
▁encourag	-10.9658
gi	-10.9658
rator	-10.966
▁concentrat	-10.966
▁speci	-10.9664
▁regard	-10.9664
addle	-10.9665
▁tug	-10.9665
▁religio	-10.9666
▁affect	-10.9666
▁stir	-10.9667
iddle	-10.9667
▁convent	-10.9667
▁prettie	-10.9668
▁glob	-10.9668
▁familia	-10.9668
ermit	-10.9669
▁conduct	-10.9669
▁clap	-10.967
▁dynami	-10.9671
▁electric	-10.9671
▁makin	-10.9672
▁shee	-10.9672
▁tutt	-10.9673
▁object	-10.9674
▁dwarf	-10.9674
▁rethink	-10.9674
leigh	-10.9674
quila	-10.9674
▁aargh	-10.9674
▁abroad	-10.9674
▁accursed	-10.9674
▁adventurous	-10.9674
▁agatha	-10.9674
▁algeria	-10.9674
▁argument	-10.9674
▁artifact	-10.9674
▁atlantic	-10.9674
▁bernadette	-10.9674
▁bewitched	-10.9674
▁boundaries	-10.9674
▁bronze	-10.9674
▁brutal	-10.9674
▁bucephalus	-10.9674
▁bullseye	-10.9674
▁bungee	-10.9674
▁calarosa	-10.9674
▁caribbean	-10.9674
▁character	-10.9674
▁chariot	-10.9674
▁chigga	-10.9674
▁choir	-10.9674
▁choosing	-10.9674
▁combination	-10.9674
▁compartment	-10.9674
▁confidence	-10.9674
▁cradle	-10.9674
▁craft	-10.9674
▁creepedeep	-10.9674
▁cricket	-10.9674
▁cuisine	-10.9674
▁cullen	-10.9674
▁curiosity	-10.9674
▁daphne	-10.9674
▁daydream	-10.9674
▁decorate	-10.9674
▁demonstration	-10.9674
▁deposit	-10.9674
▁dewdrop	-10.9674
▁dexter	-10.9674
▁dimple	-10.9674
▁dinosaur	-10.9674
▁disagree	-10.9674
▁discreet	-10.9674
▁edmond	-10.9674
▁elodie	-10.9674
▁enthusiast	-10.9674
▁esmerelda	-10.9674
▁euphrania	-10.9674
▁exhusband	-10.9674
▁exquisite	-10.9674
▁fernando	-10.9674
▁ferocious	-10.9674
▁fiddledeedee	-10.9674
▁fifth	-10.9674
▁floretta	-10.9674
▁formula	-10.9674
▁giuseppe	-10.9674
▁gloooo	-10.9674
▁grateful	-10.9674
▁guarantee	-10.9674
▁gypsy	-10.9674
▁harbor	-10.9674
▁hargrove	-10.9674
▁harufa	-10.9674
▁highwire	-10.9674
▁himalaya	-10.9674
▁horizon	-10.9674
▁immortal	-10.9674
▁importance	-10.9674
▁impostor	-10.9674
▁initial	-10.9674
▁insanity	-10.9674
▁instinct	-10.9674
▁intelligence	-10.9674
▁jacob	-10.9674
▁jealous	-10.9674
▁jothergill	-10.9674
▁jubilee	-10.9674
▁kansas	-10.9674
▁kremlin	-10.9674
▁library	-10.9674
▁lifestyle	-10.9674
▁lnjun	-10.9674
▁marduk	-10.9674
▁masomori	-10.9674
▁melvin	-10.9674
▁memories	-10.9674
▁morillon	-10.9674
▁mortgage	-10.9674
▁moscow	-10.9674
▁muffins	-10.9674
▁november	-10.9674
▁observation	-10.9674
▁october	-10.9674
▁patron	-10.9674
▁phew	-10.9674
▁postpone	-10.9674
▁prairie	-10.9674
▁premature	-10.9674
▁prunella	-10.9674
▁pyramid	-10.9674
▁rafaelito	-10.9674
▁rehearsal	-10.9674
▁rehearse	-10.9674
▁reisenweber	-10.9674
▁residence	-10.9674
▁resort	-10.9674
▁respond	-10.9674
▁reunion	-10.9674
▁scepter	-10.9674
▁science	-10.9674
▁sensitive	-10.9674
▁sequence	-10.9674
▁shannon	-10.9674
▁skeleton	-10.9674
▁snatch	-10.9674
▁squeez	-10.9674
▁stunning	-10.9674
▁supermarket	-10.9674
▁supernatural	-10.9674
▁supreme	-10.9674
▁troubie	-10.9674
▁umbrella	-10.9674
▁untidy	-10.9674
▁volunteer	-10.9674
▁wardrobe	-10.9674
▁wednesday	-10.9674
▁wheat	-10.9674
▁wilkinson	-10.9674
▁wretch	-10.9674
▁yikes	-10.9674
▁yippyyippyyay	-10.9674
islav	-10.9674
▁ballerina	-10.9674
▁blacklist	-10.9674
▁central	-10.9674
▁construct	-10.9674
▁dawg	-10.9674
▁deputy	-10.9674
▁executioner	-10.9674
▁gesture	-10.9674
▁glance	-10.9674
▁hyena	-10.9674
▁instance	-10.9674
▁monument	-10.9674
▁motion	-10.9674
▁mutiny	-10.9674
▁pigeon	-10.9674
▁radar	-10.9674
▁regain	-10.9674
▁renata	-10.9674
▁richmond	-10.9674
▁tamara	-10.9674
▁theory	-10.9674
▁trek	-10.9674
▁unpack	-10.9674
▁session	-10.9674
▁sinai	-10.9674
▁spiritual	-10.9674
▁thread	-10.9674
▁wingding	-10.9674
▁yippee	-10.9674
▁axel	-10.9674
▁spectacular	-10.9674
oodoo	-10.9674
▁chancellor	-10.9674
▁dairy	-10.9674
▁miserly	-10.9674
▁teddy	-10.9674
▁whirlpool	-10.9674
▁illegal	-10.9674
▁lilia	-10.9674
▁medium	-10.9674
▁stranded	-10.9674
▁tidings	-10.9674
▁yowls	-10.9674
▁broadcast	-10.9674
▁december	-10.9674
▁gulp	-10.9674
▁nickname	-10.9674
▁squids	-10.9674
▁hydro	-10.9674
▁knowitall	-10.9674
▁clever	-10.9674
arted	-10.9674
▁douglas	-10.9674
▁smack	-10.9674
▁dividing	-10.9674
▁rumbling	-10.9674
▁whirl	-10.9674
olution	-10.9674
▁ashcan	-10.9674
▁litter	-10.9674
▁sweat	-10.9674
▁youtube	-10.9674
▁italy	-10.9674
▁sewing	-10.9674
▁forbid	-10.9674
▁miguelito	-10.9674
▁poiice	-10.9674
▁jib	-10.9674
▁snip	-10.9674
▁tardes	-10.9674
▁albright	-10.9674
▁planner	-10.9674
▁jeez	-10.9674
flavor	-10.9674
▁odor	-10.9674
pistol	-10.9674
▁kidnapping	-10.9674
▁confident	-10.9674
▁milliner	-10.9674
▁discharge	-10.9674
▁evans	-10.9674
▁turtle	-10.9674
▁exalt	-10.9674
▁rubenstein	-10.9674
▁attitude	-10.9674
▁lurk	-10.9674
▁jellyfish	-10.9674
▁ladder	-10.9674
agus	-10.9674
▁subtle	-10.9674
▁scramble	-10.9674
▁stewards	-10.9674
▁surprising	-10.9674
▁yankee	-10.9674
▁donate	-10.9674
▁forsaken	-10.9674
▁willis	-10.9674
▁ashore	-10.9674
▁beware	-10.9674
▁torture	-10.9674
▁blunt	-10.9674
▁maintain	-10.9674
▁pea	-10.9674
▁crump	-10.9674
▁ollie	-10.9674
▁solving	-10.9674
▁fridge	-10.9674
▁tickles	-10.9674
▁hurrah	-10.9674
▁fbi	-10.9674
▁ramir	-10.9674
▁pennant	-10.9674
▁blake	-10.9674
▁crap	-10.9674
▁dots	-10.9674
▁obsession	-10.9674
▁thataway	-10.9674
▁shush	-10.9674
▁airplane	-10.9674
▁instructor	-10.9675
▁misery	-10.9675
▁blond	-10.9675
▁proclaim	-10.9675
▁rudy	-10.9675
▁assess	-10.9675
▁violence	-10.9675
▁ruff	-10.9675
▁gourd	-10.9675
▁hissing	-10.9675
▁courtney	-10.9675
▁michelle	-10.9675
lulu	-10.9675
▁hardware	-10.9675
▁riff	-10.9675
▁tidy	-10.9675
▁loot	-10.9675
▁basis	-10.9675
▁nursery	-10.9675
▁poof	-10.9675
▁superstition	-10.9675
▁dizzi	-10.9675
▁wel	-10.9675
▁cuff	-10.9675
▁judgment	-10.9675
▁clove	-10.9675
▁precedent	-10.9675
▁ltaly	-10.9675
▁selfish	-10.9675
▁display	-10.9675
▁annu	-10.9675
▁niche	-10.9675
▁projection	-10.9675
▁marble	-10.9675
▁raji	-10.9676
▁beak	-10.9676
▁chic	-10.9676
▁eww	-10.9676
▁assignment	-10.9676
▁breast	-10.9676
▁timber	-10.9676
ggle	-10.9676
▁duke	-10.9676
▁buddies	-10.9676
▁bushel	-10.9676
▁reek	-10.9676
▁juice	-10.9676
▁lagoona	-10.9676
▁tasting	-10.9676
▁garage	-10.9676
▁oath	-10.9676
▁oof	-10.9676
▁midian	-10.9676
▁conceal	-10.9676
▁liking	-10.9676
▁mirage	-10.9676
▁shovel	-10.9676
▁cmere	-10.9676
▁grief	-10.9676
▁wages	-10.9676
▁pomp	-10.9676
▁garna	-10.9676
▁edict	-10.9676
▁bench	-10.9677
▁principal	-10.9677
▁inspection	-10.9677
▁attraction	-10.9677
▁furious	-10.9677
▁shook	-10.9677
cu	-10.9677
▁slumber	-10.9677
▁depriv	-10.9677
▁balloon	-10.9677
▁gear	-10.9677
▁cmon	-10.9677
▁commitment	-10.9677
▁rumor	-10.9677
▁household	-10.9677
▁perch	-10.9677
▁lime	-10.9677
▁stakeout	-10.9677
▁strategy	-10.9677
▁russian	-10.9678
▁trophy	-10.9678
▁neu	-10.9678
▁dork	-10.9678
▁annie	-10.9678
▁allergies	-10.9678
▁snowball	-10.9678
▁outline	-10.9678
▁stress	-10.9678
▁acquired	-10.9678
▁representation	-10.9678
▁erase	-10.9679
▁moist	-10.9679
▁marta	-10.9679
▁production	-10.9679
▁jewelry	-10.9679
▁victory	-10.9679
▁raw	-10.9679
▁serpent	-10.9679
▁stripped	-10.9679
▁chump	-10.9679
▁poisonous	-10.9679
▁fabulous	-10.968
▁headmaster	-10.968
▁couch	-10.968
po	-10.968
▁offend	-10.968
▁slice	-10.968
▁mala	-10.968
▁salvation	-10.968
▁comment	-10.968
▁naught	-10.968
hara	-10.968
fivepointeight	-10.968
zane	-10.968
▁stock	-10.9681
▁worldwide	-10.9681
▁decid	-10.9681
▁pacific	-10.9681
▁peek	-10.9681
▁isle	-10.9681
▁condemned	-10.9681
▁runaway	-10.9681
▁background	-10.9681
▁surf	-10.9681
▁shant	-10.9681
▁browse	-10.9681
▁soil	-10.9681
▁okinawan	-10.9682
▁swine	-10.9682
▁chico	-10.9682
▁exit	-10.9682
▁conqueror	-10.9682
▁increasingly	-10.9682
▁religion	-10.9682
▁monty	-10.9683
▁toil	-10.9683
▁helm	-10.9683
▁valid	-10.9683
▁gently	-10.9683
▁salute	-10.9683
▁venus	-10.9683
▁popularity	-10.9683
▁springtime	-10.9683
agn	-10.9684
▁scatter	-10.9684
▁coil	-10.9684
▁shipped	-10.9684
ellen	-10.9684
▁esco	-10.9684
▁dime	-10.9685
▁flaw	-10.9686
▁dedicated	-10.9686
▁scratches	-10.9686
▁brighten	-10.9686
▁dire	-10.9686
mies	-10.9687
▁education	-10.9687
▁vase	-10.9687
▁supper	-10.9687
ancho	-10.9688
shl	-10.9688
▁pone	-10.9688
▁solo	-10.9689
▁bullies	-10.9689
▁swam	-10.9689
▁vine	-10.9689
▁ounce	-10.9689
▁sore	-10.969
▁posters	-10.969
▁equi	-10.969
▁chow	-10.969
▁gim	-10.969
▁symmetry	-10.969
▁treachery	-10.969
▁kay	-10.9691
▁hesitate	-10.9691
▁haha	-10.9691
▁partial	-10.9691
▁sandwiches	-10.9691
▁stur	-10.9691
▁grim	-10.9691
▁batter	-10.9691
▁committee	-10.9692
▁yeow	-10.9692
▁viewers	-10.9692
▁lighthouse	-10.9693
▁embarrassed	-10.9693
▁adopted	-10.9694
▁dough	-10.9694
▁bravery	-10.9694
▁yelled	-10.9694
▁mmhmm	-10.9694
▁james	-10.9695
▁butterfly	-10.9696
▁nun	-10.9697
▁yaps	-10.9697
▁traditional	-10.9697
▁ew	-10.9698
▁sang	-10.9698
▁halfway	-10.9698
▁chime	-10.9698
▁heartbeat	-10.9699
▁reply	-10.9699
▁extremely	-10.9699
▁monta	-10.9699
timer	-10.97
▁flashes	-10.97
▁management	-10.9701
▁varie	-10.9702
▁restored	-10.9702
▁halt	-10.9702
stein	-10.9702
▁distracting	-10.9703
▁rejecting	-10.9703
▁tempting	-10.9703
▁chirping	-10.9703
▁deadline	-10.9704
ermo	-10.9704
▁fry	-10.9704
▁spank	-10.9705
▁brae	-10.9706
▁straighten	-10.9706
▁threatened	-10.9706
▁confronted	-10.9706
▁appointed	-10.9706
▁sway	-10.9706
▁dew	-10.9708
▁companions	-10.9708
▁elements	-10.9708
▁olympics	-10.9708
▁orphans	-10.9708
▁sneezes	-10.9708
▁troops	-10.9708
▁accusations	-10.9708
▁reserves	-10.9708
▁cock	-10.9708
▁conspir	-10.9709
▁buckle	-10.9709
vol	-10.971
▁fir	-10.971
▁wo	-10.9711
▁described	-10.9711
▁successor	-10.9711
az	-10.9712
▁doggie	-10.9714
▁lever	-10.9714
▁engaged	-10.9717
▁defense	-10.9718
▁self	-10.9718
▁regarded	-10.9719
▁punished	-10.9719
▁wiser	-10.9721
▁core	-10.9721
▁fertil	-10.9725
▁discovery	-10.9725
▁mild	-10.9726
avo	-10.9726
▁eco	-10.9727
▁mistaken	-10.9727
▁chin	-10.9732
▁scratched	-10.9732
▁hint	-10.9734
while	-10.9735
▁taik	-10.9735
astic	-10.9736
▁nighttime	-10.9736
▁hooker	-10.9739
▁qualif	-10.974
▁advanced	-10.9741
▁balanced	-10.9741
▁bumped	-10.9745
▁defeated	-10.9745
▁fulfilled	-10.9745
▁mustard	-10.9745
▁jumpin	-10.9747
▁op	-10.9749
▁flatter	-10.9749
▁lotus	-10.9752
▁rank	-10.9754
▁email	-10.9754
▁goldie	-10.9755
▁mare	-10.9756
▁insects	-10.9757
ordinary	-10.9761
▁amy	-10.9761
▁lane	-10.9761
▁leap	-10.9762
▁cheating	-10.9763
▁followers	-10.9764
▁fastest	-10.9765
▁ducklings	-10.9766
▁experiments	-10.9766
▁grapes	-10.9766
▁sheiks	-10.9766
▁stepsisters	-10.9766
▁gorillas	-10.9766
▁spoons	-10.9766
▁skimmers	-10.9767
▁trot	-10.9769
bois	-10.9769
▁intended	-10.977
▁skilled	-10.9773
after	-10.9778
▁sins	-10.9779
erial	-10.978
▁parisa	-10.9782
▁pierc	-10.9783
▁murmured	-10.9783
▁jud	-10.9796
▁thrilled	-10.9796
▁jay	-10.9799
bons	-10.98
▁nervously	-10.9801
▁experienced	-10.9805
▁cryin	-10.9806
▁sen	-10.9808
▁marys	-10.9809
ify	-10.981
▁separated	-10.9813
▁delivery	-10.9817
▁bored	-10.9818
▁nue	-10.9819
▁bearing	-10.9822
▁flowing	-10.9824
▁lease	-10.9826
▁citizens	-10.9827
▁spurs	-10.9827
▁blades	-10.9827
▁sheets	-10.9827
▁res	-10.9828
▁lassie	-10.9829
nch	-10.983
▁fighter	-10.9837
▁gaining	-10.9837
▁maley	-10.9839
▁honesty	-10.9844
▁manure	-10.9846
▁qui	-10.9846
ency	-10.9849
▁survived	-10.9853
▁rams	-10.9855
▁accounting	-10.986
▁billys	-10.9866
▁jamm	-10.9867
▁antiquit	-10.9875
▁depending	-10.9882
emn	-10.9882
▁your	-10.9883
▁fishes	-10.9883
▁gloves	-10.9888
▁ingredients	-10.9888
▁streams	-10.9888
▁knocked	-10.9888
▁cath	-10.9891
▁stored	-10.9893
▁bei	-10.9897
▁any	-10.9898
▁anne	-10.9899
▁expose	-10.9901
▁packed	-10.9906
hales	-10.9916
▁sti	-10.9917
▁skipp	-10.9922
▁sap	-10.9925
▁goat	-10.9927
icken	-10.9931
▁bothering	-10.9935
▁spine	-10.9936
test	-10.9939
▁weary	-10.9942
usion	-10.9944
▁butterfl	-10.9945
▁gy	-10.9946
▁contestants	-10.9949
▁deserted	-10.9953
▁delivered	-10.9954
▁depress	-10.9959
▁bragg	-10.9967
▁liver	-10.997
▁uhh	-10.9976
play	-10.9977
▁gladly	-10.9979
▁helpless	-10.9981
gone	-10.9986
▁ideals	-10.9989
bling	-10.9989
▁shared	-11.0001
▁importantly	-11.0001
▁needle	-11.0002
veal	-11.0003
▁crunch	-11.0004
▁wires	-11.0006
▁knots	-11.001
▁outfits	-11.0011
▁repairs	-11.0011
▁savings	-11.0011
tera	-11.0012
▁pressing	-11.0024
▁lighter	-11.0026
reliable	-11.0029
ages	-11.0035
▁itch	-11.0041
▁the	-11.0045
▁wedd	-11.0045
▁lure	-11.0054
▁gonde	-11.0057
eluded	-11.0058
▁feelin	-11.0071
▁wounds	-11.0072
▁legends	-11.0073
▁tigers	-11.0073
▁compliments	-11.0073
▁suspects	-11.0074
▁wrapp	-11.0075
▁parish	-11.0075
gal	-11.0077
▁laughed	-11.0079
▁sunb	-11.0085
ria	-11.0086
▁pipes	-11.0117
▁callin	-11.0119
▁examin	-11.0125
tering	-11.0126
▁habits	-11.0135
▁feathers	-11.0135
▁girlfriends	-11.0135
▁gardening	-11.0139
▁rays	-11.0147
wwhat	-11.015
▁rowing	-11.0151
▁performing	-11.0153
rie	-11.016
▁fie	-11.0169
▁kissed	-11.0171
▁engineer	-11.0172
lapped	-11.0174
ection	-11.0178
▁tube	-11.0181
▁notch	-11.0188
▁fishy	-11.0191
▁crossing	-11.0192
▁magnets	-11.0198
▁models	-11.0198
▁results	-11.0198
▁shores	-11.0198
tile	-11.0208
ith	-11.0223
▁prisoners	-11.0229
ush	-11.0247
dom	-11.0249
▁sides	-11.025
▁mira	-11.0258
▁magicians	-11.0261
▁concerns	-11.0263
▁cruis	-11.0264
▁accounts	-11.0265
corn	-11.0269
▁pies	-11.0277
▁thoughts	-11.0296
▁protecting	-11.0315
miss	-11.0319
▁grandmothers	-11.0324
▁issues	-11.0324
▁respectful	-11.0325
rk	-11.0329
▁condo	-11.0331
bra	-11.0356
cks	-11.0358
▁trunks	-11.0388
▁recipes	-11.0388
▁af	-11.0406
pac	-11.0443
▁ent	-11.0452
▁signals	-11.0452
▁dar	-11.0465
ening	-11.0484
lus	-11.0485
uit	-11.0488
▁manor	-11.0505
▁worker	-11.0508
▁cakes	-11.0516
gged	-11.0522
tor	-11.0527
▁cas	-11.053
can	-11.0532
itty	-11.0541
▁dip	-11.0549
▁tusks	-11.0581
▁ruins	-11.0584
▁brains	-11.0588
ens	-11.0595
▁mariach	-11.0604
▁bai	-11.0614
und	-11.0622
▁kin	-11.0627
▁forg	-11.0635
▁caress	-11.0636
▁rightful	-11.0637
▁pietr	-11.0651
car	-11.0661
aga	-11.0662
▁chill	-11.0666
▁halls	-11.0671
tches	-11.0673
tel	-11.0682
▁dine	-11.071
▁albums	-11.0711
▁ripe	-11.0725
will	-11.0731
acha	-11.0758
▁cher	-11.0765
▁plains	-11.0776
▁spears	-11.0776
sta	-11.078
▁stags	-11.0782
▁fre	-11.0784
▁sits	-11.0792
▁ku	-11.0838
▁alarms	-11.0842
top	-11.0858
▁easter	-11.0904
▁cells	-11.0906
istic	-11.0908
▁cajellas	-11.0909
▁challenges	-11.0909
uri	-11.0931
▁io	-11.0932
▁hid	-11.0963
but	-11.0972
▁trusting	-11.0989
▁travels	-11.0993
cut	-11.101
air	-11.1012
ox	-11.1025
▁ach	-11.1037
▁findings	-11.1067
▁non	-11.1095
▁dem	-11.11
pper	-11.1107
act	-11.1112
▁landed	-11.1191
ates	-11.1195
▁fran	-11.12
eck	-11.1225
▁isa	-11.1226
▁races	-11.1231
▁bul	-11.1232
▁bikes	-11.1244
▁hearing	-11.1257
▁pu	-11.1276
inner	-11.1277
▁checks	-11.1286
vocat	-11.129
▁verse	-11.1301
rill	-11.1306
rig	-11.131
▁trucks	-11.1312
stan	-11.1319
ives	-11.1332
rus	-11.1352
▁tens	-11.1353
▁sauces	-11.138
▁bottoms	-11.1381
lly	-11.1415
▁controll	-11.1437
▁sou	-11.1447
▁aco	-11.1468
angle	-11.147
▁sn	-11.1494
▁breaks	-11.1505
▁com	-11.1517
▁baskets	-11.1519
▁bee	-11.1525
▁sparkle	-11.1533
long	-11.1568
▁batt	-11.1569
pkin	-11.157
▁ph	-11.1575
away	-11.1592
▁rec	-11.1594
▁iso	-11.1595
lation	-11.1604
poly	-11.1615
cord	-11.1638
▁ram	-11.1657
▁roses	-11.1661
▁par	-11.1669
isis	-11.1676
conn	-11.1699
ative	-11.1706
▁yeii	-11.172
som	-11.1722
▁cl	-11.1727
▁chances	-11.1732
▁curl	-11.1742
▁fits	-11.1799
uga	-11.1803
▁replac	-11.1814
ndy	-11.1818
▁for	-11.1824
cycle	-11.1879
▁acts	-11.1888
▁spa	-11.1913
▁spr	-11.1919
▁prima	-11.1922
nal	-11.1926
▁blues	-11.1928
▁rrr	-11.1964
self	-11.1965
aying	-11.2009
▁landing	-11.2014
▁craz	-11.2039
▁qua	-11.2039
▁tap	-11.2049
▁teachers	-11.206
cle	-11.2082
fo	-11.2088
▁tapa	-11.2097
▁hast	-11.2099
▁poles	-11.2114
▁mace	-11.213
▁fer	-11.2131
ido	-11.215
covered	-11.2159
otto	-11.2164
▁ages	-11.2165
▁sanc	-11.2173
▁plays	-11.2201
▁explode	-11.221
pee	-11.2213
▁smash	-11.2218
▁rep	-11.2226
py	-11.2238
sighing	-11.2239
rad	-11.2258
iem	-11.2267
▁anti	-11.2279
▁forge	-11.2285
eith	-11.2294
▁div	-11.2297
▁senses	-11.23
eams	-11.2306
tha	-11.2319
nny	-11.2324
nah	-11.2329
▁bev	-11.2334
▁att	-11.2336
▁calculat	-11.2343
▁mir	-11.2354
eii	-11.2355
▁penal	-11.2375
ffle	-11.2378
thy	-11.2385
▁statu	-11.2394
kate	-11.2407
▁blueberr	-11.2408
ander	-11.2409
ugged	-11.2419
▁tra	-11.243
▁fortunate	-11.243
uck	-11.2452
▁hm	-11.2455
▁rei	-11.2483
▁pot	-11.2485
iness	-11.2504
bella	-11.2506
mar	-11.2512
▁ga	-11.2514
series	-11.2533
hood	-11.2538
▁rug	-11.2544
▁ev	-11.2548
tery	-11.2549
▁bre	-11.2554
▁cai	-11.2559
▁ken	-11.2616
yn	-11.2621
zar	-11.2627
gen	-11.2631
▁sniff	-11.2653
▁tables	-11.2676
erlo	-11.2697
otic	-11.2698
▁elevate	-11.2703
▁driftin	-11.2705
ories	-11.2708
▁diab	-11.2714
▁phon	-11.2716
▁porc	-11.2724
▁expos	-11.2731
▁rot	-11.2739
nies	-11.274
▁mari	-11.2747
mental	-11.2773
▁squeak	-11.2782
ound	-11.2783
bon	-11.2786
▁criminal	-11.2788
▁survivor	-11.2788
▁cowboy	-11.2789
▁flock	-11.2792
▁et	-11.2797
▁citizen	-11.2798
ita	-11.28
▁blade	-11.2801
▁spur	-11.2803
▁hib	-11.2804
▁root	-11.2807
▁smoothie	-11.2809
▁predator	-11.281
▁demon	-11.2812
▁orca	-11.2812
▁instruction	-11.2813
▁sheet	-11.2813
▁scientist	-11.2815
▁ama	-11.2816
▁fanta	-11.2816
▁circumstance	-11.2818
▁degree	-11.2819
▁folk	-11.282
▁stair	-11.282
amin	-11.2821
▁sock	-11.2823
▁rib	-11.2824
uda	-11.2831
▁uph	-11.2839
▁sucker	-11.2843
wash	-11.2847
▁fac	-11.2852
mmer	-11.2874
▁triple	-11.2876
ister	-11.2877
▁administ	-11.2884
▁trim	-11.2898
lift	-11.29
tubb	-11.2902
gling	-11.2903
▁flood	-11.2904
logy	-11.2909
lai	-11.2914
▁orang	-11.2915
▁sca	-11.2918
fia	-11.2922
▁interact	-11.2924
▁retreat	-11.293
▁increas	-11.2931
▁smuggl	-11.2931
▁snoop	-11.2932
▁ange	-11.2933
ator	-11.2933
▁yelp	-11.2938
▁origin	-11.2941
▁improv	-11.2942
▁mock	-11.2949
▁gener	-11.2952
▁hem	-11.2952
▁refus	-11.2953
▁rais	-11.2954
▁establish	-11.2954
▁suppos	-11.2955
▁attract	-11.2955
▁clip	-11.2955
▁employ	-11.2956
▁celebr	-11.2956
▁appoint	-11.2957
▁flush	-11.2958
born	-11.2959
▁betray	-11.296
▁confront	-11.2962
▁soci	-11.2962
ucking	-11.2962
▁impress	-11.2963
lum	-11.2963
▁sacr	-11.2965
▁cement	-11.2965
ators	-11.2967
▁dismiss	-11.2967
▁gran	-11.2967
brace	-11.2969
married	-11.2969
lip	-11.297
bound	-11.2971
inted	-11.2971
bugs	-11.2971
park	-11.2971
prints	-11.2972
bird	-11.2972
grim	-11.2973
flowing	-11.2973
worm	-11.2973
master	-11.2973
national	-11.2973
▁frighten	-11.2974
protected	-11.2974
vision	-11.2975
boat	-11.2975
skull	-11.2976
talk	-11.2976
break	-11.2976
shift	-11.2976
bread	-11.2976
fashion	-11.2976
storm	-11.2977
walk	-11.2977
justice	-11.2977
fire	-11.2978
type	-11.2979
case	-11.2979
hair	-11.2979
force	-11.298
royal	-11.298
flying	-11.298
here	-11.298
▁snuff	-11.298
forth	-11.298
▁scoot	-11.2981
▁shots	-11.2981
life	-11.2981
lucky	-11.2982
fold	-11.2982
trollin	-11.2983
▁inspire	-11.2984
▁treacher	-11.2984
▁symmetr	-11.2984
unless	-11.2984
lyn	-11.2984
▁assemble	-11.2985
▁accuse	-11.2985
bank	-11.2985
bow	-11.2985
▁wond	-11.2986
shape	-11.2987
▁deceive	-11.2987
acas	-11.2988
elled	-11.2989
mile	-11.299
▁guilt	-11.2992
▁react	-11.2992
▁atmospher	-11.2993
▁boar	-11.2993
▁threaten	-11.2993
stone	-11.2993
ife	-11.2994
▁numb	-11.2995
wind	-11.2995
▁snob	-11.2995
▁esp	-11.2996
wave	-11.2996
hall	-11.2997
tag	-11.2997
▁tuck	-11.2997
bis	-11.2998
▁potato	-11.2998
▁rust	-11.2998
tyl	-11.2998
▁chris	-11.2999
▁inspect	-11.2999
▁pendrago	-11.2999
opher	-11.3001
gible	-11.3003
▁process	-11.3003
▁germa	-11.3003
izz	-11.3004
▁gymnast	-11.3004
cogni	-11.3004
lost	-11.3004
▁toot	-11.3004
mpressive	-11.3004
▁likin	-11.3005
▁domini	-11.3005
▁leavin	-11.3005
▁movin	-11.3005
▁luci	-11.3005
▁sneakin	-11.3005
▁dang	-11.3006
ifornia	-11.3006
▁violen	-11.3006
▁scram	-11.3007
▁jelly	-11.3007
titude	-11.3007
▁cigar	-11.3007
▁babysit	-11.3007
normous	-11.3007
ochka	-11.3007
ucci	-11.3007
▁accommodation	-11.3007
▁accustomed	-11.3007
▁activities	-11.3007
▁aggressive	-11.3007
▁angrily	-11.3007
▁anthropomorphi	-11.3007
▁archangel	-11.3007
▁arguing	-11.3007
▁aristocrat	-11.3007
▁arithmetic	-11.3007
▁august	-11.3007
▁balboa	-11.3007
▁balcony	-11.3007
▁banished	-11.3007
▁barnett	-11.3007
▁beautifui	-11.3007
▁believing	-11.3007
▁blanc	-11.3007
▁bolognese	-11.3007
▁bygones	-11.3007
▁caravan	-11.3007
▁carolsfeld	-11.3007
▁catacombs	-11.3007
▁commend	-11.3007
▁communication	-11.3007
▁comparison	-11.3007
▁compromis	-11.3007
▁comrades	-11.3007
▁conclude	-11.3007
▁conclusion	-11.3007
▁condolences	-11.3007
▁conquest	-11.3007
▁convenience	-11.3007
▁counterpart	-11.3007
▁crossroads	-11.3007
▁curtsy	-11.3007
▁decipher	-11.3007
▁decorations	-11.3007
▁demographic	-11.3007
▁deputies	-11.3007
▁descended	-11.3007
▁despair	-11.3007
▁destination	-11.3007
▁detention	-11.3007
▁dispatch	-11.3007
▁distress	-11.3007
▁divorce	-11.3007
▁donations	-11.3007
▁doubie	-11.3007
▁doublecross	-11.3007
▁eavesdrop	-11.3007
▁eggshell	-11.3007
▁elidorus	-11.3007
▁eliminate	-11.3007
▁emphatically	-11.3007
▁encounter	-11.3007
▁enlist	-11.3007
▁enthusiasm	-11.3007
▁entitled	-11.3007
▁eugenia	-11.3007
▁exaggerate	-11.3007
▁fabric	-11.3007
▁fencing	-11.3007
▁fiftyfifty	-11.3007
▁foretold	-11.3007
▁frascati	-11.3007
▁genuine	-11.3007
▁geronim	-11.3007
▁gertrude	-11.3007
▁gigantic	-11.3007
▁gordon	-11.3007
▁gradual	-11.3007
▁granaries	-11.3007
▁granola	-11.3007
▁grassroots	-11.3007
▁gratitude	-11.3007
▁gregory	-11.3007
▁handkerchief	-11.3007
▁heiicopter	-11.3007
▁humbly	-11.3007
▁iadder	-11.3007
▁inclined	-11.3007
▁insecure	-11.3007
▁instrument	-11.3007
▁insured	-11.3007
▁irritating	-11.3007
▁jeremiah	-11.3007
▁kabob	-11.3007
▁kelvin	-11.3007
▁knob	-11.3007
▁located	-11.3007
▁luau	-11.3007
▁macaque	-11.3007
▁maclntosh	-11.3007
▁madonna	-11.3007
▁mandarin	-11.3007
▁midmorni	-11.3007
▁millemiglia	-11.3007
▁mineowners	-11.3007
▁mischievously	-11.3007
▁mongrel	-11.3007
▁motorbike	-11.3007
▁multiply	-11.3007
▁munchkin	-11.3007
▁ndelas	-11.3007
▁neanderthal	-11.3007
▁neigh	-11.3007
▁neighbour	-11.3007
▁newspaper	-11.3007
▁nicholas	-11.3007
▁nonstop	-11.3007
▁nuttiness	-11.3007
▁obiivious	-11.3007
▁okavango	-11.3007
▁outrun	-11.3007
▁pajamas	-11.3007
▁parliament	-11.3007
▁parrot	-11.3007
▁patrol	-11.3007
▁pavarotti	-11.3007
▁percent	-11.3007
▁piranha	-11.3007
▁porridge	-11.3007
▁possibilities	-11.3007
▁precaution	-11.3007
▁preposterous	-11.3007
▁proposal	-11.3007
▁pucker	-11.3007
▁pussycat	-11.3007
▁ravishing	-11.3007
▁rebuild	-11.3007
▁richieboy	-11.3007
▁ritual	-11.3007
▁roanoke	-11.3007
▁rupert	-11.3007
▁saucepan	-11.3007
▁scherzinger	-11.3007
▁scoundrel	-11.3007
▁screw	-11.3007
▁secrecy	-11.3007
▁shalimar	-11.3007
▁shriek	-11.3007
▁shrine	-11.3007
▁shroud	-11.3007
▁sicilian	-11.3007
▁sidewinder	-11.3007
▁souvenir	-11.3007
▁splendor	-11.3007
▁squirm	-11.3007
▁straggler	-11.3007
▁sultan	-11.3007
▁sunraider	-11.3007
▁superconduct	-11.3007
▁supuecio	-11.3007
▁surgery	-11.3007
▁suspicion	-11.3007
▁switzerland	-11.3007
▁tabloid	-11.3007
▁telegram	-11.3007
▁terrace	-11.3007
▁thoroughbred	-11.3007
▁trembling	-11.3007
▁trespass	-11.3007
▁twitch	-11.3007
▁unbroken	-11.3007
▁unnatural	-11.3007
▁unprecedented	-11.3007
▁uproot	-11.3007
▁vulnerable	-11.3007
▁webcam	-11.3007
▁withdraw	-11.3007
▁worries	-11.3007
▁yuan	-11.3007
▁zuwa	-11.3007
▁federation	-11.3007
▁maneuver	-11.3007
▁negotiat	-11.3007
▁ogre	-11.3007
▁ravenous	-11.3007
▁refuge	-11.3007
▁rhinoceros	-11.3007
▁sexual	-11.3007
▁sketch	-11.3007
▁stamped	-11.3007
▁sustain	-11.3007
▁tremble	-11.3007
▁tremendous	-11.3007
▁virtu	-11.3007
▁warrior	-11.3007
▁zulu	-11.3007
▁adios	-11.3007
▁arnie	-11.3007
▁bartlett	-11.3007
▁beiieve	-11.3007
▁carpet	-11.3007
▁damien	-11.3007
▁gamekeeper	-11.3007
▁inferior	-11.3007
▁overseer	-11.3007
▁rattling	-11.3007
▁sarah	-11.3007
▁tammo	-11.3007
▁terence	-11.3007
▁theater	-11.3007
▁traitor	-11.3007
▁troublemaker	-11.3007
▁tyrant	-11.3007
▁abyss	-11.3007
▁bateson	-11.3007
▁ciean	-11.3007
▁monsoon	-11.3007
▁mortal	-11.3007
▁permanent	-11.3007
▁sermon	-11.3007
▁shipmate	-11.3007
▁sovereign	-11.3007
▁stench	-11.3007
▁stomp	-11.3007
▁therap	-11.3007
▁thrive	-11.3007
▁zero	-11.3007
conscious	-11.3007
▁blew	-11.3007
▁buyaka	-11.3007
▁decades	-11.3007
▁disintegrat	-11.3007
▁lizzie	-11.3007
▁oaf	-11.3007
▁termites	-11.3007
▁analysis	-11.3007
▁frisco	-11.3007
▁iake	-11.3007
▁jeffrey	-11.3007
▁ooph	-11.3007
▁pamper	-11.3007
▁superior	-11.3007
▁unarmed	-11.3007
▁unveil	-11.3007
▁earrings	-11.3007
▁exceed	-11.3007
▁halyard	-11.3007
▁possibility	-11.3007
▁slit	-11.3007
▁titi	-11.3007
▁approve	-11.3007
▁memorize	-11.3007
▁shiver	-11.3007
ukraine	-11.3007
▁cuckold	-11.3007
▁fuzz	-11.3007
▁snarls	-11.3007
▁providence	-11.3007
▁alpha	-11.3007
▁automation	-11.3007
▁grind	-11.3007
▁presley	-11.3007
▁slay	-11.3007
▁squirt	-11.3007
▁uran	-11.3007
▁croak	-11.3007
▁reef	-11.3007
▁symbol	-11.3007
▁gomez	-11.3007
▁lipstick	-11.3007
▁wrestl	-11.3007
▁axis	-11.3007
▁purse	-11.3007
▁saad	-11.3007
▁toad	-11.3007
▁countdowns	-11.3007
▁distractions	-11.3007
▁wizard	-11.3007
▁sleeves	-11.3007
▁zayn	-11.3007
▁ninas	-11.3007
▁underworld	-11.3007
▁evolution	-11.3007
▁flamingos	-11.3007
▁lattes	-11.3007
▁naples	-11.3007
▁curtain	-11.3007
▁sprinkl	-11.3007
▁obtain	-11.3007
▁carrot	-11.3007
▁fumble	-11.3007
▁abide	-11.3007
▁milady	-11.3007
▁initiative	-11.3007
▁excessive	-11.3007
▁pillar	-11.3007
▁resemblance	-11.3007
▁column	-11.3007
▁discour	-11.3007
▁virginia	-11.3007
▁backyard	-11.3008
▁gidd	-11.3008
▁yuck	-11.3008
▁ignoring	-11.3008
▁achua	-11.3008
▁lhc	-11.3008
▁breach	-11.3008
▁spray	-11.3008
▁website	-11.3008
▁senora	-11.3008
▁coloni	-11.3008
▁panther	-11.3008
▁yummy	-11.3008
▁logical	-11.3008
▁captivity	-11.3008
▁nobility	-11.3008
▁reggie	-11.3008
▁archaeologist	-11.3008
▁hunch	-11.3008
▁heiress	-11.3008
▁snowflake	-11.3008
▁multi	-11.3008
▁whims	-11.3008
▁intelligent	-11.3008
▁tutor	-11.3008
▁guts	-11.3008
edible	-11.3008
▁sleepyhead	-11.3008
▁physicist	-11.3008
▁loire	-11.3008
▁ooooh	-11.3008
▁corruption	-11.3008
▁dentist	-11.3008
▁squabbl	-11.3008
▁rubbish	-11.3008
▁disposition	-11.3008
▁gallop	-11.3008
▁passageways	-11.3008
▁congress	-11.3008
▁bartle	-11.3008
▁ungrateful	-11.3008
▁snive	-11.3008
▁galax	-11.3008
▁charade	-11.3008
▁password	-11.3008
▁albert	-11.3008
▁plaster	-11.3008
renown	-11.3008
▁nickel	-11.3008
▁awakened	-11.3008
▁sightseeing	-11.3009
▁quote	-11.3009
▁poker	-11.3009
▁venom	-11.3009
▁youknowwho	-11.3009
▁fluid	-11.3009
▁unheard	-11.3009
▁meatball	-11.3009
▁envision	-11.3009
▁dope	-11.3009
▁existence	-11.3009
▁spike	-11.3009
▁ability	-11.3009
▁concretion	-11.3009
▁leather	-11.3009
▁crumb	-11.3009
▁organization	-11.3009
▁riddle	-11.3009
▁vivi	-11.3009
▁baseball	-11.3009
▁stifl	-11.3009
▁belch	-11.3009
▁cherish	-11.3009
▁bribe	-11.3009
▁fishermen	-11.3009
▁consist	-11.3009
▁fuel	-11.3009
▁independence	-11.3009
shma	-11.3009
▁popcorn	-11.3009
▁logs	-11.3009
▁bacon	-11.3009
▁paskat	-11.3009
▁disarm	-11.301
▁devotion	-11.301
▁plunge	-11.301
▁aaaah	-11.301
▁pouch	-11.301
▁vul	-11.301
▁nick	-11.301
▁gaunt	-11.301
▁upside	-11.301
▁ash	-11.301
▁krill	-11.301
▁bracelet	-11.301
▁snuffle	-11.301
▁seafar	-11.301
▁recogni	-11.301
▁zap	-11.301
▁lovin	-11.301
▁scheme	-11.301
▁revenge	-11.301
▁paddlers	-11.301
▁golddigger	-11.301
▁unsuitable	-11.3011
▁corpse	-11.3011
▁andrew	-11.3011
▁gymnastic	-11.3011
▁vamp	-11.3011
▁dammit	-11.3011
▁adjust	-11.3011
▁streetcar	-11.3011
voir	-11.3011
▁jose	-11.3011
▁persuade	-11.3011
▁axelle	-11.3011
▁iost	-11.3011
▁chatting	-11.3011
▁tangle	-11.3011
▁additio	-11.3011
▁pooch	-11.3011
gress	-11.3011
▁lipsync	-11.3011
▁petting	-11.3011
▁bugle	-11.3011
▁psycho	-11.3011
▁financ	-11.3011
▁accidentally	-11.3011
▁dynamic	-11.3011
▁chlo	-11.3012
▁cordi	-11.3012
▁procession	-11.3012
▁mammal	-11.3012
▁grill	-11.3012
▁explorers	-11.3012
▁ramp	-11.3012
▁daft	-11.3012
▁valet	-11.3012
▁surp	-11.3012
▁protest	-11.3012
▁twombley	-11.3012
ipulat	-11.3012
burgh	-11.3012
▁grease	-11.3012
▁grizzly	-11.3013
▁blaz	-11.3013
▁scur	-11.3013
hole	-11.3013
▁assist	-11.3013
▁travelled	-11.3013
▁fresnes	-11.3013
▁whoosh	-11.3013
▁diviners	-11.3013
▁travelling	-11.3013
▁preca	-11.3013
▁reverend	-11.3014
▁overall	-11.3014
▁frazer	-11.3014
▁qi	-11.3014
▁rogue	-11.3014
▁stardom	-11.3014
▁rebellion	-11.3014
nut	-11.3014
▁funding	-11.3014
▁fivepoint	-11.3014
▁stalk	-11.3015
▁festiv	-11.3015
▁iock	-11.3015
▁waist	-11.3015
▁batch	-11.3015
▁omelet	-11.3015
▁capone	-11.3015
▁occur	-11.3015
▁decorating	-11.3015
▁inhabited	-11.3015
▁daisy	-11.3015
▁toxic	-11.3015
▁oblige	-11.3015
▁sieep	-11.3015
▁robbing	-11.3015
▁kirk	-11.3015
▁manual	-11.3015
▁commissioner	-11.3015
▁revolution	-11.3015
▁tiju	-11.3015
▁winged	-11.3016
▁fiat	-11.3016
▁iowa	-11.3016
▁rhe	-11.3016
▁enforce	-11.3016
▁refine	-11.3016
▁renew	-11.3016
▁athlete	-11.3016
▁glide	-11.3016
▁siege	-11.3016
▁shack	-11.3016
▁wax	-11.3017
▁deten	-11.3017
▁cease	-11.3017
▁betterthan	-11.3017
▁heii	-11.3017
▁ashes	-11.3017
▁sherry	-11.3017
▁inches	-11.3017
▁reunited	-11.3018
▁nurse	-11.3018
▁their	-11.3018
rient	-11.3018
▁rev	-11.3018
▁relation	-11.3018
shield	-11.3018
▁hohle	-11.3018
▁scarf	-11.3018
▁development	-11.3018
▁mold	-11.3018
▁eric	-11.3018
▁midst	-11.3019
▁moose	-11.3019
▁dep	-11.3019
▁trickster	-11.3019
▁chunk	-11.3019
▁nappy	-11.302
▁convention	-11.302
▁farther	-11.302
ndra	-11.302
▁armand	-11.302
▁jess	-11.302
▁minor	-11.302
▁pitt	-11.302
▁testicle	-11.3021
rang	-11.3021
izer	-11.3021
▁grimes	-11.3021
lsey	-11.3021
▁frost	-11.3021
▁nomin	-11.3021
▁selection	-11.3021
▁boulder	-11.3021
▁hometown	-11.3021
▁ridge	-11.3021
▁slee	-11.3021
▁squat	-11.3022
▁ballroom	-11.3022
▁tote	-11.3022
been	-11.3022
▁cranky	-11.3022
▁grumpy	-11.3022
▁everyday	-11.3022
▁whinny	-11.3022
▁graceful	-11.3022
▁luo	-11.3022
▁sprin	-11.3022
▁apply	-11.3022
teen	-11.3023
▁astonishing	-11.3023
▁versa	-11.3023
▁honourable	-11.3023
▁contender	-11.3023
isk	-11.3024
▁carefree	-11.3024
▁punk	-11.3024
▁ascend	-11.3025
▁stripes	-11.3025
▁echoes	-11.3025
▁millimeter	-11.3025
▁casa	-11.3025
▁baff	-11.3025
▁rump	-11.3025
▁referr	-11.3025
▁mobo	-11.3025
nik	-11.3026
▁vega	-11.3026
emper	-11.3026
▁zipp	-11.3026
▁lamb	-11.3027
▁hock	-11.3027
▁bop	-11.3027
▁ceo	-11.3027
▁igno	-11.3027
▁soar	-11.3028
▁wanderin	-11.3028
▁murderous	-11.3028
▁weaken	-11.3028
▁willin	-11.3028
▁encourage	-11.3029
extinct	-11.3029
▁edit	-11.303
▁francs	-11.303
▁copy	-11.3031
▁succession	-11.3031
▁snuffy	-11.3031
▁salary	-11.3031
▁crop	-11.3032
acker	-11.3032
▁legit	-11.3032
▁marina	-11.3032
▁jet	-11.3033
▁critical	-11.3033
▁carbon	-11.3034
▁shutting	-11.3034
▁doggy	-11.3035
▁math	-11.3035
▁omit	-11.3035
▁mechanical	-11.3035
▁associated	-11.3035
▁sheer	-11.3036
▁villagers	-11.3036
▁organized	-11.3037
ammit	-11.3037
▁bass	-11.3038
▁pail	-11.3038
▁fashionable	-11.3039
▁vow	-11.3039
▁specialist	-11.3039
▁sling	-11.3039
▁cure	-11.304
▁beatle	-11.304
▁burnt	-11.304
▁amuse	-11.304
▁error	-11.304
ggage	-11.304
▁melody	-11.3041
▁fist	-11.3041
tops	-11.3041
▁studyin	-11.3042
day	-11.3042
▁hopewell	-11.3042
▁vest	-11.3042
▁shatter	-11.3043
▁christen	-11.3043
▁tease	-11.3043
▁dement	-11.3044
▁inch	-11.3044
▁juli	-11.3045
▁worthless	-11.3045
▁hono	-11.3045
▁bent	-11.3046
▁brake	-11.3047
▁personne	-11.3047
▁preserved	-11.3048
▁bil	-11.3048
▁nanny	-11.3048
▁sitter	-11.3048
ernation	-11.3049
▁mourning	-11.305
▁romeo	-11.305
▁entertaining	-11.305
▁prope	-11.305
▁advertise	-11.305
▁pancake	-11.3051
▁blo	-11.3051
▁sche	-11.3052
essa	-11.3052
▁unch	-11.3053
▁mantel	-11.3053
▁amongst	-11.3054
▁figurine	-11.3054
▁requirement	-11.3054
▁ached	-11.3054
colour	-11.3054
▁betrayed	-11.3054
▁cemented	-11.3054
▁attracted	-11.3054
later	-11.3055
▁latch	-11.3055
▁hoof	-11.3056
ographer	-11.3056
▁cockroach	-11.3056
▁nipper	-11.3056
▁beginners	-11.3057
▁blisters	-11.3057
▁patterns	-11.3057
▁residents	-11.3057
▁rhinos	-11.3057
▁snares	-11.3057
▁robbers	-11.3057
▁rumbles	-11.3057
▁contribut	-11.3057
▁creaks	-11.3057
▁wool	-11.3057
▁hick	-11.3057
▁royalty	-11.3057
▁reassign	-11.3057
▁historic	-11.3058
▁teenager	-11.3059
mation	-11.306
elders	-11.306
▁flutter	-11.306
▁hobb	-11.306
book	-11.3061
tolerable	-11.3061
osity	-11.3061
▁stewar	-11.3061
▁hike	-11.3063
▁roaster	-11.3064
▁deceived	-11.3065
▁preten	-11.3066
▁mora	-11.3067
▁but	-11.3068
ckles	-11.3068
▁homework	-11.307
▁rig	-11.307
▁jammed	-11.3073
▁tossed	-11.3073
mere	-11.3073
▁shocked	-11.3073
inson	-11.3075
▁cutie	-11.3076
▁smashed	-11.3077
▁yelping	-11.3077
▁mocking	-11.3077
▁whisky	-11.308
▁formation	-11.308
alah	-11.3081
▁why	-11.3083
▁merci	-11.3083
operate	-11.3083
▁desperately	-11.3085
▁positively	-11.3085
▁takeoff	-11.3086
▁shaken	-11.3088
ustic	-11.3088
▁truthful	-11.309
sque	-11.309
▁emanati	-11.3091
▁overhear	-11.3091
▁nailed	-11.3091
▁invested	-11.3091
▁abandoned	-11.3092
▁departed	-11.3092
▁frustrat	-11.3092
▁loosen	-11.3092
pie	-11.3093
▁alb	-11.3093
▁heron	-11.3095
sione	-11.3095
▁nor	-11.3096
witte	-11.3096
▁sniffl	-11.3096
▁foxes	-11.3096
▁sann	-11.3096
alry	-11.3097
▁reasonable	-11.31
▁engineering	-11.3101
▁hog	-11.3101
▁friendlie	-11.3103
erits	-11.3104
▁hottie	-11.3104
▁aide	-11.3106
▁recognized	-11.3106
▁scheduled	-11.3106
▁cling	-11.3107
▁fireman	-11.3108
▁foo	-11.3108
horn	-11.3108
▁sass	-11.311
▁furn	-11.3114
▁forgiven	-11.3116
▁sellin	-11.3116
▁farthe	-11.3117
▁meantime	-11.3118
▁bucket	-11.3119
▁coal	-11.3124
▁lsa	-11.3124
▁joyous	-11.3124
ney	-11.3125
▁golar	-11.3127
cet	-11.3128
▁coll	-11.3128
▁provided	-11.3129
▁kosher	-11.3129
▁scan	-11.3129
▁ignored	-11.313
▁cove	-11.3133
▁scatt	-11.3135
▁accomplished	-11.3138
▁ez	-11.3142
▁stables	-11.3142
▁rivals	-11.3142
▁cabooses	-11.3142
▁competitors	-11.3142
▁consequences	-11.3142
▁standards	-11.3142
▁cigarettes	-11.3142
▁persians	-11.3142
▁claws	-11.3144
▁insubordinat	-11.3147
▁delayed	-11.3148
▁blended	-11.3148
▁disturbed	-11.3149
▁burned	-11.3154
ht	-11.3157
▁sunk	-11.3158
▁fedora	-11.316
▁masa	-11.316
▁singin	-11.316
▁splashing	-11.3161
working	-11.3163
mist	-11.3165
▁poured	-11.3166
▁lung	-11.3166
lis	-11.3167
yeyed	-11.3169
▁wonderin	-11.317
▁minu	-11.3171
▁tons	-11.3171
▁sel	-11.3175
▁taller	-11.3176
▁bugs	-11.3179
▁anth	-11.3181
▁landers	-11.3181
quinn	-11.3183
▁tighter	-11.3184
▁hothead	-11.3186
libert	-11.3186
▁dei	-11.3186
▁fainted	-11.3187
▁freshen	-11.3188
▁rum	-11.3188
▁generate	-11.3192
▁webs	-11.3193
nterpol	-11.3194
wee	-11.32
▁heartless	-11.32
trait	-11.3204
▁marryin	-11.3208
▁whoah	-11.3213
▁cops	-11.3215
▁gunfighter	-11.3215
skirt	-11.3216
thing	-11.322
umb	-11.3222
▁discovering	-11.3223
▁mixed	-11.3224
▁drawings	-11.323
▁cowboys	-11.3231
▁criminals	-11.3231
▁survivors	-11.3231
▁flocks	-11.3231
▁demons	-11.3232
amba	-11.3235
▁portion	-11.3235
dia	-11.3241
▁focused	-11.3243
bed	-11.3244
▁crane	-11.3244
▁lap	-11.325
▁handful	-11.3258
they	-11.326
▁popp	-11.3267
ikk	-11.327
▁sno	-11.3273
vaga	-11.3274
▁spar	-11.3275
▁inc	-11.3279
pants	-11.3287
min	-11.3288
▁creativ	-11.3288
▁mexic	-11.3296
▁misunderstand	-11.3301
▁tilt	-11.3301
▁granted	-11.3302
▁rolled	-11.3303
▁roasting	-11.3303
▁disappearing	-11.3304
▁demanded	-11.3305
elves	-11.3306
▁drawing	-11.3311
▁drift	-11.3318
▁pai	-11.3319
▁wipes	-11.332
▁cornered	-11.332
▁overd	-11.332
▁borders	-11.332
▁misfortunes	-11.332
▁reputations	-11.332
▁footprints	-11.3323
▁earned	-11.3325
▁reported	-11.3327
▁smiled	-11.3334
▁playin	-11.3336
▁persisten	-11.3339
▁guer	-11.3343
▁tricked	-11.3347
▁exten	-11.3352
▁harmed	-11.3359
▁drowning	-11.3361
nuck	-11.3364
▁bold	-11.3365
▁bella	-11.3368
▁cater	-11.337
▁exceptional	-11.3376
▁ration	-11.3378
▁presently	-11.3386
▁aiming	-11.339
▁tested	-11.3399
▁diamonds	-11.3411
▁emotions	-11.3411
▁materials	-11.3411
▁slaps	-11.3411
fficient	-11.3414
ettes	-11.3414
▁dreamt	-11.3415
▁coaching	-11.3419
ishing	-11.342
▁gathering	-11.342
▁cookies	-11.342
▁categor	-11.3421
▁hacks	-11.3422
▁treating	-11.3427
▁climbed	-11.3436
▁championship	-11.3444
▁trampl	-11.3445
▁teen	-11.3452
▁menus	-11.3455
▁discoverer	-11.3462
wag	-11.3467
ions	-11.3472
teau	-11.3472
▁eatin	-11.3475
▁suggesting	-11.3477
▁slipp	-11.3483
▁pic	-11.3487
▁foundation	-11.3501
▁peanuts	-11.3502
▁techniques	-11.3502
▁basics	-11.3502
▁blankets	-11.3502
▁packing	-11.3517
ldest	-11.3527
▁caii	-11.3527
rping	-11.3534
pen	-11.3535
▁fled	-11.3536
▁mania	-11.3538
rene	-11.3545
make	-11.3567
rash	-11.357
works	-11.3571
▁remaining	-11.3573
▁vik	-11.3581
▁gov	-11.3589
▁spices	-11.3592
▁relatives	-11.3594
▁crystals	-11.3594
▁quarters	-11.3595
▁testing	-11.3595
▁chains	-11.3596
▁uncover	-11.3598
▁pages	-11.36
▁cop	-11.3609
▁caps	-11.3612
skate	-11.3624
▁lce	-11.3637
▁executi	-11.3639
iding	-11.3645
▁commanded	-11.3666
oon	-11.3666
▁acted	-11.3673
▁und	-11.3675
▁jokes	-11.3677
▁stinks	-11.368
▁scenes	-11.3687
▁undertak	-11.3691
▁holdin	-11.3698
uffle	-11.3704
thank	-11.3704
▁predict	-11.3719
▁ami	-11.3722
▁hu	-11.3724
▁nos	-11.3727
ppe	-11.3733
oyalty	-11.3741
arian	-11.3747
▁workers	-11.3748
zers	-11.375
ought	-11.3765
▁meters	-11.3769
mas	-11.378
▁tropics	-11.378
▁tractors	-11.3781
▁jennys	-11.3781
▁friendships	-11.3781
▁egyptians	-11.3781
▁connections	-11.3781
▁abs	-11.3795
ager	-11.3797
▁lac	-11.3812
▁corr	-11.3814
▁ban	-11.3825
▁scores	-11.3867
imony	-11.3871
thats	-11.3872
▁soaps	-11.3875
▁nightmares	-11.3875
▁eagles	-11.3875
cted	-11.3875
▁recess	-11.3877
see	-11.3889
razier	-11.3896
▁realms	-11.39
▁dent	-11.3907
▁rebell	-11.3911
▁lowing	-11.3914
bogo	-11.3928
▁dreamy	-11.3929
▁bros	-11.3932
ide	-11.3937
whats	-11.3946
▁broad	-11.395
▁hier	-11.3952
▁fr	-11.3961
▁programs	-11.397
▁boarded	-11.397
very	-11.3971
▁swords	-11.3971
peck	-11.3979
lights	-11.3983
▁bubbles	-11.3985
▁arr	-11.4055
ford	-11.4064
▁shifts	-11.4065
▁decisions	-11.4066
nne	-11.4066
▁kar	-11.4079
▁oni	-11.4081
▁skip	-11.4091
▁chape	-11.4095
stra	-11.4095
▁pest	-11.411
▁faker	-11.4112
lish	-11.4124
houses	-11.4124
lands	-11.413
uction	-11.414
▁sales	-11.4151
▁traps	-11.4152
▁mules	-11.4162
▁lndians	-11.4162
▁forks	-11.4164
▁massag	-11.4165
▁peters	-11.4177
meter	-11.4193
were	-11.421
▁musical	-11.4244
▁shapes	-11.4254
uni	-11.4257
▁tomatoe	-11.4257
▁explor	-11.4258
▁relationships	-11.426
wards	-11.4268
▁trusted	-11.4292
hes	-11.4304
get	-11.4306
dge	-11.4307
ha	-11.4317
venge	-11.4336
▁buyer	-11.4362
mol	-11.4363
▁replace	-11.4364
▁treats	-11.437
▁tinkering	-11.4414
▁films	-11.4435
▁rolls	-11.4436
▁rating	-11.4443
▁parking	-11.4452
▁clubs	-11.4457
▁woo	-11.4466
▁hurting	-11.4479
▁snag	-11.4501
▁winnin	-11.4537
gon	-11.4549
▁aunts	-11.4555
▁partners	-11.4556
▁skinn	-11.4558
oku	-11.456
▁reports	-11.4568
su	-11.4581
▁when	-11.4586
▁strangle	-11.4586
lutz	-11.4588
▁lc	-11.4592
▁swipe	-11.4608
luster	-11.4633
ire	-11.4635
▁grower	-11.4642
issy	-11.465
mmed	-11.4654
▁tasks	-11.4656
▁irons	-11.4658
▁tails	-11.4664
▁packs	-11.4682
umpkin	-11.469
ttl	-11.4708
▁deserves	-11.4758
▁reai	-11.4768
▁bio	-11.479
▁sayin	-11.4797
▁bois	-11.4798
int	-11.4805
▁arch	-11.4837
▁cam	-11.4867
▁web	-11.4881
▁bla	-11.4884
▁sparkl	-11.4942
ever	-11.4951
▁prime	-11.4964
aaah	-11.5005
▁univers	-11.5016
▁haz	-11.506
los	-11.5128
▁rubb	-11.5136
kar	-11.5165
ace	-11.5174
▁dul	-11.5188
rrr	-11.523
▁kit	-11.5234
▁pose	-11.5261
▁youyou	-11.5283
tle	-11.5302
▁tho	-11.5313
▁sham	-11.532
▁fro	-11.5327
rish	-11.5328
▁birdie	-11.5368
▁penn	-11.5393
ct	-11.5399
fit	-11.54
ante	-11.5402
choo	-11.5444
hhhhh	-11.5449
kl	-11.5472
num	-11.548
ones	-11.5489
bo	-11.5491
sons	-11.55
utting	-11.553
▁sho	-11.5538
igi	-11.5541
ashed	-11.5551
▁ref	-11.5551
mu	-11.556
▁pim	-11.5576
laden	-11.5582
hou	-11.5613
unny	-11.5635
rse	-11.5653
▁reaii	-11.5658
owed	-11.5688
ara	-11.5704
▁mut	-11.5715
elie	-11.5744
aws	-11.5764
atie	-11.5788
tif	-11.5823
▁fel	-11.5828
▁wit	-11.5861
▁inhale	-11.5867
rist	-11.5877
eau	-11.5879
▁diploma	-11.5881
▁vers	-11.5883
▁fam	-11.5955
sca	-11.5959
▁norther	-11.5961
▁app	-11.5962
▁admir	-11.6003
fect	-11.6022
mm	-11.6103
▁os	-11.6105
lag	-11.6124
▁digni	-11.6133
▁commut	-11.6139
▁fle	-11.6168
▁celesti	-11.6168
▁charl	-11.6173
▁bash	-11.6205
▁explore	-11.6237
▁cre	-11.6246
▁pip	-11.6255
pressed	-11.6276
▁sill	-11.6288
awdy	-11.6291
tun	-11.6342
stitute	-11.6362
hut	-11.6378
ito	-11.6422
▁sled	-11.646
▁reli	-11.6474
ady	-11.6489
city	-11.6556
▁cri	-11.6559
roadway	-11.6595
▁contr	-11.6624
mont	-11.6637
▁remov	-11.6647
nent	-11.6656
toe	-11.6691
▁neat	-11.6701
▁bun	-11.671
dged	-11.6745
bi	-11.6755
▁freeze	-11.6789
mony	-11.679
▁brok	-11.6792
▁prot	-11.6817
▁flu	-11.6884
▁scat	-11.6919
▁chip	-11.6959
ragged	-11.696
zzi	-11.6962
▁prim	-11.6964
▁ki	-11.7021
hehey	-11.7037
▁dan	-11.7092
▁riches	-11.7107
nh	-11.7129
rian	-11.7136
inch	-11.7185
cate	-11.7199
tow	-11.721
pul	-11.7231
▁oppo	-11.7233
ssy	-11.7233
▁je	-11.7233
ther	-11.724
▁thati	-11.7244
▁deli	-11.7269
des	-11.728
dine	-11.7284
een	-11.7294
ushe	-11.7297
arc	-11.7316
championships	-11.7335
ndar	-11.735
eared	-11.7359
apo	-11.7364
riving	-11.738
▁conc	-11.738
▁troubl	-11.7422
ylo	-11.7442
▁commit	-11.7443
climat	-11.7446
▁badge	-11.7456
hold	-11.7477
▁hehe	-11.7485
leg	-11.7508
▁rack	-11.7518
ounce	-11.7543
ggy	-11.755
▁civil	-11.7557
ckle	-11.7559
ooh	-11.7559
tent	-11.7559
▁atten	-11.7583
▁satisf	-11.7583
▁dab	-11.7584
ization	-11.7586
vv	-11.7593
bble	-11.7594
▁fal	-11.7596
parable	-11.7599
oni	-11.7621
ibility	-11.763
▁repl	-11.7645
ooked	-11.7647
▁cru	-11.7649
▁cran	-11.765
rumming	-11.7659
ently	-11.7661
entine	-11.7676
ik	-11.7678
juan	-11.7679
▁fram	-11.7681
▁claw	-11.7698
ois	-11.7703
earned	-11.7707
ebra	-11.7717
▁nooo	-11.7739
waiting	-11.7741
▁kra	-11.7742
▁ave	-11.7743
▁brew	-11.7745
▁cough	-11.7745
▁merc	-11.7748
ab	-11.7758
oche	-11.7766
▁rag	-11.7767
▁curfew	-11.7768
▁magazine	-11.7768
▁raindrop	-11.7768
▁rhyme	-11.7768
▁skunk	-11.7768
▁ankle	-11.7768
▁oak	-11.7769
▁depth	-11.777
▁savage	-11.7771
▁wrist	-11.7772
▁improvement	-11.7772
▁bug	-11.7772
▁scholar	-11.7772
ju	-11.7773
▁bloom	-11.7774
▁carnivore	-11.7774
raff	-11.7778
roo	-11.7782
▁league	-11.7783
▁zone	-11.7787
▁lib	-11.7787
▁consequence	-11.779
▁competitor	-11.779
▁caboose	-11.779
▁rival	-11.7791
▁cigarette	-11.7791
awn	-11.7793
▁spoon	-11.7797
▁experiment	-11.78
▁grape	-11.78
▁persian	-11.78
▁sheik	-11.78
▁gorilla	-11.78
▁stepsister	-11.7801
▁duckling	-11.7806
▁skimmer	-11.7806
▁colleague	-11.7809
sky	-11.781
▁leapin	-11.7811
▁vegetable	-11.7812
loads	-11.7814
▁height	-11.7816
▁leper	-11.7817
▁insect	-11.782
▁arrangement	-11.7822
ev	-11.7827
▁standard	-11.7836
▁tourist	-11.784
marks	-11.7842
ication	-11.785
ivo	-11.785
▁ax	-11.7856
▁mill	-11.786
▁escap	-11.7866
owers	-11.7871
▁lov	-11.7873
▁whoop	-11.7875
▁terrif	-11.7879
▁yell	-11.7884
▁entertain	-11.7888
▁angui	-11.7891
too	-11.7895
▁embarrass	-11.7901
▁how	-11.7903
▁fright	-11.7903
hol	-11.7903
▁vit	-11.7907
imate	-11.7918
▁tolera	-11.792
icles	-11.7921
heart	-11.7921
▁stew	-11.7923
tain	-11.7923
ograph	-11.7925
▁nois	-11.7928
maids	-11.7928
ologists	-11.793
roaches	-11.793
▁consult	-11.7931
▁swoon	-11.7932
▁tempt	-11.7934
uttering	-11.7934
ump	-11.7935
▁mourn	-11.7938
rest	-11.7939
▁assembl	-11.7941
▁distract	-11.7941
▁chirp	-11.7941
▁wager	-11.7942
▁reject	-11.7942
▁disgust	-11.7944
headed	-11.7945
▁deceiv	-11.7945
▁stable	-11.7946
▁fascinat	-11.7948
▁pleas	-11.7949
▁etern	-11.7949
friend	-11.7952
▁weep	-11.7952
▁forc	-11.7953
▁officia	-11.7954
▁restrict	-11.7956
▁engrav	-11.7956
▁involv	-11.796
auce	-11.7962
▁adopt	-11.7963
▁disappoint	-11.7966
▁bluff	-11.7966
wide	-11.7966
q	-11.7967
belief	-11.7968
blossom	-11.7968
mydochka	-11.7968
michel	-11.7968
▁zach	-11.7968
morons	-11.7968
employed	-11.7968
venue	-11.7968
mmhmm	-11.7969
grow	-11.7969
▁blam	-11.7969
word	-11.797
▁comput	-11.797
foot	-11.797
when	-11.7971
bucket	-11.7971
squeak	-11.7971
why	-11.7971
▁padd	-11.7972
eaving	-11.7972
town	-11.7972
carbon	-11.7972
▁happi	-11.7972
tenant	-11.7973
scribe	-11.7973
mobil	-11.7974
▁pier	-11.7974
loom	-11.7974
lookin	-11.7974
loyal	-11.7975
position	-11.7975
caps	-11.7975
please	-11.7975
claim	-11.7975
saving	-11.7976
▁stumble	-11.7976
michael	-11.7976
forgotten	-11.7976
proof	-11.7976
responsible	-11.7976
sport	-11.7976
block	-11.7976
professional	-11.7976
junior	-11.7976
▁zip	-11.7976
square	-11.7977
glass	-11.7977
public	-11.7977
close	-11.7977
woof	-11.7977
louis	-11.7977
consider	-11.7977
voice	-11.7977
crack	-11.7977
whale	-11.7977
write	-11.7977
anymore	-11.7977
different	-11.7977
power	-11.7977
children	-11.7977
great	-11.7977
three	-11.7977
▁ov	-11.7977
two	-11.7977
cups	-11.7978
yeah	-11.7978
keep	-11.7978
paul	-11.7978
fell	-11.7978
six	-11.7978
▁ascen	-11.7979
cake	-11.7979
arden	-11.7979
aggie	-11.7979
glade	-11.7979
▁dedicate	-11.798
girl	-11.798
green	-11.798
cast	-11.7983
▁fulfil	-11.7983
▁spun	-11.7983
face	-11.7983
▁neces	-11.7984
▁katy	-11.7985
watch	-11.7985
▁astronom	-11.7985
mission	-11.7985
▁whinn	-11.7985
blo	-11.7985
▁organize	-11.7986
chilling	-11.7986
▁plug	-11.7986
▁churr	-11.7986
dad	-11.7986
▁grump	-11.7986
▁necessar	-11.7986
▁stead	-11.7986
▁ret	-11.7986
grant	-11.7987
cock	-11.7987
▁crank	-11.7987
▁positio	-11.7988
person	-11.7988
▁hurr	-11.7988
▁okinawa	-11.7989
▁immediate	-11.799
▁combine	-11.799
tech	-11.799
ckety	-11.799
left	-11.799
▁investigat	-11.799
▁intens	-11.7991
▁definite	-11.7991
haut	-11.7991
▁ratio	-11.7992
▁sieg	-11.7992
▁shou	-11.7992
▁glid	-11.7992
stick	-11.7992
▁athlet	-11.7993
▁rememb	-11.7993
▁snug	-11.7994
▁incredibl	-11.7994
▁commission	-11.7994
▁auto	-11.7994
▁slid	-11.7995
loaded	-11.7995
▁canad	-11.7995
▁yiiii	-11.7995
called	-11.7996
tender	-11.7997
▁persia	-11.7997
▁fresn	-11.7998
▁desperat	-11.7998
▁allergi	-11.7998
measur	-11.7998
▁princip	-11.7998
issed	-11.7998
▁mitt	-11.7998
▁strat	-11.7999
never	-11.7999
▁russia	-11.7999
▁terri	-11.8
▁moth	-11.8
▁psych	-11.8
tiqu	-11.8001
emma	-11.8001
▁graci	-11.8001
burger	-11.8002
scription	-11.8002
wagon	-11.8003
▁behavio	-11.8003
▁slick	-11.8003
▁imaginati	-11.8003
fro	-11.8003
uary	-11.8003
▁savanna	-11.8004
▁majesti	-11.8004
▁shir	-11.8004
▁farewe	-11.8004
▁guil	-11.8004
▁jew	-11.8004
▁devot	-11.8004
▁diggin	-11.8005
▁changin	-11.8005
▁genes	-11.8005
▁dancin	-11.8005
▁pacif	-11.8005
▁takin	-11.8005
significant	-11.8005
▁audit	-11.8005
▁invo	-11.8005
annel	-11.8005
▁wort	-11.8005
▁circula	-11.8005
▁joseph	-11.8005
uddle	-11.8006
▁runnin	-11.8006
ddledee	-11.8006
mals	-11.8006
▁sophi	-11.8006
▁accompli	-11.8006
▁differ	-11.8006
hua	-11.8006
▁kiddin	-11.8007
stat	-11.8007
▁cloak	-11.8007
▁kidnap	-11.8007
▁fabu	-11.8007
▁micro	-11.8007
▁philo	-11.8007
▁congratulat	-11.8007
plex	-11.8007
▁commis	-11.8007
incomp	-11.8007
▁cohab	-11.8007
▁catastroph	-11.8007
▁custod	-11.8007
▁gravit	-11.8007
▁hypocri	-11.8007
▁japan	-11.8007
▁liqu	-11.8007
▁memphis	-11.8007
▁olivi	-11.8007
▁philanthrop	-11.8007
▁senegal	-11.8007
dblooded	-11.8007
ductive	-11.8007
icopter	-11.8007
knockin	-11.8007
lecross	-11.8007
nourished	-11.8007
tatatta	-11.8007
ubourg	-11.8007
yippyyay	-11.8007
▁abednego	-11.8007
▁aborigine	-11.8007
▁absorb	-11.8007
▁acacia	-11.8007
▁accompan	-11.8007
▁accumulate	-11.8007
▁accurate	-11.8007
▁achieve	-11.8007
▁aeronautic	-11.8007
▁aesthetic	-11.8007
▁affliction	-11.8007
▁alexandre	-11.8007
▁allegiance	-11.8007
▁almanac	-11.8007
▁aloft	-11.8007
▁aloha	-11.8007
▁altogether	-11.8007
▁amateur	-11.8007
▁ambush	-11.8007
▁ammunition	-11.8007
▁analyze	-11.8007
▁anniversary	-11.8007
▁appreciative	-11.8007
▁approval	-11.8007
▁approximately	-11.8007
▁aqu	-11.8007
▁arbor	-11.8007
▁arrabiata	-11.8007
▁arranging	-11.8007
▁astaire	-11.8007
▁astronauts	-11.8007
▁attaboy	-11.8007
▁audibly	-11.8007
▁backfiring	-11.8007
▁baloney	-11.8007
▁bathtub	-11.8007
▁bedwetting	-11.8007
▁bikini	-11.8007
▁biscuits	-11.8007
▁bourdieu	-11.8007
▁brigantine	-11.8007
▁brocade	-11.8007
▁brumel	-11.8007
▁buffoons	-11.8007
▁buiiding	-11.8007
▁burritos	-11.8007
▁calcutta	-11.8007
▁ceiebrat	-11.8007
▁centimetre	-11.8007
▁ceremoni	-11.8007
▁chimney	-11.8007
▁cinnamon	-11.8007
▁clattering	-11.8007
▁clunk	-11.8007
▁coefficient	-11.8007
▁coincidence	-11.8007
▁columbia	-11.8007
▁commence	-11.8007
▁communicating	-11.8007
▁conflict	-11.8007
▁congregation	-11.8007
▁conifers	-11.8007
▁contraption	-11.8007
▁croesus	-11.8007
▁cyborg	-11.8007
▁daffodils	-11.8007
▁debbie	-11.8007
▁delicacies	-11.8007
▁delicacy	-11.8007
▁delicatessen	-11.8007
▁descendant	-11.8007
▁dioxide	-11.8007
▁discern	-11.8007
▁distinguish	-11.8007
▁dolvidadez	-11.8007
▁dreaded	-11.8007
▁duplicate	-11.8007
▁dynasty	-11.8007
▁educate	-11.8007
▁einstein	-11.8007
▁eleanor	-11.8007
▁electrif	-11.8007
▁electro	-11.8007
▁electronic	-11.8007
▁embedded	-11.8007
▁embellish	-11.8007
▁emphasize	-11.8007
▁enthrall	-11.8007
▁environment	-11.8007
▁essence	-11.8007
▁eureka	-11.8007
▁evacuate	-11.8007
▁evoke	-11.8007
▁excavation	-11.8007
▁excerpts	-11.8007
▁exploit	-11.8007
▁flimsy	-11.8007
▁florida	-11.8007
▁frown	-11.8007
▁fuji	-11.8007
▁furrific	-11.8007
▁furthermore	-11.8007
▁gelada	-11.8007
▁glaci	-11.8007
▁glamorous	-11.8007
▁glitter	-11.8007
▁graphic	-11.8007
▁guercio	-11.8007
▁halloween	-11.8007
▁hammock	-11.8007
▁heliport	-11.8007
▁herbert	-11.8007
▁hilarious	-11.8007
▁historians	-11.8007
▁hormones	-11.8007
▁horror	-11.8007
▁hospitable	-11.8007
▁humidity	-11.8007
▁humility	-11.8007
▁ibex	-11.8007
▁icecream	-11.8007
▁ieader	-11.8007
▁illuminate	-11.8007
▁imaginary	-11.8007
▁imported	-11.8007
▁imprisoned	-11.8007
▁incompeten	-11.8007
▁indecent	-11.8007
▁industry	-11.8007
▁inflict	-11.8007
▁inhumane	-11.8007
▁injuries	-11.8007
▁instagram	-11.8007
▁interrogate	-11.8007
▁inviting	-11.8007
▁jeopardize	-11.8007
▁jersey	-11.8007
▁joaquin	-11.8007
▁jockey	-11.8007
▁kauai	-11.8007
▁kazu	-11.8007
▁kittycat	-11.8007
▁labyrinth	-11.8007
▁lalalala	-11.8007
▁landslide	-11.8007
▁leapfrog	-11.8007
▁leclaire	-11.8007
▁lennon	-11.8007
▁leonard	-11.8007
▁leprechaun	-11.8007
▁lobster	-11.8007
▁locomotive	-11.8007
▁machete	-11.8007
▁magellan	-11.8007
▁maitre	-11.8007
▁malik	-11.8007
▁manhattan	-11.8007
▁marooned	-11.8007
▁mayonnaise	-11.8007
▁medicinal	-11.8007
▁memorable	-11.8007
▁mermaid	-11.8007
▁metaphor	-11.8007
▁minimum	-11.8007
▁misunderstood	-11.8007
▁miyajima	-11.8007
▁moderate	-11.8007
▁molecule	-11.8007
▁montrachet	-11.8007
▁mutual	-11.8007
▁mysteries	-11.8007
▁mythology	-11.8007
▁nanbara	-11.8007
▁nauseating	-11.8007
▁negligence	-11.8007
▁nigeria	-11.8007
▁noogified	-11.8007
▁obligation	-11.8007
▁offensive	-11.8007
▁offspring	-11.8007
▁omasoosee	-11.8007
▁ordeal	-11.8007
▁outnumbered	-11.8007
▁outsmarted	-11.8007
▁overheated	-11.8007
▁overshadow	-11.8007
▁overwhelm	-11.8007
▁palmetto	-11.8007
▁participate	-11.8007
▁patootie	-11.8007
▁peculiar	-11.8007
▁peekaboo	-11.8007
▁penetrate	-11.8007
▁penniless	-11.8007
▁perkins	-11.8007
▁permeability	-11.8007
▁persimmon	-11.8007
▁practisin	-11.8007
▁precipice	-11.8007
▁prerogative	-11.8007
▁prestige	-11.8007
▁pristine	-11.8007
▁privacy	-11.8007
▁profile	-11.8007
▁prosecute	-11.8007
▁psychologically	-11.8007
▁pudding	-11.8007
▁purchas	-11.8007
▁pushpull	-11.8007
▁radicalized	-11.8007
▁rebuilt	-11.8007
▁redundant	-11.8007
▁reinforce	-11.8007
▁rejoic	-11.8007
▁releasing	-11.8007
▁relentless	-11.8007
▁reluctan	-11.8007
▁rembrandt	-11.8007
▁reminiscent	-11.8007
▁repossessed	-11.8007
▁reproduction	-11.8007
▁resign	-11.8007
▁rotelli	-11.8007
▁sabotage	-11.8007
▁satellite	-11.8007
▁scareport	-11.8007
▁schneider	-11.8007
▁seagulls	-11.8007
▁seminary	-11.8007
▁sergei	-11.8007
▁shadrach	-11.8007
▁shanghai	-11.8007
▁shrink	-11.8007
▁shrub	-11.8007
▁simpleminded	-11.8007
▁singular	-11.8007
▁sluggish	-11.8007
▁snead	-11.8007
▁snorkel	-11.8007
▁snuffleguppygus	-11.8007
▁soccer	-11.8007
▁solitude	-11.8007
▁spectra	-11.8007
▁spinnaker	-11.8007
▁stewardship	-11.8007
▁stingray	-11.8007
▁stowaway	-11.8007
▁stutter	-11.8007
▁sungiasses	-11.8007
▁supervise	-11.8007
▁swirling	-11.8007
▁tantaliz	-11.8007
▁taxpay	-11.8007
▁telegraphe	-11.8007
▁telenovela	-11.8007
▁terrain	-11.8007
▁thorough	-11.8007
▁tofu	-11.8007
▁transplant	-11.8007
▁treaders	-11.8007
▁tremor	-11.8007
▁trinket	-11.8007
▁trivial	-11.8007
▁tuesday	-11.8007
▁turbulence	-11.8007
▁ukrainian	-11.8007
▁unaware	-11.8007
▁understatement	-11.8007
▁underwear	-11.8007
▁unharmed	-11.8007
▁unleash	-11.8007
▁unshelled	-11.8007
▁upgrade	-11.8007
▁upstream	-11.8007
▁vehicle	-11.8007
▁velocity	-11.8007
▁vineyard	-11.8007
▁virility	-11.8007
▁voltageous	-11.8007
▁walkietalkie	-11.8007
▁wallflower	-11.8007
▁warthog	-11.8007
▁wildebeest	-11.8007
▁willoughby	-11.8007
▁worldmedia	-11.8007
▁wreak	-11.8007
▁yield	-11.8007
▁kbmu	-11.8007
▁ornament	-11.8007
▁prompt	-11.8007
▁ravage	-11.8007
lchl	-11.8007
whowho	-11.8007
▁blume	-11.8007
▁bundle	-11.8007
▁capsule	-11.8007
▁catalina	-11.8007
▁choke	-11.8007
▁choking	-11.8007
▁cynic	-11.8007
▁dizzy	-11.8007
▁evident	-11.8007
▁formidable	-11.8007
▁goliath	-11.8007
▁housekeeper	-11.8007
▁impatient	-11.8007
▁inaugura	-11.8007
▁installed	-11.8007
▁ireland	-11.8007
▁japin	-11.8007
▁kidnapped	-11.8007
▁lewis	-11.8007
▁magistra	-11.8007
▁makebeiieve	-11.8007
▁mislead	-11.8007
▁profane	-11.8007
▁providential	-11.8007
▁raspy	-11.8007
▁related	-11.8007
▁saeko	-11.8007
▁savior	-11.8007
▁sayonara	-11.8007
▁senores	-11.8007
▁siddown	-11.8007
▁soaked	-11.8007
▁sproutlings	-11.8007
▁stabbing	-11.8007
▁stoked	-11.8007
▁suspende	-11.8007
▁swindle	-11.8007
▁theatricalit	-11.8007
▁thighs	-11.8007
▁toddle	-11.8007
▁trallala	-11.8007
▁utensil	-11.8007
▁volcano	-11.8007
▁wrinkl	-11.8007
▁adonis	-11.8007
▁certifi	-11.8007
▁dedication	-11.8007
▁fierce	-11.8007
▁gleam	-11.8007
▁hairdress	-11.8007
▁interior	-11.8007
▁kevin	-11.8007
▁legacy	-11.8007
▁meteorolog	-11.8007
▁mimic	-11.8007
▁obedien	-11.8007
▁proposing	-11.8007
▁scum	-11.8007
▁seedlings	-11.8007
▁stupor	-11.8007
▁theatrics	-11.8007
▁warehouse	-11.8007
counsel	-11.8007
phrase	-11.8007
▁annulled	-11.8007
▁forgetfulness	-11.8007
▁girolle	-11.8007
▁medford	-11.8007
▁stamping	-11.8007
▁sushi	-11.8007
▁sworn	-11.8007
▁taskmasters	-11.8007
▁warbler	-11.8007
▁worid	-11.8007
▁golfoot	-11.8007
▁classmate	-11.8007
▁confine	-11.8007
▁extensive	-11.8007
▁intim	-11.8007
▁invade	-11.8007
▁milord	-11.8007
▁rooster	-11.8007
▁scheming	-11.8007
▁trimming	-11.8007
▁voila	-11.8007
▁daunting	-11.8007
▁kenya	-11.8007
▁keyholes	-11.8007
▁mcc	-11.8007
▁snubb	-11.8007
▁teievision	-11.8007
▁ancestr	-11.8007
▁bolts	-11.8007
▁crooner	-11.8007
▁gunslinger	-11.8007
▁lndeed	-11.8007
▁mortar	-11.8007
▁slain	-11.8007
▁imagining	-11.8007
▁oyster	-11.8007
▁havin	-11.8007
▁knave	-11.8007
▁premises	-11.8007
▁sundae	-11.8007
▁vegeta	-11.8007
▁bosun	-11.8007
▁boxcars	-11.8007
▁method	-11.8007
▁vodka	-11.8007
strel	-11.8007
▁emerge	-11.8007
▁filter	-11.8007
▁halves	-11.8007
▁hustle	-11.8007
▁reckless	-11.8007
▁shln	-11.8007
▁banquet	-11.8007
▁barrier	-11.8007
▁cannon	-11.8007
▁immature	-11.8007
▁kibble	-11.8007
▁tamper	-11.8007
▁snooty	-11.8007
▁tonya	-11.8007
▁adele	-11.8007
▁blurr	-11.8007
▁brutes	-11.8007
▁monkees	-11.8007
▁scanner	-11.8007
▁transmit	-11.8007
▁aspect	-11.8007
▁attribute	-11.8007
▁beret	-11.8007
▁dusk	-11.8007
▁industri	-11.8007
▁razor	-11.8007
▁salud	-11.8007
▁scrub	-11.8007
▁steep	-11.8007
▁horan	-11.8007
▁unanimous	-11.8007
anterns	-11.8007
▁dripping	-11.8007
▁marseill	-11.8007
▁pepsi	-11.8007
▁romanticists	-11.8007
▁seadoo	-11.8007
▁animais	-11.8007
▁deaf	-11.8007
▁heavier	-11.8007
▁refund	-11.8007
▁cabbage	-11.8007
▁enclos	-11.8007
▁automatically	-11.8007
▁beauties	-11.8007
▁georgi	-11.8007
▁insight	-11.8007
▁sponsorship	-11.8007
▁ciick	-11.8007
▁euros	-11.8007
▁inlaws	-11.8007
▁temptress	-11.8007
▁tennis	-11.8007
▁generator	-11.8007
▁encore	-11.8007
▁jalapeno	-11.8007
▁muchacho	-11.8007
▁suede	-11.8007
▁pedant	-11.8007
▁pussy	-11.8007
▁turnip	-11.8007
▁stained	-11.8007
▁susan	-11.8007
▁infrared	-11.8007
▁bellowing	-11.8007
▁biame	-11.8007
▁dikes	-11.8007
▁bandini	-11.8007
▁identification	-11.8007
▁inconvenience	-11.8007
▁veil	-11.8007
▁limestone	-11.8007
▁linds	-11.8007
▁petti	-11.8007
▁sophisticat	-11.8007
▁vosier	-11.8007
▁stanford	-11.8007
▁intermission	-11.8008
▁procla	-11.8008
comprehend	-11.8008
▁glisten	-11.8008
▁archives	-11.8008
▁democratic	-11.8008
▁exaggerating	-11.8008
▁tether	-11.8008
▁confirm	-11.8008
▁budget	-11.8008
▁geologists	-11.8008
▁stitches	-11.8008
▁scrapbook	-11.8008
▁cloakroom	-11.8008
▁filmmak	-11.8008
▁undress	-11.8008
▁maisey	-11.8008
▁arrogance	-11.8008
▁apron	-11.8008
▁hurried	-11.8008
▁buggy	-11.8008
▁swabbi	-11.8008
pion	-11.8008
▁aspir	-11.8008
▁destructive	-11.8008
▁girth	-11.8008
▁puzzle	-11.8008
kaya	-11.8008
▁applie	-11.8008
▁incense	-11.8008
▁jamai	-11.8008
▁empti	-11.8008
▁thisaway	-11.8008
▁contemplati	-11.8008
▁pimville	-11.8008
▁corset	-11.8008
▁vermin	-11.8008
▁pillage	-11.8008
▁foresee	-11.8008
▁sabba	-11.8008
▁objections	-11.8008
▁blush	-11.8008
▁bushwhackers	-11.8008
▁albertville	-11.8008
▁anonymous	-11.8008
▁frontiers	-11.8008
▁helloooo	-11.8008
▁activity	-11.8008
▁bunkhouse	-11.8008
▁purr	-11.8008
▁asp	-11.8008
▁bunk	-11.8008
▁muzzle	-11.8008
▁tulip	-11.8008
▁postcard	-11.8008
▁blinkin	-11.8008
▁fraction	-11.8008
▁misplace	-11.8008
▁momoa	-11.8008
▁slobs	-11.8008
▁postponing	-11.8008
▁tuttut	-11.8008
▁fiddledee	-11.8008
▁repent	-11.8008
▁aground	-11.8008
▁fawn	-11.8008
▁amigo	-11.8008
▁stork	-11.8008
▁demise	-11.8008
▁marketplace	-11.8008
▁decreas	-11.8008
▁horrifi	-11.8008
▁accordi	-11.8008
▁twinkl	-11.8008
▁cautio	-11.8008
▁outbreak	-11.8008
▁reacquainted	-11.8008
▁cunningham	-11.8008
cabra	-11.8008
▁simpson	-11.8008
▁blundering	-11.8008
▁deigo	-11.8008
▁offence	-11.8008
▁granddad	-11.8008
▁kinship	-11.8008
▁scroll	-11.8008
▁paved	-11.8009
synthe	-11.8009
▁arriv	-11.8009
▁disrespectful	-11.8009
▁specimen	-11.8009
▁ponies	-11.8009
▁wonthy	-11.8009
▁vaca	-11.8009
▁committing	-11.8009
▁prospect	-11.8009
▁pluck	-11.8009
▁hippo	-11.8009
▁reformed	-11.8009
▁shrill	-11.8009
▁blindfold	-11.8009
▁rosa	-11.8009
▁serenade	-11.8009
▁discretion	-11.8009
▁josephus	-11.8009
▁runnerup	-11.8009
▁assyria	-11.8009
▁charrr	-11.8009
▁displease	-11.8009
utiful	-11.8009
▁figuration	-11.8009
▁asshole	-11.8009
▁qualit	-11.8009
▁huddle	-11.8009
▁boredom	-11.8009
suml	-11.8009
▁starved	-11.8009
▁parole	-11.8009
ailment	-11.8009
▁sevenfoot	-11.8009
▁organis	-11.8009
▁karate	-11.8009
▁meteor	-11.8009
▁carolin	-11.8009
▁rigged	-11.8009
▁stumbling	-11.8009
▁righteous	-11.8009
▁snippet	-11.8009
▁jours	-11.8009
▁bestsell	-11.8009
▁decent	-11.8009
▁replacement	-11.801
▁swap	-11.801
▁permitted	-11.801
ippi	-11.801
▁juliet	-11.801
▁josh	-11.801
▁silvermist	-11.801
▁geneste	-11.801
▁inscription	-11.801
▁insistence	-11.801
acao	-11.801
▁sample	-11.801
▁establishment	-11.801
▁squished	-11.801
▁thump	-11.801
▁mosa	-11.801
▁cheval	-11.801
▁phenomenal	-11.801
▁munch	-11.801
▁circulate	-11.801
▁puppet	-11.801
▁freakier	-11.801
▁mmmmm	-11.801
▁symp	-11.801
eography	-11.801
▁sandals	-11.801
▁knockoff	-11.801
▁sprout	-11.801
▁exploration	-11.801
▁drought	-11.801
▁millen	-11.801
▁whoohoohoo	-11.801
tigate	-11.801
▁jinx	-11.801
▁swung	-11.801
▁psst	-11.801
▁brisk	-11.801
▁preference	-11.801
▁wasps	-11.801
still	-11.801
▁majestic	-11.801
ignon	-11.8011
▁repel	-11.8011
▁discipline	-11.8011
▁pledge	-11.8011
▁hotshot	-11.8011
mised	-11.8011
▁peso	-11.8011
▁bracket	-11.8011
dain	-11.8011
▁glis	-11.8011
▁retain	-11.8011
▁thumb	-11.8011
▁shiest	-11.8011
▁abundant	-11.8011
▁cheek	-11.8011
▁vicious	-11.8011
▁description	-11.8011
▁carib	-11.8011
▁spoonful	-11.8011
▁hula	-11.8011
▁armour	-11.8011
▁ciown	-11.8011
ecca	-11.8011
▁slickers	-11.8011
rutab	-11.8011
▁loren	-11.8011
theres	-11.8011
▁fading	-11.8011
▁jillian	-11.8012
▁transact	-11.8012
▁graduat	-11.8012
▁aki	-11.8012
▁expand	-11.8012
▁network	-11.8012
▁boundary	-11.8012
▁deplo	-11.8012
ronique	-11.8012
coal	-11.8012
▁retirement	-11.8012
▁yank	-11.8012
▁efficient	-11.8012
▁salesman	-11.8012
▁hump	-11.8012
▁alco	-11.8012
▁henry	-11.8012
▁lucien	-11.8012
▁insta	-11.8012
kina	-11.8012
▁whatnot	-11.8012
▁dyed	-11.8012
name	-11.8012
▁gruel	-11.8012
▁cookbook	-11.8012
▁nook	-11.8012
escent	-11.8012
▁toque	-11.8012
▁tarry	-11.8012
unky	-11.8012
▁pelt	-11.8012
▁flick	-11.8013
▁northeast	-11.8013
▁intruder	-11.8013
▁hysteria	-11.8013
▁iuck	-11.8013
▁bodyguard	-11.8013
▁clarif	-11.8013
▁predictable	-11.8013
▁chum	-11.8013
▁investment	-11.8013
▁drool	-11.8013
▁abdication	-11.8013
▁scarce	-11.8013
▁allure	-11.8013
▁version	-11.8013
▁earthquake	-11.8013
nickers	-11.8013
skil	-11.8013
▁cardboard	-11.8013
▁yum	-11.8013
▁beau	-11.8014
▁lyon	-11.8014
▁quo	-11.8014
▁ensure	-11.8014
▁deedee	-11.8014
▁storybook	-11.8014
▁stagger	-11.8014
▁meoksanochka	-11.8014
▁chimp	-11.8014
▁guv	-11.8014
pointfive	-11.8014
boy	-11.8014
▁resistance	-11.8014
▁flour	-11.8014
eady	-11.8014
▁accountant	-11.8014
▁rubble	-11.8014
▁partnership	-11.8014
▁artwork	-11.8015
▁dense	-11.8015
▁cab	-11.8015
▁yellin	-11.8015
skat	-11.8015
▁preach	-11.8015
▁statuette	-11.8015
▁runner	-11.8015
▁davinci	-11.8015
▁hypothetically	-11.8015
▁coax	-11.8015
▁tele	-11.8015
▁sobs	-11.8016
▁fiddle	-11.8016
▁poul	-11.8016
▁shove	-11.8016
▁priority	-11.8016
▁campfire	-11.8016
▁curry	-11.8016
▁shana	-11.8016
▁mitten	-11.8016
ediment	-11.8016
▁trey	-11.8016
screen	-11.8016
▁squall	-11.8016
leaf	-11.8016
itate	-11.8017
phers	-11.8017
bidden	-11.8017
▁sober	-11.8017
▁facility	-11.8017
▁philosophy	-11.8017
▁temporary	-11.8017
vapor	-11.8017
oever	-11.8017
▁parson	-11.8017
held	-11.8017
▁earthbound	-11.8018
▁swag	-11.8018
▁onthe	-11.8018
▁bann	-11.8018
▁carol	-11.8018
▁defile	-11.8018
▁involves	-11.8018
▁taxes	-11.8018
gam	-11.8018
▁admitted	-11.8018
▁temptation	-11.8018
▁tackle	-11.8018
▁rainwater	-11.8018
▁rally	-11.8019
rovin	-11.8019
▁dognapped	-11.8019
▁published	-11.8019
liver	-11.8019
▁apprehend	-11.8019
▁reserved	-11.8019
▁moat	-11.8019
ooww	-11.8019
▁depot	-11.8019
▁unmarried	-11.8019
▁outla	-11.8019
▁yiiiii	-11.8019
▁taxi	-11.8019
▁trustworthy	-11.8019
▁intri	-11.8019
▁feedback	-11.802
sual	-11.802
▁diary	-11.802
▁caim	-11.802
▁crav	-11.802
▁infest	-11.802
▁willie	-11.802
▁disposed	-11.802
▁posse	-11.802
▁stallion	-11.802
▁faii	-11.8021
▁parche	-11.8021
▁stratospher	-11.8021
▁joyce	-11.8021
▁snuggl	-11.8021
taur	-11.8021
▁zig	-11.8021
▁pokey	-11.8021
▁appropriate	-11.8022
▁dimension	-11.8022
▁structure	-11.8022
▁tresses	-11.8022
▁diap	-11.8022
▁prophesi	-11.8022
▁tactic	-11.8022
▁victimized	-11.8022
▁occupied	-11.8022
▁scot	-11.8022
▁nopety	-11.8022
▁happier	-11.8022
▁whatii	-11.8022
▁policemen	-11.8023
door	-11.8023
tivated	-11.8023
▁recit	-11.8023
▁jade	-11.8023
▁tact	-11.8023
▁neater	-11.8023
▁pepper	-11.8023
▁biologist	-11.8024
▁intense	-11.8024
▁investigate	-11.8024
▁unwise	-11.8024
blets	-11.8024
hearted	-11.8024
itably	-11.8024
tacle	-11.8024
egian	-11.8025
▁rapping	-11.8025
▁gondoi	-11.8025
tobe	-11.8025
▁sm	-11.8025
▁vel	-11.8025
wine	-11.8026
▁billow	-11.8026
▁snout	-11.8026
▁waah	-11.8026
▁waltz	-11.8026
irl	-11.8026
▁inherited	-11.8026
▁instructed	-11.8026
▁whatre	-11.8026
▁acceptance	-11.8026
▁rosali	-11.8026
isnt	-11.8026
▁geez	-11.8026
▁pinging	-11.8026
▁reins	-11.8026
▁lyin	-11.8027
▁q	-11.8027
▁which	-11.8027
▁poss	-11.8027
▁toho	-11.8027
▁foul	-11.8028
▁skinner	-11.8028
▁hatred	-11.8028
rench	-11.8028
▁citymalenkaya	-11.8028
bond	-11.8028
▁wetter	-11.8028
▁awareness	-11.8029
▁tooth	-11.8029
▁info	-11.8029
▁rover	-11.8029
▁babylonian	-11.803
utable	-11.803
▁sip	-11.803
▁iow	-11.803
urre	-11.8031
▁necessit	-11.8031
▁severe	-11.8031
▁vary	-11.8032
▁exc	-11.8032
▁regime	-11.8032
▁reactor	-11.8033
▁lefthanded	-11.8033
▁fuku	-11.8033
▁cheatin	-11.8033
▁goofy	-11.8033
▁pun	-11.8034
ific	-11.8034
forgettable	-11.8034
▁lounge	-11.8034
▁lumpy	-11.8034
▁repay	-11.8034
▁wallet	-11.8035
▁carr	-11.8035
▁exasperating	-11.8035
▁subtracting	-11.8035
▁superb	-11.8035
scribed	-11.8035
▁archaeolog	-11.8035
▁curate	-11.8036
ushl	-11.8036
▁babbling	-11.8036
▁acce	-11.8036
▁hum	-11.8036
▁fum	-11.8036
iga	-11.8036
olstered	-11.8037
▁starboard	-11.8037
▁stern	-11.8038
▁oow	-11.8038
▁possession	-11.8038
▁regional	-11.8039
▁kong	-11.8039
roswell	-11.8039
▁rodeo	-11.8039
▁stumbled	-11.8039
▁poet	-11.8039
▁surr	-11.804
▁talon	-11.804
lbert	-11.8041
▁danielle	-11.8041
ctic	-11.8041
else	-11.8042
▁static	-11.8042
▁brim	-11.8043
assag	-11.8043
▁plum	-11.8043
▁chica	-11.8044
▁partie	-11.8044
▁michel	-11.8044
nizing	-11.8044
aye	-11.8045
▁mea	-11.8045
▁jere	-11.8045
longe	-11.8045
▁nef	-11.8046
give	-11.8046
▁category	-11.8046
▁mino	-11.8046
narl	-11.8046
▁fanc	-11.8047
▁mydochka	-11.8047
▁belief	-11.8047
▁blossom	-11.8047
▁pasture	-11.8047
▁skit	-11.8047
▁airtime	-11.8047
▁tech	-11.8048
▁cargo	-11.8048
▁mig	-11.8048
▁venue	-11.8049
ilized	-11.8049
▁morons	-11.805
vant	-11.805
▁salva	-11.805
▁roman	-11.8051
▁gent	-11.8051
▁floody	-11.8051
▁nadine	-11.8051
▁upward	-11.8051
eech	-11.8052
▁poppy	-11.8052
elp	-11.8052
▁inse	-11.8052
▁shameless	-11.8052
millionaire	-11.8053
▁manufacturer	-11.8053
chuck	-11.8053
▁justi	-11.8054
▁locket	-11.8054
▁lordship	-11.8054
▁highways	-11.8054
love	-11.8054
▁kayak	-11.8054
▁sunlight	-11.8054
win	-11.8054
▁showdown	-11.8055
▁fudg	-11.8055
▁jaw	-11.8055
▁brah	-11.8055
▁proc	-11.8056
rium	-11.8057
yuk	-11.8057
▁engraved	-11.8058
▁mainlanders	-11.8058
audible	-11.8059
▁entertained	-11.8059
▁unite	-11.8059
▁alum	-11.806
▁qu	-11.806
stay	-11.806
▁restricted	-11.806
▁witnesses	-11.806
shot	-11.8061
▁adol	-11.8063
▁filet	-11.8063
▁beaten	-11.8064
cold	-11.8064
▁obi	-11.8064
card	-11.8065
▁walkway	-11.8065
▁tax	-11.8065
▁chor	-11.8066
▁anima	-11.8066
▁hardship	-11.8067
▁lump	-11.8067
▁lifeguard	-11.8067
▁archeolog	-11.8069
▁meddl	-11.8069
▁battery	-11.807
quet	-11.8071
velt	-11.8071
▁twer	-11.8074
▁correction	-11.8074
▁addresses	-11.8075
▁screeches	-11.8075
▁speeches	-11.8075
▁shameful	-11.8075
▁doubtful	-11.8075
▁performers	-11.8076
▁documentar	-11.8076
▁gala	-11.8076
▁potter	-11.8076
sels	-11.8077
▁lovelies	-11.8077
▁brace	-11.8078
▁rave	-11.808
▁bueno	-11.808
▁armies	-11.808
cian	-11.808
gent	-11.808
▁grieved	-11.808
▁budd	-11.8082
llie	-11.8083
bet	-11.8083
▁bluffing	-11.8083
▁wagering	-11.8084
▁consulting	-11.8084
▁swooning	-11.8084
▁operate	-11.8084
▁tenant	-11.8085
wan	-11.8085
chen	-11.8085
▁primi	-11.8087
▁frustrated	-11.8088
ymb	-11.8088
▁framed	-11.809
▁referred	-11.8091
brows	-11.8091
▁lunatic	-11.8092
▁established	-11.8092
▁realise	-11.8092
▁flushed	-11.8092
▁itit	-11.8094
▁associate	-11.8094
▁waitir	-11.8094
both	-11.8095
▁kl	-11.8095
▁bran	-11.8096
▁outrageous	-11.8096
▁babes	-11.8096
▁cartwheels	-11.8096
▁kettles	-11.8096
▁microphones	-11.8096
▁poems	-11.8096
▁references	-11.8096
▁violins	-11.8096
▁crawdads	-11.8096
▁cretins	-11.8096
▁exclaims	-11.8096
▁inmates	-11.8096
▁leopards	-11.8096
▁pylons	-11.8096
▁replicas	-11.8096
▁spreadsheets	-11.8096
▁costumes	-11.8096
▁trumps	-11.8096
▁vidas	-11.8096
▁projects	-11.8096
▁medit	-11.8097
▁humanness	-11.8098
▁dim	-11.8099
mated	-11.8099
▁admiring	-11.81
▁infer	-11.81
lifting	-11.81
▁stirr	-11.8101
▁acknowledged	-11.8101
▁perfumed	-11.8101
▁endured	-11.8101
▁yow	-11.8101
▁weirdo	-11.8104
▁overh	-11.8107
endor	-11.8107
▁sparkly	-11.8109
▁tral	-11.811
▁assembled	-11.8111
▁wellearned	-11.8111
▁gunman	-11.8111
▁boov	-11.8111
▁closeup	-11.8112
▁bah	-11.8113
▁nipp	-11.8113
▁increasing	-11.8114
▁jun	-11.8115
▁cockle	-11.8116
▁shaker	-11.8117
▁sup	-11.8117
▁jingle	-11.8119
▁ador	-11.8119
▁switcher	-11.8119
▁footers	-11.812
▁identi	-11.8121
▁germany	-11.8121
▁hermano	-11.8121
▁resemble	-11.8124
▁boyard	-11.8125
anguish	-11.8125
▁grumbled	-11.8125
▁boxers	-11.8126
▁strengthen	-11.8126
gnant	-11.8129
▁louder	-11.8129
▁ridin	-11.813
▁population	-11.813
▁doe	-11.813
▁employed	-11.8132
▁pointless	-11.8132
▁smuggling	-11.8132
▁aching	-11.8132
▁retreating	-11.8134
▁snooping	-11.8134
▁interacting	-11.8134
▁terrifi	-11.8135
▁ceme	-11.8136
▁janey	-11.8137
▁directory	-11.8137
▁deci	-11.8137
▁fasten	-11.8138
▁meditate	-11.8139
▁declared	-11.8141
▁flooding	-11.8141
▁lame	-11.8142
▁tab	-11.8142
allows	-11.8143
▁titled	-11.8143
▁eth	-11.8144
▁styl	-11.8146
▁yyy	-11.815
thle	-11.8154
▁stealin	-11.8154
rated	-11.8155
▁bess	-11.8156
▁burg	-11.8159
▁charmed	-11.816
▁layin	-11.8163
than	-11.8163
▁released	-11.8164
▁improved	-11.8165
▁pepp	-11.8166
▁spite	-11.8168
▁burger	-11.8169
bil	-11.8169
▁bigtime	-11.817
▁senti	-11.817
▁fath	-11.8172
▁unde	-11.8173
▁rem	-11.8175
▁dragging	-11.8176
hach	-11.8181
oose	-11.8181
kit	-11.8182
▁hinting	-11.8182
▁apologized	-11.8183
▁denying	-11.8184
▁trend	-11.8184
▁shocking	-11.8185
dez	-11.8192
▁crawled	-11.8192
▁hatched	-11.8194
▁registered	-11.8194
▁darned	-11.8194
▁some	-11.8195
▁hoots	-11.8197
▁indi	-11.8198
▁lighten	-11.8198
▁hors	-11.8199
hal	-11.8199
▁reminder	-11.8202
▁violati	-11.8202
▁wowzer	-11.8202
▁inquisiti	-11.8202
arranged	-11.8203
▁carryin	-11.8208
▁landmark	-11.8208
▁wealthy	-11.8208
▁about	-11.8209
▁taii	-11.8209
iar	-11.8211
▁administer	-11.8212
▁grander	-11.8219
▁treetop	-11.822
▁traded	-11.8227
▁canceled	-11.8228
ously	-11.8232
▁greeting	-11.8235
lashes	-11.8236
▁alp	-11.8239
flam	-11.8239
elt	-11.8239
▁gardener	-11.8242
▁scholars	-11.8247
▁golly	-11.8248
▁pullin	-11.825
▁blooms	-11.8251
▁leagues	-11.8251
▁oaks	-11.8251
▁mills	-11.8251
▁wrists	-11.8251
▁depths	-11.8251
▁ankles	-11.8251
▁curfews	-11.8251
▁magazines	-11.8251
▁raindrops	-11.8251
▁rhymes	-11.8251
▁skunks	-11.8251
delphi	-11.8252
▁zones	-11.8252
▁savages	-11.8252
▁improvements	-11.8253
▁carnivores	-11.8255
▁confessed	-11.8262
▁neglected	-11.8262
icure	-11.8265
▁pooped	-11.8266
▁cured	-11.8274
▁brewer	-11.8281
▁fightin	-11.8282
ately	-11.8283
▁traced	-11.8285
▁enchanting	-11.8286
▁noooo	-11.8286
uffy	-11.8288
▁buyin	-11.8297
▁combed	-11.8297
▁hlro	-11.8299
▁crave	-11.8304
iat	-11.8305
▁poi	-11.8309
▁jackal	-11.8312
roya	-11.8313
▁softer	-11.8317
▁hic	-11.832
▁tricky	-11.8322
▁axe	-11.8322
▁compar	-11.833
▁frame	-11.8331
▁pumped	-11.8332
▁melted	-11.8333
▁boost	-11.8334
▁infectio	-11.8336
▁failing	-11.834
▁musician	-11.8341
▁nibbl	-11.8341
▁redo	-11.8346
▁correctly	-11.8359
han	-11.8362
▁smu	-11.8367
▁howled	-11.8367
▁eighty	-11.8368
urned	-11.8369
▁rented	-11.8371
▁cheater	-11.8376
▁rapid	-11.8378
▁watchable	-11.8378
▁unc	-11.8379
suits	-11.8385
▁folder	-11.8386
▁goof	-11.8387
▁credi	-11.8389
▁twittering	-11.839
▁awe	-11.839
vil	-11.8397
bility	-11.8398
iful	-11.8398
▁gorg	-11.8399
▁listeners	-11.84
▁spared	-11.84
▁pep	-11.84
▁deeper	-11.8402
▁matted	-11.8406
▁repr	-11.8409
▁barb	-11.8412
▁ner	-11.8413
▁hah	-11.8418
▁burp	-11.842
▁touches	-11.8436
▁occu	-11.8439
hickey	-11.8441
▁appealing	-11.8442
enstein	-11.8443
▁bray	-11.8445
▁blabb	-11.8445
▁crazies	-11.845
yup	-11.8453
▁tripe	-11.8455
raving	-11.8462
mpson	-11.8463
▁producer	-11.8467
▁clipp	-11.8467
▁dodg	-11.8472
▁prostitut	-11.8479
▁him	-11.8483
quake	-11.8493
▁dail	-11.8494
▁aro	-11.8502
▁lyrical	-11.8502
▁iive	-11.8507
▁requested	-11.8507
▁mower	-11.851
▁authorit	-11.8519
racket	-11.8521
▁drumm	-11.8521
▁elevat	-11.8534
erto	-11.8536
tter	-11.8546
▁reader	-11.8553
▁ooooo	-11.8557
tributed	-11.8575
▁sticky	-11.8584
▁thrower	-11.8591
trogen	-11.8605
▁makeup	-11.8605
▁starin	-11.8607
▁clim	-11.8609
▁killin	-11.8609
▁sin	-11.8609
sters	-11.8611
▁boned	-11.8614
scarred	-11.8622
▁pastor	-11.8624
▁pooper	-11.8629
▁testif	-11.8653
gator	-11.8655
pots	-11.8658
imize	-11.8665
▁glade	-11.8666
▁chil	-11.8667
▁roadway	-11.867
requ	-11.8673
▁surve	-11.8682
▁crashe	-11.8683
▁aver	-11.8687
▁did	-11.8688
▁diet	-11.8695
does	-11.8707
▁syr	-11.8734
▁regrett	-11.878
pole	-11.8782
andy	-11.8783
rnation	-11.8786
inal	-11.8793
aze	-11.8816
▁payment	-11.8829
▁oppos	-11.8844
epic	-11.8852
okay	-11.8862
enj	-11.8863
▁dow	-11.8902
▁aid	-11.8918
▁scal	-11.8926
ocus	-11.8952
rasit	-11.9005
fortunately	-11.9017
▁assign	-11.9039
uration	-11.9058
bear	-11.9059
ool	-11.9074
▁mystic	-11.908
▁tumble	-11.9081
zard	-11.9108
hehehey	-11.9153
corporate	-11.9182
calculation	-11.9194
▁baptis	-11.9215
▁pollenp	-11.9217
▁stat	-11.9232
cuse	-11.9235
▁cinc	-11.9241
▁mona	-11.9266
endar	-11.9276
▁constitutio	-11.9277
▁pupp	-11.9282
▁mutter	-11.9286
▁masse	-11.9294
pol	-11.9308
▁smashe	-11.9317
▁wil	-11.9323
▁asi	-11.9375
determine	-11.9384
garment	-11.9449
membert	-11.9468
▁dogg	-11.9473
halt	-11.9479
bab	-11.9486
▁wink	-11.9491
etc	-11.9511
haveyou	-11.9516
▁trou	-11.9544
▁addi	-11.9569
omin	-11.9607
▁writer	-11.9642
▁contra	-11.9697
▁bather	-11.972
▁hoot	-11.9728
doodle	-11.9752
▁fau	-11.9783
▁vaccinat	-11.9842
sick	-11.9936
▁ramb	-11.9938
▁hisse	-11.9949
hopping	-11.9955
fender	-11.9972
topped	-11.9986
warm	-11.9997
▁disp	-12.0015
▁recycl	-12.0103
rks	-12.0124
▁vanb	-12.0134
rov	-12.0167
western	-12.0169
vast	-12.0192
▁waaa	-12.0193
▁victori	-12.0229
▁cura	-12.0241
digger	-12.027
▁commute	-12.0291
▁hyd	-12.0292
▁epi	-12.0328
▁evolv	-12.033
▁dune	-12.0341
▁gig	-12.0343
ken	-12.0352
▁crabb	-12.0377
▁dazzl	-12.0435
▁seiz	-12.0435
crum	-12.0447
▁appi	-12.0522
▁gir	-12.0522
iiow	-12.0592
▁garl	-12.0603
▁attac	-12.064
opping	-12.0683
▁dra	-12.0688
oving	-12.0695
olation	-12.07
tuna	-12.0802
lack	-12.0829
neath	-12.086
▁guin	-12.0892
▁stru	-12.0927
▁inhal	-12.1031
page	-12.1034
lash	-12.1035
▁stor	-12.1058
hoho	-12.1252
▁bashfu	-12.1295
▁biz	-12.131
ride	-12.1318
▁lang	-12.1356
otte	-12.1364
ailing	-12.1484
lux	-12.1555
▁wak	-12.1602
herita	-12.1681
bog	-12.1683
nto	-12.1703
wi	-12.1749
rect	-12.1766
▁provo	-12.1772
▁quarrels	-12.1826
roth	-12.1858
tension	-12.1904
▁quarrel	-12.1915
mus	-12.1987
oken	-12.2016
ose	-12.2063
oral	-12.2102
cede	-12.2145
▁conce	-12.216
sher	-12.2189
done	-12.2202
▁seren	-12.224
▁interv	-12.2282
▁mega	-12.2302
logne	-12.2356
hhhh	-12.2411
▁iri	-12.2413
isse	-12.2455
▁bulldo	-12.2492
rotte	-12.2513
▁jabbe	-12.2537
▁slop	-12.2568
▁archi	-12.2577
haw	-12.2603
uff	-12.2609
cence	-12.2621
lops	-12.2626
posed	-12.2642
artial	-12.2807
▁tipto	-12.2888
▁shipp	-12.2971
assured	-12.2987
▁silli	-12.3003
▁panti	-12.3066
vern	-12.3088
uk	-12.3096
▁swip	-12.3111
ledge	-12.3134
▁strangl	-12.3159
harley	-12.3295
▁ame	-12.3518
▁purv	-12.3646
aaaaa	-12.3684
convenient	-12.3684
▁victor	-12.3793
▁southwest	-12.3856
dame	-12.3865
rrrr	-12.3888
aker	-12.4026
vous	-12.4046
▁unrea	-12.408
▁ci	-12.4128
fried	-12.4215
▁formalit	-12.4382
▁dishwa	-12.4392
oodle	-12.4525
▁decre	-12.4563
▁produc	-12.4601
▁pursu	-12.4604
agged	-12.4638
allowed	-12.4739
▁rebellio	-12.4884
mik	-12.5005
cession	-12.501
▁determin	-12.5088
▁impli	-12.5125
▁vaccin	-12.5189
lipped	-12.5191
ught	-12.5228
▁brun	-12.5338
igment	-12.5401
▁constitut	-12.5421
▁apo	-12.5422
▁bapti	-12.5433
▁itth	-12.5483
▁corporat	-12.5485
cal	-12.5498
▁flo	-12.5507
amura	-12.558
▁jok	-12.5599
▁okoksan	-12.5647
▁myst	-12.569
amination	-12.573
tempered	-12.5855
itching	-12.5923
nks	-12.5989
▁milkma	-12.6003
pitched	-12.6021
▁aok	-12.6031
▁prior	-12.6047
perative	-12.6062
ugging	-12.6066
▁elude	-12.6069
lubber	-12.607
▁provid	-12.6081
leaned	-12.6093
▁hal	-12.6177
▁overtu	-12.6201
urp	-12.6227
