<unk>	0
<s>	0
</s>	0
s	-3.65464
▁im	-4.47017
▁know	-4.58262
▁dont	-4.59876
▁get	-4.78397
▁go	-4.87961
▁like	-4.89742
▁right	-4.89908
▁youre	-5.00805
▁come	-5.03306
▁got	-5.03317
▁yeah	-5.07564
▁well	-5.15531
▁one	-5.16488
▁oh	-5.17965
ing	-5.18275
▁thats	-5.19456
▁na	-5.28001
▁okay	-5.28663
▁want	-5.36194
▁good	-5.37568
▁see	-5.3865
ed	-5.43899
▁think	-5.45328
▁hey	-5.46208
▁gon	-5.54131
▁back	-5.56434
▁going	-5.58242
▁	-5.58417
▁man	-5.58805
▁us	-5.6344
▁yes	-5.65638
▁time	-5.69807
▁look	-5.70597
▁take	-5.70992
▁hes	-5.72455
▁need	-5.72591
▁cant	-5.75047
▁l	-5.80664
▁ill	-5.81554
▁really	-5.87608
▁would	-5.87695
▁say	-5.87948
d	-5.89799
▁tell	-5.89923
▁could	-5.94214
▁way	-5.98728
▁didnt	-5.98932
▁lets	-5.99234
▁make	-6.00912
▁let	-6.03095
▁something	-6.05919
▁whats	-6.06164
▁sir	-6.06302
▁never	-6.07262
▁thank	-6.09502
▁sorry	-6.09543
▁love	-6.10051
▁mean	-6.14699
▁little	-6.1512
▁please	-6.17067
▁two	-6.22071
▁people	-6.22987
▁give	-6.23836
▁mr	-6.25009
▁theres	-6.25953
y	-6.26023
▁ive	-6.29285
▁god	-6.30407
▁said	-6.30668
▁help	-6.33299
e	-6.3513
▁thing	-6.35348
sp	-6.36345
▁even	-6.37854
▁life	-6.3868
▁stop	-6.39164
▁nb	-6.42798
▁find	-6.42865
▁much	-6.43585
▁wait	-6.45065
▁guys	-6.45397
▁call	-6.46255
▁day	-6.47482
▁uh	-6.47853
er	-6.47921
▁home	-6.48051
▁sure	-6.4963
▁keep	-6.51361
▁theyre	-6.52219
▁first	-6.53464
▁work	-6.53565
ly	-6.54376
▁great	-6.54705
▁maybe	-6.55457
▁put	-6.56901
▁shes	-6.57675
▁anything	-6.58231
a	-6.58822
▁still	-6.60512
▁new	-6.65416
▁thought	-6.68315
▁last	-6.6833
▁must	-6.6847
▁stay	-6.68779
▁better	-6.68928
▁hell	-6.6914
▁night	-6.71302
▁leave	-6.71911
▁talk	-6.72296
▁ever	-6.72825
▁nothing	-6.73633
▁feel	-6.73639
▁guy	-6.75836
▁away	-6.76525
▁name	-6.7685
▁always	-6.77426
▁around	-6.78801
▁long	-6.79359
▁place	-6.80406
▁everything	-6.80439
▁music	-6.80547
▁youve	-6.809
▁hi	-6.81606
t	-6.81718
▁boy	-6.83748
▁coming	-6.84289
▁mom	-6.8464
▁world	-6.84647
▁told	-6.84986
▁believe	-6.852
▁kind	-6.85323
▁done	-6.85983
r	-6.86414
▁thanks	-6.86809
▁big	-6.86959
▁left	-6.87212
▁listen	-6.87492
▁wan	-6.87831
▁money	-6.87977
▁car	-6.88164
▁girl	-6.88558
▁shit	-6.88737
▁made	-6.88772
▁dad	-6.89273
▁things	-6.9016
▁move	-6.90189
▁old	-6.90898
▁ready	-6.91142
▁every	-6.91272
▁doesnt	-6.91579
▁lot	-6.91609
▁nice	-6.91692
▁ta	-6.92825
▁years	-6.93537
▁kill	-6.94088
in	-6.94241
▁three	-6.94775
▁hear	-6.96379
▁hello	-6.96527
al	-6.96825
▁son	-6.9742
▁family	-6.98358
▁id	-6.98679
▁wont	-6.9892
▁hold	-6.98938
▁miss	-6.99564
▁might	-7.0072
▁enough	-7.02071
▁bad	-7.02532
▁playing	-7.02589
▁youll	-7.03243
▁course	-7.0354
▁care	-7.05535
▁door	-7.05651
▁huh	-7.06237
▁fine	-7.06822
▁show	-7.0714
o	-7.07159
▁someone	-7.07852
▁dead	-7.0823
▁play	-7.08545
▁talking	-7.09178
▁remember	-7.09189
▁real	-7.09795
n	-7.10368
▁wrong	-7.12173
▁came	-7.12199
▁best	-7.12832
▁another	-7.13142
▁wanted	-7.13365
▁today	-7.14123
▁woman	-7.14133
▁run	-7.14403
▁house	-7.14438
▁tonight	-7.14452
▁um	-7.16093
▁school	-7.16114
es	-7.16264
▁guess	-7.17123
▁else	-7.1883
▁mother	-7.20257
▁found	-7.20871
▁getting	-7.20903
▁trying	-7.21416
▁job	-7.22357
▁happened	-7.22589
▁next	-7.22689
▁room	-7.22709
▁phone	-7.22848
▁may	-7.23092
▁looking	-7.23799
▁mind	-7.2427
▁kid	-7.24276
▁father	-7.24624
▁understand	-7.2486
▁isnt	-7.26333
▁meet	-7.26519
▁damn	-7.26644
▁hard	-7.26699
▁wasnt	-7.27452
▁live	-7.27785
▁many	-7.27802
▁baby	-7.27832
▁friend	-7.27835
▁sighs	-7.27901
▁ask	-7.27978
▁open	-7.28965
▁head	-7.29012
▁aint	-7.29346
▁knew	-7.30114
▁whole	-7.30116
▁watch	-7.3059
▁bring	-7.31473
▁try	-7.31812
▁ah	-7.32498
▁seen	-7.32628
▁morning	-7.33246
▁die	-7.34143
▁together	-7.34448
▁men	-7.34749
▁already	-7.34849
▁pretty	-7.34849
▁saw	-7.34855
▁brother	-7.35225
▁weve	-7.35254
▁cause	-7.35799
▁fire	-7.35801
▁chuckles	-7.35978
▁heard	-7.36065
▁everybody	-7.3648
▁actually	-7.37724
▁fight	-7.38373
▁start	-7.3855
▁wouldnt	-7.38625
▁turn	-7.38779
▁hope	-7.3961
i	-7.40536
▁ok	-7.41998
▁heart	-7.42152
▁took	-7.43721
▁mine	-7.43874
▁game	-7.43919
▁killed	-7.44416
▁five	-7.45057
▁called	-7.45306
▁excuse	-7.45497
▁went	-7.455
▁idea	-7.45929
▁city	-7.45961
▁em	-7.47146
▁gone	-7.47243
▁without	-7.47311
▁anyone	-7.48231
▁water	-7.48695
▁hand	-7.48809
▁lost	-7.49168
▁second	-7.49507
▁everyone	-7.49559
▁check	-7.50047
▁crazy	-7.50098
▁hands	-7.50261
▁true	-7.51046
▁grunts	-7.51769
g	-7.51804
▁alright	-7.51997
▁problem	-7.52435
▁yet	-7.52485
▁friends	-7.53239
▁hit	-7.533
▁bit	-7.53788
▁tomorrow	-7.53933
l	-7.54151
▁pay	-7.54363
▁face	-7.5451
▁deal	-7.55084
▁alone	-7.55413
▁party	-7.55592
▁used	-7.55604
▁use	-7.55685
▁easy	-7.56911
▁stuff	-7.56911
▁gun	-7.57004
▁hurt	-7.58491
▁end	-7.58637
▁days	-7.58725
▁welcome	-7.5998
▁un	-7.60298
▁part	-7.60441
▁whos	-7.61042
▁lm	-7.61314
▁four	-7.61529
▁eyes	-7.61601
m	-7.61743
▁team	-7.61779
▁saying	-7.62038
▁captain	-7.6208
▁happy	-7.62086
▁death	-7.62087
▁girls	-7.62455
▁wife	-7.62612
▁cool	-7.6265
▁youd	-7.63167
▁since	-7.63658
▁nobody	-7.63686
▁case	-7.6369
▁whoa	-7.64235
▁couldnt	-7.64312
on	-7.64502
▁looks	-7.65228
▁probably	-7.65315
▁shot	-7.65617
▁high	-7.66089
▁dance	-7.66569
▁havent	-7.66972
▁worry	-7.67532
▁wheres	-7.67549
p	-7.68315
▁year	-7.68452
▁spanish	-7.69226
▁matter	-7.69639
▁soon	-7.69669
▁whatever	-7.69797
▁read	-7.702
▁full	-7.70375
▁far	-7.70559
▁cut	-7.70569
▁rest	-7.70932
▁kids	-7.7142
▁ago	-7.71535
▁side	-7.72172
▁wants	-7.72672
▁beautiful	-7.72704
▁somebody	-7.72704
▁gave	-7.72708
▁happen	-7.72795
▁ass	-7.72905
▁drive	-7.73044
▁minute	-7.732
▁hot	-7.73202
▁shut	-7.73246
▁police	-7.73262
▁forget	-7.73268
▁blood	-7.73691
▁young	-7.7374
▁week	-7.73796
▁inside	-7.73895
▁business	-7.74458
▁fun	-7.74594
▁wish	-7.74648
▁eat	-7.75102
▁close	-7.75143
▁safe	-7.75426
▁trust	-7.75881
▁says	-7.76305
▁working	-7.76358
▁line	-7.76464
▁change	-7.76682
▁drink	-7.77425
▁word	-7.77562
▁clear	-7.7758
▁power	-7.77596
▁point	-7.77642
▁later	-7.77646
▁jake	-7.78161
▁minutes	-7.78277
▁continues	-7.78332
▁speaking	-7.78604
▁de	-7.79181
▁master	-7.80022
▁walk	-7.80077
f	-7.81204
▁supposed	-7.81256
▁sit	-7.81405
▁aye	-7.82006
▁taking	-7.82639
▁sally	-7.82664
c	-7.82807
▁met	-7.83462
▁wow	-7.83937
▁break	-7.84048
▁stand	-7.8424
▁joe	-7.84368
▁making	-7.84598
▁funny	-7.84602
▁late	-7.85134
▁makes	-7.85177
▁engine	-7.8518
▁six	-7.85273
ve	-7.85857
▁thinking	-7.85971
▁chance	-7.86183
▁dr	-7.86553
▁hmm	-7.8657
▁laughs	-7.86804
ion	-7.87225
▁least	-7.87288
▁pick	-7.87645
▁ahead	-7.87975
▁town	-7.87995
▁sleep	-7.88101
▁win	-7.88419
▁means	-7.8865
▁also	-7.88662
▁exactly	-7.8868
▁lady	-7.88683
▁light	-7.88727
▁grunting	-7.89437
▁answer	-7.90423
▁set	-7.90567
▁save	-7.90628
▁war	-7.90733
▁afraid	-7.90759
▁laughing	-7.9112
▁black	-7.91452
▁air	-7.91458
ic	-7.91877
▁promise	-7.91918
ers	-7.91972
▁though	-7.92067
▁free	-7.92195
▁red	-7.92254
en	-7.92398
▁shoot	-7.92464
▁anymore	-7.92902
▁waiting	-7.93166
▁s	-7.93227
or	-7.93271
▁times	-7.93531
▁re	-7.93661
▁boys	-7.93739
▁hate	-7.94652
▁moment	-7.94867
us	-7.95026
▁white	-7.9511
▁ooh	-7.95303
ar	-7.95544
ie	-7.95872
▁send	-7.96061
▁book	-7.96383
▁story	-7.9658
▁arent	-7.96581
▁james	-7.96592
▁body	-7.96594
▁important	-7.97178
▁follow	-7.97852
▁alive	-7.98095
▁trouble	-7.98561
▁street	-7.98671
▁person	-7.98762
▁honey	-7.98857
▁half	-7.9887
▁asked	-7.98954
▁enola	-7.99621
▁jo	-8.00099
▁speak	-8.00277
▁charlie	-8.00397
▁perfect	-8.01114
▁jimmy	-8.0118
▁sign	-8.01439
▁stupid	-8.01965
▁c	-8.02151
▁almost	-8.03559
▁catch	-8.03708
le	-8.03864
▁lose	-8.04275
h	-8.04514
an	-8.04591
▁dog	-8.04597
▁plan	-8.0467
▁number	-8.05155
▁anyway	-8.05178
▁behind	-8.05178
▁ladies	-8.05178
▁goes	-8.05494
▁hurry	-8.05998
▁train	-8.06225
▁b	-8.06681
▁theyll	-8.06824
▁question	-8.06837
man	-8.07462
▁different	-8.08346
▁pass	-8.08471
▁truth	-8.08498
▁ball	-8.08596
▁throw	-8.08699
▁ha	-8.08884
▁couple	-8.09349
▁doctor	-8.09423
b	-8.1
▁jesus	-8.102
▁running	-8.10201
▁bet	-8.10324
▁america	-8.10777
▁hours	-8.10846
▁tried	-8.11091
able	-8.11311
▁died	-8.1182
▁hang	-8.12256
▁reason	-8.12942
▁screaming	-8.12947
▁ship	-8.13026
▁panting	-8.13699
▁protect	-8.14086
▁order	-8.14366
▁needs	-8.14428
▁luck	-8.14447
▁started	-8.14607
▁dear	-8.1461
▁quite	-8.14678
▁th	-8.15433
▁bill	-8.15486
▁mar	-8.1561
▁top	-8.15689
▁ben	-8.15787
ting	-8.16187
▁telling	-8.16242
▁office	-8.16274
▁marta	-8.16411
▁sent	-8.16431
▁lead	-8.16658
▁voice	-8.1666
▁lts	-8.16914
▁ride	-8.17101
▁la	-8.17144
▁pull	-8.17236
▁child	-8.17311
▁outside	-8.17317
▁married	-8.1732
▁beat	-8.17716
▁harlan	-8.17959
▁front	-8.18246
▁parents	-8.18491
▁ten	-8.18542
▁sounds	-8.18846
▁sound	-8.19054
▁country	-8.19183
▁fall	-8.19976
▁fast	-8.19985
▁control	-8.20118
▁anybody	-8.20118
▁radio	-8.20118
ies	-8.20136
▁sun	-8.20814
▁ho	-8.2093
re	-8.21008
▁living	-8.21074
▁till	-8.21093
▁cheering	-8.21327
▁food	-8.23003
▁gentlemen	-8.23005
▁news	-8.2309
▁john	-8.23966
▁sense	-8.23984
▁tv	-8.23997
▁chatter	-8.24393
▁camp	-8.24454
▁cover	-8.24537
est	-8.24658
▁jack	-8.24874
▁brought	-8.24975
▁bye	-8.24975
▁detective	-8.2498
▁buy	-8.25279
▁sometimes	-8.25421
▁lives	-8.25528
w	-8.25569
▁slow	-8.25827
▁special	-8.25943
▁itll	-8.25976
▁leaving	-8.25978
▁gasps	-8.26219
▁rock	-8.26498
▁step	-8.26562
▁carl	-8.26982
▁bed	-8.27204
k	-8.27698
▁write	-8.27776
▁bitch	-8.27962
▁king	-8.2804
▁feeling	-8.28049
▁become	-8.28086
▁officer	-8.28722
ng	-8.28725
▁contact	-8.29035
▁children	-8.29041
▁hair	-8.29046
▁lord	-8.29055
▁dream	-8.29579
▁careful	-8.30005
▁shouldnt	-8.30077
▁president	-8.30091
▁feet	-8.30094
▁taken	-8.30115
th	-8.30151
▁lie	-8.30159
▁fact	-8.30601
▁serious	-8.30985
▁enjoy	-8.31129
▁fault	-8.3113
▁shall	-8.31134
▁heres	-8.31379
▁return	-8.31414
ment	-8.31617
▁straight	-8.32154
▁maam	-8.32197
▁fuck	-8.32202
▁paul	-8.3222
▁scared	-8.32371
▁wed	-8.32459
u	-8.32627
▁future	-8.33268
▁women	-8.33271
▁moving	-8.33273
▁g	-8.33358
▁laugh	-8.3347
▁indistinct	-8.34209
▁a	-8.34287
▁miles	-8.34329
▁kidding	-8.34455
▁seems	-8.34516
▁months	-8.34899
v	-8.35055
▁million	-8.35169
▁victor	-8.3521
▁henry	-8.35454
▁miller	-8.35484
▁american	-8.35549
▁human	-8.36275
▁dude	-8.36288
▁goddamn	-8.36565
▁perhaps	-8.36565
▁york	-8.36565
▁touch	-8.36573
▁p	-8.36786
▁meant	-8.37559
▁seven	-8.37677
▁either	-8.37689
▁birthday	-8.37689
▁kiss	-8.3783
▁lucky	-8.3793
ity	-8.38133
▁daddy	-8.38624
▁sam	-8.38672
z	-8.38741
▁cell	-8.38799
▁forever	-8.38827
▁along	-8.38829
▁able	-8.39341
▁asking	-8.39365
▁in	-8.39481
▁choice	-8.3978
▁strong	-8.39791
▁drop	-8.39845
▁ya	-8.39925
▁relax	-8.39975
▁crowd	-8.40005
▁murder	-8.40267
▁act	-8.4046
▁sweet	-8.40869
ation	-8.40927
as	-8.40966
▁movie	-8.40976
▁sister	-8.40981
la	-8.41022
▁johnny	-8.41147
▁fear	-8.41154
▁happens	-8.41359
▁breathing	-8.4136
▁seem	-8.41525
▁figure	-8.41884
▁bus	-8.41888
▁knows	-8.42102
▁uncle	-8.42316
▁mouth	-8.42343
▁land	-8.42471
▁fish	-8.42869
▁picture	-8.43403
▁horse	-8.43421
▁goodbye	-8.43505
▁sort	-8.43507
▁fair	-8.43508
▁table	-8.43575
▁past	-8.43867
▁f	-8.44487
▁low	-8.44631
▁company	-8.44709
▁others	-8.44709
▁song	-8.4496
▁seat	-8.45253
up	-8.45459
it	-8.45558
▁breathe	-8.45587
▁happening	-8.45851
▁sweetwater	-8.45929
▁dinner	-8.4593
▁ground	-8.4593
▁buddy	-8.45933
▁dangerous	-8.45935
▁boss	-8.45953
▁road	-8.45974
▁shouting	-8.46017
▁copy	-8.46045
▁learn	-8.46158
▁test	-8.4621
▁wear	-8.46612
el	-8.46684
▁worth	-8.46782
▁eight	-8.47132
▁husband	-8.4714
▁bridge	-8.47164
▁crew	-8.47165
▁totally	-8.47227
▁hows	-8.47964
▁longer	-8.47983
▁rich	-8.48388
▁bobby	-8.48414
▁attack	-8.48657
▁eye	-8.49555
▁somewhere	-8.49679
▁secret	-8.49718
▁piece	-8.49744
▁finish	-8.49944
▁mess	-8.49948
▁class	-8.50313
▁bang	-8.50402
▁clean	-8.50605
▁bell	-8.50724
▁smart	-8.50774
▁e	-8.50843
▁honor	-8.50933
▁weird	-8.50962
▁peter	-8.51053
▁hero	-8.51238
▁killer	-8.51267
▁map	-8.51771
▁small	-8.52102
▁mad	-8.52206
▁gold	-8.52235
▁sick	-8.52256
▁north	-8.5226
▁theyve	-8.5226
▁reach	-8.52264
▁hide	-8.52318
▁finally	-8.52365
▁early	-8.52369
▁ghost	-8.52383
▁truck	-8.52388
▁none	-8.52514
▁expect	-8.52568
▁mm	-8.52683
▁worked	-8.52744
▁dark	-8.53519
▁da	-8.53521
▁questions	-8.53558
▁possible	-8.53576
▁south	-8.53576
▁earth	-8.53584
▁bag	-8.5363
▁weeks	-8.53778
▁state	-8.54248
▁missed	-8.54253
▁normal	-8.54775
▁force	-8.54857
▁court	-8.54904
▁definitely	-8.54909
▁english	-8.54909
▁turned	-8.54928
▁law	-8.54941
ce	-8.55065
lng	-8.55289
▁needed	-8.55297
▁date	-8.55544
st	-8.55618
▁yo	-8.55699
▁surprise	-8.55984
▁quiet	-8.56116
▁floor	-8.56258
▁green	-8.56259
▁swear	-8.56261
▁calm	-8.56271
▁max	-8.56272
▁richard	-8.56275
▁port	-8.56637
▁report	-8.56664
▁calling	-8.56687
▁bat	-8.56901
▁dom	-8.57334
▁peace	-8.5761
▁felt	-8.5763
▁heavily	-8.57635
▁batman	-8.57662
▁groans	-8.57862
▁fool	-8.57972
ate	-8.58324
rs	-8.58587
▁gets	-8.58593
▁blow	-8.58659
▁quick	-8.58876
▁ethan	-8.59019
▁gllllan	-8.59019
▁security	-8.59019
▁driving	-8.5902
▁aj	-8.5905
▁window	-8.59307
ch	-8.59501
▁loved	-8.5954
▁building	-8.5958
▁fly	-8.60163
▁range	-8.60299
▁amazing	-8.60428
▁paid	-8.60436
▁agent	-8.60773
▁hour	-8.60831
um	-8.60883
▁tires	-8.60934
▁saved	-8.61035
▁changed	-8.61088
▁wonder	-8.61156
▁j	-8.61276
▁short	-8.61543
▁grab	-8.61823
▁island	-8.61856
▁m	-8.62137
▁bearing	-8.62191
▁target	-8.62227
▁boat	-8.62232
▁message	-8.62264
▁kick	-8.62275
▁forgive	-8.63305
▁major	-8.63307
▁mama	-8.63313
▁glad	-8.63327
▁lisa	-8.63342
▁brothers	-8.63399
▁stick	-8.63423
▁r	-8.63453
▁ringing	-8.63612
▁folks	-8.63813
▁comes	-8.63889
▁watching	-8.63944
▁count	-8.64128
▁board	-8.64237
▁handle	-8.64614
▁history	-8.64776
▁rather	-8.64778
▁giving	-8.64778
▁coach	-8.64779
▁cold	-8.64804
▁wall	-8.6481
▁h	-8.64918
▁respect	-8.65204
et	-8.6521
ll	-8.65606
▁takes	-8.65659
▁unit	-8.65896
less	-8.66053
▁arm	-8.66126
▁david	-8.66258
▁pain	-8.66269
▁caught	-8.66269
▁worse	-8.6627
▁clothes	-8.66274
▁known	-8.66508
▁box	-8.66546
▁mark	-8.66605
▁join	-8.6679
▁park	-8.66974
is	-8.67181
▁entire	-8.67637
▁broke	-8.67708
▁hasnt	-8.67784
▁foot	-8.67792
▁personal	-8.678
▁space	-8.67827
▁bud	-8.67846
▁suck	-8.67846
▁band	-8.67889
▁male	-8.6791
▁wonderful	-8.67928
▁mandi	-8.6793
▁k	-8.68204
▁singing	-8.68331
▁plane	-8.68347
▁looked	-8.68378
▁bank	-8.68892
▁jump	-8.69111
▁near	-8.69188
▁shoes	-8.69227
▁girlfriend	-8.69325
ness	-8.6933
▁mister	-8.69345
▁tough	-8.69402
id	-8.69631
▁spirit	-8.69933
▁blue	-8.6994
▁daughter	-8.6994
▁star	-8.70142
▁evening	-8.70287
▁seeing	-8.70364
▁rain	-8.70416
▁wing	-8.70533
ian	-8.7081
▁sheila	-8.70885
▁gym	-8.70885
▁igor	-8.70885
▁boyfriend	-8.70887
▁abby	-8.709
▁absolutely	-8.70906
▁hall	-8.70911
▁unless	-8.70938
▁broken	-8.70991
▁sing	-8.7139
▁poor	-8.72349
▁words	-8.72469
▁across	-8.72472
▁anywhere	-8.72472
▁machine	-8.72472
▁gordon	-8.72472
▁wake	-8.72475
▁favorite	-8.72476
▁shell	-8.72477
▁born	-8.72512
▁tony	-8.72521
▁gary	-8.72542
▁wayne	-8.72661
▁tea	-8.7309
▁aunt	-8.73106
to	-8.73107
▁mistake	-8.7318
▁abe	-8.73266
▁marry	-8.73516
▁share	-8.7361
▁fix	-8.73625
▁cash	-8.74082
▁awesome	-8.74085
▁coffee	-8.74085
▁general	-8.74085
▁aaron	-8.74085
▁dancing	-8.74086
▁film	-8.7409
▁choose	-8.74094
▁amy	-8.74146
▁bar	-8.74205
▁seriously	-8.74308
▁speaks	-8.74393
▁soul	-8.74855
▁teach	-8.75548
▁darling	-8.75724
▁instead	-8.75724
▁cops	-8.76089
ty	-8.76428
▁hat	-8.76486
▁month	-8.7659
▁explain	-8.76947
▁sea	-8.77074
▁bats	-8.7709
▁accident	-8.77378
▁club	-8.77391
▁middle	-8.77391
▁kept	-8.77395
ine	-8.77441
age	-8.77466
▁rules	-8.77582
ry	-8.77618
▁an	-8.78121
▁smell	-8.78258
▁station	-8.78276
il	-8.78294
▁given	-8.78425
▁cap	-8.78908
▁double	-8.79086
▁harvey	-8.79086
▁exhales	-8.79088
▁beach	-8.7909
▁yall	-8.79114
▁round	-8.79118
▁busy	-8.79366
nt	-8.79523
▁knock	-8.79804
lo	-8.79825
▁gas	-8.80179
▁west	-8.80339
▁age	-8.8038
▁race	-8.80553
▁suit	-8.80609
▁walt	-8.8063
▁soft	-8.80663
▁co	-8.80752
▁london	-8.8081
▁tessa	-8.8081
▁attention	-8.80812
▁quit	-8.80831
▁killing	-8.80912
▁cat	-8.81312
▁d	-8.81594
▁offer	-8.816
ro	-8.81733
▁hundred	-8.81773
▁bird	-8.81827
ous	-8.81843
▁jet	-8.81859
▁stone	-8.81862
▁form	-8.82006
▁allow	-8.82118
▁lt	-8.82205
▁language	-8.82564
▁werent	-8.82564
▁worried	-8.82564
▁yesterday	-8.82564
▁wedding	-8.82567
▁devil	-8.82593
▁record	-8.82593
▁sitting	-8.8265
▁player	-8.82679
▁hed	-8.83234
▁push	-8.83237
▁meeting	-8.83457
▁final	-8.83477
▁ran	-8.8375
▁spend	-8.83779
▁sell	-8.8382
▁screams	-8.83822
▁switch	-8.8419
▁glass	-8.84273
ance	-8.8433
▁group	-8.8435
▁tewkesbury	-8.8435
▁linnet	-8.84351
▁proud	-8.84354
▁drunk	-8.84355
▁information	-8.8436
▁yep	-8.84361
▁pool	-8.8439
▁key	-8.84511
▁per	-8.84994
▁tai	-8.85028
▁ow	-8.85141
▁present	-8.85437
▁idiot	-8.85442
ive	-8.85521
ter	-8.85767
▁maya	-8.85879
▁private	-8.86009
▁shh	-8.86151
▁except	-8.86167
▁situation	-8.86168
▁whirring	-8.86168
▁desert	-8.86168
▁smile	-8.86169
▁risk	-8.86169
▁store	-8.86176
▁sad	-8.86235
▁dogs	-8.86255
im	-8.86542
▁lll	-8.8655
▁starting	-8.86794
▁chattering	-8.87211
▁grow	-8.87229
▁search	-8.87449
▁card	-8.87472
ta	-8.87731
▁walking	-8.8779
▁deep	-8.87829
▁al	-8.8787
▁hospital	-8.87996
▁afternoon	-8.8802
▁fbi	-8.8802
▁genius	-8.8802
▁area	-8.8802
▁tired	-8.88045
▁forward	-8.88046
▁speed	-8.8806
▁holy	-8.88357
▁nick	-8.88476
▁seconds	-8.88507
▁cute	-8.89182
▁position	-8.89275
▁fired	-8.89284
▁service	-8.89285
ri	-8.89318
▁imagine	-8.89632
▁match	-8.89822
▁lee	-8.89845
▁forgot	-8.89902
▁throat	-8.89907
▁college	-8.89907
▁female	-8.89907
▁local	-8.89907
▁basketball	-8.89908
▁sharon	-8.89915
▁wind	-8.90154
▁owe	-8.90168
ant	-8.90169
▁mission	-8.90299
▁i	-8.90377
▁lam	-8.90483
▁pack	-8.90798
▁cross	-8.90816
▁ji	-8.90878
▁st	-8.90941
na	-8.91034
▁crime	-8.91217
▁bike	-8.91244
ey	-8.9125
▁weapon	-8.91253
ling	-8.91278
▁lived	-8.91298
▁w	-8.91344
▁joes	-8.9152
▁appreciate	-8.9183
▁bastard	-8.9183
▁pleasure	-8.9183
▁rudder	-8.9183
▁simple	-8.9183
▁purpose	-8.9183
▁roger	-8.91832
▁luke	-8.91833
▁mmhmm	-8.91846
▁loose	-8.91854
▁bigger	-8.9186
▁sweetie	-8.91888
▁ones	-8.91895
▁fit	-8.91923
ia	-8.91934
▁locked	-8.92205
▁beer	-8.92255
▁works	-8.92625
▁jets	-8.92655
▁continue	-8.92751
▁carry	-8.93333
▁complete	-8.93359
▁breaking	-8.93485
▁notice	-8.93513
▁dare	-8.93541
▁prison	-8.93595
▁rick	-8.93652
▁reading	-8.93731
▁mmm	-8.93783
▁derek	-8.93791
▁evidence	-8.93791
▁scene	-8.93791
▁support	-8.93791
▁alex	-8.93792
▁linda	-8.93793
▁extra	-8.93831
▁burn	-8.9414
▁t	-8.94173
▁less	-8.94321
ful	-8.94356
▁tris	-8.94499
▁leader	-8.94547
▁pop	-8.95037
▁en	-8.95065
▁be	-8.95099
▁se	-8.95205
▁ii	-8.95405
▁letter	-8.95568
▁missing	-8.95718
▁chief	-8.95791
▁chaplin	-8.95792
▁jaden	-8.95792
▁starboard	-8.95794
▁irish	-8.95794
▁ken	-8.95849
▁hotel	-8.9586
▁travel	-8.95952
▁screeching	-8.96024
at	-8.96105
▁besides	-8.96234
ma	-8.96273
▁birds	-8.96649
▁cop	-8.97249
▁remind	-8.97254
▁carly	-8.97326
▁frank	-8.97591
▁loud	-8.97734
▁holding	-8.97779
▁church	-8.97822
▁poirot	-8.97832
▁sanchez	-8.97832
▁scoffs	-8.97832
▁tour	-8.97843
ish	-8.97863
▁single	-8.97876
▁code	-8.97884
sh	-8.97887
▁losing	-8.97993
▁cheer	-8.98108
▁shed	-8.98129
▁social	-8.98248
ur	-8.98311
ah	-8.98318
ne	-8.98602
▁cars	-8.99116
▁draw	-8.99365
mo	-8.99429
▁member	-8.99483
▁begin	-8.99528
te	-8.99568
▁suppose	-8.99641
▁base	-8.99648
▁feels	-8.99878
▁favor	-8.9991
▁bourne	-8.99915
▁british	-8.99915
▁greyhound	-8.99915
▁michael	-8.99915
▁cousin	-8.99915
▁smoke	-8.99915
▁silly	-8.99915
▁blind	-8.99916
▁field	-9.00008
▁dirty	-9.0003
ha	-9.00204
▁interesting	-9.00254
▁christ	-9.00274
▁cheers	-9.00366
▁fat	-9.00772
▁gift	-9.01182
▁v	-9.01246
▁fr	-9.01303
▁no	-9.01311
▁accept	-9.01568
▁asshole	-9.01646
▁belong	-9.01653
▁escape	-9.01765
▁eve	-9.0193
▁rat	-9.02001
▁built	-9.02042
▁rachel	-9.02042
▁video	-9.02043
▁dying	-9.02045
▁gotham	-9.02045
▁jerry	-9.02048
▁average	-9.02055
▁third	-9.02064
ist	-9.02076
▁wild	-9.02083
▁path	-9.02119
▁whoo	-9.02195
▁decided	-9.02242
▁mayor	-9.02258
▁beeping	-9.0226
▁dent	-9.024
▁crying	-9.02522
▁roll	-9.02751
▁hole	-9.02987
▁farm	-9.03295
▁spot	-9.03313
▁charge	-9.03465
▁san	-9.03543
▁treat	-9.03741
▁sleeping	-9.03804
▁block	-9.03905
▁vote	-9.03944
▁francis	-9.04211
▁difference	-9.04216
▁grandpa	-9.04217
▁beginning	-9.04217
▁bullshit	-9.04218
▁dodgeball	-9.04218
▁shane	-9.04221
▁crown	-9.04234
▁upon	-9.04259
▁ace	-9.04272
▁cake	-9.04283
▁groaning	-9.04299
▁dumb	-9.04309
▁certainly	-9.04355
▁so	-9.04502
▁faster	-9.04578
▁closer	-9.04595
▁fighting	-9.04939
▁closed	-9.05214
▁pal	-9.05414
▁lock	-9.05763
▁joke	-9.05851
▁di	-9.05853
▁gods	-9.05955
▁trick	-9.05965
▁honest	-9.06091
▁snake	-9.06115
▁computer	-9.06145
▁survive	-9.06147
▁system	-9.06153
▁states	-9.06167
▁strange	-9.06312
▁rule	-9.06326
▁summer	-9.06436
▁bernardo	-9.06439
▁impossible	-9.06439
▁lunch	-9.06439
▁sergeant	-9.06439
▁adele	-9.06439
▁daniel	-9.06439
▁bathroom	-9.0644
▁dramatic	-9.06443
▁alarm	-9.06444
▁stuck	-9.06444
▁battle	-9.06471
▁moon	-9.06475
▁stage	-9.06477
▁obviously	-9.06502
▁planet	-9.0675
▁art	-9.06842
▁hm	-9.06843
▁warm	-9.0708
▁bite	-9.07243
▁played	-9.07277
▁ex	-9.07378
ally	-9.07911
▁mars	-9.08134
▁ms	-9.08175
▁standing	-9.08346
▁curse	-9.0843
▁heaven	-9.08445
▁soldier	-9.08489
▁suspect	-9.08494
▁tight	-9.08512
▁brain	-9.08528
▁certain	-9.0858
▁prove	-9.08591
▁self	-9.08698
▁charles	-9.08711
▁shirt	-9.08711
▁distance	-9.08721
▁chicken	-9.08733
▁spy	-9.08739
▁cooper	-9.0874
▁closes	-9.08748
▁hill	-9.089
ass	-9.09297
ton	-9.0946
▁whose	-9.09474
▁opens	-9.09657
ck	-9.09774
▁names	-9.10164
▁ma	-9.10331
▁goin	-9.10411
li	-9.10619
▁guns	-9.10726
▁judge	-9.10751
▁raise	-9.10761
out	-9.10776
▁shadow	-9.10843
▁paper	-9.10872
▁public	-9.11012
▁price	-9.11026
▁bouc	-9.11037
▁george	-9.11037
▁neither	-9.11037
▁sobbing	-9.11037
▁ransom	-9.11037
▁christmas	-9.11037
▁especially	-9.11039
▁gang	-9.1104
▁bought	-9.11046
▁season	-9.11051
▁pants	-9.11052
▁lay	-9.11085
▁alan	-9.11086
▁stopped	-9.11096
▁honestly	-9.11189
ol	-9.11192
▁cost	-9.11317
ary	-9.11685
▁heading	-9.12114
▁experience	-9.12214
▁using	-9.12323
▁training	-9.12645
▁crack	-9.12695
▁steal	-9.1285
▁deserve	-9.13002
x	-9.1303
▁trip	-9.131
▁realize	-9.13191
▁german	-9.13224
▁sex	-9.13237
▁fell	-9.13271
▁partner	-9.1328
▁conversation	-9.13283
▁stole	-9.13336
▁horn	-9.13351
▁provide	-9.13417
▁decision	-9.13418
▁eagle	-9.13418
▁dallas	-9.13418
▁twice	-9.13419
▁where	-9.13439
▁plans	-9.13533
▁magic	-9.13564
▁brave	-9.13576
▁cher	-9.13968
▁hardin	-9.14007
▁dreams	-9.14347
▁flying	-9.14379
ted	-9.1439
tion	-9.14415
▁dress	-9.14753
tic	-9.15046
ts	-9.15359
▁color	-9.15402
▁sight	-9.15488
▁command	-9.15702
▁sheriff	-9.15742
▁queen	-9.15754
▁talked	-9.15796
▁alpha	-9.15857
▁counselor	-9.1586
▁josie	-9.15862
▁east	-9.15864
▁wailing	-9.15894
▁whatd	-9.15915
▁interested	-9.16164
▁putting	-9.16254
▁lovely	-9.16456
▁weapons	-9.16596
▁shouts	-9.16654
▁showed	-9.16831
▁ted	-9.16954
▁wearing	-9.16983
▁track	-9.17356
▁arms	-9.17512
▁books	-9.1769
▁legs	-9.17756
ent	-9.17765
▁reports	-9.1791
▁butt	-9.17925
▁cry	-9.17939
▁agree	-9.18053
▁helped	-9.18119
j	-9.18145
▁strength	-9.18318
▁empire	-9.18357
▁famous	-9.18357
▁lieutenant	-9.18357
▁regret	-9.18357
▁siveth	-9.18357
▁tongue	-9.18357
▁treasure	-9.18357
▁spent	-9.18358
▁terrible	-9.18358
▁bullet	-9.18358
▁joni	-9.18359
▁hungry	-9.18366
▁luce	-9.18367
▁howard	-9.18369
▁loop	-9.18597
▁po	-9.18699
▁wine	-9.19274
▁up	-9.19326
▁bro	-9.1941
▁games	-9.19737
▁players	-9.19746
▁sand	-9.19835
▁bear	-9.2016
▁mate	-9.20224
▁focus	-9.20476
▁screw	-9.2054
▁witch	-9.2084
▁apart	-9.20899
▁roman	-9.20909
▁became	-9.20921
▁heavy	-9.20921
▁nervous	-9.20921
▁professor	-9.20921
▁upstairs	-9.20921
▁swim	-9.20922
▁device	-9.20923
▁address	-9.20924
▁toast	-9.20924
▁exist	-9.20931
▁flight	-9.20934
▁jail	-9.20935
▁noise	-9.2094
▁contract	-9.20948
▁scout	-9.20982
▁standard	-9.20983
▁taste	-9.20995
▁doin	-9.21009
▁hiding	-9.21078
▁completely	-9.21112
▁nine	-9.21162
▁ice	-9.21201
▁pro	-9.21283
▁out	-9.21338
▁post	-9.21384
▁crap	-9.21793
▁wouldve	-9.22021
▁over	-9.22195
am	-9.22201
▁picked	-9.22568
▁ba	-9.22836
▁thinks	-9.22873
▁shaw	-9.2333
▁beth	-9.23476
▁french	-9.23553
▁molly	-9.23553
▁repeat	-9.23553
▁permission	-9.23554
▁department	-9.23558
▁babe	-9.23559
▁football	-9.23559
▁worst	-9.23559
▁defense	-9.23569
▁sky	-9.23573
▁christian	-9.23574
▁grand	-9.23587
▁corner	-9.23601
▁lying	-9.23617
▁stolen	-9.23643
▁gasping	-9.23702
▁pete	-9.23712
▁falcone	-9.23814
▁army	-9.23896
▁greatest	-9.23943
▁keeping	-9.23974
▁allowed	-9.24209
▁ring	-9.24499
▁promised	-9.24626
bo	-9.25403
▁messages	-9.25516
▁mo	-9.25556
▁garden	-9.25735
▁con	-9.25749
▁ra	-9.25923
▁feed	-9.26138
▁bow	-9.2621
▁howd	-9.26252
▁mitch	-9.26254
▁congratulations	-9.26255
▁league	-9.26255
▁mycroft	-9.26255
▁speech	-9.26255
▁grace	-9.26255
▁nope	-9.26255
▁rescue	-9.26255
▁storm	-9.26255
▁excellent	-9.26266
▁secretary	-9.26279
▁bull	-9.26282
▁understood	-9.26303
▁mommy	-9.26309
▁moved	-9.26411
▁han	-9.26412
▁type	-9.26462
▁mountain	-9.26464
▁pa	-9.26656
▁list	-9.26688
▁palm	-9.26752
▁rent	-9.26758
and	-9.26883
▁figured	-9.26895
▁fu	-9.27058
▁finished	-9.27212
▁heads	-9.27278
▁driver	-9.27303
▁ne	-9.27517
▁visit	-9.27967
▁el	-9.28095
▁freak	-9.28114
▁orders	-9.28366
▁prefer	-9.28377
▁iron	-9.28378
▁fill	-9.28457
▁build	-9.28471
▁starts	-9.2853
▁mary	-9.28574
▁grant	-9.28639
▁practice	-9.28737
▁total	-9.28898
▁keys	-9.28954
▁pe	-9.28958
▁split	-9.29001
▁admit	-9.29021
▁bunch	-9.29033
▁clark	-9.29033
▁difficult	-9.29033
▁knife	-9.29033
▁sherlock	-9.29033
▁within	-9.29033
▁river	-9.29034
▁chuckling	-9.29034
▁diana	-9.29035
▁inspector	-9.29036
▁government	-9.29037
▁evil	-9.29037
▁bruce	-9.29039
▁riff	-9.29039
▁pressure	-9.29042
▁pilot	-9.2905
▁sold	-9.29052
▁taught	-9.29057
▁danger	-9.29061
▁lane	-9.29076
▁involved	-9.29084
▁brooke	-9.29132
▁named	-9.29133
▁main	-9.29144
▁dean	-9.29176
▁vi	-9.29196
cy	-9.29273
▁spell	-9.29298
▁remain	-9.2932
▁threat	-9.29332
▁account	-9.29339
▁pirate	-9.29346
▁tree	-9.29349
▁tom	-9.29576
co	-9.29584
▁reporter	-9.2962
▁listening	-9.29638
▁sh	-9.29726
ul	-9.30181
ac	-9.30346
▁do	-9.30456
▁carol	-9.3046
▁fingers	-9.30977
▁o	-9.31103
po	-9.31173
▁shooting	-9.31253
▁ends	-9.31293
▁press	-9.31336
▁punch	-9.31343
▁arrest	-9.3145
line	-9.31452
▁woo	-9.3146
▁he	-9.31467
▁jones	-9.31685
▁balls	-9.31695
▁meg	-9.31763
men	-9.31827
▁doubt	-9.3189
▁explosive	-9.3189
▁texas	-9.3189
▁muffle	-9.3189
▁competition	-9.31891
▁maddie	-9.31891
▁spider	-9.31891
▁rumbling	-9.31892
▁sweetheart	-9.31892
▁zooey	-9.31893
▁harry	-9.31902
▁director	-9.31906
▁package	-9.31914
▁mail	-9.31915
▁elliott	-9.31917
▁apartment	-9.31918
▁weekend	-9.31924
▁chino	-9.31926
▁cabin	-9.31944
▁ballet	-9.31948
▁safety	-9.31967
▁usually	-9.3199
▁hoping	-9.32031
▁amen	-9.32043
▁softly	-9.32133
▁dragon	-9.32257
▁guard	-9.32258
ated	-9.32313
oit	-9.32432
▁breath	-9.32517
▁turning	-9.32832
▁murdered	-9.32977
▁gosh	-9.3305
▁fa	-9.33074
led	-9.33305
▁huge	-9.33322
ir	-9.33377
ot	-9.33712
un	-9.33728
ge	-9.33822
▁consider	-9.33838
▁plays	-9.34059
▁study	-9.3424
▁animals	-9.34347
▁talent	-9.34387
▁destroy	-9.34397
▁fail	-9.34412
▁fan	-9.34429
▁martin	-9.34499
▁waste	-9.34548
▁decide	-9.34556
▁skin	-9.34603
▁mike	-9.34644
▁excited	-9.34672
▁challenge	-9.34688
▁glob	-9.34741
▁neck	-9.34783
▁gettin	-9.34789
▁adult	-9.34831
▁atreides	-9.34831
▁duncan	-9.34831
▁insane	-9.34831
▁jealous	-9.34831
▁jerem	-9.34831
▁kitchen	-9.34831
▁monsieur	-9.34831
▁plenty	-9.34831
▁stories	-9.34831
▁threw	-9.34831
▁traitor	-9.34831
▁grew	-9.34832
▁funeral	-9.34832
▁justice	-9.34833
▁whoever	-9.34835
▁steady	-9.3484
▁winner	-9.34848
▁medicine	-9.34862
▁market	-9.34866
▁center	-9.34879
▁level	-9.34895
▁powerful	-9.34895
ell	-9.34942
▁hook	-9.34971
▁buzzing	-9.35059
▁plus	-9.35163
▁operation	-9.35171
▁champion	-9.35297
▁ticket	-9.35303
▁animal	-9.35318
▁trap	-9.35502
▁shame	-9.35577
op	-9.35627
▁harder	-9.36074
▁clicks	-9.36112
ism	-9.36324
▁passed	-9.36376
▁blues	-9.36648
time	-9.3693
ill	-9.37105
▁mon	-9.37378
▁borrow	-9.37403
▁correct	-9.37792
▁somethin	-9.3781
▁cassie	-9.37862
▁constable	-9.37862
▁pocket	-9.37862
▁truly	-9.37862
▁vehicle	-9.37862
▁clyde	-9.37862
▁attempt	-9.37862
▁chicago	-9.37862
▁firing	-9.37866
▁inhales	-9.37868
▁anita	-9.37873
▁royal	-9.37875
▁fever	-9.37885
▁dash	-9.379
▁convoy	-9.37903
▁simon	-9.37908
▁aah	-9.37909
▁project	-9.3791
▁josh	-9.37916
▁sal	-9.3797
▁bond	-9.37972
▁fallen	-9.37981
▁lines	-9.38029
▁kyle	-9.38039
▁action	-9.38094
▁note	-9.38096
▁add	-9.38098
▁career	-9.38354
▁camera	-9.38424
▁ay	-9.38481
▁dollars	-9.38621
do	-9.38798
go	-9.38887
▁due	-9.38901
▁van	-9.39349
off	-9.39848
son	-9.39906
▁staying	-9.39937
▁chris	-9.40082
▁crash	-9.40327
▁log	-9.40397
▁bo	-9.40545
tor	-9.40712
ure	-9.40734
▁cuba	-9.40927
▁calls	-9.40968
▁apparently	-9.40987
▁beyond	-9.40987
▁character	-9.40987
▁enemy	-9.40987
▁relationship	-9.40987
▁wrote	-9.40987
▁japanese	-9.40987
▁nurse	-9.40987
▁somehow	-9.40988
▁thunder	-9.40988
▁popular	-9.4099
▁secure	-9.40992
▁investigation	-9.40992
▁location	-9.40993
▁alice	-9.40996
▁electricity	-9.40998
▁text	-9.41006
▁bright	-9.41015
▁smith	-9.41022
▁jill	-9.41036
▁commissioner	-9.41046
▁national	-9.41072
▁phil	-9.41073
▁skull	-9.41202
▁shoe	-9.41224
▁deeply	-9.41235
▁pig	-9.41416
▁paris	-9.41469
▁ko	-9.41471
▁bomb	-9.4167
▁russian	-9.41676
▁chuckle	-9.41693
no	-9.41711
▁soo	-9.41725
▁salt	-9.41849
▁faith	-9.41882
▁matters	-9.41908
▁couldve	-9.4225
▁heat	-9.42455
▁feelings	-9.4257
ever	-9.42808
▁lights	-9.42815
▁yards	-9.42934
▁fathers	-9.43094
ci	-9.43132
▁request	-9.43167
▁pen	-9.43459
▁shock	-9.4362
em	-9.43646
▁serve	-9.43905
▁settle	-9.43946
▁shop	-9.44199
▁access	-9.4421
▁breakfast	-9.44213
▁elizabeth	-9.44213
▁eudoria	-9.44213
▁kennedy	-9.44213
▁often	-9.44213
▁oswald	-9.44213
▁shouldve	-9.44213
▁suicide	-9.44213
▁hadnt	-9.44213
▁upset	-9.44213
▁program	-9.44214
▁nature	-9.44214
▁willing	-9.44216
▁planning	-9.44217
▁earlier	-9.44217
▁sake	-9.44218
▁square	-9.4422
▁mitchell	-9.44223
▁fake	-9.44234
▁curly	-9.44235
▁duty	-9.44242
▁handsome	-9.44245
▁immediately	-9.44263
▁squad	-9.44281
▁riddler	-9.44284
▁jay	-9.44351
▁problems	-9.44489
▁drug	-9.44612
▁fresh	-9.44679
▁leg	-9.44688
▁pre	-9.44724
▁surprised	-9.44882
▁writer	-9.44977
▁letters	-9.45032
▁higher	-9.4513
▁bloody	-9.45279
▁fe	-9.45318
ee	-9.45497
▁bringing	-9.45624
▁lift	-9.45698
▁tigers	-9.45879
▁wings	-9.46218
▁rid	-9.4624
▁dis	-9.46257
▁paint	-9.46376
▁parts	-9.4654
▁harm	-9.46977
▁tie	-9.47042
▁aw	-9.47098
▁ann	-9.47136
▁pirates	-9.47174
▁doors	-9.47436
▁fellow	-9.4746
▁super	-9.47483
one	-9.47501
ious	-9.4752
▁bravo	-9.47546
▁jakob	-9.47546
▁kahndaq	-9.47546
▁loretta	-9.47546
▁ridiculous	-9.47546
▁simply	-9.47546
▁village	-9.47546
▁jazz	-9.47547
▁value	-9.47547
▁buried	-9.47547
▁foreign	-9.47547
▁common	-9.47548
▁brush	-9.47551
▁junior	-9.47553
▁brilliant	-9.47555
▁fleur	-9.47558
▁outta	-9.47565
▁screen	-9.47579
▁data	-9.47582
▁robin	-9.47602
▁march	-9.47613
▁mum	-9.47627
▁chi	-9.47642
▁cup	-9.47675
▁sighing	-9.47694
▁saving	-9.4772
▁nose	-9.47761
▁whispers	-9.47769
▁yelling	-9.47772
▁ford	-9.47803
▁scare	-9.47819
▁sara	-9.47846
▁quickly	-9.479
▁gotten	-9.47957
▁joker	-9.47978
▁places	-9.48058
▁doyle	-9.48349
▁thousand	-9.48431
▁quarter	-9.48549
de	-9.48642
▁ed	-9.48725
▁tear	-9.48959
ny	-9.49002
▁answers	-9.49175
▁sim	-9.49237
▁flowers	-9.49377
▁mob	-9.49527
▁older	-9.49567
▁interest	-9.50063
▁ships	-9.50343
▁witness	-9.50451
▁eli	-9.50644
▁fran	-9.5074
▁dirt	-9.5081
▁original	-9.5086
▁twenty	-9.50993
▁circus	-9.50994
▁fortune	-9.50994
▁fremen	-9.50994
▁pretend	-9.50994
▁salute	-9.50994
▁sanitation	-9.50994
▁subject	-9.50994
▁vegas	-9.50994
▁midnight	-9.50995
▁empty	-9.50997
▁angry	-9.50998
▁rough	-9.50998
▁happiness	-9.50998
▁foul	-9.50998
▁teeth	-9.51
▁chair	-9.51001
▁adam	-9.51001
▁nico	-9.51003
▁uhhuh	-9.51011
▁credit	-9.51015
▁laughter	-9.51041
▁eh	-9.51087
▁suddenly	-9.51099
▁writing	-9.51116
▁shawn	-9.51137
▁dicky	-9.51154
▁chirping	-9.51163
▁invited	-9.51214
▁honk	-9.51277
▁pictures	-9.51293
eful	-9.51338
▁headed	-9.51428
▁indistinctly	-9.51464
▁scream	-9.51477
▁failed	-9.51507
▁destroyed	-9.51508
▁metal	-9.5154
▁degrees	-9.51588
▁clan	-9.51611
▁warn	-9.51812
▁nuts	-9.5182
he	-9.5189
▁growing	-9.5206
▁page	-9.52147
ring	-9.522
▁frances	-9.52229
▁ward	-9.52498
▁opening	-9.52629
▁files	-9.52947
▁liked	-9.53052
io	-9.53284
▁hearts	-9.53317
▁lies	-9.53461
▁leads	-9.53519
▁following	-9.53624
▁sending	-9.53675
▁drugs	-9.53709
king	-9.53875
ut	-9.54112
▁wood	-9.54326
▁rings	-9.54381
▁weak	-9.54381
ip	-9.5443
▁points	-9.54435
▁defend	-9.54464
▁spoke	-9.54482
▁liz	-9.54519
▁suspens	-9.54565
▁afford	-9.54566
▁border	-9.54566
▁condition	-9.54566
▁emperor	-9.54566
▁england	-9.54566
▁innocent	-9.54566
▁mexico	-9.54566
▁military	-9.54566
▁penguin	-9.54566
▁ramsey	-9.54566
▁ugly	-9.54566
▁roaring	-9.54566
▁mask	-9.54567
▁insist	-9.54567
cient	-9.54567
▁slide	-9.54569
▁everywhere	-9.54571
▁thatll	-9.54576
▁emergency	-9.54576
▁memory	-9.54578
▁xu	-9.54579
▁winning	-9.54603
que	-9.54611
▁rare	-9.54617
▁ox	-9.54655
▁view	-9.54657
▁down	-9.54819
▁warning	-9.55146
▁screwed	-9.55177
▁mis	-9.55193
▁streets	-9.55427
▁ke	-9.55577
▁criminal	-9.557
▁finger	-9.55727
▁lied	-9.55755
▁rose	-9.55849
▁er	-9.56045
ca	-9.56088
▁para	-9.56137
▁beeps	-9.56238
▁shots	-9.56281
▁acting	-9.56343
ize	-9.56575
▁falling	-9.56742
ore	-9.56931
▁fate	-9.56966
os	-9.56969
ke	-9.5698
▁walked	-9.57068
▁pigs	-9.57496
▁suggest	-9.575
▁spread	-9.57682
▁spin	-9.57762
▁wa	-9.5793
▁prepare	-9.57991
▁sharp	-9.58097
▁cheap	-9.58104
▁gr	-9.58107
▁medic	-9.58131
▁tall	-9.58162
▁chick	-9.58245
▁cast	-9.58261
▁flat	-9.58261
▁apologize	-9.58269
▁closing	-9.58269
▁curtis	-9.58269
▁energy	-9.58269
▁literally	-9.58269
▁research	-9.58269
▁responsible	-9.58269
▁taehun	-9.58269
▁wagner	-9.58269
▁written	-9.58269
▁opinion	-9.58269
▁wolf	-9.58269
▁choir	-9.5827
▁necklace	-9.58271
▁hidden	-9.58271
▁cream	-9.58272
▁avoid	-9.58272
▁aware	-9.58273
▁mmmhmm	-9.58274
▁tej	-9.58276
▁brian	-9.58276
▁jeanine	-9.58278
▁xian	-9.58278
▁onto	-9.58283
▁solo	-9.58293
▁hugh	-9.58301
▁loan	-9.58302
▁pr	-9.58304
▁sarah	-9.58309
▁style	-9.58321
▁whispering	-9.58324
per	-9.58372
▁fuel	-9.58375
▁protection	-9.5843
ster	-9.58511
▁squealing	-9.58602
▁bump	-9.58736
und	-9.58761
oo	-9.58792
▁noticed	-9.58823
cu	-9.59125
ud	-9.59278
▁how	-9.59463
▁option	-9.59552
▁angel	-9.5964
▁finding	-9.59969
end	-9.60308
▁kinda	-9.60446
der	-9.60454
▁passing	-9.60826
▁fighter	-9.60943
▁lo	-9.61026
▁ended	-9.6149
▁trees	-9.6169
▁drinking	-9.61744
▁wash	-9.61762
▁recognize	-9.61825
▁trade	-9.61851
▁earl	-9.61974
▁fle	-9.6198
right	-9.6201
▁riva	-9.62055
ley	-9.62112
▁alabama	-9.62115
▁although	-9.62115
▁armstrong	-9.62115
▁arrakis	-9.62115
▁burchard	-9.62115
▁explosion	-9.62115
▁mtumbie	-9.62115
▁otherwise	-9.62115
▁pattern	-9.62115
▁tamra	-9.62115
▁ventura	-9.62115
▁footsteps	-9.62115
▁theater	-9.62115
▁thomas	-9.62116
▁goanna	-9.62116
▁chinese	-9.62116
▁diane	-9.62118
▁wherever	-9.62121
▁duke	-9.62121
▁pair	-9.62129
▁tense	-9.62134
▁size	-9.62169
▁clamoring	-9.62172
▁rex	-9.62175
▁lonely	-9.62185
▁capable	-9.62186
▁syd	-9.6222
▁madame	-9.62222
▁marian	-9.62228
▁arrived	-9.62233
▁cab	-9.62303
▁manager	-9.62311
▁commander	-9.62362
▁papers	-9.62393
▁coat	-9.62406
▁sexy	-9.62432
▁bra	-9.62622
ade	-9.627
▁towards	-9.62884
▁moves	-9.6289
▁forced	-9.62926
▁edge	-9.62926
▁fl	-9.63044
way	-9.63104
▁yells	-9.63304
▁all	-9.63376
▁instrument	-9.63481
▁loves	-9.63485
▁victim	-9.6353
▁chain	-9.63558
▁murderer	-9.63596
▁eggs	-9.636
▁har	-9.63619
▁hardly	-9.63664
▁wondering	-9.63672
▁teacher	-9.63872
▁signal	-9.63978
▁temp	-9.6402
▁loser	-9.64152
▁bi	-9.64281
tan	-9.64525
▁rip	-9.64848
▁hunt	-9.64883
▁ti	-9.65167
ble	-9.65167
▁turns	-9.65187
▁helping	-9.65236
▁stops	-9.65366
▁showing	-9.65372
▁bother	-9.65529
▁brown	-9.65579
▁blame	-9.65602
▁claim	-9.65657
▁ruin	-9.65726
▁n	-9.65779
▁leaves	-9.65789
▁eating	-9.65832
▁release	-9.65834
▁create	-9.65843
ations	-9.65877
▁jung	-9.66108
▁equipment	-9.66115
▁gertrude	-9.66115
▁holiday	-9.66115
▁israel	-9.66115
▁johanna	-9.66115
▁daisy	-9.66115
▁biggest	-9.66116
▁susu	-9.66116
▁theyd	-9.66116
▁nowhere	-9.66116
▁revving	-9.66117
▁beauty	-9.66118
▁pride	-9.66119
▁vision	-9.66119
▁ratchett	-9.66133
▁cmon	-9.66137
▁trace	-9.66139
▁noah	-9.6614
▁grid	-9.6614
▁anton	-9.66143
▁lake	-9.66146
▁grandma	-9.66148
▁ellen	-9.66151
▁hallet	-9.6616
▁oil	-9.6616
▁held	-9.66168
▁direction	-9.66174
▁cow	-9.66182
▁apple	-9.66197
▁gilly	-9.66212
▁asset	-9.66233
▁owner	-9.66241
▁bleeding	-9.66243
▁ro	-9.66258
▁weight	-9.66327
▁created	-9.66397
▁passes	-9.66521
▁lower	-9.66642
▁escaped	-9.66645
▁timeout	-9.6671
▁seal	-9.66719
ki	-9.66943
▁burned	-9.67008
▁ear	-9.67116
▁dry	-9.67328
▁awful	-9.67544
▁counting	-9.67681
▁wo	-9.67701
▁wheel	-9.67709
▁yard	-9.67753
▁records	-9.67824
▁schedule	-9.68169
side	-9.68702
be	-9.69267
▁automat	-9.69406
▁surely	-9.69631
ium	-9.6965
ship	-9.69687
▁design	-9.69829
▁crush	-9.6984
▁ghosts	-9.69883
▁mention	-9.6996
ast	-9.70004
▁non	-9.70016
▁dick	-9.7007
▁mu	-9.70084
▁usual	-9.70138
▁clears	-9.70141
▁africa	-9.70198
▁russia	-9.70207
▁complicated	-9.70282
▁experiment	-9.70282
▁frankenstein	-9.70282
▁marriage	-9.70282
▁possibly	-9.70282
▁saiwing	-9.70282
▁traffic	-9.70282
▁woolf	-9.70282
▁droid	-9.70282
▁holmes	-9.70282
▁spark	-9.70282
▁library	-9.70282
▁trigger	-9.70282
▁entrance	-9.70286
▁mellie	-9.70291
▁lester	-9.70294
▁dropped	-9.70296
▁confused	-9.703
▁spare	-9.70303
▁route	-9.7031
▁maid	-9.70314
▁enter	-9.70315
▁peterson	-9.70317
▁drill	-9.70336
▁cheat	-9.7036
▁professional	-9.70376
▁committed	-9.70381
▁mount	-9.7039
▁hearing	-9.70427
▁barking	-9.70439
▁itd	-9.7046
▁hire	-9.7048
▁mia	-9.70494
▁mile	-9.70503
▁hood	-9.7056
▁hired	-9.7057
▁prepared	-9.70606
▁lab	-9.70634
▁u	-9.70642
▁agreed	-9.70752
▁circle	-9.70781
▁stock	-9.7091
▁letty	-9.70912
▁charges	-9.70931
▁tail	-9.71046
▁fellas	-9.71047
▁dressed	-9.71071
ita	-9.71572
▁beg	-9.71653
by	-9.71717
▁ar	-9.71718
▁conn	-9.71904
▁affair	-9.72006
▁nah	-9.72197
▁rider	-9.72325
▁meaning	-9.7254
▁spit	-9.72598
om	-9.72637
mate	-9.7284
▁mi	-9.72916
rr	-9.73215
▁tears	-9.73525
▁stars	-9.73794
▁cr	-9.74008
▁pet	-9.74047
ff	-9.74088
▁can	-9.74135
▁disappear	-9.74181
back	-9.74274
▁introduce	-9.74351
▁invite	-9.74353
▁tip	-9.74453
▁secrets	-9.74457
▁hung	-9.74468
▁shake	-9.7455
▁guide	-9.74597
▁perform	-9.74615
▁fantastic	-9.7463
▁fountain	-9.7463
▁malcolm	-9.7463
▁mirror	-9.7463
▁necessary	-9.7463
▁ocean	-9.7463
▁science	-9.7463
▁society	-9.7463
▁whistling	-9.7463
▁oath	-9.7463
▁lucas	-9.7463
▁desire	-9.7463
▁maroni	-9.74631
▁audience	-9.74631
▁grandmother	-9.74631
▁strike	-9.74631
▁patrick	-9.74632
▁print	-9.74632
▁amon	-9.74632
▁downtown	-9.74632
▁jeff	-9.74633
▁pregnant	-9.74633
▁insurance	-9.74633
▁cruise	-9.74634
▁amount	-9.74637
▁alien	-9.74637
▁exchange	-9.7464
▁assistant	-9.74643
▁fancy	-9.74644
▁property	-9.74645
▁bedroom	-9.74646
▁opportunity	-9.74652
▁airport	-9.74652
▁pink	-9.7466
▁trial	-9.74664
▁aim	-9.74691
▁guilty	-9.74695
▁bride	-9.74708
▁shape	-9.74717
▁dating	-9.7473
▁pipe	-9.74763
▁herb	-9.74767
▁grown	-9.74828
▁lots	-9.74833
▁castle	-9.74843
▁jackie	-9.75001
▁concerned	-9.7501
cha	-9.75494
▁checking	-9.75498
▁on	-9.75644
▁dads	-9.75725
▁spice	-9.75737
▁speakers	-9.75841
▁drawing	-9.75841
▁sooner	-9.75843
▁traveling	-9.75873
gu	-9.75901
ok	-9.75915
▁goodness	-9.75989
▁services	-9.76097
▁dee	-9.76163
me	-9.76272
▁score	-9.76319
ax	-9.76453
▁returned	-9.76454
▁sword	-9.76581
▁lawyer	-9.76583
▁guest	-9.7662
▁stranger	-9.7679
fully	-9.76854
▁sirens	-9.76918
▁followed	-9.77203
▁spirits	-9.77366
▁le	-9.77748
▁sa	-9.77793
of	-9.77826
ier	-9.77827
▁voices	-9.77847
▁pee	-9.7803
▁grade	-9.78053
land	-9.78199
ized	-9.78315
▁me	-9.78383
▁fans	-9.78459
▁tank	-9.7849
▁discuss	-9.78575
▁file	-9.78712
what	-9.78771
▁peregrine	-9.78991
▁pieces	-9.78996
▁sweat	-9.79007
▁proper	-9.79064
▁chose	-9.79092
▁nothin	-9.79123
▁applause	-9.79175
▁jessica	-9.79175
▁journey	-9.79175
▁madagin	-9.79175
▁motive	-9.79175
▁negro	-9.79175
▁physical	-9.79175
▁silver	-9.79175
▁taylor	-9.79175
▁byebye	-9.79175
▁several	-9.79175
▁troy	-9.79176
▁swimming	-9.79176
▁cheese	-9.79176
▁whenever	-9.7918
▁desk	-9.7918
▁foster	-9.7918
▁spring	-9.79181
▁percent	-9.79181
▁permit	-9.79182
▁freedom	-9.79185
▁tommy	-9.79186
▁grandfather	-9.79187
▁forgotten	-9.79187
▁gunfire	-9.79189
▁passport	-9.79195
▁juan	-9.79195
▁launch	-9.79197
▁rise	-9.79198
▁forest	-9.79205
▁suzy	-9.79207
▁according	-9.79216
▁unfortunately	-9.79227
▁dust	-9.79227
▁announcer	-9.79228
▁kevin	-9.79228
▁barely	-9.79248
▁deck	-9.79265
▁gate	-9.79268
▁china	-9.79275
▁blast	-9.79294
▁anger	-9.79307
▁hips	-9.79316
▁mack	-9.79344
▁sharply	-9.79357
▁scary	-9.79363
▁tape	-9.79383
▁sadie	-9.79394
▁mikey	-9.79479
▁ahh	-9.79524
▁erase	-9.79534
▁germany	-9.79552
▁entirely	-9.79624
▁swing	-9.79631
▁celebrate	-9.79792
▁stronger	-9.79802
▁paying	-9.79855
▁belongs	-9.79994
▁lin	-9.80034
▁painting	-9.80058
▁mustve	-9.80062
ions	-9.80329
▁skills	-9.80456
▁joined	-9.80527
ab	-9.80653
▁learned	-9.80834
▁grunt	-9.80875
▁seemed	-9.80931
head	-9.81005
▁sub	-9.8105
▁blowing	-9.81071
▁finals	-9.81084
▁suits	-9.81276
▁learning	-9.81335
▁wh	-9.81363
▁student	-9.81369
▁pulled	-9.81394
oh	-9.81431
▁flower	-9.81484
▁bone	-9.81537
▁whistles	-9.81562
▁souls	-9.8168
▁bones	-9.81735
▁ears	-9.82137
▁engines	-9.82423
▁lu	-9.82555
▁su	-9.82578
▁cu	-9.82779
▁assume	-9.82792
▁hurts	-9.828
▁os	-9.82863
▁goal	-9.83015
▁leo	-9.83283
▁guards	-9.83299
▁shower	-9.83305
▁mothers	-9.83325
▁nba	-9.83329
▁suffer	-9.83364
▁screech	-9.83376
▁ja	-9.83404
you	-9.83412
▁confirm	-9.83475
▁checked	-9.83548
▁pin	-9.83603
▁clock	-9.83667
▁coast	-9.83789
▁sudden	-9.83791
▁pow	-9.83812
dy	-9.83825
▁europe	-9.83937
▁creaking	-9.83937
▁echelon	-9.83937
▁effort	-9.83937
▁honeymoon	-9.83937
▁lestrade	-9.83937
▁positive	-9.83937
▁progress	-9.83937
▁puerto	-9.83937
▁routine	-9.83937
▁satellite	-9.83937
▁stewart	-9.83937
▁suspicious	-9.83937
▁university	-9.83937
▁wagon	-9.83937
▁dragonfly	-9.83937
▁exciting	-9.83937
▁pardon	-9.83937
▁particular	-9.83937
▁laurie	-9.83937
▁wasting	-9.83939
▁accent	-9.83939
▁central	-9.8394
▁liar	-9.8394
▁vacation	-9.8394
▁combat	-9.83941
▁shift	-9.83942
▁element	-9.83942
▁aboard	-9.83948
▁online	-9.83948
▁intelligence	-9.83948
▁darrin	-9.83949
▁fought	-9.83949
▁fox	-9.83951
▁under	-9.83956
▁elton	-9.83957
▁sunday	-9.83959
▁aside	-9.83967
▁labor	-9.8398
▁accountant	-9.83986
▁yup	-9.84003
▁exit	-9.84021
▁active	-9.84047
▁interrupt	-9.84059
▁numbers	-9.84112
▁healthy	-9.84113
▁kiddo	-9.84118
▁challenger	-9.84171
▁sink	-9.84174
▁yu	-9.84179
▁earn	-9.84323
▁navy	-9.84329
▁heh	-9.84338
▁horses	-9.84348
▁cha	-9.84368
▁soldiers	-9.84422
▁bb	-9.84489
▁rob	-9.84517
▁raised	-9.84518
▁ga	-9.84544
▁the	-9.84566
▁memo	-9.84568
▁slams	-9.84644
▁ni	-9.84713
▁perfectly	-9.84855
▁scar	-9.84895
over	-9.84988
▁clearly	-9.85093
▁stealing	-9.85098
▁rd	-9.85233
▁rey	-9.85298
▁pure	-9.85348
di	-9.85374
▁armed	-9.85503
▁knocking	-9.85549
▁jam	-9.85677
▁moments	-9.85684
our	-9.85752
▁boxing	-9.85786
▁sat	-9.85996
▁engineer	-9.86064
ite	-9.86254
▁bottle	-9.86299
▁whistle	-9.86371
▁tiger	-9.8639
nda	-9.86456
▁trained	-9.86545
▁students	-9.86573
▁ren	-9.86578
ney	-9.86828
▁ver	-9.86932
▁hanging	-9.87131
bb	-9.87176
▁trusted	-9.87478
▁flip	-9.876
▁thousands	-9.87613
wa	-9.87987
▁siren	-9.88068
▁ad	-9.88068
ka	-9.88072
ice	-9.88117
▁bee	-9.88129
▁tickets	-9.88136
▁to	-9.8829
▁pi	-9.8835
▁du	-9.8836
▁cook	-9.884
▁pan	-9.88436
▁falcon	-9.88436
▁concern	-9.88503
ig	-9.88511
▁success	-9.88542
▁divorce	-9.88644
▁damage	-9.88655
▁remove	-9.88672
kin	-9.88673
▁replace	-9.88676
▁tomb	-9.88701
▁obvious	-9.88792
▁object	-9.88921
▁effect	-9.88921
▁advice	-9.88937
▁asleep	-9.88937
▁century	-9.88937
▁clifton	-9.88937
▁clown	-9.88937
▁dennis	-9.88937
▁gillian	-9.88937
▁gregory	-9.88937
▁incident	-9.88937
▁janusz	-9.88937
▁miracle	-9.88937
▁rebecca	-9.88937
▁sacred	-9.88937
▁weather	-9.88937
▁whether	-9.88937
▁wreck	-9.88937
▁expert	-9.88937
▁lukas	-9.88937
▁period	-9.88937
▁distort	-9.88938
▁violence	-9.88938
▁indeed	-9.88938
▁material	-9.88938
▁interview	-9.88939
▁incredible	-9.88939
▁gummer	-9.88941
▁someday	-9.88941
▁maintain	-9.88942
▁jerk	-9.88942
▁couch	-9.88942
▁harrison	-9.88943
▁process	-9.88943
▁source	-9.88943
▁clever	-9.88944
▁kingdom	-9.88945
▁zone	-9.88946
▁giant	-9.88947
▁resistance	-9.88947
▁hostage	-9.88948
▁planned	-9.88954
▁federal	-9.88955
▁romantic	-9.88959
▁dishes	-9.88966
▁smoking	-9.88968
▁raid	-9.88968
▁kathy	-9.88972
▁panic	-9.88981
▁milk	-9.88984
▁mercy	-9.89013
▁grave	-9.89027
▁extremely	-9.89039
▁meal	-9.89049
▁spoken	-9.89054
▁mmmm	-9.89064
▁crackl	-9.89123
▁ought	-9.89135
▁fort	-9.89145
▁glen	-9.89177
▁ignore	-9.89208
▁stayed	-9.89212
▁zed	-9.89262
▁approaching	-9.89275
▁mid	-9.89325
br	-9.8936
▁union	-9.89425
▁jin	-9.89507
▁dig	-9.896
▁movies	-9.89649
▁ca	-9.897
▁pot	-9.89725
▁cares	-9.89786
ay	-9.89911
▁event	-9.8996
▁lately	-9.90073
▁tracking	-9.90098
ern	-9.90115
▁hug	-9.90201
▁younger	-9.9028
▁drinks	-9.90386
mer	-9.90655
▁staring	-9.90807
▁cards	-9.9095
▁sports	-9.91032
▁detail	-9.91164
aw	-9.91166
▁expecting	-9.91175
▁messing	-9.91237
ied	-9.91505
▁monster	-9.91622
mp	-9.91652
▁trainer	-9.91705
▁sale	-9.91913
▁thu	-9.9209
▁lean	-9.92188
mmy	-9.92229
▁sucks	-9.92233
▁throwing	-9.9243
▁mighty	-9.92459
ow	-9.92583
▁image	-9.92628
▁someones	-9.92633
▁si	-9.92655
▁stands	-9.92667
▁quarters	-9.92787
▁lion	-9.9279
▁bombs	-9.93084
▁led	-9.93135
▁cameras	-9.93223
▁load	-9.93239
▁bless	-9.933
▁heal	-9.93303
▁va	-9.93431
▁demand	-9.93599
▁doctors	-9.93716
▁reveal	-9.93727
old	-9.93782
▁ln	-9.9386
▁powers	-9.93893
▁everythings	-9.93959
▁complain	-9.93981
▁assure	-9.93984
▁health	-9.94031
▁exact	-9.94056
rate	-9.94067
▁penn	-9.94139
▁attract	-9.94143
▁changes	-9.94188
▁tub	-9.94188
▁gray	-9.94199
▁agency	-9.942
▁algaib	-9.942
▁attorney	-9.942
▁betray	-9.942
▁bottom	-9.942
▁california	-9.942
▁darius	-9.942
▁document	-9.942
▁downstairs	-9.942
▁enemies	-9.942
▁friday	-9.942
▁gorgeous	-9.942
▁moose	-9.942
▁nuclear	-9.942
▁orange	-9.942
▁pizza	-9.942
▁regular	-9.942
▁sheep	-9.942
▁snow	-9.942
▁surrender	-9.942
▁tooth	-9.942
▁toretto	-9.942
▁tunnel	-9.942
▁kimsey	-9.94201
▁piano	-9.94201
▁saint	-9.94201
▁adog	-9.94201
▁proceed	-9.94201
▁zero	-9.94201
▁finn	-9.94201
▁gross	-9.94201
▁locksley	-9.94201
▁generous	-9.94201
▁scratch	-9.94201
▁glory	-9.94203
▁vault	-9.94203
▁available	-9.94203
▁clara	-9.94203
▁elwood	-9.94204
▁goose	-9.94204
▁blaze	-9.94205
▁ugh	-9.94205
▁stacy	-9.94206
▁nsa	-9.94208
▁impressive	-9.9421
▁jason	-9.94211
▁trash	-9.94211
▁tool	-9.94212
▁barron	-9.94212
▁estate	-9.94213
▁garage	-9.94214
▁boring	-9.94215
▁meat	-9.94215
▁motion	-9.94223
▁title	-9.94225
▁familiar	-9.94238
▁began	-9.94241
▁among	-9.94244
▁mental	-9.94249
▁freeze	-9.94252
▁tiny	-9.94262
▁temple	-9.94277
▁statement	-9.94302
▁murmuring	-9.94309
▁winter	-9.94317
▁erin	-9.94357
▁chest	-9.94358
▁actor	-9.9437
▁boom	-9.94383
▁jim	-9.94391
▁jane	-9.944
ze	-9.94457
▁payment	-9.94478
▁cutting	-9.94483
▁cage	-9.9453
▁lack	-9.94544
▁bitches	-9.94646
▁nearly	-9.94716
▁mentioned	-9.94761
ven	-9.94774
light	-9.94786
▁systems	-9.94885
▁county	-9.94913
▁blocks	-9.94981
▁thin	-9.95117
rt	-9.95193
▁scan	-9.95225
the	-9.95285
▁members	-9.95304
▁freaking	-9.95313
▁bucks	-9.95411
▁offered	-9.95558
▁burning	-9.95747
▁las	-9.95784
▁fades	-9.95822
ator	-9.96198
▁bail	-9.962
▁williams	-9.96412
va	-9.96449
all	-9.96661
▁steps	-9.9673
▁artist	-9.96818
▁details	-9.96854
▁champ	-9.96891
▁beep	-9.96933
spite	-9.9702
▁sometime	-9.97235
uck	-9.97242
▁pope	-9.97269
▁mistakes	-9.9727
▁demon	-9.97323
ard	-9.97613
ii	-9.97745
▁options	-9.97855
▁gl	-9.97943
▁criminals	-9.98
gle	-9.98019
▁woods	-9.98085
lin	-9.98159
▁gu	-9.98542
▁pray	-9.98544
▁am	-9.98865
ical	-9.98892
erie	-9.98993
▁inform	-9.99207
▁mix	-9.99274
▁gather	-9.99287
down	-9.99294
▁poison	-9.99311
skull	-9.99369
ten	-9.99393
▁natural	-9.99603
▁steve	-9.9967
▁gentle	-9.99717
▁doug	-9.99719
▁prior	-9.99732
▁clue	-9.99735
▁basic	-9.99746
▁alfred	-9.99756
▁blanc	-9.99756
▁campaign	-9.99756
▁dauntless	-9.99756
▁easier	-9.99756
▁eleven	-9.99756
▁helicopter	-9.99756
▁lifeboat	-9.99756
▁moscow	-9.99756
▁muscle	-9.99756
▁mystery	-9.99756
▁rattling	-9.99756
▁silence	-9.99756
▁universe	-9.99756
▁thief	-9.99756
▁mostly	-9.99756
▁papa	-9.99756
▁hiram	-9.99756
▁draft	-9.99756
▁soviet	-9.99756
▁authorities	-9.99757
▁italian	-9.99757
▁bobbie	-9.99758
▁attend	-9.99759
▁committee	-9.99759
▁communist	-9.99761
▁roof	-9.99761
▁horrible	-9.99762
▁responsibility	-9.99762
▁shopping	-9.99763
▁gina	-9.99763
▁woke	-9.99766
▁rush	-9.99767
▁prize	-9.99767
▁vince	-9.99769
▁patty	-9.99772
▁louise	-9.99782
▁sugar	-9.99784
▁ridge	-9.99786
▁duck	-9.99786
▁gentleman	-9.99788
▁manning	-9.99794
▁cave	-9.998
▁tracks	-9.998
▁mere	-9.99805
▁disgusting	-9.99806
▁proof	-9.99825
▁corey	-9.99841
▁legal	-9.99847
▁wet	-9.99848
▁stopping	-9.99897
▁embarrassing	-9.99904
▁pat	-9.99921
istic	-9.9993
▁received	-9.99948
▁useless	-9.99964
▁disappointed	-9.99996
▁passion	-10.001
▁some	-10.0012
▁sharks	-10.0013
ule	-10.0015
ga	-10.002
▁op	-10.0024
▁thoughts	-10.0026
▁suspects	-10.003
▁thrown	-10.0032
▁chargers	-10.0049
▁sweets	-10.0049
▁based	-10.0054
▁hunting	-10.0057
▁prom	-10.0058
▁runs	-10.0096
▁lookin	-10.0097
ru	-10.0102
▁revs	-10.0103
▁bored	-10.0108
▁knocked	-10.0121
▁kicked	-10.015
▁sw	-10.0154
ence	-10.0163
▁rate	-10.0166
▁expected	-10.0168
▁bust	-10.0175
▁attacked	-10.0176
▁growls	-10.0181
ho	-10.0185
▁jumping	-10.0187
▁parking	-10.0193
▁y	-10.0201
▁tap	-10.0214
ak	-10.0229
iv	-10.0236
▁ordered	-10.0256
▁badly	-10.0267
▁kissing	-10.027
▁official	-10.0283
▁signed	-10.0297
▁uniform	-10.0299
▁shoulder	-10.0299
▁divergent	-10.0301
▁guests	-10.0301
▁shield	-10.0302
▁ohh	-10.0306
▁wave	-10.0308
▁click	-10.0309
rd	-10.0321
▁teams	-10.0323
▁chop	-10.0325
ile	-10.0337
ps	-10.0361
▁net	-10.0362
▁sl	-10.0366
▁virgin	-10.0367
▁cal	-10.0368
▁caused	-10.039
ph	-10.0393
▁tr	-10.0412
▁dancer	-10.0417
ada	-10.0419
▁nights	-10.0429
▁deliver	-10.0439
▁climb	-10.0458
▁picking	-10.046
▁bags	-10.0498
▁steer	-10.0504
▁sneak	-10.0504
▁describe	-10.0507
▁abandon	-10.0517
▁spoil	-10.0519
house	-10.0522
▁piss	-10.0527
▁separate	-10.0535
▁chase	-10.0545
▁current	-10.0549
▁ka	-10.0552
▁distract	-10.0557
▁express	-10.0561
▁peculiar	-10.0561
▁sniff	-10.0562
▁susan	-10.0563
thorn	-10.0564
▁academy	-10.0564
▁advantage	-10.0564
▁custody	-10.0564
▁elephant	-10.0564
▁grabelski	-10.0564
▁hollywood	-10.0564
▁insult	-10.0564
▁intergang	-10.0564
▁kullimon	-10.0564
▁leather	-10.0564
▁lincoln	-10.0564
▁lorelei	-10.0564
▁policy	-10.0564
▁stilgar	-10.0564
▁subtitle	-10.0564
▁miami	-10.0564
▁political	-10.0564
▁statue	-10.0564
▁chanting	-10.0564
▁ilse	-10.0564
▁vital	-10.0564
▁whyd	-10.0564
▁saikwong	-10.0564
▁international	-10.0564
▁roars	-10.0564
▁firm	-10.0564
▁install	-10.0564
▁community	-10.0564
▁hammer	-10.0564
▁yellow	-10.0564
▁selina	-10.0564
▁alert	-10.0564
▁sandwich	-10.0564
▁hyah	-10.0564
▁native	-10.0564
▁olive	-10.0564
▁ramey	-10.0564
▁owns	-10.0565
▁flash	-10.0565
▁peak	-10.0565
▁trapped	-10.0565
▁comfortable	-10.0565
▁championship	-10.0565
▁virus	-10.0565
▁aria	-10.0566
▁flesh	-10.0566
▁row	-10.0567
▁sentence	-10.0567
▁inmate	-10.0567
▁romance	-10.0569
▁halfway	-10.0569
▁script	-10.057
▁johnson	-10.057
▁logan	-10.057
▁racing	-10.057
▁warden	-10.0574
▁seventh	-10.0577
▁changing	-10.058
▁emma	-10.0581
▁wise	-10.0581
▁rocket	-10.0583
▁badge	-10.0584
▁coughing	-10.0587
▁gay	-10.0588
▁accused	-10.059
▁boxes	-10.0598
▁coin	-10.0598
▁delivered	-10.0608
▁bay	-10.0611
den	-10.0613
▁walter	-10.0618
▁normally	-10.0632
▁sacrifice	-10.0639
▁anti	-10.0641
day	-10.0643
▁opened	-10.0644
▁brings	-10.0648
▁sisters	-10.0649
▁asses	-10.0651
▁passengers	-10.0652
▁slowly	-10.0653
▁locker	-10.0654
▁arrested	-10.0656
▁parker	-10.0661
▁carefully	-10.0662
▁inter	-10.0663
▁everyones	-10.067
▁crashing	-10.0674
▁my	-10.0684
▁brakes	-10.07
▁bath	-10.0709
▁sauce	-10.0723
▁photos	-10.0732
▁sec	-10.0742
▁pounds	-10.0749
▁singer	-10.0751
▁searching	-10.0751
▁bikes	-10.0751
▁eject	-10.0754
▁spending	-10.0759
▁tra	-10.0766
▁loss	-10.0773
▁appears	-10.0781
▁missiles	-10.0781
▁te	-10.0781
▁lau	-10.0784
▁joining	-10.0795
ttering	-10.0808
▁gar	-10.0811
ky	-10.0846
▁rocks	-10.085
▁seek	-10.0851
ack	-10.0851
▁psycho	-10.0856
▁stations	-10.0865
▁gil	-10.0886
▁photograph	-10.0889
▁troop	-10.0901
▁plant	-10.0903
▁dodge	-10.0913
▁cor	-10.0916
▁client	-10.0929
▁por	-10.0931
▁william	-10.0931
▁sport	-10.0935
▁gig	-10.0936
▁daughters	-10.0942
▁pulling	-10.0944
▁that	-10.0957
▁ec	-10.0965
▁minds	-10.097
▁com	-10.0973
▁shows	-10.0981
ler	-10.0986
▁kills	-10.0988
▁judgment	-10.0996
ise	-10.1012
▁qui	-10.1039
ba	-10.1042
my	-10.1047
▁blows	-10.106
vy	-10.106
▁flag	-10.1104
work	-10.1124
▁electric	-10.1128
▁squeal	-10.1132
ung	-10.1133
▁mountains	-10.114
▁sha	-10.1143
mark	-10.115
▁include	-10.1159
▁refuse	-10.116
▁direct	-10.1161
▁large	-10.1175
▁prince	-10.1182
▁shatter	-10.1186
▁rec	-10.1188
▁slip	-10.1188
▁deposit	-10.1188
▁jew	-10.1189
▁abnegation	-10.1189
▁advance	-10.1189
▁atlanta	-10.1189
▁courage	-10.1189
▁education	-10.1189
▁grateful	-10.1189
▁griswald	-10.1189
▁humming	-10.1189
▁keltus	-10.1189
▁kynes	-10.1189
▁license	-10.1189
▁nonsense	-10.1189
▁nottingham	-10.1189
▁oclock	-10.1189
▁saturday	-10.1189
▁scientist	-10.1189
▁smooth	-10.1189
▁tammie	-10.1189
▁tragedy	-10.1189
▁wachootoo	-10.1189
▁anytime	-10.1189
▁jesse	-10.1189
▁quinn	-10.1189
▁stunt	-10.1189
▁washington	-10.1189
▁stairs	-10.1189
▁thumb	-10.1189
▁motorcycle	-10.1189
▁costume	-10.1189
▁warren	-10.1189
▁arriving	-10.1189
▁telephone	-10.1189
▁kidnapped	-10.1189
▁intercept	-10.1189
▁cloudland	-10.1189
▁measure	-10.1189
▁spill	-10.1189
▁staff	-10.1189
▁faint	-10.1189
▁aircraft	-10.1189
▁blanket	-10.1189
▁helmet	-10.1189
▁juice	-10.119
▁assault	-10.119
▁chaos	-10.119
▁basically	-10.119
▁testify	-10.119
▁adventure	-10.119
▁skinny	-10.1191
▁punk	-10.1191
▁bodies	-10.1191
▁noble	-10.1191
▁status	-10.1191
▁reward	-10.1191
▁angle	-10.1192
▁beam	-10.1192
▁performance	-10.1192
▁distan	-10.1193
▁coward	-10.1193
▁jungle	-10.1194
▁connection	-10.1194
▁agreement	-10.1195
▁kent	-10.1196
▁award	-10.1197
▁taxi	-10.1197
▁recently	-10.1197
▁bread	-10.1197
▁toss	-10.1197
▁kate	-10.1198
▁jacket	-10.12
▁officially	-10.1205
▁shining	-10.1208
▁managed	-10.121
▁endless	-10.1211
▁latest	-10.1215
▁deny	-10.1215
▁setting	-10.1217
ther	-10.1219
▁discovered	-10.1222
▁cruel	-10.1225
▁lifetime	-10.1226
▁knots	-10.1232
▁shine	-10.1232
▁confirmed	-10.1247
▁electrical	-10.1248
▁pills	-10.1249
▁drag	-10.1257
da	-10.1264
▁watched	-10.1267
let	-10.1271
▁realized	-10.1276
▁tube	-10.128
arm	-10.1283
▁gloves	-10.1283
▁drops	-10.1289
vin	-10.1295
▁damned	-10.1297
▁tied	-10.1314
mon	-10.1316
▁knees	-10.1318
▁fred	-10.132
▁begins	-10.1323
▁condo	-10.1325
▁billy	-10.1329
pri	-10.1335
▁crossed	-10.1337
▁rein	-10.134
▁ned	-10.1348
▁bid	-10.1356
▁rolling	-10.1359
▁tone	-10.1361
▁deer	-10.1365
▁ate	-10.1373
▁carrying	-10.1378
▁crossing	-10.1382
▁pushing	-10.1397
▁recording	-10.1398
▁backup	-10.1401
▁equ	-10.1414
fa	-10.1419
▁kissed	-10.1442
▁boxer	-10.1455
ties	-10.1455
▁sons	-10.1466
ight	-10.147
▁smells	-10.1508
▁touching	-10.1523
▁vers	-10.1534
▁nu	-10.1542
▁limit	-10.1547
▁jean	-10.1547
▁wound	-10.1551
▁wire	-10.1558
▁it	-10.1564
ric	-10.1564
py	-10.1567
▁ton	-10.1582
▁rope	-10.1596
▁units	-10.1597
▁pitch	-10.1598
▁falls	-10.1601
▁cl	-10.1619
▁hated	-10.1623
▁egg	-10.163
▁suite	-10.1633
▁ab	-10.1634
▁twin	-10.1637
▁marks	-10.1641
qui	-10.1642
▁listened	-10.166
▁lame	-10.1683
▁lover	-10.1692
▁reasons	-10.1726
▁leto	-10.1733
▁deb	-10.1754
▁rub	-10.176
▁ch	-10.1774
▁equal	-10.1785
▁bowl	-10.1793
▁bu	-10.1815
ball	-10.1816
book	-10.1817
▁ve	-10.1825
ger	-10.1834
▁madam	-10.1843
▁orchestra	-10.1848
▁rude	-10.185
▁mmhm	-10.1851
▁yea	-10.1852
▁punish	-10.1853
▁web	-10.1854
▁wrap	-10.1855
▁revolution	-10.1855
▁hawk	-10.1855
▁ambulance	-10.1855
▁arielle	-10.1855
▁behavior	-10.1855
▁bogey	-10.1855
▁channel	-10.1855
▁cortez	-10.1855
▁daughtry	-10.1855
▁davis	-10.1855
▁dwarf	-10.1855
▁emmett	-10.1855
▁families	-10.1855
▁holtzmann	-10.1855
▁intelligent	-10.1855
▁liberty	-10.1855
▁messenger	-10.1855
▁represent	-10.1855
▁rifle	-10.1855
▁semester	-10.1855
▁servant	-10.1855
▁stammers	-10.1855
▁stomach	-10.1855
▁sunshine	-10.1855
▁surface	-10.1855
▁terrific	-10.1855
▁visual	-10.1855
▁cruising	-10.1856
▁enoch	-10.1856
▁mourn	-10.1856
▁pathetic	-10.1856
▁phase	-10.1856
▁stood	-10.1856
▁wendy	-10.1856
▁strict	-10.1856
▁struggle	-10.1856
▁orc	-10.1856
▁somali	-10.1856
▁dope	-10.1856
▁cancel	-10.1856
▁crisis	-10.1856
▁tyler	-10.1856
▁example	-10.1856
▁reverse	-10.1856
af	-10.1856
▁speck	-10.1856
▁valley	-10.1856
▁negative	-10.1856
▁griffin	-10.1856
▁appointment	-10.1856
▁junk	-10.1857
▁powder	-10.1857
▁existence	-10.1857
▁failure	-10.1857
▁grass	-10.1858
▁doll	-10.1858
▁kenny	-10.1858
▁chimes	-10.186
▁model	-10.186
▁carrier	-10.186
▁drain	-10.186
▁chill	-10.1862
▁dawn	-10.1862
▁princess	-10.1862
▁clap	-10.1863
▁comin	-10.1863
▁darkness	-10.1865
▁belt	-10.1865
▁bout	-10.1867
▁chosen	-10.1868
▁laid	-10.1868
▁shore	-10.1869
▁uk	-10.1873
▁fishman	-10.1874
▁bound	-10.1875
▁golden	-10.1875
▁steph	-10.1878
▁delivery	-10.1878
▁squeaking	-10.1885
▁vera	-10.1892
▁collect	-10.1893
▁billion	-10.1896
▁hitting	-10.1899
▁whimpering	-10.1901
▁fo	-10.1902
▁released	-10.1903
▁howdy	-10.1906
▁novel	-10.1911
▁who	-10.1912
▁blessed	-10.1912
▁mall	-10.1914
▁earned	-10.1918
hi	-10.192
▁quietly	-10.1931
▁buster	-10.1932
▁personally	-10.1934
▁bella	-10.1935
▁suffering	-10.1937
▁deserved	-10.1939
▁cursed	-10.194
hr	-10.1943
▁believed	-10.1943
▁computers	-10.1946
▁likely	-10.1953
▁dealing	-10.1956
▁x	-10.1964
▁strip	-10.1965
lan	-10.1966
▁del	-10.1973
▁z	-10.1974
▁customers	-10.1978
▁sis	-10.1984
▁frankly	-10.1984
▁beasts	-10.1993
▁drums	-10.2011
wn	-10.2018
▁tur	-10.2022
▁squeeze	-10.2022
▁humans	-10.2024
if	-10.2026
▁classic	-10.2053
ants	-10.2059
▁lap	-10.2061
▁selling	-10.2078
▁abba	-10.2085
lic	-10.2108
▁locate	-10.2133
▁troops	-10.2141
place	-10.2152
mber	-10.2158
▁cleaning	-10.2166
▁min	-10.2171
▁demons	-10.2177
ped	-10.2183
itch	-10.2187
ber	-10.2192
▁monsters	-10.2196
▁den	-10.2204
▁wins	-10.2229
▁fi	-10.2235
▁goodman	-10.2257
▁val	-10.2264
▁beating	-10.229
▁leading	-10.2292
room	-10.2296
bu	-10.2303
▁odd	-10.2303
▁terrorist	-10.2306
▁victims	-10.2308
▁appear	-10.231
▁debt	-10.2317
▁button	-10.2317
▁folk	-10.2321
▁dealer	-10.2323
▁missile	-10.2323
▁france	-10.2323
▁lesson	-10.2326
▁kidd	-10.2331
▁require	-10.2332
coming	-10.2334
▁thud	-10.2346
com	-10.2348
▁growl	-10.2357
▁gum	-10.2372
▁resist	-10.2381
▁keeps	-10.2385
▁fighters	-10.2393
▁agents	-10.2398
roc	-10.2403
we	-10.2405
tually	-10.2423
▁nation	-10.2454
ping	-10.2456
▁champions	-10.2459
▁ru	-10.2465
▁forces	-10.2475
▁cam	-10.2498
▁bug	-10.25
▁buzz	-10.2505
port	-10.252
▁recruit	-10.2523
▁dump	-10.2525
phone	-10.2531
▁engage	-10.2539
▁guarantee	-10.254
▁flow	-10.2543
▁brook	-10.255
▁psych	-10.2553
▁scouts	-10.2554
▁violent	-10.2555
▁extreme	-10.2556
▁cia	-10.2565
▁orphan	-10.2568
▁marina	-10.2569
▁argument	-10.257
▁attitude	-10.257
▁avenue	-10.257
▁barnaby	-10.257
▁casino	-10.257
▁champagne	-10.257
▁cobra	-10.257
▁colonel	-10.257
▁cricket	-10.257
▁curious	-10.257
▁delicious	-10.257
▁dimitri	-10.257
▁easily	-10.257
▁egypt	-10.257
▁explanation	-10.257
▁guitar	-10.257
▁kopernick	-10.257
▁luggage	-10.257
▁marquess	-10.257
▁monitor	-10.257
▁phillips	-10.257
▁revenge	-10.257
▁senior	-10.257
▁shelter	-10.257
▁similar	-10.257
▁sweep	-10.257
▁television	-10.257
▁therefore	-10.257
▁tournament	-10.257
▁valuable	-10.257
▁vampire	-10.257
▁caleb	-10.257
▁carriage	-10.257
▁concert	-10.257
▁cotton	-10.257
▁crystal	-10.257
▁krest	-10.257
▁plate	-10.257
▁candor	-10.257
▁carpet	-10.257
▁knowledge	-10.257
▁telegram	-10.257
▁tragic	-10.257
▁sniffles	-10.257
▁ordinary	-10.257
▁potential	-10.257
▁bronze	-10.257
▁jewel	-10.257
▁overnight	-10.257
▁spook	-10.257
▁bronx	-10.257
▁hesitate	-10.257
▁kenzie	-10.2571
▁surge	-10.2571
▁brand	-10.2571
▁bucket	-10.2571
▁unbelievable	-10.2571
▁hmph	-10.2571
▁lockdown	-10.2571
▁whatre	-10.2571
▁entertainment	-10.2572
▁brick	-10.2572
▁newscast	-10.2572
▁compare	-10.2572
▁jamis	-10.2573
▁redford	-10.2573
▁sail	-10.2573
▁static	-10.2573
▁impression	-10.2573
▁russ	-10.2574
▁heck	-10.2574
▁nephew	-10.2574
▁ju	-10.2575
▁gear	-10.2575
▁severe	-10.2575
▁nasty	-10.2576
▁moder	-10.2576
▁beck	-10.2577
▁pj	-10.2577
▁technically	-10.2577
▁joking	-10.2577
▁stream	-10.2577
▁wipe	-10.2578
▁distraction	-10.2579
▁pole	-10.258
▁hits	-10.2581
▁african	-10.2584
▁yearold	-10.2587
▁directly	-10.2587
▁homework	-10.2588
▁bitter	-10.2592
▁piper	-10.2594
▁cure	-10.2594
▁cargo	-10.2596
▁angela	-10.2599
▁knicks	-10.26
▁impressed	-10.2611
▁deserves	-10.2613
▁wounded	-10.2619
▁host	-10.2623
▁que	-10.2626
▁armor	-10.2631
▁emotional	-10.2631
▁zoom	-10.2638
▁vo	-10.2646
ction	-10.2647
▁joint	-10.2653
▁inch	-10.2656
▁depends	-10.2677
▁terms	-10.2678
▁dive	-10.268
▁riding	-10.2699
▁holes	-10.2703
▁rats	-10.271
▁lance	-10.2716
▁boo	-10.2737
gged	-10.2752
▁sire	-10.2759
▁los	-10.276
▁highly	-10.2771
▁ph	-10.2774
▁cleaned	-10.2826
▁poe	-10.2846
▁hee	-10.2849
▁ropes	-10.2857
▁friendly	-10.2864
gh	-10.2865
▁hates	-10.2868
▁worlds	-10.2875
▁clients	-10.2877
▁stones	-10.29
▁kings	-10.2903
ron	-10.2916
▁fore	-10.2924
ial	-10.2925
▁nos	-10.2929
▁mel	-10.2937
▁comp	-10.2937
▁flu	-10.2969
▁snap	-10.2969
▁lamb	-10.2982
▁ye	-10.2994
▁cared	-10.2994
▁lawyers	-10.2997
hand	-10.3003
▁buying	-10.3004
sel	-10.3032
▁phones	-10.3032
▁shout	-10.3049
▁plastic	-10.307
▁cannon	-10.307
▁blade	-10.3071
▁escort	-10.3072
▁result	-10.3072
▁creature	-10.3072
▁gunshot	-10.3073
▁citizen	-10.3076
▁warrior	-10.3078
▁losers	-10.3081
erry	-10.3084
▁patient	-10.3091
▁walls	-10.3101
▁kit	-10.3105
▁pages	-10.3118
ong	-10.3121
▁targets	-10.3135
▁boats	-10.3135
test	-10.317
▁bon	-10.3185
iy	-10.3217
▁youth	-10.3232
nce	-10.3232
▁trucks	-10.3274
▁clatter	-10.3279
▁employ	-10.3281
▁impress	-10.3289
▁pump	-10.3291
oc	-10.3292
▁kyl	-10.3293
point	-10.3301
▁roads	-10.331
ept	-10.331
face	-10.3311
like	-10.3311
▁mood	-10.3319
▁india	-10.3327
▁bears	-10.3329
▁transport	-10.3332
▁height	-10.3336
▁convers	-10.3336
▁loyal	-10.3337
▁drama	-10.3338
▁auto	-10.3338
▁broad	-10.3338
▁arab	-10.3339
▁arashikage	-10.3339
▁arrival	-10.3339
▁ashamed	-10.3339
▁audrey	-10.3339
▁centuries	-10.3339
▁chastity	-10.3339
▁circumstances	-10.3339
▁disaster	-10.3339
▁fashion	-10.3339
▁felix	-10.3339
▁finnegan	-10.3339
▁gracias	-10.3339
▁hasnat	-10.3339
▁hercule	-10.3339
▁hourglass	-10.3339
▁inaudible	-10.3339
▁including	-10.3339
▁julian	-10.3339
▁krupke	-10.3339
▁mcqueen	-10.3339
▁mennick	-10.3339
▁mousetrap	-10.3339
▁prescott	-10.3339
▁privacy	-10.3339
▁purple	-10.3339
▁register	-10.3339
▁republic	-10.3339
▁rufus	-10.3339
▁sardaukar	-10.3339
▁spectator	-10.3339
▁studio	-10.3339
▁technology	-10.3339
▁thirsty	-10.3339
▁travis	-10.3339
▁uboat	-10.3339
▁unknown	-10.3339
▁arguing	-10.3339
▁memories	-10.3339
▁mysterious	-10.3339
▁wrist	-10.3339
▁anchor	-10.3339
▁generation	-10.3339
▁ghostbusters	-10.3339
▁plain	-10.3339
▁improve	-10.3339
▁radar	-10.3339
▁drove	-10.3339
▁rusty	-10.3339
▁ensure	-10.3339
▁abort	-10.3339
▁annika	-10.3339
▁smack	-10.3339
▁opposite	-10.3339
▁series	-10.3339
▁temperature	-10.3339
▁cowboy	-10.3339
▁gordy	-10.3339
▁instant	-10.3339
▁palace	-10.3339
▁theory	-10.3339
▁horde	-10.3339
▁religious	-10.3339
▁blaring	-10.334
▁lightning	-10.334
▁tramp	-10.334
▁chamber	-10.334
▁precious	-10.334
▁breach	-10.334
▁random	-10.334
▁delay	-10.334
▁danny	-10.334
▁allison	-10.334
▁lungs	-10.334
▁mobile	-10.334
▁antonio	-10.334
▁baseball	-10.3341
▁lips	-10.3341
ik	-10.3341
▁rebound	-10.3341
▁task	-10.3341
▁carryall	-10.3341
▁naked	-10.3341
▁fork	-10.3341
▁randy	-10.3342
▁golf	-10.3342
▁tuck	-10.3342
▁castro	-10.3342
▁punishment	-10.3342
▁clip	-10.3342
bar	-10.3343
▁birth	-10.3343
idge	-10.3343
▁bullets	-10.3343
▁carmine	-10.3344
▁vow	-10.3344
▁maria	-10.3344
▁stretch	-10.3346
▁producer	-10.3346
▁forth	-10.3347
▁barry	-10.3347
▁stalker	-10.3349
▁amity	-10.335
▁gain	-10.3353
si	-10.3353
▁husbands	-10.3354
▁ease	-10.3357
▁disturbed	-10.3359
▁shove	-10.336
▁pie	-10.3362
▁wide	-10.3364
ably	-10.3365
▁resources	-10.3371
▁teth	-10.3373
▁pity	-10.3373
▁pm	-10.3376
▁fourth	-10.3378
▁recovered	-10.338
▁fist	-10.338
▁kenta	-10.3389
▁meters	-10.3391
▁instructions	-10.3393
▁off	-10.3394
▁mud	-10.3396
▁pissed	-10.3398
▁shadows	-10.3405
nic	-10.3406
▁dial	-10.3409
▁rolly	-10.3412
▁boots	-10.3415
▁brains	-10.3423
bre	-10.3424
▁blessing	-10.3425
▁ruined	-10.3426
▁cooking	-10.3429
▁sealed	-10.343
▁tale	-10.3442
▁useful	-10.3447
▁thirty	-10.3456
▁edit	-10.3459
▁granted	-10.3466
▁choices	-10.3475
insu	-10.3475
▁safer	-10.3482
▁pleased	-10.3502
▁accepted	-10.3506
bs	-10.3525
ette	-10.3528
▁explore	-10.3542
▁rumbles	-10.3542
▁issues	-10.3543
tra	-10.3546
ail	-10.3546
▁becom	-10.3555
ville	-10.3561
▁arrives	-10.3564
▁guts	-10.3578
gie	-10.358
illa	-10.3585
▁harland	-10.3586
ner	-10.3594
▁warriors	-10.3607
▁snaps	-10.3609
▁requires	-10.3623
▁wounds	-10.3651
ign	-10.3653
▁kar	-10.3679
▁ap	-10.3687
▁fed	-10.3699
▁mal	-10.37
▁cats	-10.3701
▁banging	-10.3703
▁lone	-10.3713
▁dancers	-10.3724
▁you	-10.3724
▁fishing	-10.3732
izing	-10.3738
▁sets	-10.3739
▁bend	-10.3755
▁sin	-10.3759
▁sales	-10.3763
ities	-10.3782
▁lit	-10.3797
▁thinkin	-10.3799
▁bl	-10.3801
▁sc	-10.381
▁strangers	-10.381
▁yell	-10.3813
ily	-10.3816
▁waited	-10.382
qu	-10.382
▁reed	-10.3834
▁wheels	-10.3846
▁pas	-10.385
ically	-10.3853
▁scor	-10.3855
▁pound	-10.3856
▁est	-10.3881
▁angels	-10.389
for	-10.3891
onnie	-10.3897
▁indian	-10.3906
▁legend	-10.3906
▁dies	-10.3908
▁roses	-10.3908
▁newspaper	-10.391
▁paste	-10.3915
ving	-10.3924
site	-10.3927
▁fade	-10.3955
▁tit	-10.3961
▁mat	-10.3968
▁prisoner	-10.3978
▁pad	-10.401
▁operations	-10.4046
some	-10.4046
▁breaths	-10.4064
▁bum	-10.4071
▁dan	-10.4081
▁scr	-10.4092
▁pointing	-10.4101
▁respond	-10.4111
▁weigh	-10.4113
▁opera	-10.4113
▁reporters	-10.4114
▁whimper	-10.4115
▁approach	-10.4115
▁intend	-10.4126
▁depress	-10.4127
▁discover	-10.4129
▁recover	-10.4129
beat	-10.413
field	-10.413
▁link	-10.4132
▁doc	-10.4137
▁receive	-10.4144
▁custom	-10.4152
▁magical	-10.4154
dad	-10.4157
ford	-10.4159
▁desperate	-10.4159
▁affect	-10.4165
▁conduct	-10.4169
▁civil	-10.417
▁recommend	-10.417
▁organ	-10.4171
▁compliment	-10.4172
▁defeat	-10.4172
▁april	-10.4172
▁blackmail	-10.4172
▁buttercup	-10.4172
▁cabrera	-10.4172
▁cataleya	-10.4172
▁chariot	-10.4172
▁cipher	-10.4172
▁cradle	-10.4172
▁essential	-10.4172
▁fattuh	-10.4172
▁gurney	-10.4172
▁initial	-10.4172
▁ishmael	-10.4172
▁kalaman	-10.4172
▁kalloor	-10.4172
▁lawrence	-10.4172
▁mademoiselle	-10.4172
▁mechanic	-10.4172
▁mulgrut	-10.4172
▁occasion	-10.4172
▁otterbourne	-10.4172
▁outfit	-10.4172
▁owimoweh	-10.4172
▁paradise	-10.4172
▁pistol	-10.4172
▁precisely	-10.4172
▁protocol	-10.4172
▁pulse	-10.4172
▁reputation	-10.4172
▁robbery	-10.4172
▁rosalie	-10.4172
▁scrawny	-10.4172
▁september	-10.4172
▁sparrow	-10.4172
▁stereo	-10.4172
▁stevie	-10.4172
▁straussman	-10.4172
▁thumping	-10.4172
▁trevor	-10.4172
▁undercover	-10.4172
▁unusual	-10.4172
▁vandeweghe	-10.4172
▁vitamin	-10.4172
▁willow	-10.4172
▁dewey	-10.4172
▁heather	-10.4172
▁henri	-10.4172
▁keller	-10.4172
▁martinez	-10.4172
▁typical	-10.4172
▁unique	-10.4172
▁babies	-10.4172
▁giggles	-10.4172
▁blew	-10.4172
▁nerve	-10.4172
▁false	-10.4172
▁melanchol	-10.4172
▁financial	-10.4172
▁elders	-10.4172
▁relieve	-10.4172
▁scholarship	-10.4172
▁transfer	-10.4172
▁warrant	-10.4172
▁creative	-10.4172
▁plot	-10.4172
▁prophetess	-10.4173
▁invisible	-10.4173
▁vulnerable	-10.4173
▁neighborhood	-10.4173
▁atlantic	-10.4173
▁eddie	-10.4173
▁latin	-10.4173
▁internet	-10.4173
▁manual	-10.4173
▁trunk	-10.4173
▁suitcase	-10.4173
▁disease	-10.4173
▁slept	-10.4173
▁balance	-10.4173
▁malkin	-10.4173
▁slipped	-10.4173
▁garbage	-10.4173
▁basket	-10.4173
▁donna	-10.4173
▁specifically	-10.4173
▁monday	-10.4174
▁evelyn	-10.4174
▁ability	-10.4174
▁authority	-10.4174
▁senor	-10.4174
▁sobs	-10.4174
▁bret	-10.4174
▁confession	-10.4175
▁western	-10.4175
▁motor	-10.4175
▁reaction	-10.4175
▁scam	-10.4175
▁supper	-10.4176
▁priority	-10.4176
▁destiny	-10.4177
▁string	-10.4177
▁boil	-10.4177
▁spotted	-10.4177
▁soak	-10.4177
▁chess	-10.4178
▁bold	-10.4178
▁christine	-10.4179
▁coco	-10.4179
▁charity	-10.418
▁coup	-10.418
▁chewie	-10.4181
▁pour	-10.4181
▁sack	-10.4181
▁pile	-10.4182
▁rode	-10.4182
▁farley	-10.4183
▁highway	-10.4183
▁obsessed	-10.4186
▁aid	-10.4186
▁bury	-10.4187
▁medication	-10.4188
▁marty	-10.4188
▁embarrassed	-10.419
▁strain	-10.419
▁mansion	-10.4191
▁goodnight	-10.4192
▁moody	-10.4194
▁communication	-10.4196
▁crawler	-10.4196
▁shipment	-10.4197
▁rice	-10.4198
▁punches	-10.4198
ellie	-10.42
▁properly	-10.42
ible	-10.42
▁global	-10.4203
▁engaged	-10.4206
▁bass	-10.4207
hen	-10.4211
▁trooper	-10.4212
▁momma	-10.4214
▁chasing	-10.4221
▁parties	-10.4222
▁lala	-10.4224
▁conversations	-10.4224
▁rear	-10.4227
▁heroes	-10.423
▁sean	-10.423
▁trotters	-10.4231
▁gut	-10.4231
▁container	-10.4232
▁successful	-10.4233
▁hunter	-10.4234
▁nd	-10.4235
▁loudly	-10.4236
▁gee	-10.4238
▁bene	-10.4239
▁drives	-10.4239
lyn	-10.4242
▁served	-10.4248
▁settled	-10.4248
ison	-10.4252
▁lita	-10.4253
▁supplies	-10.4253
▁tribe	-10.4254
ju	-10.4256
▁wasted	-10.4256
▁movement	-10.4258
▁fry	-10.4264
▁catches	-10.4265
▁healing	-10.4267
▁smaller	-10.4278
▁tricks	-10.4279
▁ld	-10.4281
▁warned	-10.4285
▁br	-10.4294
▁stare	-10.4312
▁belly	-10.4319
▁focused	-10.4323
▁coughs	-10.4324
▁melt	-10.4332
▁tag	-10.4343
▁clouds	-10.4347
▁hollows	-10.4347
▁cla	-10.4348
▁visiting	-10.4354
▁gifted	-10.4354
▁sta	-10.4364
▁safely	-10.4389
▁joy	-10.4394
▁americans	-10.4396
not	-10.4403
▁explained	-10.4405
▁nana	-10.4406
▁mill	-10.4411
hole	-10.4412
▁cable	-10.4412
▁fixed	-10.4413
▁burns	-10.4415
▁ideas	-10.4432
▁moms	-10.4457
▁noon	-10.4468
▁winds	-10.4483
▁math	-10.4508
▁exp	-10.4509
▁twins	-10.451
▁walker	-10.4542
etch	-10.4544
▁officers	-10.4561
▁hu	-10.4578
ologist	-10.4579
▁for	-10.4586
▁champs	-10.4619
▁ham	-10.4674
▁booked	-10.4697
ver	-10.4699
▁lim	-10.4699
▁when	-10.4702
ko	-10.4704
▁chances	-10.4734
gen	-10.4748
ere	-10.4755
ift	-10.476
just	-10.4776
▁arrive	-10.4794
▁counts	-10.4802
▁cleared	-10.4807
▁wachati	-10.4812
▁torture	-10.4814
▁nightmare	-10.4816
▁email	-10.4819
▁photo	-10.4823
▁skill	-10.4826
▁tower	-10.4831
▁parent	-10.4835
▁faction	-10.4847
▁io	-10.4869
▁inn	-10.4871
ara	-10.4877
▁windows	-10.489
▁bob	-10.4899
▁q	-10.4914
▁tradition	-10.4918
▁pub	-10.4927
▁prec	-10.4954
looking	-10.4966
▁dragons	-10.4968
▁threats	-10.4981
home	-10.4983
▁remains	-10.4985
▁tent	-10.4987
▁spells	-10.4993
bie	-10.4993
cat	-10.4997
tle	-10.5001
▁dispatch	-10.5033
▁twist	-10.5036
▁volunteer	-10.5036
▁nail	-10.5037
hood	-10.5038
▁awake	-10.5053
fall	-10.5053
▁era	-10.5054
▁approve	-10.5061
▁roost	-10.5065
▁smash	-10.5065
▁chart	-10.5065
▁immediate	-10.5067
▁actual	-10.5067
▁norm	-10.5068
▁rome	-10.5071
▁spa	-10.5075
▁invest	-10.5079
▁kev	-10.5079
▁journal	-10.508
▁terror	-10.508
▁recogni	-10.5081
▁cigar	-10.5081
▁tread	-10.5081
▁ambition	-10.5081
▁apprentice	-10.5081
▁appropriate	-10.5081
▁astrid	-10.5081
▁august	-10.5081
▁bachelor	-10.5081
▁benefit	-10.5081
▁bragdon	-10.5081
▁breeze	-10.5081
▁celebrating	-10.5081
▁comrade	-10.5081
▁content	-10.5081
▁council	-10.5081
▁druze	-10.5081
▁endurance	-10.5081
▁fabulous	-10.5081
▁fairfax	-10.5081
▁fifth	-10.5081
▁flank	-10.5081
▁halloween	-10.5081
▁intense	-10.5081
▁jordan	-10.5081
▁jurisdiction	-10.5081
▁lucille	-10.5081
▁medallion	-10.5081
▁mexican	-10.5081
▁nemyt	-10.5081
▁patrol	-10.5081
▁principal	-10.5081
▁qualify	-10.5081
▁smiling	-10.5081
▁strategy	-10.5081
▁surveillance	-10.5081
▁survival	-10.5081
▁taihoi	-10.5081
▁terribly	-10.5081
▁toilet	-10.5081
▁underground	-10.5081
▁underwear	-10.5081
▁vengeance	-10.5081
▁essence	-10.5081
▁illegal	-10.5081
▁miserable	-10.5081
▁oink	-10.5081
▁pearl	-10.5081
▁fulton	-10.5081
▁parsons	-10.5081
▁translate	-10.5081
▁dominic	-10.5081
▁presence	-10.5081
▁robbed	-10.5081
▁urine	-10.5081
▁kelly	-10.5082
▁magnificent	-10.5082
▁clink	-10.5082
▁louisville	-10.5082
▁boston	-10.5082
▁civilization	-10.5082
▁commodore	-10.5082
▁jeep	-10.5082
▁determin	-10.5082
▁offense	-10.5082
▁gossip	-10.5082
▁akator	-10.5082
▁magnet	-10.5082
▁urgent	-10.5082
▁darn	-10.5082
▁narrow	-10.5082
▁steel	-10.5082
▁resume	-10.5082
▁extraordinary	-10.5082
▁vlad	-10.5082
▁lilly	-10.5082
▁brutal	-10.5082
▁vivi	-10.5082
▁blake	-10.5082
▁predict	-10.5082
▁valka	-10.5082
▁bald	-10.5082
▁dragged	-10.5082
▁echo	-10.5082
▁denied	-10.5082
▁influence	-10.5082
▁specific	-10.5082
▁prime	-10.5082
▁operator	-10.5082
▁backwards	-10.5082
▁tuna	-10.5082
▁jingle	-10.5082
▁slut	-10.5083
▁rapid	-10.5083
▁theme	-10.5083
▁exceptional	-10.5083
▁minister	-10.5083
▁chapter	-10.5083
▁fridge	-10.5083
▁whooping	-10.5083
▁dove	-10.5083
▁crop	-10.5083
▁oxley	-10.5083
▁lucy	-10.5083
▁governor	-10.5083
▁technique	-10.5084
▁aldr	-10.5084
▁scatter	-10.5084
▁bunk	-10.5084
▁root	-10.5084
▁investment	-10.5084
▁stake	-10.5084
▁reese	-10.5085
▁crust	-10.5085
▁decent	-10.5085
▁elle	-10.5085
▁coke	-10.5085
▁amber	-10.5086
▁bible	-10.5087
▁whore	-10.5087
▁selfish	-10.5087
▁moral	-10.5087
▁brief	-10.5087
▁helena	-10.5087
▁fee	-10.5087
▁pleasant	-10.5087
▁soil	-10.5088
▁inspired	-10.5088
▁alley	-10.5088
▁role	-10.5089
▁sunny	-10.5089
▁fried	-10.509
▁poke	-10.509
▁booty	-10.509
▁hitler	-10.5091
▁jackson	-10.5091
▁marco	-10.5091
▁basement	-10.5093
▁acceptable	-10.5095
▁alas	-10.5096
▁eliminated	-10.5096
▁personality	-10.5097
▁swat	-10.5097
▁assist	-10.5098
▁media	-10.5098
▁sexual	-10.5099
▁aa	-10.5099
▁vari	-10.5099
▁ev	-10.5101
▁ticking	-10.5101
▁solved	-10.5102
▁angeles	-10.5103
▁choking	-10.5103
▁hank	-10.5104
▁currently	-10.5105
▁shuddering	-10.5107
▁dc	-10.5107
▁sage	-10.5111
▁mass	-10.5112
▁hose	-10.5115
▁penny	-10.5119
▁coll	-10.5119
▁trumpets	-10.512
▁refused	-10.5124
▁brat	-10.5128
▁timing	-10.5128
▁damaged	-10.5135
▁horns	-10.514
▁seats	-10.5146
▁dayton	-10.5148
▁kindness	-10.5149
▁tide	-10.515
▁finest	-10.5159
ula	-10.5161
▁inc	-10.5166
▁slghs	-10.5171
▁bare	-10.5181
▁crushed	-10.5182
▁ending	-10.519
▁washed	-10.5191
▁mac	-10.5195
ien	-10.52
▁chips	-10.5202
▁charged	-10.5206
▁triple	-10.5211
▁requested	-10.5213
▁capital	-10.5215
▁rank	-10.522
▁visited	-10.5235
▁filled	-10.5235
▁fart	-10.5235
ward	-10.5246
▁ledge	-10.5253
▁victory	-10.5254
▁closet	-10.5258
▁ge	-10.5258
▁assholes	-10.5264
▁wor	-10.5279
▁bru	-10.5279
▁pork	-10.5281
▁feeding	-10.5286
▁ant	-10.5298
▁cheerleaders	-10.5299
▁packed	-10.5304
▁app	-10.5329
▁assum	-10.5341
▁shown	-10.5345
▁fur	-10.5351
▁newspapers	-10.5377
happily	-10.538
cess	-10.5392
▁reported	-10.5394
▁returns	-10.5396
▁prisoners	-10.5397
▁offering	-10.5401
tz	-10.5403
ards	-10.5405
▁sting	-10.5426
▁lessons	-10.5429
▁formal	-10.5438
▁raining	-10.5438
▁goody	-10.544
iest	-10.5442
▁turner	-10.5443
nsan	-10.5444
▁oi	-10.5445
▁presents	-10.5456
▁mines	-10.5471
▁es	-10.5475
ide	-10.5476
▁needle	-10.5477
▁shields	-10.5507
▁waves	-10.5508
▁covered	-10.5517
▁associate	-10.5583
berg	-10.559
▁camper	-10.5615
▁preserve	-10.5617
▁chitt	-10.5626
▁hells	-10.5634
▁metro	-10.5654
eo	-10.566
ify	-10.5675
mit	-10.5697
▁mop	-10.5724
▁fights	-10.5733
▁chap	-10.574
▁gen	-10.5755
▁and	-10.5756
ugged	-10.5765
eck	-10.5766
char	-10.5779
▁her	-10.5791
▁issue	-10.5797
▁swa	-10.5806
▁stink	-10.5812
▁executive	-10.5814
▁bills	-10.5814
▁fugitive	-10.5814
▁cigarette	-10.5816
▁rumble	-10.5821
▁sock	-10.5821
sis	-10.5824
▁rene	-10.5838
▁dollar	-10.5842
▁plug	-10.5859
▁buildings	-10.5873
▁russians	-10.5879
owned	-10.5897
▁notes	-10.5908
mir	-10.5912
▁immortal	-10.5919
ica	-10.592
erson	-10.5928
isser	-10.5937
gi	-10.5938
▁faces	-10.5955
▁chin	-10.5982
▁trib	-10.6006
▁lime	-10.6017
ought	-10.602
▁stepp	-10.6021
▁handed	-10.6022
▁disappoint	-10.6035
q	-10.6038
▁crawl	-10.6039
weight	-10.6043
▁extract	-10.6044
▁gasp	-10.6046
▁crow	-10.6047
force	-10.6047
▁vice	-10.6051
door	-10.6057
▁riddle	-10.6058
▁tow	-10.6059
▁absolute	-10.6067
▁trail	-10.6068
▁splash	-10.6073
▁relative	-10.6077
▁corrupt	-10.6077
▁makin	-10.6078
▁achieve	-10.6079
▁entertain	-10.608
▁bel	-10.608
▁slave	-10.608
▁accomplice	-10.6081
▁advise	-10.6081
▁agatha	-10.6081
▁akiko	-10.6081
▁albino	-10.6081
▁alibi	-10.6081
▁azul	-10.6081
▁bartender	-10.6081
▁blanton	-10.6081
▁brantley	-10.6081
▁chakobsa	-10.6081
▁chocolate	-10.6081
▁conference	-10.6081
▁coordinat	-10.6081
▁dedicated	-10.6081
▁disagree	-10.6081
▁eleanor	-10.6081
▁embassy	-10.6081
▁erudite	-10.6081
▁expensive	-10.6081
▁felipe	-10.6081
▁fifty	-10.6081
▁forfeit	-10.6081
▁fraud	-10.6081
▁geiier	-10.6081
▁hubbard	-10.6081
▁intellectual	-10.6081
▁knives	-10.6081
▁length	-10.6081
▁liquid	-10.6081
▁lopez	-10.6081
▁lucifer	-10.6081
▁magazine	-10.6081
▁matthew	-10.6081
▁nickname	-10.6081
▁polish	-10.6081
▁practical	-10.6081
▁reservation	-10.6081
▁residence	-10.6081
▁restaurant	-10.6081
▁rockwell	-10.6081
▁sabbac	-10.6081
▁scenario	-10.6081
▁shakusky	-10.6081
▁shikaka	-10.6081
▁studied	-10.6081
▁succeed	-10.6081
▁territory	-10.6081
▁tokyo	-10.6081
▁tuesday	-10.6081
▁twelve	-10.6081
▁ultimate	-10.6081
▁wealth	-10.6081
▁widow	-10.6081
▁zoran	-10.6081
▁background	-10.6081
▁bacon	-10.6081
▁bribe	-10.6081
▁chloe	-10.6081
▁consort	-10.6081
▁identity	-10.6081
▁michel	-10.6081
▁pantlng	-10.6081
▁rogue	-10.6081
▁scott	-10.6081
▁snack	-10.6081
▁depth	-10.6081
▁intel	-10.6081
▁oana	-10.6081
▁perez	-10.6081
▁albert	-10.6081
▁delighted	-10.6081
▁willie	-10.6081
▁sully	-10.6081
▁balloon	-10.6082
▁annual	-10.6082
▁destruction	-10.6082
▁relay	-10.6082
▁solar	-10.6082
▁bureau	-10.6082
▁facing	-10.6082
▁hacker	-10.6082
▁leap	-10.6082
▁mankind	-10.6082
▁rosie	-10.6082
▁skirt	-10.6082
▁gringo	-10.6082
▁venture	-10.6082
▁honour	-10.6082
▁holler	-10.6082
▁wesley	-10.6082
▁elevator	-10.6082
▁reset	-10.6082
▁jeweller	-10.6082
▁bingo	-10.6082
▁iook	-10.6082
▁concept	-10.6082
▁jedi	-10.6082
▁solid	-10.6082
▁thick	-10.6082
▁feature	-10.6082
▁recall	-10.6082
▁euro	-10.6082
▁multipl	-10.6082
▁inheritance	-10.6083
▁religion	-10.6083
▁protest	-10.6083
▁announcement	-10.6083
▁centre	-10.6083
▁owens	-10.6083
▁june	-10.6083
▁tactic	-10.6083
▁grayson	-10.6083
▁destination	-10.6083
▁prick	-10.6084
▁loyalty	-10.6084
▁scum	-10.6084
▁arrangement	-10.6084
▁surgery	-10.6084
▁grazie	-10.6084
▁daily	-10.6084
▁upside	-10.6084
▁pursuit	-10.6084
▁parade	-10.6084
▁recommendation	-10.6084
▁quality	-10.6085
▁guano	-10.6085
▁dropping	-10.6085
▁plantation	-10.6085
▁supply	-10.6085
▁toll	-10.6086
▁groom	-10.6086
▁burst	-10.6086
▁plum	-10.6086
▁hallway	-10.6086
▁amongst	-10.6086
▁booth	-10.6086
▁lloyd	-10.6087
▁shallow	-10.6087
▁sailor	-10.6087
▁aii	-10.6087
▁alter	-10.6087
▁delete	-10.6087
▁monte	-10.6087
▁ohhh	-10.6088
▁rowan	-10.6088
▁confidence	-10.6088
▁mustache	-10.6088
▁stat	-10.6088
▁sensitive	-10.6089
▁abbie	-10.6089
▁painful	-10.6091
▁swore	-10.6091
▁tapping	-10.6092
▁slaughter	-10.6092
▁tina	-10.6092
▁footage	-10.6093
▁dart	-10.6094
▁hospitality	-10.6095
▁growth	-10.6096
▁stroke	-10.6096
▁worthless	-10.6097
▁apply	-10.6097
▁tries	-10.6097
▁haha	-10.6098
gging	-10.6098
▁creepy	-10.6099
▁tellin	-10.61
▁brass	-10.61
▁indiana	-10.6101
▁alike	-10.6102
▁bench	-10.6103
▁mog	-10.6103
▁summoned	-10.6108
▁tax	-10.6108
▁nest	-10.6109
▁label	-10.611
▁dana	-10.611
▁tapes	-10.6112
▁justin	-10.6115
▁pickup	-10.6116
▁witches	-10.6116
▁established	-10.6117
▁dresses	-10.6119
lia	-10.612
▁bubble	-10.612
▁whod	-10.6125
▁formation	-10.6127
minent	-10.6128
rona	-10.6129
▁bind	-10.613
▁dip	-10.6131
▁pine	-10.6139
▁fond	-10.614
▁coal	-10.6141
▁blown	-10.6146
▁nazi	-10.6147
▁partners	-10.6149
▁limited	-10.6152
▁rollie	-10.6153
▁geez	-10.6154
▁meantime	-10.6159
▁spoiled	-10.616
▁costs	-10.6165
▁ymbrynes	-10.6181
▁abuse	-10.6184
▁disappeared	-10.6189
▁prov	-10.619
▁shortly	-10.6192
▁hid	-10.6194
▁prayer	-10.6197
▁heavens	-10.6204
▁judged	-10.621
▁beard	-10.6213
▁rep	-10.6226
▁snakes	-10.6234
▁jokes	-10.6235
▁completed	-10.6235
▁considered	-10.6242
drop	-10.6242
▁intentions	-10.6242
▁neat	-10.6242
▁minim	-10.6254
ku	-10.6263
▁manners	-10.6267
▁mort	-10.6268
▁scrap	-10.627
▁stab	-10.6274
▁exc	-10.6278
▁trans	-10.628
▁dang	-10.6291
▁gifts	-10.6291
▁uhh	-10.6293
▁daddys	-10.6293
▁diamonds	-10.6295
▁skipp	-10.6301
cast	-10.6316
▁shooter	-10.6317
▁gall	-10.6346
▁pushed	-10.6349
▁sy	-10.6357
▁millions	-10.6373
▁marked	-10.6397
▁sav	-10.6404
▁packing	-10.6405
▁indians	-10.6411
hard	-10.6416
▁drown	-10.6416
▁fooled	-10.6426
▁crimes	-10.6427
omin	-10.6434
▁tw	-10.6437
▁citizens	-10.6438
▁che	-10.6446
ological	-10.6447
▁positions	-10.6453
▁messed	-10.6456
▁contr	-10.6463
lud	-10.6467
▁odds	-10.6473
▁tao	-10.6497
▁tons	-10.6506
▁idiots	-10.6508
▁touched	-10.651
▁remembered	-10.6511
▁jac	-10.6526
▁musical	-10.6531
▁chas	-10.6531
▁workers	-10.6532
▁here	-10.6534
▁reporting	-10.6536
▁declare	-10.6538
▁dreamed	-10.6539
▁plants	-10.654
▁misunderstand	-10.6555
▁divergents	-10.6555
▁hundreds	-10.6565
uld	-10.6565
▁talkin	-10.6568
▁finishing	-10.6571
▁attacking	-10.6577
▁khan	-10.6579
▁nut	-10.6599
▁landing	-10.6608
▁ob	-10.6608
iff	-10.6617
duct	-10.6617
▁tempo	-10.6625
▁danced	-10.6635
▁pit	-10.6643
tone	-10.6649
▁goth	-10.667
cent	-10.6677
▁gus	-10.6705
▁ref	-10.6709
▁deco	-10.6717
tain	-10.6721
▁affairs	-10.6731
▁lg	-10.675
tu	-10.6763
▁exam	-10.6782
▁signals	-10.6792
rit	-10.6796
▁teachers	-10.6817
ito	-10.6831
▁heroic	-10.6856
ular	-10.6856
▁catching	-10.6869
▁rot	-10.6881
▁observ	-10.6898
▁laps	-10.6916
▁harkonnen	-10.6925
▁thrombey	-10.6925
▁exercise	-10.6926
▁lemon	-10.6928
▁cheerleader	-10.693
▁brake	-10.6936
▁buck	-10.6938
▁beside	-10.6942
▁hoo	-10.6943
▁sch	-10.6945
▁drum	-10.6965
▁una	-10.6996
stance	-10.6999
▁tab	-10.7017
▁greater	-10.7034
▁rev	-10.7065
▁contain	-10.7071
▁accounts	-10.7075
▁ange	-10.709
▁stan	-10.7116
dra	-10.7117
▁graduate	-10.7117
▁method	-10.7117
▁types	-10.712
▁chirp	-10.7136
ught	-10.7141
▁adopt	-10.7145
▁surround	-10.7145
▁teenage	-10.7148
board	-10.7148
▁charm	-10.7152
▁wax	-10.7153
writing	-10.7154
keep	-10.7155
loved	-10.7155
▁elect	-10.7155
▁sew	-10.7163
▁convince	-10.7163
▁arrange	-10.7163
▁retire	-10.7164
half	-10.7164
▁creep	-10.7173
▁blond	-10.7174
▁silent	-10.7176
▁alik	-10.7177
ame	-10.7179
▁elliot	-10.7182
▁produce	-10.7182
tail	-10.7182
▁actress	-10.7183
▁recent	-10.7184
▁speaker	-10.7184
▁section	-10.7186
▁salvat	-10.7188
▁unlike	-10.7188
▁rhythm	-10.7188
▁pursu	-10.7189
▁individual	-10.719
▁complex	-10.719
▁cru	-10.719
▁lauren	-10.719
▁joseph	-10.7191
▁inherit	-10.7191
▁depart	-10.7191
▁prophet	-10.7192
▁interfer	-10.7192
▁pencil	-10.7193
▁popcorn	-10.7193
▁abroad	-10.7193
▁accurate	-10.7193
▁almighty	-10.7193
▁anonymous	-10.7193
▁anticruise	-10.7193
▁arkham	-10.7193
▁batteries	-10.7193
▁bedouin	-10.7193
▁bellefort	-10.7193
▁coincidence	-10.7193
▁compartment	-10.7193
▁courier	-10.7193
▁deploy	-10.7193
▁division	-10.7193
▁facility	-10.7193
▁feihung	-10.7193
▁florida	-10.7193
▁gesserit	-10.7193
▁giggling	-10.7193
▁grandparents	-10.7193
▁grief	-10.7193
▁handkerchief	-10.7193
▁identify	-10.7193
▁immune	-10.7193
▁institution	-10.7193
▁invitation	-10.7193
▁jakku	-10.7193
▁jersey	-10.7193
▁katherine	-10.7193
▁laundry	-10.7193
▁lesbian	-10.7193
▁marilyn	-10.7193
▁mcguire	-10.7193
▁morphine	-10.7193
▁natalie	-10.7193
▁oxygen	-10.7193
▁paranormal	-10.7193
▁politics	-10.7193
▁practicing	-10.7193
▁precinct	-10.7193
▁prosecution	-10.7193
▁qzone	-10.7193
▁rehearse	-10.7193
▁ritual	-10.7193
▁schooi	-10.7193
▁sennett	-10.7193
▁skywalker	-10.7193
▁solution	-10.7193
▁struggling	-10.7193
▁stutters	-10.7193
▁survivor	-10.7193
▁tecopa	-10.7193
▁teresa	-10.7193
▁terrence	-10.7193
▁unexpected	-10.7193
▁yuetmui	-10.7193
▁angelov	-10.7193
▁creaks	-10.7193
▁harbor	-10.7193
▁houston	-10.7193
▁humor	-10.7193
▁hyell	-10.7193
▁jonny	-10.7193
▁knit	-10.7193
▁mervyn	-10.7193
▁monkey	-10.7193
▁northeast	-10.7193
▁paddle	-10.7193
▁shush	-10.7193
▁sixteen	-10.7193
▁superior	-10.7193
▁terrified	-10.7193
▁tolerate	-10.7193
▁tweet	-10.7193
▁yueh	-10.7193
▁appeal	-10.7193
▁patriot	-10.7193
▁squawk	-10.7193
▁alcohol	-10.7193
▁barrel	-10.7193
▁hodge	-10.7193
▁illinois	-10.7193
▁panicked	-10.7193
▁cancer	-10.7193
▁application	-10.7193
▁saddle	-10.7193
▁slap	-10.7193
▁eighteen	-10.7193
▁naomi	-10.7193
▁assigned	-10.7193
▁casper	-10.7193
▁historical	-10.7193
▁organization	-10.7193
▁underneath	-10.7193
▁salad	-10.7193
▁torn	-10.7193
▁favourite	-10.7193
▁veatch	-10.7193
▁haunt	-10.7193
▁marcus	-10.7193
▁paulina	-10.7193
▁spike	-10.7193
▁anderson	-10.7193
▁typing	-10.7193
▁todd	-10.7193
▁bracelet	-10.7193
▁elves	-10.7193
▁garfield	-10.7193
▁audition	-10.7193
▁recycle	-10.7193
▁hostile	-10.7193
▁network	-10.7193
▁upgrade	-10.7194
▁knight	-10.7194
▁mutt	-10.7194
▁freddy	-10.7194
▁dozen	-10.7194
▁atom	-10.7194
▁slay	-10.7194
▁therell	-10.7194
▁samuel	-10.7194
▁digging	-10.7194
▁leak	-10.7194
▁notebook	-10.7194
▁scheme	-10.7194
▁candy	-10.7194
▁peach	-10.7194
▁preach	-10.7194
▁subway	-10.7194
▁hissing	-10.7194
▁swell	-10.7194
▁cease	-10.7195
▁andrew	-10.7195
▁nuke	-10.7195
▁grip	-10.7195
▁hanover	-10.7195
▁donnie	-10.7195
▁cattle	-10.7195
▁ocha	-10.7195
▁rhythmic	-10.7195
▁fluid	-10.7195
▁bourget	-10.7195
▁review	-10.7195
▁rico	-10.7196
▁upper	-10.7196
▁mosquitoes	-10.7196
▁accompany	-10.7196
▁renewal	-10.7197
▁chores	-10.7197
▁develop	-10.7197
▁nearby	-10.7197
▁moron	-10.7198
▁iike	-10.7198
▁injured	-10.7198
iac	-10.7198
▁myth	-10.7198
▁fleet	-10.7198
▁weakness	-10.7198
▁brace	-10.7198
▁boll	-10.7199
▁dentist	-10.72
▁gps	-10.72
▁guardian	-10.72
▁diary	-10.72
▁hhhey	-10.72
▁possession	-10.7201
▁slight	-10.7201
▁splashes	-10.7202
ative	-10.7202
▁foolish	-10.7204
▁therapy	-10.7204
▁haul	-10.7205
▁kong	-10.7206
▁inches	-10.7206
▁pace	-10.7207
▁wallet	-10.7207
▁funds	-10.7207
▁waltz	-10.7209
▁fries	-10.7209
▁structure	-10.7209
▁jab	-10.721
▁rage	-10.721
▁bowers	-10.7211
▁exhausted	-10.7211
▁burger	-10.7214
▁activated	-10.7215
▁lads	-10.7218
▁humanity	-10.7218
▁defin	-10.722
▁retired	-10.7221
▁endure	-10.7222
▁recipe	-10.723
▁tickle	-10.723
▁chat	-10.7231
▁connected	-10.7233
▁forty	-10.7241
▁hangar	-10.7243
▁site	-10.7244
▁spu	-10.7244
pping	-10.7244
▁daw	-10.7246
▁glasses	-10.7249
▁nailed	-10.7251
▁photographer	-10.7254
▁businessman	-10.7257
serving	-10.7259
▁replaced	-10.7259
top	-10.7261
▁carter	-10.7263
wer	-10.7263
▁introduced	-10.7269
▁gi	-10.727
▁shy	-10.727
▁removed	-10.7272
▁ancestors	-10.7273
▁poop	-10.7274
▁pounding	-10.7274
▁roller	-10.7279
▁boost	-10.7282
▁reality	-10.7284
▁authorize	-10.7285
▁poisoned	-10.7286
▁loaded	-10.7292
▁what	-10.7296
with	-10.7301
real	-10.7301
▁panthers	-10.7305
▁homeless	-10.732
▁hunted	-10.7325
▁lands	-10.7328
▁tim	-10.7332
▁relics	-10.7337
▁hurting	-10.7338
▁ador	-10.734
▁witnessed	-10.7345
▁figures	-10.7348
▁voted	-10.7349
uv	-10.7352
▁painted	-10.7361
▁talented	-10.7372
▁lend	-10.7374
ned	-10.7375
▁spreading	-10.7378
▁bent	-10.739
▁posted	-10.7396
▁outlaws	-10.7401
▁cocks	-10.7404
hop	-10.7407
▁rolls	-10.7409
▁fame	-10.741
▁jr	-10.7426
▁worms	-10.7433
▁treated	-10.7437
▁filling	-10.7442
▁counter	-10.7447
▁lightly	-10.7452
stone	-10.746
▁gim	-10.7465
▁lemons	-10.7465
▁aha	-10.7489
▁dudes	-10.7491
▁cigarettes	-10.7498
▁socks	-10.7501
▁travels	-10.7507
ory	-10.7525
▁nightmares	-10.753
▁towers	-10.7535
▁compete	-10.7535
▁joey	-10.7574
inch	-10.7576
▁aqu	-10.7578
▁sins	-10.758
▁patients	-10.7595
▁dome	-10.761
otic	-10.7623
▁bounce	-10.7626
▁terrorists	-10.7628
▁debts	-10.763
▁pur	-10.7632
ulate	-10.7643
▁hol	-10.7645
▁menu	-10.7655
▁limits	-10.7663
rick	-10.7672
ico	-10.7676
pin	-10.7715
pro	-10.7725
▁shoulders	-10.7726
▁uniforms	-10.7726
lla	-10.7727
▁mc	-10.773
▁wei	-10.7738
ado	-10.7753
▁testing	-10.7763
▁ages	-10.7772
car	-10.7775
▁je	-10.7788
▁overhea	-10.7798
gre	-10.7799
uff	-10.7803
jo	-10.7805
▁protected	-10.7806
▁bur	-10.7819
▁bottles	-10.7826
▁convention	-10.7838
▁dreaming	-10.7876
▁nicely	-10.7893
▁aunts	-10.7899
▁events	-10.7915
▁hop	-10.7921
bil	-10.7921
▁unh	-10.7924
▁prep	-10.794
▁din	-10.7991
▁instruments	-10.7992
▁chains	-10.7993
▁rum	-10.8016
▁hon	-10.8027
▁happi	-10.8038
▁respects	-10.804
rous	-10.8045
▁poet	-10.8049
▁assassin	-10.8084
▁cori	-10.8086
▁shar	-10.8091
▁sigh	-10.8097
▁knee	-10.8102
▁ri	-10.8108
▁supervis	-10.8115
▁tu	-10.8123
▁jeo	-10.8126
▁squa	-10.8153
ility	-10.8157
bit	-10.8164
▁wha	-10.8169
▁neighbor	-10.8175
▁rattle	-10.8177
▁conductor	-10.8178
▁habit	-10.8178
▁diamond	-10.8178
▁cloud	-10.818
▁hollow	-10.8181
▁bore	-10.8182
▁worm	-10.8184
hall	-10.8184
▁beast	-10.8187
▁toward	-10.8188
lum	-10.8193
▁skip	-10.8193
▁sue	-10.8218
▁toy	-10.8224
▁gag	-10.8231
make	-10.8259
▁environment	-10.8264
ese	-10.8267
▁lei	-10.8295
uous	-10.832
▁freaks	-10.8343
ition	-10.8354
▁rap	-10.8357
▁wi	-10.8362
▁ske	-10.8382
wan	-10.8383
▁possess	-10.8384
▁squeak	-10.8385
armed	-10.8388
▁mic	-10.8393
▁establish	-10.8395
▁detect	-10.8396
▁mini	-10.8399
▁vanish	-10.8402
grade	-10.8403
quarter	-10.8404
bird	-10.8404
free	-10.8405
life	-10.8405
▁connect	-10.8405
▁whi	-10.8405
cake	-10.8407
▁solve	-10.8414
▁commission	-10.8418
▁merc	-10.8419
▁guilt	-10.8423
mez	-10.8424
▁constant	-10.8427
▁stalk	-10.8427
▁unfortunate	-10.8428
▁orient	-10.8432
▁branch	-10.8433
inlaw	-10.8435
▁noises	-10.8435
bell	-10.8436
cap	-10.8437
▁patch	-10.844
▁transform	-10.844
▁terri	-10.8441
▁chew	-10.8441
▁plea	-10.8442
▁rebel	-10.8442
▁bargain	-10.8443
▁notify	-10.8443
▁acquire	-10.8443
▁algebra	-10.8443
▁amateur	-10.8443
▁ambassador	-10.8443
▁ambush	-10.8443
▁arbuthnot	-10.8443
▁awkward	-10.8443
▁barbara	-10.8443
▁basilwether	-10.8443
▁belief	-10.8443
▁bleating	-10.8443
▁bounty	-10.8443
▁brautigan	-10.8443
▁cadena	-10.8443
▁capacity	-10.8443
▁ceremony	-10.8443
▁cheerleading	-10.8443
▁circuit	-10.8443
▁collapse	-10.8443
▁column	-10.8443
▁conclusion	-10.8443
▁concrete	-10.8443
▁corporate	-10.8443
▁curfew	-10.8443
▁curtain	-10.8443
▁defence	-10.8443
▁disguise	-10.8443
▁dismiss	-10.8443
▁divide	-10.8443
▁enforcement	-10.8443
▁enormous	-10.8443
▁execute	-10.8443
▁explode	-10.8443
▁fifteen	-10.8443
▁florence	-10.8443
▁fruit	-10.8443
▁harvest	-10.8443
▁hector	-10.8443
▁hockey	-10.8443
▁huddle	-10.8443
▁iansam	-10.8443
▁increase	-10.8443
▁isthmus	-10.8443
▁jacob	-10.8443
▁jerusalem	-10.8443
▁juvenile	-10.8443
▁kansas	-10.8443
▁lapchick	-10.8443
▁leslie	-10.8443
▁majesty	-10.8443
▁mccabe	-10.8443
▁memorial	-10.8443
▁merchant	-10.8443
▁oldfashioned	-10.8443
▁opponent	-10.8443
▁platform	-10.8443
▁polite	-10.8443
▁prague	-10.8443
▁preparation	-10.8443
▁published	-10.8443
▁receiving	-10.8443
▁rendezvous	-10.8443
▁resolve	-10.8443
▁rookie	-10.8443
▁scotland	-10.8443
▁seokhyeon	-10.8443
▁shazam	-10.8443
▁spectacular	-10.8443
▁submarine	-10.8443
▁superhero	-10.8443
▁superstud	-10.8443
▁suspicion	-10.8443
▁tattoo	-10.8443
▁thieves	-10.8443
▁thrill	-10.8443
▁throughout	-10.8443
▁thursday	-10.8443
▁unnecessary	-10.8443
▁watson	-10.8443
▁weevil	-10.8443
▁ahkton	-10.8443
▁ankle	-10.8443
▁article	-10.8443
▁assignment	-10.8443
▁berko	-10.8443
▁convenient	-10.8443
▁decade	-10.8443
▁grocer	-10.8443
▁irena	-10.8443
▁juicy	-10.8443
▁monroe	-10.8443
▁motel	-10.8443
▁oooh	-10.8443
▁pancakes	-10.8443
▁reckless	-10.8443
▁reckon	-10.8443
▁revolve	-10.8443
▁terra	-10.8443
▁infant	-10.8443
▁orbit	-10.8443
▁preparing	-10.8443
▁spiritual	-10.8443
▁stoppard	-10.8443
▁sustain	-10.8443
▁ladder	-10.8443
▁riker	-10.8443
▁diora	-10.8443
▁soap	-10.8443
▁lazy	-10.8443
egitimate	-10.8443
▁bilal	-10.8443
▁regina	-10.8443
▁debra	-10.8443
▁douchebag	-10.8443
▁moaning	-10.8443
▁spank	-10.8443
▁mocking	-10.8443
▁barrier	-10.8443
▁gorilla	-10.8443
▁lottery	-10.8443
▁emerge	-10.8443
▁halt	-10.8443
▁temporary	-10.8443
▁gallery	-10.8443
▁tuition	-10.8443
▁tango	-10.8443
▁parole	-10.8443
▁electronic	-10.8443
▁waitress	-10.8443
▁chemistry	-10.8443
▁yknow	-10.8443
▁wives	-10.8443
▁disconnect	-10.8443
▁remote	-10.8443
▁donut	-10.8443
▁veins	-10.8443
▁creek	-10.8443
▁cliff	-10.8443
▁amigo	-10.8443
▁castroville	-10.8443
▁friggin	-10.8443
▁overcome	-10.8443
▁reference	-10.8443
▁distress	-10.8443
▁bugger	-10.8443
▁asun	-10.8444
▁cheque	-10.8444
▁scanner	-10.8444
▁flashlight	-10.8444
▁carved	-10.8444
▁shatz	-10.8444
▁loving	-10.8444
▁riot	-10.8444
▁glow	-10.8444
▁caii	-10.8444
▁uncomfortable	-10.8444
▁sietch	-10.8444
▁canada	-10.8444
▁bicycle	-10.8444
▁nascar	-10.8444
▁employee	-10.8444
▁stiff	-10.8444
▁rising	-10.8444
▁rejection	-10.8444
▁eternity	-10.8444
▁geist	-10.8445
▁hush	-10.8445
▁roast	-10.8445
▁compass	-10.8445
▁sober	-10.8445
▁laurence	-10.8445
▁glue	-10.8445
▁linny	-10.8445
▁youse	-10.8445
▁towel	-10.8445
▁signature	-10.8445
▁soda	-10.8445
▁jewelry	-10.8446
▁vibe	-10.8446
▁shem	-10.8446
▁joyce	-10.8446
▁nerd	-10.8446
▁achievement	-10.8446
▁slim	-10.8446
▁attractive	-10.8446
▁frame	-10.8447
▁rumor	-10.8447
▁woah	-10.8447
▁childhood	-10.8447
▁engagement	-10.8447
▁stack	-10.8448
▁turki	-10.8448
▁speedway	-10.8448
▁chef	-10.8448
▁creation	-10.8448
▁mason	-10.8448
▁reign	-10.8449
▁editor	-10.8449
▁tov	-10.8449
▁godfather	-10.8449
▁merci	-10.8449
▁lakers	-10.845
▁scent	-10.845
▁cookies	-10.8451
▁donation	-10.8451
▁cabinet	-10.8451
▁della	-10.8452
▁rejected	-10.8452
▁santa	-10.8452
▁accidentally	-10.8453
▁ego	-10.8453
▁nausea	-10.8454
▁tender	-10.8454
▁taxes	-10.8454
▁dna	-10.8454
▁negotiate	-10.8454
▁snarling	-10.8455
▁freshman	-10.8456
▁tore	-10.8456
▁ranch	-10.8457
▁tenure	-10.8459
▁victoria	-10.8459
▁unlikely	-10.846
▁sen	-10.8461
▁treatment	-10.8461
▁peacefully	-10.8462
▁hopefully	-10.8463
▁steven	-10.8463
▁trailer	-10.8463
▁infected	-10.8464
▁wah	-10.8464
allelu	-10.8465
▁attic	-10.8466
win	-10.8467
▁mothership	-10.8467
▁captured	-10.8468
▁passage	-10.8468
▁july	-10.847
▁invented	-10.847
▁vest	-10.847
▁reply	-10.8472
▁correction	-10.8473
▁diego	-10.8473
▁emir	-10.8474
▁honorable	-10.8476
▁function	-10.8476
▁stray	-10.8477
▁heroin	-10.8477
▁starve	-10.8477
▁clothing	-10.8478
▁naturally	-10.8478
▁shutter	-10.8478
▁discussion	-10.848
▁ram	-10.8481
▁lang	-10.8483
▁arse	-10.8483
▁maniac	-10.8489
▁shave	-10.8492
play	-10.8497
▁complaint	-10.8497
▁fingerprints	-10.8498
▁buyers	-10.8501
▁tink	-10.8503
▁queens	-10.8505
▁sheriffs	-10.8505
▁sonia	-10.8506
▁volunteered	-10.8506
zie	-10.8507
▁highest	-10.851
▁epic	-10.851
▁linked	-10.8513
▁drowning	-10.8513
▁whinn	-10.8515
▁sketch	-10.8517
▁dumped	-10.8525
▁operate	-10.8526
▁classes	-10.8533
unk	-10.8537
▁fn	-10.8539
ersk	-10.854
▁ray	-10.854
▁climbed	-10.8544
done	-10.8546
▁flame	-10.8548
▁mixed	-10.855
▁deeper	-10.8561
▁switcher	-10.8563
▁chased	-10.8565
▁poorly	-10.8571
▁ruth	-10.8571
▁houseman	-10.8578
▁ricky	-10.858
▁designed	-10.8586
▁oldest	-10.8586
▁ink	-10.859
▁martini	-10.8592
▁smarter	-10.8611
▁seeds	-10.8621
▁lining	-10.8622
wich	-10.8625
▁snapp	-10.8629
▁ir	-10.863
▁talkies	-10.8632
▁bothering	-10.8638
▁dared	-10.864
je	-10.8642
▁bananas	-10.8644
▁wizards	-10.8644
▁lookout	-10.8644
▁barks	-10.8647
band	-10.8651
its	-10.8664
▁imagined	-10.8675
▁symbols	-10.8678
▁yay	-10.868
▁pyramids	-10.868
▁gene	-10.8681
milton	-10.8682
▁colored	-10.869
▁tippe	-10.8695
hee	-10.87
▁gardener	-10.8708
▁bla	-10.8708
▁studying	-10.8711
▁importantly	-10.8716
▁neighbors	-10.8717
▁habits	-10.8717
anne	-10.8719
eur	-10.8727
▁makeup	-10.8732
ois	-10.8733
▁manage	-10.8738
ttle	-10.8742
▁watches	-10.8746
▁harkonnens	-10.8754
▁thrombeys	-10.8754
▁lighter	-10.8755
▁sow	-10.8759
▁carla	-10.8762
▁supposedly	-10.8764
list	-10.8765
▁hatch	-10.8767
▁continu	-10.8784
▁tryin	-10.8785
▁recorded	-10.8787
▁fugitives	-10.8791
butt	-10.8796
▁jumped	-10.8838
▁pende	-10.8841
▁legends	-10.8866
▁virginia	-10.8888
ken	-10.8892
▁stalin	-10.8896
▁sucker	-10.8902
▁creatures	-10.8903
▁escorts	-10.8903
▁gunshots	-10.8903
▁results	-10.8903
▁ty	-10.8919
▁goat	-10.8932
▁buttons	-10.8941
▁tested	-10.8941
▁thuds	-10.8941
ewell	-10.8954
▁owes	-10.8955
▁landed	-10.8961
▁chim	-10.8964
▁boarding	-10.8989
▁photographs	-10.9018
▁fooling	-10.9022
▁sum	-10.9032
▁handy	-10.9036
ippi	-10.9047
drew	-10.9049
oma	-10.9053
▁officials	-10.9055
tile	-10.9068
▁factor	-10.9071
uhuh	-10.9084
nder	-10.9091
cher	-10.9107
▁deadly	-10.912
▁wes	-10.9123
hai	-10.9135
▁scale	-10.916
▁scars	-10.9165
ggy	-10.9172
▁workin	-10.9202
▁wil	-10.9223
use	-10.9237
▁grades	-10.9241
▁swords	-10.9244
hem	-10.9248
▁commit	-10.928
▁pest	-10.9296
▁abs	-10.9297
▁mag	-10.9308
dict	-10.9312
▁fil	-10.9365
▁worker	-10.9386
igan	-10.9392
▁hoi	-10.9411
▁wig	-10.9455
▁abu	-10.9483
▁wished	-10.9486
▁tri	-10.9505
▁doyles	-10.9515
▁ski	-10.9526
▁et	-10.9536
▁cough	-10.9554
▁groan	-10.9561
▁ban	-10.958
oak	-10.9592
▁cock	-10.9594
▁pyramid	-10.9604
▁mul	-10.9604
▁outlaw	-10.9606
▁tran	-10.961
fir	-10.9615
▁degree	-10.9637
term	-10.9638
▁rig	-10.9638
▁customer	-10.9639
▁devo	-10.9655
▁mil	-10.966
▁manner	-10.9689
bol	-10.9704
▁symbol	-10.9704
rid	-10.9708
▁fella	-10.9709
▁carrie	-10.9733
put	-10.9733
▁emotion	-10.9745
▁author	-10.9748
wise	-10.9751
▁via	-10.9776
▁sig	-10.9789
▁ignor	-10.9791
▁conc	-10.9802
▁elis	-10.9809
▁spray	-10.981
star	-10.9811
▁flood	-10.9811
▁caus	-10.9819
▁thi	-10.9821
alada	-10.9824
wood	-10.9824
break	-10.9826
view	-10.9828
born	-10.9829
mount	-10.9831
bound	-10.9832
world	-10.9833
minute	-10.9833
woman	-10.9833
called	-10.9833
how	-10.9833
mouth	-10.9835
town	-10.9835
tress	-10.9837
▁update	-10.9841
speed	-10.9841
▁propose	-10.9842
▁capture	-10.9842
▁involve	-10.9843
▁activate	-10.9846
lady	-10.9851
youre	-10.9855
▁technical	-10.9856
▁grap	-10.9857
▁inject	-10.986
▁origin	-10.986
▁region	-10.9861
▁restore	-10.9862
▁forge	-10.9864
▁garde	-10.9865
▁confess	-10.9867
mhmm	-10.9867
▁otto	-10.9867
lapping	-10.9868
▁comfort	-10.9868
▁adjust	-10.9869
▁snoo	-10.9869
titude	-10.987
▁greet	-10.987
▁multi	-10.987
▁divin	-10.987
ology	-10.987
▁casual	-10.9871
▁bleach	-10.9871
▁neigh	-10.9871
▁shriek	-10.9871
educated	-10.9871
▁airplane	-10.9871
▁album	-10.9871
▁alligator	-10.9871
▁arizona	-10.9871
▁auction	-10.9871
▁autumn	-10.9871
▁avocet	-10.9871
▁bianca	-10.9871
▁biometric	-10.9871
▁bluegrass	-10.9871
▁butcher	-10.9871
▁bylaw	-10.9871
▁canadian	-10.9871
▁cassetti	-10.9871
▁clamouring	-10.9871
▁cleveland	-10.9871
▁cockernorris	-10.9871
▁corporal	-10.9871
▁corporation	-10.9871
▁covenant	-10.9871
▁crunch	-10.9871
▁debenham	-10.9871
▁decency	-10.9871
▁delusion	-10.9871
▁dessert	-10.9871
▁detonator	-10.9871
▁disgrace	-10.9871
▁disrespect	-10.9871
▁dixon	-10.9871
▁doubledecker	-10.9871
▁doubleteam	-10.9871
▁dwight	-10.9871
▁elimination	-10.9871
▁encounter	-10.9871
▁envelope	-10.9871
▁excitement	-10.9871
▁extension	-10.9871
▁facial	-10.9871
▁faranoosh	-10.9871
▁franchise	-10.9871
▁fulfill	-10.9871
▁gabby	-10.9871
▁gretel	-10.9871
▁guido	-10.9871
▁harvard	-10.9871
▁hermano	-10.9871
▁hufan	-10.9871
▁humiliat	-10.9871
▁hurut	-10.9871
▁incredibly	-10.9871
▁injuries	-10.9871
▁innocence	-10.9871
▁insects	-10.9871
▁inspiration	-10.9871
▁invincible	-10.9871
▁iraq	-10.9871
▁istanbul	-10.9871
▁kamila	-10.9871
▁kilometers	-10.9871
▁lawsuit	-10.9871
▁maneuver	-10.9871
▁manhattan	-10.9871
▁marquez	-10.9871
▁maximum	-10.9871
▁mcpherson	-10.9871
▁melrose	-10.9871
▁mohiam	-10.9871
▁morgan	-10.9871
▁murray	-10.9871
▁nagurski	-10.9871
▁nigga	-10.9871
▁nunca	-10.9871
▁oblige	-10.9871
▁odonnell	-10.9871
▁orellana	-10.9871
▁pacific	-10.9871
▁phrase	-10.9871
▁pilgrim	-10.9871
▁possibilities	-10.9871
▁precaution	-10.9871
▁primus	-10.9871
▁profile	-10.9871
▁puke	-10.9871
▁quarantine	-10.9871
▁rehearsal	-10.9871
▁reverend	-10.9871
▁rhyme	-10.9871
▁samurai	-10.9871
▁sanctuary	-10.9871
▁sandworm	-10.9871
▁seminar	-10.9871
▁spencer	-10.9871
▁supreme	-10.9871
▁terracotta	-10.9871
▁thanksgiving	-10.9871
▁theatre	-10.9871
▁trophy	-10.9871
▁vacuum	-10.9871
▁venganza	-10.9871
▁villain	-10.9871
▁vovnik	-10.9871
▁washburn	-10.9871
▁yelps	-10.9871
▁alexander	-10.9871
▁bradley	-10.9871
▁congress	-10.9871
▁creating	-10.9871
▁hetty	-10.9871
▁hyper	-10.9871
▁jeez	-10.9871
▁leash	-10.9871
▁omaha	-10.9871
▁outrun	-10.9871
▁purchase	-10.9871
▁reform	-10.9871
▁rhib	-10.9871
▁seventeen	-10.9871
▁spoon	-10.9871
▁steak	-10.9871
▁stork	-10.9871
▁theft	-10.9871
▁thorough	-10.9871
▁wouid	-10.9871
▁after	-10.9871
▁berlin	-10.9871
▁bishop	-10.9871
▁bodyguard	-10.9871
▁crazi	-10.9871
▁extend	-10.9871
▁shotgun	-10.9871
▁stabbed	-10.9871
▁stephanie	-10.9871
▁tennis	-10.9871
▁whew	-10.9871
▁battery	-10.9871
▁flaw	-10.9871
▁hecta	-10.9871
▁marmee	-10.9871
▁polar	-10.9871
▁session	-10.9871
▁martian	-10.9871
▁medium	-10.9871
▁personnel	-10.9871
▁await	-10.9871
▁domestic	-10.9871
▁gently	-10.9871
▁throne	-10.9871
▁wallace	-10.9871
▁dvd	-10.9871
▁flick	-10.9871
▁tusk	-10.9871
▁floating	-10.9871
▁transferred	-10.9871
▁hauser	-10.9871
▁christina	-10.9871
▁crane	-10.9871
▁naughty	-10.9871
▁martha	-10.9871
▁dammit	-10.9871
▁raging	-10.9871
▁bollocks	-10.9871
▁governess	-10.9871
▁coop	-10.9871
▁paranoi	-10.9871
▁porsche	-10.9871
▁presum	-10.9871
▁definition	-10.9871
▁welcoming	-10.9871
▁internal	-10.9871
▁vouch	-10.9871
▁dickens	-10.9871
▁mabel	-10.9871
▁peaceful	-10.9872
▁wales	-10.9872
▁priest	-10.9872
▁troll	-10.9872
▁uncover	-10.9872
▁download	-10.9872
▁eternium	-10.9872
▁culture	-10.9872
▁beans	-10.9872
▁argue	-10.9872
▁upload	-10.9872
iscount	-10.9872
▁inevitable	-10.9872
▁psst	-10.9872
shire	-10.9872
▁pumpkin	-10.9872
▁ferry	-10.9872
▁departure	-10.9872
▁sissy	-10.9872
▁edwin	-10.9872
▁sinner	-10.9872
▁quant	-10.9872
▁dazzle	-10.9872
▁rudy	-10.9872
▁inviting	-10.9872
▁rubbish	-10.9872
▁dimeah	-10.9872
▁scarlet	-10.9872
▁altitude	-10.9873
▁corpse	-10.9873
▁karno	-10.9873
▁vials	-10.9873
▁leaf	-10.9873
▁species	-10.9873
▁clinic	-10.9873
▁description	-10.9873
▁blend	-10.9873
▁aerial	-10.9873
▁meow	-10.9873
▁whys	-10.9873
▁chopper	-10.9873
▁leiter	-10.9873
▁tasha	-10.9873
▁info	-10.9873
▁iq	-10.9873
▁sector	-10.9873
▁nitro	-10.9873
▁nude	-10.9873
▁roland	-10.9873
▁choo	-10.9874
▁therere	-10.9874
▁commitment	-10.9874
▁production	-10.9874
▁dime	-10.9874
▁addict	-10.9874
▁terry	-10.9874
▁puff	-10.9874
▁unlock	-10.9874
▁swimmer	-10.9874
▁delta	-10.9874
▁pigeon	-10.9874
▁starving	-10.9874
▁development	-10.9875
▁soho	-10.9875
▁orphanage	-10.9875
▁attached	-10.9875
▁slightest	-10.9875
▁chug	-10.9875
▁ditch	-10.9875
▁trey	-10.9875
▁adorable	-10.9875
▁hardware	-10.9875
▁debate	-10.9876
▁yuri	-10.9876
▁stern	-10.9876
▁porch	-10.9876
▁colombian	-10.9876
▁puppy	-10.9876
▁tox	-10.9876
▁oz	-10.9876
▁leadership	-10.9876
▁yuck	-10.9876
▁headache	-10.9876
▁norman	-10.9877
▁harsh	-10.9877
▁howling	-10.9877
▁slice	-10.9877
▁grey	-10.9877
▁largest	-10.9877
▁luis	-10.9877
▁audio	-10.9878
▁cities	-10.9878
▁francisco	-10.9878
▁drift	-10.9878
▁expose	-10.9879
▁confirmation	-10.9879
▁fence	-10.9879
▁regard	-10.9879
▁brotherinlaw	-10.9879
▁felony	-10.9879
▁legacy	-10.9879
▁adaa	-10.9879
▁damon	-10.9879
▁skies	-10.988
▁violation	-10.988
▁regional	-10.9881
▁deaf	-10.9882
▁stationary	-10.9882
▁surgeon	-10.9882
▁affection	-10.9882
▁patches	-10.9882
manship	-10.9883
▁whoosh	-10.9883
▁aww	-10.9883
▁beef	-10.9884
▁tomas	-10.9884
▁slum	-10.9884
▁scalp	-10.9884
▁satan	-10.9885
▁superb	-10.9886
terior	-10.9886
▁leech	-10.9887
▁kim	-10.9887
▁soup	-10.9887
▁rash	-10.9887
▁nickel	-10.9889
▁grill	-10.9891
▁partial	-10.9891
▁reaper	-10.9891
▁furious	-10.9892
▁coz	-10.9892
▁takin	-10.9896
▁diner	-10.9896
gage	-10.9897
▁hom	-10.9897
▁specialty	-10.9897
▁everyday	-10.9897
▁collection	-10.9899
▁accuse	-10.9899
▁penis	-10.9899
▁mild	-10.9901
▁shaken	-10.9902
▁annoying	-10.9903
▁smartest	-10.9905
▁jb	-10.9906
▁shithead	-10.9906
▁baii	-10.9908
▁clearance	-10.9909
▁cried	-10.9909
▁onion	-10.9909
▁convinced	-10.991
▁arranged	-10.991
▁att	-10.991
▁frightened	-10.991
▁weeping	-10.9913
▁electro	-10.9914
▁howe	-10.9914
▁issued	-10.9915
▁rack	-10.9916
▁aries	-10.9916
▁cuban	-10.9917
▁legally	-10.9919
▁dearest	-10.9919
▁sang	-10.992
▁entr	-10.9921
▁restless	-10.9921
▁setup	-10.9921
▁hoop	-10.9922
▁baron	-10.9922
▁coma	-10.9924
▁detected	-10.9924
▁uhoh	-10.9925
▁exposed	-10.9926
▁laser	-10.9926
▁mist	-10.9928
▁flooding	-10.9931
▁guaranteed	-10.9932
▁peregrinee	-10.9932
▁vir	-10.9933
▁core	-10.9936
▁dish	-10.9936
▁marion	-10.9939
▁purse	-10.9941
▁separated	-10.9946
▁rape	-10.9946
▁pier	-10.995
▁depressed	-10.9953
▁assured	-10.9955
▁divorced	-10.9959
▁rod	-10.9961
▁limp	-10.9965
▁kneel	-10.9966
▁clutch	-10.9968
▁tee	-10.9972
▁nono	-10.9977
slav	-10.9979
▁recognized	-10.9987
▁rata	-10.9987
▁hmmm	-10.9988
▁informed	-10.9996
▁dock	-10.9996
▁lace	-10.9997
▁hike	-10.9997
▁barn	-11.0005
▁bait	-11.0006
▁bowling	-11.0014
▁closest	-11.0015
▁ave	-11.0023
▁sneaking	-11.0024
▁christie	-11.0026
▁praying	-11.0034
▁tid	-11.0038
▁corn	-11.0043
▁shorter	-11.0046
pped	-11.0056
▁ricans	-11.0063
▁survived	-11.0073
imperial	-11.0075
▁brownie	-11.0078
▁blam	-11.0078
▁peek	-11.0085
▁rangers	-11.0086
▁borrowed	-11.0103
▁cron	-11.0103
▁comedy	-11.0105
▁comments	-11.0106
▁exclaims	-11.0107
▁sar	-11.0108
net	-11.0114
▁til	-11.0117
berry	-11.0117
▁blo	-11.0121
ulls	-11.0121
ples	-11.0122
▁freaked	-11.0124
▁ohio	-11.013
▁ol	-11.0132
▁consult	-11.0132
▁elm	-11.0143
▁carries	-11.0147
bri	-11.0147
cc	-11.0149
▁tracked	-11.0154
▁shocking	-11.0154
▁requesting	-11.0157
▁volu	-11.0162
▁sighted	-11.0162
def	-11.0171
gram	-11.0177
▁considering	-11.0184
▁assassins	-11.019
▁rubb	-11.019
▁rattles	-11.0192
▁conductors	-11.0192
▁toys	-11.0192
ggle	-11.0205
▁sole	-11.0206
▁handled	-11.0213
urke	-11.0216
▁hor	-11.0231
▁par	-11.0231
▁hay	-11.0247
▁dressing	-11.0252
mature	-11.0255
▁laying	-11.027
▁stinks	-11.0278
▁executives	-11.0278
▁pd	-11.0288
▁refere	-11.0292
bankmen	-11.031
▁reminder	-11.0312
▁wachatis	-11.0322
▁emails	-11.0322
▁factions	-11.0331
▁accelerat	-11.0341
▁nails	-11.0346
▁ang	-11.0354
pot	-11.0367
▁concentrate	-11.0377
▁kha	-11.0385
▁za	-11.0385
▁cannons	-11.0409
▁plastics	-11.0409
▁blades	-11.0409
ocks	-11.0412
cou	-11.0437
▁marrying	-11.0452
good	-11.0455
▁nations	-11.0459
▁dre	-11.0465
▁troubled	-11.0472
▁ding	-11.0484
eek	-11.0485
▁wires	-11.0499
cente	-11.05
▁kicking	-11.0518
▁comb	-11.0533
▁retrieve	-11.0565
▁begg	-11.0573
mba	-11.0588
▁quote	-11.0594
▁feelin	-11.0595
▁arc	-11.0634
▁sounded	-11.064
▁associat	-11.0646
alogue	-11.0678
▁cre	-11.0724
▁diet	-11.0743
▁choke	-11.077
▁arti	-11.0778
▁mali	-11.0786
▁zoo	-11.0791
rink	-11.0795
rice	-11.0839
▁bake	-11.0869
fire	-11.0896
ature	-11.0912
▁wai	-11.093
▁alli	-11.0934
that	-11.0964
rary	-11.0977
▁we	-11.099
▁accelerate	-11.101
▁mor	-11.102
▁devot	-11.1026
▁intention	-11.1027
pose	-11.1048
▁valet	-11.1077
▁worship	-11.1085
▁refer	-11.1091
▁stra	-11.1092
ban	-11.111
lance	-11.1115
▁unc	-11.1118
year	-11.116
vast	-11.1168
▁bark	-11.119
▁exclaim	-11.1206
chi	-11.1216
▁depend	-11.122
▁slam	-11.1253
▁instinct	-11.1264
▁profit	-11.1265
▁wizard	-11.127
▁banana	-11.127
▁whoohoo	-11.1275
▁comment	-11.1275
▁glove	-11.1279
▁passenger	-11.1279
▁diplomat	-11.1286
iii	-11.13
▁marx	-11.1309
lid	-11.1313
tches	-11.1319
▁cent	-11.1322
▁term	-11.1327
▁toe	-11.1329
▁consul	-11.1339
▁flam	-11.1403
▁accus	-11.1431
▁disturb	-11.1433
burg	-11.1452
▁whip	-11.1458
leg	-11.1473
fer	-11.1477
ife	-11.1478
▁bumb	-11.1481
▁bleed	-11.1482
▁discre	-11.149
▁convict	-11.1491
▁frighten	-11.1492
walk	-11.1493
strom	-11.1496
▁summon	-11.1497
▁announce	-11.1497
tempo	-11.1497
patient	-11.1498
level	-11.1499
▁flatter	-11.15
demon	-11.1501
▁admire	-11.1505
who	-11.1506
coat	-11.1507
last	-11.1508
oya	-11.1509
▁eliminate	-11.1509
path	-11.1509
wall	-11.1511
▁brid	-11.1514
ough	-11.1515
bag	-11.1515
uch	-11.1519
▁defi	-11.152
ential	-11.1521
▁adapt	-11.1524
bbling	-11.1527
▁violat	-11.1527
▁govern	-11.1532
▁livin	-11.1533
shit	-11.1533
▁select	-11.1534
▁etern	-11.1535
▁movin	-11.1536
▁appoint	-11.1536
▁blank	-11.1536
ozen	-11.1536
wind	-11.1536
▁thou	-11.1537
▁undetect	-11.1538
▁acknowledge	-11.1538
▁acquaintance	-11.1538
▁actuary	-11.1538
▁albini	-11.1538
▁amanda	-11.1538
▁amazon	-11.1538
▁anniversary	-11.1538
▁appetite	-11.1538
▁approval	-11.1538
▁bainbridge	-11.1538
▁baptis	-11.1538
▁barbital	-11.1538
▁becca	-11.1538
▁benevolen	-11.1538
▁blackjack	-11.1538
▁blizzard	-11.1538
▁bootstrap	-11.1538
▁bourbon	-11.1538
▁buffalo	-11.1538
▁cadogan	-11.1538
▁cafeteria	-11.1538
▁capitol	-11.1538
▁celebration	-11.1538
▁charging	-11.1538
▁charlotte	-11.1538
▁chrysanthemum	-11.1538
▁cinderella	-11.1538
▁classified	-11.1538
▁cockpit	-11.1538
▁colony	-11.1538
▁commercial	-11.1538
▁companion	-11.1538
▁conscience	-11.1538
▁conspiracy	-11.1538
▁delegation	-11.1538
▁disciple	-11.1538
▁disrupt	-11.1538
▁district	-11.1538
▁einstein	-11.1538
▁expense	-11.1538
▁eyewitness	-11.1538
▁fantasy	-11.1538
▁ferndell	-11.1538
▁fertilizer	-11.1538
▁frolic	-11.1538
▁frustrating	-11.1538
▁furniture	-11.1538
▁galaxy	-11.1538
▁hijack	-11.1538
▁horizon	-11.1538
▁humble	-11.1538
▁hurricane	-11.1538
▁huskers	-11.1538
▁hydro	-11.1538
▁immunity	-11.1538
▁impeccable	-11.1538
▁indefinite	-11.1538
▁industrial	-11.1538
▁ingredient	-11.1538
▁jacqueline	-11.1538
▁jennifer	-11.1538
▁landscape	-11.1538
▁lipstick	-11.1538
▁liquor	-11.1538
▁louisiana	-11.1538
▁lyndon	-11.1538
▁malfunction	-11.1538
▁mandatory	-11.1538
▁maribel	-11.1538
▁marshmallows	-11.1538
▁marvelous	-11.1538
▁mcallister	-11.1538
▁mccane	-11.1538
▁meanwhile	-11.1538
▁meditation	-11.1538
▁metaphor	-11.1538
▁mickey	-11.1538
▁millenni	-11.1538
▁neutralize	-11.1538
▁patterson	-11.1538
▁pentagon	-11.1538
▁perspective	-11.1538
▁philosoph	-11.1538
▁playground	-11.1538
▁plaza	-11.1538
▁population	-11.1538
▁prairie	-11.1538
▁praise	-11.1538
▁principle	-11.1538
▁promotion	-11.1538
▁publishing	-11.1538
▁puzzle	-11.1538
▁razvan	-11.1538
▁reaiiy	-11.1538
▁regain	-11.1538
▁remarkable	-11.1538
▁response	-11.1538
▁retreat	-11.1538
▁rhino	-11.1538
▁rustling	-11.1538
▁saperstein	-11.1538
▁satisfied	-11.1538
▁scotch	-11.1538
▁sequence	-11.1538
▁shelby	-11.1538
▁sherwood	-11.1538
▁siempre	-11.1538
▁slinky	-11.1538
▁soccer	-11.1538
▁souffle	-11.1538
▁squish	-11.1538
▁stammering	-11.1538
▁stitches	-11.1538
▁stuart	-11.1538
▁stunning	-11.1538
▁tamtam	-11.1538
▁terrell	-11.1538
▁tobias	-11.1538
▁tomatoes	-11.1538
▁torpedo	-11.1538
▁underdog	-11.1538
▁unmask	-11.1538
▁upstate	-11.1538
▁valentina	-11.1538
▁vinegar	-11.1538
▁vodka	-11.1538
▁whiskey	-11.1538
▁windlesham	-11.1538
▁wolves	-11.1538
▁wrench	-11.1538
▁xray	-11.1538
▁yeehaw	-11.1538
▁yujin	-11.1538
▁amaze	-11.1538
▁cadby	-11.1538
▁colson	-11.1538
▁consequences	-11.1538
▁daisies	-11.1538
▁democra	-11.1538
▁fanelli	-11.1538
▁fierce	-11.1538
▁generator	-11.1538
▁gerber	-11.1538
▁jefe	-11.1538
▁lyrics	-11.1538
▁pharmac	-11.1538
▁pledge	-11.1538
▁radius	-11.1538
▁relations	-11.1538
▁repair	-11.1538
▁shakily	-11.1538
▁slick	-11.1538
▁southeast	-11.1538
▁turkey	-11.1538
▁vague	-11.1538
▁verifying	-11.1538
▁almay	-11.1538
▁astern	-11.1538
▁darcy	-11.1538
▁fourteen	-11.1538
▁ganz	-11.1538
▁investigate	-11.1538
▁niece	-11.1538
▁offensive	-11.1538
▁ongoing	-11.1538
▁optim	-11.1538
▁plato	-11.1538
▁pyong	-11.1538
▁rafi	-11.1538
▁shawnzy	-11.1538
▁skiffs	-11.1538
▁coffin	-11.1538
▁ducats	-11.1538
▁gootoh	-11.1538
▁imprison	-11.1538
▁savoy	-11.1538
▁brew	-11.1538
▁importance	-11.1538
▁mitat	-11.1538
▁mookie	-11.1538
▁prevent	-11.1538
▁previous	-11.1538
▁shitzu	-11.1538
grudge	-11.1538
▁allergi	-11.1538
▁canvas	-11.1538
▁countries	-11.1538
▁infrared	-11.1538
▁lifeguard	-11.1538
▁nyet	-11.1538
▁otis	-11.1538
▁redeem	-11.1538
▁torch	-11.1538
▁harmony	-11.1538
entangle	-11.1538
▁friar	-11.1538
▁jelly	-11.1538
▁communism	-11.1538
▁flirt	-11.1538
▁robert	-11.1538
▁terminal	-11.1538
▁fumes	-11.1538
▁insight	-11.1538
▁transmission	-11.1538
berries	-11.1538
▁replica	-11.1538
▁trauma	-11.1538
▁haywood	-11.1538
▁semi	-11.1538
▁chateau	-11.1538
▁espn	-11.1538
▁therapist	-11.1538
wurst	-11.1538
▁scumbag	-11.1538
▁thailand	-11.1538
▁nancy	-11.1538
▁transaction	-11.1538
▁kidnapping	-11.1538
▁pillow	-11.1538
▁ethic	-11.1538
▁fortress	-11.1538
▁munie	-11.1538
▁refrigerator	-11.1538
▁hunchback	-11.1538
▁pepper	-11.1538
rified	-11.1538
▁stanford	-11.1538
▁housing	-11.1538
▁liking	-11.1538
▁absence	-11.1538
▁hatred	-11.1538
▁fiancee	-11.1538
▁numero	-11.1538
▁burden	-11.1538
▁canaries	-11.1538
▁virtu	-11.1538
▁prospect	-11.1538
▁interference	-11.1538
▁chimney	-11.1539
▁bugging	-11.1539
▁rotten	-11.1539
▁thudding	-11.1539
▁ahoy	-11.1539
▁boogie	-11.1539
▁donated	-11.1539
▁sunset	-11.1539
▁debbie	-11.1539
▁lupe	-11.1539
▁parley	-11.1539
▁awoke	-11.1539
▁fringe	-11.1539
▁password	-11.1539
▁beware	-11.1539
▁fiction	-11.1539
▁beetle	-11.1539
▁dictator	-11.1539
▁admiralty	-11.1539
▁resignation	-11.1539
▁gerald	-11.1539
▁addition	-11.1539
▁globetrotters	-11.1539
▁tyrell	-11.1539
▁dizzy	-11.1539
▁organized	-11.1539
▁abig	-11.1539
▁slack	-11.1539
▁casa	-11.1539
▁activity	-11.1539
▁venu	-11.1539
▁mouse	-11.1539
▁thigh	-11.1539
▁untie	-11.1539
▁duties	-11.1539
▁goob	-11.1539
▁gravity	-11.1539
▁yankee	-11.1539
▁syria	-11.1539
▁aspect	-11.1539
▁edward	-11.154
▁imagination	-11.154
▁museum	-11.154
▁rashid	-11.154
▁greenwall	-11.154
▁regardless	-11.154
▁granddad	-11.154
▁lick	-11.154
▁conqueror	-11.154
▁keen	-11.154
▁infection	-11.154
▁helm	-11.154
▁summerfield	-11.154
▁senate	-11.154
▁ivan	-11.1541
▁savage	-11.1541
▁straw	-11.1541
▁tomasz	-11.1541
▁assistance	-11.1541
▁slot	-11.1541
▁contribution	-11.1541
▁poise	-11.1541
▁raven	-11.1541
▁evacuation	-11.1541
▁litter	-11.1541
▁factionless	-11.1541
▁civilian	-11.1542
▁begun	-11.1542
▁chapel	-11.1542
▁jury	-11.1542
▁moonlight	-11.1542
▁barber	-11.1542
▁alfa	-11.1542
▁sniffling	-11.1542
▁mummy	-11.1543
▁encrypted	-11.1543
▁sidewalk	-11.1543
▁iran	-11.1543
▁baking	-11.1543
mamma	-11.1543
▁disco	-11.1543
▁spies	-11.1543
▁buckle	-11.1543
▁allah	-11.1544
▁election	-11.1544
kov	-11.1544
▁firewall	-11.1545
▁matt	-11.1545
▁grandson	-11.1545
▁salary	-11.1545
▁detain	-11.1545
▁collar	-11.1545
▁blah	-11.1545
▁churchill	-11.1546
▁touchdown	-11.1546
▁compromised	-11.1546
▁shipping	-11.1546
▁muse	-11.1546
▁windsor	-11.1547
eau	-11.1547
▁godmother	-11.1547
▁scarf	-11.1547
▁shuttle	-11.1547
▁meaningless	-11.1547
▁indy	-11.1548
▁minor	-11.1548
▁meas	-11.1548
▁athens	-11.1548
▁exile	-11.1549
▁slit	-11.1549
▁shelf	-11.1549
▁rabbit	-11.155
▁ninety	-11.155
▁legit	-11.155
▁franz	-11.155
▁poll	-11.155
▁volt	-11.1551
▁greedy	-11.1551
▁rebuild	-11.1551
▁ahhh	-11.1551
▁rail	-11.1552
▁beings	-11.1552
▁andrea	-11.1552
▁injection	-11.1552
▁priceless	-11.1552
▁punt	-11.1553
▁pause	-11.1553
▁merv	-11.1553
▁nile	-11.1553
ifer	-11.1553
erets	-11.1554
▁transportation	-11.1554
▁allowance	-11.1554
▁dorm	-11.1554
▁zoe	-11.1554
undle	-11.1554
▁keener	-11.1554
▁bedtime	-11.1554
▁holtzy	-11.1555
▁entity	-11.1555
▁freeway	-11.1556
▁disable	-11.1557
▁sap	-11.1557
▁spain	-11.1557
ihu	-11.1557
▁controlled	-11.1557
flies	-11.1557
▁splitting	-11.1558
▁banished	-11.1559
▁wretched	-11.1559
▁smug	-11.1559
▁flown	-11.1559
pai	-11.156
▁specialist	-11.1562
▁entry	-11.1562
▁combined	-11.1562
▁raw	-11.1562
▁cocky	-11.1563
▁madness	-11.1563
▁bandit	-11.1565
▁sour	-11.1565
ania	-11.1565
▁strengthen	-11.1566
zzy	-11.1567
▁blonde	-11.1567
▁peru	-11.1568
▁smasher	-11.1569
▁protective	-11.1569
▁larger	-11.157
▁ashe	-11.1571
▁vain	-11.1571
▁mole	-11.1572
▁dreadful	-11.1573
▁ew	-11.1575
▁stable	-11.1576
▁respectable	-11.1577
aries	-11.1578
▁queer	-11.1579
ulf	-11.1579
▁clanking	-11.1581
▁clay	-11.1582
▁grabb	-11.1583
▁hut	-11.1584
▁flattered	-11.1584
▁announced	-11.1585
▁athlete	-11.1585
▁crashes	-11.1589
▁oak	-11.159
▁darken	-11.1592
▁awaken	-11.1592
▁tray	-11.1594
▁approved	-11.1595
▁menac	-11.1595
▁herd	-11.1596
▁handling	-11.1597
▁disturbing	-11.1599
▁coaster	-11.1599
▁exclaiming	-11.16
▁vanished	-11.1601
▁sm	-11.1601
▁depending	-11.1602
▁jen	-11.1603
▁straighten	-11.1604
▁norw	-11.1605
▁landers	-11.1606
tial	-11.1607
▁faye	-11.1608
▁waxed	-11.161
▁marie	-11.1613
▁hitch	-11.1615
▁applicants	-11.1615
▁enterprises	-11.1615
▁handcuff	-11.1616
▁weed	-11.1617
▁cheaper	-11.1618
▁taller	-11.1618
oom	-11.1619
▁originally	-11.162
▁temper	-11.1625
▁twisted	-11.1627
▁invade	-11.1629
▁wired	-11.163
▁carne	-11.163
▁taha	-11.1632
yeah	-11.1632
▁sincere	-11.1633
▁intended	-11.1636
▁shutting	-11.1636
rina	-11.1636
▁policeman	-11.1642
inde	-11.1642
▁bron	-11.1645
▁eaten	-11.1655
about	-11.1664
▁lawn	-11.1665
▁olympians	-11.1665
▁jonesy	-11.1668
▁tighter	-11.1669
▁clattering	-11.1677
▁hardest	-11.1677
▁musician	-11.1678
▁abandoned	-11.1678
step	-11.1681
boy	-11.1683
▁there	-11.1691
▁criticiz	-11.1703
▁busted	-11.1703
▁tricky	-11.1705
▁honesty	-11.1707
▁helpful	-11.1716
▁operatives	-11.1716
▁clanks	-11.1717
ev	-11.172
▁steering	-11.1721
▁greatness	-11.1721
▁climbing	-11.1722
▁delivering	-11.1722
▁noted	-11.1723
nner	-11.1725
▁practiced	-11.1731
▁nicky	-11.1739
▁dreamt	-11.1741
▁demanding	-11.1742
▁loading	-11.1744
▁claimed	-11.1747
▁cub	-11.1764
gious	-11.1765
▁flares	-11.1767
▁visitors	-11.1768
▁pips	-11.1772
▁narr	-11.1774
iness	-11.1785
▁painter	-11.1786
▁emp	-11.179
▁cue	-11.1795
▁diploma	-11.1796
▁hottie	-11.1798
spel	-11.1806
▁tanker	-11.181
zz	-11.1815
amos	-11.1816
▁instincts	-11.1819
▁profits	-11.1819
▁cents	-11.182
▁sms	-11.1822
▁suggesting	-11.1832
▁punched	-11.1833
▁seize	-11.1834
▁classy	-11.1834
▁toes	-11.185
▁differently	-11.1879
▁harp	-11.1918
▁pressing	-11.1924
bility	-11.1964
▁ironic	-11.1981
can	-11.1984
mortality	-11.199
▁cracking	-11.2
▁this	-11.2001
rack	-11.2003
▁gla	-11.2014
▁tut	-11.2018
▁observe	-11.2026
crib	-11.2028
action	-11.2037
▁oppos	-11.2037
▁tortur	-11.2068
worthy	-11.2088
bble	-11.2105
mine	-11.2127
▁garb	-11.2135
wash	-11.2145
▁shav	-11.2153
▁umm	-11.2173
▁shin	-11.2183
ox	-11.2206
martial	-11.2225
▁committ	-11.2244
ome	-11.226
▁rim	-11.226
▁whit	-11.2267
▁sho	-11.2282
dom	-11.2287
spotter	-11.2312
nna	-11.2397
ini	-11.242
▁limo	-11.2466
▁cri	-11.247
▁cleaner	-11.2471
▁don	-11.2498
▁distribut	-11.25
▁ethe	-11.25
▁loo	-11.2513
cation	-11.2602
misunderstanding	-11.261
oline	-11.2632
▁dispos	-11.2644
▁dia	-11.2668
▁wee	-11.2747
▁nicker	-11.2765
▁shaq	-11.2766
▁tire	-11.2767
fo	-11.2773
but	-11.2785
▁chip	-11.2872
long	-11.2873
▁whin	-11.2874
nine	-11.2888
▁grad	-11.2889
more	-11.2926
▁compet	-11.2929
▁anni	-11.2935
ease	-11.2936
▁ib	-11.2985
▁spic	-11.2988
hold	-11.299
▁sip	-11.3004
▁tin	-11.3005
▁zip	-11.3016
cept	-11.3029
▁zo	-11.3053
atch	-11.3093
this	-11.3109
▁chu	-11.3167
▁skid	-11.3185
▁pip	-11.3191
lace	-11.3243
▁flare	-11.3265
▁rican	-11.3268
uel	-11.3276
▁relic	-11.3284
▁eu	-11.3292
▁visitor	-11.3295
itz	-11.3304
▁chang	-11.3337
▁paine	-11.3347
▁abb	-11.3351
sticks	-11.3362
dia	-11.3389
▁charger	-11.3393
▁embarrass	-11.3433
▁craw	-11.3438
▁ranger	-11.3448
▁hag	-11.3457
▁cloth	-11.3471
night	-11.3476
▁vibrat	-11.3478
▁shudder	-11.348
▁invent	-11.3489
zi	-11.3489
foot	-11.3489
body	-11.3493
▁profession	-11.3494
sexual	-11.3498
know	-11.3499
consider	-11.3499
two	-11.3499
understood	-11.3499
hunt	-11.35
bearing	-11.35
school	-11.35
space	-11.35
buster	-11.3501
power	-11.3501
take	-11.3504
round	-11.3504
lord	-11.3505
six	-11.3505
▁insur	-11.3506
▁imagin	-11.3506
▁swor	-11.3507
▁advertise	-11.3507
▁relate	-11.3508
load	-11.3508
▁consume	-11.3508
▁tune	-11.3509
▁combine	-11.3511
▁bubbl	-11.3511
box	-11.3512
▁confi	-11.3512
fight	-11.3514
ragged	-11.3514
▁throb	-11.3515
▁qua	-11.3515
▁holtz	-11.3518
hour	-11.3521
▁brea	-11.3522
▁julie	-11.3526
retching	-11.3526
▁kidnap	-11.3527
▁familia	-11.3527
▁audi	-11.3527
▁leavin	-11.3528
▁entit	-11.3528
▁potato	-11.3529
▁weep	-11.353
▁charit	-11.353
erial	-11.3531
rich	-11.3533
▁sittin	-11.3533
▁intent	-11.3533
▁interrogat	-11.3534
▁executi	-11.3534
▁evacuat	-11.3534
▁yank	-11.3536
▁griev	-11.3537
▁descend	-11.3537
▁forbid	-11.3537
▁japan	-11.3538
▁douche	-11.3538
▁submit	-11.3538
▁infra	-11.3538
▁unsettl	-11.3538
conscious	-11.3538
▁algorithm	-11.3538
▁alistair	-11.3538
▁analyst	-11.3538
▁anticipate	-11.3538
▁apologies	-11.3538
▁apologis	-11.3538
▁applaud	-11.3538
▁appreciation	-11.3538
▁approximately	-11.3538
▁aristocrat	-11.3538
▁arnold	-11.3538
▁arrogant	-11.3538
▁arrow	-11.3538
▁astronaut	-11.3538
▁attenborough	-11.3538
▁baptized	-11.3538
▁barbossa	-11.3538
▁barnhill	-11.3538
▁bernstein	-11.3538
▁billionaire	-11.3538
▁biscuit	-11.3538
▁blush	-11.3538
▁boggart	-11.3538
▁bronwyn	-11.3538
▁brunette	-11.3538
▁bunny	-11.3538
▁butler	-11.3538
▁cactus	-11.3538
▁cairo	-11.3538
▁candidate	-11.3538
▁caribbean	-11.3538
▁cartwheel	-11.3538
▁celebrit	-11.3538
▁celtics	-11.3538
▁certifi	-11.3538
▁chantlng	-11.3538
▁clumsy	-11.3538
▁comescort	-11.3538
▁compound	-11.3538
▁conflict	-11.3538
▁confusing	-11.3538
▁congratulate	-11.3538
▁constitution	-11.3538
▁curiosity	-11.3538
▁decalogue	-11.3538
▁deceased	-11.3538
▁defect	-11.3538
▁delightful	-11.3538
▁despair	-11.3538
▁discharge	-11.3538
▁disorder	-11.3538
▁drysdale	-11.3538
▁dunkirk	-11.3538
▁duvall	-11.3538
▁earthquake	-11.3538
▁embroider	-11.3538
▁encouraging	-11.3538
▁encyclopedia	-11.3538
▁engaging	-11.3538
▁enthusiasm	-11.3538
▁episode	-11.3538
▁expedition	-11.3538
▁february	-11.3538
▁feminine	-11.3538
▁firecracker	-11.3538
▁forensic	-11.3538
▁fundraiser	-11.3538
▁gahjii	-11.3538
▁gambling	-11.3538
▁garcia	-11.3538
▁georgia	-11.3538
▁glggllng	-11.3538
▁godbrother	-11.3538
▁godforsaken	-11.3538
▁greece	-11.3538
▁haderach	-11.3538
▁headmistress	-11.3538
▁hhhhhey	-11.3538
▁hilarious	-11.3538
▁homicide	-11.3538
▁hormones	-11.3538
▁improvise	-11.3538
▁infamous	-11.3538
▁infiltrat	-11.3538
▁inquiring	-11.3538
▁intimate	-11.3538
▁introducing	-11.3538
▁irrigation	-11.3538
▁jumpsuit	-11.3538
▁kazik	-11.3538
▁kiowa	-11.3538
▁knickerbocker	-11.3538
▁kremlin	-11.3538
▁kwang	-11.3538
▁lavender	-11.3538
▁lebanon	-11.3538
▁loneliness	-11.3538
▁manufactur	-11.3538
▁mccarthy	-11.3538
▁medieva	-11.3538
▁meshell	-11.3538
▁mischief	-11.3538
▁motorcade	-11.3538
▁necessarily	-11.3538
▁nelson	-11.3538
▁october	-11.3538
▁oscillator	-11.3538
▁pakistan	-11.3538
▁parachute	-11.3538
▁patience	-11.3538
▁pemrose	-11.3538
▁penetrate	-11.3538
▁penthouse	-11.3538
▁phenomen	-11.3538
▁physics	-11.3538
▁piracy	-11.3538
▁policies	-11.3538
▁possibility	-11.3538
▁probability	-11.3538
▁profound	-11.3538
▁pronounce	-11.3538
▁puddle	-11.3538
▁raccoon	-11.3538
▁railroad	-11.3538
▁ramirez	-11.3538
▁receipt	-11.3538
▁revelation	-11.3538
▁rodriguez	-11.3538
▁roxanne	-11.3538
▁roxie	-11.3538
▁schmuck	-11.3538
▁schrank	-11.3538
▁seashells	-11.3538
▁seduce	-11.3538
▁seminole	-11.3538
▁seyeong	-11.3538
▁shakespeare	-11.3538
▁shrimp	-11.3538
▁sleeve	-11.3538
▁snatch	-11.3538
▁snoke	-11.3538
▁sorrow	-11.3538
▁spaghetti	-11.3538
▁spilner	-11.3538
▁stoeger	-11.3538
▁surviving	-11.3538
▁syrup	-11.3538
▁tbone	-11.3538
▁tegrisco	-11.3538
▁tequila	-11.3538
▁thruster	-11.3538
▁tractor	-11.3538
▁trellis	-11.3538
▁triangle	-11.3538
▁triumph	-11.3538
▁trumanlodge	-11.3538
▁tshirt	-11.3538
▁twentyfive	-11.3538
▁unleash	-11.3538
▁varsity	-11.3538
▁vegetable	-11.3538
▁vigilante	-11.3538
▁vocalizing	-11.3538
▁wardrobe	-11.3538
▁wavekrest	-11.3538
▁withdraw	-11.3538
▁yield	-11.3538
▁yoruba	-11.3538
▁zulu	-11.3538
taneous	-11.3538
▁accommodat	-11.3538
▁aisle	-11.3538
▁clarity	-11.3538
▁combination	-11.3538
▁concession	-11.3538
▁deputy	-11.3538
▁dignity	-11.3538
▁dionne	-11.3538
▁dripping	-11.3538
▁excavat	-11.3538
▁freight	-11.3538
▁inhabit	-11.3538
▁lazar	-11.3538
▁midget	-11.3538
▁mimic	-11.3538
▁plett	-11.3538
▁radiation	-11.3538
▁reopen	-11.3538
▁reunion	-11.3538
▁scorpion	-11.3538
▁seoul	-11.3538
▁sunrise	-11.3538
▁tardies	-11.3538
▁tepes	-11.3538
▁translation	-11.3538
▁vinyl	-11.3538
▁worries	-11.3538
▁zenith	-11.3538
▁administrat	-11.3538
▁choreograph	-11.3538
▁jiffy	-11.3538
▁lynch	-11.3538
▁maryann	-11.3538
▁mellon	-11.3538
▁nevertheless	-11.3538
▁overrated	-11.3538
▁shortcut	-11.3538
▁sperm	-11.3538
▁stool	-11.3538
▁thread	-11.3538
▁transcend	-11.3538
▁variety	-11.3538
▁vicky	-11.3538
▁acquisition	-11.3538
▁allez	-11.3538
▁camellia	-11.3538
▁curb	-11.3538
▁curve	-11.3538
▁doomed	-11.3538
▁duane	-11.3538
▁frequent	-11.3538
▁safeguard	-11.3538
▁unstable	-11.3538
▁warehouse	-11.3538
▁wilderness	-11.3538
destructive	-11.3538
▁bueno	-11.3538
▁conceal	-11.3538
▁crusade	-11.3538
▁cyber	-11.3538
▁sizzl	-11.3538
▁beverly	-11.3538
▁cinna	-11.3538
▁imperium	-11.3538
▁islam	-11.3538
▁strangled	-11.3538
▁sushi	-11.3538
▁lounge	-11.3538
▁candle	-11.3538
▁afar	-11.3538
▁kilo	-11.3538
▁margar	-11.3538
▁oona	-11.3538
▁wanderer	-11.3538
▁snare	-11.3538
▁threatened	-11.3538
▁blares	-11.3538
▁serum	-11.3538
▁slain	-11.3538
▁stubborn	-11.3538
▁programmed	-11.3538
▁briefcase	-11.3538
▁omar	-11.3538
austr	-11.3538
estimate	-11.3538
▁dynamite	-11.3538
▁maroon	-11.3538
▁overreact	-11.3538
▁prodig	-11.3538
▁examiner	-11.3538
▁debris	-11.3538
▁speculat	-11.3538
azzle	-11.3538
▁confidential	-11.3538
▁negotiator	-11.3538
▁ammoni	-11.3538
▁cdc	-11.3538
▁backyard	-11.3538
▁baroness	-11.3538
▁cocktail	-11.3538
▁whitfield	-11.3538
▁bolt	-11.3538
▁freezing	-11.3538
▁skate	-11.3538
▁comms	-11.3538
▁shred	-11.3538
▁mooing	-11.3538
parallel	-11.3538
▁altogether	-11.3538
▁hisses	-11.3538
▁trading	-11.3538
▁commenc	-11.3538
▁trilling	-11.3538
▁striking	-11.3538
▁wormsign	-11.3538
▁granny	-11.3538
▁chunk	-11.3538
▁launder	-11.3539
quench	-11.3539
▁twentytwo	-11.3539
▁cheek	-11.3539
▁medal	-11.3539
▁ufo	-11.3539
▁lethal	-11.3539
▁grease	-11.3539
▁proposition	-11.3539
▁fragile	-11.3539
▁assembl	-11.3539
▁fascinating	-11.3539
▁autograph	-11.3539
▁rumour	-11.3539
▁greek	-11.3539
▁restraints	-11.3539
muffin	-11.3539
▁barbarian	-11.3539
▁salome	-11.3539
▁lousy	-11.3539
▁ouch	-11.3539
▁belay	-11.3539
▁wrapped	-11.3539
▁fritz	-11.3539
▁slipping	-11.3539
▁exclusive	-11.3539
▁refresh	-11.3539
▁renfield	-11.3539
▁independent	-11.3539
▁stamp	-11.3539
▁alternati	-11.3539
▁civilized	-11.3539
▁dandy	-11.3539
▁horrifying	-11.3539
▁concentration	-11.3539
▁histori	-11.3539
▁dojo	-11.354
quire	-11.354
▁dawson	-11.354
kwis	-11.354
▁seams	-11.354
▁dealership	-11.354
▁scram	-11.354
▁blackheart	-11.354
▁blacksmith	-11.354
▁isolation	-11.354
▁arden	-11.354
▁conta	-11.354
▁organism	-11.354
▁stripper	-11.354
▁masterpiece	-11.354
▁taunt	-11.354
▁piay	-11.354
▁possessive	-11.354
▁regime	-11.3541
▁bonehead	-11.3541
▁forni	-11.3541
▁syne	-11.3541
▁meek	-11.3541
▁antique	-11.3541
▁beau	-11.3541
▁timber	-11.3541
▁fisherman	-11.3541
▁rhythmically	-11.3541
▁patron	-11.3541
▁racket	-11.3541
▁blackpool	-11.3541
▁josephine	-11.3541
▁maz	-11.3541
▁battlefield	-11.3541
▁aspirin	-11.3541
▁quest	-11.3541
▁slavery	-11.3541
▁brothersinlaw	-11.3541
▁goatee	-11.3541
▁massive	-11.3541
▁qualified	-11.3542
▁campfire	-11.3542
▁rotate	-11.3542
▁revolutionary	-11.3542
▁activi	-11.3542
▁interrogation	-11.3542
▁toad	-11.3542
▁flute	-11.3542
▁feast	-11.3542
mmed	-11.3542
▁judi	-11.3543
▁appearance	-11.3543
▁huff	-11.3543
▁eastern	-11.3543
▁colt	-11.3543
▁significant	-11.3543
▁beggar	-11.3543
▁poland	-11.3543
▁adol	-11.3543
▁intro	-11.3543
▁clive	-11.3543
▁snob	-11.3543
▁traveller	-11.3543
▁scooter	-11.3544
▁birdhouse	-11.3544
▁frag	-11.3544
▁hull	-11.3544
▁tiff	-11.3544
▁effective	-11.3545
irut	-11.3545
▁robinson	-11.3545
▁whale	-11.3545
▁jogging	-11.3545
▁gangster	-11.3545
▁shack	-11.3545
▁blackstone	-11.3546
▁incoming	-11.3546
▁golly	-11.3546
▁micro	-11.3546
▁operating	-11.3546
mou	-11.3546
▁claw	-11.3547
▁potatoes	-11.3547
▁chow	-11.3547
▁hex	-11.3547
▁peculiarity	-11.3547
▁household	-11.3547
▁lionel	-11.3547
▁proton	-11.3548
▁kylie	-11.3549
▁popping	-11.3549
▁goddaughter	-11.3549
▁leftfoot	-11.3549
▁pussy	-11.355
▁diving	-11.355
▁pawn	-11.355
▁stir	-11.355
inister	-11.355
▁sunlight	-11.355
▁tele	-11.355
▁collector	-11.355
▁harmless	-11.355
▁minus	-11.355
▁lava	-11.355
▁hedge	-11.3551
▁adre	-11.3551
▁tanner	-11.3551
▁frantic	-11.3552
▁capita	-11.3552
▁hoover	-11.3552
imbel	-11.3552
▁version	-11.3552
▁dozer	-11.3552
▁gator	-11.3552
▁expression	-11.3553
▁baker	-11.3553
▁shaman	-11.3553
▁davidson	-11.3553
egian	-11.3554
▁belongings	-11.3554
▁coloured	-11.3554
▁countryside	-11.3554
▁melody	-11.3554
▁devi	-11.3554
▁adaptation	-11.3555
ache	-11.3555
▁actresses	-11.3555
▁fatty	-11.3556
▁sectional	-11.3557
▁dickie	-11.3558
▁samir	-11.3559
▁highlight	-11.3559
enium	-11.356
▁meds	-11.356
▁sadness	-11.356
▁poem	-11.356
▁spicy	-11.3561
▁declined	-11.3561
▁probable	-11.3561
▁reliable	-11.3561
asket	-11.3562
▁cries	-11.3563
▁constantly	-11.3564
▁retarded	-11.3564
▁yaah	-11.3565
▁buzzes	-11.3565
▁lib	-11.3565
▁wel	-11.3565
▁addie	-11.3566
▁shoplift	-11.3566
▁ciao	-11.3567
▁amit	-11.3567
▁schoolwork	-11.3568
▁runner	-11.3568
▁quad	-11.3568
▁consumed	-11.3568
▁product	-11.3569
rizz	-11.357
▁migration	-11.3571
ucci	-11.3571
▁relatively	-11.3571
▁copies	-11.3572
▁overwhelming	-11.3572
▁erm	-11.3573
▁heel	-11.3573
▁fuse	-11.3574
▁intimidated	-11.3575
▁instructed	-11.3575
▁romeo	-11.3575
▁condemned	-11.3575
▁accomplished	-11.3575
▁stashed	-11.3575
▁ross	-11.3575
▁tighten	-11.3576
▁hearse	-11.3576
▁blackout	-11.3576
stand	-11.3576
▁tech	-11.3577
▁rooster	-11.3577
▁friendship	-11.3578
▁desperately	-11.3578
thian	-11.358
▁stepbrother	-11.3581
▁proposed	-11.3581
▁updated	-11.3582
▁ache	-11.3582
▁related	-11.3582
▁realistic	-11.3583
▁flipped	-11.3585
▁cranking	-11.3586
▁overdose	-11.3586
▁hail	-11.3587
▁strom	-11.359
▁ahem	-11.359
▁lockon	-11.3591
▁strongest	-11.3594
▁witnesses	-11.3595
▁convicted	-11.3596
ggs	-11.3596
▁bowler	-11.3596
atz	-11.3596
▁hotter	-11.3597
▁benz	-11.3598
burger	-11.3598
▁vibrating	-11.3599
▁barker	-11.36
▁eighth	-11.3601
▁victories	-11.3602
▁jc	-11.3605
▁sophie	-11.3606
▁richie	-11.3606
▁purely	-11.361
iously	-11.3613
come	-11.3614
▁cellar	-11.3614
idi	-11.3615
▁operational	-11.3615
▁chor	-11.3615
▁realise	-11.3616
▁freakin	-11.3616
▁possessed	-11.3617
▁sweater	-11.3618
lement	-11.362
▁homeland	-11.362
▁qa	-11.3621
▁bigtime	-11.3622
▁hunger	-11.3622
▁betting	-11.3622
▁reasonable	-11.3622
▁begging	-11.3622
▁teenager	-11.3623
▁butter	-11.3623
wick	-11.3624
▁behav	-11.3625
▁surrounded	-11.3627
▁spraying	-11.3627
▁adopted	-11.3627
▁contained	-11.3628
▁pic	-11.363
▁ante	-11.3631
▁dame	-11.3633
▁bry	-11.3636
▁proven	-11.3638
▁landon	-11.3638
▁sweeton	-11.3639
▁gibber	-11.364
▁weaker	-11.3641
▁roy	-11.3642
▁included	-11.3642
▁ripe	-11.3642
▁nom	-11.3644
▁yer	-11.3644
▁matches	-11.3645
psy	-11.3646
▁shawna	-11.3647
▁strapp	-11.3648
▁pushes	-11.3651
apped	-11.3652
▁dispatcher	-11.3652
▁charming	-11.3654
▁excitedly	-11.3657
▁bein	-11.3657
▁masterman	-11.3659
▁makeover	-11.366
▁weighed	-11.366
▁linger	-11.366
▁forgetting	-11.366
▁yelled	-11.3663
▁crawling	-11.367
▁pumped	-11.367
icion	-11.367
▁burnt	-11.3673
▁cycle	-11.3675
▁tally	-11.3679
▁recruited	-11.368
ebe	-11.3684
▁inning	-11.3684
▁qing	-11.3685
▁cutie	-11.3686
▁prey	-11.3693
▁responding	-11.3696
▁shattered	-11.3701
▁bush	-11.3704
▁traded	-11.371
▁bethy	-11.3714
▁touches	-11.3718
radi	-11.3719
▁overlook	-11.372
▁gathered	-11.3723
▁whipp	-11.3731
▁privately	-11.3732
▁revealed	-11.3734
▁healed	-11.3735
▁detailed	-11.3738
▁planted	-11.3739
▁describ	-11.3748
▁poo	-11.375
▁discussed	-11.3765
▁buyin	-11.3768
yah	-11.3773
▁gaz	-11.3776
▁gage	-11.3788
base	-11.3801
▁hel	-11.381
▁sling	-11.3818
▁kin	-11.3825
▁founders	-11.3826
▁environmental	-11.3842
▁ale	-11.3844
▁stem	-11.3844
▁plu	-11.3856
▁vin	-11.386
▁occup	-11.3872
▁racer	-11.3889
irl	-11.3895
▁pale	-11.3896
pul	-11.391
▁ami	-11.392
▁sham	-11.394
▁traditional	-11.3942
wright	-11.3954
▁hast	-11.3966
▁automatic	-11.4008
▁carlo	-11.4018
▁shad	-11.4028
located	-11.4049
▁incorporate	-11.4052
haki	-11.4054
your	-11.4055
nova	-11.4056
▁preferr	-11.407
vasion	-11.4087
▁flipp	-11.4091
▁mint	-11.41
▁hustle	-11.4124
▁resu	-11.4138
eah	-11.4154
quint	-11.4165
▁iv	-11.417
uk	-11.418
▁cape	-11.4187
from	-11.4198
aval	-11.42
▁waller	-11.4223
ripped	-11.4249
eut	-11.4266
▁gust	-11.4269
▁pun	-11.4279
▁denis	-11.4324
hur	-11.4344
vado	-11.438
▁traveler	-11.4407
▁locat	-11.4414
▁mute	-11.4424
part	-11.444
pitched	-11.4441
eons	-11.4454
▁mull	-11.4505
rms	-11.453
▁dodg	-11.4544
▁bai	-11.4557
▁gal	-11.4568
▁chok	-11.4615
▁jumper	-11.466
▁mem	-11.4664
▁preserv	-11.4667
▁scal	-11.47
fia	-11.4718
ads	-11.4779
ike	-11.4864
▁vip	-11.4865
truck	-11.4892
▁declar	-11.49
▁prop	-11.494
cular	-11.4959
▁teen	-11.4992
vp	-11.5012
▁chal	-11.5022
ador	-11.5064
mart	-11.5122
urpin	-11.5136
dding	-11.5212
faithful	-11.5271
▁supervise	-11.5316
▁sauc	-11.5324
▁explor	-11.535
affe	-11.5351
tical	-11.5442
care	-11.5454
ando	-11.5478
▁vet	-11.5485
▁stri	-11.5525
lock	-11.5527
▁dam	-11.5536
▁lou	-11.554
▁edg	-11.5551
▁inva	-11.5582
lich	-11.5641
ficial	-11.568
mperial	-11.5696
▁clank	-11.5725
person	-11.573
rmal	-11.5754
▁operative	-11.5766
▁ymbryne	-11.5774
▁panther	-11.5775
▁critic	-11.5776
▁slgh	-11.5777
▁supplie	-11.5782
oops	-11.5799
▁pill	-11.5807
▁boot	-11.5807
▁beni	-11.5808
▁mortal	-11.5817
▁gap	-11.5819
meter	-11.5835
▁repl	-11.586
▁nove	-11.5867
▁cycl	-11.5882
liberate	-11.5882
▁leanin	-11.5894
ware	-11.5895
▁tick	-11.5896
inding	-11.5914
▁expos	-11.593
▁trem	-11.5937
▁fold	-11.5949
▁recip	-11.5951
▁sophi	-11.5952
▁vent	-11.5958
▁athlet	-11.5964
▁crank	-11.5977
▁annoy	-11.5978
▁slug	-11.598
▁murmur	-11.5981
▁promis	-11.5982
functional	-11.5984
▁instruct	-11.5986
▁grav	-11.5987
▁accomplish	-11.5988
▁infect	-11.5988
▁condemn	-11.5991
▁intimidat	-11.5991
▁exhaust	-11.5993
▁obsess	-11.5993
▁stash	-11.5995
migration	-11.5996
product	-11.5996
connect	-11.5997
mission	-11.5997
degree	-11.5997
structure	-11.5998
▁gran	-11.5998
stroke	-11.5998
convoy	-11.5999
type	-11.5999
yearold	-11.5999
pipe	-11.5999
horse	-11.5999
broken	-11.6
high	-11.6
stray	-11.6
death	-11.6
killer	-11.6
rocket	-11.6
forward	-11.6
think	-11.6001
national	-11.6001
baii	-11.6003
style	-11.6003
watch	-11.6004
▁cult	-11.6004
interest	-11.6004
▁conclude	-11.6007
job	-11.6008
pool	-11.6008
▁decline	-11.6008
shore	-11.6012
jam	-11.6012
hank	-11.6013
seeing	-11.6013
legal	-11.6016
▁melod	-11.6017
▁greed	-11.6019
▁numb	-11.6019
▁curl	-11.6019
▁defens	-11.602
luc	-11.6021
track	-11.6023
▁ratchet	-11.6025
▁spac	-11.6026
spect	-11.6027
▁prohibi	-11.6028
took	-11.6028
▁communicat	-11.6029
▁colombia	-11.6029
▁mosquito	-11.6029
▁investigati	-11.603
▁kath	-11.6031
▁commi	-11.6031
▁spec	-11.6032
▁writin	-11.6033
▁mornin	-11.6033
▁suz	-11.6033
▁communi	-11.6033
▁reflect	-11.6034
▁contribut	-11.6034
▁conquer	-11.6034
▁sheik	-11.6034
▁counsel	-11.6034
▁influen	-11.6035
▁poppin	-11.6035
perative	-11.6036
▁admiral	-11.6036
▁renew	-11.6036
▁archaeolog	-11.6036
▁chuck	-11.6037
sistent	-11.6037
▁hunch	-11.6037
▁northwest	-11.6037
▁favour	-11.6037
▁confident	-11.6037
frequen	-11.6038
▁prestig	-11.6038
▁scrub	-11.6038
▁amplifi	-11.6038
ometry	-11.6038
ophobic	-11.6038
through	-11.6038
▁adjourn	-11.6038
▁admiration	-11.6038
▁adrianna	-11.6038
▁advertising	-11.6038
▁anxiety	-11.6038
▁apocalypse	-11.6038
▁apologizing	-11.6038
▁archery	-11.6038
▁archive	-11.6038
▁arlene	-11.6038
▁atkinson	-11.6038
▁atmosphere	-11.6038
▁austin	-11.6038
▁australia	-11.6038
▁automobile	-11.6038
▁backflip	-11.6038
▁bambambam	-11.6038
▁bambi	-11.6038
▁benefactor	-11.6038
▁billingsley	-11.6038
▁blindfold	-11.6038
▁bouquet	-11.6038
▁bouvier	-11.6038
▁britten	-11.6038
▁cadillac	-11.6038
▁caliber	-11.6038
▁cartoons	-11.6038
▁cataclysm	-11.6038
▁catastroph	-11.6038
▁caviar	-11.6038
▁centimeter	-11.6038
▁challenging	-11.6038
▁chemical	-11.6038
▁chlrp	-11.6038
▁christopher	-11.6038
▁cleopatra	-11.6038
▁cockroach	-11.6038
▁coiiege	-11.6038
▁collision	-11.6038
▁colosseum	-11.6038
▁columbus	-11.6038
▁commuter	-11.6038
▁compactor	-11.6038
▁condolences	-11.6038
▁craig	-11.6038
▁crayon	-11.6038
▁crotch	-11.6038
▁crucial	-11.6038
▁culprit	-11.6038
▁daeseo	-11.6038
▁dassault	-11.6038
▁decipher	-11.6038
▁demonstration	-11.6038
▁devastated	-11.6038
▁dishonest	-11.6038
▁donkey	-11.6038
▁doughnut	-11.6038
▁dwell	-11.6038
▁ecstasy	-11.6038
▁elbow	-11.6038
▁electromagnet	-11.6038
▁elegant	-11.6038
▁embrace	-11.6038
▁emptiness	-11.6038
▁encourage	-11.6038
▁esteemed	-11.6038
▁exhusband	-11.6038
▁exorcise	-11.6038
▁expansion	-11.6038
▁extinct	-11.6038
▁exwife	-11.6038
▁fascinate	-11.6038
▁feathers	-11.6038
▁figuring	-11.6038
▁flourish	-11.6038
▁forgiving	-11.6038
▁frustration	-11.6038
▁gabbe	-11.6038
▁gambler	-11.6038
▁gcpd	-11.6038
▁genuine	-11.6038
▁gisele	-11.6038
▁greaves	-11.6038
▁halyburton	-11.6038
▁hepburn	-11.6038
▁humbly	-11.6038
▁humility	-11.6038
▁hungarian	-11.6038
▁hydrangea	-11.6038
▁hypocrit	-11.6038
▁ignition	-11.6038
▁impact	-11.6038
▁impossibility	-11.6038
▁incognito	-11.6038
▁increasing	-11.6038
▁indianapolis	-11.6038
▁indulge	-11.6038
▁industry	-11.6038
▁infidel	-11.6038
▁infirmary	-11.6038
▁injury	-11.6038
▁january	-11.6038
▁jeopardy	-11.6038
▁jinshan	-11.6038
▁jukebox	-11.6038
▁junkyard	-11.6038
▁kanjiklub	-11.6038
▁kebbel	-11.6038
▁kentucky	-11.6038
▁ketchup	-11.6038
▁khabarov	-11.6038
▁khrushchev	-11.6038
▁knob	-11.6038
▁krauts	-11.6038
▁lavallee	-11.6038
▁lecture	-11.6038
▁lewis	-11.6038
▁lobster	-11.6038
▁locustwood	-11.6038
▁lucius	-11.6038
▁luxury	-11.6038
▁mascot	-11.6038
▁meadow	-11.6038
▁microwave	-11.6038
▁milligrams	-11.6038
▁ministry	-11.6038
▁misjudged	-11.6038
▁molasses	-11.6038
▁mongolia	-11.6038
▁morrison	-11.6038
▁neglect	-11.6038
▁nitrate	-11.6038
▁obligation	-11.6038
▁obnoxious	-11.6038
▁ohoulihan	-11.6038
▁olympic	-11.6038
▁orlando	-11.6038
▁orleans	-11.6038
▁override	-11.6038
▁pakhan	-11.6038
▁paralyzed	-11.6038
▁parliament	-11.6038
▁participant	-11.6038
▁participat	-11.6038
▁peanut	-11.6038
▁penelope	-11.6038
▁penzance	-11.6038
▁perimeter	-11.6038
▁philadelphia	-11.6038
▁politician	-11.6038
▁portfolio	-11.6038
▁practis	-11.6038
▁priestesses	-11.6038
▁primitive	-11.6038
▁procedure	-11.6038
▁producing	-11.6038
▁prometheus	-11.6038
▁prophecy	-11.6038
▁prosecutor	-11.6038
▁publisher	-11.6038
▁purcell	-11.6038
▁rainbow	-11.6038
▁recipients	-11.6038
▁refuge	-11.6038
▁relentless	-11.6038
▁relevant	-11.6038
▁relief	-11.6038
▁renounce	-11.6038
▁resort	-11.6038
▁revenue	-11.6038
▁rewrite	-11.6038
▁rihanna	-11.6038
▁sausage	-11.6038
▁scavenger	-11.6038
▁scientific	-11.6038
▁scissors	-11.6038
▁seatbelt	-11.6038
▁sentimental	-11.6038
▁shepherd	-11.6038
▁sheridan	-11.6038
▁shroud	-11.6038
▁simpson	-11.6038
▁singapore	-11.6038
▁skotak	-11.6038
▁sloppy	-11.6038
▁sneeze	-11.6038
▁snorts	-11.6038
▁stairway	-11.6038
▁stiletto	-11.6038
▁studies	-11.6038
▁sufficient	-11.6038
▁surprisingly	-11.6038
▁surrealis	-11.6038
▁suspended	-11.6038
▁theatrical	-11.6038
▁thompson	-11.6038
▁topsecret	-11.6038
▁treacher	-11.6038
▁treason	-11.6038
▁treasury	-11.6038
▁trousers	-11.6038
▁unfair	-11.6038
▁unidentified	-11.6038
▁untrained	-11.6038
▁vendetta	-11.6038
▁virgil	-11.6038
▁vortex	-11.6038
▁wednesday	-11.6038
▁welfare	-11.6038
▁wheezing	-11.6038
▁whodunit	-11.6038
▁worthwhile	-11.6038
▁yakuza	-11.6038
▁zeroknot	-11.6038
▁zigzag	-11.6038
anthrop	-11.6038
comprehensi	-11.6038
▁airborne	-11.6038
▁authentic	-11.6038
▁chamberlain	-11.6038
▁chanel	-11.6038
▁conspirators	-11.6038
▁deprav	-11.6038
▁derelict	-11.6038
▁distinct	-11.6038
▁fwah	-11.6038
▁gesture	-11.6038
▁harlem	-11.6038
▁longhorn	-11.6038
▁montana	-11.6038
▁mushrooms	-11.6038
▁obliterat	-11.6038
▁obstructi	-11.6038
▁oppress	-11.6038
▁ouda	-11.6038
▁outstanding	-11.6038
▁penalty	-11.6038
▁pioneer	-11.6038
▁razor	-11.6038
▁reincarnat	-11.6038
▁resembl	-11.6038
▁rooney	-11.6038
▁sensors	-11.6038
▁simulation	-11.6038
▁smuggler	-11.6038
▁thumper	-11.6038
▁unpack	-11.6038
▁veteran	-11.6038
▁voila	-11.6038
▁whelp	-11.6038
inflict	-11.6038
▁blink	-11.6038
▁couid	-11.6038
▁delicate	-11.6038
▁demco	-11.6038
▁flake	-11.6038
▁garaad	-11.6038
▁laceration	-11.6038
▁laptops	-11.6038
▁noose	-11.6038
▁occurred	-11.6038
▁oui	-11.6038
▁payroll	-11.6038
▁province	-11.6038
▁radical	-11.6038
▁sellsword	-11.6038
▁sensible	-11.6038
▁ugli	-11.6038
▁wrinkle	-11.6038
▁horace	-11.6038
galactic	-11.6038
▁blazing	-11.6038
▁chancellor	-11.6038
▁fudge	-11.6038
▁jonson	-11.6038
▁katie	-11.6038
▁ninth	-11.6038
▁promoted	-11.6038
▁steam	-11.6038
▁testicle	-11.6038
▁vandalis	-11.6038
▁winkle	-11.6038
▁claire	-11.6038
▁construct	-11.6038
▁glorious	-11.6038
▁intersect	-11.6038
▁jeffrey	-11.6038
▁shtick	-11.6038
▁soomi	-11.6038
▁whereabouts	-11.6038
▁attain	-11.6038
▁dario	-11.6038
▁manifest	-11.6038
▁tranquil	-11.6038
▁twinkie	-11.6038
▁robbers	-11.6038
▁utter	-11.6038
▁willis	-11.6038
▁advers	-11.6038
▁bhaer	-11.6038
▁forcing	-11.6038
▁radu	-11.6038
▁stirred	-11.6038
▁backpack	-11.6038
▁pervert	-11.6038
▁sentinel	-11.6038
▁modest	-11.6038
▁mildred	-11.6038
▁odor	-11.6038
▁compensat	-11.6038
▁hilary	-11.6038
▁nyu	-11.6038
maintenance	-11.6038
owski	-11.6038
▁axl	-11.6038
▁cardinal	-11.6038
▁identification	-11.6038
▁stump	-11.6038
▁volcan	-11.6038
▁backstage	-11.6038
▁fiona	-11.6038
▁olsen	-11.6038
▁meddl	-11.6038
▁goddess	-11.6038
▁fortyfive	-11.6038
▁investigator	-11.6038
▁programming	-11.6038
▁swiss	-11.6038
siberia	-11.6038
▁unaware	-11.6038
▁misery	-11.6038
▁flopp	-11.6038
▁innovat	-11.6038
▁retrac	-11.6038
pulsion	-11.6038
▁exceed	-11.6038
▁inventory	-11.6038
▁commandeer	-11.6038
▁cartel	-11.6038
▁pug	-11.6038
▁stifl	-11.6038
▁chugging	-11.6038
▁institute	-11.6038
▁cripple	-11.6038
equat	-11.6038
▁picnic	-11.6038
▁comics	-11.6038
▁earpiece	-11.6038
▁consol	-11.6038
▁heiss	-11.6038
▁defy	-11.6038
▁tommysan	-11.6038
onnais	-11.6038
▁relocat	-11.6038
▁plugged	-11.6038
▁unacceptable	-11.6038
▁admission	-11.6038
▁cappuccino	-11.6038
▁warsaw	-11.6038
▁banned	-11.6038
▁forbidden	-11.6038
▁italy	-11.6038
▁jules	-11.6038
▁spear	-11.6038
▁tissue	-11.6038
▁vertical	-11.6039
▁chump	-11.6039
▁copilot	-11.6039
▁sponge	-11.6039
▁headphones	-11.6039
▁psychopath	-11.6039
▁wills	-11.6039
▁poach	-11.6039
▁sponsors	-11.6039
▁fireworks	-11.6039
▁overdue	-11.6039
▁drool	-11.6039
▁casualties	-11.6039
▁puppet	-11.6039
▁lorien	-11.6039
▁jammed	-11.6039
▁teammates	-11.6039
▁shook	-11.6039
▁undertake	-11.6039
▁moans	-11.6039
▁receptionist	-11.6039
▁scramble	-11.6039
▁vomit	-11.6039
▁outpost	-11.6039
▁stability	-11.6039
▁consistent	-11.6039
▁hawkins	-11.6039
▁resent	-11.6039
▁ribs	-11.6039
▁sharkey	-11.6039
▁whirl	-11.6039
▁chinatown	-11.6039
▁diaper	-11.6039
▁genetic	-11.6039
▁indicate	-11.6039
▁initiating	-11.6039
inating	-11.6039
▁mailbox	-11.6039
▁genetically	-11.6039
▁archaeologist	-11.6039
▁referring	-11.6039
▁drummer	-11.6039
▁overload	-11.6039
wield	-11.6039
▁denver	-11.6039
▁famine	-11.6039
▁oscar	-11.6039
▁dunn	-11.6039
▁wiring	-11.6039
▁psychological	-11.6039
▁munch	-11.6039
▁repay	-11.6039
ruffle	-11.6039
▁software	-11.604
▁wrapping	-11.604
▁chute	-11.604
▁furtherm	-11.604
▁gibberish	-11.604
▁garlic	-11.604
▁transit	-11.604
▁aggressive	-11.604
▁sinkhole	-11.604
▁quiver	-11.604
▁canned	-11.604
ault	-11.604
▁display	-11.604
▁flatulen	-11.604
▁liabilit	-11.604
▁outbreak	-11.604
▁hungries	-11.604
thebook	-11.604
▁absent	-11.604
▁identifi	-11.604
▁judy	-11.604
▁ginger	-11.604
▁pooch	-11.604
▁overboard	-11.6041
▁colorado	-11.6041
▁greetings	-11.6041
▁intensi	-11.6041
▁coloni	-11.6041
▁occupation	-11.6041
▁rachette	-11.6041
▁rls	-11.6041
▁filter	-11.6041
▁tension	-11.6041
▁wager	-11.6041
▁mentos	-11.6041
▁discount	-11.6041
▁invo	-11.6041
▁slade	-11.6041
scope	-11.6041
▁appli	-11.6041
▁acc	-11.6041
▁hotshot	-11.6041
▁sheikh	-11.6041
lihood	-11.6041
expanding	-11.6042
▁dunk	-11.6042
▁aboli	-11.6042
▁basis	-11.6042
▁poetry	-11.6042
▁corpus	-11.6042
▁ruthless	-11.6042
▁bluffin	-11.6042
▁legendary	-11.6042
▁reflection	-11.6042
▁avenge	-11.6042
▁flapping	-11.6042
▁festival	-11.6042
dency	-11.6043
▁enclosed	-11.6043
▁timmy	-11.6043
▁arabia	-11.6043
▁providence	-11.6043
▁adjustment	-11.6043
▁tyre	-11.6043
▁linder	-11.6043
▁massage	-11.6043
▁whack	-11.6043
▁paperwork	-11.6043
▁tripping	-11.6043
afore	-11.6043
▁stub	-11.6043
▁marinate	-11.6043
▁argh	-11.6043
burgh	-11.6044
▁establishment	-11.6044
klu	-11.6044
▁poppy	-11.6044
▁complexity	-11.6044
▁legions	-11.6044
▁harem	-11.6044
▁campbell	-11.6044
▁rewind	-11.6044
▁korean	-11.6044
nnon	-11.6044
▁winston	-11.6044
▁selection	-11.6044
▁schu	-11.6045
▁sylvia	-11.6045
▁expelled	-11.6045
▁prejudice	-11.6045
▁sophisticated	-11.6045
▁economic	-11.6045
▁veil	-11.6045
ocho	-11.6045
glen	-11.6045
▁marshall	-11.6045
▁angus	-11.6045
budget	-11.6045
▁crypt	-11.6046
mnh	-11.6046
▁duff	-11.6046
▁rodent	-11.6046
▁fanny	-11.6046
▁guan	-11.6046
▁stow	-11.6046
▁colin	-11.6046
hui	-11.6047
▁behead	-11.6047
▁silo	-11.6047
▁objective	-11.6047
▁casing	-11.6047
▁poking	-11.6047
▁membership	-11.6047
▁eyeball	-11.6047
▁whoops	-11.6048
▁pony	-11.6048
▁prohibida	-11.6048
▁yawn	-11.6048
lstl	-11.6048
▁toid	-11.6048
▁mush	-11.6048
▁salvation	-11.6048
▁bock	-11.6049
flops	-11.6049
▁critical	-11.6049
▁mommab	-11.6049
▁apb	-11.605
▁deduct	-11.605
▁rosa	-11.605
▁orchestrated	-11.605
▁cashier	-11.605
eeny	-11.605
▁heartbreak	-11.605
▁interst	-11.605
▁firewood	-11.6051
▁initiated	-11.6051
▁barley	-11.6051
▁titani	-11.6052
▁lsnt	-11.6053
▁bonus	-11.6053
▁webb	-11.6053
▁dys	-11.6053
▁juliet	-11.6053
▁bash	-11.6054
▁turf	-11.6055
▁cherish	-11.6055
▁valve	-11.6055
▁peck	-11.6057
▁icy	-11.6057
▁guine	-11.6058
▁architecture	-11.6058
▁branches	-11.6058
tom	-11.6058
▁geography	-11.6059
▁dough	-11.6059
▁endangered	-11.6059
▁persecuted	-11.6059
▁bern	-11.6059
▁servers	-11.6059
▁heartbeat	-11.606
▁breakdown	-11.606
▁attraction	-11.606
▁successor	-11.606
▁hound	-11.606
▁potus	-11.6061
▁jamie	-11.6061
▁oriental	-11.6061
▁pela	-11.6062
▁spri	-11.6062
▁econ	-11.6063
▁whl	-11.6063
▁orchestral	-11.6063
▁rudel	-11.6063
▁disk	-11.6063
▁ciass	-11.6065
▁homeboy	-11.6065
hyde	-11.6065
▁informant	-11.6067
▁architectur	-11.6067
▁superman	-11.6068
equin	-11.6068
khr	-11.6068
endar	-11.6068
▁bakery	-11.6068
▁concluded	-11.6069
▁sharpen	-11.6069
▁raci	-11.6069
tech	-11.6069
▁maze	-11.6069
▁publicity	-11.6069
▁willy	-11.607
▁dug	-11.6071
▁perch	-11.6071
▁arri	-11.6071
▁bodi	-11.6072
▁accountable	-11.6072
▁derailed	-11.6073
ummies	-11.6074
▁caf	-11.6074
▁whispered	-11.6074
▁confine	-11.6075
▁stripes	-11.6076
▁presentation	-11.6077
▁silently	-11.6077
▁kiddin	-11.6077
▁advertised	-11.6078
▁stov	-11.6078
▁tuned	-11.6078
▁sickness	-11.6079
guar	-11.608
▁rival	-11.6081
▁losses	-11.6082
▁daum	-11.6083
▁moor	-11.6083
▁gio	-11.6084
▁pageant	-11.6084
▁digit	-11.6085
▁hidell	-11.6085
▁amid	-11.6086
▁fianc	-11.6086
ceived	-11.6087
▁dose	-11.6087
▁dover	-11.6087
▁airline	-11.6088
▁bloodline	-11.6088
jee	-11.6089
▁charter	-11.609
▁admirer	-11.609
▁crackles	-11.6091
▁decoy	-11.6091
▁rabi	-11.6093
▁shhh	-11.6094
▁feder	-11.6096
▁barge	-11.6096
▁restored	-11.6096
logical	-11.6096
ization	-11.6096
▁deeds	-11.6098
▁mash	-11.6098
▁pep	-11.6099
▁violently	-11.6101
▁hallow	-11.6101
owitz	-11.6101
▁chatterlng	-11.6101
▁birdie	-11.6102
▁medicin	-11.6102
▁corp	-11.6102
▁leftover	-11.6106
▁eta	-11.6107
▁auntie	-11.6108
▁reid	-11.611
▁sweetest	-11.611
▁fellowes	-11.6116
▁defendant	-11.6117
away	-11.6117
▁kite	-11.6121
mentation	-11.6124
▁ridin	-11.6125
ronto	-11.6128
bet	-11.6129
▁sample	-11.6132
master	-11.6133
▁fisherm	-11.6136
▁stew	-11.6137
▁pastor	-11.6137
▁unto	-11.6138
▁folder	-11.614
holy	-11.614
enchant	-11.6143
▁hiring	-11.6143
▁trembl	-11.6145
bore	-11.6148
▁hola	-11.6149
▁hein	-11.6149
▁turd	-11.6151
▁pam	-11.6156
▁mono	-11.6163
there	-11.6164
▁reel	-11.6165
▁suggestion	-11.6166
▁modifi	-11.6169
▁vat	-11.6173
▁shal	-11.6175
cam	-11.6179
compli	-11.6185
▁burp	-11.6191
▁yah	-11.6191
▁geograph	-11.6214
lam	-11.6222
▁libera	-11.623
▁assassinate	-11.6239
▁rapp	-11.624
▁employer	-11.6244
fina	-11.6249
▁restrain	-11.6254
▁portion	-11.6261
▁veer	-11.6268
▁vaca	-11.6304
▁bumbl	-11.6315
▁smit	-11.6327
ural	-11.6329
▁fie	-11.6334
pending	-11.6345
most	-11.6355
trust	-11.6372
having	-11.6376
▁derri	-11.6435
▁youthful	-11.6437
▁butterfl	-11.6445
▁cho	-11.6467
sche	-11.6517
mv	-11.6527
limey	-11.6545
erature	-11.6555
▁primar	-11.6571
rpent	-11.6588
▁cork	-11.6596
▁dipp	-11.6606
position	-11.6608
rien	-11.6643
witt	-11.6655
▁exercis	-11.6713
▁tilt	-11.6732
aug	-11.6735
▁lust	-11.6752
ecs	-11.6789
▁worshippe	-11.6792
cold	-11.6821
which	-11.6909
urban	-11.6919
▁judgmental	-11.6941
▁andan	-11.6947
▁tot	-11.7023
oung	-11.7127
fill	-11.7178
ears	-11.7222
post	-11.7231
oki	-11.7232
happy	-11.7248
▁cheerful	-11.7249
▁bui	-11.7311
▁stru	-11.7325
omo	-11.7537
logue	-11.7551
▁schedul	-11.7574
huh	-11.7655
▁psychologi	-11.7705
▁feat	-11.7705
▁quot	-11.772
▁retriev	-11.7778
lifted	-11.7805
oohoo	-11.7839
sandra	-11.7902
▁grove	-11.7989
▁arg	-11.8012
▁bounc	-11.8038
assign	-11.8065
▁estra	-11.8126
allout	-11.819
▁shou	-11.8225
hermos	-11.8292
devil	-11.8305
posters	-11.834
▁disqualifi	-11.8345
▁insta	-11.8453
kit	-11.8456
aba	-11.8511
ooter	-11.8528
▁appr	-11.8575
▁beh	-11.8694
▁prima	-11.8737
tyfive	-11.8811
void	-11.8856
▁substan	-11.8912
acho	-11.8924
rained	-11.893
▁evasi	-11.8938
▁circulati	-11.8946
atron	-11.8965
easing	-11.8967
bular	-11.8977
▁whisper	-11.901
▁integr	-11.9075
▁olympian	-11.9099
hopped	-11.91
▁ancestor	-11.9106
▁trotter	-11.911
▁instruction	-11.9117
▁shark	-11.9121
▁manag	-11.9122
▁knot	-11.9122
ipple	-11.9167
▁gibb	-11.9194
umbling	-11.9217
ooked	-11.9249
hasi	-11.9265
▁strap	-11.9269
writer	-11.9292
▁dread	-11.9296
father	-11.93
▁overdo	-11.9301
▁remov	-11.9309
▁overwhelm	-11.931
daughter	-11.9312
▁clamor	-11.9315
mother	-11.932
▁derail	-11.9323
piece	-11.9324
▁retard	-11.9324
▁wretch	-11.9325
heart	-11.9327
script	-11.9328
▁battl	-11.9328
▁banish	-11.9329
smith	-11.9329
probable	-11.9329
reliable	-11.9329
▁surg	-11.9331
speaker	-11.9331
dollar	-11.9331
slaughter	-11.9331
approve	-11.9331
stream	-11.9332
active	-11.9332
media	-11.9332
american	-11.9332
screen	-11.9333
winning	-11.9333
nails	-11.9333
therapy	-11.9333
finished	-11.9333
million	-11.9333
third	-11.9333
control	-11.9333
course	-11.9333
true	-11.9333
dead	-11.9334
proof	-11.9334
cause	-11.9336
seven	-11.9337
case	-11.9337
▁ratio	-11.9337
baby	-11.9338
▁supp	-11.9338
okay	-11.9339
drive	-11.9341
check	-11.9341
▁rebuil	-11.9342
▁inspire	-11.9343
▁destin	-11.9344
girl	-11.9344
▁rabbi	-11.9345
shot	-11.9346
sick	-11.9348
month	-11.935
▁andre	-11.9351
basa	-11.9351
▁puss	-11.9351
▁felon	-11.9351
due	-11.9353
▁sensitiv	-11.9353
▁louis	-11.9356
▁wail	-11.9357
▁spon	-11.9358
▁helen	-11.9358
▁omni	-11.936
▁brillian	-11.936
sylv	-11.9361
▁korea	-11.9362
▁inhal	-11.9363
▁legac	-11.9364
bug	-11.9365
▁marshal	-11.9365
▁bloomin	-11.9366
▁everythin	-11.9366
▁inspect	-11.9367
▁isolat	-11.9367
▁attenti	-11.9367
volution	-11.9367
▁givin	-11.9368
▁stag	-11.9368
craft	-11.9368
ctica	-11.9368
easonable	-11.9369
▁resign	-11.9369
▁extraordina	-11.937
nject	-11.937
▁reception	-11.937
scription	-11.937
mistak	-11.937
▁premed	-11.9371
▁neighbour	-11.9371
▁magnifi	-11.9371
financi	-11.9371
▁hallucin	-11.9371
▁sync	-11.9371
▁blentle	-11.9371
▁congregati	-11.9371
▁sporadic	-11.9371
ianwifefindercom	-11.9371
nctly	-11.9371
steroids	-11.9371
ttweiler	-11.9371
wrangle	-11.9371
▁abomination	-11.9371
▁absorb	-11.9371
▁advisor	-11.9371
▁aerobic	-11.9371
▁aggravat	-11.9371
▁airstrip	-11.9371
▁alkhoei	-11.9371
▁amalgamated	-11.9371
▁ambitious	-11.9371
▁amendments	-11.9371
▁amorosa	-11.9371
▁analysis	-11.9371
▁analyze	-11.9371
▁anticipation	-11.9371
▁antiquity	-11.9371
▁apollyon	-11.9371
▁artifacts	-11.9371
▁assouan	-11.9371
▁athena	-11.9371
▁attaboy	-11.9371
▁awhile	-11.9371
▁azeem	-11.9371
▁balkan	-11.9371
▁barbecue	-11.9371
▁barricade	-11.9371
▁bassoons	-11.9371
▁battalion	-11.9371
▁belgian	-11.9371
▁believing	-11.9371
▁bexhill	-11.9371
▁binoculars	-11.9371
▁birkenstock	-11.9371
▁blitzkrieg	-11.9371
▁blunt	-11.9371
▁boondocks	-11.9371
▁brochure	-11.9371
▁buccaneer	-11.9371
▁bypass	-11.9371
▁calcutta	-11.9371
▁calligraphy	-11.9371
▁catchphrase	-11.9371
▁category	-11.9371
▁cauliflower	-11.9371
▁cavalry	-11.9371
▁cayenne	-11.9371
▁cellulite	-11.9371
▁ceramic	-11.9371
▁chitchat	-11.9371
▁chlorate	-11.9371
▁cholera	-11.9371
▁chrissakes	-11.9371
▁circum	-11.9371
▁clarinet	-11.9371
▁clutter	-11.9371
▁cocacola	-11.9371
▁collarbone	-11.9371
▁colleague	-11.9371
▁columbia	-11.9371
▁companies	-11.9371
▁compressor	-11.9371
▁confusion	-11.9371
▁conspiring	-11.9371
▁continent	-11.9371
▁contingency	-11.9371
▁contradict	-11.9371
▁convenience	-11.9371
▁convincing	-11.9371
▁corridor	-11.9371
▁covenent	-11.9371
▁crysknife	-11.9371
▁cufflinks	-11.9371
▁decimate	-11.9371
▁deluxe	-11.9371
▁demographic	-11.9371
▁detroit	-11.9371
▁dialect	-11.9371
▁dimension	-11.9371
▁dinosaurs	-11.9371
▁discipline	-11.9371
▁disclose	-11.9371
▁distinguish	-11.9371
▁diversion	-11.9371
▁dookie	-11.9371
▁doughtywylie	-11.9371
▁downhill	-11.9371
▁efficient	-11.9371
▁engrave	-11.9371
▁enlighten	-11.9371
▁epidemic	-11.9371
▁erickson	-11.9371
▁euphemia	-11.9371
▁evaluation	-11.9371
▁evolve	-11.9371
▁exgirlfriend	-11.9371
▁exhibit	-11.9371
▁exocon	-11.9371
▁explicit	-11.9371
▁exploding	-11.9371
▁external	-11.9371
▁extinguishe	-11.9371
▁eyebrow	-11.9371
▁ezekiel	-11.9371
▁fabio	-11.9371
▁fairbanks	-11.9371
▁fairchild	-11.9371
▁famiiy	-11.9371
▁feminist	-11.9371
▁flavor	-11.9371
▁fracture	-11.9371
▁frazier	-11.9371
▁frisbee	-11.9371
▁froeger	-11.9371
▁fundamental	-11.9371
▁furnace	-11.9371
▁fwran	-11.9371
▁gadget	-11.9371
▁gelato	-11.9371
▁gertie	-11.9371
▁ghuri	-11.9371
▁gibson	-11.9371
▁gilbert	-11.9371
▁gingerbread	-11.9371
▁gisborne	-11.9371
▁glitter	-11.9371
▁graphic	-11.9371
▁graverobber	-11.9371
▁grobowski	-11.9371
▁guillotine	-11.9371
▁gulps	-11.9371
▁gumshoe	-11.9371
▁gunpowder	-11.9371
▁hasidic	-11.9371
▁heiress	-11.9371
▁hennessy	-11.9371
▁hunterseeker	-11.9371
▁hydraulic	-11.9371
▁hygiene	-11.9371
▁hypothe	-11.9371
▁hysteria	-11.9371
▁immigrants	-11.9371
▁impropriety	-11.9371
▁inappropriate	-11.9371
▁incompeten	-11.9371
▁inconsiderate	-11.9371
▁inconvenien	-11.9371
▁inspiring	-11.9371
▁intensifies	-11.9371
▁intestine	-11.9371
▁intriguing	-11.9371
▁introduction	-11.9371
▁intuition	-11.9371
▁involving	-11.9371
▁irrelevant	-11.9371
▁irresponsible	-11.9371
▁isabelle	-11.9371
▁itinerary	-11.9371
▁jawlock	-11.9371
▁judging	-11.9371
▁kilimanjaro	-11.9371
▁knoll	-11.9371
▁kurds	-11.9371
▁lacrosse	-11.9371
▁latrine	-11.9371
▁laundromat	-11.9371
▁legislat	-11.9371
▁levitch	-11.9371
▁lifesavers	-11.9371
▁lndistinct	-11.9371
▁lodging	-11.9371
▁lsabella	-11.9371
▁lunatic	-11.9371
▁magistrate	-11.9371
▁magnify	-11.9371
▁malphus	-11.9371
▁marjorie	-11.9371
▁marvellous	-11.9371
▁massacre	-11.9371
▁mellow	-11.9371
▁mephistopheles	-11.9371
▁metaphysical	-11.9371
▁milkshake	-11.9371
▁mordecai	-11.9371
▁motherfucker	-11.9371
▁motivation	-11.9371
▁mysteries	-11.9371
▁nanobots	-11.9371
▁natmenneske	-11.9371
▁naysayer	-11.9371
▁nebraska	-11.9371
▁nichola	-11.9371
▁nickleby	-11.9371
▁norrington	-11.9371
▁nowadays	-11.9371
▁nutshell	-11.9371
▁obituary	-11.9371
▁obscure	-11.9371
▁outclassed	-11.9371
▁outnumber	-11.9371
▁pagoda	-11.9371
▁pavilion	-11.9371
▁perceptive	-11.9371
▁perseverance	-11.9371
▁persuade	-11.9371
▁pharaohs	-11.9371
▁phoenix	-11.9371
▁physician	-11.9371
▁placing	-11.9371
▁plastered	-11.9371
▁platter	-11.9371
▁polymath	-11.9371
▁prank	-11.9371
▁precision	-11.9371
▁privilege	-11.9371
▁proposal	-11.9371
▁psychiatr	-11.9371
▁pudding	-11.9371
▁purchasing	-11.9371
▁rapture	-11.9371
▁reboot	-11.9371
▁reemerg	-11.9371
▁registration	-11.9371
▁remanded	-11.9371
▁residents	-11.9371
▁ricochet	-11.9371
▁riggleman	-11.9371
▁roadblock	-11.9371
▁robberies	-11.9371
▁rochelle	-11.9371
▁rochester	-11.9371
▁rocholl	-11.9371
▁rouge	-11.9371
▁sandstorm	-11.9371
▁sarcasm	-11.9371
▁saxophone	-11.9371
▁seafood	-11.9371
▁seizure	-11.9371
▁shangguan	-11.9371
▁shondra	-11.9371
▁shrlek	-11.9371
▁siblings	-11.9371
▁skank	-11.9371
▁skunk	-11.9371
▁slouch	-11.9371
▁snickering	-11.9371
▁snoring	-11.9371
▁soiree	-11.9371
▁solitary	-11.9371
▁solitude	-11.9371
▁souvenir	-11.9371
▁sovereign	-11.9371
▁spalko	-11.9371
▁sprinkle	-11.9371
▁sprout	-11.9371
▁squids	-11.9371
▁squirrel	-11.9371
▁stairwell	-11.9371
▁steriliz	-11.9371
▁stillsuits	-11.9371
▁stormtrooper	-11.9371
▁subjugat	-11.9371
▁suffocat	-11.9371
▁superstition	-11.9371
▁superstitious	-11.9371
▁surrillo	-11.9371
▁survey	-11.9371
▁swallow	-11.9371
▁sweatshirt	-11.9371
▁sympathize	-11.9371
▁sympathy	-11.9371
▁symphony	-11.9371
▁symptoms	-11.9371
▁syzor	-11.9371
▁temporarily	-11.9371
▁testosterone	-11.9371
▁toothbrush	-11.9371
▁trespass	-11.9371
▁trombone	-11.9371
▁turrets	-11.9371
▁tyrant	-11.9371
▁umbranstone	-11.9371
▁umbrella	-11.9371
▁unattended	-11.9371
▁unbearable	-11.9371
▁undefeat	-11.9371
▁unemployed	-11.9371
▁ungrateful	-11.9371
▁unhook	-11.9371
▁unnatural	-11.9371
▁unpredictable	-11.9371
▁unstoppable	-11.9371
▁unthinkable	-11.9371
▁utiliz	-11.9371
▁vaccinate	-11.9371
▁wheatley	-11.9371
▁wheelchair	-11.9371
▁wuertz	-11.9371
▁wyker	-11.9371
▁yogurt	-11.9371
▁youtube	-11.9371
▁zebra	-11.9371
▁zombie	-11.9371
▁alonso	-11.9371
▁astonish	-11.9371
▁communal	-11.9371
▁fortunate	-11.9371
▁hysterical	-11.9371
▁intermittent	-11.9371
▁intruder	-11.9371
▁maggot	-11.9371
▁permanent	-11.9371
▁perpetu	-11.9371
▁picasso	-11.9371
▁pretties	-11.9371
▁probation	-11.9371
▁propeller	-11.9371
▁ravage	-11.9371
▁rejoin	-11.9371
▁spiral	-11.9371
▁suffice	-11.9371
▁telegraph	-11.9371
▁unofficial	-11.9371
▁wrestl	-11.9371
voodoo	-11.9371
▁abducted	-11.9371
▁aggie	-11.9371
▁barbershop	-11.9371
▁bendix	-11.9371
▁boogity	-11.9371
▁cabbage	-11.9371
▁cascad	-11.9371
▁cinema	-11.9371
▁composer	-11.9371
▁continuously	-11.9371
▁covid	-11.9371
▁dagger	-11.9371
▁deluca	-11.9371
▁dowry	-11.9371
▁dracula	-11.9371
▁dutton	-11.9371
▁escaping	-11.9371
▁figurative	-11.9371
▁filthy	-11.9371
▁flask	-11.9371
▁fodder	-11.9371
▁giza	-11.9371
▁hallucinating	-11.9371
▁handshake	-11.9371
▁juvie	-11.9371
▁kimono	-11.9371
▁lazyeye	-11.9371
▁liverpool	-11.9371
▁livestock	-11.9371
▁malaise	-11.9371
▁maureen	-11.9371
▁maxwell	-11.9371
▁memorized	-11.9371
▁mikan	-11.9371
▁misplaced	-11.9371
▁murph	-11.9371
▁narked	-11.9371
▁parlor	-11.9371
▁plaid	-11.9371
▁polack	-11.9371
▁polka	-11.9371
▁postcard	-11.9371
▁puberty	-11.9371
▁rascal	-11.9371
▁reaves	-11.9371
▁reggie	-11.9371
▁rosemary	-11.9371
▁stockholder	-11.9371
▁stroll	-11.9371
▁swayze	-11.9371
▁theories	-11.9371
▁vicious	-11.9371
doodle	-11.9371
▁afterwards	-11.9371
▁bfab	-11.9371
▁biiiy	-11.9371
▁brenda	-11.9371
▁caesar	-11.9371
▁calais	-11.9371
▁caretaker	-11.9371
▁cuddl	-11.9371
▁flustered	-11.9371
▁hypnotize	-11.9371
▁junie	-11.9371
▁kegel	-11.9371
▁oyster	-11.9371
▁parched	-11.9371
▁plutt	-11.9371
▁possum	-11.9371
▁storage	-11.9371
▁tardiness	-11.9371
narcotic	-11.9371
▁aligned	-11.9371
▁cindy	-11.9371
▁drugstore	-11.9371
▁extradite	-11.9371
▁gracious	-11.9371
▁guild	-11.9371
▁henchm	-11.9371
▁montage	-11.9371
▁motto	-11.9371
▁phew	-11.9371
▁representatives	-11.9371
▁spouse	-11.9371
▁stomp	-11.9371
▁vadim	-11.9371
▁aligning	-11.9371
▁buddhis	-11.9371
▁captive	-11.9371
▁contaminate	-11.9371
▁haircut	-11.9371
▁housekeeper	-11.9371
▁kgb	-11.9371
▁manipulati	-11.9371
▁nudity	-11.9371
▁predator	-11.9371
▁slash	-11.9371
▁sterile	-11.9371
▁superpowers	-11.9371
▁unavoidabl	-11.9371
▁bruises	-11.9371
▁drank	-11.9371
▁fidel	-11.9371
▁harassed	-11.9371
▁hazard	-11.9371
▁purgatory	-11.9371
▁sermon	-11.9371
▁womb	-11.9371
hypoch	-11.9371
▁pastorai	-11.9371
▁plummet	-11.9371
▁reduce	-11.9371
adolescent	-11.9371
mutilat	-11.9371
▁cavern	-11.9371
▁geller	-11.9371
▁gwen	-11.9371
▁juror	-11.9371
▁leverage	-11.9371
▁loeb	-11.9371
▁molded	-11.9371
▁sociolog	-11.9371
▁tackle	-11.9371
stabilize	-11.9371
▁alamo	-11.9371
▁eager	-11.9371
▁notch	-11.9371
▁rendered	-11.9371
▁vessel	-11.9371
▁abyss	-11.9371
▁cadet	-11.9371
▁sedative	-11.9371
▁slither	-11.9371
▁uneven	-11.9371
▁xwing	-11.9371
ghorn	-11.9371
▁buddha	-11.9371
▁canyon	-11.9371
▁settling	-11.9371
ervis	-11.9371
synchron	-11.9371
▁azt	-11.9371
▁cutlery	-11.9371
▁decay	-11.9371
▁drumming	-11.9371
▁particle	-11.9371
▁blister	-11.9371
▁coworker	-11.9371
▁testament	-11.9371
▁twitter	-11.9371
▁frog	-11.9371
▁graveyard	-11.9371
▁nudge	-11.9371
▁segal	-11.9371
igue	-11.9371
pido	-11.9371
▁altar	-11.9371
yyye	-11.9371
▁ancestress	-11.9371
▁bennie	-11.9371
▁hussie	-11.9371
▁impulse	-11.9371
▁reeks	-11.9371
▁stalling	-11.9371
▁twoonone	-11.9371
▁emeralds	-11.9371
▁ernie	-11.9371
▁offended	-11.9371
▁vigil	-11.9371
unhunh	-11.9371
▁lynn	-11.9371
▁coerc	-11.9371
▁despise	-11.9371
▁dissect	-11.9371
▁laura	-11.9371
▁lumps	-11.9371
▁napkin	-11.9371
▁outhouses	-11.9371
▁sensation	-11.9371
▁trifle	-11.9371
▁blurr	-11.9371
agma	-11.9371
▁acre	-11.9371
▁earrings	-11.9371
▁marries	-11.9371
▁calorie	-11.9371
▁fliers	-11.9371
▁mumbles	-11.9371
▁shiver	-11.9371
▁toots	-11.9371
▁tropic	-11.9371
chiroptera	-11.9371
heimer	-11.9371
▁chrys	-11.9371
▁majestic	-11.9371
▁pervers	-11.9371
▁prostitute	-11.9371
▁floss	-11.9371
▁idaho	-11.9371
▁meticulous	-11.9371
▁cawing	-11.9371
▁compels	-11.9371
▁domino	-11.9371
▁crim	-11.9371
▁grasp	-11.9371
▁levi	-11.9371
▁mosque	-11.9371
▁neighbourhood	-11.9371
▁spectr	-11.9371
▁toehold	-11.9371
imony	-11.9371
▁mantoman	-11.9371
▁tweed	-11.9371
▁plunder	-11.9371
▁wicked	-11.9371
▁imitating	-11.9372
▁thirtyseven	-11.9372
▁infern	-11.9372
▁rodrig	-11.9372
▁africanamerican	-11.9372
▁fantasi	-11.9372
▁plow	-11.9372
▁weicome	-11.9372
▁bridgett	-11.9372
▁larry	-11.9372
▁bloodshed	-11.9372
▁measurements	-11.9372
▁babylon	-11.9372
▁domain	-11.9372
▁skateboard	-11.9372
▁spaceships	-11.9372
▁barneys	-11.9372
▁scarred	-11.9372
▁gallons	-11.9372
rrifying	-11.9372
▁terminate	-11.9372
▁wifi	-11.9372
▁barefoot	-11.9372
▁nanny	-11.9372
▁disregard	-11.9372
▁ciose	-11.9372
▁implie	-11.9372
utiny	-11.9372
▁appease	-11.9372
▁overthrow	-11.9372
▁bellyache	-11.9372
▁newcomer	-11.9372
▁banjo	-11.9372
▁shannon	-11.9372
▁artery	-11.9372
▁complement	-11.9372
▁confront	-11.9372
▁composition	-11.9372
▁jolly	-11.9372
▁blouse	-11.9372
▁morgen	-11.9372
▁negotiation	-11.9372
▁pastures	-11.9372
▁northwestern	-11.9372
▁descendants	-11.9372
▁bonfire	-11.9372
dolph	-11.9372
▁navigator	-11.9372
▁apology	-11.9372
▁prescription	-11.9372
▁incarceration	-11.9372
▁boundaries	-11.9372
▁offworld	-11.9372
▁papi	-11.9372
▁psychology	-11.9372
▁academic	-11.9372
▁centerpiece	-11.9372
▁frost	-11.9372
▁helga	-11.9372
▁crescendo	-11.9372
▁thatthat	-11.9372
▁react	-11.9372
▁minibar	-11.9372
assurance	-11.9372
▁beneath	-11.9372
▁provocation	-11.9372
▁irrita	-11.9372
▁cyclone	-11.9372
▁karina	-11.9372
▁org	-11.9372
proxim	-11.9372
jumbo	-11.9372
▁wimp	-11.9373
▁sinned	-11.9373
ouette	-11.9373
▁placenta	-11.9373
▁bulk	-11.9373
▁cartograph	-11.9373
▁matara	-11.9373
▁croak	-11.9373
▁techno	-11.9373
▁vinci	-11.9373
▁senator	-11.9373
▁railway	-11.9373
▁turtle	-11.9373
▁receding	-11.9373
▁abide	-11.9373
orchid	-11.9373
▁tsk	-11.9373
▁migs	-11.9373
▁dislocated	-11.9373
▁rooftop	-11.9373
fathom	-11.9373
▁pollut	-11.9373
▁priestley	-11.9373
▁outcome	-11.9373
▁hamlet	-11.9373
▁gurgles	-11.9373
▁whatwhat	-11.9373
▁swamp	-11.9373
▁clerk	-11.9373
▁uphold	-11.9373
▁passageway	-11.9373
▁denial	-11.9373
▁fading	-11.9374
▁submitted	-11.9374
rebellion	-11.9374
▁beav	-11.9374
▁whatcha	-11.9374
▁dragonflies	-11.9374
▁rivalry	-11.9374
▁hollo	-11.9374
▁pillage	-11.9374
▁pouch	-11.9374
▁headlines	-11.9374
float	-11.9374
▁apiece	-11.9374
▁pompo	-11.9374
▁shenan	-11.9374
▁helsing	-11.9374
▁grievance	-11.9374
▁angelica	-11.9374
▁colonize	-11.9374
▁turdis	-11.9374
▁stumble	-11.9374
▁forehead	-11.9374
▁tryouts	-11.9374
▁nuys	-11.9374
▁senorita	-11.9374
▁pussies	-11.9375
▁accessory	-11.9375
▁thinner	-11.9375
▁wellbeing	-11.9375
▁unrelated	-11.9375
▁divert	-11.9375
▁teii	-11.9375
▁broadway	-11.9375
▁waving	-11.9375
▁birthright	-11.9375
▁earphone	-11.9375
▁anglo	-11.9375
▁accomplishment	-11.9375
▁eligib	-11.9375
▁investigating	-11.9375
▁wildlife	-11.9375
▁fluke	-11.9375
▁inspection	-11.9376
llery	-11.9376
▁lassa	-11.9376
▁dummy	-11.9376
▁thai	-11.9376
▁repent	-11.9376
▁flashback	-11.9376
▁boardwalk	-11.9376
▁distra	-11.9376
▁contrary	-11.9376
▁fiend	-11.9376
▁beemer	-11.9376
▁yummy	-11.9376
▁teapot	-11.9376
▁squash	-11.9376
▁caterer	-11.9376
▁intake	-11.9376
▁depositions	-11.9376
▁tacks	-11.9376
▁slipper	-11.9376
▁ripping	-11.9376
▁embarrassment	-11.9376
▁flawless	-11.9376
▁shaking	-11.9377
▁goggles	-11.9377
▁strait	-11.9377
▁affectionate	-11.9377
▁giri	-11.9377
▁income	-11.9377
▁invaders	-11.9377
▁visa	-11.9377
▁trend	-11.9377
▁clone	-11.9377
▁contest	-11.9377
▁obey	-11.9377
▁ferries	-11.9377
▁gender	-11.9377
▁hunk	-11.9377
▁journalist	-11.9377
▁baggage	-11.9377
▁blooming	-11.9377
▁pillar	-11.9377
▁sewage	-11.9378
▁swipe	-11.9378
▁envi	-11.9378
▁eww	-11.9378
▁babysit	-11.9378
▁clich	-11.9378
▁yip	-11.9378
crumb	-11.9378
▁jocks	-11.9378
tention	-11.9378
▁gents	-11.9378
▁tutu	-11.9378
▁transition	-11.9378
▁scoop	-11.9378
▁input	-11.9378
▁whitewright	-11.9378
▁cache	-11.9378
▁thorns	-11.9379
urag	-11.9379
▁lowlife	-11.9379
▁floorboard	-11.9379
▁faii	-11.9379
▁calculation	-11.9379
▁transformation	-11.9379
▁selv	-11.9379
▁leper	-11.9379
▁thems	-11.9379
▁invention	-11.9379
▁karim	-11.9379
▁retaliation	-11.9379
▁whirs	-11.9379
▁whiz	-11.9379
umbawa	-11.938
▁titty	-11.938
▁potent	-11.938
▁management	-11.938
▁conform	-11.938
▁dodi	-11.938
▁individuality	-11.938
▁susanne	-11.938
▁problematic	-11.9381
▁ferryman	-11.9381
▁ottoman	-11.9381
▁collective	-11.9381
▁oof	-11.9381
▁unsan	-11.9381
▁alvin	-11.9382
▁fester	-11.9382
▁alba	-11.9382
▁philip	-11.9382
▁wits	-11.9382
holic	-11.9382
▁chica	-11.9382
▁tripped	-11.9382
▁disappointment	-11.9382
▁reborn	-11.9382
▁hens	-11.9382
▁chink	-11.9382
▁beak	-11.9382
▁jeopardi	-11.9383
▁rathead	-11.9383
▁popped	-11.9383
▁darr	-11.9383
▁bruv	-11.9384
▁renner	-11.9384
▁incest	-11.9384
▁jasmin	-11.9384
▁heii	-11.9385
▁milan	-11.9385
▁clapping	-11.9385
▁robot	-11.9385
▁clueless	-11.9385
▁tori	-11.9385
▁antonia	-11.9386
turn	-11.9386
▁posture	-11.9386
xious	-11.9386
▁courthouse	-11.9386
▁overtime	-11.9386
ellent	-11.9386
▁usher	-11.9386
▁greatgreat	-11.9386
aux	-11.9386
▁intr	-11.9386
▁shemp	-11.9387
▁alps	-11.9387
▁rho	-11.9387
▁mcke	-11.9387
▁skep	-11.9387
ficiency	-11.9387
▁corruption	-11.9388
▁beac	-11.9388
▁oj	-11.9388
▁voting	-11.9388
sponsor	-11.9389
▁yoda	-11.9389
oulder	-11.9389
▁icu	-11.9389
▁crescen	-11.9389
▁iris	-11.939
▁boone	-11.939
ilio	-11.939
sherman	-11.939
antom	-11.939
▁admitted	-11.939
▁grim	-11.9391
▁rump	-11.9391
▁dios	-11.9391
nappers	-11.9391
▁thong	-11.9392
▁heighten	-11.9393
▁chimp	-11.9393
▁aka	-11.9393
▁dori	-11.9393
▁psychic	-11.9394
▁turbo	-11.9394
colo	-11.9395
▁abc	-11.9396
▁wack	-11.9396
▁trig	-11.9396
▁jose	-11.9397
▁frat	-11.9397
▁evp	-11.9397
▁rita	-11.9398
▁wade	-11.9401
refined	-11.9404
▁fret	-11.9407
▁maur	-11.941
▁ramp	-11.9418
▁funnie	-11.942
▁lizard	-11.9423
▁polo	-11.9425
ancho	-11.9426
risco	-11.9427
shape	-11.9429
▁galleri	-11.9429
▁axe	-11.943
▁maj	-11.9431
▁ioniz	-11.9432
ayas	-11.9437
nstru	-11.9441
ixture	-11.9443
robbing	-11.9446
▁necktie	-11.9452
▁calculate	-11.9452
odium	-11.947
▁hust	-11.9475
mbia	-11.9477
gorge	-11.9483
▁offen	-11.9487
ranged	-11.9516
cheong	-11.9523
oolin	-11.9524
nathan	-11.9531
▁contemplat	-11.9534
▁spi	-11.9561
cuffs	-11.9598
▁homie	-11.9618
▁methodical	-11.963
▁graduat	-11.9631
▁consen	-11.9639
▁heavi	-11.9682
▁bert	-11.9719
skinned	-11.9726
racing	-11.9743
fuel	-11.9766
aurus	-11.9822
ggin	-11.9868
cumbers	-11.993
mock	-11.9931
intentionally	-11.9941
marxist	-11.9941
lagged	-11.9941
▁etc	-11.9996
verge	-12.0032
▁clog	-12.0038
erald	-12.01
tification	-12.0113
▁asia	-12.0137
▁cuca	-12.0182
▁mutual	-12.0196
pinning	-12.0218
▁opportunit	-12.0257
▁rile	-12.0304
tobe	-12.0336
audl	-12.0347
▁vol	-12.0467
natas	-12.0489
neapoli	-12.0573
▁purit	-12.0582
▁kitte	-12.0613
ibin	-12.0722
appy	-12.079
kidding	-12.0944
maryland	-12.1036
▁justi	-12.1071
▁indic	-12.1125
tapped	-12.12
▁shrin	-12.1228
tribute	-12.1252
mmons	-12.1367
conventional	-12.1412
tribution	-12.1525
anche	-12.1529
▁experienc	-12.1581
▁enro	-12.1636
why	-12.2365
▁concentrat	-12.2479
rsten	-12.2587
politan	-12.2669
nose	-12.2722
ustlers	-12.2853
▁opportun	-12.3043
▁socializ	-12.3147
▁notifi	-12.3264
muc	-12.3472
neath	-12.3493
stocking	-12.3496
▁capitalist	-12.3524
dressed	-12.3561
▁circl	-12.3643
▁quittin	-12.3787
avier	-12.3877
cooler	-12.3959
mbolism	-12.3972
oggie	-12.3978
▁cz	-12.4009
▁epi	-12.4053
▁modif	-12.409
▁applicant	-12.4101
▁enterprise	-12.4101
▁fingerprint	-12.4107
▁trumpet	-12.4111
▁resource	-12.4113
▁knick	-12.4114
template	-12.4117
owners	-12.4187
generat	-12.4201
equired	-12.4234
▁calcul	-12.4243
hamp	-12.4252
▁concei	-12.4255
▁architect	-12.426
▁announc	-12.4285
▁presid	-12.4286
▁reap	-12.4295
friend	-12.4313
▁snarl	-12.4313
▁negotia	-12.4313
▁disgust	-12.4315
▁accord	-12.4315
▁reject	-12.4319
where	-12.4321
▁persecut	-12.4323
▁endanger	-12.4323
related	-12.4324
▁colour	-12.4324
cycle	-12.4325
word	-12.4326
crap	-12.4328
promis	-12.4328
digit	-12.4329
dozer	-12.433
regard	-12.433
issue	-12.433
shelf	-12.433
temper	-12.433
wired	-12.4331
develop	-12.4331
chew	-12.4331
hhhey	-12.4331
pilot	-12.4331
dreaming	-12.4332
confidence	-12.4332
pleasant	-12.4332
paste	-12.4332
protected	-12.4332
brief	-12.4332
together	-12.4332
folk	-12.4332
birth	-12.4332
