<unk>	0
<s>	0
</s>	0
s	-3.92695
▁know	-4.47596
▁dont	-4.48127
▁im	-4.49569
▁get	-4.70714
▁got	-4.75852
▁right	-4.78567
▁like	-4.88232
▁yeah	-4.89967
▁go	-4.91922
▁youre	-4.97449
▁come	-5.04057
▁na	-5.06118
▁thats	-5.10955
▁one	-5.17867
▁well	-5.21478
▁oh	-5.23841
▁want	-5.27119
▁fucking	-5.27339
▁man	-5.28073
▁gon	-5.32595
▁good	-5.33915
▁see	-5.4044
▁okay	-5.42734
▁fuck	-5.44756
▁think	-5.47274
▁	-5.50436
▁hes	-5.51584
ing	-5.51844
▁back	-5.56847
▁look	-5.58539
▁hey	-5.62583
▁take	-5.65124
▁l	-5.65976
▁time	-5.70591
▁ill	-5.73932
▁tell	-5.74498
▁going	-5.75757
▁us	-5.79021
▁yes	-5.81149
▁say	-5.82181
ed	-5.83681
▁shit	-5.85293
▁cant	-5.91139
▁could	-5.92028
▁need	-5.92052
▁didnt	-5.94963
▁would	-5.96877
▁way	-5.99462
▁make	-5.99685
▁give	-6.0041
▁mean	-6.01242
▁something	-6.02078
▁little	-6.04101
▁never	-6.05317
▁whats	-6.05616
▁let	-6.06813
▁really	-6.10185
▁two	-6.14472
▁lets	-6.14996
▁sir	-6.17052
▁theres	-6.17762
▁please	-6.19335
▁said	-6.20192
▁people	-6.21068
d	-6.22393
▁money	-6.2352
▁ive	-6.24571
▁sorry	-6.25341
▁thank	-6.26564
▁mr	-6.30445
▁thing	-6.31353
▁guy	-6.34969
▁put	-6.35986
▁love	-6.367
▁god	-6.37378
▁call	-6.37494
▁uh	-6.39639
▁much	-6.42465
▁help	-6.42834
▁sure	-6.42892
▁anything	-6.43837
▁nothing	-6.44394
▁even	-6.44659
o	-6.45895
▁name	-6.46137
▁life	-6.46634
▁theyre	-6.47357
y	-6.48733
▁day	-6.49242
▁talk	-6.49343
▁car	-6.5123
e	-6.53918
▁guys	-6.5434
▁stop	-6.55219
▁ta	-6.57289
▁keep	-6.58944
▁find	-6.61225
▁big	-6.61479
▁wan	-6.61891
▁night	-6.62126
▁around	-6.62308
▁away	-6.63147
▁work	-6.63477
▁first	-6.63812
▁wait	-6.64791
▁still	-6.64828
▁maybe	-6.67076
▁home	-6.67878
▁shes	-6.68864
▁old	-6.69263
▁better	-6.69725
▁new	-6.70334
▁listen	-6.70466
▁years	-6.70582
▁ever	-6.71951
▁last	-6.73259
ly	-6.73359
▁hell	-6.74525
▁kill	-6.75071
▁always	-6.76577
▁long	-6.76667
▁told	-6.77154
▁things	-6.77287
▁aint	-6.77347
▁great	-6.785
▁hear	-6.78936
▁house	-6.79411
▁three	-6.79992
▁dead	-6.80164
▁understand	-6.80473
▁thought	-6.80851
▁baby	-6.80887
er	-6.81071
▁lot	-6.82132
▁everything	-6.82235
▁place	-6.82876
▁move	-6.83495
▁bad	-6.83531
▁boy	-6.83871
▁id	-6.83944
▁every	-6.85548
▁wont	-6.85601
▁done	-6.87943
▁fuckin	-6.88643
▁son	-6.88995
▁leave	-6.89103
a	-6.89495
▁door	-6.89973
▁nice	-6.90054
▁real	-6.91088
▁made	-6.91914
▁youve	-6.92781
▁father	-6.94999
▁youll	-6.95524
▁job	-6.96672
▁believe	-6.96758
▁doesnt	-6.97392
▁stay	-6.97672
▁talking	-6.97807
▁ask	-6.98363
▁left	-6.99062
▁feel	-7.00318
▁huh	-7.0051
▁ok	-7.00991
▁kind	-7.01364
▁girl	-7.01546
▁business	-7.03632
▁wrong	-7.04739
▁coming	-7.04772
▁happened	-7.04858
▁fine	-7.05254
▁friend	-7.05255
▁wanted	-7.05704
▁hi	-7.07008
▁came	-7.07638
▁enough	-7.08626
▁else	-7.08628
▁looking	-7.08848
▁remember	-7.0939
▁hello	-7.09644
▁mother	-7.11565
▁family	-7.1217
▁show	-7.12263
▁care	-7.12744
▁getting	-7.12823
▁gun	-7.13283
▁next	-7.13776
▁hold	-7.1422
▁wife	-7.14692
▁head	-7.14839
▁world	-7.14897
▁run	-7.14974
▁course	-7.15179
▁men	-7.15205
▁kid	-7.15677
▁wasnt	-7.16026
▁today	-7.16031
▁ass	-7.16585
▁phone	-7.17887
r	-7.18027
▁knew	-7.18913
▁open	-7.20146
▁trying	-7.20163
▁shut	-7.20381
i	-7.20551
in	-7.2067
▁morning	-7.20686
▁mind	-7.21336
▁found	-7.21557
▁em	-7.21652
▁best	-7.21896
▁heard	-7.22494
▁must	-7.23338
▁thanks	-7.23535
▁woman	-7.23714
▁might	-7.2402
▁killed	-7.25739
▁another	-7.262
▁watch	-7.26628
▁went	-7.26833
▁took	-7.27468
▁jesus	-7.27793
▁seen	-7.27803
▁may	-7.28594
▁try	-7.28932
▁isnt	-7.294
▁hard	-7.29601
▁cause	-7.29855
▁wouldnt	-7.3042
▁saw	-7.31707
▁meet	-7.31968
▁problem	-7.32468
▁deal	-7.33272
▁whos	-7.33274
▁bring	-7.33457
▁ready	-7.34161
▁sit	-7.34198
▁hand	-7.34351
▁someone	-7.34899
▁shot	-7.35243
▁room	-7.35276
▁brother	-7.35594
▁tony	-7.36131
▁goddamn	-7.36175
▁bitch	-7.3643
▁police	-7.36798
▁tonight	-7.3788
▁n	-7.37887
▁five	-7.37895
▁saying	-7.38009
▁nobody	-7.38095
▁whole	-7.38948
▁um	-7.40294
▁playing	-7.40399
▁days	-7.40794
▁many	-7.40874
▁four	-7.41856
▁start	-7.42255
▁says	-7.424
▁pay	-7.42509
▁hit	-7.42722
▁everybody	-7.4291
▁turn	-7.42959
▁happy	-7.42965
▁bit	-7.43189
▁jimmy	-7.43336
▁called	-7.43437
▁case	-7.43522
▁face	-7.44477
▁used	-7.4465
▁dad	-7.44926
▁hands	-7.4515
▁die	-7.46181
▁cut	-7.46709
▁play	-7.47417
▁matter	-7.48781
▁music	-7.49096
▁alright	-7.49504
▁without	-7.49506
t	-7.49695
▁idea	-7.50144
▁lm	-7.5019
▁weve	-7.50304
▁together	-7.50703
▁end	-7.51357
es	-7.51505
▁pretty	-7.51511
▁gone	-7.51717
▁live	-7.51785
▁alone	-7.51923
▁point	-7.52476
▁whoa	-7.52747
▁set	-7.53485
▁henry	-7.53541
▁friends	-7.53766
ll	-7.54105
▁use	-7.54319
▁frank	-7.54489
▁anyone	-7.54811
▁crazy	-7.54813
▁youd	-7.54838
▁damn	-7.55777
▁somebody	-7.57156
▁six	-7.57353
▁guess	-7.57368
▁kids	-7.57452
▁beautiful	-7.57657
▁excuse	-7.58222
▁gave	-7.58225
▁couldnt	-7.58277
▁minutes	-7.58323
▁worry	-7.58671
▁stuff	-7.59223
▁dog	-7.59371
l	-7.5948
▁wheres	-7.5996
▁line	-7.60048
n	-7.60413
▁ago	-7.60853
▁already	-7.6086
▁easy	-7.61306
▁danny	-7.61307
▁minute	-7.62562
▁shoot	-7.6304
▁forget	-7.63099
▁yet	-7.63573
▁un	-7.63695
▁motherfucker	-7.63947
▁ah	-7.64342
▁second	-7.64881
▁havent	-7.64951
▁check	-7.65125
▁drive	-7.65278
▁boss	-7.65337
▁anybody	-7.65416
al	-7.65936
▁eyes	-7.66211
▁drink	-7.66302
▁supposed	-7.66884
▁wants	-7.67182
▁john	-7.67289
▁inside	-7.673
▁pick	-7.67468
▁number	-7.6777
m	-7.68968
▁hope	-7.69
▁half	-7.69689
▁million	-7.69987
▁soon	-7.70085
▁tomorrow	-7.70191
▁clean	-7.70835
▁captain	-7.71173
▁de	-7.71247
▁walk	-7.71485
▁goes	-7.71623
▁probably	-7.71668
▁thinking	-7.72468
ve	-7.72573
▁lost	-7.72675
▁rest	-7.7278
▁since	-7.73503
▁week	-7.73781
▁year	-7.73803
▁black	-7.73826
▁working	-7.73877
▁read	-7.7409
▁close	-7.74445
▁christ	-7.74714
▁later	-7.74804
▁fire	-7.75152
▁exactly	-7.75217
▁sighs	-7.75745
▁free	-7.75803
▁laughing	-7.75862
▁anyway	-7.76238
▁fight	-7.76344
▁boys	-7.77953
▁street	-7.78538
▁mom	-7.78542
▁chuckles	-7.78959
▁whatever	-7.79404
▁lord	-7.79944
▁buy	-7.79997
▁word	-7.8019
▁actually	-7.80489
▁bill	-7.80556
▁game	-7.80793
▁funny	-7.81027
▁la	-7.81376
▁blood	-7.81419
▁answer	-7.81533
▁far	-7.81585
▁sleep	-7.81714
▁part	-7.82102
▁que	-7.82306
▁red	-7.82365
▁trust	-7.82385
▁couple	-7.82392
▁times	-7.82537
▁front	-7.82674
▁piece	-7.8299
▁cool	-7.83347
▁young	-7.83652
▁behind	-7.8435
▁school	-7.84685
▁dude	-7.84917
▁white	-7.84926
▁stand	-7.84966
▁hate	-7.85417
▁truth	-7.85482
▁miss	-7.85951
▁clear	-7.85996
▁story	-7.86058
▁change	-7.86244
▁chance	-7.86419
▁continues	-7.86446
▁heart	-7.86528
▁death	-7.86632
▁taking	-7.86649
▁pull	-7.86884
▁outside	-7.87209
▁jack	-7.88077
▁ahead	-7.88379
▁making	-7.88386
▁city	-7.88396
▁looks	-7.88963
▁tommy	-7.88964
▁though	-7.88975
▁question	-7.89277
▁ten	-7.89371
▁hurt	-7.89584
▁war	-7.89746
▁grunts	-7.90226
▁side	-7.90715
▁bullshit	-7.90748
▁cop	-7.91196
p	-7.91213
▁speak	-7.91296
▁stupid	-7.9132
▁body	-7.91362
▁mine	-7.91518
▁months	-7.91747
▁jordan	-7.91956
▁e	-7.92286
▁water	-7.92466
▁grunting	-7.93196
ie	-7.93314
▁girls	-7.93657
▁ya	-7.93733
▁happen	-7.94295
▁also	-7.94419
▁town	-7.94432
est	-7.94453
▁makes	-7.9463
▁eat	-7.95809
▁asked	-7.9581
▁touch	-7.96163
▁daughter	-7.96284
▁fucked	-7.96702
▁high	-7.96824
▁wish	-7.98168
▁sometimes	-7.99293
▁telling	-7.99404
▁anymore	-7.99531
▁afraid	-7.99531
u	-7.99927
▁office	-8.00102
▁doctor	-8.00236
▁trouble	-8.0024
▁alive	-8.00859
▁country	-8.00859
▁light	-8.01514
▁true	-8.01523
▁everyone	-8.01624
▁least	-8.02205
▁person	-8.02225
▁hours	-8.02497
▁c	-8.02716
▁started	-8.02721
▁means	-8.0286
▁nigger	-8.02975
g	-8.04501
▁late	-8.04722
▁tv	-8.04924
▁break	-8.05081
▁met	-8.05422
▁michael	-8.05614
▁welcome	-8.05614
▁screaming	-8.05664
▁tom	-8.06259
▁sick	-8.06334
▁tried	-8.06338
▁cops	-8.07143
▁send	-8.07502
▁eye	-8.07978
▁dr	-8.08051
▁nick	-8.08138
▁grand	-8.08292
▁gentlemen	-8.08441
▁moment	-8.08667
▁full	-8.0901
ers	-8.09091
ic	-8.09123
▁top	-8.10077
▁groans	-8.1068
▁nicky	-8.11007
▁order	-8.11345
▁hows	-8.11351
▁cash	-8.11353
▁party	-8.11555
▁either	-8.12091
▁heres	-8.123
▁almost	-8.12837
▁blue	-8.12838
▁beat	-8.13159
▁lts	-8.13207
▁bank	-8.13469
▁fun	-8.13557
▁they	-8.14114
▁calm	-8.14351
▁bet	-8.14692
▁serious	-8.14991
▁hmm	-8.15071
▁shall	-8.15108
c	-8.15134
▁hed	-8.15393
▁died	-8.15597
▁comes	-8.15881
▁re	-8.16168
▁arent	-8.16656
▁company	-8.16662
▁husband	-8.17032
▁truck	-8.17056
▁hour	-8.17085
▁asking	-8.17187
▁different	-8.1731
▁bed	-8.17372
▁honey	-8.17439
on	-8.17475
▁waiting	-8.17716
▁reason	-8.17835
▁step	-8.18126
▁worth	-8.18224
▁club	-8.18639
▁se	-8.18841
▁karen	-8.19017
▁radio	-8.19022
▁table	-8.19066
▁officer	-8.1958
▁mrs	-8.19593
b	-8.19655
▁important	-8.19691
▁lose	-8.20594
▁promise	-8.20872
▁sell	-8.21085
▁taken	-8.21272
▁swear	-8.21437
▁questions	-8.21634
▁win	-8.22239
▁happens	-8.22325
en	-8.23032
▁along	-8.2308
▁scared	-8.23166
▁throw	-8.23454
▁fast	-8.23615
▁sign	-8.23915
▁brought	-8.23916
▁itll	-8.23922
▁daddy	-8.23924
▁quite	-8.24013
▁prison	-8.24313
▁th	-8.24322
ies	-8.24452
▁knows	-8.24473
▁stan	-8.247
▁straight	-8.24726
▁english	-8.24758
▁living	-8.24773
▁sent	-8.24781
▁save	-8.2541
▁fact	-8.25607
▁v	-8.25797
▁team	-8.26193
▁voice	-8.26207
▁french	-8.26298
▁private	-8.26459
▁drop	-8.27077
▁wow	-8.27322
▁running	-8.27333
▁married	-8.27333
▁laughs	-8.27592
ar	-8.27718
▁a	-8.27758
▁children	-8.27948
▁sound	-8.2803
▁lll	-8.2805
▁poor	-8.28201
▁watching	-8.28427
▁h	-8.28582
▁safe	-8.28823
▁howard	-8.29067
▁stem	-8.29074
▁plan	-8.29586
▁known	-8.29588
▁news	-8.29596
▁hot	-8.29878
▁dick	-8.29933
▁book	-8.30039
▁hair	-8.30705
▁asshole	-8.30711
▁sense	-8.30832
▁york	-8.30846
▁buddy	-8.30848
▁follow	-8.31044
▁blow	-8.31151
le	-8.31723
▁coffee	-8.31746
▁mitch	-8.31746
▁till	-8.31765
▁iike	-8.31771
▁wake	-8.3182
▁state	-8.31857
▁special	-8.32422
▁groaning	-8.32677
▁bastard	-8.33493
▁ace	-8.33622
▁crime	-8.3388
us	-8.34113
▁boat	-8.34435
▁food	-8.34508
▁roll	-8.34971
▁worked	-8.35178
▁panting	-8.35465
▁none	-8.35515
▁past	-8.35542
▁hang	-8.35809
▁paul	-8.36227
▁choice	-8.36263
▁hurry	-8.36376
▁mouth	-8.36407
▁lucky	-8.36509
▁fat	-8.36579
▁aii	-8.36658
or	-8.36999
▁pain	-8.37127
▁j	-8.37269
▁sort	-8.37295
▁power	-8.37299
▁bar	-8.37331
▁holy	-8.37376
▁rock	-8.38106
▁stick	-8.38108
▁quiet	-8.3817
▁corleone	-8.3829
▁sister	-8.38293
▁kidding	-8.38293
▁women	-8.38301
▁ball	-8.38403
▁seems	-8.38704
man	-8.38758
▁green	-8.39101
▁catch	-8.39296
▁smart	-8.40116
▁floor	-8.40218
▁eight	-8.40243
▁bag	-8.40402
▁feeling	-8.40897
▁respect	-8.40905
▁somewhere	-8.41231
▁child	-8.41269
▁calling	-8.41325
▁speaking	-8.41895
▁gold	-8.4218
▁sitting	-8.42275
▁picture	-8.42308
▁control	-8.42318
▁building	-8.4242
▁meeting	-8.42439
▁ringing	-8.42519
▁relax	-8.42928
▁cam	-8.42934
▁yo	-8.43054
▁bye	-8.43242
▁outta	-8.43246
▁lady	-8.43269
▁machine	-8.43325
▁lie	-8.43899
▁fair	-8.44077
▁detective	-8.44263
▁air	-8.44547
▁handle	-8.44549
▁rat	-8.45089
▁count	-8.45245
▁thousand	-8.45299
▁james	-8.45305
▁tires	-8.45365
▁hundred	-8.45414
▁lawyer	-8.45423
▁mary	-8.45462
▁ride	-8.45586
▁lives	-8.46037
▁dinner	-8.46335
▁driving	-8.46337
▁slow	-8.46725
▁charlie	-8.47395
▁cold	-8.47409
▁engine	-8.4801
▁grey	-8.48452
▁pleasure	-8.48454
▁learn	-8.48808
▁sweet	-8.49316
▁hotel	-8.49734
▁road	-8.49846
ion	-8.5015
▁luck	-8.50527
▁max	-8.50578
▁balls	-8.50602
▁maam	-8.50618
▁seven	-8.51571
▁shouldnt	-8.51712
▁leaving	-8.51714
▁dave	-8.51755
▁tape	-8.51778
▁murder	-8.52198
▁weeks	-8.52579
▁needs	-8.52604
▁appreciate	-8.52604
▁guns	-8.52716
▁figure	-8.52869
▁b	-8.53024
▁mad	-8.53928
▁busy	-8.54029
▁eu	-8.54483
▁brothers	-8.54555
▁loved	-8.54555
▁dollars	-8.54715
▁pop	-8.54856
▁across	-8.55083
▁jail	-8.55091
▁doc	-8.55127
▁wall	-8.55273
▁lf	-8.55373
▁da	-8.55477
k	-8.55804
▁master	-8.56023
▁near	-8.56068
▁perfect	-8.56088
▁theyve	-8.563
▁killing	-8.56378
▁bullet	-8.56622
▁month	-8.56635
▁dance	-8.57144
▁small	-8.57282
▁paid	-8.57462
▁dear	-8.57469
▁charge	-8.57604
▁smell	-8.57606
▁s	-8.57661
▁become	-8.57793
▁pass	-8.57866
▁less	-8.58002
▁knock	-8.58185
▁finish	-8.58212
▁glad	-8.58436
▁looked	-8.58491
▁maurizio	-8.58572
▁patrick	-8.58572
▁dark	-8.58573
▁moving	-8.58575
▁act	-8.59377
h	-8.59662
▁mama	-8.59683
▁ben	-8.59739
▁sam	-8.59779
▁given	-8.59941
▁i	-8.59999
▁law	-8.60197
▁window	-8.60229
▁enjoy	-8.60233
▁spend	-8.60553
▁missing	-8.60612
ous	-8.60941
▁david	-8.60967
▁situation	-8.60967
▁giving	-8.6097
▁ladies	-8.60974
▁crowd	-8.60978
▁born	-8.6101
▁favor	-8.61405
▁names	-8.61479
▁song	-8.61611
▁race	-8.61965
▁p	-8.6208
▁talked	-8.62182
▁able	-8.62576
▁keys	-8.62667
▁agent	-8.62673
▁rid	-8.62794
▁card	-8.63162
▁train	-8.63207
st	-8.63214
▁except	-8.63396
▁anywhere	-8.63421
▁felt	-8.63421
▁vincent	-8.63423
▁information	-8.63423
▁feet	-8.63436
▁gets	-8.63456
▁cell	-8.63703
▁owe	-8.63784
▁box	-8.63814
▁ha	-8.64178
▁return	-8.64372
▁quit	-8.6452
▁dangerous	-8.64681
▁shop	-8.64969
▁beer	-8.65253
▁offer	-8.65258
▁joe	-8.65726
▁strong	-8.65824
▁accident	-8.65937
▁chief	-8.65937
▁human	-8.65946
▁rich	-8.65966
▁horse	-8.66065
▁kiss	-8.66429
▁sake	-8.66494
▁miles	-8.66528
▁meant	-8.66712
▁seat	-8.66816
▁hospital	-8.67205
▁birthday	-8.6722
▁apartment	-8.67224
▁list	-8.67264
▁hide	-8.67549
▁ones	-8.6759
▁joke	-8.67749
▁key	-8.67963
▁est	-8.68098
▁chatter	-8.681
▁tough	-8.68401
▁glass	-8.6846
▁gerry	-8.68518
▁peace	-8.68518
▁forever	-8.68519
▁bunch	-8.6852
▁wed	-8.68693
an	-8.68751
▁sounds	-8.68788
up	-8.69538
able	-8.69637
▁personal	-8.69789
re	-8.69796
▁dream	-8.69829
▁terrible	-8.69834
▁harry	-8.69836
▁kept	-8.69842
▁mark	-8.70112
▁ground	-8.70535
▁movie	-8.7056
▁turned	-8.70876
▁smoke	-8.71006
▁careful	-8.71107
▁grab	-8.71141
▁goodbye	-8.71167
▁lay	-8.71238
▁fool	-8.71857
▁american	-8.72154
▁hunt	-8.7219
▁quick	-8.72286
ra	-8.72418
▁ran	-8.72429
▁joel	-8.7243
▁beach	-8.72457
▁short	-8.72464
▁proud	-8.72515
▁river	-8.72519
▁rather	-8.72519
▁earth	-8.72527
▁shouting	-8.72577
▁early	-8.72618
▁gasps	-8.72719
▁sun	-8.72746
▁al	-8.72841
▁seem	-8.72926
▁maya	-8.72991
▁lt	-8.73116
▁longer	-8.73294
▁court	-8.73361
f	-8.73394
ch	-8.73448
▁broke	-8.73596
▁mike	-8.73734
▁possible	-8.73888
▁worse	-8.73889
▁fault	-8.73889
▁foot	-8.73961
▁uncle	-8.73971
▁k	-8.74006
ia	-8.74188
▁drug	-8.74583
▁partner	-8.74734
▁evening	-8.75122
▁horn	-8.75149
▁weird	-8.75277
▁brian	-8.75282
▁emily	-8.75282
▁starts	-8.75516
z	-8.75649
▁wear	-8.75766
▁drugs	-8.75818
▁service	-8.76136
▁date	-8.76268
▁ring	-8.76272
▁lock	-8.76363
▁present	-8.76378
▁driver	-8.76396
▁g	-8.76495
▁london	-8.76685
▁clothes	-8.76688
▁listening	-8.77016
▁bell	-8.77174
▁wonder	-8.77386
▁needed	-8.77446
▁words	-8.77475
▁mistake	-8.77519
▁join	-8.77627
▁mess	-8.77653
▁write	-8.78017
▁doubt	-8.78114
▁history	-8.78115
▁tired	-8.78126
▁crewe	-8.78222
▁seconds	-8.78307
▁fall	-8.78701
▁mm	-8.79066
▁guard	-8.79077
▁dress	-8.79206
▁general	-8.79436
▁indistinct	-8.79443
▁stole	-8.79515
▁king	-8.7955
▁werent	-8.79563
▁harley	-8.7958
▁record	-8.79708
▁cab	-8.79759
▁laugh	-8.79832
▁parents	-8.79866
▁mas	-8.79915
▁works	-8.79962
▁orders	-8.80452
▁prick	-8.80519
▁para	-8.80551
▁django	-8.81034
▁innocent	-8.81034
▁worried	-8.81034
▁jackson	-8.81052
▁richie	-8.81145
▁explain	-8.81235
▁places	-8.8152
▁takes	-8.81573
▁expect	-8.81733
▁sean	-8.81778
▁arrest	-8.81783
▁d	-8.81917
▁cunt	-8.82022
▁fish	-8.82031
▁casino	-8.82063
▁paper	-8.82096
▁walking	-8.82251
▁forgive	-8.82454
▁bought	-8.82528
▁finally	-8.82602
▁lance	-8.82665
▁screams	-8.83048
ce	-8.83157
▁named	-8.83188
ty	-8.83376
▁price	-8.83557
▁message	-8.83602
▁knife	-8.84045
▁mickey	-8.84047
▁wonderful	-8.84055
▁absolutely	-8.84063
▁unless	-8.84085
▁legal	-8.84323
▁land	-8.84383
▁pa	-8.85057
ur	-8.85094
▁deep	-8.85349
▁certain	-8.85454
▁caught	-8.8558
▁others	-8.8558
▁gift	-8.85581
▁reggie	-8.85582
▁brody	-8.85584
▁drunk	-8.85584
▁security	-8.85617
▁track	-8.86503
▁secret	-8.86683
▁carry	-8.86873
▁surprise	-8.86942
▁sex	-8.87003
▁south	-8.87101
▁dumb	-8.87143
▁lauda	-8.87145
▁shell	-8.8715
▁single	-8.87151
▁johnny	-8.87159
▁lying	-8.87173
▁louis	-8.87201
as	-8.87226
▁vegas	-8.87251
▁plane	-8.87678
▁goin	-8.87746
te	-8.88019
▁board	-8.88085
▁honor	-8.88442
ation	-8.88484
▁summer	-8.88728
▁amazing	-8.8873
▁gucci	-8.8873
▁position	-8.8873
▁island	-8.8873
▁president	-8.88734
▁low	-8.88734
▁mmhmm	-8.8875
▁doin	-8.88766
▁decided	-8.88796
▁ice	-8.88981
th	-8.89009
▁f	-8.89506
▁kick	-8.89526
▁attack	-8.89595
▁problems	-8.8987
▁judge	-8.89963
▁round	-8.89984
▁rose	-8.90036
ment	-8.90056
▁america	-8.90079
▁entire	-8.90216
▁strange	-8.90254
▁noodles	-8.90343
▁especially	-8.90343
▁government	-8.90343
▁andy	-8.90362
▁bloody	-8.90798
▁missed	-8.91179
▁burn	-8.91233
▁cards	-8.91296
ting	-8.91361
▁stone	-8.91534
▁fear	-8.91664
▁mate	-8.91694
▁post	-8.91829
ity	-8.9188
▁francis	-8.91968
▁niki	-8.91982
▁heaven	-8.91986
▁mmm	-8.91986
▁pro	-8.91994
▁nine	-8.92036
▁scene	-8.92055
▁cheering	-8.92102
▁putting	-8.92158
▁shed	-8.92205
▁papers	-8.92461
▁killer	-8.92592
▁park	-8.9266
ii	-8.92684
▁rain	-8.93305
▁hole	-8.93409
▁fill	-8.93447
▁suppose	-8.93459
▁super	-8.93618
▁christmas	-8.93649
▁bob	-8.93675
▁seeing	-8.93941
ter	-8.9408
▁fathers	-8.94097
▁changed	-8.94244
▁dogs	-8.94275
▁st	-8.94451
am	-8.94577
▁cover	-8.94616
less	-8.94744
▁steal	-8.94829
▁soul	-8.95088
▁nose	-8.95112
▁north	-8.95324
▁public	-8.95329
▁wedding	-8.95345
▁ooh	-8.95346
▁shh	-8.95356
▁license	-8.95378
▁yall	-8.95492
▁simple	-8.95543
▁gang	-8.95631
▁mons	-8.95691
▁dry	-8.95727
▁saved	-8.95745
ry	-8.96292
▁protect	-8.9632
▁shoes	-8.96444
▁star	-8.96801
▁shooting	-8.96874
▁jan	-8.96922
▁skin	-8.96932
▁bro	-8.96978
▁stephanie	-8.97068
▁arm	-8.97107
▁walter	-8.97118
▁totally	-8.97157
▁cost	-8.9719
▁in	-8.97264
ful	-8.97553
v	-8.98069
▁cry	-8.98419
▁address	-8.98424
▁niggers	-8.9853
▁spot	-8.98557
▁age	-8.98586
▁brain	-8.98654
▁moved	-8.98761
▁lunch	-8.98815
▁fbi	-8.98822
▁folks	-8.98822
ass	-8.98823
▁instead	-8.98823
▁sweetheart	-8.98824
▁noise	-8.98825
▁softly	-8.98914
▁army	-8.98979
▁hill	-8.98996
▁tyler	-8.99255
▁report	-8.99552
▁wouldve	-8.99741
se	-8.99859
▁happening	-8.99975
▁standing	-9.0009
▁bi	-9.00102
ive	-9.00303
▁cousin	-9.00417
▁patient	-9.00442
▁cat	-9.00572
▁afternoon	-9.00608
▁evidence	-9.00608
▁future	-9.00608
▁third	-9.00608
▁area	-9.00608
▁paolo	-9.00609
▁spent	-9.00611
▁stuck	-9.00612
▁heavy	-9.00623
▁dirty	-9.00656
▁letter	-9.00716
▁frankie	-9.00762
▁van	-9.00882
▁crying	-9.01024
▁push	-9.01121
▁lead	-9.01728
▁ron	-9.01736
▁fell	-9.02188
▁imagine	-9.0223
▁italian	-9.0229
▁action	-9.02299
▁field	-9.02343
▁split	-9.02416
▁major	-9.02421
▁neck	-9.02429
▁whatd	-9.02439
▁sonny	-9.02468
▁t	-9.02679
▁breathing	-9.02798
▁guards	-9.03024
one	-9.03141
▁following	-9.03254
it	-9.0367
▁howd	-9.04118
▁plays	-9.04126
▁shake	-9.04215
▁rules	-9.04232
▁sheriff	-9.04278
▁attention	-9.04279
▁difference	-9.04282
▁pussy	-9.04284
▁station	-9.04285
▁mommy	-9.04285
▁mothers	-9.04309
▁stopped	-9.04328
▁involved	-9.04331
▁singing	-9.04421
▁certainly	-9.04423
▁anna	-9.04489
▁bucks	-9.0474
is	-9.0483
▁suck	-9.05112
▁visit	-9.0537
▁cars	-9.05394
ou	-9.05432
ness	-9.05695
lng	-9.05786
▁wick	-9.0585
▁am	-9.05853
▁honest	-9.05902
▁german	-9.0593
co	-9.05959
▁east	-9.06005
▁narrat	-9.0614
▁forgot	-9.06163
▁creasy	-9.06165
▁keaton	-9.06165
▁kitchen	-9.06165
▁sobbing	-9.06165
▁yesterday	-9.06165
▁alex	-9.06166
▁dying	-9.06167
▁west	-9.06194
▁gasping	-9.06225
▁brad	-9.06256
▁theyd	-9.06666
▁wearing	-9.06713
▁pal	-9.06871
▁whose	-9.06985
▁calls	-9.07106
▁prove	-9.07872
▁tight	-9.07969
ta	-9.08008
▁nigga	-9.08061
▁fit	-9.08072
▁background	-9.08088
▁patrizia	-9.08088
▁ronnie	-9.08088
▁choose	-9.08088
▁neighborhood	-9.08088
▁department	-9.08088
▁ginger	-9.0809
▁chuckling	-9.08091
▁darling	-9.08092
▁everywhere	-9.08093
▁forward	-9.081
▁numbers	-9.08136
▁ray	-9.08153
▁neo	-9.08708
▁where	-9.09225
il	-9.09261
▁picked	-9.0929
to	-9.09552
▁share	-9.09849
▁normal	-9.09949
▁middle	-9.1004
▁rule	-9.10045
▁system	-9.10046
▁college	-9.10049
▁definitely	-9.10049
▁lebowski	-9.1005
▁sergeant	-9.1005
▁bright	-9.10053
▁aqui	-9.10053
▁union	-9.10185
▁locked	-9.1046
▁reg	-9.10523
▁copy	-9.10549
▁finished	-9.10563
▁casey	-9.10859
▁closes	-9.11099
▁grow	-9.11596
▁breath	-9.11781
▁iii	-9.11887
▁mum	-9.12016
▁george	-9.12047
▁keller	-9.12049
▁lieutenant	-9.12049
▁throat	-9.12049
▁uhhuh	-9.12049
▁soze	-9.12051
▁teddy	-9.12051
▁wet	-9.12077
▁space	-9.12083
▁ticket	-9.1212
▁completely	-9.12123
la	-9.12237
▁billy	-9.12624
▁warm	-9.12764
▁pen	-9.12764
▁holding	-9.12953
▁lived	-9.1305
ary	-9.1307
▁pulled	-9.13076
▁walked	-9.13248
ck	-9.1329
▁agree	-9.13875
▁realize	-9.13927
▁dope	-9.13973
▁blind	-9.14089
▁empty	-9.14089
▁freedom	-9.14089
▁morpheus	-9.14089
▁neither	-9.14089
▁schultz	-9.14089
▁justice	-9.1409
▁crap	-9.14095
▁milk	-9.14112
▁chicken	-9.14134
▁account	-9.14147
▁bridge	-9.14172
▁mister	-9.14188
▁joker	-9.14227
▁starting	-9.14289
▁camera	-9.14333
do	-9.14993
▁bus	-9.15148
▁tea	-9.15631
▁r	-9.15645
▁fighting	-9.15701
▁liked	-9.15702
▁search	-9.15748
▁mick	-9.1599
▁leg	-9.16003
▁lovely	-9.16029
▁became	-9.16173
▁breakfast	-9.16173
▁perhaps	-9.16173
▁held	-9.16173
▁girlfriend	-9.16243
▁baker	-9.16252
▁feed	-9.16333
▁motherfuckers	-9.16552
w	-9.16559
▁os	-9.16635
▁trip	-9.1681
▁fired	-9.16993
▁jump	-9.17229
▁class	-9.17319
▁reading	-9.17861
▁witness	-9.1791
▁accept	-9.17953
▁chris	-9.17998
▁smile	-9.18008
▁tie	-9.18205
▁nothin	-9.18269
▁afford	-9.18301
▁kenny	-9.18301
▁football	-9.18306
▁hungry	-9.18308
▁plus	-9.18309
▁exhales	-9.18324
▁bigger	-9.1833
▁self	-9.18335
▁pot	-9.18337
▁ought	-9.18358
▁broken	-9.18394
ne	-9.18444
▁quickly	-9.18491
▁animal	-9.18502
▁interested	-9.18511
▁weapon	-9.18518
▁diamond	-9.18519
▁paulie	-9.18643
▁books	-9.18664
▁figured	-9.18684
▁pocket	-9.18853
▁beeps	-9.18921
nt	-9.19007
▁opens	-9.19254
▁pounds	-9.19346
▁selling	-9.19379
▁dig	-9.19535
os	-9.19616
▁piss	-9.19683
▁ear	-9.19887
▁ow	-9.19981
▁corner	-9.20198
▁lights	-9.20211
sh	-9.20249
▁legs	-9.203
▁decision	-9.20474
▁impossible	-9.20474
▁bodies	-9.20475
▁support	-9.20476
▁property	-9.20482
▁jim	-9.20496
▁amen	-9.20517
▁zero	-9.2052
▁cake	-9.20531
▁gary	-9.20542
▁large	-9.20555
▁joint	-9.20605
▁cowboy	-9.20701
▁interesting	-9.20771
▁turns	-9.20787
▁ii	-9.20855
▁kinda	-9.21394
im	-9.2143
time	-9.21684
▁m	-9.21714
out	-9.21751
▁fingers	-9.21939
▁staying	-9.22032
▁load	-9.2205
▁sleeping	-9.22107
▁teii	-9.2226
▁double	-9.22478
▁fly	-9.22487
▁bags	-9.22594
▁honour	-9.2268
▁clementine	-9.22696
▁jerry	-9.22696
▁whether	-9.22697
▁worst	-9.22698
▁fresh	-9.22714
▁upon	-9.22717
▁barking	-9.22763
▁eh	-9.22769
▁laid	-9.22789
lie	-9.22915
▁unit	-9.22947
▁condition	-9.22966
▁store	-9.22989
▁voc	-9.23012
▁closed	-9.23592
▁fix	-9.23659
▁sirens	-9.2402
▁cross	-9.24171
▁consider	-9.2423
rs	-9.24373
by	-9.24432
▁gods	-9.24516
▁suit	-9.2453
▁apologize	-9.2475
▁blame	-9.24757
▁states	-9.24777
▁cock	-9.24877
▁friday	-9.2497
▁television	-9.2497
▁gustave	-9.24971
▁beginning	-9.24972
▁coke	-9.24974
▁wrote	-9.24975
▁press	-9.24998
▁guilty	-9.25006
va	-9.25008
▁distance	-9.25014
▁fredo	-9.25076
▁bear	-9.2509
▁gotten	-9.25142
▁per	-9.25157
▁gunshot	-9.25337
▁roman	-9.25475
um	-9.2555
▁taste	-9.25679
▁soft	-9.25695
▁waste	-9.25722
▁wind	-9.25985
iy	-9.26186
▁rob	-9.264
▁teach	-9.26679
▁played	-9.26712
▁treat	-9.26872
▁drinking	-9.26974
▁total	-9.2718
▁gettin	-9.27267
▁danger	-9.27279
▁calvin	-9.27295
▁cream	-9.27295
▁memory	-9.27295
▁scoffs	-9.27295
▁senator	-9.27295
▁conlon	-9.27297
▁built	-9.273
▁operator	-9.273
▁favorite	-9.27305
▁meat	-9.27306
▁pants	-9.2731
▁kickass	-9.27314
▁pete	-9.27318
▁yelling	-9.2735
▁wild	-9.2738
▁file	-9.27522
▁extra	-9.27571
▁queen	-9.27779
ian	-9.27854
el	-9.27927
▁jew	-9.28321
▁yard	-9.28668
▁no	-9.28802
▁lots	-9.2893
▁dis	-9.29043
▁sad	-9.29277
▁final	-9.29562
▁enemy	-9.29676
▁miami	-9.29676
▁muffled	-9.29676
▁teeth	-9.29676
▁within	-9.29676
▁tongue	-9.29676
▁colonel	-9.2968
▁chef	-9.29681
▁bottle	-9.29682
▁thatll	-9.29682
▁excited	-9.29683
▁sold	-9.29749
▁daughters	-9.29756
▁lester	-9.29764
▁cute	-9.29885
▁clicks	-9.30036
▁vehicle	-9.30121
▁client	-9.30153
▁bird	-9.30167
▁murdered	-9.30314
▁nuts	-9.30366
▁grave	-9.30691
▁horses	-9.30916
▁fucker	-9.31262
▁points	-9.31297
▁di	-9.31498
▁birds	-9.31622
▁jerk	-9.31693
▁ears	-9.31837
▁mention	-9.31852
▁crew	-9.31931
▁angel	-9.32065
▁hadnt	-9.32115
▁however	-9.32115
▁monroe	-9.32115
▁strike	-9.32115
▁local	-9.32116
▁shouldve	-9.32119
▁derek	-9.3212
▁juice	-9.32122
▁yep	-9.32127
▁por	-9.32169
▁cup	-9.32171
▁motherfucking	-9.32231
▁suspect	-9.32318
▁awful	-9.32326
▁notice	-9.32339
▁bastards	-9.32353
▁rings	-9.32353
▁helped	-9.32463
▁seriously	-9.32504
▁weight	-9.32586
▁rent	-9.32586
▁deserve	-9.32588
▁bringing	-9.32593
▁criminal	-9.32669
▁announce	-9.32734
▁sh	-9.33103
▁experience	-9.33321
▁fellas	-9.3341
▁mo	-9.33628
ad	-9.33795
▁sal	-9.3407
▁con	-9.34104
▁block	-9.34416
▁loose	-9.34425
▁character	-9.34615
▁project	-9.34615
▁shirt	-9.34615
▁upstairs	-9.34615
▁downtown	-9.34615
▁loki	-9.34617
▁spirit	-9.3462
▁grace	-9.34622
▁stephen	-9.34634
▁coughing	-9.34694
▁row	-9.34702
▁manager	-9.34751
▁hiding	-9.34751
▁chill	-9.34759
▁risk	-9.34939
▁everybodys	-9.34984
▁county	-9.3499
▁cocksucker	-9.35113
▁investigation	-9.35125
▁shoulder	-9.35135
▁whistle	-9.35167
▁idiot	-9.35168
ton	-9.35219
▁passed	-9.3525
go	-9.35439
▁wine	-9.35485
▁co	-9.35492
▁el	-9.36208
▁bullets	-9.36316
▁w	-9.36457
▁heads	-9.36759
▁lift	-9.36917
▁beg	-9.36968
ai	-9.37129
▁victim	-9.37164
▁church	-9.37175
▁audience	-9.37179
▁hoffa	-9.37179
▁mercedes	-9.37179
▁relationship	-9.37179
▁hasnt	-9.37179
▁whoever	-9.3718
▁protection	-9.3721
▁cage	-9.3721
▁fitz	-9.37295
▁paying	-9.37414
▁main	-9.37438
▁foi	-9.3744
▁arms	-9.37466
▁score	-9.37529
▁united	-9.37535
▁bare	-9.37602
▁clem	-9.37638
▁trick	-9.37645
▁winning	-9.37769
▁operation	-9.37777
▁stock	-9.37793
▁wheel	-9.37801
▁cap	-9.38474
na	-9.38777
▁moms	-9.38798
▁hat	-9.38849
id	-9.38853
gest	-9.3912
▁pray	-9.39225
▁jews	-9.39322
▁allow	-9.39518
▁weapons	-9.39542
▁guarantee	-9.396
▁hero	-9.3966
me	-9.39758
▁boom	-9.3977
▁match	-9.3979
▁program	-9.39802
▁insane	-9.3981
▁insurance	-9.3981
▁taught	-9.3981
▁bottom	-9.39811
▁threw	-9.39811
▁allison	-9.39811
▁bathroom	-9.39812
▁beauty	-9.39821
▁weekend	-9.39831
▁wailing	-9.39838
▁franklin	-9.39841
▁o	-9.39843
▁writing	-9.39844
▁penny	-9.39845
▁warden	-9.39864
▁babe	-9.39884
▁joy	-9.39892
▁sight	-9.39901
▁squealing	-9.40077
▁banging	-9.40127
▁contact	-9.40137
▁quietly	-9.40144
▁speaks	-9.40312
▁when	-9.40399
▁promised	-9.40468
▁tank	-9.40482
▁russian	-9.40494
▁begin	-9.4055
▁records	-9.40676
▁wood	-9.40705
▁dare	-9.40764
▁out	-9.41244
▁feels	-9.42012
▁dump	-9.42222
▁survive	-9.42318
▁nervous	-9.42513
▁roof	-9.42513
▁stories	-9.42513
▁yknow	-9.42513
▁credit	-9.42514
▁upset	-9.42515
▁shame	-9.42516
▁pyle	-9.42517
▁common	-9.42519
▁javi	-9.42521
▁marry	-9.42525
▁jury	-9.42525
▁platt	-9.42526
▁pair	-9.42591
▁usually	-9.42608
▁hearing	-9.42685
▁concerned	-9.42722
▁indistinctly	-9.4274
▁build	-9.4281
▁yells	-9.42821
ant	-9.4283
▁joey	-9.4285
▁stops	-9.42857
▁bosses	-9.42857
▁closer	-9.42934
▁lake	-9.43079
▁conversation	-9.43191
▁besides	-9.43194
▁fellow	-9.43221
▁mac	-9.43269
▁size	-9.43285
▁frances	-9.43358
▁drivers	-9.43598
▁pin	-9.43659
▁art	-9.43815
▁ma	-9.44085
▁ho	-9.44102
eur	-9.44308
▁keeps	-9.44418
▁test	-9.44494
▁ends	-9.44547
▁camp	-9.448
▁film	-9.44863
▁due	-9.45007
▁diamonds	-9.45007
▁add	-9.45008
▁rome	-9.45127
▁breathe	-9.45128
▁whoo	-9.45276
▁traffic	-9.45286
▁provide	-9.45291
▁dixon	-9.45291
▁target	-9.45291
▁trinity	-9.45291
▁rothstein	-9.45292
▁sisters	-9.45292
▁liar	-9.45293
▁twice	-9.45294
▁regular	-9.4531
▁immediately	-9.4532
▁russ	-9.45334
▁hup	-9.45345
▁view	-9.45361
▁itd	-9.45368
▁blessed	-9.45455
▁showed	-9.4549
▁vi	-9.45502
▁steve	-9.45513
▁ex	-9.45517
▁agreed	-9.45565
▁losing	-9.45603
▁command	-9.45703
▁arrested	-9.45848
▁lookin	-9.45937
▁parking	-9.45981
▁continue	-9.46023
▁aunt	-9.46049
▁wondering	-9.46094
▁season	-9.46099
▁learned	-9.46112
▁group	-9.46131
▁whore	-9.46144
▁soldier	-9.46178
▁tree	-9.46226
▁cheers	-9.46289
▁dollar	-9.46297
ent	-9.46569
▁games	-9.46842
▁shots	-9.46848
▁usa	-9.47193
▁ln	-9.47218
▁harm	-9.47882
▁heat	-9.47943
▁trade	-9.48018
▁shower	-9.48068
▁loud	-9.48091
▁faith	-9.48135
▁attorney	-9.48148
▁california	-9.48148
▁difficult	-9.48148
▁gorgeous	-9.48148
▁often	-9.48149
▁murray	-9.48149
▁earlier	-9.4815
▁costello	-9.48151
▁weii	-9.48154
▁ugly	-9.48155
▁exit	-9.48161
▁virginie	-9.48167
▁storm	-9.48178
▁crack	-9.4818
▁aye	-9.4818
▁evey	-9.48186
▁annie	-9.48232
▁bother	-9.48289
ist	-9.48289
▁lila	-9.48351
▁honking	-9.4839
▁manny	-9.48478
▁faster	-9.48535
▁jane	-9.48662
▁sky	-9.48764
ri	-9.48991
▁badge	-9.49058
▁debt	-9.49084
▁finger	-9.49149
▁non	-9.49242
▁ser	-9.49436
head	-9.4977
▁victims	-9.50339
▁reach	-9.50361
▁wash	-9.5043
▁sue	-9.50585
▁picking	-9.50653
▁rats	-9.50707
▁chuck	-9.50866
▁release	-9.50884
▁bruce	-9.50916
▁spoke	-9.51038
▁correct	-9.51058
▁chair	-9.51072
▁pig	-9.51086
▁ambulance	-9.51089
▁arthur	-9.51089
▁cancer	-9.51089
▁cassandra	-9.51089
▁donnie	-9.51089
▁responsible	-9.51089
▁pardon	-9.5109
▁monday	-9.5109
▁sunday	-9.51097
▁sarah	-9.51103
▁comin	-9.51109
▁papa	-9.51204
▁hoping	-9.51232
ro	-9.5128
▁ca	-9.51312
▁interest	-9.51441
▁pissed	-9.51493
▁whispers	-9.51596
▁sooner	-9.51763
▁ar	-9.51848
▁carrying	-9.51865
▁oil	-9.51921
▁force	-9.51927
you	-9.51929
▁stage	-9.52012
▁prefer	-9.52045
▁type	-9.52116
▁lies	-9.52154
▁gangster	-9.52162
▁shoe	-9.52174
▁sometime	-9.52178
▁mask	-9.5237
▁officers	-9.52374
▁nah	-9.52728
▁checked	-9.52992
▁doors	-9.53021
▁buzz	-9.53527
▁taik	-9.53709
▁clock	-9.53806
▁pictures	-9.53884
▁introduce	-9.5392
▁settle	-9.53938
▁cheap	-9.53991
▁sharp	-9.53998
▁freeze	-9.54071
▁contract	-9.54095
▁roulet	-9.54103
▁anthony	-9.5412
▁border	-9.5412
▁federal	-9.5412
▁necessary	-9.5412
▁spanish	-9.5412
▁congratulations	-9.5412
▁nowhere	-9.5412
▁cheese	-9.54121
▁fancy	-9.54121
▁medical	-9.54123
▁roger	-9.54123
▁several	-9.5413
▁dropped	-9.54134
▁powerful	-9.54161
▁statement	-9.54186
▁obviously	-9.54188
▁center	-9.54207
▁hired	-9.54286
▁ld	-9.54523
▁letting	-9.5458
▁alarm	-9.54832
▁up	-9.54966
▁castle	-9.55154
▁garden	-9.55202
▁owner	-9.55239
▁bust	-9.5527
▁ordered	-9.55353
▁career	-9.55356
ever	-9.55424
▁mar	-9.55654
▁uma	-9.55782
ha	-9.56114
he	-9.56353
▁ju	-9.5643
▁gas	-9.5648
▁gunshots	-9.56743
▁believed	-9.56771
fucking	-9.56889
▁tip	-9.56967
▁helping	-9.57118
▁sea	-9.57217
▁clarice	-9.57245
▁crawford	-9.57245
▁opportunity	-9.57245
▁otherwise	-9.57245
▁rough	-9.57245
▁sionis	-9.57245
▁subject	-9.57245
▁warrant	-9.57245
▁funeral	-9.57245
▁lecter	-9.57245
▁sugar	-9.57245
▁language	-9.57245
▁grew	-9.57245
▁motel	-9.57246
▁blew	-9.57246
▁soap	-9.57247
▁flight	-9.5725
▁button	-9.57262
▁truly	-9.57263
▁rise	-9.57269
▁cj	-9.57271
▁dies	-9.57406
▁knees	-9.57594
▁surprised	-9.5765
▁peter	-9.57824
▁si	-9.58115
▁exist	-9.58142
▁everythings	-9.58229
▁slave	-9.58305
▁gives	-9.5836
▁regret	-9.58409
▁rifle	-9.58429
▁medal	-9.58453
▁nobodys	-9.58502
▁breaking	-9.5912
▁older	-9.59221
▁en	-9.59387
▁do	-9.59665
▁screw	-9.59749
▁clients	-9.59825
▁complete	-9.60131
ey	-9.60133
▁po	-9.60162
▁las	-9.60186
▁wire	-9.60268
▁all	-9.60311
▁gear	-9.60317
▁form	-9.6044
▁sin	-9.60455
▁flat	-9.60456
▁cease	-9.60467
▁advice	-9.6047
▁asleep	-9.6047
▁beyond	-9.6047
▁expensive	-9.6047
▁marsellus	-9.6047
▁outfit	-9.6047
▁ridiculous	-9.6047
▁strength	-9.6047
▁thursday	-9.6047
▁saburo	-9.6047
▁repeat	-9.60471
▁jeez	-9.60471
▁dramatic	-9.60471
▁easier	-9.60474
▁leonard	-9.60476
▁paris	-9.60476
▁bedroom	-9.60482
▁admit	-9.60484
▁rv	-9.60491
▁plenty	-9.60491
▁vito	-9.60493
▁aldo	-9.60497
▁pressure	-9.605
▁molly	-9.60503
▁pilot	-9.60505
▁marion	-9.60506
▁dancing	-9.60507
▁filthy	-9.60513
▁market	-9.6052
▁stolen	-9.60584
▁aw	-9.60593
▁beeping	-9.60669
▁honestly	-9.60679
▁weed	-9.60706
▁noticed	-9.60736
▁leon	-9.60753
▁jobs	-9.60762
▁personally	-9.60793
▁allowed	-9.60835
▁blows	-9.60963
▁assholes	-9.61004
land	-9.61039
▁burned	-9.6106
▁guts	-9.61387
▁belong	-9.61512
▁terrorist	-9.61709
▁devil	-9.61782
▁code	-9.61785
▁pita	-9.61818
▁dreams	-9.62002
▁sweat	-9.62672
▁discuss	-9.63004
▁crash	-9.63012
▁draw	-9.63177
▁poison	-9.63352
▁pretend	-9.63372
though	-9.63394
▁robert	-9.63474
▁map	-9.63493
▁request	-9.63494
ut	-9.63676
▁slip	-9.63803
▁thunder	-9.63803
▁explosiveskull	-9.63804
▁ramona	-9.63804
▁recognize	-9.63804
▁saturday	-9.63804
▁hollywood	-9.63804
▁fifth	-9.63805
▁wiii	-9.63808
▁kay	-9.63808
▁rug	-9.63818
▁confession	-9.63829
▁march	-9.63831
▁coat	-9.63833
▁plant	-9.63857
▁huge	-9.63858
▁trial	-9.63876
▁band	-9.63894
▁sucks	-9.63914
▁robbery	-9.63917
▁sweetie	-9.63917
▁fourth	-9.63932
▁haller	-9.63957
ine	-9.64057
▁sons	-9.6413
▁approaching	-9.64143
▁wayne	-9.64209
▁earn	-9.64218
ir	-9.64276
▁ls	-9.64375
▁armed	-9.6438
▁plans	-9.64431
▁norman	-9.6448
▁dealing	-9.64491
▁dressed	-9.64532
▁stayed	-9.64626
▁bang	-9.64707
▁chattering	-9.64869
▁official	-9.65241
▁shape	-9.65243
▁gate	-9.65326
▁pre	-9.65349
▁plate	-9.65378
▁hated	-9.65408
▁talkin	-9.65495
▁parts	-9.655
age	-9.65759
▁cleaned	-9.65856
▁ter	-9.65905
▁bite	-9.66127
▁pops	-9.66204
▁pulling	-9.66214
▁paint	-9.66226
▁player	-9.6626
▁pe	-9.66367
▁suggest	-9.66444
▁fucks	-9.66518
men	-9.66701
beat	-9.66717
▁deliver	-9.6675
▁rush	-9.66818
▁shows	-9.67043
▁fake	-9.67084
▁positive	-9.6712
▁usual	-9.67132
▁mental	-9.67134
▁so	-9.67203
▁hutch	-9.67215
▁somethin	-9.6722
▁social	-9.67243
▁snow	-9.67251
▁airport	-9.67252
▁angry	-9.67252
▁elevator	-9.67252
▁flesh	-9.67252
▁mexico	-9.67252
▁square	-9.67252
▁understood	-9.67252
▁avoid	-9.67252
▁interview	-9.67252
▁awake	-9.67254
▁blaring	-9.67254
▁garage	-9.67255
▁eddie	-9.67256
▁anson	-9.67257
▁jewish	-9.67259
▁hung	-9.67261
▁telephone	-9.67261
▁starling	-9.67261
▁aah	-9.67265
▁silly	-9.67282
▁laughter	-9.67284
▁pure	-9.67308
▁steph	-9.67309
▁famous	-9.67324
▁highway	-9.67333
▁vote	-9.67344
▁quarter	-9.67358
▁kg	-9.67371
▁pm	-9.67389
▁metal	-9.67709
▁loaded	-9.67718
▁you	-9.67899
▁over	-9.68345
et	-9.68365
▁acting	-9.6846
▁hon	-9.6854
▁boyfriend	-9.68728
▁computer	-9.68747
▁kray	-9.68811
▁bl	-9.68814
▁salt	-9.68828
▁cigarette	-9.68856
▁farm	-9.68874
▁somebodys	-9.6892
ial	-9.68974
▁sale	-9.69014
▁boyle	-9.69175
▁off	-9.69216
li	-9.6927
▁announc	-9.69305
▁using	-9.69375
▁windows	-9.69423
▁stars	-9.69452
▁streets	-9.69458
be	-9.69768
▁siren	-9.69783
ier	-9.69858
▁runs	-9.69959
io	-9.70066
▁ideas	-9.70066
▁trace	-9.70188
▁rip	-9.70264
▁disappear	-9.70522
▁silence	-9.70625
▁mmhm	-9.70778
▁irish	-9.70801
▁bravo	-9.70823
▁cackling	-9.70823
▁horror	-9.70823
▁illegal	-9.70823
▁japanese	-9.70823
▁jungle	-9.70823
▁mathilda	-9.70823
▁miracle	-9.70823
▁squad	-9.70823
▁travis	-9.70823
▁florida	-9.70823
▁russell	-9.70823
▁ugh	-9.70824
▁andrew	-9.70824
▁bunny	-9.70824
▁whirring	-9.70825
▁fortune	-9.70825
▁inspector	-9.70826
▁forgotten	-9.70827
▁spring	-9.70827
▁arno	-9.70831
▁comfortable	-9.70835
▁marla	-9.70836
▁clever	-9.70839
▁desk	-9.70842
▁roth	-9.70844
▁switch	-9.70845
▁giuseppe	-9.70881
▁texas	-9.70934
▁hall	-9.70992
▁sat	-9.71041
em	-9.71071
▁letters	-9.71118
▁turning	-9.71154
▁keyser	-9.71156
ious	-9.71322
lo	-9.71558
▁terms	-9.71591
▁bomb	-9.71626
▁base	-9.71972
▁harder	-9.72061
▁remain	-9.72069
▁ward	-9.72079
▁clears	-9.72159
▁loves	-9.72191
▁sant	-9.72293
no	-9.72358
▁customers	-9.72402
▁ghost	-9.72497
▁meal	-9.72507
▁connection	-9.72513
▁guest	-9.7258
▁cigarettes	-9.72831
▁sub	-9.72977
ig	-9.73117
▁players	-9.73204
down	-9.73297
▁eating	-9.73325
▁cos	-9.73347
ma	-9.73689
▁pack	-9.73778
▁los	-9.73803
▁sand	-9.7403
▁hammer	-9.74252
▁health	-9.74373
▁natural	-9.74414
▁access	-9.74524
▁families	-9.74527
▁iittie	-9.74527
▁rachel	-9.74527
▁brown	-9.74527
▁emergency	-9.74527
▁purpose	-9.74528
▁trunk	-9.74528
▁swat	-9.74529
▁zach	-9.74529
▁boring	-9.74532
▁fantastic	-9.74533
▁evil	-9.74536
▁trigger	-9.74536
▁simply	-9.74537
▁queenan	-9.74554
▁corps	-9.74585
▁golden	-9.74629
▁willing	-9.74638
▁arrived	-9.74697
▁te	-9.74699
▁taro	-9.74717
▁glasses	-9.74721
▁mission	-9.74758
▁disappeared	-9.74835
x	-9.74901
▁ai	-9.75015
▁fred	-9.75067
▁drove	-9.75112
▁flying	-9.75216
and	-9.75315
son	-9.75453
▁william	-9.75462
▁lied	-9.75496
▁expecting	-9.75568
▁walt	-9.7557
▁flowers	-9.75635
▁followed	-9.75776
▁fan	-9.75857
▁lou	-9.7588
▁ohh	-9.76245
nce	-9.76264
▁jean	-9.76346
ner	-9.76508
▁hm	-9.76608
▁fella	-9.7691
▁pigs	-9.77039
▁pie	-9.77062
ade	-9.77207
▁thinks	-9.77332
ster	-9.77463
▁units	-9.77844
house	-9.77872
▁tao	-9.77905
j	-9.77915
▁matt	-9.78036
▁desert	-9.78045
ho	-9.78158
▁prepare	-9.78172
ate	-9.78175
▁casa	-9.78324
▁twenty	-9.78352
▁gross	-9.78355
▁among	-9.78356
▁apart	-9.78361
▁favour	-9.78368
▁horrible	-9.78373
▁marriage	-9.78373
▁mmmhmm	-9.78373
▁oclock	-9.78373
▁somehow	-9.78373
▁stomach	-9.78373
▁whimpering	-9.78373
▁heavily	-9.78373
▁whyd	-9.78373
▁permission	-9.78374
▁fireworks	-9.78374
▁winston	-9.78374
▁buried	-9.78375
▁charles	-9.78375
▁pride	-9.78376
▁sara	-9.78377
▁smoking	-9.78378
▁curious	-9.78379
▁babies	-9.78379
▁bailey	-9.7838
▁brave	-9.7838
▁aware	-9.78381
▁heck	-9.78381
▁brick	-9.78382
▁attempt	-9.78382
▁fruit	-9.78382
▁tune	-9.78384
▁belt	-9.78385
▁duty	-9.78386
▁champion	-9.78386
▁mostly	-9.7839
▁steady	-9.78395
▁toss	-9.78403
▁sosa	-9.78413
▁changing	-9.78415
▁regan	-9.78416
▁pool	-9.78418
▁gina	-9.7846
▁professional	-9.78461
▁angeles	-9.78467
▁invited	-9.78473
▁bury	-9.78501
▁sink	-9.78544
▁forced	-9.78687
▁amy	-9.78704
▁headed	-9.7871
▁billboards	-9.78726
▁ms	-9.78737
▁slowly	-9.78827
▁nights	-9.78842
line	-9.79029
▁pills	-9.79119
▁jo	-9.79354
▁be	-9.79405
▁vern	-9.79458
▁depends	-9.79512
way	-9.79554
▁ted	-9.79585
led	-9.79673
▁remind	-9.79888
▁gu	-9.79941
▁concern	-9.79969
▁ahh	-9.80007
▁pat	-9.80247
▁priest	-9.80271
▁at	-9.80415
▁boo	-9.80425
▁pound	-9.80515
red	-9.80571
▁stranger	-9.80584
ina	-9.80585
▁mile	-9.80686
ice	-9.80921
at	-9.81036
▁buying	-9.81388
pa	-9.81391
▁sec	-9.81542
▁destroy	-9.81637
▁approach	-9.819
▁spread	-9.81915
▁squeal	-9.81967
▁lab	-9.8201
▁psycho	-9.82163
▁escape	-9.82171
▁raymond	-9.82199
▁bay	-9.8231
▁akim	-9.82373
▁broomhilda	-9.82373
▁example	-9.82373
▁genius	-9.82373
▁montoya	-9.82373
▁opinion	-9.82373
▁education	-9.82373
▁period	-9.82373
▁thomas	-9.82373
▁vietnamese	-9.82373
▁ricky	-9.82373
▁hayes	-9.82374
▁parole	-9.82375
▁vacation	-9.82375
▁muito	-9.82375
▁formula	-9.82376
▁candie	-9.82377
▁subtitle	-9.82383
▁stood	-9.82386
▁doorbell	-9.82387
▁opal	-9.8239
▁wise	-9.82394
▁nature	-9.82396
▁mable	-9.82413
▁gunfire	-9.82414
▁steak	-9.82416
▁benny	-9.82416
▁chain	-9.82422
▁woke	-9.82427
▁weather	-9.82429
▁shine	-9.82469
▁forth	-9.82533
▁vice	-9.82557
ge	-9.82817
▁yellow	-9.8286
▁port	-9.83101
▁feds	-9.8315
▁asses	-9.83218
▁clearly	-9.8324
▁ed	-9.83313
▁chi	-9.83622
▁training	-9.83722
▁taxi	-9.8393
▁rot	-9.83955
▁details	-9.84054
▁hates	-9.84068
▁an	-9.84112
▁wound	-9.84226
▁yards	-9.8429
▁pieces	-9.84308
▁houses	-9.84538
▁keeping	-9.84549
▁loss	-9.84571
▁ele	-9.85025
▁gangsters	-9.85049
ite	-9.85642
▁bone	-9.85693
▁enter	-9.85815
▁files	-9.85817
▁romans	-9.8588
ee	-9.86163
▁proceed	-9.86209
▁caii	-9.86228
▁focus	-9.86232
▁watched	-9.86265
▁cameras	-9.86304
▁process	-9.86336
▁raise	-9.86342
▁straighten	-9.86364
▁clark	-9.86381
▁sexual	-9.86431
▁proper	-9.86463
▁caesar	-9.86521
▁mail	-9.86532
▁percent	-9.86534
▁vietnam	-9.8654
▁byron	-9.8654
▁downstairs	-9.8654
▁eventually	-9.8654
▁jewelry	-9.8654
▁league	-9.8654
▁sneak	-9.8654
▁stairs	-9.8654
▁sauce	-9.86541
▁morgan	-9.86541
▁closing	-9.86541
▁zasa	-9.86541
▁practice	-9.86541
▁recall	-9.86541
▁amount	-9.86542
▁fought	-9.86544
▁desire	-9.86545
▁trash	-9.86545
▁reward	-9.86546
▁saint	-9.86547
▁nope	-9.86548
▁defense	-9.8655
▁violence	-9.8655
▁shopping	-9.8655
▁duke	-9.86551
da	-9.86556
▁unbelievable	-9.86557
▁dragon	-9.8656
▁aside	-9.86563
▁bobby	-9.86565
▁ver	-9.86565
▁bates	-9.86569
▁secretary	-9.8657
▁indeed	-9.86572
▁grass	-9.86572
▁began	-9.86573
▁rare	-9.86576
▁fifty	-9.86577
▁mercy	-9.86582
▁nurse	-9.86591
▁marshall	-9.86595
▁bem	-9.86614
▁familiar	-9.86616
▁disgusting	-9.86619
▁echoing	-9.86619
▁hola	-9.86637
▁sua	-9.86665
▁raised	-9.86743
▁prepared	-9.86759
▁addy	-9.86778
▁carson	-9.86792
▁tour	-9.86794
▁ford	-9.86818
▁screeching	-9.86846
▁wide	-9.86851
▁signal	-9.86871
▁gi	-9.86907
▁drinks	-9.86911
▁sexy	-9.8696
▁perfectly	-9.86989
▁nearly	-9.86989
▁wasted	-9.87036
▁there	-9.87051
▁fixed	-9.871
▁tied	-9.87165
▁punch	-9.8717
▁tax	-9.87202
ring	-9.87256
▁bitches	-9.8729
off	-9.87432
ism	-9.87527
▁lads	-9.87661
ard	-9.87805
ba	-9.87838
▁damage	-9.87873
ance	-9.87888
▁instrumenta	-9.8794
▁tall	-9.88002
▁passing	-9.88031
▁signed	-9.88053
▁partners	-9.88253
if	-9.88308
▁color	-9.88555
▁video	-9.88782
▁pistol	-9.88844
▁newspaper	-9.88856
▁egg	-9.88914
▁sending	-9.89012
▁chop	-9.89121
▁brings	-9.89296
▁charges	-9.89382
▁walls	-9.8954
sa	-9.89886
▁criminals	-9.89943
▁wa	-9.90094
▁des	-9.90264
▁fa	-9.90268
▁dealer	-9.90332
▁assume	-9.90401
▁junk	-9.90667
▁sentence	-9.90672
▁divorce	-9.90683
▁remove	-9.90712
▁tickets	-9.90734
▁original	-9.90764
▁claim	-9.90775
▁chest	-9.90811
▁artist	-9.9084
▁stratton	-9.90881
▁according	-9.90888
▁aronoff	-9.90888
▁committee	-9.90888
▁enemies	-9.90888
▁fifteen	-9.90888
▁fletcher	-9.90888
▁gambling	-9.90888
▁garbage	-9.90888
▁matrix	-9.90888
▁nancy	-9.90888
▁boston	-9.90888
▁electronic	-9.90888
▁wallace	-9.90888
▁isso	-9.90888
▁lansky	-9.90888
▁authority	-9.90888
▁exciting	-9.90889
▁choking	-9.9089
▁connie	-9.90892
▁beef	-9.90892
▁morrie	-9.90892
▁verbal	-9.90893
▁hildi	-9.90897
▁homicide	-9.90898
▁revenge	-9.90898
▁military	-9.90899
▁bread	-9.90901
▁twelve	-9.90903
▁travel	-9.9091
▁direction	-9.90916
▁orange	-9.90916
▁rocks	-9.90917
▁national	-9.90919
▁gim	-9.90929
▁estate	-9.90931
▁katie	-9.90932
▁oui	-9.90937
▁moon	-9.90939
▁hail	-9.90953
▁unfortunately	-9.90961
▁jacket	-9.90966
▁allen	-9.90966
▁suddenly	-9.90977
▁stopping	-9.90977
▁proof	-9.91009
▁bath	-9.91075
▁boxes	-9.91098
▁angela	-9.91133
▁tail	-9.91174
▁policeman	-9.91183
▁wounded	-9.91205
▁male	-9.91233
▁deeply	-9.91238
▁x	-9.91368
▁mikey	-9.9139
▁tara	-9.91536
▁simon	-9.91546
▁mist	-9.91547
▁higher	-9.91662
▁thy	-9.9171
▁lately	-9.91778
▁bookies	-9.91781
▁com	-9.91794
▁seemed	-9.91876
de	-9.92119
hand	-9.9228
▁knocking	-9.92443
▁opening	-9.92567
▁hanging	-9.92839
▁eggs	-9.92904
▁heading	-9.92912
▁nada	-9.93012
▁ruin	-9.93012
▁friendly	-9.93107
ther	-9.9312
▁answers	-9.93225
▁tem	-9.93247
▁scare	-9.93258
▁restaurant	-9.93375
▁monkey	-9.93413
▁sport	-9.93439
▁marine	-9.93471
▁path	-9.93484
▁lesson	-9.93492
▁customer	-9.93519
▁sins	-9.93585
▁du	-9.93703
▁laws	-9.93719
ni	-9.93815
▁san	-9.93966
ny	-9.9411
ley	-9.94547
▁mountain	-9.94815
ble	-9.94839
▁counts	-9.94856
ang	-9.94916
▁lick	-9.94981
mo	-9.95022
ted	-9.95195
▁exchange	-9.95209
▁mob	-9.95233
▁arrive	-9.9525
▁exact	-9.95315
▁object	-9.95398
▁alcohol	-9.954
▁wolf	-9.95406
op	-9.95407
▁current	-9.95433
▁advantage	-9.95433
▁appointment	-9.95433
▁borrow	-9.95433
▁custody	-9.95433
▁detroit	-9.95433
▁laeddis	-9.95433
▁literally	-9.95433
▁mcmanus	-9.95433
▁nephew	-9.95433
▁ocean	-9.95433
▁policy	-9.95433
▁sollozzo	-9.95433
▁tuesday	-9.95433
▁vinnie	-9.95433
▁written	-9.95433
▁matthew	-9.95433
▁skull	-9.95433
▁anderson	-9.95434
▁shift	-9.95434
▁lonely	-9.95434
▁british	-9.95435
▁edward	-9.95435
▁staff	-9.95435
▁failure	-9.95437
▁battle	-9.95438
▁begging	-9.95438
▁international	-9.9544
▁tear	-9.95441
▁leeds	-9.95442
▁paso	-9.95443
▁gentleman	-9.95443
▁owns	-9.95444
▁wade	-9.9545
▁apparently	-9.95453
▁style	-9.95457
▁kate	-9.95484
▁incredible	-9.95485
▁dia	-9.95507
▁lago	-9.95511
▁level	-9.95551
▁witnesses	-9.95561
▁heroin	-9.95563
▁naked	-9.95662
▁gotham	-9.95687
▁movement	-9.95749
lin	-9.95815
▁under	-9.95884
▁carefully	-9.95886
▁tits	-9.95896
ff	-9.95933
▁mal	-9.96124
▁charged	-9.96235
▁ways	-9.96248
ram	-9.96274
▁kicked	-9.96293
▁growing	-9.96385
▁pope	-9.96528
▁hurts	-9.96615
▁falling	-9.96758
▁bo	-9.97046
▁celebrate	-9.97087
▁americans	-9.97504
▁suspensefu	-9.97512
▁finding	-9.97675
▁decide	-9.97921
▁trusted	-9.97964
▁location	-9.98061
▁model	-9.98092
▁muscle	-9.98136
▁winner	-9.98151
▁helicopter	-9.98163
▁belongs	-9.98218
▁detail	-9.98223
▁mu	-9.98436
▁crimes	-9.98588
▁tools	-9.98702
▁page	-9.98787
▁woods	-9.98871
▁magic	-9.98883
ot	-9.98975
▁suspects	-9.99177
ling	-9.9943
▁nail	-9.99435
ure	-9.99457
▁persons	-9.99577
▁lawyers	-9.99585
▁animals	-9.99743
▁hook	-9.9976
per	-9.99782
▁confess	-9.99855
▁pr	-9.99869
▁weak	-9.99872
▁insult	-9.99886
▁flash	-10.0001
▁heh	-10.0005
▁sandwich	-10.0013
▁ch	-10.0015
▁pink	-10.0015
▁feelings	-10.0016
▁shouid	-10.0018
▁motherfuckin	-10.0019
▁anytime	-10.002
▁benefit	-10.002
▁buffalo	-10.002
▁chacon	-10.002
▁coach	-10.002
▁dozen	-10.002
▁fbl	-10.002
▁firm	-10.002
▁karl	-10.002
▁probiem	-10.002
▁someplace	-10.002
▁tattaglia	-10.002
▁terrific	-10.002
▁undercover	-10.002
▁wouid	-10.002
▁mouse	-10.002
▁starving	-10.002
▁sicily	-10.002
▁briefcase	-10.002
▁coincidence	-10.002
▁marquis	-10.002
▁couch	-10.002
▁decent	-10.002
▁auction	-10.002
▁eliza	-10.002
▁companies	-10.002
▁vamos	-10.002
▁whatre	-10.002
▁extreme	-10.002
▁fox	-10.002
▁punk	-10.002
▁peggy	-10.0021
▁possession	-10.0021
▁available	-10.0021
▁godfather	-10.0021
▁takin	-10.0021
▁minton	-10.0021
▁planning	-10.0022
▁cmon	-10.0022
▁plain	-10.0023
▁bail	-10.0023
▁cr	-10.0023
▁rude	-10.0023
▁skinny	-10.0023
▁grandpa	-10.0024
▁safety	-10.0028
▁directly	-10.003
▁reasonable	-10.003
▁gay	-10.0032
▁serve	-10.0033
theme	-10.0034
▁cutting	-10.0037
▁shy	-10.005
ally	-10.0065
ish	-10.0067
▁brains	-10.0071
▁moves	-10.0081
▁mentioned	-10.0084
ul	-10.0098
▁reported	-10.0101
▁towards	-10.0103
▁mere	-10.0115
▁sim	-10.0119
▁chips	-10.012
▁honk	-10.013
side	-10.0132
▁offered	-10.0135
▁lover	-10.0137
▁jam	-10.0142
▁fu	-10.0145
▁events	-10.0151
ng	-10.0151
▁tool	-10.0171
hi	-10.0224
▁movies	-10.0243
▁tan	-10.0256
▁victor	-10.0268
▁banker	-10.0282
▁appear	-10.0289
▁robber	-10.0294
ts	-10.0295
▁trap	-10.0304
▁kennedy	-10.0305
▁toilet	-10.0309
▁chick	-10.0309
▁spider	-10.0311
▁profit	-10.0314
▁duck	-10.0316
▁shotgun	-10.0319
▁winter	-10.0322
▁member	-10.0322
▁wave	-10.0324
▁corpse	-10.0332
▁soldiers	-10.0361
ile	-10.0362
▁trees	-10.0365
▁mis	-10.0374
▁smith	-10.0393
▁scar	-10.0409
▁incident	-10.0421
ens	-10.0433
▁suits	-10.045
▁bless	-10.0454
za	-10.0458
boy	-10.0469
▁comfort	-10.0473
▁speed	-10.0474
▁kiii	-10.0474
▁iook	-10.0478
▁value	-10.0499
▁convince	-10.0499
▁mood	-10.0502
▁refuse	-10.0506
▁martin	-10.0511
▁europe	-10.0518
▁institution	-10.0519
▁belfort	-10.052
▁bollocks	-10.052
▁champagne	-10.052
▁expert	-10.052
▁impressive	-10.052
▁plastic	-10.052
▁routine	-10.052
▁tuddy	-10.052
▁willoughby	-10.052
▁marcus	-10.052
▁behalf	-10.052
▁beckett	-10.052
▁gordie	-10.052
▁including	-10.052
▁solomon	-10.052
▁golf	-10.052
▁becoming	-10.052
▁planned	-10.052
▁pablo	-10.052
▁pregnant	-10.052
▁romantic	-10.052
▁joking	-10.052
▁kevin	-10.052
▁onto	-10.052
▁technically	-10.0521
▁basement	-10.0521
▁spare	-10.0522
▁friendship	-10.0522
▁mais	-10.0522
▁plantation	-10.0522
▁piano	-10.0522
▁humming	-10.0523
▁capable	-10.0523
▁owned	-10.0523
▁text	-10.0523
▁eron	-10.0524
▁title	-10.0525
▁whip	-10.0525
▁whod	-10.0525
▁yearold	-10.0528
▁chase	-10.0532
berry	-10.0538
▁physical	-10.0543
▁destroyed	-10.0557
our	-10.056
▁cats	-10.0562
▁lower	-10.0564
▁boats	-10.0567
▁writer	-10.0569
▁taiking	-10.0588
▁til	-10.0589
▁mustve	-10.0596
▁carrie	-10.0598
▁moe	-10.0607
que	-10.0611
▁parked	-10.0612
▁nos	-10.0623
▁ad	-10.0627
▁trained	-10.0649
▁fishing	-10.0661
▁ra	-10.0689
▁ela	-10.0699
ac	-10.0708
▁photos	-10.0711
▁members	-10.0721
▁appears	-10.0722
▁strip	-10.0727
▁val	-10.0735
▁sp	-10.076
▁touched	-10.0763
king	-10.0768
▁bones	-10.077
▁mil	-10.0774
▁throwing	-10.0775
▁guests	-10.0795
▁fee	-10.0803
▁banks	-10.0818
om	-10.082
▁tiger	-10.0831
▁marshal	-10.0833
▁circle	-10.084
▁faggot	-10.0841
▁mexican	-10.0844
▁photo	-10.0848
▁teacher	-10.086
▁mel	-10.0864
▁becomes	-10.0864
▁era	-10.0874
ors	-10.0933
▁surf	-10.0945
▁collect	-10.0947
▁complain	-10.0963
▁le	-10.097
▁hack	-10.0979
▁walks	-10.0985
▁study	-10.1008
mos	-10.1009
▁ap	-10.1011
▁dispatch	-10.1013
▁fail	-10.1017
▁spray	-10.1023
▁ci	-10.1024
▁assure	-10.1032
▁obvious	-10.1034
▁virgin	-10.1042
▁bush	-10.1045
▁brief	-10.1046
▁heip	-10.1046
▁authorities	-10.1046
▁bounty	-10.1046
▁chicago	-10.1046
▁corliss	-10.1046
▁dawn	-10.1046
▁excellent	-10.1046
▁goldfarb	-10.1046
▁jersey	-10.1046
▁messiah	-10.1046
▁ofelia	-10.1046
▁ralph	-10.1046
▁responsibility	-10.1046
▁shrink	-10.1046
▁swallow	-10.1046
▁thief	-10.1046
▁tyrone	-10.1046
▁chancellor	-10.1046
▁footsteps	-10.1046
▁jimmie	-10.1046
▁naomi	-10.1046
▁papi	-10.1046
▁mildred	-10.1046
▁indio	-10.1046
▁rope	-10.1046
▁scumbag	-10.1046
▁student	-10.1046
▁community	-10.1046
▁opened	-10.1046
▁testify	-10.1046
▁psychiatrist	-10.1046
▁argue	-10.1046
▁jules	-10.1046
▁motion	-10.1047
▁basic	-10.1047
▁isto	-10.1047
▁lean	-10.1047
▁supper	-10.1048
▁bible	-10.1048
▁role	-10.1048
▁towel	-10.1048
▁youse	-10.1048
▁princess	-10.1049
▁rumor	-10.1049
▁asha	-10.1049
▁organized	-10.1051
▁vision	-10.1052
▁confused	-10.1052
▁spoken	-10.1055
▁deny	-10.1056
▁lapd	-10.106
▁tend	-10.1061
▁received	-10.1061
▁fuckedup	-10.1061
▁deck	-10.1061
▁pit	-10.1062
▁tower	-10.1067
▁actor	-10.1067
▁sandy	-10.1069
▁ira	-10.1072
▁failed	-10.1076
▁estava	-10.1083
▁cow	-10.1084
lam	-10.1089
▁sobs	-10.1093
▁cases	-10.1105
▁lo	-10.1112
▁pai	-10.1122
▁sing	-10.1124
▁sheets	-10.1128
ped	-10.1135
▁jackie	-10.1141
▁hairy	-10.1146
che	-10.1154
▁expected	-10.1162
▁burning	-10.1182
▁dreaming	-10.1215
▁issues	-10.1215
▁minds	-10.1227
▁image	-10.1228
▁prisoners	-10.1258
▁cook	-10.1267
▁cares	-10.128
low	-10.1313
▁showing	-10.1316
▁strangers	-10.1318
▁anti	-10.132
▁bets	-10.1328
▁victoria	-10.1332
▁seu	-10.1334
back	-10.134
bs	-10.1341
▁bum	-10.1349
▁rate	-10.1363
▁carlo	-10.1364
▁scream	-10.1366
▁cheer	-10.1373
▁servant	-10.1391
▁royal	-10.1394
▁coisa	-10.1395
▁chopper	-10.1397
▁gook	-10.14
▁doll	-10.1408
▁smells	-10.1412
▁leader	-10.1428
pe	-10.1433
▁led	-10.144
▁ended	-10.1451
▁fi	-10.1463
▁dan	-10.1465
▁perform	-10.1467
▁prisoner	-10.1477
▁speaker	-10.1505
▁mei	-10.1517
▁goddamned	-10.1519
▁to	-10.1525
▁stores	-10.1528
▁solid	-10.1539
mon	-10.1541
▁spook	-10.1552
▁machines	-10.1555
▁screech	-10.156
ise	-10.1561
▁doctors	-10.1564
▁direct	-10.1568
▁tin	-10.1571
▁mix	-10.1572
▁assault	-10.1572
▁childs	-10.1577
▁wipe	-10.1581
▁aiex	-10.1584
▁dirt	-10.1586
▁equal	-10.1588
▁violent	-10.1588
▁particular	-10.159
▁butt	-10.1591
▁aim	-10.1592
▁deposit	-10.1594
▁almighty	-10.1601
▁brilliant	-10.1601
▁chinese	-10.1601
▁circumstances	-10.1601
▁creedy	-10.1601
▁destiny	-10.1601
▁dhazghig	-10.1601
▁district	-10.1601
▁kurtz	-10.1601
▁meredith	-10.1601
▁montana	-10.1601
▁precious	-10.1601
▁professor	-10.1601
▁sarge	-10.1601
▁suicide	-10.1601
▁tattoo	-10.1601
▁vatican	-10.1601
▁ghetto	-10.1601
▁spud	-10.1601
▁racing	-10.1601
▁swiss	-10.1601
▁saving	-10.1601
▁thick	-10.1601
▁england	-10.1602
▁scum	-10.1602
▁internet	-10.1602
▁silent	-10.1602
▁viggo	-10.1602
▁lisa	-10.1602
▁swim	-10.1602
▁flush	-10.1602
▁committed	-10.1602
▁slim	-10.1602
▁construction	-10.1602
▁spoon	-10.1602
▁firing	-10.1602
▁hazen	-10.1602
▁blair	-10.1602
▁legend	-10.1602
▁anger	-10.1603
▁surgery	-10.1603
▁habit	-10.1603
▁blast	-10.1603
▁spell	-10.1604
▁roy	-10.1605
▁jealous	-10.1605
▁castro	-10.1606
▁treatment	-10.1606
▁fuss	-10.1607
▁tries	-10.1608
▁toid	-10.1609
▁homework	-10.1609
▁ciao	-10.161
▁johnson	-10.1613
▁bound	-10.1613
end	-10.1614
▁forty	-10.1615
▁grown	-10.1618
▁clicking	-10.1619
▁naturally	-10.162
▁useless	-10.162
▁jet	-10.1623
▁como	-10.1623
▁passion	-10.1623
▁dads	-10.1626
▁bend	-10.1627
▁bleeding	-10.1633
▁blown	-10.1634
▁junkie	-10.1636
▁warning	-10.1643
▁leads	-10.1644
ight	-10.1653
▁dumped	-10.1664
▁squeeze	-10.1664
▁va	-10.1665
▁jingles	-10.1665
▁he	-10.1665
▁bombing	-10.1667
▁su	-10.1673
▁painting	-10.1678
▁buzzing	-10.1679
▁jumped	-10.1682
▁merci	-10.1687
▁diet	-10.1687
▁planet	-10.1691
▁slams	-10.1699
▁brand	-10.1702
▁covered	-10.1702
▁schedule	-10.1705
▁ti	-10.1714
▁cabin	-10.1733
▁manners	-10.1735
▁kissed	-10.1735
ort	-10.1738
▁tracks	-10.1746
▁knocked	-10.1747
▁thin	-10.179
▁odds	-10.1793
▁riding	-10.1794
▁ja	-10.1808
▁gosh	-10.1809
▁naive	-10.1812
▁er	-10.1816
▁tears	-10.185
▁thee	-10.1855
▁rolling	-10.1857
▁trucks	-10.1884
▁meaning	-10.1893
ca	-10.1895
▁gal	-10.1924
▁phones	-10.1927
▁gates	-10.1934
ns	-10.1937
▁goal	-10.1945
uc	-10.1945
▁represent	-10.1945
▁limit	-10.1946
uck	-10.1951
gr	-10.1972
▁route	-10.1975
▁note	-10.1976
▁lifeguard	-10.1979
▁touching	-10.1979
▁occasion	-10.1982
▁individual	-10.1984
▁wallet	-10.1985
▁odd	-10.1991
▁reporter	-10.2016
▁williams	-10.2041
▁prime	-10.2049
▁lee	-10.2053
▁har	-10.2056
▁luca	-10.2065
▁cleaning	-10.2091
▁or	-10.2093
ki	-10.2098
▁pl	-10.2105
▁bull	-10.2125
▁crush	-10.2144
▁drag	-10.2148
▁yup	-10.2152
▁charm	-10.2166
▁advance	-10.2168
▁piease	-10.2168
▁create	-10.2169
▁scott	-10.2171
▁iron	-10.2175
▁stretch	-10.2175
▁range	-10.2175
▁sudden	-10.2178
▁desperate	-10.2178
▁threat	-10.218
▁merr	-10.218
▁bow	-10.2184
▁pipe	-10.2187
▁loyal	-10.2188
▁ruth	-10.2189
▁leak	-10.2189
▁crucifixion	-10.219
▁dufresne	-10.219
▁epps	-10.219
▁fenster	-10.219
▁garnett	-10.219
▁judgment	-10.219
▁knauer	-10.219
▁leparq	-10.219
▁liquor	-10.219
▁macready	-10.219
▁maximus	-10.219
▁norcut	-10.219
▁pizza	-10.219
▁political	-10.219
▁possibly	-10.219
▁rebecca	-10.219
▁reckon	-10.219
▁response	-10.219
▁speech	-10.219
▁surveillance	-10.219
▁presence	-10.219
▁laura	-10.219
▁slept	-10.219
▁nightmare	-10.219
▁wives	-10.219
▁apology	-10.219
▁denni	-10.219
▁explosion	-10.219
▁jones	-10.219
▁championship	-10.219
▁opposite	-10.219
▁kidnapped	-10.219
▁bored	-10.219
▁blake	-10.219
▁addition	-10.219
▁basically	-10.219
▁candyland	-10.219
▁hahaha	-10.219
▁canary	-10.219
▁indian	-10.2191
▁package	-10.2191
▁thirty	-10.2191
▁magazine	-10.2191
▁practical	-10.2191
ti	-10.2191
▁poker	-10.2191
▁emotional	-10.2192
▁factory	-10.2192
▁raid	-10.2192
▁salad	-10.2192
▁electric	-10.2192
▁moron	-10.2192
▁loyalty	-10.2192
▁complicated	-10.2193
▁giant	-10.2193
▁intend	-10.2194
▁mistress	-10.2194
▁porch	-10.2194
▁fetch	-10.2194
▁avi	-10.2195
▁serk	-10.2195
▁grandma	-10.2195
▁colin	-10.2195
▁operate	-10.22
▁embarrassing	-10.2201
▁singer	-10.2203
▁facing	-10.2203
▁reai	-10.2204
tion	-10.2208
▁director	-10.2208
▁linda	-10.221
▁whispering	-10.2211
▁robbed	-10.2214
▁served	-10.2215
▁registered	-10.222
▁passes	-10.222
▁sally	-10.2223
▁normally	-10.2228
▁deeper	-10.2233
▁manage	-10.2245
▁reached	-10.2251
▁stacks	-10.2257
▁meantime	-10.2258
▁remembered	-10.2262
▁drawing	-10.2264
▁oid	-10.2266
ada	-10.2276
zz	-10.2279
▁hits	-10.2288
▁protected	-10.2297
▁attacked	-10.2303
iest	-10.2331
▁returned	-10.2335
▁protecting	-10.2335
▁stealing	-10.2338
sse	-10.2344
▁lack	-10.2347
dy	-10.2374
▁casinos	-10.2379
▁mass	-10.2381
ph	-10.2385
▁bug	-10.2386
▁pile	-10.2405
▁pee	-10.2409
▁ao	-10.242
▁services	-10.2428
▁mc	-10.2441
▁blowing	-10.2471
▁steps	-10.2476
▁reasons	-10.2479
▁gra	-10.2503
▁dealers	-10.2526
▁freak	-10.2527
▁beating	-10.2531
wa	-10.2534
day	-10.2537
▁me	-10.2559
▁leaves	-10.2561
▁register	-10.2573
ak	-10.26
▁suitcase	-10.2609
▁clown	-10.2612
▁rabbit	-10.2615
▁issue	-10.2616
▁france	-10.2619
▁moments	-10.2626
▁breaks	-10.2687
ga	-10.2693
br	-10.2698
▁es	-10.2701
▁spit	-10.2704
▁matters	-10.2725
▁hundreds	-10.2739
▁everyones	-10.275
▁spa	-10.2751
vi	-10.2756
▁sol	-10.2758
▁cast	-10.2759
board	-10.2762
ize	-10.2769
▁commission	-10.277
▁assassin	-10.2783
▁insist	-10.2783
▁smash	-10.2783
▁wrap	-10.2785
▁noon	-10.2785
▁whack	-10.2786
res	-10.2796
▁warn	-10.2799
▁butch	-10.28
ab	-10.2802
▁grant	-10.2803
▁phil	-10.2803
just	-10.2804
▁weigh	-10.2805
▁kara	-10.281
▁spin	-10.2811
▁chose	-10.2811
ov	-10.2812
mer	-10.2813
▁effect	-10.2813
▁transfer	-10.2814
▁specific	-10.2814
▁accent	-10.2815
▁alessandra	-10.2815
▁barzini	-10.2815
▁brooklyn	-10.2815
▁budapest	-10.2815
▁collignon	-10.2815
▁courage	-10.2815
▁cypher	-10.2815
▁energy	-10.2815
▁medicine	-10.2815
▁miserable	-10.2815
▁paddy	-10.2815
▁patrol	-10.2815
▁peopie	-10.2815
▁zsasz	-10.2815
▁coast	-10.2815
▁intelligence	-10.2815
▁boris	-10.2815
▁effort	-10.2815
▁meyer	-10.2815
▁merrily	-10.2815
▁pension	-10.2815
▁zeena	-10.2815
▁organization	-10.2815
▁pathetic	-10.2815
▁poiice	-10.2815
▁twentyfive	-10.2815
▁stiff	-10.2815
▁regard	-10.2815
▁alpha	-10.2815
▁boogie	-10.2815
▁washington	-10.2815
▁exercise	-10.2815
▁tuco	-10.2816
▁fence	-10.2816
▁false	-10.2816
▁ramos	-10.2816
▁madden	-10.2816
▁judea	-10.2816
▁anne	-10.2816
▁wagon	-10.2817
▁diaz	-10.2817
▁bruno	-10.2817
▁silver	-10.2817
▁fever	-10.2818
▁barish	-10.2818
▁fraud	-10.2818
▁dover	-10.2818
▁alley	-10.2818
▁dna	-10.2819
▁snitch	-10.2819
▁struck	-10.2819
▁chosen	-10.282
▁nearby	-10.282
▁monster	-10.282
▁thatd	-10.2821
▁personality	-10.2821
▁guide	-10.2821
▁exclaims	-10.2822
▁embarrassed	-10.2823
▁barry	-10.2824
▁thou	-10.2824
▁quote	-10.2827
▁toe	-10.2831
▁connected	-10.2833
▁instructions	-10.2835
▁suffered	-10.2835
▁retired	-10.2836
▁former	-10.2837
▁denied	-10.2837
▁unable	-10.2839
▁agora	-10.2839
▁carried	-10.284
▁bars	-10.2842
▁flip	-10.2845
▁faces	-10.2855
▁ruined	-10.2857
▁dust	-10.2865
▁hire	-10.2868
▁redhead	-10.2871
▁based	-10.2871
▁stronger	-10.2871
▁patients	-10.2874
▁screwed	-10.2874
▁washed	-10.288
▁realized	-10.2885
▁hills	-10.2887
▁nu	-10.289
▁treated	-10.2897
▁ir	-10.2901
▁hip	-10.2904
▁sides	-10.2907
▁walkin	-10.2909
▁coughs	-10.2913
▁ate	-10.2919
▁considering	-10.2932
▁honored	-10.2936
▁stones	-10.294
▁younger	-10.2944
tory	-10.2956
▁roses	-10.2957
▁wing	-10.2984
▁marian	-10.3002
▁bugs	-10.3006
▁hunting	-10.3013
▁fo	-10.3014
bo	-10.3048
ze	-10.3053
▁carlos	-10.306
▁dea	-10.3082
sta	-10.3117
▁rap	-10.3121
▁marks	-10.3122
▁jos	-10.3137
▁fate	-10.314
bit	-10.3156
▁someones	-10.3175
▁pi	-10.3182
▁apple	-10.3196
ball	-10.3213
▁interrupt	-10.3231
▁beep	-10.3242
▁cha	-10.3261
▁daniel	-10.3273
ci	-10.3276
▁intention	-10.3276
▁document	-10.3278
▁result	-10.3279
▁loan	-10.328
▁damned	-10.3281
▁broad	-10.3283
▁depend	-10.3283
▁lane	-10.3284
▁toy	-10.3285
▁fort	-10.3291
▁ne	-10.3293
▁coin	-10.3297
tter	-10.3301
▁flower	-10.3314
ied	-10.3331
▁sa	-10.3335
▁murderer	-10.3347
▁loser	-10.3354
▁queens	-10.3375
▁cocks	-10.3383
fuck	-10.3389
▁ab	-10.3393
▁checking	-10.3402
ke	-10.3419
what	-10.3434
▁nut	-10.3434
foot	-10.3435
▁respond	-10.3438
▁scratch	-10.3438
▁smooth	-10.344
▁bowl	-10.3444
▁challenge	-10.3459
▁separate	-10.3459
▁doug	-10.346
▁faint	-10.3468
▁madam	-10.3475
▁cuba	-10.3476
▁candy	-10.3479
▁civil	-10.348
▁stab	-10.348
▁arbogast	-10.3481
▁awesome	-10.3481
▁becca	-10.3481
▁carlisle	-10.3481
▁catherine	-10.3481
▁concentrate	-10.3481
▁destination	-10.3481
▁dynamite	-10.3481
▁easily	-10.3481
▁fashion	-10.3481
▁holiday	-10.3481
▁innit	-10.3481
▁leprechaun	-10.3481
▁lobby	-10.3481
▁lundegaard	-10.3481
▁mechanic	-10.3481
▁melissa	-10.3481
▁moustafa	-10.3481
▁nonsense	-10.3481
▁offense	-10.3481
▁paranoid	-10.3481
▁piace	-10.3481
▁popular	-10.3481
▁random	-10.3481
▁reputation	-10.3481
▁revving	-10.3481
▁sahib	-10.3481
▁switzerland	-10.3481
▁tangiers	-10.3481
▁volunteer	-10.3481
▁wednesday	-10.3481
▁whiskey	-10.3481
▁byebye	-10.3481
▁ernie	-10.3481
▁lardass	-10.3481
▁whimpers	-10.3481
▁defence	-10.3481
▁alexander	-10.3481
▁theory	-10.3481
▁option	-10.3481
▁martinez	-10.3482
▁cocaine	-10.3482
▁superstar	-10.3482
▁temptation	-10.3482
▁jazz	-10.3482
▁lalala	-10.3482
▁finch	-10.3482
▁auto	-10.3482
▁incoming	-10.3482
▁naughty	-10.3482
▁memories	-10.3482
▁omar	-10.3482
▁trapped	-10.3482
▁costume	-10.3482
▁cabinet	-10.3482
▁jason	-10.3482
▁frozen	-10.3483
▁burger	-10.3483
▁fuel	-10.3483
▁inch	-10.3483
▁growling	-10.3483
▁behavior	-10.3483
▁culture	-10.3483
▁reaction	-10.3483
▁revolution	-10.3483
▁escort	-10.3483
▁shep	-10.3483
▁european	-10.3484
▁math	-10.3484
▁handsome	-10.3484
▁pub	-10.3485
▁haha	-10.3485
▁refer	-10.3486
▁screen	-10.3486
▁jurisdiction	-10.3486
▁palm	-10.3487
▁nasty	-10.3488
▁receiver	-10.3489
▁wrapped	-10.3489
▁pancakes	-10.3489
▁pole	-10.3491
▁sword	-10.3491
▁deke	-10.3491
▁niggas	-10.3491
▁plug	-10.3492
▁task	-10.3492
▁caine	-10.3493
▁blonde	-10.3494
▁betty	-10.3495
▁zoo	-10.3497
▁madame	-10.3498
▁tense	-10.35
▁visitor	-10.3501
▁scary	-10.3503
▁germans	-10.3506
▁hitting	-10.3508
▁remo	-10.3508
▁erase	-10.3509
▁dean	-10.3511
▁mud	-10.3511
▁warned	-10.3514
▁prize	-10.3515
▁explosives	-10.3516
▁clip	-10.3517
▁here	-10.3518
▁charming	-10.3529
▁lifetime	-10.3531
▁italians	-10.3532
▁campo	-10.354
▁nest	-10.3557
▁lungs	-10.3572
▁dime	-10.3578
ning	-10.3586
▁stinks	-10.3587
▁fairy	-10.3587
▁nation	-10.3589
▁mayor	-10.3596
▁lighter	-10.3597
▁oi	-10.3601
▁gar	-10.3611
▁neighbors	-10.3615
▁highly	-10.3615
▁tag	-10.3626
▁shouts	-10.363
▁spic	-10.3637
tes	-10.3639
ct	-10.3647
ber	-10.3663
▁thoughts	-10.3675
▁mi	-10.3684
▁messages	-10.3685
▁backup	-10.3688
▁gut	-10.3697
▁rod	-10.3698
▁ros	-10.3702
▁toes	-10.3703
▁ofthe	-10.3743
▁ou	-10.3748
▁counting	-10.3761
▁stands	-10.3774
▁sports	-10.3785
▁workin	-10.3789
onde	-10.3804
▁fuckers	-10.3805
▁grounds	-10.3812
▁ze	-10.3829
cu	-10.384
▁ph	-10.3876
▁bills	-10.3879
▁sales	-10.3886
▁shite	-10.3903
▁deals	-10.3927
▁caused	-10.3936
▁rec	-10.3937
▁listened	-10.3944
▁interests	-10.3947
▁talent	-10.3954
gu	-10.3957
▁sco	-10.3972
▁roads	-10.398
▁experiment	-10.3983
▁pikey	-10.3987
▁fontaine	-10.3992
▁maria	-10.3992
▁wifes	-10.3995
▁che	-10.4004
▁pode	-10.4012
▁waited	-10.4014
gen	-10.4018
▁fal	-10.4049
▁bent	-10.4055
▁vehicles	-10.406
▁ye	-10.4068
▁rep	-10.4108
▁shock	-10.4122
▁tow	-10.4131
ock	-10.4148
tle	-10.4151
tempo	-10.4153
▁bleed	-10.4155
▁drill	-10.4156
shit	-10.4163
▁twist	-10.4166
▁receive	-10.4167
▁feei	-10.417
▁financial	-10.4181
▁urgent	-10.4182
ole	-10.4183
▁unlike	-10.4184
▁gordo	-10.4191
▁prince	-10.4192
▁commit	-10.4193
▁brutal	-10.4194
▁breast	-10.4194
▁dismiss	-10.4196
▁ambush	-10.4196
▁polish	-10.4196
▁prevent	-10.4196
▁aggressive	-10.4196
▁altobello	-10.4196
▁bonjour	-10.4196
▁conflict	-10.4196
▁dorothy	-10.4196
▁dread	-10.4196
▁female	-10.4196
▁ferrari	-10.4196
▁identity	-10.4196
▁mafia	-10.4196
▁ordinary	-10.4196
▁paradise	-10.4196
▁pulse	-10.4196
▁randazzo	-10.4196
▁recognise	-10.4196
▁scattered	-10.4196
▁someday	-10.4196
▁tragedy	-10.4196
▁vargas	-10.4196
▁wladek	-10.4196
▁collins	-10.4196
▁courtesan	-10.4196
▁iife	-10.4196
▁steel	-10.4196
▁mackenzie	-10.4196
▁demany	-10.4196
▁fisk	-10.4196
▁extraordinary	-10.4196
▁fantasy	-10.4196
▁sample	-10.4196
▁toast	-10.4196
▁yourseif	-10.4196
▁division	-10.4196
▁snake	-10.4196
▁venice	-10.4196
▁loving	-10.4196
▁tolan	-10.4196
▁cirk	-10.4196
▁burke	-10.4196
▁solando	-10.4196
▁willard	-10.4196
▁hmong	-10.4196
▁studio	-10.4196
▁granny	-10.4196
▁smiling	-10.4196
▁bacon	-10.4196
▁greek	-10.4196
▁donny	-10.4196
▁chat	-10.4196
▁slice	-10.4196
▁jiro	-10.4196
▁bingo	-10.4196
▁negative	-10.4196
▁wherever	-10.4197
▁grandmother	-10.4197
▁pierce	-10.4197
▁edge	-10.4197
▁quinn	-10.4197
▁legitimate	-10.4197
▁chaos	-10.4197
▁gourd	-10.4197
▁reservation	-10.4197
▁section	-10.4198
▁childhood	-10.4198
▁willie	-10.4198
▁guardsmen	-10.4198
▁whale	-10.4198
▁vow	-10.4199
▁dj	-10.4199
▁blondie	-10.4199
▁unload	-10.4199
▁shelley	-10.4199
▁link	-10.4199
▁booze	-10.4201
▁gain	-10.4201
▁facility	-10.4201
▁sail	-10.4201
▁wore	-10.4201
▁soup	-10.4202
▁grabbed	-10.4202
▁jamie	-10.4202
▁wholl	-10.4204
▁bout	-10.4204
▁discussion	-10.4204
▁narc	-10.4206
▁quid	-10.4208
▁heiio	-10.4208
▁highness	-10.421
▁moaning	-10.421
▁butter	-10.4211
▁digging	-10.4212
▁uhoh	-10.4213
▁ability	-10.4213
▁les	-10.4213
▁gray	-10.4214
▁cried	-10.4216
▁tiny	-10.4217
▁threatened	-10.4217
▁inhales	-10.4219
▁victory	-10.4219
▁successful	-10.422
▁mia	-10.422
▁managed	-10.4221
▁dana	-10.4222
▁owl	-10.4224
▁mor	-10.4224
▁knowledge	-10.4226
▁pity	-10.4227
▁tracey	-10.4228
▁cured	-10.4229
▁removed	-10.423
▁powers	-10.4232
▁it	-10.4233
▁celtics	-10.4233
fyou	-10.424
▁rag	-10.4241
▁hood	-10.4246
▁understanding	-10.4247
▁roberto	-10.4249
▁shooter	-10.4255
▁whoops	-10.426
▁my	-10.4263
▁comic	-10.4265
▁lu	-10.4267
▁cracked	-10.4273
▁reports	-10.4274
▁sniffs	-10.428
▁belly	-10.4281
▁commander	-10.4285
▁considered	-10.4294
▁mountains	-10.4295
ya	-10.43
▁lit	-10.4308
▁tales	-10.4308
▁souls	-10.4312
▁lips	-10.4324
▁elvis	-10.4339
▁makeup	-10.434
iu	-10.4346
▁brakes	-10.4354
▁cents	-10.4355
▁tons	-10.4356
▁bats	-10.4356
▁signor	-10.4366
▁tryin	-10.4366
ano	-10.438
ative	-10.4388
▁sn	-10.439
▁ol	-10.4393
ill	-10.4395
▁yi	-10.4403
▁robb	-10.4414
▁boxing	-10.4445
▁don	-10.4447
▁spending	-10.4453
▁ty	-10.4458
oh	-10.4458
tra	-10.4463
▁chances	-10.4472
▁admire	-10.4472
▁of	-10.4477
▁tr	-10.4487
▁speakers	-10.4502
▁engineer	-10.4507
▁marines	-10.4523
▁killa	-10.4558
ney	-10.4562
ide	-10.4568
ub	-10.4573
▁seats	-10.4592
abie	-10.4595
▁dist	-10.4614
▁pan	-10.4676
▁lad	-10.4699
▁tre	-10.4718
▁br	-10.4719
▁tu	-10.472
▁whores	-10.4726
▁hurting	-10.4726
▁print	-10.4728
▁lap	-10.4736
▁ve	-10.4747
▁olive	-10.4752
▁kidnapping	-10.4752
▁pattern	-10.4754
▁uniform	-10.4757
▁civilian	-10.4758
▁bodyguard	-10.4759
▁nerve	-10.4759
▁eyeball	-10.4763
▁bond	-10.4765
▁miller	-10.4766
▁buck	-10.4768
▁beside	-10.477
▁billion	-10.4776
▁blocks	-10.4793
▁string	-10.4797
ndo	-10.4801
▁tent	-10.4812
▁rape	-10.4813
ky	-10.4814
▁fre	-10.4817
▁environment	-10.4823
▁ac	-10.4828
▁dar	-10.4851
can	-10.4859
ping	-10.4864
▁stays	-10.4872
▁panic	-10.4873
▁boot	-10.4874
▁dim	-10.4878
▁gam	-10.4882
unca	-10.4882
▁cowboys	-10.4883
▁photograph	-10.4896
les	-10.4919
▁stress	-10.4934
car	-10.4938
▁hid	-10.4938
▁hustle	-10.494
▁purchase	-10.4942
▁porqu	-10.4943
▁log	-10.4943
▁describe	-10.4946
▁char	-10.4947
▁unfortunate	-10.4953
▁sayin	-10.4958
▁superhero	-10.4958
▁foreign	-10.4961
▁symbol	-10.4961
▁sittin	-10.4962
▁grocer	-10.4962
▁debora	-10.4963
▁resist	-10.4964
▁zip	-10.4965
▁on	-10.4965
▁approve	-10.4965
▁avenue	-10.4965
▁beethoven	-10.4965
▁belfast	-10.4965
▁beneath	-10.4965
▁caravan	-10.4965
▁century	-10.4965
▁certificate	-10.4965
▁despite	-10.4965
▁eagle	-10.4965
▁empire	-10.4965
▁harvard	-10.4965
▁havana	-10.4965
▁impressed	-10.4965
▁investigating	-10.4965
▁karras	-10.4965
▁liberty	-10.4965
▁llewelyn	-10.4965
▁lopez	-10.4965
▁multiple	-10.4965
▁negotiate	-10.4965
▁oracle	-10.4965
▁pembry	-10.4965
▁shaw	-10.4965
▁society	-10.4965
▁straw	-10.4965
▁stroke	-10.4965
▁talvez	-10.4965
▁theater	-10.4965
▁trauma	-10.4965
▁typical	-10.4965
▁uncomfortable	-10.4965
▁valuable	-10.4965
▁vaughn	-10.4965
▁vengeance	-10.4965
▁vomit	-10.4965
▁apply	-10.4965
▁ballister	-10.4965
▁caretaker	-10.4965
▁carolyn	-10.4965
▁nylon	-10.4965
▁polite	-10.4965
▁spleen	-10.4965
▁warehouse	-10.4965
▁hysterical	-10.4965
▁reverse	-10.4965
▁santino	-10.4965
▁ransom	-10.4965
▁december	-10.4965
▁todd	-10.4965
▁errol	-10.4965
▁freezing	-10.4965
▁satisfaction	-10.4965
▁underwear	-10.4965
▁anxious	-10.4965
▁flew	-10.4965
▁activity	-10.4965
▁monaco	-10.4965
▁jeff	-10.4965
▁revs	-10.4965
▁stabbed	-10.4965
▁combat	-10.4965
▁flare	-10.4965
▁medium	-10.4965
▁cooperation	-10.4965
▁chanting	-10.4965
▁transferred	-10.4966
▁sharon	-10.4966
▁southern	-10.4966
▁potential	-10.4966
▁imagination	-10.4966
▁massage	-10.4966
▁birth	-10.4966
▁zone	-10.4966
▁review	-10.4966
▁basis	-10.4966
▁library	-10.4966
▁geek	-10.4966
▁whatll	-10.4966
▁speck	-10.4966
▁todo	-10.4966
▁smack	-10.4967
▁management	-10.4967
▁cripple	-10.4967
▁laundry	-10.4967
▁cheque	-10.4967
▁drew	-10.4967
▁award	-10.4967
▁armand	-10.4968
▁pitch	-10.4968
▁amigo	-10.4968
▁subway	-10.4968
▁objection	-10.4968
▁alguma	-10.4968
▁flag	-10.4969
▁robbie	-10.4969
▁swell	-10.4969
▁moral	-10.4969
▁dings	-10.4969
▁bud	-10.497
▁brass	-10.497
▁chocolate	-10.497
▁sensitive	-10.497
▁impression	-10.497
▁gordon	-10.497
▁conduct	-10.4971
▁barker	-10.4971
▁liver	-10.4971
▁hideout	-10.4971
▁punish	-10.4972
▁choke	-10.4972
▁spill	-10.4973
▁recently	-10.4973
▁vari	-10.4974
▁wiseguys	-10.4974
▁chew	-10.4974
▁momma	-10.4974
▁halfway	-10.4974
▁taxes	-10.4976
▁bench	-10.4976
▁satisfied	-10.4977
▁cave	-10.4979
▁stable	-10.4979
▁frightened	-10.4983
▁plank	-10.4983
▁fold	-10.4986
▁betrayed	-10.4988
▁fried	-10.4988
▁related	-10.4988
hood	-10.4989
▁creaks	-10.499
▁properly	-10.499
▁mall	-10.4991
▁betsy	-10.4991
▁created	-10.4992
▁louder	-10.4996
▁threatening	-10.4999
▁divorced	-10.5002
▁freeway	-10.5005
▁thuds	-10.5006
▁nickel	-10.5009
▁finds	-10.5012
▁reality	-10.5015
▁noone	-10.5015
▁pork	-10.5017
▁released	-10.502
▁settled	-10.502
▁tellin	-10.5022
▁teamsters	-10.5022
▁troops	-10.5022
▁cooking	-10.5025
▁quicker	-10.5031
room	-10.5037
▁belonged	-10.5038
▁clouds	-10.5038
▁politicians	-10.5038
▁tate	-10.504
▁helpful	-10.5042
▁y	-10.5043
▁foundation	-10.5045
▁busted	-10.5045
fire	-10.5045
ory	-10.506
▁we	-10.5061
▁earl	-10.5068
▁gr	-10.5073
▁bothering	-10.508
ung	-10.5084
▁ficar	-10.5084
yman	-10.5093
▁z	-10.5106
ag	-10.5109
▁watches	-10.5117
▁cable	-10.5132
nior	-10.5133
▁counter	-10.5142
▁pushing	-10.515
▁pet	-10.5168
▁tri	-10.5195
▁pulls	-10.5252
▁ey	-10.5254
▁mini	-10.5264
▁mistakes	-10.5272
▁needle	-10.5297
ah	-10.5304
▁nails	-10.5305
▁seek	-10.5324
▁clubs	-10.5341
▁deai	-10.5348
ical	-10.535
▁bra	-10.5357
fi	-10.5382
lly	-10.5385
ux	-10.5388
gie	-10.5394
zo	-10.5395
lia	-10.5397
ities	-10.5409
nel	-10.5417
over	-10.5443
tal	-10.545
▁badly	-10.5458
▁thr	-10.547
▁sets	-10.5483
den	-10.5499
▁ship	-10.5505
▁knocks	-10.5515
▁debts	-10.5523
▁tim	-10.5529
tre	-10.5533
▁ge	-10.5568
▁par	-10.5568
ets	-10.5583
▁hostage	-10.5584
▁coward	-10.5589
▁beast	-10.559
▁twin	-10.5591
▁tricks	-10.5592
▁sniper	-10.5595
▁blade	-10.5604
▁str	-10.5623
▁motor	-10.5664
▁smit	-10.5666
▁mau	-10.568
▁deni	-10.5683
▁conditions	-10.5695
▁pleased	-10.5699
▁sabe	-10.5712
▁geez	-10.5713
wood	-10.5716
▁crawl	-10.572
▁manner	-10.5723
▁hop	-10.5723
ain	-10.5723
▁drown	-10.5725
▁event	-10.5734
▁bol	-10.5734
ria	-10.5737
▁norm	-10.5751
▁climb	-10.5752
▁crown	-10.5756
maker	-10.5757
▁accounts	-10.5761
ver	-10.5766
▁confirm	-10.5771
▁success	-10.5773
▁secure	-10.5776
▁invite	-10.5778
▁curse	-10.5778
▁corn	-10.5779
▁blond	-10.578
▁und	-10.5782
▁absolute	-10.5788
▁woo	-10.579
▁maze	-10.5794
▁attend	-10.5796
▁transport	-10.5797
▁swing	-10.5797
▁material	-10.5798
▁bubble	-10.5798
▁miiiion	-10.5798
through	-10.5798
▁adult	-10.5798
▁agatha	-10.5798
▁balance	-10.5798
▁beloved	-10.5798
▁brooks	-10.5798
▁bruv	-10.5798
▁catholic	-10.5798
▁clattering	-10.5798
▁consigliere	-10.5798
▁cotton	-10.5798
▁depois	-10.5798
▁deputy	-10.5798
▁disease	-10.5798
▁embrace	-10.5798
▁franco	-10.5798
▁giggling	-10.5798
▁independent	-10.5798
▁initial	-10.5798
▁invisible	-10.5798
▁kansas	-10.5798
▁kumar	-10.5798
▁lchimonji	-10.5798
▁mierzwiak	-10.5798
▁motorcycle	-10.5798
▁narcotics	-10.5798
▁november	-10.5798
▁politics	-10.5798
▁prostitute	-10.5798
▁rodriguez	-10.5798
▁sempre	-10.5798
▁sonofabitch	-10.5798
▁stereo	-10.5798
▁struggling	-10.5798
▁surgeon	-10.5798
▁sutler	-10.5798
▁terribly	-10.5798
▁volume	-10.5798
▁widow	-10.5798
▁begbie	-10.5798
▁dallas	-10.5798
▁emperor	-10.5798
▁ezra	-10.5798
▁iisten	-10.5798
▁mayhem	-10.5798
▁palace	-10.5798
▁sunshine	-10.5798
▁pedro	-10.5798
▁vagina	-10.5798
▁angle	-10.5798
▁ninth	-10.5798
▁bacall	-10.5798
▁durden	-10.5798
▁medication	-10.5798
▁iast	-10.5798
▁shaking	-10.5798
▁midnight	-10.5798
▁whistling	-10.5798
▁brittle	-10.5798
▁rossi	-10.5798
▁plague	-10.5798
▁proposition	-10.5798
▁eternal	-10.5798
▁burden	-10.5798
▁kobe	-10.5798
▁village	-10.5799
▁session	-10.5799
▁pursuit	-10.5799
▁assistant	-10.5799
▁patsey	-10.5799
▁specifically	-10.5799
▁gamma	-10.5799
▁arsehole	-10.5799
▁councilman	-10.5799
▁sheep	-10.5799
▁conspiracy	-10.5799
▁territory	-10.5799
▁testimony	-10.5799
▁daily	-10.5799
▁humble	-10.5799
▁theft	-10.5799
▁arab	-10.5799
▁protest	-10.5799
▁retirement	-10.5799
▁purse	-10.58
▁selfish	-10.58
▁panties	-10.58
▁puff	-10.58
▁bribe	-10.58
▁kowalski	-10.58
▁hagen	-10.58
▁appeal	-10.5801
▁quando	-10.5801
▁lois	-10.5801
▁element	-10.5801
▁prosecutor	-10.5801
▁huntley	-10.5801
▁terry	-10.5802
cl	-10.5802
▁youth	-10.5802
▁nitro	-10.5802
▁assigned	-10.5802
▁shares	-10.5802
▁booth	-10.5802
▁charity	-10.5803
▁mount	-10.5804
▁possibility	-10.5804
▁rudy	-10.5805
▁dumbass	-10.5806
▁standard	-10.5806
▁convicted	-10.5807
▁stanton	-10.5807
▁hump	-10.5808
▁dolores	-10.5808
▁soda	-10.5809
▁marble	-10.581
▁stepped	-10.581
▁superman	-10.581
▁cane	-10.5814
▁constant	-10.5814
▁eva	-10.5815
▁diner	-10.5815
▁levin	-10.5817
▁willy	-10.5818
▁discovered	-10.5818
▁jay	-10.5824
ire	-10.5824
▁consequences	-10.5825
▁useful	-10.5826
▁mid	-10.5826
▁chen	-10.5827
▁mistaken	-10.583
▁dialing	-10.5833
▁convinced	-10.5833
▁delivery	-10.5835
▁suffering	-10.5837
▁healthy	-10.584
▁firearms	-10.5843
▁mixed	-10.5844
▁bur	-10.5852
▁thrown	-10.5853
▁lend	-10.5859
▁propos	-10.5861
▁nam	-10.5864
▁finest	-10.5868
▁packed	-10.5869
▁skirt	-10.5875
▁bump	-10.5878
▁earned	-10.5893
▁meu	-10.5894
▁employees	-10.5896
▁yelps	-10.5896
▁barn	-10.5898
▁shared	-10.5898
▁smarter	-10.5898
▁stoned	-10.5907
▁chambers	-10.5914
▁requires	-10.5914
▁costs	-10.5915
▁pays	-10.5916
▁vai	-10.5921
▁riot	-10.5925
▁testing	-10.5929
ue	-10.5932
istic	-10.5934
▁sei	-10.5935
▁shitting	-10.5956
▁sw	-10.5967
ow	-10.5973
▁taps	-10.5981
▁messed	-10.5984
▁joely	-10.5986
▁rank	-10.5987
ap	-10.5988
ara	-10.5988
▁rounds	-10.5992
▁blades	-10.6004
▁fully	-10.6021
▁oni	-10.6044
▁frankly	-10.6059
▁jacks	-10.606
q	-10.6068
ways	-10.6074
▁offering	-10.6089
▁au	-10.6097
▁signs	-10.6098
tinha	-10.6101
▁lil	-10.6102
▁sucker	-10.6104
sis	-10.6117
▁nicer	-10.6128
▁bid	-10.6129
▁mexicans	-10.6131
▁uses	-10.6138
▁fe	-10.6142
ousy	-10.6162
ug	-10.6166
▁apples	-10.6176
▁hug	-10.6184
▁content	-10.6188
▁hunter	-10.6213
ora	-10.6222
▁mer	-10.6222
▁wounds	-10.6224
▁manuel	-10.6224
▁severe	-10.6237
▁af	-10.6239
▁lovers	-10.6241
▁iet	-10.6243
▁jokes	-10.6263
▁bas	-10.629
▁answered	-10.6291
▁gene	-10.6293
▁krays	-10.6296
▁officials	-10.6315
▁forms	-10.6349
▁songs	-10.6353
▁exists	-10.6354
▁owners	-10.6371
▁forces	-10.6393
▁sis	-10.6413
▁bat	-10.6421
▁shout	-10.6435
▁tests	-10.6438
▁cho	-10.645
▁term	-10.6462
▁custom	-10.6478
▁repair	-10.6493
▁cent	-10.6495
▁murders	-10.6495
▁procedure	-10.6496
▁tunnel	-10.6496
▁guinea	-10.6499
▁demand	-10.6499
▁idiots	-10.6502
▁candle	-10.6503
▁barrel	-10.6504
▁item	-10.6505
▁arrow	-10.651
▁sock	-10.6512
▁for	-10.6512
▁parent	-10.6513
▁brake	-10.6516
els	-10.6523
▁fredd	-10.6526
ect	-10.6531
▁payment	-10.6537
▁hotels	-10.654
▁fund	-10.654
jo	-10.6545
▁qu	-10.6557
▁mon	-10.6567
▁wo	-10.6581
lon	-10.6583
▁vers	-10.6583
▁ton	-10.6597
▁mag	-10.6605
looking	-10.6635
▁suffer	-10.6635
work	-10.6639
orted	-10.6641
▁flow	-10.665
▁meter	-10.6654
yard	-10.6661
book	-10.6661
▁recruit	-10.6661
field	-10.6662
▁steer	-10.6664
▁millions	-10.6665
▁mill	-10.6666
bag	-10.6668
▁buildings	-10.6668
four	-10.6669
▁foul	-10.6675
▁trail	-10.6676
pin	-10.6678
ford	-10.6681
▁rescue	-10.6685
▁ignore	-10.6689
▁wealth	-10.669
▁guilt	-10.6692
▁marty	-10.6692
▁actual	-10.6694
▁heii	-10.6695
▁rice	-10.6704
▁tomato	-10.6704
▁cruel	-10.6706
▁disrespect	-10.6706
▁iove	-10.6706
▁helen	-10.6707
▁august	-10.6707
▁brush	-10.6707
▁extend	-10.6707
▁wreck	-10.6707
▁appetite	-10.6707
▁arizona	-10.6707
▁baywatch	-10.6707
▁buddha	-10.6707
▁bureau	-10.6707
▁cemetery	-10.6707
▁cortez	-10.6707
▁couid	-10.6707
▁crossbow	-10.6707
▁delicious	-10.6707
▁description	-10.6707
▁desculpa	-10.6707
▁disguise	-10.6707
▁domenico	-10.6707
▁dorrie	-10.6707
▁fanucci	-10.6707
▁furniture	-10.6707
▁generous	-10.6707
▁glorious	-10.6707
▁hector	-10.6707
▁hockney	-10.6707
▁immobiliare	-10.6707
▁industry	-10.6707
▁intelligent	-10.6707
▁jonathan	-10.6707
▁ludwig	-10.6707
▁marijuana	-10.6707
▁ozzie	-10.6707
▁passenger	-10.6707
▁pessoa	-10.6707
▁roach	-10.6707
▁roast	-10.6707
▁shadow	-10.6707
▁similar	-10.6707
▁sparma	-10.6707
▁storage	-10.6707
▁struggle	-10.6707
▁sunrise	-10.6707
▁sweeney	-10.6707
▁technique	-10.6707
▁underground	-10.6707
▁underneath	-10.6707
▁cackle	-10.6707
▁kingdom	-10.6707
▁steam	-10.6707
▁valerie	-10.6707
▁hush	-10.6707
▁praise	-10.6707
▁stomp	-10.6707
▁ashamed	-10.6707
▁swimming	-10.6707
▁italy	-10.6707
▁fond	-10.6707
▁privacy	-10.6707
▁advisor	-10.6707
▁guildford	-10.6707
▁jacob	-10.6707
▁central	-10.6707
▁instance	-10.6707
▁identify	-10.6707
▁mystery	-10.6707
▁brainerd	-10.6707
▁violation	-10.6707
▁channel	-10.6707
▁turkish	-10.6707
▁stensland	-10.6707
▁bamba	-10.6707
▁weeknd	-10.6707
▁donkey	-10.6707
▁fading	-10.6707
▁pearson	-10.6707
▁lris	-10.6707
▁drift	-10.6708
▁shining	-10.6708
▁attitude	-10.6708
▁thrill	-10.6708
▁entrance	-10.6708
▁temporary	-10.6708
▁perkins	-10.6708
▁entertainment	-10.6708
▁navy	-10.6708
▁comedian	-10.6708
▁celebration	-10.6708
▁surrender	-10.6708
▁governor	-10.6708
▁gould	-10.6708
▁investment	-10.6708
▁primary	-10.6708
▁ultimate	-10.6708
▁souad	-10.6708
▁rising	-10.6708
▁partnership	-10.6708
▁junior	-10.6708
▁performance	-10.6708
▁snowball	-10.6708
▁appearance	-10.6708
▁distant	-10.6708
▁sunset	-10.6708
▁bugger	-10.6708
▁slipped	-10.6708
▁virus	-10.6708
▁capture	-10.6708
▁razor	-10.6708
▁glen	-10.6709
▁ripped	-10.6709
▁thieves	-10.6709
▁toad	-10.6709
▁sniffles	-10.6709
▁claus	-10.6709
▁tourist	-10.6709
▁tango	-10.6709
▁luis	-10.6709
▁loop	-10.6709
▁signature	-10.6709
▁behave	-10.671
▁michigan	-10.671
▁reliable	-10.671
▁elbow	-10.671
▁deborah	-10.671
▁joseph	-10.671
▁barbara	-10.671
▁batman	-10.671
▁corporation	-10.671
▁quality	-10.671
▁foolish	-10.6711
▁occurred	-10.6711
▁popped	-10.6711
▁minister	-10.6712
▁drain	-10.6712
▁alice	-10.6712
▁cameron	-10.6713
▁forest	-10.6713
▁redfoot	-10.6713
▁labor	-10.6713
▁grateful	-10.6713
▁bever	-10.6714
▁snatch	-10.6714
▁media	-10.6714
▁fries	-10.6714
▁becky	-10.6714
▁protective	-10.6714
▁righteous	-10.6714
▁chairman	-10.6715
▁slide	-10.6715
▁june	-10.6716
▁yum	-10.6716
▁express	-10.6716
▁rubber	-10.6717
▁touchdown	-10.6717
▁gem	-10.6717
▁brat	-10.6717
▁mesm	-10.6717
▁julie	-10.6718
▁series	-10.6719
▁prop	-10.6719
▁obey	-10.6719
▁brandt	-10.6719
▁judy	-10.6719
▁vou	-10.6722
▁shithole	-10.6723
▁tortured	-10.6724
▁everyday	-10.6724
▁invented	-10.6726
▁whooping	-10.6726
▁philly	-10.6726
sto	-10.6727
▁ri	-10.6729
▁matches	-10.6729
▁cheated	-10.6729
▁shovel	-10.6731
▁tone	-10.6731
▁rocket	-10.6733
▁ending	-10.6736
▁rear	-10.674
ando	-10.6741
▁sticks	-10.6746
▁backyard	-10.6748
▁tra	-10.6751
▁whacked	-10.6752
▁lawn	-10.6755
▁parties	-10.6756
▁carro	-10.6761
▁arse	-10.6764
▁confessed	-10.6767
▁hmmm	-10.6767
▁hooked	-10.6767
▁seth	-10.6769
▁introduced	-10.6776
▁raped	-10.6776
▁beans	-10.6777
▁homeless	-10.6782
▁ham	-10.6783
▁ringer	-10.6784
▁hatch	-10.6788
▁crashed	-10.6794
▁painted	-10.6796
▁lina	-10.6797
▁smaller	-10.68
▁degrees	-10.6815
▁remaining	-10.6816
▁grin	-10.6817
▁blocked	-10.6822
▁chip	-10.683
▁defend	-10.6832
▁ber	-10.6833
▁crossed	-10.6837
▁pushed	-10.6868
two	-10.6873
▁citizens	-10.6874
▁disse	-10.6893
▁likely	-10.6893
▁expenses	-10.6894
▁stare	-10.6904
▁burns	-10.6909
▁socks	-10.6914
▁nem	-10.6923
▁leading	-10.6928
▁ally	-10.693
ame	-10.6946
▁ent	-10.6946
▁enjoyed	-10.6951
▁boots	-10.6952
▁smelled	-10.6957
▁kicking	-10.6958
▁voices	-10.6991
▁results	-10.6994
▁clowns	-10.7014
all	-10.7014
▁murderers	-10.7022
▁rolled	-10.7028
▁lucas	-10.7032
▁fuckup	-10.7034
▁notes	-10.7041
▁gooks	-10.7054
we	-10.706
▁falls	-10.7066
▁wi	-10.7069
▁franky	-10.7075
▁tap	-10.7075
tic	-10.7092
▁waves	-10.7094
▁shotguns	-10.7094
▁gram	-10.71
▁dip	-10.7102
acho	-10.7123
▁nate	-10.7123
▁wag	-10.7129
▁monkeys	-10.7134
iness	-10.7139
▁corr	-10.7144
gue	-10.7145
ert	-10.7156
▁ke	-10.7161
▁ant	-10.7171
▁min	-10.7184
▁ram	-10.7204
▁couples	-10.7207
uff	-10.7209
ized	-10.7221
▁connections	-10.7236
rica	-10.7244
und	-10.7244
ions	-10.7248
▁tapes	-10.7251
▁dos	-10.7262
the	-10.7263
▁seal	-10.7273
▁wast	-10.7275
▁nd	-10.728
ger	-10.7295
cia	-10.7308
▁kills	-10.7334
▁cain	-10.7364
▁groups	-10.74
▁col	-10.7403
well	-10.7407
▁ski	-10.7424
mar	-10.7437
▁rode	-10.744
▁fires	-10.7451
ito	-10.7484
▁occur	-10.749
▁mirror	-10.7491
ated	-10.7493
▁superior	-10.7497
▁communist	-10.7498
ging	-10.7499
▁expense	-10.7505
▁neighbor	-10.7507
▁elvi	-10.7508
▁martini	-10.7508
▁pill	-10.7521
▁can	-10.754
▁tempo	-10.7558
ax	-10.7562
▁tastes	-10.7565
▁blessing	-10.7578
▁connect	-10.7629
ably	-10.7629
▁porn	-10.7645
light	-10.7647
ado	-10.7652
▁threaten	-10.7652
air	-10.7653
▁shove	-10.7658
▁pump	-10.7663
▁gather	-10.7668
▁recommend	-10.7669
mate	-10.7672
▁bridges	-10.7673
▁betray	-10.7677
▁shave	-10.7685
▁arrange	-10.7685
▁korea	-10.7686
▁applau	-10.7686
▁grease	-10.7689
▁retire	-10.7689
▁inter	-10.769
▁jai	-10.769
▁cheek	-10.7692
▁solve	-10.7694
▁greed	-10.7697
▁gamble	-10.7698
▁sm	-10.7698
itched	-10.7699
▁pow	-10.7699
▁tooth	-10.7703
inda	-10.7704
▁movin	-10.7704
▁inquir	-10.7704
▁mutt	-10.7704
▁corrupt	-10.7705
▁champ	-10.7705
▁consum	-10.7705
▁pimp	-10.7706
▁cancel	-10.7706
▁colon	-10.7706
▁racket	-10.7706
▁gentle	-10.7707
▁basket	-10.7707
▁afterwards	-10.7707
▁argument	-10.7707
▁beaucoup	-10.7707
▁campaign	-10.7707
▁catherlne	-10.7707
▁centurion	-10.7707
▁circus	-10.7707
▁concierge	-10.7707
▁conclusion	-10.7707
▁cooperate	-10.7707
▁desculpe	-10.7707
▁disagree	-10.7707
▁doughnut	-10.7707
▁eivira	-10.7707
▁flakka	-10.7707
▁harbor	-10.7707
▁hidetora	-10.7707
▁interfere	-10.7707
▁investigator	-10.7707
▁kurogane	-10.7707
▁lincoln	-10.7707
▁lunatic	-10.7707
▁macneil	-10.7707
▁maintain	-10.7707
▁majesty	-10.7707
▁messenger	-10.7707
▁october	-10.7707
▁pamela	-10.7707
▁pentangeli	-10.7707
▁phase	-10.7707
▁phoenix	-10.7707
▁poulain	-10.7707
▁protocol	-10.7707
▁rainbow	-10.7707
▁refuge	-10.7707
▁research	-10.7707
▁rodolfo	-10.7707
▁rumbling	-10.7707
▁science	-10.7707
▁skylar	-10.7707
▁soccer	-10.7707
▁subpoena	-10.7707
▁swamp	-10.7707
▁therapy	-10.7707
▁tissue	-10.7707
▁tobacco	-10.7707
▁tournament	-10.7707
▁verdict	-10.7707
▁vlog	-10.7707
▁cierra	-10.7707
▁hayley	-10.7707
▁headquarters	-10.7707
▁lewis	-10.7707
▁samuel	-10.7707
▁snack	-10.7707
▁chivo	-10.7707
▁relay	-10.7707
▁stiii	-10.7707
▁brower	-10.7707
▁albert	-10.7707
▁campsite	-10.7707
▁felix	-10.7707
▁kyle	-10.7707
▁actress	-10.7707
▁fragile	-10.7707
▁susan	-10.7707
▁oakmont	-10.7707
▁torn	-10.7707
▁network	-10.7707
▁harold	-10.7707
▁reeves	-10.7707
▁olympic	-10.7707
▁clue	-10.7707
▁latin	-10.7707
▁jelly	-10.7707
▁sweep	-10.7707
▁application	-10.7708
▁woah	-10.7708
▁vienna	-10.7708
▁turkey	-10.7708
▁babysitter	-10.7708
▁shush	-10.7708
▁depot	-10.7708
▁assistance	-10.7708
▁overnight	-10.7708
▁whys	-10.7708
▁unhappy	-10.7708
▁sicilian	-10.7708
▁subtle	-10.7708
▁margie	-10.7708
▁technology	-10.7708
cient	-10.7708
▁parasites	-10.7708
▁attractive	-10.7708
▁piggy	-10.7708
▁warsaw	-10.7708
▁nino	-10.7708
▁glory	-10.7708
▁grid	-10.7708
▁raj	-10.7708
▁serge	-10.7708
▁exorcism	-10.7709
▁thumb	-10.7709
▁meanwhile	-10.7709
▁limo	-10.7709
▁hallway	-10.7709
▁punishment	-10.7709
▁blanket	-10.7709
▁phuc	-10.771
▁sponsor	-10.771
▁alike	-10.771
▁massive	-10.771
▁version	-10.771
▁average	-10.771
▁length	-10.771
▁wrist	-10.771
▁minor	-10.771
▁occupied	-10.771
▁tech	-10.771
▁deaf	-10.771
▁bucket	-10.771
▁rory	-10.771
▁fax	-10.771
▁dough	-10.771
▁boil	-10.771
▁rotten	-10.771
▁rocco	-10.771
▁drank	-10.771
▁ludes	-10.7711
▁quentin	-10.7711
▁comment	-10.7711
▁inner	-10.7711
▁interrogation	-10.7711
▁aboard	-10.7712
▁neat	-10.7712
▁mint	-10.7712
▁windsor	-10.7713
▁samson	-10.7713
▁supply	-10.7713
▁burst	-10.7714
▁inform	-10.7714
▁chirping	-10.7714
▁grandfather	-10.7715
▁native	-10.7716
▁dickhead	-10.7717
▁vez	-10.7717
▁lust	-10.7718
▁thudding	-10.7718
▁tailor	-10.7719
▁sacred	-10.7719
▁payback	-10.7719
▁metro	-10.7719
▁triple	-10.7719
▁premises	-10.7719
▁spain	-10.772
▁acid	-10.7721
▁haul	-10.7721
stone	-10.7721
▁creepy	-10.7722
▁dating	-10.7722
▁edie	-10.7722
shore	-10.7722
▁correction	-10.7723
▁greedy	-10.7723
▁bike	-10.7724
▁rig	-10.7725
▁controlled	-10.7726
▁sickness	-10.7726
▁palmer	-10.7727
▁designer	-10.7727
▁arranged	-10.7728
▁leo	-10.7729
▁emma	-10.773
▁clamp	-10.773
▁tender	-10.773
▁shootout	-10.7732
▁mmmm	-10.7732
▁sniffing	-10.7732
▁fed	-10.7734
▁identified	-10.7734
▁grind	-10.7735
▁pisc	-10.7735
▁unto	-10.7735
▁scotty	-10.7735
▁executed	-10.7736
▁flames	-10.774
▁sealed	-10.7741
▁burnt	-10.7745
▁status	-10.7745
▁pickup	-10.7746
▁lineup	-10.7749
▁july	-10.7749
▁sharply	-10.775
▁talented	-10.7752
▁hint	-10.7753
▁missus	-10.7755
▁this	-10.7757
▁timing	-10.776
▁escaped	-10.7761
▁goodlooking	-10.7764
ank	-10.7765
ency	-10.7766
▁dominic	-10.7769
▁abuse	-10.7771
▁bowling	-10.7773
▁commissioner	-10.778
▁down	-10.7784
▁howdy	-10.7798
▁cia	-10.7798
▁fields	-10.7801
▁actions	-10.7803
▁fades	-10.7803
▁hangs	-10.7804
▁continued	-10.7805
eyed	-10.7808
▁touches	-10.7808
▁cur	-10.7809
▁filed	-10.7811
▁structure	-10.7817
▁fri	-10.7821
▁belle	-10.7821
▁esta	-10.7822
▁cousins	-10.7822
▁este	-10.7827
▁tyres	-10.7828
▁checks	-10.7834
▁cass	-10.7842
▁bananas	-10.7849
▁safely	-10.7858
▁lid	-10.7861
▁painful	-10.7869
▁not	-10.7871
qui	-10.7874
▁farmers	-10.7881
▁colleagues	-10.7893
▁illness	-10.7897
▁chin	-10.7906
▁ro	-10.7917
▁holes	-10.7923
▁dial	-10.7927
▁barrels	-10.7937
▁items	-10.7937
▁site	-10.795
▁dreamed	-10.7952
▁indicate	-10.796
▁classic	-10.7961
▁ships	-10.7962
▁chor	-10.7963
▁prints	-10.7989
▁pint	-10.7997
▁fontaines	-10.8003
▁drops	-10.8006
ition	-10.8009
list	-10.8011
▁recording	-10.8014
tima	-10.8014
▁documents	-10.8026
▁loans	-10.8026
▁sou	-10.8035
eep	-10.8046
▁fam	-10.8071
ester	-10.8074
▁gran	-10.8078
▁pricks	-10.8083
ore	-10.8106
bed	-10.8108
▁killers	-10.8113
▁dodge	-10.8115
▁learning	-10.8129
▁carol	-10.8134
▁helicopters	-10.816
▁et	-10.8169
▁schools	-10.8169
▁rub	-10.818
▁minh	-10.8199
▁newspapers	-10.8205
▁colors	-10.8207
▁cont	-10.8212
▁dot	-10.8216
show	-10.8222
▁cal	-10.8228
▁fare	-10.8241
▁lined	-10.8243
▁rooms	-10.8251
ew	-10.8256
▁eles	-10.8259
▁questioned	-10.8264
▁husbands	-10.8264
▁jeans	-10.8273
ating	-10.8288
▁ghosts	-10.8296
▁kinds	-10.8297
▁remains	-10.8298
▁bombs	-10.8301
▁cri	-10.8319
ery	-10.832
▁beers	-10.8336
▁ww	-10.8364
▁cor	-10.8367
ude	-10.8368
▁agents	-10.8371
▁owes	-10.8382
▁medals	-10.8387
▁arch	-10.8395
▁shortie	-10.8406
▁masks	-10.8432
▁questioning	-10.8484
du	-10.8491
▁gen	-10.8502
headed	-10.8516
▁u	-10.8517
▁russians	-10.8526
▁begins	-10.8526
acy	-10.8538
▁wheels	-10.855
urn	-10.8551
▁vic	-10.856
rick	-10.8569
▁whisper	-10.858
fl	-10.8589
▁deserves	-10.8596
▁defendant	-10.8609
▁tripp	-10.8609
▁affair	-10.861
▁familys	-10.8612
▁colleague	-10.8615
▁citizen	-10.8616
▁toward	-10.8621
▁ru	-10.8632
▁believes	-10.8634
▁lip	-10.8635
▁chuckle	-10.8636
▁hooker	-10.864
▁slam	-10.8644
▁organ	-10.8646
▁drawer	-10.8652
▁plot	-10.8653
tro	-10.8666
▁bookie	-10.8669
▁bears	-10.8669
▁ann	-10.8682
▁chap	-10.8684
▁handed	-10.8692
ville	-10.8699
▁surely	-10.872
▁creep	-10.8728
▁troubles	-10.8755
▁trips	-10.8758
water	-10.8766
piece	-10.8769
▁shatter	-10.8774
free	-10.8777
born	-10.8777
mouth	-10.8777
▁ob	-10.8778
called	-10.8778
power	-10.8778
▁worrying	-10.8781
away	-10.8783
▁flood	-10.8784
▁ditch	-10.8784
▁stash	-10.8785
▁accomplish	-10.8786
▁retard	-10.8788
▁heal	-10.8793
▁plea	-10.8793
▁fl	-10.8794
▁guessing	-10.8794
▁bla	-10.8795
▁trans	-10.8796
▁sacrifice	-10.8796
▁advise	-10.8797
▁torture	-10.8798
▁pursue	-10.8799
▁previous	-10.8805
▁apoc	-10.8805
▁immediate	-10.8806
▁filth	-10.8806
▁recent	-10.8807
▁spy	-10.8808
▁kidnap	-10.8814
▁runnin	-10.8815
▁prior	-10.8816
▁makin	-10.8816
▁bunk	-10.8818
▁creative	-10.8818
▁inherit	-10.8818
knuckle	-10.8818
▁album	-10.8818
▁appreciation	-10.8818
▁article	-10.8818
▁attaboy	-10.8818
▁awkward	-10.8818
▁baltimore	-10.8818
▁bargain	-10.8818
▁cambodia	-10.8818
▁cawley	-10.8818
▁circuit	-10.8818
▁civilization	-10.8818
▁clemenza	-10.8818
▁cockroach	-10.8818
▁condolences	-10.8818
▁confidence	-10.8818
▁conscience	-10.8818
▁continental	-10.8818
▁crease	-10.8818
▁crucified	-10.8818
▁damien	-10.8818
▁dmitri	-10.8818
▁ecoust	-10.8818
▁expose	-10.8818
▁flawless	-10.8818
▁grazie	-10.8818
▁grief	-10.8818
▁immunity	-10.8818
▁increase	-10.8818
▁investigate	-10.8818
▁jackpot	-10.8818
▁jennifer	-10.8818
▁koji	-10.8818
▁larkhill	-10.8818
▁leather	-10.8818
▁lobster	-10.8818
▁marvin	-10.8818
▁mclaren	-10.8818
▁mcpherson	-10.8818
▁monitor	-10.8818
▁mortgage	-10.8818
▁mortimer	-10.8818
▁mutual	-10.8818
▁nevada	-10.8818
▁obstacle	-10.8818
▁outstanding	-10.8818
▁rattling	-10.8818
▁receipt	-10.8818
▁residence	-10.8818
▁reunion	-10.8818
▁smidge	-10.8818
▁source	-10.8818
▁torrance	-10.8818
▁trespass	-10.8818
▁unusual	-10.8818
▁viddy	-10.8818
▁womb	-10.8818
▁albie	-10.8818
▁bateman	-10.8818
▁brotherfucker	-10.8818
▁cherry	-10.8818
▁cohen	-10.8818
▁declare	-10.8818
▁madeleine	-10.8818
▁dennings	-10.8818
▁howie	-10.8818
▁mattress	-10.8818
▁posso	-10.8818
▁sector	-10.8818
▁tackle	-10.8818
▁insect	-10.8818
▁stalling	-10.8818
▁corporal	-10.8818
▁crystal	-10.8818
▁measure	-10.8818
▁association	-10.8818
▁huntress	-10.8818
▁brandnew	-10.8818
▁pond	-10.8818
▁bald	-10.8818
▁skunk	-10.8818
▁denver	-10.8819
▁whining	-10.8819
▁vinyard	-10.8819
▁competition	-10.8819
▁supervisor	-10.8819
▁landlord	-10.8819
▁reference	-10.8819
▁antonio	-10.8819
▁rosato	-10.8819
▁maggie	-10.8819
▁retail	-10.8819
▁indictment	-10.8819
▁clinic	-10.8819
▁senate	-10.8819
▁delta	-10.8819
▁misery	-10.8819
▁bracelet	-10.8819
▁richardson	-10.8819
com	-10.8819
▁sofa	-10.8819
▁sozinha	-10.8819
▁whew	-10.8819
▁hatchet	-10.8819
▁pumpkin	-10.8819
▁suspicious	-10.8819
▁online	-10.8819
▁shook	-10.8819
▁hidden	-10.8819
▁broadway	-10.8819
▁aiso	-10.8819
▁burnham	-10.8819
▁counselor	-10.8819
▁academy	-10.8819
▁valley	-10.8819
▁harrison	-10.882
▁peak	-10.882
▁humor	-10.882
▁bonnie	-10.882
▁pepper	-10.882
▁mysteri	-10.882
▁oscar	-10.882
▁disappearance	-10.882
▁asian	-10.882
▁temple	-10.882
▁affection	-10.882
▁paperwork	-10.882
▁portland	-10.882
▁yessir	-10.882
▁poem	-10.8821
▁commitment	-10.8821
▁garry	-10.8821
▁agua	-10.8821
▁ledger	-10.8821
▁tasty	-10.8821
▁taint	-10.8821
▁ashes	-10.8821
▁unknown	-10.8821
▁sack	-10.8821
▁informant	-10.8821
▁contest	-10.8821
▁blah	-10.8821
▁welfare	-10.8821
▁pleasant	-10.8821
▁modern	-10.8821
▁courtesy	-10.8821
▁offenders	-10.8821
▁minus	-10.8821
▁gutter	-10.8822
▁spotted	-10.8822
ich	-10.8822
▁kidnapper	-10.8822
▁outro	-10.8822
▁rattle	-10.8822
▁mutters	-10.8822
▁iong	-10.8822
▁connor	-10.8823
▁bandit	-10.8823
▁funky	-10.8823
▁cities	-10.8823
▁fingerprint	-10.8823
▁parade	-10.8824
▁potatoes	-10.8824
▁employer	-10.8824
▁expired	-10.8824
▁aiden	-10.8824
▁flies	-10.8824
▁murphy	-10.8825
▁proposal	-10.8825
▁tappy	-10.8825
▁gallo	-10.8826
▁dropping	-10.8826
▁cutler	-10.8826
▁host	-10.8826
▁happiness	-10.8826
▁illusion	-10.8826
▁assignment	-10.8826
▁eise	-10.8827
▁agreement	-10.8827
▁darn	-10.8827
▁fazer	-10.8828
▁celebrating	-10.8828
▁publicity	-10.8828
▁fist	-10.8829
▁inches	-10.8829
▁kim	-10.8829
▁chatterlng	-10.883
▁weep	-10.883
▁darkness	-10.8831
▁china	-10.8831
▁cue	-10.8831
▁cartel	-10.8831
▁madness	-10.8831
▁ink	-10.8832
▁trousers	-10.8832
▁preacher	-10.8833
▁barco	-10.8833
▁suprem	-10.8835
▁alan	-10.8836
▁drone	-10.884
▁hose	-10.884
▁slope	-10.8841
▁betting	-10.8841
▁solved	-10.8842
▁bait	-10.8842
▁developed	-10.8842
▁disappointed	-10.8842
▁sum	-10.8843
▁lala	-10.8843
▁particularly	-10.8844
▁dock	-10.8846
▁coma	-10.8846
▁bugsy	-10.8848
▁retarded	-10.8849
▁pisses	-10.8851
▁ridge	-10.8851
▁dougie	-10.8852
▁scan	-10.8855
load	-10.8855
▁vitamins	-10.8856
▁squeaking	-10.8856
▁robin	-10.8856
▁iive	-10.8856
▁stinking	-10.8857
▁the	-10.8857
▁internal	-10.8857
▁cure	-10.8859
▁vc	-10.886
▁sixty	-10.8861
▁drowned	-10.8861
▁carat	-10.8863
▁bitter	-10.8863
▁loudly	-10.887
ula	-10.887
▁valentine	-10.8873
▁she	-10.8874
▁prey	-10.8875
▁copper	-10.8875
▁sic	-10.8875
▁drowning	-10.8876
▁tube	-10.8878
nder	-10.8879
▁eve	-10.8879
ook	-10.8882
▁complained	-10.8886
▁feeiing	-10.8886
▁shocking	-10.8886
▁highp	-10.8889
▁brock	-10.8893
▁chuckie	-10.8894
ato	-10.8903
▁focused	-10.8904
▁hogs	-10.8904
▁entered	-10.8904
▁fig	-10.8905
▁reminded	-10.8911
▁fore	-10.8914
▁iooking	-10.8916
iti	-10.8917
▁pier	-10.8918
▁honesty	-10.8918
ex	-10.8927
▁safer	-10.8928
▁geezer	-10.8936
▁rd	-10.8939
▁wil	-10.8944
▁lotion	-10.8944
▁sore	-10.8948
▁messy	-10.8951
▁angelo	-10.8958
▁smokey	-10.896
▁crashing	-10.8967
▁barks	-10.8969
▁ages	-10.8985
▁gin	-10.8991
▁cracking	-10.8991
ler	-10.8992
rio	-10.9001
ft	-10.9002
▁includes	-10.9003
▁shorts	-10.9004
mobile	-10.9008
▁differently	-10.9009
▁closet	-10.9012
skim	-10.9015
▁sticky	-10.9015
▁linen	-10.902
▁parker	-10.9022
▁chaps	-10.9026
▁pd	-10.9026
▁suite	-10.9029
▁lookout	-10.9031
▁treating	-10.9033
▁teaching	-10.9034
▁tracker	-10.9034
▁tickle	-10.9035
▁frenchy	-10.9041
▁emt	-10.9045
▁searching	-10.9059
for	-10.9065
ature	-10.9067
▁recorded	-10.9068
▁wondered	-10.9074
▁candles	-10.9077
▁presented	-10.9077
cas	-10.9077
▁handled	-10.9081
▁gent	-10.9085
▁visiting	-10.9085
▁reporting	-10.9101
▁armor	-10.9105
oid	-10.9108
ido	-10.911
run	-10.9127
nch	-10.9135
▁goodness	-10.9139
▁sta	-10.9161
▁coins	-10.9177
▁wings	-10.9193
▁prices	-10.9197
agged	-10.9211
▁cunts	-10.9221
▁pawn	-10.9224
nite	-10.9241
▁dep	-10.9242
▁lines	-10.9249
▁rack	-10.9267
▁courts	-10.9268
▁kings	-10.9277
▁faggots	-10.9278
my	-10.9286
▁opera	-10.9291
▁bells	-10.9302
fa	-10.9304
▁traps	-10.9304
▁cul	-10.9313
▁pant	-10.9316
▁fart	-10.9329
how	-10.9349
▁bolt	-10.9358
too	-10.9364
ence	-10.9373
▁scam	-10.9376
▁hare	-10.9379
▁pistols	-10.938
▁vo	-10.9389
▁hunts	-10.9389
▁conc	-10.941
▁taxis	-10.9413
▁pats	-10.9417
▁glo	-10.9433
▁reminds	-10.9434
▁kindly	-10.9439
▁slap	-10.9455
▁boob	-10.946
▁cleared	-10.9468
mond	-10.9513
▁plates	-10.9533
▁devils	-10.956
iac	-10.9578
▁rifles	-10.9586
▁favors	-10.9597
▁acts	-10.964
▁nickys	-10.9649
▁cracks	-10.9673
▁ag	-10.9706
▁resolve	-10.9731
ified	-10.9735
▁skill	-10.9739
tu	-10.9745
▁operations	-10.977
▁med	-10.9773
▁figures	-10.9781
card	-10.9782
fully	-10.979
▁op	-10.9791
▁whistles	-10.9796
▁stink	-10.9808
right	-10.9813
cy	-10.9814
▁cough	-10.9827
▁click	-10.9831
▁sla	-10.9835
▁associate	-10.9837
▁include	-10.9842
met	-10.9847
▁gangs	-10.9847
▁shark	-10.9854
▁arrangement	-10.9856
▁sausage	-10.986
▁lamb	-10.9862
▁teammate	-10.9866
▁glove	-10.9867
▁sc	-10.9867
▁sheet	-10.9871
▁plac	-10.9874
▁reel	-10.9881
▁scrap	-10.989
▁farmer	-10.9916
▁sur	-10.9918
▁gasp	-10.9922
▁ox	-10.9931
▁cons	-10.9944
point	-10.9952
▁hoo	-10.9957
▁marys	-10.9959
pped	-10.9961
ten	-10.9991
▁improv	-10.9991
▁cheat	-10.9996
ries	-11.0004
▁squeak	-11.0008
▁broadcast	-11.002
▁recover	-11.0021
▁discover	-11.0022
▁buen	-11.0024
flower	-11.0026
pants	-11.0031
▁succeed	-11.0034
izing	-11.0035
▁offend	-11.0036
▁haunt	-11.0036
▁frighten	-11.0038
thats	-11.0042
▁produce	-11.0045
▁engage	-11.0045
eme	-11.005
▁lime	-11.0052
▁incredibl	-11.0054
▁execute	-11.0055
▁gabriel	-11.0056
▁armour	-11.006
▁attract	-11.0062
▁potato	-11.0064
▁disgrace	-11.0067
▁journal	-11.0067
▁romi	-11.0067
▁bom	-11.0068
▁yyou	-11.0068
▁forbid	-11.0068
▁drama	-11.0068
▁zipper	-11.0068
lcer	-11.0068
▁exclusive	-11.0068
▁genuine	-11.0068
▁thorough	-11.0068
▁advertising	-11.0068
▁akira	-11.0068
▁alejandro	-11.0068
▁alibi	-11.0068
▁amsterdam	-11.0068
▁apologies	-11.0068
▁austrian	-11.0068
▁ballpeen	-11.0068
▁bertinelli	-11.0068
▁blackmail	-11.0068
▁bogdanski	-11.0068
▁bounce	-11.0068
▁brett	-11.0068
▁bufalino	-11.0068
▁carpenter	-11.0068
▁ceiling	-11.0068
▁costigan	-11.0068
▁demolition	-11.0068
▁dignam	-11.0068
▁dizzy	-11.0068
▁draft	-11.0068
▁dufayel	-11.0068
▁dunno	-11.0068
▁encourage	-11.0068
▁enugu	-11.0068
▁equipment	-11.0068
▁expand	-11.0068
▁forensics	-11.0068
▁fujimaki	-11.0068
▁georgia	-11.0068
▁guillermo	-11.0068
▁hamilton	-11.0068
▁hancock	-11.0068
▁hannibal	-11.0068
▁harbinger	-11.0068
▁hypocrite	-11.0068
▁ieave	-11.0068
▁january	-11.0068
▁jerome	-11.0068
▁kaede	-11.0068
▁kimmie	-11.0068
▁kobayashi	-11.0068
▁kujan	-11.0068
▁lachance	-11.0068
▁lawrence	-11.0068
▁lebron	-11.0068
▁lefferts	-11.0068
▁leisure	-11.0068
▁lounge	-11.0068
▁lucien	-11.0068
▁marseille	-11.0068
▁melhor	-11.0068
▁minimum	-11.0068
▁necklace	-11.0068
▁oklahoma	-11.0068
▁oldfashioned	-11.0068
▁olivia	-11.0068
▁overseas	-11.0068
▁pacific	-11.0068
▁palermo	-11.0068
▁patience	-11.0068
▁perfume	-11.0068
▁perimeter	-11.0068
▁picnic	-11.0068
▁platoon	-11.0068
▁precinct	-11.0068
▁randall	-11.0068
▁recipe	-11.0068
▁regazzoni	-11.0068
▁reggiani	-11.0068
▁resident	-11.0068
▁saigon	-11.0068
▁sorority	-11.0068
▁spencer	-11.0068
▁sullivan	-11.0068
▁talbot	-11.0068
▁therapist	-11.0068
▁ticktock	-11.0068
▁tommasino	-11.0068
▁treason	-11.0068
▁tumbling	-11.0068
▁vincennes	-11.0068
▁arguing	-11.0068
▁collar	-11.0068
▁cornell	-11.0068
▁deacon	-11.0068
▁depressed	-11.0068
▁ferry	-11.0068
▁gesture	-11.0068
▁jarvis	-11.0068
▁noyce	-11.0068
▁ponies	-11.0068
▁prothero	-11.0068
▁renteria	-11.0068
▁salute	-11.0068
▁shaii	-11.0068
▁affirmative	-11.0068
▁believing	-11.0068
▁yolanda	-11.0068
▁daisy	-11.0068
▁terminator	-11.0068
▁yacht	-11.0068
▁arnold	-11.0068
▁eighteen	-11.0068
▁granddad	-11.0068
▁oops	-11.0068
▁activities	-11.0068
▁shears	-11.0068
▁worship	-11.0068
▁enorm	-11.0068
▁miggs	-11.0068
▁worries	-11.0068
▁bliss	-11.0068
▁fuchs	-11.0068
▁carpet	-11.0068
▁generation	-11.0068
▁melody	-11.0068
▁migraine	-11.0068
▁temperature	-11.0068
▁coldblooded	-11.0069
▁townsend	-11.0069
▁finance	-11.0069
▁reese	-11.0069
▁terrifying	-11.0069
▁devons	-11.0069
▁loony	-11.0069
▁neighbourhood	-11.0069
▁enforcement	-11.0069
▁overcome	-11.0069
▁sandals	-11.0069
▁cruz	-11.0069
▁carru	-11.0069
▁stream	-11.0069
▁holland	-11.0069
▁palantine	-11.0069
▁snuff	-11.0069
▁furious	-11.0069
▁divide	-11.0069
▁compound	-11.0069
▁strangle	-11.0069
▁feature	-11.0069
▁patron	-11.0069
▁begun	-11.0069
▁flashlight	-11.0069
▁meow	-11.0069
▁tracy	-11.0069
▁marvelous	-11.0069
▁breach	-11.0069
▁butler	-11.0069
▁dimmy	-11.0069
▁paulsen	-11.0069
▁wilson	-11.0069
▁elder	-11.0069
▁sieep	-11.0069
▁adjust	-11.0069
▁halloween	-11.0069
▁capital	-11.0069
▁fridge	-11.0069
▁examine	-11.0069
▁lemon	-11.007
▁frog	-11.007
▁rio	-11.007
▁azu	-11.007
▁chapter	-11.007
▁modest	-11.007
▁survival	-11.007
▁terminal	-11.007
▁ramone	-11.007
▁sheeran	-11.007
▁stacy	-11.007
▁oak	-11.007
▁hijack	-11.007
▁morto	-11.007
▁valet	-11.007
▁worm	-11.0071
▁crackling	-11.0071
▁exley	-11.0071
▁worn	-11.0071
▁marge	-11.0071
▁rita	-11.0071
▁untie	-11.0071
▁flavor	-11.0071
▁haircut	-11.0071
▁sept	-11.0071
▁grade	-11.0071
▁chasing	-11.0071
▁poop	-11.0071
▁narrow	-11.0071
▁regardless	-11.0071
▁sidewalk	-11.0071
▁function	-11.0071
▁sentimental	-11.0071
▁arson	-11.0071
▁dominick	-11.0071
▁apiece	-11.0071
▁vol	-11.0072
▁script	-11.0072
▁grindle	-11.0072
▁whinny	-11.0072
▁weakness	-11.0072
▁purp	-11.0072
▁reaiiy	-11.0072
▁royalty	-11.0072
▁meaningless	-11.0072
▁grownup	-11.0072
▁jake	-11.0073
▁consist	-11.0073
▁determined	-11.0073
▁delight	-11.0073
▁sunny	-11.0073
▁richard	-11.0073
▁hence	-11.0074
▁iot	-11.0074
▁permit	-11.0074
▁lsland	-11.0074
▁harmless	-11.0075
▁footage	-11.0075
▁hopes	-11.0075
▁unger	-11.0075
▁profile	-11.0076
▁lsaiah	-11.0076
▁playmate	-11.0076
▁sober	-11.0076
▁passage	-11.0076
▁mazel	-11.0077
▁sizzling	-11.0077
like	-11.0077
▁significant	-11.0077
▁employment	-11.0078
▁scotch	-11.0078
▁skies	-11.0078
▁obsessed	-11.0079
▁tapping	-11.0079
▁gabriela	-11.0079
▁heist	-11.0079
▁zion	-11.008
▁sheer	-11.008
▁qui	-11.008
▁decline	-11.008
▁mansion	-11.0081
▁investor	-11.0081
▁wheat	-11.0082
▁dice	-11.0082
▁sammy	-11.0083
▁established	-11.0083
▁rathole	-11.0084
▁clay	-11.0084
▁bushes	-11.0084
▁iine	-11.0084
▁mim	-11.0084
▁divin	-11.0084
▁narrator	-11.0086
▁straining	-11.0086
▁craft	-11.0087
▁silk	-11.0087
▁spoiled	-11.0087
▁surrounded	-11.0087
▁handling	-11.0087
▁drum	-11.0088
▁hissing	-11.0088
▁clothing	-11.0088
▁wandering	-11.0088
▁clinking	-11.0088
▁powder	-11.0089
▁broker	-11.0089
▁teenager	-11.009
▁associated	-11.009
▁included	-11.009
▁viu	-11.009
▁abandoned	-11.0091
zer	-11.0091
▁elected	-11.0092
▁artie	-11.0094
▁ola	-11.0094
▁floating	-11.0094
▁buzzes	-11.0095
▁madman	-11.0097
▁trooper	-11.0098
▁pinched	-11.0099
▁heroes	-11.0099
▁compared	-11.0099
▁offended	-11.0099
▁applauding	-11.01
▁southie	-11.01
▁roberts	-11.0104
▁assist	-11.0105
▁informed	-11.0107
▁payne	-11.0108
▁dedicate	-11.011
▁logo	-11.0111
▁nearest	-11.0112
▁bueno	-11.0114
▁sole	-11.0116
▁confirmed	-11.0116
let	-11.0116
▁lily	-11.0117
▁wiped	-11.0118
▁assim	-11.0118
▁beaten	-11.0119
▁trailer	-11.0123
▁peep	-11.0124
▁vu	-11.0124
▁twisted	-11.0124
▁involve	-11.0125
▁setup	-11.0125
▁pals	-11.0127
ancho	-11.0127
▁defending	-11.0127
rez	-11.0136
▁refused	-11.0138
▁oldtimers	-11.0138
▁straps	-11.0138
▁lame	-11.0141
▁jar	-11.0141
unk	-11.0145
▁venha	-11.0147
▁devote	-11.0148
▁pu	-11.0153
▁insulted	-11.0153
▁greatness	-11.0153
▁gotcha	-11.0156
▁freaking	-11.0159
▁ali	-11.017
▁entirely	-11.0173
▁guaranteed	-11.0174
▁fleet	-11.0178
net	-11.018
▁survived	-11.0182
▁comb	-11.0184
▁delivered	-11.0187
▁requested	-11.0191
▁anos	-11.0192
▁aid	-11.0193
▁caus	-11.0194
▁affects	-11.0195
▁businessman	-11.0197
▁deve	-11.0198
cut	-11.0198
inent	-11.021
▁pur	-11.0211
▁nap	-11.0217
etic	-11.0219
▁packing	-11.0221
▁driven	-11.0222
▁coroners	-11.0222
▁pinch	-11.0231
▁sweating	-11.024
row	-11.0242
▁screwing	-11.0244
year	-11.0245
▁imagined	-11.0246
▁headaches	-11.0251
▁snaps	-11.0251
▁butchers	-11.0257
▁washing	-11.0261
▁reaching	-11.0262
▁lig	-11.0271
▁patch	-11.0272
▁executi	-11.0274
▁inf	-11.0277
▁teammates	-11.0279
▁gloves	-11.0279
▁importantly	-11.0281
▁drinkin	-11.0286
▁brokers	-11.0287
ele	-11.0289
▁rocky	-11.0294
▁mol	-11.0294
▁dealt	-11.0299
▁duel	-11.0303
▁wel	-11.031
▁hookers	-11.0316
▁quer	-11.0321
▁goat	-11.0321
▁bea	-11.0327
▁von	-11.0329
but	-11.0336
▁landed	-11.0342
▁nod	-11.0348
▁workers	-11.0349
▁explained	-11.0349
▁payments	-11.0367
▁comp	-11.0374
▁deer	-11.0383
atch	-11.0384
▁judges	-11.0387
▁prim	-11.0399
▁fixin	-11.0402
▁covering	-11.0409
▁filling	-11.0414
▁raining	-11.0414
▁tips	-11.0418
▁eyeballs	-11.0421
▁bodyguards	-11.0421
▁nerves	-11.0421
ez	-11.0423
bra	-11.0432
▁sting	-11.0433
▁will	-11.0448
▁explaining	-11.0458
▁joining	-11.0474
▁sl	-11.0475
▁broads	-11.0479
▁intentions	-11.0479
goff	-11.0487
▁jud	-11.0498
▁and	-11.05
▁janie	-11.0502
▁tw	-11.0506
▁spits	-11.0506
▁suitcases	-11.0507
▁irs	-11.051
▁kissing	-11.0523
▁individuals	-11.0536
▁enjoying	-11.0553
▁prisons	-11.0555
▁coisas	-11.0565
▁choppers	-11.0566
don	-11.0574
eating	-11.0577
▁marker	-11.0577
cal	-11.0591
▁carve	-11.0594
▁circles	-11.0594
▁wee	-11.0598
ked	-11.0615
hot	-11.0618
▁ducks	-11.0624
▁profits	-11.0624
▁winters	-11.0624
▁spiders	-11.0624
▁slowing	-11.0625
▁thinkin	-11.0641
▁muscles	-11.0653
▁beds	-11.0661
gua	-11.0663
▁breaker	-11.0663
▁num	-11.0668
lock	-11.0673
ify	-11.0679
▁restaurants	-11.0682
▁lessons	-11.0682
ome	-11.0709
▁hoped	-11.0716
ong	-11.0718
▁q	-11.0724
ay	-11.0725
▁fools	-11.0736
seven	-11.0739
▁vin	-11.0739
▁laps	-11.0748
key	-11.0774
▁cla	-11.078
▁sever	-11.0782
▁ba	-11.0806
▁mindy	-11.0813
▁amp	-11.0817
▁meals	-11.083
▁dri	-11.0836
tention	-11.0843
▁sakes	-11.0852
▁sch	-11.0854
illa	-11.0863
cha	-11.0874
▁callin	-11.0882
aid	-11.0887
lies	-11.0888
roller	-11.0896
die	-11.0901
▁qua	-11.0902
▁ante	-11.0906
▁trains	-11.0912
▁plants	-11.0912
▁cells	-11.0914
▁ther	-11.0919
▁cl	-11.0938
ka	-11.0943
rate	-11.0968
▁gardens	-11.0974
▁them	-11.0977
cular	-11.0983
▁waiter	-11.1008
▁asks	-11.1013
state	-11.1019
▁mamas	-11.1022
▁mug	-11.1028
▁product	-11.103
▁bothers	-11.1047
▁accuse	-11.1049
▁stuffed	-11.1056
▁deed	-11.107
▁seasons	-11.107
▁devi	-11.1076
indo	-11.1083
▁fights	-11.1093
▁pais	-11.1096
▁hor	-11.111
▁das	-11.1111
▁tylers	-11.113
▁tanks	-11.1131
▁contacts	-11.1135
▁sends	-11.1135
rian	-11.1155
▁winnings	-11.1162
▁scores	-11.1165
nte	-11.1166
▁gee	-11.1176
east	-11.1186
▁cooler	-11.1191
▁investigations	-11.1193
▁shoulders	-11.1194
▁cart	-11.1197
gan	-11.1199
tore	-11.1209
skys	-11.1209
▁design	-11.1226
▁angels	-11.123
▁grunt	-11.1261
▁tick	-11.1272
oma	-11.1273
▁require	-11.1274
▁traitor	-11.1276
▁midget	-11.1276
▁dentist	-11.1277
▁emotion	-11.1277
▁villain	-11.1282
▁cocktail	-11.1282
▁relative	-11.1282
▁disco	-11.1284
▁root	-11.1287
▁headache	-11.1291
▁snap	-11.1292
▁banana	-11.1294
▁outra	-11.1294
▁treats	-11.1294
▁chamber	-11.1295
lets	-11.1297
▁winds	-11.1306
jam	-11.131
post	-11.1311
▁visual	-11.1316
▁butcher	-11.1318
▁skip	-11.1319
tan	-11.1323
uous	-11.1334
bar	-11.1341
▁quart	-11.1342
▁wh	-11.1358
table	-11.1359
▁lung	-11.1368
▁cows	-11.137
▁je	-11.1376
▁melt	-11.1392
▁flo	-11.1395
proxim	-11.1396
ello	-11.1397
oli	-11.1402
night	-11.1412
rain	-11.1415
▁disappoint	-11.1417
hold	-11.1439
▁roma	-11.1443
▁continu	-11.1443
ought	-11.1449
▁holler	-11.145
mero	-11.1453
▁vibrat	-11.1453
▁ties	-11.1454
life	-11.1455
proof	-11.1455
three	-11.1455
lift	-11.1457
class	-11.1458
▁possess	-11.1461
inal	-11.1462
▁profession	-11.1462
▁develop	-11.1466
▁toll	-11.1467
band	-11.1468
ern	-11.1468
this	-11.1468
▁soil	-11.1469
▁vanish	-11.1469
▁controls	-11.1471
▁chickens	-11.1473
▁replace	-11.1476
five	-11.1479
▁stud	-11.148
▁clam	-11.1481
▁seize	-11.1482
▁intense	-11.1483
▁precise	-11.1484
▁rhythm	-11.1488
▁pale	-11.1489
▁virtu	-11.1491
▁interrogat	-11.1491
▁religio	-11.1491
▁tradition	-11.1492
▁africa	-11.1492
▁givin	-11.1494
▁algu	-11.1494
▁react	-11.1495
▁harle	-11.1495
kin	-11.1496
▁oppos	-11.1496
▁neighbour	-11.1497
uart	-11.1497
▁abduction	-11.1497
▁absurd	-11.1497
▁accurate	-11.1497
▁airborne	-11.1497
▁andretti	-11.1497
▁approval	-11.1497
▁archbishop	-11.1497
▁architect	-11.1497
▁armstrong	-11.1497
▁aspirin	-11.1497
▁attached	-11.1497
▁ayabe	-11.1497
▁baggage	-11.1497
▁barbecue	-11.1497
▁bartender	-11.1497
▁bonsoir	-11.1497
▁bracken	-11.1497
▁bretodeau	-11.1497
▁cannon	-11.1497
▁chilton	-11.1497
▁cinema	-11.1497
▁clarlce	-11.1497
▁claudia	-11.1497
▁collapse	-11.1497
▁commercial	-11.1497
▁commodus	-11.1497
▁concrete	-11.1497
▁criminai	-11.1497
▁dascomb	-11.1497
▁dawg	-11.1497
▁decree	-11.1497
▁degenerate	-11.1497
▁deliberately	-11.1497
▁disaster	-11.1497
▁dwayne	-11.1497
▁envelope	-11.1497
▁erinmore	-11.1497
▁errand	-11.1497
▁fabienne	-11.1497
▁fitzsimmons	-11.1497
▁fleck	-11.1497
▁guidance	-11.1497
▁helmet	-11.1497
▁hercules	-11.1497
▁honeymoon	-11.1497
▁hurricane	-11.1497
▁injuries	-11.1497
▁jopling	-11.1497
▁ketchup	-11.1497
▁knives	-11.1497
▁launch	-11.1497
▁laundering	-11.1497
▁lifestyle	-11.1497
▁lindsey	-11.1497
▁lloyd	-11.1497
▁lorenzo	-11.1497
▁maguire	-11.1497
▁mclanden	-11.1497
▁medevac	-11.1497
▁misunderstood	-11.1497
▁moggy	-11.1497
▁moguy	-11.1497
▁murmuring	-11.1497
▁negotiation	-11.1497
▁overlapping	-11.1497
▁oxygen	-11.1497
▁panama	-11.1497
▁paramedic	-11.1497
▁parliament	-11.1497
▁pasternak	-11.1497
▁peirce	-11.1497
▁penthouse	-11.1497
▁pittsburgh	-11.1497
▁population	-11.1497
▁poverty	-11.1497
▁practicing	-11.1497
▁precaution	-11.1497
▁probation	-11.1497
▁promotion	-11.1497
▁raffle	-11.1497
▁rafterman	-11.1497
▁ramirez	-11.1497
▁rebenga	-11.1497
▁refrigerator	-11.1497
▁registration	-11.1497
▁rollercoaster	-11.1497
▁schmuck	-11.1497
▁schofield	-11.1497
▁schooi	-11.1497
▁sergio	-11.1497
▁shaft	-11.1497
▁shawshank	-11.1497
▁shelter	-11.1497
▁shepherd	-11.1497
▁sherbert	-11.1497
▁slippery	-11.1497
▁spectacular	-11.1497
▁stammering	-11.1497
▁szpilman	-11.1497
▁tennessee	-11.1497
▁terrified	-11.1497
▁treasure	-11.1497
▁troubie	-11.1497
▁unsolv	-11.1497
▁vincenzo	-11.1497
▁weasel	-11.1497
▁website	-11.1497
▁wendell	-11.1497
▁wisdom	-11.1497
▁wriggle	-11.1497
▁xerife	-11.1497
▁yulian	-11.1497
▁annabelle	-11.1497
▁bloodstain	-11.1497
▁chloe	-11.1497
▁clatters	-11.1497
▁damico	-11.1497
▁duchess	-11.1497
▁eleven	-11.1497
▁fortico	-11.1497
▁freud	-11.1497
▁gracias	-11.1497
▁heather	-11.1497
▁hollis	-11.1497
▁howre	-11.1497
▁nelson	-11.1497
▁penalty	-11.1497
▁slaughter	-11.1497
▁unique	-11.1497
▁distress	-11.1497
▁seventeen	-11.1497
▁peach	-11.1497
▁delicate	-11.1497
▁giggle	-11.1497
▁rasul	-11.1497
▁overseer	-11.1497
▁clutch	-11.1497
▁insert	-11.1497
▁thump	-11.1497
▁lizzy	-11.1497
▁sincerely	-11.1497
▁asshoie	-11.1497
▁conference	-11.1497
▁manifest	-11.1497
▁uhuh	-11.1497
▁delaware	-11.1497
▁spades	-11.1497
▁larry	-11.1497
▁nanny	-11.1497
▁puppy	-11.1497
▁rival	-11.1497
▁tamb	-11.1497
▁cabbie	-11.1497
▁influence	-11.1497
▁ellerbee	-11.1497
▁gauge	-11.1497
▁susieq	-11.1497
▁mauricio	-11.1497
▁slurping	-11.1497
▁exwife	-11.1497
▁sanitation	-11.1497
▁buddies	-11.1497
▁faz	-11.1497
▁mushroom	-11.1497
▁ease	-11.1497
▁brasi	-11.1497
▁granville	-11.1497
▁integrity	-11.1497
▁steward	-11.1497
▁mansell	-11.1497
▁waving	-11.1497
▁farewell	-11.1497
▁vivian	-11.1497
▁roderick	-11.1497
▁decorat	-11.1497
▁suzy	-11.1497
▁cluck	-11.1497
▁email	-11.1497
▁kimball	-11.1497
▁mailbox	-11.1497
▁worid	-11.1497
▁magnificent	-11.1497
▁morgue	-11.1497
▁creating	-11.1497
▁extortion	-11.1497
▁superficial	-11.1497
▁confidential	-11.1497
▁micro	-11.1497
niper	-11.1497
▁hesitate	-11.1497
▁distribution	-11.1498
▁manual	-11.1498
▁pervert	-11.1498
▁biggus	-11.1498
▁yankee	-11.1498
▁decade	-11.1498
▁fitzgerald	-11.1498
▁spinning	-11.1498
▁psychotic	-11.1498
▁fiber	-11.1498
▁swimmer	-11.1498
▁southbound	-11.1498
▁flipped	-11.1498
▁compensation	-11.1498
▁dripping	-11.1498
▁skylight	-11.1498
▁destruction	-11.1498
▁napkin	-11.1498
▁ambition	-11.1498
▁elaborate	-11.1498
▁celebrity	-11.1498
▁ounce	-11.1498
▁baseball	-11.1498
▁southeast	-11.1498
▁device	-11.1499
▁vault	-11.1499
▁inspection	-11.1499
▁kitty	-11.1499
▁rebound	-11.1499
▁dizer	-11.1499
▁chimes	-11.1499
▁sermon	-11.1499
▁favourite	-11.1499
▁operating	-11.1499
▁lease	-11.1499
▁pony	-11.1499
▁senor	-11.1499
▁iowa	-11.1499
▁shipment	-11.15
▁whatve	-11.15
▁rookie	-11.15
▁daqui	-11.15
▁chink	-11.15
▁vouch	-11.15
▁clemens	-11.15
▁stale	-11.15
▁chinaman	-11.15
▁courtroom	-11.15
▁jerkoff	-11.15
▁ruthless	-11.15
▁wax	-11.15
▁expression	-11.15
▁suzanne	-11.1501
▁thorpe	-11.1501
▁essential	-11.1501
ately	-11.1501
▁strategy	-11.1501
▁exclaiming	-11.1501
▁ladder	-11.1501
▁pillar	-11.1501
▁infect	-11.1501
▁vince	-11.1501
▁puke	-11.1501
▁lazy	-11.1501
▁civilized	-11.1501
▁bloom	-11.1501
▁convention	-11.1502
▁virginia	-11.1502
▁pussies	-11.1502
▁popping	-11.1502
▁eightball	-11.1502
▁ahhh	-11.1502
▁floorboard	-11.1503
▁noble	-11.1503
▁patty	-11.1503
▁delgado	-11.1503
▁vila	-11.1503
▁attraction	-11.1503
▁gap	-11.1504
▁faithful	-11.1504
▁viva	-11.1504
▁swapped	-11.1504
▁haif	-11.1504
▁amongst	-11.1505
▁mailman	-11.1506
▁ratner	-11.1506
▁trainee	-11.1507
icial	-11.1507
▁sair	-11.1507
uitar	-11.1507
▁guardian	-11.1507
▁agency	-11.1508
▁penis	-11.1508
▁hawk	-11.1509
▁sway	-11.1509
▁donna	-11.1509
▁departed	-11.1509
▁wolfie	-11.1509
▁frame	-11.151
▁rust	-11.151
▁barber	-11.151
coming	-11.151
▁jaw	-11.151
▁fuse	-11.151
▁fry	-11.151
▁aurelio	-11.1511
▁lighthouse	-11.1511
▁ninety	-11.1512
▁dug	-11.1512
▁inspired	-11.1512
▁wooden	-11.1514
▁adopted	-11.1514
▁gig	-11.1514
▁upper	-11.1515
▁serving	-11.1515
▁playboy	-11.1515
▁discovery	-11.1516
▁massacre	-11.1516
▁motive	-11.1516
▁balloon	-11.1517
▁cuban	-11.1517
▁ahem	-11.1518
▁cries	-11.1519
▁qualified	-11.1519
▁accountant	-11.152
▁clanking	-11.152
▁ivan	-11.1521
▁enterprise	-11.1521
▁iate	-11.1521
▁engaged	-11.1521
▁mustang	-11.1522
▁wealthy	-11.1523
▁sailor	-11.1523
▁herr	-11.1524
▁parece	-11.1524
▁worthless	-11.1524
▁peek	-11.1524
▁barf	-11.1525
▁respectable	-11.1525
▁yelled	-11.1525
▁advised	-11.1525
▁parttime	-11.1527
▁snorting	-11.1527
▁dive	-11.1528
▁epi	-11.1528
▁reflect	-11.153
▁trio	-11.1532
▁vain	-11.1533
▁piaying	-11.1534
▁rage	-11.1535
▁martyr	-11.1536
▁weakly	-11.1537
▁floors	-11.1539
▁designed	-11.1539
▁ticking	-11.1541
▁saddle	-11.1542
▁latest	-11.1543
▁forgetting	-11.1545
▁erased	-11.1546
▁mcdonalds	-11.1546
▁relations	-11.1546
▁supplies	-11.1546
▁cheating	-11.1548
▁tale	-11.1548
▁maxie	-11.1551
▁recess	-11.1551
anned	-11.1555
▁skim	-11.1557
▁dame	-11.1557
▁stressed	-11.1557
▁fits	-11.1559
▁brit	-11.1559
▁valued	-11.1561
▁skiing	-11.1562
▁shore	-11.1562
▁iearn	-11.1564
▁eaten	-11.1566
▁smashed	-11.1572
▁ax	-11.1572
▁granted	-11.1572
▁swinging	-11.1574
▁crawling	-11.1574
▁geary	-11.1576
▁container	-11.1576
▁cliffs	-11.1579
▁peanuts	-11.1579
▁freezer	-11.1583
▁cp	-11.1586
▁collected	-11.1587
▁romeo	-11.1589
▁highest	-11.1589
▁badass	-11.1602
▁rebel	-11.1609
▁straightened	-11.1611
▁ranger	-11.1613
▁smiley	-11.1614
▁punched	-11.1619
▁studying	-11.1621
▁collecting	-11.1621
▁taco	-11.1621
pla	-11.1624
▁sorts	-11.1629
▁cord	-11.163
▁tougher	-11.1635
▁iim	-11.1641
▁instincts	-11.1644
▁cuffs	-11.1644
gun	-11.1644
▁fora	-11.1645
shak	-11.1647
nois	-11.1648
▁planted	-11.1649
▁sen	-11.1649
▁wishes	-11.1656
▁swor	-11.1657
▁beard	-11.1659
▁cro	-11.166
▁proved	-11.1666
▁stripes	-11.1676
▁pla	-11.1686
▁peed	-11.1688
▁comedy	-11.1689
▁pretending	-11.1695
▁terror	-11.1696
▁lotus	-11.17
▁lions	-11.1701
▁rebels	-11.1702
lan	-11.1704
▁missin	-11.1705
▁sadd	-11.1711
▁devia	-11.1713
▁graduate	-11.1723
▁assum	-11.1724
▁spots	-11.1727
▁filming	-11.1736
▁lambs	-11.1742
▁sausages	-11.1742
▁peel	-11.1748
▁quem	-11.1749
▁praying	-11.175
▁yea	-11.1757
▁merc	-11.1759
▁shootin	-11.176
tur	-11.176
▁jerking	-11.177
▁prom	-11.1774
▁affairs	-11.1775
▁rein	-11.1775
▁tive	-11.1782
▁drawers	-11.1791
▁crossing	-11.1791
▁posted	-11.1792
fore	-11.1792
jah	-11.1794
▁loading	-11.1798
tai	-11.1799
▁playin	-11.1805
▁bark	-11.1806
sca	-11.1809
▁noses	-11.181
▁ga	-11.1811
rue	-11.1816
▁waters	-11.1823
▁lookit	-11.1839
ager	-11.1841
▁demands	-11.1842
▁guineas	-11.1842
▁sew	-11.1845
ran	-11.1865
▁cleaner	-11.1869
▁snipers	-11.1877
▁ador	-11.1889
▁closely	-11.189
▁iti	-11.1891
▁spl	-11.1891
iam	-11.1894
▁acted	-11.1908
▁bonds	-11.1909
▁civilians	-11.1909
▁uniforms	-11.1909
▁strings	-11.1909
▁yay	-11.1911
▁millers	-11.1915
▁meters	-11.1918
ren	-11.192
set	-11.1921
▁rags	-11.1921
▁contain	-11.1922
zy	-11.1927
ider	-11.1935
▁landing	-11.194
zzle	-11.1942
▁childrens	-11.1945
ath	-11.1946
▁dent	-11.1947
▁secrets	-11.1955
▁counted	-11.197
are	-11.1974
▁daniels	-11.1976
▁dispos	-11.1978
▁relaxed	-11.1983
▁mute	-11.1987
▁respected	-11.1992
▁dom	-11.2001
▁teams	-11.2006
mont	-11.2023
ron	-11.2023
▁imitate	-11.2026
▁wallets	-11.2048
erson	-11.205
▁hike	-11.2065
▁bums	-11.2081
▁skills	-11.2088
ham	-11.2088
fo	-11.2103
▁sings	-11.2112
▁leaders	-11.2112
▁fees	-11.2126
cho	-11.2135
▁chan	-11.2135
▁changes	-11.2137
ants	-11.2157
▁corpses	-11.2172
ette	-11.2176
rai	-11.2178
▁winners	-11.2181
▁decides	-11.2182
▁dates	-11.2188
▁wears	-11.2194
▁promises	-11.2209
mal	-11.2218
rk	-11.2236
look	-11.2256
▁cra	-11.2281
▁formal	-11.2293
uz	-11.2307
▁israel	-11.2362
▁nic	-11.2372
▁dishonor	-11.2379
lain	-11.2402
ember	-11.2408
▁traces	-11.2408
▁computers	-11.2425
▁operati	-11.2441
vel	-11.2446
▁boyles	-11.2451
nha	-11.2459
▁bee	-11.2491
▁codes	-11.2499
▁regrets	-11.2523
▁bun	-11.2529
▁slaves	-11.2532
▁deadly	-11.2542
sized	-11.2547
▁alarms	-11.257
▁lasted	-11.2587
▁types	-11.2602
▁prefers	-11.2602
▁ana	-11.2621
▁blackie	-11.2651
▁tops	-11.2651
ose	-11.2666
eii	-11.2695
▁yell	-11.2695
rity	-11.2703
▁ken	-11.2704
▁builds	-11.2706
▁pockets	-11.2709
▁fellows	-11.271
imb	-11.2727
▁mat	-11.2755
ction	-11.2762
▁sniff	-11.2782
▁stocks	-11.2782
▁who	-11.2802
emos	-11.2816
▁cocksuckers	-11.282
▁risks	-11.2821
▁exc	-11.2821
itz	-11.2844
last	-11.2845
▁rents	-11.2856
▁notices	-11.2858
hole	-11.286
▁dish	-11.287
▁bak	-11.2871
▁submit	-11.2873
▁maker	-11.2885
onica	-11.2887
▁knee	-11.2903
nal	-11.2922
ja	-11.293
▁blank	-11.2941
▁museum	-11.2943
▁sleeve	-11.2943
▁bruise	-11.2943
▁mandingo	-11.2943
▁nazi	-11.2944
win	-11.2944
ebra	-11.2947
▁condom	-11.2948
▁invitation	-11.2949
▁coffin	-11.2949
▁method	-11.2949
▁claw	-11.295
▁fag	-11.2952
▁cadillac	-11.2953
▁compliment	-11.2953
▁statie	-11.2953
▁stamp	-11.2953
▁coroner	-11.2958
▁thug	-11.2959
▁degree	-11.2961
▁yelp	-11.2962
▁employee	-11.2962
▁tyre	-11.2965
▁jingle	-11.2965
▁greeting	-11.2981
▁stack	-11.2992
▁repay	-11.2993
▁din	-11.3012
▁sk	-11.3013
▁ned	-11.3018
▁mam	-11.3034
▁psych	-11.3039
fish	-11.3042
leans	-11.3052
ology	-11.3054
▁swap	-11.3062
▁walker	-11.3078
▁invest	-11.3079
▁smiles	-11.3084
pers	-11.3086
▁arc	-11.3087
▁physic	-11.3087
faced	-11.3093
face	-11.3098
ship	-11.3104
▁girlfriends	-11.3115
finite	-11.3118
▁imagin	-11.3119
walk	-11.3119
view	-11.312
wise	-11.312
▁piay	-11.3121
herefore	-11.3121
related	-11.3122
ability	-11.3122
level	-11.3122
school	-11.3123
minute	-11.3123
▁prosecut	-11.3123
yeah	-11.3123
box	-11.3124
track	-11.3125
▁smuggle	-11.3125
six	-11.3128
maid	-11.3128
▁blink	-11.3129
rimp	-11.3131
stand	-11.3131
▁invent	-11.3131
▁elect	-11.3131
▁conquer	-11.3131
▁addict	-11.3131
▁alert	-11.3132
▁abandon	-11.3133
oster	-11.3134
▁teenage	-11.3135
▁pour	-11.3135
ake	-11.3137
▁unlock	-11.3137
▁achieve	-11.3139
ingu	-11.3141
▁locate	-11.3142
kill	-11.3143
▁confuse	-11.3143
▁jr	-11.3144
▁heav	-11.3145
▁howl	-11.3145
eathers	-11.3147
eight	-11.315
▁marsh	-11.3155
▁volta	-11.3155
▁quo	-11.3156
▁realizes	-11.3156
mark	-11.3157
▁detect	-11.3157
▁applaud	-11.3158
ware	-11.3158
▁numb	-11.3159
▁leavin	-11.316
▁princip	-11.3161
▁spun	-11.3161
▁darlin	-11.3162
rotti	-11.3162
▁convers	-11.3162
▁sorrow	-11.3162
ations	-11.3163
gerald	-11.3163
▁domestic	-11.3163
▁treach	-11.3163
▁acontec	-11.3164
▁blunt	-11.3164
▁elegant	-11.3164
▁forecast	-11.3164
dwarf	-11.3164
▁accomplice	-11.3164
▁acidente	-11.3164
▁aconteceu	-11.3164
▁aiberto	-11.3164
▁airplane	-11.3164
▁anyhow	-11.3164
▁arrogant	-11.3164
▁asylum	-11.3164
▁audio	-11.3164
▁banner	-11.3164
▁baxter	-11.3164
▁bimmel	-11.3164
▁boulevard	-11.3164
▁bourbon	-11.3164
▁bronx	-11.3164
▁bubba	-11.3164
▁cannibal	-11.3164
▁carnival	-11.3164
▁cavalry	-11.3164
▁centuries	-11.3164
▁ceremony	-11.3164
▁christopher	-11.3164
▁coiombia	-11.3164
▁communicate	-11.3164
▁compromise	-11.3164
▁confusion	-11.3164
▁courier	-11.3164
▁crucify	-11.3164
▁debbie	-11.3164
▁deceased	-11.3164
▁dilemma	-11.3164
▁dorsia	-11.3164
▁elizabeth	-11.3164
▁evacuate	-11.3164
▁explanation	-11.3164
▁fabulous	-11.3164
▁fingernails	-11.3164
▁fischer	-11.3164
▁flinching	-11.3164
▁fontane	-11.3164
▁fountain	-11.3164
▁fuentes	-11.3164
▁generator	-11.3164
▁groovy	-11.3164
▁gypsies	-11.3164
▁gypsy	-11.3164
▁haggle	-11.3164
▁heartbreaker	-11.3164
▁huddle	-11.3164
▁inglewood	-11.3164
▁insecure	-11.3164
▁inspiration	-11.3164
▁intact	-11.3164
▁intimate	-11.3164
▁intimidat	-11.3164
▁itzak	-11.3164
▁jehovah	-11.3164
▁jordy	-11.3164
▁kamasutra	-11.3164
▁lombardo	-11.3164
▁loretta	-11.3164
▁luggage	-11.3164
▁lynn	-11.3164
▁mechanism	-11.3164
▁midwest	-11.3164
▁mofet	-11.3164
▁montauk	-11.3164
▁mouthwash	-11.3164
▁mozart	-11.3164
▁munroe	-11.3164
▁nigeria	-11.3164
▁nowadays	-11.3164
▁ogura	-11.3164
▁oooh	-11.3164
▁organisation	-11.3164
▁orient	-11.3164
▁outreach	-11.3164
▁panache	-11.3164
▁philadelphia	-11.3164
▁prix	-11.3164
▁racist	-11.3164
▁receiving	-11.3164
▁reclamation	-11.3164
▁reconcile	-11.3164
▁rehab	-11.3164
▁resign	-11.3164
▁rhyme	-11.3164
▁rugrat	-11.3164
▁santiago	-11.3164
▁seideibaum	-11.3164
▁serrano	-11.3164
▁shokner	-11.3164
▁shrieking	-11.3164
▁sisterinlaw	-11.3164
▁skateboard	-11.3164
▁slick	-11.3164
▁snarling	-11.3164
▁solidarity	-11.3164
▁somewhat	-11.3164
▁spaniard	-11.3164
▁specimen	-11.3164
▁splash	-11.3164
▁squirt	-11.3164
▁suspicion	-11.3164
▁teiephone	-11.3164
▁tessio	-11.3164
▁thanksgiving	-11.3164
▁theories	-11.3164
▁toledo	-11.3164
▁torino	-11.3164
▁transaction	-11.3164
▁tremendous	-11.3164
▁tucson	-11.3164
▁universe	-11.3164
▁vazir	-11.3164
▁veteran	-11.3164
▁vietcong	-11.3164
▁wardrobe	-11.3164
▁wheelchair	-11.3164
▁absence	-11.3164
▁biack	-11.3164
▁clamoring	-11.3164
▁debate	-11.3164
▁envy	-11.3164
▁hardcore	-11.3164
▁havin	-11.3164
▁jeffrey	-11.3164
▁ongoing	-11.3164
▁precisa	-11.3164
▁probable	-11.3164
▁promising	-11.3164
▁replica	-11.3164
▁scalp	-11.3164
▁tiptoe	-11.3164
▁amendment	-11.3164
▁ariel	-11.3164
▁bishop	-11.3164
▁entitle	-11.3164
▁faun	-11.3164
▁kovacs	-11.3164
▁payroll	-11.3164
▁philip	-11.3164
▁sedated	-11.3164
▁seduce	-11.3164
▁snoring	-11.3164
▁licence	-11.3164
▁muita	-11.3164
▁napalm	-11.3164
▁norton	-11.3164
▁balm	-11.3164
▁cigar	-11.3164
▁deciding	-11.3164
▁floyd	-11.3164
▁impact	-11.3164
▁surprising	-11.3164
▁violet	-11.3164
▁meatballs	-11.3164
▁douglas	-11.3164
▁hunch	-11.3164
▁ribbon	-11.3164
▁prophet	-11.3164
▁sinners	-11.3164
▁bennings	-11.3164
▁poiitic	-11.3164
▁porfavor	-11.3164
▁spurs	-11.3164
▁davis	-11.3164
▁ellis	-11.3164
▁hollow	-11.3164
▁judith	-11.3164
▁stonesipher	-11.3164
▁squawking	-11.3164
▁taylor	-11.3164
▁commence	-11.3164
▁compet	-11.3164
▁nathan	-11.3164
▁pucker	-11.3164
▁sloppy	-11.3164
▁videotape	-11.3164
▁antwan	-11.3164
▁trading	-11.3164
▁prostitution	-11.3164
▁disneyland	-11.3164
▁stevens	-11.3164
▁turtle	-11.3164
▁incarceration	-11.3164
▁lottery	-11.3164
▁rookwood	-11.3164
▁whatsoever	-11.3164
▁strapped	-11.3164
▁whatwhat	-11.3164
▁acquaintance	-11.3164
▁covet	-11.3164
▁graduation	-11.3164
▁harvest	-11.3164
▁whizz	-11.3164
▁meself	-11.3164
▁salvation	-11.3164
▁mustache	-11.3164
▁yank	-11.3164
▁hammond	-11.3164
▁forbidden	-11.3164
▁raquel	-11.3164
▁eternity	-11.3164
▁stray	-11.3164
▁fiction	-11.3164
▁marsha	-11.3164
▁robot	-11.3164
▁denny	-11.3164
▁charging	-11.3164
▁mario	-11.3164
▁beggar	-11.3164
▁kelly	-11.3164
▁species	-11.3164
▁italianamerican	-11.3164
▁dildo	-11.3164
▁backwards	-11.3164
▁yummy	-11.3164
▁craig	-11.3164
▁gooey	-11.3164
▁logical	-11.3164
▁dorm	-11.3164
▁typing	-11.3164
▁kint	-11.3164
▁heap	-11.3164
▁wiggl	-11.3165
▁establishment	-11.3165
▁colorado	-11.3165
▁software	-11.3165
▁tragic	-11.3165
▁chinamen	-11.3165
▁knot	-11.3165
▁romy	-11.3165
▁georgette	-11.3165
▁frustration	-11.3165
▁bride	-11.3165
▁hmhm	-11.3165
▁blackjack	-11.3165
▁anonymous	-11.3165
▁matou	-11.3165
▁leap	-11.3165
▁dummy	-11.3165
▁welby	-11.3165
▁romina	-11.3165
▁slack	-11.3165
▁danish	-11.3165
▁appropriate	-11.3165
wofourthreeseven	-11.3165
▁symphony	-11.3165
▁western	-11.3165
▁lowlife	-11.3165
▁tramp	-11.3165
▁fidel	-11.3165
▁waking	-11.3166
▁crisp	-11.3166
▁gringo	-11.3166
▁powerboat	-11.3166
▁motre	-11.3166
▁knight	-11.3166
▁trang	-11.3166
▁punt	-11.3166
▁rapist	-11.3166
▁quarterback	-11.3166
▁dependent	-11.3166
▁mortal	-11.3166
▁mmmmmm	-11.3166
▁canteen	-11.3166
▁dunk	-11.3166
▁revoir	-11.3166
▁condo	-11.3166
▁detector	-11.3166
▁otter	-11.3166
▁tudo	-11.3166
▁neri	-11.3167
▁attic	-11.3167
▁mineral	-11.3167
▁snot	-11.3167
▁respectfully	-11.3167
▁hound	-11.3167
▁petty	-11.3167
▁retain	-11.3167
▁jokers	-11.3167
▁effective	-11.3167
▁confident	-11.3167
▁greenville	-11.3167
▁mush	-11.3168
▁remote	-11.3168
▁sufficient	-11.3168
▁vulnerable	-11.3168
▁dignity	-11.3168
▁elsewhere	-11.3168
▁hobby	-11.3168
▁lenny	-11.3168
▁seattle	-11.3168
▁shade	-11.3168
▁negotiating	-11.3168
▁proudfoot	-11.3168
▁acceptance	-11.3168
▁elite	-11.3168
▁tide	-11.3169
▁inquiries	-11.3169
▁recon	-11.3169
▁lark	-11.3169
▁overtime	-11.3169
▁fitts	-11.3169
▁exam	-11.3169
▁phu	-11.317
▁translat	-11.317
▁waii	-11.317
▁buckle	-11.317
▁philosophy	-11.317
▁aww	-11.317
▁skimm	-11.317
urance	-11.317
▁salesman	-11.317
▁dishes	-11.317
▁groceries	-11.317
▁leper	-11.317
▁stir	-11.3171
▁hopefully	-11.3171
▁temper	-11.3171
▁election	-11.3171
▁historical	-11.3171
▁carmine	-11.3171
▁choir	-11.3172
▁chow	-11.3172
▁halt	-11.3172
▁condemned	-11.3172
▁instructed	-11.3172
▁keen	-11.3172
▁atlanta	-11.3173
▁contra	-11.3173
▁dora	-11.3173
▁wig	-11.3173
▁lightning	-11.3174
▁broom	-11.3174
▁rosie	-11.3174
▁reduce	-11.3174
▁allegedly	-11.3174
▁whir	-11.3175
▁scottie	-11.3175
▁rooster	-11.3175
▁delia	-11.3175
▁tomatoes	-11.3176
▁entry	-11.3176
▁reserve	-11.3176
▁curtain	-11.3176
▁reform	-11.3176
▁colt	-11.3176
▁turd	-11.3177
▁combine	-11.3178
▁stripper	-11.3178
▁distinguished	-11.3178
▁sliding	-11.3178
▁liberat	-11.3179
▁precisely	-11.3179
▁forgiveness	-11.3179
▁smooch	-11.3179
▁stealth	-11.3179
▁specialist	-11.318
▁alter	-11.3182
▁certainty	-11.3182
▁stalker	-11.3182
▁northup	-11.3183
▁gently	-11.3183
▁hutchie	-11.3184
▁clanging	-11.3184
▁disturbing	-11.3184
▁giri	-11.3184
▁boost	-11.3184
▁gimp	-11.3184
▁dash	-11.3184
▁unhand	-11.3185
▁microprocessors	-11.3185
▁tapped	-11.3186
▁quitting	-11.3186
▁recovery	-11.3186
▁conscious	-11.3186
▁ranch	-11.3189
▁alcoholic	-11.3189
▁itch	-11.3189
▁partial	-11.3189
▁exhausted	-11.319
▁required	-11.319
▁rejected	-11.319
▁crooked	-11.319
▁stillwater	-11.319
▁grit	-11.3191
▁cellphone	-11.3192
▁acu	-11.3192
▁cheeky	-11.3192
▁ego	-11.3193
▁nba	-11.3193
▁slaver	-11.3194
▁affected	-11.3195
▁crane	-11.3196
▁moss	-11.3196
▁crashes	-11.3197
▁stretcher	-11.3199
▁policemen	-11.3199
▁dragged	-11.3199
▁active	-11.3201
▁vanished	-11.3201
▁rental	-11.3201
▁tet	-11.3203
▁stroll	-11.3205
▁violently	-11.3205
▁recovered	-11.3207
made	-11.3211
▁spine	-11.3212
▁teaches	-11.3212
▁vibrating	-11.3215
▁mumbl	-11.3216
▁proven	-11.3216
▁solo	-11.3218
▁gumb	-11.3219
▁fled	-11.322
▁imitation	-11.322
▁accused	-11.322
▁standup	-11.3222
▁ew	-11.3222
ln	-11.3222
▁playlng	-11.3223
▁warriors	-11.3223
▁samm	-11.3223
▁lowery	-11.3225
▁goodnight	-11.3226
▁pinky	-11.3227
▁fiy	-11.3229
▁exceptional	-11.3229
▁mustnt	-11.3231
▁but	-11.3231
▁cutter	-11.3232
▁dante	-11.3233
▁goldie	-11.3233
▁buzzer	-11.3234
▁corporat	-11.3237
▁loot	-11.3238
▁gathering	-11.3239
▁kiddo	-11.3239
▁shocked	-11.3243
▁sewer	-11.3245
▁fur	-11.3246
▁beaches	-11.3248
▁steering	-11.3248
▁tuck	-11.3248
▁shutting	-11.3252
▁copies	-11.3252
▁kisses	-11.3253
▁insisted	-11.3253
▁goose	-11.3255
▁henryk	-11.3255
▁chemicals	-11.3261
▁sadly	-11.3262
▁assaulted	-11.3265
▁dragg	-11.3268
▁net	-11.3271
sound	-11.3271
▁traced	-11.3272
▁tricky	-11.3279
▁responding	-11.3279
▁scratching	-11.3279
▁risky	-11.3282
pping	-11.3283
ridge	-11.3287
▁gostar	-11.3291
▁dose	-11.3298
▁antiques	-11.3301
▁ribs	-11.3301
▁loosen	-11.3302
▁corpos	-11.3303
han	-11.3305
▁recorder	-11.3311
▁substance	-11.3312
▁hangin	-11.3313
▁rollin	-11.3315
▁getaway	-11.3317
▁photographer	-11.3321
▁generally	-11.3326
▁peck	-11.3327
▁carla	-11.3327
▁zed	-11.3328
lined	-11.3328
▁toke	-11.3332
▁blamed	-11.3335
▁marie	-11.3337
▁hardon	-11.3337
▁amateurs	-11.3339
▁passports	-11.3339
▁inmates	-11.3339
▁principles	-11.334
▁moans	-11.334
▁cb	-11.3343
▁existed	-11.3344
pound	-11.3347
▁destroying	-11.3361
▁fighter	-11.3363
▁bothered	-11.3363
▁prayers	-11.3363
▁poll	-11.3364
▁slower	-11.3369
▁added	-11.3371
▁greetings	-11.3379
▁thugs	-11.3379
▁cadillacs	-11.3379
▁compliments	-11.3379
▁staties	-11.3379
▁stamps	-11.3379
▁contacted	-11.338
rated	-11.3381
▁horny	-11.3381
▁slo	-11.3382
door	-11.3383
▁wat	-11.3383
▁choices	-11.3384
▁shorty	-11.3386
▁eatin	-11.339
▁rushing	-11.3393
▁suspected	-11.3398
▁pedir	-11.3401
▁discussing	-11.3402
tte	-11.3404
fu	-11.3404
▁umm	-11.3416
▁roots	-11.3418
▁designs	-11.342
▁wally	-11.3433
▁shipp	-11.3435
▁pose	-11.3436
oom	-11.3438
▁participate	-11.3442
▁beni	-11.3454
▁ko	-11.3456
▁associates	-11.3459
▁interpret	-11.3461
▁bleach	-11.3461
wing	-11.3463
▁fac	-11.3466
▁wicked	-11.3469
▁nicker	-11.3471
▁define	-11.3471
▁sucked	-11.3473
nine	-11.3473
▁visited	-11.3477
▁announced	-11.3483
▁skipp	-11.349
▁defendants	-11.3498
▁der	-11.3498
▁fighters	-11.3499
▁fasten	-11.3503
▁ut	-11.3508
▁cocking	-11.3514
ovic	-11.3514
ene	-11.3521
▁coz	-11.3521
▁fixing	-11.3524
▁tub	-11.3526
▁boarded	-11.3532
▁communists	-11.3536
▁superiors	-11.3538
▁batt	-11.3543
▁occurs	-11.3543
anc	-11.356
▁mills	-11.3561
▁procedures	-11.3578
▁tunnels	-11.3578
▁arrows	-11.3578
▁jd	-11.3579
▁dancer	-11.3583
▁funds	-11.3586
▁sil	-11.3597
▁av	-11.3618
▁cowards	-11.3618
▁beasts	-11.3618
▁twins	-11.3619
▁mates	-11.3621
▁watchin	-11.3622
har	-11.3653
▁accus	-11.3658
▁patterns	-11.3659
▁layer	-11.367
▁boarding	-11.3676
▁pam	-11.3679
▁dec	-11.368
▁pikeys	-11.3699
▁talents	-11.3701
cede	-11.3705
▁shack	-11.3721
uit	-11.3727
▁lanes	-11.374
lers	-11.3748
▁disc	-11.3755
▁via	-11.3758
▁poder	-11.3759
▁lively	-11.376
▁espera	-11.3766
▁bon	-11.377
▁ni	-11.3778
▁jac	-11.378
▁rabbits	-11.3781
▁den	-11.3796
▁chic	-11.3807
▁bulls	-11.3812
▁scheme	-11.3821
▁lifeguards	-11.3822
▁limits	-11.3824
▁represents	-11.3824
▁entre	-11.3836
▁reporters	-11.3858
▁dolls	-11.3862
▁servants	-11.3863
▁royals	-11.3863
▁keeper	-11.3865
▁wha	-11.3866
▁explains	-11.3869
▁sites	-11.3877
▁bab	-11.3894
ullet	-11.3897
▁murdering	-11.3903
▁marshals	-11.3905
ques	-11.3923
▁cooks	-11.3924
erate	-11.3925
itude	-11.3926
▁killin	-11.3942
beings	-11.3976
▁usc	-11.3976
more	-11.398
▁models	-11.3988
tt	-11.3991
▁milli	-11.4007
▁shi	-11.4019
▁fol	-11.4034
▁scares	-11.4055
tel	-11.4058
▁videos	-11.4072
▁stripe	-11.4078
▁abu	-11.4105
▁aro	-11.413
▁concerns	-11.4159
▁priests	-11.4161
▁digg	-11.4176
aro	-11.4182
▁vir	-11.4186
▁tru	-11.4192
dar	-11.4206
▁scams	-11.4207
olo	-11.4216
▁imim	-11.4229
▁dei	-11.4233
▁indulge	-11.4242
cat	-11.4252
abel	-11.4261
elle	-11.4274
▁predict	-11.4276
heart	-11.4277
ograph	-11.4278
idade	-11.4282
▁boyfriends	-11.4284
▁farms	-11.4286
▁tit	-11.4295
titude	-11.4308
▁bangs	-11.4308
▁gro	-11.4321
▁ideal	-11.4326
hop	-11.4357
bel	-11.4359
iggy	-11.436
idor	-11.437
▁terrorists	-11.4371
▁pitas	-11.4377
sure	-11.4383
▁herm	-11.4424
▁cora	-11.4437
▁rei	-11.4456
▁castles	-11.4459
ool	-11.4463
iza	-11.4465
▁flu	-11.4466
▁gl	-11.4475
quel	-11.4527
seja	-11.4541
teau	-11.4551
dia	-11.4567
▁kr	-11.4568
▁pil	-11.4569
gers	-11.4588
▁aunts	-11.4589
▁commands	-11.4594
mina	-11.4602
▁conversations	-11.4634
▁drip	-11.4648
▁bites	-11.4654
lings	-11.4673
ible	-11.4679
▁faci	-11.4697
▁lev	-11.4708
minded	-11.4716
▁sights	-11.4733
▁grip	-11.4741
job	-11.4741
stock	-11.4748
dental	-11.4753
iike	-11.4774
umb	-11.4782
▁mir	-11.4783
fined	-11.4803
gged	-11.4805
▁weights	-11.4814
▁tab	-11.4823
▁participat	-11.4834
zero	-11.4844
▁graves	-11.4846
bone	-11.4852
ety	-11.4867
▁def	-11.4879
phone	-11.4909
▁crook	-11.4912
▁exception	-11.4914
▁bog	-11.4916
▁affect	-11.4922
▁moan	-11.4927
▁groan	-11.4931
gh	-11.4935
▁tele	-11.4938
▁gum	-11.494
▁creature	-11.4943
▁pencil	-11.4943
▁stockbroker	-11.4943
▁pedi	-11.4948
▁clap	-11.495
▁amateur	-11.4953
▁passport	-11.4953
▁morte	-11.4954
▁instinct	-11.4956
▁inmate	-11.4956
▁principle	-11.4956
▁heel	-11.4958
▁wanker	-11.4961
▁politician	-11.4963
▁cuff	-11.4964
▁cloud	-11.4965
▁demon	-11.4965
▁complaint	-11.4968
org	-11.497
▁pace	-11.4972
ario	-11.4973
pec	-11.4979
▁flee	-11.4981
▁billboard	-11.4982
tched	-11.4985
earned	-11.499
sher	-11.4993
▁that	-11.4995
▁involv	-11.5005
▁dele	-11.5006
snick	-11.5023
▁podem	-11.5023
vast	-11.5025
▁mic	-11.5034
tically	-11.504
▁fade	-11.5048
▁yu	-11.5048
▁prayer	-11.5057
eat	-11.5068
▁cle	-11.507
hoe	-11.5074
rlng	-11.5075
▁coup	-11.5081
▁surround	-11.5087
▁embarrass	-11.5091
ewer	-11.5104
▁scen	-11.5107
trus	-11.5112
body	-11.5113
bound	-11.5116
ward	-11.5117
corn	-11.5118
▁flirt	-11.5118
break	-11.5118
mother	-11.5119
scent	-11.5121
friendly	-11.5122
▁snort	-11.5122
▁echo	-11.5122
known	-11.5122
distance	-11.5122
security	-11.5122
clear	-11.5123
white	-11.5123
▁disgust	-11.5123
jesus	-11.5123
▁float	-11.5123
write	-11.5123
famous	-11.5123
scene	-11.5123
around	-11.5125
▁layin	-11.5126
count	-11.5127
▁giusepp	-11.5128
▁reopen	-11.5129
▁reject	-11.513
good	-11.5131
▁exhaust	-11.5132
▁invad	-11.5132
▁spoil	-11.5133
▁kat	-11.5136
▁ren	-11.5137
▁confine	-11.514
▁hum	-11.514
▁promote	-11.5143
▁shred	-11.5146
keeper	-11.5146
ryan	-11.5146
▁facilit	-11.5148
worth	-11.5149
▁cicci	-11.5149
▁shag	-11.5151
▁instant	-11.5151
▁crow	-11.5153
▁atlant	-11.5153
▁gag	-11.5153
▁slight	-11.5153
▁rud	-11.5155
▁domino	-11.5157
erno	-11.5158
boat	-11.5158
▁cub	-11.5158
▁sentiment	-11.5159
▁underestimate	-11.5159
▁automat	-11.5161
▁ambi	-11.5161
▁alleged	-11.5162
▁rook	-11.5162
▁flaming	-11.5162
▁infant	-11.5162
▁sierra	-11.5162
▁paw	-11.5163
▁iaw	-11.5163
orris	-11.5163
▁culpa	-11.5163
▁enchant	-11.5164
▁hallelu	-11.5164
▁strict	-11.5164
▁courtmartial	-11.5164
▁deploy	-11.5164
▁disobey	-11.5164
▁encounter	-11.5164
▁uncover	-11.5164
ibility	-11.5164
▁adapt	-11.5164
▁andolini	-11.5164
▁applied	-11.5164
▁appointed	-11.5164
▁april	-11.5164
▁austin	-11.5164
▁autopsy	-11.5164
▁avalon	-11.5164
▁balcon	-11.5164
▁bathtub	-11.5164
▁baufort	-11.5164
▁beautifui	-11.5164
▁bolivia	-11.5164
▁brantner	-11.5164
▁bredoteau	-11.5164
▁brotherinlaw	-11.5164
▁caligari	-11.5164
▁cannoli	-11.5164
▁cartagena	-11.5164
▁casitas	-11.5164
▁cecelia	-11.5164
▁chegou	-11.5164
▁cicero	-11.5164
▁cobolt	-11.5164
▁comigo	-11.5164
▁convenient	-11.5164
▁convincing	-11.5164
▁corcoran	-11.5164
▁croix	-11.5164
▁crotch	-11.5164
▁cruise	-11.5164
▁curfew	-11.5164
▁dahlia	-11.5164
▁dartagnan	-11.5164
▁desaparece	-11.5164
▁dictate	-11.5164
▁dimples	-11.5164
▁disorder	-11.5164
▁display	-11.5164
▁doorknob	-11.5164
▁dummies	-11.5164
▁edmund	-11.5164
▁einstein	-11.5164
▁episode	-11.5164
▁exotic	-11.5164
▁felony	-11.5164
▁finneran	-11.5164
▁frequent	-11.5164
▁genitals	-11.5164
▁gibson	-11.5164
▁goofy	-11.5164
▁gurgling	-11.5164
▁gustafson	-11.5164
▁halberstram	-11.5164
▁hamburger	-11.5164
▁heaith	-11.5164
▁hehheh	-11.5164
▁horribie	-11.5164
▁identical	-11.5164
▁ieaving	-11.5164
▁immune	-11.5164
▁inclined	-11.5164
▁intersection	-11.5164
▁jeopardiz	-11.5164
▁journey	-11.5164
▁jukebox	-11.5164
▁kalfus	-11.5164
▁kalliste	-11.5164
▁kangaroo	-11.5164
▁kettle	-11.5164
▁kilometer	-11.5164
▁klick	-11.5164
▁knicks	-11.5164
▁kraut	-11.5164
▁kruczynski	-11.5164
▁lambeau	-11.5164
▁limousine	-11.5164
▁lippman	-11.5164
▁lollipop	-11.5164
▁loneliness	-11.5164
▁lucchesi	-11.5164
▁maintenance	-11.5164
▁margaret	-11.5164
▁marilyn	-11.5164
▁mccluskey	-11.5164
▁memphis	-11.5164
▁mississippi	-11.5164
▁multiply	-11.5164
▁myseif	-11.5164
▁nebelsbad	-11.5164
▁oasis	-11.5164
▁oblivio	-11.5164
▁offensive	-11.5164
▁outrageous	-11.5164
▁overthrow	-11.5164
▁pendejo	-11.5164
▁pensacola	-11.5164
▁perjury	-11.5164
▁permanent	-11.5164
▁persuade	-11.5164
▁pfft	-11.5164
▁pieasure	-11.5164
▁poetry	-11.5164
▁predator	-11.5164
▁prejudice	-11.5164
▁premiere	-11.5164
▁premium	-11.5164
▁prescription	-11.5164
▁prevail	-11.5164
▁pronounce	-11.5164
▁quadriplegic	-11.5164
▁quincampoix	-11.5164
▁railroad	-11.5164
▁reassigned	-11.5164
▁rebuild	-11.5164
▁relief	-11.5164
▁renounce	-11.5164
▁resolution	-11.5164
▁rhonda	-11.5164
▁rizzi	-11.5164
▁rockefeller	-11.5164
▁rosalind	-11.5164
▁sabrina	-11.5164
▁satellite	-11.5164
▁saucier	-11.5164
▁scissors	-11.5164
▁screenplay	-11.5164
▁seagull	-11.5164
▁sheehan	-11.5164
▁shield	-11.5164
▁squirrel	-11.5164
▁stammers	-11.5164
▁suspended	-11.5164
▁suspension	-11.5164
▁swift	-11.5164
▁sybil	-11.5164
▁tangerine	-11.5164
▁thrust	-11.5164
▁titties	-11.5164
▁tribute	-11.5164
▁trophy	-11.5164
▁tucumcari	-11.5164
▁unemployed	-11.5164
▁unlucky	-11.5164
▁unnecessary	-11.5164
▁upgrade	-11.5164
▁upriver	-11.5164
▁valium	-11.5164
▁vendetta	-11.5164
▁vicinity	-11.5164
▁vigilant	-11.5164
▁wouah	-11.5164
▁xanax	-11.5164
▁battalion	-11.5164
▁canyon	-11.5164
▁chalk	-11.5164
▁demais	-11.5164
▁demise	-11.5164
▁dmv	-11.5164
▁evelyn	-11.5164
▁gareth	-11.5164
▁handbill	-11.5164
▁jochen	-11.5164
▁justjust	-11.5164
▁leash	-11.5164
▁lkoma	-11.5164
▁missouri	-11.5164
▁nickname	-11.5164
▁overture	-11.5164
▁peculiar	-11.5164
▁radlo	-11.5164
▁shady	-11.5164
▁siago	-11.5164
▁tractor	-11.5164
▁tumble	-11.5164
▁violin	-11.5164
▁wendy	-11.5164
▁whoohoo	-11.5164
▁cafe	-11.5164
▁cyber	-11.5164
▁essence	-11.5164
▁franchi	-11.5164
▁gerard	-11.5164
▁goodwill	-11.5164
▁heartache	-11.5164
▁oof	-11.5164
▁roaring	-11.5164
▁scandal	-11.5164
▁sixteen	-11.5164
▁clyde	-11.5164
▁dessert	-11.5164
▁disabled	-11.5164
▁error	-11.5164
▁pigeon	-11.5164
▁yarbi	-11.5164
▁creation	-11.5164
▁nitroglycerin	-11.5164
▁brodsky	-11.5164
▁jingling	-11.5164
▁lutz	-11.5164
▁trucoat	-11.5164
▁cantonese	-11.5164
▁dyke	-11.5164
▁fascis	-11.5164
▁helos	-11.5164
▁humiliation	-11.5164
▁padre	-11.5164
▁hottest	-11.5164
▁implant	-11.5164
▁reign	-11.5164
▁reveal	-11.5164
▁transsexual	-11.5164
dolph	-11.5164
▁flynn	-11.5164
▁gorilla	-11.5164
▁possibilities	-11.5164
▁reemer	-11.5164
▁sensation	-11.5164
▁blaming	-11.5164
▁dyle	-11.5164
▁garces	-11.5164
▁meditation	-11.5164
▁elephant	-11.5164
▁pepsi	-11.5164
▁roars	-11.5164
▁gym	-11.5164
▁doris	-11.5164
▁bloodshed	-11.5164
▁bugged	-11.5164
▁defeat	-11.5164
▁deleye	-11.5164
▁infirmary	-11.5164
▁pinned	-11.5164
▁gallery	-11.5164
▁kitten	-11.5164
▁tactics	-11.5164
▁telegraph	-11.5164
▁pesos	-11.5164
▁puddin	-11.5164
▁cristal	-11.5164
▁ipo	-11.5164
▁applies	-11.5164
▁cheesy	-11.5164
▁breed	-11.5164
▁georgieboy	-11.5164
▁slren	-11.5164
▁urine	-11.5164
▁departure	-11.5164
▁sponsorship	-11.5164
odoo	-11.5164
▁lugar	-11.5164
▁cleve	-11.5164
▁resettle	-11.5164
▁cubber	-11.5164
▁dinah	-11.5164
▁update	-11.5164
▁violated	-11.5164
▁rebuilt	-11.5164
▁wasp	-11.5164
▁scotland	-11.5164
▁veins	-11.5164
▁spiritual	-11.5164
▁culpable	-11.5164
▁gaze	-11.5164
▁sodium	-11.5164
▁twinkle	-11.5164
▁magnum	-11.5164
▁hydro	-11.5164
▁studied	-11.5164
▁corky	-11.5164
▁scarface	-11.5164
▁halina	-11.5164
▁ciose	-11.5164
▁clover	-11.5164
▁interior	-11.5164
▁kilo	-11.5164
▁solitary	-11.5164
▁ankle	-11.5164
▁senile	-11.5164
▁homosexual	-11.5164
▁commute	-11.5164
▁dipshit	-11.5164
▁combination	-11.5164
▁gagging	-11.5164
▁negro	-11.5164
▁sissy	-11.5164
▁afghanis	-11.5164
▁contingenc	-11.5164
▁heavier	-11.5164
▁timmy	-11.5164
▁mendl	-11.5164
▁chunk	-11.5164
▁conceiv	-11.5164
▁verify	-11.5164
▁columbus	-11.5164
▁overlook	-11.5165
▁onions	-11.5165
▁estamos	-11.5165
udge	-11.5165
▁caution	-11.5165
▁taxfree	-11.5165
▁fink	-11.5165
▁marcel	-11.5165
▁iraq	-11.5165
▁upstate	-11.5165
▁donald	-11.5165
▁snuck	-11.5165
▁judging	-11.5165
▁obsession	-11.5165
▁offence	-11.5165
▁dozer	-11.5165
▁vicious	-11.5165
▁ivory	-11.5165
▁robinson	-11.5165
▁input	-11.5165
▁dags	-11.5165
▁turf	-11.5165
▁oath	-11.5165
▁dork	-11.5165
▁monica	-11.5165
▁bummer	-11.5165
▁resistance	-11.5165
▁enlist	-11.5165
▁whipping	-11.5165
▁pledge	-11.5165
▁intel	-11.5165
▁scale	-11.5165
▁webb	-11.5165
▁burial	-11.5165
▁dandy	-11.5165
▁cuss	-11.5165
▁memorial	-11.5165
▁beauties	-11.5165
▁quack	-11.5165
▁eightyearold	-11.5166
▁atmosphere	-11.5166
▁classified	-11.5166
▁thatthat	-11.5166
▁anniversary	-11.5166
▁henchm	-11.5166
▁replacement	-11.5166
▁cayman	-11.5166
▁visto	-11.5166
▁northern	-11.5166
▁patriot	-11.5166
▁embora	-11.5166
▁graveyard	-11.5166
▁passionate	-11.5166
▁tabletop	-11.5166
▁jody	-11.5166
▁pressfield	-11.5166
▁postcard	-11.5166
▁lauren	-11.5166
▁damp	-11.5166
▁jewels	-11.5166
▁boothby	-11.5166
▁economic	-11.5166
▁priority	-11.5166
▁hogan	-11.5166
▁normandy	-11.5166
▁hoover	-11.5166
▁withdrawal	-11.5166
▁shortcut	-11.5167
▁hoof	-11.5167
▁roam	-11.5167
▁smother	-11.5167
▁voil	-11.5167
▁obligation	-11.5167
▁automatic	-11.5167
▁production	-11.5167
▁tension	-11.5167
▁stool	-11.5167
▁tyran	-11.5167
▁drool	-11.5167
▁frost	-11.5167
▁contribution	-11.5167
▁transform	-11.5167
ranged	-11.5167
▁transportation	-11.5167
▁confirmation	-11.5167
▁slightest	-11.5168
▁daft	-11.5168
▁masterpiece	-11.5168
▁scout	-11.5168
▁primetime	-11.5168
▁morality	-11.5168
▁julian	-11.5168
▁monk	-11.5168
▁ceo	-11.5168
▁centre	-11.5168
▁reset	-11.5168
▁myth	-11.5168
▁chopped	-11.5168
▁yonder	-11.5168
▁corruption	-11.5168
▁tart	-11.5168
▁denise	-11.5168
▁foam	-11.5168
▁personalities	-11.5168
▁biki	-11.5169
▁rash	-11.5169
▁acha	-11.5169
▁adrenaline	-11.5169
▁merciful	-11.5169
▁electricity	-11.5169
▁diane	-11.5169
▁earnings	-11.5169
▁belief	-11.5169
▁discipline	-11.5169
▁ketamine	-11.5169
▁recognition	-11.5169
▁vioience	-11.5169
▁conviction	-11.5169
▁jenny	-11.5169
▁pornography	-11.5169
▁orderlies	-11.5169
▁instructor	-11.5169
▁reload	-11.517
▁statue	-11.517
▁attendant	-11.517
▁tenants	-11.517
▁merle	-11.517
▁polo	-11.517
▁dogface	-11.517
▁rusk	-11.5171
▁disposal	-11.5171
▁execution	-11.5171
▁humiliated	-11.5171
▁stake	-11.5171
▁scarf	-11.5171
▁evi	-11.5172
▁african	-11.5172
▁shallow	-11.5172
▁bravery	-11.5172
▁essa	-11.5172
▁farcy	-11.5172
▁choi	-11.5172
▁pius	-11.5173
▁toff	-11.5173
▁plum	-11.5173
▁doublecross	-11.5173
bach	-11.5173
▁forge	-11.5173
▁ashecliffe	-11.5173
▁toothbrush	-11.5174
▁handgun	-11.5174
▁revolver	-11.5174
▁funnylooking	-11.5174
▁salary	-11.5174
▁spiderman	-11.5175
▁herb	-11.5175
horn	-11.5176
▁satan	-11.5176
▁perto	-11.5176
▁canal	-11.5176
nsible	-11.5176
▁sy	-11.5176
ista	-11.5176
▁instantly	-11.5177
▁sympathy	-11.5177
▁alien	-11.5177
▁alongside	-11.5177
▁metres	-11.5177
▁ache	-11.5178
▁inout	-11.5178
▁queria	-11.5178
▁fog	-11.5179
▁thirsty	-11.5179
▁facebook	-11.5179
▁neg	-11.5179
▁creaking	-11.5179
▁phrase	-11.5179
▁salva	-11.5179
▁lucy	-11.5179
▁primeir	-11.518
▁motivated	-11.518
▁villa	-11.518
▁iady	-11.518
▁exploded	-11.5181
▁iad	-11.5181
▁ciccio	-11.5181
▁fico	-11.5181
▁obliged	-11.5182
▁household	-11.5182
▁flattered	-11.5182
▁indicted	-11.5182
▁pense	-11.5182
▁contractor	-11.5182
▁qual	-11.5182
▁deliveries	-11.5183
▁legit	-11.5183
▁iose	-11.5184
▁baer	-11.5184
▁nung	-11.5184
▁cozy	-11.5185
▁authorize	-11.5185
▁prone	-11.5185
▁campus	-11.5185
▁packet	-11.5185
▁promoted	-11.5185
▁croak	-11.5186
▁bunker	-11.5186
▁ej	-11.5187
▁thai	-11.5188
▁surface	-11.5188
▁annoying	-11.5188
▁previously	-11.5188
▁stalking	-11.5189
▁liability	-11.5189
▁hospitality	-11.5189
▁achieved	-11.519
▁lecture	-11.519
▁blackandwhites	-11.5191
▁zlotys	-11.5191
▁dino	-11.5191
▁heroic	-11.5192
▁renton	-11.5193
▁vocation	-11.5195
▁ruben	-11.5195
▁invaded	-11.5196
▁panel	-11.5196
▁located	-11.5197
▁retreating	-11.5198
▁entertaining	-11.5198
▁educated	-11.5199
▁daylight	-11.5199
drugged	-11.5199
▁reno	-11.52
▁barge	-11.5201
▁batter	-11.5202
▁tucked	-11.5203
▁specialty	-11.5203
▁invested	-11.5203
▁beeper	-11.5204
▁aque	-11.5205
▁sacrificed	-11.5205
▁mash	-11.5206
tane	-11.5206
▁christian	-11.5208
▁gigante	-11.5209
▁vig	-11.521
▁digest	-11.521
▁possessed	-11.521
▁wiser	-11.5211
▁lamp	-11.5211
▁sip	-11.5212
▁desperately	-11.5212
▁oppress	-11.5213
▁melted	-11.5213
▁halftime	-11.5214
▁equally	-11.5215
▁pois	-11.5216
▁mason	-11.5217
▁compar	-11.5217
▁yahoo	-11.5218
▁haunted	-11.5218
▁safest	-11.5218
▁stupidity	-11.5218
▁pouring	-11.5218
▁jackass	-11.5218
kid	-11.5219
rek	-11.522
▁compare	-11.522
▁musician	-11.5221
▁gunner	-11.5223
▁fascinate	-11.5223
abbo	-11.5224
▁accomplished	-11.5225
▁nicol	-11.5225
working	-11.5227
▁spooky	-11.5229
▁hopeless	-11.523
▁classes	-11.523
▁nva	-11.5231
▁beth	-11.5232
▁viet	-11.5232
▁richest	-11.5232
self	-11.5233
▁jb	-11.5234
▁ignored	-11.5234
▁dela	-11.5236
▁heights	-11.5237
▁fabrics	-11.5237
▁accusations	-11.5237
▁ganj	-11.5238
mps	-11.5241
▁chad	-11.5242
▁funded	-11.5242
▁lib	-11.5243
▁advanced	-11.5244
▁pieased	-11.5244
▁swed	-11.5245
▁jaii	-11.5246
▁clarke	-11.5247
▁positively	-11.5247
▁tempt	-11.5248
eye	-11.5252
▁sod	-11.5252
▁shattering	-11.5254
▁pumping	-11.5258
▁macer	-11.5261
▁beck	-11.5261
▁lighten	-11.5261
▁dresses	-11.5261
▁ripe	-11.5262
▁maniac	-11.5264
▁heywood	-11.5267
▁peri	-11.5269
▁lax	-11.5271
▁funding	-11.5271
▁boa	-11.5272
▁mainly	-11.5276
dies	-11.5278
▁freaked	-11.5278
▁carbon	-11.5279
▁kindness	-11.5281
▁careless	-11.5281
▁bossman	-11.5284
▁limited	-11.5285
▁resources	-11.5285
▁silencer	-11.5285
▁gamblers	-11.5288
▁spooked	-11.529
▁faker	-11.5296
▁psychopath	-11.5297
▁cookie	-11.5298
▁towing	-11.5299
▁acredit	-11.5299
▁quar	-11.5301
▁buster	-11.5302
▁mea	-11.5302
eemed	-11.5303
▁appeared	-11.5307
▁blo	-11.5307
phones	-11.5307
▁dod	-11.5309
▁unbea	-11.531
▁interrupting	-11.531
ximo	-11.5311
▁completed	-11.5313
▁wired	-11.5314
▁nailed	-11.5315
raising	-11.5328
▁colored	-11.5329
▁proceeded	-11.5333
▁countin	-11.5333
▁grenades	-11.5334
▁mathematics	-11.5334
▁vegetables	-11.5334
▁millionaires	-11.5334
▁tardes	-11.5334
▁stutters	-11.5335
▁christie	-11.5335
▁forc	-11.5337
▁classy	-11.534
▁tilt	-11.5341
▁bella	-11.5341
elling	-11.5346
step	-11.5352
▁comforting	-11.5358
kins	-11.5359
▁hehe	-11.536
▁bombed	-11.536
▁germany	-11.5361
nic	-11.5361
▁paraly	-11.5364
▁suggested	-11.5371
were	-11.5372
▁apologized	-11.5377
▁som	-11.5377
▁tasted	-11.5377
▁discussed	-11.5378
▁shortly	-11.5381
▁paces	-11.5383
▁wankers	-11.5383
▁heels	-11.5384
▁mortes	-11.5384
▁bogs	-11.5384
wait	-11.5384
▁doubled	-11.5386
▁exceptions	-11.5389
mme	-11.539
sley	-11.5391
▁feit	-11.5396
▁clocked	-11.5399
▁unity	-11.5403
▁esc	-11.5405
▁cape	-11.5406
bon	-11.541
▁easter	-11.5412
▁misses	-11.5415
▁batts	-11.5417
▁tested	-11.5422
▁core	-11.5424
adian	-11.5427
omed	-11.5429
▁coffins	-11.5432
▁invitations	-11.5432
▁methods	-11.5432
▁claws	-11.5434
▁ringo	-11.5439
▁bri	-11.5441
▁compos	-11.5445
pper	-11.5448
zed	-11.5449
▁hal	-11.5461
▁whoop	-11.5464
icular	-11.5467
▁py	-11.5478
▁cocktails	-11.5481
▁relatives	-11.5481
▁emotions	-11.5481
▁sob	-11.5488
▁buyin	-11.5495
▁accepted	-11.5501
▁hacker	-11.5504
▁lent	-11.5505
ept	-11.5507
take	-11.5512
uda	-11.5525
▁manson	-11.5529
boom	-11.553
▁arrangements	-11.5531
▁sharks	-11.5531
▁greene	-11.5532
ily	-11.5533
ettes	-11.5536
▁ops	-11.5538
▁pickin	-11.5541
▁ohio	-11.5543
▁tier	-11.5546
▁espere	-11.5555
▁camper	-11.5559
ppy	-11.5559
▁blocking	-11.556
▁sab	-11.5564
uggin	-11.5589
▁feared	-11.5607
igh	-11.5609
▁teiiing	-11.5614
▁appreciated	-11.5614
▁grande	-11.5616
▁pissing	-11.5626
▁dissolve	-11.563
▁blessings	-11.5631
▁mirrors	-11.5635
▁alas	-11.5637
▁martinis	-11.5637
▁cans	-11.5638
▁stared	-11.5639
seat	-11.5643
▁acquire	-11.5647
▁sup	-11.5653
▁laughed	-11.5662
▁ming	-11.5681
▁repairs	-11.5681
▁customs	-11.5682
▁ado	-11.5682
▁specialize	-11.5683
▁whwh	-11.5685
▁tease	-11.5706
▁partly	-11.5709
▁ano	-11.5722
cio	-11.5723
▁hostages	-11.5732
▁friggin	-11.5733
▁homem	-11.5739
▁businesses	-11.5744
▁lion	-11.5754
▁pouc	-11.5759
▁mono	-11.5765
there	-11.5766
▁pensa	-11.5773
▁pine	-11.5781
▁olives	-11.5783
▁kidnappings	-11.5783
ault	-11.5785
▁quest	-11.5792
▁billions	-11.5794
▁attacking	-11.5794
erman	-11.5805
▁comm	-11.5805
kes	-11.5814
▁sz	-11.5815
rad	-11.5815
▁notar	-11.5816
hatt	-11.5818
melon	-11.5822
▁experiments	-11.5826
rella	-11.5835
▁diga	-11.5837
illy	-11.5846
▁arresting	-11.5847
▁barb	-11.5861
▁beautifully	-11.5868
ski	-11.5868
cker	-11.5874
ida	-11.5877
▁toys	-11.5886
▁intolera	-11.5887
eja	-11.5902
eek	-11.5903
▁fra	-11.5911
▁feelin	-11.5917
▁evaluat	-11.5917
▁boxer	-11.5917
▁visa	-11.5921
▁registers	-11.5926
▁askin	-11.593
put	-11.5932
▁anton	-11.5938
▁losers	-11.5941
▁freaks	-11.5943
rann	-11.5952
▁gobble	-11.5963
uro	-11.5969
dative	-11.5976
rosco	-11.5986
▁carl	-11.5987
▁routes	-11.5989
ffe	-11.5991
▁jumper	-11.5996
▁booked	-11.6001
▁meth	-11.6011
lant	-11.6024
▁bake	-11.6027
▁baron	-11.6028
itty	-11.6035
▁lud	-11.6041
▁encontrar	-11.605
▁hol	-11.6061
▁cel	-11.6082
anda	-11.6091
span	-11.6091
▁tigers	-11.6094
▁entra	-11.6101
▁reed	-11.6128
▁teachers	-11.6129
quint	-11.6131
▁toilets	-11.6146
▁chicks	-11.6146
▁kennedys	-11.6147
tick	-11.6154
▁whi	-11.6154
▁robbers	-11.6159
▁kit	-11.6178
ison	-11.6178
here	-11.6188
pal	-11.6192
▁pages	-11.6192
citing	-11.6193
▁locations	-11.62
chai	-11.6201
rine	-11.6208
uch	-11.6212
▁diver	-11.6213
til	-11.6239
llet	-11.6241
▁hen	-11.6248
▁waitin	-11.6252
▁ruins	-11.6256
▁ind	-11.6257
▁travels	-11.6278
▁luc	-11.6314
inny	-11.6316
▁bu	-11.6317
dollar	-11.6355
▁capt	-11.6367
who	-11.6403
▁spi	-11.6417
ologist	-11.6424
▁cong	-11.6436
stick	-11.6443
gging	-11.6455
viral	-11.6481
▁dodg	-11.65
qt	-11.6518
sap	-11.6522
▁rave	-11.653
▁vip	-11.6561
sec	-11.6564
ised	-11.6567
izer	-11.6576
▁ape	-11.6576
ral	-11.6584
▁zap	-11.6585
▁hai	-11.66
tus	-11.6632
▁rubb	-11.6664
nia	-11.667
nable	-11.6677
hut	-11.6678
making	-11.6693
old	-11.6744
▁babu	-11.6768
gram	-11.6787
pha	-11.6795
▁toot	-11.6812
antes	-11.6814
sort	-11.6836
they	-11.6842
puncture	-11.6863
▁estr	-11.6882
cana	-11.6901
lection	-11.6902
▁stag	-11.6907
▁moh	-11.6925
ound	-11.6931
city	-11.6966
▁cham	-11.6971
▁compi	-11.6976
▁tot	-11.6982
▁jog	-11.6986
▁hee	-11.7076
star	-11.7089
▁umb	-11.709
▁hap	-11.7101
iro	-11.7137
▁terroris	-11.715
▁vem	-11.7153
▁abo	-11.7167
▁execut	-11.7182
▁mop	-11.7184
▁fortunate	-11.7185
cop	-11.7188
baked	-11.7188
▁nog	-11.7191
blo	-11.7198
▁wobbl	-11.7202
vert	-11.7202
nky	-11.7236
ior	-11.7236
lagged	-11.7238
ith	-11.7239
▁radi	-11.7247
wan	-11.7255
▁chart	-11.7258
▁passa	-11.7278
elas	-11.7284
▁what	-11.7291
▁deixa	-11.7296
ator	-11.7305
fro	-11.7327
now	-11.7343
▁corpo	-11.7349
iiy	-11.7358
▁cosm	-11.7365
del	-11.7367
▁bel	-11.7372
▁vat	-11.7375
iva	-11.7379
▁smel	-11.7379
▁cau	-11.7388
▁siu	-11.7396
▁stutter	-11.7403
▁troop	-11.7408
▁bean	-11.7409
▁critic	-11.7422
▁maggot	-11.7443
▁resume	-11.7443
▁thread	-11.7444
▁hungarian	-11.7444
▁vital	-11.7447
▁grenade	-11.7449
▁vegetable	-11.7449
▁mathematic	-11.7449
▁tarde	-11.745
▁millionaire	-11.745
▁antique	-11.7456
▁corp	-11.7456
▁grav	-11.7458
▁controll	-11.7462
▁suggestion	-11.7462
▁rib	-11.7462
▁tire	-11.7463
omy	-11.7465
▁digit	-11.7466
▁sympath	-11.7467
▁vega	-11.7471
uke	-11.7471
▁pena	-11.7475
avam	-11.7482
▁teamster	-11.7487
▁whe	-11.7493
▁domini	-11.7493
▁hog	-11.7494
▁her	-11.7501
verge	-11.7512
amento	-11.7516
othe	-11.7518
▁ash	-11.7523
▁counsel	-11.7525
iving	-11.753
▁devo	-11.7532
▁za	-11.7532
unning	-11.7534
tado	-11.7557
ales	-11.7559
burg	-11.7571
▁hustl	-11.7574
eeling	-11.7575
▁div	-11.7576
▁burt	-11.7578
wit	-11.758
▁intern	-11.7585
▁refus	-11.7592
cav	-11.7594
▁twi	-11.7608
▁wilde	-11.7612
top	-11.7612
odger	-11.7613
▁buff	-11.7614
▁greas	-11.7614
▁sacr	-11.7615
fold	-11.7616
aiiy	-11.7616
▁colour	-11.7617
sync	-11.7617
craz	-11.7617
know	-11.7618
▁entertain	-11.7618
▁explo	-11.7618
▁ricochet	-11.7618
educated	-11.7618
buster	-11.7618
▁retreat	-11.7619
town	-11.7619
yearold	-11.7619
place	-11.762
▁mont	-11.762
powder	-11.762
grim	-11.762
identified	-11.7621
▁clink	-11.7621
▁clank	-11.7621
satisfied	-11.7621
▁await	-11.7622
expected	-11.7622
bury	-11.7622
trial	-11.7622
hammer	-11.7623
control	-11.7623
police	-11.7623
dick	-11.7623
space	-11.7623
license	-11.7625
▁convict	-11.7626
pita	-11.7627
▁adopt	-11.763
▁sustain	-11.7631
type	-11.7631
▁slug	-11.7631
▁establish	-11.7631
pse	-11.7632
check	-11.7632
▁identifi	-11.7633
hola	-11.7633
▁greet	-11.7634
▁dye	-11.7635
▁aureli	-11.7638
▁motherfuck	-11.764
▁explode	-11.7642
▁inspire	-11.7642
▁qualifie	-11.7643
▁shar	-11.7644
▁should	-11.7645
long	-11.7646
▁observe	-11.7647
▁murph	-11.7648
▁securit	-11.7649
▁programme	-11.7651
▁apparent	-11.7652
▁toda	-11.7652
▁coordinat	-11.7653
▁distinct	-11.7654
▁colombia	-11.7654
▁snip	-11.7654
▁hue	-11.7656
▁savi	-11.7656
▁rang	-11.7657
▁nightclub	-11.7657
▁inspect	-11.7657
▁collie	-11.7658
▁delusion	-11.7658
hine	-11.7659
▁kir	-11.7659
believable	-11.7659
▁froze	-11.7659
▁contribut	-11.7659
▁happie	-11.7659
▁branch	-11.7659
▁consult	-11.7659
▁communi	-11.766
▁blush	-11.766
▁smokin	-11.766
▁drivin	-11.766
▁mornin	-11.766
▁harris	-11.7661
scape	-11.7661
culate	-11.7661
▁julia	-11.7661
▁ouvi	-11.7661
huckle	-11.7661
▁council	-11.7661
okie	-11.7661
▁republic	-11.7661
▁puttin	-11.7661
▁compensat	-11.7661
get	-11.7661
▁construct	-11.7662
▁psychiatri	-11.7662
▁confront	-11.7662
▁progress	-11.7662
▁minist	-11.7662
▁resent	-11.7662
▁engl	-11.7663
▁urge	-11.7663
urray	-11.7663
▁liquid	-11.7663
▁scarboro	-11.7663
▁gaggi	-11.7663
▁curio	-11.7663
dium	-11.7663
▁musl	-11.7663
▁occup	-11.7663
▁fernand	-11.7663
ghett	-11.7664
▁abrupt	-11.7664
▁diminish	-11.7664
▁enlighten	-11.7664
▁kilgo	-11.7664
conclusive	-11.7664
crimination	-11.7664
eeniem	-11.7664
forsaken	-11.7664
intellectual	-11.7664
semblance	-11.7664
▁accelerate	-11.7664
▁acknowledge	-11.7664
▁administer	-11.7664
▁aerotyne	-11.7664
▁agencies	-11.7664
▁angrily	-11.7664
▁antibiotic	-11.7664
▁anxiety	-11.7664
▁apprentice	-11.7664
▁aristocrat	-11.7664
▁asparagus	-11.7664
▁aspect	-11.7664
▁baldassari	-11.7664
▁ballpark	-11.7664
▁barragem	-11.7664
▁bartletts	-11.7664
▁behaviour	-11.7664
▁bennett	-11.7664
▁bianca	-11.7664
▁bicycle	-11.7664
▁bizarre	-11.7664
▁blueberries	-11.7664
▁bogart	-11.7664
▁bouncing	-11.7664
▁brackets	-11.7664
▁brendan	-11.7664
▁buchannon	-11.7664
▁bunnies	-11.7664
▁byandby	-11.7664
▁bypass	-11.7664
▁candidate	-11.7664
▁cassidy	-11.7664
▁catania	-11.7664
▁cecil	-11.7664
▁cellblock	-11.7664
▁certeza	-11.7664
▁cetera	-11.7664
▁chigurh	-11.7664
▁cicatriz	-11.7664
▁circling	-11.7664
▁ciseau	-11.7664
▁cognac	-11.7664
▁collateral	-11.7664
▁compartment	-11.7664
▁compassion	-11.7664
▁compliance	-11.7664
▁comprimidos	-11.7664
▁connecticut	-11.7664
▁contempt	-11.7664
▁cormier	-11.7664
▁coworkers	-11.7664
▁creativity	-11.7664
▁croisilles	-11.7664
▁crossroads	-11.7664
▁cuidado	-11.7664
▁database	-11.7664
▁davina	-11.7664
▁declaration	-11.7664
▁defensive	-11.7664
▁deitrich	-11.7664
▁delilah	-11.7664
▁despair	-11.7664
▁dialectic	-11.7664
▁dinosaur	-11.7664
▁dorfman	-11.7664
▁dteam	-11.7664
▁ebbing	-11.7664
▁efficient	-11.7664
▁enhance	-11.7664
▁enquanto	-11.7664
▁enthusias	-11.7664
▁ethiopia	-11.7664
▁evolution	-11.7664
▁excessive	-11.7664
▁exhusband	-11.7664
▁exleper	-11.7664
▁expansion	-11.7664
▁exterminate	-11.7664
▁eyebrow	-11.7664
▁fawkes	-11.7664
▁fazendo	-11.7664
▁ferreiro	-11.7664
▁fetish	-11.7664
▁financing	-11.7664
▁forrester	-11.7664
▁francs	-11.7664
▁fritz	-11.7664
▁fugitive	-11.7664
▁fuji	-11.7664
▁fuzzy	-11.7664
▁generosity	-11.7664
▁gentiemen	-11.7664
▁geoffrey	-11.7664
▁godfrey	-11.7664
▁google	-11.7664
▁gossip	-11.7664
▁gracchus	-11.7664
▁granddaughter	-11.7664
▁grenada	-11.7664
▁groggy	-11.7664
▁gurdlinger	-11.7664
▁gutierrez	-11.7664
▁hammock	-11.7664
▁hampton	-11.7664
▁hayworth	-11.7664
▁heehaw	-11.7664
▁horrific	-11.7664
▁hubert	-11.7664
▁hurried	-11.7664
▁hyena	-11.7664
▁iaugh	-11.7664
▁impulse	-11.7664
▁inconvenience	-11.7664
▁inconvenient	-11.7664
▁inequ	-11.7664
▁injured	-11.7664
▁injury	-11.7664
▁innocence	-11.7664
▁intercept	-11.7664
▁intrude	-11.7664
▁invasion	-11.7664
▁inviting	-11.7664
▁iunch	-11.7664
▁janitor	-11.7664
▁jenkins	-11.7664
▁jeremiah	-11.7664
▁justified	-11.7664
▁justify	-11.7664
▁kampf	-11.7664
▁keeyai	-11.7664
▁keinszig	-11.7664
▁kendricks	-11.7664
▁kennefick	-11.7664
▁klubecks	-11.7664
▁kurlen	-11.7664
▁labyrinth	-11.7664
▁lesbian	-11.7664
▁libertad	-11.7664
▁lilliman	-11.7664
▁lnfantry	-11.7664
▁loxley	-11.7664
▁maestro	-11.7664
▁mafios	-11.7664
▁malibu	-11.7664
▁marlboro	-11.7664
▁maserati	-11.7664
▁maximum	-11.7664
▁meucci	-11.7664
▁minnesota	-11.7664
▁moioko	-11.7664
▁monaldi	-11.7664
▁morreu	-11.7664
▁moulins	-11.7664
▁muffin	-11.7664
▁nassau	-11.7664
▁nazareth	-11.7664
▁necessarily	-11.7664
▁nedjma	-11.7664
▁newswatch	-11.7664
▁norwegian	-11.7664
▁nurburgring	-11.7664
▁nypd	-11.7664
▁odessa	-11.7664
▁opium	-11.7664
▁opponent	-11.7664
▁opportunities	-11.7664
▁orchestra	-11.7664
▁oregon	-11.7664
▁oswald	-11.7664
▁paddington	-11.7664
▁paratroopers	-11.7664
▁parlance	-11.7664
▁pennsylvania	-11.7664
▁pesach	-11.7664
▁phenomenon	-11.7664
▁postmortem	-11.7664
▁preciso	-11.7664
▁premature	-11.7664
▁preparation	-11.7664
▁prescribed	-11.7664
▁probability	-11.7664
▁proprietor	-11.7664
▁psychiatry	-11.7664
▁raspail	-11.7664
▁reconsider	-11.7664
▁regulations	-11.7664
▁relentless	-11.7664
▁remington	-11.7664
▁retrieve	-11.7664
▁reutemann	-11.7664
▁reveille	-11.7664
▁rhetoric	-11.7664
▁ritual	-11.7664
▁rollsroyce	-11.7664
▁roosevelt	-11.7664
▁rosebud	-11.7664
▁rouge	-11.7664
▁sarcastic	-11.7664
▁savage	-11.7664
▁scatting	-11.7664
▁scorpion	-11.7664
▁sculpt	-11.7664
▁seminar	-11.7664
▁semipro	-11.7664
▁seymour	-11.7664
▁shakespeare	-11.7664
▁shirley	-11.7664
▁shtunk	-11.7664
▁smuggling	-11.7664
▁sodomize	-11.7664
▁solution	-11.7664
▁somerset	-11.7664
▁spectacle	-11.7664
▁stagecoach	-11.7664
▁stardust	-11.7664
▁statistics	-11.7664
▁steroids	-11.7664
▁stimulat	-11.7664
▁stitches	-11.7664
▁stubborn	-11.7664
▁subterfuge	-11.7664
▁sweatshirt	-11.7664
▁synagogue	-11.7664
▁syrup	-11.7664
▁tallahassee	-11.7664
▁tarzan	-11.7664
▁testicles	-11.7664
▁throttle	-11.7664
▁tranquil	-11.7664
▁triumph	-11.7664
▁tuberculosis	-11.7664
▁university	-11.7664
▁unreasonable	-11.7664
▁uptight	-11.7664
▁vegetarian	-11.7664
▁veterinarian	-11.7664
▁vulgar	-11.7664
▁vulture	-11.7664
▁wheezing	-11.7664
▁widget	-11.7664
▁wiggins	-11.7664
▁woltz	-11.7664
▁wrestle	-11.7664
▁yussi	-11.7664
▁angei	-11.7664
▁argentin	-11.7664
▁arvn	-11.7664
▁bethany	-11.7664
▁butterfly	-11.7664
▁capacity	-11.7664
▁cereal	-11.7664
▁doutor	-11.7664
▁eccentric	-11.7664
▁emilio	-11.7664
▁fairvale	-11.7664
▁flicks	-11.7664
▁gasoline	-11.7664
▁klaus	-11.7664
▁manacles	-11.7664
▁nineteen	-11.7664
▁nixon	-11.7664
▁parallel	-11.7664
▁parlay	-11.7664
▁pastrami	-11.7664
▁polio	-11.7664
▁pretzel	-11.7664
▁properties	-11.7664
▁pubiic	-11.7664
▁pulp	-11.7664
▁reagan	-11.7664
▁reckless	-11.7664
▁reinforcements	-11.7664
▁shekel	-11.7664
▁sibling	-11.7664
▁smirk	-11.7664
▁sputter	-11.7664
▁stunt	-11.7664
▁torche	-11.7664
▁unzip	-11.7664
▁urinat	-11.7664
▁vessel	-11.7664
▁wattles	-11.7664
▁biood	-11.7664
▁emblem	-11.7664
▁felons	-11.7664
▁franz	-11.7664
▁hadley	-11.7664
▁handshake	-11.7664
▁hesketh	-11.7664
▁iawyer	-11.7664
▁pennies	-11.7664
▁rascal	-11.7664
▁settling	-11.7664
▁stump	-11.7664
▁upwards	-11.7664
▁wilderness	-11.7664
▁xray	-11.7664
▁bundle	-11.7664
▁shaman	-11.7664
▁ascertain	-11.7664
▁backpack	-11.7664
▁conceal	-11.7664
▁depressing	-11.7664
▁ferri	-11.7664
▁fortress	-11.7664
▁fourteen	-11.7664
▁lchaim	-11.7664
▁mcgee	-11.7664
▁mountaineers	-11.7664
▁outdoors	-11.7664
▁paola	-11.7664
▁protein	-11.7664
▁ripple	-11.7664
▁thorns	-11.7664
▁tolerate	-11.7664
▁chowder	-11.7664
▁juicy	-11.7664
▁keypad	-11.7664
▁majorek	-11.7664
▁outgoing	-11.7664
▁rational	-11.7664
▁reenie	-11.7664
▁santoro	-11.7664
▁wesson	-11.7664
▁whereabouts	-11.7664
▁whooshing	-11.7664
▁wretch	-11.7664
▁camila	-11.7664
▁diversion	-11.7664
▁examining	-11.7664
▁saloon	-11.7664
▁vinegar	-11.7664
▁ciear	-11.7664
▁dairy	-11.7664
▁lumber	-11.7664
▁madrid	-11.7664
▁teresa	-11.7664
▁adios	-11.7664
▁backstage	-11.7664
▁coupons	-11.7664
▁paddie	-11.7664
▁annual	-11.7664
▁kerb	-11.7664
▁ouais	-11.7664
▁salud	-11.7664
▁aggression	-11.7664
▁dlr	-11.7664
▁oven	-11.7664
▁feces	-11.7664
▁yeyo	-11.7664
▁muttering	-11.7664
▁sportscast	-11.7664
▁earrings	-11.7664
▁chlor	-11.7664
▁liberal	-11.7664
▁lovebirds	-11.7664
▁susie	-11.7664
▁amusing	-11.7664
▁srt	-11.7664
▁persistent	-11.7664
▁proverb	-11.7664
▁breez	-11.7664
▁deputies	-11.7664
▁helenowski	-11.7664
▁remand	-11.7664
▁crips	-11.7664
▁mutilat	-11.7664
▁autograph	-11.7664
▁chisel	-11.7664
▁radical	-11.7664
▁stove	-11.7664
▁denham	-11.7664
▁underworld	-11.7664
▁psychological	-11.7664
▁concept	-11.7664
▁prompt	-11.7664
▁streak	-11.7664
▁slogan	-11.7664
▁cartridge	-11.7664
▁obscene	-11.7664
▁aaah	-11.7664
▁troy	-11.7664
▁organised	-11.7664
▁storytell	-11.7664
▁airlines	-11.7664
▁anchor	-11.7664
▁tacky	-11.7664
▁engiish	-11.7664
▁skank	-11.7664
▁nevertheles	-11.7664
▁viddied	-11.7664
▁nipper	-11.7664
▁boogey	-11.7664
▁lethal	-11.7664
▁unpredictable	-11.7664
▁devotion	-11.7664
▁rasp	-11.7664
▁estrada	-11.7664
▁myjob	-11.7664
▁pause	-11.7664
▁bloke	-11.7664
▁birthmark	-11.7664
▁discreet	-11.7664
▁deception	-11.7664
▁flex	-11.7664
▁morphine	-11.7664
▁amaze	-11.7664
▁schizophrenic	-11.7664
borough	-11.7664
▁frantic	-11.7664
▁jeannie	-11.7664
▁gratitude	-11.7664
▁rumble	-11.7664
▁complex	-11.7664
▁rubbish	-11.7664
▁creek	-11.7664
▁commune	-11.7664
▁correlat	-11.7664
▁flank	-11.7664
▁gloria	-11.7664
▁pianist	-11.7664
▁lipstick	-11.7664
▁scag	-11.7664
▁youngsters	-11.7664
▁birthright	-11.7664
▁leadership	-11.7664
▁paperweight	-11.7664
▁liable	-11.7664
▁hanna	-11.7664
▁trench	-11.7664
▁spark	-11.7664
▁thirtyfive	-11.7664
▁edith	-11.7664
▁persuasive	-11.7664
▁centerfold	-11.7664
▁tuition	-11.7664
▁depression	-11.7664
▁automobile	-11.7664
▁sherry	-11.7664
▁jesse	-11.7664
▁farris	-11.7664
▁pilate	-11.7664
▁consultant	-11.7664
▁outcome	-11.7665
▁doida	-11.7665
▁realtor	-11.7665
▁relevant	-11.7665
▁vejo	-11.7665
▁twentysix	-11.7665
▁basketball	-11.7665
▁calib	-11.7665
▁batshit	-11.7665
▁aisle	-11.7665
edric	-11.7665
▁concert	-11.7665
▁elves	-11.7665
▁blares	-11.7665
▁bragging	-11.7665
▁watson	-11.7665
▁canada	-11.7665
▁muslim	-11.7665
▁complication	-11.7665
▁behold	-11.7665
▁mammy	-11.7665
▁electro	-11.7665
▁limbs	-11.7665
▁grill	-11.7665
▁wealthiest	-11.7665
▁notebook	-11.7665
▁ownership	-11.7665
▁barbaric	-11.7665
▁crude	-11.7665
▁pending	-11.7665
▁fluff	-11.7665
▁baiis	-11.7665
▁buii	-11.7665
▁meek	-11.7665
▁progressive	-11.7665
▁whwhat	-11.7665
▁organism	-11.7665
▁amusement	-11.7665
▁moonlight	-11.7665
▁tummy	-11.7665
▁turk	-11.7665
▁sipping	-11.7665
▁acres	-11.7665
▁amari	-11.7665
▁alternat	-11.7665
▁ahhhh	-11.7665
kind	-11.7665
▁deveria	-11.7665
▁patchett	-11.7665
mnh	-11.7665
▁sierraone	-11.7665
▁wither	-11.7665
▁auditor	-11.7665
▁stern	-11.7665
▁slut	-11.7665
▁infantry	-11.7665
▁gunned	-11.7666
▁wellbeing	-11.7666
▁offthe	-11.7666
▁ajudar	-11.7666
▁consciousness	-11.7666
▁orca	-11.7666
▁hassle	-11.7666
▁precl	-11.7666
▁caroline	-11.7666
▁consent	-11.7666
▁iiving	-11.7666
▁witch	-11.7666
▁sorrowful	-11.7666
▁cursing	-11.7666
▁iosef	-11.7666
▁lobo	-11.7666
▁segre	-11.7666
▁vendo	-11.7666
▁achievement	-11.7666
▁gruntlng	-11.7666
▁stripped	-11.7666
cini	-11.7666
▁loafers	-11.7666
▁cabstand	-11.7666
▁esque	-11.7666
▁slur	-11.7666
▁enzo	-11.7666
▁copyright	-11.7666
▁fanning	-11.7666
▁disappointment	-11.7666
▁digestion	-11.7667
▁ignorant	-11.7667
▁disgraceful	-11.7667
▁stew	-11.7667
▁allegation	-11.7667
▁rejection	-11.7667
▁contrary	-11.7667
▁luckily	-11.7667
▁niggerlov	-11.7667
▁kike	-11.7667
▁expectations	-11.7667
▁utter	-11.7667
▁blend	-11.7667
▁consultation	-11.7667
▁shah	-11.7667
▁geneva	-11.7667
▁ginny	-11.7667
▁intro	-11.7667
▁addiction	-11.7667
▁invention	-11.7667
▁mature	-11.7667
▁stronghold	-11.7667
▁blowjob	-11.7667
▁heir	-11.7667
▁jangl	-11.7668
▁boast	-11.7668
▁mentor	-11.7668
▁titty	-11.7668
▁scorn	-11.7668
iquet	-11.7668
▁lobe	-11.7668
▁fucksville	-11.7668
▁wiz	-11.7668
▁merit	-11.7668
▁rasa	-11.7668
▁waitresses	-11.7668
▁budget	-11.7668
▁upside	-11.7668
▁chili	-11.7668
▁biow	-11.7668
▁upped	-11.7668
▁percentage	-11.7668
▁trump	-11.7668
▁alias	-11.7668
▁fireplace	-11.7668
▁trafficking	-11.7669
▁cruelty	-11.7669
▁tedious	-11.7669
nosed	-11.7669
▁usher	-11.7669
▁sobre	-11.7669
▁intrigued	-11.7669
▁countries	-11.7669
▁robotic	-11.7669
▁stead	-11.7669
▁estimat	-11.7669
▁unfold	-11.7669
▁waist	-11.7669
▁pico	-11.7669
lamour	-11.7669
▁pelo	-11.7669
▁valid	-11.7669
▁fiim	-11.7669
▁cupcake	-11.7669
▁proceedings	-11.7669
▁uk	-11.7669
▁condone	-11.7669
▁upand	-11.767
▁lump	-11.767
▁levar	-11.767
▁magician	-11.767
▁demonstration	-11.767
▁galante	-11.767
▁arise	-11.767
▁exceed	-11.767
▁flock	-11.767
▁survivor	-11.767
▁intra	-11.767
▁branches	-11.767
▁raw	-11.767
▁poland	-11.767
▁betcha	-11.767
▁lashes	-11.767
▁courtney	-11.767
▁fingermen	-11.7671
▁socialist	-11.7671
▁rigor	-11.7671
▁youyou	-11.7671
▁velh	-11.7671
▁beak	-11.7671
▁passover	-11.7671
▁shuddering	-11.7671
▁lordship	-11.7671
▁communication	-11.7671
▁intervention	-11.7671
▁portrait	-11.7671
▁injun	-11.7671
▁excellency	-11.7671
▁samoan	-11.7671
▁poke	-11.7671
▁nauls	-11.7671
▁decency	-11.7671
▁logan	-11.7671
▁sancho	-11.7671
▁livin	-11.7671
▁brah	-11.7672
▁ballistic	-11.7672
▁pads	-11.7672
▁echoes	-11.7672
▁objective	-11.7672
▁unwise	-11.7672
▁successor	-11.7672
▁mingle	-11.7673
▁rally	-11.7673
▁plumber	-11.7673
▁recommendation	-11.7673
▁capri	-11.7673
▁sanity	-11.7673
▁xam	-11.7673
▁beverage	-11.7673
▁relieved	-11.7673
▁truthfully	-11.7673
kov	-11.7673
▁traditional	-11.7673
▁systematic	-11.7674
▁hex	-11.7674
▁ronda	-11.7674
▁religion	-11.7674
zano	-11.7674
▁whl	-11.7674
▁rum	-11.7674
▁volto	-11.7675
▁fiddle	-11.7675
▁duas	-11.7675
▁colombian	-11.7676
▁virtues	-11.7676
▁singh	-11.7676
▁symbolic	-11.7676
▁burglary	-11.7676
▁unplug	-11.7676
▁armsby	-11.7676
▁collection	-11.7676
▁duh	-11.7677
▁nova	-11.7677
▁courthouse	-11.7677
▁pior	-11.7677
▁regime	-11.7677
▁slob	-11.7677
▁joan	-11.7677
▁sideways	-11.7678
▁deprived	-11.7678
▁adjourned	-11.7678
▁capone	-11.7678
▁diaper	-11.7678
come	-11.7679
▁gaga	-11.7679
real	-11.7679
▁drab	-11.768
▁lining	-11.768
▁ardel	-11.768
▁hitler	-11.7681
▁lodged	-11.7681
▁huey	-11.7681
▁buono	-11.7681
▁notso	-11.7681
▁slightly	-11.7681
▁undies	-11.7681
▁wop	-11.7682
▁wander	-11.7682
▁grossman	-11.7682
▁hoot	-11.7682
▁holly	-11.7683
▁sac	-11.7683
▁compel	-11.7683
▁cust	-11.7683
▁hittin	-11.7683
▁harp	-11.7683
▁terminate	-11.7683
▁droogie	-11.7684
▁sow	-11.7684
▁wool	-11.7684
▁irishman	-11.7684
▁portion	-11.7684
▁petition	-11.7685
▁lye	-11.7685
▁haster	-11.7685
▁frustrated	-11.7685
metric	-11.7686
▁delay	-11.7686
▁warped	-11.7686
▁battery	-11.7686
▁tablets	-11.7686
▁dart	-11.7686
▁cellul	-11.7686
▁bind	-11.7686
▁pear	-11.7686
▁cada	-11.7687
▁styl	-11.7687
▁disturbed	-11.7687
▁betina	-11.7687
▁honourable	-11.7687
▁vanity	-11.7688
▁splitter	-11.7688
▁soar	-11.7688
▁after	-11.7688
▁intensely	-11.7689
▁astr	-11.7689
▁armourer	-11.769
▁transi	-11.7691
▁karate	-11.7691
▁priceless	-11.7691
▁grandson	-11.7692
▁clearance	-11.7692
▁eunt	-11.7693
▁amuse	-11.7693
▁quin	-11.7695
▁fertilize	-11.7696
▁departing	-11.7696
▁croy	-11.7697
▁region	-11.7697
▁sustained	-11.7697
▁underestimated	-11.7698
▁transcript	-11.7698
▁chico	-11.7699
▁mayday	-11.7699
sits	-11.7699
▁coyotes	-11.7699
▁droogs	-11.77
▁defender	-11.77
▁grieving	-11.77
▁rubbed	-11.7701
▁stinky	-11.7701
▁lockup	-11.7702
▁sandwiches	-11.7702
▁driveway	-11.7702
▁merrin	-11.7702
▁litt	-11.7703
▁firemen	-11.7703
▁slavery	-11.7704
interact	-11.7705
▁hoie	-11.7705
▁instrumental	-11.7706
▁smartass	-11.7706
▁seventy	-11.7707
▁boyhood	-11.7707
▁powerless	-11.7708
▁explor	-11.7709
egan	-11.7709
▁awaiting	-11.7709
▁ricocheting	-11.7709
▁approaches	-11.7709
fth	-11.771
▁most	-11.771
▁stuttering	-11.771
▁bein	-11.771
▁vida	-11.771
▁replaced	-11.7711
▁quad	-11.7711
▁madre	-11.7712
▁desse	-11.7712
▁handoff	-11.7713
▁baume	-11.7713
▁unfucking	-11.7713
▁bam	-11.7713
▁seized	-11.7715
▁conquered	-11.7716
▁unlocked	-11.7716
▁fargo	-11.7716
▁euh	-11.7716
▁fame	-11.7717
▁plead	-11.7718
▁spike	-11.7719
▁vassa	-11.7719
▁faintly	-11.772
▁perfection	-11.7721
▁buffer	-11.7721
▁surrounding	-11.7723
legged	-11.7723
▁smuggler	-11.7724
▁eighth	-11.7724
▁shaved	-11.7725
▁soiled	-11.7725
▁funnie	-11.7726
plex	-11.7726
▁cleanser	-11.7728
▁massa	-11.7728
▁flirting	-11.773
▁zee	-11.773
▁rescued	-11.7731
▁skid	-11.7732
▁arti	-11.7732
▁putain	-11.7733
▁scent	-11.7733
▁crank	-11.7734
▁investing	-11.7736
▁weaker	-11.7736
▁skilled	-11.7737
▁insure	-11.7737
▁diego	-11.7738
▁poacher	-11.7738
▁lash	-11.7739
▁cursed	-11.7739
▁ewing	-11.7742
▁described	-11.7744
▁purchased	-11.7744
▁boner	-11.7745
▁crosses	-11.7746
▁maid	-11.7746
▁taller	-11.7746
▁counties	-11.7748
▁tolling	-11.7749
wind	-11.7749
▁bin	-11.7749
▁fairies	-11.775
aries	-11.775
▁shaken	-11.775
▁originally	-11.7751
▁seii	-11.7751
▁phd	-11.7751
▁dickus	-11.7754
▁deadline	-11.7754
▁sexually	-11.7755
▁impulsive	-11.7756
▁challenged	-11.7757
▁separated	-11.7757
▁okey	-11.7759
▁moody	-11.776
▁biscuits	-11.7761
▁burritos	-11.7761
▁privileges	-11.7761
▁cartoons	-11.7761
▁vive	-11.7763
▁vien	-11.7763
▁fouled	-11.7763
▁cloth	-11.7764
▁starve	-11.7764
▁tur	-11.7766
▁chester	-11.7767
▁hugo	-11.7767
▁addresses	-11.777
▁archie	-11.777
▁kneel	-11.7772
▁prun	-11.7772
▁gh	-11.7773
▁conclude	-11.7773
fig	-11.7773
▁mentally	-11.7774
iche	-11.7774
▁spying	-11.7775
ichi	-11.7777
▁cous	-11.7777
▁collector	-11.7779
uties	-11.7781
▁assured	-11.7783
▁printed	-11.7784
▁cracker	-11.7785
ledge	-11.7786
▁laser	-11.7788
▁coupe	-11.7788
▁raymondo	-11.7788
▁connecting	-11.7788
far	-11.7791
▁ruler	-11.7791
▁correctly	-11.7793
▁cryin	-11.7795
▁assassinate	-11.7798
▁hick	-11.78
▁recruiting	-11.7801
▁flowing	-11.7802
▁carmen	-11.7802
▁exchanged	-11.7802
▁your	-11.7803
▁fastest	-11.7803
▁bred	-11.7804
▁sentenced	-11.7809
▁climbing	-11.7814
▁crowning	-11.7815
▁informer	-11.7816
▁buon	-11.7817
▁lumi	-11.7818
▁expectin	-11.7819
▁verd	-11.7819
▁ki	-11.7822
▁craz	-11.7822
▁finishes	-11.7823
▁represented	-11.7823
▁nipples	-11.7824
▁adams	-11.7824
▁canvass	-11.7824
▁prairies	-11.7824
▁depths	-11.7824
▁stains	-11.7824
▁buiiets	-11.7825
▁contestants	-11.7825
▁wails	-11.7825
▁footprints	-11.7825
▁improvis	-11.7829
▁brucey	-11.783
▁smoothie	-11.7837
▁leaned	-11.7839
▁sprayed	-11.7839
▁dispatched	-11.784
▁terrorize	-11.784
▁drilling	-11.7841
trust	-11.7842
▁immigrants	-11.7845
ker	-11.7846
▁tighter	-11.7846
▁instruments	-11.7846
▁scrape	-11.7846
cott	-11.7849
▁bombers	-11.7852
▁unde	-11.7852
▁ridin	-11.7852
▁cooked	-11.7855
▁queers	-11.7858
▁knockin	-11.7861
▁lace	-11.7861
▁hitman	-11.7863
▁noted	-11.7868
▁monte	-11.7869
omis	-11.7869
▁strain	-11.7871
▁readers	-11.7875
▁claimed	-11.7877
▁cred	-11.7878
eft	-11.7879
loss	-11.7883
▁cod	-11.7884
▁traded	-11.7887
▁caiied	-11.7888
▁digits	-11.7888
▁crushing	-11.7888
▁hungarians	-11.7889
▁maggots	-11.7889
▁resumes	-11.7889
▁threads	-11.7889
▁vitals	-11.7889
▁suggestions	-11.7891
mph	-11.7891
▁fisher	-11.7898
▁micky	-11.79
▁gru	-11.7906
▁glob	-11.7906
▁deserted	-11.7907
▁complaining	-11.7908
▁scored	-11.7914
▁hammered	-11.7917
▁kiiiing	-11.792
bones	-11.7921
▁speeding	-11.7921
▁scaring	-11.7922
wage	-11.7924
inthe	-11.7927
holes	-11.794
ffel	-11.7943
▁locker	-11.795
▁lister	-11.7953
▁creatures	-11.7953
▁pencils	-11.7953
▁stockbrokers	-11.7953
▁demons	-11.7954
▁crooks	-11.7954
▁complaints	-11.7956
hoho	-11.7961
▁smiled	-11.7965
▁alarmed	-11.7971
▁entering	-11.7976
▁beatin	-11.7977
▁helpless	-11.7979
▁vill	-11.7987
▁spreading	-11.7988
▁gladly	-11.7995
▁menti	-11.8002
▁panick	-11.8009
▁del	-11.8016
▁bruises	-11.8019
▁condoms	-11.8019
▁museums	-11.8019
▁mandingos	-11.8019
▁sleeves	-11.8019
▁blanks	-11.8019
▁nazis	-11.8019
▁fags	-11.8019
stein	-11.8019
▁tomb	-11.8027
hell	-11.8032
▁lifted	-11.8034
▁sync	-11.8037
una	-11.8038
▁prat	-11.8043
▁suggesting	-11.8044
▁clapp	-11.8044
▁lever	-11.8046
▁aa	-11.8048
▁wor	-11.8048
▁coed	-11.8049
▁poisoning	-11.8054
▁dum	-11.8072
▁brits	-11.8074
▁plott	-11.8077
▁neednt	-11.8079
▁bees	-11.8083
▁melts	-11.8084
▁outras	-11.8084
▁dentists	-11.8085
▁midgets	-11.8085
▁traitors	-11.8085
▁villains	-11.8085
▁cello	-11.8085
▁mugs	-11.8096
▁skinn	-11.8097
▁refi	-11.81
▁cornered	-11.8103
▁products	-11.8103
▁aged	-11.8109
▁witnessed	-11.8113
▁seeking	-11.8116
▁slit	-11.8123
▁heating	-11.8129
▁sweety	-11.8129
▁ref	-11.813
mmy	-11.8131
bell	-11.8135
▁submitt	-11.8136
▁suited	-11.8138
▁fuckhead	-11.8148
unders	-11.8155
anders	-11.8162
▁sighting	-11.8163
▁painter	-11.8163
▁rely	-11.8173
paid	-11.8177
▁congress	-11.8177
ickers	-11.8185
mage	-11.819
▁racer	-11.8199
▁semi	-11.82
▁surfer	-11.8211
▁addressed	-11.8213
▁irm	-11.8218
▁incidental	-11.8226
▁befor	-11.8255
atic	-11.8255
▁pep	-11.826
rmanda	-11.8264
▁tempora	-11.8268
not	-11.8271
berg	-11.8298
val	-11.832
▁kor	-11.833
▁suburb	-11.8353
▁degrad	-11.8394
hopper	-11.8413
utt	-11.8427
▁embe	-11.8439
▁testifie	-11.8442
▁mugge	-11.8445
ken	-11.8449
▁makers	-11.8472
isse	-11.8474
▁shu	-11.8481
▁pez	-11.8485
▁pusher	-11.849
vida	-11.8503
craft	-11.8506
▁gall	-11.8523
▁loo	-11.8526
▁foll	-11.8529
interrupted	-11.8559
owl	-11.8564
▁info	-11.8575
yala	-11.8588
▁toots	-11.8598
arrow	-11.8629
▁owed	-11.8657
▁viola	-11.8691
▁bai	-11.8694
lib	-11.8695
▁occasional	-11.8698
▁sud	-11.8725
▁chops	-11.873
mot	-11.8736
slidy	-11.8739
▁conserv	-11.8744
▁griev	-11.8749
gar	-11.8774
▁mod	-11.8789
▁hiss	-11.8819
▁tote	-11.8832
ncia	-11.8836
zel	-11.8859
ripping	-11.8865
esis	-11.8869
rable	-11.8885
otte	-11.8898
▁sai	-11.8908
pido	-11.8948
▁mit	-11.896
▁gan	-11.896
▁hait	-11.8962
strained	-11.8975
tonic	-11.8982
act	-11.8993
orge	-11.8997
▁bonn	-11.9003
▁medi	-11.9037
enz	-11.9053
▁fil	-11.9059
▁israeli	-11.9062
conscious	-11.9073
ifi	-11.9076
pong	-11.9078
ummy	-11.9081
▁hist	-11.9115
why	-11.9138
▁wit	-11.9163
▁odin	-11.9208
▁esper	-11.921
▁att	-11.9218
hus	-11.926
nico	-11.9274
onald	-11.9278
essed	-11.9282
▁entr	-11.9289
▁baz	-11.9305
▁serpent	-11.9337
▁multi	-11.9373
▁eth	-11.943
lip	-11.9432
rig	-11.9436
▁roden	-11.9458
▁anal	-11.9473
mitt	-11.9488
▁instrument	-11.9511
embar	-11.9511
bj	-11.9559
▁importa	-11.9563
equen	-11.9583
bore	-11.9603
▁sid	-11.9611
▁genera	-11.9631
▁dop	-11.9634
racks	-11.964
▁dam	-11.9642
litz	-11.9646
▁rav	-11.9652
▁stepp	-11.9655
gate	-11.9658
▁alm	-11.9677
▁dil	-11.969
mur	-11.9692
▁encontr	-11.9697
▁tento	-11.9746
▁clo	-11.9765
olate	-11.9766
pawned	-11.977
ological	-11.9788
urt	-11.9797
▁select	-11.9846
trained	-11.9872
▁conta	-11.9903
ella	-11.9924
▁mart	-11.9931
▁ignor	-11.994
omer	-11.9978
helm	-11.9987
▁demo	-12.0004
▁chee	-12.001
mora	-12.0068
raine	-12.0082
urban	-12.0099
where	-12.014
▁shap	-12.0146
▁punche	-12.0149
▁hisse	-12.0158
ull	-12.0166
▁bul	-12.0183
tches	-12.0188
aria	-12.0224
▁fro	-12.0239
▁brando	-12.0292
equil	-12.0347
your	-12.0384
▁casual	-12.0387
tropic	-12.0402
mia	-12.0407
▁han	-12.0418
▁fica	-12.0441
lom	-12.0518
nstein	-12.0526
▁soak	-12.0554
owski	-12.0585
▁dinin	-12.0618
unction	-12.0627
rell	-12.064
▁prot	-12.0654
▁presi	-12.066
lected	-12.0681
▁stev	-12.0684
▁chang	-12.0684
ugging	-12.0703
illin	-12.0727
mine	-12.0737
etzs	-12.0738
▁observa	-12.0741
▁margin	-12.0745
▁wail	-12.075
tract	-12.0758
that	-12.0766
▁cris	-12.077
▁thud	-12.0773
▁metall	-12.0775
▁footprint	-12.0777
▁prairie	-12.0777
▁canvas	-12.0778
▁immigrant	-12.0778
▁buiiet	-12.0779
aye	-12.0779
▁contestant	-12.0781
▁depth	-12.0782
▁resource	-12.0783
▁chemical	-12.0787
▁nipple	-12.0788
▁adam	-12.0789
▁peanut	-12.079
▁cliff	-12.079
▁oldtimer	-12.0792
▁strap	-12.0793
▁firearm	-12.0796
equi	-12.0798
▁celtic	-12.0798
▁explosive	-12.0798
▁sigh	-12.0804
▁scrub	-12.0804
▁stain	-12.0813
▁gambler	-12.0817
unette	-12.0824
▁brun	-12.0847
▁temp	-12.0861
▁encontra	-12.0869
pulsive	-12.0869
▁cran	-12.0875
lcher	-12.0881
▁poach	-12.0894
▁preach	-12.09
spirations	-12.09
▁liz	-12.0901
▁cram	-12.0906
▁stalk	-12.0912
▁bomber	-12.0915
keep	-12.0918
▁disturb	-12.092
forms	-12.0921
▁depart	-12.0922
▁gigant	-12.0922
serving	-12.0923
tantly	-12.0929
▁surviv	-12.093
▁ammo	-12.0932
laws	-12.0934
▁perc	-12.0939
brid	-12.0942
found	-12.0945
▁slum	-12.0946
▁pursu	-12.0946
loaf	-12.0948
nscription	-12.0949
▁crunch	-12.0949
▁refresh	-12.095
brew	-12.095
▁gree	-12.095
▁suppos	-12.095
voc	-12.095
itious	-12.0951
▁limp	-12.0951
▁retir	-12.0952
▁annoy	-12.0953
▁mourn	-12.0953
liability	-12.0953
structure	-12.0954
american	-12.0955
punish	-12.0955
wrapped	-12.0955
rabbit	-12.0955
storm	-12.0955
pipe	-12.0955
whip	-12.0955
familiar	-12.0955
weather	-12.0955
mentioned	-12.0955
steak	-12.0956
whistle	-12.0956
criminal	-12.0956
dressed	-12.0956
penny	-12.0956
dancing	-12.0956
finished	-12.0956
fellas	-12.0956
horse	-12.0956
bastard	-12.0956
knock	-12.0956
second	-12.0956
million	-12.0956
married	-12.0956
women	-12.0956
food	-12.0956
black	-12.0956
▁clang	-12.0957
wanted	-12.0957
▁oblig	-12.0959
plate	-12.096
beard	-12.096
wide	-12.0962
▁disconnect	-12.0962
gold	-12.0963
wear	-12.0963
▁indict	-12.0964
pool	-12.0964
▁obsess	-12.0964
finger	-12.0964
today	-12.0965
guide	-12.0965
▁distinguish	-12.0966
▁install	-12.0966
ctic	-12.0967
shire	-12.0967
bug	-12.0967
▁hyd	-12.0968
▁abst	-12.0969
▁rabbi	-12.097
pilot	-12.0971
▁iv	-12.0971
hairy	-12.0971
▁supp	-12.0972
bath	-12.0973
hose	-12.0973
▁beiieve	-12.0974
▁misunderstand	-12.0975
luca	-12.0976
▁relate	-12.0977
think	-12.0978
scribes	-12.0979
▁thudd	-12.0979
▁tuscan	-12.0979
▁burglar	-12.098
fall	-12.098
▁thirst	-12.098
▁fanta	-12.0981
▁beaut	-12.0981
▁frau	-12.0983
▁flatter	-12.0984
▁compan	-12.0985
▁technical	-12.0985
▁anni	-12.0985
▁contradict	-12.0986
▁brag	-12.0986
▁withdraw	-12.0986
▁exhibit	-12.0987
▁demonstrat	-12.0988
locker	-12.0989
▁luxur	-12.099
▁lyric	-12.0991
▁econom	-12.0992
▁exorcis	-12.0992
aaaa	-12.0992
▁waitress	-12.0992
xtradition	-12.0993
entials	-12.0993
▁penitentiar	-12.0993
▁asia	-12.0994
▁quittin	-12.0994
▁dancin	-12.0994
▁humphr	-12.0994
uspicious	-12.0994
▁klein	-12.0994
▁puss	-12.0994
▁ajud	-12.0994
▁resurrect	-12.0994
▁aggravat	-12.0994
▁colomb	-12.0994
fuckin	-12.0995
▁inject	-12.0995
▁rehabilitat	-12.0995
▁chasin	-12.0995
▁intent	-12.0995
capita	-12.0995
▁prosper	-12.0995
▁sylv	-12.0995
▁remorse	-12.0995
▁appraise	-12.0995
winkle	-12.0996
rangle	-12.0996
▁twel	-12.0996
▁engi	-12.0996
▁differ	-12.0996
▁confer	-12.0996
mhm	-12.0996
▁appar	-12.0996
▁cocksuck	-12.0996
rrifying	-12.0996
▁acquaint	-12.0996
▁aaron	-12.0996
▁georgie	-12.0996
▁handicap	-12.0996
▁algum	-12.0996
▁catalog	-12.0997
▁tutt	-12.0997
▁especia	-12.0997
▁guild	-12.0997
▁responsibi	-12.0997
▁congratulat	-12.0997
abilities	-12.0997
▁anticlima	-12.0997
▁astonish	-12.0997
▁brainwash	-12.0997
▁cresci	-12.0997
▁fierce	-12.0997
▁forfeit	-12.0997
▁fulfill	-12.0997
▁imprison	-12.0997
▁indirect	-12.0997
▁intoxicat	-12.0997
▁manufactur	-12.0997
▁shampoo	-12.0997
adequa	-12.0997
azepam	-12.0997
conspirators	-12.0997
disqualification	-12.0997
emption	-12.0997
ferocious	-12.0997
mmuniti	-12.0997
negotiable	-12.0997
ounterinsurgency	-12.0997
universal	-12.0997
▁accommodat	-12.0997
▁acquitt	-12.0997
▁adrien	-12.0997
▁afastese	-12.0997
▁algorithm	-12.0997
▁alimony	-12.0997
▁allergic	-12.0997
▁alleyoop	-12.0997
▁altercation	-12.0997
▁altogether	-12.0997
▁amphetamine	-12.0997
▁annmargret	-12.0997
▁apollo	-12.0997
▁apologise	-12.0997
▁apologizing	-12.0997
▁appliance	-12.0997
▁appraisal	-12.0997
▁aqueduct	-12.0997
▁aristotle	-12.0997
▁artichoke	-12.0997
▁artillery	-12.0997
▁attachment	-12.0997
▁authentic	-12.0997
▁avalanche	-12.0997
▁azoff	-12.0997
▁bachelor	-12.0997
▁bailiff	-12.0997
▁bandleader	-12.0997
▁banished	-12.0997
▁bankrupt	-12.0997
▁bartholomew	-12.0997
▁beauchamp	-12.0997
▁belvedere	-12.0997
▁benevolen	-12.0997
▁billiards	-12.0997
▁blaspheme	-12.0997
▁blasphemy	-12.0997
▁bogdanovich	-12.0997
▁bonasera	-12.0997
▁bouquet	-12.0997
▁breadcrumbs	-12.0997
▁brilliance	-12.0997
▁buddhist	-12.0997
▁bullettooth	-12.0997
▁burgundy	-12.0997
▁bystander	-12.0997
▁camelhair	-12.0997
▁caribbean	-12.0997
▁carpentry	-12.0997
▁caterpillar	-12.0997
▁caucasian	-12.0997
▁characterdriven	-12.0997
▁charlene	-12.0997
▁chauffeur	-12.0997
▁chemist	-12.0997
▁chiidren	-12.0997
▁chinchilla	-12.0997
▁chivato	-12.0997
▁cholesterol	-12.0997
▁civic	-12.0997
▁cobble	-12.0997
▁commerce	-12.0997
▁communities	-12.0997
▁concentration	-12.0997
▁concubine	-12.0997
▁conform	-12.0997
▁convenience	-12.0997
▁cornelius	-12.0997
▁corroborat	-12.0997
▁cortina	-12.0997
▁cossack	-12.0997
▁craftsmanship	-12.0997
▁cuddl	-12.0997
▁cyborg	-12.0997
▁cycle	-12.0997
▁cynical	-12.0997
▁daiquiri	-12.0997
▁dalsum	-12.0997
▁deauxma	-12.0997
▁definition	-12.0997
▁dehydrat	-12.0997
▁desaparecido	-12.0997
▁devotchka	-12.0997
▁dialogue	-12.0997
▁dirosa	-12.0997
▁discharg	-12.0997
▁disciple	-12.0997
▁discredited	-12.0997
▁dishwasher	-12.0997
▁disregard	-12.0997
▁disrupt	-12.0997
▁doiiar	-12.0997
▁doortodoor	-12.0997
▁douche	-12.0997
▁douchebags	-12.0997
▁dynasty	-12.0997
▁edinburgh	-12.0997
▁efficiency	-12.0997
▁eivie	-12.0997
▁eliminate	-12.0997
▁emergencies	-12.0997
▁engaging	-12.0997
▁enlarge	-12.0997
▁entrepreneur	-12.0997
▁equilibrium	-12.0997
▁erika	-12.0997
▁erotic	-12.0997
▁esmarelda	-12.0997
▁excommunicado	-12.0997
▁exquisite	-12.0997
▁eyewitness	-12.0997
▁fabrizio	-12.0997
▁facetoface	-12.0997
▁felonies	-12.0997
▁fiducia	-12.0997
▁firefighter	-12.0997
▁flapping	-12.0997
▁flinched	-12.0997
▁florence	-12.0997
▁flourish	-12.0997
▁flowerpot	-12.0997
▁foiiow	-12.0997
▁fonzie	-12.0997
▁fouet	-12.0997
▁fractions	-12.0997
▁fugazi	-12.0997
▁furnace	-12.0997
▁furnish	-12.0997
▁gangbanger	-12.0997
▁gemmill	-12.0997
▁geometr	-12.0997
▁germs	-12.0997
▁gestapo	-12.0997
▁gimmick	-12.0997
▁giraffe	-12.0997
▁gladiator	-12.0997
▁gnarly	-12.0997
▁goddamit	-12.0997
▁goddaughter	-12.0997
▁gribbs	-12.0997
▁grifters	-12.0997
▁guerrilla	-12.0997
▁guiiiver	-12.0997
▁gyppos	-12.0997
▁halfbrother	-12.0997
▁happily	-12.0997
▁harassment	-12.0997
▁hazelnut	-12.0997
▁henckels	-12.0997
▁hilarious	-12.0997
▁himalaya	-12.0997
▁hombre	-12.0997
▁homophobic	-12.0997
▁hooooooooooo	-12.0997
▁horizon	-12.0997
▁hurrah	-12.0997
▁hushhush	-12.0997
▁hygiene	-12.0997
▁hypocrisy	-12.0997
▁imbecile	-12.0997
▁inappropriate	-12.0997
▁inevitab	-12.0997
▁inflict	-12.0997
▁initiative	-12.0997
▁interlink	-12.0997
▁intimacy	-12.0997
▁intrusion	-12.0997
▁invincible	-12.0997
▁irrelevant	-12.0997
▁irrigation	-12.0997
▁irvine	-12.0997
▁isabelle	-12.0997
▁japan	-12.0997
▁jerusalem	-12.0997
▁juvenile	-12.0997
▁karma	-12.0997
▁kellogg	-12.0997
▁klingman	-12.0997
▁kodak	-12.0997
▁koskoff	-12.0997
▁kyoami	-12.0997
▁lankford	-12.0997
▁lebanon	-12.0997
▁lizewski	-12.0997
▁lourdes	-12.0997
▁malchick	-12.0997
▁malfunction	-12.0997
▁maneuver	-12.0997
▁mcandrew	-12.0997
▁mcneil	-12.0997
▁methadone	-12.0997
▁metropolitan	-12.0997
▁microwave	-12.0997
▁montblanc	-12.0997
▁montmartre	-12.0997
▁moresque	-12.0997
▁multitude	-12.0997
▁municipal	-12.0997
▁mwah	-12.0997
▁naehring	-12.0997
▁necrot	-12.0997
▁neighing	-12.0997
▁neuroleptics	-12.0997
▁newscaster	-12.0997
▁nihilist	-12.0997
▁nitwit	-12.0997
▁nuhuh	-12.0997
▁obtuse	-12.0997
▁octopus	-12.0997
▁optimistic	-12.0997
▁orphan	-12.0997
▁overflow	-12.0997
▁paranoia	-12.0997
▁parlour	-12.0997
▁patricia	-12.0997
▁pecado	-12.0997
▁pederast	-12.0997
▁peixe	-12.0997
▁perpetua	-12.0997
▁perspective	-12.0997
▁petrified	-12.0997
▁pharmaceutical	-12.0997
▁pheasant	-12.0997
▁pickpocket	-12.0997
▁pinstriped	-12.0997
▁policies	-12.0997
▁pollack	-12.0997
▁preocup	-12.0997
▁preparing	-12.0997
▁prohibition	-12.0997
▁prowler	-12.0997
▁publish	-12.0997
▁pyramids	-12.0997
▁quaalude	-12.0997
▁quarterpounder	-12.0997
▁questadt	-12.0997
▁questionnaire	-12.0997
▁quintana	-12.0997
▁rathbun	-12.0997
▁rendezvous	-12.0997
▁restructuring	-12.0997
▁revolt	-12.0997
▁reynolds	-12.0997
▁roleplay	-12.0997
▁rothschild	-12.0997
▁rwanda	-12.0997
▁samantha	-12.0997
▁sarcasm	-12.0997
▁sarzana	-12.0997
▁satisfy	-12.0997
▁saurel	-12.0997
▁scapegoat	-12.0997
▁seclusion	-12.0997
▁separation	-12.0997
▁shaving	-12.0997
▁showmanship	-12.0997
▁shrieks	-12.0997
▁sidekick	-12.0997
▁sideroads	-12.0997
▁significance	-12.0997
▁solemn	-12.0997
▁soninlaw	-12.0997
▁splendid	-12.0997
▁sprinkle	-12.0997
▁squash	-12.0997
▁staircase	-12.0997
▁steensma	-12.0997
▁stericlean	-12.0997
▁stripsearch	-12.0997
▁stunned	-12.0997
▁substantial	-12.0997
▁substitute	-12.0997
▁suffolk	-12.0997
▁supermarket	-12.0997
▁superstitious	-12.0997
▁swanney	-12.0997
▁swoop	-12.0997
▁symptom	-12.0997
▁taxicab	-12.0997
▁technician	-12.0997
▁terribi	-12.0997
▁thompson	-12.0997
▁tiffany	-12.0997
▁tolchok	-12.0997
▁toxic	-12.0997
▁treblinka	-12.0997
▁trough	-12.0997
▁tsurumaru	-12.0997
▁unarmed	-12.0997
▁unfair	-12.0997
▁unforgettable	-12.0997
▁unhook	-12.0997
▁unleash	-12.0997
▁unparallel	-12.0997
▁unspeakabl	-12.0997
▁unstoppable	-12.0997
▁untouchables	-12.0997
▁vacant	-12.0997
▁varmint	-12.0997
▁vocalizing	-12.0997
▁vodka	-12.0997
▁whitman	-12.0997
▁wiedersehen	-12.0997
▁windshield	-12.0997
▁wrench	-12.0997
▁wrinkl	-12.0997
▁wyoming	-12.0997
▁yanagita	-12.0997
▁zombie	-12.0997
▁antoine	-12.0997
▁asskick	-12.0997
▁beiong	-12.0997
▁catapult	-12.0997
▁cherish	-12.0997
▁congregat	-12.0997
▁eightysix	-12.0997
▁giddy	-12.0997
▁gitmo	-12.0997
▁gracious	-12.0997
▁handcuff	-12.0997
▁hawaii	-12.0997
▁ninemilli	-12.0997
▁oyster	-12.0997
▁squat	-12.0997
▁stacey	-12.0997
▁vaudevill	-12.0997
▁venom	-12.0997
▁wiretap	-12.0997
agonizing	-12.0997
rrhea	-12.0997
▁assumption	-12.0997
▁bacchanal	-12.0997
▁bickering	-12.0997
▁choppie	-12.0997
▁ciclo	-12.0997
▁clacking	-12.0997
▁dexter	-12.0997
▁fenway	-12.0997
▁garlic	-12.0997
▁graphic	-12.0997
▁groove	-12.0997
▁hippie	-12.0997
▁houston	-12.0997
▁incompeten	-12.0997
▁jasmine	-12.0997
▁kathy	-12.0997
▁leaf	-12.0997
▁liaison	-12.0997
▁lucius	-12.0997
▁mexa	-12.0997
▁muddled	-12.0997
▁nobili	-12.0997
▁okeydoke	-12.0997
▁osaka	-12.0997
▁parlor	-12.0997
▁reginald	-12.0997
▁restraint	-12.0997
▁retort	-12.0997
▁rumours	-12.0997
▁sponge	-12.0997
▁stranded	-12.0997
▁tannen	-12.0997
▁deceit	-12.0997
▁figuring	-12.0997
▁firewall	-12.0997
▁gemini	-12.0997
▁gmac	-12.0997
▁gunfight	-12.0997
▁havia	-12.0997
▁hyper	-12.0997
▁indiscre	-12.0997
▁lndian	-12.0997
▁mdma	-12.0997
▁motto	-12.0997
▁pneumonia	-12.0997
▁seijas	-12.0997
▁sibley	-12.0997
▁smiie	-12.0997
▁spoii	-12.0997
▁survey	-12.0997
▁ullman	-12.0997
ltimo	-12.0997
▁accumulat	-12.0997
▁baffle	-12.0997
▁fluids	-12.0997
▁gaius	-12.0997
▁homie	-12.0997
▁lraq	-12.0997
▁pendant	-12.0997
▁phony	-12.0997
▁pooch	-12.0997
▁poof	-12.0997
▁rapaz	-12.0997
▁regulator	-12.0997
▁tampin	-12.0997
▁tavern	-12.0997
▁visible	-12.0997
jitsu	-12.0997
responsibilities	-12.0997
▁cinna	-12.0997
▁davie	-12.0997
▁delahunt	-12.0997
▁gunderson	-12.0997
▁mongoloid	-12.0997
▁piercing	-12.0997
▁ricans	-12.0997
▁schillings	-12.0997
▁tristes	-12.0997
▁invo	-12.0997
▁mooch	-12.0997
▁nastiness	-12.0997
▁polar	-12.0997
▁racial	-12.0997
▁scientists	-12.0997
▁alaba	-12.0997
buk	-12.0997
▁boppers	-12.0997
▁cherie	-12.0997
▁despise	-12.0997
▁grapes	-12.0997
▁noticing	-12.0997
▁pyjamas	-12.0997
▁rerout	-12.0997
▁catastroph	-12.0997
▁crescendo	-12.0997
▁isolate	-12.0997
▁newcomer	-12.0997
▁requirements	-12.0997
▁rhd	-12.0997
▁slamming	-12.0997
▁classmates	-12.0997
▁derail	-12.0997
▁pioneer	-12.0997
▁sushi	-12.0997
▁threecent	-12.0997
▁uzi	-12.0997
▁absent	-12.0997
▁deixe	-12.0997
▁utopia	-12.0997
▁expia	-12.0997
▁hallucinations	-12.0997
▁witchcraft	-12.0997
dammit	-12.0997
▁mocking	-12.0997
▁pronto	-12.0997
▁kdk	-12.0997
▁sasha	-12.0997
▁anatomy	-12.0997
▁fatherinlaw	-12.0997
▁longterm	-12.0997
▁yawn	-12.0997
▁pearls	-12.0997
▁porsche	-12.0997
▁proving	-12.0997
▁aslan	-12.0997
▁commendat	-12.0997
▁quintus	-12.0997
cultural	-12.0997
▁convey	-12.0997
▁drakes	-12.0997
▁lurch	-12.0997
▁noches	-12.0997
▁spouse	-12.0997
dextro	-12.0997
▁staple	-12.0997
▁paychecks	-12.0997
▁sanchez	-12.0997
▁sieve	-12.0997
▁sketch	-12.0997
▁particle	-12.0997
▁foremost	-12.0997
▁sawedoff	-12.0997
▁idaho	-12.0997
▁noisy	-12.0997
▁vibes	-12.0997
▁abducted	-12.0997
▁anagram	-12.0997
▁compact	-12.0997
▁ghastiy	-12.0997
▁grouch	-12.0997
▁obligated	-12.0997
▁stansfield	-12.0997
descend	-12.0997
▁circulation	-12.0997
▁iosing	-12.0997
▁applicant	-12.0997
▁dedication	-12.0997
▁introduction	-12.0997
tagoni	-12.0997
▁medics	-12.0997
nourish	-12.0997
▁cement	-12.0997
▁quincy	-12.0997
▁lamppost	-12.0997
▁qualify	-12.0997
▁hubb	-12.0997
▁arraignment	-12.0997
▁humiliating	-12.0997
▁trembl	-12.0997
▁waik	-12.0997
▁scramble	-12.0997
▁drape	-12.0997
arbled	-12.0997
▁fusion	-12.0997
▁insolence	-12.0997
▁tulip	-12.0997
▁keith	-12.0997
▁clarity	-12.0997
▁stagger	-12.0997
▁cruci	-12.0997
▁mendis	-12.0997
▁floppy	-12.0997
▁nitr	-12.0997
▁fartface	-12.0997
▁phillip	-12.0997
▁handicapped	-12.0997
▁derrick	-12.0997
▁removal	-12.0997
▁repeatedly	-12.0997
▁livro	-12.0997
▁swept	-12.0997
▁practising	-12.0997
▁qualities	-12.0997
▁rigged	-12.0997
▁treachery	-12.0997
▁criticize	-12.0997
▁grudge	-12.0997
▁madonna	-12.0997
▁compulsive	-12.0998
▁clinging	-12.0998
▁interstate	-12.0998
▁disqualified	-12.0998
▁slander	-12.0998
incent	-12.0998
▁vacancies	-12.0998
▁formalities	-12.0998
▁raccoon	-12.0998
▁threesome	-12.0998
▁aaronson	-12.0998
▁reschedule	-12.0998
▁thunderstorm	-12.0998
▁icon	-12.0998
▁qulet	-12.0998
▁branc	-12.0998
▁inaudible	-12.0998
▁intercom	-12.0998
▁audit	-12.0998
▁coochie	-12.0998
▁snider	-12.0998
▁solving	-12.0998
▁marvel	-12.0998
▁whiff	-12.0998
▁humour	-12.0998
▁liquidate	-12.0998
▁speedboat	-12.0998
▁teeny	-12.0998
▁cashiers	-12.0998
shaq	-12.0998
▁crumb	-12.0998
▁excitement	-12.0998
▁martha	-12.0998
▁fortnight	-12.0998
▁hunchback	-12.0998
▁pakistan	-12.0998
▁gramont	-12.0998
▁priorities	-12.0998
▁index	-12.0998
▁manoio	-12.0998
▁pirate	-12.0998
▁columbia	-12.0998
▁holster	-12.0998
▁hasty	-12.0998
▁tiptop	-12.0998
▁abdom	-12.0998
▁preced	-12.0998
▁fauit	-12.0998
▁renee	-12.0998
▁snapped	-12.0998
▁baham	-12.0998
▁jagoff	-12.0998
▁onshore	-12.0998
▁latte	-12.0998
▁password	-12.0998
▁rustling	-12.0998
▁shiny	-12.0998
▁cui	-12.0998
▁graft	-12.0998
▁slots	-12.0998
▁thailand	-12.0998
▁transition	-12.0998
▁baptist	-12.0998
▁gilda	-12.0998
▁tickling	-12.0998
▁gaff	-12.0998
▁arctic	-12.0998
▁ponti	-12.0998
▁wizard	-12.0998
▁greaseball	-12.0998
▁cooing	-12.0998
▁splat	-12.0998
▁supervision	-12.0998
▁trustees	-12.0998
▁bocha	-12.0998
▁convert	-12.0998
▁provision	-12.0998
▁shylock	-12.0998
▁cinch	-12.0999
▁diabet	-12.0999
▁flaws	-12.0999
▁distributor	-12.0999
▁entende	-12.0999
▁twentythree	-12.0999
▁migue	-12.0999
▁plaster	-12.0999
▁synthe	-12.0999
▁timber	-12.0999
▁twat	-12.0999
▁blindfold	-12.0999
▁ederer	-12.0999
▁zane	-12.0999
sheesh	-12.0999
▁snub	-12.0999
residency	-12.0999
▁materialize	-12.0999
▁wept	-12.0999
▁sylvia	-12.0999
toknow	-12.0999
presso	-12.0999
▁vague	-12.0999
▁remarkable	-12.0999
▁hks	-12.0999
▁glut	-12.0999
▁downside	-12.0999
▁flea	-12.0999
▁abso	-12.0999
▁pillow	-12.0999
▁prank	-12.0999
▁hostile	-12.0999
▁myles	-12.0999
▁income	-12.0999
▁prosperous	-12.0999
▁stunning	-12.0999
▁cartier	-12.0999
▁ponte	-12.0999
▁saps	-12.0999
▁gravity	-12.0999
▁growls	-12.0999
▁abortion	-12.0999
▁casket	-12.0999
▁battlefield	-12.0999
▁berlin	-12.0999
▁gps	-12.0999
▁injection	-12.0999
▁rehabilitation	-12.0999
▁allright	-12.0999
▁junkyard	-12.0999
▁krisp	-12.0999
▁pullups	-12.1
▁dtown	-12.1
▁emerald	-12.1
▁existence	-12.1
▁zubrowka	-12.1
▁greg	-12.1
▁counsellor	-12.1
▁chega	-12.1
▁merchant	-12.1
▁twentytwo	-12.1
▁sharkey	-12.1
▁claro	-12.1
▁hermit	-12.1
▁moses	-12.1
▁ethan	-12.1
▁blip	-12.1
▁flamingos	-12.1
▁upload	-12.1
▁ritz	-12.1
▁tuttle	-12.1
▁compton	-12.1
▁embarrassment	-12.1
▁observation	-12.1
▁saul	-12.1
▁achievers	-12.1
▁outright	-12.1
▁ahhhhh	-12.1
▁cobra	-12.1
▁firebird	-12.1
▁overall	-12.1
saw	-12.1
▁simultaneously	-12.1
fthan	-12.1
▁boredom	-12.1
▁humphries	-12.1
▁tidy	-12.1
▁hallowe	-12.1
with	-12.1
▁forbe	-12.1
▁sobel	-12.1
nstitutionalized	-12.1
▁pugs	-12.1
▁clash	-12.1
▁sloth	-12.1
▁accessory	-12.1
▁tribe	-12.1
▁mellow	-12.1
▁quaker	-12.1
▁fique	-12.1
lihood	-12.1
▁hoytl	-12.1001
▁triage	-12.1001
▁grove	-12.1001
▁irresponsible	-12.1001
▁panhandle	-12.1001
▁gabriella	-12.1001
itation	-12.1001
▁cremat	-12.1001
▁ceasefire	-12.1001
▁morris	-12.1001
▁afogar	-12.1001
▁frequency	-12.1001
▁hostility	-12.1001
▁mexe	-12.1001
youre	-12.1001
▁industrial	-12.1001
▁referred	-12.1001
▁nerd	-12.1001
▁scienti	-12.1001
▁whipped	-12.1001
▁birches	-12.1001
▁vickers	-12.1001
▁leeches	-12.1001
▁legacy	-12.1001
▁radius	-12.1001
▁extradition	-12.1001
▁ekg	-12.1001
▁leeway	-12.1001
▁sensor	-12.1001
▁overboard	-12.1001
quish	-12.1001
emper	-12.1002
▁blushon	-12.1002
▁ioveiy	-12.1002
▁involvement	-12.1002
▁bertra	-12.1002
▁engagement	-12.1002
▁interla	-12.1002
▁volte	-12.1002
▁timid	-12.1002
▁begets	-12.1002
▁gnight	-12.1002
▁adorable	-12.1002
▁loupe	-12.1002
▁nonya	-12.1002
▁baptized	-12.1002
▁detection	-12.1002
vory	-12.1002
▁budge	-12.1002
▁octa	-12.1002
▁remark	-12.1002
aaaah	-12.1002
▁churchill	-12.1002
▁valli	-12.1002
▁underway	-12.1003
▁yeee	-12.1003
▁paisan	-12.1003
▁cheerio	-12.1003
▁overheard	-12.1003
▁iying	-12.1003
etts	-12.1003
▁ajob	-12.1003
▁judas	-12.1003
▁strattonite	-12.1003
▁withdrawn	-12.1003
▁cockney	-12.1003
▁dinging	-12.1003
▁cazz	-12.1003
▁babysit	-12.1003
▁wwhat	-12.1003
▁disrespectful	-12.1003
▁brace	-12.1003
▁spunk	-12.1003
▁cubic	-12.1003
▁coca	-12.1003
▁whiie	-12.1004
▁erasing	-12.1004
▁matar	-12.1004
ihua	-12.1004
xious	-12.1004
▁admitted	-12.1004
▁domus	-12.1004
▁marlin	-12.1004
▁dwell	-12.1004
▁sophia	-12.1004
▁stevenson	-12.1004
▁heid	-12.1004
▁tipped	-12.1004
▁resurfaced	-12.1005
▁sophisticated	-12.1005
▁delusional	-12.1005
▁continuar	-12.1005
▁humpty	-12.1005
▁chev	-12.1005
▁ample	-12.1005
▁babyjoel	-12.1005
▁unreal	-12.1005
▁cess	-12.1005
▁revel	-12.1005
eodor	-12.1005
▁amends	-12.1005
▁aka	-12.1005
▁committing	-12.1005
▁conhe	-12.1005
▁vidal	-12.1005
▁rapidly	-12.1005
▁bandage	-12.1006
▁kah	-12.1006
▁literature	-12.1006
▁lrish	-12.1006
▁dekins	-12.1007
ickets	-12.1007
▁majorca	-12.1007
▁giad	-12.1007
▁fugi	-12.1007
antine	-12.1007
▁infiltrate	-12.1007
▁peddle	-12.1007
▁presume	-12.1007
▁jessie	-12.1007
▁fork	-12.1007
▁straightaway	-12.1007
ferment	-12.1008
▁blockade	-12.1008
▁airfield	-12.1008
▁ango	-12.1008
▁analysis	-12.1008
▁behaving	-12.1008
▁hazard	-12.1008
▁insanity	-12.1008
▁orgasm	-12.1008
▁slovenian	-12.1008
▁wolves	-12.1008
▁belongings	-12.1008
▁imperial	-12.1008
▁inde	-12.1008
ficial	-12.1008
▁lazi	-12.1008
▁retro	-12.1008
▁scour	-12.1008
▁contradiction	-12.1008
▁warren	-12.1008
▁trent	-12.1008
▁render	-12.1008
▁domina	-12.1008
▁tyrant	-12.1008
▁considerate	-12.1009
▁crast	-12.1009
▁whim	-12.1009
▁coco	-12.1009
▁storehouse	-12.1009
▁colonies	-12.1009
▁dominoes	-12.1009
▁lyin	-12.1009
athlete	-12.1009
shuffl	-12.101
▁web	-12.101
▁notre	-12.101
▁pezz	-12.101
▁happier	-12.101
▁collier	-12.101
ilde	-12.101
▁meaningful	-12.101
▁pastels	-12.101
▁flop	-12.101
▁stens	-12.101
▁berni	-12.101
▁hangover	-12.101
▁baggie	-12.101
▁casing	-12.101
▁archers	-12.1011
eeding	-12.1011
mois	-12.1011
harmony	-12.1011
▁lesion	-12.1011
▁reverend	-12.1011
▁penetrated	-12.1011
▁moist	-12.1011
▁twentyone	-12.1011
▁starring	-12.1011
▁newfound	-12.1012
▁dung	-12.1012
▁shakedown	-12.1012
▁batch	-12.1012
istine	-12.1012
▁mmmmm	-12.1012
▁savior	-12.1013
▁fizz	-12.1013
▁milan	-12.1013
▁sax	-12.1014
▁outlaw	-12.1014
▁checkpoint	-12.1014
▁excel	-12.1014
▁adventurer	-12.1014
▁charon	-12.1014
▁teasing	-12.1014
▁baton	-12.1014
▁exile	-12.1015
▁hardware	-12.1015
▁caesarea	-12.1015
▁coverage	-12.1015
▁mentality	-12.1015
▁luxury	-12.1015
▁tuscany	-12.1015
▁barney	-12.1015
▁mangos	-12.1016
▁certified	-12.1016
▁foreigners	-12.1016
▁quoi	-12.1016
▁wedge	-12.1016
▁abc	-12.1017
▁abra	-12.1017
▁valor	-12.1018
▁devastated	-12.1018
▁employed	-12.1018
▁roulette	-12.1018
▁peas	-12.1019
▁boar	-12.1019
rner	-12.1019
▁bitten	-12.1019
▁oww	-12.1019
▁ratted	-12.102
▁weakling	-12.102
▁sleepover	-12.102
quer	-12.102
▁beiieved	-12.102
joe	-12.1021
▁gland	-12.1021
▁coit	-12.1022
▁chess	-12.1022
▁memorize	-12.1022
▁robberies	-12.1022
case	-12.1023
▁restroom	-12.1023
▁stanley	-12.1023
▁illustrate	-12.1023
closure	-12.1023
▁weaken	-12.1023
▁fantasize	-12.1024
▁litter	-12.1024
▁jj	-12.1024
▁stationary	-12.1024
▁buildup	-12.1025
▁consideration	-12.1025
▁uhuhuh	-12.1026
▁absolve	-12.1026
▁province	-12.1026
▁redeemed	-12.1026
▁rondo	-12.1026
▁torturing	-12.1026
▁vene	-12.1027
▁antony	-12.1027
▁venture	-12.1027
▁obi	-12.1027
tamara	-12.1027
▁jock	-12.1027
ntage	-12.1028
▁chapin	-12.1028
▁voltar	-12.1028
▁warmth	-12.1029
▁pian	-12.1029
▁handbag	-12.1029
▁cody	-12.1029
▁journalist	-12.1029
▁trill	-12.1029
greatgrandmother	-12.1029
▁programmed	-12.103
▁joyous	-12.103
▁francisco	-12.103
▁crest	-12.103
▁bona	-12.103
▁ramp	-12.103
▁superheroes	-12.1031
▁hover	-12.1031
▁installed	-12.1031
▁disconnected	-12.1032
▁repel	-12.1032
▁travelers	-12.1032
▁walton	-12.1032
▁realizing	-12.1032
▁latter	-12.1032
▁magnet	-12.1033
▁potter	-12.1033
▁dago	-12.1033
itary	-12.1034
▁trim	-12.1034
eval	-12.1035
savvy	-12.1035
▁warmup	-12.1036
vian	-12.1036
▁verb	-12.1036
▁bowel	-12.1036
icate	-12.1037
▁alto	-12.1037
▁comply	-12.1037
▁gian	-12.1038
▁wanjam	-12.1039
▁shredd	-12.104
give	-12.104
▁apocal	-12.104
▁arteri	-12.1041
▁confined	-12.1041
▁badgers	-12.1041
▁bois	-12.1042
▁bono	-12.1042
▁shorten	-12.1042
▁loaf	-12.1042
▁stretches	-12.1042
▁legion	-12.1042
▁data	-12.1043
flake	-12.1043
▁dyer	-12.1044
▁deposition	-12.1045
▁jamm	-12.1045
▁mourning	-12.1045
▁shortening	-12.1045
▁refreshing	-12.1045
▁limping	-12.1045
▁preaching	-12.1045
▁soli	-12.1045
▁estive	-12.1045
▁slau	-12.1045
▁bookmaker	-12.1046
▁passive	-12.1047
▁vent	-12.1047
▁pathway	-12.1047
▁whoie	-12.1047
▁massac	-12.1047
▁bora	-12.1049
▁crab	-12.1049
▁gallon	-12.105
▁sonora	-12.105
mpered	-12.105
▁observed	-12.105
▁limey	-12.1051
▁squeaky	-12.1051
▁dove	-12.1051
▁atm	-12.1051
▁fable	-12.1052
▁paddle	-12.1052
▁endure	-12.1053
▁dull	-12.1054
▁myst	-12.1054
▁admirer	-12.1055
▁crunching	-12.1056
▁portal	-12.1056
bted	-12.1056
▁suckle	-12.1058
▁patsy	-12.1058
▁vino	-12.1058
▁reopened	-12.1059
▁olm	-12.1059
▁casal	-12.1059
▁taser	-12.1059
▁piper	-12.106
▁ober	-12.1061
▁renegotiat	-12.1061
▁painless	-12.1062
cide	-12.1062
▁payoff	-12.1063
▁grabb	-12.1063
▁acceptable	-12.1063
▁medo	-12.1063
▁colouring	-12.1064
ssimo	-12.1064
▁losses	-12.1064
▁justi	-12.1065
▁conn	-12.1065
▁ruby	-12.1065
▁senseless	-12.1066
ould	-12.1066
▁itit	-12.1067
fuiiy	-12.1067
▁drawn	-12.1067
▁produced	-12.1067
▁sang	-12.1068
clubbing	-12.1068
▁carrier	-12.1068
▁kia	-12.1068
▁mule	-12.1069
gum	-12.1072
▁grim	-12.1072
▁chino	-12.1073
▁blinked	-12.1073
▁addicted	-12.1073
▁alerted	-12.1073
▁prosecuted	-12.1073
▁financially	-12.1073
▁unlikely	-12.1073
▁urgently	-12.1073
▁scot	-12.1073
▁mona	-12.1075
▁mph	-12.1076
▁rabi	-12.1076
▁mustard	-12.1077
▁korean	-12.1079
▁bile	-12.108
kg	-12.108
actical	-12.1081
▁corny	-12.1082
▁artistic	-12.1083
▁goons	-12.1085
vision	-12.1085
▁haste	-12.1085
▁cramp	-12.1086
▁shoved	-12.1086
▁contr	-12.1086
▁coal	-12.1086
▁reta	-12.109
▁readout	-12.109
▁losef	-12.109
▁melo	-12.1091
▁alon	-12.1091
mere	-12.1091
▁posters	-12.1091
▁bangin	-12.1093
▁alexandre	-12.1096
▁noel	-12.1098
▁stupidass	-12.1099
▁runner	-12.11
▁succeeded	-12.1101
▁howling	-12.1101
crates	-12.1103
▁secured	-12.1105
▁finite	-12.1106
▁deci	-12.1107
▁beaner	-12.1107
▁jose	-12.1107
▁secondary	-12.1108
radar	-12.111
▁marrie	-12.1111
▁pursued	-12.1111
diment	-12.1113
▁homeboy	-12.1114
▁quero	-12.1114
▁flooded	-12.1114
▁stashed	-12.1114
▁healed	-12.1114
opper	-12.1114
▁irony	-12.1116
▁businessmen	-12.1116
anus	-12.1116
lnglng	-12.1117
▁pilch	-12.112
▁hollering	-12.1121
▁disappointing	-12.1121
▁ditched	-12.1124
▁homens	-12.1126
▁reminder	-12.1126
othing	-12.1129
▁recommended	-12.1129
skate	-12.113
▁priv	-12.113
▁threeway	-12.113
▁sodd	-12.1132
bay	-12.1134
▁greased	-12.1134
▁scraped	-12.1135
▁restore	-12.1135
thic	-12.1138
▁regal	-12.1139
▁adventure	-12.114
▁broadcasting	-12.114
▁milo	-12.1142
▁scraping	-12.1142
▁flashy	-12.1145
▁shouted	-12.1146
▁fundo	-12.1147
▁pushes	-12.1148
oble	-12.1151
iance	-12.1151
▁sane	-12.1151
▁carny	-12.1152
▁forgiven	-12.1155
▁crawled	-12.1158
▁ththat	-12.116
▁org	-12.1161
▁cheaper	-12.1164
▁wince	-12.1165
▁rollers	-12.1167
▁ofyou	-12.1167
▁poly	-12.1168
▁showtime	-12.1169
▁fling	-12.1173
▁mild	-12.1175
loud	-12.1178
most	-12.118
▁eli	-12.1182
▁vet	-12.1185
ouve	-12.1186
▁counsell	-12.1186
omatic	-12.1188
▁processor	-12.1188
▁youngman	-12.119
▁boomer	-12.1195
▁topic	-12.1196
▁tente	-12.1196
▁stealin	-12.1197
▁paradox	-12.1198
▁pry	-12.1199
itch	-12.1202
ensity	-12.1202
▁fiddl	-12.1203
ointed	-12.1204
▁kickin	-12.1208
toid	-12.1214
iations	-12.1224
▁beii	-12.1228
▁dodger	-12.1229
wiping	-12.1231
▁brew	-12.1232
▁botch	-12.1233
wrapping	-12.1237
▁wilt	-12.1238
▁discre	-12.1244
▁bankroll	-12.1245
▁hustler	-12.125
▁creeper	-12.1254
▁poii	-12.1263
▁testament	-12.1273
▁whup	-12.1284
▁defian	-12.1292
urse	-12.1298
tiles	-12.1299
▁sniffl	-12.13
▁olha	-12.1302
▁matth	-12.1302
▁dine	-12.1307
▁pasa	-12.1309
▁passar	-12.131
▁shiv	-12.1317
▁atropela	-12.1321
▁porno	-12.1333
▁serb	-12.1338
▁organiz	-12.1345
otations	-12.1346
▁beam	-12.1367
logged	-12.1367
▁abort	-12.1375
obno	-12.1399
▁vine	-12.1409
▁frat	-12.1411
fel	-12.1432
edwin	-12.1437
▁submissi	-12.1446
code	-12.1449
destructi	-12.1461
▁magn	-12.1463
▁biii	-12.1477
tomy	-12.1482
bab	-12.1499
vitie	-12.1502
static	-12.1503
▁bender	-12.1518
▁thiev	-12.1521
▁berk	-12.1525
explica	-12.1525
▁procura	-12.1533
▁vert	-12.1536
▁scr	-12.1538
pine	-12.1543
ickle	-12.1568
classify	-12.1572
omin	-12.1594
▁subver	-12.1603
dded	-12.1607
▁harmonic	-12.1625
▁motorca	-12.1629
cuse	-12.1638
productive	-12.1652
which	-12.1661
▁radiat	-12.1663
▁pup	-12.168
stible	-12.1696
fortunately	-12.1697
▁constituti	-12.17
ppies	-12.1707
▁spra	-12.1708
anamo	-12.1709
recia	-12.1711
ogram	-12.1719
suits	-12.1723
▁environmental	-12.1726
▁vase	-12.1741
very	-12.1751
sandra	-12.1773
reme	-12.1783
▁ofjo	-12.1799
cultivate	-12.1806
lap	-12.1813
oons	-12.1825
▁sweater	-12.1856
▁mira	-12.1865
▁soot	-12.187
▁bott	-12.1883
▁jun	-12.1913
▁calculate	-12.2001
▁performer	-12.201
▁fin	-12.2019
▁hothead	-12.2085
hat	-12.212
▁malar	-12.2129
▁eff	-12.213
▁magical	-12.2134
notch	-12.2139
▁ether	-12.2147
hair	-12.2147
plies	-12.2166
bbled	-12.2195
▁termin	-12.2206
▁disk	-12.2211
▁enca	-12.2218
▁doper	-12.2267
▁braze	-12.2274
into	-12.2275
change	-12.2302
hopped	-12.2323
aska	-12.2339
▁contar	-12.2347
iological	-12.2361
▁chim	-12.2443
▁charit	-12.2456
gala	-12.2491
▁acaba	-12.2557
▁fancies	-12.2575
▁fli	-12.2621
▁stru	-12.2632
evo	-12.2646
akin	-12.265
gassed	-12.2651
▁importan	-12.2661
▁rodge	-12.2743
▁nurs	-12.2759
▁gir	-12.2778
itt	-12.2791
graph	-12.2798
▁mapp	-12.2878
▁procure	-12.2897
utch	-12.2912
▁admir	-12.2947
▁libra	-12.2967
azza	-12.3042
threeseven	-12.3112
luded	-12.3163
▁travell	-12.3241
uela	-12.3263
▁experienc	-12.3276
pathy	-12.3279
auf	-12.3286
coop	-12.3351
▁stre	-12.3353
fcolor	-12.3363
obbledy	-12.3366
arian	-12.339
hypnotized	-12.3438
▁bac	-12.3476
▁suspense	-12.3479
hidin	-12.3523
▁nursi	-12.3609
▁sher	-12.361
lated	-12.3613
culo	-12.3684
coeur	-12.3706
▁dur	-12.3733
▁rotat	-12.3813
▁slid	-12.3827
iq	-12.3843
▁abou	-12.3854
▁fanci	-12.3858
▁acab	-12.3876
▁celebrat	-12.3898
▁conservati	-12.3903
▁barri	-12.3918
▁schem	-12.3955
▁provok	-12.3969
▁imitat	-12.4055
contained	-12.4117
mandin	-12.4156
waltz	-12.4158
disposed	-12.4176
▁braz	-12.4219
rcraft	-12.4233
▁leve	-12.4234
▁inci	-12.4244
apple	-12.426
▁maud	-12.4277
acked	-12.4335
▁overru	-12.4372
▁statu	-12.4463
▁merch	-12.4501
rving	-12.4507
degrade	-12.4511
calculated	-12.4544
▁indicat	-12.4574
new	-12.4596
▁unrest	-12.4625
ification	-12.4648
nski	-12.4667
onetwo	-12.4688
▁consegui	-12.4693
shaped	-12.4814
burner	-12.4821
▁cli	-12.4875
oppy	-12.4885
akers	-12.4915
gression	-12.4921
▁duv	-12.4958
idden	-12.5067
chamel	-12.5071
▁hun	-12.5071
aboo	-12.5126
▁vocat	-12.5149
bul	-12.5157
ieving	-12.5186
riches	-12.5189
▁consegu	-12.5191
▁simpl	-12.5258
struction	-12.5277
forming	-12.5279
▁ethic	-12.5287
rivi	-12.5299
skirts	-12.5444
deeds	-12.5448
riots	-12.5455
ooties	-12.5461
uppie	-12.5462
rolled	-12.5481
[...]
