<unk>	0
<s>	0
</s>	0
s	-3.50166
▁im	-4.37208
▁dont	-4.47079
▁know	-4.49765
▁get	-4.75551
▁like	-4.82356
▁right	-4.86448
▁go	-4.88755
▁yeah	-4.93342
▁youre	-4.94314
▁got	-4.98996
▁oh	-5.02152
▁come	-5.04885
▁na	-5.07185
ing	-5.13367
▁okay	-5.17053
▁thats	-5.18873
▁want	-5.26071
▁well	-5.26159
▁one	-5.30847
ed	-5.32595
▁think	-5.35361
▁gon	-5.36264
▁good	-5.37426
▁see	-5.45319
▁hey	-5.50801
▁man	-5.51329
d	-5.59846
▁look	-5.60339
▁yes	-5.64849
▁back	-5.67388
▁take	-5.68003
▁ill	-5.69144
▁going	-5.69927
▁time	-5.71504
▁hes	-5.717
▁need	-5.7541
▁cant	-5.76092
▁fuck	-5.76102
▁us	-5.76294
▁tell	-5.80683
▁say	-5.84932
▁would	-5.87964
▁shit	-5.91921
▁please	-5.92351
▁fucking	-5.92893
▁really	-5.94219
▁didnt	-5.95408
▁something	-5.99088
y	-6.00326
▁make	-6.02818
▁let	-6.03236
▁l	-6.0479
▁thank	-6.05919
▁mean	-6.06975
▁sorry	-6.07434
▁god	-6.07856
▁could	-6.08204
▁love	-6.08448
e	-6.0951
▁way	-6.09634
▁whats	-6.10745
▁little	-6.11294
▁never	-6.12382
er	-6.13306
▁give	-6.15486
▁lets	-6.17089
▁uh	-6.18287
▁people	-6.20672
▁ive	-6.21031
▁	-6.23298
▁said	-6.2408
▁theres	-6.2489
▁stop	-6.27032
▁much	-6.30906
ly	-6.31019
▁help	-6.32015
▁shes	-6.32681
▁two	-6.34317
in	-6.34556
▁thing	-6.37718
▁sure	-6.38236
▁call	-6.40308
▁wait	-6.43341
▁talk	-6.43912
▁home	-6.47672
▁work	-6.4951
▁anything	-6.50109
▁mr	-6.50731
t	-6.50854
▁find	-6.51733
▁put	-6.52294
▁even	-6.53684
▁theyre	-6.54866
▁maybe	-6.55172
▁night	-6.5532
▁ta	-6.56316
a	-6.56847
n	-6.57209
▁keep	-6.57525
▁wan	-6.6143
▁around	-6.61462
▁music	-6.6154
▁money	-6.62278
▁day	-6.6269
▁hell	-6.63663
▁first	-6.63763
▁ever	-6.64357
▁life	-6.66112
▁thought	-6.67536
▁hi	-6.68384
▁feel	-6.68622
▁told	-6.68879
▁better	-6.69235
▁leave	-6.70466
▁great	-6.70785
▁baby	-6.7118
▁still	-6.71181
▁guy	-6.71683
r	-6.72431
▁girl	-6.72445
▁name	-6.72592
▁nothing	-6.72629
▁listen	-6.7277
▁guys	-6.73035
▁sir	-6.74267
▁long	-6.75
▁last	-6.75601
▁hear	-6.76026
▁ok	-6.76898
▁stay	-6.789
▁id	-6.79045
▁kill	-6.79715
▁understand	-6.80166
o	-6.8066
▁car	-6.81644
▁nice	-6.82584
▁door	-6.83221
▁doesnt	-6.83553
▁things	-6.84125
▁place	-6.84579
▁everything	-6.84605
es	-6.85682
▁years	-6.85715
▁new	-6.85806
▁lot	-6.85876
▁hello	-6.86777
▁away	-6.87488
▁remember	-6.88113
i	-6.88721
▁um	-6.89307
▁always	-6.89609
▁woman	-6.89612
▁every	-6.90124
▁fine	-6.90813
▁wont	-6.91347
▁youll	-6.9135
l	-6.91554
▁boy	-6.91993
▁house	-6.9224
p	-6.92827
▁bad	-6.93347
▁coming	-6.94933
▁old	-6.95407
▁phone	-6.95603
g	-6.9575
▁father	-6.95968
▁son	-6.97218
▁made	-6.97499
▁talking	-6.97749
▁happened	-6.97874
c	-6.99184
▁youve	-6.99327
▁done	-6.99567
▁kind	-7.00386
▁huh	-7.00521
▁someone	-7.00998
▁three	-7.01242
▁believe	-7.0209
▁move	-7.02586
▁big	-7.0271
▁dad	-7.02975
▁dead	-7.03214
▁hold	-7.03363
▁must	-7.03384
▁show	-7.052
▁wrong	-7.0569
▁real	-7.05929
m	-7.07975
▁isnt	-7.07992
▁enough	-7.08251
▁another	-7.08771
▁world	-7.08774
▁trying	-7.09073
al	-7.10814
▁aint	-7.11683
▁mother	-7.11767
▁mind	-7.12256
▁thanks	-7.12257
▁left	-7.12761
▁try	-7.13375
▁course	-7.13855
▁ask	-7.13884
▁might	-7.14129
▁room	-7.14142
▁wanted	-7.14268
▁else	-7.14408
▁run	-7.14977
▁care	-7.1517
ll	-7.17561
▁cause	-7.18057
▁playing	-7.18451
▁saw	-7.19213
▁found	-7.19445
▁next	-7.20664
▁head	-7.20935
▁job	-7.21088
▁today	-7.21549
▁getting	-7.22413
▁mom	-7.22569
▁looking	-7.22694
▁came	-7.23015
u	-7.23258
▁wife	-7.23948
▁morning	-7.24559
▁face	-7.25188
▁tonight	-7.26095
▁best	-7.26739
▁friend	-7.27041
▁wasnt	-7.27343
▁end	-7.29194
b	-7.30194
▁hard	-7.30815
▁live	-7.3127
▁ah	-7.31469
▁pretty	-7.3151
▁may	-7.32042
▁guess	-7.32167
▁shut	-7.33162
▁whole	-7.33165
▁ass	-7.34193
▁miss	-7.34991
▁went	-7.35184
▁open	-7.36372
ion	-7.36593
▁called	-7.36775
▁knew	-7.37236
▁ready	-7.38482
▁actually	-7.38993
▁heard	-7.39675
▁die	-7.39919
ve	-7.40084
ic	-7.40983
▁seen	-7.42098
▁five	-7.42238
▁ha	-7.42469
▁bit	-7.42529
▁problem	-7.42606
▁many	-7.4314
▁meet	-7.43464
f	-7.43614
▁wouldnt	-7.44159
▁family	-7.4442
▁weve	-7.44799
▁hand	-7.44816
▁together	-7.45921
re	-7.46215
▁hurt	-7.47045
▁men	-7.47132
▁crazy	-7.47445
▁school	-7.47836
▁em	-7.48026
▁hope	-7.48625
▁excuse	-7.48992
▁alone	-7.48999
▁everybody	-7.49259
▁watch	-7.49497
▁water	-7.49787
or	-7.49989
▁police	-7.50131
▁sit	-7.50621
▁bitch	-7.50889
▁whos	-7.5141
▁second	-7.52075
▁gun	-7.52093
▁four	-7.52543
▁tomorrow	-7.52969
▁fire	-7.52986
▁story	-7.53377
▁damn	-7.53383
▁ya	-7.53534
▁re	-7.53573
▁kids	-7.53845
▁fuckin	-7.53905
▁brother	-7.54794
▁beautiful	-7.55018
on	-7.56017
▁everyone	-7.56291
▁play	-7.56506
▁use	-7.5654
▁took	-7.56689
▁anyone	-7.5711
▁matter	-7.57241
▁idea	-7.57651
ar	-7.57664
▁turn	-7.57871
▁read	-7.58155
▁easy	-7.58387
▁daddy	-7.58818
▁point	-7.58825
▁days	-7.59544
▁hit	-7.59772
▁since	-7.60119
▁happy	-7.60556
▁nobody	-7.6074
ie	-7.60812
▁six	-7.60965
▁whatever	-7.6099
▁ago	-7.6101
▁chuckles	-7.61157
▁grunts	-7.61319
▁jesus	-7.61431
▁gone	-7.61674
▁bring	-7.6196
▁case	-7.62327
▁start	-7.6241
▁alright	-7.62767
▁business	-7.63213
▁already	-7.63663
▁check	-7.63946
▁eat	-7.64403
▁yet	-7.64599
▁youd	-7.65074
▁heart	-7.65122
▁minutes	-7.6558
▁used	-7.65853
▁un	-7.65912
▁true	-7.65963
▁part	-7.66144
▁killed	-7.66164
▁break	-7.66261
▁close	-7.66532
▁friends	-7.67971
▁minute	-7.68186
▁pay	-7.68227
▁havent	-7.68283
▁somebody	-7.68283
en	-7.68416
▁without	-7.68757
▁probably	-7.68758
▁kid	-7.69153
▁stuff	-7.69711
▁trust	-7.69712
▁high	-7.69788
▁saying	-7.70044
▁cut	-7.70333
▁sighs	-7.71776
▁free	-7.72452
▁deal	-7.7272
▁couldnt	-7.72751
▁dr	-7.72983
▁sleep	-7.73034
▁goddamn	-7.73129
▁eyes	-7.7345
▁walk	-7.73529
▁worry	-7.73624
▁supposed	-7.74725
▁mrs	-7.75071
▁exactly	-7.7515
▁lost	-7.75175
▁continues	-7.7537
▁later	-7.75458
▁inside	-7.75645
▁fun	-7.75864
▁late	-7.75882
▁bye	-7.76662
▁set	-7.76947
▁different	-7.77177
▁nick	-7.77448
▁light	-7.77478
▁wheres	-7.77623
▁hate	-7.77869
▁question	-7.77894
▁couple	-7.78216
▁hmm	-7.78749
▁hands	-7.79126
▁bed	-7.79188
le	-7.79313
▁year	-7.79538
▁working	-7.79809
▁pick	-7.79823
an	-7.80033
▁thinking	-7.80118
z	-7.80256
▁stand	-7.80325
▁grunting	-7.80406
▁number	-7.80658
▁gave	-7.80862
▁clear	-7.81203
▁person	-7.8131
w	-7.82264
▁truth	-7.82485
▁fight	-7.82501
▁whoa	-7.82575
▁book	-7.82671
▁husband	-7.8303
▁soon	-7.83386
▁says	-7.83395
▁ben	-7.8341
▁buy	-7.83578
▁death	-7.83583
▁line	-7.83614
ch	-7.83794
h	-7.83816
▁joe	-7.83966
k	-7.83986
▁white	-7.84153
▁change	-7.84202
▁sound	-7.84549
▁blood	-7.85004
ri	-7.85032
▁outside	-7.85248
▁week	-7.85679
▁wow	-7.85816
▁happen	-7.86352
▁answer	-7.86867
▁drink	-7.86883
▁sister	-7.86885
▁times	-7.86933
▁black	-7.86944
▁side	-7.86993
▁de	-7.87141
▁full	-7.87442
▁rest	-7.87671
it	-7.87935
▁send	-7.88716
▁jack	-7.89223
▁word	-7.8924
▁news	-7.8926
▁mine	-7.89503
▁shoot	-7.8983
▁c	-7.89912
man	-7.90102
▁far	-7.90411
▁dog	-7.90562
▁also	-7.91014
▁honey	-7.91014
▁shot	-7.91034
▁touch	-7.91117
est	-7.9122
▁g	-7.91447
▁looks	-7.91466
▁doctor	-7.91691
▁s	-7.91693
▁laughing	-7.91907
▁safe	-7.92177
▁anymore	-7.92206
▁women	-7.92207
▁cool	-7.92212
▁taking	-7.92249
▁hours	-7.92649
▁stupid	-7.92808
▁daughter	-7.92924
▁p	-7.92948
▁tv	-7.93423
is	-7.93485
▁body	-7.94028
ies	-7.94289
▁anybody	-7.94637
▁important	-7.95255
▁christ	-7.95444
▁child	-7.95875
▁welcome	-7.95876
▁arent	-7.95886
et	-7.95993
▁makes	-7.96273
▁young	-7.96293
▁la	-7.96493
▁anyway	-7.96501
▁moment	-7.96553
▁in	-7.97101
▁trouble	-7.9713
▁though	-7.97626
▁town	-7.97784
▁hot	-7.97852
▁million	-7.98406
▁party	-7.98749
▁forget	-7.99046
▁waiting	-7.99234
il	-7.99361
▁making	-7.9969
▁john	-8.00287
▁girls	-8.00324
▁drive	-8.00567
▁street	-8.00989
▁boys	-8.01114
th	-8.01371
▁scared	-8.01768
▁afraid	-8.02309
▁perfect	-8.02789
▁power	-8.02987
ter	-8.03109
▁speak	-8.03584
ers	-8.03896
▁half	-8.04314
▁screaming	-8.04451
▁it	-8.0449
▁b	-8.04575
▁yo	-8.04909
▁emily	-8.0501
▁chance	-8.05526
▁feeling	-8.05684
▁sometimes	-8.062
▁michael	-8.06377
▁st	-8.06509
▁means	-8.06528
▁mike	-8.06826
▁red	-8.06885
▁game	-8.06936
ation	-8.07116
▁law	-8.07157
el	-8.07328
▁laughs	-8.07443
▁wish	-8.07783
▁ten	-8.08092
▁promise	-8.08817
▁a	-8.0916
▁children	-8.09185
▁ahead	-8.09196
▁city	-8.09221
▁hang	-8.09325
st	-8.0954
▁wants	-8.09814
▁lm	-8.09833
▁church	-8.09893
▁started	-8.09963
▁al	-8.10376
▁behind	-8.10618
▁dinner	-8.10618
▁married	-8.10618
▁pain	-8.10855
▁mouth	-8.11357
▁th	-8.11538
▁met	-8.11588
less	-8.11806
▁n	-8.11948
▁goes	-8.11988
▁almost	-8.12074
▁hair	-8.12836
▁telling	-8.13567
▁order	-8.1387
▁asked	-8.14865
▁drop	-8.1504
▁lady	-8.15058
▁months	-8.15242
▁food	-8.15806
able	-8.15917
▁breathing	-8.16088
▁ding	-8.16137
▁screams	-8.16538
ment	-8.1654
▁control	-8.16568
▁ooh	-8.1657
▁either	-8.17337
▁war	-8.17906
▁sick	-8.1813
▁groans	-8.18243
at	-8.18273
▁sounds	-8.18308
▁wake	-8.18902
▁funny	-8.18907
▁tried	-8.18988
▁hour	-8.19116
ity	-8.19387
▁front	-8.19673
▁panting	-8.19687
▁an	-8.19854
ra	-8.20159
▁king	-8.20245
▁dude	-8.20481
▁alive	-8.20506
▁voice	-8.20745
▁art	-8.21199
▁air	-8.21301
▁sam	-8.21342
ive	-8.21348
us	-8.21689
▁officer	-8.2169
▁top	-8.217
▁sex	-8.21846
▁serious	-8.21898
▁seven	-8.22081
▁hospital	-8.22083
▁reason	-8.22371
▁plan	-8.22466
▁living	-8.22895
▁hows	-8.22896
▁died	-8.2319
ce	-8.23252
▁office	-8.23571
▁least	-8.23716
▁james	-8.23728
▁bill	-8.24268
▁murder	-8.25252
▁calm	-8.25374
▁buddy	-8.25375
▁pull	-8.25985
▁save	-8.26071
▁company	-8.26214
▁past	-8.26275
▁bullshit	-8.27062
▁dear	-8.27114
▁parents	-8.27256
▁co	-8.27293
▁song	-8.27419
se	-8.27481
▁asshole	-8.27557
am	-8.2764
▁speaking	-8.27802
▁lord	-8.27918
▁leaving	-8.27922
▁till	-8.27943
▁dress	-8.28296
▁con	-8.28443
▁clean	-8.28547
v	-8.28884
▁quite	-8.28895
▁fucked	-8.29556
▁relax	-8.29648
▁dick	-8.29659
▁mommy	-8.29664
▁fear	-8.29673
up	-8.29922
ur	-8.30035
▁frank	-8.30167
▁brought	-8.30525
▁hurry	-8.30525
▁fall	-8.30813
ty	-8.31253
▁david	-8.3141
▁charlie	-8.3141
▁gasps	-8.31417
▁theyll	-8.31449
▁mary	-8.31557
▁figure	-8.31932
▁e	-8.31945
ry	-8.31961
▁amy	-8.32059
▁running	-8.3233
▁weeks	-8.32487
▁calling	-8.32673
▁dance	-8.32888
▁motherfucker	-8.32976
▁fast	-8.33003
▁cross	-8.33214
▁shall	-8.33236
ful	-8.33562
co	-8.33853
▁ride	-8.33901
▁piece	-8.33931
▁goodbye	-8.34113
▁crying	-8.34563
▁report	-8.34956
ia	-8.34964
▁sense	-8.35052
▁groaning	-8.35061
▁lucky	-8.35261
▁wind	-8.35301
▁special	-8.35449
▁wall	-8.35586
▁radio	-8.35968
▁worth	-8.36106
▁blue	-8.36889
▁country	-8.36907
▁bet	-8.36934
▁holy	-8.37011
ness	-8.37157
um	-8.37288
▁loved	-8.37643
▁follow	-8.37655
na	-8.37734
▁near	-8.37844
▁bank	-8.37845
▁write	-8.38586
▁sweet	-8.38736
▁fact	-8.38748
▁truck	-8.38788
▁absolutely	-8.38799
▁able	-8.39072
▁dream	-8.39572
▁pass	-8.39595
▁k	-8.39615
te	-8.39705
▁along	-8.39756
▁grace	-8.39756
▁softly	-8.39823
▁sign	-8.40016
▁rock	-8.40065
▁ex	-8.4042
▁state	-8.40573
▁taken	-8.40837
ul	-8.40892
▁sent	-8.40986
ro	-8.41128
nt	-8.41385
▁luck	-8.41521
▁ladies	-8.41699
▁glad	-8.41706
ling	-8.41855
▁engine	-8.42293
no	-8.42411
▁explain	-8.42689
▁fred	-8.42724
▁tom	-8.42775
▁catch	-8.42791
▁asking	-8.42818
ant	-8.43242
▁mistake	-8.43547
▁lives	-8.43602
▁mad	-8.43617
▁lawyer	-8.4369
▁sort	-8.43691
▁moving	-8.43696
▁paul	-8.43707
▁happens	-8.43851
▁quiet	-8.44518
▁kidding	-8.44708
▁adam	-8.4471
▁become	-8.44811
▁yall	-8.44894
ta	-8.45164
ist	-8.45423
▁f	-8.45616
ting	-8.45671
▁maam	-8.45735
▁mm	-8.45919
▁lock	-8.46291
im	-8.46333
▁quick	-8.46568
▁caught	-8.46751
▁somewhere	-8.46751
▁road	-8.4676
▁words	-8.46775
▁bar	-8.47322
▁class	-8.4775
▁weird	-8.47792
▁fault	-8.47794
▁act	-8.48341
▁finish	-8.48361
la	-8.48394
j	-8.48395
▁missing	-8.4856
▁sad	-8.48826
▁court	-8.48833
▁choice	-8.48845
▁birthday	-8.48846
▁jake	-8.48852
▁hundred	-8.4888
▁picture	-8.49086
▁prison	-8.49652
▁accident	-8.49909
▁floor	-8.49924
▁team	-8.49964
▁roll	-8.50439
ne	-8.50585
to	-8.50605
▁step	-8.50695
lo	-8.50838
▁lose	-8.50886
▁straight	-8.50935
ent	-8.51004
▁bag	-8.51612
▁english	-8.52071
▁swear	-8.52071
▁honor	-8.52089
▁comes	-8.52132
▁building	-8.52423
▁beat	-8.52572
▁mate	-8.52587
▁lie	-8.52661
▁small	-8.52949
▁strong	-8.52951
▁indistinct	-8.52987
▁felt	-8.5317
▁bobby	-8.53179
▁aii	-8.5324
▁smell	-8.53548
▁eye	-8.53561
▁questions	-8.53856
▁hed	-8.53942
▁ch	-8.53944
▁short	-8.54057
▁i	-8.54068
▁h	-8.54252
▁secret	-8.54264
▁cat	-8.54274
▁collins	-8.54281
▁kate	-8.5431
▁heres	-8.54537
▁throw	-8.5467
ous	-8.54927
ma	-8.5494
ck	-8.55069
▁belt	-8.55405
▁shouldnt	-8.55406
▁rather	-8.55408
▁beach	-8.55412
▁dark	-8.55419
▁poor	-8.55455
▁hotel	-8.5546
age	-8.55496
▁longer	-8.5558
▁land	-8.55692
▁do	-8.55713
▁handle	-8.55838
▁ow	-8.55961
▁rick	-8.56329
▁kiss	-8.56477
▁amazing	-8.56541
▁cop	-8.56563
▁happening	-8.56573
▁boss	-8.56581
▁learn	-8.56597
▁finally	-8.56641
▁train	-8.56658
▁seat	-8.57006
▁laugh	-8.57619
▁needed	-8.57623
▁cell	-8.57693
▁sophie	-8.57721
ol	-8.57752
ian	-8.58453
▁eight	-8.58845
▁alice	-8.58853
▁barbara	-8.58854
▁edward	-8.58857
▁message	-8.5887
▁whoo	-8.58925
▁none	-8.58998
▁imagine	-8.59038
ge	-8.59419
ate	-8.59819
▁box	-8.59957
▁vi	-8.60012
▁french	-8.6003
▁stick	-8.60098
▁date	-8.60361
▁ca	-8.60594
▁meeting	-8.60733
▁cry	-8.60772
▁shh	-8.60821
▁slow	-8.61042
▁martin	-8.6122
▁shell	-8.61235
▁lying	-8.6126
▁pa	-8.61292
▁offer	-8.62049
▁less	-8.62321
▁careful	-8.62342
▁tough	-8.62425
▁davis	-8.62425
▁gentlemen	-8.62426
▁wonderful	-8.62465
x	-8.62469
▁bro	-8.62493
▁beer	-8.62681
▁return	-8.63146
▁key	-8.63221
▁bell	-8.63522
▁mmm	-8.63563
▁grand	-8.63596
id	-8.63608
▁idiot	-8.63645
▁kick	-8.63793
ton	-8.64179
▁meant	-8.64314
▁dis	-8.64729
▁coffee	-8.64879
▁werent	-8.6488
▁human	-8.64901
▁feet	-8.64924
▁blow	-8.64943
▁fat	-8.64973
▁carl	-8.65034
▁enjoy	-8.65524
▁er	-8.65607
▁smoke	-8.65681
▁paper	-8.65698
▁sp	-8.66122
▁possible	-8.66129
▁earth	-8.66145
▁sake	-8.6615
▁needs	-8.6616
▁burn	-8.66168
▁mmhmm	-8.66174
▁hide	-8.6626
▁doin	-8.66324
▁seems	-8.66552
me	-8.66609
▁talked	-8.66801
▁tape	-8.66836
▁teach	-8.66963
▁surprise	-8.67024
▁sing	-8.67039
▁suck	-8.67091
tion	-8.672
▁present	-8.67362
▁computer	-8.67395
▁distance	-8.67395
▁vanessa	-8.67395
▁film	-8.67395
▁babe	-8.67403
▁win	-8.67632
ts	-8.67649
▁grab	-8.67757
tic	-8.6776
▁crack	-8.6796
▁wear	-8.68221
▁president	-8.68677
▁yesterday	-8.68677
▁katie	-8.68677
▁lunch	-8.68677
▁andy	-8.68679
▁girlfriend	-8.68682
▁mama	-8.68692
▁brad	-8.68858
▁share	-8.68875
▁seem	-8.68944
▁gods	-8.68952
ii	-8.68987
▁cute	-8.69587
▁month	-8.69653
▁york	-8.69795
ot	-8.69817
▁evening	-8.69822
▁smile	-8.69976
▁south	-8.69976
▁worse	-8.69976
▁howd	-8.69977
▁forever	-8.69979
▁ground	-8.69979
▁sitting	-8.70061
▁cold	-8.70132
un	-8.7015
▁push	-8.70199
▁plane	-8.70694
▁cover	-8.70827
▁m	-8.70906
▁fly	-8.70931
▁record	-8.71265
▁terrible	-8.71292
▁nobby	-8.71296
▁harry	-8.71298
▁giving	-8.71301
▁boat	-8.71306
▁apartment	-8.71312
rs	-8.71447
▁mess	-8.71547
sh	-8.71554
▁wonder	-8.71989
▁smart	-8.72384
▁heavy	-8.72625
▁system	-8.72625
▁worst	-8.72625
▁so	-8.7264
▁hole	-8.72945
▁o	-8.7298
ary	-8.73053
▁dollars	-8.73137
▁treat	-8.73454
▁ran	-8.73533
▁deep	-8.73575
▁service	-8.73728
▁rich	-8.73932
▁boyfriend	-8.73981
▁gift	-8.74008
▁station	-8.74052
▁dying	-8.74098
▁carter	-8.74194
▁walking	-8.74207
▁he	-8.74857
go	-8.75143
▁correct	-8.75346
▁heavily	-8.75346
▁favorite	-8.75352
▁aah	-8.75387
▁count	-8.75506
▁cheering	-8.75517
▁ray	-8.75663
ish	-8.75728
▁shed	-8.75912
▁arm	-8.76058
▁w	-8.7609
▁sell	-8.76193
de	-8.76493
▁di	-8.76539
▁goin	-8.76641
▁captain	-8.76735
▁crime	-8.76735
▁security	-8.76739
▁respect	-8.76745
▁dean	-8.76869
ted	-8.76981
▁expect	-8.77052
▁sea	-8.77068
ure	-8.77241
he	-8.77241
▁ted	-8.77333
▁test	-8.77474
▁age	-8.77492
▁ro	-8.776
▁changed	-8.77661
▁fix	-8.77671
▁mark	-8.77717
ir	-8.77829
▁killer	-8.77927
▁future	-8.78143
▁others	-8.78143
▁middle	-8.78145
▁public	-8.78146
▁sun	-8.78276
▁broken	-8.78279
▁rain	-8.7829
ine	-8.78392
▁copy	-8.7845
▁missed	-8.78758
▁sy	-8.78834
▁da	-8.78959
▁protect	-8.79002
▁r	-8.79043
▁charge	-8.79132
▁broke	-8.79135
▁file	-8.79313
▁ar	-8.79422
▁glass	-8.79474
▁bastard	-8.79485
▁movie	-8.79495
▁throat	-8.79572
▁upstairs	-8.79572
▁karen	-8.79572
▁personal	-8.79576
▁phil	-8.79581
▁definitely	-8.79596
▁spot	-8.79597
▁star	-8.79714
▁seriously	-8.79898
▁cook	-8.79939
▁pro	-8.80014
▁join	-8.80167
▁lay	-8.80222
▁wed	-8.80226
out	-8.80242
▁sh	-8.80576
▁super	-8.80657
▁lead	-8.80679
▁across	-8.81021
▁press	-8.8108
▁busy	-8.81167
▁bob	-8.81321
▁ring	-8.81681
▁strange	-8.82355
▁breathe	-8.82371
▁forgot	-8.82491
▁machine	-8.82492
▁admit	-8.82492
▁bought	-8.82492
▁driving	-8.82492
▁upset	-8.82492
▁department	-8.82498
▁brandon	-8.82506
▁outta	-8.82508
▁nine	-8.82532
▁tense	-8.8256
ah	-8.82634
▁ma	-8.83062
▁keys	-8.83103
▁grow	-8.83194
▁sal	-8.83253
▁d	-8.83311
▁whose	-8.83345
▁fair	-8.83545
▁known	-8.83711
▁entire	-8.83793
▁america	-8.83847
▁address	-8.83984
▁anywhere	-8.83984
▁gasping	-8.83995
▁gas	-8.84068
▁early	-8.84129
▁ball	-8.84185
▁ringing	-8.84591
iv	-8.84727
▁bart	-8.84732
▁chatter	-8.84921
▁caesar	-8.85499
▁uncle	-8.85499
▁judge	-8.85514
▁born	-8.85532
▁gena	-8.856
▁soul	-8.85678
▁american	-8.85727
▁hall	-8.85807
▁worked	-8.86
▁v	-8.86468
▁si	-8.86474
▁jump	-8.8654
▁form	-8.86791
▁fell	-8.86905
▁stig	-8.87026
▁kept	-8.87038
▁north	-8.87072
▁store	-8.87084
▁joke	-8.87092
▁unless	-8.87141
▁brain	-8.87142
▁ship	-8.87167
▁guns	-8.87384
▁cops	-8.87964
▁mo	-8.87999
▁breath	-8.88018
▁deserve	-8.88221
▁honest	-8.88434
▁sheriff	-8.886
▁pop	-8.88602
▁except	-8.88606
▁master	-8.88611
▁jail	-8.88625
▁tired	-8.88689
▁ice	-8.88723
▁table	-8.8875
▁where	-8.88889
▁given	-8.89117
▁pal	-8.89346
▁track	-8.8959
▁trip	-8.89852
be	-8.90001
▁lovely	-8.9003
▁account	-8.90165
▁appreciate	-8.90188
▁conversation	-8.90188
▁drunk	-8.90188
▁sweetheart	-8.90189
▁christmas	-8.90189
▁green	-8.90195
▁marry	-8.9021
▁code	-8.90254
▁whatd	-8.90269
▁dirty	-8.90277
▁shouting	-8.90309
pa	-8.90349
▁per	-8.90641
▁finished	-8.9094
▁val	-8.91262
▁ra	-8.91353
▁certain	-8.91617
▁wild	-8.91618
▁card	-8.9175
▁creaking	-8.918
▁dottie	-8.918
▁nervous	-8.918
▁area	-8.91801
▁hungry	-8.91809
▁information	-8.91812
▁proud	-8.91814
▁indistinctly	-8.92071
▁whispers	-8.92126
▁peter	-8.92178
▁teacher	-8.92383
▁watching	-8.92607
▁ab	-8.92714
▁hook	-8.93153
▁spanish	-8.9344
▁simple	-8.9344
▁brown	-8.93441
▁aaron	-8.93442
▁bottle	-8.93442
▁extra	-8.93448
▁alarm	-8.93459
▁paid	-8.93463
▁yep	-8.93498
▁turned	-8.93657
▁camera	-8.93917
▁papers	-8.94022
▁wearing	-8.942
▁owe	-8.94359
▁ed	-8.94387
▁names	-8.94595
▁matt	-8.94998
▁fool	-8.95098
▁contract	-8.95107
▁major	-8.95107
▁worried	-8.95107
▁pleasure	-8.95107
▁hasnt	-8.9511
▁clothes	-8.95113
▁river	-8.95115
▁color	-8.95137
▁mister	-8.9516
▁yelling	-8.95306
▁nah	-8.95409
▁window	-8.95537
▁agent	-8.95541
pe	-8.95576
▁using	-8.9568
do	-8.95797
les	-8.96028
po	-8.96156
▁lights	-8.96166
▁quit	-8.96609
▁picked	-8.96653
▁killing	-8.96793
▁language	-8.96801
▁situation	-8.96802
▁island	-8.96802
▁oliver	-8.96821
▁single	-8.96868
▁bud	-8.97005
ance	-8.97018
▁listening	-8.97167
▁to	-8.97363
▁sl	-8.97456
▁van	-8.97472
▁works	-8.97718
▁vo	-8.98278
▁mindy	-8.98374
▁gold	-8.98473
▁uhhuh	-8.98526
▁charles	-8.9853
▁type	-8.98538
▁low	-8.98539
▁mar	-8.9854
▁west	-8.98543
▁crowd	-8.98581
end	-8.98603
▁bless	-8.98606
▁text	-8.98628
▁prove	-8.98646
▁completely	-8.98664
and	-8.98666
▁pre	-8.98879
▁over	-8.99027
▁clicks	-8.99352
▁fish	-8.99512
ad	-8.99658
land	-8.99803
ating	-8.99814
em	-8.99882
▁they	-8.99905
▁normal	-9.00104
▁san	-9.00216
▁weak	-9.00259
per	-9.00265
▁afternoon	-9.0028
▁history	-9.0028
▁wrote	-9.0028
▁albert	-9.0028
▁bother	-9.0028
▁bathroom	-9.00283
▁round	-9.0031
▁chucky	-9.00313
▁rose	-9.00366
ass	-9.00546
io	-9.006
the	-9.0063
▁wa	-9.00802
▁knocking	-9.00813
▁spend	-9.01486
▁attack	-9.01569
▁peace	-9.01853
▁visit	-9.02011
▁chair	-9.02034
▁ii	-9.02051
▁evil	-9.02066
▁kitchen	-9.02066
▁warren	-9.02066
▁scene	-9.02066
▁claire	-9.02068
ard	-9.02068
▁instead	-9.0207
▁club	-9.0207
▁detective	-9.02071
▁flight	-9.02071
▁darling	-9.02089
▁band	-9.02101
▁excited	-9.02109
ti	-9.02176
ang	-9.02207
▁suit	-9.02273
son	-9.02309
▁mission	-9.02408
ke	-9.02644
if	-9.02713
der	-9.02924
▁build	-9.03296
▁wouldve	-9.03507
ler	-9.03604
▁attention	-9.03884
▁lewis	-9.03884
▁partner	-9.03887
▁hiding	-9.03907
▁ones	-9.03923
ally	-9.03924
▁weekend	-9.03926
▁beeping	-9.03959
▁board	-9.03961
▁fighting	-9.04026
▁tear	-9.04194
▁seconds	-9.04292
▁list	-9.04299
lic	-9.04408
▁seeing	-9.04448
▁priest	-9.04635
▁warm	-9.04825
▁cost	-9.04841
▁aw	-9.05044
vi	-9.05077
one	-9.05162
▁allow	-9.05253
▁letter	-9.05265
▁notice	-9.05365
▁suppose	-9.05369
▁balls	-9.05654
▁apart	-9.05707
▁heaven	-9.05736
▁perhaps	-9.05736
▁wedding	-9.05738
▁fresh	-9.05742
▁stock	-9.05743
▁general	-9.05744
▁richard	-9.05753
▁looked	-9.05757
▁bi	-9.05877
ig	-9.06053
▁feed	-9.06114
ba	-9.06317
▁ms	-9.06359
as	-9.06521
▁horse	-9.06529
▁moved	-9.06664
▁comet	-9.06721
▁starts	-9.0673
▁chris	-9.07085
head	-9.07385
▁fan	-9.07395
▁loud	-9.0745
ow	-9.07595
▁ends	-9.07615
▁knife	-9.07623
▁angry	-9.07623
▁walter	-9.07628
▁dramatic	-9.07628
▁everywhere	-9.07635
▁fit	-9.07953
▁ig	-9.07974
▁exhales	-9.0806
▁se	-9.0814
om	-9.08225
ga	-9.08356
▁bloody	-9.08468
▁el	-9.08499
▁promised	-9.08616
▁t	-9.09088
ated	-9.09289
da	-9.09298
▁ho	-9.09376
▁faith	-9.0952
▁difference	-9.09546
▁kathy	-9.09546
▁veronica	-9.09546
▁doubt	-9.09546
▁sobbing	-9.09546
▁price	-9.09546
▁bunch	-9.09558
▁third	-9.0956
▁bomb	-9.09569
▁upon	-9.09598
▁corner	-9.09693
▁cup	-9.09712
ster	-9.09802
▁out	-9.09804
ud	-9.09839
▁opens	-9.10337
▁knock	-9.10407
▁demon	-9.10498
▁pray	-9.10655
▁no	-9.10774
▁search	-9.10912
▁consider	-9.11005
▁en	-9.11056
▁pictures	-9.11057
▁east	-9.11124
▁force	-9.11146
you	-9.11192
▁up	-9.11235
▁favor	-9.11497
▁maggie	-9.11506
▁twice	-9.11506
▁scoffs	-9.11507
▁boston	-9.11507
▁elizabeth	-9.11512
▁henry	-9.11515
▁stuck	-9.11516
▁jessie	-9.11517
▁blame	-9.11523
▁cash	-9.11551
▁begin	-9.11595
▁certainly	-9.1173
▁dig	-9.11894
men	-9.11936
▁fingers	-9.11965
▁nat	-9.12238
tr	-9.12333
▁continue	-9.1256
▁guard	-9.12573
▁mi	-9.12795
▁couldve	-9.128
▁freak	-9.12916
▁miles	-9.12998
ff	-9.13005
mo	-9.1306
ship	-9.13235
▁angel	-9.13242
▁problems	-9.13334
▁rufus	-9.13506
▁dawn	-9.13507
▁decision	-9.13513
▁cunt	-9.13531
▁amen	-9.13541
▁bigger	-9.1357
▁porter	-9.13601
▁sky	-9.13678
▁tie	-9.13718
▁awful	-9.13783
▁fi	-9.13865
▁interesting	-9.13922
ph	-9.13964
▁ty	-9.14231
▁client	-9.14605
king	-9.14795
▁carry	-9.15195
▁base	-9.15292
▁om	-9.15341
ving	-9.15391
▁somethin	-9.15453
▁neo	-9.15456
▁ba	-9.15476
▁antonio	-9.15547
▁devil	-9.15547
▁footsteps	-9.15547
▁marriage	-9.15547
▁private	-9.15547
▁travel	-9.15548
▁repeat	-9.15548
▁texas	-9.15549
▁congratulations	-9.15549
▁papa	-9.15574
▁jim	-9.15574
ver	-9.15604
▁obviously	-9.15644
▁wash	-9.15716
wa	-9.15755
▁decided	-9.1588
▁rules	-9.16348
bo	-9.16429
time	-9.16483
▁park	-9.16826
▁rings	-9.16882
▁takes	-9.16913
▁piss	-9.17199
▁agree	-9.1723
▁leg	-9.17232
▁ja	-9.17279
▁dogs	-9.17514
▁college	-9.1763
▁gunshot	-9.1763
▁relationship	-9.1763
▁somehow	-9.1763
▁within	-9.1763
▁remain	-9.17631
▁earlier	-9.17634
▁summer	-9.17634
▁jason	-9.17644
▁dumb	-9.17648
▁whore	-9.17678
▁taste	-9.17741
▁totally	-9.17807
▁stopped	-9.1782
▁deeply	-9.17916
▁arms	-9.17947
inous	-9.17984
ung	-9.18115
▁allowed	-9.18183
▁birds	-9.18305
▁buck	-9.18339
▁po	-9.18381
ps	-9.19035
▁drug	-9.19138
▁books	-9.19193
▁rule	-9.19356
▁realize	-9.19427
▁fucker	-9.19429
▁rid	-9.19469
▁final	-9.19616
▁witness	-9.19641
▁match	-9.1966
▁discuss	-9.19692
▁forgive	-9.19758
▁gordon	-9.19758
▁byebye	-9.19758
▁martha	-9.19758
▁romantic	-9.19762
▁choose	-9.19762
▁be	-9.19769
▁usually	-9.19875
▁shake	-9.19925
▁victims	-9.20197
▁bugs	-9.20519
▁reading	-9.20566
▁chattering	-9.20596
kin	-9.20776
▁besides	-9.20782
tor	-9.20918
▁roger	-9.21132
▁bucks	-9.21192
▁opening	-9.21273
▁bang	-9.21372
▁closed	-9.21467
▁fill	-9.21532
▁total	-9.21754
▁suggest	-9.21865
▁du	-9.21897
▁contact	-9.21932
▁downstairs	-9.21932
▁emergency	-9.21932
▁especially	-9.21932
▁evidence	-9.21932
▁gekko	-9.21932
▁impossible	-9.21932
▁neither	-9.21932
▁orlean	-9.21932
▁pregnant	-9.21932
▁spirit	-9.21932
▁vioiet	-9.21932
▁remind	-9.21932
▁group	-9.21936
▁pants	-9.21952
▁risk	-9.21963
▁jackson	-9.21984
▁incredible	-9.21985
▁guilty	-9.21989
▁robby	-9.22003
▁sweetie	-9.22046
▁feels	-9.22265
▁sha	-9.22598
▁speaks	-9.227
▁legs	-9.22844
▁tea	-9.23033
▁passed	-9.23046
▁screw	-9.23048
▁dressed	-9.23182
▁thousand	-9.2339
ped	-9.23452
▁accept	-9.23637
ha	-9.2387
▁mu	-9.23978
▁liked	-9.24021
▁stole	-9.24038
▁aunt	-9.24123
▁mmmhmm	-9.24154
▁video	-9.24154
▁chief	-9.24155
▁johnnie	-9.24156
▁meat	-9.24177
▁common	-9.24182
▁gang	-9.24199
▁chicken	-9.24222
▁nose	-9.24294
▁hu	-9.24309
▁angela	-9.24321
▁lake	-9.24338
▁interested	-9.24537
▁army	-9.24564
▁lt	-9.24627
▁sa	-9.24785
ise	-9.24923
▁unit	-9.24996
▁locked	-9.25219
▁wine	-9.25634
▁noise	-9.25726
▁guest	-9.25727
▁pack	-9.25992
▁decide	-9.26061
ee	-9.26071
▁everythings	-9.26087
▁complete	-9.26244
▁tight	-9.2639
av	-9.26408
▁became	-9.26427
▁ghost	-9.26427
▁opportunity	-9.26427
▁quentin	-9.26427
▁rachel	-9.26427
▁project	-9.26427
▁lonely	-9.26428
▁susan	-9.26428
▁nowhere	-9.26429
▁support	-9.26429
▁forward	-9.26429
▁bunny	-9.2643
▁abby	-9.26438
▁space	-9.26439
▁tommy	-9.2644
▁waste	-9.26455
▁grandma	-9.26463
▁trial	-9.26476
▁trick	-9.2648
▁standing	-9.26666
▁ls	-9.27016
▁folks	-9.27169
▁lee	-9.27232
▁singing	-9.27521
ker	-9.27832
▁tree	-9.2809
▁belong	-9.28124
▁destroy	-9.28253
▁soft	-9.2857
▁paris	-9.28635
▁mmhm	-9.28668
▁twenty	-9.28751
▁augie	-9.28753
▁criminal	-9.28753
▁frost	-9.28753
▁matrix	-9.28753
▁punch	-9.28753
▁regret	-9.28753
▁speech	-9.28753
▁tattoo	-9.28753
▁hadnt	-9.28753
draic	-9.28753
▁tongue	-9.28754
▁kitty	-9.28767
▁neck	-9.28769
▁arne	-9.28786
▁switch	-9.28787
▁whispering	-9.28846
ping	-9.28854
▁julia	-9.28906
▁anna	-9.29151
▁sleeping	-9.29192
ens	-9.29413
▁billy	-9.2946
▁bringing	-9.29506
▁starting	-9.29525
▁holding	-9.29632
▁jud	-9.29669
va	-9.30155
▁priests	-9.30159
▁doc	-9.30307
▁bird	-9.3039
que	-9.30405
led	-9.30519
▁finger	-9.30585
▁arrest	-9.30642
▁there	-9.30782
▁showed	-9.30939
▁access	-9.31134
▁archbishop	-9.31134
▁murdoch	-9.31134
▁sebastian	-9.31134
▁senator	-9.31134
▁silence	-9.31134
▁target	-9.31134
▁whether	-9.31134
▁whistling	-9.31134
▁provide	-9.31134
▁chef	-9.31134
▁misery	-9.31134
▁calls	-9.31135
▁suspect	-9.31135
▁regular	-9.31138
▁plus	-9.31148
▁iike	-9.31149
▁morse	-9.3115
▁foot	-9.31159
▁cake	-9.31183
▁becky	-9.31185
▁terry	-9.31192
▁ad	-9.31237
▁mum	-9.31258
▁pig	-9.31357
▁breaking	-9.31777
▁closer	-9.31786
ley	-9.31844
▁eating	-9.31876
bb	-9.31969
▁lied	-9.32143
ight	-9.32161
ca	-9.32291
▁post	-9.32351
▁eh	-9.32403
▁cock	-9.32474
▁lift	-9.32796
▁mothers	-9.32817
ite	-9.32828
▁steal	-9.33004
▁weapon	-9.33052
▁victim	-9.33071
▁stops	-9.33156
▁bear	-9.33243
▁comin	-9.33527
▁arthur	-9.33573
▁bottom	-9.33573
▁experience	-9.33573
▁rebecca	-9.33573
▁prefer	-9.33573
▁insane	-9.33573
▁liar	-9.33575
▁teeth	-9.33579
▁dangerous	-9.33581
▁toast	-9.33581
▁nature	-9.33601
▁sexual	-9.33608
▁beauty	-9.33609
▁exist	-9.33623
ap	-9.33625
▁thas	-9.33627
▁laughter	-9.33641
ac	-9.33728
▁pet	-9.33849
▁united	-9.34107
ny	-9.34197
▁painting	-9.34222
ut	-9.34435
▁fathers	-9.34539
▁wondering	-9.3467
▁stage	-9.34935
▁murdered	-9.3502
▁reach	-9.35075
▁cheers	-9.35141
▁horn	-9.35451
▁states	-9.35502
▁cos	-9.35697
▁attorney	-9.36073
▁difficult	-9.36073
▁fenton	-9.36073
▁lieutenant	-9.36073
▁focus	-9.36073
▁nurse	-9.36073
▁gerty	-9.36073
▁cady	-9.36075
▁program	-9.36077
▁humming	-9.36077
▁yellow	-9.36078
▁clock	-9.36082
▁involved	-9.36178
▁loose	-9.36184
▁comp	-9.36236
we	-9.36261
▁willing	-9.36323
▁circle	-9.36328
▁bus	-9.36389
▁buzzing	-9.36426
▁dan	-9.3644
▁main	-9.36446
▁cl	-9.36457
op	-9.36555
▁beeps	-9.36574
▁clearly	-9.3694
▁paint	-9.37144
▁map	-9.37356
▁brothers	-9.37456
▁itd	-9.37462
▁pulled	-9.37548
▁ear	-9.3797
▁ri	-9.38056
▁scout	-9.38255
▁raise	-9.38278
▁steve	-9.38531
▁camp	-9.38635
▁bishop	-9.38637
▁ought	-9.38637
▁vivian	-9.38637
▁writing	-9.38637
▁often	-9.38637
▁split	-9.38637
▁zain	-9.38637
▁aware	-9.38637
▁cigarette	-9.38637
▁nino	-9.38638
▁local	-9.38642
▁annie	-9.38643
▁shame	-9.38658
▁spent	-9.38677
▁enter	-9.38681
▁staying	-9.38683
▁field	-9.38724
▁pat	-9.38788
▁announc	-9.38855
▁rent	-9.38889
▁bra	-9.39019
min	-9.39087
▁faster	-9.39274
▁rat	-9.39333
▁op	-9.39561
▁tip	-9.39623
ze	-9.39636
▁drugs	-9.39642
▁tires	-9.39738
▁learned	-9.3975
▁shoes	-9.39837
▁farm	-9.39994
pro	-9.40039
▁bo	-9.40452
▁pretend	-9.40656
▁cap	-9.4076
▁walked	-9.41188
▁alejandro	-9.41268
▁asleep	-9.41268
▁awesome	-9.41268
▁elevator	-9.41268
▁patient	-9.41268
▁stories	-9.41268
▁magic	-9.4127
▁papi	-9.4127
▁sarah	-9.41272
▁merrin	-9.41298
▁connection	-9.41304
▁named	-9.41325
▁pussy	-9.41378
▁tony	-9.41411
▁huge	-9.41437
▁sight	-9.41458
▁sub	-9.41499
▁hoping	-9.41549
▁parker	-9.41549
▁putting	-9.41673
▁pete	-9.41748
▁records	-9.41817
▁theyd	-9.4183
▁sc	-9.41959
ring	-9.42366
▁figured	-9.42377
▁le	-9.42512
▁yells	-9.42882
▁following	-9.42944
▁note	-9.43176
ious	-9.43211
▁ne	-9.43321
▁mention	-9.43595
▁plays	-9.43619
▁ye	-9.43818
▁doll	-9.43849
▁apologize	-9.43971
▁meredith	-9.43971
▁renfield	-9.43971
▁spread	-9.43971
▁thomas	-9.43971
▁william	-9.43971
▁bodies	-9.43971
▁cousin	-9.43971
▁monday	-9.43973
▁desk	-9.43977
▁orange	-9.43981
▁bright	-9.43988
▁shift	-9.43989
▁trash	-9.4399
▁vail	-9.43997
▁armand	-9.44
▁pressure	-9.44
▁freeze	-9.4404
▁shoulder	-9.44044
▁dreams	-9.44086
ming	-9.44153
▁size	-9.44275
▁hearing	-9.44277
▁that	-9.44445
▁quickly	-9.44459
▁rev	-9.44628
▁bow	-9.44637
▁talkin	-9.44681
way	-9.4517
▁boots	-9.45249
▁acting	-9.45534
▁dare	-9.457
▁harder	-9.45819
od	-9.4587
▁fa	-9.45973
▁me	-9.46043
down	-9.46546
▁fort	-9.46548
▁animal	-9.46592
let	-9.4672
▁breakfast	-9.46749
▁innocent	-9.46749
▁military	-9.46749
▁strength	-9.46749
▁theseus	-9.46749
▁whirring	-9.46749
▁whoever	-9.46749
▁briony	-9.46749
▁process	-9.46749
▁buried	-9.46749
▁crawl	-9.46749
▁george	-9.46749
▁ugly	-9.46749
▁larry	-9.46749
▁firm	-9.4675
▁chuckling	-9.46754
▁large	-9.4676
▁nope	-9.46767
▁famous	-9.4678
▁fox	-9.46782
▁johnny	-9.46789
▁marty	-9.46789
▁tori	-9.46807
▁boo	-9.46815
▁fake	-9.46818
▁cora	-9.46819
▁z	-9.46853
act	-9.47031
▁prepared	-9.47037
▁photo	-9.47189
ox	-9.4733
▁paying	-9.47451
ning	-9.47755
▁nuts	-9.47927
ab	-9.48173
▁interest	-9.48555
ank	-9.4856
gged	-9.48562
▁falling	-9.48645
▁crash	-9.48692
▁scott	-9.49349
▁hero	-9.49471
▁built	-9.49606
▁energy	-9.49606
▁position	-9.49606
▁ridiculous	-9.49606
▁society	-9.49606
▁village	-9.49606
▁empty	-9.49606
▁kelly	-9.49606
▁mask	-9.49608
▁jenny	-9.49609
▁shouldve	-9.49614
▁beginning	-9.49619
▁level	-9.49633
▁sending	-9.49657
▁drinking	-9.49695
▁apple	-9.49705
▁cole	-9.49889
▁gate	-9.49899
▁hired	-9.49999
▁can	-9.50053
▁losing	-9.50107
▁brave	-9.50188
▁swim	-9.5019
▁sand	-9.50208
▁heat	-9.50245
our	-9.50486
▁assholes	-9.50861
▁murderer	-9.51252
▁lts	-9.51254
▁kinda	-9.51324
▁deliver	-9.51791
▁cares	-9.51876
▁daughters	-9.52011
▁dump	-9.52021
by	-9.52445
▁nothin	-9.52453
▁abilene	-9.52547
▁affair	-9.52547
▁applause	-9.52547
▁bravo	-9.52547
▁chirping	-9.52547
▁dunne	-9.52547
▁easier	-9.52547
▁enemy	-9.52547
▁garden	-9.52547
▁purpose	-9.52547
▁sergeant	-9.52547
▁suicide	-9.52547
▁held	-9.52548
▁funeral	-9.52548
▁memory	-9.52552
▁condition	-9.52556
▁brilliant	-9.52558
▁snap	-9.52559
▁blade	-9.52563
▁sever	-9.52573
▁crown	-9.52582
▁bull	-9.52593
▁medical	-9.52659
▁safety	-9.52673
▁movies	-9.52707
▁odd	-9.52713
▁player	-9.52837
▁screeching	-9.52912
▁lived	-9.52918
hh	-9.52932
▁bite	-9.52986
▁y	-9.5319
ink	-9.5324
▁sin	-9.53327
▁surprised	-9.53421
▁pee	-9.53538
▁thy	-9.5357
▁closes	-9.53617
▁turning	-9.53675
iy	-9.53932
▁believed	-9.5407
▁saved	-9.54081
▁pot	-9.54228
▁gosh	-9.54333
her	-9.54523
side	-9.54789
▁turns	-9.54809
▁lou	-9.54819
▁chi	-9.54947
▁hanging	-9.55052
▁scream	-9.55112
▁settle	-9.55177
▁survive	-9.552
▁loss	-9.55274
▁pan	-9.55497
▁legal	-9.55505
▁double	-9.55577
▁effort	-9.55577
▁memories	-9.55577
▁pablo	-9.55577
▁rescue	-9.55577
▁social	-9.55577
▁subject	-9.55577
▁closing	-9.55577
▁raymond	-9.55577
▁wheel	-9.55577
▁credit	-9.55578
▁view	-9.55578
▁regan	-9.55578
▁government	-9.5558
▁swing	-9.55581
▁milk	-9.5559
▁shooting	-9.55591
▁claim	-9.55595
▁prick	-9.55595
▁score	-9.55597
▁rec	-9.5561
▁crackling	-9.55632
▁ofthe	-9.55643
▁pin	-9.55757
▁barking	-9.55766
▁center	-9.55795
▁checked	-9.55808
▁signal	-9.55841
off	-9.55855
▁saving	-9.55857
▁of	-9.55898
▁je	-9.55944
▁planet	-9.56052
ized	-9.56133
▁noticed	-9.56192
▁greatest	-9.56232
ble	-9.56575
▁mall	-9.56592
▁strip	-9.56618
ki	-9.56665
▁lately	-9.56696
▁oil	-9.56836
▁ken	-9.56924
▁spit	-9.57123
ial	-9.57162
▁lo	-9.57252
▁iii	-9.5745
▁letters	-9.57458
▁stab	-9.57655
▁hat	-9.57819
▁bum	-9.57915
▁on	-9.58061
▁rub	-9.58177
▁matters	-9.5821
▁speaker	-9.58316
▁load	-9.58356
▁spoke	-9.58569
▁cor	-9.58581
▁thirty	-9.58702
▁beyond	-9.58702
▁extreme	-9.58702
▁saturday	-9.58702
▁tunnel	-9.58702
▁taylor	-9.58703
▁ugh	-9.58707
▁bridge	-9.5871
▁handsome	-9.58747
▁brie	-9.58749
▁colm	-9.58773
▁monster	-9.58884
▁soldier	-9.58914
▁bullet	-9.58926
▁queen	-9.5894
▁lies	-9.58962
▁defend	-9.59032
▁tone	-9.59066
▁bl	-9.5918
▁agreed	-9.59265
▁page	-9.59364
rate	-9.59365
▁pure	-9.59402
▁pi	-9.59663
▁menu	-9.59766
ied	-9.59779
▁value	-9.59867
▁rep	-9.59985
▁gra	-9.60022
line	-9.60056
ium	-9.60199
▁driver	-9.60217
ger	-9.6027
▁training	-9.60357
▁ln	-9.60819
▁wi	-9.6094
▁ru	-9.60946
▁artist	-9.61109
▁character	-9.61139
▁butt	-9.61593
▁german	-9.61673
▁official	-9.61749
▁wrap	-9.61919
▁afford	-9.61928
▁chocolate	-9.61928
▁horrible	-9.61928
▁morgan	-9.61928
▁ocean	-9.61928
▁sacrifice	-9.61928
▁channel	-9.61928
▁cream	-9.61928
▁pardon	-9.61928
▁alpha	-9.61928
▁cancer	-9.61929
▁whyd	-9.61929
▁nancy	-9.6193
▁teddy	-9.6193
▁karate	-9.61933
▁ellie	-9.61935
▁genius	-9.61935
▁joking	-9.61937
▁robbie	-9.61947
▁gino	-9.6195
▁naked	-9.6195
▁bury	-9.61952
▁bedroom	-9.61959
▁sport	-9.61965
▁tour	-9.61966
▁jean	-9.61973
▁mental	-9.61981
▁smoking	-9.6199
▁globe	-9.62033
▁chest	-9.62038
▁uhoh	-9.62042
▁steven	-9.62103
▁animals	-9.62111
▁ticket	-9.6223
▁clicking	-9.62238
▁approaching	-9.62271
▁honestly	-9.62314
▁add	-9.62438
▁bath	-9.62502
ane	-9.62507
▁fella	-9.62544
▁cur	-9.62592
▁rip	-9.62624
▁shop	-9.62657
▁fu	-9.62688
ub	-9.62728
▁feck	-9.62749
▁manage	-9.62851
bh	-9.62908
▁aye	-9.63036
▁drag	-9.6307
▁sk	-9.63485
▁hill	-9.63531
▁casey	-9.63766
▁towards	-9.63808
▁passing	-9.63956
▁draw	-9.64204
▁pen	-9.64213
▁hon	-9.64533
mon	-9.64535
▁sec	-9.64698
▁concern	-9.64767
▁assume	-9.64881
▁event	-9.65001
▁pr	-9.65032
▁souls	-9.65036
▁woods	-9.65053
▁natural	-9.65072
▁usual	-9.65081
▁chose	-9.65122
▁gettin	-9.65204
▁crap	-9.65241
▁advice	-9.65261
▁attend	-9.65261
▁audience	-9.65261
▁excellent	-9.65261
▁fabietto	-9.65261
▁inspector	-9.65261
▁quarter	-9.65261
▁rough	-9.65261
▁avoid	-9.65262
▁issue	-9.65262
▁original	-9.65262
▁pocket	-9.65262
▁review	-9.65262
▁threw	-9.65262
▁trinity	-9.65262
▁shirt	-9.65262
▁teii	-9.65262
▁drown	-9.65262
▁linda	-9.65262
▁blind	-9.65263
▁style	-9.65263
▁square	-9.65264
▁trigger	-9.65264
▁pearl	-9.65265
▁basic	-9.65267
▁gotten	-9.65272
▁firing	-9.65276
▁kano	-9.65278
▁roof	-9.65281
▁fellow	-9.65287
▁shock	-9.65288
▁self	-9.6529
▁truly	-9.65294
▁create	-9.65294
▁pair	-9.65303
▁dj	-9.65314
▁victory	-9.65418
▁subtitles	-9.65421
▁charges	-9.65469
▁trade	-9.65502
▁shower	-9.65652
▁wood	-9.65722
back	-9.65778
▁played	-9.65783
ier	-9.65837
▁arrested	-9.65957
▁pieces	-9.66016
▁leader	-9.66124
use	-9.66175
▁sexy	-9.66311
▁feelings	-9.66477
▁blows	-9.66497
▁rob	-9.66504
pped	-9.66533
▁ap	-9.66577
▁yea	-9.66607
▁fla	-9.66701
▁bu	-9.66893
▁cu	-9.67036
ute	-9.67055
▁pe	-9.67167
▁reporter	-9.67169
▁hardly	-9.67203
ade	-9.67205
▁trap	-9.67319
▁lf	-9.67425
▁suffer	-9.67721
▁sio	-9.67766
▁ob	-9.67767
▁keeping	-9.67797
ide	-9.67808
▁helping	-9.67998
▁escape	-9.68334
▁due	-9.68415
au	-9.68436
▁inter	-9.6845
house	-9.68477
▁health	-9.68484
▁stan	-9.6849
though	-9.68509
▁tra	-9.68522
▁heading	-9.6867
▁borrow	-9.6871
▁however	-9.6871
▁insurance	-9.6871
▁majesty	-9.6871
▁melody	-9.6871
▁percent	-9.6871
▁require	-9.6871
▁restaurant	-9.6871
▁written	-9.6871
▁result	-9.6871
▁staff	-9.6871
▁expert	-9.6871
▁snow	-9.6871
▁biggest	-9.6871
▁recognize	-9.68711
▁speed	-9.68713
▁philippe	-9.68714
▁nadine	-9.68716
▁desire	-9.6873
▁airline	-9.6874
▁tune	-9.68745
▁duty	-9.68749
▁immediately	-9.68752
▁complicated	-9.68756
▁johnson	-9.68785
▁prime	-9.68794
▁market	-9.68797
▁golden	-9.68805
▁buzzes	-9.68805
▁chill	-9.68838
▁off	-9.68879
▁kab	-9.68881
▁sold	-9.6891
▁jacket	-9.68914
▁wet	-9.68938
▁action	-9.68941
▁exit	-9.6897
▁glasses	-9.6899
▁jet	-9.6903
▁sisters	-9.69082
▁picking	-9.69103
▁metal	-9.69117
▁egg	-9.69221
ism	-9.69324
▁cr	-9.69396
▁writer	-9.69473
ical	-9.69623
of	-9.69844
os	-9.69989
ast	-9.70019
▁nicky	-9.7042
▁brings	-9.70479
tro	-9.70607
ern	-9.70665
ities	-9.70776
▁bust	-9.70863
▁customers	-9.70953
▁cia	-9.70977
▁los	-9.7098
▁we	-9.71062
▁beg	-9.71756
red	-9.7191
▁prepare	-9.7191
▁fired	-9.71957
▁ver	-9.71981
▁champagne	-9.72281
▁england	-9.72281
▁exciting	-9.72281
▁foreign	-9.72281
▁godfrey	-9.72281
▁interview	-9.72281
▁location	-9.72281
▁margaret	-9.72281
▁mirror	-9.72281
▁possibly	-9.72281
▁progress	-9.72281
▁schedule	-9.72281
▁screen	-9.72281
▁stevie	-9.72281
▁suspense	-9.72281
▁twelve	-9.72281
▁whenever	-9.72281
▁perfume	-9.72281
▁drove	-9.72282
▁chimes	-9.72282
▁clue	-9.72282
▁brush	-9.72286
▁bluestar	-9.72288
▁birth	-9.72295
▁familiar	-9.72297
▁weii	-9.72298
▁victoria	-9.72298
▁degree	-9.723
▁zero	-9.72303
▁route	-9.72303
▁coast	-9.72307
▁gay	-9.72314
▁abuse	-9.72315
▁anger	-9.72316
▁planning	-9.7232
▁tank	-9.72328
▁plate	-9.72331
▁dropped	-9.72331
▁adult	-9.72351
▁under	-9.72354
▁thatll	-9.72385
▁va	-9.72387
▁wha	-9.72449
▁boom	-9.7251
▁commander	-9.72516
▁skin	-9.72538
▁erm	-9.72539
▁buying	-9.72549
just	-9.72578
com	-9.72673
▁emotional	-9.72715
▁failed	-9.7274
▁ace	-9.72763
▁union	-9.72792
▁quietly	-9.72947
▁chase	-9.73017
▁ohh	-9.73018
▁tu	-9.73083
▁motherfuckers	-9.73199
ug	-9.73288
▁sayin	-9.73333
▁pipe	-9.7348
ations	-9.73638
▁options	-9.7369
▁fe	-9.73968
▁tall	-9.74117
▁hurts	-9.74125
▁fund	-9.74954
▁cars	-9.75178
▁cha	-9.75186
ina	-9.75444
ake	-9.75524
▁divorce	-9.75606
face	-9.75673
▁soldiers	-9.75742
▁ac	-9.75791
▁gi	-9.75796
▁daniel	-9.7583
▁helped	-9.75833
gh	-9.75931
▁agador	-9.75985
▁cindy	-9.75985
▁junior	-9.75985
▁midnight	-9.75985
▁object	-9.75985
▁plenty	-9.75985
▁responsible	-9.75985
▁routine	-9.75985
▁trevor	-9.75985
▁potential	-9.75985
▁snake	-9.75985
▁weather	-9.75985
▁background	-9.75985
▁silent	-9.75985
▁proceed	-9.75985
▁tower	-9.75985
▁clark	-9.75985
▁kyle	-9.75985
▁jerk	-9.75986
▁investigation	-9.75988
▁kevin	-9.75991
▁blaring	-9.75992
▁chanting	-9.75993
▁virus	-9.75995
▁smith	-9.75995
▁elias	-9.76001
▁property	-9.76003
▁trapped	-9.76003
▁grade	-9.76005
▁bee	-9.76006
▁all	-9.76009
▁director	-9.76018
▁hammer	-9.7602
▁barnes	-9.7605
▁moral	-9.76067
▁laid	-9.76093
▁suddenly	-9.76142
▁path	-9.76147
▁eeri	-9.76181
▁que	-9.76259
▁rise	-9.7646
bi	-9.76676
▁student	-9.76798
▁the	-9.77143
cy	-9.77178
▁heh	-9.77249
▁fixed	-9.77305
▁bat	-9.77305
▁col	-9.7731
▁bump	-9.77372
▁dec	-9.77452
▁seemed	-9.77463
▁flying	-9.777
▁moms	-9.77848
ney	-9.77877
▁goodness	-9.77901
▁demons	-9.77981
▁details	-9.78156
uck	-9.78173
▁plans	-9.78186
▁chat	-9.78314
▁tri	-9.7849
▁officers	-9.78496
▁ge	-9.78505
▁whistles	-9.78511
▁prom	-9.78697
▁fog	-9.78862
▁cla	-9.78881
▁hunt	-9.78895
▁walks	-9.7891
ence	-9.79182
▁study	-9.79222
ey	-9.79244
▁tro	-9.79328
▁fo	-9.79348
▁fail	-9.79371
▁arrive	-9.79413
▁introduce	-9.7951
▁obvious	-9.7965
▁chick	-9.79731
ball	-9.79777
▁heal	-9.79787
▁media	-9.79813
▁apparently	-9.79831
▁catherine	-9.79831
▁electronic	-9.79831
▁florida	-9.79831
▁gideon	-9.79831
▁sneak	-9.79831
▁strike	-9.79831
▁traffic	-9.79831
▁vegas	-9.79831
▁wouid	-9.79831
▁rattling	-9.79831
▁opinion	-9.79831
▁freedom	-9.79832
▁moaning	-9.79832
▁piease	-9.79834
▁violet	-9.79836
▁clip	-9.79839
▁assistant	-9.79839
▁baseball	-9.79842
▁champion	-9.79843
▁crush	-9.79855
▁bike	-9.79855
▁coward	-9.79862
▁saul	-9.79868
▁nail	-9.79872
▁comfortable	-9.79879
▁vision	-9.79885
▁national	-9.79889
▁disgusting	-9.7989
▁spring	-9.79895
▁weight	-9.79904
▁miri	-9.79905
▁slam	-9.79908
▁kimi	-9.79911
▁march	-9.79918
▁pour	-9.7993
▁leon	-9.79959
▁professional	-9.79984
▁rex	-9.80024
▁files	-9.80093
▁carrie	-9.80096
▁discovered	-9.80113
▁manager	-9.80122
▁gu	-9.80206
▁grown	-9.8021
▁grunt	-9.80253
▁reality	-9.80269
▁bay	-9.80275
▁disappeared	-9.80287
▁male	-9.80293
▁sally	-9.80415
▁horns	-9.80547
vin	-9.80572
ified	-9.80603
▁hire	-9.80763
▁knee	-9.80809
▁sometime	-9.8084
▁io	-9.80887
cal	-9.8105
▁ke	-9.81192
▁loser	-9.81201
▁higher	-9.81624
▁siren	-9.81807
▁heads	-9.81877
▁mis	-9.81938
▁nobodys	-9.82091
▁comfort	-9.82362
▁dar	-9.82372
ile	-9.8243
▁dani	-9.82569
▁ju	-9.82764
nal	-9.8278
▁ward	-9.82814
▁graves	-9.82818
▁knees	-9.82829
my	-9.83161
▁pit	-9.83231
ng	-9.83421
ik	-9.8355
▁older	-9.83639
▁kit	-9.83652
▁finding	-9.8369
▁threat	-9.83725
▁favour	-9.83822
▁thunder	-9.83824
▁alfredo	-9.83831
▁celebrate	-9.83831
▁climb	-9.83831
▁experiment	-9.83831
▁geoghan	-9.83831
▁grenouille	-9.83831
▁oclock	-9.83831
▁practice	-9.83831
▁slept	-9.83831
▁uncomfortable	-9.83831
▁distant	-9.83831
▁border	-9.83831
▁crew	-9.83831
▁daesu	-9.83832
▁flies	-9.83832
▁stampler	-9.83834
▁robert	-9.83835
▁grandmother	-9.83835
▁insist	-9.83835
▁slave	-9.83835
▁mercy	-9.83836
▁ansel	-9.83836
▁guide	-9.83839
▁sunday	-9.83845
▁decent	-9.83852
▁sentence	-9.83855
▁caii	-9.83889
▁bound	-9.83902
▁model	-9.83922
▁host	-9.83927
fuck	-9.83936
▁yearold	-9.83941
▁statement	-9.83953
▁drum	-9.84071
▁gee	-9.84114
▁aim	-9.84172
▁shape	-9.84261
▁louis	-9.8433
▁ears	-9.84433
▁arrived	-9.84494
▁forced	-9.84603
▁games	-9.84628
▁realized	-9.84659
port	-9.84741
▁bone	-9.84748
▁pissed	-9.84792
▁watched	-9.8483
▁counter	-9.84878
aw	-9.84914
▁swan	-9.84928
▁member	-9.84955
▁searching	-9.85068
▁flat	-9.8511
▁loves	-9.85222
▁expected	-9.85269
▁gen	-9.85307
▁mikey	-9.85307
▁moon	-9.8535
▁lover	-9.85387
▁plant	-9.85436
▁thuds	-9.85545
▁numbers	-9.85569
▁cru	-9.85807
▁stayed	-9.85879
▁kissing	-9.85974
▁seek	-9.86164
ach	-9.86282
▁headed	-9.86502
▁hug	-9.86631
▁den	-9.86663
▁eli	-9.86815
▁jo	-9.8694
▁bones	-9.86959
▁windows	-9.86967
▁buzz	-9.87292
▁bleed	-9.87405
▁disappear	-9.87491
▁ram	-9.87498
▁release	-9.87618
▁kiii	-9.87669
▁ruin	-9.87719
fu	-9.87724
▁lick	-9.87754
▁product	-9.87932
▁flow	-9.87953
wi	-9.87956
▁thou	-9.87992
▁cecilia	-9.87998
▁desperate	-9.87998
▁explosiveskull	-9.87998
▁literally	-9.87998
▁london	-9.87998
▁magazine	-9.87998
▁monsieur	-9.87998
▁necessary	-9.87998
▁otherwise	-9.87998
▁photograph	-9.87998
▁taught	-9.87998
▁terrific	-9.87998
▁toilet	-9.87998
▁complain	-9.87998
▁lindy	-9.87998
▁period	-9.87998
▁silver	-9.87998
▁contain	-9.87998
▁warrant	-9.87998
▁assassin	-9.87998
▁lgby	-9.87998
▁laura	-9.87998
▁creaks	-9.87998
▁inez	-9.87999
▁demand	-9.87999
▁heip	-9.87999
▁remove	-9.88
▁current	-9.88001
▁friday	-9.88001
▁poison	-9.88002
▁monkey	-9.88003
▁merger	-9.88004
▁sniffles	-9.88005
▁battle	-9.88005
▁webb	-9.88008
▁minister	-9.88013
▁percy	-9.88014
▁tur	-9.88014
▁boring	-9.88015
▁defense	-9.88015
▁twist	-9.88016
▁stripper	-9.88016
▁secure	-9.88023
▁therapy	-9.88025
▁airport	-9.88026
▁wherever	-9.88027
▁capable	-9.88045
▁temple	-9.88049
▁barely	-9.88074
▁princess	-9.88078
▁pool	-9.88097
▁del	-9.88099
▁who	-9.88099
▁winter	-9.88107
▁thin	-9.8813
▁powerful	-9.88154
▁ewing	-9.88164
▁rare	-9.88195
▁gim	-9.88252
▁invited	-9.88292
▁stone	-9.88295
▁pm	-9.88619
▁wilder	-9.88704
▁lips	-9.88728
▁created	-9.88733
▁county	-9.8877
▁weapons	-9.88901
▁flo	-9.88914
▁pills	-9.89256
▁print	-9.89318
▁younger	-9.89493
▁scar	-9.89574
▁covered	-9.89594
▁stars	-9.89725
▁app	-9.89818
▁cases	-9.89987
ative	-9.90074
▁tits	-9.90497
▁jobs	-9.9054
▁prints	-9.9099
▁you	-9.91019
▁doors	-9.91049
▁para	-9.91569
▁serve	-9.91657
▁doctors	-9.91739
▁cards	-9.91859
▁fellas	-9.91971
▁sons	-9.91974
▁curse	-9.9202
▁career	-9.92031
▁wire	-9.92056
▁queens	-9.92081
ward	-9.92091
▁dirt	-9.92098
what	-9.92139
▁particular	-9.92156
▁sudden	-9.92164
▁collect	-9.92251
zi	-9.92255
ex	-9.92262
▁among	-9.92308
▁kris	-9.92328
▁commit	-9.92336
▁qua	-9.92339
▁civil	-9.92344
▁ambulance	-9.92346
▁california	-9.92346
▁chicago	-9.92346
▁community	-9.92346
▁develop	-9.92346
▁device	-9.92346
▁fifty	-9.92346
▁garbage	-9.92346
▁gorgeous	-9.92346
▁intense	-9.92346
▁justice	-9.92346
▁lorraine	-9.92346
▁mickey	-9.92346
▁morpheus	-9.92346
▁rumbling	-9.92346
▁vagina	-9.92346
▁whimpering	-9.92346
▁pathetic	-9.92346
▁shadow	-9.92346
▁beverly	-9.92346
▁equal	-9.92346
▁fortune	-9.92346
▁material	-9.92346
▁pilot	-9.92346
▁session	-9.92346
▁doorbell	-9.92346
▁piano	-9.92346
▁blew	-9.92346
▁cardinal	-9.92346
▁indeed	-9.92346
▁silly	-9.92347
▁gain	-9.92349
▁muffled	-9.9235
▁diana	-9.92357
▁damage	-9.92357
▁beast	-9.92358
▁awake	-9.92359
▁fancy	-9.9236
▁honking	-9.92361
▁dancing	-9.92362
▁shopping	-9.92362
▁failure	-9.92364
▁onto	-9.92376
▁storm	-9.92377
▁brax	-9.92377
▁rushman	-9.92378
▁scum	-9.9238
▁salad	-9.92385
▁highway	-9.9242
▁jones	-9.92425
▁bash	-9.92428
▁axel	-9.92453
▁rome	-9.92464
▁maria	-9.92474
▁dh	-9.9248
▁wallet	-9.92511
▁meg	-9.92522
▁mood	-9.92571
▁nun	-9.92584
▁angeles	-9.926
▁physical	-9.92603
▁charming	-9.92632
room	-9.92637
▁joy	-9.92684
▁block	-9.92688
▁whi	-9.92733
▁answers	-9.9275
tra	-9.92812
▁deb	-9.92989
▁slowly	-9.93037
ize	-9.93078
▁reached	-9.93223
val	-9.93461
▁comm	-9.93507
▁coughs	-9.93527
▁lines	-9.93541
▁joint	-9.9364
▁dads	-9.93731
▁everybodys	-9.93786
▁whistle	-9.93863
▁sat	-9.93917
▁ts	-9.93948
▁flowers	-9.93977
▁iitti	-9.93988
▁pushed	-9.94027
▁sooner	-9.94125
▁staring	-9.94184
▁expecting	-9.94247
ya	-9.94263
▁sen	-9.94345
▁tap	-9.94465
▁mal	-9.94866
▁she	-9.9506
pping	-9.95132
▁sue	-9.95237
ill	-9.9532
▁j	-9.95401
▁cra	-9.95449
▁sch	-9.95457
▁pulling	-9.95531
▁ol	-9.95531
▁aa	-9.95597
top	-9.95898
▁students	-9.95898
brew	-9.96039
▁mor	-9.96138
day	-9.96202
▁ti	-9.96225
▁su	-9.96299
▁limit	-9.96381
▁design	-9.96389
▁fore	-9.96557
▁command	-9.96606
load	-9.96693
▁sharp	-9.96704
▁grass	-9.96778
▁marshal	-9.9679
▁perform	-9.96882
▁august	-9.96891
▁beiieve	-9.96891
▁british	-9.96891
▁darnell	-9.96891
▁dracula	-9.96891
▁escort	-9.96891
▁europe	-9.96891
▁explosion	-9.96891
▁fantastic	-9.96891
▁guarantee	-9.96891
▁heimish	-9.96891
▁keeley	-9.96891
▁newspaper	-9.96891
▁responsibility	-9.96891
▁stomach	-9.96891
▁understood	-9.96891
▁unfortunate	-9.96891
▁vacation	-9.96891
▁babies	-9.96891
▁illegal	-9.96891
▁katia	-9.96891
▁miami	-9.96891
▁sugar	-9.96891
▁tutar	-9.96891
▁cherry	-9.96891
▁washington	-9.96891
▁paige	-9.96891
▁motorcycle	-9.96891
▁eddie	-9.96892
▁ivy	-9.96893
▁quote	-9.96899
▁sharon	-9.96901
▁sarge	-9.96902
▁email	-9.96904
▁alex	-9.96909
▁gentleman	-9.9691
▁grew	-9.9691
▁woke	-9.96911
▁proof	-9.96913
▁hung	-9.96922
▁lucie	-9.96922
▁scent	-9.96924
▁generation	-9.96927
▁season	-9.96937
▁aside	-9.96942
▁psycho	-9.96942
▁string	-9.96952
▁dragon	-9.96966
▁race	-9.96968
▁lean	-9.96972
▁chop	-9.96992
▁bored	-9.97058
▁bout	-9.9706
▁hood	-9.97077
▁protection	-9.97103
▁billion	-9.97258
▁diner	-9.97296
ates	-9.973
over	-9.97314
▁policeman	-9.9734
▁pol	-9.97467
ay	-9.97475
▁lower	-9.97484
ville	-9.97488
ja	-9.97544
▁raised	-9.97565
▁mmmm	-9.97582
▁personally	-9.97602
▁dealing	-9.97845
▁sca	-9.97904
▁cheer	-9.98042
▁sucks	-9.98084
▁praying	-9.98307
▁showing	-9.98435
▁spending	-9.98451
▁ir	-9.98701
▁customer	-9.98706
▁burned	-9.98714
▁cookie	-9.9875
▁chain	-9.98835
▁lighter	-9.98859
▁hum	-9.98895
▁har	-9.98897
▁eva	-9.98952
ix	-9.98959
▁terms	-9.98997
▁stranger	-9.99002
▁fur	-9.99014
▁burning	-9.99099
▁for	-9.9926
▁dry	-9.99352
▁pos	-9.9936
▁hurting	-9.99441
▁gum	-9.99547
▁u	-9.99779
▁rot	-9.99934
▁ordered	-9.99988
▁ko	-10.0037
▁bin	-10.0048
mer	-10.005
▁sirens	-10.0072
some	-10.0074
▁touched	-10.0079
▁ai	-10.0081
▁tim	-10.0089
▁ka	-10.0099
▁screech	-10.0106
▁connect	-10.0108
▁cooper	-10.0119
▁tickets	-10.0121
▁les	-10.0127
▁cheap	-10.0143
▁exact	-10.0151
▁prince	-10.0156
▁inform	-10.0163
▁advance	-10.0165
▁appointment	-10.0165
▁attempt	-10.0165
▁education	-10.0165
▁garvin	-10.0165
▁including	-10.0165
▁intensifies	-10.0165
▁lisbeth	-10.0165
▁miracle	-10.0165
▁professor	-10.0165
▁rabbit	-10.0165
▁smiling	-10.0165
▁stadium	-10.0165
▁stretch	-10.0165
▁vehicle	-10.0165
▁zombie	-10.0165
▁fourteen	-10.0165
▁garage	-10.0165
▁international	-10.0165
▁jeez	-10.0165
▁rifle	-10.0165
▁clyde	-10.0165
▁changing	-10.0165
▁television	-10.0165
▁trauma	-10.0165
▁telephone	-10.0165
▁desert	-10.0165
▁critic	-10.0165
▁cowboy	-10.0166
▁leak	-10.0167
▁operation	-10.0167
▁internet	-10.0167
▁owns	-10.0167
▁flesh	-10.0167
▁chopper	-10.0167
▁committed	-10.0167
▁clever	-10.0167
▁valley	-10.0168
▁positive	-10.0168
▁defendant	-10.0169
iest	-10.0169
▁rope	-10.017
▁margo	-10.017
▁royal	-10.0172
▁loan	-10.0172
▁nasty	-10.0177
▁christine	-10.0178
▁plain	-10.0181
▁france	-10.0183
▁wailing	-10.0184
ham	-10.0188
▁lesson	-10.0189
▁ste	-10.019
▁palm	-10.0194
▁hm	-10.0195
hol	-10.0196
▁pea	-10.0203
▁wander	-10.0205
▁echoing	-10.0205
gging	-10.0206
▁drinks	-10.0208
▁lab	-10.0209
▁cast	-10.021
▁raped	-10.0223
▁wise	-10.0224
▁thrown	-10.0226
range	-10.0227
▁bleeding	-10.0234
▁walls	-10.0237
▁concerned	-10.0237
▁scouts	-10.024
its	-10.0243
▁drawing	-10.0253
▁pie	-10.0253
▁based	-10.0258
▁stronger	-10.0263
▁changes	-10.0273
ache	-10.0275
▁depends	-10.0282
▁chances	-10.0287
▁mustve	-10.029
▁grave	-10.0298
▁led	-10.0302
▁parking	-10.0306
▁checking	-10.0317
▁yell	-10.0317
ak	-10.0322
ible	-10.0339
▁treated	-10.0344
▁matthew	-10.0359
▁yard	-10.036
▁backup	-10.0367
▁mile	-10.0377
▁selling	-10.0378
▁wounds	-10.0387
▁hip	-10.0397
▁blowing	-10.04
▁seal	-10.0402
▁ended	-10.0421
ire	-10.0422
▁mon	-10.0428
nc	-10.0467
▁smells	-10.0492
▁ham	-10.0495
▁twin	-10.0501
▁ideas	-10.0533
▁bon	-10.0537
▁goal	-10.0576
q	-10.0581
▁photos	-10.0586
▁tan	-10.0602
▁flag	-10.0613
▁punish	-10.0615
▁tit	-10.0617
ron	-10.0619
▁lit	-10.0621
▁success	-10.0635
▁lookin	-10.0639
▁creep	-10.064
▁inc	-10.0644
book	-10.0651
ber	-10.0659
▁regard	-10.0662
▁rush	-10.0665
▁interrupt	-10.0665
▁bennett	-10.0665
▁blonde	-10.0665
▁describe	-10.0665
▁fought	-10.0665
▁granny	-10.0665
▁leigh	-10.0665
▁portuguese	-10.0665
▁practical	-10.0665
▁respond	-10.0665
▁scratch	-10.0665
▁tuesday	-10.0665
▁wreck	-10.0665
▁dispatch	-10.0665
▁jerry	-10.0665
▁laurie	-10.0665
▁motive	-10.0665
▁policy	-10.0665
▁rumor	-10.0665
▁juice	-10.0665
▁karl	-10.0665
▁presence	-10.0665
▁neighborhood	-10.0665
▁smash	-10.0665
▁wolf	-10.0665
▁thudding	-10.0665
▁candy	-10.0665
▁port	-10.0665
▁winner	-10.0666
▁owner	-10.0666
▁beans	-10.0666
▁employee	-10.0666
▁navy	-10.0666
▁spotlight	-10.0666
▁driss	-10.0667
▁paperwork	-10.0667
inlaw	-10.0667
▁iook	-10.0667
▁theme	-10.0668
▁flame	-10.0668
▁static	-10.0668
▁jury	-10.0668
▁gross	-10.0669
▁tourist	-10.0669
▁inhales	-10.0669
▁viva	-10.0669
▁stake	-10.067
▁china	-10.0672
▁data	-10.0673
▁article	-10.0676
▁cabin	-10.0677
▁dust	-10.068
▁meal	-10.0681
▁weston	-10.0681
▁trailer	-10.0683
▁earn	-10.0683
▁answering	-10.0685
▁wh	-10.0688
▁taik	-10.0692
▁bastards	-10.0697
▁stolen	-10.0697
boy	-10.0708
▁served	-10.0709
▁cf	-10.0718
▁movement	-10.0727
▁char	-10.0732
ong	-10.0756
▁mentioned	-10.0759
▁tail	-10.0772
▁screwed	-10.078
▁letting	-10.0794
▁pigs	-10.0801
▁perfectly	-10.0809
dden	-10.082
▁ton	-10.0823
cho	-10.0824
▁shitty	-10.0828
▁scare	-10.0839
▁pl	-10.0845
▁growing	-10.0872
▁der	-10.088
▁appear	-10.0884
▁fin	-10.0887
▁detail	-10.0889
▁trained	-10.0889
▁toward	-10.0891
▁recording	-10.0896
▁pound	-10.09
▁gut	-10.0915
▁followed	-10.0936
▁anne	-10.0946
▁torture	-10.0955
▁reasons	-10.0981
▁mer	-10.1017
▁lack	-10.1022
▁ph	-10.1026
▁spa	-10.1037
▁ven	-10.1049
row	-10.1053
▁ove	-10.1071
nic	-10.1107
▁orders	-10.1145
▁hated	-10.1152
▁brand	-10.1157
▁bullets	-10.116
▁victor	-10.1163
board	-10.1168
▁seq	-10.1169
▁rape	-10.1187
▁epi	-10.1187
▁proper	-10.1188
▁effect	-10.1189
▁opera	-10.119
▁available	-10.1192
▁butcher	-10.1192
▁challenge	-10.1192
▁compliment	-10.1192
▁helicopter	-10.1192
▁hollywood	-10.1192
▁joanna	-10.1192
▁katrine	-10.1192
▁magua	-10.1192
▁mulwray	-10.1192
▁oglethorpe	-10.1192
▁pacific	-10.1192
▁permission	-10.1192
▁pizza	-10.1192
▁research	-10.1192
▁rhonda	-10.1192
▁science	-10.1192
▁shakily	-10.1192
▁violence	-10.1192
▁whiskey	-10.1192
▁dripping	-10.1192
▁mitchell	-10.1192
▁outfit	-10.1192
▁reverend	-10.1192
▁shelter	-10.1192
▁corky	-10.1192
▁frame	-10.1192
▁japanese	-10.1192
▁estimate	-10.1192
▁mostly	-10.1192
▁spray	-10.1192
▁saverio	-10.1192
▁yosille	-10.1192
▁altar	-10.1192
▁version	-10.1192
▁disease	-10.1192
▁alert	-10.1192
▁hyperion	-10.1193
right	-10.1193
▁urgent	-10.1193
▁expensive	-10.1193
▁golf	-10.1193
▁online	-10.1193
▁source	-10.1193
▁football	-10.1193
▁howard	-10.1193
▁rude	-10.1194
▁wiii	-10.1195
▁monk	-10.1195
▁gunfire	-10.1195
▁russian	-10.1196
▁russell	-10.1196
▁flash	-10.1196
▁carlos	-10.1198
▁coleman	-10.1199
▁award	-10.1199
▁sanders	-10.1199
▁poem	-10.12
▁penis	-10.12
▁trace	-10.1201
▁darkness	-10.1203
▁bla	-10.1204
▁recently	-10.1204
▁dating	-10.1205
▁panic	-10.1206
▁signs	-10.1206
▁gary	-10.1207
▁eden	-10.1208
▁daniela	-10.1212
▁maid	-10.122
▁fee	-10.1221
▁brandi	-10.1222
▁confirmed	-10.1231
▁received	-10.1231
▁down	-10.1232
▁breathes	-10.1235
▁butter	-10.1238
▁cheating	-10.1242
▁cape	-10.1245
▁escaped	-10.125
▁tw	-10.1252
▁mail	-10.1253
▁image	-10.1263
▁deeper	-10.128
▁oi	-10.1284
▁x	-10.1285
▁au	-10.129
▁cent	-10.1301
▁hen	-10.1326
▁sink	-10.1334
bra	-10.1349
▁bitches	-10.135
▁documents	-10.1352
▁gl	-10.1355
▁wide	-10.1357
tal	-10.1375
▁non	-10.1381
▁hearts	-10.1385
▁ze	-10.1387
▁bend	-10.1399
ov	-10.1402
▁engineer	-10.1409
hole	-10.1415
▁cooking	-10.1418
▁joey	-10.1441
▁clients	-10.1443
▁salt	-10.1465
▁ut	-10.147
▁wing	-10.1478
▁beating	-10.1493
ral	-10.152
▁slip	-10.158
gue	-10.16
▁agents	-10.1612
how	-10.1618
▁dealer	-10.1622
▁peg	-10.1664
▁approach	-10.1688
▁gather	-10.1697
▁fighter	-10.17
▁cow	-10.1702
▁roar	-10.1707
▁sweat	-10.171
ette	-10.1719
▁axe	-10.1736
like	-10.1739
▁pink	-10.1741
wood	-10.1745
▁transfer	-10.1745
▁liz	-10.1746
▁flip	-10.1746
▁danger	-10.1747
▁burmese	-10.1747
▁conference	-10.1747
▁courage	-10.1747
▁gittes	-10.1747
▁harvard	-10.1747
▁intelligence	-10.1747
▁jealous	-10.1747
▁mexico	-10.1747
▁orchestra	-10.1747
▁produce	-10.1747
▁sixsmith	-10.1747
▁thursday	-10.1747
▁traitor	-10.1747
▁uniform	-10.1747
▁vetlesen	-10.1747
▁violent	-10.1747
▁wolverton	-10.1747
▁austin	-10.1747
▁launch	-10.1747
▁miserable	-10.1747
▁patrol	-10.1747
▁jodie	-10.1747
▁squeal	-10.1747
▁cheese	-10.1747
▁chew	-10.1747
▁natalie	-10.1747
▁forgotten	-10.1747
▁pervert	-10.1747
▁impact	-10.1747
▁chamber	-10.1748
▁logue	-10.1748
▁resist	-10.1748
▁update	-10.1748
▁jewish	-10.1749
▁status	-10.1749
▁ripper	-10.1749
▁unlock	-10.175
▁fbi	-10.175
▁andrew	-10.1751
▁attractive	-10.1751
▁brick	-10.1752
▁sheet	-10.1752
▁unlike	-10.1752
▁replace	-10.1752
▁mobile	-10.1753
▁blast	-10.1753
▁max	-10.1754
▁kang	-10.1755
▁ease	-10.1756
▁manner	-10.1758
▁treatment	-10.176
▁grey	-10.1761
▁bugger	-10.1763
▁justin	-10.1765
▁according	-10.1766
▁painful	-10.1767
▁classic	-10.1773
▁fri	-10.1777
▁bass	-10.1782
▁pla	-10.1783
▁disappointed	-10.1788
▁warned	-10.1789
▁barb	-10.1792
▁fourth	-10.1795
▁parties	-10.1795
▁dale	-10.1802
▁loudly	-10.1804
▁mac	-10.1841
▁sum	-10.1845
▁fireworks	-10.1846
▁rate	-10.1846
▁crashed	-10.1846
▁services	-10.1852
ook	-10.1857
▁spy	-10.1862
▁et	-10.1876
▁corn	-10.1889
▁attacked	-10.1906
▁vote	-10.1908
▁amys	-10.1909
▁freaking	-10.1918
▁tied	-10.1918
▁ahh	-10.1922
▁aid	-10.193
▁fre	-10.194
▁fishing	-10.1944
▁mc	-10.195
▁eric	-10.1984
ius	-10.1987
▁opened	-10.1989
▁messing	-10.2008
▁ignore	-10.201
▁signed	-10.2042
▁pounds	-10.208
old	-10.2087
▁nation	-10.209
▁hop	-10.2104
▁chains	-10.2117
▁tryin	-10.2119
▁suits	-10.2126
▁pu	-10.2163
▁pitch	-10.2168
▁members	-10.2172
ttle	-10.2174
▁jew	-10.219
▁ag	-10.2196
▁sto	-10.2203
▁bowl	-10.221
ily	-10.2216
▁las	-10.223
▁sur	-10.2251
▁comb	-10.2261
▁clatter	-10.2276
▁confess	-10.2278
leg	-10.2287
▁separate	-10.2297
▁wipe	-10.2299
▁mat	-10.231
▁numb	-10.2311
bag	-10.2311
town	-10.2315
field	-10.2315
▁faint	-10.2317
▁puss	-10.232
beat	-10.2322
▁express	-10.2329
▁drama	-10.2334
▁accent	-10.2335
▁catholic	-10.2335
▁commission	-10.2335
▁eventually	-10.2335
▁example	-10.2335
▁exercise	-10.2335
▁fruit	-10.2335
▁incident	-10.2335
▁instrument	-10.2335
▁isaac	-10.2335
▁jeanbaptiste	-10.2335
▁jennifer	-10.2335
▁maradona	-10.2335
▁mexican	-10.2335
▁political	-10.2335
▁psychopath	-10.2335
▁quince	-10.2335
▁randall	-10.2335
▁shaughnessy	-10.2335
▁soccer	-10.2335
▁twitter	-10.2335
▁skull	-10.2335
▁virgin	-10.2335
▁woogie	-10.2335
▁titties	-10.2335
▁vietnam	-10.2335
▁pleasant	-10.2335
▁resume	-10.2335
▁robbery	-10.2335
▁stress	-10.2335
▁thrill	-10.2335
▁spider	-10.2335
▁jasper	-10.2336
▁ticking	-10.2336
▁clinic	-10.2336
▁worm	-10.2336
▁pookie	-10.2336
▁ollie	-10.2336
▁division	-10.2336
▁shush	-10.2336
▁electricity	-10.2337
▁talent	-10.2337
▁assault	-10.2338
▁counselor	-10.2339
▁legend	-10.2339
▁upper	-10.2339
▁dominic	-10.234
▁starving	-10.234
▁steel	-10.234
▁package	-10.2341
▁jax	-10.2341
▁yup	-10.2341
▁direction	-10.2342
▁motion	-10.2342
▁shine	-10.2342
▁porn	-10.2342
▁cmon	-10.2342
▁labor	-10.2343
▁dope	-10.2343
▁blah	-10.2343
▁basement	-10.2344
▁grind	-10.2345
▁circumstances	-10.2346
▁sins	-10.2347
▁entry	-10.2347
▁soup	-10.2347
▁forth	-10.2349
▁standard	-10.235
▁sword	-10.2352
▁visitor	-10.2355
▁chosen	-10.236
▁tiny	-10.2361
▁cutting	-10.2364
▁facts	-10.2365
▁creepy	-10.2365
▁lifetime	-10.2374
▁pub	-10.2379
▁bond	-10.238
▁dea	-10.2387
▁warning	-10.2395
▁clattering	-10.2396
▁notes	-10.2408
▁rae	-10.2417
▁drawer	-10.2424
▁hunting	-10.2429
▁mayor	-10.2455
▁crashing	-10.2463
▁ate	-10.2463
▁mid	-10.2464
▁sale	-10.2464
▁will	-10.2486
▁belongs	-10.25
well	-10.2525
▁badge	-10.2528
▁squ	-10.2533
▁cab	-10.2546
▁rogers	-10.2562
▁kicked	-10.2583
▁click	-10.2601
▁guards	-10.2631
▁deer	-10.2635
▁tend	-10.2647
▁nightmare	-10.2653
▁beside	-10.2662
▁throwing	-10.2664
▁trump	-10.2669
ppy	-10.2676
▁tub	-10.2678
▁cleaned	-10.2688
▁guts	-10.2693
mber	-10.2715
hi	-10.2743
▁voices	-10.2745
▁noon	-10.2782
▁steps	-10.2788
▁boot	-10.2826
oh	-10.2832
▁wo	-10.284
thing	-10.2845
▁cheat	-10.285
table	-10.2861
▁chart	-10.2892
▁becom	-10.2892
▁journal	-10.2896
▁tin	-10.2912
▁grant	-10.2915
▁americans	-10.2926
▁direct	-10.2929
▁temp	-10.293
place	-10.2935
▁log	-10.2936
▁ci	-10.2944
amo	-10.2946
▁sandwich	-10.2949
▁madam	-10.2952
▁depart	-10.2958
▁trans	-10.2958
▁ambush	-10.296
▁arcamax	-10.296
▁argument	-10.296
▁behavior	-10.296
▁benefit	-10.296
▁blanchard	-10.296
▁convict	-10.296
▁custody	-10.296
▁duncan	-10.296
▁easily	-10.296
▁female	-10.296
▁gemini	-10.296
▁grandfather	-10.296
▁multiple	-10.296
▁museum	-10.296
▁pamela	-10.296
▁patrizia	-10.296
▁penalty	-10.296
▁represent	-10.296
▁reservation	-10.296
▁revenge	-10.296
▁servant	-10.296
▁smooth	-10.296
▁squeeze	-10.296
▁stammer	-10.296
▁sunshine	-10.296
▁underwear	-10.296
▁architect	-10.296
▁attach	-10.296
▁establish	-10.296
▁generous	-10.296
▁offense	-10.296
▁pattern	-10.296
▁senior	-10.296
▁sheiiy	-10.296
▁testify	-10.296
▁iady	-10.296
▁wrist	-10.296
▁gavin	-10.296
▁random	-10.296
▁theater	-10.296
▁dozen	-10.296
▁myers	-10.296
▁novel	-10.2961
▁studie	-10.2961
▁waitress	-10.2961
▁aaahhh	-10.2961
▁downtown	-10.2961
▁molest	-10.2961
▁yonas	-10.2961
▁planned	-10.2961
▁wives	-10.2961
▁stood	-10.2961
▁recover	-10.2961
▁operator	-10.2962
▁allison	-10.2962
▁pride	-10.2962
▁arrival	-10.2962
▁favourite	-10.2962
▁honour	-10.2962
▁poetry	-10.2962
▁communication	-10.2962
▁wrapped	-10.2962
▁foster	-10.2962
▁abortion	-10.2963
▁lobo	-10.2963
▁brent	-10.2963
▁howl	-10.2963
▁audition	-10.2963
▁possession	-10.2963
▁section	-10.2964
▁bertie	-10.2964
▁coach	-10.2965
▁soap	-10.2965
▁minor	-10.2965
cept	-10.2966
▁zone	-10.2966
▁castle	-10.2966
▁foolish	-10.2967
▁fuel	-10.2967
▁broad	-10.2967
▁bible	-10.2967
▁drill	-10.2968
▁moron	-10.297
▁tucker	-10.2973
▁marshall	-10.2974
▁frightened	-10.2975
▁coke	-10.2975
▁barry	-10.2976
▁mill	-10.2977
▁squeaking	-10.2978
▁arch	-10.2979
▁sup	-10.2979
▁copies	-10.2982
▁dull	-10.2983
▁row	-10.299
▁july	-10.299
▁greed	-10.2991
▁alter	-10.2992
▁highness	-10.2993
▁coughing	-10.2995
jack	-10.2999
▁dial	-10.3002
▁scary	-10.3006
▁bam	-10.301
▁pancakes	-10.3011
▁fireman	-10.3021
▁earned	-10.3023
▁punished	-10.3023
▁kisses	-10.3026
▁survived	-10.304
▁settled	-10.304
▁rear	-10.3042
▁yorkin	-10.305
rick	-10.3051
▁loaded	-10.3062
▁dy	-10.3063
▁roy	-10.3064
▁delivered	-10.3069
▁suffering	-10.3073
▁smaller	-10.309
▁anti	-10.3097
▁edge	-10.3097
▁fate	-10.3099
▁bun	-10.3099
▁driven	-10.3099
▁cure	-10.3101
▁scan	-10.3123
▁fades	-10.3133
lie	-10.3142
▁jon	-10.3161
▁harm	-10.3163
▁noises	-10.3163
▁div	-10.3169
▁rank	-10.3178
▁thousands	-10.3183
▁shouts	-10.3216
▁offered	-10.3229
▁counting	-10.3245
unt	-10.3249
ack	-10.3255
▁wound	-10.3271
gger	-10.3276
▁poo	-10.3279
hand	-10.3283
can	-10.3293
▁learning	-10.3305
▁tire	-10.3314
▁term	-10.3324
▁appears	-10.3339
ella	-10.3348
▁shoe	-10.3353
▁matthews	-10.3359
▁est	-10.3379
▁strangers	-10.3388
▁bri	-10.3408
ara	-10.3424
▁flats	-10.3446
poli	-10.3455
▁prisoner	-10.3459
ana	-10.3476
▁mini	-10.3509
▁sav	-10.351
▁jam	-10.3536
▁discover	-10.3552
▁od	-10.3555
▁cum	-10.3566
▁par	-10.3567
▁confirm	-10.3574
▁artists	-10.3575
▁disappoint	-10.3575
▁monsters	-10.359
▁not	-10.3603
ability	-10.3612
▁india	-10.3613
▁rustl	-10.3616
life	-10.3617
▁tech	-10.3623
han	-10.3625
▁wig	-10.3626
▁barclay	-10.3627
▁cavendish	-10.3627
▁cherokee	-10.3627
▁chinese	-10.3627
▁coakley	-10.3627
▁confused	-10.3627
▁corridor	-10.3627
▁dallas	-10.3627
▁delicious	-10.3627
▁donkey	-10.3627
▁filip	-10.3627
▁grateful	-10.3627
▁happiness	-10.3627
▁hoghead	-10.3627
▁homicide	-10.3627
▁instinct	-10.3627
▁license	-10.3627
▁lobster	-10.3627
▁northcott	-10.3627
▁oracle	-10.3627
▁ordinary	-10.3627
▁paranoid	-10.3627
▁reputation	-10.3627
▁response	-10.3627
▁rezendes	-10.3627
▁snort	-10.3627
▁spartan	-10.3627
▁svenning	-10.3627
▁swallow	-10.3627
▁temporary	-10.3627
▁thompson	-10.3627
▁tragedy	-10.3627
▁trunk	-10.3627
▁whimpers	-10.3627
▁abbey	-10.3627
▁chapter	-10.3627
▁chayim	-10.3627
▁citizen	-10.3627
▁cloud	-10.3627
▁damien	-10.3627
▁instance	-10.3627
▁popular	-10.3627
▁prevent	-10.3627
▁alleged	-10.3627
▁dillon	-10.3627
▁editor	-10.3627
▁fetch	-10.3627
▁snack	-10.3627
▁violin	-10.3627
▁serving	-10.3627
▁kingdom	-10.3627
▁myth	-10.3627
▁knowledge	-10.3627
▁brakes	-10.3627
▁lorna	-10.3627
▁shark	-10.3627
▁lazy	-10.3627
▁habit	-10.3627
▁empire	-10.3628
▁unbelievable	-10.3628
▁tiger	-10.3628
▁andie	-10.3628
▁mitch	-10.3629
▁medicine	-10.3629
▁denny	-10.3629
▁jimmy	-10.3629
▁bride	-10.3629
▁lousy	-10.3629
▁darian	-10.363
▁slut	-10.3631
▁judgment	-10.3631
▁comment	-10.3631
▁monet	-10.3632
▁iron	-10.3632
▁skip	-10.3632
▁bush	-10.3633
▁whatre	-10.3633
▁raiden	-10.3634
▁conley	-10.3634
▁rice	-10.3634
▁grandpa	-10.3635
▁inches	-10.3636
▁stink	-10.3636
name	-10.3636
▁cameron	-10.3638
▁production	-10.3638
▁potatoes	-10.3638
▁dna	-10.3639
lia	-10.3639
▁puffy	-10.364
▁indian	-10.3641
▁warn	-10.3642
fore	-10.3642
▁slit	-10.3642
erra	-10.3644
tone	-10.3645
▁arse	-10.3648
▁becker	-10.3649
cient	-10.3652
▁spare	-10.3653
▁prize	-10.3654
▁cage	-10.3662
▁healy	-10.3672
▁juli	-10.3672
▁momma	-10.3672
▁tests	-10.3675
▁unh	-10.3677
work	-10.3683
▁link	-10.3683
▁gathered	-10.3688
▁journalist	-10.3697
▁judy	-10.3701
▁barn	-10.3708
▁timing	-10.3715
▁ama	-10.3715
onies	-10.3721
▁sim	-10.3736
▁carefully	-10.3742
▁math	-10.3758
▁hol	-10.3759
▁destroyed	-10.3775
▁slipp	-10.3777
▁cocks	-10.3781
▁bid	-10.3785
▁filled	-10.3785
ros	-10.3793
mu	-10.3795
▁towels	-10.3812
▁intention	-10.3818
▁banging	-10.3819
▁receive	-10.3823
▁mayo	-10.3848
▁closet	-10.385
▁jumped	-10.3852
▁behave	-10.386
▁realm	-10.3866
▁sho	-10.387
▁ash	-10.3877
▁skills	-10.3878
▁armed	-10.3886
shit	-10.3895
▁mob	-10.392
▁frankie	-10.392
light	-10.3927
ora	-10.3945
lacking	-10.3971
mmer	-10.3984
▁reported	-10.4004
away	-10.402
▁rolling	-10.4021
▁gal	-10.4031
▁neighbor	-10.4032
that	-10.4034
▁horses	-10.4036
▁spin	-10.4036
▁thud	-10.4049
▁what	-10.4061
▁nut	-10.4075
oke	-10.4097
▁blocks	-10.4104
▁cleaning	-10.4118
▁woo	-10.4123
▁pur	-10.4128
oon	-10.4144
▁swi	-10.4189
▁cameras	-10.4194
▁eggs	-10.4234
tta	-10.4263
▁sol	-10.4268
▁echo	-10.4285
▁refuse	-10.4303
▁medic	-10.4307
looking	-10.4322
▁actual	-10.4323
▁range	-10.4325
▁potato	-10.433
▁specific	-10.434
▁creek	-10.4341
associate	-10.4341
▁allegations	-10.4341
▁assignment	-10.4341
▁broadcast	-10.4341
▁cocktail	-10.4341
▁compromise	-10.4341
▁council	-10.4341
▁dessert	-10.4341
▁determine	-10.4341
▁dibiasky	-10.4341
▁embrace	-10.4341
▁extraordinary	-10.4341
▁fifteen	-10.4341
▁garabedian	-10.4341
▁holiday	-10.4341
▁infected	-10.4341
▁macleish	-10.4341
▁mysterious	-10.4341
▁nonsense	-10.4341
▁nuclear	-10.4341
▁promotion	-10.4341
▁resident	-10.4341
▁rhythm	-10.4341
▁scotch	-10.4341
▁sheldon	-10.4341
▁stairs	-10.4341
▁struggle	-10.4341
▁underneath	-10.4341
▁unexpected	-10.4341
▁bread	-10.4341
▁capture	-10.4341
▁consult	-10.4341
▁dennis	-10.4341
▁fifth	-10.4341
▁racist	-10.4341
▁rafto	-10.4341
▁bacon	-10.4341
▁duties	-10.4341
▁reckon	-10.4341
▁simply	-10.4341
▁false	-10.4341
▁permit	-10.4341
▁thief	-10.4341
▁modern	-10.4341
▁theory	-10.4341
▁trudy	-10.4341
▁luke	-10.4341
▁recall	-10.4341
▁reduce	-10.4341
▁saint	-10.4341
▁chord	-10.4341
▁punk	-10.4342
▁distort	-10.4342
▁uhuh	-10.4342
▁cancel	-10.4342
▁costume	-10.4342
▁retire	-10.4342
▁turkey	-10.4342
▁whitney	-10.4342
▁heels	-10.4342
▁plague	-10.4342
▁central	-10.4342
▁financial	-10.4342
▁addict	-10.4342
▁password	-10.4342
▁cuff	-10.4342
▁childhood	-10.4343
▁fridge	-10.4343
▁loyalty	-10.4343
▁growls	-10.4343
▁signature	-10.4343
▁creature	-10.4343
▁construct	-10.4343
▁existence	-10.4343
▁curious	-10.4343
▁massage	-10.4343
▁cried	-10.4343
▁argue	-10.4343
▁convention	-10.4344
▁oleg	-10.4344
▁clink	-10.4344
▁site	-10.4344
▁mouse	-10.4345
▁clone	-10.4345
▁june	-10.4345
lor	-10.4346
▁brian	-10.4346
▁iong	-10.4347
▁loving	-10.4348
▁fork	-10.4348
▁oop	-10.4348
▁slide	-10.4349
▁solve	-10.4349
▁toto	-10.435
▁kim	-10.435
▁began	-10.435
▁q	-10.4351
▁dishes	-10.4351
▁divide	-10.4351
▁gear	-10.4352
▁agreement	-10.4352
▁boil	-10.4352
▁plug	-10.4353
▁growling	-10.4353
▁passage	-10.4357
fully	-10.4362
▁eve	-10.4362
▁fuckedup	-10.4365
▁coat	-10.4366
▁witch	-10.4368
bone	-10.4373
▁setting	-10.4374
▁lapd	-10.4379
▁sighing	-10.4381
▁rene	-10.4382
▁jen	-10.4386
ka	-10.4394
▁useless	-10.4398
▁granted	-10.4399
▁mass	-10.44
▁assure	-10.4405
▁title	-10.4405
drew	-10.441
▁hunter	-10.4415
▁divorced	-10.4416
▁eaten	-10.4419
▁roaring	-10.442
▁sealed	-10.4422
▁fle	-10.4423
▁meantime	-10.4427
▁louder	-10.4431
▁sean	-10.4432
rus	-10.4444
▁fingerprints	-10.4447
▁dam	-10.4457
▁lap	-10.4521
pot	-10.4535
▁ji	-10.4546
▁workers	-10.4554
▁trees	-10.4554
▁makeup	-10.4558
▁carrying	-10.4562
▁wally	-10.4563
▁guests	-10.4577
▁uhh	-10.458
▁baron	-10.4583
▁units	-10.4598
istic	-10.4599
▁recorded	-10.4621
▁dancer	-10.4622
▁umm	-10.4645
▁kissed	-10.4669
▁enjoying	-10.4705
▁cro	-10.4707
▁nightmares	-10.4707
▁prisoners	-10.4709
spect	-10.4711
▁lightn	-10.4716
▁shout	-10.4753
▁friendly	-10.4793
▁soph	-10.4794
▁option	-10.4813
▁chuckle	-10.4815
bel	-10.4838
▁dollar	-10.4839
▁cookies	-10.4847
hala	-10.4869
▁prayer	-10.4888
ably	-10.4897
▁swans	-10.4899
far	-10.495
▁zip	-10.4952
▁creat	-10.4957
oid	-10.4971
▁flee	-10.4982
▁badly	-10.4983
▁request	-10.4999
ux	-10.5
▁fae	-10.5028
▁wil	-10.5038
▁sniff	-10.5046
▁fart	-10.505
two	-10.5069
power	-10.5091
▁recent	-10.5097
fire	-10.5098
▁invite	-10.5102
▁mode	-10.5104
▁anacott	-10.5111
▁anniversary	-10.5111
▁approximately	-10.5111
▁avenue	-10.5111
▁ceremony	-10.5111
▁clements	-10.5111
▁cocaine	-10.5111
▁colonel	-10.5111
▁consulate	-10.5111
▁defeat	-10.5111
▁diamond	-10.5111
▁exhaust	-10.5111
▁firephina	-10.5111
▁goddammit	-10.5111
▁grief	-10.5111
▁ieave	-10.5111
▁imprint	-10.5111
▁individual	-10.5111
▁liquid	-10.5111
▁mystery	-10.5111
▁nathaniel	-10.5111
▁negative	-10.5111
▁passenger	-10.5111
▁patience	-10.5111
▁procedure	-10.5111
▁publish	-10.5111
▁quarantine	-10.5111
▁reception	-10.5111
▁saviano	-10.5111
▁sensitive	-10.5111
▁shattering	-10.5111
▁sweep	-10.5111
▁sylvia	-10.5111
▁syndicate	-10.5111
▁teldar	-10.5111
▁terribly	-10.5111
▁typical	-10.5111
▁universe	-10.5111
▁unknown	-10.5111
▁choking	-10.5111
▁eliza	-10.5111
▁eloise	-10.5111
▁greek	-10.5111
▁lynn	-10.5111
▁paradise	-10.5111
▁remote	-10.5111
▁retail	-10.5111
▁snarl	-10.5111
▁function	-10.5111
▁rotten	-10.5111
▁sharla	-10.5111
▁shotgun	-10.5111
▁unique	-10.5111
▁casual	-10.5111
▁leila	-10.5111
▁panties	-10.5111
cript	-10.5111
▁falk	-10.5111
▁avery	-10.5111
▁restrain	-10.5111
▁pickett	-10.5111
▁inmate	-10.5111
▁crystal	-10.5111
▁factory	-10.5111
▁nerve	-10.5111
▁alien	-10.5111
▁agency	-10.5111
▁gym	-10.5111
▁carpet	-10.5111
▁wasting	-10.5111
▁drain	-10.5111
▁brutal	-10.5111
▁weep	-10.5111
▁yank	-10.5111
▁stall	-10.5111
▁pillow	-10.5111
▁limb	-10.5112
▁governor	-10.5112
▁huron	-10.5112
▁squad	-10.5112
▁prosecution	-10.5112
▁spoon	-10.5113
▁doo	-10.5113
▁ripley	-10.5113
atch	-10.5113
▁daily	-10.5113
▁advantage	-10.5113
▁oak	-10.5113
▁cliff	-10.5114
▁blake	-10.5114
▁birt	-10.5114
▁spill	-10.5115
▁conscious	-10.5115
▁commitment	-10.5116
▁lola	-10.5116
▁delight	-10.5117
▁manual	-10.5117
▁century	-10.5118
▁mimi	-10.5118
▁shove	-10.5119
▁haunt	-10.5119
▁sniper	-10.5119
▁tallis	-10.5119
▁santa	-10.5121
▁dropping	-10.5122
▁accountant	-10.5122
▁secretary	-10.5123
▁agh	-10.5123
▁sway	-10.5124
▁condor	-10.5124
▁button	-10.5124
▁tres	-10.5125
dog	-10.5127
▁embarrassing	-10.5128
▁lads	-10.5128
▁goldman	-10.5128
▁sew	-10.5128
▁impressed	-10.5129
▁homework	-10.5129
cult	-10.513
▁tart	-10.5131
▁condo	-10.5133
▁ranch	-10.5135
▁solo	-10.5138
▁adopted	-10.5141
▁sharply	-10.5143
▁sato	-10.5144
▁apply	-10.5145
▁convinced	-10.5146
▁spoken	-10.5146
▁dearest	-10.5147
donna	-10.5148
▁min	-10.5149
▁emma	-10.5151
▁tr	-10.5153
▁robin	-10.5154
▁witnesses	-10.5154
▁parish	-10.5158
▁separated	-10.5161
▁toes	-10.5161
▁wounded	-10.5171
▁requesting	-10.5172
▁deny	-10.5173
▁jesse	-10.5178
▁released	-10.5182
▁jane	-10.5188
▁horny	-10.5192
stain	-10.5194
▁yale	-10.5195
▁normally	-10.5197
▁ana	-10.5201
▁ruined	-10.5206
▁passes	-10.5208
har	-10.5214
▁introduced	-10.5215
▁suffered	-10.5227
▁concentrate	-10.5237
▁when	-10.524
▁fairy	-10.5247
▁manny	-10.5251
▁net	-10.5253
▁vend	-10.5254
▁hooker	-10.5262
▁forest	-10.5274
▁waves	-10.5275
▁emotions	-10.5279
▁lao	-10.5279
▁wayne	-10.5287
▁scientists	-10.5301
▁toys	-10.5303
tick	-10.5304
▁reaching	-10.5306
▁suite	-10.5308
▁stripe	-10.5314
▁considered	-10.5316
▁riding	-10.5339
ada	-10.5354
▁chips	-10.5359
cut	-10.5362
▁joined	-10.5391
▁messed	-10.5416
ito	-10.5418
▁ny	-10.5462
▁marking	-10.5462
▁mel	-10.5477
▁pushing	-10.5486
▁kicking	-10.5512
gram	-10.5515
nut	-10.5519
▁psyche	-10.5529
▁patch	-10.5568
▁poet	-10.5598
hill	-10.5607
▁yards	-10.5611
reader	-10.5626
▁skill	-10.5638
▁bug	-10.566
▁flower	-10.5683
▁hahaha	-10.5694
itch	-10.574
▁bio	-10.5827
▁disturb	-10.5831
▁moo	-10.5833
▁aj	-10.5899
icky	-10.5899
▁convince	-10.5906
alian	-10.5908
▁exten	-10.5913
▁luc	-10.5913
▁suff	-10.5916
keep	-10.5921
mark	-10.5924
play	-10.5926
phone	-10.5929
▁exhibit	-10.5937
▁institution	-10.594
▁invest	-10.5941
▁harass	-10.5944
▁flirt	-10.5944
▁inject	-10.5944
▁surrender	-10.5944
▁trespass	-10.5944
▁virtu	-10.5944
▁volunteer	-10.5944
ograph	-10.5944
▁achieve	-10.5944
▁after	-10.5944
▁alcohol	-10.5944
▁arrangement	-10.5944
▁authorities	-10.5944
▁babysitter	-10.5944
▁caitlyn	-10.5944
▁capital	-10.5944
▁cemetery	-10.5944
▁chemical	-10.5944
▁chowdhury	-10.5944
▁clamoring	-10.5944
▁colleague	-10.5944
▁concert	-10.5944
▁conscience	-10.5944
▁crisis	-10.5944
▁district	-10.5944
▁elbow	-10.5944
▁elephant	-10.5944
▁elliott	-10.5944
▁euros	-10.5944
▁explanation	-10.5944
▁fabulous	-10.5944
▁ferguson	-10.5944
▁giggling	-10.5944
▁grimsby	-10.5944
▁guitar	-10.5944
▁hubba	-10.5944
▁inherit	-10.5944
▁instant	-10.5944
▁insult	-10.5944
▁investigator	-10.5944
▁journey	-10.5944
▁karras	-10.5944
▁kazakhstan	-10.5944
▁kendall	-10.5944
▁magnus	-10.5944
▁method	-10.5944
▁morahan	-10.5944
▁perimeter	-10.5944
▁podcast	-10.5944
▁prescription	-10.5944
▁principle	-10.5944
▁proposal	-10.5944
▁protocol	-10.5944
▁residence	-10.5944
▁ritual	-10.5944
▁scenario	-10.5944
▁shouid	-10.5944
▁stewart	-10.5944
▁surgery	-10.5944
▁suspicious	-10.5944
▁technique	-10.5944
▁throughout	-10.5944
▁treasure	-10.5944
▁unusual	-10.5944
▁wednesday	-10.5944
▁yvonne	-10.5944
▁abbess	-10.5944
▁ashamed	-10.5944
▁negro	-10.5944
▁quality	-10.5944
▁declan	-10.5944
▁dignity	-10.5944
▁niece	-10.5944
▁eternal	-10.5944
▁intend	-10.5944
▁tolerate	-10.5944
▁irene	-10.5944
▁marchino	-10.5944
▁pump	-10.5944
▁dread	-10.5944
▁tobin	-10.5944
▁connie	-10.5944
▁gallery	-10.5944
▁mathias	-10.5944
▁brodie	-10.5944
▁modal	-10.5944
▁series	-10.5944
▁infirmary	-10.5944
▁yelp	-10.5944
▁casper	-10.5944
▁hysterical	-10.5944
▁tools	-10.5944
▁reaiiy	-10.5944
▁collar	-10.5944
▁lottery	-10.5944
▁network	-10.5944
▁ruddy	-10.5944
▁flashlight	-10.5944
▁doug	-10.5944
▁todd	-10.5945
▁mortal	-10.5945
▁raid	-10.5945
▁exclusive	-10.5945
▁harris	-10.5945
izing	-10.5945
▁assistance	-10.5945
▁whys	-10.5945
▁sobs	-10.5945
▁rapid	-10.5945
▁glow	-10.5946
▁tess	-10.5946
▁sarnt	-10.5946
▁couidnt	-10.5946
▁jonas	-10.5946
▁families	-10.5946
▁batteries	-10.5947
▁swimming	-10.5947
▁comic	-10.5947
▁wiley	-10.5947
▁massive	-10.5947
▁floorboard	-10.5947
▁stitch	-10.5948
▁titty	-10.5948
▁steam	-10.5948
▁duke	-10.5948
▁shaking	-10.5948
▁clapping	-10.5949
▁charity	-10.5949
▁sonmi	-10.5949
▁chatting	-10.5949
▁facility	-10.595
▁aka	-10.595
izz	-10.595
▁stream	-10.595
▁merk	-10.595
▁task	-10.5951
▁andrea	-10.5951
▁flush	-10.5951
reak	-10.5951
▁peterson	-10.5952
▁popping	-10.5952
▁settlement	-10.5952
▁kung	-10.5953
▁satan	-10.5953
▁expression	-10.5953
▁danielle	-10.5954
▁shack	-10.5954
▁duck	-10.5955
▁bail	-10.5957
▁bruno	-10.5959
▁embarrassed	-10.5959
▁jaw	-10.5962
▁applauding	-10.5963
▁pile	-10.5964
▁vice	-10.5965
itating	-10.5965
ector	-10.5967
▁directly	-10.597
▁discussion	-10.5971
▁faintly	-10.5971
▁christian	-10.5971
▁straining	-10.5973
▁threatening	-10.5973
▁temper	-10.5974
▁properly	-10.5974
▁brun	-10.5976
▁iet	-10.5977
post	-10.5978
▁vet	-10.5979
▁radi	-10.598
▁particularly	-10.5981
for	-10.5988
▁refused	-10.5989
▁robb	-10.5991
▁ize	-10.5991
▁matches	-10.5993
▁naturally	-10.5993
▁robbed	-10.5994
▁successful	-10.5996
▁heroin	-10.5999
▁healthy	-10.6008
▁sixth	-10.6012
▁germany	-10.6012
▁carson	-10.602
▁sandy	-10.6021
▁stopping	-10.6025
▁dock	-10.6036
▁lane	-10.6037
▁designed	-10.6038
▁assumed	-10.6043
▁whoot	-10.606
▁scaring	-10.607
▁var	-10.6074
▁studying	-10.608
▁prop	-10.609
▁dumped	-10.6092
talk	-10.6125
▁coin	-10.6127
▁packed	-10.6137
▁ricky	-10.6142
▁deserved	-10.616
▁cocking	-10.6161
▁stealing	-10.6161
▁screwing	-10.6184
▁financ	-10.6192
▁organize	-10.621
▁rig	-10.6215
▁mountains	-10.6236
▁formal	-10.6239
▁whin	-10.6242
▁dish	-10.6245
ote	-10.6254
▁highly	-10.6292
▁returned	-10.6307
▁stripes	-10.6308
▁prayers	-10.6309
▁neighbors	-10.632
▁nor	-10.6354
▁cave	-10.6372
▁dreamed	-10.6403
▁culture	-10.6406
▁musical	-10.6407
▁cracker	-10.642
▁gall	-10.645
▁domin	-10.647
▁dreaming	-10.6502
bar	-10.6503
▁whip	-10.6524
▁mountain	-10.6543
▁folk	-10.6552
▁gent	-10.6555
▁fianc	-10.6652
▁imagin	-10.6697
▁tale	-10.6707
rent	-10.6748
vious	-10.6781
▁jess	-10.6794
▁chu	-10.6802
▁mix	-10.6814
▁guilt	-10.6828
▁incredibl	-10.683
▁prim	-10.6838
born	-10.6839
point	-10.6841
▁qui	-10.6846
obby	-10.685
▁attract	-10.685
▁detect	-10.685
▁couid	-10.6851
▁realise	-10.6852
▁gentle	-10.6853
logy	-10.6853
▁deposit	-10.6853
▁platform	-10.6853
▁select	-10.6853
▁aurelia	-10.6853
▁authority	-10.6853
▁autopsy	-10.6853
▁average	-10.6853
▁babbitt	-10.6853
▁beloved	-10.6853
▁bollocks	-10.6853
▁breast	-10.6853
▁brett	-10.6853
▁campaign	-10.6853
▁candidate	-10.6853
▁cockroach	-10.6853
▁conservative	-10.6853
▁crunch	-10.6853
▁database	-10.6853
▁dolphins	-10.6853
▁entertainer	-10.6853
▁eurostream	-10.6853
▁explode	-10.6853
▁frobisher	-10.6853
▁glanton	-10.6853
▁gloves	-10.6853
▁increase	-10.6853
▁insects	-10.6853
▁inspiration	-10.6853
▁katherine	-10.6853
▁knives	-10.6853
▁measure	-10.6853
▁medevac	-10.6853
▁misunderstand	-10.6853
▁orphan	-10.6853
▁pathfinder	-10.6853
▁pierrot	-10.6853
▁preserve	-10.6853
▁purchase	-10.6853
▁scissors	-10.6853
▁someday	-10.6853
▁surgeon	-10.6853
▁testimony	-10.6853
▁anyhow	-10.6853
▁attitude	-10.6853
▁bergen	-10.6853
▁bronson	-10.6853
▁chorus	-10.6853
▁chunk	-10.6853
▁clown	-10.6853
▁committee	-10.6853
▁cyrus	-10.6853
▁herald	-10.6853
▁jessica	-10.6853
▁overwhelm	-10.6853
▁ronnie	-10.6853
▁stegman	-10.6853
▁wealth	-10.6853
▁worship	-10.6853
▁afterwards	-10.6853
▁rakel	-10.6853
▁tragic	-10.6853
▁anytime	-10.6853
▁calder	-10.6853
▁harvey	-10.6853
▁munro	-10.6853
▁supply	-10.6853
▁darien	-10.6853
▁debbie	-10.6853
▁declare	-10.6853
▁lutz	-10.6853
▁borat	-10.6853
▁petrie	-10.6853
▁bowden	-10.6853
▁buddies	-10.6853
▁tennis	-10.6853
▁connor	-10.6853
▁stabbed	-10.6853
▁baked	-10.6853
▁ankle	-10.6853
▁tanner	-10.6853
▁reveal	-10.6853
▁cruces	-10.6853
▁lionel	-10.6853
▁aspro	-10.6853
▁hollis	-10.6853
▁backyard	-10.6853
▁propose	-10.6854
▁solara	-10.6854
▁hesitate	-10.6854
▁maniac	-10.6854
▁kungfu	-10.6854
▁mankind	-10.6854
▁baylor	-10.6854
▁parole	-10.6854
▁steak	-10.6854
▁missouri	-10.6854
▁entrance	-10.6854
▁canada	-10.6854
▁francoise	-10.6854
▁sahar	-10.6854
▁unconscious	-10.6854
▁impressive	-10.6854
▁alli	-10.6854
▁feast	-10.6855
▁denial	-10.6855
▁register	-10.6855
▁rapist	-10.6855
▁polite	-10.6855
▁supper	-10.6855
▁runner	-10.6855
▁rattle	-10.6855
▁appearance	-10.6855
▁troop	-10.6855
▁crank	-10.6856
▁seattle	-10.6856
▁chiming	-10.6856
▁buff	-10.6856
▁feedback	-10.6856
▁danny	-10.6857
▁technology	-10.6857
▁upside	-10.6857
▁concept	-10.6857
▁josh	-10.6857
▁igby	-10.6857
▁michelle	-10.6857
▁pony	-10.6857
▁selfish	-10.6858
▁chasing	-10.6858
▁privilege	-10.6858
▁effective	-10.6858
▁shelley	-10.6858
▁firefall	-10.6859
▁aboard	-10.6859
▁territory	-10.6859
mail	-10.6859
▁medication	-10.686
fall	-10.686
▁cruel	-10.686
▁whooping	-10.6862
▁wore	-10.6862
▁biii	-10.6862
▁vital	-10.6863
box	-10.6863
▁franco	-10.6863
▁brace	-10.6864
▁copper	-10.6864
▁salary	-10.6864
▁slight	-10.6864
▁sully	-10.6865
▁sync	-10.6865
▁earl	-10.6867
▁alley	-10.6867
▁bov	-10.6868
▁hatch	-10.6868
▁thang	-10.6869
▁duh	-10.6871
▁toro	-10.6871
▁personality	-10.6872
▁classical	-10.6873
▁native	-10.6875
▁clearance	-10.6876
▁stigman	-10.6877
▁threatened	-10.688
▁suggestion	-10.6882
▁charm	-10.6882
▁shave	-10.6884
▁abandoned	-10.6884
▁gage	-10.6885
▁advised	-10.6888
▁parade	-10.6888
▁reasonable	-10.6888
▁clap	-10.689
▁fist	-10.6893
▁deck	-10.6895
▁straighten	-10.6896
▁toss	-10.69
▁restore	-10.6902
▁shithole	-10.6902
▁breakup	-10.6908
ush	-10.6909
▁useful	-10.6911
uous	-10.6916
▁pole	-10.6924
▁thee	-10.6927
▁cable	-10.6927
▁kiiier	-10.6927
▁cheated	-10.6929
▁confessed	-10.6933
▁proven	-10.6936
▁delivery	-10.6936
▁scotty	-10.6938
▁cursed	-10.694
▁pint	-10.6942
▁forty	-10.6945
▁this	-10.695
▁blown	-10.6962
▁inch	-10.6962
▁weed	-10.6982
▁busted	-10.6995
▁hump	-10.7004
ibi	-10.701
▁float	-10.7034
▁belly	-10.7054
▁posted	-10.7055
▁combat	-10.7073
▁encourage	-10.7073
▁pretending	-10.7074
▁seb	-10.7075
▁painter	-10.71
▁exclaims	-10.7103
▁tube	-10.7105
▁melt	-10.7105
▁charged	-10.7109
▁ditch	-10.7124
about	-10.7152
▁cooked	-10.719
▁protected	-10.7193
▁tracking	-10.7222
▁mil	-10.7224
▁terr	-10.7257
▁testing	-10.7267
▁zoo	-10.7274
▁mont	-10.7275
oose	-10.7284
lock	-10.7305
▁mul	-10.7341
▁kin	-10.7353
pad	-10.7356
▁poe	-10.7359
▁chip	-10.7393
▁shown	-10.7397
▁roman	-10.7433
▁unto	-10.7434
▁rey	-10.746
▁document	-10.7547
▁pill	-10.7582
▁hor	-10.7603
berg	-10.7654
ford	-10.7683
▁sar	-10.769
while	-10.7693
nova	-10.7725
▁defen	-10.7751
▁bargain	-10.7792
ole	-10.7798
▁fashion	-10.7809
▁advise	-10.7815
ille	-10.7824
▁junk	-10.7826
mouth	-10.7833
yearold	-10.7833
called	-10.7836
▁ani	-10.784
▁flu	-10.7844
▁sittin	-10.7844
▁affect	-10.7846
▁corrupt	-10.7846
▁counsel	-10.7847
▁occasion	-10.7852
▁philip	-10.7852
▁desi	-10.7852
relevant	-10.7853
▁almighty	-10.7853
▁alvarez	-10.7853
▁amateur	-10.7853
▁anderson	-10.7853
▁annoying	-10.7853
▁apologies	-10.7853
▁bachelor	-10.7853
▁baltimore	-10.7853
▁breach	-10.7853
▁brooklyn	-10.7853
▁capuano	-10.7853
▁centuries	-10.7853
▁clemens	-10.7853
▁commercial	-10.7853
▁communicate	-10.7853
▁deflect	-10.7853
▁disguise	-10.7853
▁engagement	-10.7853
▁equipment	-10.7853
▁evacuate	-10.7853
▁exchange	-10.7853
▁gamble	-10.7853
▁halsey	-10.7853
▁inaudible	-10.7853
▁industry	-10.7853
▁infection	-10.7853
▁jersey	-10.7853
▁kmart	-10.7853
▁library	-10.7853
▁minimum	-10.7853
▁mohawk	-10.7853
▁monitor	-10.7853
▁obligat	-10.7853
▁opposite	-10.7853
▁oscar	-10.7853
▁politician	-10.7853
▁politics	-10.7853
▁refrigerator	-10.7853
▁resources	-10.7853
▁satellite	-10.7853
▁sausage	-10.7853
▁shakespeare	-10.7853
▁slocumb	-10.7853
▁squawking	-10.7853
▁structure	-10.7853
▁studio	-10.7853
▁survival	-10.7853
▁terrorist	-10.7853
▁thirteen	-10.7853
▁toothpicks	-10.7853
▁toxic	-10.7853
▁unhappy	-10.7853
▁vengeance	-10.7853
▁vocalizing	-10.7853
▁vulnerable	-10.7853
▁withdraw	-10.7853
▁analyst	-10.7853
▁companies	-10.7853
▁crooked	-10.7853
▁erika	-10.7853
▁essential	-10.7853
▁identify	-10.7853
▁jazz	-10.7853
▁knight	-10.7853
▁leash	-10.7853
▁magda	-10.7853
▁mutual	-10.7853
▁noelle	-10.7853
▁peopie	-10.7853
▁struck	-10.7853
▁tricia	-10.7853
▁april	-10.7853
▁cheque	-10.7853
▁dunno	-10.7853
▁scope	-10.7853
▁smack	-10.7853
▁stereo	-10.7853
▁bleep	-10.7853
▁benji	-10.7853
▁chloe	-10.7853
▁offsho	-10.7853
▁warrior	-10.7853
▁profit	-10.7853
▁appeal	-10.7853
▁glory	-10.7853
▁turtle	-10.7853
▁assaad	-10.7853
▁depth	-10.7853
▁sacha	-10.7853
▁erwin	-10.7853
▁barrel	-10.7853
▁stiii	-10.7853
▁jefe	-10.7853
▁possibility	-10.7853
▁ryan	-10.7853
▁elvis	-10.7853
▁haji	-10.7853
▁franklin	-10.7853
▁barrett	-10.7853
▁puzzle	-10.7853
▁grid	-10.7853
▁rudy	-10.7853
▁adele	-10.7853
▁pork	-10.7853
▁examin	-10.7853
▁breed	-10.7853
▁socks	-10.7853
▁medal	-10.7853
▁oslo	-10.7854
▁freezing	-10.7854
▁basis	-10.7854
▁bubble	-10.7854
▁piggy	-10.7854
▁bolt	-10.7854
▁lisa	-10.7854
▁onions	-10.7854
▁download	-10.7854
▁freddy	-10.7854
▁powder	-10.7854
▁commence	-10.7854
▁marqui	-10.7854
▁delay	-10.7854
▁invitation	-10.7855
▁organization	-10.7855
▁identity	-10.7855
▁pipeline	-10.7855
▁prosecutor	-10.7855
▁begging	-10.7855
▁priority	-10.7855
▁mummy	-10.7856
▁solid	-10.7856
▁adjust	-10.7856
▁jessup	-10.7856
▁arrow	-10.7856
▁choke	-10.7856
▁reflection	-10.7856
▁investment	-10.7857
▁motherfucking	-10.7857
▁jeff	-10.7857
martial	-10.7857
▁reaction	-10.7857
▁creative	-10.7857
▁muff	-10.7857
▁university	-10.7857
▁virginia	-10.7857
▁intern	-10.7858
▁starina	-10.7858
▁bingo	-10.7858
▁decade	-10.7858
intensi	-10.7858
▁mutt	-10.7858
▁confirmation	-10.7858
▁admiral	-10.7858
▁acid	-10.7858
fight	-10.7858
▁abide	-10.7859
▁typing	-10.7859
▁appropriate	-10.7859
▁bonus	-10.7859
▁courthouse	-10.786
▁regardless	-10.786
▁greve	-10.786
▁puke	-10.786
▁whooshes	-10.786
titude	-10.786
▁identified	-10.7861
▁gook	-10.7862
▁thisll	-10.7862
▁hopefully	-10.7862
▁recommendation	-10.7862
▁mason	-10.7863
▁management	-10.7863
▁rodeo	-10.7863
▁technically	-10.7864
▁confession	-10.7865
▁related	-10.7865
▁diary	-10.7865
▁cries	-10.7866
▁sandman	-10.7867
▁gre	-10.7868
wind	-10.7868
▁headache	-10.787
▁heath	-10.787
▁winning	-10.787
▁sandwiches	-10.7872
▁pence	-10.7873
▁chile	-10.7873
▁battery	-10.7873
▁teenager	-10.7875
▁bedtime	-10.7875
▁chairman	-10.7876
▁via	-10.7877
▁wildman	-10.7878
▁gru	-10.7882
▁kiddo	-10.7884
▁lame	-10.7885
▁barbie	-10.7886
▁possessed	-10.7888
▁role	-10.7889
oof	-10.7892
▁spell	-10.7894
▁luca	-10.7896
▁sore	-10.79
▁extend	-10.79
▁shrieking	-10.7902
▁ek	-10.7902
▁atti	-10.7902
▁mai	-10.7904
▁debt	-10.7904
▁gig	-10.7904
▁grasse	-10.7907
file	-10.7907
▁metro	-10.7912
eith	-10.7913
▁officially	-10.7914
▁bargaining	-10.7915
five	-10.7915
inister	-10.7917
▁requested	-10.7921
▁assist	-10.7921
▁stare	-10.7923
craft	-10.7926
▁dyer	-10.7927
▁server	-10.7928
▁internal	-10.793
▁sniffing	-10.7934
▁bitter	-10.795
ould	-10.7951
▁dieter	-10.7952
▁dolly	-10.7953
▁inquir	-10.7953
▁bann	-10.7956
▁boxes	-10.7959
▁connected	-10.7964
▁pic	-10.7972
▁amor	-10.7977
▁stat	-10.798
▁entirely	-10.7988
▁fisher	-10.7989
▁blocking	-10.7998
rence	-10.7998
▁mistaken	-10.8003
▁shy	-10.8037
▁booge	-10.8053
▁oni	-10.8058
▁shorter	-10.8067
▁accepted	-10.8093
▁broker	-10.8093
▁chan	-10.8101
▁bare	-10.8102
▁ridge	-10.812
▁knocked	-10.8128
▁filed	-10.8142
▁walkie	-10.8186
▁jar	-10.8191
will	-10.8362
ison	-10.8379
▁pope	-10.8385
▁spec	-10.839
nnies	-10.8401
▁mona	-10.8408
▁stag	-10.8409
▁mari	-10.8411
mont	-10.8422
▁rubb	-10.8425
utch	-10.8451
▁sigh	-10.8545
year	-10.8584
▁valu	-10.8597
▁cough	-10.8598
▁riva	-10.8616
ature	-10.8636
▁towel	-10.8656
▁exclaim	-10.8664
▁feckin	-10.8682
eight	-10.8696
▁prep	-10.87
▁fade	-10.8722
▁prob	-10.8822
▁dim	-10.8842
▁sten	-10.8864
handed	-10.8883
▁scrap	-10.8903
▁despi	-10.891
▁beck	-10.8912
▁invent	-10.8913
▁betray	-10.8913
▁involv	-10.8915
▁bald	-10.8916
▁franc	-10.8918
▁beef	-10.8924
▁crow	-10.8933
▁fran	-10.8935
▁trail	-10.8936
job	-10.8941
school	-10.8943
dollar	-10.8943
bound	-10.8944
foot	-10.8944
piece	-10.8946
▁weigh	-10.8947
▁bark	-10.8951
▁tuck	-10.8952
▁recommend	-10.8954
▁bore	-10.8955
bble	-10.8959
▁fabric	-10.8962
▁pow	-10.8964
▁lyin	-10.8964
▁diagnos	-10.8964
▁forbid	-10.8964
▁manipulat	-10.8964
▁maximum	-10.8964
▁pepper	-10.8964
▁airplane	-10.8964
▁albany	-10.8964
▁amount	-10.8964
▁apology	-10.8964
▁arcana	-10.8964
▁australia	-10.8964
▁awkward	-10.8964
▁beignet	-10.8964
▁belief	-10.8964
▁beneath	-10.8964
▁blossom	-10.8964
▁britney	-10.8964
▁broccoli	-10.8964
▁casserole	-10.8964
▁celebrating	-10.8964
▁cincinnati	-10.8964
▁conflict	-10.8964
▁confusing	-10.8964
▁consequences	-10.8964
▁coordinate	-10.8964
▁description	-10.8964
▁destiny	-10.8964
▁distraction	-10.8964
▁dummy	-10.8964
▁eagle	-10.8964
▁election	-10.8964
▁elegant	-10.8964
▁engaged	-10.8964
▁enormous	-10.8964
▁exploding	-10.8964
▁explosive	-10.8964
▁fairfax	-10.8964
▁fantasy	-10.8964
▁federal	-10.8964
▁forensic	-10.8964
▁frustrat	-10.8964
▁gardner	-10.8964
▁glenna	-10.8964
▁handcuffs	-10.8964
▁harrigan	-10.8964
▁helmet	-10.8964
▁immortal	-10.8964
▁intelligent	-10.8964
▁itaiian	-10.8964
▁kersek	-10.8964
▁kirby	-10.8964
▁laundry	-10.8964
▁leather	-10.8964
▁lincoln	-10.8964
▁lindsey	-10.8964
▁litvenko	-10.8964
▁luisa	-10.8964
▁marzzone	-10.8964
▁michigan	-10.8964
▁mockingbird	-10.8964
▁murphy	-10.8964
▁naughty	-10.8964
▁nigga	-10.8964
▁ottersen	-10.8964
▁platoon	-10.8964
▁prophet	-10.8964
▁puppet	-10.8964
▁quincy	-10.8964
▁resolve	-10.8964
▁retainer	-10.8964
▁sagdiyev	-10.8964
▁schenectady	-10.8964
▁seduce	-10.8964
▁sidewalk	-10.8964
▁solution	-10.8964
▁someplace	-10.8964
▁superintendent	-10.8964
▁surrounded	-10.8964
▁tshirt	-10.8964
▁ultimate	-10.8964
▁underground	-10.8964
▁undress	-10.8964
▁walenski	-10.8964
▁whoohoo	-10.8964
▁yogurt	-10.8964
▁adorable	-10.8964
▁depression	-10.8964
▁infinit	-10.8964
▁penthouse	-10.8964
▁rahil	-10.8964
▁thread	-10.8964
▁tiffany	-10.8964
▁adapt	-10.8964
▁addition	-10.8964
▁baldini	-10.8964
▁daffy	-10.8964
▁fizel	-10.8964
▁maintain	-10.8964
▁myrtle	-10.8964
▁relative	-10.8964
▁sauce	-10.8964
▁stroke	-10.8964
▁violation	-10.8964
▁balance	-10.8964
▁giggle	-10.8964
▁observe	-10.8964
▁scoot	-10.8964
▁clerk	-10.8964
▁kofi	-10.8964
▁skirt	-10.8964
▁motel	-10.8964
▁clich	-10.8964
▁grill	-10.8964
▁neighbourhood	-10.8964
▁superior	-10.8964
▁define	-10.8964
▁protest	-10.8964
▁cartoon	-10.8964
▁daryl	-10.8964
▁pursue	-10.8964
▁briefcase	-10.8964
▁psychological	-10.8964
▁burst	-10.8964
▁instructions	-10.8964
▁bennie	-10.8964
▁personnel	-10.8964
▁stray	-10.8964
▁activate	-10.8964
▁automat	-10.8964
▁temperature	-10.8964
▁flick	-10.8964
▁heights	-10.8964
▁judging	-10.8964
▁itsits	-10.8964
▁aisle	-10.8964
▁condoms	-10.8965
▁liable	-10.8965
▁blares	-10.8965
▁astro	-10.8965
▁taxi	-10.8965
▁confidential	-10.8965
▁scholarship	-10.8965
▁josephine	-10.8965
▁ambition	-10.8965
▁droning	-10.8965
▁ceo	-10.8965
▁lime	-10.8965
▁sookie	-10.8965
▁consist	-10.8965
▁moans	-10.8965
▁harold	-10.8965
▁kettle	-10.8965
▁masterpiece	-10.8966
▁patrick	-10.8966
▁profile	-10.8966
▁rubbish	-10.8966
▁specifically	-10.8966
▁groceries	-10.8966
▁carved	-10.8966
▁zachry	-10.8966
▁tele	-10.8967
▁rode	-10.8967
▁donut	-10.8967
▁tiff	-10.8967
four	-10.8967
▁skinny	-10.8967
▁blanket	-10.8967
▁youyou	-10.8967
▁stanley	-10.8967
▁lemon	-10.8967
▁fabi	-10.8968
▁harassment	-10.8968
▁equi	-10.8968
▁romance	-10.8968
▁disappointment	-10.8969
▁sharing	-10.8969
▁jock	-10.897
▁grip	-10.897
▁gaz	-10.897
▁ripping	-10.897
▁mainland	-10.897
▁hallway	-10.8971
▁classified	-10.8971
▁underage	-10.8971
▁electrical	-10.8971
▁soak	-10.8971
▁twat	-10.8971
▁redwood	-10.8971
▁acceptance	-10.8971
▁bead	-10.8971
▁cabinet	-10.8972
▁noah	-10.8973
▁amongst	-10.8974
▁nearby	-10.8974
▁tsk	-10.8976
▁ruth	-10.8976
▁religion	-10.8977
▁comon	-10.8977
▁driveway	-10.8979
▁suspended	-10.8979
▁aight	-10.8979
▁allen	-10.898
▁weakness	-10.898
▁loop	-10.8981
▁zo	-10.8983
▁faithful	-10.8983
▁dried	-10.8983
▁portal	-10.8984
▁rustles	-10.8984
▁bushes	-10.8985
▁deai	-10.8985
▁graduated	-10.8986
▁booth	-10.8986
▁brief	-10.8987
rged	-10.8988
▁clothing	-10.899
▁auntie	-10.8991
▁shaw	-10.8993
▁plead	-10.8994
ccu	-10.8994
▁rowin	-10.8998
terior	-10.9006
▁friendship	-10.9007
▁ants	-10.9007
▁richie	-10.9009
▁dine	-10.9011
dale	-10.9012
▁balder	-10.9014
▁betrayed	-10.9016
▁invented	-10.9016
▁armor	-10.9016
▁showtime	-10.9016
▁pinky	-10.9018
▁cheaper	-10.9019
▁diego	-10.902
▁scraping	-10.9026
▁tender	-10.9029
▁marie	-10.9031
▁actor	-10.9033
▁disturbed	-10.9034
▁payment	-10.9039
▁ross	-10.904
▁boney	-10.9043
▁whining	-10.9046
▁disturbing	-10.9049
ofthe	-10.9059
list	-10.9064
▁vol	-10.9068
▁wired	-10.907
▁licky	-10.907
▁owl	-10.9072
come	-10.9074
▁spine	-10.9088
but	-10.909
▁yah	-10.9093
▁blocked	-10.9099
▁traded	-10.9099
▁burnt	-10.9109
▁oneill	-10.9111
▁fairly	-10.9116
pensive	-10.9119
▁forger	-10.9125
itsy	-10.913
▁dda	-10.9149
▁include	-10.9153
▁beard	-10.9157
icles	-10.9157
dependent	-10.9163
▁smarter	-10.9164
▁thug	-10.9173
ency	-10.9176
▁foundation	-10.9192
▁easter	-10.9202
more	-10.9217
pack	-10.9225
▁bev	-10.923
▁rd	-10.9288
▁supervis	-10.9314
▁stash	-10.9346
pitched	-10.9347
▁perv	-10.9354
▁impression	-10.9373
ashes	-10.9379
tches	-10.9394
▁leo	-10.9423
▁mist	-10.9447
▁romania	-10.9486
orah	-10.9498
▁nu	-10.95
▁rap	-10.9507
star	-10.9515
magn	-10.9517
tz	-10.9556
lier	-10.9566
▁wal	-10.9571
▁til	-10.9587
▁depend	-10.9688
▁prior	-10.9792
▁rocket	-10.9804
▁sati	-10.9827
▁scientist	-10.9905
oca	-10.9907
▁exhale	-10.9913
▁parent	-10.9921
▁norm	-10.9925
reme	-10.9934
▁here	-10.997
▁accus	-10.9975
ifted	-11.0068
▁ron	-11.0079
▁toy	-11.0084
▁christo	-11.011
▁nic	-11.0124
▁bru	-11.0148
▁shriek	-11.0153
▁adopt	-11.0164
▁bunk	-11.0171
ridge	-11.0189
▁custom	-11.0189
▁puff	-11.0191
▁chuck	-11.0192
found	-11.0192
▁definite	-11.0196
▁absolute	-11.0196
▁batter	-11.0196
▁africa	-11.0199
▁religio	-11.02
▁barri	-11.0201
kick	-11.0204
▁leavin	-11.0205
▁darlin	-11.0205
▁tradition	-11.0205
▁russel	-11.0206
▁symbol	-11.0207
ification	-11.0211
▁loyal	-11.0212
▁employ	-11.0213
▁occur	-11.0213
▁blank	-11.0214
ologist	-11.0214
▁mmmmmm	-11.0214
▁accomplish	-11.0214
▁congress	-11.0214
▁contribut	-11.0214
▁distress	-11.0214
▁oxygen	-11.0214
▁refuge	-11.0214
▁abducted	-11.0214
▁activity	-11.0214
▁aggressive	-11.0214
▁amnesia	-11.0214
▁anticipate	-11.0214
▁appetite	-11.0214
▁barbecue	-11.0214
▁behalf	-11.0214
▁britgaz	-11.0214
▁burden	-11.0214
▁caldwell	-11.0214
▁celebration	-11.0214
▁celebrit	-11.0214
▁chubby	-11.0214
▁clarissa	-11.0214
▁cocksucker	-11.0214
▁coconut	-11.0214
▁colonial	-11.0214
▁columbia	-11.0214
▁compensation	-11.0214
▁conduct	-11.0214
▁confidence	-11.0214
▁crimson	-11.0214
▁democra	-11.0214
▁dipshit	-11.0214
▁disagree	-11.0214
▁dismissed	-11.0214
▁draft	-11.0214
▁enforcement	-11.0214
▁erection	-11.0214
▁etienne	-11.0214
▁evolve	-11.0214
▁exhusband	-11.0214
▁exorcism	-11.0214
▁faggot	-11.0214
▁fugitive	-11.0214
▁georgie	-11.0214
▁gypsy	-11.0214
▁headquarters	-11.0214
▁ieft	-11.0214
▁iieutenant	-11.0214
▁incarcerated	-11.0214
▁indicate	-11.0214
▁indulge	-11.0214
▁insanity	-11.0214
▁inspire	-11.0214
▁jungle	-11.0214
▁katharine	-11.0214
▁kennedi	-11.0214
▁kobritz	-11.0214
▁league	-11.0214
▁length	-11.0214
▁libby	-11.0214
▁loneliness	-11.0214
▁luggage	-11.0214
▁lynda	-11.0214
▁maelstrom	-11.0214
▁magnificent	-11.0214
▁mechanic	-11.0214
▁metaphor	-11.0214
▁militia	-11.0214
▁necessarily	-11.0214
▁niobe	-11.0214
▁pajamas	-11.0214
▁parrish	-11.0214
▁patriot	-11.0214
▁prague	-11.0214
▁pronounce	-11.0214
▁prostitution	-11.0214
▁resnick	-11.0214
▁retarded	-11.0214
▁salvatore	-11.0214
▁schreber	-11.0214
▁selfdefense	-11.0214
▁shampoo	-11.0214
▁similar	-11.0214
▁sizzling	-11.0214
▁strict	-11.0214
▁struggling	-11.0214
▁supplies	-11.0214
▁survivor	-11.0214
▁thirsty	-11.0214
▁tissue	-11.0214
▁tournament	-11.0214
▁unfair	-11.0214
▁vessel	-11.0214
▁welfare	-11.0214
▁whataburger	-11.0214
▁wheezing	-11.0214
▁worries	-11.0214
▁zdorovije	-11.0214
▁audio	-11.0214
▁cellular	-11.0214
▁companion	-11.0214
▁december	-11.0214
▁disorder	-11.0214
▁greece	-11.0214
▁harlem	-11.0214
▁isolate	-11.0214
▁landlord	-11.0214
▁mccann	-11.0214
▁motivat	-11.0214
▁neglect	-11.0214
▁nigger	-11.0214
▁overnight	-11.0214
▁relief	-11.0214
▁solemn	-11.0214
▁tanaka	-11.0214
▁twoshoes	-11.0214
▁visual	-11.0214
▁vodka	-11.0214
▁yaddy	-11.0214
▁arranged	-11.0214
▁clucking	-11.0214
▁javier	-11.0214
▁keister	-11.0214
▁passionate	-11.0214
▁repair	-11.0214
▁savior	-11.0214
▁smear	-11.0214
▁announcement	-11.0214
▁clanking	-11.0214
▁ifyou	-11.0214
▁legacy	-11.0214
▁perrish	-11.0214
▁phase	-11.0214
▁stalker	-11.0214
▁couch	-11.0214
▁samuel	-11.0214
▁stiff	-11.0214
▁wiener	-11.0214
▁hyah	-11.0214
▁lodge	-11.0214
▁disaster	-11.0214
▁meek	-11.0214
▁wagon	-11.0214
▁depressed	-11.0214
▁element	-11.0214
▁lenny	-11.0214
▁wilkes	-11.0214
▁meiks	-11.0214
▁crib	-11.0214
▁settling	-11.0214
▁thick	-11.0214
▁wallace	-11.0214
▁jammed	-11.0214
▁micro	-11.0214
▁zach	-11.0214
▁canvas	-11.0214
▁plastic	-11.0214
cycle	-11.0214
▁error	-11.0214
▁hottest	-11.0214
▁gerry	-11.0214
▁peasant	-11.0214
▁taxes	-11.0214
▁causing	-11.0214
▁cricket	-11.0214
▁dragged	-11.0214
▁thump	-11.0214
▁sample	-11.0214
▁headphones	-11.0214
▁bitten	-11.0214
▁molly	-11.0214
▁jerem	-11.0215
▁weiss	-11.0215
▁fragile	-11.0215
▁asap	-11.0215
▁assuming	-11.0215
▁overmeyer	-11.0215
▁bumstead	-11.0215
▁insert	-11.0215
▁baroness	-11.0215
▁occurred	-11.0215
▁terrified	-11.0215
▁sensation	-11.0215
▁peanut	-11.0215
▁owned	-11.0215
▁boobs	-11.0215
▁cooing	-11.0215
▁kidnappe	-11.0215
▁sunset	-11.0215
▁dodg	-11.0215
▁spinoff	-11.0216
▁fond	-11.0216
▁broadway	-11.0216
▁sanford	-11.0216
▁transferred	-11.0216
dolph	-11.0216
▁cuffee	-11.0216
▁francisco	-11.0216
▁furious	-11.0217
▁spike	-11.0217
▁denied	-11.0217
▁genny	-11.0217
▁harvesters	-11.0217
▁blink	-11.0218
▁shook	-11.0218
▁hawk	-11.0218
▁loo	-11.0218
▁rogue	-11.0218
▁chaos	-11.0218
▁penny	-11.0218
▁sniffling	-11.0218
▁booze	-11.0218
▁digging	-11.0219
▁keyboard	-11.0219
▁marvin	-11.0219
▁species	-11.0219
▁sober	-11.0219
▁heii	-11.0219
▁nosy	-11.0219
▁greet	-11.0219
▁grape	-11.022
▁entr	-11.0221
▁estate	-11.0221
▁verde	-11.0221
▁stunt	-11.0221
▁marley	-11.0221
▁lamb	-11.0221
▁inconvenient	-11.0221
▁fag	-11.0222
▁jang	-11.0222
▁ripped	-11.0222
▁horsemen	-11.0222
▁traditional	-11.0223
▁purse	-11.0223
▁guv	-11.0223
▁pierce	-11.0223
▁korean	-11.0225
▁creation	-11.0226
▁ironic	-11.0227
▁deaf	-11.0228
▁cities	-11.0229
▁whatll	-11.0229
▁filthy	-11.023
▁grandson	-11.023
▁urge	-11.0231
▁humor	-11.0231
▁dash	-11.0231
▁reward	-11.0231
▁marine	-11.0232
▁mock	-11.0232
▁pinch	-11.0233
▁compare	-11.0233
▁collection	-11.0234
▁sack	-11.0235
▁tee	-11.024
▁cee	-11.0241
▁daylight	-11.0241
▁rail	-11.0241
▁tighten	-11.0243
▁epic	-11.0243
▁eff	-11.0244
▁soil	-11.0249
▁presentation	-11.0249
▁vest	-11.025
iture	-11.0252
▁aida	-11.0252
▁deported	-11.0252
▁spoiled	-11.0259
▁rug	-11.026
▁miller	-11.0263
▁madame	-11.0264
▁myr	-11.0264
▁discovery	-11.0265
▁wink	-11.0268
▁ahem	-11.0268
▁bunker	-11.0269
▁realised	-11.027
▁beaten	-11.0274
▁despise	-11.0278
▁hotter	-11.0285
▁mixed	-11.0287
ease	-11.0287
▁fallen	-11.0288
▁gse	-11.029
▁meters	-11.0292
▁iive	-11.0299
▁badass	-11.0299
▁accused	-11.03
ault	-11.0302
▁sweater	-11.0302
▁unable	-11.0302
▁wiped	-11.0305
▁legally	-11.0307
▁clay	-11.0307
▁dc	-11.0308
▁cutter	-11.0309
▁mcc	-11.0311
▁slipper	-11.0321
▁gel	-11.033
▁fuckface	-11.0332
▁esp	-11.0335
▁debate	-11.0336
▁swat	-11.0345
▁pier	-11.0349
▁signor	-11.0349
▁admire	-11.0357
▁wage	-11.0357
▁limited	-11.0362
▁dime	-11.0368
▁peaceful	-11.0381
▁lace	-11.0408
lapping	-11.0416
ggy	-11.0451
▁fulfill	-11.0455
state	-11.0502
▁auto	-11.0569
▁whit	-11.0668
▁quo	-11.0733
▁hoo	-11.0861
▁psych	-11.0869
▁cultur	-11.0876
▁semi	-11.0889
▁mere	-11.0941
▁gro	-11.0961
▁ignor	-11.0968
anned	-11.1032
▁emotion	-11.1152
ashi	-11.1176
wah	-11.1276
▁whisper	-11.1282
▁wave	-11.1474
▁tex	-11.1551
▁introduc	-11.157
▁profession	-11.1583
▁possess	-11.1585
▁spoil	-11.1591
▁abandon	-11.1592
▁plea	-11.1595
▁swor	-11.1605
▁excite	-11.1606
where	-11.1611
▁wail	-11.1613
round	-11.1616
guard	-11.1622
sexual	-11.1622
▁immediate	-11.1624
quit	-11.1625
▁translate	-11.1627
self	-11.1627
▁virgi	-11.1629
▁electric	-11.1631
▁mornin	-11.1633
ological	-11.1633
▁rehears	-11.1634
▁inhal	-11.1634
▁olive	-11.1635
▁audit	-11.1636
form	-11.1637
▁smit	-11.1639
▁stamp	-11.1642
▁confident	-11.1642
ization	-11.1642
▁cigar	-11.1642
▁refer	-11.1642
▁calculat	-11.1642
responsibilities	-11.1643
▁abrupt	-11.1643
▁absurd	-11.1643
▁accomplice	-11.1643
▁acknowledg	-11.1643
▁anonymous	-11.1643
▁anxious	-11.1643
▁apologise	-11.1643
▁assigned	-11.1643
▁atmosphere	-11.1643
▁bathtub	-11.1643
▁believing	-11.1643
▁benzevich	-11.1643
▁berlin	-11.1643
▁bonjour	-11.1643
▁boulevard	-11.1643
▁breyer	-11.1643
▁bridesmaids	-11.1643
▁capacity	-11.1643
▁chilcott	-11.1643
▁conspiracy	-11.1643
▁controversial	-11.1643
▁corporate	-11.1643
▁corporation	-11.1643
▁deputy	-11.1643
▁disconnect	-11.1643
▁donnie	-11.1643
▁drakos	-11.1643
▁economic	-11.1643
▁eleonore	-11.1643
▁eleven	-11.1643
▁enlighten	-11.1643
▁envelope	-11.1643
▁environment	-11.1643
▁evaluation	-11.1643
▁evidently	-11.1643
▁evolution	-11.1643
▁exboyfriend	-11.1643
▁felony	-11.1643
▁footprints	-11.1643
▁froze	-11.1643
▁genuine	-11.1643
▁geronimo	-11.1643
▁holocaust	-11.1643
▁humiliate	-11.1643
▁inisherin	-11.1643
▁injured	-11.1643
▁injuries	-11.1643
▁innocence	-11.1643
▁inspection	-11.1643
▁intellect	-11.1643
▁intimidat	-11.1643
▁jordan	-11.1643
▁kidnapping	-11.1643
▁lewyn	-11.1643
▁mademoiselle	-11.1643
▁malaysia	-11.1643
▁nikas	-11.1643
▁obsessed	-11.1643
▁offensive	-11.1643
▁oklahoma	-11.1643
▁opponent	-11.1643
▁orbit	-11.1643
▁philadelphia	-11.1643
▁phillip	-11.1643
▁piranha	-11.1643
▁privacy	-11.1643
▁psychiatrist	-11.1643
▁pudding	-11.1643
▁regiment	-11.1643
▁remorse	-11.1643
▁republican	-11.1643
▁schmuck	-11.1643
▁separation	-11.1643
▁shrimp	-11.1643
▁simpson	-11.1643
▁sonofabitch	-11.1643
▁splendid	-11.1643
▁sponsor	-11.1643
▁sputters	-11.1643
▁squirrel	-11.1643
▁subzero	-11.1643
▁sweden	-11.1643
▁sweeney	-11.1643
▁talbot	-11.1643
▁tobias	-11.1643
▁tourniquet	-11.1643
▁transmission	-11.1643
▁wheelchair	-11.1643
▁xanax	-11.1643
▁yucca	-11.1643
philosoph	-11.1643
▁adventure	-11.1643
▁arrogan	-11.1643
▁auction	-11.1643
▁burke	-11.1643
▁camille	-11.1643
▁chello	-11.1643
▁compassion	-11.1643
▁dammit	-11.1643
▁foxtrot	-11.1643
▁hustle	-11.1643
▁initial	-11.1643
▁install	-11.1643
▁kennedy	-11.1643
▁mammy	-11.1643
▁murmur	-11.1643
▁recruit	-11.1643
▁rumour	-11.1643
▁sacred	-11.1643
▁salvation	-11.1643
▁snoring	-11.1643
▁succeed	-11.1643
▁theories	-11.1643
▁avenge	-11.1643
▁buckingham	-11.1643
▁buick	-11.1643
▁burial	-11.1643
▁caputo	-11.1643
▁cartels	-11.1643
▁composer	-11.1643
▁flavor	-11.1643
▁forbidden	-11.1643
▁groove	-11.1643
▁hawaii	-11.1643
▁horror	-11.1643
▁marcus	-11.1643
▁merilee	-11.1643
▁negotiate	-11.1643
▁permanent	-11.1643
▁premier	-11.1643
▁rainbow	-11.1643
▁razor	-11.1643
▁resort	-11.1643
▁revolution	-11.1643
▁seatbelt	-11.1643
▁sheperd	-11.1643
▁slaughter	-11.1643
▁syringe	-11.1643
▁tigest	-11.1643
▁vagine	-11.1643
▁vibrate	-11.1643
▁griev	-11.1643
▁pecker	-11.1643
▁zulu	-11.1643
▁candles	-11.1643
▁honeymoon	-11.1643
▁judith	-11.1643
▁thumb	-11.1643
▁dojo	-11.1643
▁spiritual	-11.1643
▁tooth	-11.1643
▁piace	-11.1643
▁ammo	-11.1643
▁juicy	-11.1643
▁salander	-11.1643
▁urine	-11.1643
▁chev	-11.1643
▁empti	-11.1643
▁fauc	-11.1643
▁prescient	-11.1643
▁scandal	-11.1643
▁oui	-11.1643
▁promising	-11.1643
▁porch	-11.1643
▁reverse	-11.1643
▁sliding	-11.1643
▁knot	-11.1643
▁sodom	-11.1643
▁oreo	-11.1643
▁contest	-11.1643
▁lafours	-11.1643
▁iko	-11.1643
▁cmb	-11.1643
▁forbes	-11.1643
▁ceii	-11.1643
▁forcing	-11.1643
▁sterling	-11.1643
▁intel	-11.1643
▁spicy	-11.1643
▁trilling	-11.1643
▁nepal	-11.1643
▁coincidence	-11.1643
▁yacht	-11.1643
▁buckner	-11.1643
▁lexy	-11.1643
▁cramp	-11.1643
▁yoshi	-11.1643
▁shaft	-11.1643
▁collings	-11.1643
▁piston	-11.1643
▁angle	-11.1643
▁gunnar	-11.1643
▁telegram	-11.1643
▁cawing	-11.1643
▁torn	-11.1643
▁courtesy	-11.1643
▁doughboy	-11.1643
▁historical	-11.1643
▁reef	-11.1643
phrase	-11.1643
▁honks	-11.1643
▁montana	-11.1643
▁romina	-11.1643
▁gare	-11.1643
▁lecture	-11.1643
▁yawn	-11.1643
▁accura	-11.1643
lady	-11.1643
▁remarkabl	-11.1643
▁therapist	-11.1644
▁executive	-11.1644
▁expir	-11.1644
▁uncas	-11.1644
▁destruction	-11.1644
▁morgue	-11.1644
▁festiv	-11.1644
▁transport	-11.1644
▁confusion	-11.1644
▁norway	-11.1644
▁liberace	-11.1644
▁surface	-11.1644
▁bovver	-11.1645
▁profound	-11.1645
▁dibs	-11.1645
▁graham	-11.1645
▁transmitters	-11.1645
▁resent	-11.1645
▁iggy	-11.1645
▁sketch	-11.1645
▁nuke	-11.1645
▁horseshit	-11.1645
▁riddle	-11.1645
▁fluid	-11.1645
▁francis	-11.1646
▁colour	-11.1646
▁hobby	-11.1646
▁buddh	-11.1646
▁cruise	-11.1646
▁tuning	-11.1647
▁divine	-11.1647
water	-11.1647
▁extraction	-11.1647
▁grasp	-11.1648
▁hissing	-11.1648
▁significant	-11.1648
▁dislike	-11.1648
jugat	-11.1648
▁stuckey	-11.1648
▁irish	-11.1648
▁jonna	-11.1648
▁aaah	-11.1649
▁haircut	-11.1649
▁minus	-11.1649
▁fold	-11.1649
▁operate	-11.165
▁dough	-11.165
▁memo	-11.165
▁virginity	-11.165
▁begun	-11.165
▁entit	-11.165
▁yyou	-11.165
▁courtroom	-11.165
▁baker	-11.1651
▁wasp	-11.1651
▁alimony	-11.1651
ynx	-11.1651
▁rehearsal	-11.1651
▁dink	-11.1652
▁foul	-11.1652
▁semen	-11.1652
▁midst	-11.1652
equa	-11.1652
▁whack	-11.1652
▁corruption	-11.1653
sheila	-11.1653
▁dumbass	-11.1653
▁barney	-11.1653
▁constantly	-11.1653
▁imagination	-11.1653
oogum	-11.1654
▁divers	-11.1655
▁squash	-11.1655
▁jamie	-11.1655
▁heartbeat	-11.1656
▁erase	-11.1656
▁footage	-11.1656
▁sipe	-11.1657
▁frontier	-11.1657
▁ew	-11.1657
▁crackhead	-11.1657
▁bellow	-11.1658
hoe	-11.1658
▁modest	-11.1659
▁hence	-11.1659
▁wax	-11.166
▁panel	-11.166
▁geez	-11.166
▁stepped	-11.166
▁oooh	-11.1661
▁label	-11.1662
▁vita	-11.1662
▁void	-11.1663
▁claw	-11.1663
turn	-11.1664
▁heli	-11.1665
▁wooden	-11.1665
wise	-11.1665
zzle	-11.1666
▁delete	-11.1667
▁brig	-11.1668
▁bucket	-11.1668
▁freeway	-11.1669
▁relieved	-11.167
▁chow	-11.1671
▁bait	-11.1671
▁fries	-11.1673
▁hamp	-11.1677
high	-11.1679
▁growth	-11.1679
▁humanity	-11.168
▁madness	-11.1681
▁headline	-11.1681
▁specialist	-11.1681
▁milo	-11.1683
▁oven	-11.1685
▁active	-11.1686
▁tito	-11.1687
▁undo	-11.1688
▁ability	-11.1691
▁sour	-11.1694
▁coma	-11.1695
▁tries	-11.1697
▁mack	-11.1698
▁eighth	-11.1699
plant	-11.1699
▁grove	-11.17
migrant	-11.17
▁johnna	-11.1701
▁followers	-11.1712
▁dug	-11.1719
otto	-11.1751
▁iot	-11.1762
▁cooperate	-11.1789
▁drift	-11.1798
olet	-11.1819
▁accuse	-11.1825
cade	-11.1872
▁bou	-11.1879
stead	-11.19
▁beep	-11.1906
elling	-11.197
▁identi	-11.2019
mill	-11.2036
▁vine	-11.2056
▁peep	-11.2061
▁sul	-11.216
daya	-11.2171
▁stable	-11.2271
elimina	-11.2283
long	-11.2347
▁beth	-11.245
▁specialize	-11.2478
cord	-11.2511
ocate	-11.2653
vision	-11.2783
▁groan	-11.2956
grad	-11.2956
fli	-11.296
▁lip	-11.3006
▁rom	-11.3018
▁firework	-11.3018
▁merr	-11.3071
▁admir	-11.3109
etti	-11.3131
armed	-11.3154
raci	-11.3204
▁threaten	-11.3244
▁strain	-11.3249
▁accord	-11.325
▁forge	-11.3251
▁glob	-11.3251
sky	-11.3258
▁teenage	-11.3272
▁deport	-11.3276
word	-11.3283
oooh	-11.3288
related	-11.3288
flow	-11.3289
famous	-11.3289
daughter	-11.3289
party	-11.3289
burn	-11.329
three	-11.329
▁technical	-11.329
▁andre	-11.3291
▁adul	-11.3293
know	-11.3293
▁korea	-11.3295
stock	-11.3298
▁beaut	-11.3298
sick	-11.3301
▁michel	-11.3301
▁abort	-11.3304
iddle	-11.3304
▁harvest	-11.3306
▁diploma	-11.3307
▁gradua	-11.3308
▁frag	-11.3309
▁instruct	-11.3309
▁smug	-11.3309
▁neighbour	-11.3309
depress	-11.3309
through	-11.3309
▁beneficia	-11.3309
▁intuit	-11.3309
▁orient	-11.3309
▁satisfact	-11.3309
ahahahahahah	-11.3309
▁abnormal	-11.3309
▁academy	-11.3309
▁adrenaline	-11.3309
▁allergic	-11.3309
▁analysis	-11.3309
▁ancestors	-11.3309
▁approved	-11.3309
▁arkansas	-11.3309
▁attagirl	-11.3309
▁audrey	-11.3309
▁babysitting	-11.3309
▁balcony	-11.3309
▁basketball	-11.3309
▁bianchini	-11.3309
▁blindfold	-11.3309
▁brookfield	-11.3309
▁cdrom	-11.3309
▁cheerleader	-11.3309
▁choosing	-11.3309
▁clarify	-11.3309
▁collapse	-11.3309
▁colombia	-11.3309
▁commentator	-11.3309
▁competition	-11.3309
▁compound	-11.3309
▁contrary	-11.3309
▁convertible	-11.3309
▁croissant	-11.3309
▁dedicated	-11.3309
▁definition	-11.3309
▁dinosaur	-11.3309
▁discreet	-11.3309
▁enemies	-11.3309
▁episode	-11.3309
▁evacuation	-11.3309
▁everlasting	-11.3309
▁excavator	-11.3309
▁excellenc	-11.3309
▁excessive	-11.3309
▁executed	-11.3309
▁famiiy	-11.3309
▁fracture	-11.3309
▁furnace	-11.3309
▁garrett	-11.3309
▁gennaro	-11.3309
▁georgia	-11.3309
▁glatzel	-11.3309
▁godfather	-11.3309
▁gracias	-11.3309
▁gracious	-11.3309
▁griffin	-11.3309
▁haeju	-11.3309
▁hafferty	-11.3309
▁hannah	-11.3309
▁hanzo	-11.3309
▁happier	-11.3309
▁hawthorne	-11.3309
▁heraklion	-11.3309
▁hilarious	-11.3309
▁hypocri	-11.3309
▁imprison	-11.3309
▁inappropriate	-11.3309
▁incompeten	-11.3309
▁injury	-11.3309
▁intimate	-11.3309
▁jurisdiction	-11.3309
▁juvenile	-11.3309
▁kentucky	-11.3309
▁kjikerud	-11.3309
▁knutzhorn	-11.3309
▁krueger	-11.3309
▁linklater	-11.3309
▁liquor	-11.3309
▁lunatic	-11.3309
▁maintenance	-11.3309
▁makayla	-11.3309
▁manhattan	-11.3309
▁marijuana	-11.3309
▁masculine	-11.3309
▁masturbat	-11.3309
▁mccormick	-11.3309
▁mercedes	-11.3309
▁minivan	-11.3309
▁miyagi	-11.3309
▁narcissist	-11.3309
▁neighing	-11.3309
▁oriordan	-11.3309
▁overseas	-11.3309
▁paradiso	-11.3309
▁pascow	-11.3309
▁patterson	-11.3309
▁penguin	-11.3309
▁pennsylvania	-11.3309
▁pfeiffer	-11.3309
▁phenomenon	-11.3309
▁poiice	-11.3309
▁practicing	-11.3309
▁precinct	-11.3309
▁principal	-11.3309
▁prophecy	-11.3309
▁pursuit	-11.3309
▁rebuild	-11.3309
▁reinforcements	-11.3309
▁reject	-11.3309
▁residency	-11.3309
▁roccaraso	-11.3309
▁rumbles	-11.3309
▁sancholo	-11.3309
▁sarcasm	-11.3309
▁sarcastic	-11.3309
▁scientific	-11.3309
▁scorpion	-11.3309
▁snapshot	-11.3309
▁sociopath	-11.3309
▁sophisticated	-11.3309
▁splashing	-11.3309
▁stephanie	-11.3309
▁stockholm	-11.3309
▁stuart	-11.3309
▁svenson	-11.3309
▁sweatshirt	-11.3309
▁symmetry	-11.3309
▁tinkling	-11.3309
▁toothbrush	-11.3309
▁transaction	-11.3309
▁tsunami	-11.3309
▁unanimity	-11.3309
▁vancouver	-11.3309
▁variety	-11.3309
▁vegetarian	-11.3309
▁annual	-11.3309
▁antoine	-11.3309
▁burger	-11.3309
▁casualties	-11.3309
▁cheek	-11.3309
▁complex	-11.3309
▁coyote	-11.3309
▁deliberate	-11.3309
▁doughnuts	-11.3309
▁fortunate	-11.3309
▁fraud	-11.3309
▁halloween	-11.3309
▁happiest	-11.3309
▁influenc	-11.3309
▁investigate	-11.3309
▁negotiation	-11.3309
▁population	-11.3309
▁poverty	-11.3309
▁precious	-11.3309
▁purple	-11.3309
▁racket	-11.3309
▁resonance	-11.3309
▁scrub	-11.3309
▁shrink	-11.3309
▁sloppy	-11.3309
▁strangl	-11.3309
▁terrify	-11.3309
▁tremendous	-11.3309
▁uncertain	-11.3309
▁unsighted	-11.3309
▁bounty	-11.3309
▁column	-11.3309
▁curtain	-11.3309
▁dermot	-11.3309
▁essence	-11.3309
▁expand	-11.3309
▁japan	-11.3309
▁maestro	-11.3309
▁muscle	-11.3309
▁operative	-11.3309
▁pencil	-11.3309
▁pistol	-11.3309
▁reiax	-11.3309
▁reunite	-11.3309
▁scatter	-11.3309
▁schisa	-11.3309
▁southeast	-11.3309
▁swift	-11.3309
▁truetru	-11.3309
▁vicious	-11.3309
▁villain	-11.3309
▁workshop	-11.3309
▁yeeah	-11.3309
▁hardware	-11.3309
▁ireland	-11.3309
▁offended	-11.3309
▁album	-11.3309
▁colorado	-11.3309
▁dentist	-11.3309
▁flank	-11.3309
▁gramma	-11.3309
▁infant	-11.3309
▁mamma	-11.3309
▁monica	-11.3309
▁ouch	-11.3309
▁precisely	-11.3309
▁providence	-11.3309
▁restrict	-11.3309
▁sunrise	-11.3309
▁terminal	-11.3309
▁warehouse	-11.3309
▁edition	-11.3309
▁leroy	-11.3309
▁preparing	-11.3309
▁sizzles	-11.3309
▁spark	-11.3309
▁domain	-11.3309
▁syrian	-11.3309
cular	-11.3309
▁flattered	-11.3309
▁janie	-11.3309
▁liability	-11.3309
▁payroll	-11.3309
▁drool	-11.3309
▁palace	-11.3309
▁throne	-11.3309
▁cooch	-11.3309
▁actress	-11.3309
▁coroner	-11.3309
▁edwin	-11.3309
▁overdose	-11.3309
▁ukrain	-11.3309
▁tweet	-11.3309
shield	-11.3309
▁ilych	-11.3309
▁larkin	-11.3309
▁dreary	-11.331
▁martinez	-11.331
▁munchin	-11.331
▁investigating	-11.331
▁chrissake	-11.331
▁eev	-11.331
▁statue	-11.331
▁woodshed	-11.331
▁absence	-11.331
▁eighteen	-11.331
▁vicar	-11.331
▁sheep	-11.331
junction	-11.331
▁sasha	-11.331
▁abyss	-11.331
▁kilometers	-11.331
▁miscarriage	-11.331
▁region	-11.331
▁jingle	-11.331
▁penetrat	-11.331
▁waltz	-11.331
▁presume	-11.331
▁programmed	-11.331
▁doyle	-11.331
▁roommate	-11.331
▁napkin	-11.331
▁lerner	-11.331
▁whisky	-11.331
▁nanana	-11.331
▁shiny	-11.331
▁alec	-11.331
▁nanny	-11.331
▁reference	-11.331
▁mailbox	-11.331
▁fasci	-11.331
▁whinnies	-11.331
▁choc	-11.331
▁interstate	-11.331
▁liam	-11.331
▁inner	-11.331
▁referring	-11.331
▁sustain	-11.331
▁trading	-11.3311
▁tropic	-11.3311
▁consent	-11.3311
▁recognise	-11.3311
▁blush	-11.3311
▁musk	-11.3311
▁bruise	-11.3311
▁twentyfour	-11.3311
▁scumbag	-11.3311
▁vincent	-11.3311
▁fading	-11.3311
▁outrageous	-11.3311
▁tyres	-11.3311
▁diplomatic	-11.3311
▁preschool	-11.3311
▁uber	-11.3312
▁pluck	-11.3312
▁recess	-11.3312
▁fiddle	-11.3312
▁kessle	-11.3312
▁superstar	-11.3312
▁theatr	-11.3312
▁walsh	-11.3312
▁undone	-11.3312
▁carlyn	-11.3312
▁hostile	-11.3312
▁righteous	-11.3312
▁ignorant	-11.3312
▁hooting	-11.3313
▁piay	-11.3313
precise	-11.3313
▁yankee	-11.3313
▁flipped	-11.3313
▁regis	-11.3313
▁underline	-11.3313
▁gotcha	-11.3313
▁fleas	-11.3314
▁lizard	-11.3314
▁convenient	-11.3314
▁nathan	-11.3314
▁forehead	-11.3314
▁halt	-11.3314
▁aione	-11.3315
▁performance	-11.3315
▁gateway	-11.3315
▁oana	-11.3315
▁texan	-11.3315
▁imitate	-11.3315
▁tofu	-11.3315
▁income	-11.3315
▁sailor	-11.3315
▁slay	-11.3315
▁chook	-11.3316
▁sawyer	-11.3316
asket	-11.3317
▁noble	-11.3317
▁leap	-11.3317
▁symbolic	-11.3319
▁classroom	-11.3319
▁krista	-11.3319
▁fanny	-11.3319
lissa	-11.3319
▁delta	-11.3319
▁cubano	-11.332
quaint	-11.332
▁geeta	-11.332
▁tasty	-11.332
▁arab	-11.332
▁stack	-11.332
▁adore	-11.332
▁foam	-11.3321
▁affection	-11.3321
▁collective	-11.3322
▁skim	-11.3322
▁elder	-11.3323
▁tackle	-11.3323
▁oversee	-11.3323
▁swell	-11.3323
▁merch	-11.3323
▁churchill	-11.3324
▁exhibition	-11.3324
▁hallow	-11.3324
▁blur	-11.3324
▁finch	-11.3324
▁dumpling	-11.3324
▁youth	-11.3324
▁claus	-11.3325
▁heiio	-11.3326
▁uk	-11.3326
▁whoosh	-11.3326
▁stockings	-11.3328
▁turk	-11.3328
▁payload	-11.3329
▁smartass	-11.3329
▁whereas	-11.3329
▁african	-11.333
▁neat	-11.333
▁cooley	-11.333
▁giri	-11.3331
▁sail	-11.3331
▁tailor	-11.3331
▁beam	-11.3331
good	-11.3332
▁halfway	-11.3332
▁vibe	-11.3334
▁quitting	-11.3335
▁scarf	-11.3336
metic	-11.3336
▁shane	-11.3336
▁exile	-11.3337
▁react	-11.3342
▁slap	-11.3345
▁shipment	-11.3346
▁verse	-11.3347
▁peach	-11.335
▁russ	-11.3355
▁junkie	-11.3357
▁raw	-11.3364
▁fame	-11.3368
▁frederi	-11.3372
▁iate	-11.3382
▁now	-11.3383
fried	-11.3423
▁merit	-11.3487
most	-11.3489
rmal	-11.3535
▁vent	-11.359
▁ami	-11.3612
▁bugg	-11.3696
wski	-11.3696
case	-11.3773
▁tease	-11.3803
▁rile	-11.3926
▁tru	-11.3956
▁whale	-11.3972
▁chipp	-11.4064
mother	-11.4148
▁bast	-11.4335
▁chemo	-11.4353
cluded	-11.448
▁anan	-11.4553
▁appli	-11.4582
mpressionist	-11.4588
▁behav	-11.4595
▁decorat	-11.463
▁com	-11.464
▁organiz	-11.4657
▁encourag	-11.4815
▁glori	-11.4894
▁fingerprint	-11.5001
▁invit	-11.518
▁should	-11.5245
▁squeak	-11.5249
▁impress	-11.525
▁frighten	-11.526
▁relieve	-11.527
▁graduate	-11.5274
▁filth	-11.5283
hood	-11.5285
level	-11.5285
world	-11.5288
winning	-11.5288
century	-11.5289
mobile	-11.5289
second	-11.5289
human	-11.5289
blood	-11.529
glass	-11.529
class	-11.529
bird	-11.529
home	-11.529
free	-11.529
yeah	-11.529
check	-11.529
guy	-11.5291
▁beau	-11.5297
spring	-11.5298
▁goddam	-11.5298
▁russia	-11.5299
▁reflect	-11.5303
▁convent	-11.5303
▁kiddin	-11.5303
▁champ	-11.5303
▁extract	-11.5304
▁givin	-11.5304
▁lovin	-11.5304
▁grocer	-11.5306
▁outrage	-11.5307
▁scholar	-11.5308
ejaculat	-11.5309
quisit	-11.5309
▁advertis	-11.5309
▁alligator	-11.5309
▁unpleasant	-11.5309
cheeseburger	-11.5309
egitimate	-11.5309
uaiiy	-11.5309
▁abraham	-11.5309
▁activities	-11.5309
▁agitated	-11.5309
▁algorithm	-11.5309
▁ambassador	-11.5309
▁amygdala	-11.5309
▁anomaleum	-11.5309
▁anthony	-11.5309
▁archdiocese	-11.5309
▁astronaut	-11.5309
▁authorize	-11.5309
▁autumn	-11.5309
▁battalion	-11.5309
▁berlioz	-11.5309
▁bismuth	-11.5309
▁brisbane	-11.5309
▁calendar	-11.5309
▁cambodia	-11.5309
▁cambridge	-11.5309
▁camouflage	-11.5309
▁capoeira	-11.5309
▁carnegie	-11.5309
▁cecelio	-11.5309
▁cetera	-11.5309
▁cheesecake	-11.5309
▁chemistry	-11.5309
▁chingachgook	-11.5309
▁coalition	-11.5309
▁compartment	-11.5309
▁cripple	-11.5309
▁crucified	-11.5309
▁crucifix	-11.5309
▁curfew	-11.5309
▁dedication	-11.5309
▁deluca	-11.5309
▁devoted	-11.5309
▁dialogue	-11.5309
▁disposable	-11.5309
▁drought	-11.5309
▁earthrealm	-11.5309
▁economy	-11.5309
▁educated	-11.5309
▁egyptian	-11.5309
▁enterprise	-11.5309
▁entertainment	-11.5309
▁enthusias	-11.5309
▁escalator	-11.5309
▁espresso	-11.5309
▁expelled	-11.5309
▁exwife	-11.5309
▁fascinating	-11.5309
▁fidget	-11.5309
▁figuring	-11.5309
▁fontenot	-11.5309
▁geppino	-11.5309
▁ghastly	-11.5309
▁groovy	-11.5309
▁hamburger	-11.5309
▁hitchhike	-11.5309
▁homosexual	-11.5309
▁horrific	-11.5309
▁housewife	-11.5309
▁humility	-11.5309
▁ibrahim	-11.5309
▁illinois	-11.5309
▁improvement	-11.5309
▁incapable	-11.5309
▁inevitabl	-11.5309
▁inferior	-11.5309
▁inferno	-11.5309
▁invisible	-11.5309
▁isherwell	-11.5309
▁jeopardy	-11.5309
▁jewelry	-11.5309
▁jupiter	-11.5309
▁kansas	-11.5309
▁kombat	-11.5309
▁kujaku	-11.5309
▁larrabee	-11.5309
▁lawsuit	-11.5309
▁leverage	-11.5309
▁luisella	-11.5309
▁lukashenko	-11.5309
▁magalie	-11.5309
▁manufacture	-11.5309
▁manufacturing	-11.5309
▁marvellous	-11.5309
▁massacre	-11.5309
▁maurice	-11.5309
▁mercenar	-11.5309
▁meticulous	-11.5309
▁midwife	-11.5309
▁mikael	-11.5309
▁ministry	-11.5309
▁mississippi	-11.5309
▁mohammed	-11.5309
▁morphine	-11.5309
▁mortgage	-11.5309
▁mutiny	-11.5309
▁myseif	-11.5309
▁neighs	-11.5309
▁nikolas	-11.5309
▁nipples	-11.5309
▁nitwit	-11.5309
▁nominee	-11.5309
▁notorious	-11.5309
▁november	-11.5309
▁observation	-11.5309
▁occupation	-11.5309
▁opportunities	-11.5309
▁organic	-11.5309
▁paragraph	-11.5309
▁parakeet	-11.5309
▁participate	-11.5309
▁peculiar	-11.5309
▁phangan	-11.5309
▁pheasant	-11.5309
▁philanthropist	-11.5309
▁plaintiff	-11.5309
▁precaution	-11.5309
▁predator	-11.5309
▁pregnancy	-11.5309
▁prevail	-11.5309
▁primitive	-11.5309
▁proposition	-11.5309
▁prostitute	-11.5309
▁provoke	-11.5309
▁psychiatric	-11.5309
▁radcliff	-11.5309
▁reflex	-11.5309
▁retribution	-11.5309
▁sailboat	-11.5309
▁saracen	-11.5309
▁schooner	-11.5309
▁scramble	-11.5309
▁sedition	-11.5309
▁selfrighteous	-11.5309
▁september	-11.5309
▁shamblers	-11.5309
▁shannon	-11.5309
▁shepherd	-11.5309
▁sleepwalk	-11.5309
▁souvenir	-11.5309
▁spartacus	-11.5309
▁specimen	-11.5309
▁spectacular	-11.5309
▁staffordshire	-11.5309
▁stepfather	-11.5309
▁sunglasses	-11.5309
▁surrounding	-11.5309
▁surviving	-11.5309
▁syllabus	-11.5309
▁symptoms	-11.5309
▁tactical	-11.5309
▁tartarus	-11.5309
▁timothy	-11.5309
▁tolerance	-11.5309
▁tonsillitis	-11.5309
▁twilight	-11.5309
▁unavailable	-11.5309
▁undercover	-11.5309
▁uneasy	-11.5309
▁unlucky	-11.5309
▁unnecessary	-11.5309
▁unplug	-11.5309
▁untouchable	-11.5309
▁valentine	-11.5309
▁vanderohe	-11.5309
▁vatican	-11.5309
▁velez	-11.5309
▁vibrating	-11.5309
▁vulgar	-11.5309
▁whatsoever	-11.5309
▁whomever	-11.5309
▁yelburton	-11.5309
▁autograph	-11.5309
▁bluff	-11.5309
▁britain	-11.5309
▁coddy	-11.5309
▁compiete	-11.5309
▁connery	-11.5309
▁demonstrate	-11.5309
▁disrespect	-11.5309
▁drummond	-11.5309
▁eileen	-11.5309
▁enhance	-11.5309
▁essex	-11.5309
▁facial	-11.5309
▁francais	-11.5309
▁frequent	-11.5309
▁google	-11.5309
▁gossip	-11.5309
▁industrial	-11.5309
▁libido	-11.5309
▁lmpala	-11.5309
▁marybeth	-11.5309
▁mellow	-11.5309
▁midwest	-11.5309
▁miraculous	-11.5309
▁overreact	-11.5309
▁pepperoni	-11.5309
▁playground	-11.5309
▁predict	-11.5309
▁prescrib	-11.5309
▁purcell	-11.5309
▁retreat	-11.5309
▁rhym	-11.5309
▁software	-11.5309
▁surprising	-11.5309
▁thorough	-11.5309
▁trench	-11.5309
▁volume	-11.5309
▁wrath	-11.5309
▁zapped	-11.5309
explore	-11.5309
▁banana	-11.5309
▁bleach	-11.5309
▁bloom	-11.5309
▁butler	-11.5309
▁catfish	-11.5309
▁comfy	-11.5309
▁enchant	-11.5309
▁illiterate	-11.5309
▁interpol	-11.5309
▁laddie	-11.5309
▁luxur	-11.5309
▁mafia	-11.5309
▁outlaw	-11.5309
▁platter	-11.5309
▁plymouth	-11.5309
▁probiem	-11.5309
▁stefan	-11.5309
▁temptation	-11.5309
▁clinton	-11.5309
▁conspir	-11.5309
▁drask	-11.5309
▁expend	-11.5309
▁gagging	-11.5309
▁harbor	-11.5309
▁karma	-11.5309
▁mimicking	-11.5309
▁rooster	-11.5309
▁segment	-11.5309
▁southwest	-11.5309
▁spencer	-11.5309
▁womb	-11.5309
▁xray	-11.5309
▁abuel	-11.5309
▁aspir	-11.5309
▁brainwash	-11.5309
▁distill	-11.5309
▁fiction	-11.5309
▁pulse	-11.5309
▁reai	-11.5309
▁shauna	-11.5309
▁snide	-11.5309
▁sponge	-11.5309
▁vomit	-11.5309
▁branch	-11.5309
▁digital	-11.5309
▁souk	-11.5309
▁syrup	-11.5309
▁totai	-11.5309
▁utica	-11.5309
▁exotic	-11.5309
▁keaty	-11.5309
▁phony	-11.5309
▁moreno	-11.5309
▁pendant	-11.5309
▁promoted	-11.5309
▁scheme	-11.5309
▁hamptons	-11.5309
▁sushi	-11.5309
▁eager	-11.5309
▁aggr	-11.5309
▁peadar	-11.5309
▁stalking	-11.5309
▁vanished	-11.5309
▁kilo	-11.5309
urban	-11.5309
▁caroline	-11.5309
▁fryer	-11.5309
▁marvel	-11.5309
▁serial	-11.5309
▁shilling	-11.5309
▁unleash	-11.5309
zhen	-11.531
▁hastings	-11.531
▁elena	-11.531
▁oppose	-11.531
▁disabled	-11.531
▁jolly	-11.531
▁lunar	-11.531
▁pimp	-11.531
▁singsong	-11.531
▁psychologist	-11.531
▁fantasi	-11.531
rseif	-11.531
▁ferri	-11.531
▁jelly	-11.531
▁menacing	-11.531
▁validate	-11.531
▁gulp	-11.531
▁sieve	-11.531
▁bbc	-11.531
▁freddie	-11.531
▁analyz	-11.531
▁luton	-11.531
▁smuggle	-11.531
▁slurp	-11.531
▁salesman	-11.531
▁transform	-11.531
▁veil	-11.531
▁facing	-11.531
▁ransom	-11.531
▁sinned	-11.531
▁tachi	-11.531
▁illusion	-11.531
▁tickle	-11.531
▁peddle	-11.531
▁civilization	-11.531
▁naomi	-11.531
▁generator	-11.531
▁naples	-11.531
▁fellini	-11.531
▁atm	-11.531
▁underwater	-11.531
▁prompt	-11.531
▁yknow	-11.531
▁pedro	-11.531
▁limo	-11.5311
▁twitch	-11.5311
eligible	-11.5311
▁invad	-11.5311
▁lumin	-11.5311
▁meself	-11.5311
▁outworld	-11.5311
▁prettie	-11.5311
▁feature	-11.5311
▁cigz	-11.5311
▁trilogy	-11.5311
▁ledford	-11.5311
▁puppy	-11.5311
▁gringo	-11.5311
▁ethan	-11.5311
▁staple	-11.5311
▁dork	-11.5311
▁gentile	-11.5311
▁suitcase	-11.5311
▁tumbl	-11.5311
▁shining	-11.5311
▁gravit	-11.5311
▁perks	-11.5311
▁helen	-11.5311
▁bailey	-11.5311
▁liu	-11.5311
▁teemo	-11.5311
▁hostess	-11.5311
▁gerick	-11.5312
▁nanna	-11.5312
▁latin	-11.5312
▁tilda	-11.5312
▁embarrassment	-11.5312
▁biood	-11.5312
▁campfire	-11.5312
▁dental	-11.5312
▁interpretation	-11.5312
▁thatthat	-11.5312
▁sebbo	-11.5312
▁occasionally	-11.5312
▁shuttle	-11.5312
▁bounce	-11.5313
▁chickenshit	-11.5313
▁truce	-11.5313
▁victorious	-11.5313
▁transferring	-11.5313
▁humble	-11.5313
▁dyke	-11.5314
omination	-11.5314
▁nude	-11.5314
sync	-11.5314
▁rende	-11.5314
▁fabricant	-11.5314
girl	-11.5314
▁bruv	-11.5314
▁ethic	-11.5314
▁beac	-11.5314
▁upright	-11.5314
▁slack	-11.5315
▁saloon	-11.5315
▁mount	-11.5315
▁prank	-11.5315
▁greco	-11.5315
▁glance	-11.5315
▁hatred	-11.5315
bilities	-11.5315
▁aircraft	-11.5316
▁ajob	-11.5316
trude	-11.5316
▁pudg	-11.5316
▁commend	-11.5316
▁alexand	-11.5317
▁disappearance	-11.5317
▁fever	-11.5317
escent	-11.5317
▁plot	-11.5317
▁sperm	-11.5317
▁glue	-11.5318
▁tribe	-11.5318
▁harsh	-11.5318
▁meow	-11.5319
▁toby	-11.5319
▁mature	-11.5319
▁mediation	-11.532
▁jits	-11.532
▁mongo	-11.5321
▁autis	-11.5322
ittie	-11.5324
▁motor	-11.5324
▁raving	-11.5325
▁rising	-11.5326
encies	-11.5326
▁robot	-11.5326
▁beings	-11.5329
▁miiii	-11.5329
▁hendri	-11.533
▁auste	-11.5331
▁toid	-11.5337
unctio	-11.5339
▁translat	-11.534
▁lingui	-11.5342
▁slice	-11.5349
tamper	-11.5361
cture	-11.537
▁latte	-11.5375
iddling	-11.5386
▁saysoe	-11.5462
genital	-11.5476
okie	-11.5497
▁bogg	-11.5574
▁characterize	-11.5859
rumpets	-11.6379
▁spinnin	-11.643
gummy	-11.6476
▁receiv	-11.6851
obey	-11.7114
zzy	-11.7241
lateral	-11.7343
flake	-11.736
▁ici	-11.7424
heart	-11.7526
nquire	-11.7544
plan	-11.7673
▁embarrass	-11.7695
hundreds	-11.7716
▁cloth	-11.7736
▁applaud	-11.7749
▁grin	-11.7766
friend	-11.7767
umption	-11.7771
▁complicate	-11.7772
body	-11.778
▁snip	-11.7781
woman	-11.7785
sworth	-11.7786
identified	-11.7788
stream	-11.7789
generation	-11.7789
when	-11.7789
finished	-11.7789
white	-11.7789
course	-11.7789
third	-11.7789
▁probabi	-11.779
▁constant	-11.779
join	-11.779
believe	-11.779
itude	-11.779
▁cuban	-11.7793
▁inconvenien	-11.7794
little	-11.7794
▁prosecut	-11.7797
▁officia	-11.7799
▁motherfuckin	-11.78
▁dancin	-11.78
▁cleve	-11.7803
▁transmitt	-11.7805
▁interpret	-11.7806
nklin	-11.7806
▁libera	-11.7807
▁govern	-11.7807
write	-11.7807
▁vince	-11.7807
▁joseph	-11.7808
▁ambi	-11.7808
▁hysteri	-11.7808
slaught	-11.7809
▁bernard	-11.7809
▁unspeakab	-11.7809
▁apocalyp	-11.7809
▁eiectr	-11.7809
beiievabie	-11.7809
grandchildren	-11.7809
▁abyzou	-11.7809
▁academic	-11.7809
▁accumulat	-11.7809
▁acquaintance	-11.7809
▁acquire	-11.7809
▁alabama	-11.7809
▁altogether	-11.7809
▁ambitious	-11.7809
▁antenna	-11.7809
▁apoiogize	-11.7809
▁apprehended	-11.7809
▁approvals	-11.7809
▁arguing	-11.7809
▁armeteo	-11.7809
▁asylum	-11.7809
▁atlanta	-11.7809
▁baccarat	-11.7809
▁biscuit	-11.7809
▁bizarre	-11.7809
▁boerhaave	-11.7809
▁bonsoir	-11.7809
▁bourbon	-11.7809
▁brackett	-11.7809
▁breeze	-11.7809
▁camilla	-11.7809
▁catalogue	-11.7809
▁ceiling	-11.7809
▁certificate	-11.7809
▁chittering	-11.7809
▁circulation	-11.7809
▁circus	-11.7809
▁colmsonnylarry	-11.7809
▁complications	-11.7809
▁condescend	-11.7809
▁confined	-11.7809
▁confiscate	-11.7809
▁contemplat	-11.7809
▁convincing	-11.7809
▁corporal	-11.7809
▁crescendo	-11.7809
▁crocodile	-11.7809
▁crossexamine	-11.7809
▁cybebe	-11.7809
▁darwinism	-11.7809
▁deceased	-11.7809
▁degenerate	-11.7809
▁dekalb	-11.7809
▁delriego	-11.7809
▁despair	-11.7809
▁detention	-11.7809
▁determination	-11.7809
▁disbarred	-11.7809
▁discharge	-11.7809
▁disciple	-11.7809
▁discipline	-11.7809
▁discount	-11.7809
▁doherty	-11.7809
▁domestic	-11.7809
▁dorchester	-11.7809
▁dorothy	-11.7809
▁ecstasy	-11.7809
▁elmhurst	-11.7809
▁empathy	-11.7809
▁empingao	-11.7809
▁enfleurage	-11.7809
▁entertained	-11.7809
▁ethiopian	-11.7809
▁evergreen	-11.7809
▁execution	-11.7809
▁exploit	-11.7809
▁falcon	-11.7809
▁feminine	-11.7809
▁feminist	-11.7809
▁flourish	-11.7809
▁gabrielle	-11.7809
▁gaillard	-11.7809
▁gambling	-11.7809
▁gangbanger	-11.7809
▁ghetto	-11.7809
▁granddaddy	-11.7809
▁granmi	-11.7809
▁granpi	-11.7809
▁grenade	-11.7809
▁grimal	-11.7809
▁handwriting	-11.7809
▁happily	-11.7809
▁himseif	-11.7809
▁hispanic	-11.7809
▁humanitarian	-11.7809
▁humidity	-11.7809
▁hypnotize	-11.7809
▁iaughin	-11.7809
▁idolater	-11.7809
▁incarceration	-11.7809
▁incidentaiiy	-11.7809
▁indicating	-11.7809
▁industries	-11.7809
▁initiate	-11.7809
▁institute	-11.7809
▁interference	-11.7809
▁interrogate	-11.7809
▁interrogation	-11.7809
▁intersection	-11.7809
▁intervention	-11.7809
▁invasion	-11.7809
▁isoiation	-11.7809
▁jacci	-11.7809
▁jangshemash	-11.7809
▁jocelyn	-11.7809
▁kiefer	-11.7809
▁kolpos	-11.7809
▁krakow	-11.7809
▁leblanc	-11.7809
▁liberty	-11.7809
▁limousine	-11.7809
▁literature	-11.7809
▁lollipop	-11.7809
▁lullaby	-11.7809
▁massachusetts	-11.7809
▁matsumoto	-11.7809
▁mcdonald	-11.7809
▁mckenna	-11.7809
▁mechanism	-11.7809
▁melania	-11.7809
▁mesquita	-11.7809
▁millwall	-11.7809
▁mongrel	-11.7809
▁narrative	-11.7809
▁necronomicon	-11.7809
▁nephew	-11.7809
▁neutral	-11.7809
▁nonlethal	-11.7809
▁nowadays	-11.7809
▁oatmeal	-11.7809
▁obsession	-11.7809
▁october	-11.7809
▁orthop	-11.7809
▁outstanding	-11.7809
▁paquin	-11.7809
▁paralyzed	-11.7809
▁paranoia	-11.7809
▁pedophile	-11.7809
▁peerreview	-11.7809
▁pelissier	-11.7809
▁penitentiary	-11.7809
▁perception	-11.7809
▁perpetua	-11.7809
▁perspective	-11.7809
▁persuade	-11.7809
▁plummet	-11.7809
▁popcorn	-11.7809
▁portraits	-11.7809
▁pragmatic	-11.7809
▁presbyterian	-11.7809
▁qantas	-11.7809
▁recipient	-11.7809
▁reconcil	-11.7809
▁refresh	-11.7809
▁retrieve	-11.7809
▁sabotage	-11.7809
▁silverware	-11.7809
▁skeezer	-11.7809
▁skeletor	-11.7809
▁slovakia	-11.7809
▁solitary	-11.7809
▁souschef	-11.7809
▁spaghetti	-11.7809
▁sputtering	-11.7809
▁stagecoach	-11.7809
▁staircase	-11.7809
▁stavros	-11.7809
▁stewardess	-11.7809
▁stockholder	-11.7809
▁strategy	-11.7809
▁strawberries	-11.7809
▁strawberry	-11.7809
▁stroehmann	-11.7809
▁subscribe	-11.7809
▁sullivan	-11.7809
▁swamp	-11.7809
▁swarm	-11.7809
▁sweetbreads	-11.7809
▁swerve	-11.7809
▁swollen	-11.7809
▁sympatheco	-11.7809
▁synthient	-11.7809
▁syphilis	-11.7809
▁tampon	-11.7809
▁tequila	-11.7809
▁threshold	-11.7809
▁toothpaste	-11.7809
▁tramadol	-11.7809
▁tribute	-11.7809
▁trickortreating	-11.7809
▁umbrella	-11.7809
▁unacceptable	-11.7809
▁unemployment	-11.7809
▁unprofessional	-11.7809
▁ursula	-11.7809
▁vaughn	-11.7809
▁vegan	-11.7809
▁vegetable	-11.7809
▁videotape	-11.7809
▁wallbrook	-11.7809
▁wawaweewa	-11.7809
▁wyatt	-11.7809
▁youtube	-11.7809
▁zeffirelli	-11.7809
▁aurora	-11.7809
▁awaits	-11.7809
▁barstow	-11.7809
▁bouncing	-11.7809
▁boundaries	-11.7809
▁bureau	-11.7809
▁carolyn	-11.7809
▁casino	-11.7809
▁cholera	-11.7809
▁clerq	-11.7809
▁cloister	-11.7809
▁delusion	-11.7809
▁distinct	-11.7809
▁dryclean	-11.7809
▁duplicat	-11.7809
▁exaggerat	-11.7809
▁fertili	-11.7809
▁franchise	-11.7809
▁greasy	-11.7809
▁inflict	-11.7809
▁intrigu	-11.7809
▁klick	-11.7809
▁leisure	-11.7809
▁lesbian	-11.7809
▁loomis	-11.7809
▁majesti	-11.7809
▁mistress	-11.7809
▁monument	-11.7809
▁natasha	-11.7809
▁organis	-11.7809
▁premature	-11.7809
▁reboot	-11.7809
▁resign	-11.7809
▁samantha	-11.7809
▁shuffl	-11.7809
▁sindell	-11.7809
▁sugai	-11.7809
▁suppress	-11.7809
▁sympathy	-11.7809
▁tennessee	-11.7809
▁testosterone	-11.7809
▁tranquil	-11.7809
▁undead	-11.7809
▁vacuum	-11.7809
▁violated	-11.7809
▁volvo	-11.7809
▁yakov	-11.7809
lihood	-11.7809
▁aaaah	-11.7809
▁advil	-11.7809
▁application	-11.7809
▁bastien	-11.7809
▁bloated	-11.7809
▁carolina	-11.7809
▁cinema	-11.7809
▁descend	-11.7809
▁hellenics	-11.7809
▁lecler	-11.7809
▁lonesome	-11.7809
▁notify	-11.7809
▁redneck	-11.7809
▁septic	-11.7809
▁sequel	-11.7809
▁shelton	-11.7809
▁solicit	-11.7809
▁souad	-11.7809
▁strode	-11.7809
▁subgate	-11.7809
▁tabansi	-11.7809
▁thrash	-11.7809
▁transcend	-11.7809
▁trivial	-11.7809
▁tummy	-11.7809
▁whatcha	-11.7809
▁assurance	-11.7809
▁crotch	-11.7809
▁defici	-11.7809
▁gesture	-11.7809
▁jonjo	-11.7809
nclusion	-11.7809
▁doorstep	-11.7809
▁germs	-11.7809
▁grandparents	-11.7809
▁louisiana	-11.7809
▁millionaire	-11.7809
▁noodle	-11.7809
▁postpone	-11.7809
▁remix	-11.7809
▁submit	-11.7809
▁troubie	-11.7809
▁verify	-11.7809
▁zheng	-11.7809
▁bandaid	-11.7809
▁farewell	-11.7809
▁genetic	-11.7809
▁hazard	-11.7809
▁mojo	-11.7809
▁pavement	-11.7809
▁pellet	-11.7809
▁podium	-11.7809
▁soothe	-11.7809
▁thurman	-11.7809
▁vocation	-11.7809
▁waffle	-11.7809
▁agenda	-11.7809
▁beaver	-11.7809
▁burglar	-11.7809
▁chopstick	-11.7809
▁drastic	-11.7809
▁merci	-11.7809
▁snuck	-11.7809
▁strut	-11.7809
▁vouch	-11.7809
▁bartender	-11.7809
▁mikie	-11.7809
▁shrine	-11.7809
▁totem	-11.7809
▁bikini	-11.7809
▁ifthe	-11.7809
▁juiie	-11.7809
▁oyster	-11.7809
▁prenup	-11.7809
▁selim	-11.7809
▁shelf	-11.7809
yield	-11.7809
▁phew	-11.7809
▁storage	-11.7809
▁whyre	-11.7809
▁wicked	-11.7809
▁yule	-11.7809
▁hound	-11.7809
▁mourn	-11.7809
▁straw	-11.7809
▁tramp	-11.7809
▁wacko	-11.7809
▁mattress	-11.7809
▁budget	-11.7809
▁cannon	-11.7809
▁exceptional	-11.7809
▁index	-11.7809
▁kamal	-11.7809
▁sieep	-11.7809
▁stroll	-11.7809
▁cotton	-11.7809
▁howre	-11.7809
▁medium	-11.7809
▁sprain	-11.7809
▁steady	-11.7809
indication	-11.7809
▁coffin	-11.7809
▁content	-11.7809
▁formula	-11.7809
▁nypd	-11.7809
▁oath	-11.7809
▁allez	-11.781
▁canyon	-11.781
▁chram	-11.781
▁sherry	-11.781
▁stacy	-11.781
▁pulp	-11.781
▁worldcure	-11.781
▁corpse	-11.781
▁located	-11.781
▁tomato	-11.781
meyer	-11.781
▁ferry	-11.781
▁unholy	-11.781
▁countries	-11.781
▁meatballs	-11.781
▁unzipp	-11.781
▁household	-11.781
▁joburg	-11.781
▁mower	-11.781
▁ernie	-11.781
▁worn	-11.781
▁instructors	-11.781
closure	-11.781
▁atla	-11.781
▁conlon	-11.781
▁lizzy	-11.781
▁iife	-11.781
▁spear	-11.781
▁travis	-11.781
▁margin	-11.781
▁clunk	-11.781
▁hilton	-11.781
▁solitude	-11.781
▁scanner	-11.781
▁hasashi	-11.781
▁marbles	-11.781
▁calculations	-11.781
▁tatti	-11.781
▁sofa	-11.781
▁relay	-11.781
▁claymore	-11.781
heimer	-11.781
▁whitford	-11.781
▁retest	-11.781
▁awakened	-11.781
ometer	-11.781
▁hahn	-11.781
▁convey	-11.781
▁paretti	-11.781
▁raven	-11.781
▁teie	-11.781
▁tidy	-11.781
▁stalin	-11.781
▁gtg	-11.781
▁numero	-11.781
▁sincerely	-11.781
▁pinned	-11.781
▁illustr	-11.781
chester	-11.781
olivia	-11.781
▁carbon	-11.781
▁implie	-11.781
▁cnn	-11.781
▁slicing	-11.781
▁speculat	-11.781
▁ensure	-11.7811
▁icu	-11.7811
▁lethal	-11.7811
▁liking	-11.7811
▁yasser	-11.7811
▁sinner	-11.7811
▁klu	-11.7811
▁revolv	-11.7811
▁pension	-11.7811
abroad	-11.7811
▁histori	-11.7811
▁bdr	-11.7812
▁lust	-11.7812
▁igniti	-11.7812
▁ciose	-11.7812
▁pomp	-11.7812
▁fowl	-11.7812
desirable	-11.7812
▁restart	-11.7813
▁recurr	-11.7813
▁hwan	-11.7814
yho	-11.7816
▁evo	-11.7816
ounce	-11.7816
uddy	-11.7819
▁saddle	-11.7819
denture	-11.7821
urgl	-11.7833
▁drape	-11.7837
barame	-11.7841
▁genera	-11.7842
▁fatalit	-11.7842
▁candleli	-11.7845
ctus	-11.7851
huckle	-11.7854
ppies	-11.7858
▁thru	-11.7862
▁frisk	-11.7874
ancies	-11.7881
▁slash	-11.7883
gular	-11.7898
cinna	-11.7932
▁amn	-11.7939
plifting	-11.7953
ashed	-11.796
▁disarm	-11.7973
diment	-11.7997
crucia	-11.833
mpire	-11.8487
laris	-11.8505
fusion	-11.8513
lift	-11.8617
decoration	-11.8758
▁smok	-11.882
storm	-11.8869
▁sophi	-11.8964
ominated	-11.9054
▁tortur	-11.9155
saka	-11.9169
resurrection	-11.935
▁bratt	-11.9414
▁geni	-11.9551
quoi	-11.9764
intentionally	-12.0112
hopper	-12.031
▁physic	-12.035
worthy	-12.0557
▁circl	-12.0752
announced	-12.0816
▁pancake	-12.0837
wincy	-12.0853
▁arriv	-12.0922
▁immigra	-12.0996
ounding	-12.1014
▁disgust	-12.1083
▁suspend	-12.1092
▁therap	-12.1117
conscious	-12.1117
▁territor	-12.1117
▁facilit	-12.1117
▁appropriat	-12.1119
▁positiv	-12.1119
apple	-12.1121
alimony	-12.1122
privilege	-12.1122
deserved	-12.1122
judgment	-12.1122
degree	-12.1122
shock	-12.1123
floor	-12.1123
horse	-12.1123
▁famili	-12.1126
▁brillian	-12.1129
▁hospita	-12.1133
▁hyper	-12.1136
believable	-12.1138
terror	-12.1139
ecutive	-12.114
sibility	-12.1142
kilometer	-12.1142
▁coincid	-12.1143
negotiat	-12.1143
▁accommodat	-12.1143
▁administrati	-12.1143
▁bureaucra	-12.1143
▁inconsisten	-12.1143
circuit	-12.1143
emorrhag	-12.1143
heyheyhey	-12.1143
phobia	-12.1143
scrupu	-12.1143
▁accelerat	-12.1143
▁acquisition	-12.1143
▁adversary	-12.1143
▁advisor	-12.1143
▁affidavit	-12.1143
▁afghanistan	-12.1143
▁akilita	-12.1143
▁allegiance	-12.1143
▁andouille	-12.1143
▁antibiotic	-12.1143
▁appreciation	-12.1143
▁appreciative	-12.1143
▁aquari	-12.1143
▁aqui	-12.1143
▁archangel	-12.1143
▁argentine	-12.1143
▁arrington	-12.1143
▁artisanal	-12.1143
▁association	-12.1143
▁attiliuccio	-12.1143
▁authorization	-12.1143
▁babbling	-12.1143
▁ballpark	-12.1143
▁bankrupt	-12.1143
▁banshees	-12.1143
▁beautifui	-12.1143
▁beckwourth	-12.1143
▁birmingham	-12.1143
▁biscayne	-12.1143
▁blizzard	-12.1143
▁blomkvist	-12.1143
▁blondie	-12.1143
▁bloodhound	-12.1143
▁bordeaux	-12.1143
▁brendon	-12.1143
▁brigitte	-12.1143
▁bronteroc	-12.1143
▁bullseye	-12.1143
▁bypass	-12.1143
▁catastroph	-12.1143
▁catechism	-12.1143
▁celsius	-12.1143
▁cereal	-12.1143
▁ceremoni	-12.1143
▁cervical	-12.1143
▁chapstick	-12.1143
▁chevotarevich	-12.1143
▁cieiia	-12.1143
▁circumcised	-12.1143
▁cloudberry	-12.1143
▁cloying	-12.1143
▁collaborat	-12.1143
▁communicating	-12.1143
▁communist	-12.1143
▁concrete	-12.1143
▁concussion	-12.1143
▁condolences	-12.1143
▁confront	-12.1143
▁congrat	-12.1143
▁congratulate	-12.1143
▁consensual	-12.1143
▁consolidat	-12.1143
▁conspirator	-12.1143
▁constitution	-12.1143
▁cornstarch	-12.1143
▁coronavirus	-12.1143
▁cortisol	-12.1143
▁crayfish	-12.1143
▁credibility	-12.1143
▁cromwell	-12.1143
▁crucify	-12.1143
▁crusader	-12.1143
▁damaging	-12.1143
▁debauch	-12.1143
▁dehydrat	-12.1143
▁demeanour	-12.1143
▁deploy	-12.1143
▁derouche	-12.1143
▁discriminat	-12.1143
▁disgrace	-12.1143
▁doiiars	-12.1143
▁douche	-12.1143
▁easiest	-12.1143
▁educator	-12.1143
▁efficient	-12.1143
▁eisenhower	-12.1143
▁elaborate	-12.1143
▁elected	-12.1143
▁enforcer	-12.1143
▁escaping	-12.1143
▁euphemism	-12.1143
▁executin	-12.1143
▁expenses	-12.1143
▁experiencing	-12.1143
▁expriest	-12.1143
▁feinberg	-12.1143
▁ferocious	-12.1143
▁fifties	-12.1143
▁foliage	-12.1143
▁fountain	-12.1143
▁gauloises	-12.1143
▁geriatrics	-12.1143
▁giddy	-12.1143
▁gieniivet	-12.1143
▁giovanni	-12.1143
▁giuseppe	-12.1143
▁glamour	-12.1143
▁graciela	-12.1143
▁graziella	-12.1143
▁grizzley	-12.1143
▁grumpy	-12.1143
▁guillem	-12.1143
▁hairdresser	-12.1143
▁haroldandmaude	-12.1143
▁haystack	-12.1143
▁headhunter	-12.1143
▁hierarchy	-12.1143
▁hockey	-12.1143
▁horrox	-12.1143
▁husselbeck	-12.1143
▁hygiene	-12.1143
▁hygieni	-12.1143
▁hypersleep	-12.1143
▁icebreaker	-12.1143
▁ieaving	-12.1143
▁impeccabl	-12.1143
▁improvising	-12.1143
▁indictment	-12.1143
▁indoors	-12.1143
