<unk>	0
<s>	0
</s>	0
s	-2.97716
e	-4.11403
d	-4.13363
t	-4.13598
ing	-4.18886
n	-4.27149
y	-4.2875
a	-4.34121
ed	-4.44541
p	-4.61738
▁	-4.67418
r	-4.70038
er	-4.7761
m	-4.81047
o	-4.83646
i	-4.94918
▁s	-5.00478
g	-5.02321
▁im	-5.02645
le	-5.11404
▁dont	-5.12717
u	-5.13156
b	-5.14338
c	-5.15678
▁go	-5.15853
▁know	-5.17107
in	-5.1832
or	-5.25373
▁f	-5.28042
k	-5.30826
▁get	-5.31097
▁oh	-5.31543
l	-5.40011
w	-5.41879
▁p	-5.43995
▁come	-5.44035
▁like	-5.44275
▁right	-5.45748
▁l	-5.4621
▁well	-5.51023
al	-5.52261
ar	-5.53942
▁got	-5.5673
on	-5.56817
▁re	-5.5747
ly	-5.57642
▁see	-5.58961
en	-5.61171
▁youre	-5.6293
f	-5.63085
re	-5.63576
h	-5.6423
▁one	-5.65122
ck	-5.6799
▁good	-5.68035
▁yeah	-5.69482
▁thats	-5.70207
▁look	-5.737
▁want	-5.7541
ch	-5.75515
▁na	-5.75705
▁think	-5.79381
ri	-5.79417
▁w	-5.81269
it	-5.82444
▁c	-5.82519
▁g	-5.86217
st	-5.8868
▁o	-5.89788
▁hey	-5.92795
th	-5.95411
▁b	-5.97489
la	-5.97671
▁us	-5.98585
▁co	-5.99379
▁de	-6.00825
▁time	-6.00968
es	-6.01658
ll	-6.01826
▁back	-6.03024
▁man	-6.03129
▁okay	-6.05761
▁a	-6.05809
▁say	-6.07917
▁pa	-6.07998
▁yes	-6.08788
ra	-6.08925
▁gon	-6.11227
ent	-6.11269
▁ma	-6.11783
▁j	-6.12145
li	-6.13037
il	-6.14658
v	-6.1472
ve	-6.15491
▁take	-6.15802
an	-6.1606
▁ill	-6.18972
▁bo	-6.1956
▁st	-6.19574
ce	-6.20768
ke	-6.21531
at	-6.21815
▁going	-6.22278
▁mr	-6.2297
▁would	-6.2355
ur	-6.24658
ne	-6.25706
▁ho	-6.26826
▁e	-6.2821
▁cant	-6.29377
▁ha	-6.30309
▁hes	-6.32833
▁be	-6.32872
et	-6.35171
▁love	-6.36281
ro	-6.36467
▁need	-6.36786
▁little	-6.36996
▁la	-6.38419
▁way	-6.38751
te	-6.3883
▁tell	-6.39531
▁k	-6.39591
▁ro	-6.39678
▁never	-6.40108
▁in	-6.40925
▁make	-6.41061
se	-6.41421
▁mean	-6.42214
ic	-6.42359
ver	-6.42592
▁could	-6.42972
▁really	-6.43069
▁hi	-6.43688
el	-6.45373
▁bu	-6.47505
lo	-6.48687
▁ca	-6.49134
▁thank	-6.49493
▁wait	-6.50142
ry	-6.50363
ion	-6.506
▁let	-6.50736
de	-6.5078
ate	-6.51911
ie	-6.52034
▁ta	-6.53323
▁to	-6.54213
un	-6.54473
▁sp	-6.54877
▁sh	-6.55091
▁su	-6.55301
▁po	-6.55889
ard	-6.55969
▁something	-6.56926
z	-6.57229
▁day	-6.57378
▁he	-6.57488
ow	-6.5755
▁te	-6.59181
am	-6.59491
▁ex	-6.60299
▁da	-6.6032
▁lets	-6.60585
ter	-6.61413
▁please	-6.62228
x	-6.62238
▁whats	-6.62577
▁ive	-6.63905
▁sorry	-6.64529
▁cr	-6.64838
▁ba	-6.64887
ge	-6.65049
us	-6.65181
▁help	-6.65696
ol	-6.65919
▁theres	-6.66046
sh	-6.66335
ir	-6.66863
▁cha	-6.68474
est	-6.68621
▁un	-6.69406
▁an	-6.69837
▁didnt	-6.70133
▁give	-6.7036
ul	-6.70628
ff	-6.71141
▁so	-6.72564
▁ra	-6.73268
▁tr	-6.74363
▁great	-6.74658
▁new	-6.75047
vi	-6.75595
▁even	-6.76086
ation	-6.76112
▁thing	-6.76511
▁ri	-6.76685
na	-6.76901
per	-6.78373
om	-6.78418
▁con	-6.78558
▁work	-6.78591
▁th	-6.78749
▁call	-6.78935
▁lo	-6.80176
▁di	-6.80811
age	-6.8185
me	-6.82076
▁do	-6.82632
ell	-6.83134
ies	-6.83146
ru	-6.83323
▁two	-6.83521
▁mi	-6.83762
▁uh	-6.83985
▁stop	-6.84229
▁feel	-6.84236
▁m	-6.84879
ma	-6.84973
ers	-6.85038
im	-6.85589
▁mo	-6.86164
▁home	-6.86445
ut	-6.86699
▁ti	-6.86792
▁sure	-6.86987
▁car	-6.87672
▁much	-6.89497
ant	-6.90446
▁mar	-6.90716
▁must	-6.91341
▁ar	-6.92262
▁sa	-6.92425
▁find	-6.9251
▁better	-6.9257
▁v	-6.92693
um	-6.9318
▁pro	-6.93488
tion	-6.93506
▁sir	-6.93603
oo	-6.93675
ugh	-6.93881
▁wh	-6.94152
ive	-6.95189
▁away	-6.9612
▁said	-6.96658
▁boy	-6.96762
ment	-6.98111
▁me	-6.98319
j	-6.98396
▁ever	-6.98615
▁no	-6.99252
▁keep	-6.99458
▁miss	-6.99764
ci	-7.00255
▁guys	-7.00378
ting	-7.00401
▁big	-7.00753
ta	-7.01009
▁people	-7.01283
▁music	-7.01295
▁theyre	-7.01956
▁long	-7.02319
▁du	-7.02454
▁shes	-7.04397
▁put	-7.04733
id	-7.05366
▁first	-7.05918
▁life	-7.06278
▁fa	-7.06924
▁kid	-7.07157
▁play	-7.07971
▁hu	-7.08
▁friend	-7.08044
ig	-7.08269
▁thought	-7.09558
mp	-7.09927
▁nothing	-7.10042
▁stay	-7.10094
eat	-7.10392
co	-7.10597
▁night	-7.10781
▁wa	-7.11959
▁always	-7.12072
▁hand	-7.12311
▁maybe	-7.12828
ho	-7.12834
▁le	-7.12988
▁old	-7.1459
▁girl	-7.14914
▁place	-7.15493
▁anything	-7.15683
ty	-7.15757
▁guy	-7.15936
bb	-7.15942
and	-7.16113
ous	-7.16256
▁name	-7.16636
ist	-7.16721
▁win	-7.17812
▁things	-7.18112
man	-7.18406
ni	-7.18761
ee	-7.19174
▁ask	-7.1993
▁gu	-7.20346
▁dad	-7.20423
able	-7.20574
ful	-7.20613
▁huh	-7.20837
▁still	-7.20839
mo	-7.21967
ure	-7.22166
▁bad	-7.22484
▁show	-7.22989
▁believe	-7.23954
▁dog	-7.24219
▁whoa	-7.24393
▁talk	-7.24977
▁mom	-7.25127
ling	-7.25815
▁ah	-7.25938
ha	-7.25968
▁everything	-7.26298
to	-7.2634
▁leave	-7.26514
▁li	-7.26519
▁wont	-7.26536
▁al	-7.26962
gg	-7.27437
▁fo	-7.28458
▁hello	-7.28867
▁youve	-7.28912
▁ne	-7.28963
ish	-7.29007
▁world	-7.30023
▁nice	-7.30788
▁id	-7.30876
▁mu	-7.30928
▁dr	-7.30936
▁around	-7.30973
▁made	-7.31668
▁start	-7.31719
ca	-7.31785
▁hold	-7.32763
▁em	-7.32829
▁kind	-7.32996
▁best	-7.33298
▁house	-7.33676
op	-7.3399
▁youll	-7.34129
▁tra	-7.34529
▁part	-7.34963
▁might	-7.35887
▁may	-7.35899
▁course	-7.36011
▁lot	-7.36085
ton	-7.36145
▁plan	-7.36325
▁done	-7.36625
▁god	-7.37261
▁kill	-7.37384
if	-7.37469
ill	-7.3756
▁hear	-7.3775
ine	-7.38014
ise	-7.3805
▁last	-7.38465
▁try	-7.38711
▁en	-7.38869
▁baby	-7.38914
ity	-7.39485
ight	-7.39555
▁listen	-7.40874
▁mother	-7.41124
▁che	-7.41349
▁coming	-7.41429
▁care	-7.41432
tter	-7.41543
▁gra	-7.41703
▁told	-7.42141
▁bl	-7.4233
der	-7.42359
▁turn	-7.43658
▁dis	-7.43661
▁king	-7.43687
mi	-7.4376
▁live	-7.44029
▁bar	-7.44153
▁move	-7.45112
▁isnt	-7.45196
▁remember	-7.45457
▁head	-7.45504
▁pi	-7.4571
▁gasps	-7.46787
up	-7.47069
cu	-7.47082
ance	-7.47384
▁sc	-7.47424
rt	-7.47642
▁real	-7.478
▁playing	-7.47968
▁doesnt	-7.48099
▁son	-7.48202
ence	-7.48661
▁enough	-7.49719
▁every	-7.49814
▁cl	-7.50173
di	-7.5082
ally	-7.51335
bo	-7.51492
▁ready	-7.516
▁grunts	-7.5192
▁found	-7.51955
▁thanks	-7.52123
▁understand	-7.52198
▁pre	-7.52204
no	-7.52207
▁run	-7.5253
tch	-7.53213
▁minute	-7.5332
▁hell	-7.53723
▁fine	-7.54116
▁bro	-7.55896
tic	-7.55986
▁ad	-7.5614
▁years	-7.56651
less	-7.56793
ster	-7.56855
▁sha	-7.57226
▁morning	-7.5735
▁speak	-7.57644
▁wrong	-7.57644
▁meet	-7.58647
he	-7.58649
ize	-7.58943
▁laughing	-7.59132
▁left	-7.59139
▁ok	-7.59404
▁happen	-7.59414
▁watch	-7.60133
▁z	-7.60694
▁end	-7.60889
▁fight	-7.6125
▁another	-7.62162
▁happy	-7.62163
▁getting	-7.62408
▁ya	-7.62941
▁vi	-7.62988
▁hope	-7.63027
▁together	-7.63091
ness	-7.63386
▁knew	-7.63718
▁three	-7.6405
▁scar	-7.64076
▁eat	-7.64194
▁ju	-7.64308
▁chi	-7.64387
▁sw	-7.6439
▁came	-7.64793
▁war	-7.65258
▁money	-7.65299
▁jack	-7.65312
▁father	-7.65617
▁aint	-7.65658
▁whos	-7.66067
▁wan	-7.6641
port	-7.66426
▁excuse	-7.66573
▁far	-7.67037
▁school	-7.67543
▁open	-7.68552
▁mind	-7.68598
▁family	-7.68853
▁el	-7.6898
▁chuckles	-7.69846
▁next	-7.69849
▁bra	-7.69984
▁hard	-7.70617
▁fun	-7.7077
que	-7.70934
▁weve	-7.71209
▁bring	-7.71272
▁sit	-7.7205
▁happened	-7.72218
▁cut	-7.72501
▁today	-7.72545
▁guess	-7.72574
▁count	-7.72575
ian	-7.72777
▁app	-7.73286
▁cause	-7.73605
ship	-7.73743
▁captain	-7.73921
▁idea	-7.74346
▁ga	-7.74468
▁tu	-7.75967
▁use	-7.7597
▁close	-7.76051
▁men	-7.76817
▁tomorrow	-7.77449
ang	-7.78348
▁talking	-7.78598
▁bit	-7.78638
▁lost	-7.78798
▁everyone	-7.78908
our	-7.79024
▁dear	-7.79067
▁eye	-7.79194
▁sound	-7.80214
▁everybody	-7.80363
▁um	-7.80404
▁wouldnt	-7.80465
▁whole	-7.80754
▁someone	-7.81106
nny	-7.81109
▁dead	-7.81227
qui	-7.81228
▁dream	-7.81483
▁laughs	-7.82251
▁where	-7.82587
▁stand	-7.83062
▁sea	-7.83082
▁true	-7.83393
▁ow	-7.83785
▁worry	-7.84137
ah	-7.8414
▁heard	-7.84461
▁door	-7.85198
▁honey	-7.85303
va	-7.85313
▁suppose	-7.86068
▁else	-7.87165
▁alone	-7.87267
▁power	-7.87689
land	-7.88156
▁heart	-7.88745
▁woman	-7.88853
▁job	-7.89276
▁trying	-7.8944
▁sleep	-7.89656
▁pretty	-7.89657
▁ear	-7.8967
▁change	-7.90073
▁week	-7.90474
▁yet	-7.90536
▁stu	-7.90983
▁inter	-7.91182
▁tonight	-7.91708
▁luck	-7.91727
▁bell	-7.92147
▁matter	-7.92488
▁wasnt	-7.92538
▁face	-7.92724
▁room	-7.93071
▁beautiful	-7.93374
▁problem	-7.93374
▁alice	-7.93385
▁mad	-7.93454
▁without	-7.93796
▁up	-7.94136
▁youd	-7.94224
▁sighs	-7.95073
▁game	-7.95277
▁die	-7.95354
act	-7.95773
▁high	-7.95945
▁tw	-7.9608
▁clear	-7.96396
▁fire	-7.96642
▁comp	-7.97051
time	-7.97617
▁second	-7.98559
▁save	-7.99464
▁wish	-8.00058
▁peter	-8.00854
▁light	-8.00928
▁free	-8.00968
▁screaming	-8.01044
ound	-8.01213
▁break	-8.02171
▁book	-8.02659
▁check	-8.02809
▁soon	-8.02851
▁fast	-8.03303
ious	-8.0392
▁havent	-8.0403
▁point	-8.04078
▁aw	-8.04196
ible	-8.04945
▁afraid	-8.04968
▁late	-8.05314
▁act	-8.05544
▁went	-8.05668
▁already	-8.05918
▁year	-8.06104
▁read	-8.06726
▁christmas	-8.06877
▁ab	-8.07188
▁welcome	-8.07361
▁water	-8.07802
▁team	-8.08539
▁young	-8.08825
▁hurt	-8.09061
▁mine	-8.09267
▁grow	-8.09313
▁easy	-8.09323
▁brother	-8.09817
▁secret	-8.10309
▁prince	-8.10309
▁side	-8.10382
▁pass	-8.10409
▁saw	-8.10454
▁actually	-8.10809
▁follow	-8.1081
▁air	-8.10935
▁ooh	-8.11348
▁au	-8.11688
▁quite	-8.11819
▁walk	-8.11845
▁sign	-8.11849
▁word	-8.119
▁five	-8.11915
▁hmm	-8.12325
▁since	-8.12353
▁wow	-8.12738
▁inside	-8.13348
▁person	-8.13357
▁lady	-8.13479
▁flo	-8.13848
▁bird	-8.13884
▁stuff	-8.14027
▁continue	-8.14381
▁learn	-8.14399
▁voice	-8.14902
▁pick	-8.1513
▁beg	-8.15412
▁perfect	-8.15425
▁anyone	-8.15426
▁food	-8.15486
▁rock	-8.15876
▁star	-8.16154
▁wonder	-8.16409
▁later	-8.16906
▁shall	-8.18037
▁ass	-8.18471
▁exactly	-8.18626
▁enzo	-8.18628
▁met	-8.18898
ical	-8.19224
▁sister	-8.19754
▁buck	-8.20027
▁forget	-8.20265
▁fall	-8.20736
▁chance	-8.20842
▁couldnt	-8.20943
▁question	-8.21373
▁four	-8.21575
▁gasp	-8.21984
▁super	-8.22075
▁safe	-8.22089
zz	-8.22099
▁ni	-8.2225
▁trouble	-8.22493
▁ball	-8.22595
▁train	-8.22805
▁crazy	-8.23059
▁grunting	-8.2306
▁sweet	-8.23068
light	-8.23688
▁full	-8.23768
▁bye	-8.23849
▁pull	-8.24243
▁arent	-8.25082
▁hair	-8.25175
▁fair	-8.25383
▁moment	-8.25785
▁whoo	-8.25844
▁step	-8.26108
▁town	-8.27141
▁dance	-8.2716
▁hour	-8.27397
▁half	-8.28304
▁anyway	-8.28893
▁tree	-8.28935
▁scream	-8.29172
▁promise	-8.29498
▁line	-8.29509
▁john	-8.30081
▁mmm	-8.30131
▁boss	-8.30291
▁cho	-8.30433
▁children	-8.30714
▁cool	-8.30847
▁lose	-8.31105
▁business	-8.31323
▁groans	-8.3194
▁smell	-8.32596
▁wife	-8.3383
▁ring	-8.34377
▁different	-8.34448
▁shut	-8.3449
▁lord	-8.35303
▁miyagi	-8.35726
▁somebody	-8.35726
▁hurry	-8.35731
▁though	-8.36132
▁yi	-8.36322
▁breath	-8.36372
▁serious	-8.3638
▁touch	-8.36383
▁marley	-8.36408
▁drive	-8.36767
▁hang	-8.37106
▁hate	-8.37338
▁probably	-8.37674
▁certain	-8.37674
▁gru	-8.3802
▁nobody	-8.38332
▁ago	-8.38471
▁denny	-8.38785
▁perhaps	-8.38994
▁small	-8.39004
▁trust	-8.39017
▁grand	-8.39067
▁butt	-8.39629
▁mess	-8.40147
▁teach	-8.40357
▁making	-8.40406
▁drink	-8.41016
▁radio	-8.41691
▁fact	-8.41851
▁number	-8.42373
▁order	-8.42401
▁johnny	-8.43779
▁took	-8.43784
▁control	-8.44457
▁dinner	-8.44457
▁magic	-8.44574
▁elephant	-8.4587
▁quick	-8.45876
way	-8.45902
▁george	-8.46584
▁foot	-8.46741
▁almost	-8.47304
▁whatever	-8.47305
▁catch	-8.47771
▁bill	-8.48324
▁slow	-8.48803
▁taking	-8.48812
▁wonderful	-8.48862
▁papa	-8.489
▁deep	-8.48996
▁anymore	-8.49493
▁forever	-8.49496
▁finally	-8.49501
▁along	-8.49503
▁crowd	-8.49508
▁wear	-8.49584
▁blow	-8.49936
▁gave	-8.50015
▁ahead	-8.50235
▁funny	-8.50283
▁important	-8.50982
▁send	-8.51198
▁expect	-8.5249
▁lead	-8.52722
▁record	-8.53254
▁least	-8.53274
▁cheering	-8.53293
▁gentlemen	-8.54022
▁james	-8.54804
▁rule	-8.54837
▁panting	-8.54856
▁jump	-8.55059
▁behind	-8.55579
▁darling	-8.55584
▁phone	-8.56372
▁finish	-8.56376
▁aunt	-8.5643
▁island	-8.5716
▁buddy	-8.57163
▁reason	-8.57165
▁queen	-8.57168
▁feet	-8.57277
▁growls	-8.57997
▁kidding	-8.58069
▁surprise	-8.58766
▁class	-8.58788
▁month	-8.58794
▁coach	-8.5882
▁tried	-8.58836
▁special	-8.59579
▁office	-8.59581
▁parents	-8.59582
▁soft	-8.59622
▁story	-8.59682
▁jacob	-8.60399
▁goodbye	-8.60401
▁death	-8.60453
▁married	-8.61247
▁short	-8.61401
▁outside	-8.62059
▁destroy	-8.62899
▁return	-8.629
▁horse	-8.62928
▁gold	-8.63203
▁anybody	-8.63747
▁six	-8.63782
▁itll	-8.63785
▁damn	-8.63838
▁fix	-8.64627
▁drop	-8.64882
▁ladies	-8.65485
▁push	-8.66371
▁running	-8.66399
▁heres	-8.66505
▁imagine	-8.6721
▁brought	-8.67215
▁harry	-8.67226
gue	-8.67826
▁private	-8.68095
▁america	-8.68095
▁answer	-8.68097
▁stupid	-8.68098
▁wood	-8.68125
▁daniel	-8.68981
▁professor	-8.68988
▁protect	-8.68988
▁kiss	-8.69007
▁table	-8.6908
▁also	-8.69163
▁doctor	-8.69889
▁theyll	-8.69889
▁throw	-8.69903
▁cook	-8.69961
▁daddy	-8.69989
▁figure	-8.70801
▁quiet	-8.70802
▁piece	-8.71737
▁blue	-8.71754
▁yo	-8.72193
▁husband	-8.72641
▁danger	-8.72643
▁mountain	-8.73576
▁picture	-8.73576
▁blood	-8.73583
▁decide	-8.73593
▁birthday	-8.74519
▁lucy	-8.7452
▁future	-8.74522
▁simpl	-8.74542
▁cross	-8.74545
▁strange	-8.75475
▁living	-8.75488
▁join	-8.75535
▁squa	-8.76433
▁knock	-8.76436
▁witch	-8.76459
▁glad	-8.76518
▁truth	-8.77419
▁white	-8.77446
▁present	-8.77446
▁forgot	-8.78384
▁strong	-8.78385
▁french	-8.78385
▁qua	-8.78386
▁sense	-8.78434
▁beast	-8.78435
▁sick	-8.78529
▁leaving	-8.79375
▁ice	-8.79745
▁enjoy	-8.80375
▁stick	-8.80433
▁street	-8.81396
▁build	-8.81423
q	-8.82804
▁shouldnt	-8.83436
▁either	-8.83436
▁daughter	-8.83437
▁shot	-8.83618
▁amazing	-8.84478
▁front	-8.84481
▁child	-8.84494
▁dress	-8.84561
▁simba	-8.85531
▁visit	-8.8559
▁except	-8.86596
▁couple	-8.86601
▁uncle	-8.86625
▁wild	-8.87803
▁weird	-8.88757
▁become	-8.88758
▁tommy	-8.89856
▁shrek	-8.89875
▁worth	-8.89886
▁travel	-8.89898
▁clean	-8.899
▁snow	-8.89969
▁english	-8.90966
▁indistinct	-8.90966
▁seven	-8.90971
▁yells	-8.90971
▁monster	-8.90976
▁kick	-8.91007
▁lebron	-8.9209
▁belong	-8.9209
▁maisie	-8.92091
▁straight	-8.92092
▁allow	-8.92104
▁dark	-8.92142
▁ground	-8.93233
▁smart	-8.93239
▁flower	-8.93245
▁jamie	-8.93251
▁space	-8.93257
▁dramatic	-8.94376
▁attack	-8.94376
▁complete	-8.9438
▁danielsan	-8.94391
▁offer	-8.94403
▁movie	-8.94423
▁felt	-8.94475
▁york	-8.95547
▁mouth	-8.95554
▁fault	-8.95555
▁shoot	-8.95565
▁moving	-8.95566
▁black	-8.95579
▁write	-8.9689
▁groaning	-8.97906
▁normal	-8.97907
▁wolf	-8.97917
▁somewhere	-8.9911
▁forgive	-9.0033
▁rather	-9.00352
▁pleasure	-9.01564
▁harold	-9.01565
▁yelling	-9.01566
▁folks	-9.01566
▁attention	-9.02814
▁victor	-9.02815
▁general	-9.02815
▁entire	-9.02815
▁company	-9.02823
▁absolutely	-9.0408
▁soldier	-9.0408
▁shouting	-9.0408
▁middle	-9.04082
▁prepare	-9.04086
▁impossible	-9.05362
▁choice	-9.05373
▁krab	-9.05649
▁wizard	-9.06661
▁apart	-9.06662
▁london	-9.06663
▁ticket	-9.06668
▁notice	-9.06796
▁chocolate	-9.07977
▁mistake	-9.07977
▁evil	-9.07998
▁julia	-9.08076
▁malcolm	-9.0931
▁skipper	-9.0931
▁explain	-9.0931
▁alright	-9.09314
▁throat	-9.09314
▁animal	-9.09315
▁anywhere	-9.12031
▁excellent	-9.12031
▁majesty	-9.12031
▁morgan	-9.12031
▁kevin	-9.12032
▁club	-9.12061
▁clothes	-9.1342
▁monkey	-9.13421
▁village	-9.13422
▁million	-9.13425
▁penguin	-9.14829
▁thunder	-9.1483
▁nervous	-9.16257
▁puppy	-9.16257
▁doubt	-9.16258
▁favorite	-9.17706
▁freak	-9.17708
▁summer	-9.17708
▁engine	-9.1771
▁remind	-9.1771
▁definitely	-9.19177
▁hungry	-9.19177
▁mitchell	-9.2067
▁selina	-9.20671
▁afternoon	-9.22185
▁across	-9.22185
▁dorothy	-9.22185
▁consider	-9.22186
