<unk>	0
<s>	0
</s>	0
s	-4.16515
▁oh	-4.72665
▁im	-4.754
▁dont	-4.77434
▁well	-4.78272
▁know	-4.81114
▁like	-4.89314
▁get	-4.94403
▁go	-4.9775
▁right	-5.03397
▁come	-5.03479
▁one	-5.15017
▁thats	-5.18037
▁got	-5.18181
▁youre	-5.25761
ing	-5.28745
▁see	-5.30212
▁good	-5.34553
▁think	-5.44384
▁yeah	-5.45833
▁time	-5.46733
▁us	-5.51029
▁back	-5.55941
▁want	-5.58466
▁	-5.59547
▁yes	-5.60522
▁going	-5.61996
▁look	-5.67373
ed	-5.68069
▁hes	-5.6908
▁would	-5.69176
▁na	-5.69612
▁hey	-5.72543
▁ill	-5.7571
▁really	-5.7755
▁little	-5.78317
▁way	-5.78396
▁take	-5.79571
▁could	-5.80702
▁say	-5.81399
▁cant	-5.84177
▁gon	-5.8947
▁tell	-5.90362
▁man	-5.97113
▁never	-5.99771
▁mean	-6.04977
▁something	-6.0572
▁make	-6.05864
▁okay	-6.05938
▁need	-6.07185
▁whats	-6.08989
▁lets	-6.12245
d	-6.1286
▁uh	-6.1625
▁ive	-6.16726
▁love	-6.16775
▁people	-6.17945
▁didnt	-6.18176
y	-6.19047
▁let	-6.19141
▁day	-6.19816
▁thank	-6.21025
▁two	-6.21624
▁sure	-6.22149
▁find	-6.2327
▁theres	-6.24706
▁said	-6.24916
ly	-6.25666
▁first	-6.28817
▁mr	-6.31111
▁help	-6.33728
▁theyre	-6.34662
▁must	-6.35167
▁much	-6.35234
▁music	-6.37225
▁thing	-6.39943
▁give	-6.4013
▁wait	-6.40531
▁home	-6.41485
▁boy	-6.41555
▁please	-6.43955
▁great	-6.44225
▁work	-6.44955
▁even	-6.47451
▁life	-6.48192
▁ever	-6.49957
▁big	-6.50246
▁better	-6.51681
▁still	-6.51849
▁new	-6.52528
▁years	-6.54198
▁anything	-6.55459
▁family	-6.58302
▁guys	-6.58773
▁thought	-6.59563
▁things	-6.59658
▁old	-6.59786
▁place	-6.60334
e	-6.60435
▁put	-6.62049
▁believe	-6.6243
▁name	-6.62536
▁around	-6.62723
▁always	-6.63477
▁maybe	-6.6398
▁sir	-6.64641
▁long	-6.64916
▁keep	-6.65131
▁away	-6.65837
▁kind	-6.66541
▁youll	-6.66954
▁l	-6.67158
▁sorry	-6.68538
▁world	-6.74053
▁best	-6.74759
▁remember	-6.74882
▁nothing	-6.75143
▁id	-6.75233
▁lot	-6.7633
▁wont	-6.76863
▁every	-6.77484
▁night	-6.78032
▁stop	-6.78098
▁three	-6.79501
▁father	-6.7976
▁youve	-6.80392
▁everything	-6.80417
er	-6.8178
▁made	-6.8229
▁whoa	-6.83592
▁hello	-6.84112
▁may	-6.8456
▁feel	-6.85809
▁huh	-6.85958
▁told	-6.869
▁course	-6.86906
▁hi	-6.87062
▁last	-6.87898
▁coming	-6.89938
▁listen	-6.90428
▁might	-6.90592
▁weve	-6.9081
▁call	-6.91463
▁shes	-6.91967
▁black	-6.93194
▁money	-6.93326
▁care	-6.9353
▁stay	-6.93803
▁enough	-6.93838
▁hear	-6.95133
▁ha	-6.95288
▁god	-6.95772
▁talk	-6.96181
▁done	-6.97593
▁together	-6.9804
▁playing	-6.98397
▁isnt	-6.98575
▁today	-6.99129
▁nice	-6.99374
▁many	-6.99696
▁ah	-7.00049
▁school	-7.01374
▁ta	-7.01409
▁thanks	-7.01645
▁run	-7.01732
▁another	-7.01864
▁miss	-7.02744
▁came	-7.02996
▁seen	-7.04292
▁play	-7.04364
▁looking	-7.05132
▁left	-7.05243
▁try	-7.05503
▁mind	-7.06296
▁show	-7.06525
▁fine	-7.06525
▁live	-7.07278
▁frank	-7.07623
▁hard	-7.08165
▁ok	-7.08267
▁dog	-7.08773
▁city	-7.09428
▁idea	-7.09523
▁found	-7.10604
▁getting	-7.1075
▁morning	-7.12268
▁real	-7.15127
▁doesnt	-7.1686
▁kids	-7.17451
▁hope	-7.1763
▁whole	-7.18174
▁lost	-7.18198
▁daisy	-7.18832
▁bad	-7.18963
▁leave	-7.19705
al	-7.20791
▁ready	-7.20986
▁dad	-7.21124
▁word	-7.21775
▁water	-7.22609
▁wrong	-7.22861
a	-7.23415
▁wanted	-7.23519
▁laughing	-7.23649
▁hoo	-7.24558
▁pretty	-7.24949
▁next	-7.24956
▁days	-7.25372
▁someone	-7.25651
▁narrator	-7.2636
▁sea	-7.26749
▁understand	-7.27373
▁bring	-7.27758
▁mom	-7.27973
▁else	-7.28531
▁friend	-7.28712
▁also	-7.29246
▁men	-7.29387
▁room	-7.29798
es	-7.29952
▁clear	-7.30318
▁house	-7.3056
▁high	-7.31351
▁wouldnt	-7.3162
▁heard	-7.31867
▁tomorrow	-7.31909
▁tigger	-7.32123
▁hold	-7.322
▁without	-7.32221
▁saw	-7.32274
▁happy	-7.32988
▁start	-7.33338
▁grandpa	-7.33389
▁friends	-7.33449
▁sighs	-7.33784
▁tonight	-7.34513
▁meet	-7.35696
▁matter	-7.35734
▁ask	-7.35857
t	-7.36015
▁minute	-7.36528
▁trying	-7.36578
▁guess	-7.36591
▁part	-7.36808
▁mrs	-7.36848
▁yet	-7.37753
▁girl	-7.38122
▁dear	-7.38375
▁eat	-7.3874
▁went	-7.39282
▁mother	-7.39758
▁hell	-7.40048
▁melinda	-7.40068
▁job	-7.40596
▁talking	-7.40663
▁year	-7.4069
▁knew	-7.40888
▁fish	-7.41495
▁far	-7.41616
▁open	-7.42272
▁children	-7.42549
▁turn	-7.42975
▁catch	-7.43045
▁young	-7.43277
▁bit	-7.43914
▁ya	-7.44007
▁looks	-7.44021
▁doctor	-7.44814
▁door	-7.4487
▁church	-7.44958
▁aint	-7.45118
▁mary	-7.45186
r	-7.45494
▁whos	-7.45869
▁used	-7.46203
▁bear	-7.46997
▁happened	-7.4782
▁alone	-7.48599
▁guy	-7.49209
▁em	-7.49314
▁wow	-7.49509
▁easy	-7.49542
▁youd	-7.49853
▁worry	-7.49981
▁called	-7.50079
▁took	-7.50382
▁everyone	-7.50473
▁everybody	-7.51059
▁late	-7.51075
▁goodbye	-7.51128
▁heidi	-7.51285
en	-7.51836
▁fun	-7.51885
▁havent	-7.52204
▁cause	-7.52926
▁shall	-7.53152
▁wan	-7.53359
▁soon	-7.54006
▁watch	-7.55318
▁son	-7.5536
▁um	-7.55559
▁afraid	-7.5596
▁th	-7.5598
▁sit	-7.56405
▁end	-7.57389
▁move	-7.57461
▁couldnt	-7.58067
▁true	-7.58174
▁use	-7.58277
▁heart	-7.58635
▁beautiful	-7.5871
▁country	-7.5888
▁making	-7.58931
▁read	-7.59309
▁says	-7.59593
▁wasnt	-7.59862
▁actually	-7.5987
▁later	-7.60004
▁wants	-7.60256
▁team	-7.61772
▁already	-7.61872
▁close	-7.62463
▁wish	-7.62648
▁benny	-7.62898
n	-7.63005
o	-7.63065
▁problem	-7.63805
▁almost	-7.63942
▁uncle	-7.64985
▁hand	-7.65012
▁order	-7.65548
▁important	-7.65867
▁ago	-7.66011
▁brought	-7.66018
▁head	-7.66479
▁ship	-7.66574
▁daddy	-7.67119
▁story	-7.67134
▁times	-7.67655
▁king	-7.67891
▁stuff	-7.68157
▁hurry	-7.68158
▁crowd	-7.68198
▁un	-7.68235
▁win	-7.68588
▁sleep	-7.68855
▁bible	-7.69198
▁john	-7.69477
▁set	-7.70215
▁annabel	-7.70309
▁anyway	-7.70342
▁anyone	-7.70342
▁excuse	-7.70397
▁car	-7.71293
▁stand	-7.72134
▁five	-7.72639
▁four	-7.73004
▁laughs	-7.73064
▁jason	-7.73716
▁special	-7.73731
▁welcome	-7.73796
▁dream	-7.74099
▁break	-7.74421
▁rest	-7.74423
▁different	-7.74796
▁grandfather	-7.74867
▁saying	-7.75193
▁gone	-7.7521
▁animals	-7.75351
▁asked	-7.76409
▁eyes	-7.76583
▁tischendorf	-7.77202
▁honey	-7.77204
▁nobody	-7.77223
▁arent	-7.77256
▁m	-7.78052
▁least	-7.78401
▁along	-7.78403
▁dusty	-7.78437
▁s	-7.78571
▁baby	-7.78802
▁change	-7.79397
est	-7.80912
▁brother	-7.80943
▁case	-7.80962
▁free	-7.81847
▁hit	-7.81889
▁check	-7.81903
▁inside	-7.82051
▁since	-7.82195
▁wheres	-7.82338
▁makes	-7.82366
▁working	-7.82375
▁luck	-7.82866
▁goes	-7.83081
▁dr	-7.83218
▁wonderful	-7.83306
▁exactly	-7.83323
▁running	-7.83339
▁ooh	-7.83345
▁gamble	-7.83359
▁quite	-7.83427
▁kill	-7.83754
▁deal	-7.83969
▁christmas	-7.8459
▁mine	-7.84646
▁chuckles	-7.84698
▁kid	-7.84719
▁point	-7.84854
▁hmm	-7.84946
▁full	-7.85635
▁glad	-7.85697
▁forget	-7.8575
▁second	-7.85975
▁chance	-7.8599
▁hurt	-7.86879
▁trouble	-7.86899
▁dinner	-7.8847
▁b	-7.88557
▁lord	-7.8871
▁town	-7.88796
▁party	-7.88917
▁seems	-7.89294
▁dead	-7.89677
▁woman	-7.89803
▁boss	-7.8981
▁child	-7.89819
▁able	-7.89841
▁peter	-7.89874
▁fight	-7.89886
▁taking	-7.89927
▁thinking	-7.90117
▁pick	-7.90466
▁tiggers	-7.90594
▁light	-7.90652
▁re	-7.90688
▁means	-7.90815
▁probably	-7.91149
▁mama	-7.9116
▁lady	-7.91195
▁plan	-7.91319
▁side	-7.9173
▁rat	-7.91821
▁comes	-7.92421
▁moment	-7.9277
▁a	-7.9287
▁top	-7.93216
▁wonder	-7.93355
▁walk	-7.93384
l	-7.93556
▁perfect	-7.93811
▁perhaps	-7.93904
▁face	-7.93994
▁news	-7.94324
▁cool	-7.9492
▁bet	-7.94975
▁rome	-7.95223
▁whatever	-7.95314
▁horse	-7.95624
▁joy	-7.95813
▁minutes	-7.95968
▁cat	-7.96254
▁words	-7.96292
▁evil	-7.96717
▁become	-7.96843
▁air	-7.96909
▁book	-7.97225
▁red	-7.97581
▁war	-7.98425
▁stranger	-7.98566
▁business	-7.99531
▁sweet	-7.99607
▁truth	-7.99664
▁history	-7.99667
▁gasps	-7.99767
▁sounds	-8.00579
▁theyll	-8.01154
▁white	-8.01659
▁started	-8.01675
▁race	-8.01743
▁fast	-8.02093
▁boys	-8.0226
▁west	-8.02612
▁supposed	-8.02658
▁professor	-8.0267
▁d	-8.02842
▁gods	-8.03027
▁send	-8.03164
▁learn	-8.03565
▁t	-8.03984
▁alright	-8.04214
▁ivy	-8.04226
▁fire	-8.04556
▁hours	-8.04627
▁america	-8.05618
▁balto	-8.05768
▁somewhere	-8.0577
▁either	-8.05781
▁gave	-8.05783
▁hands	-8.05914
▁needs	-8.05965
st	-8.06318
▁question	-8.06988
▁human	-8.07156
▁amazing	-8.07356
▁possible	-8.07369
▁molly	-8.07371
▁finally	-8.07424
▁early	-8.07434
▁rock	-8.07576
▁robert	-8.07796
▁power	-8.07796
▁waiting	-8.07834
▁land	-8.0807
▁p	-8.08088
▁lives	-8.0838
▁sun	-8.0843
in	-8.08806
▁speak	-8.08855
▁gold	-8.08896
▁donald	-8.08973
▁sort	-8.08983
▁pay	-8.08984
▁tony	-8.09
able	-8.09034
▁cheering	-8.09064
▁person	-8.0935
▁reason	-8.09414
▁voice	-8.09442
▁tree	-8.09609
▁half	-8.1038
▁follow	-8.10568
▁drink	-8.10632
▁alice	-8.10633
▁babar	-8.10638
▁james	-8.10676
▁marc	-8.10769
▁sense	-8.11118
▁mountains	-8.11599
▁wed	-8.11736
▁fly	-8.1215
▁david	-8.12275
▁funny	-8.12285
▁ahead	-8.12285
▁george	-8.12296
▁bye	-8.12349
▁g	-8.12442
▁promise	-8.12504
▁week	-8.1279
▁number	-8.12802
▁andy	-8.12935
▁birds	-8.13283
▁pull	-8.1336
▁hang	-8.13797
▁deep	-8.1383
▁small	-8.1389
▁tentrees	-8.1397
▁crazy	-8.13974
▁joshua	-8.14
▁song	-8.1409
▁lose	-8.14157
▁known	-8.14382
▁sister	-8.14525
▁field	-8.14734
on	-8.15104
▁line	-8.15128
▁control	-8.15602
▁simonides	-8.15694
▁swim	-8.15699
▁damn	-8.15728
▁ow	-8.15757
▁met	-8.15831
ic	-8.15969
▁greek	-8.16265
▁aunt	-8.16537
▁die	-8.17174
▁yesterday	-8.17448
ies	-8.17455
▁drive	-8.17499
▁cold	-8.1758
▁lead	-8.17591
▁simple	-8.17713
h	-8.17737
▁somebody	-8.18048
▁bed	-8.18218
▁sound	-8.1822
▁fact	-8.18554
▁safe	-8.18971
▁jack	-8.19658
▁secret	-8.197
ve	-8.19726
▁anybody	-8.19836
▁christian	-8.19853
▁hound	-8.19921
▁american	-8.19922
▁game	-8.19932
ous	-8.204
▁wild	-8.20866
▁office	-8.20907
▁behind	-8.2105
▁rather	-8.21058
▁poor	-8.21083
▁sometimes	-8.21267
▁catholic	-8.21806
▁pete	-8.2202
▁be	-8.22355
▁save	-8.22732
▁anymore	-8.22902
▁theyve	-8.22904
▁hot	-8.2311
▁beat	-8.23207
▁ones	-8.23401
▁president	-8.23618
▁food	-8.2367
▁el	-8.23746
▁master	-8.2387
▁trust	-8.24073
▁post	-8.24277
▁takes	-8.24298
▁cut	-8.24605
▁couple	-8.24788
▁lunch	-8.24794
▁absolutely	-8.24807
▁wrote	-8.24821
▁happen	-8.24832
▁feet	-8.24855
▁parents	-8.25008
▁earth	-8.25285
▁ball	-8.2548
▁ocean	-8.25531
c	-8.2576
▁quiet	-8.26595
▁forever	-8.2672
▁wake	-8.26817
▁front	-8.26817
▁though	-8.27149
▁killed	-8.27174
▁mountain	-8.27501
▁denny	-8.27507
▁letter	-8.27625
▁ride	-8.28348
▁seem	-8.28404
▁london	-8.28672
▁alfred	-8.28673
▁cornelius	-8.28673
▁community	-8.28673
▁alive	-8.28697
▁wide	-8.28763
▁ten	-8.28809
▁star	-8.29737
▁gets	-8.29802
▁ahh	-8.30138
▁wind	-8.30328
▁c	-8.30364
▁quick	-8.30423
▁bird	-8.30449
▁near	-8.30613
▁aussie	-8.30673
▁aah	-8.30787
▁knows	-8.30986
▁cubs	-8.3103
▁teach	-8.31068
▁major	-8.31477
▁manuscript	-8.31535
▁sam	-8.31943
▁de	-8.32282
▁brazil	-8.32704
▁gentlemen	-8.32715
▁lodge	-8.32715
▁taught	-8.32721
▁mmm	-8.32739
▁girls	-8.33622
▁trip	-8.3397
▁meeting	-8.34587
▁century	-8.34796
▁married	-8.34796
▁york	-8.34797
▁tried	-8.34849
▁pain	-8.34855
▁certainly	-8.34891
▁mark	-8.34968
▁heres	-8.35031
▁lucky	-8.35169
▁act	-8.35462
▁lauren	-8.35673
▁system	-8.35709
m	-8.35735
▁shell	-8.3585
ion	-8.36244
▁sunk	-8.36249
▁weeks	-8.36257
▁brave	-8.36282
▁round	-8.36572
▁past	-8.36748
▁outside	-8.36925
▁boris	-8.36926
▁living	-8.36963
▁return	-8.37192
▁joe	-8.37202
▁seven	-8.37211
▁stick	-8.37791
▁dude	-8.37912
▁present	-8.37935
▁dance	-8.38019
▁date	-8.38412
▁class	-8.38414
▁f	-8.38416
▁pre	-8.38548
▁bill	-8.38853
▁husband	-8.39097
▁callahan	-8.39097
▁prefontaine	-8.39098
▁monty	-8.39112
▁scared	-8.39218
▁expect	-8.3927
▁answer	-8.39844
▁pass	-8.39986
▁begin	-8.40128
▁crew	-8.40149
▁million	-8.40178
▁doubt	-8.40231
▁pope	-8.40302
▁blue	-8.40326
▁evening	-8.40403
▁band	-8.40665
▁film	-8.40666
▁throw	-8.40844
▁taken	-8.40918
▁strange	-8.41023
▁papi	-8.41205
▁faith	-8.41312
▁fault	-8.41318
▁especially	-8.41323
▁grow	-8.41366
▁shouting	-8.41387
▁six	-8.41797
▁sign	-8.41897
▁shut	-8.42047
▁explain	-8.42065
▁join	-8.42196
▁plane	-8.42385
▁suppose	-8.43351
▁itll	-8.43591
▁proud	-8.43591
ers	-8.43953
▁learned	-8.43984
▁ba	-8.4402
▁goodman	-8.44033
▁smile	-8.44136
▁feeling	-8.44268
▁eye	-8.44674
ity	-8.44713
▁chip	-8.44753
▁ground	-8.4476
▁fear	-8.45123
▁worked	-8.45491
▁visit	-8.45622
▁captain	-8.45917
▁england	-8.45917
▁orchestra	-8.45917
▁clifford	-8.45918
▁dark	-8.45918
▁shouldnt	-8.45922
▁shh	-8.45924
▁ellen	-8.45931
▁leaving	-8.45935
▁middle	-8.45959
▁clothes	-8.4596
▁moving	-8.46017
▁steele	-8.46055
▁reach	-8.46077
▁hide	-8.46307
▁speaking	-8.46547
▁till	-8.46693
▁drop	-8.47078
▁tim	-8.4746
▁humans	-8.4765
▁careful	-8.48181
▁china	-8.48285
▁caesar	-8.48297
▁napoleon	-8.48298
▁daughter	-8.48301
▁women	-8.48301
▁jesus	-8.48303
▁english	-8.48304
▁grumpy	-8.48306
▁maam	-8.48312
▁wear	-8.48354
▁none	-8.48398
▁north	-8.4844
▁eight	-8.48506
▁bounce	-8.48929
▁wife	-8.49258
▁co	-8.49413
▁ancient	-8.49486
▁happens	-8.49832
▁hate	-8.49884
▁loves	-8.49941
▁smart	-8.50338
▁hat	-8.50587
▁strong	-8.50632
▁straight	-8.50666
▁kyle	-8.50735
▁across	-8.50736
▁walter	-8.50738
▁beginning	-8.50743
▁ladies	-8.50748
▁barking	-8.50835
▁busy	-8.50874
▁billy	-8.50982
▁step	-8.51123
▁lee	-8.51688
us	-8.5182
▁goats	-8.51955
▁street	-8.52085
▁smell	-8.52321
▁ho	-8.52367
▁train	-8.52505
▁meow	-8.52736
▁build	-8.52886
i	-8.53187
▁future	-8.53236
▁law	-8.53269
▁hair	-8.53344
▁papa	-8.53402
an	-8.53536
▁longer	-8.53878
▁h	-8.53918
▁bout	-8.53981
▁surprise	-8.54309
▁buy	-8.54603
▁phone	-8.55621
▁al	-8.55772
▁worried	-8.558
▁indeed	-8.55804
▁forgive	-8.55818
▁window	-8.55845
▁completely	-8.55909
▁interesting	-8.55918
▁trick	-8.55931
▁bottom	-8.56047
▁sell	-8.56079
▁singing	-8.56101
▁mei	-8.56114
▁spelling	-8.56127
▁teacher	-8.56205
▁imagine	-8.56273
▁belong	-8.56975
▁la	-8.57105
▁less	-8.57125
▁crystal	-8.57171
▁monster	-8.57256
▁shark	-8.57259
▁looked	-8.57779
▁nathan	-8.57862
▁buzz	-8.57889
▁w	-8.58102
▁dakota	-8.5843
▁forgot	-8.58431
▁anywhere	-8.58431
▁darling	-8.58436
▁tv	-8.58499
▁charge	-8.58528
▁woody	-8.58536
ll	-8.58562
▁south	-8.58654
ry	-8.58794
▁saved	-8.58794
▁ought	-8.58962
▁given	-8.59684
k	-8.59941
▁lovely	-8.60003
▁foot	-8.6013
▁named	-8.60252
▁study	-8.60749
▁large	-8.60958
▁brothers	-8.60959
▁fell	-8.61063
▁jenna	-8.61127
▁caught	-8.61139
▁regan	-8.6115
▁college	-8.61195
▁born	-8.61241
▁giving	-8.61302
▁uhoh	-8.6133
▁board	-8.61406
▁e	-8.61617
▁building	-8.61642
▁warren	-8.61985
▁lm	-8.62124
ey	-8.62179
▁sad	-8.62234
▁grand	-8.62479
▁ice	-8.62614
▁picture	-8.62729
▁animal	-8.62729
▁state	-8.62811
▁seeing	-8.62871
▁shot	-8.62922
▁tail	-8.63
▁latin	-8.63027
man	-8.63182
ation	-8.63569
▁enjoy	-8.63624
▁among	-8.6385
▁write	-8.63874
▁built	-8.63905
▁pinto	-8.63906
▁larry	-8.63912
▁biggest	-8.63914
▁theyd	-8.63923
▁danger	-8.63936
▁unless	-8.63937
▁laughter	-8.63969
▁upon	-8.63988
▁spend	-8.64009
▁worth	-8.6409
▁general	-8.64163
▁pups	-8.64243
▁steve	-8.64468
▁continues	-8.64724
▁miles	-8.64854
▁laugh	-8.65088
came	-8.65523
▁so	-8.65591
▁piece	-8.65659
▁questions	-8.65988
▁count	-8.66045
▁rats	-8.66352
▁kiss	-8.66353
▁carry	-8.66497
▁experience	-8.66525
▁blood	-8.66543
▁bee	-8.66579
▁magic	-8.66662
▁roman	-8.66744
▁mess	-8.6675
▁terrible	-8.6676
▁hungry	-8.66766
▁fifi	-8.66767
▁christ	-8.66773
▁huge	-8.66782
▁mason	-8.6679
or	-8.66812
▁princess	-8.66832
▁lie	-8.66907
▁besides	-8.66921
▁cape	-8.66933
▁proof	-8.66987
▁record	-8.67538
▁tad	-8.67883
▁played	-8.68111
▁figure	-8.68271
▁tough	-8.68336
▁slow	-8.68338
▁trail	-8.6849
▁aw	-8.68519
▁republican	-8.68525
▁calling	-8.68981
▁spell	-8.69299
▁champ	-8.69677
▁breeze	-8.69701
▁codex	-8.69702
▁single	-8.69723
▁company	-8.6973
▁grunting	-8.69784
▁others	-8.69799
▁faster	-8.69899
▁body	-8.69991
▁warm	-8.69994
▁musketeers	-8.70069
▁democrat	-8.70075
▁super	-8.70196
▁ben	-8.70238
digger	-8.70449
▁turned	-8.7063
▁lots	-8.70988
▁ape	-8.7192
▁climb	-8.72022
▁horses	-8.72193
▁milk	-8.72297
▁shoot	-8.72476
▁chris	-8.7254
▁box	-8.72723
▁piccolo	-8.72732
▁klara	-8.72732
▁definitely	-8.72734
▁ollie	-8.7275
▁quint	-8.7276
▁death	-8.72763
▁movement	-8.72767
▁martin	-8.72771
▁plethora	-8.72792
▁grace	-8.72814
▁nature	-8.72865
▁decided	-8.72918
▁view	-8.72993
▁sounder	-8.73014
▁sick	-8.73205
▁hows	-8.73378
▁short	-8.73483
▁flying	-8.73484
g	-8.73772
▁ohh	-8.73871
▁ja	-8.73972
▁monsters	-8.74106
▁finish	-8.74281
▁difference	-8.74514
▁fall	-8.74611
▁per	-8.74627
▁choice	-8.74634
▁ghost	-8.74668
▁claire	-8.74706
▁protect	-8.74803
ness	-8.7498
▁fix	-8.75093
▁camp	-8.75134
▁certain	-8.75714
▁bright	-8.75746
▁example	-8.75856
▁teddy	-8.75862
▁dangerous	-8.75884
▁harry	-8.75888
▁johnson	-8.75895
▁winter	-8.75898
▁andrews	-8.75957
ts	-8.76033
▁r	-8.76141
ce	-8.76327
▁months	-8.76771
▁awful	-8.77346
▁starting	-8.77485
▁chief	-8.77788
▁steal	-8.78211
te	-8.7826
▁green	-8.78553
▁j	-8.78644
▁fair	-8.78695
▁seconds	-8.78802
▁vatican	-8.79042
▁difficult	-8.79051
▁morgan	-8.79082
▁sheriff	-8.79082
▁surface	-8.79083
▁teeth	-8.79084
▁brown	-8.79088
▁clara	-8.79096
▁marry	-8.79114
▁driving	-8.79115
▁crash	-8.79128
▁forward	-8.79147
▁chattering	-8.79153
▁folks	-8.79224
▁hoping	-8.79262
▁comin	-8.79286
▁gun	-8.79367
ive	-8.79465
▁monkeys	-8.79576
▁complete	-8.80048
▁jesuits	-8.80081
▁court	-8.80725
▁lifetime	-8.80748
▁talked	-8.80761
▁smoke	-8.81013
▁letters	-8.81066
▁k	-8.81092
▁pat	-8.81226
▁spirit	-8.8124
▁leader	-8.81397
▁clean	-8.81615
▁attack	-8.81715
▁entire	-8.82268
▁mad	-8.8227
▁serious	-8.82278
▁goat	-8.82397
▁charlotte	-8.82415
▁elizabeth	-8.82415
▁warwick	-8.82415
▁speech	-8.82416
▁sinaiticus	-8.82416
▁laney	-8.82431
▁rosa	-8.82439
▁groaning	-8.8244
▁uhhuh	-8.82443
▁low	-8.82518
▁copy	-8.82526
▁quickly	-8.82719
▁greatest	-8.82785
▁expected	-8.82817
▁needed	-8.83004
▁changed	-8.83129
▁sing	-8.8317
▁died	-8.83329
▁offer	-8.8383
▁missed	-8.8399
▁st	-8.84116
▁honor	-8.84342
▁mistake	-8.84525
▁space	-8.84547
▁mir	-8.84563
▁position	-8.84624
▁protestant	-8.8463
▁message	-8.84646
▁spring	-8.84676
▁believed	-8.84752
▁soul	-8.84854
ting	-8.84914
▁wall	-8.85249
▁square	-8.85372
▁dogs	-8.85382
▁peace	-8.85469
▁hed	-8.85505
▁prove	-8.85539
▁using	-8.85693
▁except	-8.85693
▁allow	-8.85698
▁i	-8.85815
▁drummin	-8.8582
▁instead	-8.85864
▁wednesday	-8.85864
▁weird	-8.85864
▁wolf	-8.85865
▁police	-8.85866
▁coffee	-8.85874
▁stuck	-8.85876
▁project	-8.8588
▁brandon	-8.85883
▁began	-8.85884
▁giggles	-8.85892
▁worst	-8.85898
▁russ	-8.85909
▁telling	-8.85954
▁tired	-8.8598
▁incredible	-8.85988
▁hooting	-8.86059
▁ships	-8.86069
▁americana	-8.86146
▁finn	-8.86533
▁friendly	-8.86616
▁cash	-8.86798
▁age	-8.87199
▁quit	-8.87402
▁blow	-8.87718
▁realize	-8.87742
▁works	-8.87926
▁fool	-8.88113
▁language	-8.88192
▁fella	-8.88446
▁radio	-8.88613
▁touch	-8.89135
▁in	-8.89154
▁taste	-8.8919
▁meant	-8.89239
▁loud	-8.89295
▁je	-8.89318
▁honest	-8.89367
▁names	-8.894
▁royal	-8.89427
▁somehow	-8.89435
▁puppies	-8.89437
▁information	-8.89441
▁murmuring	-8.89444
▁bob	-8.89501
▁scary	-8.89506
▁silly	-8.89518
▁gasping	-8.89523
▁interested	-8.89543
▁yall	-8.89596
▁sky	-8.89645
▁sent	-8.89934
▁cute	-8.90517
▁mile	-8.90633
▁rich	-8.90659
▁tight	-8.90672
▁guns	-8.90739
▁opens	-8.90769
▁states	-8.90962
▁ma	-8.91126
▁starts	-8.91424
less	-8.91711
▁ko	-8.91806
▁grandmother	-8.91874
▁respect	-8.92207
ance	-8.92325
▁pack	-8.92571
et	-8.92731
▁bother	-8.9277
iel	-8.92829
▁accept	-8.92861
▁final	-8.92864
▁push	-8.93032
▁personal	-8.93133
▁neither	-8.9314
▁ronnie	-8.93141
▁whether	-8.93142
▁kept	-8.93143
▁roger	-8.93151
▁tummy	-8.93154
▁grover	-8.93155
▁journey	-8.93185
▁roof	-8.93198
▁brian	-8.93208
▁bigger	-8.93209
▁speed	-8.9325
▁sh	-8.93291
▁coughing	-8.93292
▁crying	-8.93412
▁roo	-8.93489
▁ran	-8.93525
▁planet	-8.93919
▁keys	-8.94123
▁fighting	-8.94186
nt	-8.94212
le	-8.94235
▁common	-8.9477
▁command	-8.94896
ally	-8.94985
▁eh	-8.95066
as	-8.95206
▁hero	-8.95403
um	-8.9543
▁favorite	-8.95617
▁flavor	-8.9572
▁wagon	-8.9576
▁jesuit	-8.95805
▁grab	-8.96407
▁park	-8.96414
▁glass	-8.96575
▁madam	-8.96625
▁pray	-8.96638
▁notice	-8.96757
▁support	-8.96792
▁jeanpaul	-8.96985
▁cherie	-8.96988
▁grandma	-8.96988
▁buddy	-8.9699
▁danny	-8.96994
▁madrat	-8.96999
▁repeat	-8.97003
▁everywhere	-8.97007
▁dress	-8.97016
▁deserve	-8.97024
▁government	-8.97056
▁obviously	-8.97067
p	-8.97144
▁gale	-8.97205
▁allowed	-8.97295
▁bus	-8.97305
▁main	-8.97391
▁holy	-8.97436
▁lived	-8.98698
▁sail	-8.98725
▁ii	-8.99119
▁roll	-8.99397
▁track	-8.99518
▁ted	-8.9965
▁miracle	-8.99739
▁machine	-8.99816
▁month	-8.99903
▁tru	-8.99997
▁toy	-9.00321
go	-9.00459
ton	-9.00612
▁rid	-9.00794
▁share	-9.00829
▁chase	-9.00844
▁europe	-9.00963
▁fred	-9.00967
▁announce	-9.00979
▁charlene	-9.00985
▁choose	-9.00986
▁within	-9.00986
▁reef	-9.00987
▁bower	-9.00987
▁third	-9.00994
▁mickey	-9.00995
▁racist	-9.00995
▁felt	-9.00995
▁mister	-9.00999
▁percy	-9.01004
▁willing	-9.01006
▁panting	-9.01009
▁kidding	-9.01011
▁dumb	-9.01011
▁paul	-9.01029
▁worse	-9.01043
▁afternoon	-9.01054
▁famous	-9.01054
▁mur	-9.01133
▁lotso	-9.01219
▁nose	-9.01249
▁boat	-9.01279
▁jake	-9.0129
▁finished	-9.01341
▁pool	-9.01428
▁goodness	-9.0146
▁bomb	-9.01522
over	-9.01835
▁happening	-9.01836
▁yay	-9.02078
▁rings	-9.02201
▁whose	-9.02734
▁mo	-9.02772
▁sharks	-9.02813
▁agree	-9.02911
▁rain	-9.02978
▁asking	-9.03006
▁bro	-9.03526
▁worlds	-9.03568
▁over	-9.03722
▁continue	-9.03769
▁civil	-9.03906
▁priest	-9.03924
▁clue	-9.03959
▁heaven	-9.04007
▁cor	-9.04043
▁practice	-9.04045
up	-9.04053
th	-9.04053
▁hour	-9.04128
▁paper	-9.04148
▁mum	-9.0437
▁extreme	-9.04372
▁table	-9.04399
▁destroy	-9.04486
▁plans	-9.04669
▁tuck	-9.04852
▁cover	-9.04959
▁ways	-9.04961
▁false	-9.04971
▁excellent	-9.05152
▁humphrey	-9.05152
▁isabella	-9.05152
▁cuzco	-9.05152
▁chinese	-9.05152
▁previous	-9.05153
▁weather	-9.05153
▁reformation	-9.05154
▁werent	-9.05155
▁energy	-9.05161
▁spent	-9.05174
▁aldo	-9.05183
▁pooh	-9.05191
▁goofy	-9.05208
▁dirty	-9.05212
▁circus	-9.05218
▁claude	-9.05294
▁usually	-9.05297
▁correct	-9.05481
▁normal	-9.05483
▁problems	-9.05635
▁passed	-9.05688
▁shoes	-9.05747
▁seemed	-9.05814
▁mm	-9.06143
el	-9.06213
▁calls	-9.06365
▁list	-9.06466
re	-9.06601
▁reading	-9.06981
▁whoo	-9.07004
▁pip	-9.0716
▁parts	-9.07338
▁games	-9.07866
▁tells	-9.07943
▁talent	-9.07946
▁da	-9.08185
▁gift	-9.08193
▁decision	-9.08226
▁vote	-9.08254
▁village	-9.08282
▁panda	-9.08327
▁area	-9.08408
▁swing	-9.0854
▁spot	-9.08559
▁cost	-9.08722
▁mate	-9.08786
▁store	-9.09046
▁dan	-9.09127
▁stupid	-9.0934
▁maj	-9.09482
▁yo	-9.09499
▁beyond	-9.095
▁cardinal	-9.095
▁education	-9.095
▁missouri	-9.095
▁stinky	-9.095
▁cleveland	-9.095
▁carnival	-9.09501
▁pardon	-9.09502
▁breakfast	-9.09502
▁contest	-9.09503
▁michelle	-9.09506
▁knowledge	-9.09513
▁trumpeting	-9.09528
▁rule	-9.09532
▁highness	-9.09567
▁size	-9.09589
▁growling	-9.09618
▁broken	-9.09682
▁fore	-9.0976
▁bank	-9.0977
▁plays	-9.09854
▁rare	-9.09901
ant	-9.09977
▁do	-9.10006
▁loved	-9.10047
▁tall	-9.10061
▁flowers	-9.10074
▁bleat	-9.10197
▁si	-9.10244
▁discuss	-9.10539
▁form	-9.10571
▁rover	-9.1063
ily	-9.10671
▁teaching	-9.10816
▁runt	-9.11207
▁watching	-9.11302
▁hall	-9.11531
▁lies	-9.1163
▁bar	-9.11725
▁moon	-9.12029
ian	-9.12098
ie	-9.12283
▁scholars	-9.12509
▁ring	-9.12601
▁mi	-9.12719
▁chicken	-9.1278
▁partner	-9.12844
▁snow	-9.12883
ment	-9.13032
▁key	-9.1334
age	-9.13378
▁jump	-9.13381
▁henr	-9.13538
da	-9.1358
▁indian	-9.13606
ence	-9.13847
▁where	-9.13879
▁excited	-9.13885
▁nervous	-9.13892
▁escape	-9.13896
ty	-9.13938
▁mouth	-9.14038
▁abigail	-9.14045
▁awesome	-9.14045
▁geranium	-9.14045
▁science	-9.14045
▁stannis	-9.14045
▁rescue	-9.14045
▁fantastic	-9.14045
▁arthur	-9.14046
▁sweetheart	-9.14048
▁giggling	-9.14048
▁plenty	-9.14049
▁throat	-9.14051
▁brilliant	-9.14055
▁impossible	-9.14077
▁rosy	-9.14081
▁flight	-9.14082
▁hotel	-9.141
▁written	-9.14113
▁betsy	-9.14138
▁fellow	-9.14166
▁screaming	-9.14257
▁winning	-9.1426
▁elephants	-9.14358
▁perfectly	-9.14523
▁fingers	-9.14524
▁ringing	-9.1459
▁closer	-9.14631
▁mars	-9.14753
▁bell	-9.14851
▁hole	-9.15069
▁appreciate	-9.15208
▁indians	-9.15242
▁favor	-9.15246
▁lay	-9.15252
▁sand	-9.15295
is	-9.15313
▁ends	-9.15379
▁how	-9.1541
▁helping	-9.1559
rs	-9.15749
▁natural	-9.1576
▁ugh	-9.15839
▁explore	-9.16034
▁sniff	-9.16685
ish	-9.16927
▁dete	-9.17089
▁force	-9.17393
▁search	-9.17418
▁forest	-9.17458
▁pa	-9.17526
▁level	-9.17705
▁cook	-9.1772
▁truck	-9.17726
▁yell	-9.17733
▁gate	-9.17921
▁pet	-9.18169
▁east	-9.18523
▁glow	-9.18563
ism	-9.18627
▁handle	-9.1864
▁text	-9.18674
▁stole	-9.1869
▁survive	-9.1877
▁color	-9.18801
▁competition	-9.18807
▁pocahontas	-9.18807
▁cricket	-9.18807
▁wolves	-9.18807
▁opportunity	-9.18808
▁indistinct	-9.18808
▁happiness	-9.18808
▁steady	-9.18808
▁chuckling	-9.18808
▁club	-9.18809
▁apart	-9.1881
▁attention	-9.18811
▁theory	-9.18816
▁united	-9.18834
▁stopped	-9.18839
▁mmhmm	-9.18851
▁loose	-9.18855
▁totally	-9.18895
▁army	-9.18914
▁lois	-9.18914
▁howd	-9.18979
▁road	-9.19011
▁necessary	-9.19034
▁pal	-9.19059
▁writing	-9.19065
▁o	-9.19089
▁nearly	-9.1913
▁figured	-9.19246
▁wings	-9.19302
▁mis	-9.19455
w	-9.19482
▁filming	-9.19651
▁tia	-9.19728
▁tape	-9.19811
▁mission	-9.20071
▁pandas	-9.20118
▁bears	-9.20267
▁democrats	-9.20605
▁mu	-9.20661
lloween	-9.20954
▁pata	-9.21296
▁holding	-9.21476
▁dis	-9.21712
▁out	-9.21944
▁di	-9.21984
▁sisters	-9.22166
▁treat	-9.22179
▁trees	-9.22374
▁monday	-9.22397
▁brazilian	-9.22499
▁gang	-9.22549
▁religion	-9.2256
▁chiru	-9.22567
▁service	-9.22572
▁double	-9.22603
▁scripture	-9.22615
▁generation	-9.22677
▁test	-9.22688
▁wine	-9.22693
▁type	-9.22857
▁national	-9.22941
ta	-9.23257
▁liked	-9.23365
▁lion	-9.23414
▁fit	-9.23608
ine	-9.23639
▁public	-9.23777
▁dorothy	-9.23807
▁rottenmeier	-9.23807
▁audience	-9.23807
▁edgar	-9.23807
▁kitchen	-9.23807
▁testament	-9.23807
▁chicago	-9.23808
▁queen	-9.23808
▁washington	-9.23808
▁winslow	-9.23809
▁slavery	-9.23815
▁empty	-9.23823
▁hasnt	-9.23826
▁shame	-9.23835
▁jail	-9.23836
▁guilty	-9.23846
▁kate	-9.23853
▁emily	-9.23865
▁yep	-9.23894
▁sitting	-9.23912
▁shape	-9.23913
▁bridge	-9.23937
▁tiny	-9.23984
▁butter	-9.24009
▁putting	-9.24033
▁chicks	-9.24042
▁boom	-9.24166
▁bo	-9.24191
▁realized	-9.24201
▁grade	-9.24217
▁battle	-9.24244
▁bones	-9.2444
▁signed	-9.2446
▁higher	-9.24484
▁wearing	-9.24611
▁shit	-9.24627
▁promised	-9.24645
▁growing	-9.24706
▁rise	-9.24747
▁legs	-9.2483
▁closed	-9.25198
▁toys	-9.25204
▁older	-9.25229
ar	-9.25295
▁fan	-9.25314
▁rent	-9.25328
▁blows	-9.2553
▁v	-9.25684
▁pictures	-9.25996
▁se	-9.26042
▁smells	-9.26172
▁ab	-9.26345
ful	-9.26555
ever	-9.26746
▁goin	-9.27207
though	-9.2727
▁loyal	-9.27293
▁owe	-9.27334
▁missing	-9.2737
▁tao	-9.27373
▁suggest	-9.27499
▁remain	-9.2759
▁trap	-9.27717
▁petal	-9.27779
▁hundred	-9.27956
▁books	-9.2806
▁station	-9.28078
▁member	-9.282
ent	-9.28429
▁ash	-9.28902
▁judge	-9.28992
▁broke	-9.29037
▁places	-9.29045
▁celeste	-9.2907
▁lincoln	-9.2907
▁liquor	-9.2907
▁scientific	-9.2907
▁sesemann	-9.2907
▁often	-9.29071
▁clemons	-9.29071
▁evidence	-9.29072
▁staff	-9.29072
▁remote	-9.29072
▁thunder	-9.29073
▁viren	-9.29079
▁jones	-9.29082
▁grew	-9.29088
▁mommy	-9.2909
▁powerful	-9.29092
▁smoking	-9.29093
▁sunday	-9.29095
▁yellow	-9.291
▁simply	-9.29103
▁blame	-9.29117
▁universe	-9.29126
▁under	-9.29131
▁bought	-9.29131
▁chirp	-9.29169
▁cry	-9.29196
▁locker	-9.29202
f	-9.29221
▁furlings	-9.29239
time	-9.29251
▁carder	-9.2928
▁seriously	-9.29302
▁signal	-9.29305
▁origin	-9.29312
▁created	-9.29321
▁held	-9.29347
▁hiding	-9.29353
▁statue	-9.29377
▁gotten	-9.29449
▁pe	-9.29628
▁cave	-9.2972
▁blacks	-9.29921
▁wet	-9.30292
▁admit	-9.30339
▁learning	-9.30433
▁walking	-9.30562
▁wondering	-9.30598
▁suit	-9.3062
▁doors	-9.3082
▁tea	-9.31458
▁consider	-9.31666
▁cross	-9.31869
▁hunt	-9.32136
ate	-9.32435
ial	-9.32624
▁who	-9.3269
▁hospital	-9.33175
▁n	-9.33201
▁traitor	-9.33298
▁ken	-9.33388
▁river	-9.33427
▁pair	-9.3345
▁discover	-9.33513
▁jim	-9.33526
▁storm	-9.33538
▁horn	-9.33616
▁ri	-9.33744
▁cop	-9.33835
▁base	-9.3391
▁hill	-9.34106
▁helped	-9.34114
▁pro	-9.34341
▁decide	-9.34355
▁strength	-9.34363
▁spoke	-9.34499
▁boatwright	-9.34626
▁congratulations	-9.34626
▁joseph	-9.34626
▁oscar	-9.34626
▁pedro	-9.34626
▁gorgeous	-9.34626
▁modern	-9.34626
▁purpose	-9.34626
▁unique	-9.34627
▁edward	-9.34628
▁charley	-9.34628
▁angry	-9.34633
▁dawn	-9.34634
▁samba	-9.34637
▁outta	-9.34639
▁dreams	-9.34645
▁summer	-9.3465
▁russell	-9.3465
▁dig	-9.3465
▁tj	-9.34655
▁calm	-9.34669
▁immediately	-9.34671
▁ch	-9.34713
▁risk	-9.34733
▁fastest	-9.34755
▁hypnotized	-9.34758
▁quito	-9.34794
▁blast	-9.34795
▁settled	-9.348
▁heck	-9.34804
▁season	-9.34806
▁meat	-9.34895
▁coach	-9.34966
▁students	-9.3501
▁returned	-9.35327
▁nine	-9.35333
▁lily	-9.35352
▁note	-9.35371
▁gather	-9.35387
▁sight	-9.35501
▁leg	-9.35788
▁gee	-9.35896
▁fellas	-9.36541
▁pot	-9.36541
▁feels	-9.36617
▁spirits	-9.3666
▁killing	-9.36721
▁tradition	-9.36932
▁republicans	-9.36933
▁cro	-9.37021
▁blim	-9.37218
ch	-9.37533
▁ex	-9.3761
▁manuscripts	-9.37966
▁counter	-9.3798
▁knock	-9.38365
ne	-9.38513
▁extra	-9.38577
▁tom	-9.386
▁rocks	-9.38843
▁challenge	-9.38875
▁character	-9.39057
▁theme	-9.39116
▁price	-9.39183
id	-9.39204
▁noise	-9.39272
▁scotty	-9.39275
▁thousand	-9.39309
▁depend	-9.39422
▁path	-9.39555
▁breath	-9.39622
▁experiment	-9.3981
▁points	-9.39841
▁remind	-9.3985
▁doc	-9.4003
▁hu	-9.40078
▁kings	-9.40316
▁soft	-9.40368
▁sharp	-9.40409
▁fresh	-9.4042
▁usual	-9.40447
▁create	-9.40454
▁crack	-9.40484
▁genuine	-9.40492
▁environment	-9.40508
▁mexico	-9.40508
▁mystery	-9.40508
▁pelias	-9.40508
▁yummies	-9.40508
▁horrible	-9.40508
▁relax	-9.40508
▁rosita	-9.40508
▁charlon	-9.40509
▁lulu	-9.40509
▁cowboy	-9.40509
▁someday	-9.4051
▁fleece	-9.40511
▁heavy	-9.40513
▁chef	-9.40513
▁upset	-9.40514
▁wherever	-9.40518
▁bravo	-9.40518
▁france	-9.40519
▁romantic	-9.40522
▁nonsense	-9.40523
▁chasing	-9.40535
▁jimmie	-9.40538
▁address	-9.40546
▁neck	-9.40556
▁becoming	-9.40593
▁fortune	-9.40603
▁violet	-9.40611
▁flat	-9.40614
▁en	-9.40627
▁oops	-9.40644
▁concert	-9.40674
▁mount	-9.40695
▁howling	-9.40707
▁calvin	-9.40716
▁lope	-9.40752
▁letha	-9.40796
▁rumbling	-9.40974
▁recorder	-9.40985
▁deeply	-9.41009
▁va	-9.41054
▁prisoners	-9.4108
▁paws	-9.41098
▁tickle	-9.41132
▁dancing	-9.412
▁pure	-9.41229
▁meters	-9.41246
▁fuck	-9.4126
▁screams	-9.41366
▁sayers	-9.41458
▁farm	-9.41586
il	-9.41805
▁sub	-9.41896
▁there	-9.41916
▁hanging	-9.41953
▁approach	-9.41998
▁behave	-9.42153
▁papers	-9.42235
▁paint	-9.42322
▁woods	-9.42328
ist	-9.42461
▁heat	-9.42951
▁cheer	-9.43001
ra	-9.43469
▁ears	-9.43516
▁bringing	-9.43837
▁gr	-9.44014
▁tie	-9.44038
ary	-9.44292
▁catholics	-9.44534
▁can	-9.44625
▁report	-9.44641
warren	-9.44767
▁heh	-9.45105
▁ruin	-9.4526
▁border	-9.45337
im	-9.45414
▁honour	-9.45414
▁statement	-9.45461
▁amen	-9.45488
▁bernier	-9.45501
▁russian	-9.45534
▁whistle	-9.45555
▁camera	-9.45585
▁elsa	-9.45598
▁account	-9.45628
▁group	-9.4563
▁guest	-9.45633
▁off	-9.45662
▁ideas	-9.45855
▁officer	-9.45963
▁wood	-9.45996
▁mud	-9.46068
u	-9.46073
▁brain	-9.46091
▁due	-9.46269
▁bag	-9.46274
z	-9.46317
▁desire	-9.46478
▁prepare	-9.46504
▁mash	-9.46549
▁successful	-9.46602
▁accident	-9.46758
▁bdawg	-9.46758
▁oclock	-9.46758
▁progress	-9.46758
▁rufus	-9.46758
▁situation	-9.46758
▁whimpering	-9.46758
▁zelda	-9.46758
▁hollywood	-9.46758
▁peanut	-9.46758
▁squadron	-9.46758
▁telephone	-9.46758
▁saturday	-9.46758
▁desmond	-9.46758
▁afford	-9.46759
▁virginia	-9.46759
▁mostly	-9.46759
▁norwood	-9.46759
▁permission	-9.46759
▁racism	-9.4676
▁valerie	-9.4676
▁booga	-9.46762
▁asleep	-9.46763
▁omar	-9.46764
▁jojo	-9.46766
▁swimming	-9.46767
▁gregory	-9.46769
▁turkey	-9.46769
▁trash	-9.4677
▁iron	-9.46774
▁divine	-9.46775
▁involved	-9.46784
▁onto	-9.46818
▁lola	-9.4683
▁winner	-9.46832
▁responsible	-9.46839
▁operation	-9.46841
▁according	-9.46847
▁honking	-9.46847
▁mule	-9.4685
▁alba	-9.46851
▁toss	-9.46855
▁duty	-9.46865
▁provided	-9.46882
▁mike	-9.46894
▁groans	-9.46902
▁sardines	-9.4696
▁gary	-9.46972
▁cream	-9.46977
▁arrived	-9.46979
▁stronger	-9.47021
▁tour	-9.47078
lden	-9.4709
▁amount	-9.47104
▁destroyed	-9.47166
▁sake	-9.47335
▁lying	-9.47434
▁europa	-9.47556
▁toward	-9.47571
▁creatures	-9.47582
dy	-9.47691
▁walked	-9.4796
▁thousands	-9.4805
▁following	-9.48289
▁val	-9.48452
▁moved	-9.48502
▁bang	-9.48551
ley	-9.48586
▁walls	-9.4865
▁souls	-9.4874
▁receive	-9.48822
▁he	-9.48858
▁fat	-9.4892
▁hatch	-9.49101
▁mothers	-9.49337
▁standing	-9.49342
▁pig	-9.4945
out	-9.49458
▁belongs	-9.49677
▁x	-9.49773
▁defend	-9.50153
▁li	-9.50656
▁fur	-9.50767
▁lo	-9.5113
▁vi	-9.51183
▁andys	-9.51304
▁numbers	-9.51312
▁cub	-9.51624
▁snap	-9.51644
▁add	-9.51745
▁likes	-9.51864
▁she	-9.52026
os	-9.52095
▁travel	-9.52183
▁insist	-9.5225
▁joke	-9.52284
▁pleased	-9.52316
▁adventure	-9.52373
▁chair	-9.52409
▁action	-9.52417
▁knee	-9.52597
▁duck	-9.5269
▁rope	-9.52728
ah	-9.52772
▁indi	-9.52773
▁process	-9.5301
▁y	-9.53102
▁capture	-9.53172
▁waste	-9.53215
▁marvelous	-9.53243
▁keeping	-9.53276
▁particular	-9.53277
▁obvious	-9.53281
▁ronald	-9.5331
▁crow	-9.53346
▁bouncin	-9.5338
▁paris	-9.5338
▁caballeros	-9.53425
▁clamoring	-9.53425
▁miserable	-9.53425
▁sebastian	-9.53425
▁tunnel	-9.53425
▁bacteria	-9.53425
▁regret	-9.53425
▁buddies	-9.53425
▁montana	-9.53425
▁medicine	-9.53426
▁sidewalks	-9.53426
▁duncan	-9.53426
▁claudette	-9.53427
▁savage	-9.53428
▁humming	-9.53428
▁kitty	-9.53431
▁warlock	-9.53436
▁birthday	-9.53436
▁thanksgiving	-9.53436
▁twice	-9.53437
▁jenny	-9.53437
▁authority	-9.53438
▁bouncy	-9.53444
▁suggestion	-9.53452
▁suddenly	-9.5346
▁safety	-9.53465
▁gena	-9.53472
▁trade	-9.53474
▁pastor	-9.53492
▁saucer	-9.5351
▁political	-9.53521
▁clever	-9.53521
▁biblical	-9.53528
▁halloween	-9.53528
▁politics	-9.53528
▁rebecca	-9.53529
land	-9.5354
▁stage	-9.53633
▁awaken	-9.53637
les	-9.53641
▁setting	-9.53672
▁published	-9.53708
▁boots	-9.53805
▁butt	-9.53853
▁dare	-9.53873
▁dressed	-9.53964
▁rolfe	-9.53989
▁lake	-9.53996
▁conditions	-9.54096
▁weapons	-9.54141
▁corner	-9.54229
▁pounds	-9.54247
▁churches	-9.54423
▁documents	-9.54483
▁pic	-9.5452
▁talks	-9.54719
▁cheers	-9.54725
▁victor	-9.54882
▁gosh	-9.54891
▁hundreds	-9.54976
▁hills	-9.54976
▁everybodys	-9.5519
▁opera	-9.55353
tail	-9.55497
▁breathe	-9.55608
▁turns	-9.55783
▁neat	-9.55875
▁par	-9.56109
▁maid	-9.5621
▁ye	-9.56274
▁row	-9.56489
▁po	-9.56501
▁seat	-9.56872
▁fathers	-9.56904
▁cr	-9.5705
▁answers	-9.57151
▁z	-9.57216
▁worship	-9.57544
son	-9.58041
▁stars	-9.58176
▁feed	-9.58188
▁staying	-9.58677
▁meaning	-9.58721
▁governor	-9.59129
▁expert	-9.59177
▁lap	-9.59256
▁direction	-9.59333
▁effort	-9.59345
▁particle	-9.59361
▁lesson	-9.59493
▁engine	-9.59659
▁shows	-9.59877
▁blind	-9.60022
▁woo	-9.6029
▁elliot	-9.60318
▁changes	-9.6034
▁necessar	-9.60346
agne	-9.60451
▁bunch	-9.60503
▁exact	-9.60556
▁sugar	-9.60567
▁absurd	-9.60568
▁acastus	-9.60568
▁centuries	-9.60568
▁jealous	-9.60568
▁kirby	-9.60568
▁quinceanera	-9.60568
▁research	-9.60568
▁salvatore	-9.60568
▁shackelford	-9.60568
▁vineyard	-9.60568
▁wharf	-9.60568
▁schmauss	-9.60568
▁society	-9.60568
▁applause	-9.60568
▁relationship	-9.60568
▁obama	-9.60568
▁ridiculous	-9.60568
▁silver	-9.60568
▁oregon	-9.60568
▁barbie	-9.60569
▁tardone	-9.60569
▁welfare	-9.60569
▁french	-9.60569
▁advice	-9.60569
▁criticism	-9.60569
▁expensive	-9.60569
▁cheese	-9.6057
▁religious	-9.6057
▁harrison	-9.6057
▁conversation	-9.6057
▁easier	-9.6057
▁doorbell	-9.60572
▁quince	-9.60573
▁possibly	-9.60575
▁accent	-9.60575
▁zeus	-9.60575
▁enemies	-9.60577
▁giant	-9.60578
▁threw	-9.6058
▁basically	-9.60582
▁puppy	-9.60583
▁however	-9.60584
▁wiggle	-9.60602
▁enemy	-9.60648
▁santa	-9.60662
▁thumper	-9.6067
▁period	-9.60675
▁pride	-9.60699
▁shoulder	-9.60704
▁carbonated	-9.60728
▁artist	-9.60735
▁healthy	-9.60739
▁magical	-9.6075
▁loving	-9.60768
▁clicks	-9.60773
▁parties	-9.60812
▁discovery	-9.60846
▁sample	-9.60857
▁sword	-9.60861
▁filled	-9.60879
▁plain	-9.60883
▁kent	-9.60888
▁market	-9.60921
▁discovered	-9.61008
▁runner	-9.61008
▁peters	-9.61025
▁assure	-9.61058
▁carefully	-9.61076
▁grown	-9.61102
▁glowing	-9.61145
▁noticed	-9.61154
▁terms	-9.61167
oh	-9.61179
▁talkin	-9.61233
▁orders	-9.6124
▁up	-9.61308
▁commander	-9.61379
▁blowing	-9.61399
▁arms	-9.61436
▁distance	-9.61441
▁coughs	-9.61616
▁studying	-9.61631
cy	-9.61672
▁followed	-9.6178
▁pine	-9.61947
▁spare	-9.61969
▁mid	-9.62005
▁members	-9.62075
▁hated	-9.6223
▁scriptures	-9.62315
▁cup	-9.62352
▁couldve	-9.62562
▁dry	-9.62566
▁mall	-9.6279
▁historic	-9.62817
b	-9.63026
▁hunting	-9.63173
▁ghosts	-9.63396
▁mail	-9.63821
▁showed	-9.6394
▁tire	-9.64145
to	-9.64232
▁wh	-9.6437
▁eating	-9.64394
▁feelings	-9.64625
▁begins	-9.6463
▁shells	-9.64674
way	-9.65058
tic	-9.65138
▁fame	-9.65249
▁shake	-9.65797
red	-9.66009
▁dollar	-9.66096
ur	-9.66321
at	-9.66534
▁pressure	-9.66569
▁rights	-9.66593
▁trial	-9.66723
▁document	-9.66767
▁scare	-9.66828
▁african	-9.66856
▁margo	-9.66872
▁vent	-9.66875
▁hm	-9.66894
▁original	-9.66901
▁rabbit	-9.66914
▁floor	-9.66933
▁dawg	-9.6705
▁monkey	-9.67077
▁pop	-9.67113
▁thinks	-9.67387
▁india	-9.67421
▁le	-9.67451
▁focus	-9.67482
▁for	-9.67546
▁draw	-9.67573
▁jar	-9.67625
▁male	-9.67662
▁birth	-9.67786
▁zoo	-9.67956
▁deliver	-9.67998
▁page	-9.68049
iest	-9.68056
▁total	-9.68127
▁settle	-9.68152
▁nothin	-9.68214
▁object	-9.68217
▁trump	-9.68234
▁budderball	-9.6826
▁chocolate	-9.6826
▁conflict	-9.6826
▁dubovsky	-9.6826
▁erasmus	-9.6826
▁glurp	-9.6826
▁innocent	-9.6826
▁museum	-9.6826
▁thomas	-9.6826
▁guitar	-9.6826
▁underground	-9.6826
▁sunnyside	-9.6826
▁material	-9.6826
▁knife	-9.68261
▁charlie	-9.68261
▁stroke	-9.68261
▁mysterious	-9.68262
▁denise	-9.68262
▁stunned	-9.68263
▁byebye	-9.68264
▁celebration	-9.68264
▁piglet	-9.68265
▁mmmhmm	-9.68266
▁population	-9.68266
▁rudi	-9.68266
▁senor	-9.68266
▁louis	-9.68266
▁rotten	-9.68267
▁babies	-9.68267
▁performance	-9.68268
▁version	-9.68269
▁pearl	-9.68269
▁emergency	-9.6827
▁alexander	-9.68273
▁forgotten	-9.68273
▁beach	-9.68275
▁university	-9.68275
▁attic	-9.68276
▁lonely	-9.68283
▁catholicism	-9.68287
▁extraordinary	-9.68288
▁nope	-9.68296
▁nigger	-9.68302
▁thatll	-9.68302
▁curry	-9.6831
▁earlier	-9.68312
▁brent	-9.68314
▁including	-9.68316
▁chloe	-9.68323
▁scoffs	-9.68324
▁sickle	-9.68326
▁boring	-9.68353
▁friendship	-9.68358
▁saving	-9.68363
▁grateful	-9.68377
▁button	-9.68391
▁whispering	-9.68398
▁fourth	-9.68399
▁com	-9.68403
▁details	-9.68414
▁reformers	-9.68417
▁christianity	-9.68447
▁softly	-9.68452
▁legal	-9.68461
▁germany	-9.68466
▁hup	-9.68475
▁goodnight	-9.68487
▁toothy	-9.68495
▁dust	-9.68499
▁shorter	-9.68509
▁raised	-9.68512
ling	-9.68547
▁whe	-9.68553
▁cooke	-9.68572
▁local	-9.68579
▁larger	-9.68628
do	-9.68651
he	-9.68673
▁chain	-9.68696
▁chased	-9.68756
▁culture	-9.68804
▁slaves	-9.68816
▁accepted	-9.68826
▁monks	-9.68835
▁jespah	-9.69012
▁cooking	-9.69023
▁surprised	-9.69062
score	-9.69209
▁barks	-9.69226
▁gay	-9.69249
▁wise	-9.69251
▁darn	-9.6927
▁nest	-9.69387
▁cliff	-9.69393
▁harm	-9.69549
▁lately	-9.6958
▁brains	-9.69627
▁cops	-9.69675
▁fired	-9.69678
▁expecting	-9.69686
▁guests	-9.69717
▁picked	-9.69827
▁match	-9.69869
▁proper	-9.69896
▁magnet	-9.69965
▁to	-9.69977
▁introduce	-9.70494
rectly	-9.70703
▁scholar	-9.70958
▁aha	-9.70975
▁squawk	-9.71028
▁breaking	-9.71031
▁ages	-9.7108
▁bust	-9.71091
▁shed	-9.71171
sh	-9.71276
pata	-9.71302
ia	-9.71349
ford	-9.71357
▁traditional	-9.71389
▁aim	-9.7146
tom	-9.71576
▁art	-9.71616
▁uhh	-9.7166
v	-9.71671
▁opening	-9.71996
▁press	-9.71998
▁guide	-9.72184
▁bands	-9.72399
▁wealth	-9.72424
ay	-9.72448
▁witness	-9.7249
▁ac	-9.72509
▁kick	-9.72516
▁millions	-9.72587
▁lt	-9.72643
▁understanding	-9.72676
ons	-9.72891
ng	-9.73075
▁masters	-9.73236
ted	-9.7336
▁dive	-9.73436
▁americans	-9.7381
▁comm	-9.7423
never	-9.74388
▁release	-9.74443
back	-9.74543
▁listening	-9.74558
hypnoti	-9.74585
▁burn	-9.74732
se	-9.74762
▁beg	-9.7481
▁ca	-9.74832
▁arch	-9.7492
▁scream	-9.75009
▁claim	-9.75089
▁lights	-9.75133
▁arrive	-9.75136
▁idiot	-9.7514
▁crime	-9.7514
▁mass	-9.75166
▁german	-9.75171
▁score	-9.75288
▁opinion	-9.75338
▁newspaper	-9.75344
▁rose	-9.75353
▁amigo	-9.75365
▁pilot	-9.75374
▁cloud	-9.75384
▁sewer	-9.75396
▁movie	-9.75405
▁pi	-9.75414
▁devil	-9.75425
▁crane	-9.75445
▁hop	-9.75489
▁belief	-9.75502
▁lock	-9.75533
▁feather	-9.75559
▁cap	-9.75617
▁guard	-9.75663
▁shoe	-9.75932
▁moms	-9.76035
▁screech	-9.76054
▁meal	-9.7607
▁wash	-9.76093
ors	-9.76103
▁mmmmmmmm	-9.76107
▁launch	-9.76157
▁wheel	-9.76234
▁silence	-9.76269
▁chew	-9.76281
▁adopt	-9.76319
▁require	-9.76326
▁regular	-9.76421
▁pretend	-9.76458
▁chose	-9.76473
▁prison	-9.76474
▁rush	-9.76526
▁recognize	-9.76537
▁enter	-9.76538
▁brand	-9.76569
▁comrade	-9.76593
▁footsteps	-9.76593
▁fraulein	-9.76593
▁gammoudi	-9.76593
▁gospel	-9.76593
▁munroe	-9.76593
▁communities	-9.76593
▁nonenglish	-9.76593
▁subject	-9.76593
▁influence	-9.76594
▁katie	-9.76594
▁garcia	-9.76594
▁stratton	-9.76594
▁scene	-9.76594
▁sermon	-9.76594
▁lawrence	-9.76594
▁hadnt	-9.76594
▁bleep	-9.76595
▁signature	-9.76596
▁nowhere	-9.76597
▁stewart	-9.766
▁pleasure	-9.76601
▁memories	-9.76603
▁football	-9.76605
▁whoopdedooper	-9.76607
▁precious	-9.76609
▁fascinating	-9.76609
▁grandmama	-9.7661
▁foolish	-9.76612
▁delight	-9.76614
▁cities	-9.76618
▁studied	-9.76621
▁cleo	-9.76635
▁fought	-9.76639
▁johnny	-9.76641
▁apply	-9.76648
▁molecul	-9.76651
▁forgery	-9.76651
▁constantine	-9.76654
▁deck	-9.76662
▁edge	-9.76667
▁sweetie	-9.76672
▁bowerman	-9.7668
▁minus	-9.76714
▁beeping	-9.76724
▁bored	-9.76735
▁exclaim	-9.76738
▁planned	-9.76746
▁declared	-9.76752
▁former	-9.76775
▁fleet	-9.76808
▁destiny	-9.76811
▁sink	-9.76812
▁cake	-9.76828
▁style	-9.76856
▁plus	-9.76858
▁sentence	-9.76873
▁locked	-9.76875
▁dying	-9.76877
▁weight	-9.76879
▁arm	-9.76897
▁phil	-9.76912
▁captured	-9.76915
▁dove	-9.76964
▁courage	-9.76965
▁trunk	-9.76971
▁ear	-9.77023
▁colored	-9.77036
▁award	-9.77058
▁prepared	-9.7706
▁files	-9.77081
▁ridge	-9.7709
▁agreed	-9.77142
▁du	-9.77169
▁switch	-9.77209
▁spellers	-9.77252
▁searching	-9.77259
▁eggs	-9.77272
▁no	-9.77444
▁heads	-9.77518
▁plants	-9.77664
▁pages	-9.77801
▁guards	-9.77802
▁claims	-9.77833
▁counting	-9.77837
▁praying	-9.77855
▁males	-9.77903
▁shy	-9.77919
▁deny	-9.77991
▁hook	-9.78202
▁unfortunate	-9.78252
▁gas	-9.78292
▁depends	-9.78297
inner	-9.78358
▁moves	-9.7838
la	-9.784
▁owl	-9.78523
▁bath	-9.78684
▁drinking	-9.78821
▁cow	-9.78858
▁pr	-9.78874
▁forces	-9.78924
▁parks	-9.78967
▁headed	-9.79183
▁tap	-9.79429
▁doctors	-9.79433
▁bow	-9.79479
▁lookin	-9.79558
▁pets	-9.79633
▁fully	-9.79742
▁heading	-9.79765
▁cu	-9.79802
▁barn	-9.80359
▁self	-9.80949
▁bees	-9.81314
▁shop	-9.81425
▁brings	-9.81538
▁wa	-9.81586
▁con	-9.81601
▁social	-9.81898
▁dennys	-9.81925
inkling	-9.82303
▁rough	-9.82319
▁secrets	-9.82411
▁direct	-9.82551
ard	-9.82619
▁inter	-9.82646
▁voices	-9.83004
▁roberts	-9.83105
▁skin	-9.83179
water	-9.83278
▁hearing	-9.83548
house	-9.83562
▁interest	-9.83641
▁cough	-9.84135
▁alo	-9.84168
▁snake	-9.84227
▁kingdom	-9.84239
▁european	-9.84315
▁brookhaven	-9.84328
▁freedom	-9.8435
▁structure	-9.84352
ns	-9.84383
eath	-9.84406
▁impression	-9.84445
▁creature	-9.84483
▁circle	-9.84524
▁odd	-9.84545
▁pound	-9.84555
▁center	-9.84579
▁flow	-9.84589
▁flower	-9.84737
▁professional	-9.84764
▁crown	-9.84885
▁nation	-9.84885
▁bless	-9.84897
▁goal	-9.8497
▁den	-9.84987
ign	-9.85352
▁herr	-9.85367
▁tricks	-9.85377
▁mush	-9.85416
▁tooth	-9.85434
▁raise	-9.85505
▁potato	-9.85542
▁thick	-9.85585
▁heave	-9.85598
▁clarinet	-9.85617
▁mention	-9.85622
▁council	-9.85645
▁punch	-9.85657
▁companion	-9.85658
▁alcohol	-9.85659
▁sin	-9.8567
▁compete	-9.85683
▁beauty	-9.85684
▁cathedral	-9.85684
▁inaudible	-9.85684
▁intelligence	-9.85684
▁liquid	-9.85684
▁mcgirk	-9.85684
▁monastery	-9.85684
▁shrimp	-9.85684
▁syracuse	-9.85684
▁tanino	-9.85684
▁vault	-9.85684
▁goonches	-9.85684
▁meadow	-9.85684
▁praise	-9.85684
▁seaweed	-9.85684
▁territory	-9.85684
▁auburn	-9.85684
▁empire	-9.85684
▁loopdeloop	-9.85684
▁majesty	-9.85684
▁otherwise	-9.85684
▁lemonade	-9.85684
▁program	-9.85685
▁lhc	-9.85685
▁rubber	-9.85685
▁easily	-9.85686
▁buried	-9.85686
▁oxygen	-9.85686
▁cavalry	-9.85686
▁orphanage	-9.85687
▁carbonation	-9.85688
▁charles	-9.85689
▁maggie	-9.85689
▁centre	-9.85689
▁adorable	-9.85689
▁turtle	-9.85689
▁aliooper	-9.8569
▁plague	-9.85692
▁security	-9.85693
▁muffled	-9.85694
▁memory	-9.85696
▁remarkable	-9.85707
▁verat	-9.85709
▁gentleman	-9.8571
▁collection	-9.85711
▁rude	-9.8572
▁cern	-9.85729
▁eagle	-9.85729
▁neil	-9.85737
▁engaged	-9.85737
▁exciting	-9.8574
▁determined	-9.85746
▁practically	-9.85748
▁bone	-9.85764
▁curly	-9.85788
▁dope	-9.85807
▁target	-9.85811
▁confident	-9.85813
▁oui	-9.85831
▁stands	-9.85845
▁passion	-9.85853
▁concerned	-9.85855
▁refused	-9.85857
▁perform	-9.85866
▁colchis	-9.85867
▁largest	-9.85874
▁ultimate	-9.85915
▁operate	-9.85917
▁invited	-9.8592
▁disappointed	-9.8593
▁dave	-9.85952
▁squeaking	-9.85971
▁fallen	-9.85984
▁paid	-9.85992
▁disappear	-9.8601
▁pronounce	-9.86042
▁swan	-9.86114
▁goya	-9.8617
▁sold	-9.86189
▁chabots	-9.86216
▁slight	-9.86224
▁coast	-9.86228
▁grass	-9.86289
▁sled	-9.86429
▁aaah	-9.86431
▁cares	-9.86508
▁destroying	-9.86581
▁madame	-9.86607
▁sooner	-9.86696
by	-9.86703
▁bot	-9.86728
▁shore	-9.86747
▁filmed	-9.86834
▁partal	-9.86915
▁kel	-9.86924
▁hung	-9.86941
▁kissing	-9.86979
▁cats	-9.87036
▁vents	-9.87049
▁disappoint	-9.87174
▁particles	-9.87263
▁whistles	-9.87486
▁notes	-9.87618
▁leading	-9.87846
▁areas	-9.88119
▁rules	-9.88135
▁shin	-9.88151
ical	-9.88191
▁deed	-9.88424
▁caused	-9.88512
led	-9.88691
▁hud	-9.88758
▁opened	-9.88759
▁bi	-9.88998
▁jobs	-9.89126
▁falls	-9.89211
▁compare	-9.8978
▁bound	-9.90104
▁para	-9.90329
▁preserve	-9.90387
▁plant	-9.90415
li	-9.90488
ite	-9.9054
▁asks	-9.90573
▁presents	-9.90625
▁event	-9.90628
▁produce	-9.90808
▁thin	-9.90821
▁crews	-9.90937
co	-9.91063
▁cate	-9.91349
▁wave	-9.91475
▁down	-9.91546
▁oceans	-9.91679
▁cast	-9.91858
▁leaves	-9.92359
▁fa	-9.92433
▁san	-9.92666
▁fate	-9.9273
▁sta	-9.92769
▁rand	-9.92948
light	-9.93092
▁publish	-9.93154
▁ti	-9.93461
▁pup	-9.93748
▁champion	-9.94004
▁moments	-9.94024
ious	-9.9407
▁gra	-9.94078
▁block	-9.94116
▁appear	-9.94178
▁stingray	-9.94213
▁pineapple	-9.94213
▁costume	-9.94215
▁bishop	-9.94221
ational	-9.9427
▁lachman	-9.94325
▁closes	-9.94326
▁crab	-9.94366
▁garden	-9.94436
▁bark	-9.94436
▁log	-9.94436
▁doctrine	-9.94481
line	-9.94495
▁ticket	-9.94513
ther	-9.94555
▁capital	-9.94684
▁tw	-9.94784
ee	-9.94787
▁fill	-9.95065
▁steel	-9.95085
▁ad	-9.95138
▁spread	-9.95197
▁luk	-9.95276
▁attempt	-9.95378
▁oooh	-9.95413
▁map	-9.95414
▁argue	-9.95429
▁health	-9.95474
▁private	-9.95531
▁threat	-9.95536
▁hydro	-9.95554
▁charm	-9.95558
▁confess	-9.95592
▁somethin	-9.95626
▁mmhm	-9.95627
▁gentle	-9.95649
▁contract	-9.95655
▁basket	-9.9568
▁distract	-9.95682
▁victim	-9.95683
▁bannister	-9.95684
▁brief	-9.95684
▁cortez	-9.95684
▁divorce	-9.95684
▁gertrude	-9.95684
▁hercules	-9.95684
▁inquisition	-9.95684
▁intelligent	-9.95684
▁kardong	-9.95684
▁marriage	-9.95684
▁appalled	-9.95684
▁whimpers	-9.95684
▁genius	-9.95684
▁source	-9.95684
▁bubbly	-9.95684
▁sandwich	-9.95684
▁autograph	-9.95685
▁therefore	-9.95685
▁contact	-9.95685
▁chihuahua	-9.95686
▁protest	-9.95686
▁request	-9.95687
▁carroll	-9.95689
▁kiki	-9.95689
▁anytime	-9.9569
▁lightyear	-9.95692
▁underwater	-9.95695
▁unhappy	-9.95697
▁carlos	-9.95699
▁collar	-9.957
▁gently	-9.957
▁dropped	-9.957
▁hyah	-9.95701
▁trapped	-9.95702
▁fox	-9.95704
▁credit	-9.95705
▁eventually	-9.95706
▁stress	-9.95708
▁whining	-9.95713
▁drove	-9.9572
▁media	-9.95726
▁connection	-9.95726
▁planning	-9.95727
▁darkness	-9.95739
▁chamber	-9.95753
▁simon	-9.95755
▁yup	-9.95755
▁clark	-9.95756
▁western	-9.95759
▁arrest	-9.95767
▁laurat	-9.95778
▁creepy	-9.95807
▁donation	-9.9581
▁vaticanus	-9.95813
▁parish	-9.95813
▁valuable	-9.95818
▁bull	-9.95825
▁twixel	-9.9583
▁psst	-9.95833
▁guts	-9.95833
▁convinced	-9.95833
▁hort	-9.95856
▁coon	-9.9587
▁data	-9.95891
ier	-9.95895
▁particularly	-9.9591
▁shade	-9.95912
▁union	-9.95929
▁designed	-9.9597
▁drumming	-9.95978
▁blessed	-9.95992
▁skullners	-9.96016
▁served	-9.96026
▁justice	-9.96047
▁charming	-9.96054
▁bond	-9.9611
▁honestly	-9.9611
▁lift	-9.96119
▁claimed	-9.96141
▁entirely	-9.96143
▁soldiers	-9.96145
▁burning	-9.96165
▁losing	-9.96189
▁mood	-9.96194
▁whispers	-9.96253
▁cigarettes	-9.96275
▁stretch	-9.9633
▁latest	-9.9635
▁breathing	-9.96403
▁fixed	-9.96673
▁cages	-9.96674
▁exists	-9.96681
▁schedule	-9.96718
▁gain	-9.9673
▁max	-9.96737
▁swell	-9.96752
▁bam	-9.96754
▁prize	-9.96762
▁rolling	-9.96791
▁limits	-9.96849
▁mustnt	-9.96849
▁reached	-9.96853
▁dollart	-9.96879
▁cage	-9.96881
▁tickets	-9.96907
▁quarters	-9.96927
▁wipe	-9.97038
▁odds	-9.9705
▁shine	-9.97079
▁knowing	-9.97109
▁title	-9.97115
▁movies	-9.97157
▁cranes	-9.97179
▁trusted	-9.97192
▁bait	-9.97235
▁training	-9.97337
▁dollars	-9.97411
▁screen	-9.97439
▁joining	-9.97484
▁clearly	-9.97708
▁wondered	-9.97764
▁closet	-9.97834
▁remove	-9.9786
▁seats	-9.97934
▁badly	-9.97954
▁sins	-9.97967
▁staring	-9.97977
▁weak	-9.97993
▁pulling	-9.98069
▁landing	-9.98107
▁hera	-9.98229
▁limit	-9.98363
▁votes	-9.98534
▁habit	-9.98567
que	-9.98597
▁watched	-9.98696
▁clues	-9.98715
▁yard	-9.98717
▁warn	-9.9873
▁wing	-9.98798
▁noble	-9.98806
▁severa	-9.99028
▁tear	-9.99112
▁sean	-9.99139
▁ike	-9.99152
▁til	-9.99154
ans	-9.99158
▁ding	-9.99186
▁sons	-9.99269
ha	-9.9948
▁apes	-9.99516
▁interview	-9.99594
▁nights	-9.99764
▁wander	-9.99845
like	-9.9995
one	-10.0011
tion	-10.0019
▁smith	-10.0022
▁ra	-10.0025
▁matters	-10.0036
rom	-10.0037
▁laws	-10.0053
com	-10.0067
ned	-10.0069
ack	-10.007
▁twenty	-10.009
▁br	-10.0091
work	-10.0096
it	-10.0101
▁inform	-10.0118
▁signs	-10.0138
▁bat	-10.0154
looking	-10.0162
om	-10.0168
▁hel	-10.0168
dom	-10.0183
na	-10.0232
▁fl	-10.0235
▁scar	-10.0242
▁finding	-10.0283
▁yards	-10.0364
▁placed	-10.0373
▁pit	-10.0375
▁youth	-10.0395
▁franks	-10.047
▁wo	-10.0483
wood	-10.049
screen	-10.0495
▁distiller	-10.0516
▁desert	-10.0519
called	-10.0519
▁serve	-10.0523
▁luther	-10.0533
▁austin	-10.0533
▁treasure	-10.0534
▁wound	-10.0535
▁hurts	-10.0543
▁wreck	-10.0544
▁sa	-10.0548
▁expedition	-10.0551
▁lawyer	-10.0552
▁weapon	-10.0559
▁musketeer	-10.056
▁chuckle	-10.056
▁finger	-10.0562
▁paw	-10.0572
▁manner	-10.0575
▁quarter	-10.0586
▁mai	-10.0592
▁attend	-10.0593
▁anti	-10.0593
▁ni	-10.0597
▁panic	-10.0603
▁condition	-10.0613
▁pants	-10.0622
▁nut	-10.0622
▁cha	-10.0628
▁stone	-10.0631
▁develop	-10.0651
▁accomplish	-10.0651
▁sneak	-10.0651
▁intend	-10.0652
▁propose	-10.0653
▁carbonate	-10.0655
▁constant	-10.0656
▁arrange	-10.0656
▁bowl	-10.0657
▁hypnotize	-10.0657
▁shout	-10.0657
▁crush	-10.0658
▁twist	-10.0659
▁official	-10.0665
▁africa	-10.0665
▁pour	-10.0674
▁effect	-10.0675
▁tibet	-10.0675
▁hiya	-10.0678
▁success	-10.0678
▁california	-10.068
▁admiralty	-10.068
▁aircraft	-10.068
▁bradshaw	-10.068
▁deputy	-10.068
▁disagree	-10.068
▁essential	-10.068
▁garbage	-10.068
▁gauchito	-10.068
▁japanese	-10.068
▁kallinikos	-10.068
▁portuguese	-10.068
▁surgery	-10.068
▁terribly	-10.068
▁terrific	-10.068
▁tregelles	-10.068
▁vehicle	-10.068
▁virgil	-10.068
▁vulgate	-10.068
▁jeanmarc	-10.068
▁jenkins	-10.068
▁telegraph	-10.068
▁succeed	-10.068
▁wheedle	-10.068
▁wrenn	-10.068
▁amazon	-10.068
▁central	-10.068
▁dudley	-10.068
▁thief	-10.068
▁congress	-10.068
▁michael	-10.068
▁reverend	-10.068
▁salvation	-10.068
▁arrangements	-10.068
▁goddess	-10.068
▁shelter	-10.068
▁pluto	-10.068
▁eddie	-10.068
▁kevin	-10.068
▁reputation	-10.068
▁higgins	-10.068
▁basic	-10.068
▁petition	-10.068
▁spanish	-10.068
▁distant	-10.068
▁macdonald	-10.068
▁friday	-10.068
▁nuru	-10.068
▁crabtree	-10.068
▁recess	-10.068
▁cheap	-10.068
▁medea	-10.068
▁yoyo	-10.068
▁shawn	-10.068
▁countries	-10.068
▁shoo	-10.068
▁overnight	-10.068
▁invite	-10.068
▁ugly	-10.068
▁percent	-10.068
▁corral	-10.068
▁treason	-10.068
▁apparently	-10.068
▁assistant	-10.0681
▁hmph	-10.0681
▁kibble	-10.0681
▁specifically	-10.0681
▁starving	-10.0681
▁stories	-10.0681
▁sammy	-10.0681
▁failure	-10.0681
▁marshal	-10.0681
▁aware	-10.0681
▁blew	-10.0681
▁background	-10.0682
▁detective	-10.0682
▁trigger	-10.0682
▁leadership	-10.0682
▁impressive	-10.0682
▁island	-10.0682
▁squeeze	-10.0682
▁protestantism	-10.0682
▁series	-10.0683
▁understood	-10.0683
▁sarge	-10.0683
▁inspector	-10.0683
▁woof	-10.0684
▁detector	-10.0684
▁glory	-10.0684
▁firm	-10.0685
▁literally	-10.0685
▁labor	-10.0686
▁doggone	-10.0686
▁leap	-10.0686
▁mumbles	-10.0686
▁anna	-10.0687
▁split	-10.0687
▁revealed	-10.0688
▁aside	-10.0689
▁clock	-10.069
▁tango	-10.069
▁halfway	-10.069
▁tub	-10.0691
▁appointment	-10.0691
▁funding	-10.0691
▁slide	-10.0692
▁dishes	-10.0693
▁candy	-10.0693
▁frightened	-10.0694
▁natty	-10.0694
▁spook	-10.0695
▁standard	-10.0695
▁alarm	-10.0696
▁dang	-10.0696
▁shocked	-10.0697
▁significan	-10.0698
▁dolly	-10.0699
▁forged	-10.07
▁yawns	-10.07
▁throne	-10.07
▁popular	-10.07
▁josh	-10.0702
▁granted	-10.0702
▁reaction	-10.0704
▁howard	-10.0705
▁whatd	-10.0706
▁grunt	-10.0706
▁deserted	-10.0706
lham	-10.0708
ball	-10.071
▁bouncing	-10.071
▁shift	-10.071
▁uhuh	-10.0711
▁billion	-10.0711
▁measure	-10.0714
▁napa	-10.0715
▁alike	-10.0716
▁burned	-10.0717
▁grant	-10.0718
▁pink	-10.072
▁valley	-10.0723
▁reported	-10.073
▁pretending	-10.0731
▁screeching	-10.0734
▁considered	-10.0735
▁mixed	-10.0737
▁cock	-10.0739
▁apple	-10.074
▁treated	-10.0741
▁swam	-10.0747
▁thrown	-10.0751
▁believers	-10.0755
▁fierce	-10.0758
▁values	-10.0759
▁ability	-10.076
▁ro	-10.076
▁jo	-10.0761
▁cell	-10.0763
▁moo	-10.0765
▁rio	-10.0767
▁taxi	-10.0768
ap	-10.0768
▁continued	-10.0771
▁offered	-10.0772
▁commission	-10.0776
▁females	-10.0789
▁nuts	-10.0793
▁jesse	-10.0793
▁rah	-10.0793
▁electric	-10.0795
owder	-10.08
ancy	-10.0817
ri	-10.0828
▁beth	-10.0841
▁carrying	-10.0842
crowned	-10.0852
▁joined	-10.0857
▁pulled	-10.0863
▁root	-10.0864
▁communicate	-10.0871
▁efforts	-10.0877
ably	-10.088
▁lessons	-10.088
ship	-10.0885
▁ske	-10.0889
▁earl	-10.0893
▁career	-10.0913
ring	-10.0925
▁ay	-10.0939
▁rip	-10.094
▁traditions	-10.0941
▁bells	-10.0949
▁hoot	-10.0962
▁trucks	-10.0969
▁apologize	-10.1001
ble	-10.1009
▁aye	-10.1017
▁iii	-10.1025
▁hut	-10.1027
▁ignore	-10.1039
▁angel	-10.104
▁bombs	-10.1041
▁hopeless	-10.1085
▁wins	-10.1122
▁prefer	-10.1147
ative	-10.1157
▁disturb	-10.118
▁figures	-10.118
▁ge	-10.1182
▁sings	-10.1198
▁tax	-10.1204
▁all	-10.1235
▁rag	-10.1239
▁mutt	-10.1244
▁streets	-10.1254
▁ne	-10.1261
▁eats	-10.1262
▁mighty	-10.1276
▁chips	-10.1291
▁hates	-10.1293
▁bite	-10.13
▁stayed	-10.1305
ink	-10.1321
▁sw	-10.1323
▁dudes	-10.134
▁tip	-10.1341
▁marks	-10.1354
▁equal	-10.1368
ny	-10.141
▁wi	-10.1424
▁earths	-10.1429
▁expose	-10.1431
▁symbol	-10.1444
▁led	-10.1445
ward	-10.1445
▁facts	-10.1453
▁hip	-10.1505
▁whi	-10.1531
▁chap	-10.1533
▁bas	-10.1544
off	-10.1545
▁reasons	-10.1558
▁su	-10.1564
▁historical	-10.1567
▁drum	-10.1579
▁bla	-10.1579
▁powers	-10.1615
▁addition	-10.1629
▁brit	-10.1633
▁propert	-10.1637
ize	-10.1641
▁tr	-10.1649
▁oy	-10.1667
ca	-10.1671
▁finds	-10.1699
▁fail	-10.1702
▁textu	-10.1702
john	-10.1715
fire	-10.1718
▁fu	-10.1718
▁fi	-10.173
▁snapp	-10.1733
cliff	-10.1745
▁access	-10.176
▁scout	-10.1765
▁gar	-10.1766
▁product	-10.177
▁exist	-10.1779
ter	-10.178
ically	-10.1783
▁craft	-10.1783
▁chances	-10.179
▁sacrifice	-10.1793
▁error	-10.1794
▁girlfriend	-10.1794
▁sides	-10.1795
▁castle	-10.1795
▁squeak	-10.1796
▁debate	-10.1799
sis	-10.1801
▁holiday	-10.1801
▁degree	-10.1802
▁turk	-10.1803
▁individual	-10.1805
▁represent	-10.1806
▁olympic	-10.1806
▁female	-10.1806
▁strike	-10.1807
▁bottle	-10.1809
▁customer	-10.1812
▁deals	-10.1813
▁the	-10.1816
▁lab	-10.182
▁rolf	-10.1822
▁beast	-10.1823
▁prisoner	-10.1824
▁cousin	-10.1825
▁cases	-10.1848
▁stake	-10.186
▁freak	-10.1862
▁justi	-10.1864
▁player	-10.1877
▁clair	-10.1881
ten	-10.1881
▁ox	-10.1898
▁interrupt	-10.1898
▁reward	-10.1901
▁guarantee	-10.1903
▁demand	-10.1905
▁provide	-10.1905
▁scott	-10.1907
▁express	-10.1913
▁driver	-10.1917
▁handsome	-10.192
▁intention	-10.1927
▁dramatic	-10.1928
▁bullseye	-10.193
▁cabotinage	-10.193
▁candomble	-10.193
▁concannon	-10.193
▁daphne	-10.193
▁downstairs	-10.193
▁fabulous	-10.193
▁joffrey	-10.193
▁langham	-10.193
▁library	-10.193
▁manahateen	-10.193
▁rubbish	-10.193
▁stomach	-10.193
▁upstairs	-10.193
▁whistling	-10.193
▁eeyore	-10.193
▁fernfield	-10.193
▁diablo	-10.193
▁banquet	-10.193
▁avoid	-10.193
▁jackpot	-10.193
▁liberty	-10.193
▁sobbing	-10.193
▁thessal	-10.193
▁saloon	-10.193
▁spectacular	-10.193
▁equipment	-10.193
▁minorities	-10.193
▁policy	-10.193
▁screwnose	-10.193
▁complex	-10.193
▁cherries	-10.193
▁hylas	-10.193
▁delicious	-10.193
▁plateau	-10.193
▁superhero	-10.193
▁unknown	-10.193
▁reliable	-10.193
▁vacation	-10.193
▁crisis	-10.193
▁fetch	-10.193
▁glide	-10.193
▁worries	-10.193
▁kennedy	-10.193
▁conservation	-10.193
▁struck	-10.193
▁africanamerican	-10.193
▁heavily	-10.193
▁disaster	-10.193
▁donkey	-10.193
▁families	-10.193
▁borrow	-10.193
▁exploration	-10.193
▁sundown	-10.193
▁intense	-10.193
▁current	-10.1931
▁speedball	-10.1931
▁begun	-10.1931
▁committed	-10.1931
▁location	-10.1931
▁option	-10.1931
▁mercy	-10.1931
▁smash	-10.1931
▁blair	-10.1931
▁physical	-10.1931
▁fluid	-10.1931
▁sweat	-10.1932
▁chopper	-10.1932
▁development	-10.1932
▁pills	-10.1932
▁halas	-10.1932
▁confession	-10.1932
▁apartment	-10.1933
▁merry	-10.1933
▁insane	-10.1933
▁communication	-10.1933
▁noblerat	-10.1933
▁noah	-10.1933
▁moore	-10.1934
▁dummy	-10.1934
▁hermas	-10.1934
▁attraction	-10.1934
▁aboard	-10.1935
▁loaded	-10.1935
▁nasty	-10.1935
▁giddy	-10.1935
▁passage	-10.1935
▁appearance	-10.1935
▁oath	-10.1936
▁cabin	-10.1936
▁alert	-10.1936
▁dickie	-10.1936
▁freddie	-10.1936
▁dirk	-10.1937
▁convention	-10.1937
▁happier	-10.1937
▁secretary	-10.194
▁complain	-10.194
▁joan	-10.1941
▁exhales	-10.1941
▁publication	-10.1941
▁forth	-10.1941
▁microbes	-10.1942
▁closing	-10.1942
▁attitude	-10.1943
▁hopefully	-10.1943
▁bread	-10.1943
▁regardless	-10.1943
▁minority	-10.1944
▁species	-10.1944
▁beings	-10.1944
▁ouch	-10.1945
furt	-10.1945
▁ahem	-10.1946
▁salt	-10.1946
▁silky	-10.1946
▁halfman	-10.1946
▁liberal	-10.1946
▁rye	-10.1946
▁officially	-10.1947
▁forbidden	-10.1948
▁zip	-10.1948
▁rejected	-10.1949
▁exercise	-10.195
▁fake	-10.195
▁abandoned	-10.195
▁chosen	-10.195
cious	-10.1952
▁replaced	-10.1952
▁neuros	-10.1952
▁june	-10.1953
▁parade	-10.1957
▁existed	-10.1958
▁sealed	-10.196
▁cents	-10.196
▁haha	-10.1964
▁grain	-10.1964
▁grave	-10.1968
▁adopted	-10.1972
▁rented	-10.1972
▁arranged	-10.1972
▁glasses	-10.1974
▁phenomenal	-10.1981
▁task	-10.1982
▁armed	-10.1985
▁steer	-10.1989
▁crossed	-10.1992
▁pity	-10.1998
▁doin	-10.2006
▁emotional	-10.2009
well	-10.2012
▁woke	-10.2014
▁coat	-10.2015
▁warning	-10.2016
▁liar	-10.2019
▁scientists	-10.2021
▁hackamaws	-10.2022
▁melt	-10.2025
▁meantime	-10.2027
▁gutter	-10.2028
▁suggesting	-10.2029
▁pin	-10.2031
▁image	-10.2034
▁bloody	-10.2034
eth	-10.2048
▁satan	-10.2054
▁olympics	-10.2055
▁pale	-10.206
▁covered	-10.2072
▁trained	-10.2073
▁whale	-10.2073
▁moral	-10.2083
▁offering	-10.2084
▁doctrines	-10.2088
▁spa	-10.209
▁wishes	-10.2094
▁falling	-10.2094
▁heal	-10.2101
▁magnets	-10.2102
▁shooting	-10.2104
▁wheels	-10.2107
▁amor	-10.2112
▁feathers	-10.2113
▁prior	-10.2114
▁tro	-10.2114
▁beliefs	-10.2118
▁clouds	-10.2119
▁rot	-10.2119
▁sewers	-10.212
▁amigos	-10.2121
▁arrives	-10.2129
▁gala	-10.2129
▁dawgs	-10.2135
▁flora	-10.2138
▁dial	-10.2142
▁tied	-10.2146
▁puzzle	-10.2152
▁sex	-10.2153
mooch	-10.2168
▁harder	-10.2169
▁herd	-10.2172
▁elsas	-10.218
▁vow	-10.2183
▁groups	-10.2186
▁passing	-10.2189
▁raid	-10.219
▁ass	-10.2194
▁patch	-10.22
ver	-10.2206
▁sets	-10.2207
ata	-10.2214
▁stack	-10.2216
▁checked	-10.2223
▁should	-10.2223
▁noon	-10.2228
ure	-10.2229
▁remains	-10.2235
▁pan	-10.2248
▁generations	-10.2248
▁levels	-10.2262
▁ordered	-10.2274
▁cur	-10.2275
no	-10.2276
▁print	-10.2279
▁rate	-10.2279
▁minds	-10.2281
▁impress	-10.23
mal	-10.23
▁heavens	-10.2317
cha	-10.2323
▁era	-10.2332
▁machines	-10.2338
▁allie	-10.2341
▁theo	-10.2344
▁sock	-10.2355
▁hay	-10.2356
side	-10.2366
tched	-10.2389
ge	-10.2398
▁sleeping	-10.2422
▁lower	-10.2423
ked	-10.2456
away	-10.246
▁dump	-10.2461
ile	-10.247
weak	-10.2483
▁corn	-10.2489
ell	-10.2509
▁resist	-10.2512
▁dancer	-10.2512
▁sola	-10.2525
▁hoped	-10.2546
▁bay	-10.2555
oohoo	-10.2557
▁catching	-10.2573
▁ser	-10.2575
ight	-10.2575
▁counts	-10.2578
day	-10.2578
shirts	-10.2624
▁grounds	-10.2626
▁term	-10.2627
▁bene	-10.2648
rat	-10.2652
▁sec	-10.2682
▁subt	-10.2682
ghi	-10.2688
▁returns	-10.27
▁ton	-10.2707
em	-10.2747
pher	-10.2748
▁mental	-10.2766
▁sl	-10.2783
rk	-10.2785
▁remembered	-10.2788
▁sim	-10.2826
ide	-10.2858
▁owners	-10.2893
▁litera	-10.2919
▁ski	-10.2939
yes	-10.2951
▁bare	-10.2955
▁advanc	-10.2956
▁chop	-10.2966
dson	-10.297
irring	-10.2977
ern	-10.2987
▁keeper	-10.3032
atali	-10.3046
▁citizens	-10.3055
▁riches	-10.3073
▁cab	-10.3075
▁alls	-10.3085
▁dick	-10.3091
field	-10.3119
▁concern	-10.3125
owed	-10.3131
▁confirm	-10.3135
▁card	-10.3148
▁magneti	-10.3155
ying	-10.3158
▁fe	-10.3164
▁steph	-10.3188
master	-10.3194
▁wrap	-10.3197
▁you	-10.3198
▁pentecostal	-10.3206
▁weekend	-10.3215
ens	-10.322
▁restaurant	-10.3221
▁junk	-10.3222
▁temperature	-10.3227
▁submersible	-10.323
▁chemical	-10.323
▁flame	-10.3235
▁sometime	-10.3237
▁egg	-10.3241
▁dozen	-10.3242
▁schools	-10.3243
▁patient	-10.3248
ham	-10.3256
▁sweep	-10.3266
▁tex	-10.3269
what	-10.3288
▁bets	-10.329
▁brag	-10.3313
ius	-10.3314
▁hearts	-10.3321
ath	-10.3331
▁poison	-10.3331
▁positive	-10.3341
▁absolute	-10.3347
sinki	-10.3357
▁sinai	-10.3357
▁tune	-10.3357
▁register	-10.3358
▁antitoxin	-10.3358
▁april	-10.3358
▁available	-10.3358
▁behavior	-10.3358
▁chimney	-10.3358
▁darjeel	-10.3358
▁dictionary	-10.3358
▁dolphin	-10.3358
▁eohippus	-10.3358
▁explanation	-10.3358
▁gannon	-10.3358
▁genevieve	-10.3358
▁gwangi	-10.3358
▁immigration	-10.3358
▁international	-10.3358
▁jellybelly	-10.3358
▁matthew	-10.3358
▁mozart	-10.3358
▁munich	-10.3358
▁nevertheless	-10.3358
▁platform	-10.3358
▁plumpingham	-10.3358
▁repetiteur	-10.3358
▁rottenmeir	-10.3358
▁serengeti	-10.3358
▁squirrel	-10.3358
▁sunshine	-10.3358
▁wescott	-10.3358
▁burrito	-10.3358
▁catherine	-10.3358
▁delicate	-10.3358
▁jungle	-10.3358
▁jupiter	-10.3358
▁license	-10.3358
▁pizza	-10.3358
▁satisfied	-10.3358
▁shivering	-10.3358
▁atlas	-10.3358
▁lucille	-10.3358
▁magrue	-10.3358
▁moonshine	-10.3358
▁opportunities	-10.3358
▁opposite	-10.3358
▁tobin	-10.3358
▁proceed	-10.3358
▁voyage	-10.3358
▁bargain	-10.3358
▁hammond	-10.3358
▁verdict	-10.3358
▁bonnie	-10.3358
▁definition	-10.3358
▁tongue	-10.3358
▁collision	-10.3358
▁electronic	-10.3358
▁parenthood	-10.3358
▁scramble	-10.3358
▁affair	-10.3358
▁committee	-10.3358
▁depth	-10.3358
▁drift	-10.3358
▁herbs	-10.3358
▁snub	-10.3358
▁willard	-10.3358
▁unfair	-10.3358
▁freckles	-10.3358
▁parrot	-10.3358
▁mixture	-10.3358
▁complicated	-10.3358
▁geko	-10.3358
▁hecate	-10.3358
▁nephew	-10.3358
▁symp	-10.3358
▁yield	-10.3358
▁allez	-10.3358
▁caution	-10.3358
▁salsa	-10.3358
▁declare	-10.3358
▁conclusion	-10.3358
▁reincarnation	-10.3358
▁touchdown	-10.3359
▁rookie	-10.3359
▁perkins	-10.3359
▁swimmies	-10.3359
▁andand	-10.3359
▁revision	-10.3359
▁identify	-10.3359
▁dixie	-10.3359
▁morton	-10.3359
▁lamb	-10.3359
▁jazz	-10.3359
▁radar	-10.3359
▁department	-10.3359
▁generous	-10.3359
▁prevent	-10.3359
▁dirt	-10.3359
▁susie	-10.3359
▁headache	-10.3359
▁identity	-10.3359
▁baseball	-10.3359
▁airport	-10.3359
▁legend	-10.3359
▁spiritual	-10.3359
▁preston	-10.3359
▁solid	-10.3359
▁client	-10.3359
▁leather	-10.3359
▁ambition	-10.3359
▁wicked	-10.336
▁responsibility	-10.336
def	-10.336
▁phillip	-10.336
▁priestess	-10.336
▁doomed	-10.336
▁comfortable	-10.336
▁spoil	-10.336
▁endanger	-10.336
▁childhood	-10.336
▁spunky	-10.336
▁sacred	-10.336
▁gallery	-10.336
▁technology	-10.336
▁cannon	-10.336
▁rowdy	-10.336
▁acquired	-10.336
▁decent	-10.3361
▁contribution	-10.3361
▁desk	-10.3361
▁supply	-10.3361
▁hooray	-10.3361
▁wildlife	-10.3361
▁firewood	-10.3361
▁rachel	-10.3361
▁recently	-10.3362
▁trickortreating	-10.3362
▁massive	-10.3362
▁boyfriend	-10.3362
▁guardian	-10.3363
▁stood	-10.3363
▁buff	-10.3363
▁model	-10.3363
▁atlanta	-10.3363
▁iove	-10.3363
▁draft	-10.3363
▁lightning	-10.3364
▁academic	-10.3364
▁drier	-10.3364
▁review	-10.3365
▁surrounded	-10.3365
▁haber	-10.3367
▁carried	-10.3367
eign	-10.3367
▁stove	-10.3367
▁braces	-10.3368
▁defeated	-10.3369
leton	-10.3369
▁foul	-10.3369
▁roaring	-10.3369
▁gibbons	-10.337
▁income	-10.337
▁presence	-10.3371
▁roast	-10.3373
▁archers	-10.3373
▁scratch	-10.3374
▁july	-10.3374
▁flock	-10.3375
▁corrupted	-10.3375
▁bitter	-10.3377
▁threatened	-10.3377
▁racing	-10.3377
▁managed	-10.3377
▁factory	-10.3378
▁echoing	-10.3379
▁destruction	-10.3379
▁collected	-10.3379
▁meter	-10.3381
▁suffered	-10.3382
▁golf	-10.3383
▁agent	-10.3383
▁juice	-10.3383
▁murdered	-10.3384
▁cam	-10.3384
▁separated	-10.3384
▁quest	-10.3385
▁skies	-10.3385
▁annoy	-10.3386
▁that	-10.3386
▁lips	-10.3386
▁sucker	-10.3388
▁wildest	-10.3388
▁bastards	-10.3388
▁amongst	-10.3389
▁guaranteed	-10.3389
▁hitting	-10.3389
▁jessie	-10.3389
▁facing	-10.3389
▁corrections	-10.339
▁funds	-10.339
▁originally	-10.3393
▁spoken	-10.3395
▁habitats	-10.3396
▁nome	-10.3397
▁pace	-10.3398
▁buster	-10.3398
▁dish	-10.34
▁lu	-10.34
▁winni	-10.34
▁playtime	-10.34
▁stolen	-10.34
▁gettin	-10.34
▁mentioned	-10.3402
▁heroes	-10.3403
▁delay	-10.3405
▁nerves	-10.3406
▁argos	-10.3407
▁adults	-10.3407
▁entered	-10.3408
▁non	-10.3409
▁kicked	-10.341
▁tank	-10.3411
▁sneeze	-10.3412
▁documented	-10.3413
▁impressed	-10.3413
▁tower	-10.3414
▁embrace	-10.3416
▁ruined	-10.3422
▁goof	-10.3425
▁orange	-10.3427
▁knocked	-10.3427
▁beak	-10.3429
▁sha	-10.343
▁changing	-10.343
▁chat	-10.3432
▁exception	-10.3433
▁promote	-10.3434
ke	-10.3441
▁drains	-10.3444
▁struggles	-10.3447
▁tools	-10.3452
▁goose	-10.3453
▁brush	-10.3455
▁bein	-10.3457
▁saints	-10.3457
▁escaped	-10.3457
the	-10.3464
▁hug	-10.3465
▁discovering	-10.3465
▁considering	-10.3466
▁tame	-10.3469
▁judged	-10.347
▁blessing	-10.3476
▁indig	-10.3478
▁deceive	-10.3478
ler	-10.3479
▁safely	-10.3486
▁sal	-10.349
▁toes	-10.3492
▁yearold	-10.3493
▁sharpen	-10.3495
▁beasts	-10.3496
ated	-10.3499
▁cousins	-10.3502
▁individuals	-10.3504
▁scouts	-10.3505
▁customers	-10.3506
▁turks	-10.3506
▁jah	-10.3507
▁heresy	-10.3508
fa	-10.3516
▁manners	-10.3523
▁section	-10.353
▁ray	-10.3531
▁peaceful	-10.3539
▁explained	-10.3545
▁hopes	-10.3549
▁jacky	-10.3556
alo	-10.3563
ka	-10.3566
▁active	-10.3582
▁interests	-10.3584
▁buzzing	-10.3593
pe	-10.3598
▁mustve	-10.36
▁pigs	-10.3604
▁march	-10.3607
▁bags	-10.3608
▁bah	-10.3608
▁issue	-10.3613
▁core	-10.3617
▁angle	-10.3619
▁growl	-10.3622
▁sites	-10.3622
▁ducks	-10.3626
▁adventures	-10.3631
▁rep	-10.3631
▁convert	-10.3634
▁fuel	-10.3634
▁travels	-10.3644
▁horns	-10.3677
▁rivers	-10.3693
▁seal	-10.3699
▁snor	-10.3736
▁suits	-10.3742
▁costs	-10.375
▁mix	-10.3756
▁shown	-10.3759
▁accus	-10.376
men	-10.3767
▁eternal	-10.3769
▁texts	-10.3772
▁rains	-10.3774
▁cancel	-10.3792
▁mon	-10.3801
▁practices	-10.3806
▁priests	-10.3816
remi	-10.3843
▁dealing	-10.3847
▁replace	-10.3847
▁owner	-10.3849
palo	-10.3853
▁organize	-10.3883
▁damage	-10.3892
▁hum	-10.3898
uck	-10.39
▁whoop	-10.3907
▁protestants	-10.3915
▁greater	-10.3922
▁dreaming	-10.3929
▁divid	-10.3935
▁sp	-10.3938
▁despi	-10.394
▁drug	-10.3952
▁ru	-10.3974
ro	-10.4014
▁records	-10.4037
▁gin	-10.4037
▁mac	-10.4039
▁pieces	-10.4045
rian	-10.4052
▁lean	-10.4057
▁jos	-10.4057
▁tick	-10.4094
ilar	-10.4115
▁stock	-10.4119
fully	-10.4123
ible	-10.4129
▁pl	-10.4134
▁steps	-10.4158
▁fed	-10.4171
▁bl	-10.4178
▁metal	-10.4179
▁pitch	-10.4183
▁rhythm	-10.4193
ow	-10.4204
▁link	-10.4224
▁adjust	-10.4228
▁popes	-10.4228
▁supremac	-10.4229
▁sees	-10.4246
▁tend	-10.4248
▁chill	-10.4259
▁systems	-10.4263
▁winds	-10.4295
▁tone	-10.4296
▁sat	-10.4302
▁dir	-10.4339
▁bum	-10.4344
▁fishta	-10.436
inkle	-10.4396
lk	-10.442
▁creak	-10.4423
▁somebodys	-10.443
▁ph	-10.4435
▁dies	-10.4448
▁greeks	-10.4449
ber	-10.4453
▁leads	-10.4463
▁fields	-10.4463
▁spin	-10.4467
▁fort	-10.4468
me	-10.4471
▁mar	-10.4474
and	-10.4504
▁sel	-10.4537
ya	-10.4545
ma	-10.4549
▁persons	-10.4558
▁mae	-10.4561
▁ga	-10.4564
berry	-10.4577
▁coo	-10.4589
▁gunp	-10.4616
▁skip	-10.4619
▁flip	-10.464
▁smack	-10.4676
▁ver	-10.4729
▁murder	-10.4733
op	-10.4741
▁pocket	-10.4743
▁faces	-10.4746
▁crap	-10.4754
▁tent	-10.4759
▁lords	-10.4783
▁await	-10.4783
bound	-10.4807
half	-10.4815
ists	-10.4817
distance	-10.4819
▁likely	-10.4825
ir	-10.4834
▁inc	-10.4836
voya	-10.4842
▁jess	-10.4848
▁regard	-10.4853
▁gasp	-10.4858
just	-10.4862
▁compliment	-10.4887
▁penguin	-10.4887
▁uniform	-10.4888
▁minister	-10.4888
▁translation	-10.4888
▁defense	-10.4891
▁privilege	-10.4893
▁method	-10.4896
▁dragon	-10.4897
▁institution	-10.4898
▁slave	-10.4898
▁hackamaw	-10.49
▁scientist	-10.4901
▁monk	-10.4903
▁elephant	-10.4904
▁student	-10.4905
▁value	-10.4915
▁wire	-10.4916
▁saint	-10.4923
▁tool	-10.4923
▁contain	-10.4928
place	-10.4929
▁cultur	-10.4936
▁pump	-10.4939
▁musician	-10.4939
oses	-10.4941
▁prayer	-10.4943
▁ka	-10.4953
▁troop	-10.4954
▁suffer	-10.4955
▁fold	-10.496
▁speller	-10.4967
▁pole	-10.4972
▁awake	-10.4975
ut	-10.4979
▁entranc	-10.4985
▁separate	-10.4986
▁corners	-10.4987
▁vo	-10.4987
▁chatter	-10.4988
▁incredibl	-10.4988
▁possess	-10.499
ppy	-10.499
you	-10.499
▁grasp	-10.4992
▁suspect	-10.4994
▁pile	-10.4995
▁reject	-10.4996
▁wars	-10.4997
▁abandon	-10.4997
▁convince	-10.4999
▁profit	-10.4999
▁thump	-10.5
▁reserve	-10.5001
▁gravit	-10.5001
▁instant	-10.5004
▁shock	-10.5005
▁silk	-10.5005
▁assume	-10.5008
▁creep	-10.5009
▁immediate	-10.501
▁branch	-10.5012
▁sale	-10.5013
▁attract	-10.5016
▁col	-10.5016
▁celebrate	-10.5017
▁kit	-10.5019
▁specific	-10.5023
un	-10.5023
▁amsterdam	-10.5025
▁aquacade	-10.5025
▁aspect	-10.5025
▁average	-10.5025
▁baratheon	-10.5025
▁barricade	-10.5025
▁brooklyn	-10.5025
▁campaign	-10.5025
▁challenging	-10.5025
▁circumstances	-10.5025
▁condemned	-10.5025
▁ecclesiastical	-10.5025
▁exhausted	-10.5025
▁francisco	-10.5025
▁fruitcake	-10.5025
▁furnace	-10.5025
▁gaucho	-10.5025
▁harriet	-10.5025
▁hebrew	-10.5025
▁ingredient	-10.5025
▁institute	-10.5025
▁lullabee	-10.5025
▁manhattan	-10.5025
▁pablo	-10.5025
▁patience	-10.5025
▁pheasant	-10.5025
▁philosophy	-10.5025
▁phineas	-10.5025
▁piranha	-10.5025
▁rainforest	-10.5025
▁ralph	-10.5025
▁reboux	-10.5025
▁schoepp	-10.5025
▁souschef	-10.5025
▁stagecoach	-10.5025
▁surrender	-10.5025
▁suspicious	-10.5025
▁television	-10.5025
▁triumph	-10.5025
▁tuesday	-10.5025
▁watherstone	-10.5025
▁yippee	-10.5025
▁emperor	-10.5025
▁lonesome	-10.5025
▁opponent	-10.5025
▁anglican	-10.5025
▁goblin	-10.5025
▁purchase	-10.5025
▁volunteer	-10.5025
▁adios	-10.5025
▁aristo	-10.5025
▁paisley	-10.5025
▁kanga	-10.5025
▁broadcast	-10.5025
▁scotch	-10.5025
▁article	-10.5025
▁chittering	-10.5025
▁hermes	-10.5025
▁paradise	-10.5025
▁picnic	-10.5025
▁appetite	-10.5025
▁rapid	-10.5025
▁rehab	-10.5025
▁supplies	-10.5025
▁radiation	-10.5025
▁proposition	-10.5025
▁coincidence	-10.5025
▁smooth	-10.5025
▁corolla	-10.5025
▁piano	-10.5025
▁superior	-10.5025
▁conrad	-10.5025
▁giddap	-10.5025
▁gratitude	-10.5025
▁zach	-10.5025
▁hidden	-10.5025
▁clarence	-10.5025
▁urgent	-10.5025
▁choir	-10.5025
▁illegal	-10.5025
▁universities	-10.5025
▁transport	-10.5025
▁stanford	-10.5025
▁scoop	-10.5025
▁colonial	-10.5026
▁willow	-10.5026
▁imagination	-10.5026
▁flesh	-10.5026
▁tackle	-10.5026
▁versus	-10.5026
▁skills	-10.5026
▁statehood	-10.5026
▁obey	-10.5026
▁forgeries	-10.5026
▁championship	-10.5026
▁silent	-10.5026
▁shopping	-10.5026
▁pooch	-10.5026
▁sansa	-10.5026
▁frozen	-10.5026
▁depression	-10.5027
▁curious	-10.5027
▁actual	-10.5027
▁portion	-10.5027
▁unhand	-10.5027
▁toast	-10.5027
▁vicious	-10.5027
▁invented	-10.5027
▁witch	-10.5027
▁vision	-10.5027
▁classroom	-10.5027
▁medal	-10.5027
▁decade	-10.5027
▁congratulate	-10.5028
iggle	-10.5028
▁bucket	-10.5028
▁palden	-10.5028
▁computer	-10.5028
▁duke	-10.5029
▁volume	-10.5029
▁photography	-10.5029
▁crust	-10.5029
▁voting	-10.5029
▁tasty	-10.5029
▁alcoholic	-10.5029
▁survival	-10.5029
▁carpet	-10.503
▁portal	-10.503
▁mirage	-10.503
▁stride	-10.503
▁freezing	-10.503
▁relay	-10.503
▁talos	-10.5031
▁pony	-10.5031
▁admitted	-10.5031
▁bolder	-10.5031
▁strawberry	-10.5031
▁spoon	-10.5031
▁itd	-10.5032
▁moose	-10.5032
▁ranch	-10.5032
▁describe	-10.5033
▁assign	-10.5033
▁swallow	-10.5034
▁election	-10.5034
▁practising	-10.5035
▁gambling	-10.5035
▁punish	-10.5035
▁slinky	-10.5035
▁blaze	-10.5036
▁fried	-10.5037
▁discipline	-10.5037
▁stopping	-10.5037
▁branches	-10.5038
▁rhinos	-10.5038
▁peasants	-10.5038
▁blazer	-10.5038
▁puff	-10.5039
▁daycare	-10.5039
▁strangle	-10.504
▁advised	-10.5042
▁employment	-10.5042
▁manual	-10.5042
▁magician	-10.5043
▁expression	-10.5043
▁economic	-10.5044
▁theological	-10.5044
▁carson	-10.5044
▁minor	-10.5045
▁web	-10.5045
▁inspired	-10.5045
▁aww	-10.5045
arely	-10.5046
▁scale	-10.5047
▁masterson	-10.5047
▁exit	-10.5048
▁zero	-10.5048
▁anchor	-10.5048
gia	-10.5049
▁harmony	-10.5049
▁drowning	-10.505
▁violence	-10.505
▁celebrated	-10.5051
▁privately	-10.5051
▁faithful	-10.5052
▁drill	-10.5052
▁repair	-10.5053
▁educated	-10.5054
▁moan	-10.5054
▁reasonable	-10.5055
▁bubbles	-10.5055
▁romance	-10.5056
▁ordinary	-10.5056
▁poisoned	-10.5058
▁screw	-10.5059
▁stairs	-10.5059
▁neg	-10.506
▁elements	-10.5061
▁earned	-10.5064
▁developed	-10.5067
▁design	-10.5068
▁laid	-10.507
▁doll	-10.507
▁helpful	-10.507
▁refuse	-10.5071
solati	-10.5071
▁custom	-10.5072
▁killer	-10.5072
▁reality	-10.5073
▁dating	-10.5073
▁translated	-10.5074
▁vip	-10.5075
▁annabels	-10.5078
▁firing	-10.5081
▁required	-10.5081
▁victory	-10.5081
▁splash	-10.5082
▁inch	-10.5082
▁candles	-10.5083
▁mussels	-10.5083
▁principles	-10.5084
▁jc	-10.5084
▁neighbors	-10.5084
▁kindness	-10.5084
▁nervously	-10.5085
▁aau	-10.5086
▁native	-10.5087
▁singer	-10.5087
▁washed	-10.5088
▁recognized	-10.5089
▁critics	-10.5091
▁switched	-10.5092
▁solved	-10.5094
▁blown	-10.5098
▁nails	-10.5099
▁hail	-10.5101
▁circuits	-10.5107
▁photos	-10.5107
▁instruments	-10.5107
▁slowly	-10.5108
▁cove	-10.5108
▁bibles	-10.5112
▁eric	-10.5114
▁spectac	-10.5116
▁coin	-10.5117
▁remained	-10.5119
mber	-10.5119
▁musher	-10.5119
▁corny	-10.512
▁higg	-10.5121
▁personally	-10.5122
▁quicker	-10.5122
old	-10.5123
▁plate	-10.5128
▁collect	-10.5129
▁painting	-10.513
▁benefits	-10.513
▁los	-10.513
eral	-10.513
▁jumped	-10.5134
▁slams	-10.5135
▁coins	-10.5135
▁bend	-10.5137
▁height	-10.5138
▁smaller	-10.5138
▁juli	-10.5138
▁forced	-10.5139
▁dime	-10.514
▁approaching	-10.5144
▁drawing	-10.5145
▁knocking	-10.5146
▁hire	-10.5149
▁freeze	-10.515
▁pushed	-10.5152
▁rocket	-10.5153
▁fo	-10.5155
▁packed	-10.5156
▁sales	-10.5157
▁barrel	-10.5158
scope	-10.516
▁touched	-10.5163
▁we	-10.5165
▁musical	-10.5167
▁quietly	-10.5167
▁honored	-10.5167
▁safer	-10.5169
▁testing	-10.517
acting	-10.5171
▁benj	-10.5172
▁tale	-10.5179
▁sailor	-10.5185
▁factor	-10.5196
▁bottles	-10.5197
▁recorded	-10.5205
▁enjoyed	-10.5206
▁tears	-10.5224
de	-10.5226
▁teams	-10.5231
▁cards	-10.5231
▁bounced	-10.5232
▁cheat	-10.5235
▁appears	-10.5239
▁visited	-10.5239
▁git	-10.5241
▁meals	-10.5241
▁cows	-10.5243
▁cleaning	-10.5244
▁preach	-10.5249
▁crabs	-10.5251
▁manor	-10.5253
▁bike	-10.5255
▁seeking	-10.5257
▁brutal	-10.5258
▁shi	-10.5263
▁lease	-10.527
▁trans	-10.527
▁hon	-10.5272
▁flash	-10.5275
▁souffle	-10.5275
▁gal	-10.5277
▁germans	-10.5282
▁devils	-10.5288
▁opinions	-10.5292
▁newspapers	-10.5292
▁selling	-10.5298
▁yells	-10.531
▁knees	-10.5323
▁au	-10.5337
▁sports	-10.5357
▁throwing	-10.5361
ancing	-10.5363
▁trac	-10.5366
▁spray	-10.5369
hales	-10.5372
▁accounts	-10.5378
▁citizen	-10.5395
uh	-10.5396
ise	-10.5401
▁interpret	-10.5403
▁verse	-10.5408
▁storms	-10.5413
ning	-10.542
▁ext	-10.5425
▁fans	-10.5434
▁lad	-10.5441
▁temper	-10.5454
▁formal	-10.5456
vy	-10.5462
▁paying	-10.5463
▁dreamed	-10.5467
▁tests	-10.5473
▁chirus	-10.5478
▁gates	-10.548
▁events	-10.5483
ological	-10.5502
▁stops	-10.5505
▁cane	-10.5532
▁nicely	-10.5533
▁cooling	-10.5536
▁villages	-10.5544
▁ended	-10.5545
▁tracks	-10.5587
▁van	-10.5592
minent	-10.5607
▁loser	-10.5621
▁commands	-10.5637
ol	-10.5637
▁jam	-10.5657
▁outrage	-10.5668
▁guessed	-10.5669
▁wholl	-10.5671
▁messages	-10.5685
our	-10.5693
▁toot	-10.5714
▁leaders	-10.574
ept	-10.5749
ffert	-10.5775
nd	-10.5789
▁senator	-10.5798
twas	-10.5801
▁graduate	-10.5808
▁fre	-10.5813
▁shots	-10.5837
▁concentrate	-10.5839
▁bars	-10.5841
▁easter	-10.5841
▁cas	-10.5845
hold	-10.5852
▁worrying	-10.5859
dancing	-10.587
▁adjuste	-10.5885
▁howl	-10.5897
ating	-10.5899
▁reci	-10.5899
ding	-10.5903
ping	-10.5915
▁glori	-10.5917
▁surprises	-10.5937
▁pu	-10.5944
▁numer	-10.5973
▁mol	-10.5977
ick	-10.5978
▁commen	-10.5993
▁lick	-10.6005
▁edition	-10.6016
lin	-10.6018
▁gu	-10.6037
▁abe	-10.6048
x	-10.605
▁dogg	-10.6052
▁har	-10.6064
rd	-10.6065
king	-10.6077
▁but	-10.6084
▁ther	-10.6097
▁cri	-10.6106
▁pee	-10.6111
▁grows	-10.6124
nick	-10.6135
▁cans	-10.6148
gging	-10.6173
▁why	-10.6173
▁fin	-10.6187
▁u	-10.6208
per	-10.6209
▁foods	-10.6213
▁presidents	-10.6224
▁patrol	-10.6232
ole	-10.6247
▁mans	-10.6285
nthrop	-10.6287
▁christians	-10.63
▁controls	-10.6311
zing	-10.6312
rough	-10.6314
▁grin	-10.6314
rie	-10.6322
uv	-10.6326
stop	-10.6341
rank	-10.6352
▁div	-10.6375
▁wil	-10.6384
ized	-10.6388
▁att	-10.639
▁distribut	-10.6392
▁balls	-10.6397
▁senses	-10.6416
▁straw	-10.6417
▁jer	-10.6425
ms	-10.6441
▁bou	-10.6459
▁speaks	-10.6488
▁stereo	-10.6495
▁rub	-10.65
▁tang	-10.6516
town	-10.6545
ps	-10.6558
▁sends	-10.657
▁strangers	-10.6608
nose	-10.6616
▁slam	-10.662
od	-10.6634
▁twi	-10.6634
ip	-10.6643
▁pres	-10.6647
▁earlie	-10.6654
▁wast	-10.6658
▁author	-10.6662
▁nah	-10.6664
▁towns	-10.6682
▁mmmmmmmmmm	-10.6683
bed	-10.6685
ola	-10.6687
adida	-10.6713
kind	-10.6726
▁waited	-10.6728
▁saddle	-10.6732
▁por	-10.6734
room	-10.6758
ice	-10.6777
▁nasa	-10.6783
▁bug	-10.6788
ney	-10.6799
pleasant	-10.6803
ft	-10.6803
board	-10.6804
bottom	-10.681
▁te	-10.6816
jespah	-10.6819
fare	-10.6821
record	-10.6821
▁yahoo	-10.6823
▁suck	-10.6823
▁bloom	-10.6829
wise	-10.6831
itles	-10.6837
▁wonders	-10.6837
bud	-10.6852
hood	-10.6854
▁gear	-10.6864
▁whisper	-10.6868
▁struggle	-10.6869
▁whee	-10.6872
▁ankle	-10.6874
▁manichean	-10.6874
oo	-10.6874
▁slurp	-10.6877
▁scribe	-10.688
▁marine	-10.688
aking	-10.6884
▁mexican	-10.6888
▁swa	-10.6891
▁william	-10.6893
▁prince	-10.6894
▁youngster	-10.6896
▁director	-10.6898
▁coward	-10.6899
▁benefit	-10.6901
▁cigarette	-10.6902
▁chabot	-10.6902
nce	-10.6911
▁drain	-10.6912
▁beside	-10.6913
▁continu	-10.6932
▁file	-10.6936
▁boot	-10.6938
ill	-10.6946
▁strap	-10.6953
▁stare	-10.6958
▁stray	-10.6969
▁stan	-10.6974
▁comfort	-10.6977
hes	-10.698
▁entertain	-10.698
take	-10.6983
▁kar	-10.6985
▁quack	-10.6992
▁cleaner	-10.6992
▁tin	-10.6994
▁encounter	-10.6994
▁increase	-10.6995
▁display	-10.6995
▁frighten	-10.6998
▁select	-10.6998
▁corrupt	-10.7001
my	-10.7002
▁seize	-10.7004
▁relative	-10.7005
▁weigh	-10.7006
▁laura	-10.701
▁precise	-10.701
▁flu	-10.7011
▁practical	-10.7011
▁mmmmmm	-10.7011
▁inspect	-10.7015
▁curse	-10.7016
▁destin	-10.7016
▁mystic	-10.7017
while	-10.7017
inlaw	-10.7021
▁region	-10.7021
▁sixteen	-10.7022
▁govern	-10.7024
▁academy	-10.7025
▁aeetes	-10.7025
▁alternative	-10.7025
▁anthony	-10.7025
▁appaloosa	-10.7025
▁arguing	-10.7025
▁atmosphere	-10.7025
▁blossom	-10.7025
▁bronze	-10.7025
▁buddha	-10.7025
▁centaur	-10.7025
▁cetera	-10.7025
▁clavecin	-10.7025
▁conclude	-10.7025
▁condemnation	-10.7025
▁constantinople	-10.7025
▁controversy	-10.7025
▁conviction	-10.7025
▁criminal	-10.7025
▁decretals	-10.7025
▁district	-10.7025
▁enormous	-10.7025
▁eugene	-10.7025
▁evilfinder	-10.7025
▁financial	-10.7025
▁gablegobble	-10.7025
▁garrison	-10.7025
▁gramophone	-10.7025
▁griffin	-10.7025
▁hallelujah	-10.7025
▁henderson	-10.7025
▁heritage	-10.7025
▁immigrants	-10.7025
▁independen	-10.7025
▁logorrhea	-10.7025
▁lungwort	-10.7025
▁mademoiselle	-10.7025
▁mezzofanti	-10.7025
▁osbourne	-10.7025
▁pencil	-10.7025
▁policies	-10.7025
▁poverty	-10.7025
▁propagand	-10.7025
▁scalpel	-10.7025
▁scarecrow	-10.7025
▁scriptura	-10.7025
▁sphinx	-10.7025
▁stubborn	-10.7025
▁testimony	-10.7025
▁traffic	-10.7025
▁tremendous	-10.7025
▁volvo	-10.7025
▁vulture	-10.7025
▁wainwhisle	-10.7025
▁whiskers	-10.7025
▁whiskey	-10.7025
▁withdraw	-10.7025
▁zagorsky	-10.7025
▁mirror	-10.7025
▁revenge	-10.7025
▁beverage	-10.7025
▁escort	-10.7025
▁narrative	-10.7025
▁rhode	-10.7025
▁senior	-10.7025
▁applied	-10.7025
▁douglas	-10.7025
▁gradually	-10.7025
▁geneva	-10.7025
▁kemble	-10.7025
▁relief	-10.7025
▁cellphone	-10.7025
▁siege	-10.7025
▁neighborhood	-10.7025
▁fraud	-10.7025
▁genya	-10.7025
▁legacy	-10.7025
▁preparing	-10.7025
▁excitement	-10.7025
▁brainwash	-10.7025
▁favourite	-10.7025
▁humiliation	-10.7025
▁idaho	-10.7025
▁pattern	-10.7025
▁pollack	-10.7025
▁ufo	-10.7025
▁ashamed	-10.7025
▁preparation	-10.7025
▁spurgeon	-10.7025
▁affirmative	-10.7025
▁hellebore	-10.7025
▁lurking	-10.7025
▁fiesta	-10.7025
▁creek	-10.7025
▁drama	-10.7025
▁splendid	-10.7025
▁agenda	-10.7025
▁anato	-10.7025
▁armada	-10.7025
▁morris	-10.7025
▁someplace	-10.7025
▁britain	-10.7025
▁addict	-10.7025
▁microphone	-10.7025
▁inheritance	-10.7025
▁caramba	-10.7025
▁hippo	-10.7025
▁accelerator	-10.7025
▁fluff	-10.7025
▁investigation	-10.7025
▁infection	-10.7025
▁phew	-10.7025
▁mortal	-10.7025
▁ritual	-10.7025
▁device	-10.7025
▁warrior	-10.7025
▁route	-10.7025
▁haircut	-10.7025
▁negro	-10.7025
▁coordinate	-10.7025
▁razor	-10.7025
▁pepper	-10.7025
▁fisherman	-10.7025
▁orgyen	-10.7025
▁deception	-10.7026
▁achievement	-10.7026
▁basketball	-10.7026
▁toothache	-10.7026
▁farewell	-10.7026
▁unafraid	-10.7026
▁instance	-10.7026
▁contrary	-10.7026
▁harbor	-10.7026
▁secure	-10.7026
▁potential	-10.7026
▁inspiration	-10.7026
▁shelf	-10.7026
▁batteries	-10.7026
▁chapter	-10.7026
▁inquiry	-10.7026
▁existence	-10.7026
▁bingo	-10.7026
▁palomar	-10.7026
▁hahaha	-10.7027
▁sinned	-10.7027
▁robber	-10.7027
▁palace	-10.7027
▁flood	-10.7027
▁cadet	-10.7027
▁overflow	-10.7027
▁hysterical	-10.7027
▁jeez	-10.7027
▁concentration	-10.7027
▁charity	-10.7027
▁citywide	-10.7027
▁judgment	-10.7027
▁possession	-10.7027
▁jolly	-10.7028
▁expectations	-10.7028
▁courtship	-10.7028
▁creation	-10.7028
▁occurred	-10.7028
▁gross	-10.7028
▁thieves	-10.7028
▁beza	-10.7028
▁manaus	-10.7028
▁chapel	-10.7028
▁bribe	-10.7029
▁pursuit	-10.7029
▁jelly	-10.7029
▁profile	-10.7029
▁dorm	-10.7029
▁tension	-10.703
▁ponder	-10.703
▁establishment	-10.703
▁cattle	-10.703
▁pierce	-10.703
▁celebrating	-10.703
▁desperately	-10.703
▁clown	-10.703
▁constitutional	-10.7031
▁heeya	-10.7031
▁tbone	-10.7031
▁industri	-10.7031
▁sunlight	-10.7031
▁merger	-10.7032
▁merit	-10.7032
▁donny	-10.7032
lessness	-10.7032
▁behold	-10.7032
▁agnes	-10.7032
▁nock	-10.7032
▁funnies	-10.7032
▁overcome	-10.7033
▁thud	-10.7033
▁loyalty	-10.7033
▁applaud	-10.7033
▁swear	-10.7033
ripped	-10.7034
▁councilman	-10.7034
▁pastime	-10.7034
▁bobby	-10.7034
▁ahoy	-10.7034
▁caption	-10.7035
▁marshes	-10.7035
▁opposed	-10.7035
▁iq	-10.7035
▁broad	-10.7036
▁unlike	-10.7036
▁objective	-10.7037
▁daily	-10.7037
▁whew	-10.7037
▁mouse	-10.7038
▁heroic	-10.7038
▁stork	-10.7038
▁keg	-10.7038
▁cathy	-10.7038
▁monsieur	-10.7038
▁stammering	-10.7039
▁georgie	-10.7039
▁agreement	-10.704
▁devoted	-10.704
▁precisely	-10.704
▁useful	-10.7041
▁wheat	-10.7041
▁prime	-10.7041
▁email	-10.7041
▁arrows	-10.7041
▁porcupines	-10.7041
▁bodyguards	-10.7041
▁trustees	-10.7042
▁peep	-10.7042
▁combined	-10.7042
▁results	-10.7042
▁welcoming	-10.7042
▁jackson	-10.7043
▁solution	-10.7043
▁pasture	-10.7045
▁rising	-10.7046
▁magnificent	-10.7046
▁fork	-10.7046
▁inject	-10.7047
▁established	-10.7047
▁digging	-10.7047
▁seventh	-10.7048
▁cheek	-10.7048
▁angeles	-10.7048
▁feast	-10.7048
▁schoolhouse	-10.7049
▁foam	-10.7049
▁revealing	-10.705
▁carter	-10.705
▁elder	-10.7051
▁rex	-10.7051
▁fend	-10.7052
ins	-10.7053
▁orbit	-10.7053
▁selected	-10.7053
▁nuclear	-10.7053
▁motion	-10.7054
▁familiar	-10.7054
▁gravity	-10.7054
▁mick	-10.7054
▁threaten	-10.7056
▁cried	-10.7056
▁riot	-10.7057
▁nun	-10.7057
▁fuss	-10.7058
▁evolution	-10.7058
▁mob	-10.706
▁flown	-10.7061
▁resent	-10.7064
▁quacking	-10.7065
▁assumed	-10.7067
▁pirates	-10.7069
▁sighing	-10.7072
▁yum	-10.7074
▁failed	-10.7074
▁sniffer	-10.7075
▁hiking	-10.7075
▁doggie	-10.7076
▁homicide	-10.7076
▁crushed	-10.7076
▁intended	-10.7078
▁accomplished	-10.7079
▁cookies	-10.7079
▁dialing	-10.708
▁creaks	-10.7081
▁embraced	-10.7081
▁lair	-10.7082
▁healing	-10.7082
▁burnt	-10.7082
ak	-10.7083
▁bully	-10.7084
▁duh	-10.7088
itched	-10.7092
▁beaten	-10.7092
▁drinkin	-10.7094
▁penny	-10.7095
▁scouting	-10.7096
▁tribes	-10.7096
▁mask	-10.7096
▁instructions	-10.7097
▁litter	-10.7097
▁disturbing	-10.7098
▁athletes	-10.7099
▁unusual	-10.71
ations	-10.7102
gie	-10.7103
▁yelled	-10.7104
▁focused	-10.7104
za	-10.7105
▁walkin	-10.7106
▁venture	-10.7107
▁tiger	-10.7114
▁homeless	-10.7116
▁protection	-10.7117
▁freaking	-10.7118
▁angela	-10.7119
ison	-10.7121
▁translate	-10.7123
▁wasted	-10.7124
▁rang	-10.7124
▁rack	-10.7125
▁contractors	-10.7126
▁challenged	-10.7126
▁bugs	-10.7127
▁lookout	-10.7129
▁howdy	-10.7133
▁flag	-10.7133
▁beans	-10.7134
▁glimpse	-10.7136
▁sara	-10.7141
▁canal	-10.7143
▁suitable	-10.7158
▁bury	-10.7159
bc	-10.7162
ys	-10.7165
▁rattle	-10.7166
▁bean	-10.7166
▁survived	-10.7168
▁talented	-10.7168
▁newman	-10.7169
▁dealers	-10.7172
▁respons	-10.7173
▁belly	-10.7176
▁dull	-10.7178
▁honk	-10.718
▁inning	-10.718
▁dragons	-10.7184
▁sailed	-10.7184
▁methods	-10.7184
▁musicians	-10.7196
▁prayers	-10.7198
▁spit	-10.7204
▁rail	-10.7206
▁pol	-10.7206
▁beep	-10.7208
▁issues	-10.7209
▁flames	-10.7209
▁cleaned	-10.7211
▁attacked	-10.7212
▁cl	-10.7213
▁chemicals	-10.7213
▁submersibles	-10.7213
glanc	-10.7214
▁secretly	-10.7214
▁string	-10.7215
▁backup	-10.7217
▁primate	-10.7228
▁longest	-10.7239
▁strikes	-10.7239
▁steep	-10.724
▁degrees	-10.7241
ds	-10.7241
▁holidays	-10.7241
▁anger	-10.7242
▁antichrist	-10.7247
ped	-10.7249
ew	-10.725
▁agreeing	-10.7253
▁pleasant	-10.7254
▁tracking	-10.7259
▁packing	-10.7261
▁images	-10.7263
▁baths	-10.7264
▁belonged	-10.7265
▁lawyers	-10.727
▁feelin	-10.727
▁expeditions	-10.727
▁touching	-10.7276
▁roots	-10.728
ja	-10.7281
▁ares	-10.7288
▁gladly	-10.7291
▁hens	-10.7295
▁gardens	-10.7298
▁blocks	-10.7298
▁caus	-10.7303
▁couch	-10.7304
▁halt	-10.7307
▁lemon	-10.7313
▁yah	-10.7317
▁shower	-10.7319
▁younger	-10.732
▁fixing	-10.7321
▁climbing	-10.7326
▁circles	-10.7327
▁impressions	-10.7328
▁lovers	-10.7332
vation	-10.7333
▁chi	-10.7342
▁ln	-10.7347
▁role	-10.7349
▁importantly	-10.735
▁fran	-10.7356
▁burns	-10.7362
▁settles	-10.7365
▁acre	-10.7382
▁fond	-10.7391
▁landed	-10.7393
▁meowing	-10.7393
uction	-10.74
▁import	-10.7407
▁waitin	-10.7408
▁prov	-10.7413
▁reaching	-10.7414
▁buying	-10.7416
▁swor	-10.7419
▁rates	-10.7424
▁ol	-10.7425
▁code	-10.7427
ome	-10.7428
ki	-10.7429
▁toll	-10.7442
▁russians	-10.7468
▁berniers	-10.7471
▁experiments	-10.7474
▁raci	-10.7475
tor	-10.7476
▁pops	-10.7476
▁nap	-10.7479
▁trials	-10.7498
▁weed	-10.7498
▁noises	-10.7499
▁happie	-10.75
etting	-10.75
▁faced	-10.7501
▁examine	-10.7516
▁beating	-10.7516
▁sem	-10.752
▁me	-10.7524
▁imp	-10.7531
▁toe	-10.7534
▁bur	-10.7536
▁laps	-10.7547
▁beam	-10.7549
ven	-10.756
▁drown	-10.7564
▁additional	-10.7571
mmmmmmmmmmm	-10.7576
▁handy	-10.7579
▁religions	-10.7584
▁glue	-10.7594
▁lions	-10.7596
▁hy	-10.7607
ue	-10.7608
▁lively	-10.7611
▁primar	-10.7612
▁sue	-10.7614
▁hank	-10.7623
▁tu	-10.7635
amin	-10.7647
curb	-10.7649
bo	-10.7651
▁cod	-10.7656
▁spill	-10.7659
▁cult	-10.7685
▁hid	-10.7705
▁kn	-10.7708
limpses	-10.7718
▁picking	-10.7719
bone	-10.7722
ul	-10.7729
▁miracles	-10.773
▁sails	-10.7735
▁pho	-10.7738
▁scrub	-10.7747
▁esp	-10.7748
▁wagons	-10.7752
▁maga	-10.7752
▁sack	-10.7762
▁bu	-10.7765
ging	-10.7773
▁jet	-10.7776
▁on	-10.7783
▁mere	-10.7787
ual	-10.7788
▁ore	-10.7802
▁ann	-10.7806
▁languages	-10.7816
▁pod	-10.7831
▁sle	-10.7831
▁margar	-10.7835
▁fle	-10.7836
▁luc	-10.7838
nstruction	-10.7849
tre	-10.7851
▁alexandr	-10.7865
▁gil	-10.7867
▁springs	-10.7868
lar	-10.7876
▁ward	-10.7877
ose	-10.7882
▁expos	-10.7882
tish	-10.7888
▁explode	-10.7889
believable	-10.7893
rig	-10.7895
▁swis	-10.79
▁cloth	-10.7922
▁baptis	-10.7923
▁lied	-10.7924
▁scheme	-10.7934
▁claires	-10.7956
▁boo	-10.7957
ux	-10.7961
▁er	-10.7971
▁trails	-10.7976
▁limb	-10.7986
▁liver	-10.8008
ummy	-10.8013
▁probe	-10.8017
▁grumbl	-10.8025
▁tomorrows	-10.8034
▁olive	-10.8039
▁holds	-10.8046
isle	-10.805
▁and	-10.8057
▁yelp	-10.8063
▁trace	-10.8089
viet	-10.8091
▁oil	-10.8097
▁fishing	-10.8099
▁syr	-10.81
▁perk	-10.8114
▁seek	-10.812
▁sever	-10.8123
res	-10.8124
▁qua	-10.8164
▁shirt	-10.8191
ory	-10.8204
lock	-10.821
▁leo	-10.821
ability	-10.8247
▁mode	-10.8249
▁hiss	-10.8251
ris	-10.8265
▁hom	-10.8266
ame	-10.8284
▁hats	-10.8292
▁prep	-10.8298
▁vet	-10.8303
▁promot	-10.8307
▁react	-10.8326
▁ar	-10.834
more	-10.8341
▁wanting	-10.8364
val	-10.8379
▁lin	-10.838
▁lou	-10.8383
ung	-10.8384
ines	-10.839
▁waters	-10.8404
chief	-10.8404
aaah	-10.8418
▁ink	-10.8437
get	-10.8444
▁legi	-10.845
▁occasion	-10.8471
▁brom	-10.8476
lon	-10.8481
▁min	-10.8487
hole	-10.849
usion	-10.8506
▁mat	-10.8514
ou	-10.8518
ication	-10.8522
ope	-10.8535
▁bake	-10.8547
▁accura	-10.8548
▁shak	-10.8549
▁acts	-10.8549
▁thoughts	-10.855
▁flak	-10.855
▁supervis	-10.8551
▁gl	-10.8555
ings	-10.8561
▁jacks	-10.8572
▁rod	-10.8604
▁hike	-10.8605
▁hounds	-10.8607
▁believes	-10.8639
ement	-10.8681
▁am	-10.87
vi	-10.8704
▁hint	-10.8707
▁stir	-10.8712
▁introduc	-10.8744
▁drinks	-10.8762
sion	-10.8762
think	-10.8767
olar	-10.8769
lessly	-10.8771
ery	-10.8774
▁promises	-10.8776
ideo	-10.8786
▁diva	-10.8822
▁ending	-10.8825
pt	-10.8825
▁appreciat	-10.8843
▁operat	-10.8847
▁ve	-10.8851
ram	-10.8856
omin	-10.8867
▁when	-10.8871
where	-10.8872
vast	-10.8877
▁mor	-10.8894
▁whites	-10.8898
even	-10.89
head	-10.8908
▁fri	-10.8909
▁include	-10.8934
▁gran	-10.8936
lt	-10.8937
▁reds	-10.8959
renade	-10.8962
▁homes	-10.8968
▁hydra	-10.8968
▁cathar	-10.8968
▁races	-10.8969
otic	-10.9005
▁graci	-10.9025
pped	-10.9048
am	-10.907
iled	-10.907
ass	-10.9073
▁thy	-10.9073
▁ju	-10.9076
▁char	-10.9085
▁rely	-10.9119
life	-10.9145
ig	-10.9165
▁undo	-10.9167
▁sport	-10.9182
ators	-10.9188
made	-10.9197
ster	-10.92
brook	-10.9205
▁port	-10.9213
▁blip	-10.9241
▁float	-10.9254
easy	-10.9286
▁approve	-10.9294
rest	-10.9302
proof	-10.9312
yearold	-10.9315
▁slap	-10.9324
type	-10.9329
▁dia	-10.9342
ld	-10.9346
▁uncon	-10.9346
ck	-10.9349
▁believ	-10.9353
▁ribbon	-10.9373
▁italian	-10.9374
▁prediction	-10.9374
▁gorilla	-10.9374
▁gypsy	-10.9374
▁barbarian	-10.9375
▁gunshot	-10.9376
face	-10.9378
tha	-10.9384
▁thi	-10.9384
▁candidate	-10.9387
▁instrument	-10.9388
▁conservative	-10.9388
▁column	-10.9388
▁highball	-10.9389
▁item	-10.9391
▁horizon	-10.9393
▁apostle	-10.9394
▁historian	-10.9394
▁photo	-10.9398
▁circuit	-10.9399
▁chick	-10.9399
worth	-10.94
▁soldier	-10.9402
▁bullet	-10.9403
▁remov	-10.9404
ought	-10.9404
nk	-10.9408
▁surgeon	-10.941
▁judg	-10.9411
amount	-10.9412
▁stream	-10.942
▁fee	-10.9422
claim	-10.9425
race	-10.9426
▁folk	-10.944
▁squeal	-10.9453
▁resid	-10.9453
▁respond	-10.9458
▁embarrass	-10.9466
▁peak	-10.9472
coming	-10.9477
▁surf	-10.9484
▁accord	-10.9486
▁echo	-10.9487
▁appeal	-10.9488
▁establish	-10.9489
▁whoosh	-10.9491
▁eliminate	-10.9493
▁insult	-10.9494
▁investigate	-10.9498
▁advise	-10.9499
tal	-10.9499
▁solve	-10.9502
▁critic	-10.9502
fathers	-10.9505
aro	-10.9505
▁permanent	-10.9506
▁knight	-10.9508
▁drumm	-10.951
▁sudden	-10.951
▁snaps	-10.9511
▁convent	-10.9514
▁multi	-10.9514
▁guilt	-10.9515
▁ideal	-10.9517
▁constitution	-10.9518
▁content	-10.9518
▁crawl	-10.9518
▁demon	-10.9518
▁egypt	-10.9519
▁technical	-10.9523
▁achieve	-10.9524
huahua	-10.9524
▁dynam	-10.9525
appropriate	-10.9525
▁advantage	-10.9525
▁amateur	-10.9525
▁amulet	-10.9525
▁antelope	-10.9525
▁apologies	-10.9525
▁appalachian	-10.9525
▁appalling	-10.9525
▁autumn	-10.9525
▁bartleby	-10.9525
▁bathtub	-10.9525
▁blasphemy	-10.9525
▁bleakman	-10.9525
▁blowtorch	-10.9525
▁bluffing	-10.9525
▁briseis	-10.9525
▁competitive	-10.9525
▁confidence	-10.9525
▁conscience	-10.9525
▁convincing	-10.9525
▁destructive	-10.9525
▁detroit	-10.9525
▁discredit	-10.9525
▁domestic	-10.9525
▁ecosystem	-10.9525
▁estimate	-10.9525
▁euphemus	-10.9525
▁exaggerated	-10.9525
▁frankendude	-10.9525
▁galaxy	-10.9525
▁grief	-10.9525
▁griesbach	-10.9525
▁harvard	-10.9525
▁inhabited	-10.9525
▁javelin	-10.9525
▁junkyard	-10.9525
▁kookaburra	-10.9525
▁legwarmers	-10.9525
▁maintenance	-10.9525
▁mandemus	-10.9525
▁mechanic	-10.9525
▁mechanism	-10.9525
▁memoirs	-10.9525
▁minnesota	-10.9525
▁monopoly	-10.9525
▁montague	-10.9525
▁murdoch	-10.9525
▁navarro	-10.9525
▁nupur	-10.9525
▁nyima	-10.9525
▁odyssey	-10.9525
▁olympus	-10.9525
▁orleans	-10.9525
▁parliament	-10.9525
▁persuade	-10.9525
▁phalerus	-10.9525
▁photosynthesis	-10.9525
▁picasso	-10.9525
▁possibilities	-10.9525
▁postponed	-10.9525
▁prevail	-10.9525
▁privacy	-10.9525
▁procedure	-10.9525
▁purgatory	-10.9525
▁qualify	-10.9525
▁reservation	-10.9525
▁sediment	-10.9525
▁spacecraft	-10.9525
▁struggling	-10.9525
▁stubbins	-10.9525
▁stupendous	-10.9525
▁stuyvesant	-10.9525
▁supreme	-10.9525
▁telepath	-10.9525
▁terrene	-10.9525
▁thingamabob	-10.9525
▁thursday	-10.9525
▁toilet	-10.9525
▁trimmings	-10.9525
▁uncomfortabl	-10.9525
▁uninspired	-10.9525
▁wyckoff	-10.9525
▁administration	-10.9525
▁capturing	-10.9525
▁disgust	-10.9525
▁envelope	-10.9525
▁ethnic	-10.9525
▁explosive	-10.9525
▁fundamental	-10.9525
▁jennings	-10.9525
▁kurek	-10.9525
▁marvellous	-10.9525
▁mosquito	-10.9525
▁peculiar	-10.9525
▁savior	-10.9525
▁swabbing	-10.9525
▁uttama	-10.9525
▁automatic	-10.9525
▁counsel	-10.9525
▁dellinger	-10.9525
▁dizzy	-10.9525
▁entwine	-10.9525
▁ghoul	-10.9525
▁relieved	-10.9525
▁twelve	-10.9525
▁abolish	-10.9525
▁prophet	-10.9525
▁bogey	-10.9525
▁ceiling	-10.9525
▁collapse	-10.9525
▁opposition	-10.9525
▁vessel	-10.9525
▁cautious	-10.9525
▁migration	-10.9525
▁monitor	-10.9525
▁nelson	-10.9525
▁possum	-10.9525
▁avenge	-10.9525
▁confused	-10.9525
▁pulpit	-10.9525
▁urgency	-10.9525
▁yourseif	-10.9525
▁cemeter	-10.9525
▁channel	-10.9525
▁jethro	-10.9525
▁fruit	-10.9525
▁inerran	-10.9525
▁hollis	-10.9525
▁aframe	-10.9525
▁athos	-10.9525
▁dreadful	-10.9525
▁adventurous	-10.9525
▁improvise	-10.9525
▁dinosaur	-10.9525
▁internet	-10.9525
▁cackling	-10.9525
▁didier	-10.9525
▁latimer	-10.9525
▁apology	-10.9525
▁banana	-10.9525
misunderstanding	-10.9525
▁commitment	-10.9525
▁movin	-10.9525
▁pregnant	-10.9525
▁nightmare	-10.9525
▁barbara	-10.9525
▁rodney	-10.9525
▁ooooh	-10.9525
▁providing	-10.9525
▁submarine	-10.9525
▁concept	-10.9525
▁backyard	-10.9525
▁amusing	-10.9525
▁extinct	-10.9525
▁overdose	-10.9525
▁thirty	-10.9525
▁italy	-10.9525
▁granddaughter	-10.9525
▁murph	-10.9525
▁expelled	-10.9525
▁chateau	-10.9525
▁murray	-10.9525
▁rationalism	-10.9525
▁statesmanship	-10.9525
▁impact	-10.9525
▁salmon	-10.9525
▁authorities	-10.9525
▁shortcut	-10.9525
▁sushi	-10.9525
▁theater	-10.9525
▁lecture	-10.9525
▁armory	-10.9525
▁darwin	-10.9525
▁federal	-10.9525
▁mavis	-10.9525
▁decline	-10.9525
▁mammal	-10.9526
▁thriving	-10.9526
▁marina	-10.9526
▁cherone	-10.9526
▁mushroom	-10.9526
▁eisen	-10.9526
▁dollhouse	-10.9526
▁cruel	-10.9526
▁exploit	-10.9526
▁cavern	-10.9526
▁description	-10.9526
▁sulf	-10.9526
▁midnight	-10.9526
▁holland	-10.9526
▁clucking	-10.9526
▁iconic	-10.9526
▁avenue	-10.9526
▁curtain	-10.9526
▁arrgh	-10.9526
▁patrick	-10.9526
▁entertainment	-10.9526
▁playground	-10.9526
▁estate	-10.9526
▁optimistic	-10.9526
▁paddle	-10.9526
▁clancy	-10.9526
▁senate	-10.9526
▁auto	-10.9527
▁kidnapped	-10.9527
▁misery	-10.9527
▁piggy	-10.9527
▁investigating	-10.9527
▁affection	-10.9527
▁granny	-10.9527
▁online	-10.9527
▁condenser	-10.9527
▁susan	-10.9527
▁analyze	-10.9527
▁reduce	-10.9527
▁brutality	-10.9527
▁delightful	-10.9527
▁upside	-10.9527
▁attached	-10.9527
▁whiz	-10.9527
▁ashley	-10.9527
▁greece	-10.9527
▁hmmph	-10.9528
▁contrast	-10.9528
▁mendez	-10.9528
▁inspection	-10.9528
▁aggressive	-10.9528
▁drunk	-10.9528
▁gloomy	-10.9528
▁spinning	-10.9528
▁operator	-10.9528
▁jingle	-10.9528
▁spicy	-10.9528
▁furious	-10.9529
▁laboratory	-10.9529
▁luxury	-10.9529
▁humiliating	-10.9529
▁qualified	-10.9529
▁paddy	-10.9529
▁dropping	-10.9529
▁vetry	-10.9529
▁mouthful	-10.9529
▁stripedy	-10.9529
▁grilled	-10.953
▁paperwork	-10.953
▁typing	-10.953
▁padre	-10.953
▁resulted	-10.953
▁noticing	-10.953
▁noisy	-10.953
▁nooo	-10.953
▁augustine	-10.9531
▁papacy	-10.9531
▁skipping	-10.9531
▁finland	-10.9531
▁surprising	-10.9531
▁geese	-10.9531
▁jerry	-10.9531
▁undermine	-10.9532
▁overwhelming	-10.9532
▁strict	-10.9532
▁wailing	-10.9532
▁faint	-10.9532
▁announcement	-10.9532
▁chuck	-10.9532
▁humor	-10.9532
▁thirst	-10.9532
▁league	-10.9532
▁joking	-10.9533
▁breach	-10.9533
▁notion	-10.9533
▁marble	-10.9534
▁decoy	-10.9534
▁oven	-10.9534
▁tsk	-10.9534
▁regional	-10.9534
▁consideration	-10.9534
▁suppress	-10.9535
▁cameraman	-10.9535
▁stepped	-10.9535
▁elsewhere	-10.9535
▁trappers	-10.9536
▁dominated	-10.9536
▁rainbow	-10.9536
▁label	-10.9536
▁lester	-10.9536
▁multipl	-10.9536
▁sober	-10.9536
▁ignorant	-10.9537
▁effective	-10.9537
▁sting	-10.9537
▁soap	-10.9537
▁wives	-10.9537
dog	-10.9538
▁straightened	-10.9538
▁clattering	-10.9539
▁household	-10.9539
▁painters	-10.9539
▁budget	-10.954
▁hush	-10.9541
▁chili	-10.9541
rappers	-10.9541
▁batch	-10.9541
▁purged	-10.9541
▁dork	-10.9541
▁rape	-10.9542
▁enchanted	-10.9542
▁shattering	-10.9542
▁bulk	-10.9542
▁stems	-10.9544
▁hiccuping	-10.9544
▁patron	-10.9544
▁frog	-10.9544
▁clarinetist	-10.9545
▁madman	-10.9545
▁recovery	-10.9546
▁ranks	-10.9546
▁worm	-10.9546
▁politicians	-10.9547
▁transformed	-10.9547
▁recover	-10.9547
▁bedtime	-10.9547
▁grownups	-10.9547
▁powerless	-10.9548
▁groomer	-10.9549
slation	-10.955
▁importance	-10.955
▁elected	-10.9551
bridge	-10.9551
▁luckily	-10.9551
▁forging	-10.9551
▁plantation	-10.9552
▁nodd	-10.9552
▁tropic	-10.9552
▁producing	-10.9552
▁thread	-10.9553
▁sensitive	-10.9553
▁identified	-10.9554
▁waterski	-10.9554
▁straining	-10.9554
▁restless	-10.9555
▁humanity	-10.9555
▁flush	-10.9555
▁breaks	-10.9555
▁nom	-10.9556
▁sowell	-10.9556
▁sacked	-10.9556
▁phrase	-10.9558
▁handcuff	-10.9559
▁asset	-10.9561
▁physically	-10.9561
▁photographs	-10.9561
▁merci	-10.9562
▁useless	-10.9563
▁vande	-10.9563
▁bodies	-10.9563
▁toughest	-10.9563
▁altitude	-10.9564
▁formation	-10.9565
▁vain	-10.9565
▁biz	-10.9565
▁pep	-10.9565
▁spike	-10.9567
▁whooshing	-10.9568
▁fatal	-10.9569
▁surfing	-10.9569
▁robin	-10.9569
▁strongest	-10.9569
▁writers	-10.9569
▁screeches	-10.957
▁cries	-10.957
▁bitch	-10.957
brain	-10.957
▁waking	-10.9571
▁regarded	-10.9572
▁jacket	-10.9572
tazz	-10.9572
▁buds	-10.9572
▁hallway	-10.9573
▁ladder	-10.9573
▁crossexamin	-10.9574
▁described	-10.9575
▁questionable	-10.9575
▁robes	-10.9575
▁fifteen	-10.9576
▁maintain	-10.9576
pit	-10.9577
▁agh	-10.9579
▁confirmed	-10.9581
▁entertaining	-10.9581
▁lori	-10.9581
▁bleed	-10.9581
▁neigh	-10.9582
▁villains	-10.9582
▁growth	-10.9583
▁lannisters	-10.9583
▁quote	-10.9583
▁heretics	-10.9583
▁biscuits	-10.9583
▁disguises	-10.9583
▁quality	-10.9583
▁pancakes	-10.9583
▁everyday	-10.9584
▁properly	-10.9584
▁speaker	-10.9584
▁related	-10.9584
▁melod	-10.9585
▁bolt	-10.9587
▁entrance	-10.9587
▁earn	-10.9587
▁interrupted	-10.9588
▁represented	-10.959
▁visitors	-10.959
▁proposed	-10.9591
▁abbot	-10.9591
▁suffering	-10.9593
▁stroll	-10.9593
▁bold	-10.9594
▁filed	-10.9594
▁argued	-10.9596
▁successfully	-10.9597
▁forty	-10.9598
▁coolest	-10.9598
▁gig	-10.9599
▁slip	-10.9599
▁brandy	-10.9601
▁hack	-10.9602
▁appeared	-10.9602
▁conscious	-10.9605
▁sonar	-10.9606
▁warned	-10.9609
▁descent	-10.9609
▁louder	-10.961
▁demanding	-10.9612
▁payment	-10.9613
▁coke	-10.9615
atin	-10.9616
▁soup	-10.9618
▁removed	-10.9619
▁utter	-10.9619
▁tactics	-10.9619
▁skates	-10.962
▁mona	-10.9621
▁ancestors	-10.9621
▁after	-10.9621
▁mainly	-10.9623
▁booing	-10.9623
▁clang	-10.9623
▁define	-10.9624
▁gene	-10.9625
▁sch	-10.9625
▁dora	-10.9626
▁stupidly	-10.9627
▁diving	-10.9628
▁shhh	-10.9628
▁tightly	-10.963
▁pronounced	-10.9631
▁ahhh	-10.9633
▁kra	-10.9633
▁cornered	-10.9635
▁dealer	-10.9635
▁eyesight	-10.9637
ken	-10.9638
▁kip	-10.9639
▁ohhh	-10.9639
▁proven	-10.9642
▁gigantical	-10.9643
▁pounding	-10.9647
▁desired	-10.9649
▁taco	-10.9649
▁apoc	-10.965
▁trainer	-10.9651
▁smarter	-10.9654
▁hired	-10.9655
▁includes	-10.9656
vacu	-10.9657
▁bullets	-10.9658
▁historians	-10.9658
▁maxim	-10.9658
▁horizons	-10.9659
▁apostles	-10.9659
▁ashes	-10.9661
▁blend	-10.9661
▁sens	-10.9662
▁spotted	-10.9663
▁relatives	-10.9666
cephal	-10.9667
▁whens	-10.9667
istic	-10.9669
▁sponsor	-10.9672
▁robot	-10.9672
▁buzzes	-10.9672
▁tata	-10.9674
▁traces	-10.9674
ately	-10.9677
▁beck	-10.9679
▁marker	-10.968
▁here	-10.9685
▁ascend	-10.9689
▁boxes	-10.969
▁tested	-10.9691
ad	-10.9693
▁hind	-10.9695
▁williams	-10.9696
▁directors	-10.9698
▁straws	-10.9699
▁filling	-10.9707
▁classes	-10.9708
▁expense	-10.9711
▁voted	-10.9714
▁cleaners	-10.9718
▁reporting	-10.972
▁complet	-10.9731
▁strangely	-10.9731
▁carne	-10.9732
▁gopa	-10.9732
▁privileges	-10.9735
▁tort	-10.9735
▁whoops	-10.9736
▁messy	-10.9747
ank	-10.9749
▁tasted	-10.976
▁equals	-10.9761
stone	-10.9763
▁patients	-10.9765
▁spy	-10.9766
representation	-10.9766
▁temperatures	-10.9773
▁quin	-10.9776
▁needle	-10.9778
▁contend	-10.9784
▁jumping	-10.9784
▁cooked	-10.9802
uel	-10.9805
▁formed	-10.9807
▁bore	-10.9809
▁debates	-10.981
▁maps	-10.9811
▁revive	-10.9815
▁hostil	-10.9816
▁batter	-10.9819
▁bombing	-10.9825
▁flaw	-10.9827
▁coons	-10.9831
▁howls	-10.9836
▁bothering	-10.9838
▁drivers	-10.9839
▁phoned	-10.9839
▁sticky	-10.9839
▁reunit	-10.9844
▁counted	-10.9846
▁mast	-10.9855
▁heir	-10.9858
skirts	-10.9858
ounciest	-10.9859
▁feared	-10.9865
▁mold	-10.9866
▁boost	-10.9874
icy	-10.9878
▁demo	-10.9886
▁manage	-10.9886
▁attacking	-10.9887
wrapped	-10.9887
▁worker	-10.9888
▁medica	-10.9892
▁umm	-10.9893
▁pluck	-10.9894
▁earthy	-10.9895
▁centers	-10.9899
▁finale	-10.9899
ress	-10.9899
▁accuse	-10.99
▁approv	-10.9901
▁answered	-10.9902
▁hunter	-10.9906
▁rebelli	-10.9916
litan	-10.9919
lands	-10.9921
▁golly	-10.9922
▁roam	-10.993
▁las	-10.9931
▁squared	-10.9938
▁clink	-10.9941
▁orderly	-10.995
▁liking	-10.9957
▁tucker	-10.9962
▁ops	-10.9962
▁pie	-10.9971
▁gree	-10.9972
▁murderer	-10.9974
▁kicks	-10.9986
▁nations	-10.9987
▁toots	-10.9992
▁coal	-10.9994
▁studio	-10.9995
▁scour	-10.9997
▁zo	-10.9999
ties	-11.0004
▁originals	-11.0007
▁ignor	-11.0008
▁aid	-11.0009
▁petu	-11.0014
erminate	-11.0021
car	-11.0023
▁cracks	-11.0031
▁onion	-11.0032
▁insists	-11.0033
▁jr	-11.0034
▁directions	-11.0035
mo	-11.0044
▁belt	-11.0045
illy	-11.0046
▁il	-11.0052
▁questioned	-11.0053
▁rebuild	-11.0057
▁chairs	-11.0065
▁nurse	-11.0089
▁disco	-11.0097
▁returning	-11.0102
▁scares	-11.0104
▁pen	-11.0107
▁carrie	-11.0107
▁bump	-11.0114
▁cameras	-11.0116
▁depress	-11.012
iness	-11.0151
rry	-11.0159
▁troubled	-11.0171
▁recording	-11.0174
▁babe	-11.0177
roque	-11.0178
rney	-11.0178
ibald	-11.0182
▁penetrate	-11.0185
▁torture	-11.0188
▁camper	-11.0189
▁radioactiv	-11.0191
obby	-11.0194
ming	-11.0216
▁nationals	-11.0229
▁suggests	-11.0234
▁traps	-11.0242
der	-11.0243
▁jewel	-11.0243
▁loss	-11.0247
▁span	-11.0253
▁aa	-11.0254
all	-11.0267
skier	-11.0274
standing	-11.0278
▁forests	-11.0293
ner	-11.0295
lic	-11.0295
▁tapes	-11.0296
▁lamp	-11.03
▁ups	-11.0302
onnais	-11.0304
▁adams	-11.0306
▁moons	-11.0306
▁ami	-11.0307
▁needles	-11.0312
▁partners	-11.0329
▁lent	-11.0339
▁chickens	-11.034
io	-11.0358
ved	-11.0359
▁waldens	-11.036
ians	-11.0363
▁abs	-11.0367
▁civiliz	-11.0378
▁decisions	-11.0379
▁talents	-11.0386
▁tellin	-11.039
be	-11.0398
▁rolls	-11.0417
iced	-11.0431
▁backs	-11.0451
bble	-11.0464
mulate	-11.0467
whwhat	-11.047
▁sparkl	-11.0471
▁ban	-11.0477
▁nicer	-11.0478
▁conn	-11.0484
▁flavors	-11.0492
▁pred	-11.0492
▁nin	-11.0493
▁extract	-11.0521
▁grandmothers	-11.0532
▁vern	-11.0547
rely	-11.0562
▁milita	-11.0567
gen	-11.0572
ez	-11.058
ot	-11.0591
▁ea	-11.0598
▁descend	-11.0624
▁specialize	-11.0628
ified	-11.0642
▁vamo	-11.0645
▁corporat	-11.0646
▁classical	-11.0649
▁humb	-11.0649
▁improve	-11.0673
▁observe	-11.0692
▁doo	-11.0699
rico	-11.07
rents	-11.0706
her	-11.0707
▁lend	-11.0709
icated	-11.0723
▁resting	-11.0728
▁primo	-11.0738
ella	-11.0742
▁pur	-11.0772
▁blond	-11.0773
▁sniffl	-11.0785
▁pursue	-11.0794
▁experiences	-11.0803
trapping	-11.0804
sters	-11.0824
▁mal	-11.0829
▁ador	-11.0838
▁thr	-11.0846
feeding	-11.0854
▁marking	-11.0861
▁ame	-11.0868
▁mirs	-11.088
onies	-11.0896
▁physic	-11.0898
▁hick	-11.0902
▁quo	-11.0903
▁lous	-11.0914
▁minim	-11.0919
▁norw	-11.093
▁permit	-11.0934
▁pil	-11.0939
illa	-11.0954
hip	-11.096
▁refresh	-11.0964
pier	-11.097
▁site	-11.0983
ax	-11.0997
▁bros	-11.101
▁biting	-11.1014
ture	-11.1016
rr	-11.102
itzer	-11.1022
ocks	-11.1027
▁axe	-11.1041
fish	-11.1045
iving	-11.1046
enny	-11.1048
▁vic	-11.1059
allel	-11.106
▁braves	-11.1061
▁cons	-11.1076
▁blu	-11.1106
von	-11.1113
nfold	-11.1132
▁timing	-11.1135
of	-11.114
lly	-11.1143
▁cater	-11.1154
med	-11.1164
lu	-11.1173
ob	-11.1174
▁comb	-11.1179
▁rounds	-11.1183
▁miler	-11.1184
▁cart	-11.1201
▁ram	-11.1209
rious	-11.1225
outs	-11.1225
▁sticks	-11.1238
▁worn	-11.1248
dian	-11.125
▁slo	-11.125
illar	-11.1251
▁lover	-11.1252
▁wester	-11.1255
tive	-11.1257
▁sew	-11.1258
▁explor	-11.1261
mer	-11.127
▁birdie	-11.1281
▁dates	-11.1304
▁pipe	-11.1305
ger	-11.1318
iate	-11.1318
ros	-11.1322
urt	-11.1328
loween	-11.1347
▁evenings	-11.1347
ely	-11.1355
▁nik	-11.1358
▁meetings	-11.1367
▁av	-11.1373
▁quart	-11.1375
top	-11.1392
ied	-11.1392
bal	-11.1413
▁bon	-11.1426
▁needing	-11.1431
gh	-11.1461
▁sn	-11.1475
mond	-11.1478
▁drugs	-11.1486
▁endure	-11.1488
ught	-11.1491
ric	-11.1493
▁strategi	-11.1495
heated	-11.1496
▁just	-11.1499
▁follower	-11.1502
eight	-11.152
limited	-11.1524
ttle	-11.1545
▁cutie	-11.1547
▁painful	-11.1548
mitt	-11.1557
▁gi	-11.1593
dest	-11.1593
▁pursu	-11.1611
beat	-11.1643
ncy	-11.1652
havin	-11.1673
▁fare	-11.1685
▁pudd	-11.1691
▁inf	-11.1696
core	-11.17
war	-11.1702
ology	-11.1709
so	-11.1719
ga	-11.1722
tag	-11.1722
▁sti	-11.1741
pa	-11.1758
▁stripe	-11.1761
nny	-11.1771
hines	-11.1777
ye	-11.1793
ker	-11.1802
thing	-11.1809
▁beats	-11.1816
ular	-11.1816
wo	-11.1829
▁exten	-11.1829
▁ci	-11.183
▁fue	-11.1841
raham	-11.1841
hr	-11.1851
boo	-11.1852
ving	-11.1853
there	-11.1854
ont	-11.1859
▁hood	-11.1867
▁dent	-11.1916
▁loses	-11.1928
fi	-11.1929
rows	-11.1941
good	-11.1947
▁kin	-11.1954
▁notif	-11.1962
lo	-11.1971
▁vale	-11.1979
etta	-11.1992
▁lines	-11.2
▁mag	-11.2001
▁ty	-11.202
handed	-11.2032
sting	-11.2033
berries	-11.2045
▁lure	-11.2045
▁ado	-11.2049
ev	-11.2052
▁observ	-11.2065
incident	-11.2077
dies	-11.2096
▁bel	-11.2102
going	-11.2122
▁if	-11.2135
▁brass	-11.2144
use	-11.215
▁encourag	-11.2222
▁rear	-11.2224
▁che	-11.2226
missions	-11.223
ries	-11.2245
▁disc	-11.2246
▁scra	-11.2254
und	-11.226
new	-11.2276
▁cuts	-11.2286
▁chan	-11.229
enou	-11.2292
▁str	-11.2299
▁spr	-11.2308
loo	-11.2321
ba	-11.2321
▁sigh	-11.2361
▁souffl	-11.2375
ears	-11.2389
▁fires	-11.2399
▁caps	-11.2402
ient	-11.241
nder	-11.241
ridge	-11.2416
tton	-11.2416
▁sire	-11.2424
▁transform	-11.2427
▁sells	-11.243
tdown	-11.2436
ital	-11.2439
▁emotion	-11.2445
▁whippe	-11.245
▁stew	-11.2464
▁whip	-11.247
▁claus	-11.2473
catholic	-11.2474
▁subs	-11.249
▁buck	-11.249
▁sop	-11.2498
school	-11.2499
morning	-11.2499
can	-11.2507
▁revolution	-11.2508
▁fianc	-11.2518
▁infinit	-11.2519
▁johns	-11.2525
we	-11.2531
▁wre	-11.2541
book	-11.2541
▁forge	-11.2546
▁tearin	-11.2547
long	-11.2556
cover	-11.2558
▁conduct	-11.2559
▁discus	-11.2564
▁classic	-11.2569
heard	-11.2579
hall	-11.2586
ility	-11.2591
zig	-11.2595
white	-11.2599
▁alien	-11.2604
mile	-11.2608
▁embrac	-11.2613
ronic	-11.2613
tu	-11.2614
front	-11.262
och	-11.2622
▁surviv	-11.2626
▁sizzl	-11.2637
▁reveal	-11.264
▁shack	-11.2642
normal	-11.2643
jake	-11.2643
jah	-11.2644
suitable	-11.2652
track	-11.2657
sponsor	-11.2657
cu	-11.2659
pronounce	-11.2663
▁logic	-11.2664
osed	-11.2665
ral	-11.2665
step	-11.2667
free	-11.2668
▁medi	-11.2672
▁eb	-11.2678
titled	-11.2679
she	-11.268
▁sum	-11.2681
▁what	-11.2685
▁elect	-11.2691
umbling	-11.2693
▁ache	-11.2694
ars	-11.2694
▁profession	-11.2699
▁landscape	-11.2707
▁obstacle	-11.2707
▁argument	-11.2707
▁recruit	-11.2707
hoo	-11.2708
▁equation	-11.2709
▁comp	-11.2709
▁abortion	-11.2709
spotted	-11.271
▁resume	-11.271
jos	-11.2712
▁compar	-11.272
▁scroll	-11.2721
headed	-11.2723
▁adv	-11.2723
▁balloon	-11.2723
▁ancestor	-11.2727
▁tweet	-11.2728
▁tactic	-11.2728
▁skate	-11.2729
▁neighbor	-11.273
saw	-11.2731
▁principle	-11.2732
▁mussel	-11.2732
▁candle	-11.2734
▁skullner	-11.2735
▁sardine	-11.2735
▁andrew	-11.2736
▁nerve	-11.2737
▁snack	-11.2738
▁tribe	-11.2738
▁contractor	-11.2738
▁athlete	-11.274
▁instruction	-11.2742
▁escap	-11.2743
▁laser	-11.2748
▁furling	-11.275
▁click	-11.2751
▁organ	-11.2757
▁pronounc	-11.2764
mighty	-11.2768
chard	-11.2774
▁argo	-11.2775
▁sinkin	-11.2779
▁adult	-11.2782
▁whwh	-11.2783
▁yea	-11.2789
▁neuro	-11.2792
▁refu	-11.2793
ckey	-11.2798
tin	-11.2802
bearing	-11.2804
wn	-11.2809
▁astound	-11.2813
▁sob	-11.2817
▁whoooa	-11.2821
ocate	-11.2821
▁strain	-11.2828
▁disadvantage	-11.2829
▁acknowledge	-11.2829
ids	-11.2829
▁cau	-11.283
▁gre	-11.283
▁offend	-11.2831
▁defeat	-11.2831
▁sauce	-11.2831
▁devote	-11.2832
▁determine	-11.2833
▁brut	-11.2833
▁betray	-11.2835
▁admire	-11.2837
▁flee	-11.2838
▁budge	-11.284
▁purge	-11.2841
▁parent	-11.2842
▁receiv	-11.2846
▁atlant	-11.2846
▁contribut	-11.2848
▁ahhhhhh	-11.2848
▁numb	-11.2849
▁donate	-11.2849
itating	-11.2849
ernie	-11.2849
▁relate	-11.285
▁univers	-11.2851
▁darlin	-11.2854
▁rache	-11.2854
▁doug	-11.2855
▁viv	-11.2856
ulge	-11.2856
▁mornin	-11.2856
▁orphan	-11.2857
▁carbon	-11.2857
▁kidnap	-11.2857
mmering	-11.2858
▁virgin	-11.2858
ducing	-11.2858
▁quetza	-11.2858
nsylvania	-11.2858
▁abracadabra	-11.2858
▁acquaintance	-11.2858
▁acquainted	-11.2858
▁allergic	-11.2858
▁alternate	-11.2858
▁amazed	-11.2858
▁anxiety	-11.2858
▁archbishop	-11.2858
▁assault	-11.2858
▁association	-11.2858
▁astronaut	-11.2858
▁aztec	-11.2858
▁balcony	-11.2858
▁bismarck	-11.2858
▁botanical	-11.2858
▁catalina	-11.2858
▁chemosynthesis	-11.2858
▁clarabelle	-11.2858
▁competitor	-11.2858
▁conceited	-11.2858
▁curiosity	-11.2858
▁delaware	-11.2858
▁deploy	-11.2858
▁dessert	-11.2858
▁dijanna	-11.2858
▁dillyaye	-11.2858
▁diploma	-11.2858
▁discourag	-11.2858
▁doofus	-11.2858
▁earthquake	-11.2858
▁edwina	-11.2858
▁endeavo	-11.2858
▁enterprise	-11.2858
▁executed	-11.2858
▁extrasensory	-11.2858
▁feminine	-11.2858
▁florida	-11.2858
▁fraulien	-11.2858
▁gilbert	-11.2858
▁glasgow	-11.2858
▁goodfornothing	-11.2858
▁guiseppe	-11.2858
▁gutteridge	-11.2858
▁gypsies	-11.2858
▁hedgehog	-11.2858
▁helicopter	-11.2858
▁heuristic	-11.2858
▁hippie	-11.2858
▁hitandrun	-11.2858
▁hufford	-11.2858
▁hysteria	-11.2858
▁increasing	-11.2858
▁industry	-11.2858
▁inevitabl	-11.2858
▁janeiro	-11.2858
▁jerusalem	-11.2858
▁laundry	-11.2858
▁lieutenant	-11.2858
▁limousine	-11.2858
▁mariachis	-11.2858
▁marquez	-11.2858
▁mcarthur	-11.2858
▁mcguirk	-11.2858
▁methadone	-11.2858
▁millicent	-11.2858
▁monolith	-11.2858
▁moorepark	-11.2858
▁mortgage	-11.2858
▁moscow	-11.2858
▁munchausen	-11.2858
▁neglected	-11.2858
▁nenana	-11.2858
▁norpoth	-11.2858
▁nowadays	-11.2858
▁oratory	-11.2858
▁outfit	-11.2858
▁persuasion	-11.2858
▁petticoat	-11.2858
▁peyrere	-11.2858
▁popcorn	-11.2858
▁portrait	-11.2858
▁prejudice	-11.2858
▁propagate	-11.2858
▁pufferfish	-11.2858
▁redeemer	-11.2858
▁rheumatism	-11.2858
▁rhubarb	-11.2858
▁riccardo	-11.2858
▁routine	-11.2858
▁sabotage	-11.2858
▁sacraments	-11.2858
▁sacrosanct	-11.2858
▁sagalevitch	-11.2858
▁salvador	-11.2858
▁sanctuar	-11.2858
▁scavenger	-11.2858
▁sequence	-11.2858
▁serpent	-11.2858
▁shangrilarge	-11.2858
▁societies	-11.2858
▁solicitor	-11.2858
▁sombrero	-11.2858
▁southampton	-11.2858
▁stadium	-11.2858
▁subsequent	-11.2858
▁suicide	-11.2858
▁superintendent	-11.2858
▁suspicion	-11.2858
▁talbot	-11.2858
▁territorial	-11.2858
▁thirteen	-11.2858
▁tldoublegeher	-11.2858
▁tranquil	-11.2858
▁turbinado	-11.2858
▁unaware	-11.2858
▁velvet	-11.2858
▁yokomoto	-11.2858
▁zephir	-11.2858
▁zurg	-11.2858
▁asbestos	-11.2858
▁authentic	-11.2858
▁comprehend	-11.2858
▁crocodil	-11.2858
▁elaborate	-11.2858
▁slumber	-11.2858
▁advisor	-11.2858
▁arnie	-11.2858
▁bullshit	-11.2858
▁bypass	-11.2858
▁certificate	-11.2858
▁charisma	-11.2858
▁chererat	-11.2858
▁dddear	-11.2858
▁dungeon	-11.2858
▁heirloom	-11.2858
▁insurance	-11.2858
▁kingfisher	-11.2858
▁recommend	-11.2858
▁shotgun	-11.2858
▁stamina	-11.2858
▁wardrobe	-11.2858
▁assumption	-11.2858
▁furthermore	-11.2858
▁rentakid	-11.2858
▁september	-11.2858
▁tarnation	-11.2858
▁telegram	-11.2858
▁thampy	-11.2858
▁withstand	-11.2858
▁carpenter	-11.2858
▁guinea	-11.2858
▁haunted	-11.2858
▁liberties	-11.2858
▁replied	-11.2858
▁allergy	-11.2858
▁amelia	-11.2858
▁bosworth	-11.2858
▁clientele	-11.2858
▁confusion	-11.2858
▁generosity	-11.2858
▁intellectual	-11.2858
▁kendall	-11.2858
▁netherworld	-11.2858
▁pepito	-11.2858
▁premise	-11.2858
▁utilize	-11.2858
▁aroused	-11.2858
▁arrowhead	-11.2858
▁maturity	-11.2858
▁trimmed	-11.2858
▁division	-11.2858
▁commissar	-11.2858
▁confusing	-11.2858
▁monument	-11.2858
▁babbling	-11.2858
▁invest	-11.2858
▁camille	-11.2858
▁colorado	-11.2858
▁rascal	-11.2858
▁riftia	-11.2858
▁sinister	-11.2858
▁visual	-11.2858
▁festivities	-11.2858
▁fireballs	-11.2858
▁briefcase	-11.2858
▁diabolical	-11.2858
▁inexperience	-11.2858
▁transition	-11.2858
▁dummies	-11.2858
▁outnumber	-11.2858
▁terrified	-11.2858
▁notorious	-11.2858
▁intimate	-11.2858
▁beacon	-11.2858
▁ferment	-11.2858
▁kathy	-11.2858
▁magnificence	-11.2858
▁merchan	-11.2858
▁babysitter	-11.2858
▁kkk	-11.2858
▁pathetic	-11.2858
▁sandrine	-11.2858
▁supplier	-11.2858
▁expulsion	-11.2858
▁whatsoever	-11.2858
▁waltz	-11.2858
▁dawson	-11.2858
▁sugarcoat	-11.2858
▁scaredycat	-11.2858
▁radical	-11.2858
▁commodore	-11.2858
▁percussion	-11.2858
▁carbonating	-11.2858
▁flippers	-11.2858
▁olsen	-11.2858
▁algeria	-11.2858
▁exhausting	-11.2858
▁vanilla	-11.2858
▁gripper	-11.2858
▁bernardis	-11.2858
▁gulp	-11.2858
▁plastic	-11.2858
▁posada	-11.2858
▁cloak	-11.2859
▁precision	-11.2859
▁ultimatum	-11.2859
▁anonymous	-11.2859
▁variety	-11.2859
▁inauguration	-11.2859
▁ltaly	-11.2859
▁novel	-11.2859
▁agile	-11.2859
▁determination	-11.2859
▁titanic	-11.2859
▁prosper	-11.2859
▁cowgirl	-11.2859
▁reflect	-11.2859
▁patriot	-11.2859
▁eyelash	-11.2859
▁eww	-11.2859
▁terrace	-11.2859
▁anyplace	-11.2859
▁invincible	-11.2859
▁session	-11.2859
▁shelves	-11.2859
▁sequel	-11.2859
▁fulfill	-11.2859
▁axle	-11.2859
▁dissolved	-11.2859
▁congregation	-11.2859
▁monstrous	-11.2859
▁slipping	-11.2859
▁abroad	-11.2859
▁dumpster	-11.2859
▁stinks	-11.2859
▁serape	-11.2859
▁dansons	-11.2859
▁demonstration	-11.2859
▁ramble	-11.2859
▁caroline	-11.2859
▁boston	-11.2859
▁survivors	-11.2859
▁vocali	-11.2859
▁gangsters	-11.2859
▁greetings	-11.2859
▁craig	-11.2859
▁exposure	-11.2859
▁outof	-11.2859
▁breathtaking	-11.2859
▁negotiator	-11.2859
▁subversive	-11.2859
▁dioxid	-11.2859
▁xvi	-11.2859
▁distractible	-11.2859
▁balance	-11.2859
▁foretold	-11.2859
▁stumble	-11.2859
▁receptus	-11.2859
▁hyuh	-11.2859
▁explosion	-11.2859
▁assertion	-11.2859
▁omg	-11.2859
▁vague	-11.2859
▁unarmed	-11.2859
▁preservation	-11.2859
▁torment	-11.2859
▁cropping	-11.2859
▁stylish	-11.2859
▁whatcha	-11.2859
▁henchmen	-11.2859
▁orient	-11.2859
▁hagar	-11.2859
▁savoy	-11.286
▁vibra	-11.286
▁toxic	-11.286
▁management	-11.286
▁recollect	-11.286
▁initial	-11.286
▁poachers	-11.286
▁executive	-11.286
uished	-11.286
▁frontrunning	-11.286
▁vegeta	-11.286
▁xgs	-11.286
▁brakes	-11.286
▁oohoohooh	-11.286
▁unfold	-11.286
▁pentecostalism	-11.286
▁gramps	-11.286
▁homesick	-11.286
▁laptop	-11.286
▁snicker	-11.286
▁soothe	-11.286
▁interval	-11.286
▁rataxes	-11.286
▁ryan	-11.286
▁wilson	-11.286
▁profess	-11.286
▁legendary	-11.2861
▁altogether	-11.2861
▁toucan	-11.2861
▁arose	-11.2861
▁colombo	-11.2861
▁navigat	-11.2861
▁forehead	-11.2861
▁banns	-11.2861
▁yonder	-11.2861
▁northwest	-11.2861
▁denomination	-11.2861
▁heathen	-11.2861
▁onward	-11.2861
onym	-11.2861
▁teenager	-11.2861
hower	-11.2861
▁lowlife	-11.2861
▁tubby	-11.2861
▁goldmine	-11.2861
▁ilyn	-11.2861
▁symbolism	-11.2862
▁mmmwh	-11.2862
▁denial	-11.2862
▁thoroughly	-11.2862
▁clip	-11.2862
▁tutor	-11.2862
▁recite	-11.2862
▁fuzz	-11.2862
▁investment	-11.2862
▁footprint	-11.2862
▁alleged	-11.2862
▁clinic	-11.2862
▁bugle	-11.2862
▁butterfly	-11.2863
▁conversion	-11.2863
▁moonlight	-11.2863
▁youjohn	-11.2863
▁motto	-11.2863
▁pomp	-11.2863
▁flour	-11.2863
▁elegant	-11.2863
▁chores	-11.2863
▁deadbeat	-11.2863
▁pagan	-11.2863
▁ethereal	-11.2863
▁smear	-11.2863
▁slipped	-11.2863
▁harvest	-11.2863
▁fusion	-11.2863
▁shaff	-11.2863
▁despise	-11.2863
▁temporary	-11.2863
▁ordained	-11.2863
▁rumble	-11.2863
▁maniac	-11.2863
taneous	-11.2863
▁obligation	-11.2864
▁jeep	-11.2864
▁conspiracy	-11.2864
▁raspberry	-11.2864
▁exchange	-11.2864
▁feedback	-11.2864
▁tumor	-11.2864
adour	-11.2864
▁celebrity	-11.2864
zama	-11.2864
▁wiggly	-11.2864
▁offence	-11.2864
▁theatre	-11.2864
▁attractive	-11.2864
▁untied	-11.2865
▁flattened	-11.2865
▁dismissed	-11.2865
▁itit	-11.2865
▁fifty	-11.2865
▁edna	-11.2865
▁teasing	-11.2865
▁interruption	-11.2865
▁dramatically	-11.2865
▁anglo	-11.2866
▁volcano	-11.2866
▁popping	-11.2866
▁egyptian	-11.2866
▁margin	-11.2866
▁statesmen	-11.2866
▁clop	-11.2866
▁properties	-11.2867
▁practicing	-11.2867
▁priceless	-11.2867
▁chaos	-11.2867
▁arab	-11.2867
▁griping	-11.2867
▁wildfire	-11.2867
▁korea	-11.2867
▁devour	-11.2868
▁planetary	-11.2868
▁nightfall	-11.2868
▁mineral	-11.2868
▁argh	-11.2868
rupt	-11.2868
▁satisfy	-11.2868
▁partnership	-11.2868
▁frustrating	-11.2868
▁revolting	-11.2868
▁graham	-11.2868
▁lucia	-11.2868
opher	-11.2868
▁relocat	-11.2868
▁combination	-11.2868
▁recall	-11.2868
▁forger	-11.2869
▁whoooo	-11.2869
▁companions	-11.2869
▁frown	-11.2869
▁colour	-11.2869
▁rehearsal	-11.2869
▁hideout	-11.2869
▁klan	-11.287
▁dependent	-11.287
▁scoffing	-11.287
▁iole	-11.287
▁hospitality	-11.287
▁betcha	-11.2871
▁acceptance	-11.2871
▁outlaw	-11.2871
▁truthfully	-11.2871
▁rodent	-11.2871
▁pff	-11.2871
▁strive	-11.2871
▁lumpy	-11.2872
▁pupil	-11.2872
▁deliveries	-11.2872
▁hustler	-11.2873
gling	-11.2873
▁mystical	-11.2873
▁awhile	-11.2873
▁clav	-11.2873
▁organization	-11.2873
▁decorated	-11.2873
▁whatre	-11.2873
▁ceremony	-11.2874
▁daca	-11.2874
▁strategy	-11.2874
▁lava	-11.2875
▁shattered	-11.2875
▁affirm	-11.2876
▁grooming	-11.2876
▁chapm	-11.2876
▁shaved	-11.2876
▁filter	-11.2876
▁oak	-11.2877
▁continuous	-11.2877
▁townsend	-11.2877
▁sincerely	-11.2877
▁reporters	-11.2877
▁renew	-11.2877
dorf	-11.2877
▁hatred	-11.2877
▁lobo	-11.2877
▁forc	-11.2878
▁doodley	-11.2879
▁tribu	-11.2879
▁bellies	-11.2879
▁cuddl	-11.2879
▁personality	-11.288
▁hija	-11.288
▁semi	-11.288
▁physicist	-11.288
▁condor	-11.288
vous	-11.288
▁puttin	-11.288
▁poaching	-11.2881
▁brew	-11.2881
▁troubling	-11.2881
▁wedding	-11.2881
▁hopping	-11.2881
▁diaper	-11.2882
▁alley	-11.2882
tro	-11.2883
▁restored	-11.2883
▁dislike	-11.2883
▁hamster	-11.2883
▁manipulated	-11.2883
▁presume	-11.2883
▁shocker	-11.2883
▁robbed	-11.2883
▁weep	-11.2883
▁digest	-11.2884
▁cease	-11.2884
▁thumb	-11.2884
▁ashore	-11.2884
▁espn	-11.2884
▁expanding	-11.2885
▁connected	-11.2885
▁examining	-11.2885
▁dedicated	-11.2885
▁jamaica	-11.2886
▁agreeable	-11.2886
▁heartache	-11.2887
▁betrayed	-11.2887
▁dat	-11.2887
▁plumber	-11.2887
▁package	-11.2887
backers	-11.2887
▁acknowledged	-11.2887
▁disadvantaged	-11.2887
lord	-11.2888
▁frieda	-11.2889
▁protector	-11.2889
▁sweater	-11.2889
▁hopeful	-11.2889
▁kiddo	-11.2889
▁carol	-11.2889
▁dios	-11.2889
▁architectur	-11.289
▁parchments	-11.289
▁motives	-11.289
▁treatment	-11.289
▁favorable	-11.2891
▁donated	-11.2891
▁admired	-11.2891
▁inches	-11.2891
▁tailor	-11.2891
▁perf	-11.2892
▁bois	-11.2892
▁jackie	-11.2892
ghhh	-11.2893
▁torn	-11.2893
▁bumpy	-11.2893
▁churchmen	-11.2894
▁hideous	-11.2894
▁barons	-11.2895
▁ques	-11.2896
▁hometown	-11.2896
▁abort	-11.2897
▁cutting	-11.2897
pies	-11.2899
▁meek	-11.2899
▁recovered	-11.2899
▁symbio	-11.29
▁jews	-11.29
▁investigated	-11.29
▁polite	-11.29
▁exp	-11.29
▁ter	-11.2901
▁engineering	-11.2901
▁positively	-11.2901
▁insulted	-11.2901
▁robbery	-11.2902
▁helm	-11.2902
▁lama	-11.2903
▁astounding	-11.2903
▁badge	-11.2904
▁length	-11.2905
▁burg	-11.2906
▁commandant	-11.2906
▁fuse	-11.2907
▁trophy	-11.2907
▁production	-11.2907
▁temple	-11.2907
▁whinn	-11.2908
▁cursed	-11.2908
▁youse	-11.2908
▁dining	-11.2909
▁archive	-11.2909
▁steak	-11.291
▁basis	-11.291
▁junction	-11.291
▁renowned	-11.2911
▁appealing	-11.2912
▁brushy	-11.2912
▁struggled	-11.2912
▁displayed	-11.2913
▁pawn	-11.2913
▁encountered	-11.2913
▁proposal	-11.2913
▁spade	-11.2913
▁guidance	-11.2914
▁hazard	-11.2915
▁constantly	-11.2915
▁potatoes	-11.2917
▁contra	-11.2918
▁triple	-11.2918
▁headline	-11.2918
shield	-11.2918
▁intruder	-11.2919
▁loco	-11.292
▁piling	-11.2922
▁bliss	-11.2923
▁ronaldo	-11.2924
▁bouncers	-11.2925
▁suspected	-11.2925
▁hypso	-11.2927
▁myth	-11.2928
▁comment	-11.2928
self	-11.2929
maker	-11.293
▁groo	-11.2931
▁pesos	-11.2932
don	-11.2933
▁lanes	-11.2933
ddler	-11.2935
▁employee	-11.2936
▁leone	-11.2938
▁comforting	-11.2939
▁jabber	-11.294
▁purse	-11.2941
▁accelerates	-11.2942
▁kittens	-11.2942
▁righthanded	-11.2942
▁cocktails	-11.2943
▁critters	-11.2943
▁elevators	-11.2943
▁bul	-11.2944
▁civilizations	-11.2944
▁betty	-11.2944
▁interact	-11.2944
▁gained	-11.2945
▁pork	-11.2945
▁icon	-11.2945
▁preachers	-11.2946
▁distillery	-11.2946
▁coaches	-11.2947
▁nailed	-11.2947
▁cramp	-11.2947
▁breck	-11.2949
lice	-11.295
▁emphatic	-11.295
▁lifted	-11.2955
▁wounded	-11.2955
▁relic	-11.2955
sm	-11.2956
▁fortunately	-11.2956
▁thrill	-11.2956
▁cruci	-11.2957
▁sixth	-11.2959
▁pickup	-11.296
▁props	-11.296
▁twisted	-11.296
▁hoof	-11.2962
▁principal	-11.2962
zzi	-11.2963
▁frankie	-11.2963
▁sweetest	-11.2965
▁tele	-11.2966
▁ranger	-11.2966
▁ripping	-11.2967
▁eve	-11.2967
▁brad	-11.2968
▁cann	-11.2969
▁skit	-11.2972
▁tracker	-11.2972
▁linda	-11.2973
▁pos	-11.2973
▁attempted	-11.2974
▁nerd	-11.2975
▁pistols	-11.2975
▁typical	-11.2976
▁mobiliz	-11.2977
▁tares	-11.2979
▁interviewed	-11.298
▁backfield	-11.2981
six	-11.2982
wh	-11.2982
als	-11.2983
▁performed	-11.2983
▁quill	-11.2986
▁snacks	-11.2988
▁pouring	-11.2989
▁manager	-11.2991
▁tweets	-11.2991
▁sobs	-11.2991
▁costly	-11.2992
▁plank	-11.2995
oof	-11.2996
▁scrolls	-11.2997
▁aliens	-11.2997
▁merce	-11.2998
▁delivered	-11.2999
▁balloons	-11.2999
opy	-11.3001
▁whys	-11.3001
▁fashion	-11.3002
▁occupation	-11.3002
▁tube	-11.3002
▁burst	-11.3006
▁reveals	-11.3009
oral	-11.3009
▁raz	-11.301
▁coca	-11.3014
▁cancer	-11.3015
▁aaaah	-11.3018
▁stripes	-11.3019
▁bucks	-11.3021
▁preten	-11.3022
▁permits	-11.3026
▁operated	-11.3027
ego	-11.3028
▁luke	-11.3029
uz	-11.303
▁ideals	-11.303
▁herring	-11.3032
▁rally	-11.3032
▁nazi	-11.3033
▁fever	-11.3037
▁sirens	-11.3037
vin	-11.3039
▁mmmm	-11.3046
▁items	-11.3047
▁tut	-11.3051
ietta	-11.3051
▁columns	-11.3052
▁reminded	-11.3053
▁conservatives	-11.3053
▁candidates	-11.3053
▁practis	-11.3054
▁santo	-11.3054
▁kisses	-11.3054
▁fairly	-11.3055
▁strays	-11.3056
▁approached	-11.3057
▁offense	-11.3059
▁proclaim	-11.3059
▁trooper	-11.306
▁range	-11.306
▁zoom	-11.3061
▁launching	-11.3061
▁warmly	-11.3062
▁washing	-11.3062
▁juan	-11.3065
dde	-11.3065
▁venting	-11.3071
▁turnin	-11.3073
▁dawdl	-11.3073
▁kicking	-11.3075
▁illitera	-11.3075
▁vanish	-11.3077
▁any	-11.3078
▁slack	-11.3079
▁roar	-11.3079
▁of	-11.3079
▁prowl	-11.3082
▁festiv	-11.3082
▁flowing	-11.3084
▁birthing	-11.3089
▁verm	-11.3089
▁papist	-11.3091
den	-11.3091
▁christen	-11.3092
key	-11.3096
erior	-11.3096
▁connect	-11.3099
▁slope	-11.3101
▁profits	-11.3101
▁stow	-11.3102
▁mathematical	-11.3104
▁glob	-11.3106
▁mexicans	-11.3107
▁mont	-11.3109
▁cones	-11.3111
▁caban	-11.3111
▁youngsters	-11.3114
▁cowards	-11.3115
▁roy	-11.3119
rage	-11.312
▁speakers	-11.3123
▁traveling	-11.3125
examined	-11.3127
▁handled	-11.3132
▁drake	-11.3134
▁jen	-11.3135
▁hous	-11.3139
▁institutions	-11.3139
▁deeper	-11.3141
▁chunk	-11.3142
▁suite	-11.3145
▁ki	-11.3147
▁pom	-11.3156
▁supported	-11.3157
ls	-11.316
▁ministers	-11.3163
▁passes	-11.3164
▁uniforms	-11.3164
▁penguins	-11.3164
▁compliments	-11.3164
▁translations	-11.3164
tly	-11.3166
▁fairy	-11.317
▁brat	-11.3172
▁resign	-11.3172
▁tray	-11.3173
▁regards	-11.3173
ume	-11.3175
▁nail	-11.3175
ization	-11.3176
▁gill	-11.3177
slippery	-11.3183
▁bail	-11.3186
▁pistol	-11.3186
▁commanded	-11.3187
spective	-11.3188
racu	-11.3188
drick	-11.3191
tri	-11.3193
▁inspire	-11.3193
function	-11.3194
▁shared	-11.3194
▁brick	-11.3203
▁lance	-11.3204
▁slink	-11.3208
▁unit	-11.3211
bra	-11.3214
▁dozens	-11.3218
▁restaurants	-11.3219
abbage	-11.3222
▁winch	-11.3226
▁facilit	-11.3227
▁forming	-11.3229
▁confirms	-11.323
▁globe	-11.3233
▁chest	-11.324
▁jean	-11.3242
▁as	-11.3246
loved	-11.3251
▁climbed	-11.3254
leash	-11.3255
▁mig	-11.3257
▁iit	-11.327
▁errors	-11.3273
▁chaps	-11.3273
▁sacrifices	-11.3275
▁swi	-11.3278
▁castles	-11.3278
▁bowls	-11.3282
▁squeaks	-11.3285
▁girlfriends	-11.3285
▁chin	-11.3286
▁math	-11.3289
▁covering	-11.3294
▁killers	-11.3302
▁moron	-11.3305
▁commy	-11.3306
▁showers	-11.3306
▁infinite	-11.3306
▁clause	-11.3307
▁sailing	-11.3312
▁engineer	-11.3314
▁wounds	-11.3316
▁hee	-11.332
▁ang	-11.3321
▁sill	-11.3324
▁deserts	-11.3328
give	-11.3334
verted	-11.3335
▁distillers	-11.3335
owned	-11.3337
zel	-11.334
cer	-11.3343
▁stones	-11.3344
iana	-11.3344
cca	-11.3345
▁renovat	-11.335
apple	-11.3352
▁sid	-11.3353
dys	-11.3364
rotte	-11.3364
▁arg	-11.3368
▁makers	-11.3368
▁epic	-11.337
rring	-11.3371
▁serves	-11.3372
▁pow	-11.3377
▁backward	-11.3379
▁shae	-11.3383
▁lachmans	-11.3385
nia	-11.3388
idal	-11.3391
▁tre	-11.3394
iv	-11.34
▁accessor	-11.3405
rbon	-11.3416
▁rega	-11.3418
▁wis	-11.3419
▁professionals	-11.3419
▁medic	-11.3425
▁siren	-11.3425
etcher	-11.3432
▁sling	-11.3433
▁protecting	-11.3435
▁danced	-11.3437
▁freedoms	-11.344
▁brookhavens	-11.3441
▁structures	-11.3444
ropo	-11.3445
▁milking	-11.3449
real	-11.3457
▁yowl	-11.3458
▁panics	-11.3459
upper	-11.3465
▁greet	-11.347
▁uncover	-11.347
hi	-11.3471
▁liest	-11.3471
▁portho	-11.3477
▁bonjour	-11.3487
▁pilots	-11.3494
▁gator	-11.3495
works	-11.3497
▁pockets	-11.3502
sed	-11.3503
dooper	-11.3504
▁jars	-11.351
▁hilar	-11.3513
▁rocky	-11.3513
▁interven	-11.3524
▁beautifully	-11.3533
▁virtu	-11.3541
▁floors	-11.3544
▁heel	-11.3546
▁locks	-11.3551
▁rabbits	-11.3551
ockey	-11.3559
cent	-11.3564
stream	-11.3565
▁grabb	-11.3565
found	-11.3569
▁ropes	-11.3569
protective	-11.3595
uenos	-11.3596
heads	-11.3596
▁goodbyes	-11.3602
di	-11.361
meter	-11.3617
tte	-11.3619
▁colon	-11.3619
bore	-11.3623
▁jokes	-11.3623
▁justif	-11.3623
▁smelling	-11.3625
ador	-11.3626
▁bri	-11.3636
▁sli	-11.3641
▁openly	-11.3642
▁prey	-11.3648
west	-11.3651
shot	-11.3654
noid	-11.3657
onia	-11.3666
▁chor	-11.3671
▁dealt	-11.3676
luckiest	-11.3678
▁helpin	-11.3679
if	-11.3685
▁dearly	-11.3686
▁paths	-11.3687
late	-11.3693
▁harp	-11.3695
▁ruins	-11.3699
cas	-11.3711
rings	-11.3714
lity	-11.3716
▁statements	-11.372
▁statu	-11.3721
ks	-11.3729
▁taw	-11.3744
▁reports	-11.3752
▁officers	-11.3766
▁prices	-11.3769
▁dea	-11.377
▁actions	-11.3771
strial	-11.3773
▁scottys	-11.3775
▁challenges	-11.3794
▁blank	-11.3795
▁sala	-11.3799
▁enny	-11.381
ac	-11.3811
▁stall	-11.3817
▁traitors	-11.3828
▁layer	-11.3829
▁pairs	-11.384
agn	-11.3852
▁commoner	-11.3857
▁fears	-11.3864
▁env	-11.3865
stock	-11.3867
▁fli	-11.3869
▁organi	-11.3875
si	-11.3877
▁heats	-11.3883
▁stations	-11.3884
▁flatter	-11.3887
▁soak	-11.3895
ica	-11.3918
lee	-11.3921
▁sounding	-11.3924
▁wrestle	-11.3927
▁services	-11.3939
▁fits	-11.3941
▁types	-11.3942
okie	-11.3943
▁brazilians	-11.3944
comin	-11.395
▁treats	-11.3959
itation	-11.3959
▁advance	-11.3965
ree	-11.3984
▁stirr	-11.3989
▁overlook	-11.4002
▁gap	-11.4009
▁spots	-11.4014
▁tur	-11.4014
▁carp	-11.4015
▁marti	-11.402
own	-11.4022
▁carg	-11.4041
▁et	-11.4048
▁extremes	-11.405
▁percepti	-11.4056
▁fishy	-11.4074
▁wished	-11.4075
▁fourteen	-11.4075
ves	-11.408
▁chic	-11.4082
unge	-11.4096
▁holes	-11.4097
▁gifts	-11.41
▁pals	-11.4101
▁halls	-11.4121
▁tyr	-11.4127
▁tables	-11.4127
cky	-11.4128
▁assemble	-11.4129
▁dec	-11.4134
▁jeopardize	-11.4136
▁referr	-11.4136
ampa	-11.4161
▁gall	-11.4161
▁whack	-11.4185
eerie	-11.4201
▁sto	-11.4201
▁hol	-11.4218
▁kan	-11.4218
hoohoo	-11.4236
nn	-11.4236
▁goals	-11.4239
▁ounce	-11.424
▁hurting	-11.4244
nix	-11.425
▁seth	-11.4256
rated	-11.4273
ses	-11.4287
▁buyer	-11.4289
▁commons	-11.4293
lashing	-11.4295
▁rupe	-11.4304
▁conque	-11.431
ira	-11.4326
boat	-11.4333
ions	-11.4342
inist	-11.4346
▁desp	-11.4356
▁negotiate	-11.4365
▁ease	-11.4372
▁mates	-11.4372
▁wea	-11.4386
unch	-11.4392
▁dictat	-11.4406
▁teache	-11.4415
▁honors	-11.4432
▁positions	-11.4433
▁loop	-11.444
▁skinn	-11.4451
affy	-11.4452
acious	-11.4454
▁prot	-11.4454
▁tra	-11.4464
▁dar	-11.4471
▁cleared	-11.4473
▁tag	-11.448
nta	-11.4482
uper	-11.4486
parents	-11.4493
ong	-11.4503
▁rooms	-11.4519
ference	-11.4526
▁sway	-11.4543
ingly	-11.4546
▁wage	-11.4549
▁loneli	-11.4567
▁cre	-11.4568
▁pros	-11.4572
ark	-11.4575
elf	-11.4596
eez	-11.4601
udder	-11.4604
▁choices	-11.4604
▁smo	-11.4616
azy	-11.4621
ana	-11.4622
pping	-11.4622
how	-11.4626
▁reference	-11.4636
ching	-11.4638
▁nico	-11.4643
stess	-11.4644
lusive	-11.4645
shes	-11.4647
end	-11.4662
▁doodle	-11.4683
mm	-11.4685
▁thinkin	-11.4688
▁exc	-11.4696
▁houses	-11.4708
berg	-11.4714
math	-11.4721
uc	-11.4731
▁wit	-11.4734
know	-11.4739
▁creativ	-11.475
▁tide	-11.4751
drew	-11.476
▁ap	-11.4769
nows	-11.4777
▁fr	-11.4778
▁wal	-11.4779
dinari	-11.4782
agged	-11.4785
bling	-11.4801
ined	-11.481
▁assist	-11.481
▁liter	-11.4819
▁ze	-11.4821
tering	-11.4827
▁thith	-11.4837
▁kno	-11.4845
▁founded	-11.4865
let	-11.4883
gger	-11.4886
zzle	-11.4889
▁missy	-11.4891
ats	-11.4906
▁scor	-11.4909
▁locate	-11.4919
dder	-11.4923
ggy	-11.4932
▁crystals	-11.4935
ada	-11.494
▁promin	-11.4944
ud	-11.4953
▁greatly	-11.4961
▁detect	-11.4962
▁farr	-11.4969
nfl	-11.4979
▁tails	-11.4983
orn	-11.4984
date	-11.4988
▁sc	-11.4992
log	-11.4994
▁cal	-11.4994
mont	-11.5018
▁rais	-11.5028
art	-11.5034
ho	-11.504
▁rum	-11.5051
inch	-11.5055
hopper	-11.5062
▁ancients	-11.5101
ough	-11.5107
ooze	-11.5109
▁stills	-11.5122
but	-11.5123
pressed	-11.5125
urie	-11.514
arl	-11.5142
harmed	-11.5144
tie	-11.5159
▁begg	-11.516
▁dispos	-11.5178
cial	-11.5179
serving	-11.519
▁drops	-11.5201
▁amp	-11.5218
wing	-11.5221
▁bounces	-11.5229
▁evolv	-11.526
pal	-11.5281
▁crate	-11.5285
gs	-11.5294
alleys	-11.5296
▁explains	-11.5297
▁snob	-11.53
▁ahahah	-11.5314
▁poll	-11.5316
ded	-11.5321
ali	-11.5324
▁poach	-11.5338
times	-11.5347
lie	-11.5352
▁guid	-11.5358
throp	-11.5371
habo	-11.5382
sses	-11.5387
▁chau	-11.5387
▁baboo	-11.5389
▁fist	-11.5398
ug	-11.5398
▁hose	-11.5401
ini	-11.5423
▁nor	-11.5438
▁incom	-11.5439
▁strip	-11.5452
▁ob	-11.5464
▁disposa	-11.5483
▁trips	-11.5483
▁robb	-11.5486
hist	-11.549
ady	-11.5491
▁humbl	-11.5498
lf	-11.5512
▁sociolog	-11.5518
ember	-11.5528
sa	-11.5536
▁reverse	-11.5539
▁puss	-11.5543
▁majors	-11.5551
▁aff	-11.5578
lurry	-11.5584
▁bra	-11.559
zy	-11.5601
tically	-11.5635
raction	-11.5637
rous	-11.5637
▁tempt	-11.5646
▁improv	-11.5649
▁pots	-11.5649
kin	-11.5651
▁rotat	-11.5667
▁wifes	-11.567
▁hallow	-11.5677
▁unbeliev	-11.5683
▁not	-11.5691
au	-11.5692
olp	-11.5693
▁hugg	-11.5713
sel	-11.5714
▁pains	-11.5714
mon	-11.5716
▁mayor	-11.5716
▁lasse	-11.5717
▁serv	-11.5738
▁illus	-11.5739
ray	-11.5741
set	-11.5776
▁via	-11.5785
ove	-11.5792
▁hots	-11.5809
hard	-11.5813
litary	-11.5828
▁poo	-11.5846
▁squawkin	-11.5863
▁des	-11.587
▁twa	-11.5874
▁severe	-11.5876
▁cure	-11.5877
▁mes	-11.5885
▁hen	-11.5886
try	-11.5892
down	-11.5902
▁whine	-11.5942
tious	-11.5962
▁lands	-11.5963
▁rides	-11.5966
▁dared	-11.5966
star	-11.5968
▁beds	-11.5981
▁thee	-11.5983
▁replica	-11.5985
▁ruffle	-11.5993
▁plot	-11.6001
sha	-11.6013
aaaah	-11.6018
cker	-11.6036
owns	-11.6036
snt	-11.6043
▁graduat	-11.6047
▁pla	-11.6051
imp	-11.6064
culti	-11.6066
▁clam	-11.6089
▁revers	-11.6091
▁scru	-11.6101
▁suns	-11.6117
some	-11.6117
j	-11.6129
lai	-11.6158
▁examin	-11.6173
▁latte	-11.6174
lala	-11.6179
▁nb	-11.6183
oc	-11.6185
oa	-11.6198
oni	-11.6202
ometer	-11.6203
sandal	-11.6206
mph	-11.6208
ette	-11.6223
icious	-11.6223
itting	-11.6229
rock	-11.6255
▁civili	-11.6259
▁fog	-11.6261
oris	-11.6265
po	-11.6282
▁adam	-11.6285
lan	-11.6291
▁rem	-11.6304
kas	-11.6307
▁chil	-11.6317
▁halle	-11.6318
tes	-11.6318
▁excit	-11.6328
act	-11.6338
▁spark	-11.6345
rad	-11.6346
tique	-11.635
▁adver	-11.6358
iff	-11.6368
issing	-11.637
ceived	-11.6371
ening	-11.6376
▁thankful	-11.638
rise	-11.6382
▁issu	-11.6382
▁habitat	-11.6391
ates	-11.6414
cken	-11.6415
aki	-11.6415
llo	-11.6418
boom	-11.6434
nounced	-11.6448
▁mini	-11.6451
▁breather	-11.646
▁chu	-11.6474
▁nigg	-11.6475
▁flattere	-11.6475
▁mano	-11.6476
errier	-11.6481
▁carl	-11.6482
gado	-11.6482
▁bun	-11.6513
▁infl	-11.6523
ipped	-11.6525
gency	-11.6527
▁ku	-11.6537
mat	-11.654
▁damag	-11.6542
rumbling	-11.6544
▁ke	-11.6554
evious	-11.6558
ss	-11.6567
▁prospect	-11.6602
meron	-11.6605
who	-11.661
▁ven	-11.6611
▁mot	-11.6614
▁purit	-11.6623
▁creat	-11.6625
▁martia	-11.667
▁swed	-11.6674
▁wag	-11.6674
ndale	-11.6676
▁stud	-11.6684
ured	-11.6688
urban	-11.6706
ration	-11.6719
▁mea	-11.6722
▁enco	-11.6729
▁feature	-11.6735
▁shun	-11.6735
allows	-11.6737
▁wor	-11.6741
▁dev	-11.6742
covered	-11.6748
antic	-11.6764
nference	-11.6767
pressing	-11.6769
jan	-11.6772
▁sixt	-11.6788
bility	-11.6799
▁bearing	-11.6805
▁lur	-11.681
▁outs	-11.6814
tripped	-11.6834
▁helps	-11.685
▁etern	-11.6853
dales	-11.6856
▁sus	-11.6869
▁und	-11.6874
coat	-11.6874
changing	-11.6876
stance	-11.6886
din	-11.6886
oon	-11.6891
ostal	-11.6894
nel	-11.6917
eeding	-11.6921
▁suspend	-11.6922
nto	-11.6934
noring	-11.6937
▁cit	-11.6946
eros	-11.6948
▁vie	-11.6954
erie	-11.6957
port	-11.6963
cant	-11.6964
meters	-11.6969
ebra	-11.6977
▁mc	-11.6988
▁nag	-11.6994
people	-11.6999
juan	-11.7015
tty	-11.7022
bit	-11.7038
tox	-11.7039
▁locat	-11.7044
inning	-11.7051
press	-11.7058
tine	-11.7064
met	-11.7065
▁mumbl	-11.7073
activity	-11.7078
▁fla	-11.7101
tter	-11.7105
ctor	-11.7108
damaged	-11.7112
ggie	-11.7119
bases	-11.712
two	-11.7125
dict	-11.7128
▁mega	-11.713
acles	-11.714
▁eligib	-11.7145
sta	-11.7151
ci	-11.7158
crap	-11.7164
inson	-11.7165
▁dart	-11.7167
▁gord	-11.7182
▁horr	-11.7184
wa	-11.7191
▁magnifi	-11.7193
pelled	-11.7201
▁ew	-11.7203
▁switche	-11.7206
gg	-11.7208
ran	-11.7231
cast	-11.7245
▁stays	-11.7246
american	-11.725
▁glo	-11.7252
▁consorti	-11.7252
city	-11.7256
nish	-11.7257
maybe	-11.7258
▁inspir	-11.7263
ringing	-11.727
stick	-11.727
ndered	-11.727
los	-11.7272
wi	-11.7281
card	-11.7283
alk	-11.7287
▁indicat	-11.731
▁checks	-11.7311
ception	-11.7317
rive	-11.7325
name	-11.7327
▁mill	-11.7335
appelle	-11.7337
course	-11.734
arted	-11.7346
▁smilin	-11.7347
▁unre	-11.7355
▁cran	-11.7365
boy	-11.7374
lux	-11.7383
▁ste	-11.7386
▁eter	-11.7393
yah	-11.7396
dise	-11.7397
point	-11.7399
titude	-11.7399
giving	-11.7401
piece	-11.7406
▁rob	-11.7407
nu	-11.7409
iastic	-11.741
▁emerge	-11.7412
joy	-11.7424
brid	-11.7428
▁phar	-11.744
zed	-11.744
put	-11.7443
etry	-11.7457
arm	-11.7462
minute	-11.7463
worldly	-11.7466
order	-11.7472
▁inclusi	-11.7474
girl	-11.7474
nice	-11.7475
bird	-11.7476
▁translat	-11.7483
break	-11.7485
ertia	-11.7486
▁boon	-11.7488
friends	-11.7498
▁qui	-11.7506
cension	-11.7509
ect	-11.7524
brother	-11.753
ckles	-11.7532
band	-11.7532
four	-11.7533
barrow	-11.7536
true	-11.7543
hand	-11.7549
▁appro	-11.7551
writer	-11.7556
perfect	-11.756
horse	-11.7561
▁ridin	-11.7566
james	-11.757
mark	-11.7571
sometimes	-11.7574
▁hun	-11.759
box	-11.76
▁tink	-11.7604
paper	-11.7607
▁barne	-11.7609
road	-11.7612
hound	-11.7614
roo	-11.7614
skull	-11.7614
fall	-11.7617
▁howllo	-11.7619
charge	-11.762
taking	-11.7626
guns	-11.7626
writing	-11.7627
fashion	-11.7628
plane	-11.7631
winning	-11.7632
▁occup	-11.7632
foot	-11.7632
▁schm	-11.7633
▁sneez	-11.7634
born	-11.7634
ween	-11.7634
cup	-11.7634
class	-11.7636
ucky	-11.7637
speaking	-11.7638
double	-11.7639
protection	-11.764
wed	-11.764
▁chow	-11.7641
formed	-11.7642
pool	-11.7643
valley	-11.7645
after	-11.7645
squeak	-11.7646
chair	-11.7646
tempo	-11.7648
justice	-11.7649
edup	-11.765
joined	-11.7651
needles	-11.7652
given	-11.7652
heat	-11.7653
ruff	-11.7659
lift	-11.7667
bilize	-11.7667
▁ambi	-11.7669
ologist	-11.767
lled	-11.7672
kiss	-11.7672
solved	-11.7673
▁sampl	-11.7674
ji	-11.7678
sky	-11.7679
▁rele	-11.7681
oodles	-11.7682
▁groan	-11.7683
ooper	-11.7689
rug	-11.7691
style	-11.7692
shift	-11.7692
ities	-11.7696
hili	-11.7697
tz	-11.7699
▁forbid	-11.7701
conscious	-11.7705
▁martyr	-11.7708
▁resource	-11.7708
▁neighbour	-11.7708
▁leopard	-11.7708
▁engagement	-11.7709
▁analog	-11.771
▁muscle	-11.7711
abbot	-11.7712
▁riddle	-11.7714
award	-11.7718
▁critter	-11.7722
▁elevator	-11.7723
▁accelerate	-11.7724
▁civilization	-11.7726
▁kitten	-11.7726
▁biscuit	-11.7726
▁disguise	-11.7726
▁pancake	-11.7726
▁lannister	-11.7727
▁cocktail	-11.7727
▁heretic	-11.7728
▁pirate	-11.7731
▁procession	-11.7732
▁soc	-11.7734
▁bastard	-11.7734
▁tibetan	-11.7735
▁villain	-11.7736
▁colchi	-11.7737
▁grape	-11.7737
ritis	-11.774
▁element	-11.7741
agin	-11.7743
sure	-11.7745
▁prop	-11.7746
▁reformer	-11.7747
doors	-11.7749
▁detail	-11.7751
▁preacher	-11.7751
▁bubble	-11.7752
▁recogniz	-11.7752
▁peso	-11.7752
▁reco	-11.7755
▁sheet	-11.7758
▁intrud	-11.7759
▁cookie	-11.7761
▁grumble	-11.7761
ditionally	-11.7762
▁stair	-11.7764
bean	-11.7768
▁circu	-11.7768
term	-11.777
▁enchant	-11.777
▁pressur	-11.7771
▁correction	-11.7772
working	-11.7773
▁dom	-11.7776
▁childs	-11.7776
▁crop	-11.7777
▁furni	-11.7778
▁exam	-11.7779
▁craw	-11.7781
bbering	-11.7784
parable	-11.7786
gren	-11.7788
▁barr	-11.7789
▁fade	-11.779
was	-11.7791
▁microb	-11.7792
ag	-11.7793
gate	-11.7793
▁slob	-11.7797
▁visitor	-11.7798
nken	-11.7799
▁arriv	-11.7801
rifle	-11.7802
descent	-11.7805
▁orthodo	-11.7808
▁creed	-11.7809
penny	-11.7813
▁jig	-11.7813
▁chant	-11.7814
▁rehearse	-11.7814
▁hustl	-11.7815
▁hiccup	-11.7815
dwig	-11.7817
▁expand	-11.7817
▁stammer	-11.7819
aaaaaa	-11.782
▁drool	-11.7822
▁promis	-11.7823
▁assum	-11.7824
▁bamb	-11.7825
▁presum	-11.7826
▁cherish	-11.7826
coal	-11.7827
harmon	-11.7831
▁villa	-11.7832
▁educate	-11.7833
▁surround	-11.7833
▁involve	-11.7833
▁ceremon	-11.7833
▁grump	-11.7834
▁figur	-11.7834
fu	-11.7835
▁gidd	-11.7835
▁fizz	-11.7835
▁extraordinar	-11.7836
▁trumpet	-11.7836
amos	-11.7838
▁oppose	-11.784
▁desperate	-11.7843
▁yawn	-11.7844
▁craz	-11.7845
rack	-11.7845
▁compute	-11.7845
▁reform	-11.7846
▁manipulate	-11.7846
▁august	-11.7847
▁garde	-11.7848
▁whoopdedoop	-11.7848
▁engage	-11.7849
▁michel	-11.7849
▁distinct	-11.7851
▁buddhis	-11.7851
▁constantin	-11.7851
dale	-11.7851
▁troub	-11.7852
▁enemi	-11.7852
hysteric	-11.7852
▁procla	-11.7852
▁russia	-11.7852
▁dedicate	-11.7853
hances	-11.7853
ountain	-11.7853
onaut	-11.7854
▁rov	-11.7854
▁celebratin	-11.7855
gone	-11.7855
▁micro	-11.7855
▁gato	-11.7855
▁collide	-11.7855
▁motor	-11.7855
igator	-11.7856
▁mysteri	-11.7857
▁del	-11.7857
▁marvel	-11.7857
▁inherit	-11.7858
▁favour	-11.7858
▁thiev	-11.7858
▁lordsadler	-11.7858
▁correspond	-11.7858
▁subjugat	-11.7858
▁thingamajig	-11.7858
▁ththththth	-11.7858
australia	-11.7858
excellency	-11.7858
mophobiaism	-11.7858
▁accommodations	-11.7858
▁acrophobia	-11.7858
▁adaptation	-11.7858
▁albigenses	-11.7858
▁ambassador	-11.7858
▁anthem	-11.7858
▁anticipate	-11.7858
▁apprehend	-11.7858
▁avalanche	-11.7858
▁bachelor	-11.7858
▁balderdash	-11.7858
▁baltimore	-11.7858
▁barbershop	-11.7858
▁behaviour	-11.7858
▁bewitching	-11.7858
▁binoculars	-11.7858
▁bludgeon	-11.7858
▁boisterous	-11.7858
▁bouillabaisse	-11.7858
▁cafeteria	-11.7858
▁capiche	-11.7858
▁chaparral	-11.7858
▁clergy	-11.7858
▁clumsy	-11.7858
▁compensation	-11.7858
▁comprende	-11.7858
▁condolences	-11.7858
▁confederacy	-11.7858
▁consequence	-11.7858
▁consequently	-11.7858
▁corridor	-11.7858
▁cuckoo	-11.7858
▁culprit	-11.7858
▁cutthroats	-11.7858
▁deceptive	-11.7858
▁decisive	-11.7858
▁deplorable	-11.7858
▁diminish	-11.7858
▁diphtheria	-11.7858
▁disassemble	-11.7858
▁disciples	-11.7858
▁discrimination	-11.7858
▁dwarf	-11.7858
▁ecstasy	-11.7858
▁ecstatic	-11.7858
▁enchilada	-11.7858
▁entrepreneurs	-11.7858
▁epitaph	-11.7858
▁epithet	-11.7858
▁euphori	-11.7858
▁excusezmoi	-11.7858
▁extremophiles	-11.7858
▁eyebright	-11.7858
▁flearidden	-11.7858
▁fossil	-11.7858
▁freeloaders	-11.7858
▁frequency	-11.7858
▁graveyard	-11.7858
▁guacamole	-11.7858
▁guinness	-11.7858
▁handerpants	-11.7858
▁hydraulics	-11.7858
▁hydrophyte	-11.7858
▁hygiene	-11.7858
▁idiosyncrasy	-11.7858
▁inconvenient	-11.7858
▁indomitable	-11.7858
▁infallible	-11.7858
▁inhabitants	-11.7858
▁innocence	-11.7858
▁insects	-11.7858
▁instincts	-11.7858
▁integrity	-11.7858
▁intricate	-11.7858
▁intrigu	-11.7858
▁inversion	-11.7858
▁irresistible	-11.7858
▁isidore	-11.7858
▁jeopardy	-11.7858
▁khorosho	-11.7858
▁kirtle	-11.7858
▁kiteflyer	-11.7858
▁kulkan	-11.7858
▁lansdowne	-11.7858
▁leonberger	-11.7858
▁lucifer	-11.7858
▁malachi	-11.7858
▁marathon	-11.7858
▁megawatts	-11.7858
▁mitzvah	-11.7858
▁moustache	-11.7858
▁nightclubs	-11.7858
▁nikolai	-11.7858
▁noggin	-11.7858
▁nonetheless	-11.7858
▁nugget	-11.7858
▁obsolete	-11.7858
▁offlimits	-11.7858
▁oligarchy	-11.7858
▁opsomath	-11.7858
▁pandemonium	-11.7858
▁pedicure	-11.7858
▁peppermint	-11.7858
▁philomela	-11.7858
▁pilgrim	-11.7858
▁plessitora	-11.7858
▁plutonium	-11.7858
▁polydeuces	-11.7858
▁pomerania	-11.7858
▁prestochango	-11.7858
▁protocol	-11.7858
▁pshaw	-11.7858
▁psychiatr	-11.7858
▁quadropole	-11.7858
▁quarrel	-11.7858
▁rakerat	-11.7858
▁receipts	-11.7858
▁redemption	-11.7858
▁reelected	-11.7858
▁referee	-11.7858
▁reproduc	-11.7858
▁restrictions	-11.7858
▁rimicaris	-11.7858
▁roadblock	-11.7858
▁safari	-11.7858
▁scissors	-11.7858
▁scripps	-11.7858
▁secrecy	-11.7858
▁selfgoverning	-11.7858
▁sentimental	-11.7858
▁shintoism	-11.7858
▁specimen	-11.7858
▁sprinklers	-11.7858
▁strenuous	-11.7858
▁suitcases	-11.7858
▁syndrome	-11.7858
▁technique	-11.7858
▁teilhard	-11.7858
▁terrifying	-11.7858
▁terrorists	-11.7858
▁thompson	-11.7858
▁treachery	-11.7858
▁ttfn	-11.7858
▁umbrella	-11.7858
▁uncertain	-11.7858
▁underestimate	-11.7858
▁unexpected	-11.7858
▁unreasonable	-11.7858
▁villarosa	-11.7858
▁voltaire	-11.7858
▁westminster	-11.7858
▁whereabouts	-11.7858
▁whoowhoo	-11.7858
▁winifred	-11.7858
▁wiretap	-11.7858
▁woodchuck	-11.7858
▁zombies	-11.7858
▁homestead	-11.7858
pucci	-11.7858
▁airborne	-11.7858
▁alibi	-11.7858
▁arrogan	-11.7858
▁calculate	-11.7858
▁context	-11.7858
▁debacle	-11.7858
▁deposit	-11.7858
▁douay	-11.7858
▁gentile	-11.7858
▁hidalgo	-11.7858
▁laudation	-11.7858
▁plinkityplink	-11.7858
▁pseudo	-11.7858
▁relapse	-11.7858
▁reptile	-11.7858
▁scroung	-11.7858
▁slaslow	-11.7858
▁testify	-11.7858
▁ulcer	-11.7858
▁vigilan	-11.7858
▁yecch	-11.7858
▁attribute	-11.7858
▁distorted	-11.7858
▁doodledoo	-11.7858
▁enlighten	-11.7858
▁eruption	-11.7858
▁immune	-11.7858
▁injure	-11.7858
▁itsits	-11.7858
▁latooah	-11.7858
▁linguist	-11.7858
▁nervewracking	-11.7858
▁penthouse	-11.7858
▁purgatori	-11.7858
▁retreat	-11.7858
▁ruckus	-11.7858
▁sharecrop	-11.7858
▁vegas	-11.7858
▁vigour	-11.7858
▁violation	-11.7858
▁ambush	-11.7858
▁argentin	-11.7858
▁bauble	-11.7858
▁contemporar	-11.7858
▁dammit	-11.7858
▁doughnut	-11.7858
▁foresakes	-11.7858
▁glitter	-11.7858
▁sardion	-11.7858
▁semiaquatic	-11.7858
▁tallyho	-11.7858
▁unstack	-11.7858
▁wyoming	-11.7858
ohohoh	-11.7858
▁motorcycle	-11.7858
▁splinter	-11.7858
▁unlawful	-11.7858
▁ascot	-11.7858
▁buckingham	-11.7858
▁intuiti	-11.7858
▁medusa	-11.7858
▁meeeee	-11.7858
▁mortimer	-11.7858
▁naacp	-11.7858
▁sycamore	-11.7858
▁application	-11.7858
▁evacuate	-11.7858
▁goalonger	-11.7858
▁gumball	-11.7858
▁saturated	-11.7858
▁ancest	-11.7858
▁appointed	-11.7858
▁brunel	-11.7858
▁chemist	-11.7858
▁companies	-11.7858
▁energizing	-11.7858
▁extenuat	-11.7858
▁iceskat	-11.7858
▁merlot	-11.7858
▁sympathy	-11.7858
▁vitamin	-11.7858
▁bogus	-11.7858
▁hymeneal	-11.7858
▁glinting	-11.7858
▁seltzer	-11.7858
▁antlers	-11.7858
▁detach	-11.7858
▁disobe	-11.7858
▁warehouse	-11.7858
▁curtsy	-11.7858
▁irrational	-11.7858
▁haveta	-11.7858
▁boasts	-11.7858
▁embass	-11.7858
▁fragile	-11.7858
▁outsmart	-11.7858
adequa	-11.7858
hampton	-11.7858
▁imperative	-11.7858
▁lenore	-11.7858
abolic	-11.7858
▁boychick	-11.7858
▁muchacho	-11.7858
illsbury	-11.7858
obedience	-11.7858
▁banjo	-11.7858
▁numbskull	-11.7858
▁tiptoe	-11.7858
▁vapor	-11.7858
▁recent	-11.7858
▁wilkins	-11.7858
▁fantasy	-11.7858
▁ruffians	-11.7858
▁astray	-11.7858
▁blitz	-11.7858
▁oppressed	-11.7858
▁comparison	-11.7858
▁dishwash	-11.7858
▁eloquen	-11.7858
▁butbut	-11.7858
▁gnaw	-11.7858
▁newborns	-11.7858
▁outreach	-11.7858
▁barrier	-11.7858
▁saturation	-11.7858
▁mattock	-11.7858
▁minnie	-11.7858
▁senorita	-11.7858
▁diversion	-11.7858
▁organisms	-11.7858
▁spinach	-11.7858
▁shadow	-11.7858
▁trespass	-11.7858
▁wacko	-11.7858
▁cucumber	-11.7858
▁invisible	-11.7858
▁shriek	-11.7858
▁ydna	-11.7858
▁metallurgist	-11.7858
▁aaron	-11.7858
▁shovel	-11.7858
▁allseeing	-11.7858
▁antimatter	-11.7858
▁distilling	-11.7858
▁quantit	-11.7858
▁zzz	-11.7858
▁margarita	-11.7858
▁columb	-11.7858
▁exports	-11.7858
▁miami	-11.7858
▁envied	-11.7858
▁cooperation	-11.7858
▁counterweight	-11.7858
▁shoelace	-11.7859
▁condescending	-11.7859
▁evangeli	-11.7859
▁messenger	-11.7859
▁arrrg	-11.7859
▁anxious	-11.7859
▁friction	-11.7859
▁immortal	-11.7859
▁hornero	-11.7859
▁celesteville	-11.7859
▁devotion	-11.7859
▁disconnect	-11.7859
▁dispense	-11.7859
▁portray	-11.7859
▁quibble	-11.7859
▁yeeha	-11.7859
▁toxins	-11.7859
▁wilderness	-11.7859
▁revelation	-11.7859
▁crucifi	-11.7859
▁distress	-11.7859
▁waffle	-11.7859
▁dominion	-11.7859
▁suspension	-11.7859
▁allamerican	-11.7859
▁kidnapping	-11.7859
▁hypothe	-11.7859
▁imposing	-11.7859
▁stump	-11.7859
▁woild	-11.7859
▁retirement	-11.7859
▁situated	-11.7859
▁conform	-11.7859
▁psychic	-11.7859
▁symphon	-11.7859
▁butler	-11.7859
▁console	-11.7859
▁croquet	-11.7859
▁infuse	-11.7859
▁ferret	-11.7859
▁concoct	-11.7859
▁entice	-11.7859
▁bejesus	-11.7859
▁enlist	-11.7859
▁swift	-11.7859
▁luncheon	-11.7859
▁compulsion	-11.7859
▁transferred	-11.7859
▁sorcer	-11.7859
▁ordinance	-11.7859
▁genesis	-11.7859
▁rumpus	-11.7859
▁pyra	-11.7859
▁unbearable	-11.7859
▁substance	-11.7859
▁clacking	-11.7859
▁immense	-11.7859
▁sanction	-11.7859
▁unlucky	-11.7859
▁compound	-11.7859
▁cedar	-11.7859
▁shrine	-11.7859
▁density	-11.7859
▁boundaries	-11.7859
▁invention	-11.7859
▁frontrunner	-11.7859
▁summit	-11.7859
▁hurray	-11.7859
▁legitimate	-11.7859
▁ripple	-11.7859
▁holloway	-11.7859
▁kingsguard	-11.7859
▁overpower	-11.7859
▁kiddin	-11.7859
▁seasick	-11.7859
▁pinata	-11.7859
▁neopo	-11.7859
▁flaming	-11.7859
▁injury	-11.7859
▁audac	-11.7859
▁draper	-11.7859
▁effic	-11.7859
▁victimhood	-11.7859
▁unforgettable	-11.786
▁yellowstone	-11.786
▁dismount	-11.786
▁jammed	-11.786
▁battlements	-11.786
▁plaza	-11.786
▁applies	-11.786
▁vulgar	-11.786
▁catnap	-11.786
▁envoy	-11.786
▁lowdown	-11.786
▁croft	-11.786
▁bigotry	-11.786
▁templeton	-11.786
▁designated	-11.786
▁pacific	-11.786
▁equable	-11.786
▁erasers	-11.786
▁hereto	-11.786
▁infern	-11.786
▁lumber	-11.786
▁underworld	-11.786
▁entitled	-11.786
▁hearteater	-11.786
▁invitation	-11.786
▁grandchildren	-11.786
▁carsonville	-11.786
▁representative	-11.786
▁stanley	-11.786
▁accountability	-11.786
▁confront	-11.786
▁stuttering	-11.786
▁eeeh	-11.786
▁revenue	-11.786
▁midair	-11.786
▁denied	-11.786
rtalo	-11.786
▁theologian	-11.786
▁controversial	-11.786
▁diller	-11.786
▁compelled	-11.786
▁slither	-11.786
▁terrain	-11.786
▁misread	-11.786
▁perm	-11.7861
▁delta	-11.7861
▁zipper	-11.7861
▁dispute	-11.7861
▁pledge	-11.7861
valent	-11.7861
▁adidas	-11.7861
▁lulling	-11.7861
▁northeast	-11.7861
▁hostage	-11.7861
▁valentin	-11.7861
▁smuggle	-11.7861
▁disease	-11.7861
▁nolan	-11.7861
hodon	-11.7861
▁restore	-11.7861
▁gym	-11.7861
▁stagg	-11.7861
▁unimportant	-11.7861
▁vegetable	-11.7861
▁perishers	-11.7861
▁yipe	-11.7862
▁refus	-11.7862
▁priesthood	-11.7862
▁repetition	-11.7862
▁madison	-11.7862
▁soloist	-11.7862
▁humph	-11.7862
▁unleash	-11.7862
▁leavin	-11.7862
rmint	-11.7862
▁complications	-11.7862
▁suspenders	-11.7862
▁dentist	-11.7862
▁flurry	-11.7862
▁onboard	-11.7862
▁polish	-11.7862
▁summon	-11.7862
▁binds	-11.7862
▁blackmail	-11.7862
▁technicality	-11.7862
▁suffic	-11.7862
▁eviden	-11.7862
▁drugged	-11.7862
▁harpies	-11.7862
▁transcribe	-11.7862
▁reflection	-11.7862
▁whinnies	-11.7862
▁immut	-11.7863
▁lorath	-11.7863
▁mastermind	-11.7863
▁unorthodox	-11.7863
▁dudette	-11.7863
▁maester	-11.7863
▁scoot	-11.7863
▁ragtime	-11.7863
tograph	-11.7863
▁garage	-11.7863
▁reopen	-11.7863
▁kingswood	-11.7863
▁jaime	-11.7863
▁rugged	-11.7863
▁astrobiologist	-11.7863
▁bimi	-11.7863
▁pinched	-11.7863
▁webb	-11.7864
cumen	-11.7864
▁electro	-11.7864
▁lioness	-11.7864
▁helloooo	-11.7864
▁offside	-11.7864
▁mosey	-11.7864
▁finalists	-11.7864
▁defy	-11.7864
nishing	-11.7864
▁depart	-11.7865
▁redhanded	-11.7865
▁courtroom	-11.7865
▁nursery	-11.7865
▁frequently	-11.7865
▁alex	-11.7865
▁flair	-11.7865
▁promptly	-11.7865
▁roommate	-11.7865
▁subconsciously	-11.7865
▁buddhism	-11.7865
▁flank	-11.7865
▁swab	-11.7865
▁regime	-11.7865
▁layout	-11.7865
▁restoration	-11.7865
▁lsraeli	-11.7865
▁magnetism	-11.7865
▁espous	-11.7865
▁distinctive	-11.7865
▁ragged	-11.7865
▁andre	-11.7865
▁athen	-11.7865
▁righteous	-11.7865
hibition	-11.7866
▁vista	-11.7866
▁bruise	-11.7866
▁mimic	-11.7866
▁weakness	-11.7866
▁altar	-11.7866
▁pedest	-11.7866
▁gaze	-11.7866
▁barbel	-11.7866
elimina	-11.7867
▁casks	-11.7867
▁sixteenth	-11.7867
▁realistic	-11.7867
▁lenses	-11.7867
▁collated	-11.7867
xious	-11.7867
▁frame	-11.7867
▁incompetent	-11.7867
▁abundant	-11.7867
▁sentencing	-11.7867
▁bonus	-11.7867
▁cubby	-11.7867
▁rejection	-11.7867
▁confirmation	-11.7867
▁persecuted	-11.7868
▁campfire	-11.7868
▁electricity	-11.7868
ific	-11.7868
▁knuckle	-11.7868
▁hypnotist	-11.7868
▁bandits	-11.7868
▁yummy	-11.7868
▁childress	-11.7868
▁saxony	-11.7868
▁autonomy	-11.7868
▁paleography	-11.7869
▁pissed	-11.7869
▁bambi	-11.7869
▁contaminated	-11.7869
▁coupon	-11.7869
▁unpack	-11.7869
▁patrolling	-11.7869
▁extensive	-11.7869
▁combine	-11.7869
▁spaceship	-11.7869
▁activated	-11.7869
▁librarian	-11.7869
▁paranoid	-11.7869
▁toodles	-11.7869
▁crosswork	-11.787
lebore	-11.787
▁chomp	-11.787
▁sittin	-11.787
▁sunset	-11.787
▁brotherhood	-11.787
▁mocking	-11.787
▁livin	-11.787
▁workout	-11.787
▁manufactured	-11.787
▁bloomin	-11.787
▁aghhh	-11.7871
▁intentionally	-11.7871
▁soninlaw	-11.7871
▁jamestown	-11.7871
▁affected	-11.7871
▁clothesline	-11.7871
▁fishbone	-11.7871
xili	-11.7871
▁carib	-11.7871
▁rodin	-11.7871
▁dragged	-11.7872
mania	-11.7872
▁highhanded	-11.7873
▁dualist	-11.7873
▁patti	-11.7873
▁clutche	-11.7873
▁judgement	-11.7873
▁catfish	-11.7873
▁temptation	-11.7873
▁whirl	-11.7873
▁trait	-11.7873
cakes	-11.7873
▁motorway	-11.7873
▁gleam	-11.7873
▁whoooah	-11.7873
▁defendant	-11.7874
▁hym	-11.7874
▁characteristic	-11.7874
▁consist	-11.7874
▁expressive	-11.7874
▁infect	-11.7874
▁scarce	-11.7874
▁frag	-11.7874
▁scowl	-11.7874
▁freshness	-11.7875
▁habitable	-11.7875
▁genuineness	-11.7875
▁morn	-11.7875
▁treetop	-11.7875
▁afro	-11.7875
▁folly	-11.7875
dominant	-11.7875
▁sculpture	-11.7875
▁burger	-11.7875
bumpkin	-11.7876
▁clobber	-11.7876
▁sneakers	-11.7876
ze	-11.7876
▁blackberries	-11.7877
▁strainer	-11.7877
▁shushing	-11.7877
▁collider	-11.7877
▁tendenc	-11.7877
▁tweed	-11.7877
▁whoooaaa	-11.7877
▁wiseman	-11.7877
▁punk	-11.7878
▁darnel	-11.7878
▁prosecution	-11.7878
▁canary	-11.7878
▁planner	-11.7878
▁strum	-11.7878
▁adjustment	-11.7878
▁plumbing	-11.7878
▁inventor	-11.7878
▁instrumental	-11.7879
sions	-11.7879
▁mmmmm	-11.7879
▁perish	-11.788
ulous	-11.788
books	-11.788
cuffs	-11.788
▁happily	-11.7881
▁hustle	-11.7881
atical	-11.7881
▁peeled	-11.7881
most	-11.7881
▁wrinkled	-11.7882
▁publicity	-11.7882
▁conceived	-11.7882
▁damp	-11.7882
▁royalty	-11.7883
▁settling	-11.7883
▁disintegrated	-11.7883
▁swank	-11.7883
▁secondrate	-11.7883
▁whwhwhat	-11.7883
▁devastating	-11.7884
▁feeders	-11.7884
▁rehears	-11.7884
▁narrow	-11.7884
▁thatta	-11.7885
▁nappin	-11.7885
▁meditat	-11.7885
collins	-11.7885
▁tow	-11.7885
▁reckles	-11.7885
riety	-11.7885
▁helmet	-11.7885
▁spice	-11.7885
▁pappy	-11.7885
▁fizzy	-11.7886
▁supper	-11.7886
▁thickest	-11.7886
awk	-11.7886
encephalo	-11.7886
▁zeal	-11.7887
▁asto	-11.7888
▁lyin	-11.7888
▁decoration	-11.7888
▁crock	-11.7889
▁whereas	-11.7889
▁soaked	-11.789
▁wallis	-11.789
▁tickling	-11.789
▁sur	-11.789
▁steeper	-11.7891
azon	-11.7891
▁cherished	-11.7891
▁defens	-11.7892
▁bonehead	-11.7892
▁perpetu	-11.7892
▁hypo	-11.7893
▁hull	-11.7893
▁systematic	-11.7893
tches	-11.7894
▁vamps	-11.7895
▁peemai	-11.7895
▁suede	-11.7895
throw	-11.7895
awbreaker	-11.7895
▁stash	-11.7896
ntist	-11.7896
▁shave	-11.7896
▁snout	-11.7898
▁blotch	-11.7899
▁burps	-11.7899
▁checkout	-11.79
▁prett	-11.79
▁renovation	-11.79
▁permanently	-11.79
▁script	-11.79
▁stalling	-11.7901
▁drooling	-11.7901
▁stags	-11.7901
▁confessional	-11.7901
▁festival	-11.7901
▁squish	-11.7902
xim	-11.7902
▁arrival	-11.7903
▁communicating	-11.7903
▁preca	-11.7903
▁superconduct	-11.7903
▁plume	-11.7903
feit	-11.7903
▁detected	-11.7904
▁charts	-11.7904
orthodox	-11.7904
▁equalize	-11.7904
pants	-11.7905
▁contention	-11.7905
▁playoff	-11.7905
lette	-11.7905
▁potion	-11.7905
▁surpass	-11.7905
▁elderly	-11.7906
▁overall	-11.7906
▁sunny	-11.7906
▁gallon	-11.7907
▁sappy	-11.7908
▁poems	-11.7909
▁sunup	-11.7909
▁interaction	-11.7909
▁booth	-11.7909
solation	-11.791
▁talkative	-11.791
▁badger	-11.791
▁unlikely	-11.7911
▁handicapp	-11.7911
▁hardball	-11.7911
▁scatter	-11.7911
▁blokes	-11.7911
▁pond	-11.7912
▁admission	-11.7912
▁offended	-11.7912
▁appo	-11.7912
▁shatter	-11.7912
▁ticker	-11.7913
▁huntin	-11.7913
▁invade	-11.7913
▁continents	-11.7914
▁shillings	-11.7914
▁lizards	-11.7915
▁souvenirs	-11.7915
▁fragments	-11.7915
▁variations	-11.7915
▁noor	-11.7915
▁classmates	-11.7916
▁bough	-11.7916
▁evolved	-11.7916
▁sonny	-11.7916
▁relations	-11.7917
▁install	-11.7917
boys	-11.7917
▁editor	-11.7917
▁truce	-11.7917
racle	-11.7918
tender	-11.7918
▁breached	-11.7918
▁configur	-11.7918
▁flies	-11.7918
▁difficulties	-11.7919
▁certifi	-11.792
eo	-11.7921
▁mantle	-11.7921
▁vocation	-11.7921
▁majority	-11.7921
▁hiyah	-11.7921
▁takin	-11.7922
▁knighted	-11.7922
inha	-11.7924
▁bastion	-11.7925
▁separately	-11.7925
▁tamper	-11.7925
▁statistic	-11.7926
▁chinaman	-11.7927
vant	-11.7927
▁setup	-11.7927
▁instantly	-11.7927
▁architects	-11.7927
▁handling	-11.7928
▁attenti	-11.7929
▁blanket	-11.7929
▁conditioner	-11.7929
adron	-11.793
▁laity	-11.793
▁stamps	-11.793
▁eliminated	-11.7932
▁peril	-11.7932
▁clatter	-11.7934
▁clicking	-11.7934
▁exceed	-11.7934
▁euro	-11.7935
▁allo	-11.7935
tising	-11.7936
egar	-11.7936
▁vicar	-11.7937
▁cookin	-11.7938
▁decima	-11.7938
▁seismo	-11.7938
inous	-11.7939
▁elm	-11.794
▁contributing	-11.794
▁disk	-11.7941
▁freshman	-11.7942
▁dip	-11.7942
▁thicker	-11.7945
▁increased	-11.7946
▁handsomely	-11.7947
onshi	-11.7948
▁sexy	-11.7949
▁associate	-11.795
▁zigg	-11.795
▁peel	-11.795
▁atom	-11.795
▁apologetic	-11.7951
▁explorer	-11.7951
▁assert	-11.7951
▁cheated	-11.7952
▁startling	-11.7953
▁formally	-11.7954
▁rode	-11.7956
▁trio	-11.7957
nova	-11.7957
▁campus	-11.7958
▁cycle	-11.7958
▁tracy	-11.7958
▁broom	-11.7959
▁secretar	-11.7959
▁blackwater	-11.7961
▁punches	-11.7961
odore	-11.7961
▁whim	-11.7963
▁tux	-11.7963
▁johann	-11.7963
powers	-11.7963
▁kil	-11.7964
izz	-11.7964
▁crawling	-11.7965
ologists	-11.7966
▁fritter	-11.7966
▁matches	-11.7966
▁marches	-11.7967
▁whawhat	-11.7967
▁regress	-11.7968
▁dough	-11.7968
▁cellar	-11.7969
▁hacked	-11.797
▁dilla	-11.7971
olic	-11.7972
▁photographer	-11.7972
▁makin	-11.7972
▁commandment	-11.7973
▁embarrassing	-11.7975
trated	-11.7975
▁ruff	-11.7976
▁empt	-11.7976
▁grasped	-11.7977
▁possessed	-11.7977
▁load	-11.7978
▁poke	-11.7978
quet	-11.7979
▁introducing	-11.7981
▁mandon	-11.7984
▁seized	-11.7984
▁goofed	-11.7985
▁fray	-11.7985
▁whore	-11.7986
ctus	-11.7987
▁initiat	-11.7987
▁sharing	-11.7988
semble	-11.7988
▁fades	-11.7989
▁idol	-11.7989
▁onehanded	-11.7989
▁arth	-11.7991
ellis	-11.7991
▁freaky	-11.7993
▁regularly	-11.7993
test	-11.7994
tige	-11.7995
▁grapes	-11.7996
arre	-11.7996
▁arapa	-11.7997
pens	-11.7997
▁creeds	-11.7997
▁housing	-11.7997
again	-11.7997
ometers	-11.7998
▁criticize	-11.7998
▁sheets	-11.7998
▁crops	-11.7999
▁wearin	-11.8
▁hamm	-11.8
▁acup	-11.8
▁satisfact	-11.8001
▁lug	-11.8001
▁drawn	-11.8004
▁blooming	-11.8004
uff	-11.8004
▁ohhhh	-11.8005
ndulge	-11.8005
▁griev	-11.8005
▁riddles	-11.8008
▁muscles	-11.8008
▁sneaky	-11.8009
▁analogs	-11.8009
▁heater	-11.801
▁brig	-11.801
▁leopards	-11.801
▁neighbours	-11.801
▁resources	-11.8011
▁brim	-11.8011
▁martyrs	-11.8011
▁glamor	-11.8011
▁engagements	-11.8011
▁frost	-11.8012
▁oww	-11.8012
▁squir	-11.8014
▁braid	-11.8014
▁processions	-11.8015
▁straighten	-11.8015
▁tibetans	-11.8015
▁dips	-11.8016
oofy	-11.8016
cus	-11.8017
▁jimo	-11.8017
▁narc	-11.8018
▁forbids	-11.8018
▁prom	-11.8019
▁hardship	-11.802
▁rumo	-11.802
▁buns	-11.802
▁barge	-11.8021
▁rewarded	-11.8022
▁grumbles	-11.8024
▁hits	-11.8025
▁gopher	-11.8025
▁homeland	-11.8026
▁emerges	-11.8026
▁rifle	-11.8026
▁defined	-11.8027
▁teachin	-11.8029
▁hugest	-11.8029
▁ails	-11.803
▁dw	-11.8031
▁mound	-11.8031
▁marvelously	-11.8032
▁swinger	-11.8033
▁tags	-11.8033
scurry	-11.8033
▁informed	-11.8035
oleo	-11.8035
mation	-11.8036
dified	-11.8036
▁stocking	-11.8036
▁plots	-11.8037
▁measured	-11.8039
▁weaken	-11.8041
rill	-11.8042
▁jiff	-11.8042
▁sucking	-11.8043
yself	-11.8044
control	-11.8044
▁ruth	-11.8044
▁explorers	-11.8046
cats	-11.8046
acres	-11.8047
▁advanced	-11.8048
▁recognis	-11.8051
▁workouts	-11.8052
▁haul	-11.8053
▁alienate	-11.8054
▁evilest	-11.8055
wis	-11.8057
▁lung	-11.8059
▁sputter	-11.8061
ateau	-11.8062
▁collecting	-11.8064
▁vii	-11.8065
▁ahold	-11.8067
▁tox	-11.807
▁blocked	-11.807
▁yow	-11.8071
bber	-11.8072
▁orde	-11.8074
▁competed	-11.8074
▁confirming	-11.8075
▁concerning	-11.8077
▁elliott	-11.8078
▁nike	-11.8078
▁consult	-11.8081
ehen	-11.8081
▁valle	-11.8082
nary	-11.8084
▁hayes	-11.8085
uity	-11.8085
▁flyin	-11.8086
▁aand	-11.8086
▁sprain	-11.8086
▁leftover	-11.809
▁evasi	-11.809
▁tempo	-11.8091
▁muck	-11.8091
▁gown	-11.8092
▁ticking	-11.8092
▁uti	-11.8095
osis	-11.8095
▁olives	-11.8098
▁silenced	-11.8102
cture	-11.8102
severance	-11.8102
▁princes	-11.8105
▁resumes	-11.8106
haul	-11.8106
▁hangin	-11.8107
▁lasers	-11.8107
▁skull	-11.8108
▁greener	-11.8109
▁tramp	-11.8109
▁recruits	-11.811
▁sinew	-11.811
▁arguments	-11.811
▁equations	-11.811
▁obstacles	-11.811
▁landscapes	-11.811
▁coals	-11.811
▁abortions	-11.8111
▁failing	-11.8111
▁chewed	-11.8112
upon	-11.8112
▁ruler	-11.8113
▁squeals	-11.8113
▁putty	-11.8114
nam	-11.8114
▁excitedly	-11.8114
rina	-11.8116
▁steam	-11.812
▁reserved	-11.812
▁pertain	-11.8121
▁furnish	-11.8124
▁compromise	-11.8125
▁reap	-11.8125
▁demons	-11.8127
nnab	-11.8128
▁loo	-11.8129
▁responds	-11.8135
▁flowed	-11.8135
ttoo	-11.8135
scent	-11.8136
▁falsely	-11.8138
▁brine	-11.8139
ssen	-11.8144
▁deb	-11.8146
▁kite	-11.8147
▁understandable	-11.8151
▁cher	-11.8152
▁inco	-11.8157
▁clap	-11.8158
oked	-11.8158
▁extend	-11.8159
▁strengthen	-11.8159
ainty	-11.8159
▁worms	-11.816
▁spreading	-11.8164
▁barbe	-11.8165
▁forestall	-11.8166
▁emotions	-11.8166
▁plum	-11.8169
fl	-11.8172
▁pressured	-11.8172
terre	-11.8172
▁publishing	-11.8174
▁pickin	-11.8174
▁snail	-11.8175
▁loudly	-11.8176
killed	-11.8178
▁riff	-11.818
ancho	-11.8183
▁bridget	-11.8183
▁ir	-11.8186
▁rushed	-11.8188
▁scann	-11.819
▁traveled	-11.8191
▁oomp	-11.8192
▁recreat	-11.8193
▁wheez	-11.8194
▁unity	-11.8199
▁mingle	-11.8199
▁dresses	-11.82
▁streams	-11.8203
▁insure	-11.8204
▁surgeons	-11.8207
▁gypsys	-11.8208
▁barbarians	-11.8209
▁italians	-11.8209
▁gorillas	-11.8209
▁gunshots	-11.8209
▁highballs	-11.8209
▁predictions	-11.8209
▁ribbons	-11.821
▁elud	-11.8215
▁pret	-11.8216
▁imply	-11.8222
▁busting	-11.8224
▁oo	-11.8224
▁sinner	-11.8225
▁mashed	-11.8227
rou	-11.8228
▁lev	-11.8232
▁some	-11.8232
▁scri	-11.8233
▁blan	-11.8234
▁highp	-11.8235
▁chiefly	-11.8235
▁arse	-11.8237
▁ramp	-11.824
▁diamet	-11.8245
▁bumps	-11.8251
hful	-11.8254
▁weee	-11.8254
▁shackle	-11.8255
ub	-11.8256
▁sweeping	-11.8257
▁revis	-11.8258
▁sizzle	-11.8258
▁tamp	-11.8264
▁eli	-11.8264
▁sighting	-11.8264
▁focusing	-11.8266
▁ddo	-11.827
▁irritat	-11.827
▁ceas	-11.8276
ignat	-11.828
▁ohio	-11.828
ethe	-11.8281
aching	-11.8283
rate	-11.8286
▁blooms	-11.8292
▁suited	-11.8292
▁scribes	-11.8294
▁starters	-11.8295
▁pap	-11.8295
▁folds	-11.8296
▁mite	-11.8296
▁slurps	-11.8301
eemed	-11.8304
bel	-11.8304
▁contains	-11.8307
▁manicheans	-11.8309
partial	-11.8311
▁ankles	-11.8312
ere	-11.8313
▁patern	-11.8318
▁processing	-11.8319
▁marines	-11.8319
▁barrow	-11.8332
nsist	-11.8333
liant	-11.8335
ndez	-11.8336
▁glassy	-11.8338
▁hearse	-11.834
arming	-11.8341
▁buckle	-11.8345
pension	-11.8347
uru	-11.8349
▁conve	-11.835
rrrrrrrr	-11.835
▁ici	-11.8357
sto	-11.8362
▁marsh	-11.8362
▁sucks	-11.8366
▁claw	-11.8367
▁presently	-11.8368
▁clay	-11.8368
▁touchy	-11.8371
ninety	-11.8374
▁jaw	-11.838
▁bravely	-11.8383
▁mines	-11.8383
▁ashe	-11.8387
anyon	-11.8389
▁rolled	-11.8396
▁defenses	-11.8396
ugh	-11.8397
▁bums	-11.8402
ntage	-11.8402
▁playin	-11.8407
arity	-11.8412
▁claiming	-11.8414
▁syno	-11.8415
▁poles	-11.8417
▁eyel	-11.8418
ugging	-11.8418
▁wires	-11.842
▁tunes	-11.8421
▁bringin	-11.8421
▁flips	-11.8422
jury	-11.8426
▁kenne	-11.8433
▁decay	-11.8433
tarian	-11.8436
▁aval	-11.8436
▁tryin	-11.8438
angled	-11.8439
terdam	-11.8441
▁pessimistic	-11.8442
▁vary	-11.8446
▁oozin	-11.8446
upi	-11.8449
zo	-11.8453
▁cuban	-11.8453
▁junkie	-11.8455
fer	-11.8456
▁collat	-11.8456
oxid	-11.8459
▁revolutionar	-11.8459
▁bends	-11.8461
metric	-11.8463
parent	-11.8465
▁conce	-11.8465
▁kal	-11.8466
▁dias	-11.8467
▁fiance	-11.8473
▁garc	-11.8474
ters	-11.8475
▁celebrit	-11.8482
▁illness	-11.8483
▁slee	-11.8487
▁cola	-11.8489
▁supple	-11.8491
last	-11.8491
▁wits	-11.8492
▁tij	-11.8503
mic	-11.8506
▁retire	-11.8515
entities	-11.8516
▁pentecostals	-11.8517
▁weekends	-11.8519
vol	-11.852
▁wee	-11.8528
unci	-11.8528
▁rays	-11.8531
▁nic	-11.8534
▁disrupt	-11.8542
▁cable	-11.8545
▁invit	-11.8547
▁concerns	-11.8549
▁transformation	-11.8551
▁romeo	-11.8559
▁disorganiz	-11.8564
▁sued	-11.8566
▁casual	-11.8566
chola	-11.8566
▁other	-11.8566
▁consort	-11.8569
▁hhe	-11.8573
▁businesses	-11.8575
▁anni	-11.8577
▁corp	-11.8584
sible	-11.8584
▁simpler	-11.8588
elus	-11.859
scribed	-11.8596
▁apost	-11.8601
▁crafts	-11.8602
▁lit	-11.8604
▁laude	-11.8605
qu	-11.8606
paid	-11.8607
▁equi	-11.8616
ndle	-11.8618
iffle	-11.8619
▁products	-11.8627
▁sync	-11.863
▁pasta	-11.8635
▁smarty	-11.8636
attan	-11.8641
▁supposedly	-11.8644
▁stakes	-11.865
▁prickl	-11.8652
▁ration	-11.8653
erbil	-11.8657
▁fails	-11.8659
▁callin	-11.8663
▁wrecks	-11.8663
anger	-11.8675
▁underw	-11.8677
▁tripp	-11.8682
chas	-11.8682
▁deco	-11.8684
▁mack	-11.8698
zar	-11.8699
▁austins	-11.8699
shore	-11.8702
▁luthers	-11.8705
▁devis	-11.8707
site	-11.8713
▁rad	-11.8713
▁treasures	-11.8717
▁slamm	-11.8721
▁deadly	-11.8726
oosh	-11.873
tto	-11.8742
▁drums	-11.8745
▁indicate	-11.8749
tters	-11.8752
▁aren	-11.8754
manship	-11.8755
▁verac	-11.8766
▁hyp	-11.8769
wire	-11.8771
▁courting	-11.8779
kins	-11.8783
spiration	-11.8787
▁sorta	-11.8798
▁conse	-11.8798
igi	-11.8801
▁bishops	-11.8805
▁demonstrate	-11.8806
▁costumes	-11.8809
▁pineapples	-11.881
▁stingrays	-11.881
nowi	-11.8811
got	-11.8811
ards	-11.8814
▁gali	-11.8818
▁asses	-11.8822
▁did	-11.8838
▁neutral	-11.8842
ugged	-11.8843
▁bellow	-11.8847
tara	-11.8851
▁lor	-11.8854
▁pel	-11.8862
iece	-11.8862
▁pala	-11.887
▁linger	-11.8879
▁sinks	-11.888
cia	-11.8889
odor	-11.8891
▁stra	-11.8893
ache	-11.8894
arnett	-11.8902
▁snakes	-11.8907
▁kingdoms	-11.8909
▁oop	-11.891
▁res	-11.8921
▁cabo	-11.8921
▁europeans	-11.8923
▁pained	-11.8923
uce	-11.8926
yed	-11.8927
ments	-11.8929
bloo	-11.8932
▁kinds	-11.894
shell	-11.8942
▁brin	-11.8945
▁mutin	-11.8953
monad	-11.8955
▁includ	-11.8956
natin	-11.8961
ti	-11.8962
tial	-11.8965
low	-11.8971
▁firstest	-11.8972
erous	-11.8987
▁publishe	-11.8988
▁encourage	-11.899
bby	-11.8991
▁workin	-11.9
▁www	-11.9002
▁piled	-11.9004
▁idiots	-11.9006
▁loung	-11.9013
▁crimes	-11.9014
▁roses	-11.9017
▁hips	-11.902
vide	-11.9021
mine	-11.9033
pressurize	-11.9034
station	-11.9035
holder	-11.9048
▁authoriz	-11.9074
ature	-11.9075
▁fates	-11.9081
▁margos	-11.9082
anci	-11.9084
▁pul	-11.9103
nburg	-11.9108
▁sor	-11.9115
▁truffle	-11.9119
▁verb	-11.9121
▁haw	-11.9121
▁starter	-11.9124
happies	-11.913
▁cars	-11.9136
lights	-11.9136
▁solo	-11.9136
▁jimm	-11.9141
word	-11.9143
▁crosswor	-11.9143
▁groom	-11.9144
pper	-11.915
▁pressures	-11.9152
▁cla	-11.9154
▁africans	-11.9156
▁glove	-11.9156
▁happi	-11.9157
▁dissen	-11.916
▁maine	-11.9161
▁experts	-11.9164
hee	-11.9167
mage	-11.917
▁generate	-11.9175
▁studie	-11.9176
▁endur	-11.9176
▁fidal	-11.9184
ht	-11.9184
sanitar	-11.9187
▁gut	-11.9189
ito	-11.9193
copter	-11.9195
▁concur	-11.9198
anus	-11.9202
nip	-11.9204
▁governors	-11.9213
osaur	-11.9223
▁dread	-11.9225
ucks	-11.9227
guard	-11.923
scription	-11.9237
▁vat	-11.9255
▁hover	-11.9263
unning	-11.9269
▁ou	-11.927
capped	-11.9286
▁err	-11.9289
ition	-11.929
su	-11.9295
itch	-11.9298
▁atti	-11.93
▁holder	-11.9306
ssages	-11.9314
▁forgett	-11.9324
▁burp	-11.9331
guay	-11.9332
▁brook	-11.9334
lant	-11.9344
▁uno	-11.9345
ttles	-11.9345
atch	-11.9368
▁wy	-11.937
view	-11.9379
burn	-11.938
▁strawberr	-11.9384
▁archi	-11.9397
turn	-11.9399
▁reminds	-11.9399
▁nep	-11.9411
▁featur	-11.9413
▁kab	-11.9414
▁honours	-11.9417
▁newm	-11.942
▁borders	-11.9421
ickey	-11.943
▁pun	-11.9435
▁wayne	-11.9438
▁hypocrit	-11.9442
▁activit	-11.9443
ester	-11.9444
tant	-11.9447
▁partly	-11.946
uttering	-11.9466
▁capitaliz	-11.9467
▁tyrann	-11.9471
▁baker	-11.9475
ife	-11.9486
▁renounce	-11.9489
megaton	-11.9494
his	-11.9506
▁lire	-11.9507
▁themes	-11.9515
▁sept	-11.9521
▁kicker	-11.9523
▁characters	-11.9526
rt	-11.9528
hu	-11.956
▁stereos	-11.9579
▁knocks	-11.959
aboo	-11.9591
▁plea	-11.9593
▁fondle	-11.9598
regulate	-11.9599
▁nether	-11.9614
sy	-11.9614
▁ahhah	-11.962
▁terri	-11.9622
▁freed	-11.9626
▁trusting	-11.9628
▁beer	-11.9629
▁hospitals	-11.9632
▁psycholog	-11.9632
alla	-11.9636
ndment	-11.9643
▁offens	-11.9643
▁gangs	-11.9644
▁whir	-11.9647
▁lined	-11.9656
pation	-11.9671
▁employ	-11.9696
▁petals	-11.9709
ett	-11.971
lement	-11.972
right	-11.9721
▁hah	-11.9726
▁penn	-11.973
▁disrespect	-11.974
▁enforc	-11.9752
▁equat	-11.9768
izer	-11.977
ollow	-11.9781
xed	-11.9781
umble	-11.9792
▁civilis	-11.9795
▁motivat	-11.9798
▁doubles	-11.9811
canned	-11.9814
erm	-11.9819
▁bounder	-11.9819
▁net	-11.9823
▁mondays	-11.9825
ulate	-11.9826
▁alf	-11.9828
unned	-11.9836
tch	-11.9839
iety	-11.9841
▁opportun	-11.9843
ade	-11.9848
▁flea	-11.9852
▁imagin	-11.9852
▁compose	-11.9853
▁erase	-11.9875
plications	-11.9876
aid	-11.988
eparation	-11.9893
▁listener	-11.9893
▁violen	-11.9899
int	-11.9912
ium	-11.9914
▁inde	-11.9916
gan	-11.9925
rien	-11.9927
sie	-11.9934
▁floren	-11.9935
▁humiliate	-11.9942
▁seren	-11.9949
eeny	-11.9957
▁releas	-11.9958
▁host	-11.9975
izing	-11.9976
▁voi	-11.9978
▁rug	-11.9984
▁mayo	-11.9986
ered	-11.9992
uana	-11.9997
lve	-11.9999
▁twit	-12.0002
pernic	-12.0002
rogatory	-12.0011
▁vest	-12.0011
▁eee	-12.0017
▁imper	-12.002
▁gro	-12.0021
▁eng	-12.0022
▁questioning	-12.0029
▁loy	-12.0035
▁swings	-12.0045
urre	-12.0045
bs	-12.0046
▁keen	-12.0049
ava	-12.0051
are	-12.0052
tle	-12.0055
ang	-12.0058
lling	-12.0062
▁camel	-12.0069
clusive	-12.0077
▁psyche	-12.0092
oise	-12.0095
hit	-12.0095
stles	-12.0096
ore	-12.0101
sub	-12.0103
▁is	-12.0107
cal	-12.011
plicate	-12.0111
asting	-12.0122
▁favors	-12.0138
kerous	-12.0152
▁spear	-12.0159
▁vai	-12.0183
▁kerr	-12.0208
▁conf	-12.0219
▁int	-12.0224
▁hath	-12.023
shed	-12.0234
▁plott	-12.0237
▁latino	-12.0244
▁hog	-12.0254
lco	-12.0256
ville	-12.0259
aring	-12.0273
▁reme	-12.0275
▁tol	-12.028
▁tar	-12.0287
secutions	-12.0292
▁stores	-12.0292
ai	-12.0301
▁joint	-12.0315
▁mischie	-12.0316
▁fasten	-12.0316
▁glu	-12.0328
ction	-12.0332
▁muddl	-12.034
▁ahhhhhhhhhh	-12.0351
axes	-12.0357
▁pant	-12.0358
▁simpl	-12.0372
ute	-12.0374
ain	-12.0381
mmy	-12.0382
backs	-12.0383
▁bigot	-12.0397
▁conserve	-12.04
mitten	-12.0408
spheres	-12.0416
▁sitter	-12.0417
▁favorites	-12.0423
▁exer	-12.0431
▁agrees	-12.0435
▁rev	-12.0444
rice	-12.0445
pha	-12.0453
▁harl	-12.0457
▁uppi	-12.0469
▁rever	-12.0477
▁fascinate	-12.049
▁fours	-12.0492
elves	-12.05
evel	-12.0511
▁fift	-12.0512
▁tes	-12.0517
▁mil	-12.0523
▁supervise	-12.0525
pl	-12.0528
uag	-12.0529
▁eccle	-12.0532
ena	-12.0546
immers	-12.0547
osity	-12.0556
▁toad	-12.0558
▁steals	-12.0591
nah	-12.0592
▁fools	-12.06
▁sy	-12.0601
roll	-12.0601
bat	-12.0612
heh	-12.0625
ced	-12.0631
▁op	-12.0638
wy	-12.0658
▁flo	-12.066
icity	-12.066
▁cheeri	-12.0661
▁accur	-12.0693
tips	-12.0694
▁essen	-12.0701
▁fac	-12.0705
ace	-12.071
▁scr	-12.0712
▁mistakes	-12.0725
▁pasa	-12.0727
iffe	-12.0728
▁incen	-12.073
ix	-12.0736
▁bru	-12.0738
▁diam	-12.0743
▁occasional	-12.0752
▁din	-12.0754
▁humane	-12.0765
ominated	-12.0778
▁stoke	-12.078
▁hiphop	-12.0783
▁respectful	-12.0784
▁capal	-12.083
robbing	-12.0845
▁painte	-12.0864
inging	-12.0869
▁jac	-12.0871
lts	-12.0882
rita	-12.0887
yca	-12.089
▁elevat	-12.0892
▁quarte	-12.0899
ures	-12.0902
▁distribute	-12.0914
▁realizes	-12.0917
▁phenomen	-12.0923
rid	-12.0925
apping	-12.0955
urr	-12.0957
▁hos	-12.0958
▁dans	-12.0972
enna	-12.0976
otted	-12.0977
▁offers	-12.098
▁worshippe	-12.1011
ently	-12.1028
▁stun	-12.1048
▁differences	-12.1049
rivi	-12.1054
urgeon	-12.1061
yl	-12.1062
▁jas	-12.1082
store	-12.1082
▁jud	-12.1088
▁plaything	-12.1105
rash	-12.1122
▁cherr	-12.1132
sted	-12.1135
▁tract	-12.1135
▁fil	-12.1138
▁neutralize	-12.1148
ives	-12.1151
▁heroin	-12.1166
hh	-12.1179
navy	-12.1186
▁reli	-12.1195
▁bomber	-12.1196
▁clar	-12.1204
lapping	-12.1218
ast	-12.122
▁insta	-12.1232
azz	-12.1233
pay	-12.1239
▁rube	-12.124
tting	-12.1253
▁evolve	-12.126
▁vin	-12.1273
ahahah	-12.1279
▁malt	-12.1294
atl	-12.1301
fort	-12.1315
▁supremacis	-12.1326
▁ag	-12.1333
▁spl	-12.1346
▁eva	-12.1356
▁hav	-12.1367
using	-12.1374
noun	-12.1375
action	-12.1387
usy	-12.1389
ahahh	-12.1397
▁wand	-12.1402
▁wastin	-12.1405
zag	-12.1406
▁waaaaa	-12.1412
ost	-12.1415
▁wrapp	-12.1425
▁energ	-12.1433
▁plac	-12.1437
lame	-12.1449
▁flap	-12.1459
oom	-12.1481
▁lync	-12.1495
▁hil	-12.1518
▁rhythmic	-12.1519
▁smoker	-12.1524
run	-12.1537
tar	-12.1547
▁hays	-12.155
▁will	-12.159
tory	-12.159
eft	-12.1591
▁scuff	-12.1598
▁juggle	-12.1599
▁len	-12.1603
▁cho	-12.1606
mong	-12.1608
zer	-12.1624
▁cavi	-12.1629
orne	-12.1648
rite	-12.1653
▁tats	-12.1655
fined	-12.1657
lch	-12.1659
rdon	-12.1673
soph	-12.171
unk	-12.171
for	-12.1718
sistance	-12.174
uri	-12.1743
ab	-12.1745
naval	-12.1782
▁tor	-12.1784
▁num	-12.1786
ignified	-12.1802
▁democra	-12.181
▁spar	-12.1813
▁heleo	-12.1815
ishy	-12.1817
▁thth	-12.182
lasses	-12.1822
hining	-12.1824
loy	-12.1827
▁summ	-12.1831
va	-12.1837
▁quits	-12.1839
sture	-12.184
ear	-12.1842
▁ji	-12.1845
▁advers	-12.1855
▁juggl	-12.1856
ovey	-12.1877
▁formula	-12.1878
person	-12.1878
eback	-12.1882
van	-12.1892
tra	-12.1903
▁auntie	-12.1915
▁rein	-12.194
▁were	-12.1943
therm	-12.1944
tress	-12.197
lit	-12.1982
ombs	-12.1987
ren	-12.1987
gled	-12.1998
ssing	-12.2018
ua	-12.2024
▁hydr	-12.2039
ond	-12.2047
air	-12.2047
▁ignoran	-12.2052
practic	-12.2065
izzle	-12.2066
▁devastat	-12.2072
▁lugg	-12.2077
ahoohoohoo	-12.2078
rting	-12.2079
lations	-12.2086
iss	-12.2103
zzo	-12.2128
eep	-12.2128
bet	-12.2132
▁munch	-12.2156
▁ida	-12.2185
uddy	-12.2197
▁ordinat	-12.2197
disturbed	-12.222
▁stepp	-12.2228
▁vit	-12.223
▁phenomeno	-12.2231
cking	-12.2234
ph	-12.2239
▁twin	-12.2243
▁atta	-12.2243
ok	-12.2249
ikes	-12.2254
▁goo	-12.2254
▁backed	-12.2271
liness	-12.2278
gged	-12.2279
sher	-12.2282
▁tractor	-12.2283
▁dedicat	-12.2287
ato	-12.2289
teran	-12.2295
nine	-12.2302
soir	-12.2325
▁ros	-12.2333
▁doubts	-12.2341
▁incl	-12.2352
▁finisher	-12.2355
▁clo	-12.2364
▁measl	-12.2367
stocked	-12.2368
sco	-12.237
▁concentrat	-12.2372
▁vari	-12.2378
▁stem	-12.239
▁founder	-12.2394
▁broo	-12.242
dilla	-12.2432
alter	-12.2446
▁permitt	-12.245
▁cong	-12.2452
▁chur	-12.2453
ttering	-12.2475
▁interrogati	-12.2475
▁vel	-12.2482
ripping	-12.2485
▁stru	-12.2503
▁cad	-12.2523
▁wei	-12.2524
lore	-12.2528
vere	-12.254
erated	-12.2547
▁blues	-12.2548
rang	-12.255
▁laurens	-12.2553
ire	-12.2559
▁blonde	-12.2566
igible	-12.2592
raining	-12.2595
chu	-12.262
▁pon	-12.2626
agan	-12.2626
arley	-12.2632
etty	-12.2636
eh	-12.2639
▁doze	-12.2641
▁memori	-12.2652
blime	-12.2658
andy	-12.2661
nuck	-12.2666
enators	-12.2668
ohs	-12.2671
llow	-12.2682
doodles	-12.2692
▁neutraliz	-12.2694
▁smiths	-12.2698
unts	-12.2704
▁dens	-12.2719
ccent	-12.2724
▁spi	-12.2743
▁lea	-12.275
▁interviewe	-12.275
reaking	-12.2753
▁decorat	-12.2769
simil	-12.2789
▁waxe	-12.2796
urch	-12.2808
sex	-12.282
▁schem	-12.2826
▁timeout	-12.2837
▁tiggerifi	-12.2841
rageous	-12.2845
mate	-12.2851
references	-12.2854
oi	-12.2889
▁succu	-12.2901
▁bapti	-12.2909
▁slop	-12.2912
▁fif	-12.2922
ich	-12.2926
ilia	-12.2932
bag	-12.2936
uro	-12.2936
oaning	-12.2944
▁expects	-12.2953
▁him	-12.2955
olds	-12.2956
▁canc	-12.2969
mies	-12.297
kaboo	-12.2975
▁avi	-12.2976
tta	-12.2992
mbo	-12.3
ret	-12.3003
racking	-12.3015
love	-12.3031
▁scu	-12.3034
linch	-12.3047
wee	-12.3049
lem	-12.3057
▁seed	-12.3057
itor	-12.3061
▁overdra	-12.3062
eological	-12.3068
▁brea	-12.3074
▁an	-12.3076
des	-12.3083
▁preserv	-12.3101
uties	-12.3103
▁dictate	-12.3103
▁eccl	-12.3118
loud	-12.3137
pla	-12.3155
naut	-12.3165
▁fewe	-12.3166
▁negotiat	-12.3173
▁clothe	-12.3178
mid	-12.3178
▁tilt	-12.319
iful	-12.3197
comb	-12.3209
▁simpson	-12.3214
eas	-12.3222
▁upp	-12.3224
▁linen	-12.3225
▁ron	-12.3225
ilation	-12.3238
oid	-12.3239
roughly	-12.3252
rel	-12.3257
egan	-12.3262
▁explod	-12.3276
qua	-12.328
▁ids	-12.3293
▁stat	-12.3295
seman	-12.33
hen	-12.332
▁mari	-12.3327
inger	-12.3328
auss	-12.3332
rley	-12.3334
eper	-12.3343
▁roost	-12.3346
▁experienc	-12.335
▁stal	-12.3351
▁blar	-12.3373
hhhhhhhhhh	-12.3374
ky	-12.3387
unny	-12.3388
▁eu	-12.3392
▁anybodys	-12.3399
▁pontif	-12.341
enders	-12.3413
heque	-12.3417
▁rec	-12.3423
▁stalk	-12.3436
▁ehh	-12.344
bbed	-12.3442
con	-12.3458
eat	-12.3464
napped	-12.3474
ashed	-12.3478
▁mole	-12.3488
tius	-12.3498
▁grub	-12.3536
▁hydran	-12.3567
▁loan	-12.3584
ep	-12.3601
obs	-12.361
cated	-12.3613
vamos	-12.3614
▁sphere	-12.3657
nch	-12.3657
ior	-12.3674
erfe	-12.3677
teenth	-12.3684
mi	-12.3693
xes	-12.3698
eating	-12.3699
▁cred	-12.3704
▁jeopardiz	-12.3733
dont	-12.3741
▁handfu	-12.3743
▁observa	-12.3747
▁assembl	-12.375
row	-12.3751
▁dock	-12.3757
▁caring	-12.3758
▁ric	-12.3769
ori	-12.3773
corporate	-12.3803
thats	-12.3803
ambo	-12.3807
▁hur	-12.3817
▁combin	-12.3837
ctive	-12.3838
▁separat	-12.3866
hmm	-12.3877
wich	-12.3885
▁ent	-12.3886
▁thro	-12.3893
tock	-12.3895
▁carve	-12.3896
mentor	-12.3917
utters	-12.3917
home	-12.3928
mmuniti	-12.3929
azin	-12.393
iters	-12.3933
conquer	-12.395
ex	-12.3962
oration	-12.3971
uveni	-12.3971
hey	-12.3981
ldenses	-12.3983
versal	-12.3989
sso	-12.4003
vion	-12.4031
youre	-12.4039
rett	-12.4039
chem	-12.4044
mans	-12.4055
▁unemploy	-12.4059
▁admir	-12.4066
centr	-12.4067
hot	-12.4072
bi	-12.4086
▁reconn	-12.4097
▁fra	-12.4116
▁apologiz	-12.413
orious	-12.4136
▁enforce	-12.4144
▁inha	-12.4152
ron	-12.4152
▁listens	-12.4158
▁considerabl	-12.416
▁inqui	-12.4163
▁cancell	-12.4196
▁hare	-12.4218
▁mandat	-12.4218
▁ves	-12.423
ouldve	-12.423
▁joys	-12.4236
▁perc	-12.4254
▁funk	-12.4261
ov	-12.4266
▁wrestl	-12.4283
uddling	-12.4295
▁kee	-12.4297
ouse	-12.4303
mental	-12.4304
lent	-12.4306
▁construct	-12.433
ilman	-12.4337
▁compel	-12.4341
▁rig	-12.4347
dge	-12.435
▁kl	-12.4365
lim	-12.4397
▁planes	-12.442
aries	-12.4421
impleton	-12.4433
iggy	-12.4435
rip	-12.4436
minated	-12.4437
▁styl	-12.4438
▁outrun	-12.4477
see	-12.4509
sse	-12.4525
ality	-12.456
mit	-12.456
▁organis	-12.4568
nguard	-12.4576
▁tori	-12.458
mp	-12.4586
▁seas	-12.4593
solution	-12.4615
▁hypocri	-12.4631
rked	-12.4636
epha	-12.4643
▁disintegrat	-12.4647
▁tempera	-12.4658
etic	-12.4663
bum	-12.467
▁interfere	-12.4687
▁penetrat	-12.4708
▁tortur	-12.4728
▁lett	-12.4739
▁temp	-12.4749
▁dam	-12.4775
▁wrinkl	-12.4779
gue	-12.4825
▁waaa	-12.4837
paragu	-12.484
abe	-12.4872
▁are	-12.4875
som	-12.4879
rrow	-12.4882
▁econom	-12.4885
ooh	-12.4897
actor	-12.4898
ipping	-12.4903
cks	-12.491
rue	-12.4922
nant	-12.4922
▁stamp	-12.4931
tric	-12.4934
▁viva	-12.4939
ament	-12.4947
moving	-12.4947
kans	-12.4951
els	-12.4969
▁inte	-12.4987
▁fighter	-12.4998
▁mel	-12.5004
vival	-12.5017
▁cand	-12.5032
ales	-12.5042
▁ic	-12.5047
▁behav	-12.5053
▁nurs	-12.5061
▁ach	-12.5066
now	-12.5071
nitari	-12.5072
▁bal	-12.5072
▁shab	-12.5081
ik	-12.5082
rus	-12.5089
ides	-12.5094
▁glor	-12.512
▁fam	-12.5134
▁colo	-12.5135
▁trou	-12.514
▁downs	-12.5146
▁nee	-12.5152
▁jew	-12.5168
▁bb	-12.5172
anall	-12.5181
▁integrate	-12.5181
would	-12.5186
mand	-12.5187
▁magne	-12.5188
tigger	-12.5192
▁edi	-12.5206
pout	-12.522
praying	-12.5236
ben	-12.5239
▁roos	-12.5255
tiny	-12.5257
hear	-12.5263
oul	-12.5267
sts	-12.5275
▁curv	-12.5308
too	-12.5345
tball	-12.5345
ffe	-12.536
orner	-12.5373
quel	-12.5375
yd	-12.5408
▁communicat	-12.5418
▁puzzl	-12.5429
▁buen	-12.5455
▁bre	-12.5471
▁yappin	-12.5471
nes	-12.5499
▁superst	-12.5499
▁tyran	-12.5501
▁don	-12.5511
▁justifi	-12.5516
astern	-12.5526
atto	-12.5541
▁organiz	-12.5583
▁lam	-12.5583
look	-12.5593
akes	-12.5625
▁maim	-12.5628
atro	-12.5629
gent	-12.5638
▁bec	-12.564
▁mello	-12.565
arling	-12.5655
mbling	-12.5659
arned	-12.5672
▁remiss	-12.5675
▁nomina	-12.5698
▁thermo	-12.5703
anity	-12.5718
wear	-12.5718
lay	-12.5722
phasi	-12.5726
▁fittin	-12.5742
ones	-12.5747
sby	-12.5747
▁his	-12.575
wens	-12.5758
cest	-12.5759
▁braver	-12.5761
lted	-12.5764
▁goods	-12.5769
▁lack	-12.5777
night	-12.5779
▁ind	-12.578
▁ped	-12.5789
▁respir	-12.5792
▁yee	-12.5797
▁angl	-12.5806
umpy	-12.581
▁stor	-12.5822
rot	-12.5823
round	-12.5825
umped	-12.5831
▁smil	-12.5841
▁ohhmmmm	-12.5856
▁squ	-12.5857
ouches	-12.5863
▁psychologi	-12.5866
▁libera	-12.5867
oose	-12.587
dying	-12.5887
sp	-12.5891
mary	-12.5901
▁simul	-12.5902
▁finishe	-12.5918
▁rebel	-12.5922
igger	-12.5923
▁invitin	-12.5925
▁fights	-12.5965
▁roamin	-12.5998
▁epi	-12.6011
▁flop	-12.6012
▁clan	-12.6017
▁prof	-12.6027
▁recept	-12.6041
▁travell	-12.6055
acts	-12.6055
come	-12.6056
eri	-12.6061
▁sincere	-12.6069
itty	-12.6085
sey	-12.609
virtual	-12.6091
nest	-12.6095
ff	-12.6104
cell	-12.6109
ways	-12.6114
▁klu	-12.6116
oking	-12.6135
ask	-12.615
▁juic	-12.6175
▁lis	-12.6181
▁technolog	-12.6185
gi	-12.6192
sia	-12.6193
▁mic	-12.6193
iggling	-12.6203
▁aposta	-12.6215
rbil	-12.6229
lusion	-12.6239
▁lackin	-12.6239
polo	-12.6244
kipper	-12.6259
erson	-12.6266
aps	-12.6282
rapa	-12.6286
▁disrupti	-12.6292
▁gli	-12.6302
▁dun	-12.6303
▁sorr	-12.6326
lets	-12.6345
▁schedul	-12.6355
▁leak	-12.6362
olo	-12.6368
reserved	-12.6395
mmm	-12.6395
▁raisin	-12.6401
chi	-12.6404
gers	-12.641
iding	-12.6414
itable	-12.6414
▁barba	-12.6423
▁debu	-12.6431
rvo	-12.6431
cher	-12.6447
▁reck	-12.645
▁pisto	-12.6454
▁shini	-12.6466
▁jing	-12.6467
fine	-12.6482
leading	-12.6497
▁pessimist	-12.6497
hhh	-12.6506
bows	-12.6512
ound	-12.6519
inland	-12.6531
▁writ	-12.6532
▁renova	-12.6535
ttling	-12.6539
eu	-12.6544
care	-12.6544
code	-12.6548
▁primat	-12.6549
uit	-12.655
keepers	-12.6561
▁alma	-12.6569
▁profi	-12.6573
tance	-12.6574
fest	-12.6575
cum	-12.6589
▁bricks	-12.6592
▁riche	-12.6592
dress	-12.6599
▁slipper	-12.6602
icit	-12.6608
bu	-12.6617
▁clas	-12.6622
ailing	-12.6624
▁replac	-12.6624
▁lingeri	-12.6632
▁impl	-12.6634
owling	-12.6637
eebie	-12.6649
▁sexi	-12.6649
dial	-12.6649
▁ism	-12.665
ddled	-12.6655
ceptor	-12.667
workers	-12.6675
gonz	-12.6683
▁lyn	-12.6684
▁sla	-12.669
huh	-12.6692
here	-12.6692
rrrrrrr	-12.6695
▁wha	-12.6698
doubted	-12.6702
remember	-12.6706
▁stealin	-12.6711
idi	-12.672
▁specializ	-12.6729
ehaving	-12.6739
▁probab	-12.6739
▁gesta	-12.6746
mitted	-12.6748
ovi	-12.6752
rv	-12.6752
▁curt	-12.6757
nting	-12.6759
▁chir	-12.6788
ndon	-12.6794
tained	-12.6798
▁tran	-12.68
icky	-12.6802
▁fest	-12.6808
▁tab	-12.6839
▁startle	-12.6843
bell	-12.6844
▁hal	-12.6844
porated	-12.6856
▁pools	-12.6857
▁cra	-12.6858
hills	-12.686
hello	-12.6863
▁commit	-12.6867
listen	-12.6873
whoa	-12.6878
▁mathematic	-12.6889
vat	-12.6892
▁logical	-12.6899
logy	-12.6936
power	-12.6942
▁chopp	-12.6947
ops	-12.6947
lope	-12.6948
bomb	-12.6961
stay	-12.6963
today	-12.6964
▁measur	-12.6965
▁stretche	-12.6967
ilities	-12.6977
▁rider	-12.6981
ike	-12.6985
aaa	-12.7001
▁dawdlin	-12.7007
▁ceph	-12.7011
▁yu	-12.7025
▁upt	-12.7029
bring	-12.7031
ru	-12.7036
ights	-12.7037
licit	-12.7042
takers	-12.7046
tual	-12.7049
▁dem	-12.7049
▁preachin	-12.7056
▁excuses	-12.7058
jack	-12.7078
chest	-12.7089
tali	-12.7093
daisy	-12.7097
cap	-12.7109
collect	-12.7115
tomorrow	-12.7127
▁cheatin	-12.7127
▁flags	-12.7127
▁madde	-12.7135
story	-12.7137
▁battl	-12.7142
poke	-12.7144
next	-12.7156
▁bella	-12.7157
▁affi	-12.7163
▁orang	-12.7166
▁canni	-12.7169
ims	-12.7176
arily	-12.7178
posi	-12.7181
▁amm	-12.7186
nished	-12.7187
▁mam	-12.7187
▁gigantic	-12.7195
jector	-12.7197
▁irri	-12.7203
tical	-12.7208
may	-12.7224
ades	-12.7246
▁impo	-12.7249
wanted	-12.7265
▁acc	-12.7269
▁neutr	-12.7271
▁relativ	-12.7288
ional	-12.7289
picks	-12.729
ants	-12.73
uncle	-12.7301
aiting	-12.7302
different	-12.7305
▁generat	-12.7311
daddy	-12.7314
lead	-12.7316
pointing	-12.7318
ght	-12.7324
▁specta	-12.7329
▁defin	-12.7331
nobody	-12.7334
almost	-12.7334
▁photograph	-12.7336
christmas	-12.7339
mount	-12.7343
cream	-12.7343
▁elevate	-12.7346
▁connecti	-12.7346
making	-12.7348
uary	-12.7349
▁custo	-12.7352
luck	-12.7354
▁selfi	-12.7354
trouble	-12.7357
ends	-12.7363
izzl	-12.737
▁compet	-12.7373
eograph	-12.7377
generate	-12.7377
frank	-12.738
business	-12.7389
jo	-12.7391
ires	-12.7393
rand	-12.7396
▁politic	-12.7398
egie	-12.7399
▁subscri	-12.7401
gest	-12.7404
▁your	-12.7405
year	-12.7413
peter	-12.7417
fast	-12.7418
five	-12.7419
opter	-12.7421
phone	-12.7426
▁connectin	-12.7428
joshua	-12.7438
quarter	-12.7444
hanging	-12.7449
moral	-12.7455
catch	-12.7456
xis	-12.7459
killer	-12.7462
secret	-12.7462
▁sav	-12.7463
pic	-12.7466
▁rea	-12.7467
whos	-12.7469
damn	-12.7471
form	-12.7472
vent	-12.7479
▁tee	-12.7483
ounce	-12.7483
▁homicid	-12.7484
wrote	-12.7486
build	-12.7487
ibble	-12.7488
tism	-12.749
nnis	-12.7491
▁glamo	-12.7493
food	-12.7494
million	-12.7494
dead	-12.7495
quiet	-12.7495
era	-12.7496
feet	-12.7498
sity	-12.7499
▁capit	-12.7501
wide	-12.7502
babar	-12.7502
blue	-12.7505
ption	-12.7508
▁itch	-12.7509
general	-12.751
▁describ	-12.7511
smith	-12.7514
▁pleas	-12.7515
middle	-12.7515
street	-12.7518
teacher	-12.7519
cussion	-12.752
acked	-12.7522
gram	-12.7527
letter	-12.7528
musketeers	-12.7531
wife	-12.7532
drop	-12.7533
worm	-12.7534
plethora	-12.7537
nathan	-12.7538
frost	-12.7538
▁enc	-12.7542
tract	-12.7543
ais	-12.7545
rival	-12.7546
laughter	-12.7547
▁incorr	-12.7548
forward	-12.7548
college	-12.755
gotten	-12.7551
shilling	-12.7551
finish	-12.7553
▁architect	-12.7555
▁constru	-12.7556
sinaitic	-12.7556
choice	-12.7558
quickly	-12.7559
ulent	-12.756
▁declar	-12.7561
dragg	-12.7561
typical	-12.7564
waaa	-12.7567
▁descendin	-12.7571
▁rattl	-12.7573
government	-12.7574
bonjour	-12.7575
flying	-12.7575
lovin	-12.7576
claude	-12.7577
ordinary	-12.7577
▁oblig	-12.7583
ention	-12.7583
sterly	-12.7585
complete	-12.7585
filled	-12.7585
afternoon	-12.7586
level	-12.7588
carry	-12.7588
broken	-12.7588
footing	-12.7588
grade	-12.7589
prospect	-12.7589
joe	-12.7589
fellow	-12.759
necessary	-12.759
space	-12.7591
tray	-12.7591
tense	-12.7595
historical	-12.7597
strong	-12.7597
butter	-12.7598
hundred	-12.7598
famous	-12.7599
▁johan	-12.7601
trust	-12.7602
evolution	-12.7605
fortune	-12.7605
quirt	-12.7605
trap	-12.7607
account	-12.761
disappear	-12.7611
friendly	-12.7611
conceiv	-12.7611
rebecca	-12.7612
▁exercis	-12.7612
incredible	-12.7613
▁chang	-12.7614
biblical	-12.7615
rule	-12.7615
violet	-12.7616
duty	-12.7618
christianity	-12.7618
fierce	-12.7619
cut	-12.762
officer	-12.762
popular	-12.7621
noticed	-12.7621
fell	-12.7621
coughs	-12.7622
period	-12.7622
market	-12.7622
grateful	-12.7622
indian	-12.7623
ndable	-12.7624
month	-12.7624
consider	-12.7624
bumps	-12.7624
refu	-12.7624
pilot	-12.7626
apologetic	-12.7626
belief	-12.7626
honour	-12.7627
bolt	-12.7627
associate	-12.7627
hazard	-12.7627
▁abet	-12.7629
mail	-12.763
discovered	-12.763
forces	-12.763
ested	-12.7631
prepared	-12.7631
proposal	-12.7631
guidance	-12.7632
process	-12.7632
forbidden	-12.7633
twixel	-12.7633
bouncing	-12.7634
ladder	-12.7634
satisfact	-12.7634
grown	-12.7634
planned	-12.7635
warning	-12.7635
feeling	-12.7636
payment	-12.7636
empt	-12.7636
destruction	-12.7636
flower	-12.7637
rocket	-12.7637
violence	-12.7638
cousin	-12.7638
juice	-12.7639
judged	-12.764
aimed	-12.764
cycle	-12.764
renowned	-12.7641
cleaner	-12.7643
related	-12.7643
under	-12.7643
junction	-12.7644
panic	-12.7644
legal	-12.7645
armed	-12.7645
lemon	-12.7646
author	-12.7647
final	-12.7647
▁tiggeris	-12.7648
buying	-12.7649
mind	-12.765
bodies	-12.765
adult	-12.7651
valuable	-12.7651
folk	-12.7651
fallen	-12.7652
throne	-12.7652
nuclear	-12.7653
script	-12.7653
buster	-12.7655
target	-12.7655
anchor	-12.7655
tried	-12.7656
nacle	-12.7656
driver	-12.7656
destiny	-12.7656
hiding	-12.7656
▁superhe	-12.7656
check	-12.7657
defined	-12.7657
machine	-12.7657
familiar	-12.7657
▁simp	-12.7658
springs	-12.7658
repair	-12.7658
trophy	-12.7659
passing	-12.7659
dozen	-12.7659
educated	-12.766
▁claud	-12.7661
gra	-12.7661
▁vile	-12.7662
contractors	-12.7663
drinking	-12.7663
weight	-12.7664
length	-12.7664
faithful	-12.7664
blaze	-12.7664
circle	-12.7665
leaders	-12.7665
shade	-12.7665
beth	-12.7665
altitude	-12.7666
load	-12.7666
zip	-12.7666
actions	-12.7668
decided	-12.7668
patient	-12.767
shop	-12.767
sixth	-12.767
service	-12.767
published	-12.7671
phrase	-12.7671
smelling	-12.7671
zero	-12.7671
closed	-12.7673
graceful	-12.7673
recogniz	-12.7674
designed	-12.7674
blind	-12.7676
partner	-12.7681
wearing	-12.7681
responsible	-12.7681
enemy	-12.7681
confident	-12.7681
souffl	-12.7681
makin	-12.7682
ractor	-12.7683
species	-12.7683
orbit	-12.7684
steep	-12.7686
biotic	-12.7686
▁scoff	-12.7687
translated	-12.7689
identified	-12.769
noc	-12.769
spin	-12.7693
▁fritt	-12.7693
physical	-12.7694
grain	-12.7694
economic	-12.7694
crews	-12.7695
fore	-12.7695
tube	-12.7696
▁plumb	-12.7696
sensitive	-12.7697
blast	-12.7698
▁disa	-12.7699
regardless	-12.7699
▁result	-12.77
tiggers	-12.77
hoho	-12.77
growth	-12.7701
company	-12.7701
moon	-12.7701
bear	-12.7701
rator	-12.7702
boxes	-12.7703
nature	-12.7703
coins	-12.7704
player	-12.7706
pip	-12.7707
harmony	-12.7708
tropic	-12.771
introduce	-12.7711
roots	-12.7712
axe	-12.7712
magnificent	-12.7714
temp	-12.7715
runner	-12.7715
▁souvenir	-12.7715
▁occur	-12.7716
▁remark	-12.7716
freaking	-12.7717
▁continent	-12.7718
▁fragment	-12.7718
pipe	-12.7718
▁variation	-12.7718
iev	-12.7719
seconds	-12.772
vocation	-12.772
importance	-12.7721
buckle	-12.7722
▁classmate	-12.7723
▁certif	-12.7724
dreaming	-12.7725
▁complainin	-12.7726
▁parchment	-12.7727
▁handicap	-12.773
shoe	-12.773
▁bloke	-12.773
slide	-12.773
wash	-12.773
pile	-12.7731
advert	-12.7732
arranged	-12.7732
▁tootin	-12.7733
shape	-12.7734
▁lizard	-12.7734
▁politician	-12.7734
▁porcupine	-12.7735
presence	-12.7735
▁nogo	-12.7735
worms	-12.7737
▁peasant	-12.7737
▁drag	-12.7737
chain	-12.7738
▁orga	-12.7738
▁rhino	-12.7739
▁relation	-12.774
▁sym	-12.774
▁bodyguard	-12.7741
horn	-12.7744
birds	-12.7744
▁gibbon	-12.7745
scale	-12.7745
exit	-12.7745
when	-12.7746
dear	-12.7746
pose	-12.7746
▁tum	-12.7747
▁colleg	-12.7748
activate	-12.7749
frog	-12.775
mona	-12.7752
written	-12.7752
biz	-12.7753
scratch	-12.7754
av	-12.7755
monsieur	-12.7758
▁suppos	-12.7762
midge	-12.7763
arach	-12.7766
wall	-12.7767
▁chambe	-12.7768
▁arrow	-12.7769
▁grownup	-12.7769
▁hamst	-12.7769
editor	-12.777
hour	-12.777
bout	-12.7773
▁perpet	-12.7773
egian	-12.7773
rain	-12.7774
ervice	-12.7775
psst	-12.7776
assert	-12.7777
▁exhale	-12.7781
communicate	-12.7783
phon	-12.7783
discipline	-12.7784
value	-12.7785
maid	-12.7785
significan	-12.7785
riff	-12.7785
affirm	-12.7785
▁manipulat	-12.7785
osphere	-12.7786
▁motive	-12.7787
▁sauc	-12.7787
▁ahhhhhhhhh	-12.7787
▁insigni	-12.779
▁poem	-12.779
▁engag	-12.779
group	-12.7791
bar	-12.7792
▁spiri	-12.7793
toot	-12.7793
▁offe	-12.7794
due	-12.7795
▁academi	-12.7796
▁vamp	-12.7796
penetra	-12.7799
▁seiz	-12.7799
▁psycho	-12.78
flowing	-12.7801
▁aqua	-12.7802
▁voic	-12.7803
▁structur	-12.7804
▁treasur	-12.7804
▁phenomena	-12.7804
▁physi	-12.7805
▁doctrin	-12.7805
▁bea	-12.7805
▁athlet	-12.7807
lace	-12.7807
▁exhal	-12.7809
statement	-12.7809
▁condo	-12.781
lution	-12.781
▁signif	-12.781
▁nigh	-12.7812
arch	-12.7812
▁invent	-12.7812
zoo	-12.7813
wald	-12.7813
▁bearb	-12.7813
▁unpa	-12.7814
jock	-12.7815
rolling	-12.7815
▁affect	-12.7815
▁merge	-12.7816
quarters	-12.7816
east	-12.7816
▁sculptur	-12.7817
▁nonsens	-12.7817
▁frustrat	-12.7817
▁revolt	-12.7817
ighs	-12.7817
▁overwhelm	-12.7818
▁giggle	-12.782
▁trickortreat	-12.782
▁murmur	-12.7821
▁squeez	-12.7821
▁disciplin	-12.7821
▁contr	-12.7821
magneti	-12.7821
▁coffe	-12.7822
▁pierc	-12.7822
graph	-12.7822
with	-12.7822
▁ttig	-12.7823
▁volum	-12.7823
▁shush	-12.7826
▁volcan	-12.7827
▁manufactur	-12.7827
▁oppos	-12.7827
▁jamai	-12.7827
▁undermin	-12.7829
▁librari	-12.783
will	-12.783
▁paranoi	-12.7831
▁responsibl	-12.7832
▁contaminat	-12.7832
▁congratulat	-12.7832
▁autonom	-12.7832
▁peac	-12.7832
▁theatr	-12.7833
▁paleograph	-12.7833
▁saxon	-12.7833
▁obli	-12.7833
storm	-12.7834
▁qualifie	-12.7834
▁instruct	-12.7835
▁raspberr	-12.7835
▁arrang	-12.7835
▁conspirac	-12.7835
▁incompeten	-12.7835
▁acquire	-12.7836
▁religio	-12.7836
▁metaph	-12.7836
tan	-12.7836
▁socio	-12.7837
▁nois	-12.7838
▁dismiss	-12.7838
▁laborator	-12.7838
▁brothe	-12.7839
bilities	-12.7839
▁temporar	-12.7839
▁bbb	-12.7839
▁spunk	-12.784
sraeli	-12.784
wigglin	-12.7841
▁aggressi	-12.7841
▁frequent	-12.7841
▁mixi	-12.7842
▁ordain	-12.7842
▁gregor	-12.7842
▁prompt	-12.7843
▁responsibilit	-12.7843
▁abundan	-12.7843
▁thorough	-12.7843
pression	-12.7843
▁sacre	-12.7843
▁fortunate	-12.7843
▁froze	-12.7844
▁securit	-12.7844
▁subconscious	-12.7844
cycl	-12.7844
god	-12.7844
▁teenage	-12.7845
▁condense	-12.7845
▁apparent	-12.7845
▁paloma	-12.7846
raveled	-12.7846
killers	-12.7846
▁pronoun	-12.7847
▁definite	-12.7847
roach	-12.7847
▁cocktai	-12.7847
▁unhapp	-12.7848
▁butterfl	-12.7848
▁analy	-12.7848
▁colomb	-12.7848
▁alioop	-12.7849
▁flatten	-12.7849
hibit	-12.7849
▁benefi	-12.7849
▁potentia	-12.7849
mistak	-12.7849
ominations	-12.785
fuckin	-12.785
egitima	-12.7851
▁disapp	-12.7851
▁lump	-12.7852
▁smug	-12.7852
▁astrobiolog	-12.7852
▁carniv	-12.7852
▁controversi	-12.7853
▁executi	-12.7853
▁orgy	-12.7853
▁attach	-12.7853
▁punchin	-12.7853
ordinate	-12.7853
▁pacifi	-12.7853
▁acceler	-12.7854
ahaaa	-12.7854
▁conservati	-12.7854
ndistinct	-12.7854
▁elegan	-12.7854
arefre	-12.7854
▁stri	-12.7854
mpressive	-12.7855
▁familia	-12.7855
▁olympi	-12.7855
▁weddin	-12.7855
▁invincib	-12.7855
xygen	-12.7855
incarnation	-12.7855
volved	-12.7855
▁impossib	-12.7855
neckl	-12.7856
▁monstro	-12.7856
▁nucle	-12.7856
▁sculpt	-12.7856
pulsion	-12.7856
▁congregat	-12.7856
▁inaugurat	-12.7856
▁brrr	-12.7856
rhythmi	-12.7856
▁constitut	-12.7856
▁bernard	-12.7856
▁universit	-12.7857
▁hummin	-12.7857
▁candida	-12.7857
▁exhausti	-12.7857
▁microph	-12.7857
▁accompli	-12.7857
▁ridicul	-12.7857
izard	-12.7857
gregation	-12.7857
▁metallurg	-12.7857
▁suspens	-12.7857
ccolo	-12.7857
▁refle	-12.7857
escend	-12.7857
anddaughter	-12.7858
▁rebec	-12.7858
▁transfer	-12.7858
▁splend	-12.7858
▁conspir	-12.7858
celerate	-12.7858
▁republic	-12.7858
▁volunt	-12.7858
▁authorit	-12.7858
▁intellect	-12.7858
uggles	-12.7858
jumpin	-12.7858
▁anonym	-12.7858
conspira	-12.7858
eidieidi	-12.7858
▁administ	-12.7858
nononononono	-12.7858
alalala	-12.7858
odoodoo	-12.7858
etereter	-12.7858
▁subversi	-12.7858
ttttttt	-12.7858
rrection	-12.7858
predict	-12.7858
flop	-12.7858
▁musket	-12.7859
ocula	-12.7859
▁astro	-12.7859
▁fascinatin	-12.7859
▁radiat	-12.7859
nsibilities	-12.7859
ercul	-12.7859
▁contemp	-12.7859
▁harris	-12.7859
▁chlo	-12.786
utionary	-12.786
ddlin	-12.786
▁utili	-12.786
▁japan	-12.786
▁exec	-12.786
ibula	-12.786
▁overpr	-12.786
greatgreat	-12.786
▁narro	-12.786
▁untie	-12.7861
▁terra	-12.7861
▁portug	-12.7861
mobil	-12.7861
manding	-12.7861
▁especial	-12.7862
▁identif	-12.7862
nsored	-12.7862
yjam	-12.7862
▁luxur	-12.7863
▁nephe	-12.7863
▁cooperat	-12.7863
▁legitima	-12.7863
jective	-12.7863
▁differ	-12.7863
amba	-12.7863
▁dyin	-12.7863
▁condescen	-12.7864
ultu	-12.7864
▁islam	-12.7865
▁napol	-12.7865
phine	-12.7865
canism	-12.7866
rophe	-12.7867
▁gloom	-12.7867
▁smokin	-12.7868
hangin	-12.7868
bbly	-12.7868
▁arrg	-12.7868
▁chasin	-12.7868
lutely	-12.7868
utations	-12.7869
wheres	-12.787
roaches	-12.7871
▁compli	-12.7871
graphy	-12.7872
nik	-12.7872
hyla	-12.7872
indig	-12.7872
▁hoho	-12.7872
▁pleth	-12.7873
russel	-12.7873
mpathy	-12.7873
ecess	-12.7873
quisit	-12.7874
crack	-12.7874
▁trumpetin	-12.7874
gnated	-12.7875
uffin	-12.7875
▁noth	-12.7875
smiths	-12.7875
iggly	-12.7875
luc	-12.7875
▁syca	-12.7875
▁rift	-12.7875
▁rhy	-12.7875
▁brrrr	-12.7876
otto	-12.7876
mpler	-12.7877
▁gibb	-12.7877
brand	-12.7877
izin	-12.7878
▁elev	-12.7878
▁incred	-12.7878
jou	-12.7878
▁dominate	-12.7879
▁robe	-12.7879
udent	-12.788
hippus	-12.7881
▁communi	-12.7881
▁dubo	-12.7881
tistical	-12.7881
▁apar	-12.7881
▁runnin	-12.7882
itated	-12.7882
▁congr	-12.7882
wish	-12.7882
▁intro	-12.7882
logist	-12.7884
intellig	-12.7884
olph	-12.7884
▁augu	-12.7885
▁qualit	-12.7885
undant	-12.7885
▁microbe	-12.7885
▁henchm	-12.7885
▁quadr	-12.7885
mush	-12.7885
▁excel	-12.7885
robi	-12.7887
▁hymen	-12.7887
▁dominat	-12.7887
ficial	-12.7888
▁appeti	-12.7889
seif	-12.7889
▁writin	-12.7889
cient	-12.7891
▁conceive	-12.7893
▁bernie	-12.7893
acular	-12.7893
▁intim	-12.7893
▁melodi	-12.7893
▁predic	-12.7893
vac	-12.7894
heyhey	-12.7894
▁grip	-12.7894
▁toda	-12.7894
twix	-12.7894
▁abso	-12.7894
▁cafe	-12.7895
▁ferr	-12.7895
▁embar	-12.7896
ozi	-12.7896
▁caval	-12.7896
ani	-12.7897
▁scram	-12.7897
▁galler	-12.7898
▁isla	-12.7898
▁stuc	-12.7898
worker	-12.7898
ography	-12.7898
▁babysit	-12.7898
tune	-12.7899
▁hollow	-12.7899
▁basti	-12.7899
ixie	-12.7899
▁settin	-12.7901
▁oohoohoo	-12.7902
▁rump	-12.7903
▁decorate	-12.7904
lished	-12.7905
▁embarrassin	-12.7905
onides	-12.7905
icize	-12.7906
▁brillian	-12.7909
▁posse	-12.7909
plash	-12.7909
▁nev	-12.7911
venue	-12.7912
allerg	-12.7912
rbie	-12.7912
▁brace	-12.7913
harves	-12.7913
uire	-12.7915
▁savin	-12.7916
urious	-12.7918
▁iv	-12.7918
▁overdo	-12.7919
▁tech	-12.7919
ggly	-12.792
▁harbo	-12.792
▁figu	-12.7921
▁eventual	-12.7921
ologically	-12.7922
▁titan	-12.7922
cision	-12.7923
aquatic	-12.7923
▁ratio	-12.7923
sounding	-12.7925
▁gib	-12.7925
mira	-12.7925
▁raf	-12.7926
ndia	-12.7927
alists	-12.7927
▁cornel	-12.7928
ohooh	-12.7929
▁mirac	-12.7929
crown	-12.793
correct	-12.793
endorf	-12.793
bron	-12.7931
▁tens	-12.7931
▁whoooaa	-12.7932
▁cuz	-12.7932
avig	-12.7933
▁edu	-12.7934
termination	-12.7935
honest	-12.7936
stopp	-12.7936
howlin	-12.7936
plicated	-12.7937
▁fasci	-12.7937
▁bettin	-12.7937
hontas	-12.7938
▁baba	-12.7938
▁grove	-12.7938
▁unimp	-12.7939
▁inher	-12.7939
▁squa	-12.794
axi	-12.794
▁suff	-12.7942
▁brib	-12.7944
bably	-12.7944
endous	-12.7944
ilian	-12.7945
ouchy	-12.7946
▁patri	-12.7948
▁excu	-12.7949
▁instan	-12.7949
cantan	-12.795
▁hypnotiz	-12.7951
content	-12.7951
▁activate	-12.7952
cit	-12.7952
▁hedge	-12.7954
▁chica	-12.7956
▁resu	-12.7956
scripts	-12.7957
distill	-12.7957
▁trustee	-12.7958
troop	-12.7958
▁boun	-12.796
▁paste	-12.7961
andso	-12.7961
▁stab	-12.7962
chens	-12.7962
stayed	-12.7963
ernet	-12.7963
▁brill	-12.7964
▁irre	-12.7964
hemi	-12.7965
peller	-12.7965
▁alleg	-12.7968
▁disast	-12.7968
▁jak	-12.7969
▁termina	-12.7969
▁preci	-12.797
▁petit	-12.797
icle	-12.7971
▁ahhhh	-12.7971
chael	-12.7974
▁germ	-12.7975
ponent	-12.7976
▁fillin	-12.7977
uism	-12.7978
▁urge	-12.7981
cdonald	-12.7982
cool	-12.7982
▁esca	-12.7982
▁occurre	-12.7983
▁presid	-12.7984
▁ref	-12.7984
▁enchante	-12.7985
▁mul	-12.7985
rivals	-12.7985
itory	-12.7986
▁decre	-12.7986
connect	-12.7987
▁grill	-12.7988
▁devo	-12.7988
nal	-12.7989
▁ev	-12.799
▁perma	-12.7991
▁coughin	-12.7991
bees	-12.7992
flu	-12.7993
ortions	-12.7993
▁archer	-12.7996
iffy	-12.7996
▁fanta	-12.7997
undo	-12.7997
▁jug	-12.7999
inema	-12.8
▁overwr	-12.8
▁diz	-12.8
▁cram	-12.8003
▁remarkabl	-12.8003
▁dix	-12.8005
cones	-12.8008
bama	-12.8008
bric	-12.8009
nzi	-12.8011
choo	-12.8014
illian	-12.8014
nuts	-12.8017
▁audi	-12.8018
▁emp	-12.8019
pendable	-12.8019
lev	-12.802
bite	-12.8022
poly	-12.8023
▁bustin	-12.8024
▁format	-12.8025
col	-12.8025
▁doubl	-12.8027
▁arti	-12.8027
ecid	-12.8027
▁croc	-12.8027
▁conceiv	-12.8028
ladas	-12.8028
▁ugl	-12.8029
▁literal	-12.8029
weat	-12.8029
andits	-12.803
uated	-12.803
▁rational	-12.8032
rafts	-12.8033
kward	-12.8037
▁minne	-12.8037
uros	-12.8037
▁losin	-12.8037
▁bunche	-12.804
▁caball	-12.8041
▁kla	-12.8044
posts	-12.8045
▁shilling	-12.8046
stakes	-12.8046
azing	-12.8047
iastical	-12.8049
wilder	-12.8049
▁greetin	-12.8051
▁laughte	-12.8053
speed	-12.8053
endar	-12.8054
ycat	-12.8054
nesty	-12.8054
▁occu	-12.8056
essive	-12.8058
mmunity	-12.8061
▁moth	-12.8061
ished	-12.8061
illion	-12.8063
vian	-12.8064
▁pas	-12.8067
nkers	-12.8068
blos	-12.8069
▁acro	-12.807
atively	-12.8072
sit	-12.8073
▁hatchi	-12.8073
▁repu	-12.8074
▁bathin	-12.8075
▁bli	-12.8076
guide	-12.8076
plore	-12.8076
medica	-12.8078
joyed	-12.8078
rative	-12.8079
▁quil	-12.8079
nberg	-12.8082
▁lane	-12.8082
jacks	-12.8083
erator	-12.8083
▁piss	-12.8084
▁gab	-12.8084
▁fea	-12.8085
▁collid	-12.8085
mates	-12.8086
rible	-12.8087
hohoho	-12.8089
onics	-12.8091
▁quad	-12.8091
ui	-12.8096
biting	-12.8097
valry	-12.8103
bus	-12.8104
riously	-12.8104
▁feat	-12.8105
▁disp	-12.8105
dance	-12.8107
franc	-12.8107
▁provi	-12.8107
etti	-12.8109
zzie	-12.8109
groome	-12.8109
▁aub	-12.8109
▁trim	-12.811
▁legit	-12.811
▁angr	-12.8118
▁acco	-12.812
eg	-12.8123
▁indu	-12.8125
oux	-12.8128
▁cucu	-12.8129
past	-12.8132
llaba	-12.8132
▁furl	-12.8138
canu	-12.8139
▁dri	-12.8141
meat	-12.8142
quaint	-12.8142
hide	-12.8145
gam	-12.8146
ici	-12.8147
linky	-12.8148
bted	-12.8148
▁obed	-12.8148
▁blot	-12.8149
lady	-12.8149
ila	-12.8149
uah	-12.815
lia	-12.8151
▁irrita	-12.8151
▁ideolog	-12.8154
vot	-12.8157
▁obligat	-12.8158
▁striped	-12.8158
plus	-12.816
ether	-12.8165
wai	-12.8166
▁brow	-12.8167
cian	-12.8168
ea	-12.8174
▁sinaitic	-12.8176
▁wate	-12.8177
rmat	-12.8179
▁arne	-12.8179
▁plent	-12.818
lumn	-12.818
tains	-12.8183
urbs	-12.8185
oop	-12.8187
▁gorge	-12.8192
moth	-12.8192
▁baron	-12.8194
▁sig	-12.8197
▁harve	-12.8201
▁davi	-12.8203
inations	-12.8205
▁singin	-12.8206
▁prayin	-12.8206
articula	-12.8206
huckle	-12.8208
ega	-12.8208
vas	-12.821
sites	-12.8212
roni	-12.8214
ipper	-12.8215
mango	-12.8215
▁further	-12.8216
partment	-12.8218
ressure	-12.822
▁minut	-12.822
ency	-12.8221
oulder	-12.8221
▁holly	-12.8221
brian	-12.8222
▁them	-12.8224
▁cent	-12.8229
▁padd	-12.8231
rol	-12.8232
pieces	-12.8233
pliers	-12.8237
▁firs	-12.8238
tack	-12.8239
▁oz	-12.8241
▁matt	-12.8243
unting	-12.8244
▁veh	-12.8245
onary	-12.8246
bomba	-12.8246
▁liz	-12.8247
▁nono	-12.8247
▁pint	-12.8251
▁strik	-12.8251
▁capita	-12.8252
▁spic	-12.8253
▁coop	-12.8256
▁ridic	-12.8258
coon	-12.826
ybe	-12.8261
▁postp	-12.8261
▁doom	-12.8261
assau	-12.8263
▁messin	-12.8264
seeing	-12.8264
stage	-12.8269
▁comma	-12.827
▁lovin	-12.827
▁alta	-12.8272
ands	-12.8274
collecting	-12.828
male	-12.8281
▁calc	-12.8282
latin	-12.8283
ntastic	-12.8288
▁sput	-12.829
ater	-12.8293
ardo	-12.8303
oww	-12.8305
ohhmmm	-12.8306
rbit	-12.8307
zie	-12.8311
mag	-12.8311
catholics	-12.8314
▁dum	-12.8318
▁fixin	-12.832
▁colla	-12.8321
gray	-12.8325
nsters	-12.8327
▁deli	-12.8331
istics	-12.8337
▁ambitio	-12.8344
han	-12.8346
ets	-12.8347
ayonna	-12.8348
▁pea	-12.8351
▁recon	-12.8353
theart	-12.8355
▁arr	-12.8355
▁yaw	-12.8359
▁parl	-12.8363
urgeo	-12.8363
vsky	-12.8364
▁optim	-12.8365
▁fren	-12.8366
vilest	-12.8369
passion	-12.8374
quit	-12.8377
▁countin	-12.8378
isoned	-12.8379
anda	-12.838
▁buc	-12.8388
uill	-12.8391
mpy	-12.8394
▁chart	-12.8395
▁rena	-12.8397
veness	-12.8398
aza	-12.8407
▁impr	-12.8407
ios	-12.8408
orch	-12.8413
pse	-12.8414
▁crus	-12.8415
▁lonelie	-12.8419
ged	-12.8419
rsion	-12.842
▁aug	-12.8422
manded	-12.8424
▁sprin	-12.8428
ickering	-12.8433
[...]
