<unk>	0
<s>	0
</s>	0
s	-3.9026
▁im	-4.67637
▁dont	-4.69733
▁oh	-4.70833
▁well	-4.80378
▁get	-4.85403
▁know	-4.86782
▁go	-4.99651
▁come	-4.99686
▁right	-5.03794
▁like	-5.06195
ing	-5.06839
▁one	-5.19446
▁got	-5.20631
▁youre	-5.25638
▁thats	-5.2761
▁see	-5.29491
▁good	-5.29969
▁back	-5.47783
▁yes	-5.49215
▁think	-5.5365
▁time	-5.58619
▁yeah	-5.58896
▁na	-5.61422
ed	-5.63577
▁look	-5.66695
▁want	-5.66716
▁ill	-5.72406
▁hey	-5.73298
▁hes	-5.73424
▁take	-5.75036
▁	-5.75482
▁going	-5.76109
▁us	-5.76226
▁cant	-5.80433
▁would	-5.81495
▁little	-5.84636
▁gon	-5.84927
▁make	-5.8511
▁way	-5.86675
▁say	-5.88964
y	-5.91539
▁man	-5.95102
▁mr	-5.96818
▁could	-5.99131
▁lets	-5.99238
▁really	-5.99593
▁okay	-6.04911
▁tell	-6.0496
d	-6.06436
▁never	-6.10371
▁whats	-6.10812
▁let	-6.15575
▁two	-6.1591
▁love	-6.16573
▁mean	-6.16999
▁theres	-6.1803
▁give	-6.18926
▁something	-6.1939
▁ive	-6.21356
▁please	-6.23493
▁must	-6.24975
▁sure	-6.26054
▁first	-6.26484
▁l	-6.26758
▁need	-6.28381
▁world	-6.28594
▁la	-6.28907
▁sir	-6.29889
▁help	-6.29933
▁didnt	-6.31153
▁thank	-6.3135
ly	-6.3374
ve	-6.37312
▁great	-6.38825
▁uh	-6.39326
▁find	-6.39335
e	-6.39617
▁christmas	-6.42683
▁wait	-6.42768
▁ha	-6.43736
▁day	-6.44417
▁people	-6.45402
▁boy	-6.45972
▁thing	-6.46647
▁away	-6.46648
▁even	-6.48129
▁sorry	-6.48197
▁much	-6.49468
▁home	-6.5269
▁better	-6.52713
▁night	-6.52902
▁big	-6.53004
▁dad	-6.53165
▁put	-6.53323
▁new	-6.53781
▁keep	-6.56705
▁still	-6.57434
▁youll	-6.57478
▁music	-6.5771
▁work	-6.59124
▁stop	-6.59819
▁theyre	-6.60235
▁huh	-6.60948
▁ever	-6.62138
▁said	-6.63116
▁maybe	-6.64222
▁life	-6.65332
▁around	-6.66461
▁wont	-6.69923
▁things	-6.70387
▁ta	-6.73741
▁long	-6.74159
▁always	-6.74734
▁call	-6.74767
▁shes	-6.75255
▁nothing	-6.75976
▁thought	-6.76394
▁last	-6.7648
▁old	-6.76709
▁everything	-6.77229
▁hello	-6.77675
▁whoa	-6.79364
▁nice	-6.80397
▁place	-6.8062
▁you	-6.80897
▁ah	-6.81433
▁isnt	-6.8153
▁course	-6.81971
▁miss	-6.83324
er	-6.83689
▁doesnt	-6.84655
▁id	-6.84693
▁believe	-6.8487
▁fine	-6.85569
▁every	-6.87278
▁thanks	-6.87502
▁may	-6.87843
▁made	-6.88398
▁anything	-6.89296
▁hand	-6.89692
▁bad	-6.89813
▁show	-6.92027
▁mom	-6.92241
▁care	-6.94771
▁stay	-6.9614
▁hear	-6.96175
▁together	-6.9618
▁another	-6.97202
▁three	-6.97205
▁girl	-6.97346
▁coming	-6.98279
▁heart	-6.99118
▁remember	-6.99807
▁might	-7.01129
▁talk	-7.01159
▁kind	-7.01468
▁listen	-7.01486
▁lot	-7.0221
▁enough	-7.0248
▁weve	-7.02484
▁car	-7.02609
▁father	-7.02769
▁ready	-7.06051
▁told	-7.06348
▁name	-7.06511
▁son	-7.06907
▁leave	-7.07276
▁try	-7.09123
▁mother	-7.09641
▁dear	-7.09713
▁water	-7.10307
▁money	-7.10372
▁hold	-7.10939
▁dog	-7.11693
es	-7.13357
▁without	-7.14565
▁next	-7.14567
a	-7.14691
▁guess	-7.17037
▁real	-7.17485
i	-7.17622
▁far	-7.17641
▁start	-7.18027
▁years	-7.18395
▁friend	-7.20062
▁minute	-7.20259
▁mind	-7.20519
▁best	-7.2152
▁today	-7.21533
t	-7.21855
▁seen	-7.21947
▁wrong	-7.22186
▁head	-7.22625
▁ok	-7.22837
▁worry	-7.22879
▁hi	-7.22937
▁getting	-7.23203
▁alone	-7.23517
▁feel	-7.23599
▁morning	-7.2419
▁team	-7.24312
▁young	-7.24757
▁laughing	-7.2498
▁came	-7.25544
▁turn	-7.26069
▁wouldnt	-7.26313
▁guys	-7.26436
▁king	-7.26472
▁easy	-7.2692
▁understand	-7.27612
▁kid	-7.278
▁happened	-7.27814
▁soon	-7.28216
▁done	-7.28336
▁charlie	-7.28362
▁run	-7.29136
▁looks	-7.29395
▁left	-7.29728
▁jack	-7.29962
▁wan	-7.30063
▁yet	-7.3045
▁number	-7.30672
▁matter	-7.31447
▁excuse	-7.31884
▁pig	-7.32242
▁move	-7.32622
▁someone	-7.34411
▁tomorrow	-7.34414
▁looking	-7.35149
▁door	-7.35166
▁found	-7.35415
▁house	-7.356
▁hope	-7.35616
▁true	-7.37109
▁wanted	-7.37497
▁hell	-7.37838
▁pretty	-7.37877
ll	-7.3935
▁trouble	-7.39893
▁ask	-7.40038
al	-7.40661
▁job	-7.40684
▁watch	-7.40802
▁princess	-7.41047
▁meet	-7.41188
in	-7.41306
▁gone	-7.41834
r	-7.42076
▁em	-7.4229
▁wish	-7.42332
▁happy	-7.42621
▁trying	-7.42675
▁knew	-7.43434
▁fly	-7.43703
n	-7.43837
▁aint	-7.44261
▁ball	-7.44852
▁fun	-7.45512
▁late	-7.45575
▁hard	-7.45628
▁guy	-7.45692
▁kids	-7.46544
▁idea	-7.47324
▁problem	-7.47375
▁use	-7.47987
▁school	-7.48249
▁warm	-7.48458
▁cold	-7.48477
▁barking	-7.48524
est	-7.4887
▁woman	-7.5019
▁whole	-7.50193
▁chuckles	-7.50231
▁live	-7.50542
▁race	-7.51596
▁r	-7.51868
▁talking	-7.52084
▁many	-7.52332
▁gadget	-7.52699
▁year	-7.5275
▁continues	-7.53449
▁end	-7.53589
▁uncle	-7.53743
▁gentlemen	-7.53744
▁else	-7.53745
▁forget	-7.53768
▁stand	-7.53843
▁ooh	-7.53949
▁perfect	-7.55397
▁room	-7.56433
▁everyone	-7.56443
▁god	-7.56601
▁eat	-7.56633
▁bring	-7.56748
▁un	-7.56847
▁whos	-7.56987
▁fire	-7.5723
▁bright	-7.57382
▁hurry	-7.57431
▁sing	-7.57996
st	-7.58101
▁everybody	-7.58374
▁baby	-7.58376
▁hmm	-7.58377
▁aah	-7.58757
▁play	-7.59168
▁second	-7.59307
▁afraid	-7.59326
▁cheering	-7.59398
▁prince	-7.59975
▁havent	-7.60289
▁lost	-7.60295
▁bird	-7.60297
▁dr	-7.60515
▁girls	-7.60992
▁crowd	-7.6126
▁chance	-7.61273
▁youd	-7.61777
▁family	-7.62245
▁open	-7.62273
▁mine	-7.62372
▁beautiful	-7.63035
▁tonight	-7.63229
▁arent	-7.63232
▁saw	-7.63245
▁ringle	-7.63252
▁buddy	-7.63271
▁boys	-7.63428
▁called	-7.64077
▁four	-7.64217
▁honey	-7.64232
▁since	-7.64233
▁quite	-7.64301
▁face	-7.64314
▁hurt	-7.6462
▁already	-7.65239
▁light	-7.65256
▁bit	-7.65263
▁sound	-7.65315
▁tree	-7.65346
▁ya	-7.65468
▁fight	-7.65622
▁important	-7.66053
▁business	-7.6614
▁friends	-7.66229
▁merlin	-7.66259
▁voice	-7.6626
▁waiting	-7.66329
▁eyes	-7.66897
▁high	-7.67048
▁bye	-7.67295
▁heard	-7.67763
▁shall	-7.68327
o	-7.68372
▁fall	-7.68864
▁c	-7.70244
▁men	-7.70358
▁earth	-7.70437
▁matilda	-7.7045
▁couldnt	-7.7056
▁air	-7.71552
▁sleep	-7.71694
▁goes	-7.71746
▁days	-7.7183
▁beat	-7.72183
▁rock	-7.72572
▁anyone	-7.72611
▁wasnt	-7.72611
▁top	-7.72635
▁j	-7.73606
▁line	-7.7384
▁gasps	-7.73897
able	-7.74049
▁dream	-7.74119
▁check	-7.7424
▁lovely	-7.74554
▁sweet	-7.748
▁speak	-7.75528
▁cause	-7.75707
▁part	-7.75957
▁wonderful	-7.76045
▁lead	-7.76076
▁food	-7.7626
▁along	-7.77078
▁crazy	-7.77085
▁star	-7.77304
▁game	-7.77455
▁free	-7.77958
▁sit	-7.78049
▁dance	-7.78221
▁theodore	-7.78232
▁story	-7.78235
m	-7.78441
▁flight	-7.78572
▁full	-7.78818
▁working	-7.791
▁save	-7.79207
▁hit	-7.7928
▁g	-7.79348
▁andrea	-7.79393
▁sun	-7.79466
▁answer	-7.80323
▁grunts	-7.80605
▁close	-7.80868
▁win	-7.81139
▁used	-7.81233
▁pay	-7.81646
▁probably	-7.8176
▁stupid	-7.8176
▁point	-7.82205
▁happen	-7.82403
▁promise	-7.82732
▁actually	-7.82987
▁seems	-7.83083
▁lt	-7.833
▁ho	-7.83418
▁moment	-7.83527
▁comes	-7.83573
▁child	-7.84185
▁boss	-7.84189
le	-7.84238
▁nobody	-7.85421
▁sterling	-7.85425
▁rest	-7.85428
ies	-7.85716
▁change	-7.85727
▁captain	-7.86669
▁summer	-7.86669
▁poor	-7.86675
▁hercules	-7.86684
▁taking	-7.86696
▁five	-7.86709
▁lm	-7.87151
▁e	-7.87164
▁brown	-7.87189
▁saying	-7.87328
▁person	-7.87644
▁almost	-7.87936
▁act	-7.87961
▁later	-7.88078
l	-7.88289
▁claw	-7.88354
▁i	-7.88816
▁took	-7.89218
▁gold	-7.8922
▁exactly	-7.89225
▁set	-7.89225
▁gordy	-7.8923
▁means	-7.89477
en	-7.89482
▁catch	-7.89638
▁word	-7.89867
on	-7.90111
▁wow	-7.90516
▁throw	-7.91155
▁stuff	-7.91831
▁side	-7.91899
▁hours	-7.93211
▁a	-7.93286
▁asked	-7.93763
▁says	-7.94202
▁somebody	-7.94516
▁children	-7.94516
▁whatever	-7.94518
▁feet	-7.94519
▁wonder	-7.94525
▁town	-7.94532
▁canyon	-7.95324
▁dreams	-7.95518
▁luck	-7.95618
▁six	-7.95887
▁white	-7.95966
▁ohh	-7.96549
▁plane	-7.96755
▁they	-7.96856
▁heres	-7.97148
▁minutes	-7.97224
▁professor	-7.97274
▁ago	-7.97289
▁safe	-7.98431
▁walk	-7.98519
▁ow	-7.98607
▁dinner	-7.98684
▁become	-7.98685
▁thinking	-7.98687
▁went	-7.98699
▁learn	-7.99049
▁santa	-7.9961
▁flying	-7.9977
▁follow	-7.99931
▁stanley	-8.00112
▁um	-8.0016
▁hot	-8.00197
▁die	-8.0025
▁send	-8.00318
▁wheres	-8.00409
▁wants	-8.00609
▁started	-8.00919
▁cool	-8.01033
▁playing	-8.01052
▁quick	-8.01384
▁cut	-8.01412
▁coffee	-8.01564
▁bob	-8.01726
ion	-8.01914
▁kill	-8.01935
▁re	-8.01989
▁laughs	-8.0237
▁bell	-8.02415
▁brother	-8.0256
▁return	-8.0267
▁step	-8.02677
▁special	-8.02829
or	-8.03
▁danny	-8.03032
▁funny	-8.03045
▁careful	-8.03074
▁lose	-8.03967
▁grand	-8.04076
▁case	-8.04095
▁wear	-8.04286
▁goodbye	-8.04524
▁also	-8.04526
▁inside	-8.04528
▁ty	-8.04692
▁read	-8.05445
▁power	-8.05766
▁sounds	-8.05874
▁stuart	-8.06039
▁champion	-8.06043
▁making	-8.06043
▁s	-8.06125
▁wed	-8.06273
▁hands	-8.06467
▁bet	-8.07026
▁celebi	-8.07088
▁human	-8.07168
▁penny	-8.07584
▁half	-8.0759
▁lady	-8.07644
▁ii	-8.08025
▁plan	-8.08189
▁forest	-8.08719
▁glad	-8.08941
▁anybody	-8.0914
▁darling	-8.09141
▁least	-8.09141
▁perhaps	-8.09143
▁marry	-8.09146
▁majesty	-8.09151
▁feeling	-8.10206
▁daughter	-8.10343
▁book	-8.10432
▁fast	-8.10574
▁though	-8.10702
▁somewhere	-8.10727
▁ahead	-8.10731
▁born	-8.10741
▁sighs	-8.11314
▁break	-8.11322
▁sign	-8.11534
▁n	-8.11919
▁trust	-8.11942
h	-8.12058
▁behind	-8.1234
▁lonely	-8.12347
mon	-8.12697
▁times	-8.12967
▁p	-8.13083
▁deal	-8.13451
▁doctor	-8.13585
▁possible	-8.1398
▁ladies	-8.14004
▁supposed	-8.14151
▁in	-8.14219
▁lucky	-8.1431
▁land	-8.14449
▁li	-8.14581
▁magic	-8.15242
▁fact	-8.1526
▁question	-8.15381
▁dark	-8.15552
▁alvin	-8.15646
▁phone	-8.15794
▁wind	-8.15966
▁dogs	-8.16024
▁met	-8.16179
▁reach	-8.16318
▁flowers	-8.16499
ent	-8.16756
▁animals	-8.16963
▁anyway	-8.16998
▁bank	-8.17053
▁horse	-8.17136
▁control	-8.17338
▁giving	-8.17343
▁board	-8.17397
▁sometimes	-8.17629
▁bed	-8.17808
▁drink	-8.18146
▁knowing	-8.18454
▁reason	-8.18728
berry	-8.18859
▁dead	-8.1887
▁million	-8.18876
▁merry	-8.19066
▁either	-8.19066
▁parker	-8.19171
▁certainly	-8.1919
▁clear	-8.19353
▁ring	-8.19538
▁able	-8.19614
▁gets	-8.19848
▁song	-8.20683
▁bastian	-8.2082
▁floyd	-8.2082
▁running	-8.2084
▁seem	-8.21019
▁pass	-8.21694
▁order	-8.22108
▁radio	-8.22473
▁ride	-8.22498
▁mmm	-8.22583
▁college	-8.22605
▁chief	-8.22606
▁brought	-8.22606
▁body	-8.22612
▁city	-8.22669
▁dressing	-8.22828
azzle	-8.22858
▁yo	-8.23063
▁mrs	-8.23086
▁evening	-8.24362
▁virgil	-8.24425
▁outside	-8.24425
▁death	-8.24426
▁country	-8.24436
▁itll	-8.24442
▁sort	-8.24444
▁road	-8.24462
▁chattering	-8.24487
▁mission	-8.2458
▁hate	-8.24813
▁pick	-8.25266
▁b	-8.25398
▁shoot	-8.25538
▁news	-8.25712
▁beast	-8.25961
▁small	-8.26164
▁hour	-8.26228
▁straight	-8.2627
▁cinderella	-8.26275
▁dancing	-8.26277
▁richard	-8.26277
▁janie	-8.26278
▁shouldnt	-8.26283
▁cake	-8.26286
▁welcome	-8.26292
▁rain	-8.26294
▁folks	-8.26516
▁needs	-8.26827
▁fingers	-8.27184
▁pull	-8.27194
▁different	-8.27963
▁front	-8.28163
▁wife	-8.28174
▁maam	-8.28174
▁party	-8.2865
▁green	-8.29315
▁fool	-8.29603
▁present	-8.29666
▁knows	-8.29778
▁figure	-8.29812
▁quiet	-8.29899
▁slow	-8.29907
▁drive	-8.29966
▁strong	-8.29981
▁judge	-8.30002
us	-8.30023
▁drummond	-8.30085
▁grayson	-8.30086
▁mister	-8.30088
▁blood	-8.3009
▁pok	-8.30096
▁hanky	-8.30114
▁whoo	-8.30128
▁groaning	-8.30129
▁buy	-8.30133
▁groans	-8.30221
▁coins	-8.30375
▁roll	-8.31344
▁shot	-8.31991
▁secret	-8.32009
▁impossible	-8.32046
▁north	-8.32046
▁woof	-8.32049
▁alive	-8.32061
▁lake	-8.32088
▁pat	-8.3217
▁makes	-8.32195
▁shoes	-8.32618
▁train	-8.32649
ity	-8.32781
▁canyons	-8.32855
▁office	-8.33977
▁company	-8.34046
▁clothes	-8.34068
▁tried	-8.34073
▁telling	-8.34081
▁scared	-8.34105
▁round	-8.3411
▁planet	-8.34178
▁queen	-8.34424
▁class	-8.3483
▁speaking	-8.35162
▁cute	-8.35503
▁ten	-8.3561
b	-8.35819
▁h	-8.35986
▁crystal	-8.36087
▁kabuna	-8.36087
▁across	-8.36088
▁zeus	-8.36091
▁moving	-8.36097
▁gave	-8.36108
ic	-8.3615
▁lord	-8.36214
▁eh	-8.36251
▁blue	-8.36338
▁attack	-8.3763
▁past	-8.38109
▁snow	-8.38163
▁language	-8.3817
▁major	-8.3817
▁master	-8.38189
▁foot	-8.38233
▁parents	-8.38317
▁brain	-8.38367
▁blessing	-8.38495
▁lives	-8.38587
▁seven	-8.40278
▁birds	-8.40285
▁shut	-8.40288
▁gordon	-8.40298
▁narrator	-8.40298
▁broadway	-8.40298
▁forever	-8.40302
▁hundred	-8.40309
▁x	-8.40389
▁busy	-8.40403
▁list	-8.4047
▁machine	-8.40476
ers	-8.40543
▁leaves	-8.41087
▁except	-8.41327
▁count	-8.41327
▁mad	-8.41488
p	-8.41821
▁ground	-8.42218
▁space	-8.42472
▁hungry	-8.42472
▁tight	-8.42474
▁glorious	-8.42476
▁laughter	-8.42478
▁fang	-8.42482
▁dangerous	-8.42495
▁spirit	-8.42692
▁spin	-8.42695
▁state	-8.42744
man	-8.43262
▁bear	-8.43844
▁hang	-8.43904
▁d	-8.44294
▁touch	-8.44325
▁suppose	-8.44461
▁steve	-8.44631
▁sheep	-8.44691
▁explain	-8.44694
▁kidding	-8.447
▁hugo	-8.44709
▁heh	-8.44725
▁future	-8.4483
▁smile	-8.44839
▁finally	-8.44855
▁winner	-8.44975
▁expect	-8.45944
▁fell	-8.46119
ness	-8.46146
▁report	-8.4618
ation	-8.46416
▁goin	-8.46509
▁fair	-8.46582
▁simple	-8.46966
▁boris	-8.46967
▁living	-8.46969
▁castle	-8.46978
▁till	-8.46981
▁daddy	-8.47011
▁sister	-8.47309
▁words	-8.48091
▁spell	-8.48442
▁awful	-8.48846
▁kick	-8.48937
▁stick	-8.48992
▁wild	-8.49186
▁forgot	-8.49288
▁sarah	-8.49293
▁valley	-8.49296
▁football	-8.49296
▁cash	-8.49297
▁chuckling	-8.49299
▁hotel	-8.49309
▁sent	-8.4937
▁quit	-8.49377
▁yall	-8.49438
▁theyve	-8.49585
▁spend	-8.49593
▁boat	-8.49613
▁santas	-8.50118
ie	-8.50255
▁enjoy	-8.50648
▁singing	-8.5086
▁engine	-8.51451
▁honor	-8.51583
▁evil	-8.51671
▁rimspoke	-8.51673
▁taylor	-8.51673
▁outta	-8.51676
▁reeko	-8.51678
▁married	-8.51682
▁bernie	-8.51686
▁native	-8.51697
▁hero	-8.52019
▁mei	-8.52044
▁dare	-8.52201
▁hill	-8.52264
nt	-8.5265
▁looked	-8.5288
▁park	-8.53277
▁offer	-8.53566
▁finish	-8.53647
▁final	-8.53936
▁certain	-8.5395
▁flash	-8.54013
▁speed	-8.54107
▁anymore	-8.54112
▁plenty	-8.54112
▁wake	-8.54113
▁leaving	-8.54114
▁beauty	-8.54114
▁celebrate	-8.54406
▁american	-8.54423
▁blanket	-8.54498
▁be	-8.54555
▁animal	-8.54674
▁taken	-8.55107
▁walking	-8.55198
▁calling	-8.5536
▁f	-8.55561
▁red	-8.5566
▁truth	-8.55865
▁record	-8.55993
g	-8.56174
▁strange	-8.56245
▁serious	-8.56429
▁form	-8.56596
▁english	-8.56612
▁sword	-8.56612
▁general	-8.56613
▁thunder	-8.56613
▁rosebud	-8.56616
▁rather	-8.56617
▁mail	-8.56637
▁track	-8.56638
▁lunch	-8.5664
▁mama	-8.56651
▁faster	-8.56784
▁millions	-8.56904
▁station	-8.57089
▁dis	-8.57182
▁copper	-8.57201
▁grow	-8.58398
▁join	-8.58443
▁tin	-8.58477
less	-8.58487
c	-8.5865
▁cross	-8.58799
▁damn	-8.5881
▁deep	-8.58992
▁known	-8.59113
▁bottom	-8.59176
▁hammond	-8.59176
▁rascal	-8.59176
▁women	-8.59177
▁sense	-8.59179
▁amazing	-8.59186
▁alan	-8.59192
▁eight	-8.59198
▁grunting	-8.59202
▁winter	-8.59202
▁jane	-8.59236
▁hair	-8.59263
▁miles	-8.59488
▁finished	-8.59564
▁wood	-8.59648
▁adventure	-8.59657
▁hed	-8.59723
▁operation	-8.59771
▁sam	-8.59862
ment	-8.60289
▁handle	-8.60716
▁kiss	-8.60761
▁ship	-8.61237
▁difficult	-8.61445
▁near	-8.61566
▁lili	-8.61703
▁fresh	-8.61723
▁ought	-8.61727
▁worth	-8.61792
▁arthur	-8.61808
▁attention	-8.61808
▁higgins	-8.61808
▁caught	-8.61809
▁terrible	-8.61809
▁spot	-8.61813
▁black	-8.61828
▁angela	-8.61845
▁besides	-8.61941
▁royal	-8.62147
▁sp	-8.62483
▁whistle	-8.62518
▁week	-8.62553
th	-8.62843
w	-8.63813
▁fix	-8.64146
▁relax	-8.64408
▁hide	-8.64426
▁forgive	-8.64483
▁peace	-8.64495
▁afternoon	-8.64511
▁computer	-8.64511
▁inspector	-8.64511
▁others	-8.64511
▁double	-8.64515
▁couple	-8.64516
▁fear	-8.64518
▁planned	-8.6452
▁growling	-8.6455
▁none	-8.64591
▁test	-8.64595
▁screaming	-8.64625
▁fat	-8.64668
▁short	-8.6477
▁lll	-8.65192
▁street	-8.65247
▁monster	-8.65264
▁shine	-8.65583
▁pa	-8.65987
▁legs	-8.66125
▁clean	-8.66168
▁pigs	-8.66239
▁w	-8.66289
▁sand	-8.66438
▁teach	-8.66442
▁no	-8.66681
blank	-8.66867
▁howd	-8.67014
▁max	-8.67175
▁announce	-8.67269
▁applause	-8.67288
▁baxter	-8.67288
▁formula	-8.67288
▁pleasant	-8.67288
▁felt	-8.67289
▁miller	-8.67302
▁jelly	-8.67308
▁gee	-8.67331
▁ahh	-8.67359
▁ice	-8.67463
▁m	-8.67741
▁t	-8.67902
kept	-8.67951
▁wings	-8.67987
▁message	-8.67998
▁de	-8.68046
▁drop	-8.68098
▁cow	-8.68121
▁rope	-8.68145
▁piece	-8.68213
▁th	-8.68336
▁bag	-8.68712
▁creatures	-8.68949
▁continue	-8.69172
▁cry	-8.69619
▁base	-8.69901
▁garden	-8.70023
▁works	-8.70045
▁forge	-8.70072
▁theo	-8.70111
▁andrew	-8.70146
▁rescue	-8.70146
▁service	-8.70146
▁dockerty	-8.70146
▁jones	-8.70146
▁jungle	-8.70146
▁twice	-8.70146
▁tough	-8.70149
▁silly	-8.7015
▁grain	-8.70151
▁tv	-8.70152
▁nasty	-8.70154
▁moon	-8.70167
▁rex	-8.7017
▁tired	-8.70178
▁decided	-8.70237
▁sad	-8.7029
▁gosh	-8.70534
▁elle	-8.70683
▁strike	-8.70965
▁trip	-8.71106
▁missing	-8.71276
▁mu	-8.71313
▁happening	-8.71655
▁happens	-8.71898
▁knock	-8.72057
ry	-8.72143
an	-8.7259
▁prove	-8.72847
▁write	-8.72935
▁visit	-8.73047
▁takes	-8.7306
▁extra	-8.73083
▁doubt	-8.73087
▁indistinct	-8.73087
▁marriage	-8.73087
▁ridiculous	-8.73087
▁science	-8.73087
▁thousand	-8.73087
▁hows	-8.73089
▁beach	-8.73089
▁absolutely	-8.73127
▁kate	-8.73137
▁feed	-8.73205
▁less	-8.73492
▁greatest	-8.73677
ous	-8.73709
▁longer	-8.73874
▁island	-8.74004
▁mountain	-8.74112
▁ringing	-8.7417
k	-8.74368
▁lve	-8.75168
▁standing	-8.752
▁consider	-8.75596
ine	-8.75992
▁situation	-8.76117
▁third	-8.76117
▁proud	-8.76118
▁among	-8.76118
▁silver	-8.76123
▁mmhmm	-8.76127
▁shit	-8.76127
▁strength	-8.76133
▁baron	-8.76156
▁tail	-8.76166
▁nose	-8.7617
▁farm	-8.76177
▁highness	-8.76181
▁arm	-8.76655
▁pleasure	-8.77079
▁kangaroo	-8.77131
▁fit	-8.77276
▁eye	-8.77308
▁fella	-8.77384
▁cave	-8.78474
▁asking	-8.78574
ful	-8.78814
▁trees	-8.78916
ii	-8.79014
▁lords	-8.7905
▁entire	-8.7906
im	-8.79169
▁sick	-8.79207
▁kitchen	-8.79238
▁crusoe	-8.79242
▁steady	-8.79242
▁worried	-8.79242
▁police	-8.79242
▁competition	-8.79243
▁dave	-8.79313
▁corner	-8.79323
▁shouting	-8.79334
▁sky	-8.79368
▁nature	-8.79376
▁single	-8.79376
▁interested	-8.79498
▁law	-8.79557
▁woody	-8.79572
▁quickly	-8.79629
▁screams	-8.79656
▁blow	-8.79783
▁bill	-8.80071
▁frog	-8.8009
▁aunt	-8.80192
▁guard	-8.80495
▁field	-8.80544
▁mm	-8.80734
ce	-8.80956
▁rid	-8.81021
▁stars	-8.81447
▁deliver	-8.81806
▁suggest	-8.81891
▁ski	-8.81919
▁super	-8.82145
▁charge	-8.8224
▁force	-8.82274
▁soft	-8.82277
▁rich	-8.82372
▁matt	-8.82451
▁mac	-8.8246
▁anywhere	-8.82468
▁midvale	-8.82468
▁remain	-8.82468
▁zira	-8.82468
▁teddy	-8.82468
▁danger	-8.82468
▁balto	-8.82469
▁calm	-8.8247
▁kingdom	-8.82471
▁beginning	-8.82473
▁appear	-8.82474
▁difference	-8.82474
▁milk	-8.82474
▁someday	-8.82474
ive	-8.82477
▁director	-8.82478
▁forward	-8.82486
▁dean	-8.82488
▁national	-8.82491
▁robin	-8.82519
▁hen	-8.82585
▁early	-8.82635
age	-8.82711
▁tires	-8.82764
▁billy	-8.82765
▁tea	-8.83015
▁promised	-8.83111
▁aii	-8.83182
▁grandma	-8.83205
▁killed	-8.83263
▁system	-8.83687
▁mistake	-8.83695
▁fault	-8.8376
▁leg	-8.83777
▁creature	-8.8384
▁hat	-8.84051
▁river	-8.8416
▁fellas	-8.84553
▁missed	-8.85091
▁jump	-8.85126
▁co	-8.85159
▁honest	-8.85313
▁brains	-8.8553
▁realize	-8.85589
▁smart	-8.85627
▁shh	-8.85787
▁john	-8.85791
▁accept	-8.85801
▁leila	-8.85801
▁nicole	-8.85801
▁thompson	-8.85801
▁worse	-8.85802
▁middle	-8.85804
▁pudding	-8.85807
▁talent	-8.85807
▁seconds	-8.85815
▁coach	-8.85815
▁simon	-8.85816
▁al	-8.85829
▁upon	-8.85831
▁totally	-8.85877
▁pe	-8.85902
▁faith	-8.85964
▁teacher	-8.86035
▁changed	-8.86438
ch	-8.86863
um	-8.86923
▁challenge	-8.87083
▁horn	-8.87191
▁monkey	-8.87243
▁pounds	-8.8726
lack	-8.87298
▁sell	-8.87304
up	-8.87322
▁rules	-8.87345
▁cook	-8.88148
▁unh	-8.88364
▁ba	-8.88694
▁cover	-8.88878
▁aw	-8.88893
▁share	-8.88948
▁shake	-8.89178
▁starting	-8.89221
▁built	-8.8925
▁excellent	-8.8925
▁imagine	-8.8925
▁instead	-8.8925
▁junior	-8.8925
▁ralph	-8.8925
▁suzette	-8.8925
▁tanamashu	-8.8925
▁yesterday	-8.8925
▁mingle	-8.8925
▁president	-8.8925
▁hoggett	-8.89251
▁vacation	-8.89252
▁pepe	-8.89252
▁choice	-8.89253
▁international	-8.89253
▁history	-8.89254
▁henry	-8.89267
▁weather	-8.8927
▁paid	-8.89274
▁shell	-8.8928
▁snorting	-8.89284
▁claus	-8.89291
▁fred	-8.89304
▁andy	-8.89304
▁unless	-8.89321
▁leon	-8.89356
▁tod	-8.89442
▁pack	-8.89654
▁rings	-8.89688
▁listening	-8.89814
▁laugh	-8.89816
▁climbing	-8.89871
out	-8.89897
▁perfectly	-8.89929
▁k	-8.90108
▁died	-8.90124
▁click	-8.9016
▁gammas	-8.90197
▁ears	-8.90245
▁emperor	-8.90704
▁fighting	-8.91421
ar	-8.91609
▁climb	-8.91645
▁meeting	-8.92033
▁feels	-8.92304
ary	-8.92511
ty	-8.9264
▁branch	-8.92729
▁broke	-8.92765
▁herc	-8.92816
▁cereal	-8.92821
▁cornelius	-8.92821
▁irena	-8.92821
▁pouch	-8.92821
▁tortoise	-8.92821
▁afford	-8.92821
▁werent	-8.92821
▁female	-8.92822
▁alright	-8.92822
▁favorite	-8.92823
▁lowell	-8.92824
▁tammy	-8.9283
▁fellow	-8.92834
▁weight	-8.9287
▁squealing	-8.9288
▁snorts	-8.92932
▁practice	-8.9298
▁fairy	-8.93249
▁passed	-8.93548
▁saved	-8.93584
▁hare	-8.93667
▁barks	-8.93732
ting	-8.93831
▁throat	-8.9436
▁uhh	-8.94402
▁thunderbird	-8.94406
▁picture	-8.94463
▁bee	-8.94467
▁decision	-8.94482
▁barry	-8.9451
▁cars	-8.94741
▁heat	-8.95037
▁le	-8.95049
▁guards	-8.95049
▁blows	-8.95064
▁so	-8.95282
▁treat	-8.95371
▁search	-8.95462
▁fish	-8.95774
▁travel	-8.95864
▁ran	-8.95933
▁carry	-8.95978
▁pain	-8.96006
▁sea	-8.96155
▁rob	-8.96179
▁surprise	-8.96287
▁george	-8.96525
▁husband	-8.96525
▁idiot	-8.96525
▁dexter	-8.96525
▁sensation	-8.96525
▁wolf	-8.96525
▁bother	-8.96528
▁information	-8.96528
▁johnny	-8.96529
▁panting	-8.96564
▁band	-8.96609
▁over	-8.96627
▁honking	-8.96634
▁whe	-8.96666
▁orders	-8.96836
▁army	-8.96852
▁refere	-8.9724
▁seeing	-8.97685
▁om	-8.97708
▁risk	-8.97882
▁needed	-8.97902
▁norman	-8.98251
▁window	-8.98341
▁position	-8.98382
▁heavens	-8.98386
▁flag	-8.98426
▁flower	-8.98457
▁cat	-8.98724
inous	-8.98763
▁lie	-8.98845
▁yah	-8.99166
▁key	-8.99351
▁desert	-8.99472
ng	-8.99571
▁steal	-8.99745
▁prepare	-8.9979
▁correct	-8.99933
▁lights	-8.99979
▁push	-8.9999
▁smell	-9.00082
▁hee	-9.0026
▁contract	-9.00371
▁godzilla	-9.00371
▁humbug	-9.00371
▁larrabee	-9.00371
▁neither	-9.00371
▁sergeant	-9.00371
▁timberwolves	-9.00371
▁account	-9.00372
▁respect	-9.00373
▁stuck	-9.00373
▁evilia	-9.00376
▁presents	-9.00381
▁victory	-9.00386
▁flies	-9.00387
▁thatll	-9.00389
▁piggy	-9.00397
▁babe	-9.00397
▁sonny	-9.00398
▁uhoh	-9.00406
▁von	-9.00409
▁canyoneering	-9.00434
▁o	-9.0049
▁project	-9.00498
▁sight	-9.00502
▁fantasia	-9.00531
▁shining	-9.0058
▁holding	-9.00599
▁tom	-9.00719
▁horses	-9.00919
z	-9.01163
▁hardly	-9.0121
▁pal	-9.01268
▁cheers	-9.01312
ious	-9.01466
▁heaven	-9.02209
▁bar	-9.02232
▁cousin	-9.0225
▁apple	-9.02333
▁turned	-9.02409
▁finger	-9.02424
▁calls	-9.0268
▁arms	-9.02867
▁eating	-9.03067
▁weeks	-9.03257
▁woods	-9.03319
▁bless	-9.03409
at	-9.03621
▁raise	-9.0412
re	-9.04226
▁protect	-9.04336
▁program	-9.04355
▁bruce	-9.04371
▁congratulations	-9.04371
▁contact	-9.04371
▁conversation	-9.04371
▁penelope	-9.04371
▁royce	-9.04371
▁timmie	-9.04371
▁wednesday	-9.04371
▁emergency	-9.04371
▁tortoni	-9.04371
▁duke	-9.04372
▁jenny	-9.04373
▁dumb	-9.04373
▁glenn	-9.04375
▁accord	-9.04376
▁level	-9.04379
▁elf	-9.04381
▁iike	-9.04394
▁immediately	-9.04396
▁bigger	-9.04451
▁coughing	-9.04489
▁date	-9.04931
▁clouds	-9.05149
▁war	-9.05322
ling	-9.05443
▁sharks	-9.05477
▁leo	-9.05526
▁store	-9.05608
▁meant	-9.05715
▁ann	-9.06113
▁madam	-9.06454
▁duck	-9.06509
▁butch	-9.06813
▁smoke	-9.06948
▁wall	-9.07317
▁mess	-9.0734
▁crash	-9.07499
se	-9.07511
▁age	-9.0752
▁watching	-9.07634
▁low	-9.07796
▁se	-9.07905
▁pray	-9.0821
▁mo	-9.08302
▁out	-9.08445
▁match	-9.08496
▁contest	-9.08528
▁court	-9.08535
▁brittany	-9.08537
▁driving	-9.08539
▁erik	-9.08539
▁zero	-9.08539
▁giant	-9.08541
▁wedding	-9.08541
▁brandon	-9.08548
▁handsome	-9.08552
▁ugh	-9.08553
▁comin	-9.08554
▁storm	-9.08569
▁oran	-9.08586
▁broken	-9.08617
▁cup	-9.08621
▁amos	-9.08667
▁bite	-9.08932
▁map	-9.09059
▁blowing	-9.09375
▁up	-9.09415
▁humans	-9.09637
▁tall	-9.0996
▁names	-9.10157
▁lap	-9.10428
▁learning	-9.1043
▁trick	-9.10452
▁taste	-9.10514
▁rip	-9.10725
▁lots	-9.10774
▁wheel	-9.1088
▁rule	-9.11186
▁grab	-9.11258
▁table	-9.11276
ther	-9.11475
▁interest	-9.11945
▁enter	-9.12519
▁mention	-9.12549
▁charli	-9.12658
▁proper	-9.12691
▁chuck	-9.12809
▁admit	-9.12876
▁accident	-9.12885
▁evidence	-9.12885
▁fashion	-9.12885
▁henrietta	-9.12885
▁pollen	-9.12885
▁simply	-9.12885
▁tarzan	-9.12885
▁whistling	-9.12885
▁byebye	-9.12885
▁within	-9.12885
▁chittering	-9.12886
▁meat	-9.12889
▁wagon	-9.1289
▁season	-9.12892
▁group	-9.12894
▁ridgeway	-9.12895
▁worked	-9.129
▁exciting	-9.12901
▁definitely	-9.12905
▁weii	-9.12912
▁main	-9.12924
▁plays	-9.12953
▁owl	-9.13004
▁sue	-9.13068
▁hood	-9.13094
▁st	-9.1312
▁gasping	-9.13135
▁bigge	-9.13142
▁nearly	-9.13184
▁studio	-9.13185
▁iii	-9.13208
pensive	-9.13391
▁ash	-9.13506
▁bucks	-9.13563
▁questions	-9.13598
▁crying	-9.13862
▁fired	-9.14052
▁ab	-9.14898
▁agree	-9.14988
▁paper	-9.15421
▁robert	-9.15427
▁pound	-9.15465
▁begin	-9.15473
▁di	-9.15716
▁sire	-9.1574
▁player	-9.15936
▁surely	-9.16067
▁sa	-9.16222
▁chi	-9.1642
me	-9.16427
ist	-9.16524
▁york	-9.16525
▁hay	-9.16952
▁thr	-9.17132
▁wise	-9.17165
▁notice	-9.17199
▁nervous	-9.17201
▁waste	-9.17255
▁natural	-9.17256
▁score	-9.17271
▁card	-9.17365
▁glass	-9.17366
▁chimp	-9.17395
▁success	-9.17415
▁virg	-9.17427
▁asleep	-9.17431
▁chloe	-9.17431
▁derek	-9.17431
▁genius	-9.17431
▁giggling	-9.17431
▁goreslimey	-9.17431
▁harriet	-9.17431
▁medfield	-9.17431
▁security	-9.17431
▁humming	-9.17432
▁slice	-9.17432
▁cream	-9.17432
▁kom	-9.17433
▁department	-9.17433
▁mike	-9.17433
▁oil	-9.17436
▁doian	-9.17436
▁incredible	-9.17436
▁darn	-9.17437
▁paul	-9.17437
▁garth	-9.17438
▁library	-9.17438
▁sweetheart	-9.17438
▁brave	-9.17445
▁common	-9.17449
▁soup	-9.17458
▁proceed	-9.17459
▁manager	-9.17609
▁lying	-9.17625
▁agreed	-9.17672
▁closer	-9.17681
▁charming	-9.17704
f	-9.17768
▁tiny	-9.17921
▁figured	-9.1803
▁dado	-9.18222
▁shoo	-9.18315
ne	-9.18606
▁ben	-9.18665
▁problems	-9.18675
▁named	-9.19532
▁gun	-9.20011
▁spring	-9.20029
▁gift	-9.20101
▁mark	-9.20156
▁month	-9.20214
▁add	-9.20308
el	-9.20578
tion	-9.20608
▁lift	-9.21136
▁port	-9.21355
▁ne	-9.21441
id	-9.21474
▁america	-9.21592
ily	-9.21655
▁lf	-9.21754
▁allow	-9.21875
▁loves	-9.21931
▁per	-9.21942
▁goof	-9.21979
▁loud	-9.22087
▁bonnelli	-9.22193
▁claudia	-9.22193
▁cummings	-9.22193
▁gibbering	-9.22193
▁however	-9.22193
▁kandi	-9.22193
▁krinkle	-9.22193
▁nonsense	-9.22193
▁pizza	-9.22193
▁guinea	-9.22193
▁clark	-9.22194
▁swim	-9.22194
▁often	-9.22194
▁repeat	-9.22195
▁fancy	-9.22195
▁gadgetmobile	-9.22197
▁jingle	-9.22198
▁hasnt	-9.22199
▁wiii	-9.22199
▁bunch	-9.222
▁floor	-9.22207
▁personal	-9.2222
▁chen	-9.22229
▁taxi	-9.22232
▁stage	-9.22237
▁nine	-9.22245
▁goose	-9.22246
▁slipper	-9.22263
▁hunter	-9.22319
▁lee	-9.22362
way	-9.22375
▁putting	-9.22392
▁goofy	-9.22465
▁whee	-9.22485
▁attacker	-9.22576
▁prayer	-9.22583
▁screeching	-9.22611
▁simians	-9.22733
▁ones	-9.22864
▁angels	-9.23326
▁due	-9.23365
▁growing	-9.23392
to	-9.23453
la	-9.23593
▁counting	-9.23609
one	-9.23728
▁wondering	-9.24462
tic	-9.24702
▁snowflake	-9.25009
▁crime	-9.2507
▁prize	-9.25088
▁experiment	-9.25114
▁note	-9.25235
and	-9.25456
▁gettin	-9.25576
▁plant	-9.25644
▁speaks	-9.25757
ally	-9.25843
▁turns	-9.26079
▁dress	-9.26124
▁mar	-9.26387
▁build	-9.26446
ter	-9.2647
▁v	-9.2648
place	-9.26554
▁destroy	-9.26825
specially	-9.26843
came	-9.26882
▁papa	-9.26898
▁lock	-9.26912
▁escape	-9.26955
▁burn	-9.26972
▁south	-9.27186
▁barcuna	-9.27193
▁breakfast	-9.27193
▁england	-9.27193
▁milady	-9.27193
▁nottingham	-9.27193
▁quigley	-9.27193
▁scientific	-9.27193
▁scrooge	-9.27193
▁stella	-9.27193
▁fruit	-9.27193
▁pony	-9.27193
▁william	-9.27193
▁central	-9.27193
▁local	-9.27193
▁chitra	-9.27194
▁birthday	-9.27194
▁paolo	-9.27194
▁necessary	-9.27194
▁public	-9.27195
▁miracle	-9.27198
▁rappel	-9.27198
▁carface	-9.272
▁uhhuh	-9.272
▁spread	-9.27203
▁jail	-9.27203
▁pardon	-9.27205
▁italian	-9.27206
▁gather	-9.27206
▁patient	-9.27206
▁comfortable	-9.27208
▁teammate	-9.27208
▁alarm	-9.27209
▁whimpering	-9.27211
▁carol	-9.27212
▁press	-9.27216
▁indeed	-9.27239
▁smith	-9.27245
▁mule	-9.27278
▁sweetie	-9.27289
▁size	-9.27295
▁starts	-9.27296
▁completely	-9.27308
▁invited	-9.27316
▁discovered	-9.27416
▁frightful	-9.27644
▁rats	-9.27674
▁interesting	-9.27929
▁leader	-9.27948
▁misses	-9.28205
as	-9.28253
te	-9.28513
▁learned	-9.2853
▁given	-9.28542
▁training	-9.28821
ant	-9.29064
▁introduce	-9.29176
▁months	-9.2932
▁fill	-9.29501
▁pop	-9.29556
▁provide	-9.29723
▁pot	-9.29936
▁seat	-9.30077
▁bat	-9.3013
▁ai	-9.30132
▁area	-9.30173
▁sigh	-9.30341
▁suit	-9.30415
▁sport	-9.30457
ure	-9.30484
▁mountains	-9.3058
▁letter	-9.30611
▁driver	-9.30685
▁bringing	-9.30695
▁gas	-9.30753
▁intern	-9.30873
▁gives	-9.31035
▁manage	-9.31075
▁coppers	-9.31211
▁event	-9.31564
▁tim	-9.31626
▁study	-9.3181
▁cheat	-9.31828
▁kit	-9.3185
▁should	-9.31894
▁inter	-9.3204
▁loose	-9.32154
▁german	-9.32168
x	-9.32202
▁beg	-9.32293
sh	-9.32298
▁large	-9.32386
▁apart	-9.32433
▁beyond	-9.32456
▁brilliant	-9.32456
▁cinderelly	-9.32456
▁forbidden	-9.32456
▁marakeet	-9.32456
▁midnight	-9.32456
▁obey	-9.32456
▁survive	-9.32456
▁truly	-9.32456
▁zora	-9.32456
▁private	-9.32456
▁cheese	-9.32456
▁prefer	-9.32456
▁village	-9.32456
▁dewey	-9.32457
▁robot	-9.32459
▁purse	-9.32459
▁scott	-9.32459
▁jesse	-9.32461
▁amount	-9.32462
▁james	-9.32464
▁everywhere	-9.32465
▁snowbell	-9.32466
▁heavy	-9.32466
▁thief	-9.32466
▁tuppence	-9.32471
▁aboard	-9.32475
▁winning	-9.32489
▁joy	-9.3249
▁allen	-9.32491
▁friendship	-9.32512
▁usually	-9.32539
▁arrived	-9.32554
it	-9.32591
▁suddenly	-9.32597
▁losing	-9.32657
▁maxie	-9.32696
▁apologize	-9.32717
▁brings	-9.32803
▁whispering	-9.32955
▁boxing	-9.32957
▁eve	-9.3304
▁nuts	-9.33059
▁building	-9.33129
men	-9.33569
▁goodness	-9.33677
▁lips	-9.3375
▁ruin	-9.33755
▁crowns	-9.33822
▁students	-9.33822
▁fans	-9.33829
▁keys	-9.33929
▁dolls	-9.34141
▁pet	-9.3416
▁places	-9.34185
▁boo	-9.34234
he	-9.34388
▁played	-9.34488
▁pure	-9.34518
▁dari	-9.34743
▁ac	-9.34959
rp	-9.35029
▁slip	-9.35142
▁hop	-9.35168
▁bus	-9.35243
ring	-9.3541
no	-9.35659
▁movie	-9.35721
▁falling	-9.35729
▁clue	-9.35755
▁flat	-9.35833
▁opening	-9.35954
▁hippo	-9.35982
▁condition	-9.35982
▁ghost	-9.35997
▁lesson	-9.36012
▁scout	-9.36016
ance	-9.36466
▁breath	-9.36811
▁favor	-9.37144
▁draw	-9.37318
iy	-9.37496
▁heading	-9.37689
▁rough	-9.37821
▁address	-9.37907
▁stole	-9.37952
▁applaud	-9.38011
▁awesome	-9.38011
▁colonel	-9.38011
▁empress	-9.38011
▁famous	-9.38011
▁jessica	-9.38011
▁journey	-9.38011
▁opinion	-9.38011
▁sophie	-9.38011
▁choose	-9.38012
▁jerk	-9.38012
▁truck	-9.38012
▁telephone	-9.38012
▁snoring	-9.38012
▁gusta	-9.38014
▁monty	-9.38015
▁onto	-9.38015
▁motor	-9.38021
▁neck	-9.38028
▁clare	-9.38029
▁dixie	-9.38033
▁championship	-9.38037
▁planning	-9.38038
▁energy	-9.38051
▁dust	-9.38071
▁whimpers	-9.38076
▁direction	-9.38087
▁blown	-9.38133
▁tempo	-9.38138
▁doc	-9.38154
▁dirty	-9.38187
▁dollars	-9.38301
▁ape	-9.38345
▁mary	-9.38357
▁warning	-9.38478
▁clears	-9.38678
▁harder	-9.38759
▁lit	-9.38804
▁siren	-9.38978
▁il	-9.38981
▁ru	-9.39259
▁owe	-9.3964
▁brothers	-9.39856
▁fur	-9.40392
▁who	-9.40495
▁following	-9.40543
▁cap	-9.41064
▁pie	-9.41629
▁wins	-9.41668
▁spindle	-9.41809
▁dude	-9.41824
▁partner	-9.41828
▁bomb	-9.41864
▁member	-9.41887
▁battle	-9.4192
▁officer	-9.41952
▁cost	-9.42002
▁games	-9.42039
▁cha	-9.42263
▁do	-9.42274
▁tour	-9.42304
▁pro	-9.42455
na	-9.42745
▁hole	-9.42771
ah	-9.43216
▁pretend	-9.43239
▁suffer	-9.43248
▁switch	-9.43435
▁block	-9.4349
▁ex	-9.43583
▁serve	-9.43722
▁champ	-9.43854
▁connor	-9.43894
▁corporal	-9.43894
▁eleanor	-9.43894
▁equipment	-9.43894
▁eyepoppers	-9.43894
▁happiness	-9.43894
▁jeff	-9.43894
▁karthik	-9.43894
▁oclock	-9.43894
▁plain	-9.43894
▁purpose	-9.43894
▁sundancer	-9.43894
▁teeth	-9.43894
▁worst	-9.43894
▁jesus	-9.43894
▁racing	-9.43894
▁pringle	-9.43894
▁hadnt	-9.43895
▁precious	-9.43895
▁willard	-9.43895
▁sharp	-9.43895
▁upset	-9.43895
▁jake	-9.43896
▁toward	-9.43897
▁hidden	-9.43899
▁yellow	-9.43899
▁zone	-9.439
▁swear	-9.439
▁commandant	-9.43902
▁forgotten	-9.43904
▁excited	-9.43906
▁vow	-9.43907
▁gigante	-9.4391
▁deck	-9.43919
▁self	-9.43925
▁iam	-9.4393
▁gina	-9.43936
▁noble	-9.43944
▁charity	-9.4396
▁dying	-9.43988
▁drum	-9.4399
▁loved	-9.44035
▁practical	-9.44066
▁escaped	-9.44175
▁hunting	-9.44186
op	-9.44226
▁stronger	-9.44235
▁appreciate	-9.44255
▁bath	-9.4426
▁liver	-9.44388
▁shoulder	-9.44504
▁butt	-9.44853
▁theyd	-9.44931
▁attacked	-9.44934
▁plans	-9.4542
▁recording	-9.45422
▁lay	-9.45741
▁pulling	-9.45955
ey	-9.46142
▁belong	-9.469
▁it	-9.4724
▁can	-9.47488
ted	-9.47818
▁club	-9.47856
▁slot	-9.47951
▁sake	-9.4796
▁explosion	-9.48071
▁ticket	-9.48088
▁bound	-9.48114
▁chicken	-9.48122
▁stone	-9.48194
▁sh	-9.48203
▁signal	-9.48318
▁loser	-9.48358
▁type	-9.48374
ending	-9.48428
▁ships	-9.48458
▁ra	-9.48512
▁doll	-9.48598
▁skin	-9.4863
▁fort	-9.48687
▁wash	-9.48783
▁keeping	-9.4895
▁chris	-9.49206
▁shows	-9.49222
▁depend	-9.49238
▁unit	-9.49276
time	-9.49385
▁heads	-9.49411
ual	-9.49545
▁turning	-9.49591
▁frank	-9.50013
▁harm	-9.50102
uppence	-9.50126
▁nothin	-9.50126
▁electro	-9.50144
▁attempt	-9.50144
▁audience	-9.50144
▁bought	-9.50144
▁century	-9.50144
▁destiny	-9.50144
▁marshal	-9.50144
▁merrinoe	-9.50144
▁nova	-9.50144
▁regret	-9.50144
▁spinach	-9.50144
▁tanner	-9.50144
▁butterflies	-9.50144
▁bonnie	-9.50144
▁timmy	-9.50144
▁militar	-9.50144
▁taught	-9.50144
▁naught	-9.50145
▁ugly	-9.50146
▁bride	-9.50146
▁wherever	-9.50147
▁divine	-9.50147
▁crew	-9.50148
▁kane	-9.5015
▁candy	-9.50151
▁spoke	-9.50151
▁advisor	-9.50153
▁empty	-9.50154
▁nasties	-9.50154
▁unusual	-9.50155
▁yep	-9.50156
▁fantastic	-9.50157
▁route	-9.50159
▁soul	-9.5016
▁mice	-9.50173
▁aaah	-9.50204
▁agent	-9.50215
▁puppy	-9.50241
▁barn	-9.50249
▁huge	-9.50262
▁pinky	-9.50271
▁funky	-9.50287
▁bert	-9.50317
▁paint	-9.50454
▁tied	-9.50474
▁squeals	-9.50474
▁grass	-9.50538
▁surprised	-9.50552
▁locked	-9.50599
▁allowed	-9.50623
▁killer	-9.50628
▁fighter	-9.50833
▁talkin	-9.50838
▁wishes	-9.50851
▁spy	-9.50942
am	-9.51134
▁waves	-9.51138
▁sooner	-9.51153
▁con	-9.51299
▁ordered	-9.51441
▁airlines	-9.51652
▁hanging	-9.51998
▁skills	-9.52322
▁bi	-9.52649
▁mate	-9.5266
▁reading	-9.52881
▁cats	-9.53505
▁headed	-9.53784
▁tape	-9.53917
▁hearts	-9.54259
▁she	-9.54352
▁subject	-9.54676
▁indian	-9.54678
▁saint	-9.54748
▁credit	-9.54768
▁orphan	-9.54787
▁runs	-9.54796
▁shoe	-9.54871
▁showed	-9.54965
nce	-9.55053
ning	-9.55091
tor	-9.55418
▁par	-9.55519
▁pen	-9.5556
lly	-9.55597
▁all	-9.5571
is	-9.55767
▁box	-9.55844
▁view	-9.55903
▁market	-9.56083
▁teii	-9.56128
▁whisper	-9.56177
▁den	-9.56186
▁pr	-9.56272
▁receive	-9.56538
▁command	-9.56551
▁settle	-9.56551
▁sudden	-9.56631
▁official	-9.56632
▁collect	-9.56743
▁using	-9.56757
▁auto	-9.56769
▁anastasia	-9.5681
▁balthazar	-9.5681
▁bravo	-9.5681
▁distance	-9.5681
▁example	-9.5681
▁excitement	-9.5681
▁lieutenant	-9.5681
▁mouth	-9.5681
▁mumbai	-9.5681
▁mumbling	-9.5681
▁otherwise	-9.5681
▁period	-9.5681
▁responsibility	-9.5681
▁schooi	-9.5681
▁siwon	-9.5681
▁telugu	-9.5681
▁zaius	-9.5681
▁blind	-9.5681
▁hitchcock	-9.5681
▁horrible	-9.56811
▁louie	-9.56811
▁satterfield	-9.56811
▁skunk	-9.56811
▁generous	-9.56811
▁dietz	-9.56811
▁heavyweight	-9.56811
▁smiling	-9.56812
▁barista	-9.56812
▁hyah	-9.56812
▁berkshire	-9.56813
▁french	-9.56813
▁tracy	-9.56813
▁threw	-9.56813
▁palace	-9.56813
▁rodan	-9.56813
▁huey	-9.56814
▁henri	-9.56816
▁possibly	-9.56818
▁zoo	-9.5682
▁minister	-9.56821
▁support	-9.56824
▁video	-9.56824
▁familiar	-9.56824
▁nurse	-9.56824
▁slight	-9.56824
▁tank	-9.56824
▁proof	-9.56825
▁bash	-9.5683
▁mouse	-9.5683
▁legend	-9.56833
▁successful	-9.56834
▁aban	-9.56834
▁africa	-9.56839
▁skull	-9.56847
▁universe	-9.56853
▁angry	-9.56858
▁lightning	-9.5686
▁guessing	-9.5686
▁claim	-9.56874
▁murmuring	-9.56878
▁powerful	-9.56881
▁dadda	-9.56894
▁male	-9.56905
▁saving	-9.56914
▁ohoh	-9.56917
▁pi	-9.56993
▁growls	-9.57025
▁refuse	-9.57028
▁created	-9.57063
▁tower	-9.57069
led	-9.57122
▁wide	-9.57143
▁approaching	-9.57275
▁yelling	-9.57283
▁wally	-9.57289
▁slowly	-9.57454
▁post	-9.57533
▁burning	-9.57675
▁stealing	-9.57979
▁riding	-9.58178
ow	-9.58214
▁landed	-9.58313
▁gu	-9.58315
▁staying	-9.5845
by	-9.58549
▁friendly	-9.58744
▁depends	-9.58957
▁ear	-9.59127
▁scouts	-9.59276
▁passing	-9.59298
▁dry	-9.59348
▁interns	-9.59389
▁helping	-9.59414
rs	-9.59425
▁guns	-9.59722
▁begins	-9.59848
go	-9.60125
▁fathers	-9.60177
the	-9.60322
▁talks	-9.60529
▁beating	-9.60902
▁sleeping	-9.60923
▁u	-9.60962
▁numbers	-9.615
▁rocket	-9.61737
▁snap	-9.61797
▁glor	-9.6182
▁slide	-9.6182
▁noise	-9.61821
▁stray	-9.61821
▁rise	-9.61839
▁pilot	-9.61854
▁snake	-9.61885
▁rose	-9.61893
▁saxon	-9.61896
▁servant	-9.6191
▁holiday	-9.6193
▁gamma	-9.61984
▁action	-9.62009
▁shark	-9.62015
▁moms	-9.62812
▁pitch	-9.62817
▁claws	-9.62845
▁sisters	-9.62906
▁sail	-9.63169
▁mi	-9.63228
ship	-9.63318
▁screech	-9.63321
▁launch	-9.63328
▁swing	-9.63332
▁march	-9.63548
boo	-9.63624
▁opens	-9.6365
▁bull	-9.63695
▁decide	-9.63722
▁experience	-9.63753
▁doin	-9.63867
▁bibbidibobbidi	-9.63953
▁ahyuck	-9.63953
▁barouche	-9.63953
▁donkey	-9.63953
▁effort	-9.63953
▁grandmother	-9.63953
▁hooray	-9.63953
▁jeanette	-9.63953
▁marianne	-9.63953
▁pocket	-9.63953
▁rabbit	-9.63953
▁slykes	-9.63953
▁yawns	-9.63953
▁jacob	-9.63953
▁lambert	-9.63953
▁scene	-9.63953
▁oscar	-9.63953
▁avoid	-9.63954
▁bridge	-9.63954
▁barely	-9.63954
▁roof	-9.63954
▁desire	-9.63955
▁interrupt	-9.63955
▁nowhere	-9.63955
▁david	-9.63956
▁brutus	-9.63956
▁heck	-9.63957
▁solid	-9.63958
▁psst	-9.63958
▁stories	-9.63959
▁gorgeous	-9.6396
▁khan	-9.6396
▁clever	-9.63962
▁understood	-9.63964
▁riverton	-9.63965
▁split	-9.63965
▁fuel	-9.63966
▁clock	-9.63966
▁iook	-9.63967
▁price	-9.63967
▁gang	-9.63969
▁swan	-9.63973
▁unknown	-9.63975
▁opportunity	-9.63984
▁dig	-9.63992
▁section	-9.63994
▁blast	-9.63997
▁maa	-9.63998
▁rome	-9.63998
▁halt	-9.64006
▁whatd	-9.64012
▁setting	-9.64033
▁defense	-9.6404
▁discuss	-9.64045
▁weak	-9.64054
▁obviously	-9.64068
▁tipp	-9.64074
▁jim	-9.64076
▁wire	-9.64086
▁center	-9.64116
▁chap	-9.64122
▁pollinators	-9.64183
▁si	-9.64282
▁iove	-9.64375
▁buzzing	-9.6441
▁shape	-9.6443
▁rin	-9.64435
▁fate	-9.64449
▁culture	-9.64464
▁tie	-9.64479
▁dressed	-9.64497
▁stocking	-9.64549
com	-9.64555
▁ken	-9.64714
▁lifting	-9.64935
▁tears	-9.65084
▁shooter	-9.65089
▁pulled	-9.65388
▁books	-9.65622
▁magical	-9.6577
▁seemed	-9.65804
▁guests	-9.65847
▁mothers	-9.65886
▁ideas	-9.65959
▁orphans	-9.66152
▁bets	-9.66202
repe	-9.66327
▁bobs	-9.66394
ying	-9.66417
▁steps	-9.66424
▁pul	-9.66691
▁sports	-9.66769
▁ma	-9.67093
▁cards	-9.67231
ide	-9.67651
ian	-9.67743
▁mighty	-9.67815
▁da	-9.67993
▁doors	-9.68108
ma	-9.68203
▁someones	-9.68255
▁moments	-9.68484
▁woo	-9.68644
▁fits	-9.68764
ish	-9.6891
▁bark	-9.6904
▁pieces	-9.69234
▁illusion	-9.69404
▁incident	-9.69451
▁josh	-9.69458
▁cage	-9.69465
▁sale	-9.69472
▁whistles	-9.69546
▁pup	-9.69585
▁weapon	-9.69602
▁diamond	-9.69629
▁wowser	-9.69648
▁student	-9.69674
▁crown	-9.69704
▁guest	-9.69706
▁fan	-9.6974
▁sub	-9.69753
▁bon	-9.69936
▁wrap	-9.70019
▁com	-9.70202
beat	-9.70476
▁warn	-9.70763
▁mile	-9.70766
▁express	-9.7077
▁states	-9.70796
ice	-9.70834
land	-9.70929
▁faces	-9.71038
▁stock	-9.71049
ur	-9.7122
▁concern	-9.71282
▁complete	-9.71301
▁rush	-9.71315
▁beep	-9.7132
▁blame	-9.71379
▁fa	-9.71404
▁total	-9.71469
▁murder	-9.7152
▁create	-9.71537
▁cast	-9.71543
▁cloth	-9.71563
ley	-9.71616
▁breeze	-9.71646
▁carriage	-9.71646
▁dawn	-9.71646
▁donnybrook	-9.71646
▁expedition	-9.71646
▁hospital	-9.71646
▁jennifer	-9.71646
▁klaus	-9.71646
▁mckible	-9.71646
▁meadow	-9.71646
▁odette	-9.71646
▁shakespeare	-9.71646
▁smooth	-9.71646
▁spanish	-9.71646
▁terlip	-9.71646
▁emotional	-9.71646
▁oska	-9.71646
▁ransom	-9.71646
▁salad	-9.71646
▁barbara	-9.71646
▁turkey	-9.71646
▁upstairs	-9.71646
▁linus	-9.71646
▁parkhurst	-9.71646
▁upsidedown	-9.71646
▁anci	-9.71647
▁aircraft	-9.71648
▁terrific	-9.71648
▁cheap	-9.71648
tock	-9.71648
▁easier	-9.71649
▁interference	-9.71649
▁generation	-9.7165
▁brent	-9.7165
▁health	-9.71651
▁ciao	-9.71651
▁grant	-9.71652
▁duty	-9.71653
▁sunset	-9.71653
▁fiddle	-9.71655
▁intelligence	-9.71656
▁dozen	-9.71657
▁martin	-9.71658
erald	-9.7166
▁greek	-9.71661
▁tingle	-9.71662
▁code	-9.71665
▁feast	-9.71668
▁oooh	-9.7168
▁sunny	-9.71693
▁wing	-9.71696
▁lean	-9.71701
▁meg	-9.71702
▁bout	-9.71706
▁memory	-9.71723
▁unfortunately	-9.71726
▁stolen	-9.71733
▁pin	-9.7175
▁neal	-9.71751
▁stopped	-9.71753
▁compare	-9.71771
▁suspect	-9.718
▁woolly	-9.71802
▁fetch	-9.71807
▁itch	-9.71808
▁ancestors	-9.71894
▁jen	-9.71908
▁designed	-9.71932
ra	-9.71947
▁howling	-9.71981
▁received	-9.72027
▁lower	-9.72032
▁baboons	-9.72056
heels	-9.72132
▁ruined	-9.72177
▁bud	-9.72204
▁shop	-9.72228
anche	-9.72342
▁breathe	-9.72354
▁howdy	-9.72432
▁shadows	-9.7271
hark	-9.72798
▁finding	-9.72925
▁picked	-9.73222
▁caused	-9.73359
v	-9.73386
et	-9.7359
▁hearing	-9.73601
▁returned	-9.73625
▁wowsers	-9.737
▁ls	-9.73756
▁finds	-9.73774
▁lied	-9.74064
▁keeps	-9.74312
▁shooting	-9.74453
▁apes	-9.74491
em	-9.74673
over	-9.75156
▁roberts	-9.75191
▁cheer	-9.75372
▁cares	-9.75697
oo	-9.75734
▁dreaming	-9.7634
ern	-9.76567
▁answers	-9.76952
▁grace	-9.77073
▁fi	-9.77168
▁skill	-9.7727
▁meaning	-9.77283
▁cows	-9.77374
▁mere	-9.7744
▁trap	-9.77566
▁deserve	-9.7761
▁lies	-9.77619
▁shirt	-9.77677
▁tip	-9.77691
▁angel	-9.77781
▁candle	-9.77783
▁mortal	-9.77783
▁sultan	-9.77877
▁root	-9.77885
▁victim	-9.77934
▁raccoon	-9.77954
▁airline	-9.78023
▁string	-9.78129
▁includ	-9.78311
▁aha	-9.78431
▁page	-9.78538
▁singer	-9.78785
ody	-9.78808
ile	-9.79145
like	-9.79529
▁worrying	-9.79589
▁foreign	-9.79602
▁discover	-9.79624
thirsty	-9.79626
▁sneak	-9.79647
▁assure	-9.79733
▁normal	-9.79771
▁mel	-9.798
▁corn	-9.79868
▁walt	-9.79869
ttie	-9.79883
▁hoo	-9.79889
▁cab	-9.79893
▁punch	-9.79905
▁conduct	-9.79979
▁airplane	-9.79979
▁british	-9.79979
▁courage	-9.79979
▁disaster	-9.79979
▁electric	-9.79979
▁fanfare	-9.79979
▁footsteps	-9.79979
▁fuji	-9.79979
▁heiio	-9.79979
▁instant	-9.79979
▁kodi	-9.79979
▁kumonga	-9.79979
▁london	-9.79979
▁magnificent	-9.79979
▁medicine	-9.79979
▁mercury	-9.79979
▁ocean	-9.79979
▁schuyler	-9.79979
▁sentimental	-9.79979
▁stomach	-9.79979
▁swirled	-9.79979
▁target	-9.79979
▁television	-9.79979
▁thread	-9.79979
▁trumpet	-9.79979
▁twelve	-9.79979
▁worn	-9.79979
▁folger	-9.79979
▁hansen	-9.79979
▁fernfield	-9.79979
▁permission	-9.79979
▁throbbing	-9.79979
▁joking	-9.7998
▁ryan	-9.7998
▁thudding	-9.7998
▁kartik	-9.7998
▁alert	-9.7998
▁foster	-9.79981
▁hockey	-9.79981
▁savage	-9.79982
▁sobbing	-9.79982
▁audition	-9.79983
▁tuck	-9.79985
▁spark	-9.79986
▁governor	-9.79986
▁insist	-9.7999
▁pair	-9.79994
▁robby	-9.79996
▁brush	-9.79996
▁sleigh	-9.79996
▁owner	-9.79997
▁chiid	-9.79999
▁suspense	-9.80003
▁plus	-9.80005
▁invention	-9.80007
▁gain	-9.80011
▁pressure	-9.80012
▁manpowered	-9.80021
▁nome	-9.80024
▁eagle	-9.8005
▁style	-9.80064
▁oid	-9.80064
▁darkness	-9.80093
▁factory	-9.80151
▁net	-9.80199
▁non	-9.8021
▁bubble	-9.80224
▁squeaking	-9.80237
▁toes	-9.80294
▁pants	-9.80301
▁giggles	-9.80427
▁crops	-9.80427
▁west	-9.80457
▁bend	-9.80462
▁entirely	-9.80479
▁dings	-9.80548
▁uno	-9.80598
▁filled	-9.80632
▁dramatic	-9.80647
▁realized	-9.80648
▁don	-9.80659
▁everyones	-9.8066
▁reserve	-9.80684
▁treated	-9.80829
▁leer	-9.80845
▁dearest	-9.80849
▁higher	-9.8091
▁nation	-9.80915
all	-9.80935
▁carefully	-9.81155
▁gods	-9.8119
▁expected	-9.81376
ways	-9.81386
▁vi	-9.81696
ture	-9.81758
▁mini	-9.81818
▁knocking	-9.81881
▁farmers	-9.81928
▁followed	-9.82189
ta	-9.8221
▁diamonds	-9.82218
▁thinks	-9.82395
▁princey	-9.82495
▁sta	-9.82751
▁dreamed	-9.82848
▁ghosts	-9.83122
▁drinking	-9.83247
▁drivers	-9.83338
u	-9.83418
▁ad	-9.83515
▁er	-9.83641
▁killing	-9.83835
▁ca	-9.8403
▁players	-9.84099
▁walls	-9.84173
▁mud	-9.84341
▁en	-9.84361
▁where	-9.84445
▁art	-9.84461
▁positions	-9.8458
▁clicks	-9.84975
lon	-9.85138
ize	-9.85372
▁moves	-9.85451
▁remind	-9.85596
ank	-9.85697
▁goal	-9.85741
▁talked	-9.86002
▁yell	-9.86375
▁parts	-9.86452
▁nightmare	-9.86768
▁peck	-9.86782
▁creak	-9.86819
▁feather	-9.8693
▁height	-9.86938
▁hook	-9.86942
▁weekend	-9.86946
▁joke	-9.86996
▁camera	-9.87016
▁color	-9.87067
▁stink	-9.87106
ton	-9.87193
▁east	-9.8726
▁farmer	-9.87406
ses	-9.8774
▁there	-9.87818
▁crack	-9.88062
sky	-9.88105
▁fifty	-9.88231
▁machines	-9.88285
dy	-9.88373
▁balloon	-9.88382
▁approach	-9.88432
▁limit	-9.88652
▁request	-9.88653
▁arrest	-9.88682
▁mix	-9.88709
though	-9.88744
▁roma	-9.88751
▁load	-9.88755
▁tow	-9.88757
▁luc	-9.88777
▁scare	-9.88795
▁dirt	-9.88797
▁rounds	-9.88855
▁recognize	-9.88892
▁range	-9.88915
▁actual	-9.88955
▁solve	-9.8896
lle	-9.88991
▁defend	-9.89027
▁legal	-9.89045
▁spun	-9.89067
▁beloved	-9.8907
▁benevolence	-9.8907
▁blossom	-9.8907
▁character	-9.8907
▁chariot	-9.8907
▁charlotte	-9.8907
▁column	-9.8907
▁dearborne	-9.8907
▁easily	-9.8907
▁espresso	-9.8907
▁eventually	-9.8907
▁extreme	-9.8907
▁guarantee	-9.8907
▁happily	-9.8907
▁jinnie	-9.8907
▁necklace	-9.8907
▁nectar	-9.8907
▁poison	-9.8907
▁ribbit	-9.8907
▁separate	-9.8907
▁sheriff	-9.8907
▁somehow	-9.8907
▁stemming	-9.8907
▁therefore	-9.8907
▁thorensen	-9.8907
▁unique	-9.8907
▁ernie	-9.8907
▁grandpa	-9.8907
▁sipes	-9.8907
▁spoil	-9.8907
▁temperature	-9.8907
▁mercy	-9.8907
▁promotion	-9.8907
▁swimming	-9.8907
▁cyclone	-9.8907
▁mallinger	-9.8907
▁canoe	-9.89071
rattling	-9.89071
▁phew	-9.89071
▁current	-9.89071
▁gotcha	-9.89071
▁ingenious	-9.89072
▁matson	-9.89073
▁dumpling	-9.89073
▁silence	-9.89073
▁assistant	-9.89074
▁motherinlaw	-9.89074
▁admiral	-9.89075
▁scary	-9.89075
▁square	-9.89075
▁trash	-9.89075
▁grew	-9.89075
while	-9.89076
▁delay	-9.89076
▁whobble	-9.89076
▁greetings	-9.89076
▁seattle	-9.89077
▁failure	-9.89078
▁supper	-9.89079
▁lionel	-9.8908
▁muffled	-9.89083
▁extraordinary	-9.89083
▁crumply	-9.89085
▁barney	-9.89085
▁earlier	-9.89086
▁dropped	-9.89086
▁hiya	-9.89092
▁lazy	-9.89094
▁skate	-9.89095
▁sunday	-9.89097
▁drunk	-9.89102
▁original	-9.89102
▁whalen	-9.89103
▁yum	-9.89105
▁pumpkin	-9.89107
▁began	-9.89107
▁vp	-9.89109
▁guilty	-9.89111
▁bobby	-9.89117
▁ceo	-9.89122
▁confidence	-9.89123
▁staff	-9.89123
▁wet	-9.89126
▁harry	-9.89134
▁tasty	-9.89135
▁capable	-9.89142
▁lemon	-9.89152
▁chest	-9.89153
▁aware	-9.89154
▁strict	-9.89154
▁latte	-9.89155
▁feder	-9.89155
▁impressed	-9.89158
▁bike	-9.89168
▁ki	-9.89176
▁chain	-9.89179
▁phillips	-9.89179
▁rumbles	-9.89182
▁rare	-9.89186
▁bah	-9.89198
▁sold	-9.89202
▁hissing	-9.89226
▁pole	-9.89229
▁fairies	-9.89239
▁cock	-9.89244
▁mutt	-9.89248
▁fourth	-9.89249
▁tony	-9.89255
▁carried	-9.89259
▁aim	-9.89269
▁ways	-9.89283
▁grown	-9.89338
▁skies	-9.89339
erary	-9.89353
▁passion	-9.8937
▁wandering	-9.89407
▁sat	-9.89428
▁eaten	-9.89468
▁thirsty	-9.89473
▁loaded	-9.89492
▁concerned	-9.89507
▁nest	-9.89527
▁warned	-9.89534
▁honestly	-9.89587
hyd	-9.89712
▁flame	-9.89793
▁chase	-9.89852
▁honks	-9.89959
▁packed	-9.90055
▁hug	-9.9006
▁su	-9.90071
▁liked	-9.90072
▁mayor	-9.9015
▁shades	-9.9017
▁cheating	-9.90218
▁county	-9.90284
▁muscles	-9.90347
▁ends	-9.90352
berate	-9.90416
▁christ	-9.90453
▁wool	-9.90683
▁riverhorses	-9.90741
▁clicking	-9.90808
▁bro	-9.90839
▁lands	-9.90841
▁bones	-9.90917
▁toys	-9.90938
▁degrees	-9.90939
▁y	-9.91016
amas	-9.91165
our	-9.91255
▁raccoons	-9.91335
fully	-9.91517
▁feelings	-9.91524
▁el	-9.91564
▁older	-9.91616
ate	-9.91682
▁lived	-9.91713
▁holidays	-9.91732
▁ooo	-9.91799
▁powers	-9.91809
▁distribute	-9.92049
ules	-9.92254
▁members	-9.92329
away	-9.92339
ps	-9.93151
▁lookin	-9.93153
ster	-9.93266
▁col	-9.93559
bles	-9.93822
▁lion	-9.93891
▁kinds	-9.93945
▁led	-9.94083
elle	-9.94196
▁bust	-9.94309
▁paying	-9.94315
ou	-9.94333
ping	-9.94536
mber	-9.94574
▁bees	-9.947
▁monkeys	-9.94744
▁stu	-9.9484
▁will	-9.95022
you	-9.95062
▁design	-9.95085
▁fields	-9.95145
otten	-9.95585
▁bang	-9.96249
▁cor	-9.96332
▁nana	-9.96393
son	-9.96469
▁exist	-9.96622
▁fe	-9.96626
▁tradition	-9.96696
▁anchor	-9.96788
▁photo	-9.96926
▁gorilla	-9.96929
▁damage	-9.96937
▁cookie	-9.96943
ical	-9.97003
▁devil	-9.97029
▁degree	-9.97044
▁plate	-9.97085
▁gate	-9.97095
▁cloud	-9.97096
▁refer	-9.97151
▁toy	-9.9722
▁rot	-9.97772
▁winners	-9.97815
aval	-9.98055
▁counts	-9.98128
▁sink	-9.98356
▁smash	-9.98367
▁bowl	-9.98456
▁invent	-9.98508
line	-9.98574
gh	-9.98582
board	-9.98671
▁earl	-9.98677
▁focus	-9.98682
▁thrill	-9.98688
book	-9.98694
ied	-9.98711
▁groov	-9.98773
▁advance	-9.98814
▁pleased	-9.98817
▁nap	-9.98818
▁release	-9.98825
▁tr	-9.98858
▁replace	-9.98897
▁steam	-9.98948
▁flow	-9.98951
▁speech	-9.98957
▁bow	-9.98964
▁guide	-9.98977
▁noon	-9.98995
rumbling	-9.99012
▁suppl	-9.99028
mois	-9.99031
▁pump	-9.99033
▁monstro	-9.99039
▁fab	-9.99047
▁basic	-9.9906
▁benjamin	-9.9907
▁bishop	-9.9907
▁enemies	-9.9907
▁hepworth	-9.9907
▁holmsby	-9.9907
▁imperial	-9.9907
▁interview	-9.9907
▁jorma	-9.9907
▁lmpossible	-9.9907
▁melanchol	-9.9907
▁mermoz	-9.9907
▁murray	-9.9907
▁pikachu	-9.9907
▁source	-9.9907
▁stepmother	-9.9907
▁suicune	-9.9907
▁suspicious	-9.9907
▁vehicle	-9.9907
▁weird	-9.9907
▁june	-9.9907
▁length	-9.9907
▁rudolph	-9.9907
▁achieve	-9.9907
▁method	-9.9907
▁clarise	-9.9907
▁farewell	-9.99071
▁picnic	-9.99071
▁grazie	-9.99071
▁terrance	-9.99071
▁recall	-9.99071
▁believing	-9.99072
▁pollination	-9.99072
▁definiteiy	-9.99072
▁instructions	-9.99072
▁available	-9.99073
▁diana	-9.99073
▁friday	-9.99073
▁government	-9.99073
▁bradley	-9.99073
▁lecroix	-9.99074
▁kidnapped	-9.99074
▁tiger	-9.99074
▁joan	-9.99074
▁maria	-9.99076
▁bucket	-9.99077
▁surgery	-9.99078
▁coast	-9.99079
▁flock	-9.99079
▁terribly	-9.99081
▁gaw	-9.99081
▁jaw	-9.99082
▁baseball	-9.99084
▁flew	-9.99084
▁memories	-9.99085
▁girlfriend	-9.99086
▁territory	-9.99086
▁mostly	-9.99087
▁christine	-9.99088
▁dating	-9.99089
▁randy	-9.99089
▁advantage	-9.99091
▁agency	-9.99091
▁bandit	-9.99095
▁rode	-9.99095
▁boyfriend	-9.99096
ibul	-9.99097
▁nearby	-9.99099
▁fore	-9.991
▁loan	-9.99101
▁foal	-9.99104
▁squad	-9.99106
▁freeze	-9.99113
▁ruby	-9.99121
▁wrapped	-9.99126
▁bread	-9.99127
▁schedule	-9.99127
▁parl	-9.99132
▁halfway	-9.99141
▁luti	-9.99143
▁spill	-9.99148
▁shore	-9.99154
▁laser	-9.99158
▁severa	-9.99166
▁injury	-9.99173
▁wipe	-9.99174
owwow	-9.99183
▁gil	-9.99183
▁piay	-9.99184
▁trailer	-9.99184
▁directly	-9.99221
▁maid	-9.99227
▁coat	-9.99241
▁disappointed	-9.99286
▁stopping	-9.99291
▁sneeze	-9.99294
▁merely	-9.99296
▁clucking	-9.99311
▁landon	-9.99317
▁sniffing	-9.99318
be	-9.9937
▁oughta	-9.99388
▁failed	-9.994
▁uhuh	-9.99448
▁bail	-9.99449
▁naturally	-9.99487
▁served	-9.99514
▁host	-9.9953
▁classes	-9.9954
neer	-9.99553
▁whooping	-9.99563
▁seeds	-9.996
▁gotten	-9.99604
▁hum	-9.99618
▁knowledge	-9.99624
ions	-9.99667
▁beasts	-9.99705
do	-9.99738
▁err	-9.99761
▁cracking	-9.99794
▁destroyed	-9.99828
▁seriously	-9.99837
▁wast	-9.99872
▁beeping	-9.99949
▁forced	-9.9995
ame	-9.99958
▁z	-10.0002
▁leprechauns	-10.0005
▁coughs	-10.0006
▁clearly	-10.0018
ble	-10.0019
▁songs	-10.0031
▁studying	-10.0035
▁knocked	-10.0038
▁fixed	-10.0049
▁stops	-10.005
li	-10.0057
ticky	-10.0062
cede	-10.0068
▁regents	-10.0071
▁touched	-10.0081
foot	-10.0085
▁fishing	-10.0091
▁eggs	-10.0093
▁traveling	-10.0096
▁mid	-10.0102
▁bored	-10.0113
▁gates	-10.0116
▁heresy	-10.0119
▁reached	-10.0137
▁sore	-10.0151
▁testing	-10.0156
▁buzz	-10.0177
▁enjoying	-10.0196
bit	-10.0211
▁sis	-10.0213
▁wand	-10.0219
▁ln	-10.0221
mic	-10.0231
▁nail	-10.0231
chat	-10.0233
ro	-10.0241
ooh	-10.0244
▁chickens	-10.0247
▁belongs	-10.0251
▁bombs	-10.0269
ever	-10.0277
▁hippos	-10.0292
ped	-10.0309
ver	-10.0328
▁breaking	-10.0336
▁notes	-10.0342
▁jobs	-10.0355
ay	-10.0362
▁troubles	-10.0376
▁dads	-10.0392
ts	-10.0393
end	-10.0401
▁sum	-10.044
▁changes	-10.0525
res	-10.0569
ke	-10.0643
▁bags	-10.067
▁ropes	-10.0675
▁tap	-10.0708
▁worlds	-10.0744
▁rocks	-10.0762
▁gasp	-10.0764
▁wishing	-10.0782
▁blockhead	-10.0788
▁quarter	-10.0788
nic	-10.0794
▁hid	-10.0796
▁roger	-10.0798
▁puff	-10.0798
▁trial	-10.0801
▁ye	-10.0803
▁employee	-10.0804
▁adult	-10.0808
▁egg	-10.0815
▁riverhorse	-10.0816
▁tune	-10.0818
▁sometime	-10.0823
▁gen	-10.0828
▁bone	-10.0849
ades	-10.0853
▁he	-10.0868
▁tale	-10.0927
▁breed	-10.0937
▁shin	-10.0942
▁log	-10.0947
red	-10.0955
▁mis	-10.096
ward	-10.0972
▁gear	-10.0974
down	-10.0976
▁intend	-10.0977
▁charm	-10.0984
fire	-10.0984
▁fail	-10.099
back	-10.0991
▁require	-10.0992
▁myster	-10.0993
▁invite	-10.0996
▁regular	-10.0999
▁vicious	-10.1
▁obvious	-10.1
▁chances	-10.1003
▁witness	-10.1008
▁awake	-10.1011
▁desp	-10.1012
▁anim	-10.1014
▁progress	-10.1014
rsh	-10.1014
▁ol	-10.1016
▁chair	-10.1016
▁puddin	-10.1016
ordinary	-10.1016
▁perform	-10.1017
▁brief	-10.1018
▁amuse	-10.1018
ezvous	-10.1018
▁adorable	-10.1018
▁alphabatical	-10.1018
▁assimilate	-10.1018
▁beneath	-10.1018
▁entrance	-10.1018
▁fifth	-10.1018
▁fountain	-10.1018
▁freak	-10.1018
▁granny	-10.1018
▁grief	-10.1018
▁heechul	-10.1018
▁hummingbird	-10.1018
▁innocence	-10.1018
▁lodge	-10.1018
▁narrow	-10.1018
▁nemesis	-10.1018
▁olympus	-10.1018
▁particular	-10.1018
▁poirier	-10.1018
▁presence	-10.1018
▁rendezvous	-10.1018
▁responsible	-10.1018
▁restaurant	-10.1018
▁scientist	-10.1018
▁shelter	-10.1018
▁shrieks	-10.1018
▁solution	-10.1018
▁sorcerer	-10.1018
▁stubborn	-10.1018
▁subtitle	-10.1018
▁succeed	-10.1018
▁survival	-10.1018
▁sylvia	-10.1018
▁thirty	-10.1018
▁uncomfortable	-10.1018
▁unhappy	-10.1018
▁wisdom	-10.1018
▁withdraw	-10.1018
▁written	-10.1018
▁yawning	-10.1018
▁ashamed	-10.1018
▁chinese	-10.1018
▁becoming	-10.1018
▁ensure	-10.1018
▁license	-10.1018
▁pork	-10.1018
▁paradise	-10.1018
▁petersen	-10.1018
▁stammering	-10.1018
▁hmph	-10.1018
▁flicky	-10.1018
▁tongue	-10.1018
▁toast	-10.1018
▁blew	-10.1018
▁invisible	-10.1018
▁slope	-10.1018
▁luke	-10.1018
▁advice	-10.1018
▁eleven	-10.1018
▁expelled	-10.1018
▁rooster	-10.1018
▁squadron	-10.1018
▁tootall	-10.1018
▁delicious	-10.1018
▁yuck	-10.1018
▁autograph	-10.1018
▁riley	-10.1018
▁carnival	-10.1019
▁lucifer	-10.1019
▁carruthers	-10.1019
▁await	-10.1019
▁maximum	-10.1019
▁freedom	-10.1019
▁whoever	-10.1019
▁stack	-10.1019
▁ewe	-10.1019
▁oof	-10.1019
▁professional	-10.1019
▁jamal	-10.1019
▁whoohoo	-10.1019
▁sari	-10.1019
▁frost	-10.1019
▁communication	-10.1019
▁pride	-10.102
▁stakeout	-10.102
▁whinn	-10.102
▁crackling	-10.102
▁trace	-10.102
▁print	-10.102
▁process	-10.102
▁bedroom	-10.102
▁fatso	-10.102
▁gentleman	-10.102
▁ditch	-10.102
▁dough	-10.102
▁decent	-10.102
▁snuffy	-10.102
▁operator	-10.102
▁sheepdog	-10.102
▁deposit	-10.102
▁valuable	-10.102
▁chocolate	-10.102
▁screen	-10.102
▁sugar	-10.1021
▁skyship	-10.1021
▁hush	-10.1021
▁education	-10.1021
hand	-10.1021
▁anxious	-10.1022
▁rail	-10.1022
▁beef	-10.1022
▁foolish	-10.1022
▁whinnies	-10.1022
▁award	-10.1023
▁strategy	-10.1023
▁publicity	-10.1024
▁cries	-10.1024
▁connection	-10.1025
▁sew	-10.1025
▁involved	-10.1025
▁jet	-10.1025
▁pace	-10.1026
▁commissioner	-10.1027
▁balance	-10.1027
▁stake	-10.1027
▁tries	-10.1028
▁under	-10.1028
▁cutting	-10.1029
▁safety	-10.103
▁chipmunks	-10.1032
▁liar	-10.1032
▁walter	-10.1033
▁cargo	-10.1034
▁viciously	-10.1037
▁exhausted	-10.1038
▁delighted	-10.1038
▁jar	-10.1038
▁produced	-10.104
▁froze	-10.1043
▁prey	-10.1049
▁hopeless	-10.1049
▁chased	-10.1049
▁ce	-10.105
▁mans	-10.105
▁butter	-10.1051
▁frankly	-10.1052
▁cure	-10.1053
▁combin	-10.1053
▁fame	-10.1053
slick	-10.1054
▁amen	-10.1055
▁whines	-10.1055
▁tribes	-10.1055
▁insects	-10.1055
▁ze	-10.1056
▁challenger	-10.1056
▁stairs	-10.1058
▁usual	-10.1061
▁completed	-10.1061
▁commander	-10.1061
▁fallen	-10.1062
▁bully	-10.1063
▁reality	-10.1066
▁model	-10.1067
▁hall	-10.1068
▁issue	-10.1071
▁boots	-10.1072
▁laid	-10.1074
▁rent	-10.1077
▁romantic	-10.1077
▁goblins	-10.108
▁mamm	-10.1085
ten	-10.1087
▁row	-10.1091
▁bowling	-10.1093
▁bush	-10.1103
med	-10.1121
believ	-10.1125
▁outdoors	-10.1129
▁cops	-10.1134
▁capture	-10.1146
▁delivered	-10.1152
▁dariing	-10.1157
▁considered	-10.1161
▁kite	-10.1163
▁stands	-10.1165
▁armed	-10.1165
▁str	-10.1172
▁safely	-10.1173
▁exams	-10.1178
▁recorded	-10.1191
▁deed	-10.1193
▁wa	-10.1201
▁bl	-10.1202
▁site	-10.1202
▁soldiers	-10.1203
▁details	-10.1203
through	-10.1205
▁ar	-10.1231
▁slap	-10.1231
car	-10.1236
▁trained	-10.1239
▁trainer	-10.1243
▁oni	-10.1245
▁pete	-10.1245
▁closed	-10.1261
▁carrie	-10.1271
▁siva	-10.1272
▁signor	-10.1281
▁lately	-10.1281
▁victims	-10.1301
▁weapons	-10.1326
▁improve	-10.1332
▁cy	-10.1348
▁carl	-10.1348
▁servants	-10.1351
▁expecting	-10.1359
▁image	-10.1371
▁credits	-10.1376
▁indians	-10.1377
co	-10.1392
vi	-10.1397
un	-10.1409
▁closes	-10.142
▁conditions	-10.1451
side	-10.1455
▁cr	-10.1456
▁bo	-10.1456
▁opened	-10.1464
▁landing	-10.1487
never	-10.15
▁plants	-10.1507
▁yea	-10.151
▁nights	-10.1512
▁papers	-10.1551
gen	-10.1563
▁wished	-10.1567
▁wh	-10.158
▁thinkin	-10.1601
▁ducks	-10.1602
let	-10.1605
▁fri	-10.1613
▁unto	-10.1618
▁catching	-10.1624
▁bri	-10.165
▁believed	-10.1667
▁barrys	-10.1679
▁tomorrows	-10.1703
ensible	-10.1716
▁dot	-10.1746
▁gi	-10.1757
▁when	-10.1776
magne	-10.1785
▁muc	-10.1793
▁gar	-10.1804
▁ses	-10.1807
ors	-10.187
ible	-10.1872
▁moo	-10.1899
▁monsters	-10.191
ue	-10.1926
ier	-10.1939
bell	-10.1952
▁records	-10.1998
sa	-10.2008
▁arrive	-10.2013
▁detail	-10.2018
boy	-10.2021
▁teams	-10.2029
▁instructor	-10.204
▁cent	-10.2052
▁wunko	-10.206
▁grade	-10.2061
▁kings	-10.2061
▁cowboy	-10.2062
▁soldier	-10.2064
▁regent	-10.2065
▁buck	-10.2066
ap	-10.2087
▁yard	-10.2087
▁wave	-10.2089
▁coin	-10.2097
▁that	-10.2105
▁reporter	-10.2122
▁gr	-10.2129
▁dancer	-10.2129
▁hunt	-10.213
▁spirits	-10.2144
▁che	-10.2148
▁cath	-10.2161
▁ge	-10.2174
▁film	-10.2199
ub	-10.2205
▁drama	-10.2215
looking	-10.2225
▁punish	-10.2228
▁disturb	-10.2229
▁reveal	-10.2229
▁borrow	-10.2229
▁disappear	-10.2231
dog	-10.2235
▁produce	-10.2236
▁baker	-10.2239
▁curse	-10.2242
▁restore	-10.2244
▁tear	-10.2244
▁urgent	-10.2246
▁eliminate	-10.2246
▁ro	-10.2247
ck	-10.2247
▁absolute	-10.225
il	-10.2251
ball	-10.2252
▁establish	-10.2256
bble	-10.2258
▁helen	-10.2261
▁me	-10.2263
▁mmhm	-10.2264
▁attract	-10.2266
▁somethin	-10.2266
▁kidnap	-10.2267
▁funk	-10.2267
▁represent	-10.2268
▁cruel	-10.2268
▁embrace	-10.2268
▁monitor	-10.2268
▁qualify	-10.2268
▁anderson	-10.2268
▁arrival	-10.2268
▁barbie	-10.2268
▁barnsworth	-10.2268
▁berklee	-10.2268
▁blog	-10.2268
▁celsius	-10.2268
▁champagne	-10.2268
▁coiiins	-10.2268
▁cratchit	-10.2268
▁curious	-10.2268
▁false	-10.2268
▁ferdinand	-10.2268
▁framm	-10.2268
▁fuzzy	-10.2268
▁gaskill	-10.2268
▁heidi	-10.2268
▁hiccups	-10.2268
▁julie	-10.2268
▁lawgiver	-10.2268
▁mouris	-10.2268
▁outfit	-10.2268
▁pandora	-10.2268
▁passengers	-10.2268
▁patience	-10.2268
▁peopie	-10.2268
▁phoenix	-10.2268
▁pluto	-10.2268
▁riverfoal	-10.2268
▁rupees	-10.2268
▁saturday	-10.2268
▁scoffs	-10.2268
▁senior	-10.2268
▁smack	-10.2268
▁someplace	-10.2268
▁specimen	-10.2268
▁splendid	-10.2268
▁thanksgiving	-10.2268
▁tribunal	-10.2268
▁attitude	-10.2268
▁hobby	-10.2268
▁japanese	-10.2268
▁macante	-10.2268
▁silk	-10.2268
▁superior	-10.2268
▁colony	-10.2268
▁confess	-10.2268
▁arriving	-10.2268
▁demand	-10.2268
▁ease	-10.2268
▁chanting	-10.2268
▁register	-10.2268
▁sweep	-10.2268
▁basket	-10.2268
▁birth	-10.2268
▁susie	-10.2268
▁circuit	-10.2268
▁committee	-10.2268
▁potential	-10.2268
▁bottle	-10.2268
▁church	-10.2268
▁lawyer	-10.2268
▁jensen	-10.2268
▁echo	-10.2268
▁fabulous	-10.2268
▁sisterscousins	-10.2268
▁cooing	-10.2268
▁anger	-10.2268
▁braying	-10.2268
▁bleed	-10.2268
▁remarkable	-10.2268
▁corporat	-10.2268
▁wrote	-10.2268
▁trunk	-10.2269
▁sharing	-10.2269
▁traitor	-10.2269
▁bathroom	-10.2269
▁washington	-10.2269
▁whatre	-10.2269
▁hound	-10.2269
▁carlton	-10.2269
▁couid	-10.2269
▁fox	-10.2269
▁justice	-10.2269
▁terror	-10.2269
▁bern	-10.2269
▁russian	-10.2269
▁bold	-10.2269
▁behold	-10.2269
▁performance	-10.2269
▁begun	-10.2269
▁stiff	-10.2269
▁cattle	-10.2269
▁imagination	-10.2269
▁shopping	-10.2269
▁thorn	-10.2269
▁vision	-10.2269
▁item	-10.2269
▁cellar	-10.2269
▁appointment	-10.2269
▁toid	-10.2269
▁nope	-10.227
▁sunshine	-10.227
▁silent	-10.227
▁kang	-10.227
▁slam	-10.227
▁misty	-10.227
▁glitches	-10.227
▁static	-10.227
▁starving	-10.227
▁expensive	-10.2271
▁escort	-10.2271
▁popular	-10.2271
▁research	-10.2271
▁guardian	-10.2271
▁airfield	-10.2271
▁whatll	-10.2271
uine	-10.2271
▁throne	-10.2271
▁clown	-10.2271
▁punk	-10.2272
▁junk	-10.2272
▁meow	-10.2272
▁fascinating	-10.2273
▁exploring	-10.2273
▁sex	-10.2273
▁marvelous	-10.2274
▁torture	-10.2274
▁motion	-10.2274
▁millie	-10.2275
▁argue	-10.2275
▁collection	-10.2275
▁float	-10.2275
▁whew	-10.2275
▁personality	-10.2275
▁confident	-10.2276
▁reno	-10.2276
▁theory	-10.2276
espite	-10.2277
▁unlike	-10.2277
▁upper	-10.2279
▁homework	-10.228
▁nono	-10.228
▁specialty	-10.2281
▁link	-10.2281
▁chewing	-10.2282
▁arno	-10.2282
▁sang	-10.2282
▁complaint	-10.2284
▁sitting	-10.2285
▁ahem	-10.2288
itar	-10.2288
ify	-10.229
▁crows	-10.2291
▁iot	-10.2292
▁manner	-10.2292
▁chip	-10.2292
▁path	-10.2293
▁mood	-10.2293
▁gum	-10.2293
▁glasses	-10.2295
▁coal	-10.2295
cial	-10.2295
▁chin	-10.2297
▁striker	-10.2298
▁cord	-10.2299
▁lifetime	-10.2299
▁useless	-10.23
ore	-10.23
▁tu	-10.2303
▁dash	-10.2304
▁reverse	-10.2305
▁clattering	-10.2308
▁fireworks	-10.2311
▁direct	-10.2313
▁moral	-10.2314
berg	-10.2314
▁itchy	-10.2315
▁wail	-10.2316
▁beaten	-10.2317
▁fastest	-10.2318
▁clam	-10.2319
▁mixed	-10.232
▁very	-10.2325
▁personally	-10.233
kins	-10.2332
▁shy	-10.2332
▁wilder	-10.2333
▁edit	-10.2335
▁posted	-10.2337
▁blokes	-10.2338
▁competitors	-10.2338
▁paws	-10.2338
▁calculations	-10.2339
▁beans	-10.2339
dos	-10.2345
▁noticed	-10.2349
▁ohhh	-10.2356
▁stranger	-10.2357
▁ware	-10.236
▁romans	-10.2366
▁movement	-10.2375
▁entered	-10.2381
lar	-10.2384
▁based	-10.2385
▁marching	-10.2387
▁defeat	-10.2388
▁tools	-10.2394
▁squeaks	-10.2395
▁quietly	-10.2397
▁washing	-10.2406
▁cooked	-10.2411
ho	-10.2412
▁crunch	-10.2422
▁ch	-10.2423
▁include	-10.244
▁cells	-10.245
▁kissed	-10.2457
▁lack	-10.2474
▁nicer	-10.2475
▁crashing	-10.2477
bellie	-10.2479
ong	-10.2488
▁resist	-10.2491
▁sting	-10.2493
▁ahhh	-10.2498
▁fed	-10.25
ha	-10.2505
▁cru	-10.2522
▁chitt	-10.2523
▁counter	-10.2534
ick	-10.257
▁signed	-10.2578
▁breaks	-10.258
▁whip	-10.2588
▁naps	-10.2592
▁deserves	-10.2593
▁daughters	-10.2596
▁joining	-10.2612
▁sleepy	-10.262
▁walked	-10.2621
▁treasure	-10.2641
▁yay	-10.2644
▁saxons	-10.2649
▁reporting	-10.2657
▁oo	-10.267
nd	-10.2685
ford	-10.2686
▁showing	-10.2686
da	-10.27
uel	-10.2702
win	-10.2703
▁tickets	-10.2706
con	-10.2712
▁patch	-10.2713
enti	-10.2713
ge	-10.2735
▁costs	-10.2735
▁mass	-10.2792
ache	-10.2794
j	-10.2798
▁hoped	-10.2805
▁ended	-10.2826
▁cart	-10.2881
▁rips	-10.2905
iff	-10.2909
▁tricks	-10.291
▁planes	-10.2922
▁laps	-10.2942
▁fle	-10.2953
▁windows	-10.2996
▁gunk	-10.3002
▁cu	-10.3012
▁decisions	-10.3025
▁an	-10.3038
tch	-10.3051
▁of	-10.307
▁handy	-10.3082
ized	-10.3102
▁faults	-10.3113
▁mistakes	-10.3115
ered	-10.3137
ny	-10.3153
▁matters	-10.3159
ial	-10.3219
ations	-10.3256
▁bla	-10.3263
ass	-10.3293
▁tent	-10.3311
pped	-10.3339
▁lines	-10.335
▁ending	-10.3364
os	-10.3368
▁skip	-10.3411
▁arti	-10.3425
▁miserabl	-10.3436
▁scream	-10.3436
▁whoop	-10.3457
▁orchid	-10.3466
▁odd	-10.3466
▁fence	-10.347
▁ram	-10.3471
that	-10.3472
▁haha	-10.3473
▁on	-10.3473
▁title	-10.3477
▁chimpanzee	-10.3482
▁device	-10.3484
que	-10.3484
▁pool	-10.3485
▁lad	-10.3486
▁vitamin	-10.3486
▁guidebook	-10.3487
▁neighbor	-10.3489
▁varmint	-10.3489
▁meal	-10.349
▁exam	-10.3492
▁muscle	-10.3494
▁prisoner	-10.3495
▁shadow	-10.3496
▁folk	-10.3501
▁cell	-10.3503
ight	-10.3565
▁weigh	-10.3573
▁scratch	-10.358
▁drown	-10.3581
day	-10.3581
▁hurts	-10.3584
made	-10.3584
ner	-10.3593
▁ver	-10.3593
aaa	-10.3598
off	-10.3619
▁howl	-10.3633
▁panic	-10.3637
ware	-10.364
act	-10.3647
▁sponsor	-10.3657
choke	-10.3659
▁adopt	-10.3659
house	-10.3662
but	-10.3662
charlie	-10.3663
▁demonstrate	-10.3668
▁praise	-10.3671
▁pink	-10.3675
▁technical	-10.3675
▁positive	-10.3676
▁brook	-10.3677
▁complain	-10.3678
▁van	-10.3681
▁trans	-10.3683
▁commission	-10.3686
▁grove	-10.369
▁sketch	-10.369
▁this	-10.3692
▁product	-10.3693
▁batter	-10.3695
▁gentle	-10.3695
▁europe	-10.3695
▁intelligen	-10.3695
talian	-10.3695
▁mam	-10.3696
addin	-10.3697
▁aigoo	-10.3697
▁appropriate	-10.3697
▁bastard	-10.3697
▁bonanza	-10.3697
▁brenda	-10.3697
▁britewell	-10.3697
▁buongiorno	-10.3697
▁cackling	-10.3697
▁california	-10.3697
▁catherine	-10.3697
▁challenging	-10.3697
▁chiidren	-10.3697
▁community	-10.3697
▁creek	-10.3697
▁divorce	-10.3697
▁duvalle	-10.3697
▁fingernail	-10.3697
▁gibbers	-10.3697
▁gulps	-10.3697
▁hooggho	-10.3697
▁krunch	-10.3697
▁magazine	-10.3697
▁maintain	-10.3697
▁masalva	-10.3697
▁milkweed	-10.3697
▁negative	-10.3697
▁nonfat	-10.3697
▁opposite	-10.3697
▁orchestra	-10.3697
▁primitive	-10.3697
▁rainbow	-10.3697
▁ravencroft	-10.3697
▁richthofen	-10.3697
▁rifle	-10.3697
▁sacrifice	-10.3697
▁species	-10.3697
▁stoutheart	-10.3697
▁surround	-10.3697
▁switzerland	-10.3697
▁sydney	-10.3697
▁terrain	-10.3697
▁thumpclank	-10.3697
▁tunnel	-10.3697
▁uberta	-10.3697
▁uniform	-10.3697
▁unnecessary	-10.3697
▁utah	-10.3697
▁apparently	-10.3697
▁distant	-10.3697
▁kurds	-10.3697
▁ninth	-10.3697
▁permanent	-10.3697
▁personnel	-10.3697
▁herman	-10.3697
▁underground	-10.3697
▁reckon	-10.3697
▁furniture	-10.3697
▁granddaddy	-10.3697
▁aspen	-10.3697
▁propose	-10.3697
▁reaiiy	-10.3697
▁tickle	-10.3697
▁conference	-10.3697
▁courtmartial	-10.3697
▁muttering	-10.3697
▁singsong	-10.3697
▁kruger	-10.3697
▁gym	-10.3697
▁sandwich	-10.3697
▁elmer	-10.3697
▁changing	-10.3697
▁shiva	-10.3697
▁honour	-10.3697
▁jester	-10.3697
▁sheikh	-10.3697
▁falkor	-10.3697
▁anabelle	-10.3697
▁grip	-10.3697
▁attic	-10.3697
▁capsule	-10.3697
▁cider	-10.3697
▁descent	-10.3697
▁plastic	-10.3697
▁onward	-10.3697
▁medical	-10.3697
▁collar	-10.3697
▁constant	-10.3697
▁expert	-10.3697
▁financial	-10.3697
▁faint	-10.3697
▁chicago	-10.3697
▁element	-10.3697
▁convention	-10.3697
▁martha	-10.3697
▁shortcut	-10.3697
▁colour	-10.3697
▁entertainment	-10.3697
▁puck	-10.3697
▁kenny	-10.3698
▁fake	-10.3698
▁impressive	-10.3698
▁western	-10.3698
▁blaring	-10.3698
▁finch	-10.3698
▁judo	-10.3698
ncible	-10.3698
▁clang	-10.3698
▁witch	-10.3698
▁baroness	-10.3698
▁harvest	-10.3698
▁argument	-10.3698
▁selfish	-10.3698
▁brock	-10.3698
▁clapping	-10.3698
▁budget	-10.3699
▁marley	-10.3699
▁daily	-10.3699
▁internet	-10.3699
▁wicked	-10.3699
▁skipper	-10.3699
▁ceremony	-10.3699
▁fowler	-10.3699
▁allowance	-10.37
▁snowball	-10.37
▁hindi	-10.37
▁grateful	-10.37
▁draft	-10.37
▁fortune	-10.37
▁chasing	-10.37
▁furthe	-10.37
▁label	-10.37
▁boring	-10.37
▁doomed	-10.37
▁flip	-10.37
▁prick	-10.37
▁gently	-10.37
▁adore	-10.37
▁vast	-10.37
▁persuade	-10.3701
▁fold	-10.3701
▁spaceship	-10.3702
▁property	-10.3702
▁perse	-10.3702
▁takin	-10.3702
▁alley	-10.3702
▁aside	-10.3702
▁obliged	-10.3702
▁supplies	-10.3703
▁joe	-10.3703
▁slave	-10.3703
der	-10.3705
▁hike	-10.3706
▁helena	-10.3706
▁role	-10.3706
▁cabin	-10.3707
▁artist	-10.3707
▁zion	-10.3707
▁everyday	-10.3708
▁impression	-10.3708
▁shame	-10.3708
▁protection	-10.371
▁sailor	-10.3711
caf	-10.3711
▁accused	-10.3712
▁secrets	-10.3714
▁crush	-10.3715
▁vegetables	-10.3715
▁naked	-10.3716
▁snoopy	-10.3716
▁flood	-10.3717
▁boxes	-10.3717
▁missile	-10.3718
▁arranged	-10.3718
▁convinced	-10.3719
▁hawk	-10.3721
▁hog	-10.3721
▁duet	-10.3722
▁shushing	-10.3722
▁nerve	-10.3723
▁wel	-10.3723
▁tax	-10.3724
▁freeman	-10.3728
▁factor	-10.3728
▁dining	-10.3729
ledge	-10.373
▁io	-10.3733
▁released	-10.3733
▁figures	-10.3733
▁adopted	-10.3734
▁branches	-10.3736
▁rum	-10.3736
itary	-10.374
▁disappeared	-10.374
▁joint	-10.3744
▁judges	-10.3745
▁rate	-10.3746
▁hooting	-10.3746
▁rating	-10.3748
▁whi	-10.3749
▁pine	-10.375
▁manson	-10.3752
▁barky	-10.3753
▁developing	-10.3753
▁parties	-10.3754
▁fling	-10.3762
▁ruler	-10.3762
▁scratching	-10.3764
▁ana	-10.3767
▁moron	-10.3771
▁tag	-10.3772
▁tone	-10.3773
▁ate	-10.3775
▁rein	-10.3775
▁aid	-10.3782
very	-10.3793
▁lame	-10.3794
▁goro	-10.3797
ety	-10.3801
▁dele	-10.3802
▁salt	-10.3805
▁ja	-10.3808
▁monarchs	-10.3811
▁penguins	-10.3811
▁repairs	-10.3811
▁helpless	-10.3815
▁chicks	-10.382
▁concept	-10.3821
▁supervis	-10.3824
▁proved	-10.3825
au	-10.3827
unk	-10.3829
▁down	-10.3834
▁ward	-10.3839
▁intentions	-10.3844
dium	-10.3857
▁seal	-10.3862
▁deadly	-10.3864
▁drawing	-10.3877
ipped	-10.3893
▁belle	-10.3896
▁backup	-10.3899
▁neighbors	-10.3909
▁dodge	-10.391
▁karat	-10.392
▁enjoyed	-10.3941
▁yards	-10.3942
▁wunkos	-10.3942
▁grades	-10.3942
▁cowboys	-10.3943
▁triple	-10.3946
▁younger	-10.3958
gel	-10.3958
▁carrying	-10.3971
▁searching	-10.3972
▁commenta	-10.3985
▁facts	-10.3993
▁specially	-10.4006
▁plates	-10.4008
▁exists	-10.4009
▁shhh	-10.4015
▁designs	-10.4015
▁colors	-10.4042
▁lab	-10.4062
shing	-10.4063
▁file	-10.4073
▁nah	-10.4073
▁ph	-10.4082
▁schools	-10.4087
unny	-10.4099
▁ant	-10.41
▁rocky	-10.4102
▁offering	-10.4118
▁til	-10.413
▁mare	-10.4138
▁snakes	-10.4142
▁manag	-10.4156
▁units	-10.4156
▁tellin	-10.4161
▁grav	-10.417
▁pre	-10.4173
▁saints	-10.4173
▁dispose	-10.4181
lo	-10.4183
▁tend	-10.4193
▁explosions	-10.4208
▁signals	-10.4208
▁admire	-10.4221
▁rolling	-10.4225
▁moved	-10.423
dies	-10.424
▁partners	-10.4242
▁picking	-10.4262
▁lessons	-10.4282
▁skinn	-10.4299
▁letters	-10.431
▁hu	-10.4327
ina	-10.4348
ia	-10.437
▁bu	-10.4372
not	-10.4391
ard	-10.4396
▁wonders	-10.4412
▁lo	-10.4425
ip	-10.4436
▁tables	-10.447
ik	-10.4474
ron	-10.4481
nder	-10.4503
▁apples	-10.4513
▁pri	-10.4531
▁ga	-10.4534
are	-10.4541
nis	-10.455
▁fla	-10.4551
▁ei	-10.4557
▁bump	-10.4561
so	-10.4579
▁pictures	-10.4582
cat	-10.4618
ell	-10.4628
▁horns	-10.4651
▁challenges	-10.4653
▁rug	-10.4657
▁ass	-10.4659
ath	-10.4669
▁to	-10.4694
▁metal	-10.4709
▁cos	-10.4721
▁not	-10.4721
▁sol	-10.4724
▁points	-10.473
dar	-10.4731
▁pays	-10.4735
▁jacks	-10.4745
anni	-10.4796
▁strikes	-10.4826
▁mus	-10.4828
▁drops	-10.4861
▁loo	-10.4868
▁approve	-10.4874
▁tra	-10.4874
▁dec	-10.4877
▁stayed	-10.4882
▁concentrate	-10.4882
ory	-10.4899
ept	-10.4929
▁ci	-10.4943
▁du	-10.4951
hi	-10.4953
▁operations	-10.4966
▁lip	-10.4996
stone	-10.501
lawful	-10.504
head	-10.5054
ments	-10.5083
▁kn	-10.5083
▁engines	-10.5084
ee	-10.5095
▁drag	-10.5096
▁exclaim	-10.5097
▁reward	-10.5102
▁dang	-10.5106
▁unite	-10.5107
ough	-10.5111
▁eric	-10.5112
▁dodg	-10.5117
▁invitation	-10.5126
▁material	-10.5133
come	-10.5138
▁brand	-10.5138
▁relationship	-10.5143
▁orange	-10.5145
▁contestant	-10.5147
▁pit	-10.515
▁toot	-10.5152
▁char	-10.5159
▁shade	-10.5167
▁nut	-10.5167
▁simian	-10.517
▁ay	-10.517
▁here	-10.5182
▁equal	-10.5185
▁fights	-10.5199
▁bears	-10.5199
▁dam	-10.52
▁ref	-10.5217
▁chop	-10.5245
▁develop	-10.5257
ery	-10.5264
▁capital	-10.5267
▁rang	-10.5269
▁bur	-10.5272
handed	-10.5274
▁stretch	-10.529
▁herd	-10.5295
yard	-10.5304
▁abolish	-10.5317
▁volunteer	-10.5317
▁chatter	-10.5321
unch	-10.5322
▁shock	-10.5326
piece	-10.5329
free	-10.5329
work	-10.5332
▁arrange	-10.5336
▁disappoint	-10.5342
▁trade	-10.5342
▁physical	-10.5342
▁hank	-10.5343
▁pupp	-10.5343
▁desperate	-10.5345
▁unfortunate	-10.5345
hood	-10.5346
▁assume	-10.5349
eft	-10.535
▁prison	-10.5351
▁peaceful	-10.5354
▁potato	-10.5354
▁beck	-10.5354
inky	-10.5354
▁marvel	-10.5356
▁instrument	-10.5356
▁chose	-10.5358
▁bum	-10.5359
▁detect	-10.5362
▁whale	-10.5362
▁calculat	-10.5362
▁los	-10.5362
▁annoy	-10.5362
▁greet	-10.5363
▁chica	-10.5363
▁suck	-10.5363
▁scram	-10.5363
rmore	-10.5363
▁movin	-10.5363
tinguishe	-10.5363
▁academy	-10.5363
▁adrenaline	-10.5363
▁ambrose	-10.5363
▁aruna	-10.5363
▁association	-10.5363
▁asyium	-10.5363
▁bamboo	-10.5363
▁butterfly	-10.5363
▁campaign	-10.5363
▁chipettes	-10.5363
▁cockpit	-10.5363
▁covington	-10.5363
▁critter	-10.5363
▁custody	-10.5363
▁dessert	-10.5363
▁discipline	-10.5363
▁disguise	-10.5363
▁dismissed	-10.5363
▁dispatch	-10.5363
▁dulcey	-10.5363
▁enemy	-10.5363
▁enrico	-10.5363
▁examination	-10.5363
▁exquisite	-10.5363
▁favourite	-10.5363
▁gilbert	-10.5363
▁godmother	-10.5363
▁granger	-10.5363
▁hurray	-10.5363
▁infrasound	-10.5363
▁innocent	-10.5363
▁inspection	-10.5363
▁invade	-10.5363
▁kirby	-10.5363
▁literally	-10.5363
▁lizard	-10.5363
▁loudspeaker	-10.5363
▁matsumiya	-10.5363
▁mcgreevy	-10.5363
▁misunderstand	-10.5363
▁namikawa	-10.5363
▁nephew	-10.5363
▁obtain	-10.5363
▁omaha	-10.5363
▁pennypacker	-10.5363
▁perceive	-10.5363
▁percent	-10.5363
▁phantom	-10.5363
▁pinchcliffe	-10.5363
▁powder	-10.5363
▁principal	-10.5363
▁principles	-10.5363
▁repossessed	-10.5363
▁rhiannon	-10.5363
▁ribbon	-10.5363
▁routine	-10.5363
▁scaffold	-10.5363
▁shatterpated	-10.5363
▁skulduggery	-10.5363
▁squeeze	-10.5363
▁tetsuo	-10.5363
▁tolerate	-10.5363
▁ultimate	-10.5363
▁voyage	-10.5363
▁warrender	-10.5363
▁wolves	-10.5363
▁xiliens	-10.5363
▁asterbilt	-10.5363
▁content	-10.5363
▁fulton	-10.5363
▁iady	-10.5363
▁inherit	-10.5363
▁specifica	-10.5363
▁status	-10.5363
▁swiss	-10.5363
▁thump	-10.5363
▁website	-10.5363
▁chimney	-10.5363
▁irene	-10.5363
▁naomi	-10.5363
▁pattern	-10.5363
▁ticking	-10.5363
▁transmission	-10.5363
▁almond	-10.5363
▁jerry	-10.5363
▁wardrobe	-10.5363
▁moaning	-10.5363
▁tattered	-10.5363
▁limerick	-10.5363
▁soak	-10.5363
▁entry	-10.5363
▁susan	-10.5363
▁yarn	-10.5363
▁civilised	-10.5363
▁surrender	-10.5363
▁thorough	-10.5363
▁jimmy	-10.5363
▁session	-10.5363
▁kraus	-10.5363
▁luggage	-10.5363
▁bastion	-10.5363
▁maintenance	-10.5363
▁ofcourse	-10.5363
▁disgrace	-10.5363
▁importance	-10.5363
▁robbed	-10.5364
▁cricket	-10.5364
▁angle	-10.5364
▁frame	-10.5364
▁medal	-10.5364
▁civilized	-10.5364
▁francis	-10.5364
▁reverend	-10.5364
▁secure	-10.5364
▁investigation	-10.5364
▁variety	-10.5364
▁almighty	-10.5364
▁holler	-10.5364
▁families	-10.5364
▁mask	-10.5364
▁warehouse	-10.5364
▁cancer	-10.5364
▁dipsy	-10.5364
▁pond	-10.5364
▁repre	-10.5364
▁assignment	-10.5364
▁buried	-10.5364
▁prevent	-10.5364
▁behave	-10.5364
▁crisp	-10.5364
▁bicycle	-10.5364
▁closing	-10.5364
▁swallow	-10.5364
▁brace	-10.5364
▁mmmhmm	-10.5364
▁devito	-10.5364
▁poise	-10.5364
▁conner	-10.5364
▁headquarters	-10.5364
▁pretzi	-10.5364
▁tiring	-10.5364
▁twist	-10.5364
▁athletes	-10.5364
▁centuries	-10.5364
▁opry	-10.5364
most	-10.5364
▁probation	-10.5364
▁exceptional	-10.5365
▁navy	-10.5365
▁flesh	-10.5365
▁task	-10.5365
▁affection	-10.5365
▁beau	-10.5365
▁theez	-10.5365
▁oops	-10.5365
▁campus	-10.5365
▁ouch	-10.5365
▁resort	-10.5365
▁groceries	-10.5365
▁soap	-10.5365
▁crap	-10.5366
▁benefit	-10.5366
▁objection	-10.5366
▁social	-10.5366
▁celebration	-10.5366
▁portland	-10.5366
▁freezing	-10.5366
▁giri	-10.5366
▁thick	-10.5366
▁feedback	-10.5366
▁punishment	-10.5366
▁gravity	-10.5366
▁bodies	-10.5366
▁wore	-10.5366
▁wilderness	-10.5366
▁housekeeper	-10.5367
▁actress	-10.5367
▁sunlight	-10.5367
▁channel	-10.5367
▁cyclerepairer	-10.5367
▁stunt	-10.5367
▁surprising	-10.5367
▁expand	-10.5367
▁knife	-10.5367
▁bedford	-10.5367
▁fong	-10.5367
▁quest	-10.5367
▁wives	-10.5368
▁reference	-10.5368
▁megan	-10.5368
▁proto	-10.5368
▁vari	-10.5368
▁studies	-10.5368
▁cupid	-10.5368
▁authority	-10.5368
▁slimy	-10.5369
eko	-10.5369
▁worm	-10.5369
▁giddy	-10.537
▁burst	-10.537
▁lisa	-10.537
▁dragon	-10.537
▁held	-10.537
▁soc	-10.537
▁appeal	-10.5371
▁speedway	-10.5371
ardo	-10.5371
▁hahaha	-10.5372
▁practicing	-10.5372
▁shutter	-10.5373
▁saucer	-10.5373
▁clem	-10.5373
▁mental	-10.5373
▁writing	-10.5374
▁shattered	-10.5374
▁ka	-10.5374
▁litter	-10.5374
▁storyland	-10.5374
▁sketches	-10.5374
▁parade	-10.5376
▁reid	-10.5377
iddle	-10.5377
▁patrol	-10.5378
▁stall	-10.5379
▁reliable	-10.538
gue	-10.538
▁rear	-10.5382
▁shifty	-10.5382
▁punches	-10.5383
▁palm	-10.5383
▁lair	-10.5383
istic	-10.5383
▁sitter	-10.5383
▁tender	-10.5383
▁wha	-10.5384
▁trains	-10.5384
▁socks	-10.5385
▁troop	-10.5386
king	-10.5386
▁screwed	-10.5388
▁habit	-10.5392
izing	-10.5393
▁tossed	-10.5395
▁sustained	-10.5395
▁jan	-10.5395
▁jackson	-10.5395
▁hatch	-10.5396
▁kar	-10.5396
▁manlo	-10.5397
▁payment	-10.5398
▁useful	-10.5399
ggie	-10.5399
▁mistaken	-10.5399
▁prime	-10.54
▁firing	-10.54
▁wander	-10.5401
▁shocked	-10.5402
▁developed	-10.5402
▁vet	-10.5404
▁louder	-10.5406
▁camping	-10.5407
▁circle	-10.5407
▁hyper	-10.5408
▁and	-10.5409
▁popping	-10.541
▁pm	-10.5412
▁drowned	-10.5414
▁punished	-10.5415
▁assured	-10.5416
▁cmon	-10.5417
▁reasonable	-10.5417
▁lucy	-10.5419
▁tur	-10.542
▁sling	-10.5421
▁brakes	-10.5423
▁results	-10.5423
▁copy	-10.5424
▁pity	-10.5426
▁jami	-10.5428
▁meantime	-10.5428
▁existed	-10.543
▁pard	-10.5431
▁properly	-10.5441
cy	-10.5447
tle	-10.545
▁features	-10.545
▁boxer	-10.545
▁occurre	-10.5456
▁germany	-10.5461
▁affairs	-10.5461
▁twerps	-10.5461
bu	-10.5463
▁smaller	-10.5476
▁letting	-10.5478
▁helpful	-10.5479
▁raised	-10.548
▁bestow	-10.5481
▁banging	-10.5482
▁shortly	-10.5489
▁newman	-10.5492
▁foundation	-10.5495
▁smelly	-10.5498
▁melt	-10.55
▁grande	-10.5501
▁sniffs	-10.5503
▁visitors	-10.5503
▁fades	-10.5504
▁eats	-10.5515
▁rooms	-10.5518
▁mentioned	-10.5524
▁wasted	-10.5527
▁crashed	-10.5528
▁makeup	-10.5529
▁businesses	-10.553
▁blessed	-10.5535
▁bugs	-10.5538
▁bananas	-10.5539
▁blooms	-10.5539
▁pushed	-10.5541
▁hoots	-10.5542
▁dame	-10.5545
rick	-10.5554
▁shower	-10.5555
▁tis	-10.5556
▁tryin	-10.5558
▁clove	-10.5563
▁suffering	-10.5567
▁wr	-10.557
▁covered	-10.5573
▁equals	-10.5578
▁breathing	-10.5581
▁hem	-10.5582
▁meters	-10.5584
▁fl	-10.5587
▁iive	-10.5606
▁compete	-10.5606
▁earn	-10.5607
▁flee	-10.5614
▁varmints	-10.5618
▁guidebooks	-10.5618
▁vitamins	-10.5618
▁prisoners	-10.562
▁ego	-10.5622
▁whoops	-10.5624
top	-10.5625
▁damned	-10.5633
▁climber	-10.5641
▁closely	-10.5656
▁kicked	-10.5661
▁drinks	-10.5664
tense	-10.567
▁beer	-10.5675
▁reporters	-10.5678
▁beard	-10.5684
▁banks	-10.569
▁slo	-10.5691
▁adults	-10.5697
▁sn	-10.571
▁packing	-10.5711
▁remove	-10.5718
▁cooking	-10.5718
▁sneezes	-10.573
▁devils	-10.5737
▁mole	-10.5738
lin	-10.5741
▁skiing	-10.5742
omination	-10.5751
ul	-10.5763
▁lively	-10.5763
▁waitin	-10.5766
▁yells	-10.5778
▁cd	-10.5803
▁teaching	-10.5807
▁sultans	-10.5817
▁goals	-10.5818
▁defen	-10.5821
▁ion	-10.5838
▁ms	-10.5849
▁pups	-10.5857
chi	-10.586
▁forests	-10.5879
ition	-10.5889
▁neat	-10.589
▁posts	-10.5896
▁pilots	-10.5897
▁roses	-10.5902
owned	-10.5917
▁fund	-10.595
▁dan	-10.5958
▁stones	-10.5977
▁losers	-10.5991
▁loses	-10.6002
tran	-10.6002
▁checked	-10.6003
▁spindles	-10.6018
▁dudes	-10.6023
▁kindly	-10.6023
▁ste	-10.6029
ka	-10.604
rous	-10.604
ax	-10.6046
anc	-10.6053
▁sounded	-10.6058
▁gorge	-10.6079
ned	-10.6082
▁checker	-10.6084
▁follows	-10.6087
▁reaching	-10.6104
▁seats	-10.6107
▁dongh	-10.6119
▁racer	-10.6121
oh	-10.6131
▁experiments	-10.6135
ded	-10.6151
pe	-10.6152
▁gifts	-10.6182
ois	-10.6193
iling	-10.6202
▁bubbl	-10.6265
▁wheels	-10.6269
▁para	-10.6286
ler	-10.6292
▁chill	-10.6299
ail	-10.632
▁wi	-10.6333
ski	-10.6334
sive	-10.6343
▁hopes	-10.6411
ium	-10.6429
▁career	-10.6429
▁minds	-10.6434
▁answering	-10.6438
sel	-10.6492
▁pan	-10.6501
▁ti	-10.6512
▁loyal	-10.6516
▁pas	-10.6542
▁am	-10.6546
de	-10.6561
▁gus	-10.6588
▁vo	-10.6596
▁laws	-10.661
▁ato	-10.6626
mate	-10.6677
▁abs	-10.6687
▁hats	-10.6722
▁listened	-10.6722
▁rat	-10.6731
▁cop	-10.6762
ole	-10.6767
▁streets	-10.6787
▁leads	-10.6798
▁gal	-10.6854
▁bea	-10.6879
▁au	-10.6885
▁operat	-10.6908
▁bore	-10.6927
▁wo	-10.6938
▁boa	-10.6994
▁sch	-10.701
ze	-10.7016
▁lu	-10.7025
▁hire	-10.7062
▁shout	-10.7085
▁hai	-10.7089
akl	-10.7093
▁squeak	-10.7094
▁honk	-10.7098
▁regard	-10.7101
▁cough	-10.7103
▁hoot	-10.711
ries	-10.7111
▁trail	-10.7126
▁peanut	-10.7133
▁mechanic	-10.7133
▁pipe	-10.7134
ability	-10.7134
▁dropoff	-10.7135
▁term	-10.7136
▁ruff	-10.7137
▁mat	-10.7141
▁citizen	-10.7143
▁technique	-10.7143
▁glove	-10.7143
▁tire	-10.7144
▁dart	-10.7145
lt	-10.7148
▁appearance	-10.7149
▁bloom	-10.7153
agged	-10.7153
gging	-10.7154
▁intention	-10.7155
▁banana	-10.7158
▁tool	-10.7159
▁outdoor	-10.7159
▁leprechaun	-10.716
▁league	-10.7162
▁hea	-10.7184
een	-10.7187
▁fo	-10.7189
▁bug	-10.7205
▁grounds	-10.7209
▁for	-10.7213
ated	-10.7221
▁gin	-10.7224
light	-10.7247
▁occur	-10.7251
▁ox	-10.7255
▁wea	-10.7272
▁identif	-10.7274
▁tele	-10.728
▁broadcast	-10.7293
▁strain	-10.7295
▁shiver	-10.7295
▁skateboard	-10.7296
▁clatter	-10.7299
room	-10.7309
▁pour	-10.731
bb	-10.7312
▁roo	-10.7316
etched	-10.7316
what	-10.7316
▁beam	-10.7317
▁meter	-10.7319
field	-10.732
cycle	-10.732
▁inform	-10.7321
uch	-10.7322
phone	-10.7324
▁bleat	-10.7324
▁sustain	-10.7325
ology	-10.7326
stream	-10.7326
standing	-10.7326
doodle	-10.7328
horse	-10.7328
▁delight	-10.7329
▁felon	-10.733
▁exhaust	-10.7331
▁jealous	-10.7332
minute	-10.7332
▁toss	-10.7335
▁rapid	-10.7341
▁brad	-10.7342
deer	-10.7346
▁widow	-10.7351
loo	-10.7353
hoo	-10.7354
▁connect	-10.7356
▁anxi	-10.7357
▁button	-10.7358
▁region	-10.7358
graph	-10.7358
▁comfort	-10.7359
depende	-10.736
junction	-10.736
▁moth	-10.7361
▁recommend	-10.7361
▁ridge	-10.7361
▁givin	-10.7361
▁hawaii	-10.7361
▁surge	-10.7362
▁triumph	-10.7362
▁despera	-10.7362
▁automatic	-10.7362
▁access	-10.7362
▁interfere	-10.7363
▁emerge	-10.7363
inister	-10.7363
▁forbid	-10.7363
▁shouid	-10.7363
february	-10.7363
▁accent	-10.7363
▁acknowledge	-10.7363
▁activities	-10.7363
▁ambassador	-10.7363
▁apollo	-10.7363
▁appetite	-10.7363
▁application	-10.7363
▁approximately	-10.7363
▁australia	-10.7363
▁beckett	-10.7363
▁behaving	-10.7363
▁cactus	-10.7363
▁caliba	-10.7363
▁carjackers	-10.7363
▁caterpillar	-10.7363
▁charlemagne	-10.7363
▁cheetah	-10.7363
▁chigunk	-10.7363
▁circumstances	-10.7363
▁cockadoodledo	-10.7363
▁congratulate	-10.7363
▁conquer	-10.7363
▁croaking	-10.7363
▁croaks	-10.7363
▁daniel	-10.7363
▁dedicate	-10.7363
▁divinity	-10.7363
▁ebeneezer	-10.7363
▁eligible	-10.7363
▁elizabeth	-10.7363
▁emissary	-10.7363
▁entrancing	-10.7363
▁envy	-10.7363
▁exercise	-10.7363
▁explanation	-10.7363
▁fluffy	-10.7363
▁fought	-10.7363
▁fridge	-10.7363
▁frown	-10.7363
▁furukawa	-10.7363
▁gassolini	-10.7363
▁glimpse	-10.7363
▁grouch	-10.7363
▁harmonica	-10.7363
▁haywood	-10.7363
▁hollywood	-10.7363
▁increase	-10.7363
▁instinct	-10.7363
▁insurance	-10.7363
▁joseph	-10.7363
▁julius	-10.7363
▁katarina	-10.7363
▁kathleen	-10.7363
▁kaukau	-10.7363
▁khurissan	-10.7363
▁krugman	-10.7363
▁kurzi	-10.7363
▁margad	-10.7363
▁marpole	-10.7363
▁marshmallow	-10.7363
▁mcallister	-10.7363
▁mexico	-10.7363
▁morio	-10.7363
▁museum	-10.7363
▁overnight	-10.7363
▁poem	-10.7363
▁population	-10.7363
▁pussy	-10.7363
▁reconsider	-10.7363
▁respond	-10.7363
▁response	-10.7363
▁rhyme	-10.7363
▁rustling	-10.7363
▁ruthybelle	-10.7363
▁sakurai	-10.7363
▁santiago	-10.7363
▁shrieking	-10.7363
▁slaughter	-10.7363
▁snatch	-10.7363
▁society	-10.7363
▁sorrow	-10.7363
▁spectacular	-10.7363
▁stench	-10.7363
▁sweat	-10.7363
▁symbol	-10.7363
▁topsecret	-10.7363
▁tuesday	-10.7363
▁tympani	-10.7363
▁umbrella	-10.7363
▁ursus	-10.7363
▁value	-10.7363
▁verdict	-10.7363
▁worid	-10.7363
▁yahhoohoohoo	-10.7363
▁zebra	-10.7363
▁zhl	-10.7363
▁adapt	-10.7363
▁backpack	-10.7363
▁fierce	-10.7363
▁jinx	-10.7363
▁nevertheless	-10.7363
▁oak	-10.7363
▁perfume	-10.7363
▁piano	-10.7363
▁rewind	-10.7363
▁sample	-10.7363
▁treason	-10.7363
▁delicate	-10.7363
▁froglib	-10.7363
▁horseshoe	-10.7363
▁madeira	-10.7363
▁snob	-10.7363
▁tavern	-10.7363
▁toad	-10.7363
▁eager	-10.7363
▁fungus	-10.7363
▁mild	-10.7363
▁nyah	-10.7363
▁orbit	-10.7363
▁policy	-10.7363
▁precisely	-10.7363
▁prototype	-10.7363
▁causing	-10.7363
▁influence	-10.7363
▁presto	-10.7363
▁louis	-10.7363
▁ribs	-10.7363
▁soaring	-10.7363
▁costume	-10.7363
▁kurdy	-10.7363
▁branson	-10.7363
▁fantasy	-10.7363
▁helga	-10.7363
▁llamas	-10.7363
▁typical	-10.7363
▁idol	-10.7363
▁civilization	-10.7363
▁downtown	-10.7363
▁executive	-10.7363
▁veil	-10.7363
▁duties	-10.7363
▁goddess	-10.7363
▁shaving	-10.7363
▁loaf	-10.7363
▁iisten	-10.7363
▁jammed	-10.7364
▁stewart	-10.7364
▁altogether	-10.7364
▁pathetic	-10.7364
▁tragic	-10.7364
▁drove	-10.7364
▁edge	-10.7364
▁henchman	-10.7364
▁saddle	-10.7364
▁text	-10.7364
▁razor	-10.7364
▁destruction	-10.7364
▁monday	-10.7364
▁ajay	-10.7364
▁butbut	-10.7364
▁crisis	-10.7364
▁breach	-10.7364
▁leftovers	-10.7364
▁fluid	-10.7364
▁cliff	-10.7364
▁chunk	-10.7364
▁peak	-10.7364
▁lori	-10.7364
▁grub	-10.7364
▁display	-10.7364
▁relative	-10.7364
▁bannerman	-10.7364
▁zack	-10.7364
▁criminal	-10.7364
▁compensation	-10.7364
▁irish	-10.7364
▁customers	-10.7364
▁whack	-10.7364
▁border	-10.7364
▁incompetent	-10.7364
▁vote	-10.7364
▁compliment	-10.7364
▁album	-10.7364
▁mommy	-10.7364
▁jenkins	-10.7364
▁whining	-10.7365
▁vase	-10.7365
▁dreadful	-10.7365
▁etern	-10.7365
▁conclusion	-10.7365
▁assist	-10.7365
▁codebook	-10.7365
▁disused	-10.7365
▁industries	-10.7365
▁plumb	-10.7365
▁digging	-10.7365
▁rude	-10.7365
▁rising	-10.7365
▁efficient	-10.7365
▁blake	-10.7365
▁backwards	-10.7365
▁recent	-10.7365
▁gracious	-10.7365
▁overcome	-10.7365
▁moonlight	-10.7365
▁teen	-10.7365
▁fleece	-10.7365
▁neil	-10.7365
▁chamber	-10.7365
▁detective	-10.7365
▁inspirational	-10.7366
▁whirl	-10.7366
▁ambush	-10.7366
▁rehearse	-10.7366
▁happier	-10.7366
▁recommendation	-10.7366
▁theft	-10.7366
▁basically	-10.7366
▁knot	-10.7366
▁prix	-10.7366
▁development	-10.7366
▁european	-10.7366
▁lonesome	-10.7366
▁loup	-10.7366
▁usurper	-10.7366
▁whiie	-10.7366
▁qualified	-10.7367
▁towel	-10.7367
▁meowth	-10.7367
▁suckers	-10.7367
▁minor	-10.7367
▁mock	-10.7367
▁romance	-10.7367
▁jab	-10.7367
▁astronomy	-10.7367
▁bacon	-10.7367
▁curly	-10.7367
▁roam	-10.7367
▁johnson	-10.7367
▁wax	-10.7367
▁solar	-10.7368
▁drug	-10.7368
▁drain	-10.7368
▁altitude	-10.7368
▁mirror	-10.7368
▁checkmate	-10.7368
▁chitters	-10.7368
bal	-10.7368
▁choi	-10.7368
▁loving	-10.7368
▁somewh	-10.7369
uary	-10.7369
▁childhood	-10.7369
▁companion	-10.7369
▁jessie	-10.7369
▁tide	-10.7369
▁beak	-10.737
▁crate	-10.737
▁stow	-10.737
▁hoohoo	-10.737
▁regional	-10.737
▁dome	-10.737
▁harmless	-10.737
▁mount	-10.7371
▁bench	-10.7371
▁inches	-10.7371
▁travelling	-10.7371
▁chosen	-10.7372
▁shuddering	-10.7372
▁abdu	-10.7372
▁crowing	-10.7372
greatgrandmother	-10.7373
▁iron	-10.7373
▁solo	-10.7373
▁photography	-10.7373
▁coverage	-10.7374
▁itii	-10.7374
▁hiking	-10.7374
▁apply	-10.7374
▁bedtime	-10.7374
▁fitting	-10.7374
▁owns	-10.7375
▁author	-10.7375
▁sniffl	-10.7375
▁andes	-10.7375
▁pear	-10.7376
▁fulfill	-10.7376
▁trapped	-10.7376
▁northeast	-10.7376
▁berth	-10.7376
▁temper	-10.7376
▁woodsman	-10.7377
headed	-10.7377
▁hallway	-10.7378
▁airship	-10.7378
▁shave	-10.7378
▁scent	-10.7379
▁tc	-10.7379
▁announcement	-10.738
▁secretary	-10.738
▁controlling	-10.738
▁iet	-10.7381
▁globe	-10.7381
▁badge	-10.7382
▁skiers	-10.7382
▁freshman	-10.7383
▁reel	-10.7385
▁attached	-10.7385
▁coup	-10.7385
▁jacket	-10.7385
▁thu	-10.7386
▁dumped	-10.7386
▁thud	-10.7386
▁stuttering	-10.7386
▁tolling	-10.7387
okay	-10.7387
▁desperately	-10.7387
▁overhead	-10.7387
▁angeles	-10.7388
▁determined	-10.7388
▁engaged	-10.7388
anna	-10.7389
▁shovel	-10.7389
▁sow	-10.739
▁anti	-10.739
▁brinks	-10.739
▁buzzer	-10.7391
▁mumbles	-10.7391
▁begging	-10.7391
▁larger	-10.7392
▁snoop	-10.7393
▁canceled	-10.7395
▁numberone	-10.7397
▁barker	-10.7397
▁preparing	-10.7399
▁stream	-10.74
▁xray	-10.74
▁slipping	-10.7401
cane	-10.7403
▁stable	-10.7406
▁dresses	-10.741
▁mmmm	-10.7412
▁messes	-10.7413
▁article	-10.7414
icable	-10.7415
▁quacking	-10.7417
▁advanced	-10.7417
▁mystery	-10.7419
nity	-10.742
▁clap	-10.7422
ith	-10.7422
▁donate	-10.7422
▁ton	-10.7422
▁earning	-10.7423
▁solved	-10.7423
▁taller	-10.7424
▁replaced	-10.7425
▁officially	-10.7426
▁minion	-10.7428
▁borrowed	-10.7428
▁disturbed	-10.7428
▁revealed	-10.7428
memorial	-10.743
rr	-10.743
▁straining	-10.7432
▁shivering	-10.7432
▁skateboarding	-10.7432
▁bleating	-10.7433
▁eeri	-10.7436
▁ideals	-10.7437
▁lankoms	-10.7437
▁nieces	-10.7437
▁arrangements	-10.7437
▁mor	-10.7438
▁collectors	-10.7439
▁focused	-10.7445
▁thrilled	-10.7445
ife	-10.7446
▁que	-10.7446
▁herding	-10.7447
▁heroes	-10.7451
▁busted	-10.7452
▁yu	-10.7453
▁experienced	-10.7453
▁arrested	-10.7454
▁fools	-10.7457
▁foreigner	-10.746
▁kindness	-10.746
▁deny	-10.7461
▁manual	-10.7462
▁forty	-10.7467
▁drives	-10.747
▁heavenly	-10.7471
▁safer	-10.7473
▁lane	-10.7474
▁inventor	-10.7476
▁dee	-10.7477
▁writer	-10.7478
▁aaa	-10.7479
▁unload	-10.748
ri	-10.7483
▁newspapers	-10.7485
▁bumblebees	-10.7485
▁footprints	-10.7485
▁but	-10.7493
▁softly	-10.7495
▁lightest	-10.7498
▁washed	-10.7499
▁minu	-10.7506
▁eatin	-10.7513
▁designing	-10.7514
▁spectacles	-10.7534
▁crabs	-10.7534
▁demons	-10.7534
▁knees	-10.7538
bound	-10.7545
▁added	-10.7546
▁graceful	-10.7546
▁belts	-10.7547
ns	-10.7549
▁spare	-10.7551
▁delivery	-10.7565
▁catcher	-10.7565
▁peter	-10.7567
▁cou	-10.7569
▁feelin	-10.7572
▁terms	-10.7582
▁trails	-10.7583
▁teiiing	-10.7586
▁speaker	-10.7595
▁tw	-10.7601
▁hopeful	-10.7606
▁painting	-10.7608
▁lovers	-10.7611
donna	-10.7616
▁pretending	-10.7617
▁runt	-10.7633
▁pits	-10.7634
▁instruct	-10.7636
ex	-10.7655
▁naive	-10.7659
ons	-10.7669
▁cleaned	-10.7675
shed	-10.768
▁meals	-10.768
▁chimpanzees	-10.7681
▁devices	-10.7681
▁heed	-10.7689
▁conc	-10.7707
▁pier	-10.7711
▁crossed	-10.7713
▁sid	-10.7717
▁honored	-10.7723
▁gadgets	-10.7727
▁cents	-10.7732
▁reasons	-10.7741
▁dancers	-10.7746
ga	-10.7748
ute	-10.7753
eez	-10.7757
if	-10.7758
▁goat	-10.7765
anda	-10.7774
▁treating	-10.7776
▁tunes	-10.7779
▁employees	-10.778
▁tales	-10.778
▁cane	-10.7791
bo	-10.7795
▁hip	-10.7798
▁easter	-10.7802
▁beautifully	-10.7804
▁musical	-10.7805
▁weary	-10.7808
size	-10.7809
ress	-10.7815
▁allie	-10.7817
▁jumping	-10.782
▁bal	-10.7826
▁sal	-10.7828
▁gorillas	-10.7829
▁photos	-10.7829
▁mall	-10.7839
▁danced	-10.7862
▁advise	-10.7866
▁jokes	-10.7879
▁heights	-10.7879
▁weekends	-10.7879
▁feathers	-10.7879
▁cameras	-10.7879
fu	-10.7883
▁popp	-10.7887
perative	-10.789
▁iit	-10.7892
▁engineer	-10.7929
▁kissing	-10.7951
▁tor	-10.7961
nstein	-10.7966
bour	-10.7967
▁gall	-10.8007
▁yi	-10.8014
▁hail	-10.8021
▁slides	-10.803
▁noises	-10.803
▁strays	-10.8031
▁miser	-10.8041
ba	-10.8065
ont	-10.8078
▁del	-10.8081
▁subjects	-10.8081
▁ie	-10.81
date	-10.8123
▁rd	-10.8127
▁bounds	-10.8131
aaagh	-10.8162
wig	-10.8179
▁holes	-10.8185
▁officers	-10.8193
▁ri	-10.8196
oring	-10.8196
▁canad	-10.82
▁cra	-10.8232
ade	-10.8238
▁observ	-10.8252
▁pets	-10.8254
▁ir	-10.8255
▁clearing	-10.8261
▁ni	-10.8299
▁bella	-10.8315
▁za	-10.8319
▁crimes	-10.8339
oul	-10.8356
owning	-10.836
erol	-10.8366
▁min	-10.8387
ez	-10.8397
▁nicely	-10.8398
▁spa	-10.8428
uit	-10.8445
ink	-10.8446
▁imp	-10.8462
▁watched	-10.8494
▁tastes	-10.8501
▁mon	-10.8515
▁chick	-10.8522
▁rhythm	-10.855
reaction	-10.8572
gan	-10.8575
ast	-10.8576
wick	-10.8596
▁cousins	-10.8599
hee	-10.8601
ingly	-10.8607
▁recit	-10.864
▁normans	-10.8652
rrier	-10.8691
▁thunderbirds	-10.8705
ada	-10.8711
▁tri	-10.8725
▁ban	-10.8736
ook	-10.8749
▁emperors	-10.8758
▁hitch	-10.8761
▁packs	-10.8767
▁ber	-10.8776
how	-10.8778
▁sells	-10.879
ill	-10.8792
acid	-10.8793
▁san	-10.881
hole	-10.8853
▁systems	-10.8865
▁as	-10.8865
▁pur	-10.887
▁aa	-10.8909
▁frogs	-10.8923
▁bills	-10.8924
▁sounding	-10.8966
▁kangaroos	-10.8973
▁react	-10.8988
rry	-10.9018
lf	-10.9039
▁islands	-10.9055
ically	-10.9082
ph	-10.9096
▁grave	-10.9103
▁rag	-10.9113
▁ap	-10.9145
vice	-10.9155
▁foods	-10.9156
▁predict	-10.9159
▁youth	-10.9205
▁straw	-10.9216
▁seek	-10.9236
ff	-10.925
▁checks	-10.9286
▁negotiat	-10.9312
▁yup	-10.9338
ig	-10.9338
reat	-10.9348
rite	-10.9365
hin	-10.9372
▁stations	-10.9378
▁cho	-10.9395
▁sc	-10.9402
▁pope	-10.9427
▁caf	-10.9459
cal	-10.9459
▁hills	-10.9467
▁sniff	-10.9481
▁cancel	-10.9486
▁falls	-10.9489
ril	-10.9503
full	-10.9513
pert	-10.9521
▁boats	-10.9527
eep	-10.9527
ency	-10.955
▁stepp	-10.9564
▁directi	-10.96
▁we	-10.9603
▁groan	-10.9605
ative	-10.9609
▁repair	-10.9609
gly	-10.9609
▁trem	-10.9621
▁roman	-10.9623
opher	-10.9631
▁bluebird	-10.9633
▁steak	-10.9633
▁disease	-10.9633
▁wound	-10.9634
▁occasion	-10.9635
▁jig	-10.9638
▁donation	-10.9641
▁explode	-10.9641
▁jean	-10.9642
▁curtain	-10.9643
▁pioneer	-10.9643
▁knee	-10.9645
▁bullet	-10.9646
▁wee	-10.9648
▁spectacle	-10.9649
▁crab	-10.9653
▁penguin	-10.9655
▁monarch	-10.9656
▁belt	-10.9656
lu	-10.9657
▁fade	-10.9657
▁cracker	-10.9679
lined	-10.9681
▁demon	-10.9686
▁visitor	-10.9687
▁parent	-10.9698
ot	-10.9724
ome	-10.9734
▁memor	-10.9747
▁descend	-10.9754
▁fare	-10.9759
▁spar	-10.976
scope	-10.976
▁buddys	-10.9762
▁pl	-10.9763
▁modern	-10.9766
▁disc	-10.9776
brain	-10.9781
▁glow	-10.9782
▁dock	-10.9783
heart	-10.9787
▁leak	-10.979
power	-10.9791
▁injur	-10.9794
▁quack	-10.9796
▁camp	-10.9797
▁receiv	-10.9797
▁cluck	-10.98
▁neigh	-10.9802
▁weep	-10.9805
▁assum	-10.9808
lock	-10.9809
▁clu	-10.9809
hold	-10.9817
just	-10.9818
▁frighten	-10.9825
▁screw	-10.9826
league	-10.9826
well	-10.9828
father	-10.983
water	-10.983
better	-10.983
driver	-10.983
box	-10.983
match	-10.983
shot	-10.9831
coat	-10.9831
▁wealth	-10.9832
ru	-10.9833
fall	-10.9833
maid	-10.9833
roll	-10.9834
▁shift	-10.9835
▁expose	-10.9836
▁fuss	-10.9836
▁rubber	-10.9836
▁retire	-10.9837
still	-10.9838
▁charit	-10.9838
awa	-10.9839
▁welcom	-10.984
▁determine	-10.9841
▁engage	-10.9841
▁plea	-10.9842
▁immediate	-10.9846
▁scal	-10.9846
▁convince	-10.9847
▁univers	-10.9847
west	-10.9849
▁numb	-10.985
▁heavi	-10.985
▁sauce	-10.985
othy	-10.9851
tious	-10.9852
▁tomato	-10.9854
acy	-10.9854
▁sham	-10.9854
city	-10.9858
▁rever	-10.9858
▁tyran	-10.9859
▁possess	-10.9859
▁exhibit	-10.986
for	-10.986
▁frag	-10.986
tha	-10.986
▁threat	-10.986
▁physi	-10.9861
ischer	-10.9861
▁raisin	-10.9861
▁simi	-10.9861
▁leavin	-10.9861
▁dancin	-10.9861
▁runnin	-10.9862
▁dread	-10.9862
▁cult	-10.9862
▁kiddin	-10.9862
▁civil	-10.9863
▁fratern	-10.9863
▁numeric	-10.9863
▁accelerat	-10.9863
▁twenty	-10.9863
cratic	-10.9863
mazi	-10.9863
ometric	-10.9863
uveni	-10.9863
▁abilities	-10.9863
▁advertising	-10.9863
▁anonymous	-10.9863
▁apologies	-10.9863
▁artifacts	-10.9863
▁associate	-10.9863
▁autumn	-10.9863
▁ballpark	-10.9863
▁barbecue	-10.9863
▁barrel	-10.9863
▁commence	-10.9863
▁compact	-10.9863
▁consequences	-10.9863
▁contraption	-10.9863
▁copilot	-10.9863
▁curiosity	-10.9863
▁disastrous	-10.9863
▁disrespect	-10.9863
▁dunburry	-10.9863
▁endowment	-10.9863
▁enterprise	-10.9863
▁everlasting	-10.9863
▁exhales	-10.9863
▁fandango	-10.9863
▁favour	-10.9863
▁fortynine	-10.9863
▁fossil	-10.9863
▁fracture	-10.9863
▁furschtien	-10.9863
▁gapyeong	-10.9863
▁ghidorah	-10.9863
▁gimmick	-10.9863
▁gnome	-10.9863
▁grease	-10.9863
▁handbag	-10.9863
▁hehhehheh	-10.9863
▁hencoop	-10.9863
▁horizon	-10.9863
▁iguana	-10.9863
▁indispensable	-10.9863
▁infinite	-10.9863
▁ingredients	-10.9863
▁irritating	-10.9863
▁judgment	-10.9863
▁kazuo	-10.9863
▁kokoyaki	-10.9863
▁korkona	-10.9863
▁ladyguard	-10.9863
▁lynx	-10.9863
▁maneuver	-10.9863
▁matilde	-10.9863
▁mickey	-10.9863
▁minerva	-10.9863
▁nelson	-10.9863
▁nimara	-10.9863
▁nuclear	-10.9863
▁nuisance	-10.9863
▁oppa	-10.9863
▁overwhelming	-10.9863
▁paradox	-10.9863
▁password	-10.9863
▁pedigreed	-10.9863
▁permit	-10.9863
▁platform	-10.9863
▁possum	-10.9863
▁postcard	-10.9863
▁predicament	-10.9863
▁privilege	-10.9863
▁proclamation	-10.9863
▁prosecutor	-10.9863
▁recruit	-10.9863
▁relief	-10.9863
▁relieve	-10.9863
▁roquefort	-10.9863
▁satisfied	-10.9863
▁scholarship	-10.9863
▁seashell	-10.9863
▁shattuck	-10.9863
▁smirkle	-10.9863
▁snarling	-10.9863
▁submarine	-10.9863
▁sungmin	-10.9863
▁supreme	-10.9863
▁teppet	-10.9863
▁theater	-10.9863
▁toadstool	-10.9863
▁tokyo	-10.9863
▁traffic	-10.9863
▁tragedy	-10.9863
▁truce	-10.9863
▁tshirt	-10.9863
▁unconscious	-10.9863
▁underneath	-10.9863
▁volume	-10.9863
▁waziya	-10.9863
▁wkla	-10.9863
▁worries	-10.9863
▁abbey	-10.9863
▁accompan	-10.9863
▁advertise	-10.9863
▁atlas	-10.9863
▁auction	-10.9863
▁burden	-10.9863
▁conscien	-10.9863
▁conscious	-10.9863
▁enormous	-10.9863
▁extend	-10.9863
▁inhabitants	-10.9863
▁leash	-10.9863
▁micro	-10.9863
▁obsess	-10.9863
▁peasant	-10.9863
▁piease	-10.9863
▁signature	-10.9863
erature	-10.9863
▁compos	-10.9863
▁conceal	-10.9863
▁eccentric	-10.9863
▁finance	-10.9863
▁ieave	-10.9863
▁mario	-10.9863
▁outrage	-10.9863
▁schnell	-10.9863
▁chronic	-10.9863
▁cozy	-10.9863
▁historic	-10.9863
▁illinois	-10.9863
▁scrambling	-10.9863
▁cockad	-10.9863
▁ellie	-10.9863
▁maldue	-10.9863
▁noisy	-10.9863
▁spoon	-10.9863
▁exceed	-10.9863
▁flaming	-10.9863
▁slamming	-10.9863
▁blitz	-10.9863
▁bureau	-10.9863
▁chancellor	-10.9863
▁goodnight	-10.9863
▁july	-10.9863
▁laboratory	-10.9863
▁mesmeri	-10.9863
▁opponent	-10.9863
▁surface	-10.9863
▁yacht	-10.9863
▁disqualified	-10.9863
▁cease	-10.9863
▁rubbish	-10.9863
▁slinkys	-10.9863
▁aero	-10.9863
▁ultra	-10.9863
▁inquir	-10.9863
▁sidney	-10.9863
▁alaska	-10.9863
▁scatt	-10.9863
▁snicke	-10.9863
▁deplo	-10.9863
▁pronounce	-10.9863
▁intellectual	-10.9863
▁version	-10.9863
▁transform	-10.9863
▁industrial	-10.9863
▁adamant	-10.9864
▁emotions	-10.9864
▁athens	-10.9864
▁italy	-10.9864
▁plug	-10.9864
▁extinguish	-10.9864
▁bartender	-10.9864
▁neighbourhood	-10.9864
▁ignorance	-10.9864
▁rusty	-10.9864
▁enforce	-10.9864
▁alternative	-10.9864
▁rejoice	-10.9864
▁magoo	-10.9864
▁belladonna	-10.9864
▁rosier	-10.9864
▁quot	-10.9864
▁tropic	-10.9864
▁vital	-10.9864
▁briefcase	-10.9864
▁crosscountry	-10.9864
▁ollie	-10.9864
▁commitment	-10.9864
▁apron	-10.9864
▁sector	-10.9864
▁squint	-10.9864
▁offend	-10.9864
▁sacred	-10.9864
▁existence	-10.9864
▁mutant	-10.9864
▁flush	-10.9864
▁slade	-10.9864
▁swedish	-10.9864
▁conserv	-10.9864
▁accessible	-10.9864
▁daughterinlaw	-10.9864
▁prima	-10.9864
▁aviation	-10.9864
▁cooperation	-10.9864
▁latin	-10.9864
▁shaking	-10.9864
▁pedal	-10.9864
venge	-10.9864
▁pencil	-10.9864
▁refraction	-10.9864
▁tourists	-10.9864
▁unveil	-10.9864
▁harley	-10.9864
▁ludo	-10.9864
▁notify	-10.9864
▁robberies	-10.9864
▁index	-10.9864
▁waking	-10.9864
▁depth	-10.9864
▁waik	-10.9864
▁sammy	-10.9864
▁heip	-10.9864
▁stitch	-10.9864
▁upright	-10.9864
▁proving	-10.9864
▁sliding	-10.9864
▁wouidnt	-10.9864
▁online	-10.9864
▁creative	-10.9864
▁critical	-10.9864
▁vander	-10.9864
▁distress	-10.9864
▁tidy	-10.9864
▁psychologist	-10.9865
▁scrub	-10.9865
▁filth	-10.9865
▁chopped	-10.9865
▁dumpster	-10.9865
▁arrogant	-10.9865
▁siight	-10.9865
ville	-10.9865
▁apost	-10.9865
zzing	-10.9865
▁whiff	-10.9865
▁modest	-10.9865
▁hyung	-10.9865
▁greenhill	-10.9865
▁stride	-10.9865
▁pose	-10.9865
▁kidnapping	-10.9865
▁salary	-10.9865
▁santy	-10.9865
▁salesman	-10.9865
▁drift	-10.9865
▁waahoo	-10.9865
▁habitat	-10.9865
▁phil	-10.9865
▁woke	-10.9865
▁stress	-10.9865
▁fork	-10.9865
▁aiong	-10.9865
▁fischer	-10.9866
▁carrot	-10.9866
▁airport	-10.9866
▁hawaiian	-10.9866
▁belch	-10.9866
▁liana	-10.9866
▁fleas	-10.9866
▁rational	-10.9866
▁inquisitive	-10.9866
▁brandne	-10.9866
▁ahju	-10.9866
▁migration	-10.9866
▁mummy	-10.9866
▁defuse	-10.9866
▁beginner	-10.9866
▁detonate	-10.9866
▁atmosphere	-10.9866
▁deliri	-10.9866
▁empire	-10.9866
▁console	-10.9866
▁snapping	-10.9866
▁mmmmmm	-10.9867
▁flaw	-10.9867
▁juice	-10.9867
▁cruelty	-10.9867
▁classroom	-10.9867
▁southern	-10.9867
▁soil	-10.9867
▁media	-10.9867
▁garage	-10.9867
▁estate	-10.9867
▁stumbled	-10.9868
▁paris	-10.9868
▁heap	-10.9868
▁payroll	-10.9868
▁violation	-10.9868
▁awfui	-10.9868
▁grownup	-10.9868
▁swell	-10.9868
▁trophy	-10.9868
▁exit	-10.9868
endous	-10.9868
▁dopey	-10.9868
▁robbery	-10.9868
▁festival	-10.9868
▁firm	-10.9869
▁series	-10.9869
▁caii	-10.9869
▁morality	-10.9869
▁unlock	-10.9869
▁copies	-10.9869
▁admitted	-10.9869
▁touchdown	-10.9869
▁kerchief	-10.9869
▁countdown	-10.9869
▁fabric	-10.9869
▁location	-10.9869
▁wrinkle	-10.9869
▁resume	-10.9869
▁warrant	-10.9869
▁attaboy	-10.987
▁aione	-10.987
▁realise	-10.987
▁jeez	-10.987
▁discouraged	-10.987
▁frustrated	-10.987
▁hoax	-10.987
▁sri	-10.987
▁panda	-10.987
▁wager	-10.987
▁merit	-10.987
▁deaf	-10.987
▁pun	-10.987
▁fever	-10.987
▁dime	-10.9871
▁foam	-10.9871
▁woory	-10.9871
▁glider	-10.9871
▁hisses	-10.9871
▁bait	-10.9871
▁ramp	-10.9872
▁offense	-10.9872
▁edition	-10.9872
▁dick	-10.9872
▁straightaway	-10.9872
▁squire	-10.9872
▁spunk	-10.9872
▁fortunately	-10.9872
▁chess	-10.9872
▁goodwill	-10.9873
▁canine	-10.9873
▁mutters	-10.9873
▁lamp	-10.9873
▁decade	-10.9873
▁tomatoes	-10.9873
▁profile	-10.9873
anqui	-10.9874
▁freshmen	-10.9874
▁instrumental	-10.9874
▁pawn	-10.9874
▁doggie	-10.9875
▁refreshing	-10.9875
▁described	-10.9875
▁nobleman	-10.9875
gratitude	-10.9875
▁insan	-10.9876
▁creepy	-10.9876
▁agreement	-10.9876
▁froth	-10.9877
▁zan	-10.9877
ellis	-10.9877
▁alike	-10.9877
▁spicy	-10.9877
▁agh	-10.9878
▁grover	-10.9878
▁boop	-10.9878
▁leech	-10.9878
▁programmed	-10.9878
▁potatoes	-10.9879
▁theore	-10.9879
▁utter	-10.988
▁bonus	-10.988
▁reign	-10.988
▁lamb	-10.988
▁rental	-10.988
▁headache	-10.988
▁awaken	-10.9881
▁psyched	-10.9881
▁sack	-10.9881
iller	-10.9881
▁sloth	-10.9881
▁pamper	-10.9881
▁youngun	-10.9882
ama	-10.9882
▁assembly	-10.9882
▁traditional	-10.9882
▁possibility	-10.9883
▁updated	-10.9883
▁dotty	-10.9883
▁rosy	-10.9884
▁mamma	-10.9885
▁harmon	-10.9885
▁larry	-10.9886
▁worthless	-10.9886
▁shallow	-10.9886
▁glide	-10.9886
▁waitress	-10.9887
▁explored	-10.9887
▁luckily	-10.9887
▁baseman	-10.9888
▁circus	-10.9888
▁const	-10.9888
▁iand	-10.9889
▁rene	-10.9889
▁woe	-10.9889
▁plead	-10.989
▁retired	-10.989
▁emma	-10.9891
▁fries	-10.9891
▁spit	-10.9891
▁liqu	-10.9892
▁betty	-10.9892
▁reply	-10.9892
▁embarrassed	-10.9892
▁magician	-10.9892
▁crawl	-10.9892
▁marty	-10.9893
▁fussy	-10.9894
▁protesting	-10.9894
▁squawking	-10.9894
▁taiking	-10.9894
▁via	-10.9894
▁haul	-10.9894
▁bald	-10.9895
sgus	-10.9896
▁boil	-10.9896
▁consumer	-10.9896
▁tempt	-10.9896
▁now	-10.9897
▁ku	-10.9898
▁hick	-10.9898
▁slack	-10.9899
▁aerodynamics	-10.9899
▁wiggins	-10.9899
▁clients	-10.9899
▁vertical	-10.9901
▁smoking	-10.9901
▁hoid	-10.9902
▁moor	-10.9903
▁organized	-10.9903
▁ithe	-10.9903
▁yang	-10.9904
▁venus	-10.9905
▁error	-10.9906
nker	-10.9907
▁costa	-10.9907
▁wiser	-10.9907
▁aca	-10.9908
▁harsh	-10.9909
▁removed	-10.9911
found	-10.9912
▁cue	-10.9912
▁ability	-10.9914
oran	-10.9915
▁cycle	-10.9916
▁inch	-10.9918
▁comb	-10.9918
▁cursed	-10.992
▁hm	-10.9923
▁stunn	-10.9926
▁heartily	-10.9926
▁required	-10.9927
▁doublecross	-10.9928
▁matches	-10.9929
▁shipment	-10.993
atic	-10.9931
▁takeoff	-10.9931
▁bury	-10.9931
▁nearest	-10.9931
▁neighing	-10.9934
▁descending	-10.9934
▁weeping	-10.9935
▁sole	-10.9935
▁sponsored	-10.9937
▁bigtime	-10.9938
▁ranks	-10.9938
▁convert	-10.9938
▁bein	-10.9939
▁weed	-10.9941
▁handling	-10.9943
▁treatment	-10.9943
▁carter	-10.9944
▁assumed	-10.9945
▁outer	-10.9945
▁groovy	-10.9945
ral	-10.9948
▁recover	-10.9948
▁directed	-10.9952
josh	-10.9954
▁beaming	-10.9954
▁broadcasting	-10.9954
▁choke	-10.9954
▁sniffling	-10.9955
▁rung	-10.9955
grams	-10.9958
▁bond	-10.9958
▁recognized	-10.996
▁commercials	-10.9961
▁statues	-10.9961
▁tubes	-10.9961
▁rumors	-10.9961
▁guided	-10.9969
▁scales	-10.997
▁posters	-10.9971
ona	-10.9972
▁div	-10.9975
aki	-10.9975
▁rig	-10.9978
▁ahha	-10.9979
▁shots	-10.9981
▁thoughtful	-10.9982
▁cracked	-10.9983
▁hy	-10.9983
idden	-10.9983
▁careless	-10.9985
emer	-10.9985
ving	-10.9986
▁lala	-10.9986
▁ripe	-10.9988
▁babie	-10.9989
▁fatal	-10.9993
▁devote	-10.9998
▁suspected	-11.0005
▁rushed	-11.0007
▁sst	-11.0008
▁correctly	-11.0009
▁filming	-11.0015
▁suggestion	-11.002
▁passes	-11.0021
run	-11.0022
▁moose	-11.0024
▁cheeks	-11.0024
▁options	-11.0024
▁packages	-11.0024
▁effects	-11.0024
ramble	-11.0024
▁cub	-11.0027
▁canyoneers	-11.0028
▁billions	-11.0029
▁bolts	-11.0031
▁heal	-11.0038
▁camel	-11.0043
▁deer	-11.0046
▁homeless	-11.0049
eyed	-11.0051
▁included	-11.0052
▁smashing	-11.0056
▁tabi	-11.0058
▁tasted	-11.0062
▁defending	-11.0076
▁ballooning	-11.0076
tly	-11.0078
▁deeply	-11.0083
▁seated	-11.0087
▁bullets	-11.0088
▁curtains	-11.0088
▁pioneers	-11.0088
▁strangely	-11.009
▁nick	-11.0094
▁sob	-11.0094
▁suited	-11.0096
▁crackers	-11.0096
star	-11.0104
uti	-11.0123
flight	-11.0124
▁tricked	-11.0126
▁appoint	-11.0126
▁remo	-11.0129
▁messed	-11.0135
▁crud	-11.0136
▁swinging	-11.0137
▁launching	-11.0138
▁puts	-11.0149
▁gloves	-11.0153
▁citizens	-11.0153
▁techniques	-11.0153
▁appearances	-11.0153
▁darts	-11.0154
▁regards	-11.0154
▁shouts	-11.0155
▁hips	-11.0169
▁searched	-11.017
▁lace	-11.0172
scot	-11.0183
quet	-11.0183
▁moos	-11.0184
▁sha	-11.0202
ncy	-11.0203
▁suggested	-11.0215
nda	-11.0217
▁contestants	-11.0218
▁oranges	-11.0218
▁relationships	-11.0218
▁exclaims	-11.0219
▁rewards	-11.0219
▁brands	-11.0221
▁waters	-11.0224
▁loss	-11.0225
▁ruining	-11.0233
▁sticky	-11.0249
▁doo	-11.0257
▁rely	-11.0261
ker	-11.0276
▁vip	-11.0278
eeee	-11.028
▁pools	-11.0283
▁titles	-11.0283
▁adding	-11.0287
▁sla	-11.0297
pping	-11.0307
rum	-11.0318
▁dangl	-11.032
▁pitcher	-11.0323
njo	-11.0326
▁onions	-11.0337
table	-11.0345
▁messing	-11.0348
▁wine	-11.0355
▁humbl	-11.0356
▁lowing	-11.0363
▁dots	-11.0391
▁disco	-11.0394
▁logs	-11.0398
▁halls	-11.0414
▁puffs	-11.0415
▁rogers	-11.0415
▁trials	-11.0415
lig	-11.0419
ggle	-11.0435
done	-11.0449
▁anyways	-11.0451
uh	-11.0453
▁fooled	-11.0459
▁encourage	-11.0462
▁what	-11.0466
rase	-11.0468
▁cli	-11.0478
▁heater	-11.048
▁bangs	-11.0485
▁cookies	-11.052
ang	-11.0524
quat	-11.0526
▁cleared	-11.0527
▁swa	-11.0531
▁stinks	-11.0541
▁graduate	-11.0548
ew	-11.0553
rupt	-11.0565
ug	-11.0568
▁doctors	-11.057
▁forth	-11.0572
▁clip	-11.0574
▁freed	-11.0578
ger	-11.0586
▁cleaning	-11.0601
▁trusted	-11.0602
ans	-11.0609
▁pages	-11.061
▁candles	-11.0616
▁mortals	-11.0616
▁roots	-11.0616
▁tips	-11.0618
▁graces	-11.0623
inch	-11.0632
ood	-11.0643
test	-11.0653
▁buds	-11.0655
choo	-11.0659
▁lover	-11.0659
▁ace	-11.0671
▁incidents	-11.0683
state	-11.0693
▁singers	-11.0702
verge	-11.0703
▁parking	-11.0711
▁hustle	-11.0711
▁truthful	-11.0741
▁snaps	-11.075
▁rises	-11.0752
crust	-11.0755
▁participate	-11.0761
▁actions	-11.0765
▁ignore	-11.077
▁vali	-11.0789
▁bearing	-11.0803
▁hive	-11.0807
▁celebis	-11.0808
▁dri	-11.0826
gie	-11.0858
▁scu	-11.0859
▁aye	-11.0869
rays	-11.0869
▁feller	-11.0874
▁sakes	-11.0888
▁slots	-11.089
aho	-11.0905
iers	-11.093
▁cases	-11.094
cool	-11.0977
▁operate	-11.0987
▁struggl	-11.0994
sort	-11.0998
▁dra	-11.0999
orni	-11.1006
▁flats	-11.1029
▁slips	-11.1034
ace	-11.1043
▁ding	-11.1053
▁cuts	-11.1057
bod	-11.1058
▁greener	-11.1065
▁pies	-11.1088
iiy	-11.109
▁bats	-11.1099
far	-11.1112
▁fisher	-11.1113
▁und	-11.1135
▁walks	-11.1144
▁stoo	-11.1148
chicka	-11.1152
▁telly	-11.1155
▁prizes	-11.1165
▁snowflakes	-11.1166
don	-11.1195
▁events	-11.1197
dder	-11.1198
uge	-11.1216
▁marks	-11.1218
iate	-11.1235
▁springs	-11.1237
▁ou	-11.1239
▁gass	-11.1241
▁va	-11.1256
sis	-11.1268
▁chatt	-11.1268
ov	-11.1293
▁roa	-11.1299
▁agrees	-11.1312
▁limb	-11.1316
bi	-11.1341
▁rivers	-11.1347
▁communicate	-11.1398
▁flags	-11.1399
▁reader	-11.1401
kin	-11.1402
itty	-11.1406
▁qu	-11.1414
▁assembl	-11.1418
iii	-11.1428
▁provid	-11.1435
▁rad	-11.1438
▁ages	-11.1442
▁throws	-11.1456
▁goner	-11.1508
▁bars	-11.1535
▁vis	-11.154
lets	-11.154
cer	-11.1541
▁risks	-11.1599
▁din	-11.1611
pag	-11.1631
▁classic	-11.1651
che	-11.1654
▁dogg	-11.1654
▁throats	-11.1667
wart	-11.1672
▁ast	-11.1682
▁clo	-11.1685
▁browns	-11.1686
lated	-11.1695
nned	-11.1699
▁ag	-11.1706
ddy	-11.1718
ac	-11.172
▁ji	-11.1739
▁dong	-11.1748
▁flo	-11.1778
▁introduc	-11.1787
▁peri	-11.1804
▁struggle	-11.1808
▁massi	-11.1823
▁inn	-11.1831
▁op	-11.1833
▁ham	-11.1835
▁moi	-11.1858
▁sl	-11.1886
used	-11.1886
▁deli	-11.1905
▁arg	-11.1926
▁just	-11.1931
stitution	-11.1939
▁missy	-11.1981
▁continu	-11.1987
good	-11.1992
▁flap	-11.1999
ape	-11.2009
stood	-11.201
▁hurting	-11.2031
▁pleasures	-11.2037
liant	-11.2042
kl	-11.2066
ison	-11.2078
▁robbin	-11.2115
▁hits	-11.2138
▁flights	-11.2139
▁veg	-11.2139
▁dances	-11.2178
▁trips	-11.2179
vation	-11.2189
▁ser	-11.2193
rians	-11.2199
▁gardens	-11.2215
dible	-11.2261
▁messages	-11.2263
ni	-11.2274
▁canter	-11.2282
inner	-11.2298
ko	-11.2309
▁tests	-11.2321
shattering	-11.2334
ked	-11.2336
▁gla	-11.2364
nia	-11.2392
placed	-11.2394
yahoo	-11.24
▁reduce	-11.2401
ummy	-11.2402
master	-11.2448
▁handles	-11.2475
▁poop	-11.2476
▁era	-11.248
▁queens	-11.2492
▁adventures	-11.2493
▁hol	-11.2515
▁gre	-11.2517
alo	-11.2518
▁beats	-11.2535
minent	-11.2555
gle	-11.2569
▁blankets	-11.2647
ounce	-11.2652
faddle	-11.2657
tically	-11.2683
▁fr	-11.2685
ised	-11.2691
▁chit	-11.2699
▁dares	-11.2704
▁cl	-11.2708
fer	-11.2718
▁vaca	-11.2719
▁ec	-11.272
▁oohoohooh	-11.272
▁honors	-11.273
gas	-11.2739
▁plum	-11.2756
hoho	-11.2787
▁quits	-11.2825
mo	-11.2827
▁thin	-11.2832
▁int	-11.2833
iness	-11.284
▁slipp	-11.2853
▁fright	-11.2853
ptic	-11.2865
hara	-11.2877
ception	-11.2879
puls	-11.2884
mma	-11.2885
ecede	-11.2895
earned	-11.2909
can	-11.2911
▁canyoneer	-11.2914
▁har	-11.2919
▁dump	-11.2928
ky	-11.2931
▁bolt	-11.2932
▁squeal	-11.2935
val	-11.294
▁phon	-11.2958
llen	-11.296
naw	-11.2964
▁gras	-11.2964
▁smiles	-11.2965
▁futures	-11.2967
▁measure	-11.2967
game	-11.2969
ieve	-11.2969
▁flare	-11.2971
▁effect	-11.2975
▁astronaut	-11.2976
▁cheek	-11.2977
▁option	-11.2979
▁bumblebee	-11.2983
▁footprint	-11.2983
▁newspaper	-11.2984
rin	-11.2986
▁twerp	-11.2987
▁affair	-11.2987
▁competitor	-11.2991
▁bloke	-11.2992
▁goblin	-11.2993
▁package	-11.2996
▁giggle	-11.2996
▁baboon	-11.2996
cut	-11.3002
▁dollar	-11.3008
▁calculation	-11.3008
▁crop	-11.3009
▁beside	-11.3009
devi	-11.301
▁paw	-11.3013
▁billion	-11.3026
▁bean	-11.3035
ssi	-11.304
▁chuckle	-11.3044
ization	-11.3056
▁studi	-11.306
▁mimic	-11.3067
ud	-11.3068
▁mart	-11.3069
▁def	-11.3072
▁raw	-11.3075
▁fir	-11.3078
▁embarrass	-11.3084
old	-11.3086
▁snoo	-11.3095
oke	-11.3099
▁circl	-11.3102
▁guid	-11.3102
▁forc	-11.3105
▁splash	-11.3105
itti	-11.3105
eating	-11.311
▁ravage	-11.3111
▁rep	-11.3112
▁zip	-11.3113
▁function	-11.3116
▁grind	-11.3116
anto	-11.312
▁snag	-11.3124
▁soo	-11.3128
▁shush	-11.3132
▁groom	-11.3132
▁gli	-11.3133
▁scrap	-11.3135
verted	-11.3144
▁tro	-11.3146
▁select	-11.3147
cious	-11.3148
onies	-11.3149
wide	-11.315
▁consum	-11.3151
▁overlook	-11.3151
▁impress	-11.3153
▁hurri	-11.3153
▁defy	-11.3155
limited	-11.3157
this	-11.3158
who	-11.3158
▁lists	-11.3159
known	-11.3159
▁attach	-11.3159
wear	-11.316
islands	-11.316
case	-11.3161
reliable	-11.3161
forth	-11.3162
claim	-11.3162
count	-11.3162
wheel	-11.3162
world	-11.3163
▁flatter	-11.3163
track	-11.3163
class	-11.3163
born	-11.3163
school	-11.3163
yeah	-11.3164
half	-11.3164
▁fran	-11.3164
saw	-11.3164
▁shove	-11.3164
talk	-11.3164
human	-11.3165
boat	-11.3165
butter	-11.3166
▁bake	-11.3166
▁collapse	-11.3167
▁decree	-11.3167
▁roar	-11.3167
▁rattle	-11.3168
▁proce	-11.3168
self	-11.3169
range	-11.3169
pelled	-11.3169
▁angr	-11.317
▁energ	-11.317
life	-11.317
▁majest	-11.317
▁rio	-11.3171
chop	-11.3171
cast	-11.3171
▁milli	-11.3172
▁update	-11.3173
shine	-11.3173
▁blea	-11.3173
▁mathematical	-11.3174
▁racket	-11.3174
▁argu	-11.3176
zing	-11.3177
▁reproduc	-11.3177
▁wond	-11.3177
gar	-11.3177
soon	-11.3177
▁slee	-11.3181
▁exact	-11.3182
▁styl	-11.3182
▁definite	-11.3182
▁execution	-11.3183
▁examine	-11.3183
▁complex	-11.3183
des	-11.3183
▁jell	-11.3184
long	-11.3185
▁myst	-11.3187
revi	-11.3188
rts	-11.3189
▁compani	-11.3189
▁ke	-11.3191
▁india	-11.3191
pid	-11.3192
▁grocer	-11.3192
▁mirac	-11.3193
nternational	-11.3193
pass	-11.3193
▁migrat	-11.3193
rift	-11.3194
▁lick	-11.3194
▁relent	-11.3194
▁transport	-11.3194
▁poet	-11.3195
▁entertain	-11.3195
▁darlin	-11.3195
▁crumb	-11.3195
▁hyun	-11.3195
▁necess	-11.3195
croix	-11.3195
destruct	-11.3196
▁attend	-11.3196
▁vegeta	-11.3196
transl	-11.3196
elimina	-11.3196
▁heir	-11.3197
tailed	-11.3197
▁initia	-11.3197
▁nourish	-11.3197
▁sarcastic	-11.3197
acquainted	-11.3197
fahr	-11.3197
ification	-11.3197
imaginable	-11.3197
izzard	-11.3197
lepidoptera	-11.3197
responsibilities	-11.3197
sabl	-11.3197
socsoc	-11.3197
▁abigail	-11.3197
▁acquaintance	-11.3197
▁adjourn	-11.3197
▁afterward	-11.3197
▁alexander	-11.3197
▁alpha	-11.3197
▁anatomy	-11.3197
▁apprentice	-11.3197
▁argentina	-11.3197
▁arizona	-11.3197
▁arrivederci	-11.3197
▁arrow	-11.3197
▁arthritis	-11.3197
▁ashram	-11.3197
▁automated	-11.3197
▁average	-11.3197
▁awkward	-11.3197
▁bachelor	-11.3197
▁bambina	-11.3197
▁bargain	-11.3197
▁beautifui	-11.3197
▁behavior	-11.3197
▁bockser	-11.3197
▁bouncing	-11.3197
▁calliope	-11.3197
▁celebrity	-11.3197
▁cetera	-11.3197
▁cheyenne	-11.3197
▁chrysa	-11.3197
▁coconut	-11.3197
▁coliseum	-11.3197
▁colorado	-11.3197
▁complicated	-11.3197
▁compromise	-11.3197
▁confucius	-11.3197
▁conquest	-11.3197
▁coocoo	-11.3197
▁coreander	-11.3197
▁crease	-11.3197
▁crib	-11.3197
▁desirable	-11.3197
▁destination	-11.3197
▁devastating	-11.3197
▁dialect	-11.3197
▁diminish	-11.3197
▁dispute	-11.3197
▁distract	-11.3197
▁division	-11.3197
▁duchess	-11.3197
▁duct	-11.3197
▁dungeon	-11.3197
▁elbow	-11.3197
▁enchilada	-11.3197
▁encounter	-11.3197
▁endeavor	-11.3197
▁envelope	-11.3197
▁ephraim	-11.3197
▁esquire	-11.3197
▁essential	-11.3197
▁exterminate	-11.3197
▁falcon	-11.3197
▁ferdie	-11.3197
▁fifteen	-11.3197
▁flavius	-11.3197
▁forfeit	-11.3197
▁frederick	-11.3197
▁fugitive	-11.3197
▁generosity	-11.3197
▁gladiator	-11.3197
▁greaves	-11.3197
▁greece	-11.3197
▁haiieiujah	-11.3197
▁hammock	-11.3197
▁hangnail	-11.3197
▁headhunter	-11.3197
▁hibernate	-11.3197
▁honeymoon	-11.3197
▁increasing	-11.3197
▁inferior	-11.3197
▁infinity	-11.3197
▁intercept	-11.3197
▁intermediate	-11.3197
▁ippon	-11.3197
▁jeremiah	-11.3197
▁jethro	-11.3197
▁jewel	-11.3197
▁kaclick	-11.3197
▁kamacuras	-11.3197
▁kelsey	-11.3197
▁kerjarquat	-11.3197
▁khurissanvalley	-11.3197
▁kilimanjaro	-11.3197
▁kirk	-11.3197
▁landscap	-11.3197
▁leisure	-11.3197
▁lobby	-11.3197
▁longdistance	-11.3197
▁lumberjack	-11.3197
▁magnolia	-11.3197
▁maisie	-11.3197
▁malfunction	-11.3197
▁marsupial	-11.3197
▁marvellous	-11.3197
▁massacre	-11.3197
▁mathematics	-11.3197
▁mcquade	-11.3197
▁mechanism	-11.3197
▁michigan	-11.3197
▁milord	-11.3197
▁minnesota	-11.3197
▁mongrel	-11.3197
▁necessarily	-11.3197
▁nimbostratus	-11.3197
▁nitwit	-11.3197
▁nowadays	-11.3197
▁obligat	-11.3197
▁obnoxious	-11.3197
▁obstinacy	-11.3197
▁offspring	-11.3197
▁ogelvie	-11.3197
▁oldfashion	-11.3197
▁olivia	-11.3197
▁orchard	-11.3197
▁overwhelmed	-11.3197
▁pacific	-11.3197
▁panzius	-11.3197
▁paxton	-11.3197
▁pitiful	-11.3197
▁pittsburgh	-11.3197
▁poach	-11.3197
▁polite	-11.3197
▁poof	-11.3197
▁poverty	-11.3197
▁pragmatic	-11.3197
▁predator	-11.3197
▁preposterous	-11.3197
▁preserve	-11.3197
▁profit	-11.3197
▁purple	-11.3197
▁puzzle	-11.3197
▁qualifications	-11.3197
▁quivering	-11.3197
▁reassur	-11.3197
▁reputation	-11.3197
▁resign	-11.3197
▁review	-11.3197
▁revolt	-11.3197
▁rollsroyce	-11.3197
▁satisfy	-11.3197
▁scarlet	-11.3197
▁schmidt	-11.3197
▁seduction	-11.3197
▁separation	-11.3197
▁snarls	-11.3197
▁socalled	-11.3197
▁speculation	-11.3197
▁supermarket	-11.3197
▁swift	-11.3197
▁synthe	-11.3197
▁tarnation	-11.3197
▁teresa	-11.3197
▁terrifying	-11.3197
▁throttle	-11.3197
▁thurman	-11.3197
▁thursday	-11.3197
▁toothpaste	-11.3197
▁tussle	-11.3197
▁undoubtedly	-11.3197
▁upbringing	-11.3197
▁vinnie	-11.3197
▁vizag	-11.3197
▁wizard	-11.3197
▁woofwoof	-11.3197
▁yeeha	-11.3197
▁yippee	-11.3197
▁yoohoo	-11.3197
▁zugzug	-11.3197
nvoy	-11.3197
▁bullseye	-11.3197
▁commute	-11.3197
▁disagree	-11.3197
▁excellenc	-11.3197
▁foiiow	-11.3197
▁plung	-11.3197
▁prompt	-11.3197
▁retain	-11.3197
▁tribute	-11.3197
▁unravel	-11.3197
▁wildflower	-11.3197
lodging	-11.3197
▁cacti	-11.3197
▁cocoa	-11.3197
▁cribbing	-11.3197
▁deceit	-11.3197
▁deraccoonif	-11.3197
▁eddie	-11.3197
▁evolution	-11.3197
▁gradual	-11.3197
▁guerre	-11.3197
▁haruno	-11.3197
▁hypo	-11.3197
▁immortali	-11.3197
▁instance	-11.3197
▁lucius	-11.3197
▁nashville	-11.3197
▁nursing	-11.3197
▁porch	-11.3197
▁prosper	-11.3197
▁pursuit	-11.3197
▁refrigerat	-11.3197
▁rhody	-11.3197
▁saloon	-11.3197
▁supersede	-11.3197
▁sworn	-11.3197
▁vermin	-11.3197
▁armani	-11.3197
▁babcock	-11.3197
▁cotton	-11.3197
▁dork	-11.3197
▁peacock	-11.3197
▁spurt	-11.3197
▁amusing	-11.3197
▁chump	-11.3197
▁goober	-11.3197
▁neighbour	-11.3197
▁pigeons	-11.3197
▁proposing	-11.3197
▁script	-11.3197
▁surgical	-11.3197
▁hiram	-11.3197
▁infraso	-11.3197
▁tanya	-11.3197
▁yadda	-11.3197
▁brigade	-11.3197
▁cawing	-11.3197
▁chord	-11.3197
▁severe	-11.3197
arctic	-11.3197
▁annette	-11.3197
▁fundraiser	-11.3197
▁menacing	-11.3197
▁pedro	-11.3197
▁rolloll	-11.3197
▁choosing	-11.3197
▁downstairs	-11.3197
▁facing	-11.3197
▁humiliat	-11.3197
▁mankind	-11.3197
▁sasha	-11.3197
▁wrecked	-11.3197
▁artificial	-11.3197
▁gossip	-11.3197
▁helmet	-11.3197
▁phase	-11.3197
▁greedy	-11.3197
▁misdemeanor	-11.3197
▁scrumptious	-11.3197
▁strangled	-11.3197
▁yelp	-11.3197
dication	-11.3197
▁troubie	-11.3197
▁tweed	-11.3197
▁initiative	-11.3197
▁stir	-11.3197
▁woofshi	-11.3197
▁yyes	-11.3197
▁chorus	-11.3197
▁hungarian	-11.3197
▁stove	-11.3197
ylum	-11.3197
▁stump	-11.3197
▁telegram	-11.3197
▁mantis	-11.3197
▁scoid	-11.3197
▁conflict	-11.3197
▁contender	-11.3197
▁analysis	-11.3197
▁downloaded	-11.3197
regr	-11.3197
▁frail	-11.3197
▁construction	-11.3197
▁scold	-11.3197
▁debate	-11.3197
▁chowder	-11.3197
▁waterfalls	-11.3197
▁recognition	-11.3197
▁snooze	-11.3197
▁bummer	-11.3197
▁waska	-11.3197
▁archer	-11.3197
▁duckworth	-11.3197
▁premature	-11.3197
▁refund	-11.3197
▁convey	-11.3197
▁cramp	-11.3197
▁rival	-11.3197
▁snack	-11.3197
▁lalala	-11.3197
▁neely	-11.3197
▁croco	-11.3197
▁transferred	-11.3197
▁japan	-11.3197
▁cherries	-11.3197
▁cigar	-11.3197
▁homepage	-11.3197
▁dishes	-11.3197
▁villa	-11.3197
▁apology	-11.3197
▁sirree	-11.3197
▁slept	-11.3197
▁turbulence	-11.3197
▁description	-11.3197
▁reptiles	-11.3197
▁olympic	-11.3197
▁choking	-11.3197
▁coloss	-11.3197
▁overhea	-11.3197
▁swish	-11.3197
uptight	-11.3197
▁desk	-11.3197
▁anytime	-11.3197
▁highlands	-11.3197
ombi	-11.3197
▁fiber	-11.3197
▁twinkl	-11.3197
▁spider	-11.3197
▁pillow	-11.3197
▁repay	-11.3197
▁tumtum	-11.3197
▁flailing	-11.3197
▁scorpi	-11.3197
garet	-11.3197
▁concho	-11.3197
▁inflict	-11.3197
▁elegan	-11.3197
▁stamp	-11.3197
▁brotherinlaw	-11.3198
▁fading	-11.3198
▁satisfaction	-11.3198
▁knight	-11.3198
▁captive	-11.3198
▁confusion	-11.3198
▁hahahaha	-11.3198
▁kelly	-11.3198
▁homesick	-11.3198
▁casual	-11.3198
▁filter	-11.3198
▁guidance	-11.3198
▁insult	-11.3198
▁scully	-11.3198
▁circum	-11.3198
▁attendant	-11.3198
▁fairytale	-11.3198
▁peach	-11.3198
▁abandon	-11.3198
▁merge	-11.3198
▁sieep	-11.3198
▁judging	-11.3198
▁raven	-11.3198
▁boogie	-11.3198
▁isle	-11.3198
▁motive	-11.3198
▁flour	-11.3198
▁midday	-11.3198
▁weenie	-11.3198
▁butterball	-11.3198
▁dimwit	-11.3198
▁mound	-11.3198
▁disposition	-11.3198
▁contain	-11.3198
▁nickel	-11.3198
▁snowmobile	-11.3198
▁rooftop	-11.3198
▁scramble	-11.3198
▁ethic	-11.3198
upiter	-11.3198
▁courtiers	-11.3198
▁dragging	-11.3199
▁effective	-11.3199
▁beggin	-11.3199
▁booze	-11.3199
▁whoohoohoo	-11.3199
▁organic	-11.3199
▁temporar	-11.3199
▁triumphant	-11.3199
rtoni	-11.3199
▁timber	-11.3199
▁trend	-11.3199
▁assistance	-11.3199
▁deception	-11.3199
▁automatically	-11.3199
▁panel	-11.3199
▁snip	-11.3199
▁paree	-11.3199
▁shaii	-11.3199
▁addition	-11.3199
▁transportation	-11.3199
▁wellington	-11.3199
▁evolve	-11.3199
▁donny	-11.3199
▁passionate	-11.3199
▁alise	-11.32
▁oink	-11.32
▁pasta	-11.32
▁translator	-11.32
▁outcome	-11.32
▁tinkl	-11.32
▁raising	-11.32
▁limp	-11.32
▁volcano	-11.32
▁violent	-11.32
▁compass	-11.32
▁chef	-11.32
enja	-11.3201
ulous	-11.3201
▁mmmmm	-11.3201
▁upside	-11.3201
▁mailroom	-11.3201
▁sheet	-11.3201
▁literary	-11.3201
▁swo	-11.3201
▁nobu	-11.3201
▁shri	-11.3201
▁brutal	-11.3201
▁coachhouse	-11.3201
▁imbecile	-11.3201
▁satter	-11.3201
▁gesture	-11.3201
▁tooth	-11.3201
▁ooty	-11.3201
▁jazz	-11.3201
▁inde	-11.3201
▁pigtail	-11.3201
▁vein	-11.3201
▁sequ	-11.3202
▁exhibition	-11.3202
▁possession	-11.3202
▁define	-11.3202
▁kidney	-11.3202
▁salmon	-11.3202
▁sac	-11.3202
▁competent	-11.3203
▁tonic	-11.3203
▁transmitted	-11.3203
▁injunction	-11.3203
randall	-11.3203
▁infield	-11.3203
▁kneel	-11.3203
▁mash	-11.3203
▁fond	-11.3203
▁pelt	-11.3203
▁thou	-11.3204
▁novel	-11.3204
▁hayley	-11.3204
▁curt	-11.3204
▁clumsy	-11.3204
▁entomology	-11.3204
▁galaxy	-11.3204
▁fins	-11.3204
▁munic	-11.3204
norm	-11.3204
▁expectations	-11.3205
enched	-11.3205
▁patron	-11.3205
▁skillful	-11.3205
▁liking	-11.3205
▁employ	-11.3205
▁chairman	-11.3205
▁indication	-11.3205
▁feei	-11.3206
▁chemistry	-11.3206
▁dandelions	-11.3206
▁kansas	-11.3206
▁pepper	-11.3206
▁craft	-11.3206
▁navigat	-11.3206
▁equipped	-11.3206
▁guts	-11.3206
▁banished	-11.3206
▁enchanted	-11.3206
▁published	-11.3206
▁hostage	-11.3206
▁overtime	-11.3206
▁burger	-11.3206
▁confused	-11.3206
yiyiyiyi	-11.3206
▁festiv	-11.3206
▁labor	-11.3206
▁trot	-11.3206
▁tangle	-11.3206
azz	-11.3206
▁wahwah	-11.3207
▁production	-11.3207
ovin	-11.3207
▁troll	-11.3207
▁consistent	-11.3207
▁gray	-11.3207
▁dislike	-11.3207
▁hometown	-11.3207
▁wig	-11.3207
▁coward	-11.3208
▁aj	-11.3208
▁background	-11.3208
▁coke	-11.3208
▁logical	-11.3208
▁monstrous	-11.3208
▁finer	-11.3208
▁teiephon	-11.3208
▁dropping	-11.3208
▁proceedings	-11.3209
▁rodent	-11.3209
▁torn	-11.3209
▁tyrant	-11.3209
wal	-11.3209
▁ballroom	-11.3209
▁blah	-11.3209
▁relentlessly	-11.3209
▁polar	-11.3209
▁fig	-11.321
▁unwilling	-11.321
▁noah	-11.321
pan	-11.321
▁swam	-11.321
▁complexion	-11.321
▁kitty	-11.321
▁ruth	-11.3211
lusions	-11.3211
▁attractive	-11.3211
▁fraction	-11.3211
▁france	-11.3212
▁subsid	-11.3212
▁tyres	-11.3212
zar	-11.3212
▁daisy	-11.3213
▁deter	-11.3213
▁invitational	-11.3213
▁inhaling	-11.3213
▁wrestling	-11.3213
▁rehearsing	-11.3213
▁located	-11.3213
▁confusing	-11.3213
▁fami	-11.3213
▁batch	-11.3213
▁peel	-11.3214
▁alongside	-11.3214
▁declared	-11.3214
etti	-11.3214
▁seii	-11.3214
▁bisc	-11.3214
▁riddle	-11.3214
▁hardware	-11.3215
anca	-11.3215
▁lens	-11.3215
▁teamwork	-11.3215
▁turnip	-11.3215
▁hind	-11.3216
▁spooky	-11.3216
▁treachery	-11.3216
orice	-11.3216
▁painful	-11.3216
▁buckled	-11.3216
tow	-11.3216
▁install	-11.3216
▁reproduce	-11.3217
▁ferry	-11.3217
▁burr	-11.3217
▁tapping	-11.3217
▁hut	-11.3217
▁drill	-11.3218
▁competing	-11.3218
▁plow	-11.3218
▁vine	-11.3218
▁worldwide	-11.3219
olated	-11.3219
▁producer	-11.3219
▁widower	-11.3219
▁beings	-11.3219
▁versa	-11.3219
▁prob	-11.322
blime	-11.3221
▁churn	-11.3221
▁lump	-11.3221
▁sensitive	-11.3221
▁spect	-11.3221
▁geek	-11.3221
▁psychological	-11.3221
▁airways	-11.3222
strict	-11.3222
▁betrayed	-11.3222
▁rejected	-11.3222
▁confide	-11.3224
▁menu	-11.3224
ovi	-11.3224
▁examined	-11.3224
▁swed	-11.3224
▁denied	-11.3225
▁hence	-11.3225
▁urg	-11.3226
▁geez	-11.3226
▁amp	-11.3226
▁pint	-11.3226
▁baked	-11.3226
▁thru	-11.3227
▁mute	-11.3227
▁aish	-11.3228
▁heave	-11.3228
▁superman	-11.3228
▁dew	-11.3229
ggage	-11.3229
▁tang	-11.3229
▁attacks	-11.323
▁revert	-11.323
▁superb	-11.323
▁mattie	-11.323
▁sophisticated	-11.323
▁abra	-11.323
▁daylight	-11.323
▁boom	-11.323
▁bugg	-11.3231
▁witnesses	-11.3231
▁mountaineer	-11.3231
▁china	-11.3233
▁pintsize	-11.3233
▁youngster	-11.3234
▁starring	-11.3235
▁exposed	-11.3235
▁booty	-11.3235
▁burry	-11.3235
▁fee	-11.3236
▁statement	-11.3236
▁seventh	-11.3236
precise	-11.3237
▁foe	-11.3237
▁dud	-11.3237
▁oohooh	-11.3237
▁gull	-11.3239
▁centi	-11.3239
▁cleaners	-11.3239
▁lecture	-11.324
▁scheme	-11.324
▁recovery	-11.324
▁wealthy	-11.3241
▁educating	-11.3241
▁disgusting	-11.3241
acious	-11.3241
▁threatening	-11.3241
▁clanking	-11.3242
▁tres	-11.3244
ence	-11.3244
▁steamer	-11.3244
▁overse	-11.3245
▁designer	-11.3247
▁bugged	-11.3248
▁mia	-11.3248
▁analy	-11.3248
▁earthling	-11.3249
▁whir	-11.3249
▁beggars	-11.3249
▁cabbages	-11.3249
▁politicians	-11.3249
▁resources	-11.3249
▁stewards	-11.3249
otti	-11.3249
▁honeybees	-11.3249
▁monks	-11.3249
▁robbers	-11.3249
▁contributions	-11.3249
▁irritate	-11.3249
▁brooke	-11.3249
▁outlets	-11.325
▁peacefully	-11.3252
▁stunned	-11.3253
▁jealousy	-11.3253
▁gim	-11.3254
▁brady	-11.3254
▁sicken	-11.3254
▁injured	-11.3255
▁frightened	-11.3255
▁trample	-11.3256
▁reactor	-11.3256
armac	-11.3257
▁wimp	-11.3257
▁receiver	-11.3257
▁cardin	-11.3258
▁murderer	-11.3259
▁positively	-11.3259
▁holly	-11.3261
chipper	-11.3262
▁drat	-11.3264
▁off	-11.3264
▁app	-11.3265
eers	-11.3265
▁expression	-11.3266
▁difficulties	-11.3266
▁rod	-11.3266
▁haunt	-11.3266
▁alleg	-11.3267
▁sunk	-11.3268
▁grable	-11.3269
▁grooming	-11.327
▁discussion	-11.327
▁nutritio	-11.3271
▁embarrassing	-11.3271
▁buttoned	-11.3271
▁roaring	-11.3271
▁informed	-11.3271
zen	-11.3272
▁regarded	-11.3273
▁defying	-11.3273
▁warmup	-11.3274
hanks	-11.3276
▁sled	-11.3278
▁praised	-11.3278
▁restored	-11.3279
ronto	-11.328
▁virtue	-11.328
▁hattie	-11.3283
▁mum	-11.3285
▁eliminated	-11.3288
▁limo	-11.3289
▁rick	-11.3289
ross	-11.329
▁dinging	-11.3291
▁normally	-11.3292
▁bakery	-11.3293
willing	-11.3296
▁businessman	-11.3297
▁inning	-11.3297
▁legally	-11.3298
▁leaking	-11.33
▁beii	-11.3301
meters	-11.3305
▁scratched	-11.3305
▁weighed	-11.3306
rable	-11.3306
owing	-11.3309
allah	-11.3309
▁loveall	-11.3309
▁isi	-11.3315
▁organiz	-11.3316
▁actor	-11.3321
hit	-11.3324
▁strip	-11.3325
ua	-11.3325
▁quant	-11.3326
▁inso	-11.3327
▁pouring	-11.3329
astic	-11.3331
▁replay	-11.3331
▁blamed	-11.3335
▁faire	-11.3336
acks	-11.3337
▁intended	-11.3338
adjustment	-11.3338
▁fried	-11.3338
▁explosives	-11.3339
▁boulders	-11.3339
▁prospects	-11.3339
▁scoundrels	-11.3339
▁scrolls	-11.3339
▁semifinals	-11.3339
▁standards	-11.3339
▁customs	-11.3339
bis	-11.3339
▁dockers	-11.3339
▁relations	-11.3339
▁wits	-11.3341
▁sneaky	-11.3341
▁roughly	-11.3342
▁telescop	-11.3342
▁iti	-11.3344
▁smarter	-11.3345
▁relaxes	-11.3345
oodles	-11.3346
▁formation	-11.3346
▁funnie	-11.3347
dure	-11.3352
▁lawn	-11.3352
yet	-11.3353
uld	-11.3354
met	-11.3356
▁bunk	-11.3356
▁settled	-11.3356
▁spi	-11.3357
▁stretching	-11.3359
mish	-11.3359
skat	-11.3361
ava	-11.3363
▁dearie	-11.3364
stroke	-11.3365
▁lighten	-11.3371
▁requested	-11.3372
kos	-11.3372
essing	-11.3372
▁possibi	-11.3376
▁reminded	-11.3378
ya	-11.3379
verse	-11.3382
▁cling	-11.3384
opy	-11.3385
▁hiss	-11.3387
▁weighing	-11.339
▁athat	-11.3394
dilla	-11.3397
▁unknow	-11.3398
kon	-11.3398
icky	-11.3403
▁wiggl	-11.3405
▁chart	-11.3405
▁robe	-11.3411
▁lind	-11.3412
▁limited	-11.3413
▁dum	-11.3424
▁imitat	-11.3426
thats	-11.3428
▁astronauts	-11.3432
▁measures	-11.3432
▁dumps	-11.3432
▁flares	-11.3433
▁correction	-11.344
▁loosen	-11.344
lousy	-11.3447
rbing	-11.3451
▁cable	-11.3455
▁bugle	-11.3455
▁poker	-11.3456
▁sen	-11.3458
▁filly	-11.346
▁hideous	-11.3464
tangled	-11.3466
ament	-11.3468
▁scored	-11.3468
▁blocked	-11.3473
▁sinking	-11.3478
some	-11.3482
▁umi	-11.3484
▁singin	-11.3484
struck	-11.3488
poo	-11.3495
voir	-11.3501
squat	-11.351
▁radioactiv	-11.3511
▁reminding	-11.3515
▁did	-11.3517
▁jeans	-11.3522
▁occasional	-11.3524
▁wounds	-11.3526
▁ballo	-11.3526
▁diseases	-11.3526
▁steaks	-11.3526
▁bluebirds	-11.3526
▁risky	-11.3528
▁donations	-11.3528
▁explodes	-11.3532
rise	-11.3533
▁lifted	-11.3542
▁cooler	-11.3546
gy	-11.3546
▁trembl	-11.3547
▁charged	-11.3561
▁cancell	-11.3565
▁expressing	-11.3569
▁honesty	-11.3574
▁planted	-11.3578
▁anne	-11.3588
▁ecc	-11.3591
wend	-11.3593
▁rec	-11.3595
mmuni	-11.3599
▁sailing	-11.3602
plate	-11.3607
petition	-11.361
pher	-11.3614
air	-11.3621
▁leagues	-11.3621
▁mechanics	-11.3622
▁dropoffs	-11.3622
▁pipes	-11.3622
▁peanuts	-11.3622
round	-11.3622
▁ruffi	-11.3625
▁marketing	-11.363
▁differently	-11.3639
▁abuse	-11.3643
▁qua	-11.3643
▁beastly	-11.3647
las	-11.3652
lay	-11.3652
▁helpers	-11.3657
▁zipp	-11.366
▁dive	-11.3665
▁highway	-11.3667
▁belonging	-11.367
heads	-11.3671
▁laughed	-11.3671
ates	-11.3674
▁difficulty	-11.3678
venue	-11.3685
▁hon	-11.3689
▁radi	-11.3697
mail	-11.3698
▁toots	-11.3717
▁materials	-11.3718
▁invitations	-11.3718
tive	-11.3729
▁prepar	-11.3735
▁gladly	-11.3735
ault	-11.3738
▁wes	-11.3738
plicate	-11.3749
▁identi	-11.375
▁workers	-11.3751
▁blank	-11.3755
▁was	-11.3761
yeow	-11.3798
▁shown	-11.3799
▁cre	-11.3807
▁odds	-11.3815
▁orchids	-11.3815
▁fences	-11.3817
rock	-11.3827
sia	-11.3835
ios	-11.3835
ise	-11.3847
▁gene	-11.3852
▁longest	-11.386
▁shun	-11.3865
boys	-11.3878
▁founder	-11.3882
etic	-11.3896
addled	-11.3898
▁instructors	-11.3914
▁arrives	-11.3915
unces	-11.3928
right	-11.3933
bbing	-11.394
▁showers	-11.3959
upper	-11.3961
▁grounded	-11.3972
▁ros	-11.3976
holic	-11.3984
ites	-11.401
▁blockheads	-11.4013
▁heating	-11.4016
▁quarters	-11.4023
▁importantly	-11.4036
▁damag	-11.4044
▁dy	-11.4049
▁loop	-11.4065
▁presented	-11.4077
rieve	-11.409
▁dug	-11.4093
▁dial	-11.4094
enomen	-11.41
▁sav	-11.411
▁anchors	-11.4111
▁traditions	-11.4112
▁shatter	-11.4119
set	-11.4127
▁by	-11.4141
▁cav	-11.4154
▁devi	-11.4165
▁han	-11.4183
▁creaks	-11.4188
eagle	-11.4196
▁hooks	-11.4207
▁pecks	-11.4212
▁nightmares	-11.4212
▁reminds	-11.4223
▁cas	-11.4225
acin	-11.4247
yster	-11.4247
▁ads	-11.426
▁ele	-11.4263
stein	-11.4292
urg	-11.4296
▁te	-11.4297
jection	-11.4305
▁alc	-11.4308
▁shirts	-11.4314
▁strings	-11.4316
▁dott	-11.433
▁concentrat	-11.4331
gged	-11.4339
▁lone	-11.4345
mature	-11.4347
▁approv	-11.4354
▁cared	-11.4363
▁tast	-11.438
▁boost	-11.4387
▁cooled	-11.4395
ragged	-11.4413
▁cages	-11.4414
▁joshs	-11.4415
▁illusions	-11.4417
▁rider	-11.4422
▁sales	-11.4429
▁fre	-11.4438
▁ov	-11.4446
▁worker	-11.4455
ballgame	-11.4465
▁suite	-11.4478
▁gaze	-11.4498
fest	-11.4512
▁rockets	-11.452
ened	-11.4567
sized	-11.4571
chin	-11.4575
▁illustrati	-11.4576
aaah	-11.4582
fors	-11.459
▁feature	-11.46
roke	-11.4618
▁hesitat	-11.4634
lumber	-11.4641
▁dealer	-11.465
tone	-11.4659
ties	-11.4685
mer	-11.4699
▁justi	-11.4705
▁rebel	-11.4709
ugged	-11.4711
▁types	-11.4721
▁clubs	-11.4727
haha	-11.4742
tos	-11.476
we	-11.478
▁scor	-11.4786
▁sayin	-11.4788
mini	-11.4818
▁wag	-11.4825
▁battles	-11.4832
▁sabotage	-11.4846
▁nu	-11.4857
▁fil	-11.4868
lc	-11.4879
itch	-11.4892
▁translat	-11.4911
▁movies	-11.4942
▁jo	-11.4948
▁clues	-11.4957
ulch	-11.4965
▁butcher	-11.4972
▁relat	-11.4974
oid	-11.5001
llow	-11.5012
▁waiter	-11.5032
▁sensibl	-11.5043
▁areas	-11.5045
▁pots	-11.5056
▁valentine	-11.5065
▁recycle	-11.5071
oft	-11.5093
▁pops	-11.5094
ecu	-11.5115
▁barri	-11.5153
rated	-11.5164
▁bb	-11.5193
erries	-11.5245
▁boot	-11.5267
isk	-11.5271
bones	-11.5278
ists	-11.5281
▁cavi	-11.5284
hu	-11.5286
▁ach	-11.5317
▁demi	-11.5327
rent	-11.5349
sta	-11.5364
▁rhythmic	-11.5365
hill	-11.5379
▁creat	-11.5379
▁mara	-11.5471
▁activate	-11.5496
▁outgu	-11.5521
exceptions	-11.5539
aah	-11.5544
lot	-11.5585
postal	-11.5589
citation	-11.5648
▁hose	-11.5687
▁fu	-11.571
aaaaah	-11.5757
ran	-11.5787
ins	-11.5837
cam	-11.5861
osh	-11.5925
corn	-11.5937
ane	-11.594
▁translate	-11.5957
ana	-11.5999
▁gorg	-11.6005
atory	-11.603
nal	-11.6051
▁av	-11.6054
▁bid	-11.6069
wink	-11.6081
itating	-11.6089
ratio	-11.6109
▁spro	-11.6124
lato	-11.6165
ista	-11.6188
▁mul	-11.621
▁wil	-11.6223
▁dispos	-11.6236
▁mack	-11.6265
▁bra	-11.6269
▁buzze	-11.6277
num	-11.6278
▁illustr	-11.6282
▁budd	-11.6282
nny	-11.6296
▁mer	-11.6314
gling	-11.6315
▁tease	-11.6346
▁distribut	-11.6379
▁cel	-11.6381
ney	-11.64
pig	-11.6417
tto	-11.6427
illa	-11.6453
untie	-11.6471
▁stor	-11.6479
▁coon	-11.6484
died	-11.6528
▁blu	-11.6546
▁af	-11.655
oney	-11.6553
▁treasur	-11.6563
qui	-11.6589
pers	-11.6616
illion	-11.662
rall	-11.6629
of	-11.6652
▁repl	-11.6654
ound	-11.6763
▁garl	-11.6783
cky	-11.6805
▁dip	-11.6843
net	-11.685
eight	-11.6864
▁humi	-11.6899
ivan	-11.6935
▁oppos	-11.6944
▁cla	-11.6948
▁cin	-11.6949
▁encourag	-11.6955
▁bel	-11.6958
▁myth	-11.6977
tti	-11.7033
ological	-11.7039
arch	-11.7052
▁comment	-11.7085
▁heroic	-11.7086
ified	-11.7112
▁opera	-11.7151
▁minim	-11.7159
rrupt	-11.717
sistance	-11.7181
tale	-11.7232
▁onion	-11.7239
avy	-11.7269
action	-11.728
▁defens	-11.7283
▁sin	-11.7295
shore	-11.7308
gust	-11.7329
aire	-11.7355
▁rev	-11.7368
ladi	-11.7375
got	-11.7407
uck	-11.744
▁celebrat	-11.7452
▁aga	-11.7452
ef	-11.7453
▁woohoo	-11.7466
ired	-11.7477
crunching	-11.7485
ttle	-11.7515
gal	-11.7527
tar	-11.7528
▁flan	-11.7528
ber	-11.7559
▁adi	-11.7588
▁ali	-11.7591
lance	-11.7599
five	-11.76
▁combine	-11.7604
believe	-11.7607
powered	-11.7608
mise	-11.7609
dom	-11.7626
asting	-11.7631
loaded	-11.7639
icy	-11.7644
fe	-11.7657
lories	-11.767
▁washi	-11.7672
▁smok	-11.7675
scent	-11.7695
liv	-11.7705
▁web	-11.7707
▁pea	-11.7715
▁oohhoo	-11.7726
olo	-11.7746
suspecting	-11.7772
▁plac	-11.778
▁tablet	-11.7782
▁jam	-11.7794
urry	-11.7795
▁sw	-11.7805
poke	-11.7807
▁maniac	-11.7808
onge	-11.7811
▁sk	-11.7818
dated	-11.7821
oodle	-11.7826
rad	-11.7835
ooper	-11.7837
pu	-11.784
ippin	-11.7846
knowing	-11.7865
▁struc	-11.7865
▁accus	-11.7887
▁overreact	-11.7887
port	-11.79
covered	-11.79
▁devo	-11.7901
uous	-11.7906
point	-11.7906
▁declare	-11.7918
uts	-11.7938
▁snort	-11.794
▁programme	-11.794
▁grunt	-11.7942
▁politic	-11.7945
▁bundle	-11.7946
▁hormone	-11.7946
▁theme	-11.7946
▁mushroom	-11.7946
about	-11.7948
▁primate	-11.7949
▁sentence	-11.795
▁moro	-11.7953
▁plot	-11.7953
▁recipe	-11.7954
▁brat	-11.7957
▁photographer	-11.7959
af	-11.7962
▁expense	-11.7962
keeper	-11.7964
yu	-11.7966
▁custom	-11.7966
▁flu	-11.7969
▁boulder	-11.7969
▁explosive	-11.7969
▁scoundrel	-11.7969
▁semifinal	-11.7969
▁scroll	-11.7969
▁prospect	-11.797
unning	-11.797
▁yearnin	-11.7972
▁victori	-11.7973
▁relation	-11.7973
meter	-11.7975
▁commercial	-11.7979
▁statue	-11.7979
ock	-11.7982
▁tube	-11.7982
gram	-11.7984
▁niece	-11.7985
ject	-11.7986
▁lankom	-11.7987
▁result	-11.7989
▁brake	-11.7989
▁adjust	-11.799
doo	-11.7992
▁ravi	-11.7995
▁standard	-11.7996
▁tribe	-11.7996
▁rumor	-11.7996
▁stair	-11.7997
orms	-11.7997
▁ancestor	-11.7998
▁insect	-11.7999
▁pollinator	-11.8
rus	-11.8006
▁discus	-11.8006
▁aspirin	-11.8009
▁arrangement	-11.8009
erced	-11.801
▁whine	-11.8012
▁pub	-11.8014
▁firework	-11.8017
▁wit	-11.8022
▁collector	-11.8023
▁scale	-11.8028
playing	-11.8029
crossed	-11.803
▁psych	-11.8045
cities	-11.8045
▁troubl	-11.8055
▁sau	-11.806
▁growl	-11.8063
▁educat	-11.8063
▁pant	-11.8066
lake	-11.8068
▁amo	-11.8069
lita	-11.8069
play	-11.8079
timer	-11.8081
▁toe	-11.8084
▁pol	-11.8088
▁threaten	-11.809
▁compa	-11.809
vic	-11.8095
▁slug	-11.8097
looded	-11.81
▁poster	-11.81
roads	-11.8101
▁charg	-11.8106
load	-11.8107
▁experienc	-11.811
▁bab	-11.8111
▁recogniz	-11.8111
▁irrit	-11.8112
alty	-11.8114
▁rap	-11.8115
▁smi	-11.8116
actors	-11.8117
▁equa	-11.8122
▁mal	-11.8122
semble	-11.8126
▁disgust	-11.8127
▁fog	-11.8128
▁clank	-11.8128
▁squawk	-11.8128
▁dit	-11.8129
▁murmur	-11.8134
▁protest	-11.8137
friend	-11.8137
▁figur	-11.8137
spect	-11.8138
▁accomplish	-11.814
▁convinc	-11.8141
▁violat	-11.8141
uhh	-11.8142
ointment	-11.8143
▁chew	-11.8143
core	-11.8144
▁glob	-11.8145
special	-11.8146
▁explore	-11.8146
armed	-11.8146
▁too	-11.8149
break	-11.8149
where	-11.815
ologist	-11.8151
▁confirm	-11.8152
▁convict	-11.8152
▁photograph	-11.8153
▁crook	-11.8153
brows	-11.8153
obedient	-11.8153
elders	-11.8154
▁betray	-11.8156
sensitive	-11.8157
sophisticated	-11.8157
face	-11.8157
town	-11.8159
charge	-11.8159
parent	-11.8159
trusted	-11.8159
reign	-11.8159
wait	-11.816
magician	-11.816
northeast	-11.816
even	-11.816
▁reject	-11.816
belts	-11.816
solve	-11.816
writing	-11.8161
position	-11.8161
▁toll	-11.8161
▁stutter	-11.8161
confident	-11.8161
crows	-11.8161
▁steer	-11.8161
filled	-11.8162
polis	-11.8162
bread	-11.8162
schedule	-11.8162
traveling	-11.8162
confidence	-11.8162
grown	-11.8162
sounding	-11.8162
▁terr	-11.8162
ready	-11.8162
▁econom	-11.8162
flow	-11.8162
▁philosoph	-11.8162
▁raspberr	-11.8162
stealing	-11.8162
skull	-11.8163
fifty	-11.8163
tempo	-11.8163
build	-11.8163
public	-11.8163
burn	-11.8163
except	-11.8163
weather	-11.8163
coach	-11.8163
cake	-11.8163
strength	-11.8163
week	-11.8163
certain	-11.8163
finished	-11.8163
hundred	-11.8163
rich	-11.8163
different	-11.8163
dust	-11.8163
perfect	-11.8163
morning	-11.8163
next	-11.8163
three	-11.8164
ambon	-11.8164
staff	-11.8164
rocket	-11.8164
zzi	-11.8164
nothing	-11.8164
leave	-11.8164
forward	-11.8164
magic	-11.8164
pants	-11.8165
▁squa	-11.8165
apple	-11.8165
flying	-11.8165
▁treacher	-11.8166
beam	-11.8166
amp	-11.8166
bury	-11.8166
force	-11.8167
weight	-11.8167
▁possibilit	-11.8167
billy	-11.8167
▁explod	-11.8168
▁creep	-11.8168
lair	-11.8168
pic	-11.8169
▁streamline	-11.8169
today	-11.8169
▁ferr	-11.8169
▁gidd	-11.8169
▁strateg	-11.8169
▁locate	-11.817
▁opportunit	-11.817
wife	-11.817
laughs	-11.817
change	-11.817
avan	-11.817
section	-11.817
itude	-11.817
nu	-11.8171
▁describe	-11.8171
think	-11.8171
coup	-11.8171
ki	-11.8172
▁oblige	-11.8172
four	-11.8172
▁spook	-11.8172
▁steven	-11.8173
▁guilt	-11.8173
sisters	-11.8173
kick	-11.8173
lamb	-11.8174
olog	-11.8175
weii	-11.8175
poor	-11.8175
lucky	-11.8176
▁reflect	-11.8176
pool	-11.8176
ckle	-11.8177
▁fortunate	-11.8177
▁docker	-11.8178
sonic	-11.8179
▁reasonabl	-11.8179
pour	-11.8179
▁offens	-11.8179
laid	-11.8179
▁sinc	-11.818
whoa	-11.818
order	-11.818
▁gigant	-11.818
▁relentless	-11.818
▁uhu	-11.818
col	-11.8181
▁cruis	-11.8181
▁squir	-11.8181
tible	-11.8181
▁sec	-11.8182
▁flav	-11.8182
rawl	-11.8182
tape	-11.8182
bbly	-11.8184
▁notic	-11.8184
▁franc	-11.8184
▁mag	-11.8184
bank	-11.8184
▁reinforce	-11.8185
▁celeb	-11.8185
▁fowl	-11.8185
▁iin	-11.8186
dded	-11.8187
form	-11.8187
volv	-11.8187
▁taik	-11.8188
udge	-11.8188
▁affect	-11.8189
▁dix	-11.8189
communica	-11.8189
▁technic	-11.8189
▁brut	-11.8189
mobile	-11.8189
▁myoj	-11.8189
pati	-11.819
essons	-11.819
▁archaeologi	-11.819
strap	-11.819
minded	-11.819
▁regula	-11.819
cadi	-11.819
▁profession	-11.819
▁govern	-11.819
▁torch	-11.8191
▁doodl	-11.8191
▁cleve	-11.8191
▁imaginati	-11.8191
▁volcan	-11.8191
rophe	-11.8191
▁extensi	-11.8192
▁industr	-11.8192
▁evict	-11.8192
aken	-11.8193
fur	-11.8193
▁practi	-11.8193
▁inspiration	-11.8193
▁gir	-11.8193
▁maximu	-11.8193
▁demo	-11.8193
▁decisi	-11.8194
▁generat	-11.8194
▁inspir	-11.8194
▁physic	-11.8194
▁wouid	-11.8194
rwood	-11.8194
ador	-11.8195
ncil	-11.8195
▁slidin	-11.8195
rkshire	-11.8195
▁splat	-11.8195
▁sittin	-11.8195
▁banner	-11.8195
▁vibra	-11.8195
▁depart	-11.8195
rench	-11.8196
efying	-11.8196
▁merri	-11.8196
▁budge	-11.8196
whal	-11.8196
▁puttin	-11.8196
▁accuse	-11.8196
mir	-11.8196
reptile	-11.8196
▁buckle	-11.8196
▁surre	-11.8196
▁scrump	-11.8196
▁hypno	-11.8197
▁obst	-11.8197
orgi	-11.8197
cinating	-11.8197
constructi	-11.8197
▁argentine	-11.8197
▁distincti	-11.8197
▁fertiliz	-11.8197
▁imprison	-11.8197
▁mexican	-11.8197
▁nitro	-11.8197
▁orienta	-11.8197
▁poiice	-11.8197
cognit	-11.8197
fthan	-11.8197
gnition	-11.8197
milliondollar	-11.8197
mlzu	-11.8197
nburg	-11.8197
oeuvre	-11.8197
ollolloll	-11.8197
ollywog	-11.8197
▁aberration	-11.8197
▁accommodat	-11.8197
▁activity	-11.8197
▁aggressive	-11.8197
▁amputated	-11.8197
▁anticipat	-11.8197
▁apprehend	-11.8197
▁arithmetic	-11.8197
▁assumption	-11.8197
▁assurance	-11.8197
▁astray	-11.8197
▁aurora	-11.8197
▁ayuadame	-11.8197
▁babbling	-11.8197
▁bagpipe	-11.8197
▁bayleef	-11.8197
▁betrothed	-11.8197
▁boogeyman	-11.8197
▁boomerang	-11.8197
▁bouquet	-11.8197
▁brailsford	-11.8197
▁brawn	-11.8197
▁breast	-11.8197
▁bruno	-11.8197
▁bubalochov	-11.8197
▁burglar	-11.8197
▁calcium	-11.8197
▁cauliflower	-11.8197
▁celebrities	-11.8197
▁certificate	-11.8197
▁charlatan	-11.8197
▁chauffeur	-11.8197
▁chubby	-11.8197
▁cigarette	-11.8197
▁claridges	-11.8197
▁cocacola	-11.8197
▁cocktaii	-11.8197
▁collision	-11.8197
▁columbus	-11.8197
▁commerce	-11.8197
▁condemned	-11.8197
▁confront	-11.8197
▁conjure	-11.8197
▁contempt	-11.8197
▁contradiction	-11.8197
▁coyote	-11.8197
▁crenshaw	-11.8197
▁cripple	-11.8197
▁culprit	-11.8197
▁dabbett	-11.8197
▁dapplenag	-11.8197
▁december	-11.8197
▁deducti	-11.8197
▁defect	-11.8197
▁disallowed	-11.8197
▁discontent	-11.8197
▁disorganized	-11.8197
▁dizzy	-11.8197
▁dorothy	-11.8197
▁doughnuts	-11.8197
▁eeeya	-11.8197
▁eggnog	-11.8197
▁egypt	-11.8197
▁elevator	-11.8197
▁embroidery	-11.8197
▁encompass	-11.8197
▁engywook	-11.8197
▁enlighten	-11.8197
▁enslave	-11.8197
▁entourage	-11.8197
▁escaping	-11.8197
▁evaluati	-11.8197
▁exotic	-11.8197
▁exploit	-11.8197
▁exposure	-11.8197
▁extravagant	-11.8197
▁fahrenheit	-11.8197
▁fangfang	-11.8197
▁fatigue	-11.8197
▁faucet	-11.8197
▁fingerprints	-11.8197
▁flagpole	-11.8197
▁flamethrower	-11.8197
▁fleetwood	-11.8197
▁flirt	-11.8197
▁foreclosure	-11.8197
▁foretold	-11.8197
▁friction	-11.8197
▁fritz	-11.8197
▁froufrou	-11.8197
▁fundamental	-11.8197
▁fundraising	-11.8197
▁fusilli	-11.8197
▁garbage	-11.8197
▁gogetter	-11.8197
▁goodfornothing	-11.8197
▁grandchildren	-11.8197
▁greatgrand	-11.8197
▁harvard	-11.8197
▁hasslein	-11.8197
▁headlamp	-11.8197
▁helicopter	-11.8197
▁herbs	-11.8197
▁hermit	-11.8197
▁hieroglyphic	-11.8197
▁hocuspocus	-11.8197
▁hooligan	-11.8197
▁hoppins	-11.8197
▁hurrah	-11.8197
▁hydraulic	-11.8197
▁icicle	-11.8197
▁idiocy	-11.8197
▁ignited	-11.8197
▁illprepared	-11.8197
▁imaginary	-11.8197
▁imagining	-11.8197
▁impresario	-11.8197
▁incarceration	-11.8197
▁incorporat	-11.8197
▁incubati	-11.8197
▁infectious	-11.8197
▁infiuence	-11.8197
▁inhabit	-11.8197
▁insufferable	-11.8197
▁invincible	-11.8197
▁jaq	-11.8197
▁jawbone	-11.8197
▁jeanbob	-11.8197
▁jettison	-11.8197
▁jumble	-11.8197
▁katherine	-11.8197
▁kenneth	-11.8197
▁kleptomaniac	-11.8197
▁knox	-11.8197
▁kuagigake	-11.8197
▁kyung	-11.8197
▁lawabidin	-11.8197
▁liberal	-11.8197
▁louvre	-11.8197
▁lullaby	-11.8197
▁luxury	-11.8197
▁magellan	-11.8197
▁mahdji	-11.8197
▁manescue	-11.8197
▁manufactur	-11.8197
▁mcquick	-11.8197
▁mediumrare	-11.8197
▁memorabilia	-11.8197
▁messenger	-11.8197
▁michelangelo	-11.8197
▁midafternoon	-11.8197
▁mightymike	-11.8197
▁misunderstood	-11.8197
▁monsieur	-11.8197
▁monument	-11.8197
▁motivation	-11.8197
▁muffin	-11.8197
▁napoleon	-11.8197
▁neglect	-11.8197
▁ninja	-11.8197
▁nobili	-11.8197
▁oppress	-11.8197
▁optimis	-11.8197
▁osprey	-11.8197
▁pembroke	-11.8197
▁perfetto	-11.8197
▁persontoperson	-11.8197
▁pgds	-11.8197
▁pilgrim	-11.8197
▁pitchforks	-11.8197
▁plague	-11.8197
▁plaque	-11.8197
▁precarious	-11.8197
▁prerace	-11.8197
▁prestige	-11.8197
▁prettier	-11.8197
▁privacy	-11.8197
▁proposal	-11.8197
▁proprietor	-11.8197
▁prosecution	-11.8197
▁provisions	-11.8197
▁pugilis	-11.8197
▁purchase	-11.8197
▁pyramid	-11.8197
▁pyrid	-11.8197
▁reckless	-11.8197
▁reelect	-11.8197
▁reginald	-11.8197
▁rekindle	-11.8197
▁releasing	-11.8197
▁resolution	-11.8197
▁ricocheting	-11.8197
▁salaam	-11.8197
▁satellite	-11.8197
▁scarf	-11.8197
▁scenario	-11.8197
▁scoot	-11.8197
▁seagulls	-11.8197
▁sefiorita	-11.8197
▁serignol	-11.8197
▁shaft	-11.8197
▁shickedanz	-11.8197
▁shoshone	-11.8197
▁simpson	-11.8197
▁skedaddl	-11.8197
▁skyscraper	-11.8197
▁sleazy	-11.8197
▁slither	-11.8197
▁smooch	-11.8197
▁smuggl	-11.8197
▁sorceress	-11.8197
▁sprang	-11.8197
▁sreekanth	-11.8197
▁stagger	-11.8197
▁stammers	-11.8197
▁stanza	-11.8197
▁starrett	-11.8197
▁statistical	-11.8197
▁steadily	-11.8197
▁stephanie	-11.8197
▁stevie	-11.8197
▁streak	-11.8197
▁stupendous	-11.8197
▁submit	-11.8197
▁superstition	-11.8197
▁supervillain	-11.8197
▁supremo	-11.8197
▁surviving	-11.8197
▁survivor	-11.8197
▁suspicion	-11.8197
▁sussex	-11.8197
▁swatura	-11.8197
▁sybil	-11.8197
▁syrup	-11.8197
▁theatr	-11.8197
▁theirselves	-11.8197
▁tippytippy	-11.8197
▁toenail	-11.8197
▁toledo	-11.8197
▁tread	-11.8197
▁trifle	-11.8197
▁tundra	-11.8197
▁twelfth	-11.8197
▁twirling	-11.8197
▁unacceptable	-11.8197
▁unaffected	-11.8197
▁undertaken	-11.8197
▁unexpected	-11.8197
▁unmarried	-11.8197
▁unnatural	-11.8197
▁unpleasant	-11.8197
▁vaccine	-11.8197
▁vittorio	-11.8197
▁wahwahwah	-11.8197
▁wainwright	-11.8197
▁wallbanger	-11.8197
▁watermelons	-11.8197
▁wfpo	-11.8197
▁whoowhoo	-11.8197
▁whwhwh	-11.8197
▁winwood	-11.8197
▁worldfamous	-11.8197
▁wyoming	-11.8197
▁carcass	-11.8197
▁felipe	-11.8197
▁greatgreat	-11.8197
▁siege	-11.8197
▁vendor	-11.8197
▁airborne	-11.8197
▁antoine	-11.8197
▁architect	-11.8197
▁audio	-11.8197
▁ayyiyiyi	-11.8197
▁bellhop	-11.8197
▁brew	-11.8197
▁camden	-11.8197
▁capito	-11.8197
▁cherish	-11.8197
▁cinema	-11.8197
▁ddont	-11.8197
▁detour	-11.8197
▁electrif	-11.8197
▁embark	-11.8197
▁emphasi	-11.8197
▁hehheh	-11.8197
▁humdiddle	-11.8197
▁interfering	-11.8197
▁journalis	-11.8197
▁luxuri	-11.8197
▁mirage	-11.8197
▁morris	-11.8197
▁neuro	-11.8197
▁outsmart	-11.8197
▁quiz	-11.8197
▁regain	-11.8197
▁revolution	-11.8197
▁robbie	-11.8197
▁roughnecks	-11.8197
▁sacrificial	-11.8197
▁sarge	-11.8197
▁scoffing	-11.8197
▁significan	-11.8197
▁sputtering	-11.8197
▁swayne	-11.8197
▁teeter	-11.8197
▁thumb	-11.8197
▁valda	-11.8197
▁vanished	-11.8197
▁weightlift	-11.8197
▁bandaid	-11.8197
▁comfy	-11.8197
▁deceive	-11.8197
▁destructor	-11.8197
▁emblem	-11.8197
▁evolving	-11.8197
▁feisty	-11.8197
▁grandstand	-11.8197
▁hemorrh	-11.8197
▁indict	-11.8197
▁intrusion	-11.8197
▁kurt	-11.8197
▁quint	-11.8197
▁tallyho	-11.8197
▁tamper	-11.8197
▁thrusters	-11.8197
▁trek	-11.8197
▁wishbone	-11.8197
distancing	-11.8197
▁crooning	-11.8197
▁demographic	-11.8197
▁dentist	-11.8197
▁foreseen	-11.8197
▁irresistible	-11.8197
▁sausage	-11.8197
▁sidearm	-11.8197
▁sputters	-11.8197
▁yikes	-11.8197
▁influ	-11.8197
▁beiieve	-11.8197
▁indoor	-11.8197
▁irrem	-11.8197
▁munching	-11.8197
▁outdid	-11.8197
▁pauper	-11.8197
▁pursue	-11.8197
▁withstand	-11.8197
▁gunshots	-11.8197
▁gushy	-11.8197
▁mischie	-11.8197
▁bunion	-11.8197
▁domestic	-11.8197
▁illegal	-11.8197
▁langur	-11.8197
▁registr	-11.8197
▁endanger	-11.8197
▁galvani	-11.8197
▁gunslinger	-11.8197
▁plunder	-11.8197
▁raft	-11.8197
appityp	-11.8197
▁selfrespect	-11.8197
animous	-11.8197
▁bolles	-11.8197
▁exonerat	-11.8197
▁loneliness	-11.8197
▁tainted	-11.8197
pugna	-11.8197
▁bliss	-11.8197
▁trademark	-11.8197
▁libert	-11.8197
▁shreds	-11.8197
▁concert	-11.8197
▁curve	-11.8197
▁sympath	-11.8197
▁turlip	-11.8197
▁transfer	-11.8197
▁hypnotiz	-11.8197
▁meddle	-11.8197
▁meddling	-11.8197
▁surve	-11.8197
▁geography	-11.8197
▁fiesta	-11.8197
▁fopp	-11.8197
▁scaring	-11.8197
▁dickens	-11.8197
▁gramm	-11.8197
▁agatha	-11.8197
▁offshore	-11.8197
▁snuggly	-11.8197
eeeeeee	-11.8197
▁billboards	-11.8197
shaw	-11.8197
▁decorat	-11.8197
trates	-11.8197
▁privet	-11.8197
▁buffet	-11.8197
▁pancake	-11.8197
bscene	-11.8197
merchan	-11.8197
▁yield	-11.8197
▁hodie	-11.8197
▁mayfly	-11.8197
▁provocati	-11.8197
▁kaput	-11.8197
▁goodygood	-11.8197
▁ketchu	-11.8197
▁stimulati	-11.8197
▁heiress	-11.8197
▁charles	-11.8197
▁captivated	-11.8197
▁eyelash	-11.8197
▁waytoo	-11.8197
▁persist	-11.8197
udence	-11.8197
▁identical	-11.8197
▁jabber	-11.8197
▁justjust	-11.8197
▁torrent	-11.8197
▁merler	-11.8197
▁surf	-11.8197
▁afore	-11.8197
▁calluses	-11.8197
▁temperament	-11.8197
▁decod	-11.8197
eopard	-11.8197
▁madras	-11.8197
▁grudge	-11.8197
▁spiral	-11.8197
▁intensi	-11.8197
▁olsen	-11.8197
▁outreach	-11.8197
▁accusations	-11.8197
▁motivated	-11.8197
uglies	-11.8197
▁blond	-11.8197
hem	-11.8197
▁distort	-11.8197
▁whatwhat	-11.8197
▁clinch	-11.8197
▁fiji	-11.8197
plaus	-11.8197
▁sculpture	-11.8197
▁allerton	-11.8197
▁gamble	-11.8197
▁technolog	-11.8197
▁whereabouts	-11.8197
wreck	-11.8197
▁gratif	-11.8197
▁funeral	-11.8197
▁ignorant	-11.8197
▁vulture	-11.8197
▁cyber	-11.8197
▁cymb	-11.8197
▁merciful	-11.8197
▁troopmaster	-11.8197
▁beanery	-11.8197
▁devour	-11.8197
▁frills	-11.8197
▁solving	-11.8197
▁vague	-11.8197
▁malice	-11.8197
▁offhand	-11.8198
tricia	-11.8198
▁assessment	-11.8198
▁underworld	-11.8198
▁summar	-11.8198
oozie	-11.8198
▁concei	-11.8198
▁weasel	-11.8198
▁bickle	-11.8198
▁elude	-11.8198
▁infant	-11.8198
▁stomp	-11.8198
▁mutual	-11.8198
▁clink	-11.8198
▁sisterinlaw	-11.8198
▁yesssss	-11.8198
ajlma	-11.8198
itudin	-11.8198
▁bogeyman	-11.8198
▁glen	-11.8198
▁misplaced	-11.8198
▁wilson	-11.8198
▁brainwash	-11.8198
▁atlantic	-11.8198
▁gagging	-11.8198
▁teenagers	-11.8198
eactivati	-11.8198
▁representative	-11.8198
▁abduct	-11.8198
▁accessory	-11.8198
rote	-11.8198
▁gallery	-11.8198
▁oblivious	-11.8198
▁raja	-11.8198
▁antique	-11.8198
▁choco	-11.8198
arbor	-11.8198
cular	-11.8198
▁bingo	-11.8198
▁droop	-11.8198
▁inconvenience	-11.8198
▁vibration	-11.8198
▁devotion	-11.8198
▁involuntarily	-11.8198
▁fern	-11.8198
▁flourish	-11.8198
▁serial	-11.8198
stol	-11.8198
▁preprogrammed	-11.8198
▁presume	-11.8198
▁squash	-11.8198
▁jolly	-11.8198
▁radiator	-11.8198
▁grill	-11.8198
fiction	-11.8198
▁coordination	-11.8198
▁evacuation	-11.8198
▁demonstration	-11.8198
▁diction	-11.8198
▁calamity	-11.8198
▁yoshl	-11.8198
efic	-11.8198
▁oliver	-11.8198
▁blush	-11.8198
▁random	-11.8198
▁canopy	-11.8198
▁flung	-11.8198
▁selfdestruct	-11.8198
cado	-11.8198
▁innovation	-11.8198
▁beads	-11.8198
▁cancan	-11.8198
hlro	-11.8198
▁fanatic	-11.8198
▁leaf	-11.8199
▁middleweight	-11.8199
▁chores	-11.8199
▁nerd	-11.8199
adpole	-11.8199
▁bummed	-11.8199
peas	-11.8199
▁suitcase	-11.8199
▁cheque	-11.8199
▁sunscreen	-11.8199
▁placid	-11.8199
▁temple	-11.8199
▁marcia	-11.8199
▁keenan	-11.8199
▁lalalala	-11.8199
▁itits	-11.8199
▁quesa	-11.8199
▁cornfield	-11.8199
▁blink	-11.8199
▁slopp	-11.8199
ooga	-11.8199
▁texa	-11.8199
▁norwood	-11.8199
▁soundproof	-11.8199
flex	-11.8199
aloha	-11.8199
▁botch	-11.8199
▁gruel	-11.8199
▁merriment	-11.8199
▁measl	-11.8199
ponent	-11.8199
▁dissolve	-11.8199
▁unfair	-11.8199
▁unwise	-11.8199
▁motto	-11.8199
▁rom	-11.8199
▁vocal	-11.8199
▁unalt	-11.8199
▁godspeed	-11.8199
▁resident	-11.8199
▁ahoy	-11.8199
▁allez	-11.8199
▁garda	-11.8199
▁affectionate	-11.8199
▁psychiatrist	-11.8199
▁simpleminded	-11.8199
phant	-11.8199
▁elves	-11.8199
inciden	-11.8199
▁mvp	-11.8199
▁caution	-11.82
▁musicians	-11.82
▁qualifier	-11.82
▁gyp	-11.82
▁fini	-11.82
tri	-11.82
▁cynic	-11.82
daft	-11.82
▁ev	-11.82
vory	-11.82
▁atwo	-11.82
▁outrun	-11.82
▁emoti	-11.82
▁resent	-11.82
▁combat	-11.82
▁classified	-11.82
▁contrast	-11.82
▁vul	-11.82
▁fiery	-11.82
scous	-11.82
▁poetry	-11.82
▁cabinet	-11.82
▁enthusiast	-11.82
▁ioop	-11.82
▁vigilant	-11.82
▁tweat	-11.82
▁shoreline	-11.82
▁envi	-11.82
▁montag	-11.82
▁annoyance	-11.8201
▁shack	-11.8201
▁haircut	-11.8201
▁fagan	-11.8201
▁coordinates	-11.8201
▁asset	-11.8201
▁eviction	-11.8201
plica	-11.8201
▁basis	-11.8201
▁divide	-11.8201
▁recharge	-11.8201
▁upstanding	-11.8201
▁ruthie	-11.8201
▁moans	-11.8201
▁patties	-11.8201
▁teenage	-11.8201
▁threequarters	-11.8201
shape	-11.8201
▁daint	-11.8201
▁intim	-11.8201
▁wheeze	-11.8201
▁religio	-11.8201
▁fend	-11.8201
▁skeleton	-11.8201
▁ooooh	-11.8202
▁sprin	-11.8202
egory	-11.8202
▁immers	-11.8202
ynight	-11.8202
▁jud	-11.8202
▁extension	-11.8202
▁shln	-11.8202
▁hikers	-11.8202
▁equi	-11.8202
▁maki	-11.8202
▁scr	-11.8202
▁gag	-11.8202
▁stevenson	-11.8202
▁freeload	-11.8202
▁roster	-11.8202
▁bodi	-11.8202
▁hunger	-11.8202
▁rake	-11.8202
▁spitting	-11.8202
▁seul	-11.8202
valent	-11.8202
▁psycho	-11.8203
▁grit	-11.8203
▁beetle	-11.8203
▁lunge	-11.8203
promot	-11.8203
ntac	-11.8203
▁freelance	-11.8203
▁tinker	-11.8203
▁giddyup	-11.8203
▁arcad	-11.8203
▁unfur	-11.8203
▁archaeologist	-11.8203
▁wwhat	-11.8203
licious	-11.8204
▁selection	-11.8204
▁chaos	-11.8204
thesis	-11.8204
▁fragran	-11.8204
▁whipped	-11.8204
▁again	-11.8204
▁myojin	-11.8204
▁elimination	-11.8204
▁senor	-11.8204
▁glitch	-11.8204
offre	-11.8204
▁midway	-11.8204
▁barbell	-11.8205
▁antennae	-11.8205
▁investigate	-11.8205
▁irresponsible	-11.8205
▁obscure	-11.8205
▁archie	-11.8205
▁yank	-11.8205
▁hahah	-11.8205
▁jenna	-11.8205
▁accurately	-11.8205
▁sandstone	-11.8205
cution	-11.8205
▁kitchenware	-11.8205
▁rudder	-11.8205
▁laundry	-11.8206
▁countries	-11.8206
▁partnership	-11.8206
seif	-11.8206
▁confer	-11.8206
rdy	-11.8206
▁wholesome	-11.8206
▁debut	-11.8206
▁prote	-11.8207
▁organize	-11.8207
▁blazes	-11.8207
▁wildcat	-11.8207
▁ahhhhh	-11.8207
▁overboard	-11.8207
batic	-11.8207
▁gridl	-11.8207
▁executed	-11.8208
▁nurtured	-11.8208
▁fenn	-11.8208
▁underestimated	-11.8208
▁torches	-11.8208
▁hasty	-11.8208
▁margo	-11.8208
atro	-11.8208
▁keen	-11.8208
▁sanity	-11.8208
▁abide	-11.8208
▁ayear	-11.8208
aware	-11.8209
▁reinforcement	-11.8209
zio	-11.8209
▁accomplishment	-11.8209
planted	-11.8209
guar	-11.8209
▁troublesome	-11.8209
▁integr	-11.8209
▁overall	-11.8209
▁retreat	-11.8209
▁stating	-11.8209
▁bog	-11.8209
lini	-11.8209
▁grizzly	-11.8209
▁patri	-11.8209
▁prophet	-11.821
cup	-11.821
turn	-11.821
▁conspirac	-11.821
▁lazi	-11.821
ective	-11.821
▁bawlin	-11.821
arrot	-11.821
breaker	-11.821
▁intense	-11.821
▁alps	-11.821
▁drew	-11.8211
▁vanity	-11.8211
istress	-11.8211
▁ruck	-11.8211
strum	-11.8211
ploma	-11.8211
▁hmmph	-11.8212
▁broad	-11.8212
▁hairdo	-11.8212
▁vicky	-11.8212
▁complet	-11.8212
▁revised	-11.8212
▁considerate	-11.8212
tooti	-11.8213
▁combo	-11.8213
▁fender	-11.8213
lap	-11.8213
▁flexible	-11.8213
▁landslide	-11.8213
▁prejudice	-11.8213
▁indulge	-11.8213
▁parallel	-11.8213
▁sho	-11.8213
rope	-11.8213
▁occupied	-11.8213
▁bribe	-11.8213
▁reggie	-11.8213
▁flattened	-11.8213
▁enrich	-11.8213
▁selfre	-11.8213
▁clan	-11.8214
▁mv	-11.8214
▁vain	-11.8214
owel	-11.8214
▁enth	-11.8214
▁samson	-11.8215
▁fag	-11.8215
▁waddle	-11.8215
agent	-11.8215
▁orphanage	-11.8215
▁splashes	-11.8215
▁crick	-11.8215
walk	-11.8215
▁tension	-11.8215
▁turb	-11.8215
▁folly	-11.8215
▁craz	-11.8216
▁countryside	-11.8216
▁household	-11.8216
▁rack	-11.8216
▁iife	-11.8216
▁penta	-11.8217
utter	-11.8217
▁reflection	-11.8217
▁organi	-11.8217
▁delegate	-11.8217
▁wowee	-11.8218
▁factories	-11.8218
▁batteries	-11.8218
oxin	-11.8218
▁provok	-11.8218
▁reside	-11.8218
rmu	-11.8218
lko	-11.8218
▁bub	-11.8219
▁cruise	-11.8219
analys	-11.8219
▁executioner	-11.8219
cott	-11.8219
▁trigg	-11.822
▁molest	-11.822
▁progression	-11.822
▁pinch	-11.8221
▁mich	-11.8221
▁weakness	-11.8221
▁chow	-11.8221
▁sneakers	-11.8221
▁facilitate	-11.8222
▁alter	-11.8222
▁exc	-11.8222
▁perch	-11.8222
ardines	-11.8222
▁circuses	-11.8222
imsy	-11.8223
▁happie	-11.8223
mburger	-11.8223
erate	-11.8223
▁mig	-11.8224
▁biii	-11.8224
eenie	-11.8224
▁axe	-11.8224
▁prem	-11.8225
▁breathless	-11.8225
▁stem	-11.8225
▁impal	-11.8225
ipal	-11.8225
▁terrifi	-11.8226
▁nooo	-11.8226
▁grazing	-11.8226
▁splattering	-11.8226
▁decreasing	-11.8226
▁deadbeat	-11.8226
▁publishing	-11.8226
▁specialize	-11.8226
▁dwelling	-11.8227
▁clar	-11.8227
▁management	-11.8227
▁breakdanc	-11.8227
▁streamlined	-11.8227
▁apartment	-11.8227
▁soid	-11.8227
▁lund	-11.8228
▁twin	-11.8228
▁heavier	-11.8228
▁dull	-11.8228
▁ranch	-11.8228
▁lefthanded	-11.8229
apers	-11.8229
▁invested	-11.8229
▁pff	-11.823
▁hydr	-11.8231
▁flavor	-11.8231
▁philosophy	-11.8231
▁raspberry	-11.8231
▁economy	-11.8231
▁ingen	-11.8231
▁ahold	-11.8232
▁babysitter	-11.8232
▁checkbook	-11.8232
▁hock	-11.8232
▁geo	-11.8232
pone	-11.8232
▁esse	-11.8232
racious	-11.8232
▁blowout	-11.8233
▁shad	-11.8233
▁xx	-11.8233
▁sleeve	-11.8233
rowl	-11.8233
bum	-11.8233
insert	-11.8234
hopper	-11.8234
▁rackettail	-11.8234
▁mathematically	-11.8234
▁drawers	-11.8234
▁gam	-11.8234
▁gala	-11.8235
▁alas	-11.8235
▁crumbling	-11.8235
▁gap	-11.8235
▁lava	-11.8236
olished	-11.8236
▁chuckie	-11.8236
▁knockout	-11.8236
ej	-11.8236
▁gps	-11.8236
▁forceful	-11.8236
rsity	-11.8236
▁ashman	-11.8237
▁mush	-11.8238
versus	-11.8238
▁quali	-11.8239
▁hur	-11.8239
▁harve	-11.8239
▁termina	-11.8239
bar	-11.8239
▁potent	-11.824
▁obedient	-11.824
▁brows	-11.8241
▁educated	-11.8242
▁confirmed	-11.8242
▁convicted	-11.8242
▁crooked	-11.8242
▁accomplished	-11.8242
▁carrier	-11.8242
▁athe	-11.8242
dise	-11.8242
etc	-11.8243
▁threatened	-11.8243
▁violated	-11.8243
▁kum	-11.8243
▁pollinated	-11.8243
▁beckon	-11.8244
▁scratches	-11.8244
iva	-11.8245
▁frolick	-11.8245
havin	-11.8245
▁flown	-11.8245
▁cafe	-11.8246
▁collapsed	-11.8246
▁rattled	-11.8246
▁decreed	-11.8246
▁lining	-11.8246
▁inflate	-11.8246
▁frequen	-11.8247
story	-11.8248
flutter	-11.8248
easy	-11.825
▁hors	-11.8251
▁ahhahahaha	-11.8251
▁lime	-11.8251
▁signora	-11.8251
liver	-11.8252
hearted	-11.8253
▁bir	-11.8253
▁gown	-11.8253
▁buggy	-11.8253
▁aster	-11.8254
▁cia	-11.8255
▁lindy	-11.8255
▁establishment	-11.8255
bad	-11.8256
▁growth	-11.8256
▁riot	-11.8256
▁dura	-11.8256
▁sul	-11.8256
▁ascend	-11.8256
▁dual	-11.8257
▁bushes	-11.8258
niversa	-11.8258
stations	-11.8258
jacks	-11.8259
tsm	-11.8259
▁nanny	-11.826
list	-11.8261
▁hover	-11.8261
ittering	-11.8261
iger	-11.8261
▁psycholog	-11.8261
zor	-11.8262
▁drip	-11.8262
▁forgiveness	-11.8262
pide	-11.8262
▁hardship	-11.8263
▁rapidly	-11.8264
▁quarr	-11.8264
▁explorer	-11.8264
vacu	-11.8264
▁hitter	-11.8265
▁speeches	-11.8266
istor	-11.8266
▁hup	-11.8267
tal	-11.8268
gic	-11.827
▁betting	-11.827
ellent	-11.827
▁persp	-11.827
▁moss	-11.8271
▁hurried	-11.8271
▁flattered	-11.8272
▁overlooked	-11.8272
▁selected	-11.8272
▁suspens	-11.8272
▁charmer	-11.8274
style	-11.8275
▁medi	-11.8275
▁ohhhhh	-11.8275
chl	-11.8275
yeyed	-11.8276
▁bitter	-11.8276
▁rubbery	-11.8276
izzles	-11.8277
▁steering	-11.8277
▁poppy	-11.8277
▁judgement	-11.8278
▁physically	-11.828
usion	-11.8281
▁perp	-11.8281
▁hel	-11.8282
▁pollinate	-11.8282
puncture	-11.8283
▁involve	-11.8287
▁thor	-11.8288
▁setup	-11.8289
▁bolted	-11.8289
▁beliefs	-11.829
▁applicants	-11.829
▁astrochimps	-11.829
▁cylinders	-11.829
▁lounges	-11.829
▁pediatrics	-11.829
▁precautions	-11.829
▁slurps	-11.829
▁squirrels	-11.829
▁toilets	-11.829
▁warriors	-11.829
▁canvass	-11.829
▁smarten	-11.829
▁cinders	-11.829
▁dopes	-11.829
▁reservations	-11.8291
stage	-11.8291
▁wat	-11.8291
zed	-11.8291
▁gassed	-11.8291
▁spears	-11.8292
▁cuffs	-11.8292
▁aiien	-11.8293
▁mous	-11.8294
▁indiana	-11.8294
▁vane	-11.8294
▁technically	-11.8295
aint	-11.8296
▁fido	-11.8296
thisthis	-11.8297
velo	-11.8297
▁slugg	-11.8298
▁mustard	-11.8298
▁mill	-11.8298
▁organs	-11.8298
▁felony	-11.8299
have	-11.8299
▁descended	-11.8301
▁repaired	-11.8303
▁okey	-11.8305
brained	-11.8306
▁fallout	-11.8306
▁traded	-11.8307
▁committ	-11.8308
▁urgently	-11.8308
▁doorway	-11.8309
▁hitched	-11.8314
andal	-11.8314
▁aaagh	-11.8314
▁secondary	-11.8314
▁ththat	-11.8316
▁lumino	-11.8317
▁freshen	-11.8323
▁regularly	-11.8323
▁addresses	-11.8325
ports	-11.8327
▁objects	-11.8328
▁lun	-11.8328
▁licking	-11.8329
▁scraping	-11.8329
▁grinding	-11.833
▁functioning	-11.833
▁splashing	-11.833
▁humanity	-11.833
▁cam	-11.8332
▁pierc	-11.8332
▁donor	-11.8332
▁corp	-11.8332
▁aller	-11.8334
▁ravag	-11.8338
▁nagging	-11.8339
ku	-11.8342
▁cris	-11.8342
▁demonstrated	-11.8342
storm	-11.8342
▁shaken	-11.8344
▁delegat	-11.8348
▁linger	-11.8349
▁pap	-11.835
anthrop	-11.8351
▁carlo	-11.8353
▁cudd	-11.8356
▁caper	-11.8357
▁preten	-11.8358
▁doodle	-11.836
▁ideal	-11.8361
▁volunteered	-11.8361
▁drizzle	-11.8361
▁abolished	-11.8363
▁noone	-11.8363
▁exclaimed	-11.8364
▁rewarded	-11.8364
▁turnout	-11.8365
▁travers	-11.8368
▁nasti	-11.8368
▁bumped	-11.8372
▁disposed	-11.8373
▁narc	-11.8374
▁builder	-11.8374
▁iodi	-11.8375
▁marrie	-11.8376
idia	-11.8376
imal	-11.8376
▁pic	-11.8376
▁caste	-11.8379
nical	-11.838
▁leapin	-11.8382
▁glowing	-11.8383
▁willy	-11.8383
▁formali	-11.8384
▁aspir	-11.8388
▁canceling	-11.839
▁iovee	-11.839
▁prover	-11.8391
urd	-11.8391
▁foil	-11.8395
▁prop	-11.8395
▁backyard	-11.8396
▁goggle	-11.8398
▁victor	-11.84
▁hom	-11.8401
devil	-11.8402
malaya	-11.8404
▁stepping	-11.8405
▁any	-11.8407
▁spli	-11.8408
omin	-11.8408
▁mut	-11.8414
▁hoop	-11.8415
udder	-11.8415
▁mimick	-11.8416
▁kin	-11.8417
▁insi	-11.8419
▁modernize	-11.8421
▁spruc	-11.8421
▁riches	-11.8421
▁sud	-11.8422
▁hunted	-11.8424
points	-11.8426
charted	-11.8429
▁deserved	-11.8429
rie	-11.8429
▁detailed	-11.843
lapping	-11.843
lau	-11.8431
ional	-11.8432
▁flute	-11.8434
god	-11.8441
▁steph	-11.8441
▁rollin	-11.8443
zer	-11.8445
▁cater	-11.8445
doii	-11.8446
tail	-11.8446
▁overload	-11.8448
psy	-11.845
▁potion	-11.8451
▁plots	-11.8452
▁collate	-11.8452
yuk	-11.8452
▁geared	-11.8452
leon	-11.8453
▁expenses	-11.8454
▁themes	-11.8454
▁sentences	-11.8454
▁politics	-11.8454
▁bundles	-11.8454
▁hormones	-11.8454
▁mushrooms	-11.8454
▁primates	-11.8454
▁declares	-11.8454
▁programmes	-11.8455
▁brats	-11.8455
▁hint	-11.8456
▁photographers	-11.8457
▁stevens	-11.8457
avid	-11.8458
▁recipes	-11.8458
▁jams	-11.846
sphere	-11.8464
▁bac	-11.8469
identified	-11.8469
ously	-11.847
▁lilies	-11.8474
piace	-11.8477
mitten	-11.848
▁darkest	-11.8482
▁intri	-11.8486
▁chim	-11.8486
▁reh	-11.8486
▁youse	-11.8488
▁vv	-11.8488
custome	-11.8493
ookie	-11.8495
▁melting	-11.8495
▁flashes	-11.8496
▁finishes	-11.8497
▁depo	-11.8498
due	-11.8498
▁spic	-11.8501
▁farth	-11.8501
▁consideration	-11.8504
capacit	-11.8506
▁bumping	-11.8508
combusti	-11.8508
▁rapp	-11.8517
▁nervously	-11.8521
▁wisely	-11.8521
▁fable	-11.8523
▁goodlooking	-11.8524
put	-11.8533
▁followin	-11.8534
▁pent	-11.8535
oxide	-11.8537
▁learnin	-11.8539
▁slurr	-11.854
▁illogic	-11.8544
▁capitalize	-11.8548
▁brighten	-11.8552
▁fro	-11.8553
▁tending	-11.8553
▁illu	-11.8556
▁recorder	-11.8558
▁gle	-11.8559
▁iong	-11.856
▁lice	-11.8562
▁panick	-11.8562
▁drowning	-11.8567
ethe	-11.8567
▁andhar	-11.8572
igger	-11.8573
▁refu	-11.8579
▁cal	-11.8579
fr	-11.8579
▁schwar	-11.8581
▁papad	-11.8585
▁carb	-11.8589
▁unfold	-11.8589
▁retr	-11.8597
bbed	-11.8599
▁happenin	-11.86
▁maniacal	-11.86
anaka	-11.8601
abouts	-11.8602
▁sonic	-11.8606
▁nodd	-11.8608
rai	-11.8613
▁cro	-11.8619
phony	-11.8623
angu	-11.8633
▁merce	-11.8636
▁consen	-11.8637
adios	-11.8638
▁designate	-11.8638
▁beta	-11.8649
tters	-11.8651
▁breeding	-11.8655
non	-11.8666
▁bitin	-11.8679
▁belonged	-11.8679
pen	-11.8687
▁bling	-11.869
▁restr	-11.8691
▁blaz	-11.8692
▁thankful	-11.8695
▁piglet	-11.8698
▁switched	-11.87
▁jal	-11.8703
fuii	-11.8709
uffles	-11.8712
sang	-11.8719
▁smoked	-11.8723
▁standin	-11.8735
esme	-11.8746
rix	-11.8752
▁reactivat	-11.8753
▁pastor	-11.8768
▁frogg	-11.8769
▁shared	-11.8775
▁catches	-11.8777
▁ranger	-11.8786
▁capabilit	-11.8787
▁doze	-11.8789
▁tak	-11.8791
▁ascen	-11.8794
iday	-11.8809
glass	-11.8816
▁nod	-11.8824
fed	-11.8827
▁rut	-11.8849
▁skid	-11.885
bri	-11.8869
▁unbea	-11.887
▁fem	-11.8877
▁funn	-11.8883
▁gent	-11.8905
cel	-11.8907
lump	-11.8919
omp	-11.896
▁cape	-11.8962
▁britt	-11.8975
▁calami	-11.8979
▁hange	-11.8982
▁confi	-11.8984
cu	-11.899
▁begg	-11.8997
▁vacat	-11.9026
ose	-11.903
oohoohooh	-11.9031
▁reviv	-11.9037
liness	-11.9045
ncing	-11.9051
lute	-11.908
▁viewer	-11.9088
▁hammer	-11.9113
▁washer	-11.9149
umber	-11.917
▁stayin	-11.917
▁lust	-11.9203
▁pai	-11.9204
▁harp	-11.9206
ouse	-11.9225
▁favorabl	-11.9226
mmy	-11.924
▁displace	-11.9255
ditty	-11.9257
▁bonne	-11.9261
▁paddle	-11.9294
▁rank	-11.9302
eye	-11.9318
▁hoi	-11.9322
▁hahaaa	-11.9322
▁prominen	-11.9339
ack	-11.9346
ragging	-11.9354
music	-11.9364
▁personifie	-11.9383
▁knit	-11.9399
▁deni	-11.9403
▁acut	-11.9436
make	-11.9439
kona	-11.9447
▁apprecia	-11.9449
▁ration	-11.9451
utti	-11.9477
▁tog	-11.9492
slipped	-11.9513
▁porter	-11.9517
▁penn	-11.9531
▁yorker	-11.9543
▁disap	-11.9545
om	-11.9554
ohoh	-11.9557
negotiation	-11.9573
▁wrapp	-11.9575
▁mytholog	-11.958
dee	-11.9604
▁oppose	-11.9623
aron	-11.9641
▁reduc	-11.9646
▁pigg	-11.965
▁dep	-11.969
layers	-11.9718
anned	-11.9733
▁estimate	-11.9743
tte	-11.977
weez	-11.9771
▁foi	-11.9798
▁deserter	-11.9801
▁fol	-11.9817
▁strawberr	-11.9839
▁barbari	-11.9841
▁impos	-11.9873
eni	-11.9886
brian	-11.989
plant	-11.9898
quit	-11.9905
▁cheerful	-11.9915
▁marc	-11.9999
predictable	-12.0003
ears	-12.0006
per	-12.0026
glued	-12.0048
hmm	-12.0085
▁tourn	-12.0099
▁dunde	-12.0105
oyalty	-12.0141
▁rub	-12.0169
▁trappe	-12.0177
caption	-12.0192
mmi	-12.0192
▁earli	-12.0281
ixi	-12.0363
▁gardener	-12.0366
▁participa	-12.0372
illy	-12.0388
▁slim	-12.0477
sandra	-12.0496
nana	-12.0508
▁sasa	-12.0592
ppi	-12.0601
pong	-12.0645
acklin	-12.065
▁institut	-12.0654
mulate	-12.0692
▁liner	-12.0773
▁grabb	-12.0817
smokers	-12.0899
▁voi	-12.0899
▁speller	-12.0918
rist	-12.0937
taking	-12.0943
▁magn	-12.0945
assis	-12.0984
▁glori	-12.0994
▁inf	-12.1003
olence	-12.1004
▁willi	-12.1041
▁vau	-12.1101
▁participat	-12.1107
here	-12.1137
activated	-12.1171
umpkin	-12.12
ja	-12.1212
▁swip	-12.1279
fie	-12.1295
witted	-12.1453
more	-12.159
late	-12.1611
ipping	-12.1621
mount	-12.1646
▁prev	-12.1717
▁russ	-12.1746
erf	-12.1838
aul	-12.1856
▁salu	-12.1864
oohoohoo	-12.1908
▁communicat	-12.1915
eno	-12.2019
▁mur	-12.2029
▁bubb	-12.2152
azy	-12.2229
mbone	-12.2262
hattan	-12.2332
aaaaaah	-12.234
▁whisk	-12.2352
lease	-12.2365
hear	-12.2438
ellow	-12.2445
ccord	-12.2521
▁tingl	-12.2614
▁aaaaaa	-12.2657
▁outwit	-12.2699
▁valentin	-12.2718
▁recycl	-12.2721
▁mono	-12.274
hhhh	-12.2755
▁yippi	-12.2759
▁faki	-12.2777
▁agg	-12.2799
▁swipe	-12.2904
▁zap	-12.2986
▁whiske	-12.3008
▁shi	-12.3108
▁sabotag	-12.3189
▁uncoo	-12.3227
▁violen	-12.3243
▁featur	-12.3255
awfully	-12.3271
embe	-12.336
olic	-12.3462
assembled	-12.3556
amber	-12.3572
▁chil	-12.3591
▁trou	-12.3632
cumul	-12.3633
▁dar	-12.3695
▁admir	-12.3746
mint	-12.3747
mama	-12.3789
cul	-12.3826
slime	-12.3901
▁patche	-12.3931
▁rebelli	-12.3988
▁ignor	-12.4052
▁hustl	-12.4273
▁inject	-12.4275
itting	-12.4368
liar	-12.4405
▁glue	-12.4557
▁edi	-12.4568
hoohoo	-12.458
▁improv	-12.4614
▁monog	-12.4775
post	-12.4786
▁barba	-12.4883
▁graduat	-12.49
communicated	-12.4945
gu	-12.5017
▁advis	-12.5026
evised	-12.5037
▁sneez	-12.507
iike	-12.5236
ari	-12.5252
wallow	-12.5279
refoot	-12.5331
rab	-12.534
▁deb	-12.5366
▁object	-12.537
quisition	-12.5375
rsement	-12.5476
▁appreciat	-12.5555
ohohoh	-12.5569
hunt	-12.5767
shorten	-12.5783
▁dependabl	-12.5783
oooooo	-12.5859
▁conf	-12.5924
br	-12.5931
ju	-12.5933
▁remov	-12.5937
zzle	-12.6024
▁compet	-12.6115
rammed	-12.6128
▁domin	-12.6152
mmering	-12.6159
▁implicat	-12.6164
▁venu	-12.6169
urred	-12.6215
eatgreatgreatgr	-12.6286
▁amb	-12.6322
struction	-12.6326
amigo	-12.6421
▁blueberr	-12.6443
orse	-12.6505
wwhy	-12.6544
▁captur	-12.6563
intrude	-12.6567
lasses	-12.6688
▁preci	-12.676
appointed	-12.6768
cite	-12.6781
defeated	-12.6829
▁conspi	-12.6839
▁skippe	-12.6962
▁radiat	-12.697
▁wwwh	-12.697
▁sni	-12.6971
▁truff	-12.6986
▁practic	-12.6994
app	-12.7003
active	-12.7005
oir	-12.7062
▁reserv	-12.7072
lip	-12.7087
▁repri	-12.71
shootin	-12.7102
▁cultur	-12.7158
▁organ	-12.7211
preciation	-12.7233
folded	-12.7255
▁hung	-12.7278
▁tatt	-12.7307
logical	-12.732
minate	-12.7343
▁battl	-12.737
▁apologiz	-12.7428
▁convenien	-12.7436
▁faithfu	-12.744
▁possib	-12.746
issues	-12.7498
hhhhhhhhhhhhh	-12.75
egation	-12.7501
▁ofj	-12.7503
▁mitt	-12.751
unit	-12.7511
modeling	-12.7562
angled	-12.7579
abel	-12.7591
▁alookin	-12.7599
ference	-12.7608
abies	-12.7618
▁acu	-12.7632
▁fanta	-12.7645
▁temp	-12.7666
huh	-12.7674
▁spru	-12.7683
▁boohoo	-12.7684
grap	-12.7694
▁fizz	-12.7709
fusing	-12.7717
audi	-12.7759
▁anthro	-12.7812
augh	-12.7815
▁doubl	-12.7815
▁asc	-12.7818
claps	-12.7821
▁consec	-12.7835
▁babysit	-12.784
articles	-12.784
▁virtu	-12.7857
▁pollinat	-12.7858
eeting	-12.7859
rmative	-12.7868
cracks	-12.7881
▁involv	-12.7889
▁disapp	-12.7891
▁aok	-12.7891
▁nutri	-12.7899
▁dominat	-12.79
high	-12.7912
▁commit	-12.7914
harm	-12.7916
ddle	-12.7917
aunted	-12.7917
▁nerv	-12.7924
jack	-12.7934
ggy	-12.7935
▁comple	-12.7935
cule	-12.7939
hawks	-12.7942
▁dope	-12.7947
▁whimper	-12.7953
▁tramp	-12.7956
▁robber	-12.7958
▁applicant	-12.7961
▁astrochimp	-12.7961
▁cylinder	-12.7961
q	-14.2013
