<unk>	0
<s>	0
</s>	0
s	-2.99581
ing	-4.24987
ed	-4.4556
d	-4.47595
e	-4.48945
t	-4.54087
er	-4.74584
a	-4.75915
y	-4.77868
p	-4.98985
r	-4.99879
n	-5.02924
▁s	-5.03754
▁im	-5.03926
▁oh	-5.07514
o	-5.08825
u	-5.08851
▁know	-5.09996
▁dont	-5.12845
▁well	-5.16088
g	-5.17447
c	-5.2192
▁go	-5.22244
i	-5.23267
▁like	-5.23877
▁get	-5.2434
m	-5.29254
b	-5.2989
▁come	-5.33906
in	-5.37283
▁right	-5.37453
ly	-5.39881
▁	-5.41247
▁one	-5.44773
h	-5.51372
f	-5.53741
▁got	-5.54299
▁thats	-5.54326
▁see	-5.57076
or	-5.58543
al	-5.62422
▁good	-5.6491
▁youre	-5.65455
▁think	-5.73671
▁time	-5.73708
l	-5.7536
▁us	-5.75368
▁b	-5.77021
▁look	-5.77449
▁t	-5.81345
▁yeah	-5.81661
▁want	-5.82922
en	-5.84624
le	-5.84937
ion	-5.87273
▁a	-5.8811
▁back	-5.88643
▁na	-5.92166
v	-5.9287
▁p	-5.94172
it	-5.96081
▁yes	-5.96882
▁say	-5.97189
on	-5.99632
▁take	-6.00243
▁going	-6.02035
▁would	-6.03163
▁hes	-6.03922
▁ill	-6.05796
▁hey	-6.07065
k	-6.07754
at	-6.07789
▁could	-6.08849
an	-6.10332
▁little	-6.11666
▁m	-6.12049
▁g	-6.12793
▁way	-6.12943
w	-6.14105
▁man	-6.14431
▁tell	-6.14888
▁really	-6.16205
ic	-6.16455
re	-6.16565
▁mean	-6.16874
ar	-6.176
ch	-6.204
▁need	-6.20737
▁cant	-6.21506
ck	-6.23116
▁gon	-6.2443
▁re	-6.24681
▁make	-6.25305
▁l	-6.26375
th	-6.28426
▁love	-6.29734
ur	-6.29992
es	-6.30285
▁f	-6.31791
▁never	-6.32759
ent	-6.34725
▁in	-6.40048
▁de	-6.40239
▁h	-6.41998
ra	-6.436
ation	-6.43881
▁okay	-6.43901
▁something	-6.44117
il	-6.44599
ri	-6.45517
▁whats	-6.46336
▁uh	-6.47463
el	-6.48789
▁didnt	-6.49056
▁ive	-6.49363
us	-6.50024
ve	-6.52209
un	-6.52269
▁people	-6.52331
▁help	-6.52878
▁thank	-6.53588
▁day	-6.53892
▁let	-6.54029
ate	-6.54068
▁lets	-6.54677
▁said	-6.54986
▁w	-6.56623
▁theres	-6.57958
▁boy	-6.59487
▁first	-6.5999
ke	-6.60375
▁sure	-6.60537
▁work	-6.60638
▁find	-6.60772
▁even	-6.61546
▁ch	-6.62271
▁new	-6.62435
▁music	-6.62856
▁mr	-6.64028
li	-6.64062
▁give	-6.64063
▁ha	-6.65953
▁ta	-6.66073
ie	-6.66125
▁two	-6.66253
st	-6.6692
▁great	-6.67176
▁theyre	-6.68562
▁thing	-6.69022
▁much	-6.69407
▁must	-6.7026
▁d	-6.70886
ies	-6.71044
▁wait	-6.71768
est	-6.72185
▁home	-6.73514
ers	-6.73707
▁ma	-6.7383
▁k	-6.74442
la	-6.74519
▁name	-6.75367
z	-6.75422
▁st	-6.75497
▁please	-6.75812
ow	-6.77526
pp	-6.77585
ce	-6.79354
▁life	-6.80075
▁th	-6.80371
ut	-6.80393
▁ever	-6.82287
▁hi	-6.8259
ll	-6.82735
▁place	-6.83027
et	-6.83191
▁believe	-6.83629
▁sh	-6.84786
▁co	-6.85473
▁c	-6.85709
▁big	-6.85786
▁e	-6.85837
▁mi	-6.86318
ir	-6.86657
▁cr	-6.86671
um	-6.86785
▁con	-6.86889
les	-6.86908
▁better	-6.86964
▁po	-6.90057
▁still	-6.90418
▁lot	-6.90803
▁thought	-6.90906
▁put	-6.91014
▁long	-6.91057
▁keep	-6.91755
x	-6.91866
▁family	-6.92463
▁old	-6.92588
▁years	-6.94016
▁miss	-6.95624
▁la	-6.95742
lo	-6.95798
▁always	-6.9608
▁away	-6.9686
▁o	-6.9718
▁guys	-6.97259
▁id	-6.97511
▁sir	-6.97592
▁stop	-6.97706
▁call	-6.99132
▁youll	-6.99451
age	-6.99685
▁kind	-7.00224
▁night	-7.00647
▁sorry	-7.00988
▁things	-7.0099
▁fl	-7.02213
▁around	-7.02939
▁live	-7.04444
▁anything	-7.0453
▁maybe	-7.04565
ta	-7.04962
▁father	-7.05336
ive	-7.055
ol	-7.0552
is	-7.05668
▁ba	-7.05803
▁ra	-7.05819
▁ro	-7.05877
ting	-7.05972
te	-7.06121
ist	-7.06211
▁car	-7.06361
ment	-7.07148
▁talk	-7.07179
▁world	-7.07376
▁wont	-7.0738
▁feel	-7.07589
om	-7.07809
▁play	-7.08863
id	-7.0934
▁nothing	-7.09462
op	-7.09631
▁ca	-7.09666
▁bo	-7.10253
de	-7.10632
as	-7.10794
▁stay	-7.11043
▁remember	-7.11158
ine	-7.11168
▁everything	-7.12888
▁n	-7.13868
ant	-7.13877
oo	-7.13886
▁god	-7.13977
▁run	-7.14648
▁hear	-7.14949
▁made	-7.1613
▁last	-7.16217
▁hand	-7.16451
▁best	-7.16657
▁black	-7.16887
▁word	-7.16894
▁show	-7.17051
▁shes	-7.17257
▁youve	-7.17341
ha	-7.17645
▁sea	-7.17841
▁sp	-7.18011
▁ho	-7.18727
▁coming	-7.18731
▁listen	-7.19181
▁be	-7.19401
▁no	-7.19415
▁ah	-7.19682
ul	-7.19872
▁lo	-7.20347
▁mo	-7.20802
up	-7.21144
▁un	-7.21466
▁dog	-7.21532
▁dr	-7.21587
▁care	-7.21921
▁ya	-7.22177
im	-7.22477
▁came	-7.22573
▁whoa	-7.22967
▁told	-7.23078
▁course	-7.23446
▁might	-7.24089
▁every	-7.2467
▁pre	-7.24866
▁may	-7.25283
▁hoo	-7.25332
▁three	-7.25407
▁ex	-7.25458
able	-7.25573
▁hello	-7.25816
▁nice	-7.26404
ard	-7.26578
▁start	-7.26998
ne	-7.27255
▁school	-7.27397
▁minute	-7.27397
em	-7.27723
▁money	-7.27943
▁di	-7.28195
▁frank	-7.2841
▁em	-7.28839
▁weve	-7.28923
ge	-7.29928
▁cl	-7.30981
▁huh	-7.31164
▁hard	-7.31176
▁together	-7.32037
▁idea	-7.32218
ity	-7.32563
▁enough	-7.32566
▁left	-7.32569
▁done	-7.32714
▁friend	-7.34621
▁many	-7.34817
▁open	-7.35259
end	-7.35572
▁pro	-7.35785
▁mind	-7.36384
▁r	-7.36739
ty	-7.3676
▁found	-7.36903
▁high	-7.37462
▁today	-7.38579
os	-7.38768
▁playing	-7.38819
▁try	-7.39146
▁turn	-7.3915
▁city	-7.39262
▁ok	-7.395
▁isnt	-7.39712
▁do	-7.39834
ian	-7.39941
▁hope	-7.40354
▁another	-7.40858
▁seen	-7.40983
▁girl	-7.41437
co	-7.41573
▁bad	-7.44357
▁getting	-7.447
ise	-7.44758
ling	-7.4481
▁thanks	-7.44827
▁leave	-7.44977
▁ready	-7.44994
▁ask	-7.4505
▁hold	-7.45056
ak	-7.45209
▁dis	-7.45253
▁fine	-7.45386
▁looking	-7.45432
▁real	-7.45716
he	-7.46259
ry	-7.46984
▁bring	-7.47462
▁close	-7.48064
▁mom	-7.4829
▁morning	-7.48647
ated	-7.49232
▁part	-7.49837
j	-7.49942
▁water	-7.49973
ure	-7.5041
▁gra	-7.50518
▁sound	-7.50535
▁ad	-7.50752
▁move	-7.5079
▁understand	-7.5117
▁whole	-7.51814
▁plan	-7.52026
▁kids	-7.52069
▁bar	-7.52087
ome	-7.52108
▁eat	-7.52314
▁el	-7.52389
ous	-7.52526
▁li	-7.5323
ect	-7.53321
▁wh	-7.5374
ip	-7.53767
▁doesnt	-7.54417
▁lost	-7.54682
▁ru	-7.547
▁daisy	-7.5508
▁da	-7.55222
▁i	-7.55439
▁wrong	-7.55746
▁win	-7.55901
man	-7.56003
▁al	-7.56477
ho	-7.57626
▁whos	-7.57875
▁heard	-7.5815
▁church	-7.58459
▁tonight	-7.58459
▁ne	-7.58797
▁wouldnt	-7.59181
ight	-7.59275
▁guess	-7.59843
ee	-7.59929
▁ri	-7.60263
▁pa	-7.60421
▁far	-7.60489
▁pretty	-7.60543
▁else	-7.60606
ill	-7.60608
▁laughing	-7.60913
▁sit	-7.60935
▁clear	-7.6125
▁without	-7.61955
▁someone	-7.61955
▁mother	-7.61958
▁fish	-7.62132
▁men	-7.62134
▁seem	-7.62486
▁narrator	-7.62669
▁tomorrow	-7.62669
▁saw	-7.62694
▁house	-7.6274
vi	-7.6286
▁bit	-7.63058
▁next	-7.6339
ful	-7.63655
▁dad	-7.6391
▁gr	-7.64025
▁wanted	-7.64097
ma	-7.64429
▁trying	-7.64508
▁how	-7.64841
ence	-7.6513
▁fun	-7.65411
bo	-7.65669
▁head	-7.6632
▁mar	-7.66838
▁doctor	-7.67066
▁watch	-7.67069
tic	-7.67153
▁room	-7.67313
▁mon	-7.67329
ally	-7.67363
▁bear	-7.67566
▁en	-7.67736
▁heidi	-7.67817
▁young	-7.67818
ance	-7.67985
▁end	-7.68195
▁change	-7.68576
▁dear	-7.68581
ey	-7.68581
▁ar	-7.68639
▁happen	-7.68919
▁job	-7.68973
▁sighs	-7.69338
▁friends	-7.69466
ca	-7.69751
min	-7.70412
▁late	-7.71242
▁so	-7.71249
▁matter	-7.71757
▁talking	-7.72048
▁year	-7.72262
▁melinda	-7.72451
▁grandpa	-7.72456
▁door	-7.72987
▁dream	-7.73245
▁problem	-7.73245
▁children	-7.73247
▁cause	-7.73276
▁went	-7.74621
▁guy	-7.7473
▁also	-7.74891
▁meet	-7.75041
▁ja	-7.75406
▁per	-7.75568
▁read	-7.75685
▁fa	-7.75686
▁son	-7.75747
▁catch	-7.75871
ish	-7.76265
▁hell	-7.76297
▁brother	-7.76486
▁grow	-7.76621
▁tigger	-7.76632
▁je	-7.77312
▁easy	-7.77313
▁happy	-7.77314
▁wan	-7.77493
▁ship	-7.77672
▁set	-7.77752
▁cat	-7.781
▁everybody	-7.78144
▁order	-7.78145
▁speak	-7.78145
▁stand	-7.78157
▁aint	-7.78177
▁mary	-7.78628
▁king	-7.7888
▁lead	-7.78994
ness	-7.79294
time	-7.80356
▁question	-7.80686
▁worry	-7.80687
▁took	-7.80824
▁happened	-7.8116
▁for	-7.81538
▁country	-7.81594
▁um	-7.81852
▁everyone	-7.82492
▁four	-7.82563
▁comp	-7.82712
▁days	-7.83095
▁goodbye	-7.83296
▁week	-7.83296
▁alone	-7.83351
ia	-7.83707
da	-7.83751
▁j	-7.83754
▁yet	-7.83893
na	-7.84376
▁bra	-7.84933
▁knew	-7.85074
▁actually	-7.85974
▁called	-7.86083
▁pat	-7.86579
▁heart	-7.86681
▁mrs	-7.86837
▁le	-7.86876
▁second	-7.86883
nn	-7.87265
ster	-7.87597
one	-7.87611
▁fi	-7.87735
▁human	-7.87843
▁vi	-7.87903
▁soon	-7.88151
▁deal	-7.8849
▁fast	-7.88601
▁horse	-7.8873
▁shall	-7.88734
▁rest	-7.89016
▁light	-7.8922
▁later	-7.89587
▁john	-7.89653
▁walk	-7.89668
▁free	-7.89788
▁rat	-7.8987
▁fight	-7.89907
▁sign	-7.89921
▁wow	-7.90104
▁state	-7.90269
▁youd	-7.90609
ious	-7.91106
cy	-7.91529
▁afraid	-7.91557
▁ow	-7.91591
▁couldnt	-7.916
ical	-7.91612
▁jo	-7.91658
▁wish	-7.91726
ew	-7.92152
▁met	-7.92436
▁wonder	-7.9247
▁story	-7.92531
ever	-7.92581
▁use	-7.93201
▁havent	-7.93491
▁spell	-7.935
▁ago	-7.93781
▁true	-7.94102
to	-7.9418
▁to	-7.94224
▁used	-7.94418
▁beautiful	-7.9447
▁important	-7.9447
▁wasnt	-7.9447
▁team	-7.94648
▁american	-7.95115
▁check	-7.95469
be	-7.95904
▁case	-7.96658
▁war	-7.96933
▁perfect	-7.9747
▁crowd	-7.97474
▁uncle	-7.97474
▁cu	-7.97638
▁am	-7.97924
▁act	-7.97976
▁five	-7.98097
▁wa	-7.98193
tter	-7.98297
▁almost	-7.9849
ary	-7.986
▁hit	-7.99044
▁pick	-7.99534
▁person	-7.99541
▁lord	-7.99563
tro	-8.00182
▁power	-8.0058
▁hurt	-8.00582
▁chance	-8.00751
act	-8.0134
▁follow	-8.01615
▁break	-8.01617
▁forget	-8.01617
▁making	-8.01633
▁kill	-8.01672
igger	-8.01826
▁annabel	-8.02679
▁benny	-8.02683
▁bet	-8.02717
ink	-8.03231
que	-8.03752
▁baby	-8.03766
▁jason	-8.03772
uff	-8.04744
▁sleep	-8.04842
▁brought	-8.04843
▁half	-8.04854
▁point	-8.04859
▁save	-8.04886
▁wonderful	-8.04897
▁near	-8.05188
▁rock	-8.05386
▁hurry	-8.05941
cent	-8.06445
▁fly	-8.06517
mo	-8.06556
▁eyes	-8.06566
▁par	-8.06569
▁air	-8.06908
▁va	-8.06974
▁welcome	-8.07052
▁hmm	-8.07065
▁tw	-8.07273
▁z	-8.07584
▁quite	-8.07603
ress	-8.07757
▁pe	-8.08086
▁anyone	-8.08175
▁different	-8.08175
▁along	-8.08178
▁since	-8.08187
our	-8.08402
▁bro	-8.08875
ah	-8.09153
▁kid	-8.0919
▁anyway	-8.09311
▁sweet	-8.09312
▁expect	-8.09312
▁stuff	-8.09444
▁letter	-8.09446
▁bible	-8.09455
▁luck	-8.09618
▁pass	-8.09786
ite	-8.10133
▁already	-8.10461
▁excuse	-8.10461
▁grandfather	-8.10461
▁number	-8.10461
▁dusty	-8.10462
ble	-8.10854
ial	-8.11226
▁aw	-8.11262
▁nobody	-8.11624
▁quick	-8.11624
▁child	-8.11629
▁honey	-8.11629
▁safe	-8.11632
▁ooh	-8.11638
▁learn	-8.12794
▁special	-8.128
led	-8.12832
▁book	-8.12999
▁jack	-8.13097
▁sta	-8.13183
▁trouble	-8.13991
▁office	-8.14027
▁tree	-8.14047
▁sam	-8.1413
▁can	-8.14227
▁face	-8.14238
▁arent	-8.14288
▁cool	-8.1432
▁laughs	-8.15016
▁pain	-8.151
▁count	-8.15145
▁secret	-8.15195
▁promise	-8.15197
▁gone	-8.15533
go	-8.15601
▁moment	-8.15774
▁least	-8.16418
▁daddy	-8.16431
▁full	-8.16497
▁star	-8.16725
▁red	-8.17374
▁goes	-8.17384
ism	-8.17504
▁asked	-8.17617
▁game	-8.1765
▁christmas	-8.17651
ern	-8.17655
▁gold	-8.17936
▁side	-8.17937
▁peter	-8.18093
▁west	-8.18297
ize	-8.18457
▁animals	-8.18811
▁exactly	-8.189
▁rome	-8.19054
▁america	-8.19337
▁film	-8.20173
▁glad	-8.20176
▁hang	-8.2019
▁ju	-8.2041
▁land	-8.20473
▁past	-8.20655
▁sun	-8.20714
▁ph	-8.20963
▁cut	-8.2112
▁probably	-8.21447
▁robert	-8.21448
▁woman	-8.2145
▁bye	-8.21555
▁white	-8.21616
▁ab	-8.21687
▁boss	-8.22274
▁return	-8.22746
▁tischendorf	-8.22746
▁pull	-8.22761
▁inside	-8.22834
▁ass	-8.22853
▁hu	-8.23013
▁die	-8.23178
▁pet	-8.23364
▁leg	-8.23591
▁mark	-8.23711
▁mine	-8.23979
▁catholic	-8.24062
▁chuckles	-8.24062
▁gamble	-8.24062
▁brazil	-8.24062
▁cor	-8.24347
▁saying	-8.24738
old	-8.25117
▁gun	-8.25326
▁dinner	-8.25396
▁evil	-8.25398
▁christian	-8.25433
▁sister	-8.25435
▁deep	-8.25445
▁dead	-8.25457
▁interest	-8.25477
▁drink	-8.25492
mon	-8.25547
▁ear	-8.2564
▁race	-8.25829
▁joy	-8.26584
▁continue	-8.26747
▁history	-8.26747
▁wild	-8.26757
▁town	-8.26757
▁yo	-8.26763
▁wheres	-8.26769
▁hot	-8.2698
▁fire	-8.27383
▁earth	-8.28316
▁col	-8.28762
▁law	-8.28947
▁top	-8.29079
▁andy	-8.29506
▁small	-8.29507
▁tiggers	-8.29653
▁trust	-8.29665
▁fact	-8.29756
▁teach	-8.3002
▁line	-8.30533
▁amazing	-8.30914
▁theyll	-8.30914
▁blow	-8.30921
▁party	-8.31489
▁class	-8.32361
▁running	-8.32374
▁drive	-8.32616
▁stranger	-8.32776
▁swim	-8.33788
▁david	-8.33793
▁become	-8.33794
▁reason	-8.33794
▁taking	-8.3382
▁truth	-8.3395
▁whoo	-8.34015
▁send	-8.34197
▁pay	-8.34206
▁ring	-8.34781
▁marc	-8.35036
▁ahh	-8.35095
▁business	-8.35262
▁possible	-8.35262
▁smell	-8.35263
▁james	-8.35268
▁present	-8.35289
▁step	-8.35464
▁cur	-8.35603
▁out	-8.36051
port	-8.36117
▁bee	-8.36361
▁surprise	-8.36755
▁perhaps	-8.36755
▁finish	-8.36757
▁wear	-8.36773
▁lady	-8.36795
▁monster	-8.36839
▁sort	-8.36923
▁master	-8.3696
▁finally	-8.36969
▁less	-8.37355
ton	-8.37443
▁whatever	-8.3827
▁field	-8.38273
▁funny	-8.38281
▁gave	-8.38282
▁tony	-8.38311
▁early	-8.38798
▁ball	-8.39197
▁professor	-8.39808
▁either	-8.39808
▁manuscript	-8.39809
▁record	-8.39809
▁figure	-8.3981
▁balto	-8.39811
▁fall	-8.40073
▁lose	-8.40324
com	-8.40364
▁able	-8.40409
▁supposed	-8.40588
▁plane	-8.40927
▁answer	-8.41371
▁crazy	-8.41371
▁donald	-8.41371
▁ivy	-8.41377
▁alice	-8.4138
▁trip	-8.41426
▁ran	-8.41442
▁mama	-8.41662
▁hat	-8.42159
▁scar	-8.42237
▁working	-8.42288
▁waiting	-8.42952
▁george	-8.42958
▁million	-8.42961
▁super	-8.42982
▁started	-8.43566
▁wind	-8.44001
▁wed	-8.44294
▁anybody	-8.44571
▁ocean	-8.44572
▁foot	-8.44579
▁large	-8.44586
▁feet	-8.44587
▁mmm	-8.44607
▁band	-8.4464
▁cook	-8.4475
▁ver	-8.44754
▁drop	-8.4496
▁whe	-8.45411
▁form	-8.4562
▁birds	-8.45935
▁theyve	-8.46211
▁shark	-8.46213
▁hound	-8.46217
▁hours	-8.46257
▁val	-8.46452
▁arm	-8.46662
▁somebody	-8.47877
▁behind	-8.47877
▁control	-8.47878
▁lunch	-8.4788
▁throw	-8.47881
▁vo	-8.48568
▁mountains	-8.48568
▁join	-8.48725
ball	-8.49205
▁comm	-8.49427
▁cornelius	-8.49572
▁ahead	-8.49572
▁lodge	-8.49575
▁food	-8.4958
▁molly	-8.49585
▁ten	-8.50721
▁song	-8.50832
▁quiet	-8.51296
▁tentrees	-8.51296
▁greek	-8.51297
▁agree	-8.51301
▁sense	-8.51303
▁heres	-8.51314
▁over	-8.51318
▁roman	-8.51614
▁russ	-8.51983
▁cheering	-8.521
▁beat	-8.52343
▁meeting	-8.5266
▁rep	-8.52678
ship	-8.52815
▁scream	-8.53051
▁simple	-8.53051
▁strong	-8.53051
▁gasps	-8.53051
▁alright	-8.53051
▁lauren	-8.53055
▁six	-8.53068
▁tru	-8.53162
▁poor	-8.53186
▁major	-8.53257
▁wake	-8.53312
▁fell	-8.53318
▁bird	-8.53366
▁cri	-8.53393
▁chip	-8.53439
light	-8.53618
▁post	-8.54309
▁lie	-8.54663
▁system	-8.54836
▁somewhere	-8.54836
▁couple	-8.54838
▁begin	-8.54838
▁shell	-8.54848
▁train	-8.54849
▁outside	-8.54853
▁visit	-8.54863
▁careful	-8.55025
▁alive	-8.55088
▁pete	-8.5522
▁ski	-8.55316
▁hide	-8.55417
▁feeling	-8.55728
▁though	-8.55749
ile	-8.55868
▁anymore	-8.56654
▁front	-8.56655
▁jesuit	-8.56655
▁gentlemen	-8.56655
▁decide	-8.56657
▁denny	-8.56658
▁discover	-8.56682
▁forever	-8.56733
▁dance	-8.57283
▁democrat	-8.58506
▁simonides	-8.58506
▁belong	-8.58506
▁parents	-8.58522
▁fear	-8.58529
▁aunt	-8.58531
▁butt	-8.58764
▁div	-8.59396
▁absolutely	-8.60393
▁taught	-8.60393
▁aussie	-8.60394
▁command	-8.60396
▁voice	-8.60398
▁serious	-8.60405
▁pray	-8.60414
▁realize	-8.60484
▁ground	-8.60568
▁certainly	-8.6068
▁ride	-8.61094
ook	-8.61579
▁dan	-8.61648
▁tim	-8.61732
▁scared	-8.61831
▁picture	-8.62316
▁spirit	-8.62318
▁bounce	-8.62319
▁york	-8.62319
▁dude	-8.62321
▁stick	-8.62331
▁pope	-8.62403
▁magic	-8.62405
▁reach	-8.62593
▁pal	-8.62733
▁offer	-8.62944
▁opera	-8.63167
▁eye	-8.63394
▁hate	-8.63881
▁fella	-8.63999
▁buzz	-8.64277
▁daughter	-8.64277
▁explain	-8.64277
▁joshua	-8.64277
▁republican	-8.64277
▁wrote	-8.64277
▁destroy	-8.64277
▁street	-8.64279
▁short	-8.64303
▁bill	-8.6435
▁killed	-8.64527
▁across	-8.66277
▁clifford	-8.66277
▁yesterday	-8.66277
▁alfred	-8.66277
▁forgot	-8.66278
▁women	-8.66282
▁trick	-8.66283
▁fool	-8.66287
▁meow	-8.66294
▁rather	-8.66294
▁jesus	-8.66301
▁wide	-8.66314
▁sell	-8.66384
▁lock	-8.67157
▁goodman	-8.67387
▁cold	-8.68157
▁century	-8.68318
▁community	-8.68318
▁london	-8.68318
▁babar	-8.68323
▁dark	-8.68326
▁north	-8.68327
▁damn	-8.68328
▁under	-8.6837
▁cubs	-8.6837
▁sick	-8.6838
▁aah	-8.68899
▁date	-8.68928
▁mountain	-8.69542
▁att	-8.70193
▁swa	-8.70289
▁protestant	-8.70401
▁cough	-8.70401
▁fault	-8.70403
▁tried	-8.70436
▁allow	-8.70505
▁sunk	-8.71307
▁ye	-8.71482
▁cost	-8.71637
▁whi	-8.72113
▁ought	-8.72529
▁prefontaine	-8.72529
▁president	-8.72529
▁breath	-8.72529
▁callahan	-8.72529
▁steele	-8.72531
▁faith	-8.72534
▁round	-8.72538
▁clean	-8.72544
▁tick	-8.72594
▁inter	-8.72632
land	-8.72641
ridge	-8.72746
▁brave	-8.7295
▁roll	-8.73149
▁bout	-8.73462
out	-8.74147
▁toy	-8.74564
▁musketeer	-8.74703
▁straight	-8.74703
▁touch	-8.74706
▁shoot	-8.74717
▁write	-8.74721
▁slow	-8.74727
▁proud	-8.74731
▁buy	-8.74805
▁phone	-8.74816
▁crew	-8.74969
▁sad	-8.75107
▁joe	-8.75248
▁vote	-8.75269
▁none	-8.75274
▁christ	-8.75652
▁age	-8.75968
▁pur	-8.76091
▁mum	-8.7623
▁difficult	-8.76925
▁enjoy	-8.76925
▁husband	-8.76925
▁napoleon	-8.76925
▁champ	-8.76925
▁study	-8.76925
▁future	-8.76926
▁smart	-8.76926
▁seven	-8.76926
▁shouting	-8.76927
▁trail	-8.7693
▁married	-8.76931
▁living	-8.76939
▁learned	-8.7694
▁south	-8.76941
▁kiss	-8.76968
▁boris	-8.76982
▁china	-8.76984
▁shot	-8.76995
▁warren	-8.77099
▁low	-8.7716
▁shut	-8.77847
▁suppose	-8.78052
▁quit	-8.78074
▁strange	-8.78509
▁imagine	-8.79198
▁blue	-8.79198
▁climb	-8.79199
▁direct	-8.792
▁piece	-8.792
▁glow	-8.79206
▁court	-8.79217
▁sail	-8.79259
▁window	-8.79368
▁shh	-8.7981
▁building	-8.80437
▁ice	-8.80449
▁wood	-8.80681
▁lucky	-8.8091
▁grumpy	-8.81523
▁tough	-8.81523
▁blood	-8.81523
▁wife	-8.81523
▁england	-8.81524
▁darling	-8.81526
▁shouldnt	-8.81527
▁smile	-8.81532
▁indeed	-8.81536
▁camp	-8.81543
▁bomb	-8.81547
▁burn	-8.8155
▁paper	-8.81569
▁heal	-8.81575
▁papi	-8.8159
▁hel	-8.81691
▁soul	-8.81788
▁carry	-8.81897
▁indi	-8.82024
▁ben	-8.82138
▁hall	-8.82608
▁clothes	-8.83904
▁tradition	-8.83904
▁doubt	-8.83904
▁forgive	-8.83906
▁ghost	-8.83906
▁others	-8.83906
▁caesar	-8.83907
▁ellen	-8.83917
▁itll	-8.83917
▁body	-8.8396
▁sub	-8.84047
▁indian	-8.84152
▁ape	-8.84172
▁box	-8.84492
ign	-8.8473
▁bell	-8.84764
▁hair	-8.84889
▁all	-8.86093
▁especially	-8.86343
▁leaving	-8.86343
▁claire	-8.86343
▁vatican	-8.86343
▁middle	-8.86344
▁codex	-8.86344
▁protect	-8.86346
▁space	-8.86349
▁track	-8.8635
▁honest	-8.86353
▁moving	-8.86364
▁kyle	-8.86371
▁busy	-8.86377
▁latin	-8.86392
▁monty	-8.8659
▁fix	-8.86624
▁dress	-8.86698
▁goats	-8.86803
▁arch	-8.87073
▁woody	-8.87244
▁warm	-8.8763
▁teacher	-8.88108
▁ancient	-8.88843
▁crystal	-8.88843
▁english	-8.88843
▁orchestra	-8.88843
▁origin	-8.88843
▁worried	-8.88843
▁choice	-8.88843
▁college	-8.88844
▁walter	-8.88844
▁drummin	-8.88845
▁brown	-8.88846
▁bower	-8.88882
▁speed	-8.88925
▁notice	-8.88944
ache	-8.89042
▁report	-8.89191
side	-8.89252
▁chase	-8.89315
▁fan	-8.89339
ible	-8.89346
▁park	-8.89396
▁prove	-8.89915
▁toot	-8.90092
▁tail	-8.90424
▁qua	-8.91407
▁anywhere	-8.91407
▁europe	-8.91407
lloween	-8.91409
▁claim	-8.91411
▁panda	-8.91412
▁slave	-8.91417
▁ladies	-8.91418
▁beginning	-8.91421
▁maam	-8.91445
▁grandma	-8.9146
▁treat	-8.91475
▁born	-8.91493
▁animal	-8.91591
▁fair	-8.91777
▁eight	-8.91831
▁board	-8.91873
▁billy	-8.92553
▁till	-8.92622
▁grand	-8.94024
▁document	-8.94039
▁experience	-8.94039
▁princess	-8.94039
▁suggest	-8.94039
▁radio	-8.94039
▁except	-8.94039
▁giving	-8.94039
▁charge	-8.94041
▁attack	-8.94041
▁smoke	-8.94042
▁monkey	-8.94044
▁nathan	-8.94048
▁jump	-8.94048
▁kept	-8.9415
▁bull	-8.94279
▁wall	-8.94375
▁build	-8.95285
way	-8.95553
▁hill	-8.95614
▁laugh	-8.95695
▁dete	-8.96663
▁captain	-8.96742
▁incredibl	-8.96742
▁bottom	-8.96742
▁prison	-8.96742
▁correct	-8.96742
▁general	-8.96743
▁surviv	-8.96743
▁consider	-8.96743
▁madam	-8.96744
▁peace	-8.96744
▁among	-8.96749
▁cross	-8.9678
▁hero	-8.96814
▁mei	-8.96873
▁suit	-8.96902
down	-8.97898
well	-8.99202
▁plethora	-8.99519
▁obvious	-8.99519
▁scripture	-8.99519
▁entire	-8.9952
▁built	-8.9952
▁text	-8.9952
▁forward	-8.9952
▁klara	-8.99521
▁priest	-8.99524
▁company	-8.99526
▁upon	-8.99526
▁barking	-8.99534
▁martin	-8.99539
▁regan	-8.9954
▁unless	-8.99553
▁cape	-8.99571
▁steal	-8.99579
ograph	-8.99628
▁view	-8.99643
▁spend	-8.99965
▁exist	-9.00033
▁tea	-9.00303
▁pack	-9.00384
▁chris	-9.01159
▁off	-9.01682
▁complete	-9.01916
hood	-9.01947
▁ash	-9.02237
▁accept	-9.02376
▁charlotte	-9.02376
▁dakota	-9.02376
▁definitely	-9.02376
▁hundred	-9.02376
▁hungry	-9.02376
▁practice	-9.02376
▁square	-9.02376
▁muriel	-9.02377
▁village	-9.02377
▁remain	-9.02381
▁chief	-9.02382
▁biggest	-9.02384
▁proper	-9.02408
▁yell	-9.02424
▁pig	-9.02464
▁hunt	-9.02489
▁completely	-9.02842
▁papa	-9.03076
▁rich	-9.03247
▁color	-9.03262
came	-9.04893
spir	-9.05065
▁africa	-9.05318
▁sniff	-9.05318
▁escape	-9.05318
▁scholar	-9.05318
▁sheriff	-9.05318
▁jenna	-9.0532
▁arrive	-9.05322
▁larry	-9.05324
▁theyd	-9.05324
▁bother	-9.0533
▁milk	-9.05331
▁steve	-9.05344
▁honor	-9.05347
▁tired	-9.05351
▁dangerous	-9.05371
▁clue	-9.05401
ept	-9.05433
▁fred	-9.05485
▁total	-9.05522
▁lifetime	-9.05714
▁taste	-9.05715
place	-9.07164
▁certain	-9.07887
▁danger	-9.08302
▁extreme	-9.08348
▁difference	-9.08348
▁piccolo	-9.08348
▁quint	-9.08348
▁thousand	-9.08348
▁knock	-9.08348
▁necessar	-9.08348
▁weird	-9.08348
▁respect	-9.08348
▁magnet	-9.08348
▁machine	-9.0835
▁teeth	-9.08351
▁wolf	-9.08352
▁worth	-9.08357
▁bright	-9.08358
▁laughter	-9.08359
▁proof	-9.08362
▁mason	-9.08486
▁area	-9.08496
▁share	-9.08595
▁common	-9.08819
▁force	-9.0911
▁paw	-9.09371
▁cheer	-9.10288
▁civil	-9.11473
▁perform	-9.11473
▁publish	-9.11473
▁sinaiticus	-9.11473
▁driving	-9.11473
▁project	-9.11473
▁ollie	-9.11475
▁glass	-9.11479
▁depend	-9.1148
▁guard	-9.11482
▁vent	-9.11493
▁talent	-9.11497
▁green	-9.11504
▁roger	-9.1153
▁charlene	-9.11541
▁settle	-9.11559
▁mess	-9.1163
▁trap	-9.11822
▁forest	-9.11942
▁final	-9.14285
▁breeze	-9.14699
▁caught	-9.14699
▁language	-9.14699
▁miracle	-9.14699
▁wednesday	-9.14699
▁gasping	-9.14699
▁dollar	-9.147
▁birth	-9.14705
▁search	-9.14709
▁push	-9.14718
▁clara	-9.14722
▁royal	-9.14724
▁soft	-9.14728
▁death	-9.14739
▁johnson	-9.14743
▁loud	-9.1475
▁silly	-9.14772
▁spring	-9.14775
▁message	-9.14796
▁maj	-9.14944
▁cover	-9.15083
▁paul	-9.15122
▁grace	-9.15329
▁trans	-9.17906
▁buddy	-9.18032
▁elizabeth	-9.18032
▁terrible	-9.18032
▁folks	-9.18032
▁member	-9.18032
▁position	-9.18032
ology	-9.18033
▁support	-9.18033
▁constant	-9.18034
▁whether	-9.18036
▁pinto	-9.18037
▁gang	-9.1806
▁river	-9.18061
▁winter	-9.18083
▁spot	-9.18084
▁road	-9.18114
▁heat	-9.18124
▁awful	-9.18179
▁single	-9.18308
▁truck	-9.18415
struct	-9.2148
▁andrews	-9.2148
▁jeanpaul	-9.2148
▁journey	-9.2148
▁somehow	-9.2148
▁warwick	-9.2148
▁brandon	-9.2148
▁travel	-9.2148
▁within	-9.2148
▁uhhuh	-9.21481
▁hypnotize	-9.21481
▁stupid	-9.21481
▁knowledge	-9.21482
▁national	-9.21486
▁bouncin	-9.21486
▁wagon	-9.21486
▁harry	-9.21488
▁admit	-9.21488
▁whistle	-9.2149
▁worst	-9.2149
▁began	-9.21491
rough	-9.21492
▁pardon	-9.21495
▁stuck	-9.21496
▁pound	-9.21498
▁repeat	-9.21502
▁uhoh	-9.21519
▁hoping	-9.21577
▁huge	-9.21782
▁marry	-9.21794
▁rosa	-9.21935
▁charle	-9.25006
▁elephant	-9.25052
▁giggling	-9.25052
▁government	-9.25052
▁public	-9.25052
▁service	-9.25052
▁condition	-9.25052
▁energy	-9.25052
▁mistake	-9.25052
▁morgan	-9.25052
▁madrat	-9.25052
▁false	-9.25057
▁crash	-9.25058
▁german	-9.25063
▁laney	-9.25064
▁danny	-9.25065
▁storm	-9.25077
▁united	-9.25079
▁tuck	-9.25091
▁partner	-9.25105
▁snap	-9.25212
▁stole	-9.25242
hhh	-9.26773
▁announce	-9.28755
▁circus	-9.28755
▁excellent	-9.28755
▁instead	-9.28755
▁nervous	-9.28755
▁puppies	-9.28755
▁weather	-9.28755
▁chattering	-9.28756
▁discuss	-9.28756
▁tummy	-9.28756
▁apart	-9.28756
▁choose	-9.28756
▁collect	-9.28757
▁speech	-9.28757
▁whisper	-9.28757
▁famous	-9.28757
▁arthur	-9.28757
▁teddy	-9.28759
▁besides	-9.28762
▁dumb	-9.28767
▁mouth	-9.28771
▁favorite	-9.28788
▁crying	-9.28902
▁yellow	-9.28909
▁feed	-9.29026
▁anti	-9.29351
ified	-9.29813
room	-9.31028
▁abigail	-9.32602
▁approach	-9.32602
▁challenge	-9.32602
▁example	-9.32602
▁grandmother	-9.32602
▁isabella	-9.32602
▁trumpet	-9.32602
▁capture	-9.32602
▁chicken	-9.32602
▁coffee	-9.32602
▁generation	-9.32602
▁groaning	-9.32602
▁neither	-9.32602
▁bernier	-9.32602
▁winslow	-9.32602
▁cuzco	-9.32602
▁gift	-9.32602
▁historic	-9.32602
▁ugh	-9.32602
▁police	-9.32604
▁prepare	-9.32607
▁worse	-9.3261
▁duck	-9.3262
▁cherie	-9.3262
▁chiru	-9.32623
▁brian	-9.3263
▁movie	-9.32633
▁corner	-9.32633
▁rover	-9.3264
▁loose	-9.32644
▁horn	-9.32686
▁gale	-9.32793
aaah	-9.32843
▁base	-9.35629
▁favor	-9.36571
▁account	-9.36602
▁breakfast	-9.36602
▁guilty	-9.36602
▁murmuring	-9.36602
▁appear	-9.36602
▁arrange	-9.36602
▁education	-9.36602
▁explore	-9.36602
▁flavor	-9.36602
▁grover	-9.36602
▁student	-9.36602
▁upset	-9.36602
▁mickey	-9.36603
▁racist	-9.36607
▁judge	-9.36609
▁adopt	-9.3661
▁fifi	-9.36613
▁gentle	-9.36619
▁werent	-9.36628
▁bank	-9.36637
▁fingers	-9.36652
▁everywhere	-9.36671
▁betsy	-9.36771
▁cash	-9.36812
izz	-9.36863
off	-9.38699
cover	-9.40306
▁should	-9.40761
▁develop	-9.40768
▁disappoint	-9.40768
▁geranium	-9.40768
▁humphrey	-9.40768
▁written	-9.40768
▁religion	-9.40768
▁beyond	-9.40769
▁confess	-9.40769
▁rescue	-9.40769
▁goofy	-9.4077
▁deserve	-9.4077
▁border	-9.40771
▁group	-9.40771
▁level	-9.40773
▁threat	-9.40781
▁limit	-9.40782
▁guest	-9.40789
▁draw	-9.40791
▁kick	-9.40792
▁felt	-9.40805
▁panting	-9.40818
▁east	-9.40833
▁crane	-9.40857
▁sky	-9.40927
▁sand	-9.40983
where	-9.42394
▁claude	-9.45115
▁brilliant	-9.45116
▁decision	-9.45116
▁michelle	-9.45116
▁screech	-9.45116
▁plenty	-9.45116
▁attention	-9.45117
▁ronnie	-9.45118
▁missouri	-9.45118
▁monday	-9.45119
▁angel	-9.45121
▁dirty	-9.45122
▁dawg	-9.45125
▁spoke	-9.45127
▁third	-9.45134
▁kidding	-9.45181
▁snow	-9.45181
▁reef	-9.45229
▁odd	-9.45278
▁store	-9.455
▁harm	-9.45771
▁tape	-9.45792
work	-9.49245
▁chicago	-9.49662
▁cleveland	-9.49662
▁competition	-9.49662
▁congratulations	-9.49662
▁experiment	-9.49662
▁fantastic	-9.49662
▁giggles	-9.49662
▁impossible	-9.49662
▁particular	-9.49662
▁saucer	-9.49662
▁steady	-9.49662
▁successful	-9.49662
▁surface	-9.49662
▁weapon	-9.49662
▁science	-9.49662
▁switch	-9.49662
▁savage	-9.49662
▁stannis	-9.49662
▁awesome	-9.49662
▁theory	-9.49662
▁shame	-9.49663
▁previous	-9.49663
▁unique	-9.49663
▁double	-9.49663
▁engine	-9.49665
▁relax	-9.49665
▁hasnt	-9.49668
▁pretend	-9.49669
▁price	-9.4967
▁willing	-9.49678
▁click	-9.49679
▁charm	-9.49682
▁particle	-9.49682
▁contest	-9.49683
▁sharp	-9.49683
▁nature	-9.49686
▁roof	-9.49693
▁sewer	-9.49721
▁winning	-9.49729
▁extra	-9.49732
▁yard	-9.49775
▁enter	-9.49834
▁serve	-9.49869
oohoo	-9.50078
ague	-9.50923
score	-9.51183
ground	-9.53978
house	-9.54035
water	-9.54082
▁adventure	-9.54424
▁chuckling	-9.54424
▁feather	-9.54424
▁indistinct	-9.54424
▁joseph	-9.54424
▁kitchen	-9.54424
▁opportunity	-9.54424
▁recognize	-9.54424
▁reformation	-9.54424
▁sweetheart	-9.54424
▁angry	-9.54424
▁chabot	-9.54424
▁smoking	-9.54424
▁traitor	-9.54424
▁often	-9.54424
▁simply	-9.54424
▁chinese	-9.54425
▁oscar	-9.54425
▁battle	-9.54425
▁sunday	-9.54425
▁squeak	-9.54425
▁empty	-9.54428
▁shape	-9.54432
▁devil	-9.54438
▁remind	-9.54439
▁mush	-9.54448
▁swimming	-9.54449
▁knee	-9.54489
▁loyal	-9.545
▁boot	-9.54772
▁coach	-9.5485
though	-9.58978
▁afternoon	-9.59424
▁carnival	-9.59424
▁lincoln	-9.59424
▁liquor	-9.59424
▁mmhmm	-9.59424
▁purpose	-9.59424
▁respons	-9.59424
▁rottenmeier	-9.59424
▁scientific	-9.59424
▁strength	-9.59424
▁testament	-9.59424
▁universe	-9.59424
▁excited	-9.59424
▁cardinal	-9.59424
▁clemons	-9.59424
▁thunder	-9.59424
▁desmond	-9.59424
▁summer	-9.59424
▁edgar	-9.59425
▁claudette	-9.59425
▁normal	-9.59425
▁oppos	-9.59425
▁racism	-9.59425
▁concern	-9.59427
▁receive	-9.59427
▁writing	-9.59428
▁provide	-9.59429
▁type	-9.59431
▁france	-9.59432
▁viren	-9.59443
▁chair	-9.59443
▁plain	-9.59446
▁trial	-9.5946
▁bleat	-9.59464
▁translat	-9.59566
hypnoti	-9.64686
▁effort	-9.64687
▁hollywood	-9.64687
▁hospital	-9.64687
▁mmmmmmmm	-9.64687
▁require	-9.64687
▁washington	-9.64687
▁yummies	-9.64687
▁convince	-9.64687
▁throat	-9.64687
▁victor	-9.64687
▁quarter	-9.64687
▁inspect	-9.64687
▁sugar	-9.64687
▁bouncy	-9.64688
▁amigo	-9.64688
▁blind	-9.64688
▁fresh	-9.64688
▁ignor	-9.64691
▁toward	-9.64692
▁russell	-9.64692
▁stinky	-9.64692
▁connect	-9.64693
▁micro	-9.64694
▁theme	-9.64702
▁desert	-9.64703
▁lulu	-9.64705
▁design	-9.64706
ability	-9.64753
▁henr	-9.65285
▁alcohol	-9.70242
▁character	-9.70242
▁charlon	-9.70242
▁dorothy	-9.70242
▁governor	-9.70242
▁happiness	-9.70242
▁heavy	-9.70242
▁involved	-9.70242
▁jimmie	-9.70242
▁newspaper	-9.70242
▁nonsense	-9.70242
▁object	-9.70242
▁permission	-9.70242
▁pocahontas	-9.70242
▁private	-9.70242
▁research	-9.70242
▁sesemann	-9.70242
▁telephone	-9.70242
▁voiceover	-9.70242
▁asleep	-9.70242
▁belief	-9.70242
▁genuine	-9.70242
▁separate	-9.70242
▁focus	-9.70242
▁furlings	-9.70242
▁deliver	-9.70243
▁cloud	-9.70243
▁murder	-9.70243
▁cricket	-9.70243
▁declar	-9.70244
▁tardone	-9.70244
▁peanut	-9.70244
▁progress	-9.70244
▁jenny	-9.70245
▁address	-9.70246
▁pressure	-9.70246
▁honour	-9.70247
▁modern	-9.70247
▁situation	-9.70251
▁block	-9.70252
▁mostly	-9.70253
▁pride	-9.70256
▁regard	-9.70256
▁chirp	-9.70259
▁scout	-9.70261
▁trade	-9.70262
▁justi	-9.7489
warren	-9.75679
▁afford	-9.76125
▁audience	-9.76125
▁bought	-9.76125
▁celeste	-9.76125
▁clamoring	-9.76125
▁contract	-9.76125
▁doctrine	-9.76125
▁environment	-9.76125
▁marvelous	-9.76125
▁olympic	-9.76125
▁pineapple	-9.76125
▁possibly	-9.76125
▁rumbling	-9.76125
▁squadron	-9.76125
ological	-9.76125
▁accident	-9.76125
▁disturb	-9.76125
▁effect	-9.76125
▁elliot	-9.76125
▁fortune	-9.76125
▁mystery	-9.76125
▁practical	-9.76125
▁represent	-9.76125
▁edward	-9.76125
▁wolves	-9.76125
▁communicat	-9.76125
▁idiot	-9.76125
▁attract	-9.76125
▁cream	-9.76126
▁reject	-9.76126
▁statue	-9.76126
▁hadnt	-9.76126
▁behave	-9.76127
▁organi	-9.76127
▁blame	-9.76127
▁express	-9.76127
▁natural	-9.76128
▁process	-9.76128
▁valerie	-9.76129
▁creep	-9.76133
▁garden	-9.76133
▁snake	-9.76133
▁onto	-9.76138
▁blast	-9.76138
▁achieve	-9.82374
▁comfort	-9.82375
▁evidence	-9.82375
▁frighten	-9.82375
▁influence	-9.82375
▁interrupt	-9.82375
▁mexico	-9.82375
▁society	-9.82375
▁medicine	-9.82375
▁politics	-9.82375
▁specific	-9.82375
▁thumper	-9.82375
▁opinion	-9.82375
▁wound	-9.82375
▁period	-9.82375
▁target	-9.82375
▁puppy	-9.82375
▁soldier	-9.82375
▁zelda	-9.82375
▁brief	-9.82375
▁groans	-9.82375
▁cheese	-9.82376
▁trash	-9.82377
▁worship	-9.82377
▁guide	-9.82378
▁kitty	-9.82379
▁rufus	-9.82382
▁distance	-9.82382
▁queen	-9.82383
▁straw	-9.82383
screen	-9.82433
▁applause	-9.89041
▁bdawg	-9.89041
▁boatwright	-9.89041
▁buddies	-9.89041
▁cathedral	-9.89041
▁confirm	-9.89041
▁culture	-9.89041
▁duncan	-9.89041
▁embrace	-9.89041
▁extraordinary	-9.89041
▁guarantee	-9.89041
▁horrible	-9.89041
▁obama	-9.89041
▁oclock	-9.89041
▁pleasure	-9.89041
▁quince	-9.89041
▁salvatore	-9.89041
▁saturday	-9.89041
▁sebastian	-9.89041
▁sidewalks	-9.89041
▁someday	-9.89041
▁squawk	-9.89041
▁victim	-9.89041
▁virginia	-9.89041
▁circle	-9.89041
▁impression	-9.89041
▁magnifi	-9.89041
▁rabbit	-9.89041
▁electric	-9.89041
▁europa	-9.89042
▁scoffs	-9.89042
▁spread	-9.89042
▁hydro	-9.89042
▁official	-9.89042
▁sardines	-9.89042
▁ronald	-9.89042
▁entertain	-9.89042
▁female	-9.89042
▁expert	-9.89042
▁hudson	-9.89042
▁gather	-9.89042
▁degree	-9.89043
▁warlock	-9.89043
▁remote	-9.89043
▁rosita	-9.89044
▁thomas	-9.89044
▁witness	-9.89044
▁courage	-9.89046
▁saint	-9.89047
▁argue	-9.89049
▁desire	-9.89097
▁photo	-9.95902
forbidden	-9.96184
▁attempt	-9.96184
▁centuries	-9.96184
▁cigarette	-9.96184
▁citizen	-9.96184
▁cowboy	-9.96184
▁expedition	-9.96184
▁garcia	-9.96184
▁gregory	-9.96184
▁knife	-9.96184
▁mcgirk	-9.96184
▁otherwise	-9.96184
▁professional	-9.96184
▁schmauss	-9.96184
▁scientist	-9.96184
▁skullner	-9.96184
▁stratton	-9.96184
▁university	-9.96184
▁vineyard	-9.96184
▁easier	-9.96184
▁easily	-9.96184
▁goonches	-9.96184
▁subject	-9.96184
▁dragon	-9.96184
▁french	-9.96184
▁material	-9.96184
▁destiny	-9.96185
▁doorbell	-9.96185
▁structure	-9.96185
▁determine	-9.96185
▁luther	-9.96185
▁pilot	-9.96185
▁violet	-9.96185
▁colchis	-9.96185
▁sword	-9.96185
▁pelias	-9.96186
▁bleep	-9.96186
▁result	-9.96186
▁issue	-9.96186
▁propose	-9.96188
▁calvin	-9.96198
▁refuse	-9.962
script	-9.96353
▁auburn	-10.0388
▁biblical	-10.0388
▁caballeros	-10.0388
▁clarinet	-10.0388
▁conflict	-10.0388
▁conversation	-10.0388
▁dubovsky	-10.0388
▁equal	-10.0388
▁expensive	-10.0388
▁gorgeous	-10.0388
▁hackamaw	-10.0388
▁hercules	-10.0388
▁inaudible	-10.0388
q	-11.3086
