<unk>	0
<s>	0
</s>	0
s	-4.16862
▁im	-4.65891
▁oh	-4.70466
▁dont	-4.71408
▁well	-4.80967
▁get	-4.83796
▁know	-4.88151
▁come	-4.98952
▁go	-4.99692
▁right	-5.0632
▁like	-5.077
▁one	-5.18587
▁got	-5.19145
ing	-5.2497
▁youre	-5.25114
▁see	-5.27942
▁thats	-5.2843
▁good	-5.30786
▁	-5.39515
▁back	-5.43284
▁yes	-5.50248
▁think	-5.52038
▁time	-5.58536
▁yeah	-5.58779
▁na	-5.60822
▁want	-5.64262
▁look	-5.69983
▁hey	-5.70822
▁hes	-5.71291
▁us	-5.71306
▁going	-5.72449
▁ill	-5.73641
▁take	-5.74023
▁cant	-5.78597
▁would	-5.81396
ed	-5.81534
▁gon	-5.83215
▁little	-5.83431
▁make	-5.87058
▁say	-5.87496
▁way	-5.89646
▁could	-5.95493
▁lets	-5.95949
▁man	-5.96567
▁mr	-5.98101
▁really	-5.98287
▁tell	-6.02698
▁okay	-6.04435
▁whats	-6.08408
▁never	-6.09942
y	-6.10581
▁two	-6.15473
▁theres	-6.15725
▁mean	-6.16728
▁give	-6.17504
▁something	-6.17778
▁love	-6.19006
▁let	-6.20093
▁ive	-6.21662
d	-6.22225
▁sure	-6.22755
▁sir	-6.23065
▁l	-6.24409
▁la	-6.25473
▁first	-6.25589
▁must	-6.25853
▁please	-6.26098
▁world	-6.27667
▁help	-6.27794
▁thank	-6.30037
▁need	-6.32125
▁didnt	-6.34594
▁find	-6.37972
▁christmas	-6.37981
▁uh	-6.38067
▁great	-6.38509
▁sorry	-6.39724
▁wait	-6.40681
▁ha	-6.40709
e	-6.42769
▁thing	-6.43854
▁new	-6.44298
▁people	-6.4489
ly	-6.45355
▁day	-6.45609
▁much	-6.47299
▁away	-6.47363
▁keep	-6.48233
▁better	-6.4825
ve	-6.49401
▁boy	-6.50062
▁home	-6.50165
▁even	-6.53534
▁big	-6.53621
▁still	-6.54494
▁night	-6.55929
▁ever	-6.57079
▁put	-6.57253
▁stop	-6.57587
▁theyre	-6.57933
▁work	-6.592
▁music	-6.59268
▁maybe	-6.60053
▁around	-6.60417
▁said	-6.62955
▁huh	-6.6407
▁dad	-6.64406
▁always	-6.64806
▁youll	-6.64859
▁life	-6.66868
▁wont	-6.67858
▁things	-6.6929
▁ta	-6.71928
▁shes	-6.72312
▁nothing	-6.73852
▁long	-6.75861
▁everything	-6.75939
▁call	-6.76511
▁nice	-6.77061
▁thought	-6.78725
▁place	-6.80458
▁last	-6.80588
▁ah	-6.81034
▁whoa	-6.81095
▁hello	-6.8111
▁every	-6.81708
▁fine	-6.82075
▁old	-6.82932
▁made	-6.83433
▁isnt	-6.83759
▁thanks	-6.83926
▁course	-6.85584
▁bad	-6.86496
▁miss	-6.88014
▁believe	-6.88111
▁id	-6.88164
▁you	-6.89894
▁hand	-6.90446
▁may	-6.9234
▁hear	-6.92376
▁doesnt	-6.92762
▁anything	-6.92764
▁mom	-6.93141
▁three	-6.94519
▁stay	-6.95095
▁girl	-6.95123
▁care	-6.96751
▁another	-6.96814
▁show	-6.97344
▁heart	-6.98039
▁car	-6.98815
▁weve	-6.98931
▁coming	-6.99561
▁remember	-7.00084
▁talk	-7.00297
▁enough	-7.00498
▁ready	-7.0128
▁kind	-7.01557
▁might	-7.02995
▁name	-7.03035
▁together	-7.03217
er	-7.03472
▁son	-7.03528
▁water	-7.0438
▁father	-7.04394
▁lot	-7.04481
▁try	-7.05623
▁next	-7.08892
▁hold	-7.0923
▁listen	-7.10025
▁told	-7.10661
▁leave	-7.10727
▁mother	-7.10736
▁hi	-7.12446
▁years	-7.1259
▁dear	-7.15102
▁dog	-7.15366
▁money	-7.15512
▁getting	-7.15997
▁today	-7.16168
▁mind	-7.16188
▁kid	-7.16376
▁feel	-7.16414
▁far	-7.17231
▁best	-7.17261
es	-7.17596
▁start	-7.19095
▁real	-7.1925
▁happened	-7.20076
▁without	-7.20624
▁done	-7.20796
▁laughing	-7.21369
▁ok	-7.2212
▁guess	-7.22892
▁charlie	-7.23471
▁came	-7.23988
▁minute	-7.24223
▁wrong	-7.25322
▁run	-7.25323
▁morning	-7.25337
▁seen	-7.25655
▁alone	-7.26025
▁worry	-7.26303
▁head	-7.26428
▁young	-7.26604
▁turn	-7.26751
▁understand	-7.2736
▁king	-7.28821
▁left	-7.28823
▁jack	-7.28948
▁looks	-7.29397
▁soon	-7.30224
▁easy	-7.30267
▁yet	-7.30334
▁team	-7.30595
▁guys	-7.30604
▁trouble	-7.30607
▁un	-7.30837
▁hope	-7.31153
▁friend	-7.31164
▁excuse	-7.31407
▁matter	-7.32082
▁wan	-7.32656
t	-7.32674
▁pig	-7.33622
▁happy	-7.34684
▁door	-7.35131
▁wanted	-7.3515
▁hell	-7.3624
▁wouldnt	-7.36344
▁move	-7.36402
▁number	-7.36565
▁watch	-7.36604
▁someone	-7.36624
▁looking	-7.36888
▁job	-7.37413
▁guy	-7.38179
▁ooh	-7.38764
▁fly	-7.38869
▁house	-7.39067
▁true	-7.39345
▁em	-7.40515
▁tomorrow	-7.414
▁hard	-7.41597
▁found	-7.41619
▁wish	-7.41656
▁late	-7.41956
▁idea	-7.42093
▁princess	-7.42452
▁knew	-7.42527
▁gone	-7.4297
▁barking	-7.44221
▁aint	-7.44228
▁fun	-7.44577
▁pretty	-7.45007
▁havent	-7.45024
▁ball	-7.45049
▁whole	-7.45865
▁continues	-7.46213
n	-7.46296
▁use	-7.46346
▁everyone	-7.46813
▁ask	-7.46873
▁meet	-7.47143
▁warm	-7.47178
a	-7.47197
▁school	-7.47354
▁trying	-7.48154
▁kids	-7.4833
▁perfect	-7.48547
ll	-7.48882
▁live	-7.49286
▁woman	-7.49303
▁forget	-7.49611
▁dr	-7.49835
▁baby	-7.50006
▁chuckles	-7.50192
▁beautiful	-7.50916
▁room	-7.50921
i	-7.51386
al	-7.52118
▁bring	-7.52302
▁gadget	-7.52624
▁talking	-7.52628
▁high	-7.52751
▁many	-7.52998
▁else	-7.5361
st	-7.54588
▁family	-7.54668
▁couldnt	-7.54811
▁eat	-7.5624
▁year	-7.56276
▁bird	-7.57175
▁days	-7.57175
▁already	-7.57467
▁gentlemen	-7.57468
▁everybody	-7.57472
▁cold	-7.57549
▁men	-7.57614
▁heard	-7.57942
▁whos	-7.57962
▁boys	-7.58006
▁fire	-7.58332
▁afraid	-7.58418
▁aah	-7.59055
▁ya	-7.60172
▁hurry	-7.6025
▁uncle	-7.60352
▁youd	-7.60853
▁hurt	-7.61191
▁important	-7.61219
▁bit	-7.61266
▁second	-7.61368
▁sing	-7.61438
r	-7.61482
▁called	-7.61853
▁mine	-7.61895
▁goes	-7.62236
▁end	-7.62268
▁four	-7.62393
▁dream	-7.62506
▁fight	-7.62623
▁hmm	-7.63334
▁bye	-7.6335
▁saw	-7.63357
▁lost	-7.63388
▁quite	-7.63485
▁open	-7.63508
▁stand	-7.63513
▁face	-7.6398
▁bright	-7.63985
▁since	-7.64088
▁prince	-7.64166
▁problem	-7.64189
▁ho	-7.64231
▁cheering	-7.64376
▁sleep	-7.64532
▁friends	-7.64935
▁matilda	-7.65377
▁race	-7.66014
▁play	-7.66546
▁lovely	-7.6688
▁dance	-7.66908
▁god	-7.67386
▁tonight	-7.67426
▁s	-7.6744
▁story	-7.67481
est	-7.67571
▁air	-7.67588
▁light	-7.6768
▁girls	-7.67811
▁free	-7.68333
▁tree	-7.68456
▁boss	-7.68517
▁lead	-7.69628
▁waiting	-7.69915
▁speak	-7.70239
▁sound	-7.70249
▁nobody	-7.70632
▁ringle	-7.70648
▁honey	-7.70658
▁full	-7.71036
▁comes	-7.71167
▁beat	-7.71389
▁cause	-7.71535
▁voice	-7.71644
▁crowd	-7.71719
▁eyes	-7.72197
▁earth	-7.72744
▁arent	-7.72836
▁hit	-7.73179
▁promise	-7.73703
▁sweet	-7.73726
▁hercules	-7.73928
▁gasps	-7.74035
▁win	-7.74878
▁chance	-7.75009
▁buddy	-7.75029
▁brown	-7.75037
▁andrea	-7.75037
▁anyone	-7.75048
▁business	-7.76013
▁merlin	-7.76172
▁along	-7.76177
▁food	-7.76237
▁working	-7.76318
▁pay	-7.76956
▁sit	-7.772
▁crazy	-7.77325
l	-7.77917
▁shall	-7.78472
▁summer	-7.78485
▁rock	-7.78919
▁catch	-7.78995
▁says	-7.79088
▁line	-7.79174
▁fall	-7.79317
▁poor	-7.7969
▁taking	-7.79783
▁check	-7.80657
▁c	-7.80859
▁actually	-7.80865
▁theodore	-7.80878
▁moment	-7.80929
▁wants	-7.81038
▁used	-7.81804
▁point	-7.81951
▁sterling	-7.82084
▁game	-7.82176
▁top	-7.82973
▁part	-7.83028
▁wasnt	-7.83275
▁flight	-7.83414
▁wheres	-7.83433
▁gold	-7.83604
▁a	-7.83687
▁close	-7.83822
▁answer	-7.8416
▁stupid	-7.84509
▁probably	-7.84511
▁wow	-7.84638
▁wonderful	-7.8465
▁five	-7.84663
▁saying	-7.84863
▁hours	-7.85357
▁change	-7.85616
▁thinking	-7.86075
▁gordy	-7.87033
▁grunts	-7.87045
▁whatever	-7.87049
▁save	-7.8712
▁later	-7.87271
▁seems	-7.87898
▁set	-7.88091
▁means	-7.88257
▁child	-7.88309
▁clear	-7.88332
▁went	-7.88367
▁minutes	-7.89225
▁canyon	-7.89737
▁star	-7.90009
▁claw	-7.90113
▁wonder	-7.90429
▁took	-7.90933
▁heres	-7.90993
▁sounds	-7.91021
▁sun	-7.9145
▁they	-7.91896
▁white	-7.91902
▁captain	-7.92255
▁town	-7.9233
▁g	-7.92374
▁rest	-7.9245
▁forest	-7.92455
▁safe	-7.92661
ous	-7.92686
▁stuff	-7.93606
▁book	-7.93785
▁santa	-7.93808
▁knows	-7.94007
▁throw	-7.94099
▁lm	-7.94117
▁re	-7.94317
▁fast	-7.94923
▁somewhere	-7.94976
▁dinner	-7.94978
▁gets	-7.95081
▁word	-7.95233
▁side	-7.95471
▁person	-7.96264
▁children	-7.96393
▁become	-7.96475
le	-7.96572
▁dreams	-7.96594
▁i	-7.96717
▁ohh	-7.96787
▁happen	-7.97255
on	-7.9738
▁feet	-7.978
▁plane	-7.97984
▁lady	-7.98345
▁ra	-7.98363
▁half	-7.99095
▁read	-7.99138
▁stuart	-7.99201
▁somebody	-7.99201
▁ago	-7.99215
▁mrs	-7.9922
▁exactly	-7.99234
▁case	-7.99718
▁um	-8.00276
▁bob	-8.00317
▁ow	-8.00512
▁bell	-8.00841
▁asked	-8.0105
▁started	-8.01167
▁learn	-8.01418
▁flying	-8.0145
▁luck	-8.01653
▁follow	-8.01674
▁six	-8.0185
▁grand	-8.02066
▁almost	-8.02121
▁inside	-8.02134
▁perhaps	-8.02149
able	-8.02273
▁step	-8.02774
▁cool	-8.02804
o	-8.02993
▁hands	-8.03026
▁e	-8.03531
▁reason	-8.03627
▁making	-8.03721
▁champion	-8.04042
▁bet	-8.04048
▁playing	-8.04228
▁laughs	-8.0426
▁plan	-8.04437
▁professor	-8.05129
▁celebi	-8.05131
▁penny	-8.05135
▁goodbye	-8.0514
▁least	-8.05152
▁coffee	-8.05153
▁b	-8.05398
▁horse	-8.05644
▁times	-8.06005
▁walk	-8.06062
▁feeling	-8.06501
▁quick	-8.06556
▁li	-8.06636
▁break	-8.06664
▁possible	-8.06698
us	-8.06936
▁power	-8.07469
▁special	-8.07502
▁hot	-8.07634
▁also	-8.08228
▁stanley	-8.08228
▁ahead	-8.08245
▁funny	-8.08247
▁city	-8.08383
▁lucky	-8.08566
▁careful	-8.09596
▁m	-8.09648
▁dead	-8.09717
▁danny	-8.09817
▁certainly	-8.09891
▁sighs	-8.1001
▁supposed	-8.10067
▁lose	-8.1025
▁wed	-8.10383
▁ride	-8.10662
▁cut	-8.10849
▁kill	-8.11069
▁merry	-8.11433
▁born	-8.11476
ies	-8.11607
▁phone	-8.11685
▁human	-8.11768
▁p	-8.12276
▁folks	-8.1316
ion	-8.13179
berry	-8.13356
▁able	-8.13508
▁anyway	-8.13533
▁brother	-8.13558
▁reach	-8.13601
▁song	-8.13815
▁trust	-8.14511
▁met	-8.14525
▁return	-8.14526
▁act	-8.14604
▁anybody	-8.14734
▁itll	-8.14746
▁ladies	-8.14747
▁welcome	-8.14764
zzle	-8.15048
▁hour	-8.15313
▁sign	-8.15696
▁pick	-8.15759
▁pull	-8.15794
▁road	-8.15927
▁send	-8.16209
▁outside	-8.1643
▁darling	-8.16433
▁either	-8.16442
▁behind	-8.16461
▁chattering	-8.16463
▁chief	-8.16476
▁beast	-8.1687
▁bank	-8.16991
▁magic	-8.17491
▁bed	-8.17523
▁different	-8.1807
▁lonely	-8.18156
▁gordon	-8.18157
▁knowing	-8.18175
▁strong	-8.18507
▁fingers	-8.18665
en	-8.18738
▁makes	-8.18905
▁j	-8.19631
▁bastian	-8.19907
▁drive	-8.20001
▁body	-8.20267
▁heh	-8.20267
in	-8.20444
▁land	-8.20455
▁alvin	-8.20483
▁doctor	-8.2049
less	-8.20599
▁news	-8.21078
▁ty	-8.21196
▁ten	-8.21297
▁seem	-8.21401
▁death	-8.21696
▁gave	-8.21737
▁giving	-8.21744
▁sometimes	-8.21859
▁buy	-8.21973
▁evening	-8.22003
▁figure	-8.22086
▁shot	-8.22395
▁blow	-8.22706
▁marry	-8.2308
▁radio	-8.2351
▁college	-8.2351
▁virgil	-8.23516
▁janie	-8.23518
▁parker	-8.23619
▁spin	-8.23826
▁flowers	-8.23979
▁order	-8.24036
▁fact	-8.2408
▁die	-8.2417
▁ring	-8.24699
▁mmm	-8.24756
▁snow	-8.25039
▁board	-8.25041
▁front	-8.25081
▁suppose	-8.25082
▁major	-8.25361
▁majesty	-8.25362
▁needs	-8.25627
▁round	-8.26105
▁hate	-8.26155
▁pass	-8.26284
▁lord	-8.2634
▁small	-8.27153
▁straight	-8.27243
▁cinderella	-8.27251
▁dancing	-8.27266
▁though	-8.27481
▁shoes	-8.27624
▁party	-8.27625
▁birds	-8.27901
▁dogs	-8.28843
▁glad	-8.29031
▁quiet	-8.29052
▁past	-8.29082
▁grayson	-8.29172
▁broadway	-8.29173
▁hanky	-8.2919
▁company	-8.29208
▁mission	-8.29316
▁dressing	-8.29358
▁secret	-8.29925
▁question	-8.29951
▁animals	-8.29971
▁million	-8.29995
▁north	-8.30471
▁d	-8.30815
▁floyd	-8.31131
▁crystal	-8.31132
▁simple	-8.31147
▁tried	-8.31154
▁mister	-8.31157
▁dark	-8.31159
▁daddy	-8.31187
▁groans	-8.31231
▁whoo	-8.31569
▁deal	-8.31603
▁daughter	-8.32013
▁bear	-8.32092
▁master	-8.3213
▁telling	-8.33035
▁running	-8.33161
▁finally	-8.33222
▁fang	-8.33235
▁scared	-8.33239
▁blue	-8.33421
▁woof	-8.33559
▁future	-8.33961
▁mu	-8.33969
▁x	-8.34063
▁cake	-8.34081
▁hang	-8.34107
▁in	-8.342
▁canyons	-8.3496
▁train	-8.35076
▁hugo	-8.35201
▁goin	-8.35201
▁impossible	-8.35205
▁groaning	-8.35208
▁country	-8.35266
▁coins	-8.35399
▁theyve	-8.3541
▁sent	-8.35475
▁roll	-8.35788
▁present	-8.36227
▁class	-8.36648
▁pat	-8.36854
▁santas	-8.36948
▁except	-8.37181
▁narrator	-8.37256
▁drummond	-8.37256
▁ii	-8.37269
▁maam	-8.37284
▁wife	-8.37333
▁green	-8.3748
ers	-8.38169
▁wind	-8.38464
▁foot	-8.38565
▁slow	-8.38815
▁steve	-8.39284
▁kabuna	-8.39382
▁glorious	-8.39387
▁valley	-8.39387
▁clothes	-8.39417
▁evil	-8.39473
▁list	-8.39682
▁drink	-8.39942
▁speaking	-8.40182
m	-8.40247
▁cute	-8.40797
▁shoot	-8.41053
▁pa	-8.41241
▁words	-8.41299
▁n	-8.41452
▁taylor	-8.41556
▁boris	-8.41558
▁richard	-8.41561
▁brought	-8.41565
▁others	-8.4159
▁lili	-8.41616
▁parents	-8.41625
▁blood	-8.41682
▁yo	-8.417
▁tight	-8.41776
▁lt	-8.41778
mon	-8.41984
▁peace	-8.42126
▁honor	-8.42332
▁quit	-8.42347
▁blanket	-8.42571
▁control	-8.42617
▁queen	-8.42987
▁ice	-8.43462
h	-8.43565
▁leaves	-8.43629
▁shut	-8.43755
▁plenty	-8.43778
▁english	-8.43778
▁language	-8.43779
▁applause	-8.4378
▁explain	-8.43789
▁shouldnt	-8.43792
▁living	-8.43814
▁moving	-8.43838
▁seven	-8.44252
▁cross	-8.4437
▁office	-8.4458
▁report	-8.44637
▁sort	-8.44862
▁judge	-8.44869
▁miles	-8.4494
▁expect	-8.45386
▁state	-8.45388
▁calling	-8.45968
▁hero	-8.4602
▁forever	-8.46059
▁chuckling	-8.46062
▁damn	-8.46127
▁speed	-8.46137
▁busy	-8.4616
▁yall	-8.46223
▁fool	-8.46389
▁planet	-8.46728
▁de	-8.46828
▁eh	-8.47011
▁smile	-8.47343
▁millions	-8.47438
▁hair	-8.47619
▁h	-8.48194
▁across	-8.48377
▁amazing	-8.48382
▁laughter	-8.48397
▁alive	-8.48404
▁pok	-8.48506
▁mail	-8.48564
▁rain	-8.49055
▁ship	-8.49193
▁enjoy	-8.5009
▁touch	-8.50114
▁strange	-8.50293
▁handle	-8.50407
▁r	-8.50525
▁taken	-8.50663
▁sarah	-8.50756
▁rimspoke	-8.50757
▁thousand	-8.50757
▁outta	-8.50758
▁sheep	-8.50763
▁zeus	-8.50764
▁monster	-8.50766
▁castle	-8.50774
▁cash	-8.50795
▁dangerous	-8.50808
▁till	-8.51208
▁w	-8.51311
▁mad	-8.51369
▁be	-8.51735
▁spend	-8.51899
▁fell	-8.51945
▁sister	-8.52067
▁wild	-8.52069
▁hundred	-8.52077
▁boat	-8.52152
▁finish	-8.52417
▁hill	-8.52473
▁wake	-8.52524
▁t	-8.52559
▁lives	-8.52624
▁mei	-8.52624
▁gee	-8.52643
▁wear	-8.52995
▁serious	-8.53081
▁certain	-8.53166
▁reeko	-8.53195
▁arthur	-8.53195
▁baxter	-8.53195
▁forgot	-8.53195
▁black	-8.53199
▁women	-8.53202
▁leaving	-8.53224
▁teach	-8.53239
▁hungry	-8.53244
▁married	-8.53248
▁mama	-8.5337
▁sand	-8.53548
▁lake	-8.53683
▁join	-8.53907
▁singing	-8.54133
▁general	-8.54545
▁spirit	-8.54556
▁rope	-8.54593
▁deep	-8.55074
▁super	-8.55086
▁shh	-8.55608
▁near	-8.55618
▁space	-8.55676
▁anymore	-8.55695
▁higgins	-8.55695
▁terrible	-8.55698
▁inspector	-8.55698
▁football	-8.55699
▁beauty	-8.557
▁upon	-8.55711
▁sword	-8.55717
▁screaming	-8.55768
▁afternoon	-8.55793
▁blessing	-8.56147
▁hide	-8.56193
▁kiss	-8.56293
▁walking	-8.56409
▁attack	-8.56674
▁ground	-8.56932
▁wood	-8.56956
▁looked	-8.57044
▁week	-8.57111
▁brain	-8.57276
▁truth	-8.57386
▁forge	-8.5757
ic	-8.57596
▁dockerty	-8.58259
▁attention	-8.5826
▁lunch	-8.5826
▁rosebud	-8.58263
▁hotel	-8.58275
▁pleasant	-8.58309
▁native	-8.58311
▁tv	-8.58326
▁celebrate	-8.58462
▁worth	-8.58466
▁count	-8.58877
an	-8.58976
▁double	-8.5909
▁fix	-8.59245
or	-8.59447
▁known	-8.59469
▁station	-8.59686
▁copper	-8.59707
▁winner	-8.59758
ity	-8.59847
▁track	-8.59984
▁tough	-8.60033
▁american	-8.60141
▁offer	-8.60401
▁th	-8.60623
▁eye	-8.60635
▁forgive	-8.60731
▁bottom	-8.6089
▁jungle	-8.6089
▁bernie	-8.60904
▁lve	-8.60942
▁winter	-8.60943
▁jane	-8.61048
▁awful	-8.61068
▁sense	-8.61276
▁matt	-8.61643
▁fair	-8.61807
ness	-8.61819
ful	-8.61886
ts	-8.61948
▁lll	-8.62134
▁strike	-8.6224
▁machine	-8.62388
▁street	-8.62417
▁continue	-8.63198
▁third	-8.63586
▁middle	-8.63595
▁twice	-8.63604
▁rex	-8.63629
▁kidding	-8.63641
▁spot	-8.63657
▁angela	-8.63679
▁faster	-8.63767
▁none	-8.63774
▁ought	-8.63789
▁woody	-8.63843
▁smart	-8.63895
kept	-8.63967
▁alan	-8.64322
▁kick	-8.64478
▁creatures	-8.64597
▁final	-8.65067
▁jump	-8.65127
▁island	-8.65146
▁river	-8.65316
▁click	-8.65421
▁park	-8.65481
ie	-8.65929
▁missing	-8.65953
▁fresh	-8.66274
▁stick	-8.6628
▁ones	-8.66281
▁hed	-8.66295
▁jelly	-8.6637
▁ridiculous	-8.66371
▁rather	-8.66386
▁shit	-8.66427
▁dean	-8.66467
▁ahh	-8.66567
▁quickly	-8.66582
▁eight	-8.66601
▁greatest	-8.66728
ar	-8.66798
▁gosh	-8.66939
▁engine	-8.67103
▁legs	-8.67319
man	-8.67397
▁f	-8.67662
▁mountain	-8.67895
▁adventure	-8.68
▁kangaroo	-8.68013
▁co	-8.68042
▁animal	-8.68054
▁red	-8.68099
▁drop	-8.68109
▁guard	-8.68118
▁honest	-8.68885
▁difficult	-8.68942
▁fit	-8.69121
▁theo	-8.69151
▁relax	-8.69196
▁hammond	-8.69227
▁indistinct	-8.69228
▁felt	-8.69228
▁nasty	-8.69236
▁highness	-8.69272
▁grains	-8.69311
▁enter	-8.69357
▁hows	-8.69396
▁finished	-8.69602
▁takes	-8.69704
▁ringing	-8.69851
▁practice	-8.69992
blank	-8.70476
▁short	-8.7064
▁pleasure	-8.70917
▁whistle	-8.7098
▁operation	-8.70995
▁knock	-8.71534
ment	-8.7162
▁clack	-8.71661
▁prove	-8.72022
▁seconds	-8.72125
▁danger	-8.72158
▁crusoe	-8.7216
▁andrew	-8.72161
▁wolf	-8.72161
▁proud	-8.72163
▁caught	-8.72164
▁computer	-8.72167
▁couple	-8.72173
▁royal	-8.72174
▁grunting	-8.72176
▁max	-8.72181
▁nicole	-8.72197
▁growling	-8.72207
▁silver	-8.72222
▁flash	-8.72246
▁andy	-8.72302
▁fred	-8.72307
▁tail	-8.72387
▁mmhmm	-8.72465
▁grandma	-8.72665
▁unh	-8.72743
▁promised	-8.72801
▁aii	-8.7284
▁crown	-8.72933
▁happening	-8.73102
▁record	-8.73347
▁grow	-8.73531
▁thunder	-8.73703
▁test	-8.73787
▁clean	-8.74333
▁suggest	-8.74651
▁happens	-8.74778
▁howd	-8.74984
▁form	-8.7507
▁visit	-8.75127
▁john	-8.75178
▁balto	-8.75191
▁among	-8.75192
▁werent	-8.75193
▁choice	-8.75195
▁immediately	-8.75196
▁idiot	-8.75197
▁snorting	-8.75212
▁absolutely	-8.75213
▁tammy	-8.75225
▁silly	-8.75229
▁tired	-8.75248
▁decided	-8.75284
▁coach	-8.75347
▁bag	-8.75477
▁perfectly	-8.75602
▁police	-8.75638
▁cave	-8.75677
▁longer	-8.75825
▁fat	-8.75842
▁moon	-8.75879
▁single	-8.76032
▁sam	-8.76105
▁dis	-8.76284
one	-8.76316
▁standing	-8.76421
▁shine	-8.76526
▁missed	-8.76691
▁k	-8.76783
▁garden	-8.76889
▁mistake	-8.76946
▁tea	-8.76976
▁message	-8.77063
▁dare	-8.77158
▁frog	-8.77409
▁field	-8.77525
▁aunt	-8.77822
▁stars	-8.77874
▁doubt	-8.77898
▁write	-8.77926
▁anywhere	-8.78315
▁formula	-8.78315
▁rescue	-8.78315
▁situation	-8.78315
▁marriage	-8.78315
▁someday	-8.78316
▁competition	-8.78316
▁director	-8.78321
▁beach	-8.78322
▁jones	-8.78324
▁sensation	-8.78332
▁robin	-8.78352
▁shouting	-8.78371
▁rich	-8.78385
▁nose	-8.78495
▁forward	-8.7851
▁nature	-8.78662
▁sell	-8.78716
▁sad	-8.78928
ation	-8.79115
▁laugh	-8.79307
▁butch	-8.79318
▁turned	-8.79363
▁pigs	-8.7997
▁system	-8.80297
▁rascal	-8.80316
▁picture	-8.80323
▁fear	-8.80324
▁creature	-8.80355
▁piece	-8.80771
▁bless	-8.80828
▁kate	-8.81093
▁consider	-8.81175
▁realize	-8.81384
▁broke	-8.81408
▁kitchen	-8.81538
▁thompson	-8.81541
▁worried	-8.81541
▁planned	-8.8155
▁alright	-8.81553
▁pepe	-8.81562
▁tin	-8.81566
▁worse	-8.81567
▁canyoneering	-8.81567
▁besides	-8.81606
▁babe	-8.81818
▁leg	-8.82117
▁works	-8.82199
▁died	-8.82239
▁cat	-8.82533
▁rip	-8.82718
▁elle	-8.82947
▁aw	-8.82948
▁asking	-8.83107
▁extra	-8.83367
▁favorite	-8.83518
▁position	-8.83672
▁fellow	-8.83799
▁tom	-8.83944
▁key	-8.84001
ive	-8.84311
▁hay	-8.84457
▁band	-8.84609
▁humbug	-8.84874
▁midvale	-8.84874
▁zira	-8.84874
▁teddy	-8.84875
▁royce	-8.84877
▁irena	-8.84881
▁smell	-8.84885
▁henry	-8.8489
▁claus	-8.8492
▁miller	-8.84923
▁honking	-8.84956
▁strength	-8.84987
▁science	-8.84999
b	-8.85017
▁names	-8.85189
▁billy	-8.85273
▁clouds	-8.85304
▁cheers	-8.8533
▁wings	-8.8534
▁sharks	-8.85385
▁changed	-8.85582
▁rings	-8.85597
▁rid	-8.86307
▁pack	-8.86331
▁brains	-8.86406
▁bill	-8.86947
▁kingdom	-8.86962
nt	-8.86965
▁turns	-8.87097
▁law	-8.8716
▁calls	-8.87253
▁so	-8.87464
▁mess	-8.87496
▁crash	-8.87693
▁feed	-8.87721
▁less	-8.87964
▁cow	-8.88194
▁seeing	-8.88273
▁goreslimey	-8.88322
▁suzette	-8.88323
▁sergeant	-8.88323
▁mingle	-8.88328
▁beginning	-8.88329
▁international	-8.8833
▁built	-8.88334
▁pudding	-8.88339
▁handsome	-8.88352
▁squealing	-8.88377
▁shell	-8.88402
▁york	-8.88405
▁baron	-8.88406
▁uhoh	-8.8849
▁corner	-8.88507
▁interested	-8.88516
▁early	-8.88567
▁leon	-8.88611
▁screams	-8.88619
▁national	-8.88717
▁sea	-8.88718
▁ugh	-8.8977
▁meeting	-8.90064
▁lords	-8.9007
um	-8.9017
▁arm	-8.9024
▁spell	-8.90274
▁charge	-8.9029
▁desert	-8.90417
▁emperor	-8.90624
▁letter	-8.90938
▁announce	-8.91055
▁climb	-8.91087
▁war	-8.91112
▁sky	-8.91471
▁study	-8.91542
▁nervous	-8.91746
▁branch	-8.91764
▁cry	-8.91815
▁trip	-8.91831
▁base	-8.91874
▁emergency	-8.91894
▁steady	-8.91896
▁ridgeway	-8.91898
▁hoggett	-8.91899
▁johnny	-8.91901
▁pouch	-8.91901
▁stuck	-8.91907
▁contract	-8.91909
▁contest	-8.91912
▁history	-8.91915
▁hasnt	-8.91917
▁panting	-8.91919
▁simon	-8.91921
▁project	-8.91926
▁respect	-8.92033
▁soft	-8.92041
▁accord	-8.9209
▁dave	-8.92143
▁ski	-8.92313
▁passed	-8.92331
▁o	-8.92373
▁ai	-8.92434
▁cars	-8.92437
ry	-8.92546
▁mac	-8.92747
▁sick	-8.93081
▁fighting	-8.93415
im	-8.93433
▁ears	-8.93528
▁hare	-8.93965
▁lf	-8.94184
▁worked	-8.94229
▁hen	-8.94235
▁service	-8.94292
▁group	-8.94297
▁cousin	-8.94336
▁throat	-8.94347
▁bar	-8.94385
▁shake	-8.9439
▁monkey	-8.9439
ary	-8.94454
▁horn	-8.94511
▁holding	-8.94542
▁wheel	-8.94652
▁horses	-8.94706
▁uhh	-8.94709
▁travel	-8.94901
▁needed	-8.94992
▁rob	-8.95041
g	-8.95228
▁calm	-8.95426
up	-8.95428
▁fish	-8.95474
▁program	-8.95569
▁tanamashu	-8.95597
▁yesterday	-8.95598
▁leila	-8.95598
▁level	-8.95598
▁account	-8.95599
▁dumb	-8.95609
▁victory	-8.95615
▁paul	-8.95616
▁afford	-8.95647
▁area	-8.95648
▁difference	-8.95652
▁lots	-8.95746
▁tires	-8.9581
▁interesting	-8.95969
▁ben	-8.96011
▁teacher	-8.96032
▁barks	-8.96075
▁crying	-8.96075
▁al	-8.96247
▁gammas	-8.96258
▁weight	-8.96278
▁tod	-8.9641
▁mm	-8.96416
▁table	-8.96459
▁cover	-8.97272
▁court	-8.97711
▁blows	-8.9793
▁taste	-8.97934
▁starting	-8.97986
▁orders	-8.98007
▁deliver	-8.98036
▁tortoise	-8.98063
▁ash	-8.98167
▁fault	-8.98227
▁remain	-8.98233
▁window	-8.98258
▁loves	-8.98333
ling	-8.98839
▁paper	-8.9909
▁share	-8.99167
▁lift	-8.99299
▁entire	-8.99323
▁derek	-8.99444
▁dexter	-8.99444
▁godzilla	-8.99444
▁private	-8.99444
▁fruit	-8.99445
▁doian	-8.99452
▁wagon	-8.99455
▁definitely	-8.99457
▁wh	-8.99471
▁lowell	-8.99488
▁elf	-8.99493
▁totally	-8.99501
▁weii	-8.9951
▁piggy	-8.99522
▁smith	-8.99526
▁flies	-8.99574
▁hat	-8.9968
▁ba	-8.99746
▁fairy	-8.99784
▁lights	-8.99796
▁hee	-8.99845
▁brave	-8.99902
▁climbing	-8.99962
▁par	-9.00175
▁low	-9.00182
▁main	-9.00293
▁match	-9.00345
▁pounds	-9.00366
▁fired	-9.005
▁arms	-9.00649
▁ran	-9.0087
▁heavens	-9.0095
▁guards	-9.01059
▁named	-9.01252
▁watching	-9.01501
▁presents	-9.01633
▁challenge	-9.02078
▁force	-9.02142
▁protect	-9.02192
▁decision	-9.02234
▁barry	-9.02273
▁finger	-9.02334
▁rule	-9.02403
ch	-9.028
▁steal	-9.03079
▁gun	-9.03216
▁waste	-9.03254
▁st	-9.03265
▁wall	-9.03385
▁chuck	-9.03428
▁admit	-9.03433
▁barcuna	-9.03444
▁congratulations	-9.03444
▁cummings	-9.03444
▁larrabee	-9.03444
▁instead	-9.03444
▁ralph	-9.03444
▁bruce	-9.03444
▁female	-9.03445
▁neither	-9.03445
▁information	-9.03446
▁jenny	-9.03447
▁asleep	-9.03448
▁whistling	-9.03449
▁carface	-9.03452
▁everywhere	-9.03452
▁driving	-9.03484
▁shining	-9.03539
▁paid	-9.03547
▁comin	-9.03583
▁tiny	-9.03647
▁tall	-9.03668
omin	-9.03749
▁trees	-9.03767
▁pe	-9.03936
▁wise	-9.03972
▁wearing	-9.04045
▁over	-9.04102
▁mike	-9.04104
▁hood	-9.04273
▁dado	-9.04356
▁date	-9.04419
▁agree	-9.0458
▁ab	-9.04925
▁weeks	-9.05411
▁bee	-9.05414
▁interest	-9.05521
▁woods	-9.05669
▁lie	-9.05691
ter	-9.05722
▁using	-9.05881
▁giant	-9.06241
▁heaven	-9.06256
▁listening	-9.0626
▁thunderbird	-9.06292
▁president	-9.06315
▁le	-9.06383
▁talent	-9.06406
▁duck	-9.06505
▁spring	-9.06514
▁smoke	-9.06536
▁no	-9.06626
▁fella	-9.06643
out	-9.06652
age	-9.0686
▁feels	-9.06887
▁weather	-9.07232
▁german	-9.07362
▁mo	-9.07386
▁cornelius	-9.0761
▁harriet	-9.0761
▁husband	-9.0761
▁nonsense	-9.0761
▁timmie	-9.0761
▁timberwolves	-9.07611
▁willard	-9.07611
▁tortoni	-9.07611
▁however	-9.07611
▁cereal	-9.07611
▁pollen	-9.07614
▁herc	-9.07615
▁within	-9.07615
▁glenn	-9.07623
▁exciting	-9.07623
▁wedding	-9.07638
▁erik	-9.07652
▁imagine	-9.07705
▁allow	-9.07718
▁bigger	-9.07724
▁milk	-9.07749
▁invited	-9.0776
▁whispering	-9.0784
▁chen	-9.07916
tion	-9.08033
▁flat	-9.08058
▁iii	-9.08062
▁lying	-9.08113
▁oil	-9.08355
▁killed	-9.08438
▁fellas	-9.08823
▁rules	-9.0891
▁store	-9.09227
ent	-9.09234
▁eating	-9.09589
▁cook	-9.10084
▁surprise	-9.10188
▁humans	-9.10709
▁cup	-9.10807
▁apple	-9.10975
▁pain	-9.11082
▁dress	-9.11275
▁push	-9.11325
▁treat	-9.11358
▁charli	-9.11419
▁bat	-9.11631
▁yah	-9.1179
▁cream	-9.11792
▁papa	-9.11832
▁appear	-9.11917
▁scrooge	-9.11958
▁tarzan	-9.11958
▁junior	-9.11958
▁zaius	-9.11958
▁security	-9.11958
▁chittering	-9.11959
▁vacation	-9.1196
▁bravo	-9.1196
▁faith	-9.11962
▁byebye	-9.11962
▁evilia	-9.11964
▁snoring	-9.11969
▁indeed	-9.11977
▁james	-9.11983
▁season	-9.11989
▁personal	-9.11997
▁aboard	-9.11998
▁suddenly	-9.12034
▁amos	-9.12036
▁central	-9.12051
▁snorts	-9.12054
▁public	-9.12068
▁thatll	-9.1207
▁oran	-9.1208
▁putting	-9.12121
▁chimp	-9.12201
▁nuts	-9.12207
▁army	-9.12209
▁per	-9.12212
▁agreed	-9.12213
▁leader	-9.12298
▁glass	-9.12391
▁kit	-9.12453
▁sooner	-9.12484
▁add	-9.12586
▁angels	-9.12613
▁plays	-9.1264
▁whe	-9.12671
▁rappel	-9.12824
▁saved	-9.12848
▁madam	-9.13045
▁sh	-9.13277
▁wondering	-9.13336
▁pray	-9.13374
▁sue	-9.13606
▁helping	-9.14716
▁given	-9.14823
ine	-9.14919
▁sport	-9.14923
▁begin	-9.15278
▁gift	-9.15285
▁heat	-9.15335
▁spindle	-9.15337
▁tim	-9.15624
▁se	-9.15833
▁sight	-9.16056
▁destroy	-9.16265
▁carry	-9.16298
▁escape	-9.16382
▁beyond	-9.16504
▁george	-9.16504
▁henrietta	-9.16504
▁krinkle	-9.16504
▁wednesday	-9.16504
▁excellent	-9.16504
▁milady	-9.16504
▁zora	-9.16504
▁birthday	-9.16506
▁zero	-9.16507
▁simply	-9.16514
▁zone	-9.16515
▁brandon	-9.16523
▁bother	-9.16525
▁puppy	-9.16537
▁sonny	-9.1656
▁coughing	-9.16592
▁completely	-9.16593
▁soup	-9.166
▁gasping	-9.16685
▁leo	-9.16705
▁simians	-9.16763
▁meat	-9.16803
▁introduce	-9.16844
▁closer	-9.16928
▁grab	-9.17041
▁figured	-9.17132
▁hardly	-9.17169
▁dolls	-9.17239
▁farm	-9.17283
▁storm	-9.17386
th	-9.17461
▁virg	-9.17474
▁thr	-9.17551
▁months	-9.17589
▁ma	-9.17593
▁learning	-9.17804
tic	-9.18042
▁map	-9.18054
▁ex	-9.18406
▁coppers	-9.18608
at	-9.18646
▁refere	-9.18948
▁places	-9.19042
specially	-9.19461
▁gives	-9.19482
▁risk	-9.19898
▁fashion	-9.1998
▁robert	-9.20058
▁manager	-9.20097
▁loose	-9.20141
▁pound	-9.20353
▁flag	-9.2043
▁america	-9.2047
p	-9.20888
▁lap	-9.2093
▁search	-9.2105
▁raise	-9.21082
▁port	-9.21174
▁awesome	-9.21266
▁penelope	-9.21266
▁medfield	-9.21266
▁genius	-9.21266
▁chitra	-9.21266
▁forbidden	-9.21267
▁teeth	-9.21267
▁library	-9.21272
▁cinderelly	-9.21273
▁whimpering	-9.21283
▁italian	-9.21284
▁slice	-9.21287
▁often	-9.21303
▁apologize	-9.21306
▁worst	-9.21349
▁von	-9.21351
▁common	-9.21361
▁nearly	-9.21484
▁surprised	-9.21532
▁screeching	-9.21534
▁slipper	-9.21539
▁speaks	-9.21657
▁building	-9.21769
▁growing	-9.2192
▁counting	-9.22033
▁following	-9.2262
ble	-9.22657
▁lock	-9.22778
▁keys	-9.22943
ne	-9.23189
▁manage	-9.23244
▁swim	-9.23318
me	-9.23575
▁sire	-9.2367
ii	-9.24231
▁questions	-9.24244
ce	-9.24342
▁ki	-9.24438
▁pie	-9.24455
id	-9.24721
▁fantasia	-9.2494
▁snowflake	-9.24974
▁movie	-9.24985
c	-9.24991
▁norman	-9.24992
▁trick	-9.25009
▁ticket	-9.25052
▁flower	-9.25222
▁month	-9.25269
▁ann	-9.25373
▁dari	-9.25373
▁plans	-9.25468
led	-9.2554
▁driver	-9.25577
▁correct	-9.25671
▁meant	-9.2573
▁cha	-9.26065
▁mention	-9.26091
▁games	-9.26093
▁should	-9.26126
ending	-9.26132
▁pal	-9.26204
▁success	-9.26252
▁berkshire	-9.26266
▁claudia	-9.26266
▁giggling	-9.26266
▁jessica	-9.26266
▁kandi	-9.26266
▁england	-9.26266
▁jesus	-9.26266
▁william	-9.26266
▁nova	-9.26266
▁credit	-9.26266
▁evidence	-9.26266
▁dawn	-9.26268
▁spread	-9.26268
▁upset	-9.26268
▁famous	-9.2627
▁pony	-9.26277
▁telephone	-9.2628
▁jingle	-9.26281
▁snowbell	-9.26281
▁incredible	-9.26281
▁pardon	-9.26283
▁whimpers	-9.26318
▁amount	-9.2633
▁support	-9.26332
▁scott	-9.26336
▁onto	-9.26345
▁arrived	-9.2636
▁heavy	-9.26386
▁gas	-9.2639
▁alarm	-9.26401
▁mule	-9.26428
▁yelling	-9.26521
▁hunter	-9.26583
▁boxing	-9.26591
▁recording	-9.27014
▁rats	-9.27031
▁provide	-9.27033
▁loud	-9.27092
▁eve	-9.27139
▁lee	-9.27313
iy	-9.2739
▁played	-9.27411
▁misses	-9.27697
▁fill	-9.27803
▁card	-9.27931
▁shoo	-9.27955
ally	-9.28243
▁intern	-9.28432
▁due	-9.29001
▁switch	-9.29042
▁ac	-9.29083
re	-9.29145
▁brothers	-9.29951
▁robot	-9.30127
▁floor	-9.30196
▁fans	-9.30236
▁dude	-9.3035
▁prayer	-9.30366
▁lesson	-9.30379
▁prize	-9.30428
▁type	-9.30722
▁build	-9.30924
▁repeat	-9.30969
se	-9.31007
▁player	-9.31094
▁cheat	-9.31152
▁large	-9.31415
▁frank	-9.31429
ist	-9.31436
▁anastasia	-9.31529
▁nottingham	-9.31529
▁scientific	-9.31529
▁satterfield	-9.31529
▁contact	-9.31529
▁paolo	-9.31529
▁chirp	-9.31529
▁village	-9.31529
▁journey	-9.31529
▁cheese	-9.31532
▁clark	-9.31533
▁bunch	-9.31534
▁garth	-9.31534
▁jail	-9.31544
▁wiii	-9.31546
▁duke	-9.31549
▁motor	-9.31551
▁uhhuh	-9.31571
▁vow	-9.31574
▁winning	-9.31584
▁friendship	-9.31589
▁sp	-9.3163
▁nine	-9.31632
▁allen	-9.31651
▁cap	-9.31674
▁charming	-9.31688
▁discovered	-9.31737
▁heck	-9.31789
▁goofy	-9.31791
▁stage	-9.31808
▁fetch	-9.3182
▁losing	-9.31844
▁broken	-9.3185
▁bucks	-9.31961
ure	-9.31965
▁electro	-9.32002
▁ne	-9.32053
▁bert	-9.32064
▁harder	-9.32111
▁goodness	-9.32341
▁seemed	-9.32374
▁learned	-9.32422
ey	-9.32485
▁training	-9.32596
▁ru	-9.32658
▁blowing	-9.32693
▁militar	-9.32699
time	-9.32717
▁brings	-9.32984
▁proper	-9.33346
▁bus	-9.33552
▁iove	-9.33903
▁surely	-9.34091
▁di	-9.34141
w	-9.34222
▁patient	-9.34397
▁press	-9.34535
▁heading	-9.34671
▁proceed	-9.35001
▁breath	-9.35023
▁drum	-9.35023
▁age	-9.35037
▁experiment	-9.3531
▁ape	-9.35489
▁marakeet	-9.35654
▁slip	-9.3574
▁clue	-9.35775
▁bomb	-9.35866
▁airline	-9.35903
▁joy	-9.35981
▁chris	-9.36304
▁note	-9.36402
men	-9.36439
▁goof	-9.36444
ant	-9.36462
▁hop	-9.36482
▁sl	-9.3673
▁warn	-9.36783
▁fuel	-9.36843
▁notice	-9.36857
▁natural	-9.36956
▁stole	-9.36978
▁bonnelli	-9.37084
▁equipment	-9.37084
▁eyepoppers	-9.37084
▁karthik	-9.37084
▁quigley	-9.37084
▁telugu	-9.37084
▁purpose	-9.37084
▁lambert	-9.37084
▁guinea	-9.37085
▁pizza	-9.37085
▁midnight	-9.37085
▁hadnt	-9.37086
▁gadgetmobile	-9.37086
▁dewey	-9.37087
▁blind	-9.37087
▁ugly	-9.37087
▁department	-9.37089
▁miracle	-9.37091
▁pringle	-9.37091
▁french	-9.37092
▁humming	-9.37095
▁clever	-9.37096
▁sweetheart	-9.37096
▁excited	-9.37097
▁tanner	-9.37104
▁championship	-9.3711
▁destiny	-9.37111
▁bigge	-9.37111
▁nasties	-9.37113
▁kom	-9.37114
▁usually	-9.37115
▁planning	-9.37115
▁truly	-9.37125
▁iike	-9.37134
▁yep	-9.37156
▁linus	-9.37163
▁jake	-9.37169
▁toy	-9.37192
▁dying	-9.37249
▁dollars	-9.37265
▁rome	-9.37318
k	-9.37345
▁pure	-9.37378
▁size	-9.37437
▁applaud	-9.3745
▁mary	-9.37598
▁attacked	-9.37599
▁fighter	-9.37638
pensive	-9.37648
▁favor	-9.37677
▁maxie	-9.37687
place	-9.37714
▁spelling	-9.37721
▁hunting	-9.37853
▁problems	-9.37892
▁opens	-9.37948
▁plant	-9.37991
▁talks	-9.38032
▁serve	-9.38074
▁hanging	-9.38125
▁theyd	-9.38186
ng	-9.3825
▁pot	-9.38506
▁reading	-9.38749
▁butt	-9.38775
▁interns	-9.38858
▁apart	-9.38897
▁apes	-9.39019
▁falling	-9.39035
▁he	-9.39251
▁whistles	-9.39392
▁event	-9.39398
▁do	-9.39451
▁opening	-9.39596
sh	-9.39781
▁gettin	-9.39889
▁skin	-9.40104
▁turning	-9.40477
▁belong	-9.40605
▁runs	-9.4079
▁saint	-9.40793
▁sa	-9.40854
▁fi	-9.40877
▁heads	-9.40913
▁pitch	-9.40941
▁meaning	-9.41219
▁prepare	-9.41266
▁settle	-9.41376
▁view	-9.41596
▁candle	-9.41675
▁subject	-9.41697
▁partner	-9.41716
▁snake	-9.4174
▁ghost	-9.4175
▁chicken	-9.41757
▁condition	-9.41801
▁guest	-9.41851
▁starts	-9.41856
▁battle	-9.41892
▁cost	-9.42302
▁pet	-9.4234
▁teii	-9.42531
▁marshal	-9.42559
▁thinks	-9.42573
land	-9.42649
▁complete	-9.4279
▁glor	-9.42804
▁discuss	-9.4285
▁experience	-9.42885
▁harm	-9.42907
▁tempo	-9.42923
▁brittany	-9.42967
▁brutus	-9.42967
▁chloe	-9.42967
▁butterflies	-9.42967
▁angry	-9.42967
▁necessary	-9.42967
▁auto	-9.4297
▁breakfast	-9.4297
▁purse	-9.42975
▁energy	-9.42975
▁appreciate	-9.42979
▁crew	-9.42981
▁hidden	-9.42982
▁teammate	-9.42983
▁jesse	-9.42989
▁unknown	-9.42994
▁corporal	-9.42995
▁dixie	-9.43004
▁unusual	-9.43006
▁unfortunately	-9.43006
▁fathers	-9.43007
▁agent	-9.4304
▁africa	-9.43052
▁tuppence	-9.43063
▁pinky	-9.43105
▁lo	-9.43116
▁soul	-9.43118
▁walt	-9.4313
▁attacker	-9.43175
uppence	-9.4327
▁studio	-9.43283
▁prefer	-9.43336
▁warning	-9.43398
▁bowl	-9.4348
▁wally	-9.43548
▁waves	-9.43588
▁ordered	-9.43714
▁maa	-9.43779
▁shows	-9.4397
▁stone	-9.4432
▁keeping	-9.44407
▁owl	-9.44636
▁bath	-9.44877
▁fan	-9.44981
▁y	-9.45456
▁bringing	-9.45688
▁il	-9.4583
▁lit	-9.4625
ow	-9.46271
▁fed	-9.46659
▁mark	-9.46781
ty	-9.46799
▁siren	-9.46915
▁accept	-9.46947
▁ruin	-9.47309
▁finds	-9.47355
▁doc	-9.47528
▁score	-9.47615
▁accident	-9.47774
▁colonel	-9.4778
▁crime	-9.47784
▁tank	-9.47854
▁local	-9.48053
▁officer	-9.48191
te	-9.48235
▁member	-9.48417
▁shoe	-9.485
▁tour	-9.48581
▁mothers	-9.48632
▁suffer	-9.48829
▁rough	-9.4885
▁darn	-9.49009
▁box	-9.49034
▁murder	-9.49123
▁nothin	-9.49161
▁under	-9.49175
▁tower	-9.49202
▁bibbidibobbidi	-9.49217
▁excitement	-9.49217
▁hitchcock	-9.49217
▁klaus	-9.49217
▁lieutenant	-9.49217
▁mckible	-9.49217
▁merrinoe	-9.49217
▁opinion	-9.49217
▁sundancer	-9.49217
▁kartik	-9.49217
▁parkhurst	-9.49217
▁connor	-9.49218
▁spinach	-9.49218
▁empress	-9.49219
▁precious	-9.49219
▁generation	-9.49219
▁south	-9.49219
▁obey	-9.4922
▁generous	-9.4922
▁gigante	-9.4922
▁distance	-9.49221
▁stella	-9.49224
▁huey	-9.49227
▁responsibility	-9.49238
▁charity	-9.4924
▁candy	-9.49242
▁comfortable	-9.49245
▁advisor	-9.49253
▁obviously	-9.4929
▁thief	-9.49316
▁spoke	-9.49319
▁sweetie	-9.49319
▁pollinators	-9.49343
▁toward	-9.49351
▁collect	-9.4937
▁mice	-9.4938
▁whatd	-9.4938
▁received	-9.49422
▁fantastic	-9.49442
▁fort	-9.49458
▁iam	-9.4946
▁huge	-9.49503
▁deck	-9.49522
▁stronger	-9.49543
▁pup	-9.49626
▁pop	-9.49724
▁loved	-9.49726
▁students	-9.49732
▁jar	-9.49745
▁block	-9.49787
▁grown	-9.49867
▁picked	-9.5011
▁riding	-9.50176
▁scouts	-9.50261
▁wishes	-9.50271
▁orphans	-9.50281
▁bud	-9.50312
▁bend	-9.50315
▁members	-9.50339
▁slot	-9.50496
▁passing	-9.50589
▁cards	-9.507
▁pulling	-9.5077
▁sail	-9.51169
ley	-9.51447
▁owe	-9.51496
▁survive	-9.51588
▁wilder	-9.51901
▁mountains	-9.51973
▁inter	-9.52229
ting	-9.52328
▁cats	-9.52356
▁numbers	-9.52388
▁bi	-9.53006
▁guessing	-9.53229
▁beg	-9.53328
▁command	-9.53517
boo	-9.53573
▁bo	-9.53833
▁lands	-9.53864
▁club	-9.54451
▁staying	-9.54459
▁indian	-9.54519
▁price	-9.54529
▁truck	-9.5454
▁saxon	-9.5465
▁gamma	-9.54689
▁books	-9.54913
▁sake	-9.54967
▁skull	-9.54973
▁seat	-9.55139
▁depend	-9.55166
▁bound	-9.55257
▁draw	-9.5541
▁instant	-9.55748
▁sudden	-9.55764
▁address	-9.55767
▁audience	-9.55883
▁balthazar	-9.55883
▁brilliant	-9.55883
▁eleanor	-9.55883
▁magnificent	-9.55883
▁sophie	-9.55883
▁whinnying	-9.55883
▁weird	-9.55883
▁yawns	-9.55883
▁interrupt	-9.55884
▁regret	-9.55884
▁gibbering	-9.55884
▁happiness	-9.55884
▁skunk	-9.55885
▁choose	-9.55885
▁dietz	-9.55885
▁example	-9.55887
▁rodan	-9.55887
▁bridge	-9.55888
▁gusta	-9.5589
▁threw	-9.55891
▁empty	-9.55891
▁fancy	-9.55893
▁riverton	-9.55893
▁sunset	-9.55895
▁recall	-9.55899
▁aaah	-9.55899
▁taught	-9.55902
▁jerk	-9.55906
▁bought	-9.55923
▁carol	-9.55929
▁stopped	-9.55932
▁champ	-9.55944
▁legend	-9.56018
▁sharp	-9.56019
▁jim	-9.56027
▁clock	-9.56028
▁approaching	-9.5607
▁her	-9.56133
▁dig	-9.56134
▁howling	-9.56186
▁burning	-9.56259
▁stocking	-9.56274
▁escaped	-9.56284
▁cast	-9.56289
▁classes	-9.56306
▁express	-9.5633
▁wool	-9.56337
▁culture	-9.56388
▁talkin	-9.56525
as	-9.56595
▁rin	-9.56741
▁code	-9.56764
▁tape	-9.56773
no	-9.56779
▁male	-9.56839
▁lean	-9.56856
▁friendly	-9.57011
▁holidays	-9.57024
▁shooter	-9.57093
▁liver	-9.57159
▁fate	-9.57172
▁guests	-9.57226
the	-9.57277
▁hearts	-9.57293
▁belongs	-9.57318
▁airlines	-9.5736
▁tie	-9.57733
▁magical	-9.58661
go	-9.58814
▁ways	-9.58901
▁rare	-9.58979
▁can	-9.59041
▁section	-9.5915
▁out	-9.59206
▁bush	-9.59309
▁states	-9.59442
ways	-9.5956
lly	-9.59948
▁ear	-9.60061
▁u	-9.6007
▁who	-9.60093
▁burn	-9.6045
▁refuse	-9.60494
ions	-9.60608
▁suit	-9.60647
res	-9.60828
el	-9.60906
▁pin	-9.60932
ory	-9.60935
▁v	-9.61481
▁pocket	-9.6157
▁period	-9.61574
▁invention	-9.61584
▁en	-9.61586
▁peck	-9.618
▁holiday	-9.61815
▁wowser	-9.61816
▁orphan	-9.61817
▁slide	-9.61829
▁deserve	-9.61832
▁scout	-9.61846
▁boo	-9.61854
▁rocket	-9.61899
▁direction	-9.619
▁unit	-9.61917
▁doll	-9.62149
▁singer	-9.62275
▁oooh	-9.62279
▁loser	-9.62415
▁rise	-9.62538
▁launch	-9.62581
▁pretend	-9.62589
▁market	-9.62633
▁screech	-9.62636
▁whisper	-9.62642
▁cage	-9.62665
▁release	-9.62782
▁blame	-9.62788
▁guide	-9.62788
line	-9.628
▁moments	-9.62814
▁concern	-9.62862
ship	-9.62984
▁march	-9.62989
▁attempt	-9.63026
▁barouche	-9.63026
▁dearborne	-9.63026
▁effort	-9.63026
▁murray	-9.63026
▁oclock	-9.63026
▁otherwise	-9.63026
▁jacob	-9.63026
▁terlip	-9.63026
▁fanfare	-9.63026
▁horrible	-9.63026
▁kodi	-9.63026
▁barista	-9.63027
▁century	-9.63027
▁upsidedown	-9.63027
▁turkey	-9.63027
▁permission	-9.63027
▁divine	-9.63028
▁farewell	-9.63028
▁greetings	-9.63028
▁silence	-9.63028
▁heavyweight	-9.6303
▁memories	-9.6303
▁savage	-9.63033
▁forgotten	-9.63035
▁hooray	-9.63036
▁grandmother	-9.63037
▁wherever	-9.63038
▁muffled	-9.6304
▁barely	-9.63043
▁psst	-9.63044
▁fiddle	-9.63053
▁monty	-9.63055
▁yellow	-9.63056
▁smiling	-9.63066
▁gotcha	-9.63068
▁henri	-9.6307
▁naught	-9.63073
▁murmuring	-9.63074
▁brent	-9.63084
▁aban	-9.6309
▁clare	-9.63093
▁swear	-9.63108
▁gang	-9.63115
▁hissing	-9.6312
▁sitting	-9.63139
▁bubble	-9.6314
▁sniffing	-9.63141
▁taxi	-9.63141
▁woolly	-9.63144
▁swan	-9.63144
▁confidence	-9.63145
▁mouth	-9.63151
▁squeaking	-9.63168
▁neck	-9.63174
▁buzzing	-9.63243
▁racing	-9.63244
▁designed	-9.63253
▁baboons	-9.6326
▁growls	-9.63275
▁desire	-9.63288
▁meg	-9.63295
▁plus	-9.63316
▁honestly	-9.63331
▁ken	-9.63366
▁create	-9.63375
lts	-9.63395
▁dust	-9.63423
▁locked	-9.63442
▁dings	-9.63502
▁tears	-9.63604
▁shadows	-9.63621
▁tied	-9.63704
▁higher	-9.63733
▁it	-9.63781
▁wins	-9.63783
▁skills	-9.63794
▁nights	-9.63803
▁yum	-9.63834
▁mayor	-9.63841
▁health	-9.64002
▁returned	-9.64046
▁faces	-9.64082
▁spy	-9.64112
▁moms	-9.64787
dy	-9.64952
▁bite	-9.6496
▁shirt	-9.65101
▁ohoh	-9.65171
▁punch	-9.6524
▁aha	-9.65394
▁fa	-9.65519
▁defeat	-9.65684
▁lookin	-9.65724
▁finding	-9.65786
▁beating	-9.65789
▁wide	-9.65934
▁hole	-9.65988
▁ideas	-9.66061
rs	-9.66256
▁shop	-9.66287
▁com	-9.66517
came	-9.6691
▁tuck	-9.67148
▁sports	-9.67324
sky	-9.67448
▁post	-9.67742
▁claws	-9.67845
hark	-9.67957
fully	-9.68432
▁design	-9.68629
▁powers	-9.68648
though	-9.68786
over	-9.68861
▁ad	-9.68939
▁doin	-9.68942
▁bobs	-9.6897
▁goal	-9.6905
▁mallinger	-9.69256
ning	-9.69292
▁barn	-9.69423
▁noise	-9.6945
▁weapon	-9.6947
▁explosion	-9.69471
▁servant	-9.69484
▁conversation	-9.69484
▁victim	-9.69488
▁pilot	-9.69489
▁diamond	-9.69491
▁raccoon	-9.69498
▁rose	-9.69509
ate	-9.69605
▁shark	-9.6962
▁string	-9.69761
▁signal	-9.69795
▁sale	-9.69815
▁joke	-9.69836
▁chap	-9.69935
▁cloth	-9.69993
▁kings	-9.70018
▁stray	-9.7009
▁mate	-9.70201
▁tale	-9.70374
▁woo	-9.70406
▁focus	-9.70471
▁likes	-9.70575
▁wing	-9.70596
▁east	-9.7061
▁total	-9.7061
▁stock	-9.70622
▁monstro	-9.70671
▁prison	-9.70671
▁corn	-9.70699
▁mumbai	-9.70718
▁nectar	-9.70718
▁odette	-9.70718
▁schuyler	-9.70718
▁sentimental	-9.70718
▁twelve	-9.70718
▁marianne	-9.70718
▁beloved	-9.70719
▁easily	-9.70719
▁siwon	-9.70719
▁mercy	-9.70719
▁smooth	-9.7072
▁rabbit	-9.7072
▁trumpet	-9.70721
▁intelligence	-9.70722
▁donkey	-9.70723
▁friday	-9.70724
▁baseball	-9.70724
▁palace	-9.70725
▁failure	-9.70726
▁dropped	-9.70728
▁foster	-9.70728
▁aircraft	-9.70729
▁snuffy	-9.7073
▁flew	-9.7073
▁split	-9.70731
▁robby	-9.70733
▁stories	-9.70734
▁education	-9.70734
▁successful	-9.7074
▁commandant	-9.7074
▁mouse	-9.70749
▁khan	-9.70753
▁dozen	-9.70755
▁bride	-9.70757
▁tracy	-9.70758
▁bobby	-9.70762
▁anchor	-9.70763
▁breeze	-9.70766
▁lightning	-9.70775
▁fairies	-9.7079
▁pair	-9.70809
▁noble	-9.70813
▁advantage	-9.70819
▁feast	-9.70822
▁david	-9.70843
▁setting	-9.70843
▁zoo	-9.70846
▁tries	-9.70849
▁route	-9.7085
▁bash	-9.70853
▁fourth	-9.70858
▁eagle	-9.7086
▁brush	-9.70864
▁halt	-9.70869
▁boots	-9.70916
▁neal	-9.70936
▁jen	-9.70957
▁style	-9.7099
f	-9.71098
▁treated	-9.71117
▁slowly	-9.71147
▁coughs	-9.71176
▁dearest	-9.71193
▁art	-9.71213
▁grant	-9.71226
filled	-9.71233
▁dressed	-9.71268
▁carefully	-9.71435
▁lifting	-9.71465
▁shades	-9.71468
▁pork	-9.71522
▁stealing	-9.7163
▁tool	-9.71841
▁electric	-9.71919
▁self	-9.72129
▁up	-9.72138
▁depends	-9.72141
▁lower	-9.7219
▁shooting	-9.72254
▁nurse	-9.72281
▁gods	-9.72431
▁caused	-9.7254
▁suspect	-9.72651
▁paint	-9.72695
▁mans	-9.72726
▁killing	-9.72763
▁breaking	-9.72881
▁guns	-9.72882
ald	-9.72941
ther	-9.73078
▁lived	-9.73151
▁cows	-9.73175
ton	-9.73476
▁fits	-9.73741
▁mar	-9.7375
▁pen	-9.73804
▁pieces	-9.73839
▁sub	-9.73855
▁headed	-9.73921
▁bow	-9.74093
▁bon	-9.74189
▁showed	-9.74294
▁winners	-9.74385
▁si	-9.74494
▁range	-9.7478
▁ships	-9.74803
▁ye	-9.75195
et	-9.75343
ules	-9.76034
▁beasts	-9.76288
▁lies	-9.7632
▁da	-9.76413
▁grace	-9.76462
and	-9.76474
▁steps	-9.76585
il	-9.76629
▁includ	-9.76976
ance	-9.77032
ted	-9.77076
▁feelings	-9.77133
na	-9.77247
▁remind	-9.77329
▁lay	-9.77403
▁yell	-9.77433
▁tradition	-9.77702
▁timmy	-9.77706
▁weekend	-9.77764
▁hippo	-9.77831
▁mortal	-9.77867
▁illusion	-9.7787
▁hearing	-9.7799
la	-9.77999
ical	-9.78048
▁dads	-9.78341
▁josh	-9.78357
▁worlds	-9.7849
▁answers	-9.78524
▁planes	-9.78545
▁discover	-9.78555
▁cab	-9.78556
▁assure	-9.78813
▁arrest	-9.78818
▁scare	-9.78889
▁recognize	-9.78893
▁decide	-9.79013
▁extreme	-9.79052
▁british	-9.79052
▁charlotte	-9.79052
▁fifth	-9.79052
▁melanchol	-9.79052
▁mercury	-9.79052
▁mermoz	-9.79052
▁rumbling	-9.79052
▁swirled	-9.79052
▁television	-9.79052
▁ocean	-9.79052
▁fernfield	-9.79052
▁folger	-9.79052
▁oska	-9.79052
▁ransom	-9.79052
▁hansen	-9.79052
▁unique	-9.79052
▁london	-9.79052
▁temperature	-9.79053
▁ahyuck	-9.79053
▁jeff	-9.79053
▁sleigh	-9.79053
▁parts	-9.79053
▁sipes	-9.79053
▁oscar	-9.79053
▁hyah	-9.79054
▁nowhere	-9.79054
▁ciao	-9.79054
▁thudding	-9.79054
▁carruthers	-9.79055
▁easier	-9.79055
▁ryan	-9.79055
▁kidnapped	-9.79056
▁barbara	-9.79058
▁louie	-9.79058
▁grandpa	-9.79059
▁duty	-9.79063
▁begun	-9.79064
▁page	-9.79066
▁thread	-9.79068
▁chiid	-9.79069
▁roof	-9.7907
▁solid	-9.79072
▁stakeout	-9.79072
▁possibly	-9.79075
▁joking	-9.79084
▁opportunity	-9.79084
▁kane	-9.79085
▁involved	-9.79095
▁began	-9.79103
▁gina	-9.79106
▁safety	-9.79122
▁powerful	-9.79126
▁cries	-9.79126
▁promotion	-9.79138
▁jaw	-9.7914
▁sunny	-9.79149
▁stopping	-9.7915
▁dadda	-9.79186
▁ceo	-9.79186
▁capable	-9.79187
ay	-9.79196
▁plain	-9.79208
▁factory	-9.79211
▁failed	-9.79216
▁tony	-9.79228
▁stolen	-9.79263
▁center	-9.79298
▁bored	-9.79357
▁branches	-9.79366
▁famili	-9.79373
▁emotional	-9.79376
▁created	-9.79379
▁weak	-9.79411
▁sighing	-9.79429
▁goose	-9.79434
ring	-9.79441
▁lips	-9.79485
▁worn	-9.795
▁allowed	-9.79501
▁served	-9.79542
▁gotten	-9.79544
▁loaded	-9.79566
▁challenger	-9.79585
▁sold	-9.79609
▁beep	-9.79778
▁realized	-9.79782
▁wire	-9.79819
▁degrees	-9.79965
▁iook	-9.80031
▁seeds	-9.80053
▁jet	-9.80183
▁pulled	-9.80232
▁christ	-9.80251
▁cares	-9.80338
ily	-9.8035
▁followed	-9.80424
▁foal	-9.80425
▁west	-9.80428
▁traveling	-9.80476
▁wowsers	-9.80503
▁drinking	-9.80736
▁wash	-9.8077
▁mix	-9.80888
▁where	-9.81004
▁thirsty	-9.81023
▁princey	-9.81169
▁roberts	-9.81246
▁players	-9.81322
▁begins	-9.81404
ious	-9.81449
▁toot	-9.81489
▁damage	-9.8159
▁chase	-9.81603
▁yay	-9.81616
▁model	-9.81652
▁practical	-9.81689
▁hug	-9.81813
de	-9.82073
ors	-9.82252
▁lied	-9.82402
▁clicks	-9.82608
▁sleeping	-9.8261
▁dreaming	-9.82867
▁someones	-9.83235
▁doors	-9.83246
▁counts	-9.83338
▁suspense	-9.83443
▁solve	-9.83632
▁washing	-9.83809
▁vi	-9.83932
▁mile	-9.84215
u	-9.84216
magne	-9.8476
▁dry	-9.84776
▁coin	-9.85094
▁wrap	-9.85331
nce	-9.85368
▁fab	-9.85491
board	-9.85599
▁there	-9.85624
▁rounds	-9.8573
thirsty	-9.86039
▁fur	-9.86043
▁bets	-9.86209
▁angel	-9.86348
▁root	-9.86567
never	-9.86578
▁jo	-9.86665
▁assistant	-9.86789
ody	-9.86797
▁gorilla	-9.8683
▁cookie	-9.86903
▁skill	-9.86907
co	-9.86948
▁cloud	-9.86952
▁tip	-9.86962
▁gil	-9.87099
▁action	-9.87241
berate	-9.87242
▁owner	-9.87242
gh	-9.87292
▁intend	-9.87296
▁ca	-9.87574
▁sneak	-9.8758
▁smash	-9.87688
▁receive	-9.87859
▁rocks	-9.87967
▁technical	-9.87992
mois	-9.88032
▁regular	-9.88076
▁noon	-9.88124
▁benevolence	-9.88143
▁column	-9.88143
▁donnybrook	-9.88143
▁jinnie	-9.88143
▁kumonga	-9.88143
▁sheriff	-9.88143
▁terrific	-9.88143
▁thorensen	-9.88143
▁achieve	-9.88143
▁written	-9.88143
▁license	-9.88143
▁furniture	-9.88143
▁upstairs	-9.88143
▁grazie	-9.88143
▁phew	-9.88143
▁jorma	-9.88144
▁lawyer	-9.88144
▁throbbing	-9.88144
▁courage	-9.88145
▁bradley	-9.88146
▁alert	-9.88146
▁church	-9.88146
▁lmpossible	-9.88147
▁dumpling	-9.88147
▁granny	-9.88147
▁target	-9.88147
▁freedom	-9.88147
▁seattle	-9.88147
▁motherinlaw	-9.88148
▁earlier	-9.88153
▁carnival	-9.88154
▁survival	-9.88154
▁terribly	-9.88154
▁mostly	-9.88154
▁christine	-9.88155
▁snap	-9.88157
▁grew	-9.88159
▁eventually	-9.88159
▁memory	-9.88159
▁barney	-9.8816
▁cheap	-9.8816
▁gentleman	-9.8816
▁tiger	-9.88162
▁glitches	-9.88162
▁bonnie	-9.88163
▁scary	-9.88164
▁swimming	-9.88164
▁spoil	-9.88167
▁static	-9.88169
▁square	-9.8817
▁matson	-9.88171
▁canoe	-9.88173
▁martin	-9.88179
▁injury	-9.88181
▁brock	-9.88186
▁universe	-9.88188
▁whalen	-9.88191
▁viciously	-9.88194
▁film	-9.88202
▁ernie	-9.88205
▁darkness	-9.88212
▁chasing	-9.88219
▁video	-9.88244
▁directly	-9.88245
▁original	-9.88254
▁vp	-9.88258
▁dating	-9.88265
▁wandering	-9.88272
▁becoming	-9.88276
▁carried	-9.88278
▁shape	-9.88278
▁poison	-9.88285
▁pikachu	-9.88286
▁pressure	-9.8829
▁heels	-9.88291
▁proof	-9.88294
▁impressed	-9.88306
▁clucking	-9.88317
▁nome	-9.88318
▁crops	-9.8832
▁defense	-9.88331
▁chest	-9.88335
away	-9.88335
▁whines	-9.88335
elle	-9.88342
▁funky	-9.88347
▁bully	-9.88357
▁bout	-9.88365
▁strict	-9.88401
▁concerned	-9.88428
▁giggles	-9.88437
▁piay	-9.88456
▁region	-9.88473
▁pants	-9.88507
▁dramatic	-9.88614
▁fe	-9.88665
▁killer	-9.88673
▁muscles	-9.88677
▁claim	-9.88716
▁oid	-9.88729
▁forced	-9.88742
▁honks	-9.88816
all	-9.88834
red	-9.88873
ck	-9.89032
▁uhuh	-9.89059
▁hoo	-9.89117
▁regents	-9.89138
▁riverhorses	-9.89149
▁gates	-9.89169
▁farmers	-9.89196
▁county	-9.89224
▁soldiers	-9.89266
▁crashing	-9.89272
▁stands	-9.89435
▁knocking	-9.89451
z	-9.8954
▁pole	-9.89556
▁walked	-9.89586
▁raccoons	-9.89615
▁offering	-9.89641
▁heresy	-9.89736
▁indians	-9.89873
▁sav	-9.8993
▁dot	-9.9007
▁ghosts	-9.90086
▁opened	-9.90363
▁slight	-9.90578
ever	-9.90582
▁walls	-9.9063
▁net	-9.9065
ul	-9.90708
▁refer	-9.9073
our	-9.90787
▁deed	-9.90797
▁knee	-9.90826
▁decisions	-9.91027
owwow	-9.91182
▁nation	-9.912
▁monkeys	-9.91257
son	-9.91511
▁attract	-9.91622
▁coat	-9.92018
▁bees	-9.92041
like	-9.92248
▁mighty	-9.92338
▁talked	-9.92361
▁spark	-9.92368
▁moves	-9.92929
▁sisters	-9.93283
▁ro	-9.93466
▁worrying	-9.93877
▁mel	-9.93964
▁wishing	-9.94033
▁cheer	-9.94183
▁legal	-9.94302
to	-9.94447
▁gen	-9.94506
▁fri	-9.94706
▁fore	-9.94773
▁anim	-9.94974
▁mud	-9.95108
ma	-9.95221
▁fl	-9.95328
▁mini	-9.95558
▁pi	-9.95582
ykes	-9.95608
▁sigh	-9.95905
▁bro	-9.96002
▁league	-9.96067
way	-9.96162
lon	-9.96298
book	-9.96435
▁itch	-9.96463
▁hoot	-9.96497
▁fo	-9.96508
▁audition	-9.96661
▁helped	-9.96672
▁insist	-9.96851
▁soldier	-9.96918
▁camera	-9.9697
▁shoulder	-9.97078
▁bang	-9.97162
▁height	-9.97171
▁cent	-9.97212
▁gain	-9.97223
▁minist	-9.97274
▁gate	-9.97328
▁foreign	-9.97577
▁passion	-9.97668
▁meal	-9.97709
▁cycl	-9.97742
▁stops	-9.97842
▁silk	-9.97855
eral	-9.97871
▁request	-9.97878
x	-9.97881
▁advance	-9.97894
▁capture	-9.97897
▁sink	-9.97949
▁obvious	-9.98024
▁actual	-9.9805
▁helen	-9.98061
▁roma	-9.98091
▁hospital	-9.98126
▁kinds	-9.98129
▁swing	-9.98134
▁alphabatical	-9.98143
▁ancient	-9.98143
▁assimilate	-9.98143
▁asterbilt	-9.98143
▁character	-9.98143
▁coiiins	-9.98143
▁entrance	-9.98143
▁footsteps	-9.98143
▁heechul	-9.98143
▁hepworth	-9.98143
▁holmsby	-9.98143
▁ingenious	-9.98143
▁mumbling	-9.98143
▁particular	-9.98143
▁phoenix	-9.98143
▁restaurant	-9.98143
▁rupees	-9.98143
▁saturday	-9.98143
▁shakespeare	-9.98143
▁suicune	-9.98143
▁therefore	-9.98143
▁uncomfortable	-9.98143
▁grief	-9.98143
▁jeanette	-9.98143
▁ribbit	-9.98143
▁wisdom	-9.98143
▁imperial	-9.98143
▁meadow	-9.98143
▁spanish	-9.98143
▁chinese	-9.98143
▁stemming	-9.98143
▁necklace	-9.98143
▁interview	-9.98143
▁patience	-9.98144
▁adorable	-9.98144
▁definiteiy	-9.98144
▁western	-9.98144
▁gaskill	-9.98144
▁interference	-9.98145
▁agency	-9.98145
▁government	-9.98145
▁honour	-9.98145
▁freak	-9.98145
▁martha	-9.98147
▁delicious	-9.98147
▁salad	-9.98148
▁aggie	-9.98149
▁sobbing	-9.98149
▁sheikh	-9.98154
▁governor	-9.98154
▁fatso	-9.98154
▁suspicious	-9.98155
▁cattle	-9.98156
▁subtitle	-9.98156
▁fowler	-9.98157
▁gorgeous	-9.98157
▁ceremony	-9.98157
▁skyship	-9.98158
▁understood	-9.98158
▁nearby	-9.98159
▁expensive	-9.98162
▁pinchcliffe	-9.98169
▁false	-9.9817
▁property	-9.9817
▁grass	-9.98173
▁schooi	-9.98174
▁luke	-9.98174
▁steam	-9.98176
▁whatre	-9.98177
▁wrapped	-9.98177
▁lodge	-9.98179
▁collection	-9.9818
▁luc	-9.9818
▁diana	-9.98183
▁chair	-9.98186
▁freeze	-9.98187
▁kang	-9.98188
▁tingle	-9.98188
▁nope	-9.9819
▁starving	-9.98199
▁pr	-9.98201
▁zion	-9.98207
▁squad	-9.98207
▁cabin	-9.98209
▁spunn	-9.98209
▁rumbles	-9.98221
▁june	-9.98227
▁halfway	-9.98236
▁objection	-9.98244
▁supper	-9.98245
▁willing	-9.98246
▁greek	-9.98252
▁connection	-9.98266
ick	-9.98269
▁walter	-9.98289
▁chocolate	-9.98297
▁lemon	-9.98317
▁flame	-9.98319
▁faint	-9.98344
▁chipmunks	-9.98348
▁ancestors	-9.98348
▁sunday	-9.98348
▁romantic	-9.98356
▁gentle	-9.98371
▁grip	-9.9838
▁useless	-9.98417
▁miii	-9.9845
▁entirely	-9.98468
▁competitors	-9.98476
▁hooting	-9.98477
▁aware	-9.98525
▁bone	-9.98532
▁personally	-9.98551
qui	-9.98559
▁eaten	-9.9856
▁oughta	-9.98581
▁goblins	-9.98605
▁squeals	-9.98641
▁oof	-9.98642
▁seriously	-9.98659
▁tipp	-9.98674
▁compare	-9.98679
▁warned	-9.98722
he	-9.98739
▁quietly	-9.98797
▁normal	-9.98815
▁cops	-9.98835
▁mis	-9.98894
▁recorded	-9.98963
▁howdy	-9.9897
▁shore	-9.98977
▁grades	-9.98986
▁leprechauns	-9.98999
▁details	-9.99003
▁searching	-9.99023
▁exams	-9.9904
▁clearly	-9.9906
▁eggs	-9.99234
▁sugar	-9.99256
▁fishing	-9.99272
▁papers	-9.99334
▁replace	-9.99346
▁bah	-9.99444
▁nest	-9.99466
▁float	-9.99557
v	-9.99567
▁knowledge	-9.99593
▁hippos	-9.99644
▁min	-9.99693
▁mere	-9.99731
▁bike	-9.99743
▁trainer	-9.99744
▁diamonds	-9.9978
ta	-9.99801
ap	-9.99812
king	-9.99818
ra	-9.99845
▁host	-9.999
▁prime	-9.99963
end	-10.0001
▁image	-10.0015
ah	-10.0025
▁chickens	-10.003
▁closed	-10.0032
▁notes	-10.0046
▁plants	-10.005
▁uno	-10.0064
▁tickets	-10.0069
▁drivers	-10.0076
▁breathe	-10.0089
▁picking	-10.009
▁staff	-10.0093
▁ze	-10.0097
▁reserve	-10.0098
ized	-10.0111
ish	-10.0125
▁groov	-10.0135
▁wet	-10.0167
▁ends	-10.0168
▁panic	-10.0183
▁severa	-10.0195
ze	-10.0197
▁ci	-10.0218
▁machines	-10.0291
▁all	-10.031
ile	-10.0316
▁ropes	-10.0316
ome	-10.0337
bell	-10.0337
ice	-10.0351
▁con	-10.0375
▁matters	-10.0391
▁hea	-10.04
▁ch	-10.0437
▁cock	-10.0453
oo	-10.0471
com	-10.0478
▁tr	-10.0487
▁concentrate	-10.0502
ise	-10.0505
▁latte	-10.0525
amas	-10.0529
▁banks	-10.0571
ster	-10.0586
▁wa	-10.0614
eat	-10.0622
by	-10.0629
is	-10.0677
tock	-10.0678
▁showing	-10.068
▁bark	-10.0695
▁earl	-10.0701
▁hunt	-10.072
▁guarantee	-10.0747
▁gasp	-10.0759
▁rot	-10.077
▁exist	-10.0775
▁nightmare	-10.0777
▁vehicle	-10.0777
▁official	-10.0778
▁fence	-10.0786
tary	-10.079
▁incident	-10.0791
▁sultan	-10.0794
▁current	-10.0794
▁device	-10.0797
▁title	-10.0797
▁riverhorse	-10.0803
lle	-10.0804
▁degree	-10.0804
▁regent	-10.0805
▁egg	-10.0805
▁farmer	-10.0829
▁distribute	-10.0833
▁reporter	-10.0844
▁scene	-10.0848
▁rent	-10.0851
▁color	-10.0864
▁blast	-10.0868
▁direct	-10.0868
▁quack	-10.0883
▁fifty	-10.0885
▁balloon	-10.0887
▁drown	-10.0892
ered	-10.0892
▁represent	-10.0893
▁waters	-10.09
▁limit	-10.09
▁curse	-10.0901
▁wave	-10.0912
▁don	-10.0914
▁mmhm	-10.092
back	-10.0922
▁movin	-10.0924
▁cruel	-10.0925
▁blossom	-10.0925
▁california	-10.0925
▁commentator	-10.0925
▁enemy	-10.0925
▁expedition	-10.0925
▁ferdinand	-10.0925
▁gibbers	-10.0925
▁grateful	-10.0925
▁milkweed	-10.0925
▁nonfat	-10.0925
▁phillips	-10.0925
▁poirier	-10.0925
▁pretzi	-10.0925
▁rhyme	-10.0925
▁shrieks	-10.0925
▁stomach	-10.0925
▁sylvia	-10.0925
▁uberta	-10.0925
▁whinnies	-10.0925
▁sydney	-10.0925
▁macante	-10.0925
▁specimen	-10.0925
▁peopie	-10.0925
▁stammering	-10.0925
▁terrance	-10.0925
▁brief	-10.0925
▁avoid	-10.0925
▁ashamed	-10.0926
▁carriage	-10.0926
▁squadron	-10.0926
▁expelled	-10.0926
▁combination	-10.0926
▁distant	-10.0926
▁medicine	-10.0926
▁jimmy	-10.0926
▁falkor	-10.0926
▁autograph	-10.0926
▁maximum	-10.0926
▁available	-10.0926
▁thump	-10.0926
▁invisible	-10.0926
▁species	-10.0926
▁butterfly	-10.0926
▁supplies	-10.0926
▁flicky	-10.0926
▁lionel	-10.0926
▁rooster	-10.0926
▁clapping	-10.0926
▁wrote	-10.0926
▁succeed	-10.0926
▁argument	-10.0926
▁professional	-10.0926
▁unhappy	-10.0926
▁hummingbird	-10.0927
▁stiff	-10.0927
▁vision	-10.0927
▁stepmother	-10.0927
▁territory	-10.0927
▁housekeeper	-10.0927
▁snowball	-10.0927
▁curious	-10.0927
▁narrow	-10.0927
▁drunk	-10.0927
▁whoohoo	-10.0928
▁operator	-10.0928
▁frost	-10.0929
▁soap	-10.0929
▁hiya	-10.0929
▁publicity	-10.0929
▁luti	-10.093
▁rush	-10.093
▁gently	-10.093
▁pride	-10.0931
▁misty	-10.0931
▁arno	-10.0931
▁colony	-10.0931
▁silent	-10.0931
▁tasty	-10.0931
▁slap	-10.0932
▁ruby	-10.0932
▁scoffs	-10.0934
▁buzzer	-10.0934
▁nono	-10.0935
▁aside	-10.0935
▁dough	-10.0936
▁establish	-10.0936
▁flock	-10.0936
▁shushing	-10.0938
▁helena	-10.0939
▁believing	-10.0939
▁escort	-10.094
▁balance	-10.094
▁produce	-10.0941
▁clattering	-10.0942
▁pleased	-10.0942
▁sorcerer	-10.0942
▁fortune	-10.0943
▁popular	-10.0943
▁convinced	-10.0943
▁mutt	-10.0945
▁homework	-10.0946
▁harry	-10.0946
▁dirty	-10.0946
▁fox	-10.0946
▁tow	-10.0946
▁freeman	-10.0947
▁hush	-10.095
▁bull	-10.0952
▁reality	-10.0955
▁chances	-10.0957
▁pace	-10.0958
▁developing	-10.0958
▁crush	-10.0959
▁chased	-10.0959
▁tribes	-10.0965
▁deeper	-10.0967
▁ruined	-10.0968
erary	-10.0968
▁bread	-10.097
▁element	-10.0975
▁upper	-10.0978
▁insects	-10.0978
▁load	-10.0979
uine	-10.0981
▁held	-10.0985
▁signor	-10.0986
▁commander	-10.0986
▁sweep	-10.0986
▁voices	-10.0987
▁junk	-10.0988
▁slam	-10.0989
▁mentioned	-10.0997
▁conduct	-10.1
▁confident	-10.1
▁va	-10.1002
▁cy	-10.1005
▁packed	-10.1008
▁considered	-10.1009
▁spill	-10.1009
▁cheating	-10.1016
▁knocked	-10.1017
▁breathing	-10.1018
▁joint	-10.1018
▁yards	-10.1021
▁fail	-10.1023
▁nerve	-10.1027
▁safely	-10.103
▁fixed	-10.1031
▁cowboys	-10.1036
▁beck	-10.104
▁gum	-10.1042
ho	-10.1043
▁touched	-10.1046
ual	-10.1048
▁expected	-10.1048
▁studying	-10.1062
▁stake	-10.1072
▁crows	-10.1073
ame	-10.1073
▁flow	-10.1074
▁trained	-10.1077
▁units	-10.1078
▁landed	-10.1081
▁sneeze	-10.1082
▁tax	-10.1103
▁victims	-10.1109
▁conversations	-10.111
ber	-10.111
▁nap	-10.111
▁bones	-10.1117
▁los	-10.1126
▁sta	-10.1129
▁che	-10.1129
▁toys	-10.1147
▁saints	-10.1156
▁older	-10.1173
▁closes	-10.1179
▁kindly	-10.1182
▁liked	-10.1191
it	-10.1193
▁dreamed	-10.1206
▁sleepy	-10.1209
▁landing	-10.1216
▁hum	-10.123
▁van	-10.1259
▁wished	-10.1279
ied	-10.128
▁aim	-10.1281
▁fame	-10.1281
▁du	-10.1289
▁faults	-10.1299
ister	-10.1315
▁moved	-10.1326
▁knot	-10.1331
▁bags	-10.1344
▁positions	-10.1358
▁kite	-10.1362
▁leer	-10.137
▁fields	-10.1382
mber	-10.1405
▁records	-10.1412
▁operations	-10.1413
▁site	-10.1473
ri	-10.1491
▁mi	-10.1533
hold	-10.154
▁handy	-10.1553
addin	-10.1561
▁judges	-10.1563
▁sin	-10.1565
▁believed	-10.1578
rightfully	-10.1594
▁drinks	-10.1598
ward	-10.1598
▁troubles	-10.1599
▁teams	-10.1611
▁daughters	-10.1624
▁su	-10.1636
ny	-10.1649
▁cure	-10.1662
▁secrets	-10.1667
slick	-10.1674
▁pete	-10.169
ether	-10.1695
be	-10.1708
os	-10.1727
▁lab	-10.1728
▁songs	-10.1764
▁bri	-10.177
▁despi	-10.1779
ong	-10.1782
nis	-10.1796
ezvous	-10.1807
caf	-10.182
▁bu	-10.184
▁bells	-10.1851
▁seal	-10.1872
down	-10.1892
▁mus	-10.1918
▁witness	-10.1918
charlie	-10.1924
▁eliminate	-10.1931
▁stu	-10.1933
▁wha	-10.1937
▁pre	-10.1975
ture	-10.1995
hood	-10.2003
▁arrive	-10.2004
anche	-10.2005
▁sponsor	-10.2011
em	-10.2011
▁reward	-10.2012
ro	-10.2018
▁solution	-10.2025
▁disaster	-10.2026
▁blockhead	-10.2027
▁pumpkin	-10.2027
▁quarter	-10.2034
▁towel	-10.2037
looking	-10.2037
▁chimpanzee	-10.2046
▁roger	-10.2048
▁pipe	-10.2049
▁cowboy	-10.2053
▁sometime	-10.2054
▁weigh	-10.206
▁prisoner	-10.2064
▁shade	-10.2069
▁devil	-10.2074
off	-10.2077
▁led	-10.208
▁changes	-10.2109
▁wel	-10.2122
▁ooo	-10.213
▁broadcast	-10.2131
▁pri	-10.2137
▁puts	-10.2141
▁oni	-10.2148
▁punish	-10.215
▁require	-10.215
▁disappear	-10.2152
▁dirt	-10.2154
▁invite	-10.2154
▁pink	-10.2158
▁physical	-10.2162
▁fuss	-10.2162
▁thrill	-10.2162
believ	-10.2164
▁awake	-10.2164
▁marvel	-10.2168
▁puddin	-10.217
▁whi	-10.217
▁drama	-10.2171
▁basic	-10.2175
▁birth	-10.2175
▁ambrose	-10.2175
▁anderson	-10.2175
▁benjamin	-10.2175
▁berklee	-10.2175
▁bishop	-10.2175
▁buongiorno	-10.2175
▁celsius	-10.2175
▁chariot	-10.2175
▁citizen	-10.2175
▁cratchit	-10.2175
▁ebeneezer	-10.2175
▁enemies	-10.2175
▁fuzzy	-10.2175
▁innocence	-10.2175
▁innocent	-10.2175
▁instinct	-10.2175
▁lawgiver	-10.2175
▁length	-10.2175
▁olympus	-10.2175
▁rudolph	-10.2175
▁sacrifice	-10.2175
▁unnecessary	-10.2175
▁belladonna	-10.2175
▁bonanza	-10.2175
▁embrace	-10.2175
▁negative	-10.2175
▁responsible	-10.2175
▁stubborn	-10.2175
▁tunnel	-10.2175
▁yawning	-10.2175
▁zhl	-10.2175
▁barnsworth	-10.2175
▁loudspeaker	-10.2175
▁reckon	-10.2175
▁stoutheart	-10.2175
▁transmission	-10.2175
▁anxious	-10.2175
▁circuit	-10.2175
▁senior	-10.2175
▁modern	-10.2175
▁pluto	-10.2175
▁terrain	-10.2175
▁hockey	-10.2175
▁favourite	-10.2175
▁sandwich	-10.2175
▁presence	-10.2176
▁chiidren	-10.2176
▁shiva	-10.2176
▁surgery	-10.2176
▁instructions	-10.2176
▁importance	-10.2176
▁opposite	-10.2176
▁underground	-10.2176
▁francis	-10.2176
▁carlton	-10.2176
▁picnic	-10.2176
▁susie	-10.2176
▁cliff	-10.2176
▁financial	-10.2176
▁someplace	-10.2176
▁swiss	-10.2176
▁community	-10.2176
▁pollination	-10.2176
▁thanksgiving	-10.2176
▁clarise	-10.2176
▁echo	-10.2176
▁gravity	-10.2176
▁kenny	-10.2176
▁shelter	-10.2176
▁justice	-10.2177
▁tootall	-10.2177
▁happily	-10.2177
▁tap	-10.2177
▁punishment	-10.2177
▁petersen	-10.2177
▁crumply	-10.2177
▁colour	-10.2177
▁thorn	-10.2177
▁freezing	-10.2177
▁admiral	-10.2177
▁chanting	-10.2178
▁trash	-10.2178
▁bedroom	-10.2178
▁beneath	-10.2178
▁judo	-10.2178
▁campus	-10.2178
▁jamal	-10.2179
▁whoever	-10.2179
▁miserable	-10.2179
▁hahaha	-10.2179
▁impression	-10.2179
▁witch	-10.2179
▁surprising	-10.218
▁strategy	-10.218
▁thirty	-10.2182
▁bleeding	-10.2182
▁invent	-10.2182
▁coast	-10.2183
▁bern	-10.2183
▁guilty	-10.2184
▁expand	-10.2184
▁whobble	-10.2184
▁collar	-10.2184
▁marvelous	-10.2185
▁pump	-10.2185
▁millie	-10.2185
▁randy	-10.2185
▁cutting	-10.2186
▁sharing	-10.2186
▁delighted	-10.2187
▁merely	-10.2187
▁changing	-10.2187
▁issue	-10.2187
▁perform	-10.2187
▁manpowered	-10.2188
▁laser	-10.2188
▁register	-10.2189
▁reno	-10.219
▁theory	-10.219
▁disappointed	-10.2191
▁funk	-10.2192
▁valuable	-10.2192
▁lazy	-10.2192
▁alley	-10.2193
▁arranged	-10.2194
▁gathered	-10.2194
▁when	-10.2195
▁deposit	-10.2195
▁bodies	-10.2196
▁louder	-10.2197
▁unlike	-10.2197
▁gear	-10.2197
▁angeles	-10.2197
▁frighten	-10.2198
▁motion	-10.22
▁screen	-10.22
▁baker	-10.22
▁brakes	-10.2201
▁fireworks	-10.2202
▁naturally	-10.2205
▁frankly	-10.2205
▁breed	-10.2205
▁cracking	-10.2206
▁wipe	-10.2206
▁produced	-10.2207
▁advanced	-10.2207
▁dancer	-10.2207
▁lucy	-10.2209
▁arrested	-10.2212
▁amuse	-10.2213
▁whooping	-10.2217
▁crowing	-10.2218
▁landon	-10.222
▁parade	-10.2222
▁fallen	-10.2222
▁beans	-10.2226
▁howl	-10.2227
▁ja	-10.2227
▁skies	-10.2228
▁beeping	-10.2229
▁slave	-10.2234
▁mount	-10.2234
▁completed	-10.2236
▁manson	-10.224
▁glasses	-10.2241
▁wr	-10.2242
▁mood	-10.2243
▁toes	-10.2243
▁destroyed	-10.2244
▁marching	-10.2245
▁schedule	-10.2247
▁delivered	-10.2252
▁noticed	-10.2255
repe	-10.2256
▁letting	-10.226
▁shock	-10.2265
▁deadly	-10.2275
▁plates	-10.2275
▁coal	-10.2279
through	-10.2281
▁covered	-10.2282
▁wunkos	-10.2285
▁joe	-10.2296
▁lightest	-10.2296
▁drawing	-10.2301
▁brand	-10.2305
▁print	-10.2308
ations	-10.2309
▁armed	-10.2309
▁nana	-10.2311
ibul	-10.2326
▁hog	-10.2335
▁frightful	-10.2341
▁lion	-10.2342
▁minds	-10.2345
▁scent	-10.2354
▁ruler	-10.2355
▁yells	-10.2372
▁pilots	-10.2385
▁servants	-10.2385
▁non	-10.2385
▁kidnap	-10.2388
▁moral	-10.239
▁designs	-10.2393
▁shy	-10.2397
▁joining	-10.2398
▁signed	-10.241
▁enjoying	-10.2413
▁saxons	-10.2418
▁expecting	-10.2424
▁den	-10.2432
▁rocky	-10.2454
▁ln	-10.246
▁bombs	-10.2467
rattling	-10.2467
▁ol	-10.2477
▁ease	-10.2479
ial	-10.2505
ide	-10.2506
▁danced	-10.2507
▁sew	-10.2515
bit	-10.2521
▁concept	-10.2523
▁hook	-10.2525
▁gifts	-10.2534
▁buck	-10.2543
▁meter	-10.256
▁ducks	-10.2561
▁mam	-10.257
foot	-10.2578
very	-10.2578
▁horns	-10.2591
▁windows	-10.2604
▁oo	-10.2622
▁chain	-10.263
▁pine	-10.2638
▁ware	-10.2647
ue	-10.2649
▁hall	-10.2653
do	-10.2654
▁source	-10.2664
▁ri	-10.2664
ian	-10.2671
▁paying	-10.268
▁pictures	-10.2686
▁cor	-10.2694
▁tomorrows	-10.2708
▁mistakes	-10.271
▁trace	-10.2712
▁creak	-10.2719
▁ge	-10.2729
▁gr	-10.2729
▁bail	-10.2734
▁upb	-10.2745
▁kangaroos	-10.2753
▁san	-10.2756
▁jobs	-10.2762
▁tag	-10.2771
▁perse	-10.2785
▁stayed	-10.2789
pped	-10.279
▁thoughts	-10.2807
▁oblig	-10.2822
▁tear	-10.2826
▁to	-10.2833
▁mid	-10.284
ha	-10.2844
you	-10.2849
▁for	-10.2877
▁jacks	-10.2884
▁grave	-10.2928
▁whoop	-10.2935
▁hopes	-10.2939
ill	-10.295
▁bears	-10.296
ery	-10.2975
▁fir	-10.2978
▁exam	-10.2982
ur	-10.2988
▁err	-10.2989
▁pro	-10.3016
▁on	-10.303
▁sis	-10.3062
▁very	-10.307
▁grav	-10.3094
▁unite	-10.3111
head	-10.3127
▁hid	-10.3148
▁whip	-10.3152
▁me	-10.3163
▁pul	-10.3166
▁fle	-10.3173
▁hol	-10.3189
▁cu	-10.3199
▁an	-10.3204
▁mental	-10.3217
▁dang	-10.3221
▁muc	-10.3245
▁skip	-10.3248
▁acts	-10.326
piece	-10.3263
▁but	-10.3276
icked	-10.3282
▁hike	-10.3302
▁gu	-10.3304
▁link	-10.3306
ware	-10.3311
made	-10.3333
▁rang	-10.3336
▁unto	-10.338
foal	-10.3387
▁po	-10.3392
▁buzz	-10.3402
▁drag	-10.3403
handed	-10.3404
▁wast	-10.3411
▁scream	-10.3434
▁feather	-10.3437
▁sum	-10.3439
▁detail	-10.3454
▁orchid	-10.3454
▁communication	-10.3455
▁tur	-10.3458
▁gi	-10.3461
▁yuck	-10.3463
▁trial	-10.3463
▁trunk	-10.3468
▁skate	-10.3471
▁artist	-10.3471
▁trail	-10.3471
▁technique	-10.3472
▁material	-10.3472
▁exclaim	-10.3472
▁product	-10.3472
uel	-10.3475
▁adult	-10.3475
▁vitamin	-10.3478
▁guidebook	-10.3479
▁wunko	-10.3479
▁leprechaun	-10.348
▁sw	-10.3481
▁student	-10.3482
▁shadow	-10.3483
▁photo	-10.3485
▁grade	-10.3486
am	-10.3501
▁tune	-10.3502
▁fade	-10.3503
▁ending	-10.3503
▁glove	-10.3507
field	-10.3512
▁scratch	-10.3513
▁odd	-10.3527
ology	-10.3532
▁develop	-10.3533
▁ar	-10.3536
▁approach	-10.3563
▁rating	-10.3567
▁comfort	-10.357
▁clam	-10.3571
▁jealous	-10.3573
▁brook	-10.3576
▁trade	-10.3577
▁carrie	-10.3579
▁potato	-10.359
▁permanent	-10.359
▁sweat	-10.3591
▁desperate	-10.3591
▁absolute	-10.3592
▁rapid	-10.3593
▁assume	-10.3597
▁gather	-10.3598
▁progress	-10.3601
▁percent	-10.3603
ated	-10.3603
▁almighty	-10.3604
▁appropriate	-10.3604
▁britewell	-10.3604
▁colorado	-10.3604
▁commercial	-10.3604
▁courtmartial	-10.3604
▁desperados	-10.3604
▁espresso	-10.3604
▁hawaii	-10.3604
▁inherit	-10.3604
▁intelligent	-10.3604
▁jennifer	-10.3604
▁magazine	-10.3604
▁matsumiya	-10.3604
▁mexico	-10.3604
▁minerva	-10.3604
▁monitor	-10.3604
▁nemesis	-10.3604
▁rendezvous	-10.3604
▁ribbon	-10.3604
▁saeko	-10.3604
▁sakurai	-10.3604
▁scientist	-10.3604
▁shatterpated	-10.3604
▁splendid	-10.3604
▁voyage	-10.3604
▁warrender	-10.3604
▁brenda	-10.3604
▁advice	-10.3604
▁outfit	-10.3604
▁fuji	-10.3604
▁paradise	-10.3604
▁hmph	-10.3604
▁kurds	-10.3604
▁olaf	-10.3604
▁utah	-10.3604
▁insurance	-10.3604
▁downtown	-10.3604
▁arriving	-10.3604
▁japanese	-10.3604
▁routine	-10.3604
▁fabulous	-10.3604
▁moaning	-10.3604
▁creek	-10.3604
▁conference	-10.3604
▁kraus	-10.3604
▁granddaddy	-10.3604
▁tongue	-10.3604
▁jensen	-10.3604
▁plastic	-10.3604
▁elmer	-10.3604
▁warehouse	-10.3604
▁squawking	-10.3604
▁almond	-10.3604
▁buried	-10.3604
▁rewind	-10.3604
▁granger	-10.3604
▁centuries	-10.3604
▁remarkable	-10.3605
▁hobby	-10.3605
▁caliba	-10.3605
▁singsong	-10.3605
▁anabelle	-10.3605
▁resort	-10.3605
▁gym	-10.3605
▁bottle	-10.3605
▁dipsy	-10.3605
▁chicago	-10.3605
▁extraordinary	-10.3605
▁vote	-10.3605
▁aruna	-10.3605
▁process	-10.3605
while	-10.3605
▁speech	-10.3605
▁authority	-10.3605
▁industries	-10.3605
▁blew	-10.3605
▁attic	-10.3605
▁development	-10.3605
▁accent	-10.3606
▁allowance	-10.3606
▁creative	-10.3606
▁toast	-10.3606
▁frame	-10.3606
▁riley	-10.3607
▁crackling	-10.3607
▁descent	-10.3607
▁popping	-10.3607
▁imagination	-10.3607
▁spaceship	-10.3607
▁challenging	-10.3607
▁fascinating	-10.3608
▁herman	-10.3608
▁girlfriend	-10.3608
▁tattered	-10.3608
▁item	-10.3608
▁juice	-10.3608
▁mutters	-10.3608
▁finch	-10.3609
▁abilities	-10.3611
▁blog	-10.3612
▁gar	-10.3612
▁secretary	-10.3612
▁wailing	-10.3612
▁accused	-10.3613
▁committee	-10.3613
▁andes	-10.3613
▁trailer	-10.3613
▁cricket	-10.3613
▁whew	-10.3613
▁storyland	-10.3614
▁mumbles	-10.3616
▁bleating	-10.3616
▁whatll	-10.3616
▁shifty	-10.3617
▁sketches	-10.3618
▁respond	-10.3618
▁minor	-10.3618
▁barker	-10.362
▁sailor	-10.3621
▁argue	-10.3621
▁social	-10.3622
▁patrol	-10.3622
▁ewe	-10.3622
▁skipper	-10.3623
▁patch	-10.3624
▁switzerland	-10.3625
▁research	-10.3626
▁knife	-10.3626
ardo	-10.3627
▁studies	-10.3627
▁navy	-10.3629
▁mild	-10.3629
▁torture	-10.3629
▁buddys	-10.363
▁emotions	-10.3633
▁latin	-10.3633
▁blokes	-10.3634
▁ate	-10.3635
▁itchy	-10.3635
▁parties	-10.3636
▁palm	-10.3637
▁takeoff	-10.3637
▁properly	-10.3638
▁reid	-10.364
▁posted	-10.3641
▁mixed	-10.3642
▁sitter	-10.3642
▁boxes	-10.3643
▁apply	-10.3643
▁barky	-10.3646
▁gulps	-10.3646
▁hound	-10.3648
▁assured	-10.3648
▁amen	-10.3648
▁text	-10.3648
▁paws	-10.3649
▁somethings	-10.3649
▁dusty	-10.3651
▁bold	-10.3652
▁affairs	-10.3654
▁bandit	-10.3654
▁footprints	-10.3654
▁litter	-10.3655
▁released	-10.3656
▁factor	-10.3656
▁banging	-10.3656
▁ei	-10.3656
▁yard	-10.3661
▁flood	-10.3661
▁beaten	-10.3661
▁cargo	-10.3663
▁goodnight	-10.3667
▁vital	-10.3672
▁intentions	-10.3673
▁monarchs	-10.3673
▁metal	-10.3675
▁prepared	-10.3675
▁jami	-10.3677
▁roam	-10.3678
▁irene	-10.3681
▁hiding	-10.3682
▁outdoors	-10.3683
▁cells	-10.3685
▁pays	-10.3685
iitti	-10.3692
▁chips	-10.3698
▁lifetime	-10.3699
▁bugs	-10.37
▁owns	-10.3704
▁newman	-10.3705
▁dariing	-10.3706
▁secure	-10.3706
▁boxer	-10.3708
▁crashed	-10.3709
▁lair	-10.371
▁wasted	-10.371
▁sang	-10.3711
▁liar	-10.3713
nic	-10.3716
▁based	-10.372
ipped	-10.3725
▁vitamins	-10.3731
▁guidebooks	-10.3731
▁fold	-10.3733
house	-10.3734
▁devils	-10.3748
▁tor	-10.375
▁pushing	-10.3751
▁maid	-10.3754
▁prisoners	-10.3756
▁closely	-10.3757
▁prey	-10.3758
▁colors	-10.3759
▁cooking	-10.3759
▁eman	-10.3762
but	-10.3775
▁equal	-10.3784
▁soc	-10.3787
▁admire	-10.3787
▁cents	-10.3792
▁skiing	-10.3793
▁shoulders	-10.3797
▁why	-10.3797
▁testing	-10.3798
▁fierce	-10.3806
▁meow	-10.3806
▁naps	-10.3819
▁laid	-10.3823
▁moo	-10.3824
▁mortals	-10.3828
▁reached	-10.383
▁stranger	-10.3835
▁jokes	-10.3838
ver	-10.3838
▁carl	-10.3839
▁signals	-10.3844
▁explosions	-10.3848
▁weapons	-10.3848
iling	-10.3853
▁fights	-10.3857
▁dong	-10.3857
▁costs	-10.3884
▁neat	-10.3884
▁reporting	-10.3886
▁siva	-10.3889
▁sch	-10.3892
bble	-10.3892
▁waitin	-10.3898
▁butter	-10.3909
▁acid	-10.391
awfully	-10.3911
▁nu	-10.3918
▁rolling	-10.392
▁partners	-10.3924
▁ant	-10.3949
▁row	-10.3953
▁ended	-10.3953
ping	-10.3965
▁lessons	-10.3972
▁dodge	-10.3982
▁loan	-10.3985
▁loss	-10.3987
▁reaching	-10.3991
▁propose	-10.3995
▁badly	-10.4
▁rooms	-10.4014
▁tellin	-10.4022
▁adopt	-10.4022
▁apples	-10.403
ior	-10.4031
▁mor	-10.4033
▁include	-10.4037
▁bites	-10.405
otten	-10.4061
▁barrys	-10.4073
ttie	-10.4078
▁mass	-10.4103
ia	-10.4108
▁nicer	-10.4111
▁tables	-10.4116
▁bray	-10.4117
▁wheels	-10.4118
▁ass	-10.4127
▁terror	-10.4128
▁wore	-10.413
▁letters	-10.4141
▁checking	-10.4154
▁catching	-10.4176
▁wand	-10.4208
▁hoped	-10.4215
▁we	-10.4217
▁gaw	-10.4225
▁laws	-10.4225
cups	-10.4226
▁listened	-10.4231
▁separate	-10.4247
ge	-10.426
▁dame	-10.4266
▁drops	-10.4282
▁streets	-10.4289
▁engines	-10.4293
day	-10.4296
▁cart	-10.4323
▁grounds	-10.4348
▁spirits	-10.4356
ess	-10.4377
▁ditch	-10.4387
▁hundreds	-10.4392
▁she	-10.4394
▁crunch	-10.4401
side	-10.4413
▁reports	-10.4435
▁cath	-10.4463
shed	-10.453
ood	-10.454
▁tone	-10.4554
▁lifes	-10.4556
▁slo	-10.4561
mmy	-10.4567
lo	-10.4567
▁trains	-10.458
▁yea	-10.4582
ell	-10.4597
ld	-10.4617
master	-10.4633
▁hic	-10.4649
▁facts	-10.4667
ched	-10.467
▁canter	-10.467
▁convention	-10.4706
▁spare	-10.472
for	-10.4721
▁whoops	-10.4726
▁drives	-10.4733
▁misunderstand	-10.4734
▁trap	-10.4745
▁br	-10.4757
ept	-10.4766
owning	-10.4778
gue	-10.4807
▁charm	-10.4829
les	-10.4832
boy	-10.4854
▁cos	-10.486
▁abdu	-10.4864
▁loses	-10.4876
▁shin	-10.4877
▁reasons	-10.4884
work	-10.4904
▁seek	-10.4904
▁log	-10.4936
▁phil	-10.4937
dog	-10.4958
room	-10.498
▁ste	-10.5002
▁forests	-10.5026
▁mc	-10.5028
▁sari	-10.504
▁ohhh	-10.5045
knowledge	-10.5067
yard	-10.5076
kins	-10.5083
cy	-10.5086
ition	-10.5089
ot	-10.5093
pe	-10.5101
▁regard	-10.5105
▁not	-10.511
▁varmint	-10.5121
▁slope	-10.5125
▁invitation	-10.5125
▁bucket	-10.5125
▁contestant	-10.5127
▁uniform	-10.5132
▁sheepdog	-10.5135
▁honk	-10.5142
▁instructor	-10.5142
▁neighbor	-10.5143
bel	-10.5155
ninth	-10.5162
▁clown	-10.5165
▁demon	-10.5167
aval	-10.5182
gel	-10.519
▁points	-10.5192
▁pool	-10.5201
▁plate	-10.5206
▁dan	-10.5214
▁bug	-10.5217
▁sore	-10.5224
light	-10.5224
▁brad	-10.5226
▁shiver	-10.523
▁praise	-10.5243
▁arrange	-10.5244
▁abolish	-10.5244
▁reveal	-10.5245
▁volunteer	-10.5245
▁camp	-10.5247
▁restore	-10.5249
▁borrow	-10.525
▁twist	-10.5254
▁urgent	-10.5256
▁tomato	-10.5256
▁screw	-10.5256
scope	-10.5257
vy	-10.5258
▁unfortunate	-10.5259
▁chose	-10.5262
talian	-10.5264
▁instrument	-10.5265
▁exhibit	-10.5268
▁automatic	-10.5269
▁triumph	-10.5269
▁recommend	-10.5269
▁appetite	-10.5271
▁athletes	-10.5271
▁australia	-10.5271
▁cackling	-10.5271
▁cheetah	-10.5271
▁congratulate	-10.5271
▁covington	-10.5271
▁custody	-10.5271
▁dessert	-10.5271
▁discipline	-10.5271
▁disguise	-10.5271
▁divorce	-10.5271
▁dulcey	-10.5271
▁exhales	-10.5271
▁fountain	-10.5271
▁gusgus	-10.5271
▁krugman	-10.5271
▁krunch	-10.5271
▁masalva	-10.5271
▁pandora	-10.5271
▁phantom	-10.5271
▁ravencroft	-10.5271
▁ruthybelle	-10.5271
▁scaffold	-10.5271
▁society	-10.5271
▁squeeze	-10.5271
▁tetsuo	-10.5271
▁traffic	-10.5271
▁tragedy	-10.5271
▁withdraw	-10.5271
▁xiliens	-10.5271
▁zombie	-10.5271
▁beckett	-10.5271
▁collapse	-10.5271
▁principal	-10.5271
▁artificial	-10.5271
▁bastard	-10.5271
▁chancellor	-10.5271
▁hurray	-10.5271
▁mouris	-10.5271
▁tent	-10.5271
▁treasure	-10.5271
▁apparently	-10.5271
▁froglib	-10.5271
▁method	-10.5271
▁conquer	-10.5271
▁framm	-10.5271
▁critter	-10.5271
▁gnome	-10.5271
▁personnel	-10.5271
▁commotion	-10.5271
▁association	-10.5271
▁population	-10.5271
▁crisp	-10.5271
▁leisure	-10.5271
▁micro	-10.5271
▁somehow	-10.5271
▁barbie	-10.5271
▁dispatch	-10.5271
▁remote	-10.5271
▁stewart	-10.5271
▁julius	-10.5271
▁literally	-10.5271
▁llamas	-10.5271
▁powder	-10.5271
▁muttering	-10.5271
▁traitor	-10.5271
▁greaves	-10.5271
▁jenkins	-10.5271
▁cacti	-10.5271
▁ofcourse	-10.5271
▁rustling	-10.5271
▁aspen	-10.5271
▁kruger	-10.5271
▁grouch	-10.5271
▁grasp	-10.5271
▁swallow	-10.5271
▁airplane	-10.5271
▁loaf	-10.5271
▁eleven	-10.5271
▁susan	-10.5271
▁entertainment	-10.5271
▁relative	-10.5271
▁bicycle	-10.5271
▁bathroom	-10.5271
▁selfish	-10.5272
▁reaiiy	-10.5272
▁codebook	-10.5272
▁counter	-10.5272
▁lecroix	-10.5272
▁lucifer	-10.5272
▁cancer	-10.5272
▁content	-10.5272
▁medal	-10.5272
▁detective	-10.5272
▁decent	-10.5272
▁wouidnt	-10.5272
▁ensure	-10.5272
▁blaring	-10.5272
▁civilised	-10.5273
▁dedicate	-10.5273
▁hindi	-10.5273
▁conner	-10.5273
▁choi	-10.5273
▁heiio	-10.5273
▁basically	-10.5273
▁jester	-10.5273
▁actress	-10.5273
▁skinn	-10.5274
▁slimy	-10.5274
▁solar	-10.5274
▁leaf	-10.5274
▁foolish	-10.5274
▁iady	-10.5274
▁daily	-10.5274
▁moth	-10.5274
▁flesh	-10.5275
▁estate	-10.5275
▁russian	-10.5275
▁roast	-10.5275
▁veil	-10.5275
ard	-10.5275
▁feedback	-10.5275
▁childhood	-10.5275
▁theez	-10.5276
▁crap	-10.5276
▁bacon	-10.5276
▁qualified	-10.5276
▁exploring	-10.5276
▁airfield	-10.5276
▁attached	-10.5276
▁maria	-10.5276
▁giddy	-10.5276
▁beef	-10.5277
▁ellie	-10.5277
▁envy	-10.5277
▁flip	-10.5277
▁smack	-10.5277
▁shaking	-10.5277
ible	-10.5277
▁expert	-10.5278
▁boyfriend	-10.5278
▁commissioner	-10.5278
▁rode	-10.5279
▁personality	-10.5279
▁appointment	-10.528
▁assist	-10.528
▁railway	-10.5281
▁inches	-10.5281
▁delay	-10.5281
▁quest	-10.5281
▁protection	-10.5282
▁chewing	-10.5282
▁specifica	-10.5283
▁causing	-10.5283
▁habit	-10.5283
▁cell	-10.5283
▁closing	-10.5284
▁daniels	-10.5284
▁socks	-10.5284
▁trapped	-10.5284
▁vegetables	-10.5284
▁exhausted	-10.5285
▁sunlight	-10.5285
▁chosen	-10.5285
▁cupid	-10.5285
▁froze	-10.5285
▁drove	-10.5286
▁pond	-10.5286
▁throne	-10.5287
▁worid	-10.5288
▁iisten	-10.5288
▁julie	-10.5288
▁poop	-10.5289
▁dragon	-10.529
▁sammy	-10.529
▁draft	-10.529
▁sustained	-10.5291
▁takin	-10.5291
▁herding	-10.5291
▁determined	-10.5291
▁behaving	-10.5292
▁shower	-10.5293
▁fabric	-10.5294
▁maiden	-10.5295
▁efficient	-10.5295
▁wives	-10.5296
▁youngun	-10.5296
▁spit	-10.5297
▁dining	-10.5299
▁evolved	-10.5301
▁idol	-10.5302
▁punished	-10.5304
▁begging	-10.5305
▁birdie	-10.5305
▁tubes	-10.5306
▁results	-10.5307
▁rumors	-10.5307
▁ahhh	-10.5307
▁brace	-10.5307
▁calculations	-10.5307
▁defending	-10.5307
▁ahem	-10.5309
▁shutter	-10.5309
▁mysteri	-10.5309
▁existed	-10.5309
▁larger	-10.531
▁paran	-10.531
▁camping	-10.5311
▁shame	-10.5312
▁hatch	-10.5313
▁naked	-10.5315
▁breach	-10.5315
nstein	-10.5315
▁hiking	-10.5315
▁toid	-10.5318
▁pour	-10.5319
▁replaced	-10.532
tinguish	-10.5321
▁kindness	-10.5322
▁fastest	-10.5322
▁scratching	-10.5323
▁retire	-10.5323
▁haha	-10.5324
▁heavenly	-10.5325
▁poise	-10.5328
▁hoohoo	-10.5328
▁softly	-10.533
▁twerps	-10.533
▁author	-10.533
▁dresses	-10.5331
▁croaks	-10.5331
▁badge	-10.5333
▁leads	-10.5334
▁appeal	-10.5335
▁practicing	-10.5335
▁duet	-10.5336
▁romans	-10.5336
▁stairs	-10.5336
▁giri	-10.5337
▁quacking	-10.5338
▁accepted	-10.534
neath	-10.5343
▁blooms	-10.5345
▁crabs	-10.5349
▁striker	-10.5351
▁woke	-10.5352
▁repairs	-10.5353
▁bananas	-10.5353
▁lamp	-10.5353
▁mistaken	-10.5359
▁cmon	-10.536
▁circle	-10.5363
▁manner	-10.5367
▁lines	-10.5368
▁pity	-10.5369
▁pushed	-10.5369
ches	-10.5376
▁features	-10.5376
▁bait	-10.5378
▁germany	-10.5378
▁squeaks	-10.5379
▁tshirt	-10.538
▁puck	-10.538
▁delivery	-10.5381
▁path	-10.5381
old	-10.5384
▁ouch	-10.5392
▁cooked	-10.5397
▁neighbors	-10.5399
▁makeup	-10.5407
▁ram	-10.5407
▁aca	-10.5408
▁blessed	-10.541
▁halls	-10.541
▁shopp	-10.5412
▁gloves	-10.5416
▁catcher	-10.5417
▁suck	-10.5423
▁await	-10.5423
rsh	-10.5424
ad	-10.5424
▁disappoint	-10.5427
▁kicked	-10.5432
▁deer	-10.5437
▁carrying	-10.5438
▁weary	-10.5445
sy	-10.5455
▁enjoyed	-10.5456
▁sneezes	-10.546
▁tw	-10.546
▁treating	-10.5461
▁stack	-10.5464
hes	-10.5465
▁exists	-10.5471
▁batter	-10.5473
▁permit	-10.5481
▁backup	-10.5483
▁ce	-10.5483
▁crossed	-10.5488
▁iive	-10.5488
▁businesses	-10.5492
▁writer	-10.5507
▁lu	-10.5518
▁stink	-10.5523
▁tips	-10.5523
▁oink	-10.5524
▁announc	-10.5526
▁younger	-10.5529
▁lively	-10.553
▁crack	-10.5531
▁brighte	-10.5539
▁hurts	-10.5543
rise	-10.5543
acy	-10.5548
▁nut	-10.5562
▁medica	-10.5564
▁cord	-10.5565
▁hitch	-10.5571
▁dispose	-10.5574
ings	-10.5579
▁parking	-10.558
ying	-10.5581
▁roses	-10.5583
▁deserves	-10.5583
▁losers	-10.5599
ner	-10.56
▁ham	-10.5617
▁hopeless	-10.5618
▁goro	-10.5623
▁chitt	-10.5624
ee	-10.5634
▁snakes	-10.5655
▁conditions	-10.5656
▁graceful	-10.5666
▁sounded	-10.5682
▁grande	-10.5691
▁triple	-10.5694
ockadiddledoodle	-10.5701
▁procla	-10.5705
▁dudes	-10.5705
▁gorge	-10.5708
▁salt	-10.5709
▁prayers	-10.5709
op	-10.5712
▁pets	-10.5715
▁gunk	-10.5718
ledge	-10.5719
iff	-10.572
▁risks	-10.5725
▁gadgets	-10.5743
▁plea	-10.5749
▁qu	-10.5763
ub	-10.5766
beat	-10.5771
▁spindles	-10.5772
▁sells	-10.5773
▁heavi	-10.5776
▁melt	-10.5785
▁spi	-10.5811
▁improve	-10.5848
▁compete	-10.585
▁remains	-10.5855
▁challenges	-10.5856
▁moron	-10.5862
chat	-10.5882
▁ti	-10.5887
▁racer	-10.5895
rby	-10.5897
▁answering	-10.5911
▁bestow	-10.5913
▁cough	-10.5919
ticky	-10.5935
▁events	-10.5938
▁bills	-10.5947
▁bla	-10.5952
▁supp	-10.5964
▁pm	-10.5975
▁ga	-10.5977
let	-10.5983
ress	-10.5998
da	-10.6044
ence	-10.606
▁za	-10.6061
▁adventures	-10.6075
▁dam	-10.6086
opher	-10.6091
acious	-10.6096
▁hire	-10.6107
▁thick	-10.6107
▁strikes	-10.6129
▁corporat	-10.6133
ooh	-10.6151
▁cancel	-10.6236
▁gal	-10.6258
▁fools	-10.6261
oh	-10.6283
nd	-10.6294
thats	-10.6301
▁blankets	-10.6304
ses	-10.6311
▁tu	-10.6311
▁down	-10.6326
▁bab	-10.6337
▁rat	-10.6352
espite	-10.6375
▁youth	-10.6392
▁rug	-10.6397
▁outs	-10.64
▁of	-10.6427
▁spen	-10.6436
▁shouid	-10.6451
▁nail	-10.6455
▁til	-10.6457
sistance	-10.646
▁tooth	-10.6481
▁sting	-10.6501
▁figures	-10.6545
eez	-10.6553
▁career	-10.6566
▁dick	-10.658
rous	-10.6598
▁dash	-10.6616
▁hem	-10.6629
▁vet	-10.6673
berg	-10.6677
▁aaa	-10.6679
▁ph	-10.6683
ier	-10.6706
▁rights	-10.6721
▁eric	-10.6729
crust	-10.6748
▁encourage	-10.6772
▁breaks	-10.6782
car	-10.6805
▁cuts	-10.6812
▁throws	-10.6819
▁bust	-10.6837
▁cou	-10.6838
enti	-10.6843
▁follows	-10.6867
ack	-10.687
▁cases	-10.6882
▁bel	-10.6883
▁file	-10.6895
▁el	-10.6898
▁yup	-10.6925
cable	-10.6926
▁rep	-10.6935
come	-10.6968
▁mare	-10.6969
minute	-10.6985
▁princes	-10.6991
▁bump	-10.6994
▁sides	-10.7006
ath	-10.702
fire	-10.7029
weight	-10.7033
▁jig	-10.7046
box	-10.7061
ern	-10.7062
▁provid	-10.7066
greatgrandmother	-10.708
bellie	-10.7096
▁tro	-10.7097
▁awfui	-10.7099
▁squeak	-10.7102
▁costume	-10.7119
▁fingernail	-10.712
▁measure	-10.7125
▁effect	-10.7127
▁chip	-10.7127
▁puff	-10.713
▁cas	-10.7133
▁feature	-10.7144
▁theme	-10.7145
▁employee	-10.7146
▁folk	-10.7147
▁muscle	-10.7148
▁shout	-10.7151
aaagh	-10.7152
▁ref	-10.7154
▁award	-10.7155
▁visitor	-10.7157
▁orange	-10.7158
▁donation	-10.7158
▁wound	-10.7166
▁boom	-10.7167
▁capital	-10.7178
▁simian	-10.7179
▁climber	-10.7193
▁wonders	-10.7194
▁bloom	-10.7203
med	-10.7206
▁connect	-10.7214
▁sauce	-10.7225
▁defend	-10.7235
graph	-10.7238
▁update	-10.7243
▁disturb	-10.7244
▁determine	-10.7245
▁sustain	-10.7246
▁inventor	-10.7246
▁remove	-10.7247
▁foods	-10.7247
▁complain	-10.7249
▁falls	-10.7251
▁rate	-10.7252
cal	-10.7253
▁pasta	-10.7253
▁circus	-10.7255
▁numb	-10.7255
▁burst	-10.7255
▁cluck	-10.7257
▁constant	-10.7257
▁positive	-10.7258
▁vicious	-10.7259
▁convince	-10.726
▁spun	-10.7261
▁mechanic	-10.7261
▁somethin	-10.7262
▁gus	-10.7262
▁commission	-10.7262
▁urs	-10.7263
▁chatter	-10.7268
▁inspect	-10.7269
▁scram	-10.7269
▁lalala	-10.7269
ordinary	-10.7269
▁loyal	-10.727
▁kiddin	-10.727
▁khurissan	-10.7271
acquainted	-10.7271
▁activities	-10.7271
▁ambassador	-10.7271
▁anxiety	-10.7271
▁apollo	-10.7271
▁asyium	-10.7271
▁autumn	-10.7271
▁bickerstaff	-10.7271
▁cactus	-10.7271
▁champagne	-10.7271
▁chigunk	-10.7271
▁chipettes	-10.7271
▁circumstances	-10.7271
▁cockadoodledo	-10.7271
▁dabbett	-10.7271
▁elizabeth	-10.7271
▁enrico	-10.7271
▁fandango	-10.7271
▁furukawa	-10.7271
▁gassolini	-10.7271
▁ghidorah	-10.7271
▁glimpse	-10.7271
▁headquarters	-10.7271
▁henchman	-10.7271
▁imbecile	-10.7271
▁indispensable	-10.7271
▁infinity	-10.7271
▁kaukau	-10.7271
▁kazuo	-10.7271
▁marshmallow	-10.7271
▁mcallister	-10.7271
▁namikawa	-10.7271
▁nephew	-10.7271
▁nuisance	-10.7271
▁olivia	-10.7271
▁paradox	-10.7271
▁passengers	-10.7271
▁paxton	-10.7271
▁pennypacker	-10.7271
▁perceive	-10.7271
▁preposterous	-10.7271
▁primitive	-10.7271
▁principles	-10.7271
▁relief	-10.7271
▁reputation	-10.7271
▁rhiannon	-10.7271
▁richthofen	-10.7271
▁skulduggery	-10.7271
▁snarling	-10.7271
▁symbol	-10.7271
▁tolerate	-10.7271
▁tribunal	-10.7271
▁tympani	-10.7271
▁umbrella	-10.7271
▁unexpected	-10.7271
▁website	-10.7271
▁zanzar	-10.7271
▁calliope	-10.7271
▁chimney	-10.7271
▁delicate	-10.7271
▁examination	-10.7271
▁hehhehheh	-10.7271
▁surrender	-10.7271
▁twenty	-10.7271
▁kurdy	-10.7271
▁aweigh	-10.7271
▁bamboo	-10.7271
▁bureau	-10.7271
▁contraption	-10.7271
▁invade	-10.7271
▁distract	-10.7271
▁approximately	-10.7271
▁dismissed	-10.7271
▁harmonica	-10.7271
▁infrasound	-10.7271
▁pursuit	-10.7271
▁elevator	-10.7271
▁tavern	-10.7271
▁fratern	-10.7271
▁madeira	-10.7271
▁pathetic	-10.7271
▁potential	-10.7271
▁zebra	-10.7271
▁briefcase	-10.7271
▁louis	-10.7271
▁branson	-10.7271
▁orbit	-10.7271
▁duties	-10.7271
▁sisterscousins	-10.7271
▁disgrace	-10.7271
▁reconsider	-10.7271
▁apron	-10.7271
▁luggage	-10.7271
▁conscious	-10.7271
▁lucius	-10.7271
▁pussy	-10.7271
▁brinks	-10.7271
▁devito	-10.7271
▁surface	-10.7271
▁nyah	-10.7271
▁compensation	-10.7271
▁reverend	-10.7271
▁italy	-10.7271
▁attend	-10.7271
▁stench	-10.7271
▁flush	-10.7271
▁executive	-10.7271
▁anytime	-10.7271
▁irish	-10.7271
▁pillow	-10.7271
▁value	-10.7271
▁heidi	-10.7271
▁socalled	-10.7271
▁rifle	-10.7271
▁sniffles	-10.7271
▁fridge	-10.7271
wolves	-10.7271
▁dreadful	-10.7271
▁unveil	-10.7271
▁ashram	-10.7271
▁conclusion	-10.7271
▁bastion	-10.7271
▁shattered	-10.7271
▁drift	-10.7271
▁monday	-10.7272
▁addition	-10.7272
▁theater	-10.7272
▁shortcut	-10.7272
▁ajay	-10.7272
▁garage	-10.7272
▁editor	-10.7272
junction	-10.7272
▁generator	-10.7272
▁honeybee	-10.7272
▁sample	-10.7272
▁album	-10.7272
▁opry	-10.7272
▁cider	-10.7272
▁saddle	-10.7272
▁impressive	-10.7272
▁precisely	-10.7272
▁harvest	-10.7272
▁migration	-10.7272
▁roo	-10.7272
▁marley	-10.7272
▁organic	-10.7272
▁razor	-10.7272
▁recommendation	-10.7272
▁zack	-10.7273
▁ooty	-10.7273
▁doomed	-10.7273
▁merit	-10.7273
▁slaughter	-10.7273
▁furthe	-10.7273
▁jab	-10.7273
▁piease	-10.7273
▁happier	-10.7273
▁theft	-10.7273
▁givin	-10.7273
▁robbed	-10.7273
▁itii	-10.7273
▁overboard	-10.7273
▁basket	-10.7273
▁shaving	-10.7273
▁jerry	-10.7273
▁lonesome	-10.7273
▁chitters	-10.7273
▁assignment	-10.7273
▁nevertheless	-10.7273
▁performance	-10.7273
▁hyper	-10.7273
▁cellar	-10.7274
▁grease	-10.7274
▁whirl	-10.7274
▁mailroom	-10.7274
▁noisy	-10.7274
▁robbery	-10.7274
▁convey	-10.7274
▁reference	-10.7274
▁poem	-10.7275
▁typical	-10.7275
▁airport	-10.7275
▁plumb	-10.7275
zzing	-10.7275
▁straw	-10.7275
▁whiie	-10.7275
▁wrestling	-10.7275
▁academy	-10.7275
▁border	-10.7276
▁naomi	-10.7276
▁directive	-10.7276
▁magoo	-10.7277
▁panda	-10.7277
▁desk	-10.7277
goo	-10.7277
▁baroness	-10.7277
▁incompetent	-10.7278
▁modest	-10.7278
▁offense	-10.7278
▁instrumental	-10.7278
▁kitty	-10.7278
▁mommy	-10.7278
▁agreement	-10.7278
▁capsule	-10.7278
▁grownup	-10.7279
▁delight	-10.7279
▁margad	-10.7279
▁finance	-10.7279
▁conceal	-10.7279
▁persuade	-10.7279
▁announcement	-10.7279
▁lizard	-10.7279
▁distress	-10.7279
▁freshmen	-10.7279
▁fought	-10.7279
▁overcome	-10.728
▁ballroom	-10.728
▁bench	-10.728
▁megan	-10.728
▁clem	-10.728
▁rude	-10.728
▁engaged	-10.7281
▁exceed	-10.7282
▁programmed	-10.7282
▁woory	-10.7282
▁ka	-10.7283
▁speedway	-10.7283
▁qualify	-10.7283
▁etc	-10.7284
▁article	-10.7284
gree	-10.7285
▁spoon	-10.7286
▁tire	-10.7286
▁embarrassing	-10.7286
▁rail	-10.7286
▁rap	-10.7286
▁weeping	-10.7286
▁tidy	-10.7286
▁caii	-10.7286
▁cooing	-10.7287
▁knight	-10.7287
▁specialty	-10.7287
▁demand	-10.7287
▁waterfalls	-10.7287
▁bedtime	-10.7288
▁snoopy	-10.7288
▁entry	-10.7288
▁preparing	-10.7289
▁leftovers	-10.7289
▁desperately	-10.7289
▁suckers	-10.7289
▁maintain	-10.7289
▁waitress	-10.729
▁harsh	-10.729
▁punk	-10.7291
▁rising	-10.7291
▁curly	-10.7291
▁solo	-10.7292
▁backwards	-10.7293
▁ollie	-10.7293
▁neigh	-10.7293
▁busted	-10.7293
▁straining	-10.7295
▁stuttering	-10.7296
▁controlling	-10.7296
▁fulfill	-10.7298
▁dandelions	-10.7298
▁screwed	-10.7298
▁vase	-10.7298
▁pencil	-10.7299
▁estimate	-10.7299
▁borrowed	-10.73
▁canceled	-10.7301
▁cyclerepairer	-10.7301
▁channel	-10.7301
owned	-10.7301
▁overhead	-10.7301
▁accessible	-10.7302
▁usual	-10.7302
▁families	-10.7303
▁adopted	-10.7303
▁waking	-10.7303
▁skiers	-10.7304
▁everyday	-10.7304
▁angle	-10.7305
fahr	-10.7305
▁task	-10.7306
▁neighing	-10.7307
▁writing	-10.7307
▁boring	-10.7309
▁tragic	-10.731
▁fussy	-10.731
▁presume	-10.7311
▁airship	-10.7312
▁disappeared	-10.7312
▁loup	-10.7312
▁mmmmmm	-10.7313
▁taller	-10.7314
▁internet	-10.7314
▁beak	-10.7314
▁arrangements	-10.7316
▁saucer	-10.7318
▁apost	-10.7318
▁bonus	-10.7319
▁lamb	-10.7321
▁sat	-10.7323
▁missile	-10.7323
▁spies	-10.7324
▁brooke	-10.7324
memorial	-10.7327
▁canyoneers	-10.7327
▁reasonable	-10.7329
▁tide	-10.7329
▁mmmm	-10.733
▁xray	-10.7331
rick	-10.7332
aaa	-10.7332
▁troops	-10.7335
▁yelled	-10.7337
▁useful	-10.7339
▁focused	-10.7339
ass	-10.734
▁punches	-10.7342
▁curtains	-10.7344
▁spectacles	-10.7344
▁broadcasting	-10.7345
▁photograph	-10.7347
▁included	-10.7348
▁bolts	-10.7348
▁ana	-10.7349
▁matches	-10.7349
▁northeast	-10.7351
▁manlo	-10.7352
▁carter	-10.7353
▁marked	-10.7358
▁heir	-10.7362
▁tender	-10.7364
▁shortly	-10.7364
▁messes	-10.7364
▁froth	-10.7365
▁belonged	-10.7366
▁confess	-10.737
▁croak	-10.7371
▁packages	-10.7373
▁penguins	-10.7373
▁bumblebees	-10.7373
▁relationships	-10.7373
▁tricked	-10.7377
▁smaller	-10.7381
▁tele	-10.7384
▁compliment	-10.7384
▁appeared	-10.7385
▁hip	-10.7387
▁payment	-10.739
▁foreigner	-10.7391
▁exit	-10.7395
istic	-10.7395
venue	-10.7395
▁vine	-10.7396
▁wax	-10.7396
▁fong	-10.7398
ped	-10.7399
kes	-10.7399
▁wits	-10.74
▁oranges	-10.74
▁employees	-10.7402
▁donations	-10.7402
▁pretending	-10.7402
▁shouts	-10.7405
▁visitors	-10.7405
▁homeless	-10.7409
▁ramp	-10.7409
▁fries	-10.7411
▁budget	-10.7412
▁recent	-10.7416
▁meantime	-10.7416
▁bl	-10.7417
▁suffering	-10.7419
▁reign	-10.7422
▁anger	-10.7423
dies	-10.7423
▁butbut	-10.7424
▁raised	-10.7425
▁chicks	-10.7425
▁ithe	-10.7431
▁instructors	-10.7431
ps	-10.7432
▁ability	-10.7434
▁copy	-10.7438
▁sketch	-10.7441
▁photos	-10.7444
▁mush	-10.7444
▁reliable	-10.7444
▁helpless	-10.7445
dium	-10.7445
▁cub	-10.7447
▁tunes	-10.7453
▁snoo	-10.7457
▁trails	-10.7457
▁pard	-10.7457
▁utter	-10.7458
▁adults	-10.746
▁hips	-10.7466
▁difficulty	-10.747
▁proved	-10.747
▁mask	-10.7471
▁tryin	-10.7476
▁lori	-10.7479
▁pu	-10.7479
▁brands	-10.7483
ative	-10.7485
▁bra	-10.7485
▁wee	-10.7487
▁rogers	-10.7488
▁chimpanzees	-10.7489
▁meals	-10.7489
▁safer	-10.7493
bound	-10.7497
▁beam	-10.7499
ler	-10.7501
▁hits	-10.7503
▁honored	-10.7511
▁coup	-10.7517
▁devices	-10.7518
▁heights	-10.7522
▁cycle	-10.7525
▁moose	-10.7528
▁adore	-10.7535
▁onions	-10.7536
▁titles	-10.754
▁ripe	-10.754
mo	-10.7542
▁reporters	-10.7543
▁snaps	-10.7547
▁lovers	-10.7548
▁oak	-10.755
io	-10.7556
▁stall	-10.7558
▁posts	-10.7568
▁trans	-10.7568
▁couid	-10.7573
free	-10.7576
▁wo	-10.7578
▁inform	-10.7581
▁mamma	-10.7584
▁cookies	-10.7587
▁dances	-10.7588
▁strays	-10.7596
dar	-10.7596
▁beats	-10.7598
cious	-10.7598
▁graces	-10.76
stone	-10.7606
ford	-10.761
▁kissing	-10.7611
▁wander	-10.7613
▁greet	-10.762
▁ruff	-10.7635
▁mall	-10.765
▁musical	-10.7665
▁plot	-10.767
▁mon	-10.7685
li	-10.7691
▁pups	-10.7705
▁exceptional	-10.7707
▁operat	-10.7708
▁justi	-10.7713
▁lowing	-10.7718
▁rum	-10.7732
▁marks	-10.7737
▁subjects	-10.7749
▁seats	-10.7755
▁ve	-10.7762
▁radi	-10.777
▁slips	-10.7772
media	-10.7774
▁experiments	-10.7775
lawful	-10.7777
▁dial	-10.7804
earned	-10.7815
▁tricks	-10.7816
▁ages	-10.7819
tive	-10.7828
▁statu	-10.7834
ight	-10.7836
good	-10.7855
▁returning	-10.786
▁hai	-10.7861
mmhmm	-10.7862
not	-10.7863
ou	-10.7864
▁heater	-10.7878
▁laps	-10.7884
tran	-10.7897
▁object	-10.7901
prehensi	-10.7908
▁faced	-10.7918
▁schools	-10.7929
▁ag	-10.7939
▁lane	-10.794
iks	-10.7945
hole	-10.7959
▁que	-10.7986
▁char	-10.7997
ades	-10.8013
ding	-10.8032
▁cousins	-10.8045
▁firm	-10.8047
▁devote	-10.8047
▁truthful	-10.8049
ang	-10.805
▁term	-10.8052
inner	-10.806
▁comb	-10.8072
ces	-10.8076
▁infinite	-10.8092
▁eats	-10.8097
▁ban	-10.8103
▁cl	-10.8105
▁packs	-10.8112
▁oohooh	-10.8115
▁minion	-10.8123
▁rely	-10.813
▁ton	-10.8131
dmother	-10.8137
tangled	-10.8144
ni	-10.8151
▁systems	-10.8154
▁lad	-10.8155
pping	-10.8159
▁frogs	-10.8167
▁iit	-10.817
▁prick	-10.8185
▁gardens	-10.8186
hoo	-10.8202
▁houses	-10.8209
om	-10.8236
▁sounding	-10.828
▁chin	-10.8287
▁kn	-10.8291
▁pope	-10.8291
▁struggl	-10.8302
ky	-10.832
▁dri	-10.8338
ball	-10.8339
▁rev	-10.8341
ving	-10.8344
▁americans	-10.8353
ating	-10.8364
▁exhaust	-10.8394
▁hills	-10.8403
▁joins	-10.8421
▁islands	-10.8426
▁attacks	-10.8427
test	-10.8429
squat	-10.8437
▁feller	-10.8439
▁stations	-10.8446
rite	-10.8455
▁runt	-10.8462
▁tra	-10.8483
▁behav	-10.8494
▁pit	-10.8494
ez	-10.8508
▁del	-10.8514
hand	-10.852
▁cre	-10.8526
▁controls	-10.8535
▁honors	-10.854
ens	-10.8547
table	-10.8558
zy	-10.8561
▁select	-10.8578
▁ding	-10.8581
▁donate	-10.8582
seum	-10.8582
▁bars	-10.8606
▁tick	-10.8642
neer	-10.8651
j	-10.8656
▁futures	-10.8685
▁bubbl	-10.8695
▁understanding	-10.8704
▁quits	-10.872
▁chick	-10.8725
▁cakes	-10.8728
▁sack	-10.8747
▁sole	-10.877
▁woe	-10.877
etched	-10.8775
placed	-10.8782
▁iron	-10.8806
anda	-10.8814
▁radios	-10.882
▁budd	-10.8831
▁communicate	-10.8833
▁spe	-10.8848
▁hank	-10.8857
ast	-10.8879
▁er	-10.8885
ments	-10.8886
lets	-10.889
ans	-10.8899
un	-10.8921
ip	-10.8952
phony	-10.8964
▁occur	-10.8991
▁hu	-10.8993
▁organiz	-10.9002
ded	-10.9018
▁bal	-10.9024
ker	-10.9026
▁peoples	-10.9031
ski	-10.904
itched	-10.9049
▁auction	-10.9058
▁aid	-10.9059
▁descend	-10.9061
don	-10.9062
ins	-10.9064
▁beer	-10.9083
sa	-10.9103
unny	-10.9116
▁ward	-10.9129
▁ignore	-10.9131
▁au	-10.9155
▁kills	-10.9162
▁sly	-10.9174
▁occasion	-10.918
▁pan	-10.9189
▁walks	-10.9224
long	-10.9229
ka	-10.925
world	-10.9282
▁tri	-10.9288
▁ambush	-10.9293
rry	-10.9299
▁tend	-10.9307
▁reel	-10.9307
akl	-10.9331
▁clove	-10.9343
hi	-10.9344
rench	-10.9346
ellis	-10.9361
ism	-10.9363
are	-10.9383
mer	-10.9384
dible	-10.9385
per	-10.9395
okay	-10.9396
▁recit	-10.9402
▁forbid	-10.9413
▁cop	-10.9423
▁temper	-10.9428
▁rhythm	-10.9439
▁thin	-10.9442
▁supervis	-10.9456
▁stunn	-10.9466
phone	-10.9499
nity	-10.9508
horse	-10.9511
▁goner	-10.9513
▁cra	-10.9523
ane	-10.9524
bury	-10.9526
▁that	-10.953
worth	-10.9532
▁react	-10.9539
boat	-10.9543
▁soo	-10.9546
▁sha	-10.9547
ache	-10.9548
skull	-10.9553
ape	-10.9553
bert	-10.9553
cycle	-10.9554
reliable	-10.9557
▁minu	-10.9563
▁dome	-10.9566
wheel	-10.9578
▁sniff	-10.9581
▁groan	-10.9587
▁flights	-10.9594
▁squeal	-10.9596
depend	-10.9606
▁ace	-10.9612
▁repair	-10.9614
▁nah	-10.9619
▁smok	-10.962
▁usurper	-10.9621
▁vari	-10.9624
▁whale	-10.9624
headed	-10.9626
▁increase	-10.9633
▁bluebird	-10.9634
▁tis	-10.9636
▁chill	-10.9637
▁peanut	-10.9638
▁pioneer	-10.9638
▁clap	-10.964
▁bumblebee	-10.9641
▁penguin	-10.9641
▁relationship	-10.9641
▁collector	-10.9642
▁monarch	-10.9644
▁intention	-10.9645
▁explode	-10.9647
▁sec	-10.9647
▁goblin	-10.9647
izing	-10.965
▁crab	-10.9654
▁insect	-10.9656
ncible	-10.9656
▁moos	-10.9657
▁wi	-10.9661
▁disease	-10.9666
▁checks	-10.9666
most	-10.9669
gar	-10.9671
▁arti	-10.9671
▁banana	-10.9679
▁movement	-10.9686
▁col	-10.9688
uck	-10.9688
▁bore	-10.9697
▁chunk	-10.9707
▁fake	-10.9714
▁assum	-10.9715
▁oops	-10.9721
▁stretch	-10.9725
tor	-10.9729
▁package	-10.9732
▁canad	-10.9732
▁iet	-10.9733
maha	-10.9734
▁belt	-10.9736
ute	-10.9736
▁clatter	-10.9739
▁abandon	-10.9743
▁declare	-10.9743
▁wealth	-10.9743
▁treacher	-10.9743
▁demonstrate	-10.9745
▁siight	-10.9745
▁migrat	-10.9746
sis	-10.9747
▁shift	-10.9748
ency	-10.9749
▁felon	-10.9749
▁jam	-10.9758
▁exact	-10.9761
▁widow	-10.9761
ischer	-10.9764
▁drug	-10.9765
▁europe	-10.9767
▁dancin	-10.9768
▁detect	-10.9768
▁approve	-10.9769
▁chica	-10.977
▁affection	-10.977
▁favour	-10.977
socsoc	-10.9771
▁emerge	-10.9771
▁accomplished	-10.9771
▁anatomy	-10.9771
▁anniversary	-10.9771
▁anonymous	-10.9771
▁arrival	-10.9771
▁artifacts	-10.9771
▁average	-10.9771
▁catastrophe	-10.9771
▁caterpillar	-10.9771
▁chauffeur	-10.9771
▁cockpit	-10.9771
▁coliseum	-10.9771
▁conquest	-10.9771
▁coreander	-10.9771
▁curiosity	-10.9771
▁cylinder	-10.9771
▁disastrous	-10.9771
▁divinity	-10.9771
▁eggnog	-10.9771
▁eligible	-10.9771
▁empire	-10.9771
▁ephraim	-10.9771
▁exercise	-10.9771
▁explanation	-10.9771
▁exquisite	-10.9771
▁fifteen	-10.9771
▁fluffy	-10.9771
▁fortynine	-10.9771
▁fugitive	-10.9771
▁furschtien	-10.9771
▁harvard	-10.9771
▁hencoop	-10.9771
▁horizon	-10.9771
▁hurrah	-10.9771
▁iguana	-10.9771
▁illuzor	-10.9771
▁intellectual	-10.9771
▁katarina	-10.9771
▁kathleen	-10.9771
▁kokoyaki	-10.9771
▁korkona	-10.9771
▁kurzi	-10.9771
▁marpole	-10.9771
▁marsupial	-10.9771
▁mcquade	-10.9771
▁narwhal	-10.9771
▁necessarily	-10.9771
▁nimara	-10.9771
▁nowadays	-10.9771
▁ogelvie	-10.9771
▁orchestra	-10.9771
▁overwhelming	-10.9771
▁oxygen	-10.9771
▁pacific	-10.9771
▁panzius	-10.9771
▁pedigreed	-10.9771
▁platform	-10.9771
▁postcard	-10.9771
▁prettier	-10.9771
▁procedure	-10.9771
▁recruit	-10.9771
▁rehearsing	-10.9771
▁repossessed	-10.9771
▁rollsroyce	-10.9771
▁rubbish	-10.9771
▁santiago	-10.9771
▁satisfied	-10.9771
▁scholarship	-10.9771
▁script	-10.9771
▁smirkle	-10.9771
▁spectacular	-10.9771
▁teppet	-10.9771
▁thumpclank	-10.9771
▁toadstool	-10.9771
▁tokyo	-10.9771
▁treasury	-10.9771
▁tuesday	-10.9771
▁ultimate	-10.9771
▁variety	-10.9771
▁verdict	-10.9771
▁volume	-10.9771
▁wainwright	-10.9771
▁worldfamous	-10.9771
▁adjourn	-10.9771
▁attitude	-10.9771
▁fossil	-10.9771
▁identity	-10.9771
▁jinx	-10.9771
▁kaclick	-10.9771
▁kerjarqu	-10.9771
▁laboratory	-10.9771
▁maldue	-10.9771
▁nelson	-10.9771
▁philosoph	-10.9771
▁rupert	-10.9771
▁limerick	-10.9771
▁maisie	-10.9771
▁obtain	-10.9771
▁possum	-10.9771
▁prototype	-10.9771
▁duchess	-10.9771
▁adapt	-10.9771
▁bullseye	-10.9771
▁mickey	-10.9771
▁despair	-10.9771
▁flavius	-10.9771
▁outstanding	-10.9771
▁disqualified	-10.9771
▁nashville	-10.9771
▁rosier	-10.9771
▁beiieve	-10.9771
▁extend	-10.9771
▁hollywood	-10.9771
▁lynx	-10.9771
▁joseph	-10.9771
▁maintenance	-10.9771
▁blitz	-10.9771
▁premature	-10.9771
▁wardrobe	-10.9771
▁colleague	-10.9771
▁japan	-10.9771
▁throttle	-10.9771
▁slinkys	-10.9771
▁goddess	-10.9771
▁vinnie	-10.9771
▁rainbow	-10.9771
▁woofwoof	-10.9771
▁contender	-10.9771
▁rejoice	-10.9771
▁attaboy	-10.9771
▁inflict	-10.9771
▁athens	-10.9771
▁recognition	-10.9771
▁civilized	-10.9771
▁scorpi	-10.9771
▁elders	-10.9771
▁demonstration	-10.9771
▁eager	-10.9771
▁vanished	-10.9771
▁disposition	-10.9771
▁helga	-10.9771
▁compact	-10.9771
▁description	-10.9771
▁jammed	-10.9771
▁mutant	-10.9771
▁strangled	-10.9771
▁response	-10.9771
▁sworn	-10.9771
▁robberies	-10.9771
▁fairytale	-10.9771
▁irritating	-10.9771
▁presto	-10.9771
▁friction	-10.9771
▁initially	-10.9771
▁pattern	-10.9771
rmore	-10.9771
▁eyelash	-10.9771
▁ladder	-10.9771
▁rusty	-10.9771
▁southern	-10.9771
▁ballpark	-10.9771
▁existence	-10.9771
▁bannerman	-10.9771
▁tanya	-10.9771
▁resident	-10.9771
▁yoohoo	-10.9771
▁commitment	-10.9771
▁negotiat	-10.9771
▁casual	-10.9771
▁cigar	-10.9771
▁elves	-10.9771
▁surround	-10.9772
▁consequen	-10.9772
▁index	-10.9772
▁fleece	-10.9772
▁refraction	-10.9772
▁sunshine	-10.9772
▁altogether	-10.9772
▁investigation	-10.9772
▁scoid	-10.9772
▁gettinbetter	-10.9772
▁signature	-10.9772
▁kidnapping	-10.9772
▁customers	-10.9772
▁assistance	-10.9772
ville	-10.9772
▁slade	-10.9772
▁fundraiser	-10.9772
▁labour	-10.9772
▁disused	-10.9772
▁salesman	-10.9772
▁policy	-10.9772
▁greenhill	-10.9772
▁behalf	-10.9772
▁hoax	-10.9772
▁sniffling	-10.9772
▁babysitter	-10.9772
▁upside	-10.9773
▁meowth	-10.9773
▁jazz	-10.9773
▁oppa	-10.9773
▁password	-10.9773
▁location	-10.9773
▁banished	-10.9773
▁onward	-10.9773
▁worries	-10.9773
▁kirk	-10.9773
▁bedford	-10.9773
▁treason	-10.9773
▁charles	-10.9773
▁ladyguard	-10.9773
▁truce	-10.9773
▁inspirational	-10.9773
▁refund	-10.9773
▁romance	-10.9773
▁cruelty	-10.9774
▁hyung	-10.9774
▁holler	-10.9774
▁polite	-10.9774
▁chamber	-10.9774
▁deception	-10.9774
▁morality	-10.9774
▁dropoff	-10.9774
▁cocoa	-10.9774
▁whining	-10.9774
▁digging	-10.9774
▁deploy	-10.9774
▁effective	-10.9774
▁online	-10.9774
▁european	-10.9775
▁aiong	-10.9775
▁astronomy	-10.9775
▁dotty	-10.9775
▁popped	-10.9775
▁incidentally	-10.9775
▁kelly	-10.9775
▁threat	-10.9775
▁upright	-10.9775
▁occurred	-10.9775
ingly	-10.9776
▁frown	-10.9776
▁scrambling	-10.9776
▁caroline	-10.9776
▁panel	-10.9776
▁stride	-10.9776
▁jeez	-10.9776
▁rival	-10.9776
▁dragged	-10.9776
▁hostage	-10.9776
▁headache	-10.9776
▁ravage	-10.9776
▁tolling	-10.9777
▁dropping	-10.9777
▁defenseless	-10.9777
▁grub	-10.9777
▁coverage	-10.9777
▁sorrow	-10.9777
▁violation	-10.9777
▁hiram	-10.9777
▁yarn	-10.9777
▁mario	-10.9777
▁raising	-10.9777
▁refreshing	-10.9777
▁compound	-10.9777
▁assembly	-10.9777
▁countryside	-10.9777
▁chaos	-10.9777
▁rental	-10.9778
▁massive	-10.9778
▁surgeon	-10.9778
▁bake	-10.9778
▁johnson	-10.9778
▁puffin	-10.9778
▁advertising	-10.9779
▁wager	-10.9779
▁horseshoe	-10.9779
▁series	-10.9779
▁brutal	-10.9779
▁ranks	-10.978
▁munic	-10.978
▁transmitted	-10.978
▁harmless	-10.978
▁sector	-10.978
▁carrot	-10.978
▁trophy	-10.9781
opy	-10.9781
▁straightaway	-10.9781
▁version	-10.9781
▁access	-10.9782
▁embarrassed	-10.9782
▁renew	-10.9782
▁skinner	-10.9782
▁thud	-10.9783
▁injured	-10.9783
▁dislike	-10.9783
▁alongside	-10.9783
ggage	-10.9783
▁roaring	-10.9783
▁har	-10.9784
▁pawn	-10.9784
▁hisses	-10.9784
▁establishment	-10.9785
▁biii	-10.9785
▁complexion	-10.9785
▁grover	-10.9785
▁china	-10.9786
▁hawk	-10.9786
▁ridge	-10.9786
▁creepy	-10.9786
▁observe	-10.9786
▁slipping	-10.9786
▁snob	-10.9787
▁quant	-10.9787
▁marty	-10.9787
▁monstrous	-10.9788
▁fraction	-10.9788
▁tiring	-10.9788
▁vertical	-10.9789
▁statement	-10.9789
▁rosy	-10.9789
▁sexy	-10.979
▁fitting	-10.979
▁protesting	-10.979
▁kneel	-10.979
▁described	-10.979
▁boop	-10.9791
▁july	-10.9791
▁mystery	-10.9791
▁ribs	-10.9791
▁dumped	-10.9792
▁seize	-10.9792
▁wiggins	-10.9792
▁scrolls	-10.9792
▁tourists	-10.9793
▁ingredients	-10.9793
▁dee	-10.9793
▁nursing	-10.9793
flutter	-10.9795
▁troubie	-10.9795
▁tapping	-10.9796
▁paree	-10.9796
▁error	-10.9797
▁potatoes	-10.9797
▁clang	-10.9797
▁stutter	-10.9797
▁logical	-10.9797
▁possibility	-10.9798
▁posters	-10.9799
▁editing	-10.98
▁tenth	-10.98
▁warrant	-10.98
▁descended	-10.9801
▁matilde	-10.9801
▁profit	-10.9801
▁grill	-10.9802
▁venus	-10.9802
▁officially	-10.9803
▁paris	-10.9803
▁foam	-10.9804
▁wrinkle	-10.9804
▁removed	-10.9804
▁connected	-10.9805
▁hallway	-10.9805
▁aione	-10.9805
▁earning	-10.9805
▁skateboarding	-10.9805
▁heartily	-10.9806
▁torn	-10.9807
▁grove	-10.9808
▁designer	-10.9809
▁deny	-10.9809
▁consumer	-10.9809
▁cracked	-10.981
▁altitude	-10.981
ns	-10.981
▁phase	-10.981
▁kansas	-10.981
▁volunteered	-10.9811
▁outer	-10.9811
kos	-10.9811
▁lisa	-10.9811
▁kerchief	-10.9811
▁destruction	-10.9812
▁proving	-10.9812
▁murderer	-10.9812
▁beaming	-10.9812
▁kiddo	-10.9812
▁groovy	-10.9814
▁managing	-10.9814
▁vice	-10.9815
▁shocked	-10.9815
▁aero	-10.9815
▁nearest	-10.9815
▁retired	-10.9816
▁boulder	-10.9816
▁bugged	-10.9816
▁decree	-10.9817
▁leaking	-10.9818
▁cleaners	-10.9818
▁manual	-10.9819
▁shovel	-10.982
▁prosper	-10.982
▁hence	-10.9821
▁gin	-10.9821
▁resource	-10.9822
▁crate	-10.9823
▁foundation	-10.9823
▁feei	-10.9823
▁dew	-10.9824
▁required	-10.9826
▁sponsored	-10.9826
▁dinging	-10.9826
▁via	-10.9826
▁burger	-10.9826
▁magician	-10.9827
▁inch	-10.9827
▁dime	-10.9827
▁rushed	-10.9827
▁positively	-10.9828
▁edge	-10.9828
▁nieces	-10.9829
▁customs	-10.983
▁larry	-10.9831
▁highlands	-10.9832
▁cursed	-10.9834
▁shallow	-10.9834
▁motive	-10.9834
▁jessie	-10.9835
▁transform	-10.9835
▁drowned	-10.9836
▁resent	-10.9836
▁guaranteed	-10.9836
▁shivering	-10.9837
▁glider	-10.9839
▁comic	-10.9843
▁shave	-10.9843
▁assumed	-10.9844
▁correctly	-10.9844
▁role	-10.9845
▁stove	-10.9846
▁era	-10.9849
▁rig	-10.985
▁snoop	-10.9851
▁costa	-10.9852
▁suspected	-10.9858
omic	-10.9861
▁fisher	-10.9862
▁recognized	-10.9863
▁theore	-10.9863
▁cheeks	-10.9864
emic	-10.9864
▁assign	-10.9864
▁flares	-10.9865
▁bullets	-10.9867
▁criminals	-10.9867
▁aerodynamics	-10.9867
▁weighing	-10.9868
▁thoughtful	-10.9869
▁representing	-10.987
▁rice	-10.9871
▁tens	-10.9871
▁rattle	-10.9872
▁faire	-10.9876
▁sophisticated	-10.9876
▁jacket	-10.9876
▁ideals	-10.9876
▁recover	-10.9876
▁alike	-10.9877
▁ballooning	-10.988
▁forty	-10.988
▁suited	-10.9881
▁carla	-10.9881
▁strand	-10.9884
▁pinch	-10.9884
▁careless	-10.9886
▁gray	-10.9887
▁seated	-10.9888
▁hup	-10.9889
wick	-10.9891
▁teen	-10.9893
▁settled	-10.9896
▁scored	-10.9899
▁bugle	-10.9899
▁seii	-10.9899
▁bigtime	-10.9901
▁formation	-10.9901
▁riches	-10.9903
▁diseases	-10.9903
▁pioneers	-10.9905
▁peanuts	-10.9905
stood	-10.9908
▁added	-10.9909
▁sinking	-10.9909
▁mechanics	-10.9911
honda	-10.9911
▁install	-10.9911
▁numberone	-10.9914
▁deeply	-10.9915
▁experienced	-10.9916
▁sniffs	-10.9917
▁searched	-10.9917
▁peak	-10.9918
choke	-10.9918
▁bald	-10.9918
▁singin	-10.992
▁loving	-10.992
▁pelt	-10.9922
▁polar	-10.9924
▁ele	-10.9924
jack	-10.9925
▁sour	-10.9926
▁strangely	-10.9926
▁painting	-10.9927
▁bean	-10.993
▁dele	-10.993
▁heroes	-10.9933
▁roy	-10.9934
▁ieave	-10.9935
▁helpful	-10.9935
▁hick	-10.9937
▁lala	-10.9939
▁at	-10.994
▁fin	-10.9942
▁designing	-10.9942
▁belts	-10.9945
▁launching	-10.9945
▁heip	-10.9948
▁pic	-10.9949
▁fever	-10.9954
▁sailing	-10.9957
stream	-10.9958
▁aye	-10.9962
▁equals	-10.9964
▁consol	-10.9965
▁stays	-10.997
▁clowns	-10.9974
▁demons	-10.9978
▁teiiing	-10.9983
▁hooks	-10.9986
of	-10.9989
▁dip	-10.9991
▁easter	-10.9992
▁fades	-10.9994
▁pupp	-11.0003
▁cleaned	-11.0004
▁planted	-11.0019
▁exclaims	-11.002
▁materials	-11.002
▁techniques	-11.002
▁feelin	-11.0021
win	-11.0026
▁announced	-11.0027
▁herd	-11.0039
▁disagree	-11.004
▁iand	-11.0045
▁accompan	-11.0048
▁tickle	-11.0051
▁sticky	-11.0053
▁penci	-11.0054
▁cam	-11.0057
▁bur	-11.0058
ries	-11.0062
▁graduate	-11.0063
▁canine	-11.0074
▁scenes	-11.0082
▁io	-11.0087
▁bein	-11.0088
▁pipes	-11.0092
▁globe	-11.0092
▁dancers	-11.0095
▁welcom	-11.0096
▁sultans	-11.0096
▁workers	-11.0096
▁ber	-11.0099
▁incidents	-11.0099
▁what	-11.0101
▁domes	-11.011
▁flail	-11.0127
▁lip	-11.0129
▁cameras	-11.0134
▁bleat	-11.0145
▁qua	-11.015
▁packing	-11.0153
▁pages	-11.0154
tch	-11.0156
cial	-11.0162
cadi	-11.0165
▁roots	-11.0168
ening	-11.0169
▁gorillas	-11.0173
▁unload	-11.0177
▁tha	-11.0182
ger	-11.0183
▁beautifully	-11.0193
▁pl	-11.0198
▁soak	-11.0202
▁belonging	-11.0202
ration	-11.0204
▁z	-11.0205
▁waahoo	-11.0212
▁glide	-11.0213
▁weekends	-11.0213
nell	-11.0213
▁sid	-11.0213
▁workin	-11.0214
▁strain	-11.0221
▁yang	-11.0225
▁sex	-11.0232
▁joshs	-11.0232
▁plum	-11.0232
▁ox	-11.0239
teen	-11.0245
▁noises	-11.0247
▁karat	-11.0253
▁prima	-11.0262
rena	-11.0263
ough	-11.0265
eum	-11.0269
▁pecks	-11.0271
ada	-11.0275
▁carlo	-11.028
▁directions	-11.0283
▁slides	-11.0283
▁flags	-11.0293
▁whoosh	-11.0293
ned	-11.0295
▁cared	-11.0297
▁fu	-11.0313
▁babys	-11.0314
▁bounds	-11.0319
que	-11.0319
▁camel	-11.0328
▁fooling	-11.0337
ngrily	-11.0342
▁holes	-11.0344
▁goals	-11.0349
▁ruins	-11.0367
▁pas	-11.0369
▁needle	-11.0376
▁sabotage	-11.0377
▁sixt	-11.0378
▁checked	-11.0379
nes	-11.0382
▁pops	-11.0393
▁freed	-11.0399
▁candles	-11.04
▁sets	-11.0419
▁tales	-11.0421
gged	-11.0425
▁somewh	-11.0431
▁harmon	-11.0453
ace	-11.0455
▁leagues	-11.0456
▁timber	-11.0463
▁buds	-11.0464
▁prizes	-11.0468
▁types	-11.047
▁reduce	-11.0481
▁marrying	-11.0482
▁glow	-11.0484
▁div	-11.0487
▁caff	-11.0494
▁scramble	-11.0496
▁normans	-11.0512
▁sincere	-11.0513
▁reverse	-11.0515
▁rub	-11.0516
▁snowflakes	-11.0517
val	-11.0518
▁calculat	-11.0519
citation	-11.052
▁movies	-11.0522
yahoo	-11.0531
▁fires	-11.0536
▁fantasian	-11.0538
▁loosen	-11.054
▁goodies	-11.055
▁fashions	-11.0553
driven	-11.0559
▁managers	-11.0569
den	-11.0575
▁forth	-11.0596
▁artic	-11.0601
ception	-11.0624
▁deliri	-11.0643
▁mines	-11.0654
▁weed	-11.0657
▁springs	-11.0661
cer	-11.0662
▁amp	-11.0668
lip	-11.0673
▁str	-11.0674
▁gim	-11.0674
▁cr	-11.0677
untie	-11.0677
▁engineer	-11.0682
ois	-11.0683
▁toss	-11.0694
▁aviat	-11.0696
▁bella	-11.0719
chicka	-11.0719
ons	-11.0723
▁equa	-11.0728
ram	-11.0731
rians	-11.0737
lar	-11.0738
▁tastes	-11.0748
▁fellows	-11.0752
▁pun	-11.0771
▁dud	-11.0774
ammy	-11.0778
▁helps	-11.0786
▁trips	-11.0803
▁yi	-11.0807
▁vip	-11.0813
▁eeri	-11.0819
▁mock	-11.082
▁emperors	-11.0821
sel	-11.0823
▁lind	-11.0829
▁suite	-11.0837
ummy	-11.0852
▁pitcher	-11.0859
epid	-11.0871
▁belle	-11.0909
▁sensibl	-11.0915
oring	-11.0943
▁fork	-11.0945
▁roads	-11.096
▁goody	-11.0964
▁messages	-11.0974
▁cups	-11.0985
bb	-11.0987
▁lik	-11.1
▁iot	-11.1001
▁stream	-11.1002
▁ses	-11.1049
▁chatt	-11.1061
▁thinkin	-11.1063
▁will	-11.1076
▁pleasures	-11.1076
▁dares	-11.1093
mail	-11.1106
▁kar	-11.111
▁tracks	-11.1113
▁tre	-11.1137
obbles	-11.1146
▁fli	-11.1146
▁proto	-11.1157
▁cancell	-11.1158
state	-11.1166
▁vali	-11.1169
ability	-11.1177
its	-11.1179
ms	-11.1182
▁and	-11.1183
ris	-11.1213
▁spic	-11.122
▁resist	-11.1226
unk	-11.1238
▁ku	-11.1337
▁sow	-11.1341
brain	-11.1342
▁chop	-11.1348
ddy	-11.135
▁just	-11.1351
▁specially	-11.1356
ised	-11.1367
▁boa	-11.1392
can	-11.1397
▁boats	-11.1409
▁smiles	-11.1421
▁corpora	-11.1446
▁as	-11.1461
▁participa	-11.1467
▁struggle	-11.149
▁aa	-11.1491
ming	-11.1513
▁shun	-11.1539
▁cur	-11.1544
▁bay	-11.1545
▁bond	-11.1548
▁dep	-11.1589
▁prevent	-11.1598
lin	-11.1604
che	-11.1606
▁wor	-11.1614
▁pur	-11.1617
▁av	-11.1617
anc	-11.1623
ify	-11.1629
shattering	-11.1662
▁cable	-11.1674
hae	-11.1677
▁menu	-11.1686
▁rains	-11.1705
▁ou	-11.171
ten	-11.1721
ig	-11.1725
erature	-11.1728
▁loop	-11.1751
ucks	-11.176
▁abb	-11.1776
▁af	-11.1777
oon	-11.1782
▁threaten	-11.1818
▁shhh	-11.1832
tting	-11.1832
▁lists	-11.1869
▁cru	-11.1874
▁suppl	-11.1882
▁doctors	-11.1884
evi	-11.1891
▁wil	-11.1895
▁pear	-11.1896
▁pia	-11.1897
▁hail	-11.1907
▁hates	-11.1915
ently	-11.1921
anni	-11.1934
▁lover	-11.1938
faddle	-11.1941
▁winds	-11.1961
bru	-11.1982
▁fright	-11.199
▁butcher	-11.2001
▁scal	-11.2003
aving	-11.2013
▁hung	-11.2029
▁continu	-11.2047
▁anyways	-11.2051
las	-11.2055
ugh	-11.2056
agged	-11.2086
▁chains	-11.2089
▁nick	-11.2094
▁nighty	-11.2098
ex	-11.2109
▁grind	-11.2121
ears	-11.2121
ai	-11.2134
talk	-11.2135
▁cons	-11.2136
▁snag	-11.2144
▁organ	-11.2151
yeah	-11.2155
▁prop	-11.216
▁ego	-11.2162
ggle	-11.2162
boarding	-11.2174
▁suns	-11.2183
▁sac	-11.2198
▁sacr	-11.2204
bles	-11.2205
▁goat	-11.2217
ole	-11.222
ality	-11.2228
▁compa	-11.2232
▁peri	-11.2234
lated	-11.2236
▁companions	-11.2247
▁limb	-11.2258
mate	-11.2261
▁hopeful	-11.2286
▁travell	-11.2287
▁dogg	-11.2298
ats	-11.2322
▁creat	-11.2332
iness	-11.2334
▁charit	-11.2337
▁off	-11.2342
tly	-11.2343
lined	-11.2346
tically	-11.2354
▁je	-11.2356
▁spa	-11.237
erol	-11.2372
water	-11.2391
▁wine	-11.2393
▁sho	-11.2408
▁activate	-11.2411
ife	-11.2419
▁brandne	-11.2428
owling	-11.2438
▁dodg	-11.244
rang	-11.2452
urry	-11.2461
aid	-11.2461
wn	-11.2464
ak	-11.2475
▁robbin	-11.2475
▁maniac	-11.248
▁sever	-11.2483
errier	-11.2489
iller	-11.2517
▁clip	-11.2528
▁bigg	-11.2533
▁haul	-11.2536
gas	-11.2538
ink	-11.2575
allah	-11.2576
▁para	-11.2577
▁burr	-11.2577
min	-11.258
pid	-11.2583
rts	-11.2589
what	-11.2615
▁persons	-11.2629
ina	-11.2633
how	-11.2637
▁defen	-11.2648
life	-11.2649
rich	-11.2654
▁coi	-11.2659
▁doo	-11.2669
inky	-11.2677
▁oohoohooh	-11.2689
▁brat	-11.27
▁favorabl	-11.2705
▁smi	-11.2706
father	-11.271
city	-11.2716
ked	-11.2729
rup	-11.273
school	-11.2779
▁fee	-11.2781
ran	-11.2782
perfect	-11.2795
der	-11.2798
clear	-11.2812
right	-11.2817
josh	-11.2819
cause	-11.282
ground	-11.2826
lap	-11.2828
wide	-11.2837
▁trop	-11.284
▁leech	-11.2841
track	-11.2855
▁this	-11.2855
lucky	-11.2861
▁deb	-11.2861
forward	-11.2867
human	-11.2875
budget	-11.2877
▁dump	-11.2878
▁jean	-11.2878
asting	-11.2882
si	-11.2885
▁promote	-11.2886
▁is	-11.2886
traveling	-11.2886
grown	-11.2891
minent	-11.2894
schedule	-11.2894
ir	-11.29
▁flee	-11.2905
▁outdoor	-11.2905
force	-11.291
islands	-11.291
▁ke	-11.2911
dust	-11.293
pose	-11.2937
▁bolt	-11.2949
confident	-11.295
▁toilet	-11.2952
esme	-11.2953
▁influence	-11.2954
▁primate	-11.2956
▁lea	-11.2956
eeting	-11.2957
▁experienc	-11.2957
▁festival	-11.2957
▁habitat	-11.2957
▁norm	-11.2958
▁option	-11.2959
▁roman	-11.2963
ison	-11.2964
▁benefit	-11.2967
▁aerodynamic	-11.2971
▁criminal	-11.2971
▁tribe	-11.2973
▁spectacle	-11.2974
▁curtain	-11.2974
loo	-11.2975
▁twerp	-11.2976
▁cheek	-11.2977
▁footprint	-11.2977
▁affair	-11.2978
▁steak	-11.2978
ok	-11.2979
▁escap	-11.2979
▁button	-11.298
▁competitor	-11.298
▁baboon	-11.2981
▁predict	-11.2982
ticking	-11.2983
▁giggle	-11.2983
▁bullet	-11.2983
that	-11.2985
reaction	-11.2988
ora	-11.2988
▁cracker	-11.2988
▁flare	-11.2989
▁jan	-11.2994
▁dollar	-11.2998
▁heed	-11.2999
▁scale	-11.3
oke	-11.3001
des	-11.3001
▁gulp	-11.3004
▁complaint	-11.3004
▁chuckle	-11.3008
▁amus	-11.301
ified	-11.301
eyed	-11.3016
▁standard	-11.3018
done	-11.3025
fair	-11.3028
hara	-11.303
verted	-11.3031
▁receiv	-11.3032
cede	-11.304
▁scrap	-11.304
▁splash	-11.304
shot	-11.304
▁econom	-11.304
ities	-11.3049
▁circl	-11.3055
ank	-11.3058
othy	-11.3059
▁argu	-11.306
▁imitat	-11.3066
▁grain	-11.307
▁shush	-11.3071
▁racket	-11.3073
sisters	-11.3076
rus	-11.3077
▁expose	-11.3077
▁describe	-11.3078
▁offend	-11.308
▁flav	-11.308
▁examine	-11.308
▁guilt	-11.3083
▁complex	-11.3084
▁shatt	-11.3085
▁worm	-11.3087
▁identif	-11.3089
▁mathematical	-11.3089
▁impress	-11.3089
nail	-11.309
▁fortunate	-11.309
▁paw	-11.3091
▁execution	-11.3093
polis	-11.3095
▁troop	-11.3097
nternational	-11.3097
▁darlin	-11.3099
▁civil	-11.31
▁dread	-11.31
▁beggin	-11.3101
▁possess	-11.3101
▁relent	-11.3101
▁definite	-11.3102
▁transport	-11.3103
▁entertain	-11.3103
▁drivin	-11.3103
▁interfere	-11.3103
▁neighbour	-11.3104
anthrop	-11.3104
cultivate	-11.3104
oeuvre	-11.3104
▁abigail	-11.3104
▁abruptly	-11.3104
▁acquaintance	-11.3104
▁afterwards	-11.3104
▁alexander	-11.3104
▁alpha	-11.3104
▁application	-11.3104
▁archaeologi	-11.3104
▁arithmetic	-11.3104
▁arthritis	-11.3104
▁astrochimp	-11.3104
▁awkward	-11.3104
▁babcock	-11.3104
▁bambina	-11.3104
▁barbecue	-11.3104
▁carjackers	-11.3104
▁catherine	-11.3104
▁charlemagne	-11.3104
▁condemn	-11.3104
▁confucius	-11.3104
▁continent	-11.3104
▁coocoo	-11.3104
▁deraccoonif	-11.3104
▁dizzy	-11.3104
▁dungeon	-11.3104
▁duvalle	-11.3104
▁emissary	-11.3104
▁enchanted	-11.3104
▁enchilada	-11.3104
▁endeavor	-11.3104
▁enlighten	-11.3104
▁enterprise	-11.3104
▁entourage	-11.3104
▁envelope	-11.3104
▁esquire	-11.3104
▁evacuation	-11.3104
▁evolution	-11.3104
▁fracture	-11.3104
▁fujisaki	-11.3104
▁gapyeong	-11.3104
▁gelato	-11.3104
▁gesundheit	-11.3104
▁gladiator	-11.3104
▁grizzly	-11.3104
▁hasslein	-11.3104
▁headhunter	-11.3104
▁helicopter	-11.3104
▁hibernate	-11.3104
▁hocuspocus	-11.3104
▁hurricane	-11.3104
▁impresario	-11.3104
▁increasing	-11.3104
▁intermediate	-11.3104
▁irresistible	-11.3104
▁iyiyiyi	-11.3104
▁jethro	-11.3104
▁labyrinth	-11.3104
▁louvre	-11.3104
▁ludovic	-11.3104
▁magnolia	-11.3104
▁maneuver	-11.3104
▁mathematics	-11.3104
▁matrimony	-11.3104
▁nitwit	-11.3104
▁oblivio	-11.3104
▁olympic	-11.3104
▁osprey	-11.3104
▁outgunned	-11.3104
▁overwhelmed	-11.3104
▁pitiful	-11.3104
▁pittsburgh	-11.3104
▁poverty	-11.3104
▁predator	-11.3104
▁predicament	-11.3104
▁privilege	-11.3104
▁prosecutor	-11.3104
▁provisions	-11.3104
▁pyramid	-11.3104
▁rehearse	-11.3104
▁roquefort	-11.3104
▁satisfy	-11.3104
▁scandal	-11.3104
▁schmidt	-11.3104
▁serignol	-11.3104
▁serpent	-11.3104
▁simpson	-11.3104
▁spectrum	-11.3104
▁sphinx	-11.3104
▁stephanie	-11.3104
▁supermarket	-11.3104
▁supremo	-11.3104
▁technician	-11.3104
▁thunderclap	-11.3104
▁thurman	-11.3104
▁tussle	-11.3104
▁tyranitar	-11.3104
▁vizag	-11.3104
▁voorhees	-11.3104
▁yahhoohoohoo	-11.3104
▁yorkshire	-11.3104
▁zugzug	-11.3104
▁division	-11.3104
▁eccentric	-11.3104
▁flagpole	-11.3104
▁kelsey	-11.3104
▁ahjussi	-11.3104
▁ballerina	-11.3104
▁capito	-11.3104
▁caviar	-11.3104
▁diminish	-11.3104
▁dunburry	-11.3104
▁exotic	-11.3104
▁forfeit	-11.3104
▁generosity	-11.3104
▁guerre	-11.3104
▁handbag	-11.3104
▁honeymoon	-11.3104
▁identical	-11.3104
▁kyung	-11.3104
▁longdistance	-11.3104
▁muffin	-11.3104
▁oldfashion	-11.3104
▁toothpaste	-11.3104
▁violent	-11.3104
▁wyoming	-11.3104
▁celebrity	-11.3104
▁gunshots	-11.3104
▁refrigerat	-11.3104
▁rhody	-11.3104
▁seashell	-11.3104
▁supreme	-11.3104
▁teresa	-11.3104
▁tribute	-11.3104
transistor	-11.3104
▁chrysa	-11.3104
▁detour	-11.3104
▁elbow	-11.3104
▁jeanbob	-11.3104
▁mechanism	-11.3104
▁nourish	-11.3104
▁sungmin	-11.3104
▁wkla	-11.3104
▁conjur	-11.3104
▁lumberjack	-11.3104
▁opponent	-11.3104
▁swayne	-11.3104
▁terrified	-11.3104
diggity	-11.3104
▁ethic	-11.3104
▁hormone	-11.3104
▁backpack	-11.3104
▁cribbing	-11.3104
▁inhabitants	-11.3104
▁massacre	-11.3104
▁upbringing	-11.3104
▁yadda	-11.3104
▁alaska	-11.3104
cratic	-11.3104
▁carburet	-11.3104
▁civilization	-11.3104
▁everlasting	-11.3104
▁inferior	-11.3104
▁intuiti	-11.3104
▁scarlet	-11.3104
▁boogie	-11.3104
▁conflict	-11.3104
▁glamor	-11.3104
▁marvellous	-11.3104
▁violence	-11.3104
▁adamant	-11.3104
▁swedish	-11.3104
▁thorough	-11.3104
▁trademark	-11.3104
▁yacht	-11.3104
▁confined	-11.3104
▁outrage	-11.3104
▁gallows	-11.3104
▁ultra	-11.3104
▁behavior	-11.3104
▁crisis	-11.3104
▁gallery	-11.3104
▁haruno	-11.3104
▁ingenu	-11.3104
▁chowder	-11.3104
▁gesture	-11.3104
▁numeric	-11.3104
▁overlapping	-11.3104
▁swift	-11.3104
▁sidney	-11.3104
▁macklin	-11.3104
▁choosing	-11.3104
▁chorus	-11.3104
▁goodwill	-11.3104
▁jewel	-11.3104
▁prospect	-11.3104
▁trifle	-11.3104
▁analysis	-11.3104
▁dissolve	-11.3104
▁imaginary	-11.3104
▁purple	-11.3104
▁leavin	-11.3104
▁random	-11.3104
▁taiking	-11.3104
▁bruno	-11.3104
▁prompt	-11.3104
▁reflection	-11.3104
▁squawks	-11.3104
▁dispute	-11.3104
▁landscap	-11.3104
▁hoofer	-11.3104
▁jaq	-11.3104
▁carcass	-11.3104
▁fulton	-11.3104
▁probation	-11.3104
▁hehheh	-11.3104
▁janitor	-11.3104
▁turbulence	-11.3104
▁assessment	-11.3104
▁endowment	-11.3104
▁guidance	-11.3104
▁neighbourhood	-11.3104
▁industrial	-11.3104
▁eddie	-11.3104
▁annette	-11.3104
▁appreciation	-11.3104
▁confusion	-11.3104
▁notify	-11.3104
▁aspirin	-11.3104
▁courtiers	-11.3104
▁confront	-11.3104
upiter	-11.3104
▁desirable	-11.3104
▁cinders	-11.3104
▁instance	-11.3104
▁peacock	-11.3104
▁bogeyman	-11.3104
▁herbs	-11.3104
▁fungus	-11.3104
▁gagging	-11.3104
▁lemonade	-11.3104
▁snowmobile	-11.3104
▁destructor	-11.3104
▁duct	-11.3105
▁hungarian	-11.3105
▁spurt	-11.3105
▁topsecret	-11.3105
▁satisfaction	-11.3105
▁groceries	-11.3105
▁overpower	-11.3105
▁crooked	-11.3105
▁alternative	-11.3105
▁foremost	-11.3105
▁chopped	-11.3105
▁butterball	-11.3105
▁translator	-11.3105
▁hammock	-11.3105
▁cramp	-11.3105
▁debate	-11.3105
▁separation	-11.3105
▁keenan	-11.3105
▁insult	-11.3105
▁lobby	-11.3105
▁cooperation	-11.3105
▁devastating	-11.3105
▁donuts	-11.3105
▁brotherinlaw	-11.3105
▁greece	-11.3105
▁quaint	-11.3105
▁pepper	-11.3105
▁multi	-11.3105
▁whatwhat	-11.3105
▁iunch	-11.3105
▁kurt	-11.3105
▁vegeta	-11.3105
▁unacceptable	-11.3105
▁yield	-11.3105
tailed	-11.3105
▁bugging	-11.3105
▁inquisitive	-11.3105
▁cotton	-11.3105
▁salary	-11.3105
▁frail	-11.3105
ohohohohoh	-11.3105
▁critical	-11.3105
▁myth	-11.3105
▁oliver	-11.3106
▁perkins	-11.3106
▁unfur	-11.3106
▁pedal	-11.3106
▁session	-11.3106
▁affectionate	-11.3106
▁stevenson	-11.3106
▁psychologist	-11.3106
▁snack	-11.3106
▁display	-11.3106
▁loyalty	-11.3106
▁depth	-11.3106
gratitude	-11.3106
▁flung	-11.3106
▁representative	-11.3106
randall	-11.3106
▁freeload	-11.3106
▁galax	-11.3106
▁luxury	-11.3107
▁booze	-11.3107
▁whoohoohoo	-11.3107
▁tumtum	-11.3107
▁rolloll	-11.3107
▁donford	-11.3107
▁sasha	-11.3107
▁gangster	-11.3107
▁sliding	-11.3107
▁jello	-11.3107
▁soaring	-11.3107
▁literary	-11.3107
▁sandstone	-11.3107
▁cinch	-11.3107
▁giddyup	-11.3107
uptight	-11.3107
▁nickel	-11.3107
▁slept	-11.3107
▁precede	-11.3107
▁wilson	-11.3107
▁harley	-11.3107
▁excellency	-11.3107
▁nobu	-11.3107
▁triumphant	-11.3107
▁overnight	-11.3107
▁doggie	-11.3107
▁iq	-11.3108
▁vibe	-11.3108
▁vermin	-11.3108
▁inhaling	-11.3108
▁snapping	-11.3108
▁clunk	-11.3108
▁automatically	-11.3108
▁injunction	-11.3108
▁destin	-11.3108
▁homesick	-11.3108
▁sofa	-11.3108
▁dopey	-11.3108
▁judging	-11.3108
▁barrel	-11.3109
▁brew	-11.3109
▁dumpster	-11.3109
▁batteries	-11.3109
▁extravagant	-11.3109
▁transferred	-11.3109
▁countdown	-11.3109
▁skillful	-11.3109
▁biue	-11.3109
▁frustrated	-11.3109
▁clumsy	-11.3109
▁touchdown	-11.311
▁edition	-11.311
▁temple	-11.311
▁snuggly	-11.311
▁exhibition	-11.311
▁inspired	-11.311
▁entomology	-11.311
▁stumbled	-11.311
▁hospitality	-11.311
▁spunk	-11.311
▁hypo	-11.311
▁obsess	-11.311
▁spooky	-11.3111
▁leak	-11.3111
▁weakness	-11.3111
▁prix	-11.3111
▁rational	-11.3111
▁alleg	-11.3111
▁outcome	-11.3111
▁defuse	-11.3111
▁classroom	-11.3111
▁institution	-11.3111
▁chairman	-11.3112
▁basis	-11.3112
▁decade	-11.3112
▁ieft	-11.3112
▁flour	-11.3112
▁depart	-11.3112
▁kidney	-11.3112
▁alise	-11.3112
▁stirred	-11.3112
wear	-11.3112
▁reservation	-11.3112
▁humor	-11.3112
▁hesitate	-11.3112
▁expectations	-11.3112
▁cawing	-11.3112
▁underway	-11.3112
▁ferry	-11.3113
▁grooming	-11.3113
▁laundry	-11.3113
▁fischer	-11.3113
▁raven	-11.3113
yeyed	-11.3113
▁etern	-11.3113
▁confused	-11.3113
▁ignorant	-11.3114
▁moans	-11.3114
▁menacing	-11.3114
▁cunning	-11.3114
▁archi	-11.3114
ona	-11.3115
▁heavier	-11.3115
▁disgusting	-11.3115
▁hasty	-11.3115
▁robinson	-11.3115
▁noodle	-11.3115
▁participate	-11.3116
▁ohhhh	-11.3116
▁tummy	-11.3116
▁harness	-11.3116
▁management	-11.3116
▁buff	-11.3116
▁margo	-11.3116
▁diaper	-11.3116
▁painful	-11.3117
▁tonic	-11.3117
▁treatment	-11.3117
▁overhea	-11.3117
▁opposed	-11.3117
▁educated	-11.3117
▁cried	-11.3118
▁pintsize	-11.3118
▁educating	-11.3118
▁rigor	-11.3118
▁widower	-11.3118
lusions	-11.3118
▁fortunately	-11.3118
▁invitational	-11.3118
▁admitted	-11.3118
croix	-11.3119
rived	-11.3119
▁psyched	-11.3119
▁noah	-11.3119
▁betrayed	-11.3119
▁peach	-11.3119
▁contain	-11.312
▁hometown	-11.312
▁thou	-11.312
▁basement	-11.312
▁gallon	-11.312
▁rejected	-11.312
▁patron	-11.312
▁wrecked	-11.312
▁browns	-11.3121
▁limping	-11.3121
▁located	-11.3121
▁inn	-11.3121
▁investigate	-11.3122
▁antique	-11.3122
ipal	-11.3122
▁flap	-11.3122
▁arrow	-11.3122
▁radar	-11.3123
▁funeral	-11.3123
▁stunt	-11.3123
▁puzzle	-11.3123
▁buckled	-11.3124
▁neely	-11.3124
▁celebration	-11.3124
▁ashman	-11.3124
▁steering	-11.3124
▁beginner	-11.3124
▁worldwide	-11.3125
rtoni	-11.3125
▁blowout	-11.3125
▁booty	-11.3126
▁baseman	-11.3126
▁sleeve	-11.3126
▁coloss	-11.3126
▁greedy	-11.3127
▁unlock	-11.3127
▁curl	-11.3127
▁moley	-11.3127
▁dreaded	-11.3128
▁tyres	-11.3128
adjustment	-11.3128
▁dopes	-11.3128
▁rodent	-11.3128
▁constantly	-11.3128
▁navigat	-11.3128
endous	-11.3129
▁consistent	-11.3129
▁shipment	-11.3129
▁growth	-11.313
▁squire	-11.313
▁reproduce	-11.313
▁offended	-11.313
▁annoying	-11.313
▁snip	-11.3131
▁atmosphere	-11.3131
▁judgement	-11.3131
▁shuddering	-11.3131
▁teamwork	-11.3132
▁examined	-11.3132
▁wond	-11.3132
▁exposed	-11.3133
▁income	-11.3134
▁expenses	-11.3134
cooperative	-11.3135
▁france	-11.3135
▁beau	-11.3135
▁dart	-11.3135
▁lankoms	-11.3136
▁beggars	-11.3136
▁applicants	-11.3136
▁drain	-11.3136
▁cabbages	-11.3136
▁semifinals	-11.3136
▁scoundrels	-11.3136
▁pigeons	-11.3136
▁freshman	-11.3136
▁contributions	-11.3136
▁reptiles	-11.3136
▁worthless	-11.3137
▁tomatoes	-11.3137
▁analy	-11.3137
▁seventh	-11.3137
▁creep	-11.3137
▁superman	-11.3137
▁competing	-11.3138
▁mankind	-11.3138
▁fallout	-11.3138
▁airways	-11.3138
▁volcano	-11.3139
▁outlets	-11.3139
▁permanently	-11.3139
▁robbers	-11.314
▁iodi	-11.3141
▁setup	-11.3141
▁guts	-11.3141
▁treachery	-11.3142
▁ranch	-11.3142
▁surviving	-11.3142
▁difficulties	-11.3142
▁declared	-11.3143
▁inau	-11.3143
▁mich	-11.3144
▁informed	-11.3144
▁chess	-11.3144
▁selected	-11.3144
▁proceedings	-11.3145
▁iife	-11.3145
▁wealthy	-11.3145
▁fond	-11.3148
▁deter	-11.3149
▁aaahh	-11.3149
grams	-11.3149
▁knack	-11.315
▁rubber	-11.315
▁stroke	-11.315
▁gir	-11.3151
▁indict	-11.3151
size	-11.3151
▁dockers	-11.3151
▁monks	-11.3151
▁daylight	-11.3151
▁peasant	-11.3152
▁disturbed	-11.3152
▁awaken	-11.3152
▁splashing	-11.3152
etti	-11.3152
▁atla	-11.3153
▁synthe	-11.3153
▁surgical	-11.3153
▁updated	-11.3154
▁inventory	-11.3155
▁argentine	-11.3155
▁approved	-11.3156
▁sensitive	-11.3157
▁telescop	-11.3157
▁livin	-11.3157
▁twisted	-11.3159
▁chemistry	-11.3161
▁occupied	-11.3162
▁mirror	-11.3162
▁emma	-11.3162
▁abolished	-11.3162
▁background	-11.3162
▁revealed	-11.3162
▁aj	-11.3162
▁greed	-11.3163
atch	-11.3163
self	-11.3163
verge	-11.3163
▁tension	-11.3165
▁knox	-11.3165
▁parent	-11.3165
▁aish	-11.3166
▁prank	-11.3167
▁quot	-11.3167
▁praised	-11.3167
▁injection	-11.3167
ished	-11.3168
▁stretching	-11.3168
▁puncture	-11.3168
▁deaf	-11.3169
▁gents	-11.3169
▁concert	-11.3169
▁stable	-11.317
▁flown	-11.317
▁dared	-11.3172
▁restored	-11.3172
▁receiver	-11.3173
▁politics	-11.3174
▁defying	-11.3174
▁developed	-11.3174
▁patched	-11.3175
▁pouring	-11.3175
▁descending	-11.3175
▁filter	-11.3175
▁nanny	-11.3175
▁betty	-11.3176
▁fleas	-11.3177
▁canvass	-11.3177
▁doorway	-11.3177
▁detailed	-11.3177
▁bitter	-11.3178
▁thrilled	-11.3178
▁wobbl	-11.318
▁bakery	-11.318
▁revert	-11.3181
▁exterminate	-11.3182
▁instantly	-11.3182
entice	-11.3182
visible	-11.3182
▁explored	-11.3183
▁businessman	-11.3183
▁langur	-11.3183
▁hardship	-11.3183
▁roughly	-11.3183
▁earthling	-11.3186
ca	-11.3187
chipper	-11.3188
▁darkest	-11.3188
▁relations	-11.3189
▁newspapers	-11.319
▁precautions	-11.319
▁astronauts	-11.319
▁appearances	-11.319
eft	-11.319
flight	-11.3191
▁grey	-11.3191
▁cruis	-11.3192
ree	-11.3193
ament	-11.3194
▁indiana	-11.3194
▁sieep	-11.3194
▁billions	-11.3198
▁beards	-11.3199
▁hitched	-11.3199
mation	-11.3199
▁cafe	-11.32
▁directed	-11.32
▁funnie	-11.3202
▁requested	-11.3204
▁trend	-11.3205
▁hunted	-11.3207
fect	-11.3209
▁hiss	-11.3211
▁fr	-11.3211
▁sweating	-11.3214
▁captured	-11.3216
▁intended	-11.3216
▁mound	-11.3218
▁darts	-11.322
▁rack	-11.3222
▁moor	-11.3222
▁rebuild	-11.3225
▁marble	-11.3226
▁trembl	-11.3226
▁reminded	-11.323
▁dearie	-11.3232
▁coke	-11.3234
▁creaks	-11.3235
▁wret	-11.3235
▁steaks	-11.3236
▁styl	-11.3237
▁grape	-11.3238
▁bribe	-11.3238
olated	-11.324
▁repl	-11.324
vacu	-11.3241
▁clank	-11.3243
▁hors	-11.3243
▁raw	-11.3244
▁benefits	-11.3244
▁novel	-11.3245
ron	-11.3247
▁crackers	-11.3248
▁edit	-11.3248
▁scales	-11.3249
▁buttons	-11.3249
▁broad	-11.325
▁lack	-11.3251
▁union	-11.3252
▁wiser	-11.3252
▁complaints	-11.3253
▁equipped	-11.3254
▁smarter	-11.3255
▁skateboarder	-11.3256
anca	-11.3257
▁theatr	-11.3258
psy	-11.3258
▁holly	-11.3259
icky	-11.3264
▁circum	-11.3264
ballgame	-11.3266
▁crawl	-11.3267
transl	-11.3268
▁drowning	-11.3268
▁poker	-11.3269
▁mountaineer	-11.3269
▁swinging	-11.3272
▁photographer	-11.3274
▁happenin	-11.3275
▁festiv	-11.3275
▁rage	-11.3276
▁chump	-11.3277
▁choke	-11.3282
▁discussion	-11.3282
▁blake	-11.3283
▁riddle	-11.3284
ag	-11.3285
▁fueled	-11.3286
liable	-11.3288
▁consideration	-11.3289
gant	-11.329
▁explorer	-11.329
▁limp	-11.3292
zen	-11.3293
▁terms	-11.3293
▁dork	-11.3296
▁sneaking	-11.3296
▁virtue	-11.3296
▁smashing	-11.3298
this	-11.3298
▁rooting	-11.33
▁bluebirds	-11.3301
▁coward	-11.3301
▁collectors	-11.3303
▁explodes	-11.3305
▁limo	-11.3306
▁petition	-11.3307
▁corps	-11.3309
▁movements	-11.3312
aw	-11.3312
▁stinks	-11.3315
▁sc	-11.3315
▁whales	-11.3315
▁hardest	-11.3317
sed	-11.3323
ana	-11.3323
▁devise	-11.3325
▁limited	-11.3326
lousy	-11.3326
▁wounds	-11.3327
▁risky	-11.3329
▁pier	-11.333
▁convert	-11.3332
heads	-11.3335
▁apri	-11.3336
▁creamy	-11.3336
▁jackson	-11.3339
▁eatin	-11.334
▁madly	-11.3343
▁retreat	-11.3345
▁cease	-11.3346
▁agh	-11.3346
▁pamper	-11.3351
▁possibi	-11.3351
▁marketing	-11.3354
▁rake	-11.3357
▁effects	-11.336
▁puffs	-11.3361
▁tinkl	-11.3364
emer	-11.3367
▁mum	-11.3374
tar	-11.3375
▁cooler	-11.3377
▁prominen	-11.3377
▁potion	-11.3383
▁climbers	-11.3385
radle	-11.3391
▁poet	-11.3392
ds	-11.3393
▁ruining	-11.3396
▁commanding	-11.3397
▁injur	-11.34
▁charmer	-11.3404
▁sal	-11.3404
▁climbed	-11.3405
▁gra	-11.3406
rent	-11.3406
▁regards	-11.3409
▁uniforms	-11.3412
▁sheepdogs	-11.3413
▁differently	-11.3415
▁invitations	-11.3415
▁beastly	-11.3416
▁pits	-11.3421
▁distribut	-11.3421
▁filling	-11.3422
▁tasted	-11.3425
▁messed	-11.3428
▁ahha	-11.3431
▁wig	-11.3438
ooooh	-11.3446
▁suggested	-11.345
fed	-11.3452
▁repeating	-11.3458
even	-11.346
▁lv	-11.3461
▁trunks	-11.3465
▁artists	-11.3465
▁suggestion	-11.3466
▁feathers	-11.3468
▁fatal	-11.3482
▁laughed	-11.3483
enja	-11.3484
▁bisc	-11.3484
gan	-11.3486
▁probabi	-11.3487
▁blasts	-11.3488
▁honesty	-11.3492
ization	-11.3497
eers	-11.3498
▁believes	-11.3498
▁unknow	-11.3499
▁weep	-11.3499
▁sicken	-11.3506
▁anti	-11.3515
uch	-11.3515
▁sequ	-11.3516
▁longest	-11.3518
▁ju	-11.352
bones	-11.3524
▁sleeps	-11.3528
▁turnip	-11.3528
▁sponsors	-11.3528
▁doodle	-11.3528
▁rewards	-11.353
tric	-11.3533
▁universit	-11.3533
▁quarters	-11.3537
▁bury	-11.3539
▁practic	-11.3541
rass	-11.3542
▁gradual	-11.3543
▁hm	-11.3543
▁submit	-11.3547
▁crud	-11.3552
▁arrives	-11.3554
ith	-11.3554
▁fooled	-11.3555
▁illustrati	-11.3558
ung	-11.3568
▁currents	-11.3568
▁ideal	-11.3569
▁inquir	-11.3574
▁robe	-11.3575
▁foe	-11.3586
▁optimist	-11.359
▁bangs	-11.3591
gly	-11.3593
▁presented	-11.3603
▁insists	-11.3612
minded	-11.3615
ened	-11.3623
uh	-11.3623
▁slack	-11.3626
▁squa	-11.3627
aged	-11.3633
cut	-11.3637
upper	-11.3646
▁catches	-11.365
hill	-11.3654
▁wires	-11.3655
▁importantly	-11.3655
▁founder	-11.3659
▁trigg	-11.3668
cked	-11.3674
holic	-11.3676
▁bind	-11.3678
▁inde	-11.3684
otto	-11.3685
▁assistants	-11.3689
ovi	-11.3696
▁actions	-11.3709
rrier	-11.3711
▁cleaning	-11.3719
▁rung	-11.3719
▁merge	-11.3722
▁rio	-11.3724
▁messing	-11.3727
mma	-11.3733
▁relieve	-11.3734
▁traditions	-11.3741
▁timmys	-11.3743
▁illusions	-11.3748
soon	-11.3756
▁cages	-11.3766
we	-11.3766
▁sales	-11.3768
▁strings	-11.3769
▁maniacal	-11.3769
▁beautifui	-11.3769
▁ballo	-11.3771
vi	-11.3772
▁tramp	-11.3782
▁caf	-11.3782
▁sally	-11.3782
▁sol	-11.3794
▁apologi	-11.3796
▁cooled	-11.3797
nual	-11.3804
▁riot	-11.3809
▁ap	-11.381
▁rises	-11.381
▁roar	-11.3817
ouidnt	-11.3818
well	-11.3821
ash	-11.3825
▁trusted	-11.3838
▁hut	-11.3853
▁princesses	-11.3873
▁rockets	-11.3877
▁eliminat	-11.3879
▁flaw	-11.388
▁resign	-11.3886
ull	-11.3886
▁abuse	-11.3889
▁psycholog	-11.3896
▁vent	-11.3898
▁sakes	-11.3903
▁locals	-11.3907
▁shad	-11.3915
▁gyr	-11.3926
bing	-11.3927
sized	-11.3939
▁exception	-11.395
▁cann	-11.3952
▁wai	-11.3953
▁lighten	-11.3956
▁lump	-11.3963
pers	-11.3966
▁def	-11.3972
yster	-11.3977
▁ruffi	-11.3986
▁abs	-11.3988
▁occasional	-11.3988
▁contra	-11.3998
▁scores	-11.3998
ishing	-11.4001
▁battles	-11.4002
▁officers	-11.4002
timer	-11.4006
▁singers	-11.4008
▁rear	-11.4013
▁settles	-11.4026
assembled	-11.4027
▁pins	-11.4035
aah	-11.4037
▁mes	-11.404
▁accommodat	-11.4044
▁showers	-11.4059
▁naive	-11.4061
▁companion	-11.4064
daft	-11.4066
▁lame	-11.4068
wig	-11.4071
▁cal	-11.4074
▁tanks	-11.4076
▁thu	-11.408
▁bea	-11.4089
ba	-11.411
▁clues	-11.4111
itti	-11.4116
▁cheerful	-11.4117
igan	-11.4121
anna	-11.4135
ug	-11.4174
cade	-11.4184
▁han	-11.4188
▁irre	-11.4201
▁craft	-11.4201
▁loo	-11.4207
sion	-11.4208
▁worker	-11.4218
ional	-11.423
▁flan	-11.423
▁overreact	-11.4231
▁traverse	-11.4233
▁highway	-11.4241
▁stitch	-11.4254
▁translate	-11.4259
▁boil	-11.4284
▁din	-11.4287
dded	-11.4298
▁dams	-11.4302
bbing	-11.4304
cities	-11.4305
ips	-11.4309
neon	-11.4332
idden	-11.4344
ncy	-11.4346
▁tempt	-11.4349
ke	-11.4352
corn	-11.4357
▁telly	-11.4361
uary	-11.4367
▁sayin	-11.438
ont	-11.4384
▁talents	-11.4386
ja	-11.4387
load	-11.439
reat	-11.4393
astic	-11.4402
▁presidents	-11.4409
▁thunderbirds	-11.442
rations	-11.442
spite	-11.442
▁ls	-11.4429
postal	-11.4445
ven	-11.4473
▁dates	-11.4478
oney	-11.4486
▁covers	-11.4489
ani	-11.449
rase	-11.4496
protective	-11.4496
▁agrees	-11.4506
▁caller	-11.4508
▁att	-11.4509
▁instruct	-11.4509
▁forces	-11.4516
▁unle	-11.4518
▁yippi	-11.4519
cold	-11.4527
kers	-11.4529
▁hah	-11.4532
voir	-11.4534
llen	-11.4537
▁conscien	-11.4545
▁conc	-11.4546
ya	-11.4547
▁conce	-11.4554
▁growl	-11.4556
▁justif	-11.4559
▁feeds	-11.4567
▁boost	-11.4569
ickens	-11.4571
▁groups	-11.4578
▁services	-11.4583
▁interests	-11.4585
phant	-11.4593
▁throats	-11.4599
yi	-11.4603
▁ion	-11.4621
lick	-11.4629
zing	-11.464
west	-11.4646
▁plunge	-11.4647
gging	-11.4648
nah	-11.4652
▁phon	-11.4652
ense	-11.4655
▁nutritio	-11.4658
▁charges	-11.4665
▁pointing	-11.4669
▁memorab	-11.467
▁simi	-11.4676
▁gay	-11.468
▁mat	-11.4689
▁overse	-11.4718
nows	-11.4725
▁hind	-11.4738
▁rec	-11.4741
▁here	-11.4746
▁jer	-11.4747
hey	-11.4752
▁poach	-11.4756
▁stow	-11.4756
slipped	-11.4767
▁finer	-11.4777
con	-11.478
ouve	-11.4786
row	-11.4789
nvoy	-11.4795
▁tests	-11.4797
ust	-11.4808
▁rivers	-11.481
▁doubts	-11.4813
act	-11.4822
di	-11.484
nny	-11.4842
pulse	-11.4854
devi	-11.4865
▁earn	-11.4871
▁excuses	-11.4878
heart	-11.4878
▁miser	-11.4886
▁shown	-11.4909
owing	-11.4921
▁valentine	-11.4928
▁waiter	-11.4937
raids	-11.4945
owed	-11.4965
▁mal	-11.497
▁goo	-11.4994
▁combine	-11.4996
▁app	-11.5006
mise	-11.5015
▁spook	-11.5023
▁gass	-11.5025
▁skis	-11.5028
▁kicks	-11.503
▁drill	-11.5031
shore	-11.5036
poo	-11.5041
ove	-11.5042
▁reader	-11.5048
rious	-11.5065
▁skipp	-11.507
ington	-11.5073
▁ports	-11.5088
▁ni	-11.509
▁ads	-11.5102
ock	-11.5104
hanks	-11.5105
ieve	-11.5136
▁understands	-11.5139
▁ins	-11.5143
inall	-11.5144
▁wanting	-11.5145
ere	-11.5149
▁ecc	-11.5159
▁cane	-11.5168
bo	-11.5183
▁generals	-11.519
▁kin	-11.5192
hunt	-11.5204
ensible	-11.5237
▁sur	-11.5243
still	-11.5246
▁pies	-11.5249
▁aur	-11.5274
ol	-11.5289
▁beave	-11.5293
eagle	-11.5325
oni	-11.5337
verse	-11.5339
▁tar	-11.5341
▁function	-11.5348
have	-11.5352
inary	-11.5353
▁dum	-11.536
sman	-11.5365
▁rut	-11.5375
▁ver	-11.5387
▁ithat	-11.5392
▁tang	-11.5401
▁wakes	-11.5407
▁gru	-11.5412
▁lone	-11.5414
inning	-11.5426
alo	-11.5432
▁stri	-11.5443
erries	-11.5458
hoots	-11.5493
▁ros	-11.5498
▁stress	-11.5499
▁handles	-11.5517
▁dated	-11.5534
uveni	-11.5537
▁peel	-11.554
top	-11.5558
als	-11.5559
▁supervise	-11.5563
▁pha	-11.5598
wed	-11.5603
▁sorts	-11.5608
▁hens	-11.5617
▁disc	-11.562
▁obs	-11.562
burry	-11.5632
kon	-11.5647
kin	-11.5655
ore	-11.5655
solved	-11.5658
wink	-11.5676
▁distort	-11.5682
▁beca	-11.5688
▁yu	-11.5693
▁isi	-11.5697
▁dive	-11.5702
just	-11.5703
mb	-11.5715
ibal	-11.5716
▁incubat	-11.5733
▁ruth	-11.5758
▁dra	-11.577
date	-11.5775
▁sap	-11.5794
▁missy	-11.5799
▁mer	-11.58
ime	-11.5801
cky	-11.581
fors	-11.5825
point	-11.5829
usion	-11.5831
▁format	-11.5846
▁hangs	-11.5862
▁attach	-11.5873
▁sni	-11.5879
▁cho	-11.5883
aaaaah	-11.5884
▁ay	-11.5908
omination	-11.5914
range	-11.5923
▁medi	-11.5934
▁clari	-11.5935
▁whir	-11.5969
rays	-11.5969
▁superst	-11.5976
simila	-11.5991
opo	-11.5996
▁blea	-11.5997
vast	-11.6014
▁attracti	-11.6014
▁swo	-11.6018
▁conserv	-11.6032
eeeeee	-11.6058
irring	-11.6065
key	-11.6073
▁rebel	-11.608
ph	-11.6084
hyd	-11.61
gest	-11.6104
▁ev	-11.6114
▁pollinat	-11.6116
▁transmit	-11.613
▁nno	-11.6144
tin	-11.6145
ki	-11.6148
tler	-11.6152
oran	-11.6152
replace	-11.6159
▁rea	-11.6159
▁classic	-11.617
▁impos	-11.6172
planted	-11.6179
embe	-11.6179
▁checker	-11.6186
▁dangl	-11.6187
full	-11.6195
mu	-11.6199
▁cro	-11.624
night	-11.6246
snt	-11.626
▁acce	-11.6283
▁ec	-11.6312
▁swell	-11.6319
dication	-11.6365
mature	-11.6366
▁pos	-11.637
▁shots	-11.6372
▁advise	-11.6383
ss	-11.6404
▁champions	-11.6413
▁twi	-11.6416
▁adopti	-11.6433
▁tran	-11.6434
uja	-11.6458
mous	-11.6466
▁pea	-11.6469
▁sn	-11.6471
▁isl	-11.6477
kl	-11.6479
▁discourage	-11.6479
used	-11.6492
▁returns	-11.6492
strict	-11.6495
▁chil	-11.6505
▁define	-11.6531
▁boot	-11.6546
doubted	-11.6559
▁glori	-11.656
▁calculate	-11.6584
▁propos	-11.6589
ttle	-11.659
roll	-11.6593
▁fre	-11.6598
▁yipp	-11.6602
zzi	-11.6608
▁flake	-11.661
wart	-11.6631
▁hats	-11.6633
powered	-11.6634
avan	-11.664
ook	-11.664
▁trot	-11.6645
▁imp	-11.6652
folded	-11.6682
iate	-11.6697
port	-11.6711
▁righthand	-11.6721
arch	-11.6728
▁morti	-11.6733
▁aga	-11.6741
▁rom	-11.6741
▁pers	-11.6747
rr	-11.6749
▁remembers	-11.6756
chi	-11.6756
▁op	-11.6766
stage	-11.6769
▁gorg	-11.6773
▁strip	-11.678
play	-11.6781
▁thru	-11.6808
ography	-11.6814
▁stru	-11.6828
dge	-11.6837
ugged	-11.6843
dong	-11.685
ient	-11.6875
rist	-11.6879
gs	-11.6888
essing	-11.6889
icy	-11.6913
▁waited	-11.6922
hen	-11.6944
gu	-11.6946
▁hom	-11.6951
▁scatt	-11.6954
donna	-11.6957
ella	-11.6959
idity	-11.6986
rot	-11.6991
▁rad	-11.6991
loaded	-11.701
aking	-11.7021
yes	-11.7021
▁sk	-11.7032
ngs	-11.7057
▁tame	-11.7092
▁sees	-11.7092
▁swed	-11.7098
ize	-11.7103
bul	-11.7105
▁commit	-11.7115
put	-11.7117
mama	-11.712
▁dec	-11.7128
bite	-11.7153
gre	-11.7157
▁indi	-11.7164
▁victori	-11.7168
so	-11.719
ational	-11.719
ones	-11.7209
ga	-11.7211
if	-11.7218
▁acomin	-11.7226
▁tru	-11.7228
cat	-11.723
▁barri	-11.7242
▁glue	-11.7254
mount	-11.726
tie	-11.7261
round	-11.7265
norm	-11.7268
wait	-11.7268
garet	-11.7275
▁inc	-11.7278
who	-11.7279
▁affect	-11.728
▁savo	-11.728
▁waah	-11.7286
fe	-11.7288
blood	-11.729
laying	-11.7291
▁sno	-11.7304
make	-11.7313
▁opera	-11.7314
▁gla	-11.7317
wing	-11.734
▁mischie	-11.7347
bic	-11.7348
ud	-11.7357
tan	-11.7367
▁implicat	-11.7369
▁flo	-11.7374
tics	-11.7375
tle	-11.7378
▁fund	-11.7387
fr	-11.739
▁mart	-11.7393
▁exc	-11.7411
▁hustl	-11.7412
▁peter	-11.7417
bad	-11.7424
lute	-11.7428
▁bou	-11.7439
▁onion	-11.744
▁bustin	-11.744
llies	-11.7449
lot	-11.7454
two	-11.7456
around	-11.7459
▁greener	-11.7466
▁woohoo	-11.7477
▁pub	-11.7483
gent	-11.7491
▁poo	-11.7493
▁stinkin	-11.7504
sure	-11.7506
nothing	-11.751
reaking	-11.7522
▁pale	-11.7525
▁nooo	-11.7532
lini	-11.7533
urd	-11.7534
iiy	-11.7543
whoa	-11.7544
lity	-11.7562
anny	-11.7571
llow	-11.7574
ac	-11.7575
igger	-11.7579
inde	-11.758
▁wea	-11.7584
three	-11.759
ov	-11.7597
▁holder	-11.7597
cake	-11.7599
▁anni	-11.7616
obs	-11.7624
gy	-11.7637
today	-11.7637
▁yearnin	-11.7643
knowing	-11.765
▁includin	-11.7668
ple	-11.7668
▁fla	-11.7675
bird	-11.7676
my	-11.768
▁unc	-11.7681
▁iin	-11.7685
leave	-11.7688
▁stir	-11.769
poke	-11.7694
ines	-11.7694
▁crop	-11.7699
▁ob	-11.7701
word	-11.7701
▁tak	-11.771
ction	-11.771
fax	-11.7727
▁ach	-11.7728
▁dine	-11.773
second	-11.7732
prince	-11.7733
special	-11.7735
▁bum	-11.7737
bbie	-11.7742
sweet	-11.775
fall	-11.7756
rock	-11.7765
four	-11.7766
anz	-11.7782
▁skateboard	-11.7786
walk	-11.7788
elly	-11.7789
storm	-11.779
part	-11.7792
armed	-11.7795
petition	-11.7796
where	-11.7799
precise	-11.78
order	-11.7807
break	-11.7808
lf	-11.7808
▁oohhoo	-11.7808
country	-11.7811
ral	-11.7812
quint	-11.7816
laughs	-11.7817
chop	-11.7818
except	-11.7819
stand	-11.782
class	-11.7821
abies	-11.7824
hearted	-11.7826
tail	-11.783
flying	-11.783
wise	-11.7832
afternoon	-11.7832
hundred	-11.7834
pic	-11.7836
distancing	-11.7838
float	-11.7839
▁hose	-11.784
forth	-11.7843
coach	-11.7845
gal	-11.7846
wife	-11.7854
▁zip	-11.7854
▁heave	-11.7855
certain	-11.7856
finished	-11.7859
hee	-11.7859
▁moons	-11.786
zard	-11.7861
za	-11.7861
different	-11.7861
keeper	-11.7864
drop	-11.7864
equipped	-11.7865
ladi	-11.7865
▁committ	-11.7868
apple	-11.7876
northeast	-11.7876
sophisticated	-11.7878
slave	-11.7879
fantastic	-11.7881
driver	-11.7883
skating	-11.7884
crows	-11.7884
▁explore	-11.7889
spring	-11.789
limited	-11.7891
strength	-11.7892
league	-11.7892
burn	-11.7894
collect	-11.7895
uffs	-11.7896
▁canyoneer	-11.7901
▁psycho	-11.7906
▁keen	-11.7906
fifty	-11.7908
cast	-11.7914
pool	-11.7915
respect	-11.7915
beam	-11.7919
▁keeper	-11.792
▁lei	-11.792
luc	-11.7922
public	-11.7925
bread	-11.7926
color	-11.7932
month	-11.7933
about	-11.7937
▁discus	-11.795
▁explosive	-11.7954
▁scheme	-11.7954
fever	-11.7957
▁client	-11.7957
▁flu	-11.7957
▁myster	-11.796
▁prepar	-11.7961
iz	-11.7963
▁recycle	-11.7963
▁programme	-11.7964
▁theodor	-11.7965
eating	-11.7965
bar	-11.7965
▁precaution	-11.7965
tto	-11.7965
▁custom	-11.7967
▁newspaper	-11.7967
▁relation	-11.797
▁niece	-11.7972
▁appearance	-11.7974
oes	-11.7974
▁qui	-11.7974
▁result	-11.7977
▁complet	-11.7978
ouch	-11.7979
▁chipmunk	-11.7979
▁ancestor	-11.798
▁calculation	-11.7982
▁pollinator	-11.7982
▁tube	-11.7983
nking	-11.7984
▁archer	-11.7984
▁bloke	-11.7984
▁trem	-11.7984
▁rumor	-11.7986
known	-11.7987
count	-11.7989
bum	-11.7992
▁zipp	-11.7996
▁slug	-11.7996
▁politic	-11.8
▁withs	-11.8001
▁statue	-11.8001
▁splat	-11.8002
▁beside	-11.8004
▁sca	-11.8006
tchery	-11.8009
zip	-11.801
▁snort	-11.801
▁stair	-11.8011
▁firework	-11.8011
▁driz	-11.8012
▁atta	-11.8014
nk	-11.8015
gum	-11.8021
▁figur	-11.8025
▁highland	-11.8025
▁snatch	-11.8026
▁billion	-11.8027
lair	-11.8028
▁arrangement	-11.8028
ather	-11.8032
▁deni	-11.8032
▁embarrass	-11.8034
▁convinc	-11.804
▁decor	-11.804
anization	-11.8041
▁astronaut	-11.8042
▁mmmmm	-11.8043
▁practi	-11.8045
rated	-11.8047
▁too	-11.8047
▁volcan	-11.8047
▁approv	-11.8047
issues	-11.8049
▁forc	-11.8052
▁whine	-11.8053
ncil	-11.8053
town	-11.8059
realis	-11.806
▁atmospher	-11.806
stations	-11.806
▁shudder	-11.806
▁annoy	-11.8061
▁reproduc	-11.8062
▁murmur	-11.8063
▁seiz	-11.8065
▁gli	-11.8065
▁sinc	-11.8065
maid	-11.8066
▁uhu	-11.8066
▁protest	-11.8069
▁franc	-11.8069
▁clo	-11.8071
▁breez	-11.8071
iots	-11.8071
ls	-11.8071
▁mamm	-11.8072
▁confirm	-11.8076
ologist	-11.8076
▁locate	-11.8077
▁evolve	-11.8079
▁strateg	-11.8079
▁opportunit	-11.808
▁reject	-11.808
▁histor	-11.8081
fui	-11.8082
▁gidd	-11.8082
▁overlook	-11.8083
eared	-11.8083
▁responsibilit	-11.8083
ab	-11.8083
▁incompeten	-11.8083
tty	-11.8085
▁teenage	-11.8085
▁crick	-11.8085
▁possibilit	-11.8086
▁convict	-11.8086
▁flea	-11.8087
▁indicat	-11.8088
▁accurate	-11.8089
▁glitch	-11.8091
burg	-11.8092
rating	-11.8092
▁immediate	-11.8092
▁reinforce	-11.8092
▁brake	-11.8094
▁chew	-11.8095
▁carniv	-11.8097
▁mirac	-11.8097
▁inspiration	-11.8098
▁profession	-11.8099
isk	-11.8099
▁physic	-11.8099
▁wit	-11.8099
▁adjust	-11.81
▁physi	-11.8101
ecision	-11.8101
▁yeeha	-11.8101
▁refu	-11.8102
▁troph	-11.8102
stitution	-11.8102
▁brough	-11.8102
▁snicke	-11.8102
▁dix	-11.8103
▁crumb	-11.8103
▁necess	-11.8103
▁accuse	-11.8104
▁buckle	-11.8104
▁infraso	-11.8104
▁inhabit	-11.8104
▁intrigu	-11.8104
▁scrump	-11.8104
▁aristocrat	-11.8104
▁cockandbu	-11.8104
▁emphasi	-11.8104
▁encompass	-11.8104
▁mexican	-11.8104
▁neglect	-11.8104
▁revolution	-11.8104
▁skedaddl	-11.8104
▁smuggl	-11.8104
▁thirdquarter	-11.8104
cognit	-11.8104
lepidoptera	-11.8104
milliondollar	-11.8104
pestilence	-11.8104
sufficient	-11.8104
terranean	-11.8104
▁accomplice	-11.8104
▁accomplishment	-11.8104
▁aggressive	-11.8104
▁alcatraz	-11.8104
▁amputated	-11.8104
▁antoine	-11.8104
▁architect	-11.8104
▁arizona	-11.8104
▁assurance	-11.8104
▁asylum	-11.8104
▁automated	-11.8104
▁ayuadame	-11.8104
▁ayyiyiyi	-11.8104
▁babbling	-11.8104
▁bachelor	-11.8104
▁bargain	-11.8104
▁bayleef	-11.8104
▁betrothed	-11.8104
▁boogeyman	-11.8104
▁boopboopboop	-11.8104
▁brailsford	-11.8104
▁bridetobe	-11.8104
▁brigade	-11.8104
▁bubalochov	-11.8104
▁burglar	-11.8104
▁bygones	-11.8104
▁calcium	-11.8104
▁campaign	-11.8104
▁captivated	-11.8104
▁cauliflower	-11.8104
▁celebrities	-11.8104
▁certificate	-11.8104
▁cocacola	-11.8104
▁cocktaii	-11.8104
▁coconut	-11.8104
▁collision	-11.8104
▁commerce	-11.8104
▁contempt	-11.8104
▁coordinates	-11.8104
▁coordination	-11.8104
▁copilot	-11.8104
▁crenshaw	-11.8104
▁cripple	-11.8104
▁dapplenag	-11.8104
▁dialect	-11.8104
▁diploma	-11.8104
▁disallowed	-11.8104
▁dissect	-11.8104
▁doughnuts	-11.8104
▁earthquake	-11.8104
▁efficiency	-11.8104
▁embroidery	-11.8104
▁engywook	-11.8104
▁enthusias	-11.8104
▁environment	-11.8104
▁evolving	-11.8104
▁expenditure	-11.8104
▁fantasy	-11.8104
▁ferrari	-11.8104
▁fertile	-11.8104
▁fertiliz	-11.8104
▁fingerprints	-11.8104
▁flamethrower	-11.8104
▁foiiow	-11.8104
▁froufrou	-11.8104
▁fundamental	-11.8104
▁fusilli	-11.8104
▁geishas	-11.8104
▁goodfornothing	-11.8104
▁hemorrh	-11.8104
▁hieroglyphic	-11.8104
▁hippopotamus	-11.8104
▁hooligan	-11.8104
▁horror	-11.8104
▁hyacinth	-11.8104
▁hydraulic	-11.8104
▁hydrogen	-11.8104
▁idiocy	-11.8104
▁ignited	-11.8104
▁incarceration	-11.8104
▁infiuence	-11.8104
▁influx	-11.8104
▁insufferable	-11.8104
▁interfering	-11.8104
▁invincible	-11.8104
▁ioiiipop	-11.8104
▁ippon	-11.8104
▁jawbone	-11.8104
▁jeremiah	-11.8104
▁jettison	-11.8104
▁kamacuras	-11.8104
▁kleptomaniac	-11.8104
▁kuagigake	-11.8104
▁magellan	-11.8104
▁manescue	-11.8104
▁manhattan	-11.8104
▁manufactur	-11.8104
▁marauder	-11.8104
▁mcnamara	-11.8104
▁mediumrare	-11.8104
▁merciful	-11.8104
▁michelangelo	-11.8104
▁mightymike	-11.8104
▁minnesota	-11.8104
▁mistletoe	-11.8104
▁monsieur	-11.8104
▁napoleon	-11.8104
▁nimbostratus	-11.8104
▁onceinalifetime	-11.8104
▁parachute	-11.8104
▁parasites	-11.8104
▁pembroke	-11.8104
▁peppermint	-11.8104
▁perfetto	-11.8104
▁perfume	-11.8104
▁persontoperson	-11.8104
▁pilgrim	-11.8104
▁poppycock	-11.8104
▁pragmatic	-11.8104
▁prestige	-11.8104
▁pretzel	-11.8104
▁privacy	-11.8104
▁proprietor	-11.8104
▁purchase	-11.8104
▁qualifications	-11.8104
▁rawlinson	-11.8104
▁recharge	-11.8104
▁recipes	-11.8104
▁recipient	-11.8104
▁refinement	-11.8104
▁reginald	-11.8104
▁rehearsals	-11.8104
▁resolution	-11.8104
▁roughnecks	-11.8104
▁sacrificial	-11.8104
▁sandbagging	-11.8104
▁sarcastic	-11.8104
▁satellite	-11.8104
▁schroeder	-11.8104
▁seagulls	-11.8104
▁sefiorita	-11.8104
▁shrieking	-11.8104
▁significant	-11.8104
▁skyscraper	-11.8104
▁snarls	-11.8104
▁sreekanth	-11.8104
▁stammers	-11.8104
▁steadily	-11.8104
▁stimulating	-11.8104
▁submarine	-11.8104
▁supervillain	-11.8104
▁suspicion	-11.8104
▁sussex	-11.8104
▁swatura	-11.8104
▁sybil	-11.8104
▁tabloids	-11.8104
▁tattoo	-11.8104
▁theirselves	-11.8104
▁threequarters	-11.8104
▁thunderbolts	-11.8104
▁thursday	-11.8104
▁twelfth	-11.8104
▁twentynine	-11.8104
▁twirling	-11.8104
▁unconscious	-11.8104
▁unnatural	-11.8104
▁unravel	-11.8104
▁unreasonable	-11.8104
▁unvarmintiz	-11.8104
▁unwilling	-11.8104
▁vaccine	-11.8104
▁vibrant	-11.8104
▁volkswagen	-11.8104
▁wahwahwah	-11.8104
▁wallbanger	-11.8104
▁waziya	-11.8104
▁weightlift	-11.8104
▁wfpo	-11.8104
▁whippoorwill	-11.8104
▁fatigue	-11.8104
▁innovation	-11.8104
▁manderley	-11.8104
▁bockser	-11.8104
▁commendabl	-11.8104
▁diagnos	-11.8104
▁encounter	-11.8104
▁evaluati	-11.8104
▁faucet	-11.8104
▁fcsn	-11.8104
▁hermit	-11.8104
▁icicle	-11.8104
▁incapacit	-11.8104
▁injustice	-11.8104
▁kwit	-11.8104
▁loneliness	-11.8104
▁lullaby	-11.8104
▁lunatic	-11.8104
▁reassur	-11.8104
▁releasing	-11.8104
▁sputtering	-11.8104
▁squirrels	-11.8104
▁starrett	-11.8104
▁suitcases	-11.8104
▁toenail	-11.8104
▁airborne	-11.8104
▁deceit	-11.8104
▁eeeya	-11.8104
▁essential	-11.8104
▁feisty	-11.8104
▁hoppins	-11.8104
▁kilometers	-11.8104
▁metropoli	-11.8104
▁munching	-11.8104
▁quivering	-11.8104
▁reckless	-11.8104
▁salaam	-11.8104
▁salaries	-11.8104
whatshername	-11.8104
▁dentist	-11.8104
▁pgds	-11.8104
▁publishing	-11.8104
▁toledo	-11.8104
▁vigilan	-11.8104
ollolloll	-11.8104
▁assault	-11.8104
▁athletic	-11.8104
▁gossip	-11.8104
▁khurissanvalley	-11.8104
▁messenger	-11.8104
▁salvation	-11.8104
▁scrumptious	-11.8104
▁slurp	-11.8104
▁tarnation	-11.8104
▁wiggling	-11.8104
▁brainwash	-11.8104
▁chubby	-11.8104
▁entrancing	-11.8104
▁intrusion	-11.8104
▁published	-11.8104
▁statistical	-11.8104
▁aeroplane	-11.8104
▁december	-11.8104
▁haunted	-11.8104
▁hurried	-11.8104
▁intimate	-11.8104
▁mcquick	-11.8104
▁motivated	-11.8104
▁vermont	-11.8104
▁haystack	-11.8104
▁vendor	-11.8104
▁evacuate	-11.8104
▁fleetwood	-11.8104
appityp	-11.8104
▁mercedes	-11.8104
▁stacey	-11.8104
merchant	-11.8104
▁comfy	-11.8104
▁cavities	-11.8104
▁cecilia	-11.8104
▁imprison	-11.8104
▁yourseif	-11.8104
▁smudge	-11.8104
▁downstairs	-11.8104
▁poiice	-11.8104
▁runnin	-11.8104
▁terminal	-11.8104
▁billboards	-11.8104
▁gazebo	-11.8104
▁commence	-11.8104
▁humdiddle	-11.8104
▁monument	-11.8104
▁subsonic	-11.8104
▁upstanding	-11.8104
▁gunslinger	-11.8104
▁lamebrain	-11.8104
▁yoinks	-11.8104
▁erratic	-11.8104
▁carnage	-11.8104
▁offshore	-11.8104
▁pistol	-11.8104
▁audio	-11.8104
▁orienta	-11.8104
▁pillar	-11.8104
▁abarth	-11.8104
▁cronies	-11.8104
▁motivation	-11.8104
▁outsmart	-11.8104
▁judgment	-11.8104
cular	-11.8104
reprogrammed	-11.8104
▁caboose	-11.8104
▁misdemeanor	-11.8104
▁weasel	-11.8104
▁accusations	-11.8104
▁terrifying	-11.8104
▁decorating	-11.8104
▁downloaded	-11.8104
▁religio	-11.8104
▁deductions	-11.8104
▁petrol	-11.8104
▁bundle	-11.8104
▁intruder	-11.8104
▁intact	-11.8104
▁dorothy	-11.8104
▁olsen	-11.8104
▁garbage	-11.8104
▁merriment	-11.8104
▁govern	-11.8104
▁marciano	-11.8104
▁curtis	-11.8104
▁disorganized	-11.8104
▁fangfang	-11.8104
▁proposition	-11.8104
▁siege	-11.8104
▁sputters	-11.8104
▁yesssss	-11.8104
▁scarf	-11.8104
ollywog	-11.8104
▁whereabouts	-11.8104
▁initia	-11.8104
▁gushy	-11.8104
▁ketchu	-11.8104
▁temporarily	-11.8104
▁insane	-11.8104
▁outreach	-11.8104
▁fanatic	-11.8105
▁folio	-11.8105
▁scully	-11.8105
▁afore	-11.8105
▁kenneth	-11.8105
▁whoowhoo	-11.8105
▁mascot	-11.8105
▁sympath	-11.8105
▁iegs	-11.8105
▁milord	-11.8105
▁foretold	-11.8105
▁immense	-11.8105
▁seduction	-11.8105
▁inconvenience	-11.8105
▁doughboys	-11.8105
▁homesite	-11.8105
▁middie	-11.8105
▁norwood	-11.8105
▁anyplace	-11.8105
▁selfrespect	-11.8105
▁atlantic	-11.8105
▁complement	-11.8105
▁distinct	-11.8105
▁thumb	-11.8105
▁sausage	-11.8105
▁corwin	-11.8105
▁determination	-11.8105
▁prerace	-11.8105
▁involuntarily	-11.8105
▁cymb	-11.8105
▁sorceress	-11.8105
▁offhand	-11.8105
▁choco	-11.8105
▁downward	-11.8105
▁fiesta	-11.8105
▁india	-11.8105
▁twinkl	-11.8105
▁plaque	-11.8105
▁albright	-11.8105
▁popcorn	-11.8105
▁spruc	-11.8105
▁valda	-11.8105
▁graduation	-11.8105
▁madras	-11.8105
▁beanery	-11.8105
▁sisterinlaw	-11.8105
▁glen	-11.8105
▁cutbacks	-11.8105
▁bliss	-11.8105
uglies	-11.8105
▁waytoo	-11.8105
▁fiji	-11.8105
▁thrusters	-11.8105
▁freelance	-11.8105
▁java	-11.8105
▁sloth	-11.8105
▁fioor	-11.8105
▁slump	-11.8105
▁accessory	-11.8105
▁calamity	-11.8105
▁snuck	-11.8105
▁sarge	-11.8105
▁woofshi	-11.8105
▁unconventional	-11.8105
▁ritual	-11.8105
▁sparrow	-11.8105
▁devotion	-11.8105
▁neighborhood	-11.8105
▁underwear	-11.8105
▁ordeal	-11.8105
▁snickering	-11.8105
▁cynic	-11.8105
▁supercool	-11.8105
▁buggy	-11.8105
▁drainage	-11.8106
▁vulture	-11.8106
▁scoot	-11.8106
▁chronic	-11.8106
▁outrun	-11.8106
▁concho	-11.8106
▁clawfulness	-11.8106
▁extort	-11.8106
▁cheque	-11.8106
▁rudder	-11.8106
▁disco	-11.8106
▁ruthie	-11.8106
▁industrialist	-11.8106
▁shaft	-11.8106
▁crumbling	-11.8106
▁cranes	-11.8106
▁entail	-11.8106
▁plague	-11.8106
▁slither	-11.8106
▁bummer	-11.8106
mazi	-11.8106
▁allez	-11.8106
▁fragran	-11.8106
▁burps	-11.8106
▁quiz	-11.8106
valent	-11.8106
▁cherries	-11.8106
▁helmet	-11.8106
ligent	-11.8106
delphi	-11.8106
▁belief	-11.8106
▁devour	-11.8106
▁falcon	-11.8106
▁patties	-11.8106
▁torrent	-11.8106
▁malice	-11.8106
▁mystify	-11.8106
▁poult	-11.8106
▁jumble	-11.8106
▁extension	-11.8106
▁gamble	-11.8106
▁tainted	-11.8106
▁heiress	-11.8106
▁poetry	-11.8106
▁sculpture	-11.8106
▁scrub	-11.8106
▁myojin	-11.8107
▁politician	-11.8107
▁suddently	-11.8107
▁yoshl	-11.8107
▁avail	-11.8107
▁soundproof	-11.8107
▁ludo	-11.8107
▁garda	-11.8107
▁tusk	-11.8107
▁floppy	-11.8107
▁breakdance	-11.8107
▁transportation	-11.8107
▁chores	-11.8107
▁mantis	-11.8107
▁yeehaw	-11.8107
▁cancan	-11.8107
▁bellhop	-11.8107
▁liberal	-11.8107
▁squaw	-11.8107
▁cashier	-11.8107
▁fluid	-11.8107
▁spider	-11.8107
▁itits	-11.8107
▁franklin	-11.8108
▁horsepower	-11.8108
▁latke	-11.8108
▁sprang	-11.8108
▁beetle	-11.8108
▁annoyance	-11.8108
▁crosscountry	-11.8108
▁protein	-11.8108
ajlma	-11.8108
▁choking	-11.8108
▁soninlaw	-11.8108
▁simpleminded	-11.8108
▁godspeed	-11.8108
▁voight	-11.8108
▁haircut	-11.8108
▁hunch	-11.8108
batic	-11.8108
▁fender	-11.8109
▁vander	-11.8109
▁combat	-11.8109
▁tinker	-11.8109
▁possession	-11.8109
▁frisk	-11.8109
▁flapping	-11.8109
▁calluses	-11.8109
▁privet	-11.8109
▁undertaken	-11.8109
bscene	-11.8109
▁rehire	-11.8109
▁plaster	-11.8109
▁ahju	-11.8109
▁buoy	-11.8109
▁irritated	-11.8109
▁severely	-11.8109
▁nuys	-11.8109
▁bingo	-11.8109
▁crib	-11.8109
▁dragging	-11.8109
▁gloom	-11.8109
▁banned	-11.8109
▁caution	-11.8109
▁apologizing	-11.8109
▁fowl	-11.8109
▁relentlessly	-11.8109
▁shaii	-11.8109
▁tyrant	-11.811
▁sprinkl	-11.811
▁confer	-11.811
▁midway	-11.811
▁remark	-11.811
▁decid	-11.811
▁ioop	-11.811
▁stamp	-11.811
hibi	-11.811
▁kitchenware	-11.811
▁specialize	-11.811
▁lalalala	-11.811
▁budge	-11.811
▁guardian	-11.8111
▁obscure	-11.8111
▁introduction	-11.8111
▁divide	-11.8111
▁dimwit	-11.8111
▁salmon	-11.8111
ooga	-11.8111
▁payroll	-11.8111
▁percentage	-11.8111
▁endanger	-11.8111
▁schwar	-11.8111
▁oooooh	-11.8111
▁countries	-11.8111
▁infant	-11.8111
▁bandaid	-11.8112
▁conspirac	-11.8112
▁placid	-11.8112
malaya	-11.8112
▁whwhat	-11.8112
▁flattened	-11.8112
▁eexcuse	-11.8112
▁crusade	-11.8112
▁yikes	-11.8112
▁unwise	-11.8112
▁coachhouse	-11.8113
▁copies	-11.8113
▁sunrise	-11.8113
scous	-11.8113
▁derby	-11.8113
▁homepage	-11.8113
▁teiephon	-11.8114
erced	-11.8114
▁malfunction	-11.8114
▁consented	-11.8114
▁medium	-11.8114
▁wholesome	-11.8114
▁farmland	-11.8115
▁detonate	-11.8115
▁apprehend	-11.8115
▁raspberry	-11.8115
▁confusing	-11.8115
gnition	-11.8115
▁emoti	-11.8115
▁grandstand	-11.8115
▁streamlined	-11.8115
▁vibration	-11.8115
▁reinforcement	-11.8116
▁progression	-11.8116
▁splattering	-11.8116
▁utiliz	-11.8116
▁frag	-11.8116
eactivati	-11.8116
▁flattered	-11.8116
▁victories	-11.8116
▁musicians	-11.8117
▁grazing	-11.8117
▁roster	-11.8117
abolis	-11.8118
▁mode	-11.8118
▁beads	-11.8118
▁vul	-11.8118
▁temptation	-11.8118
ject	-11.8118
▁checkmate	-11.8118
▁competent	-11.8118
▁manhours	-11.8118
animous	-11.8118
▁ahhhhh	-11.8118
▁weenie	-11.8118
▁whipped	-11.8118
▁wonderfui	-11.8118
▁raja	-11.8118
▁repay	-11.8118
▁tweat	-11.8119
adios	-11.8119
▁jenna	-11.8119
▁accurately	-11.8119
▁molest	-11.8119
▁skeleton	-11.8119
▁naturalist	-11.812
▁wowhoo	-11.812
▁taient	-11.812
▁flaming	-11.812
▁jolly	-11.812
▁torches	-11.8121
▁hahah	-11.8121
▁factories	-11.8121
▁delegate	-11.8121
▁mayfly	-11.8121
▁samson	-11.8121
▁weakling	-11.8122
▁imagining	-11.8122
▁defendant	-11.8122
weez	-11.8122
▁antennae	-11.8122
▁executioner	-11.8122
▁irresponsible	-11.8122
▁violated	-11.8122
▁nobleman	-11.8123
▁scaring	-11.8123
▁wiring	-11.8123
▁iif	-11.8124
▁again	-11.8124
▁terr	-11.8124
▁raisin	-11.8124
▁alps	-11.8124
▁upro	-11.8125
▁accus	-11.8125
fest	-11.8125
▁sneakers	-11.8126
▁nurtured	-11.8126
▁convicted	-11.8126
quet	-11.8126
▁confide	-11.8127
▁standstill	-11.8127
▁sheik	-11.8127
▁chiming	-11.8127
▁labor	-11.8128
▁fiery	-11.8128
▁mathematically	-11.8129
▁fiber	-11.8129
pan	-11.8129
▁eew	-11.8129
▁hunger	-11.8129
umquat	-11.8129
▁deadline	-11.813
▁hyun	-11.813
identified	-11.813
employment	-11.813
▁honorious	-11.813
▁indoor	-11.813
▁stew	-11.8131
▁finalist	-11.8131
▁avenge	-11.8131
▁splashes	-11.8131
▁toad	-11.8132
▁rapper	-11.8132
▁confirmed	-11.8132
▁mole	-11.8133
▁donny	-11.8133
▁overlooked	-11.8133
▁suitable	-11.8133
▁lazie	-11.8134
▁considerate	-11.8134
▁drawers	-11.8134
▁partnership	-11.8135
▁facilitate	-11.8136
▁drew	-11.8136
▁clu	-11.8137
▁wildcat	-11.8137
▁anton	-11.8137
billy	-11.8137
▁charg	-11.8137
▁lefthanded	-11.8137
▁luckily	-11.8137
▁plug	-11.8138
▁tossed	-11.8138
▁spotted	-11.8138
efic	-11.8138
▁allan	-11.8139
▁clanking	-11.8139
▁clutch	-11.8139
▁chef	-11.8139
▁tyke	-11.8139
▁drugs	-11.814
▁sadness	-11.814
▁chuckie	-11.814
offre	-11.8141
arbor	-11.8141
▁combo	-11.8141
▁foil	-11.8141
ulous	-11.8141
▁arctic	-11.8142
▁arro	-11.8142
▁memorize	-11.8143
nnell	-11.8143
aware	-11.8144
▁woodsman	-11.8144
▁overall	-11.8146
lko	-11.8146
▁banner	-11.8146
▁indulge	-11.8147
butter	-11.8147
▁scam	-11.8147
▁gigantic	-11.8148
▁decreasing	-11.8148
▁ahoy	-11.8148
▁washin	-11.8148
ponent	-11.8148
▁snowcat	-11.8149
▁spears	-11.8149
▁sideways	-11.8149
▁insure	-11.8149
pregna	-11.8149
▁patri	-11.815
▁yyou	-11.815
▁vv	-11.8151
▁household	-11.8151
▁circuses	-11.8151
▁wwhat	-11.8152
▁aston	-11.8152
▁buttoned	-11.8152
▁ali	-11.8152
▁gruel	-11.8153
▁craz	-11.8153
▁indication	-11.8153
▁equi	-11.8154
laid	-11.8156
peas	-11.8157
▁threatened	-11.8157
▁stewards	-11.8158
ano	-11.8158
▁urgently	-11.8158
▁setback	-11.8158
▁rackettail	-11.8158
▁carrier	-11.8159
▁geez	-11.8159
▁nagging	-11.8159
▁heartbeat	-11.8159
versus	-11.8159
bbering	-11.8159
▁valves	-11.816
▁yyes	-11.816
▁lounges	-11.816
▁warriors	-11.8161
▁mushrooms	-11.8161
▁cantaloupes	-11.8161
▁watermelons	-11.8161
▁pediatrics	-11.8161
▁pancakes	-11.8161
▁enrich	-11.8161
ulky	-11.8161
▁heii	-11.8161
▁improvements	-11.8162
thesis	-11.8162
▁imaginati	-11.8162
▁teenagers	-11.8163
▁maki	-11.8163
▁steamer	-11.8165
▁decreed	-11.8166
ammo	-11.8166
▁circulat	-11.8166
▁rapidly	-11.8167
▁felony	-11.8167
▁fatten	-11.8168
▁folly	-11.8169
▁confessed	-11.8169
awa	-11.8169
▁proposing	-11.8169
▁makin	-11.817
▁geek	-11.817
▁deadbeat	-11.817
▁obstina	-11.8171
▁abandoned	-11.8171
▁blazes	-11.8171
ifications	-11.8172
▁repaired	-11.8172
▁seul	-11.8172
nclude	-11.8172
▁reciting	-11.8173
roads	-11.8173
mlzu	-11.8173
mburger	-11.8174
▁puttin	-11.8175
▁swamp	-11.8175
▁scratches	-11.8176
plus	-11.8177
▁waddle	-11.8177
▁invest	-11.8178
▁wreck	-11.8178
▁physically	-11.8179
▁demonstrated	-11.8181
▁torch	-11.8181
▁mimic	-11.8181
eenie	-11.8182
▁hahahaha	-11.8183
▁foreseen	-11.8183
▁blaz	-11.8185
▁hur	-11.8185
▁humanity	-11.8186
▁starring	-11.8187
▁imitating	-11.8188
▁sti	-11.8188
▁secondary	-11.8188
▁bleed	-11.8189
▁signora	-11.819
▁consum	-11.819
▁appr	-11.8191
▁contrast	-11.8192
▁battery	-11.8192
▁stup	-11.8193
▁producer	-11.8194
▁daint	-11.8195
▁pronounce	-11.8197
▁lindy	-11.8197
▁daisy	-11.8198
▁wildflower	-11.8198
▁ivan	-11.8198
▁baked	-11.8199
▁cd	-11.8201
▁wowee	-11.8202
▁obedient	-11.8202
▁grasses	-11.8202
licious	-11.8203
▁prejudice	-11.8204
▁columbus	-11.8206
▁parallel	-11.8206
▁regularly	-11.8206
▁gridl	-11.8206
▁technically	-11.8207
▁hooky	-11.8208
▁penn	-11.8208
▁arcad	-11.8209
▁regarded	-11.8209
▁economy	-11.821
▁turnout	-11.821
▁devi	-11.8211
toxic	-11.8212
▁sloths	-11.8213
▁atro	-11.8214
▁boid	-11.8214
▁brady	-11.8215
bal	-11.8216
▁premi	-11.8218
▁bunk	-11.8219
▁profile	-11.8219
▁scraping	-11.8219
▁geared	-11.8219
▁commute	-11.822
▁bumping	-11.822
▁chow	-11.822
▁pff	-11.8221
▁andhar	-11.8222
▁hel	-11.8222
▁quint	-11.8223
▁slugg	-11.8224
plaus	-11.8224
▁prophet	-11.8224
▁berth	-11.8224
▁frequen	-11.8225
▁doodl	-11.8226
▁invested	-11.8226
▁allies	-11.8226
▁melting	-11.8227
▁gardeners	-11.8228
▁feathered	-11.8229
▁dwelling	-11.8229
▁archers	-11.823
▁stoo	-11.823
▁voi	-11.823
▁shackl	-11.8231
▁scratched	-11.8231
▁disposed	-11.8233
▁jealousy	-11.8233
▁gps	-11.8234
▁flavor	-11.8235
▁croon	-11.8236
▁smarten	-11.8236
▁shove	-11.8237
▁with	-11.8237
▁traded	-11.8238
▁comp	-11.8241
▁raft	-11.8242
elimina	-11.8242
▁calami	-11.8243
▁builder	-11.8245
▁rewarded	-11.8248
▁decorate	-11.8248
▁dat	-11.825
tender	-11.8251
▁bolted	-11.8251
▁runway	-11.8251
▁wearin	-11.8251
▁blush	-11.8253
▁unalt	-11.8254
▁bursting	-11.8254
▁associate	-11.8255
oodle	-11.8255
▁clients	-11.8255
▁demo	-11.8256
▁addresses	-11.8256
▁schemes	-11.8256
▁explosives	-11.8257
▁fog	-11.8258
▁freshen	-11.8258
▁recycl	-11.8258
▁nin	-11.8259
▁more	-11.8261
pour	-11.8263
▁sanity	-11.8264
▁programmes	-11.8267
▁facing	-11.8268
▁statues	-11.8271
▁snatche	-11.8271
▁lawns	-11.8272
eight	-11.8272
▁actor	-11.8272
▁swam	-11.8274
▁senor	-11.8275
▁squir	-11.8278
rog	-11.828
▁glo	-11.8281
▁enth	-11.8282
▁jud	-11.8284
▁rollin	-11.8284
▁backyard	-11.8285
▁silky	-11.8285
▁squashe	-11.8288
▁heel	-11.8288
▁tippy	-11.8289
style	-11.8289
▁bask	-11.8289
▁hangin	-11.829
▁canceling	-11.8291
▁gargl	-11.8295
▁foolin	-11.8297
▁hitter	-11.8299
rrupt	-11.8301
▁liana	-11.8301
▁breathless	-11.8301
▁reactor	-11.8302
▁mill	-11.8306
▁stinky	-11.8309
▁dwell	-11.8312
▁hahaaa	-11.832
▁washed	-11.8321
▁papad	-11.8322
▁irrita	-11.8323
sphere	-11.8325
negotiation	-11.8325
▁frolick	-11.8325
▁penta	-11.8325
▁fig	-11.8334
▁skating	-11.8336
▁troll	-11.8336
▁piers	-11.8339
zza	-11.8339
mir	-11.834
▁inflat	-11.834
▁shant	-11.8341
▁chunks	-11.8343
▁stables	-11.8344
▁blasting	-11.8346
▁lund	-11.8347
▁wage	-11.8347
▁extract	-11.8349
▁lawn	-11.8351
▁flute	-11.8352
▁options	-11.8352
▁colon	-11.8352
▁wsa	-11.8353
ulating	-11.8353
▁pullin	-11.8354
▁betting	-11.8355
▁giveaway	-11.8355
▁influences	-11.8356
▁primates	-11.8357
▁stating	-11.8357
▁toilets	-11.8357
▁festivals	-11.8358
▁shorter	-11.8358
▁standards	-11.836
▁habitats	-11.8362
▁ballet	-11.8362
▁vane	-11.8363
▁acquir	-11.8364
▁whatside	-11.8366
shaw	-11.8368
▁grable	-11.8368
▁nervously	-11.8374
▁distancing	-11.8377
▁jeans	-11.8378
▁capitalize	-11.8379
▁blamed	-11.8379
illa	-11.8381
▁sunk	-11.8385
▁funds	-11.8388
abouts	-11.8388
▁wilde	-11.839
▁licking	-11.839
▁decreas	-11.8392
▁darned	-11.8392
▁ahold	-11.8392
▁techn	-11.8394
nze	-11.8394
▁learnin	-11.8394
ingham	-11.8395
anama	-11.8395
▁organs	-11.8397
▁aand	-11.8398
lis	-11.8398
▁shootin	-11.8399
▁croco	-11.8399
▁heartless	-11.84
jacks	-11.84
aloha	-11.84
▁handling	-11.8402
▁asset	-11.8411
▁reai	-11.8412
▁fakes	-11.8412
▁intr	-11.8413
▁tickles	-11.8413
▁exa	-11.8417
▁lining	-11.8418
tricia	-11.8418
aken	-11.8419
uously	-11.842
▁explod	-11.8422
▁increases	-11.8424
▁flank	-11.8424
▁dubi	-11.8426
▁fret	-11.8426
cons	-11.843
▁lectur	-11.8431
▁tending	-11.8434
uff	-11.8436
▁masks	-11.8436
▁acu	-11.8442
▁axe	-11.8442
▁highp	-11.8442
▁claps	-11.8445
sanity	-11.8447
njo	-11.8452
▁math	-11.8453
activated	-11.8454
▁usurpers	-11.8457
▁mute	-11.8459
ckle	-11.8459
oever	-11.8462
gr	-11.8467
abl	-11.8468
orio	-11.8469
▁summar	-11.8469
erous	-11.847
een	-11.8471
▁goodlooking	-11.8472
▁stev	-11.8477
▁involve	-11.8478
▁pint	-11.8491
▁discovering	-11.8493
▁trait	-11.8493
rambler	-11.8496
pen	-11.8499
ours	-11.8499
▁steven	-11.8499
tow	-11.8499
▁themes	-11.8499
atious	-11.8499
uper	-11.8501
▁guided	-11.8502
▁tightly	-11.8502
▁standin	-11.8509
▁sonic	-11.851
▁haig	-11.8516
▁subsid	-11.8518
▁objects	-11.8519
▁awards	-11.8521
sounding	-11.8522
ippin	-11.8524
▁quesa	-11.8524
▁clams	-11.8527
ates	-11.8529
ardines	-11.8532
▁sleepin	-11.8535
▁illogic	-11.8537
▁regula	-11.8538
▁logs	-11.8538
famine	-11.854
▁measures	-11.8544
▁vein	-11.8548
▁marshall	-11.8549
quisitions	-11.8549
trates	-11.8551
▁bodi	-11.8552
rote	-11.8556
rall	-11.8557
▁costumes	-11.8558
▁fingernails	-11.8559
▁links	-11.8559
▁noone	-11.856
▁stork	-11.856
inlaw	-11.8562
▁surf	-11.8562
pical	-11.8562
essons	-11.8562
▁mack	-11.8565
▁youngster	-11.8565
lc	-11.8567
tial	-11.8567
▁cel	-11.8569
▁towering	-11.8577
▁ji	-11.8583
▁rod	-11.8583
yet	-11.8585
plicate	-11.8588
▁soid	-11.8592
und	-11.8596
▁filly	-11.8599
▁alas	-11.8602
▁gladly	-11.8604
▁clothing	-11.8605
▁clink	-11.8608
ulch	-11.861
ditty	-11.8615
▁pools	-11.8615
match	-11.8623
▁roughing	-11.8624
shine	-11.8625
▁oppos	-11.8628
guard	-11.8634
ged	-11.8636
▁iovee	-11.8636
▁lookout	-11.8636
▁odds	-11.8636
izard	-11.8636
▁insec	-11.8639
▁slopes	-11.8648
mas	-11.8649
▁bitin	-11.8649
▁kisses	-11.8653
▁varmints	-11.8656
uti	-11.8658
▁buckets	-11.8659
▁smoked	-11.8659
▁contestants	-11.866
▁gam	-11.8662
▁domin	-11.8666
▁aiien	-11.8669
▁cott	-11.8671
ronic	-11.8677
▁betray	-11.868
▁bonne	-11.8683
▁shared	-11.8686
▁superb	-11.8687
ire	-11.8695
▁meddl	-11.8697
ggie	-11.8697
▁goofing	-11.8702
▁correction	-11.8705
▁experimenting	-11.8708
▁aster	-11.871
▁charged	-11.871
▁veg	-11.871
▁bandy	-11.8716
▁stem	-11.8717
▁ratings	-11.8724
▁willi	-11.8724
harm	-11.8725
pus	-11.8729
▁cum	-11.8731
▁sym	-11.8731
▁athe	-11.8736
▁trials	-11.8741
▁stomp	-11.8742
▁skates	-11.8743
piace	-11.8743
▁yucks	-11.8746
▁buzze	-11.8746
▁passionate	-11.8747
roke	-11.8747
▁gro	-11.8749
▁ster	-11.8753
▁sy	-11.8754
▁serial	-11.8754
▁orchids	-11.8758
▁relaxed	-11.876
▁communications	-11.8761
▁owners	-11.8761
▁charms	-11.8763
▁cracks	-11.8764
▁blo	-11.8766
nda	-11.8767
orni	-11.8773
utti	-11.8778
plica	-11.8778
mish	-11.8786
▁enabl	-11.8787
quat	-11.8789
ej	-11.8789
▁sings	-11.8795
▁luxuri	-11.8798
▁mig	-11.8812
▁wah	-11.8813
▁subs	-11.8814
▁towels	-11.8816
▁versa	-11.8823
▁weathers	-11.8827
▁kee	-11.8828
▁polish	-11.8829
▁aller	-11.8833
▁mont	-11.8837
▁grounded	-11.8837
fiction	-11.8845
wa	-11.8846
▁hive	-11.8854
eave	-11.8855
▁disasters	-11.8859
otti	-11.886
▁pumpkins	-11.886
▁blockheads	-11.8862
▁solutions	-11.8865
▁goggle	-11.8876
▁engage	-11.8878
spect	-11.8881
▁serv	-11.8881
▁cuff	-11.8883
recede	-11.8888
▁sparr	-11.8898
itty	-11.89
▁rhythmic	-11.8901
▁parked	-11.8902
▁surve	-11.8905
▁prover	-11.8908
some	-11.8911
▁turb	-11.8925
rwood	-11.8931
bab	-11.8931
▁dogboy	-11.8932
stic	-11.8933
gos	-11.8933
ragging	-11.8936
▁fences	-11.8948
▁heating	-11.8952
▁beard	-11.8957
ester	-11.8958
▁missus	-11.8959
fuiiy	-11.896
▁vehicles	-11.8961
▁nightmares	-11.8962
▁stayin	-11.8965
▁fleet	-11.8967
charted	-11.8973
▁officials	-11.8975
▁guarantees	-11.8979
regr	-11.8986
▁por	-11.8986
mond	-11.8988
posed	-11.8994
met	-11.8994
affected	-11.8998
▁sant	-11.8998
▁chi	-11.9004
piration	-11.9004
▁pai	-11.9015
inger	-11.9017
tache	-11.9023
uffles	-11.9026
story	-11.9029
glued	-11.9032
▁sob	-11.9034
lands	-11.9039
analys	-11.9042
▁despise	-11.9047
firing	-11.905
▁races	-11.9052
▁pursue	-11.9057
▁auditions	-11.9063
▁some	-11.9065
▁caste	-11.9065
▁hypnoti	-11.9068
▁nash	-11.907
xy	-11.9075
▁victor	-11.9088
meter	-11.9099
predictable	-11.9105
▁mod	-11.9105
▁sic	-11.9117
▁elses	-11.9118
inal	-11.9124
▁wrapp	-11.9127
nium	-11.913
meters	-11.9136
pugna	-11.9137
▁personifie	-11.9147
▁flunk	-11.9149
ading	-11.9154
▁peters	-11.9162
▁lime	-11.917
▁everest	-11.9171
▁fern	-11.9172
oul	-11.9177
rix	-11.9183
▁pap	-11.9188
▁youse	-11.919
parent	-11.9203
▁wraps	-11.9206
▁sasa	-11.9207
▁dispos	-11.921
list	-11.921
trusted	-11.9224
ff	-11.9225
▁lobe	-11.9228
▁belay	-11.9232
▁hums	-11.9238
unts	-11.9243
rill	-11.9243
tter	-11.925
▁nos	-11.9251
caption	-11.9254
ances	-11.9263
▁measl	-11.9263
▁sheet	-11.9263
▁clacking	-11.9264
▁reminds	-11.9272
iii	-11.9283
shoot	-11.9288
▁nei	-11.9288
pelled	-11.9289
▁fronti	-11.9295
rancing	-11.9305
lumber	-11.9316
▁am	-11.9321
▁siay	-11.9324
▁fled	-11.9324
aud	-11.9338
▁villain	-11.9347
ib	-11.9348
▁touche	-11.935
▁nelli	-11.9356
▁kicking	-11.9358
arm	-11.936
hauled	-11.936
▁stump	-11.9362
▁acted	-11.9363
▁pess	-11.9364
▁mallingers	-11.9367
▁hyp	-11.9369
orse	-11.9377
▁wat	-11.9378
ptic	-11.9382
▁reasonabl	-11.9384
rnament	-11.9384
nu	-11.9389
ade	-11.9392
late	-11.941
▁tog	-11.9422
▁rav	-11.9423
▁slopp	-11.9436
▁theor	-11.9442
▁impal	-11.9444
azz	-11.945
▁capabilit	-11.9452
menti	-11.9455
▁qualifie	-11.9458
▁inf	-11.9458
ik	-11.9461
▁periods	-11.9464
▁pockets	-11.9468
mented	-11.947
outs	-11.9472
ef	-11.9473
▁inventions	-11.9473
▁doze	-11.9482
▁savi	-11.9484
rdy	-11.9487
▁lucked	-11.9494
▁grit	-11.9499
resumes	-11.9515
▁prices	-11.9526
▁pastor	-11.9531
ars	-11.9537
tsm	-11.9538
▁burns	-11.9543
▁temporar	-11.9553
▁eg	-11.9555
▁clubs	-11.9556
era	-11.9558
▁skulls	-11.9559
educed	-11.9562
▁witnesse	-11.9565
▁trucks	-11.9565
reign	-11.9568
▁booked	-11.9576
▁defens	-11.9577
aint	-11.9581
eopard	-11.9584
▁cer	-11.9593
▁glob	-11.9599
▁marking	-11.9604
▁constructi	-11.962
▁outwit	-11.9627
▁washer	-11.9629
tops	-11.9629
▁moss	-11.9634
hoho	-11.9639
▁overt	-11.9646
▁nit	-11.965
udge	-11.966
▁colonels	-11.9664
▁accidents	-11.967
sk	-11.9676
▁crimes	-11.969
crease	-11.97
▁encourag	-11.9713
▁thom	-11.9713
smokers	-11.9713
▁rd	-11.9718
gust	-11.9721
nal	-11.9723
▁sled	-11.9726
▁tan	-11.9727
▁bir	-11.9732
▁burner	-11.9732
▁gian	-11.9738
▁commands	-11.9744
aa	-11.9751
▁raining	-11.9753
▁km	-11.9754
▁unfold	-11.9755
belli	-11.9757
umble	-11.9781
▁dit	-11.9782
▁thro	-11.979
tom	-11.9798
▁marrie	-11.98
▁displace	-11.9806
ose	-11.9815
▁deliveri	-11.9819
▁marc	-11.9831
▁viewer	-11.9832
▁joys	-11.9836
dges	-11.9852
▁dealing	-11.9854
ium	-11.9857
istress	-11.9858
▁prepares	-11.9866
ko	-11.9866
jar	-11.9866
▁slowing	-11.9872
▁marakeets	-11.9874
▁hearst	-11.9884
▁bling	-11.9889
▁gig	-11.9891
▁proceeds	-11.9895
▁swipe	-11.9897
▁squi	-11.9901
atic	-11.9902
▁caps	-11.9904
▁steph	-11.9914
▁tou	-11.9921
▁restr	-11.9931
▁committe	-11.9934
▁execute	-11.9941
▁alter	-11.9944
owl	-11.9955
▁russ	-11.9964
▁streak	-11.9964
▁mose	-11.9967
▁robots	-11.9969
oohoohooh	-11.9972
▁reside	-11.9972
▁floors	-11.9974
▁earthy	-11.998
grinding	-11.9985
▁aaaaaa	-11.9994
▁slee	-12.0001
ties	-12.0002
▁realiz	-12.0008
lightly	-12.0014
plate	-12.0016
▁acr	-12.0025
▁discourag	-12.0034
▁panthe	-12.004
rd	-12.007
nice	-12.0084
set	-12.0101
▁uncoo	-12.011
▁cooks	-12.0122
▁advis	-12.0127
rsity	-12.0128
▁pent	-12.0138
▁provoke	-12.0145
▁offens	-12.015
▁iong	-12.0155
▁fenn	-12.0163
▁anne	-12.018
▁snowing	-12.0186
rai	-12.0194
erica	-12.0225
imp	-12.0225
ady	-12.0225
▁ray	-12.0232
▁inning	-12.0249
▁stirr	-12.0251
points	-12.0255
▁humiliate	-12.0258
▁dies	-12.0263
lightest	-12.0265
lamb	-12.0268
▁repri	-12.0274
ddly	-12.0275
▁lice	-12.0278
misunderstanding	-12.0281
▁setti	-12.0283
▁replant	-12.0289
▁reins	-12.0293
perative	-12.0297
▁retain	-12.0298
▁referr	-12.0303
tched	-12.0308
▁pots	-12.0329
▁employ	-12.033
▁doublecross	-12.033
▁paddle	-12.0337
elps	-12.0343
▁ruck	-12.0356
nts	-12.0356
▁jackal	-12.0364
iers	-12.0373
reserve	-12.0374
▁gl	-12.0378
▁shi	-12.0391
mans	-12.0395
aying	-12.0399
laine	-12.04
▁cooling	-12.0416
▁abe	-12.0427
▁pant	-12.0436
gle	-12.0445
bear	-12.0451
▁devo	-12.0457
dated	-12.0464
▁ps	-12.0474
here	-12.0481
▁producti	-12.0482
▁thi	-12.0484
▁lick	-12.0485
▁hustle	-12.0492
▁giants	-12.0495
▁ups	-12.0505
bon	-12.0508
▁conv	-12.0512
▁zan	-12.0514
▁noooo	-12.0521
▁transmitte	-12.0522
▁fudg	-12.0548
▁snee	-12.0559
raying	-12.0559
▁pollinate	-12.0563
threatening	-12.0584
mp	-12.0586
addled	-12.0588
▁amo	-12.059
▁violat	-12.0598
lipping	-12.061
▁abduct	-12.0615
▁fran	-12.0619
▁fax	-12.0622
otics	-12.0626
▁lily	-12.0628
▁hideou	-12.0634
ials	-12.0637
▁psych	-12.0641
▁surprises	-12.0642
▁perch	-12.0643
ei	-12.0645
▁compl	-12.0647
ama	-12.0653
▁anc	-12.0666
▁chim	-12.0668
imsy	-12.067
broad	-12.0672
brian	-12.0677
▁uni	-12.0683
▁clay	-12.0686
▁tortoises	-12.0689
▁radioactiv	-12.0691
ters	-12.0692
▁rever	-12.0695
▁queens	-12.0705
▁dar	-12.071
urity	-12.0711
ruger	-12.072
bi	-12.0722
▁swe	-12.0734
ithy	-12.0735
▁decode	-12.0738
music	-12.075
▁stor	-12.0753
mi	-12.0754
ficial	-12.0755
▁thee	-12.0755
▁dun	-12.0759
eling	-12.0772
gi	-12.0777
itting	-12.0784
▁gratif	-12.0797
▁barf	-12.0797
▁botch	-12.0801
▁concentrat	-12.0801
▁dug	-12.0804
cant	-12.0805
osing	-12.0807
star	-12.0823
acada	-12.0826
▁deli	-12.0853
▁immerse	-12.0857
▁trappe	-12.0858
▁courts	-12.0868
▁rascals	-12.0868
▁kol	-12.0871
under	-12.0874
▁rebelli	-12.0875
osh	-12.0891
▁tease	-12.0893
rody	-12.0896
chin	-12.0897
▁pens	-12.0898
rope	-12.0907
iday	-12.091
▁the	-12.0927
icated	-12.0934
tingly	-12.0943
▁undertak	-12.0944
hhhh	-12.0951
au	-12.0951
ail	-12.0954
mitten	-12.0961
rades	-12.0964
tted	-12.097
▁clar	-12.0974
amber	-12.0978
▁compass	-12.0985
▁adi	-12.0985
▁kingdoms	-12.0991
▁refus	-12.0993
▁harve	-12.0996
ecede	-12.0996
▁allie	-12.1007
▁studi	-12.1018
nning	-12.1025
▁surre	-12.1026
▁medic	-12.104
▁whee	-12.1066
▁favorites	-12.1098
▁ea	-12.1106
angled	-12.1112
ope	-12.1132
▁bubb	-12.1139
refoot	-12.1147
diction	-12.1158
mor	-12.1161
ren	-12.1168
▁deserter	-12.1169
onto	-12.1171
▁fro	-12.1184
ye	-12.1187
ku	-12.1189
ides	-12.1191
▁ren	-12.1199
▁beta	-12.1205
▁anticipate	-12.1219
▁piglet	-12.1221
ywood	-12.1238
▁arg	-12.1241
▁gre	-12.1246
▁mein	-12.1256
rt	-12.1265
▁dic	-12.1268
cution	-12.1269
▁lace	-12.1271
▁traveler	-12.1272
cu	-12.1283
allet	-12.1285
▁whiske	-12.1285
▁brea	-12.131
munity	-12.1313
communicated	-12.1329
▁drumm	-12.1338
▁speller	-12.1352
▁discr	-12.1359
crouch	-12.1359
▁by	-12.136
lic	-12.1385
▁fears	-12.1416
lurred	-12.1429
▁scu	-12.1438
wood	-12.1445
see	-12.1457
nces	-12.1463
rieve	-12.1465
sting	-12.1472
tone	-12.1481
▁jal	-12.1491
▁infl	-12.1496
cado	-12.1509
▁vis	-12.1529
rm	-12.1534
those	-12.1537
▁sle	-12.1553
mbles	-12.1561
non	-12.1563
▁salu	-12.1576
▁britt	-12.1616
trick	-12.1617
▁jumps	-12.1621
aaaaaah	-12.1621
staffed	-12.1649
sta	-12.1652
tha	-12.1661
▁retr	-12.1677
▁vick	-12.1684
▁mur	-12.1688
rk	-12.1697
▁vocali	-12.1702
ofthe	-12.1718
▁und	-12.1727
owers	-12.1736
patiently	-12.1754
▁sedat	-12.1762
yuk	-12.1763
▁observ	-12.1771
sub	-12.1809
▁cater	-12.1812
arrot	-12.1824
shing	-12.1826
ander	-12.1851
ves	-12.1852
ret	-12.1855
sun	-12.1857
struck	-12.1868
tten	-12.187
hip	-12.1877
functioning	-12.1888
reds	-12.1892
▁pil	-12.1896
election	-12.1901
tell	-12.1943
tte	-12.1944
avy	-12.1956
ilia	-12.1958
▁combin	-12.1962
▁intens	-12.1964
tti	-12.1985
▁formal	-12.1996
▁reactivate	-12.2
▁expel	-12.2003
formed	-12.2007
bra	-12.2011
crunching	-12.2015
riding	-12.2018
▁phila	-12.2031
dont	-12.2033
▁prow	-12.2035
sey	-12.2041
▁ther	-12.2047
▁mas	-12.2052
lyn	-12.2053
ooper	-12.2056
lses	-12.2059
▁coon	-12.2062
▁drat	-12.2062
tors	-12.2076
▁yaaaa	-12.2097
▁observat	-12.2121
▁bene	-12.2125
ailing	-12.2135
▁suspens	-12.2142
fif	-12.215
xes	-12.2156
▁bei	-12.2167
baum	-12.2176
▁obst	-12.2177
▁my	-12.2178
▁pastri	-12.2181
ebod	-12.2188
dest	-12.2194
mortal	-12.2199
road	-12.2199
iger	-12.2228
pu	-12.2228
ili	-12.2233
▁obligat	-12.2245
erior	-12.2251
▁whit	-12.226
ark	-12.2274
slime	-12.2284
▁tins	-12.2287
ited	-12.229
arl	-12.2294
▁finals	-12.2302
▁cris	-12.2309
▁vocal	-12.2313
mother	-12.2333
▁rem	-12.2333
▁brighten	-12.2337
▁impuls	-12.2341
tray	-12.2348
▁gene	-12.235
▁hides	-12.2352
▁warming	-12.2354
▁lun	-12.2363
rries	-12.2379
ssion	-12.2384
▁sto	-12.239
▁rolls	-12.2408
iie	-12.2412
ipping	-12.242
devil	-12.2434
ellent	-12.2438
▁switche	-12.2445
mini	-12.2452
aul	-12.2454
thing	-12.2471
▁dock	-12.2475
▁ic	-12.2482
azy	-12.2488
▁cape	-12.2495
sections	-12.25
▁orch	-12.2506
▁manag	-12.251
▁pike	-12.2535
▁magn	-12.2546
ightest	-12.2561
ssing	-12.2569
▁provo	-12.258
▁intensi	-12.2581
owel	-12.259
mat	-12.2603
▁belli	-12.2611
fie	-12.2614
tacle	-12.2617
▁fullblo	-12.2622
rable	-12.2625
ette	-12.2633
▁blank	-12.2637
▁studie	-12.2641
▁vo	-12.2658
▁sham	-12.2663
▁investigat	-12.2667
ought	-12.2676
aho	-12.2678
ancy	-12.2683
▁fare	-12.2711
▁valentin	-12.2719
eful	-12.2727
▁lasted	-12.2743
stock	-12.2743
elo	-12.2747
▁anticipat	-12.2772
integrat	-12.2782
▁dealer	-12.2797
ru	-12.2809
▁tab	-12.2814
▁chu	-12.2816
▁esse	-12.2823
▁moro	-12.2835
oid	-12.2836
▁plow	-12.2837
▁depo	-12.2855
▁fairs	-12.2861
aching	-12.2866
sie	-12.2886
nder	-12.2905
sabl	-12.2913
pressed	-12.2913
▁exp	-12.2915
doii	-12.2918
▁slurr	-12.2921
▁admir	-12.2929
ys	-12.2933
lk	-12.2935
elling	-12.2936
ric	-12.294
▁ava	-12.2968
▁ov	-12.2976
cent	-12.2982
▁offices	-12.3021
gie	-12.3042
ndy	-12.3063
▁chas	-12.3068
▁psychi	-12.3071
▁ignoran	-12.3079
▁alc	-12.3082
acting	-12.3092
▁athat	-12.3098
aring	-12.3099
mont	-12.3116
▁ignor	-12.3124
▁furn	-12.3125
science	-12.3185
till	-12.3201
▁reactivat	-12.3203
▁surviv	-12.3214
wwhy	-12.3219
▁masters	-12.3254
▁immers	-12.3277
▁dears	-12.3279
▁chins	-12.3312
▁nutri	-12.3319
▁spli	-12.3344
▁ser	-12.3368
▁happie	-12.3373
ica	-12.3381
▁pars	-12.3383
sive	-12.3397
▁plung	-12.3414
anqui	-12.344
▁compli	-12.3448
cated	-12.3451
forks	-12.3452
defeated	-12.3467
▁tablet	-12.3484
ob	-12.3488
▁boards	-12.3496
activity	-12.3507
od	-12.3508
front	-12.3508
uld	-12.3509
homa	-12.3517
crucia	-12.3535
orner	-12.3543
▁assembl	-12.3558
▁porter	-12.3585
▁decod	-12.3588
ote	-12.3588
nders	-12.3593
▁spar	-12.3609
rit	-12.3625
brows	-12.3632
inch	-12.3648
bod	-12.3658
▁notim	-12.3661
▁terrori	-12.3664
cc	-12.3671
oly	-12.3672
enting	-12.3683
nch	-12.3697
polo	-12.3706
vation	-12.3722
▁alvins	-12.3739
enomen	-12.375
exceptions	-12.3755
urs	-12.376
erry	-12.3764
ush	-12.3765
▁temp	-12.3769
pher	-12.3794
iest	-12.3795
▁compet	-12.3797
▁hoop	-12.3798
ttered	-12.3882
ign	-12.3897
▁doublecrosse	-12.3907
ritz	-12.3913
▁improv	-12.3929
▁fra	-12.3932
partment	-12.3932
▁pearl	-12.3937
mperative	-12.3962
wling	-12.3966
gained	-12.3988
cre	-12.4017
van	-12.4018
tip	-12.4045
keeps	-12.405
▁bawlin	-12.4062
alv	-12.4063
urious	-12.4065
thisthis	-12.407
streams	-12.4077
▁advertise	-12.4088
▁dingd	-12.4088
wee	-12.4102
veni	-12.4105
▁phi	-12.4106
ddle	-12.4121
ney	-12.4122
ite	-12.4126
modeling	-12.4156
coming	-12.4162
national	-12.4181
tal	-12.4181
lit	-12.4201
vin	-12.4208
dom	-12.4223
▁explo	-12.4223
▁damag	-12.424
any	-12.4263
aging	-12.4264
▁tast	-12.4307
kie	-12.4309
liant	-12.4329
▁slim	-12.4337
lls	-12.435
get	-12.4354
▁aaaa	-12.4368
▁travers	-12.4368
suspecting	-12.4371
▁scor	-12.4371
▁dunde	-12.438
rence	-12.4383
▁hoi	-12.4385
erate	-12.4388
▁ko	-12.4415
ase	-12.4426
▁coy	-12.4459
hem	-12.4466
bed	-12.4472
▁hopin	-12.4473
abel	-12.4474
signed	-12.4489
bility	-12.4508
▁delegat	-12.4523
core	-12.4534
tz	-12.4558
fle	-12.4568
hoohoo	-12.4573
▁dura	-12.4582
▁knit	-12.4583
▁tit	-12.459
eau	-12.4607
▁crow	-12.461
bu	-12.4617
▁carb	-12.4643
ain	-12.4647
▁demi	-12.4656
mmuni	-12.466
▁furb	-12.4695
ssage	-12.4702
ut	-12.4702
▁dia	-12.4711
▁alli	-12.4713
ovan	-12.4726
ooooo	-12.4738
tale	-12.4742
akin	-12.4747
▁prom	-12.475
oll	-12.4754
▁ia	-12.476
▁prim	-12.4763
illy	-12.4764
pho	-12.4772
ake	-12.4775
cella	-12.4777
▁mee	-12.478
▁perfecti	-12.4798
▁prof	-12.4798
▁earths	-12.4803
think	-12.4822
ckadiddledoodle	-12.4822
▁comment	-12.4844
org	-12.4845
▁mut	-12.4847
look	-12.485
zi	-12.4855
ride	-12.4861
sters	-12.4878
▁migra	-12.49
idable	-12.49
ably	-12.49
iss	-12.4905
ks	-12.4907
tches	-12.4912
▁sneez	-12.4916
▁gle	-12.493
five	-12.4931
▁harp	-12.4937
▁resume	-12.494
▁zap	-12.4941
eeling	-12.4942
ellen	-12.4949
oping	-12.495
dly	-12.495
▁mono	-12.4953
gins	-12.4958
▁astr	-12.5001
net	-12.5002
▁gall	-12.5023
▁cla	-12.5025
nto	-12.5036
tro	-12.5049
itar	-12.505
▁communicat	-12.505
ross	-12.5056
witted	-12.5057
▁chur	-12.5061
pig	-12.5063
▁swip	-12.5066
▁reserv	-12.5066
▁ret	-12.5074
cool	-12.5087
▁handi	-12.5103
▁sabotag	-12.5128
▁bong	-12.513
tsy	-12.514
▁hij	-12.515
tll	-12.5153
▁ston	-12.5156
▁dries	-12.516
pity	-12.5162
▁samu	-12.5193
▁translat	-12.5196
minate	-12.5203
eon	-12.5205
▁unl	-12.521
▁sau	-12.5215
ories	-12.5227
▁leop	-12.523
▁dwee	-12.5247
ollen	-12.5248
▁val	-12.5301
laws	-12.5318
▁did	-12.5328
lli	-12.534
welling	-12.5341
orms	-12.5343
▁neu	-12.5348
ntac	-12.5352
▁provok	-12.5355
ippity	-12.5363
oper	-12.5364
▁essen	-12.5372
ikes	-12.5372
▁doubled	-12.5383
▁reduc	-12.5396
gon	-12.5401
matched	-12.5432
▁repe	-12.544
mobile	-12.5449
pine	-12.545
▁villa	-12.546
liar	-12.547
▁chart	-12.547
gather	-12.5472
now	-12.5485
little	-12.5487
ets	-12.5487
osed	-12.5492
going	-12.5501
▁mea	-12.551
br	-12.5515
▁funn	-12.5516
▁gaze	-12.5517
oohooh	-12.5517
inny	-12.552
▁sla	-12.5532
ague	-12.5535
▁blueberr	-12.5537
riving	-12.5547
rds	-12.556
tory	-12.5585
llowing	-12.5591
▁mitt	-12.5597
hell	-12.5598
pt	-12.5611
app	-12.564
▁brai	-12.5642
huh	-12.5644
icking	-12.5692
affe	-12.5747
havin	-12.5763
apped	-12.5765
▁tangle	-12.5768
eye	-12.5785
coats	-12.5801
vers	-12.5802
▁nasti	-12.5809
▁nosh	-12.5815
skin	-12.5823
▁dashin	-12.584
oft	-12.5871
▁starve	-12.5876
ort	-12.5891
onger	-12.5896
udder	-12.591
▁sud	-12.5919
▁es	-12.5924
▁moonli	-12.5933
▁nob	-12.5935
▁starv	-12.5945
▁lasts	-12.5956
shes	-12.5971
▁hypno	-12.5976
▁glid	-12.5987
doo	-12.5988
oozie	-12.6001
▁abr	-12.6008
▁mari	-12.6009
▁ree	-12.6036
olic	-12.6048
her	-12.6054
mic	-12.607
▁earli	-12.6072
ctica	-12.6084
bus	-12.6091
ainly	-12.6115
eep	-12.6122
▁doubletal	-12.6126
ords	-12.6151
▁hamm	-12.6153
▁wid	-12.6154
storms	-12.6159
▁realis	-12.6177
dding	-12.6181
post	-12.6184
iles	-12.6195
eel	-12.6205
mbone	-12.6205
▁rippin	-12.6217
▁skid	-12.6219
▁seventy	-12.6233
▁deno	-12.6236
▁dish	-12.6255
rary	-12.6264
▁appoint	-12.6281
▁optimis	-12.6283
▁engag	-12.6297
first	-12.6308
lime	-12.6316
ston	-12.6321
▁predictabl	-12.6331
hear	-12.6336
iva	-12.6345
boys	-12.6347
▁plac	-12.6352
fish	-12.6354
tes	-12.6362
▁fil	-12.6365
ancing	-12.6368
covered	-12.6376
eh	-12.638
▁bana	-12.6381
xup	-12.6386
▁interce	-12.6398
xen	-12.6413
▁univers	-12.6414
matic	-12.6418
lp	-12.6419
scents	-12.642
holes	-12.6422
egr	-12.6425
action	-12.6427
wow	-12.6432
please	-12.6437
▁frie	-12.644
tu	-12.6441
ew	-12.6443
anies	-12.6448
ecu	-12.647
ater	-12.6492
▁interna	-12.6506
ti	-12.6518
▁illustr	-12.6523
pul	-12.6527
▁wes	-12.6533
ggers	-12.6548
▁assemble	-12.6555
eth	-12.6556
ays	-12.657
sorry	-12.6573
▁irr	-12.658
litary	-12.658
lism	-12.6599
uii	-12.6605
oss	-12.6609
secure	-12.6621
kindle	-12.6629
▁apolog	-12.6629
imum	-12.6655
▁cav	-12.6681
iquet	-12.6698
theyre	-12.6703
iting	-12.671
▁sept	-12.6724
po	-12.6727
won	-12.6729
ead	-12.6742
oir	-12.6745
tually	-12.6747
ption	-12.6758
▁awe	-12.677
▁quee	-12.6772
maybe	-12.6772
▁tam	-12.6773
fer	-12.6779
hy	-12.6779
▁nerv	-12.6785
▁lid	-12.6787
terina	-12.679
▁uhwe	-12.6793
▁steppin	-12.6821
▁quali	-12.6827
▁heal	-12.6847
alty	-12.6848
▁gainin	-12.6871
honey	-12.6875
everything	-12.6876
lease	-12.6877
uit	-12.6889
mpu	-12.6903
▁revere	-12.6906
▁eeeee	-12.6916
▁expi	-12.6917
hit	-12.6932
arr	-12.6944
lain	-12.6944
▁introduc	-12.6947
▁institu	-12.6949
ulation	-12.6957
witched	-12.696
▁organize	-12.6962
ically	-12.6977
acks	-12.6977
more	-12.698
hic	-12.6982
umber	-12.6986
lie	-12.6986
▁scat	-12.6987
ellow	-12.6995
▁cli	-12.7
va	-12.7032
bean	-12.7062
stop	-12.7075
ave	-12.7082
▁spo	-12.7087
oopside	-12.7087
itrate	-12.7088
▁outd	-12.7089
mind	-12.709
▁possib	-12.7093
believe	-12.7096
aug	-12.7101
▁floatin	-12.7103
tique	-12.7103
ives	-12.7106
hank	-12.712
struction	-12.7122
girl	-12.7123
▁celebrat	-12.7125
▁disapp	-12.7129
▁involv	-12.713
ham	-12.7135
▁subsidi	-12.7137
name	-12.7137
gger	-12.7139
rips	-12.7147
trip	-12.7147
▁cultur	-12.7149
page	-12.7154
ria	-12.7157
▁venu	-12.7158
team	-12.7167
etic	-12.7171
lake	-12.7172
friend	-12.7175
ector	-12.7181
▁reg	-12.7183
▁sli	-12.7189
your	-12.7199
dad	-12.7202
face	-12.7204
aiiy	-12.7207
loom	-12.7212
▁wis	-12.7212
bbed	-12.7215
lau	-12.7218
thanks	-12.7219
▁emotion	-12.7226
next	-12.7227
▁pla	-12.7233
▁shee	-12.7234
wo	-12.7238
law	-12.7238
sm	-12.7245
ibu	-12.7249
trude	-12.7257
▁prayin	-12.7263
ifying	-12.7264
cott	-12.7269
morning	-12.7273
turn	-12.7309
hard	-12.7309
▁corp	-12.731
▁cin	-12.7317
tta	-12.7322
haha	-12.7324
▁ramble	-12.7326
luck	-12.7328
hhhhhhhhhhhhh	-12.7331
▁scen	-12.7333
mmi	-12.7342
someone	-12.7345
▁summ	-12.7345
▁instal	-12.7348
door	-12.7349
pati	-12.7353
▁repel	-12.7354
mine	-12.7355
rmative	-12.7364
member	-12.7365
mpering	-12.7366
left	-12.737
▁tourn	-12.7371
watch	-12.7374
rify	-12.7378
gling	-12.7379
▁kara	-12.739
easy	-12.7395
lessly	-12.74
▁retir	-12.74
havent	-12.7403
served	-12.7403
▁rac	-12.7408
▁transfer	-12.7413
▁techno	-12.7414
omed	-12.7418
true	-12.7419
quit	-12.7421
lock	-12.7428
▁vau	-12.743
gadget	-12.7437
▁sar	-12.7439
woman	-12.744
phy	-12.7442
▁tossin	-12.7454
ograph	-12.7456
guy	-12.7462
important	-12.7472
stay	-12.7478
matilda	-12.748
hu	-12.749
▁embar	-12.7492
▁mik	-12.7495
cris	-12.7496
power	-12.7497
▁rearrang	-12.751
▁fourt	-12.7521
tree	-12.7526
ility	-12.7527
week	-12.7531
zie	-12.754
▁mov	-12.754
ckled	-12.7549
promise	-12.7554
sterling	-12.7556
▁mos	-12.7557
urred	-12.756
ietal	-12.7562
authoriz	-12.7565
check	-12.7568
kill	-12.7576
wards	-12.7577
food	-12.7579
imentary	-12.758
flowers	-12.758
born	-12.758
▁frolic	-12.759
▁alookin	-12.759
children	-12.7591
▁cont	-12.7593
forget	-12.7593
nobody	-12.7594
fast	-12.7594
may	-12.7595
▁humiliat	-12.7596
change	-12.7597
▁upto	-12.7598
oozy	-12.7601
mates	-12.7604
poor	-12.7608
claw	-12.7612
exactly	-12.7613
perhaps	-12.7614
yo	-12.7619
bri	-12.7624
▁nava	-12.7625
trust	-12.7634
▁fer	-12.7635
gna	-12.7635
lem	-12.7636
▁mul	-12.7639
▁ofj	-12.7641
safe	-12.7649
player	-12.7658
burger	-12.7659
behind	-12.7659
flower	-12.766
magic	-12.7668
▁sevente	-12.767
▁famil	-12.7671
▁colo	-12.7675
craft	-12.7681
▁reviv	-12.7685
coffee	-12.769
ced	-12.769
▁saf	-12.7692
sign	-12.7692
jl	-12.7695
step	-12.7699
strong	-12.7699
vie	-12.77
making	-12.77
feeling	-12.7702
▁amb	-12.7706
ft	-12.7709
q	-12.7709
▁nor	-12.771
case	-12.7714
daughter	-12.7715
bby	-12.7719
resses	-12.7721
assy	-12.7723
peace	-12.7724
sam	-12.7724
▁troubl	-12.7725
heard	-12.7725
speed	-12.7727
▁celeb	-12.7728
choo	-12.7729
office	-12.7732
flies	-12.7735
hungry	-12.7737
married	-12.7738
▁craw	-12.7741
pleasant	-12.7742
▁airs	-12.7743
grape	-12.7743
planet	-12.7745
atest	-12.7745
anne	-12.7752
▁pleas	-12.7753
pur	-12.7755
damn	-12.7756
coat	-12.7758
amigo	-12.7759
american	-12.776
playing	-12.7762
winner	-12.7762
icative	-12.7766
flash	-12.7767
silver	-12.7768
record	-12.7772
▁how	-12.7776
latte	-12.7777
handle	-12.7777
▁garl	-12.7779
plow	-12.7779
sight	-12.778
isnt	-12.7781
reptile	-12.7784
actors	-12.7784
oxin	-12.7784
akam	-12.7784
hop	-12.7786
▁grunt	-12.7794
▁spiri	-12.7795
climbing	-12.7798
terminated	-12.7799
honest	-12.7801
judge	-12.7802
doodle	-12.7803
weather	-12.7804
hush	-12.7804
chachin	-12.781
screen	-12.7811
finger	-12.7815
practicin	-12.7815
teacher	-12.7815
milk	-12.7818
throat	-12.7818
study	-12.7821
profile	-12.7821
stairs	-12.7824
plant	-12.7824
after	-12.7825
max	-12.7825
ification	-12.7826
▁prophe	-12.7827
view	-12.7827
block	-12.7828
uits	-12.7829
▁tex	-12.783
lakes	-12.783
▁memo	-12.783
ained	-12.7833
assed	-12.7833
paper	-12.7834
spindle	-12.7835
heavy	-12.7835
central	-12.7835
lum	-12.7836
broken	-12.7839
▁chang	-12.784
accord	-12.784
feller	-12.784
▁consume	-12.7841
tempo	-12.7841
invited	-12.7842
frequen	-12.7843
▁bakin	-12.7843
▁soli	-12.7843
chuck	-12.7843
▁tortur	-12.7845
confidence	-12.7845
proof	-12.7846
polar	-12.7848
parallel	-12.7849
columbus	-12.7849
ntless	-12.7851
pitcher	-12.7851
prejudice	-12.7852
guided	-12.7853
brush	-12.7853
ratio	-12.7853
wreck	-12.7854
happening	-12.7854
thief	-12.7854
witness	-12.7856
bolted	-12.7856
ference	-12.7856
normal	-12.7857
▁conf	-12.7858
obedient	-12.7858
stealing	-12.7859
pikachu	-12.7859
condition	-12.786
esses	-12.7861
prize	-12.7861
cracks	-12.7862
command	-12.7862
alarm	-12.7863
popular	-12.7863
poison	-12.7863
mmemorial	-12.7863
floor	-12.7864
walking	-12.7864
puncture	-12.7865
chocolate	-12.7866
appear	-12.7867
▁conver	-12.7867
pots	-12.7867
mirror	-12.7867
loose	-12.7867
fortune	-12.7867
occupied	-12.7867
mentioned	-12.7868
warned	-12.7868
slipper	-12.7868
illusion	-12.7869
deposit	-12.7869
thatll	-12.787
david	-12.787
chemistry	-12.7871
positively	-12.7871
uhh	-12.7873
official	-12.7873
noticed	-12.7873
kerchief	-12.7873
dressed	-12.7873
nurse	-12.7874
knife	-12.7874
research	-12.7874
writing	-12.7875
payment	-12.7876
complete	-12.7876
begging	-12.7876
destruction	-12.7877
accessible	-12.7877
establish	-12.7877
kansas	-12.7877
guns	-12.7878
glasses	-12.7879
coup	-12.7879
challenge	-12.7881
altitude	-12.7881
bodies	-12.7881
grass	-12.7881
pipes	-12.7882
bonus	-12.7882
▁q	-12.7882
channel	-12.7882
pants	-12.7883
▁whimper	-12.7883
raised	-12.7883
owns	-12.7883
pressure	-12.7883
cyclerepairer	-12.7883
tension	-12.7884
canvas	-12.7884
efficient	-12.7884
direct	-12.7884
switzerland	-12.7884
injection	-12.7885
mark	-12.7885
sensitive	-12.7887
shootin	-12.7888
brake	-12.7888
deaf	-12.7889
ohoh	-12.7889
simian	-12.789
daisy	-12.7891
code	-12.7891
▁stepp	-12.7892
▁flyer	-12.7892
flavor	-12.7892
▁argentin	-12.7892
cooked	-12.7893
type	-12.7893
burst	-12.7894
support	-12.7894
banana	-12.7895
racing	-12.7895
fabric	-12.7895
grain	-12.7896
defying	-12.7896
airship	-12.7896
evolved	-12.7897
fighting	-12.7897
invested	-12.7898
advantage	-12.7899
valuable	-12.7899
▁sorcer	-12.79
africa	-12.7901
dandelions	-12.7901
livin	-12.7902
soup	-12.7903
expense	-12.7903
trained	-12.7903
▁educat	-12.7904
famili	-12.7904
escort	-12.7904
estimate	-12.7905
foreseen	-12.7906
discovered	-12.7906
quisition	-12.7906
oletti	-12.7908
easants	-12.7908
grab	-12.7908
astronaut	-12.7909
synthesi	-12.791
wrinkle	-12.7914
▁origin	-12.7914
▁recogniz	-12.7915
▁hercule	-12.7916
bath	-12.7917
rubber	-12.7918
descend	-12.7918
torch	-12.792
gray	-12.7921
▁supers	-12.7922
miles	-12.7922
loving	-12.7923
grable	-12.7925
chen	-12.7925
▁ie	-12.7925
magician	-12.7926
sugar	-12.7927
wers	-12.7931
maiden	-12.7931
stroke	-12.7932
crossed	-12.7932
▁throwin	-12.7933
warrant	-12.7933
inflat	-12.7935
jam	-12.7936
capable	-12.7937
draft	-12.7937
axe	-12.7939
explored	-12.7942
titles	-12.7942
▁strap	-12.7942
standard	-12.7944
▁docker	-12.7945
stinate	-12.7946
video	-12.7947
jection	-12.7948
picking	-12.7949
hahahaha	-12.7949
legend	-12.7952
crop	-12.7953
inating	-12.7953
calling	-12.7957
giorno	-12.7959
wives	-12.796
▁pediatric	-12.796
▁cantaloupe	-12.796
▁watermelon	-12.796
▁warrior	-12.796
mission	-12.7961
pup	-12.7961
scared	-12.7961
crying	-12.7961
thru	-12.7961
▁pancake	-12.7961
slide	-12.7961
cry	-12.7962
▁mushroom	-12.7963
ointment	-12.7963
belts	-12.7965
dwelling	-12.7968
kicks	-12.7969
▁robber	-12.797
gram	-12.7971
▁milli	-12.7971
dreaming	-12.7971
▁scoundrel	-12.7972
▁semifinal	-12.7972
▁cabbage	-12.7972
▁applicant	-12.7973
constructi	-12.7973
graduate	-12.7974
waves	-12.7975
rivers	-12.7975
▁contribution	-12.7975
▁ingredient	-12.7977
connect	-12.7977
rocket	-12.7977
▁clau	-12.7978
▁lounge	-12.7978
▁improvement	-12.7978
founded	-12.7978
▁lankom	-12.798
waddle	-12.798
▁steward	-12.7981
▁wiggin	-12.7981
▁daniel	-12.7981
▁scroll	-12.7981
▁monk	-12.7982
tune	-12.7982
budd	-12.7982
greek	-12.7982
bang	-12.7983
lt	-12.7983
▁beggar	-12.7983
▁voca	-12.7984
▁regist	-12.7985
six	-12.7986
earn	-12.7988
▁convenien	-12.7988
regular	-12.7988
▁vegetable	-12.7989
▁controll	-12.799
vase	-12.7991
▁outlet	-12.7992
beak	-12.7993
▁scoff	-12.7995
possibility	-12.7995
indulgen	-12.7996
guar	-12.7996
spin	-12.7997
▁unusua	-12.7997
nounced	-12.7998
els	-12.8003
contest	-12.8003
navigat	-12.8003
▁pigeon	-12.8003
lim	-12.8003
moving	-12.8004
▁consisten	-12.8004
ounced	-12.8006
▁rumble	-12.8007
▁tourist	-12.8008
▁teenager	-12.8009
airy	-12.8009
▁fractio	-12.8009
needed	-12.8011
iam	-12.8012
itud	-12.8012
▁ancho	-12.8016
▁mumble	-12.8017
▁nurtur	-12.8018
ju	-12.8019
hawk	-12.8021
▁futur	-12.8021
▁canvas	-12.8022
▁excit	-12.8025
tippy	-12.8025
▁insid	-12.8026
continu	-12.8027
select	-12.8031
respond	-12.8036
notes	-12.8038
▁adju	-12.8038
ggets	-12.8038
▁replac	-12.8039
angle	-12.804
shake	-12.804
▁balanc	-12.8041
corpora	-12.8041
▁waterfall	-12.8041
▁persua	-12.8042
culture	-12.8043
▁captur	-12.8045
▁confus	-12.8045
path	-12.8047
pleasures	-12.8048
▁jess	-12.8048
temper	-12.8049
▁silen	-12.805
▁insur	-12.8054
unches	-12.8054
▁cooperat	-12.8056
lac	-12.8057
▁impossibl	-12.8057
▁valve	-12.8057
▁irresponsibl	-12.8058
▁antenna	-12.8058
▁incredibl	-12.8059
▁demonstrat	-12.8059
▁telephon	-12.8059
lived	-12.806
▁sucker	-12.806
hire	-12.8061
▁disgust	-12.8061
vied	-12.8061
racking	-12.8062
▁invit	-12.8062
form	-12.8062
▁pinchcliff	-12.8063
▁recogni	-12.8063
▁fascinat	-12.8063
▁importan	-12.8064
▁skelet	-12.8065
▁presid	-12.8066
faced	-12.8067
exhausti	-12.8067
common	-12.8067
▁refresh	-12.8067
▁apprecia	-12.8069
▁russia	-12.8069
chau	-12.807
▁definit	-12.8071
tious	-12.8073
▁utili	-12.8074
efying	-12.8075
aahaa	-12.8075
weeks	-12.8076
▁raspberr	-12.8076
▁surge	-12.8076
amba	-12.8076
scui	-12.8076
▁surprisin	-12.8077
aundry	-12.8077
▁undo	-12.8077
▁vibrati	-12.8078
guessing	-12.8078
▁expan	-12.8078
▁streamline	-12.8078
▁inspire	-12.8079
▁entomolog	-12.8079
▁academ	-12.808
▁astronom	-12.808
▁snuggl	-12.808
▁sophisticat	-12.8081
▁understoo	-12.8081
▁amaz	-12.8081
▁librar	-12.8081
▁territor	-12.8081
▁blaze	-12.8081
plates	-12.8081
▁inject	-12.8081
▁energ	-12.8081
▁frustrat	-12.8081
▁consec	-12.8082
▁punctu	-12.8082
nounce	-12.8082
▁muffle	-12.8082
▁ceremon	-12.8082
▁snuff	-12.8082
▁sterl	-12.8083
▁extravagan	-12.8083
got	-12.8084
▁benef	-12.8084
▁clums	-12.8085
▁compute	-12.8085
lamp	-12.8085
uspicious	-12.8085
▁stumble	-12.8086
▁industri	-12.8086
▁hesitat	-12.8087
ymph	-12.8087
▁terrib	-12.8088
waddl	-12.8088
enrich	-12.8088
▁thirst	-12.8088
▁deplo	-12.8089
▁squea	-12.8089
▁spec	-12.809
▁excellenc	-12.8091
negotia	-12.8093
▁diggin	-12.8093
▁wahwa	-12.8094
▁rosebu	-12.8094
communica	-12.8094
▁jun	-12.8094
▁anythin	-12.8095
▁schwa	-12.8095
▁fundrais	-12.8095
whatever	-12.8095
▁obscur	-12.8095
rison	-12.8096
▁mornin	-12.8096
short	-12.8097
▁lucife	-12.8097
▁consent	-12.8097
▁myoj	-12.8097
ntelligence	-12.8098
▁sculpt	-12.8098
curit	-12.8098
▁wrestl	-12.8098
ncredible	-12.8098
▁refracti	-12.8098
▁vermi	-12.8098
▁financi	-12.8099
▁slidin	-12.8099
▁destruct	-12.8099
▁critic	-12.8099
▁usurpe	-12.8099
▁miserabl	-12.81
solut	-12.81
▁ohohohoh	-12.81
▁contribut	-12.81
▁flywh	-12.81
escribed	-12.81
▁wag	-12.81
rcules	-12.8101
nuku	-12.8101
esigner	-12.8101
▁devastati	-12.8101
▁sugg	-12.8101
rumpet	-12.8101
destructi	-12.8101
▁ofcour	-12.8101
voluntarily	-12.8101
▁satisfact	-12.8102
▁compensat	-12.8102
scription	-12.8102
▁suppos	-12.8102
▁alternat	-12.8102
ogrammed	-12.8103
▁civilis	-12.8103
▁misunderst	-12.8103
▁turbulen	-12.8103
▁inconve	-12.8103
▁grocer	-12.8103
oubie	-12.8103
▁responsibi	-12.8103
▁deducti	-12.8103
▁disgra	-12.8103
▁relentless	-12.8103
ggett	-12.8103
▁disqualif	-12.8104
nterest	-12.8104
▁approximat	-12.8104
▁cecil	-12.8104
ponsibility	-12.8104
preciation	-12.8104
runk	-12.8104
demeanor	-12.8104
dynamic	-12.8104
▁timberwol	-12.8104
▁marcia	-12.8104
deedeedeed	-12.8104
ruthers	-12.8104
eyieyie	-12.8104
neeneenee	-12.8104
yesyesyesyes	-12.8104
ddddd	-12.8104
oritas	-12.8104
shhshh	-12.8104
woowoowoo	-12.8104
dootdootdoot	-12.8104
bebebe	-12.8104
bobobo	-12.8104
hidihidihi	-12.8104
advert	-12.8104
rgling	-12.8104
▁congrat	-12.8104
▁alrig	-12.8104
uraya	-12.8104
nananana	-12.8104
▁advent	-12.8104
▁succ	-12.8104
omaniac	-12.8104
▁certa	-12.8104
▁stouthea	-12.8104
rambling	-12.8104
mymy	-12.8105
utifull	-12.8105
▁certif	-12.8105
▁reneg	-12.8105
ogey	-12.8105
▁irresis	-12.8105
oglib	-12.8105
longed	-12.8105
proxim	-12.8105
sylv	-12.8105
ficient	-12.8105
scousins	-12.8105
profe	-12.8105
lific	-12.8105
uggly	-12.8105
slaught	-12.8105
rrifying	-12.8105
▁writin	-12.8105
▁convent	-12.8106
▁influen	-12.8106
hurst	-12.8106
▁indisp	-12.8106
termination	-12.8106
▁kuag	-12.8106
bilt	-12.8106
laborat	-12.8107
unuku	-12.8107
bunc	-12.8107
▁absol	-12.8107
▁revol	-12.8107
orably	-12.8108
▁serge	-12.8109
▁poppy	-12.8109
▁prem	-12.8109
icul	-12.8109
erendi	-12.8109
jour	-12.811
fthan	-12.811
sequent	-12.811
krau	-12.811
anhour	-12.8111
egger	-12.8111
▁slippin	-12.8111
▁shakin	-12.8111
▁flatten	-12.8112
xili	-12.8112
mmering	-12.8112
nabelle	-12.8112
culty	-12.8112
▁greatgrand	-12.8112
scending	-12.8112
diddle	-12.8113
▁albu	-12.8113
▁twea	-12.8113
flict	-12.8113
claud	-12.8114
nsult	-12.8114
avora	-12.8114
▁bogey	-12.8114
▁confuse	-12.8114
▁wahwah	-12.8115
semble	-12.8115
wich	-12.8115
gestion	-12.8115
heigh	-12.8115
▁unrel	-12.8115
wonderin	-12.8116
viole	-12.8116
▁ohhhhhhh	-12.8116
▁ohhhhhh	-12.8116
▁germ	-12.8117
rns	-12.8117
▁occ	-12.8117
players	-12.8117
artik	-12.8117
ounge	-12.8118
edict	-12.8119
excus	-12.8119
lasses	-12.8119
spel	-12.812
▁jui	-12.812
rniture	-12.812
▁belie	-12.812
skips	-12.812
olence	-12.8121
hahahahah	-12.8121
combe	-12.8122
ciate	-12.8122
vail	-12.8122
▁causin	-12.8122
▁excel	-12.8122
▁inex	-12.8123
tenance	-12.8123
▁slink	-12.8123
lida	-12.8123
▁injun	-12.8123
umbus	-12.8123
▁magnifi	-12.8124
aaahaa	-12.8124
minut	-12.8124
▁inhal	-12.8124
▁collectin	-12.8124
cepted	-12.8125
▁journ	-12.8125
jin	-12.8126
▁centuri	-12.8126
etter	-12.8126
▁inconven	-12.8127
ecutive	-12.8127
active	-12.8127
▁notic	-12.8127
▁apprehen	-12.8127
▁cult	-12.8127
games	-12.8128
vinci	-12.8128
▁assess	-12.8128
▁alex	-12.8128
roken	-12.8128
▁merce	-12.8129
▁changin	-12.8129
▁nanana	-12.8129
▁balth	-12.8129
joyed	-12.813
assiv	-12.813
▁calib	-12.8131
solute	-12.8131
▁cleve	-12.8132
▁broth	-12.8132
▁urg	-12.8133
▁desper	-12.8134
austin	-12.8134
oncea	-12.8134
zio	-12.8134
jak	-12.8135
▁garb	-12.8135
rogen	-12.8135
▁guida	-12.8135
▁nurture	-12.8136
▁appar	-12.8136
udgeme	-12.8137
▁suff	-12.8137
▁incon	-12.8137
▁telep	-12.8137
rims	-12.8138
▁wadd	-12.8138
strum	-12.8138
▁extin	-12.8138
jama	-12.8139
holder	-12.8139
▁quart	-12.8139
dashi	-12.8142
selves	-12.8142
▁tech	-12.8142
sumi	-12.8142
▁pamp	-12.8143
seif	-12.8143
adiddle	-12.8144
▁borro	-12.8145
▁babysit	-12.8146
▁prote	-12.8146
▁barbar	-12.8146
ological	-12.8147
quent	-12.8148
nscreen	-12.8148
▁ferdi	-12.815
toget	-12.815
kels	-12.815
anada	-12.815
▁sunda	-12.8151
dingding	-12.8151
ubles	-12.8152
▁confi	-12.8153
onesome	-12.8154
▁extensi	-12.8154
▁siz	-12.8154
neck	-12.8155
▁empt	-12.8155
iminate	-12.8156
▁assis	-12.8157
manding	-12.8157
tape	-12.8158
▁educate	-12.816
▁oppose	-12.8161
ornia	-12.8162
alize	-12.8163
ifty	-12.8163
ometers	-12.8164
chill	-12.8164
▁potent	-12.8164
▁dwel	-12.8164
airie	-12.8164
hoke	-12.8164
ucket	-12.8166
cho	-12.8166
dential	-12.8166
▁preca	-12.8168
▁beaut	-12.8168
ntern	-12.8169
ixie	-12.8169
▁flatter	-12.817
theless	-12.817
xious	-12.8171
▁sittin	-12.8171
▁housekeep	-12.8171
▁thrust	-12.8172
▁opp	-12.8174
hologists	-12.8174
clos	-12.8174
▁fema	-12.8175
pff	-12.8175
▁leftover	-12.8176
livered	-12.8176
eviden	-12.8176
▁achin	-12.8179
▁teie	-12.818
▁settin	-12.818
▁ancest	-12.8181
▁manpower	-12.8182
ruly	-12.8182
▁expense	-12.8182
volv	-12.8183
▁doug	-12.8184
▁turk	-12.8184
deal	-12.8184
▁discont	-12.8184
▁hyu	-12.8189
jecting	-12.8189
▁calcu	-12.8192
tably	-12.8193
▁bathro	-12.8194
▁detonat	-12.8196
▁sprin	-12.8196
osity	-12.8196
ario	-12.8197
▁humm	-12.8198
▁insi	-12.82
▁rib	-12.8202
▁suz	-12.8203
held	-12.8203
▁crumpl	-12.8204
torio	-12.8205
rivat	-12.8205
zine	-12.8206
vices	-12.8207
dians	-12.8207
▁selfre	-12.8207
▁blastin	-12.8207
▁stren	-12.8209
aggi	-12.8211
▁conta	-12.8211
▁barkin	-12.8212
▁refle	-12.8213
▁arun	-12.8213
▁ahhah	-12.8213
piggy	-12.8213
mantic	-12.8215
▁eex	-12.8216
exion	-12.8217
fare	-12.8218
unting	-12.8219
fulness	-12.8219
▁satter	-12.822
▁exhi	-12.8221
atro	-12.8221
ooter	-12.8221
▁tippyt	-12.8221
pital	-12.8222
▁curr	-12.8222
▁promis	-12.8226
▁toil	-12.8226
kur	-12.8226
ji	-12.8227
bourin	-12.8229
yroll	-12.823
sses	-12.8231
syto	-12.8231
itious	-12.8231
▁andr	-12.8232
sity	-12.8232
lita	-12.8234
itude	-12.8234
itch	-12.8234
▁crim	-12.8234
▁swingin	-12.8235
convenience	-12.8236
ticu	-12.8236
achero	-12.8236
▁ahhhh	-12.8236
orious	-12.8237
cking	-12.8237
difference	-12.824
vate	-12.8241
▁cautio	-12.8242
int	-12.8243
eni	-12.8243
▁bub	-12.8245
▁lanko	-12.8245
▁defy	-12.8246
lion	-12.8246
sound	-12.8246
ruff	-12.8247
hows	-12.8248
venture	-12.8249
▁kat	-12.8249
ixi	-12.8251
ngiorno	-12.8251
exic	-12.8255
▁spacesh	-12.8255
ador	-12.8255
▁laundr	-12.8256
▁sneakin	-12.8256
▁bettin	-12.8258
▁merl	-12.8259
oia	-12.826
▁offs	-12.8264
sitter	-12.8265
cob	-12.8265
▁atlant	-12.8266
▁connecti	-12.8267
▁hidin	-12.8268
▁hoora	-12.8268
▁dope	-12.8269
mbly	-12.8269
quot	-12.8276
▁stan	-12.8279
peting	-12.8279
ookies	-12.8279
ertons	-12.828
▁organi	-12.8281
▁jingl	-12.8281
▁pep	-12.8285
etons	-12.8286
vous	-12.8287
▁asp	-12.8287
▁sax	-12.8287
changed	-12.8287
▁swall	-12.8288
ania	-12.8288
they	-12.8289
arently	-12.8289
▁stout	-12.8291
mm	-12.8294
▁rejoi	-12.8294
rative	-12.8295
napping	-12.8296
meaning	-12.8296
▁reptile	-12.8296
kja	-12.8297
▁jose	-12.8297
appa	-12.8297
imal	-12.8297
▁groom	-12.8298
kok	-12.83
tcher	-12.8303
acin	-12.8303
bald	-12.8303
▁jou	-12.8304
balt	-12.8304
▁poster	-12.8306
sp	-12.8308
▁steer	-12.8308
aucer	-12.8309
▁brag	-12.8311
▁iess	-12.8313
▁lovin	-12.8316
mart	-12.8318
▁disre	-12.8318
million	-12.8319
aiser	-12.8323
▁ult	-12.8323
rammed	-12.8324
▁horri	-12.8327
loppy	-12.833
rel	-12.833
▁scr	-12.8331
▁hogget	-12.8331
▁flop	-12.8331
▁leadin	-12.8332
agers	-12.8332
impos	-12.8336
ouncing	-12.8336
arms	-12.8337
▁itchi	-12.8338
▁irritate	-12.8339
ppi	-12.8341
jos	-12.8342
▁grun	-12.8343
beli	-12.8344
hou	-12.8345
▁spear	-12.8348
▁nood	-12.8349
atsu	-12.8351
▁ange	-12.8355
rassing	-12.8359
pint	-12.8361
endar	-12.8363
years	-12.8363
▁kum	-12.8365
▁web	-12.8367
cuba	-12.8367
loss	-12.8367
▁guid	-12.8368
lias	-12.8369
▁splatter	-12.8373
lty	-12.8374
inated	-12.8376
usage	-12.8377
mad	-12.8378
dence	-12.8382
vp	-12.8383
▁thatl	-12.8385
▁repeatin	-12.839
dition	-12.8391
▁chit	-12.8392
▁haru	-12.8396
▁relat	-12.8397
▁snak	-12.8397
vested	-12.8398
▁comfortabl	-12.84
▁flas	-12.8404
▁comma	-12.8406
quer	-12.8406
▁fenc	-12.8413
▁facilit	-12.8414
risons	-12.8415
▁taj	-12.8415
▁was	-12.8416
meda	-12.842
▁severe	-12.8423
dum	-12.8424
octo	-12.8425
sperate	-12.8425
itis	-12.8429
▁regi	-12.8431
ggin	-12.8431
▁liner	-12.8431
smar	-12.8432
▁jeane	-12.8433
▁liftin	-12.8435
▁apo	-12.8437
▁coco	-12.8446
iland	-12.8452
tub	-12.8455
mill	-12.8458
▁ratio	-12.846
▁syn	-12.8465
▁ohhhhh	-12.8465
▁hon	-12.8471
store	-12.8477
lize	-12.8477
umtum	-12.8477
orn	-12.8478
died	-12.8478
incess	-12.8483
zo	-12.8484
▁travelin	-12.8484
pass	-12.8486
ooo	-12.8486
▁syd	-12.8487
▁whereve	-12.8492
tur	-12.8494
▁dais	-12.8494
rupt	-12.8497
tters	-12.8498
atory	-12.8499
ument	-12.85
hands	-12.8501
kat	-12.8511
▁dul	-12.8512
elic	-12.8513
▁peta	-12.8517
▁nois	-12.8517
▁prog	-12.8517
elated	-12.8519
uddy	-12.852
▁hidi	-12.8521
▁practicin	-12.8522
warming	-12.8524
▁bough	-12.8525
▁elli	-12.8526
▁fals	-12.8527
psided	-12.8527
eceive	-12.8528
ea	-12.853
▁avo	-12.8531
▁esp	-12.8536
▁emi	-12.8536
▁washi	-12.8537
hea	-12.8538
▁chemi	-12.8541
winter	-12.8544
tyle	-12.8546
▁maximu	-12.8548
ramble	-12.8552
▁vaca	-12.8555
acts	-12.8557
oose	-12.8559
▁troub	-12.856
ooks	-12.8561
▁ridin	-12.8562
▁visitin	-12.8564
▁boardin	-12.8566
cr	-12.8566
emb	-12.8567
dex	-12.857
▁househo	-12.8572
icent	-12.8573
▁disp	-12.8573
▁joh	-12.8576
▁consu	-12.8579
ishbone	-12.8579
ffling	-12.8582
▁hails	-12.8588
heep	-12.8592
▁doom	-12.8596
▁dau	-12.8596
▁buon	-12.8597
robat	-12.8597
▁marve	-12.8599
▁lumber	-12.86
arrangement	-12.8602
aby	-12.8605
cakes	-12.8606
ution	-12.8609
▁medit	-12.8609
▁dab	-12.8609
ika	-12.8614
▁messin	-12.8615
cinating	-12.8615
▁moles	-12.8616
ift	-12.8619
aught	-12.862
▁dw	-12.862
▁maxim	-12.8621
▁kenne	-12.8623
mela	-12.8624
▁buc	-12.8626
▁plu	-12.8631
▁tada	-12.8633
▁juic	-12.8636
fur	-12.8637
zer	-12.8638
uth	-12.8638
▁deco	-12.8639
▁schu	-12.864
▁musics	-12.8643
mrs	-12.8646
▁pow	-12.8647
lights	-12.8649
▁mistak	-12.865
▁stubb	-12.865
▁defus	-12.8656
god	-12.8665
pas	-12.8669
▁wail	-12.8669
entry	-12.8669
ouri	-12.8673
lam	-12.8674
▁crea	-12.8675
linus	-12.8676
▁vu	-12.8678
indicati	-12.868
▁ibu	-12.868
mised	-12.868
image	-12.8682
▁endow	-12.8683
▁electr	-12.8691
▁skier	-12.8691
▁banish	-12.8692
▁chant	-12.8692
asis	-12.8693
joshs	-12.8693
▁blues	-12.8698
▁fend	-12.8698
▁cia	-12.87
ember	-12.8707
▁brads	-12.8708
pulat	-12.871
efully	-12.8711
dogs	-12.8718
nical	-12.8718
enna	-12.8723
illus	-12.8723
due	-12.8723
bor	-12.8729
▁stevens	-12.8729
▁coll	-12.8731
eeks	-12.8732
▁falk	-12.8733
▁acqui	-12.8737
▁seed	-12.8738
ista	-12.8738
▁clan	-12.8738
▁beii	-12.8739
tates	-12.8743
▁interv	-12.8746
tain	-12.8749
▁trou	-12.8751
his	-12.8752
▁gardener	-12.8752
▁lull	-12.8753
stol	-12.8755
▁cleaner	-12.8761
fighter	-12.8763
rdrobe	-12.8764
abo	-12.8768
▁virtu	-12.8771
▁thor	-12.8771
▁actin	-12.8771
▁noi	-12.8773
▁whisk	-12.8774
angu	-12.8775
▁span	-12.8776
fusing	-12.8779
youd	-12.878
dying	-12.8781
▁lob	-12.8783
suit	-12.8789
▁bathi	-12.8795
▁throb	-12.8796
▁hock	-12.8797
▁guil	-12.8803
▁desti	-12.8806
asses	-12.881
▁stra	-12.8811
tible	-12.8812
▁tingl	-12.8814
arity	-12.8816
cle	-12.8818
▁gag	-12.8818
▁transferr	-12.8825
nship	-12.8835
isks	-12.8852
▁vit	-12.8858
mary	-12.8859
▁sash	-12.8859
cam	-12.886
ix	-12.8868
▁easie	-12.887
pie	-12.8875
▁cour	-12.8876
inally	-12.8877
sing	-12.8889
▁suic	-12.8892
iously	-12.8896
new	-12.8899
stice	-12.8905
▁precise	-12.8907
▁bala	-12.8911
cats	-12.8912
istan	-12.8914
▁pyr	-12.8931
hhhhhhhhhhhhhh	-12.8934
approve	-12.8938
ange	-12.8939
▁choo	-12.8941
ighs	-12.8942
▁centra	-12.8947
seeing	-12.8948
▁rider	-12.8957
hist	-12.8958
▁chr	-12.896
▁piea	-12.8967
nary	-12.8973
puls	-12.8984
▁farth	-12.8985
▁nove	-12.8985
▁pickin	-12.8987
▁impu	-12.8987
war	-12.8993
▁calmi	-12.8993
▁teet	-12.8994
vies	-12.8996
▁aud	-12.9
ctor	-12.9001
▁bru	-12.9003
▁oldf	-12.9003
▁dumps	-12.9006
ppers	-12.9007
nrich	-12.9008
oser	-12.9009
▁gua	-12.9009
low	-12.9011
▁fath	-12.9016
▁oft	-12.9017
▁killin	-12.9017
organiz	-12.9018
ected	-12.9018
intrude	-12.9019
▁deci	-12.9019
ographer	-12.9024
aria	-12.9025
pute	-12.9029
▁promot	-12.9036
▁walkin	-12.9039
▁diff	-12.9044
▁charme	-12.9046
onation	-12.9054
pret	-12.9057
▁followin	-12.9062
▁bun	-12.9064
jing	-12.9065
▁solv	-12.907
▁battl	-12.9071
▁coun	-12.9073
die	-12.908
▁fib	-12.9088
▁graz	-12.9089
hoop	-12.9096
▁pres	-12.91
ovation	-12.9107
barking	-12.9109
ield	-12.9123
cting	-12.9123
▁spon	-12.9131
▁chos	-12.9135
sib	-12.9137
shape	-12.9144
ajlm	-12.9144
▁forgiven	-12.9146
▁mostl	-12.9151
▁cere	-12.9173
▁twin	-12.9177
aron	-12.9178
edown	-12.9178
icate	-12.918
▁magnif	-12.9181
oids	-12.9184
was	-12.9187
▁nee	-12.9187
▁intende	-12.9189
▁toxi	-12.919
▁conn	-12.9193
▁conspi	-12.9194
eezes	-12.9202
▁crowe	-12.9208
oma	-12.921
meat	-12.921
▁sock	-12.921
ucc	-12.9212
blem	-12.9215
aked	-12.9215
▁nep	-12.9219
▁gap	-12.9222
eri	-12.9223
▁conven	-12.9229
▁any	-12.9237
tual	-12.924
▁fiftyfi	-12.9243
etalki	-12.9243
usine	-12.9244
▁adam	-12.9245
▁downs	-12.9246
▁envi	-12.9256
uve	-12.9261
py	-12.9261
iace	-12.9262
ibed	-12.9264
start	-12.9277
lps	-12.9278
▁snea	-12.9281
▁capa	-12.9284
tness	-12.9293
ners	-12.9297
▁bran	-12.9305
▁fest	-12.9309
▁natura	-12.931
▁sco	-12.9316
▁arth	-12.9318
oy	-12.9329
hhaah	-12.9332
▁lodg	-12.9335
ibbe	-12.9335
▁obt	-12.9337
▁institut	-12.9364
nds	-12.9381
[...]
