<unk>	0
<s>	0
</s>	0
s	-4.07127
▁im	-4.52185
▁dont	-4.57751
▁know	-4.70873
▁oh	-4.77693
▁get	-4.81147
▁go	-4.82263
▁right	-4.90625
▁come	-4.92335
▁like	-4.92617
▁well	-4.96809
▁got	-5.02766
▁youre	-5.09937
▁one	-5.1576
▁thats	-5.16411
▁yeah	-5.16998
▁good	-5.19189
▁see	-5.31283
▁think	-5.35478
▁na	-5.41178
▁hey	-5.41548
▁want	-5.41646
ing	-5.42837
▁back	-5.50516
▁okay	-5.51688
▁look	-5.53465
▁time	-5.55515
▁yes	-5.55971
▁us	-5.59863
▁gon	-5.64251
▁going	-5.66666
▁ill	-5.67386
▁would	-5.68589
▁take	-5.70301
▁hes	-5.73934
▁cant	-5.74639
▁l	-5.77035
ed	-5.80162
▁little	-5.83159
▁say	-5.85598
▁way	-5.86998
▁mr	-5.87379
▁never	-5.88118
▁really	-5.89187
▁man	-5.89796
▁could	-5.91462
▁tell	-5.9369
▁make	-5.99215
▁thank	-5.99387
▁lets	-6.00626
▁need	-6.01514
▁something	-6.04965
▁love	-6.07939
▁let	-6.08948
▁ive	-6.09519
▁theres	-6.10467
▁whats	-6.129
▁sorry	-6.13004
▁please	-6.14596
▁mean	-6.15405
▁didnt	-6.15528
▁	-6.16785
d	-6.19882
▁wait	-6.21013
▁thing	-6.21167
▁give	-6.26567
▁help	-6.27474
▁day	-6.29442
▁two	-6.29907
▁much	-6.34066
▁great	-6.34785
y	-6.35689
▁home	-6.35833
▁sure	-6.36143
▁uh	-6.40261
▁sir	-6.41538
▁guys	-6.4228
▁away	-6.42474
▁said	-6.42947
▁ever	-6.44072
▁stop	-6.44488
▁better	-6.45363
▁even	-6.46198
▁theyre	-6.46202
▁must	-6.46316
▁new	-6.46619
▁people	-6.47704
▁find	-6.49074
▁shes	-6.49077
▁first	-6.5077
▁life	-6.50943
ly	-6.51709
▁always	-6.53759
▁music	-6.54944
▁thought	-6.5574
▁maybe	-6.57395
▁things	-6.58385
▁keep	-6.59625
▁nothing	-6.60037
▁night	-6.60827
▁place	-6.62154
▁put	-6.62699
▁anything	-6.62907
▁still	-6.64882
▁long	-6.66794
▁guy	-6.66933
▁feel	-6.67723
▁huh	-6.70627
▁big	-6.70637
▁whoa	-6.70837
▁dad	-6.71119
▁youve	-6.71476
▁everything	-6.71903
▁believe	-6.72038
▁old	-6.7331
▁around	-6.73852
▁wont	-6.74283
▁call	-6.75342
▁hello	-6.76529
▁work	-6.77411
▁boy	-6.77635
e	-6.77991
▁leave	-6.78157
▁id	-6.78292
▁youll	-6.78306
▁best	-6.78536
▁bad	-6.79318
▁course	-6.80148
▁coming	-6.80154
▁stay	-6.80384
▁done	-6.80616
▁world	-6.81197
▁try	-6.82018
er	-6.8245
▁nice	-6.84755
▁last	-6.85173
▁miss	-6.85211
▁talk	-6.85399
▁name	-6.85592
▁hear	-6.86352
▁house	-6.86481
▁hi	-6.86934
▁may	-6.87565
▁every	-6.88384
▁kind	-6.88669
▁god	-6.88823
▁made	-6.89678
▁isnt	-6.89899
▁mom	-6.9016
▁gasps	-6.90704
▁ah	-6.90812
▁told	-6.9119
▁might	-6.91794
▁baby	-6.92093
▁ta	-6.9275
▁remember	-6.93246
▁mother	-6.93603
▁thanks	-6.93888
▁playing	-6.94768
▁enough	-6.94888
▁show	-6.95938
▁doesnt	-6.96515
▁play	-6.97158
▁left	-6.97612
▁listen	-6.9855
▁grunts	-6.98831
▁ready	-6.99086
▁hold	-6.9946
▁wrong	-7.00137
▁found	-7.01853
▁lot	-7.02029
▁years	-7.02116
▁happy	-7.02726
▁morning	-7.03016
▁laughing	-7.03394
▁girl	-7.03482
▁dog	-7.04097
▁three	-7.05979
▁fine	-7.07178
▁run	-7.07777
▁getting	-7.08462
▁excuse	-7.10594
▁another	-7.11543
▁king	-7.11734
▁aint	-7.12502
▁understand	-7.13153
▁hell	-7.13415
▁together	-7.1347
▁school	-7.1361
▁ask	-7.13657
▁knew	-7.13794
▁next	-7.14447
▁ok	-7.1503
▁money	-7.15434
▁family	-7.15767
▁chuckles	-7.16466
▁wan	-7.16801
▁came	-7.17059
▁move	-7.17356
▁weve	-7.17438
▁whole	-7.18456
▁today	-7.18796
▁real	-7.18988
▁guess	-7.19165
▁mind	-7.19333
▁tomorrow	-7.21217
▁talking	-7.21482
▁father	-7.2227
▁car	-7.22585
▁captain	-7.22985
▁hope	-7.23032
▁friend	-7.2412
▁meet	-7.2435
▁happened	-7.24969
▁live	-7.25426
▁someone	-7.25511
▁cause	-7.25565
▁dear	-7.26053
▁la	-7.26695
t	-7.26858
▁kill	-7.27459
▁everyone	-7.28072
▁trying	-7.2879
▁watch	-7.2882
▁seen	-7.28829
▁true	-7.29237
▁wouldnt	-7.29277
▁red	-7.29519
▁son	-7.29624
▁wanted	-7.29661
▁um	-7.29673
▁head	-7.29994
▁lost	-7.30002
▁whos	-7.30009
▁looking	-7.30217
▁dead	-7.30381
▁without	-7.30766
▁heard	-7.31083
▁alone	-7.31543
▁fun	-7.31697
▁laughs	-7.31969
▁everybody	-7.3233
▁start	-7.32823
▁bring	-7.33915
▁else	-7.34298
▁care	-7.34571
▁pretty	-7.34697
▁idea	-7.34743
▁gone	-7.34938
▁kids	-7.3508
▁end	-7.35182
▁kid	-7.35344
▁turn	-7.3537
▁friends	-7.35669
▁hand	-7.36093
al	-7.3627
▁woman	-7.36723
▁job	-7.36824
▁youd	-7.37142
▁mrs	-7.37173
▁eat	-7.37218
▁heart	-7.37485
▁many	-7.37884
▁worry	-7.3834
▁wasnt	-7.3837
▁tonight	-7.3837
▁far	-7.3892
▁fight	-7.39205
▁alice	-7.40051
▁yet	-7.40051
▁jack	-7.41293
▁honey	-7.41754
▁sighs	-7.41806
▁lm	-7.42015
▁open	-7.42485
▁door	-7.4278
▁afraid	-7.43926
▁ha	-7.44379
▁minute	-7.45
▁bit	-7.46449
▁saw	-7.46601
▁screaming	-7.47583
▁looks	-7.47849
▁beautiful	-7.48263
▁sit	-7.48793
▁says	-7.49046
▁peter	-7.49379
▁days	-7.49477
▁havent	-7.49811
▁matter	-7.5011
▁use	-7.50164
in	-7.50247
▁room	-7.51563
▁wish	-7.51805
▁went	-7.52171
▁face	-7.52696
▁game	-7.53023
▁quite	-7.53158
▁christmas	-7.54098
a	-7.54692
▁actually	-7.55578
▁ooh	-7.56057
▁stuff	-7.56363
▁late	-7.56425
▁five	-7.56589
▁hard	-7.56771
▁hmm	-7.57066
▁em	-7.58065
▁soon	-7.58471
▁welcome	-7.59085
▁part	-7.59108
▁forget	-7.59596
▁inside	-7.59599
▁already	-7.60114
▁anyone	-7.60114
▁wow	-7.60115
▁men	-7.60473
▁problem	-7.6066
▁used	-7.61518
▁easy	-7.62203
▁book	-7.63294
▁later	-7.64396
n	-7.64506
es	-7.64804
▁fire	-7.6522
▁die	-7.65727
▁wheres	-7.65851
▁food	-7.65973
▁couldnt	-7.66014
▁year	-7.66062
▁boys	-7.66514
▁since	-7.6668
▁clear	-7.66917
▁point	-7.67269
▁win	-7.67382
▁young	-7.68071
▁second	-7.68279
▁check	-7.68497
▁saying	-7.68601
▁dream	-7.69161
▁mine	-7.69494
▁brother	-7.7
▁sleep	-7.70976
o	-7.71133
▁change	-7.71562
▁happen	-7.71604
▁enzo	-7.71607
▁lady	-7.71626
▁team	-7.71897
▁close	-7.71914
▁arent	-7.72186
▁water	-7.72367
▁children	-7.72768
▁grunting	-7.72826
▁called	-7.73563
▁cool	-7.74436
▁shall	-7.74539
▁took	-7.75142
▁exactly	-7.75156
▁side	-7.75356
▁al	-7.75471
▁full	-7.75554
▁stand	-7.75564
▁boss	-7.75746
▁town	-7.76187
▁four	-7.76349
▁follow	-7.77417
▁nobody	-7.77574
▁crazy	-7.77578
▁moment	-7.77853
▁read	-7.78477
▁eyes	-7.78644
ve	-7.79174
▁working	-7.79373
▁wife	-7.79445
▁pay	-7.79496
▁groans	-7.79514
▁trouble	-7.7953
▁power	-7.79722
▁voice	-7.79743
▁ow	-7.79985
▁though	-7.80028
▁hit	-7.80091
▁un	-7.80187
▁supposed	-7.80201
▁anyway	-7.80397
▁marley	-7.80699
▁rest	-7.8071
▁hurt	-7.81215
▁somebody	-7.81336
▁business	-7.81959
r	-7.82223
▁perfect	-7.82476
▁break	-7.82736
▁waiting	-7.82845
▁fast	-7.83663
▁wants	-7.8417
▁save	-7.84387
▁perhaps	-7.84583
▁making	-7.84596
▁hands	-7.84608
▁dinner	-7.85245
▁johnny	-7.85246
▁luck	-7.85747
▁high	-7.86037
▁sister	-7.86334
▁john	-7.8658
▁hurry	-7.86585
▁dance	-7.86974
▁sound	-7.87022
▁hair	-7.8705
▁probably	-7.87259
▁cat	-7.87338
▁thinking	-7.87811
▁denny	-7.87943
▁ago	-7.87966
▁wonderful	-7.87971
▁cut	-7.88263
▁safe	-7.88418
▁free	-7.88421
▁means	-7.88536
▁air	-7.88633
▁radio	-7.88765
▁speaking	-7.89046
est	-7.89356
▁goes	-7.89727
▁speak	-7.90654
▁miyagi	-7.90694
▁almost	-7.90709
▁ahead	-7.9071
▁light	-7.91672
▁girls	-7.917
▁chance	-7.91957
▁hate	-7.92007
▁different	-7.92119
▁makes	-7.9218
▁george	-7.92835
▁hang	-7.93134
▁gentlemen	-7.93555
▁shut	-7.93558
▁hot	-7.93564
▁fly	-7.9392
▁trust	-7.93965
▁crowd	-7.9404
▁secret	-7.94139
▁half	-7.9427
▁deal	-7.94531
▁line	-7.94788
▁behind	-7.95009
▁bye	-7.95747
▁met	-7.95849
▁control	-7.96373
▁forever	-7.96485
l	-7.96551
▁continues	-7.96924
▁walk	-7.97017
▁papa	-7.97234
▁sweet	-7.97756
▁important	-7.97824
▁lord	-7.979
▁elephant	-7.97902
▁whatever	-7.97983
▁taking	-7.98
▁cheering	-7.98084
▁story	-7.9875
▁plan	-7.98755
▁growls	-7.98784
▁number	-7.99446
▁knows	-7.99515
▁promise	-8.00068
▁g	-8.0008
▁pull	-8.00183
▁anymore	-8.00273
▁mama	-8.00352
▁catch	-8.00417
▁drink	-8.00584
▁pick	-8.01001
▁set	-8.01779
▁times	-8.01815
▁an	-8.0183
▁james	-8.01836
▁least	-8.01839
▁bob	-8.01878
▁mmm	-8.02602
▁ball	-8.02704
▁lts	-8.02772
▁sing	-8.02997
▁lose	-8.03408
▁along	-8.0341
▁word	-8.03412
▁buddy	-8.03412
▁gave	-8.03413
▁running	-8.03421
▁step	-8.03428
▁lll	-8.03591
▁bed	-8.03879
▁asked	-8.04146
▁tried	-8.04246
▁bet	-8.04311
▁funny	-8.05018
▁ladies	-8.0502
▁stupid	-8.0583
▁itll	-8.05835
▁train	-8.05963
▁smell	-8.06514
▁goodbye	-8.07477
▁feet	-8.0748
▁finally	-8.07541
▁heres	-8.07633
▁top	-8.0765
▁war	-8.07781
▁seems	-8.07815
i	-8.08091
▁panting	-8.08312
▁kidding	-8.08321
▁learn	-8.08326
▁six	-8.08733
▁evening	-8.08819
▁special	-8.08938
▁anybody	-8.0915
▁anna	-8.09171
▁week	-8.09246
▁buck	-8.09555
▁also	-8.09999
▁married	-8.1
▁person	-8.10038
▁parents	-8.10088
▁outside	-8.10835
▁harry	-8.10855
▁tree	-8.10983
▁needs	-8.11417
▁small	-8.11606
▁country	-8.11726
▁phone	-8.11873
▁sounds	-8.12023
▁brought	-8.12584
▁party	-8.1303
▁minutes	-8.13091
▁screams	-8.13136
▁wake	-8.13415
p	-8.13453
▁able	-8.13615
▁death	-8.13618
on	-8.13686
▁mad	-8.14283
▁queen	-8.14528
▁singing	-8.14831
▁damn	-8.14926
▁theyll	-8.15239
▁private	-8.1524
▁sea	-8.15541
▁fall	-8.15907
▁buy	-8.16065
▁coach	-8.16585
▁professor	-8.17049
▁touch	-8.17156
▁started	-8.17746
▁city	-8.17993
▁eye	-8.18176
▁dogs	-8.18302
▁beat	-8.18721
▁daniel	-8.18864
▁darling	-8.18884
▁white	-8.18895
▁till	-8.189
▁scared	-8.19068
▁loved	-8.19641
▁princess	-8.19796
▁living	-8.19827
▁truth	-8.19827
▁hours	-8.2004
▁jacob	-8.20105
▁island	-8.20108
▁ship	-8.20289
▁glad	-8.20768
▁lucy	-8.2077
▁shouldnt	-8.2077
▁leaving	-8.2077
▁sent	-8.20776
▁blood	-8.20782
▁ice	-8.20791
▁de	-8.20863
▁song	-8.2113
▁question	-8.21219
▁send	-8.21284
▁gets	-8.21436
▁suppose	-8.21519
▁french	-8.21704
▁amazing	-8.21733
▁lucky	-8.21976
▁daddy	-8.22053
▁feeling	-8.22108
▁news	-8.22114
▁killed	-8.22489
▁ya	-8.22512
▁fair	-8.2346
▁alive	-8.23684
▁comes	-8.23813
▁prince	-8.24609
▁case	-8.24647
▁hat	-8.25355
▁land	-8.25741
▁bill	-8.25807
▁bird	-8.25835
▁c	-8.25974
▁dr	-8.26587
▁terrible	-8.26649
▁birthday	-8.27022
▁uncle	-8.27622
▁eh	-8.2768
▁drive	-8.27687
h	-8.28112
▁taken	-8.28271
▁slow	-8.28393
▁deep	-8.28478
▁quiet	-8.28506
▁either	-8.28656
▁become	-8.28715
▁dude	-8.29107
▁cute	-8.29504
▁jump	-8.2952
ic	-8.29537
▁ride	-8.29679
▁bond	-8.29725
▁doctor	-8.30165
▁sign	-8.30259
▁sick	-8.30702
▁shrek	-8.30729
▁poor	-8.30735
▁bear	-8.30906
st	-8.31094
▁sometimes	-8.3113
▁magic	-8.31535
▁lebron	-8.31781
▁couple	-8.31782
▁died	-8.32276
▁fear	-8.32276
ers	-8.3237
▁s	-8.32376
▁future	-8.32846
▁return	-8.33061
▁reason	-8.33363
▁husband	-8.33386
▁throw	-8.33435
▁e	-8.33531
▁wonder	-8.33678
▁serious	-8.33775
▁strong	-8.33812
▁danielsan	-8.3392
▁moving	-8.33922
▁boat	-8.34487
▁weeks	-8.34888
ion	-8.34896
▁rather	-8.35007
▁ten	-8.35289
▁rock	-8.35368
▁telling	-8.35422
▁fact	-8.35583
▁horse	-8.3559
▁whoo	-8.35879
▁imagine	-8.35895
▁past	-8.36073
▁front	-8.36105
▁simba	-8.36106
▁hows	-8.36107
m	-8.36524
▁a	-8.36617
▁blue	-8.36663
▁shot	-8.36702
▁wind	-8.3727
▁quick	-8.38195
▁witch	-8.38294
▁child	-8.38338
▁somewhere	-8.38341
▁mary	-8.3838
▁gasping	-8.38688
▁p	-8.38862
▁cj	-8.3898
▁pack	-8.38994
▁known	-8.39105
▁seem	-8.39417
▁office	-8.39419
▁tommy	-8.39479
▁felt	-8.3948
▁groaning	-8.39515
le	-8.39546
▁stick	-8.40026
▁fish	-8.40217
▁weird	-8.40484
▁aunt	-8.40532
▁cold	-8.40552
▁record	-8.40565
▁order	-8.40565
▁sort	-8.40655
▁wed	-8.40815
▁ones	-8.41163
▁careful	-8.41677
▁middle	-8.4179
▁join	-8.41965
▁york	-8.42367
▁report	-8.42833
▁maisie	-8.42966
▁general	-8.42966
▁harold	-8.42966
▁yelling	-8.43047
us	-8.43234
▁lives	-8.43365
▁plays	-8.43817
▁happening	-8.43848
▁pleasure	-8.44157
▁road	-8.44158
▁elsa	-8.44161
▁seven	-8.44273
▁th	-8.44376
g	-8.4462
▁except	-8.45335
▁earth	-8.45369
▁yall	-8.45385
▁certainly	-8.45492
▁knock	-8.45833
▁sun	-8.46162
▁daughter	-8.46194
▁dark	-8.46329
▁alright	-8.46585
▁wild	-8.46626
▁jamie	-8.46658
▁cross	-8.46973
▁yi	-8.47213
ies	-8.47723
▁wolf	-8.47802
▁fault	-8.47815
▁attention	-8.47815
▁absolutely	-8.47827
▁yells	-8.48132
▁destroy	-8.48157
▁dom	-8.48606
▁short	-8.48608
▁table	-8.48626
▁z	-8.48776
▁shell	-8.48939
▁space	-8.49067
▁count	-8.4911
▁missed	-8.49346
ish	-8.49552
▁re	-8.49675
▁ring	-8.4973
▁dramatic	-8.50327
▁dawn	-8.50334
▁pass	-8.50893
▁meant	-8.51043
▁figure	-8.51075
▁bell	-8.51141
▁months	-8.51321
▁drop	-8.51367
▁strange	-8.51553
▁english	-8.51589
▁excellent	-8.51613
▁morgan	-8.51613
▁chuckling	-8.51617
▁hungry	-8.51617
▁bella	-8.5168
by	-8.52398
▁happens	-8.52575
▁mountain	-8.52608
▁beast	-8.5261
▁hour	-8.52623
▁born	-8.52796
▁calling	-8.52834
en	-8.52851
▁foot	-8.52882
▁impossible	-8.52912
▁malcolm	-8.52912
▁favorite	-8.52913
▁tv	-8.52915
▁sky	-8.52925
▁tired	-8.52936
▁hed	-8.53043
▁goodness	-8.53331
▁eve	-8.5336
▁present	-8.53438
▁needed	-8.53967
▁folks	-8.54228
▁others	-8.54228
▁maam	-8.5423
▁skipper	-8.54237
▁joy	-8.54239
▁madame	-8.54311
▁saved	-8.54647
▁act	-8.54815
able	-8.55148
▁date	-8.55384
▁proud	-8.55397
▁near	-8.55398
▁certain	-8.55416
▁majesty	-8.55562
▁pain	-8.55939
▁protect	-8.56259
▁warm	-8.56286
▁gun	-8.56616
▁riley	-8.56648
▁street	-8.56658
▁monster	-8.56659
▁picture	-8.56665
▁forgive	-8.56906
▁north	-8.56913
▁werent	-8.56913
▁worse	-8.56913
▁calm	-8.56922
▁growling	-8.56937
▁clean	-8.57367
▁fix	-8.57444
▁push	-8.57514
▁blow	-8.57556
▁mouth	-8.57571
ll	-8.57633
▁wizard	-8.57986
▁write	-8.57992
▁straight	-8.582
f	-8.58273
▁chocolate	-8.58282
▁london	-8.58282
▁evil	-8.58282
or	-8.5852
▁greatest	-8.58636
▁answer	-8.58647
▁lovely	-8.58666
▁in	-8.5884
▁zo	-8.5923
▁club	-8.59464
▁wear	-8.59511
▁shoot	-8.59545
▁max	-8.59662
▁anywhere	-8.59671
▁fiona	-8.59671
▁kevin	-8.59671
▁throat	-8.59671
▁list	-8.59797
▁longer	-8.60405
▁gasp	-8.60474
▁travel	-8.60634
▁forgot	-8.61077
▁possible	-8.6108
▁miles	-8.61555
▁kiss	-8.61695
▁enjoy	-8.61754
▁tense	-8.61807
▁martha	-8.62296
▁human	-8.62326
▁normal	-8.62363
▁across	-8.62508
▁jesus	-8.62508
▁kingdom	-8.62508
▁police	-8.62508
▁eep	-8.62508
▁sad	-8.62512
▁summer	-8.62514
▁body	-8.62527
▁less	-8.62943
▁b	-8.62959
▁laugh	-8.62999
▁el	-8.63046
▁lots	-8.63157
▁explain	-8.6347
▁ground	-8.6347
▁questions	-8.63485
▁turned	-8.63576
▁piece	-8.63821
▁unless	-8.63976
na	-8.6434
▁kick	-8.64466
▁lt	-8.64479
▁village	-8.64559
▁names	-8.6457
▁teach	-8.64808
▁guard	-8.64997
ry	-8.6503
▁worth	-8.65246
▁sense	-8.65253
▁window	-8.65284
▁suit	-8.65301
▁class	-8.6535
▁major	-8.65428
▁women	-8.65429
▁definitely	-8.6543
▁shouting	-8.6549
▁tim	-8.65637
▁visit	-8.66125
▁hero	-8.66389
▁d	-8.66559
▁eight	-8.66689
▁soul	-8.66775
▁south	-8.66912
▁puppy	-8.66921
▁chattering	-8.67252
▁star	-8.67256
▁crying	-8.67286
man	-8.67608
▁lead	-8.67736
▁surprise	-8.68121
▁box	-8.68256
▁indistinct	-8.68292
▁karate	-8.68295
▁smart	-8.68326
▁wall	-8.68409
▁circle	-8.68436
▁mitchell	-8.68436
▁giving	-8.68436
▁breakfast	-8.68438
▁shh	-8.68456
▁fighting	-8.68478
▁decided	-8.68529
▁fool	-8.69384
▁steal	-8.69537
▁floor	-8.69851
▁company	-8.69974
▁michael	-8.69974
▁clothes	-8.69975
▁quickly	-8.70174
▁roars	-8.70292
c	-8.70468
▁given	-8.70526
▁marry	-8.71084
up	-8.71167
▁taste	-8.71314
▁entire	-8.71388
um	-8.71408
▁choice	-8.71461
▁afternoon	-8.71537
▁hassan	-8.71537
▁uhhuh	-8.71537
▁rich	-8.71547
▁lie	-8.71571
▁broken	-8.71591
▁seriously	-8.71749
▁super	-8.71763
▁finished	-8.7183
▁asking	-8.72059
▁race	-8.72339
▁looked	-8.72346
▁expect	-8.72377
▁belong	-8.72782
▁j	-8.73075
▁aah	-8.73116
▁david	-8.73124
▁plankton	-8.73124
▁tough	-8.73125
▁yep	-8.7313
▁fat	-8.73164
▁gold	-8.73703
▁finish	-8.73961
▁ho	-8.74375
▁soft	-8.74437
▁butt	-8.74482
▁mistake	-8.74668
▁flight	-8.74697
▁dorothy	-8.74737
▁history	-8.74737
▁bigger	-8.74737
▁helen	-8.74738
▁nose	-8.74759
▁hide	-8.74844
▁charming	-8.74856
▁none	-8.74937
▁fairy	-8.75021
▁worked	-8.75253
▁tom	-8.7529
ch	-8.75501
▁san	-8.75537
▁aw	-8.75734
▁molly	-8.76379
▁words	-8.7638
▁spot	-8.76389
▁pants	-8.76396
▁dumb	-8.76397
▁board	-8.76412
ment	-8.76487
▁rick	-8.76637
▁meeting	-8.76638
▁learned	-8.76974
▁feels	-8.77358
▁bag	-8.77663
▁rules	-8.77773
▁simple	-8.77976
▁broke	-8.77997
▁carol	-8.78021
▁kept	-8.78043
▁selina	-8.78044
▁cheese	-8.78047
▁aye	-8.78082
▁f	-8.78108
▁movie	-8.78123
▁key	-8.78146
▁busy	-8.78183
▁awful	-8.78579
ous	-8.78871
▁mm	-8.79033
▁peace	-8.79525
▁cover	-8.79532
▁handle	-8.79629
▁spongebob	-8.79738
▁million	-8.79826
▁interesting	-8.79923
▁wearing	-8.80268
ity	-8.80542
▁low	-8.80635
▁black	-8.80814
▁standing	-8.80969
▁over	-8.81186
▁realize	-8.81265
▁gru	-8.81344
▁fell	-8.81402
▁eddie	-8.81462
▁extra	-8.81464
▁totally	-8.81516
▁tiny	-8.81539
▁pop	-8.81563
▁doubt	-8.81581
▁paper	-8.81614
ness	-8.81662
▁t	-8.81672
u	-8.81685
re	-8.81743
▁bull	-8.8175
▁law	-8.82698
▁grow	-8.82796
▁reach	-8.82917
▁offer	-8.82925
▁ran	-8.83158
▁grab	-8.83199
▁church	-8.83213
▁thousand	-8.83216
▁yellow	-8.83218
▁wrote	-8.83218
▁dangerous	-8.83231
▁dave	-8.83237
▁watching	-8.83473
▁lf	-8.83603
▁bugs	-8.83608
▁pal	-8.83635
▁changed	-8.83841
▁cry	-8.84599
▁rain	-8.8461
▁dreams	-8.8465
▁honor	-8.84684
▁madam	-8.84899
▁match	-8.84961
▁thunder	-8.84996
▁worried	-8.85002
▁worst	-8.85002
▁stuck	-8.85009
▁upon	-8.85018
▁ugh	-8.8503
▁uhoh	-8.85041
▁seat	-8.85064
▁trip	-8.85217
▁band	-8.85246
▁takes	-8.85303
▁le	-8.85371
b	-8.85374
k	-8.85736
▁ba	-8.86016
▁relax	-8.86018
▁roll	-8.86065
▁woods	-8.86252
▁works	-8.86605
▁victor	-8.8666
▁quit	-8.86716
▁angry	-8.8682
▁silver	-8.8682
▁lunch	-8.8682
▁underpants	-8.8682
▁danger	-8.8684
▁completely	-8.8691
▁share	-8.87012
▁odie	-8.8702
▁mess	-8.8772
▁lock	-8.87818
▁tea	-8.88001
▁attack	-8.88137
▁park	-8.88244
▁final	-8.88537
▁julia	-8.88623
▁instead	-8.88672
▁pardon	-8.88672
▁green	-8.88676
▁ross	-8.88679
▁wicked	-8.88686
▁joan	-8.88697
▁prove	-8.88709
▁army	-8.8877
▁chicken	-8.88909
▁wondering	-8.89423
▁sh	-8.89663
ation	-8.89718
▁breathe	-8.89924
▁speed	-8.89956
▁trees	-8.90288
▁age	-8.90363
▁jill	-8.90556
▁donkey	-8.90561
▁horrible	-8.90562
▁teeth	-8.90566
▁punch	-8.90571
▁field	-8.90851
▁begin	-8.90857
▁rule	-8.90921
▁teacher	-8.90995
▁lay	-8.91033
▁charge	-8.91084
▁belle	-8.9115
▁snow	-8.91989
▁spend	-8.92209
▁notice	-8.92276
▁paris	-8.92458
▁caught	-8.92484
▁theyve	-8.92485
▁charley	-8.92491
▁mark	-8.92492
▁castle	-8.92498
▁hut	-8.92503
▁president	-8.92507
▁jones	-8.92508
▁barking	-8.92629
▁master	-8.92735
▁helping	-8.92746
▁pig	-8.92773
▁faster	-8.928
▁monkey	-8.92821
▁dress	-8.9363
w	-8.93643
▁rid	-8.93735
▁liked	-8.93779
▁birds	-8.93976
▁chatter	-8.94012
▁bright	-8.94431
▁bar	-8.94436
▁congratulations	-8.94443
▁france	-8.94446
▁annie	-8.94448
▁wedding	-8.94452
▁bottom	-8.94467
▁seeing	-8.94616
▁brown	-8.94737
▁message	-8.94804
▁tail	-8.94888
▁shit	-8.94921
▁u	-8.95228
▁powers	-8.95503
rs	-8.96073
ie	-8.96073
▁carry	-8.96094
▁raise	-8.96235
▁prepare	-8.96236
▁awesome	-8.96435
▁indeed	-8.96443
▁everywhere	-8.96443
▁mallory	-8.96443
▁beauty	-8.96444
▁forest	-8.96462
▁golden	-8.96467
▁sitting	-8.96469
▁nature	-8.96477
▁moon	-8.96496
▁corner	-8.96527
▁scary	-8.96584
▁pan	-8.96675
▁america	-8.96773
▁mommy	-8.96821
▁gosh	-8.96826
▁fellow	-8.96852
▁flower	-8.96897
▁appreciate	-8.96956
▁plane	-8.97055
▁krab	-8.97153
▁leg	-8.97233
▁con	-8.97428
▁goin	-8.97655
▁where	-8.97973
▁chuck	-8.98456
▁babies	-8.98483
▁kristoff	-8.98483
▁minionese	-8.98484
▁paddington	-8.98484
▁owe	-8.98513
▁tony	-8.98539
▁respect	-8.98563
▁stars	-8.98619
▁besides	-8.98636
▁softly	-8.98669
▁mission	-8.98682
ar	-8.98852
▁giant	-8.98881
▁position	-8.9894
▁brain	-8.98944
▁month	-8.98965
▁k	-8.9913
▁dollars	-8.99142
▁bare	-8.99386
▁lived	-8.99641
▁bus	-8.99712
out	-8.99834
▁missing	-9.0008
▁legs	-9.00122
▁round	-9.00246
▁ruin	-9.00282
▁loud	-9.00392
▁sam	-9.00503
▁stole	-9.0052
▁jim	-9.00541
▁empty	-9.00567
▁however	-9.00567
▁incredible	-9.00567
▁launch	-9.00567
▁olaf	-9.00568
▁plenty	-9.00569
▁press	-9.00572
▁paid	-9.00575
▁powerful	-9.00591
▁putting	-9.00623
▁test	-9.00654
▁service	-9.01025
▁keeping	-9.01155
to	-9.014
▁building	-9.01448
▁sell	-9.0172
▁hunt	-9.01793
▁letters	-9.02035
▁reading	-9.02049
▁fill	-9.02405
▁potter	-9.02493
▁engine	-9.02543
▁spen	-9.02623
▁fresh	-9.02684
▁marriage	-9.02694
▁third	-9.02694
▁byebye	-9.02695
▁dancing	-9.02695
▁dobby	-9.02696
▁memory	-9.02698
▁sunday	-9.02698
▁emma	-9.02721
▁whimpers	-9.02749
▁hiding	-9.02917
▁force	-9.03032
▁hospital	-9.03163
▁eagle	-9.03191
▁lights	-9.03239
▁driver	-9.0336
▁shop	-9.0345
▁shape	-9.03579
▁penguins	-9.04189
▁seconds	-9.04496
▁blind	-9.04561
▁named	-9.04563
el	-9.04793
▁candy	-9.04866
▁neither	-9.04868
▁wonka	-9.04868
▁biggest	-9.04868
▁sweetheart	-9.04869
▁swear	-9.04869
▁bunch	-9.04869
▁driving	-9.04869
▁garfield	-9.04869
▁dalton	-9.0487
▁smile	-9.04874
▁winter	-9.04956
▁machine	-9.05343
▁sight	-9.05449
▁soldier	-9.05462
▁state	-9.0547
▁tune	-9.05471
▁st	-9.05499
▁wood	-9.05665
ng	-9.0589
▁n	-9.06075
▁flying	-9.06195
▁moved	-9.06208
ive	-9.06542
▁bomb	-9.06558
▁build	-9.06653
▁escape	-9.06879
▁ought	-9.07031
▁brave	-9.07076
▁coffee	-9.07091
▁larusso	-9.07091
▁possibly	-9.07091
▁ugly	-9.07091
▁upset	-9.07091
▁hasnt	-9.07096
▁jungle	-9.0711
▁ass	-9.07112
▁cream	-9.07114
▁bank	-9.07123
▁hotel	-9.07151
▁losing	-9.07177
▁early	-9.07198
▁interested	-9.0726
▁crow	-9.07311
▁cave	-9.07581
▁dare	-9.07738
▁animal	-9.07738
▁ticket	-9.07746
▁heaven	-9.07748
▁american	-9.0776
▁si	-9.0788
▁wet	-9.07949
▁pretend	-9.08919
▁allow	-9.09067
▁shake	-9.09127
▁tight	-9.09217
▁flo	-9.09235
▁w	-9.09272
▁enemy	-9.09363
▁saturday	-9.09363
▁fortune	-9.09363
▁sake	-9.09369
▁difference	-9.09371
▁strain	-9.09372
▁personal	-9.09372
▁fit	-9.09375
▁laughter	-9.09378
▁bridge	-9.09378
▁gentleman	-9.09379
▁whatd	-9.09399
▁allowed	-9.09666
▁stone	-9.09977
▁accident	-9.09981
▁cousin	-9.09982
▁cake	-9.10004
▁truck	-9.10009
▁staying	-9.11336
▁europe	-9.11384
▁price	-9.11683
▁bought	-9.11689
▁language	-9.11689
▁monsieur	-9.11689
▁rayleen	-9.11689
▁england	-9.11689
▁verne	-9.11691
▁royal	-9.11705
▁usually	-9.1179
▁holy	-9.11911
▁starting	-9.11924
ty	-9.11932
▁receive	-9.1199
▁giggles	-9.12056
▁blows	-9.1209
▁idiot	-9.12378
▁partner	-9.12384
▁snake	-9.12414
▁hole	-9.125
▁letter	-9.12639
▁co	-9.1271
te	-9.12981
▁lion	-9.13111
▁flowers	-9.13578
▁trick	-9.13647
▁h	-9.13687
▁treat	-9.13788
▁nervous	-9.13922
▁strength	-9.14048
▁court	-9.14068
▁thistlewaite	-9.1407
▁bunny	-9.1407
▁henry	-9.14071
▁wax	-9.14071
▁taught	-9.14071
▁kitchen	-9.14072
▁journey	-9.14073
▁mmhmm	-9.14073
▁beginning	-9.14075
▁forward	-9.1408
▁outta	-9.1408
no	-9.14092
▁handsome	-9.14101
▁doin	-9.1411
▁sandy	-9.14181
▁eating	-9.14201
▁nine	-9.14366
▁ben	-9.1459
▁ted	-9.14737
▁winner	-9.1478
▁joke	-9.14813
▁ogre	-9.14836
▁river	-9.14862
▁ringing	-9.14899
▁orders	-9.15003
▁out	-9.15057
▁holding	-9.1536
ta	-9.15389
th	-9.15613
is	-9.15752
▁color	-9.16204
▁apart	-9.16495
▁chief	-9.16509
▁nope	-9.16509
▁pumbaa	-9.16509
▁chamber	-9.1651
▁situation	-9.1651
▁thatll	-9.1651
▁patrick	-9.1651
▁mansur	-9.16513
▁grandma	-9.16513
▁charlie	-9.16515
▁football	-9.16517
▁famous	-9.16517
▁arrived	-9.16558
▁stopped	-9.16582
▁remind	-9.16901
▁station	-9.17006
▁noise	-9.173
▁falling	-9.17701
▁scar	-9.18532
▁draw	-9.18543
▁crown	-9.18708
▁ends	-9.18784
▁beg	-9.18855
▁nothin	-9.18987
▁built	-9.19009
▁casablanca	-9.19009
▁mahira	-9.19009
▁mercy	-9.19009
▁giggling	-9.19009
▁suzu	-9.19009
▁often	-9.19009
▁scarlet	-9.19011
▁toto	-9.19019
▁cook	-9.19045
▁west	-9.19058
▁scream	-9.19203
▁surprised	-9.1935
▁gift	-9.19578
la	-9.19606
▁bones	-9.19676
▁hardly	-9.1975
and	-9.19795
▁map	-9.19831
▁ii	-9.19889
▁granny	-9.1989
▁hundred	-9.19916
▁sisters	-9.19949
▁arms	-9.20244
▁listening	-9.20412
▁agree	-9.20856
do	-9.20916
▁unit	-9.2109
▁risk	-9.21113
▁hoo	-9.21162
▁problems	-9.21435
▁double	-9.21485
▁greg	-9.21554
▁starts	-9.21559
▁prefer	-9.21566
▁marguerite	-9.21573
▁mufasa	-9.21573
▁ramsey	-9.21573
▁admit	-9.21573
▁gloria	-9.21574
▁beyond	-9.21581
▁storm	-9.21582
▁waste	-9.21583
▁meat	-9.21584
▁tower	-9.21594
▁sadness	-9.216
▁rocket	-9.21616
▁timon	-9.21626
▁huge	-9.21632
▁christ	-9.21633
▁gum	-9.21644
▁stevens	-9.2168
▁fade	-9.21701
▁nah	-9.21723
▁dirty	-9.21739
▁played	-9.21794
▁lucas	-9.21894
▁spell	-9.22475
▁planet	-9.22606
▁bite	-9.22643
▁officer	-9.22644
▁whose	-9.22666
▁walking	-9.23089
▁burn	-9.23424
▁smash	-9.23741
▁enter	-9.23753
▁plus	-9.23914
▁blame	-9.23962
▁simpl	-9.24112
▁california	-9.24205
▁julius	-9.24205
▁larry	-9.24205
▁sven	-9.24205
▁countess	-9.24206
▁heck	-9.24206
▁edward	-9.24207
▁writing	-9.24209
▁dragon	-9.24221
▁ron	-9.24275
▁single	-9.24277
▁button	-9.24289
an	-9.24481
▁heads	-9.24529
▁hall	-9.2453
▁pie	-9.24834
▁computer	-9.25193
▁fingers	-9.25203
▁battle	-9.25208
▁size	-9.25224
▁oz	-9.25261
▁fella	-9.25365
▁m	-9.25923
os	-9.25965
▁continue	-9.26269
ia	-9.26341
▁bong	-9.2659
▁rescue	-9.26691
▁scott	-9.26714
▁dirt	-9.26735
▁dig	-9.26878
▁arendelle	-9.26907
▁exhales	-9.26907
▁laszlo	-9.26907
▁phil	-9.26907
▁merry	-9.26909
▁zero	-9.26938
▁friendship	-9.26938
▁factory	-9.2694
▁engaged	-9.26949
▁exclaims	-9.27021
▁nearly	-9.27206
▁loves	-9.27382
▁shoes	-9.27431
▁secrets	-9.27439
▁talked	-9.27516
▁reed	-9.27632
▁yelps	-9.27652
▁alarm	-9.28046
▁birdie	-9.28061
▁pet	-9.28809
▁tickets	-9.28877
▁brothers	-9.2907
▁shine	-9.29165
▁mo	-9.29202
▁repeat	-9.29209
▁appear	-9.29364
▁archer	-9.29601
▁card	-9.29635
▁public	-9.29672
▁college	-9.29685
▁exciting	-9.29685
▁hermione	-9.29685
▁restaurant	-9.29685
▁security	-9.29685
▁terrific	-9.29685
▁yesterday	-9.29685
▁pepper	-9.29685
▁isabella	-9.29685
▁milo	-9.29687
▁basketball	-9.29687
▁rise	-9.29691
▁comfortable	-9.29696
▁held	-9.297
▁fathers	-9.29718
▁stage	-9.29782
▁ate	-9.29856
▁sweetie	-9.29864
▁warning	-9.29865
▁beeping	-9.30006
▁closer	-9.30009
▁chewing	-9.30013
▁hm	-9.30108
▁figured	-9.30184
▁gas	-9.30241
▁view	-9.30797
▁rose	-9.30832
▁spirit	-9.30884
▁training	-9.3119
▁store	-9.31383
▁art	-9.31544
▁doors	-9.31554
▁dis	-9.31558
▁feelings	-9.31685
time	-9.31691
▁suggest	-9.32139
▁contact	-9.32188
ter	-9.32223
▁settle	-9.32317
it	-9.32337
▁survive	-9.32342
▁joe	-9.32397
▁books	-9.32451
▁genius	-9.32475
▁loose	-9.32518
▁freeze	-9.32527
▁dublin	-9.32542
▁especially	-9.32542
▁society	-9.32542
▁rough	-9.32543
▁toast	-9.32543
▁neck	-9.32544
▁ellen	-9.32544
▁clock	-9.32546
▁common	-9.32547
▁girlfriend	-9.32547
▁rj	-9.32547
▁type	-9.32552
▁van	-9.32553
▁sally	-9.32587
▁bobby	-9.32627
▁haha	-9.32676
▁keeps	-9.32756
▁note	-9.32787
▁bringing	-9.32801
▁hyenas	-9.32805
▁scoffs	-9.32805
▁using	-9.32811
▁gus	-9.32864
▁breathing	-9.32971
▁promised	-9.33319
▁mike	-9.33564
▁se	-9.33568
▁nuts	-9.33806
▁creature	-9.33855
▁egg	-9.33855
▁breath	-9.33965
▁o	-9.34133
▁consider	-9.34693
▁climb	-9.34699
▁sleeping	-9.34752
▁gather	-9.35025
▁complete	-9.35119
▁honest	-9.35152
▁courage	-9.3547
▁sugar	-9.35473
▁lawrence	-9.35483
▁marmalade	-9.35483
▁whether	-9.35483
▁zazu	-9.35483
▁soccer	-9.35484
▁tiger	-9.35485
▁hook	-9.35485
▁wilson	-9.35485
▁stories	-9.35488
▁hindi	-9.35489
▁lionel	-9.35498
▁sobbing	-9.35503
▁immediately	-9.35503
▁level	-9.35524
▁obviously	-9.35525
▁suddenly	-9.3556
▁wee	-9.35564
▁gotten	-9.35704
▁bother	-9.36009
▁yay	-9.36026
▁harder	-9.36126
▁destroyed	-9.36208
▁stayed	-9.36335
▁closed	-9.36558
▁fired	-9.36622
▁picked	-9.36642
▁adventure	-9.36794
▁older	-9.36966
the	-9.37034
▁leader	-9.37035
▁eggs	-9.37137
▁to	-9.37144
▁ma	-9.37171
▁east	-9.3761
▁regular	-9.3805
▁search	-9.38069
▁discuss	-9.38171
▁howd	-9.38326
▁thinks	-9.38373
▁doc	-9.38395
▁gentle	-9.38494
▁heavy	-9.38513
▁became	-9.38514
▁dennis	-9.38514
▁heavily	-9.38514
▁ridiculous	-9.38514
▁stomach	-9.38514
▁oclock	-9.38514
▁delicious	-9.38515
▁beach	-9.3852
▁cash	-9.38526
▁theyd	-9.38536
▁gross	-9.38537
▁crush	-9.38538
▁exclaiming	-9.38548
▁silly	-9.38554
▁mood	-9.38567
▁cats	-9.38616
▁boom	-9.38621
▁lying	-9.3864
▁mumbles	-9.38641
▁dust	-9.38656
▁heading	-9.38919
▁bow	-9.38945
▁deeply	-9.38954
▁pete	-9.38972
led	-9.38974
▁dry	-9.39106
▁lips	-9.39151
▁up	-9.39208
▁seemed	-9.39435
▁yo	-9.39438
z	-9.39508
▁track	-9.39628
ce	-9.39751
▁hagrid	-9.39893
▁pa	-9.39911
▁rope	-9.39937
▁block	-9.3994
▁exist	-9.3998
▁guest	-9.40011
▁beer	-9.40016
▁villain	-9.40037
▁vi	-9.40119
▁shame	-9.40141
ton	-9.4058
▁paying	-9.40668
▁del	-9.40844
▁dash	-9.41192
▁do	-9.41197
▁grug	-9.4126
li	-9.41287
▁feed	-9.41306
▁mention	-9.41361
▁grant	-9.41377
▁papers	-9.41403
▁difficult	-9.41442
▁command	-9.41467
▁keys	-9.41501
▁tuck	-9.41527
▁di	-9.41543
▁group	-9.41628
▁colony	-9.41639
▁toilet	-9.41639
▁bonsai	-9.4164
▁robert	-9.4164
▁switch	-9.41641
▁patty	-9.41642
▁forgotten	-9.41645
▁trent	-9.41645
▁airport	-9.4165
▁frozen	-9.4165
▁belt	-9.41657
▁robin	-9.41658
▁sword	-9.41683
▁strike	-9.41684
▁knuckles	-9.41717
▁weight	-9.41733
▁signal	-9.41848
▁guards	-9.41919
▁scare	-9.41921
▁perfectly	-9.4236
▁it	-9.42425
▁cheer	-9.42847
▁deserve	-9.43
▁character	-9.43144
▁decision	-9.43162
▁beaufort	-9.43174
▁gate	-9.4324
▁sue	-9.43299
▁gods	-9.43406
▁hip	-9.4344
less	-9.43607
▁opened	-9.43863
▁animals	-9.43928
▁r	-9.43971
▁correct	-9.44351
▁camp	-9.44375
▁turns	-9.44494
▁calls	-9.44588
▁spare	-9.4464
▁introduce	-9.44654
▁ex	-9.44805
▁rowley	-9.44828
▁halloween	-9.44864
▁margaret	-9.44864
▁marianne	-9.44864
▁mercedes	-9.44864
▁rapunzel	-9.44864
▁weather	-9.44864
▁willoughby	-9.44864
▁adorable	-9.44866
▁formula	-9.44866
▁champion	-9.44869
▁practice	-9.4487
▁information	-9.4487
▁diary	-9.44872
▁squad	-9.44877
▁nasty	-9.44877
▁fort	-9.44883
▁path	-9.44885
▁whimpering	-9.44887
▁zone	-9.44895
▁energy	-9.44913
▁sensei	-9.44934
▁main	-9.44943
ant	-9.44975
▁lower	-9.45068
▁auntie	-9.45136
▁pieces	-9.45201
▁hunters	-9.4531
▁ruined	-9.45338
age	-9.45497
▁dads	-9.45573
▁clearly	-9.45736
▁rings	-9.45747
▁arm	-9.46064
▁choose	-9.4641
▁member	-9.46528
▁troop	-9.46534
▁pilot	-9.46581
▁chip	-9.46653
▁goat	-9.46837
▁pleased	-9.47181
▁form	-9.47392
▁bless	-9.47462
▁places	-9.47669
▁bucks	-9.47796
▁permanent	-9.48042
▁barrie	-9.48111
▁farm	-9.48117
▁leonard	-9.48144
▁glass	-9.48145
▁usual	-9.48165
ted	-9.48167
▁steve	-9.48171
▁phoenix	-9.48198
▁somehow	-9.48198
▁stuart	-9.48198
▁science	-9.48198
▁snoring	-9.48198
▁twice	-9.48198
▁bailey	-9.48199
▁bathroom	-9.48199
▁rumbling	-9.48199
▁bluster	-9.48201
▁jeanne	-9.48201
▁wherever	-9.48203
▁aboard	-9.48206
▁kong	-9.48207
▁fancy	-9.48208
▁daley	-9.48213
▁jimmy	-9.48254
▁safety	-9.48255
▁willy	-9.48266
▁add	-9.48288
▁ahh	-9.48298
▁oil	-9.48321
▁failed	-9.48402
▁tablet	-9.48422
▁plans	-9.48524
▁showed	-9.48543
▁prepared	-9.48545
▁en	-9.48672
▁expected	-9.48845
▁fishing	-9.49492
▁score	-9.49616
▁serve	-9.49711
▁decide	-9.49749
▁purpose	-9.49855
▁hurts	-9.49862
▁opinion	-9.49941
▁cup	-9.49998
▁horn	-9.50015
▁creatures	-9.5008
▁heat	-9.50148
▁whoohoo	-9.50226
et	-9.50831
▁krabs	-9.50905
▁accept	-9.51305
▁schedule	-9.51414
▁louis	-9.51467
▁hai	-9.5147
▁sharp	-9.51476
▁excited	-9.51494
▁due	-9.51528
▁proper	-9.51548
▁foreign	-9.51616
▁tie	-9.51642
▁anthony	-9.51646
▁colonel	-9.51646
▁grateful	-9.51646
▁hakuna	-9.51646
▁hidden	-9.51646
▁lieutenant	-9.51646
▁ossory	-9.51646
▁poopypants	-9.51646
▁principal	-9.51646
▁request	-9.51646
▁hadnt	-9.51646
▁ethan	-9.51646
▁justice	-9.51646
▁edmund	-9.51647
▁matata	-9.51647
▁shouldve	-9.5165
▁elise	-9.5165
▁grandfather	-9.51651
▁grandpa	-9.51652
▁teddy	-9.51653
▁chef	-9.51655
▁desk	-9.51655
▁property	-9.51658
▁grew	-9.51663
▁prime	-9.51681
▁mister	-9.51711
▁whispering	-9.51717
▁doo	-9.51718
▁owner	-9.51733
ful	-9.51751
▁tall	-9.51775
▁concerned	-9.51801
▁claws	-9.51859
▁noticed	-9.52025
▁shed	-9.52316
▁ld	-9.52387
▁lines	-9.5243
▁passed	-9.52481
▁barks	-9.52612
▁ls	-9.5321
▁rocks	-9.53265
▁saving	-9.53456
▁season	-9.53499
▁rabbit	-9.53559
▁fellas	-9.53787
▁who	-9.53939
▁so	-9.54379
▁rent	-9.5443
▁mothers	-9.5451
▁per	-9.54525
▁lake	-9.54817
ka	-9.54864
▁hill	-9.54914
▁trash	-9.55017
▁jealous	-9.55026
▁milk	-9.55197
▁conrad	-9.55217
▁cruel	-9.55217
▁innocent	-9.55217
▁mowgli	-9.55217
▁stammering	-9.55217
▁tenneray	-9.55217
▁thief	-9.55217
▁treasure	-9.55217
▁government	-9.55218
▁nacho	-9.55218
▁pride	-9.55218
▁jenny	-9.55219
▁vincent	-9.55222
▁duke	-9.55223
▁address	-9.55226
▁rico	-9.55227
▁angeline	-9.55229
▁manny	-9.55229
▁truly	-9.5523
▁emergency	-9.55233
▁planning	-9.55236
▁coughing	-9.55258
▁row	-9.55289
▁fred	-9.55292
▁ew	-9.55333
▁hellno	-9.55335
▁squeals	-9.55369
▁grand	-9.55395
▁cares	-9.55434
▁shrieks	-9.5549
▁turning	-9.55502
▁butter	-9.55703
▁helped	-9.55872
▁jackets	-9.56043
▁magical	-9.56081
▁bing	-9.56333
▁jj	-9.56385
▁sail	-9.56412
▁ears	-9.56767
▁students	-9.56816
▁favor	-9.57121
▁bastard	-9.57128
▁area	-9.57139
▁paw	-9.5719
▁account	-9.57196
▁astronaut	-9.57214
▁system	-9.57219
▁camera	-9.57232
▁crystal	-9.57246
▁action	-9.57267
▁student	-9.5729
▁lesson	-9.5732
▁patient	-9.57538
▁nut	-9.57539
▁mighty	-9.57689
▁page	-9.57713
▁pro	-9.57825
way	-9.58106
▁ear	-9.58306
nt	-9.58377
▁weak	-9.58447
▁chew	-9.58499
▁seats	-9.58556
▁arrest	-9.58618
▁lift	-9.58619
▁violet	-9.58907
▁bottle	-9.58921
▁familiar	-9.58921
▁ferdinand	-9.58921
▁goddamn	-9.58921
▁happiness	-9.58921
▁joseph	-9.58921
▁subtitle	-9.58921
▁thomas	-9.58921
▁video	-9.58921
▁easier	-9.58922
▁tongue	-9.58922
▁dashwood	-9.58924
▁twinkle	-9.58925
▁francisco	-9.58925
▁fetch	-9.58926
▁happily	-9.58926
▁crap	-9.5893
▁brit	-9.58935
▁weekend	-9.58938
▁crew	-9.5896
▁twenty	-9.58977
▁newland	-9.59045
▁sniffing	-9.5906
▁bike	-9.59087
▁hoping	-9.59104
▁pity	-9.59144
▁regret	-9.59199
▁towards	-9.59328
▁bath	-9.59389
▁kw	-9.59546
▁paint	-9.59553
▁mountains	-9.59804
▁growing	-9.59873
▁games	-9.59967
▁acting	-9.60166
ist	-9.60168
▁bananas	-9.60204
▁beep	-9.60705
▁du	-9.6088
▁jerk	-9.61007
▁asteroid	-9.61014
▁sale	-9.61071
▁hug	-9.61098
▁tour	-9.61252
as	-9.61392
▁smoke	-9.6153
▁fantastic	-9.61725
▁disappear	-9.61946
eat	-9.61948
ance	-9.62047
▁ed	-9.62088
▁program	-9.62124
mo	-9.62251
▁intend	-9.62443
▁fi	-9.62467
though	-9.62542
▁load	-9.62558
▁base	-9.62593
▁post	-9.62644
▁jon	-9.62659
▁moms	-9.62706
▁among	-9.62739
▁francis	-9.62764
▁butler	-9.62767
▁mancub	-9.62767
▁mukhtar	-9.62767
▁trumpets	-9.62767
▁female	-9.62768
▁froggy	-9.62768
▁fortunate	-9.62768
▁ernie	-9.62768
▁romantic	-9.62768
▁thatch	-9.62769
▁clever	-9.62769
▁roof	-9.62769
▁whoever	-9.6277
▁cowboy	-9.6277
▁rudy	-9.6277
▁kansas	-9.62772
▁particular	-9.62772
▁split	-9.62773
▁within	-9.62775
▁fake	-9.62777
▁began	-9.62784
▁maid	-9.62784
▁potion	-9.62785
▁taxi	-9.62785
ent	-9.62806
▁opening	-9.62817
▁sold	-9.62844
▁barrier	-9.62896
▁lola	-9.62924
▁tin	-9.63037
▁whispers	-9.63061
▁mentioned	-9.63144
ma	-9.63273
▁burning	-9.6342
▁pounds	-9.63453
▁beard	-9.63559
▁kicked	-9.63577
▁kinda	-9.63636
hop	-9.6371
▁code	-9.63876
ah	-9.64079
▁counting	-9.64136
▁interest	-9.64283
▁remain	-9.64284
▁announce	-9.64419
ee	-9.64466
▁couldve	-9.64499
ble	-9.64596
ne	-9.64667
▁worlds	-9.64786
▁skin	-9.64936
▁odd	-9.64993
▁apartment	-9.65038
▁whistle	-9.65124
▁rat	-9.65144
▁breaking	-9.65446
▁states	-9.65682
▁sand	-9.65686
ke	-9.65703
▁brains	-9.65873
▁tr	-9.66072
▁cab	-9.66139
▁flash	-9.66254
▁wash	-9.66347
▁focus	-9.6645
▁player	-9.66528
▁rub	-9.66583
▁corn	-9.66611
▁julie	-9.66678
▁drunk	-9.66742
▁asleep	-9.66767
▁headquarters	-9.66767
▁pacino	-9.66767
▁someday	-9.66767
▁unknown	-9.66767
▁written	-9.66767
▁military	-9.66768
▁planned	-9.66768
▁earlier	-9.66768
▁spock	-9.66768
▁templeton	-9.66769
▁hammy	-9.66769
▁humming	-9.6677
▁engagement	-9.6677
▁blast	-9.66774
▁apparently	-9.66783
▁national	-9.66788
▁coast	-9.66793
▁setting	-9.66796
▁pool	-9.668
▁lonely	-9.66806
▁johnson	-9.6681
▁jared	-9.66812
▁willing	-9.66831
▁manage	-9.66832
▁stolen	-9.66862
▁yah	-9.66914
▁mansion	-9.66917
▁honestly	-9.66969
▁harm	-9.6697
▁roaring	-9.66995
▁worker	-9.67031
▁tu	-9.67084
▁oops	-9.67141
▁filled	-9.67361
▁killing	-9.67441
▁pictures	-9.67531
▁da	-9.67595
son	-9.67651
▁career	-9.67868
▁expecting	-9.679
▁returned	-9.67925
ary	-9.67954
▁signed	-9.67957
▁knocking	-9.68246
▁boo	-9.68638
▁cheers	-9.68859
▁stays	-9.69005
▁paul	-9.69212
▁pre	-9.69247
▁photo	-9.69249
▁agent	-9.69288
▁sometime	-9.69318
▁bello	-9.69425
▁reporter	-9.69562
▁tear	-9.69914
▁pray	-9.69986
▁gives	-9.70109
▁monkeys	-9.70209
▁bro	-9.70398
▁smells	-9.70691
▁hatch	-9.70718
▁self	-9.70769
ism	-9.70813
▁collect	-9.70915
▁aisha	-9.70934
▁department	-9.70934
▁ferrars	-9.70934
▁hudson	-9.70934
▁kowalski	-9.70934
▁krupp	-9.70934
▁precious	-9.70934
▁remote	-9.70934
▁tournament	-9.70934
▁interview	-9.70934
▁desert	-9.70934
▁motes	-9.70934
▁reverend	-9.70935
▁nowhere	-9.70935
▁clay	-9.70935
▁revenge	-9.70936
▁threw	-9.70936
▁onto	-9.70938
▁golf	-9.7094
▁madeleine	-9.7095
▁hans	-9.70954
▁devil	-9.70956
▁boyfriend	-9.70956
▁bread	-9.70962
▁belongs	-9.70973
▁pink	-9.70977
▁anson	-9.70978
▁proof	-9.70992
▁sato	-9.71003
▁male	-9.71038
▁pit	-9.71098
▁invited	-9.71158
▁commander	-9.71167
▁salt	-9.71238
▁minions	-9.71253
▁stronger	-9.7136
▁bay	-9.71412
▁higher	-9.71621
▁answers	-9.71622
▁billy	-9.71686
▁trade	-9.71766
▁plant	-9.71798
▁speaks	-9.72069
▁lies	-9.72135
▁faces	-9.72141
ra	-9.72163
▁cookies	-9.7235
▁freak	-9.72571
▁bum	-9.72823
im	-9.72858
da	-9.72918
▁badge	-9.73002
▁wheel	-9.73098
▁stink	-9.73151
▁guests	-9.73168
▁rip	-9.73212
▁grunt	-9.73255
il	-9.73287
▁talent	-9.73295
ro	-9.73446
▁tunnel	-9.73497
▁roger	-9.73525
▁fan	-9.73562
ts	-9.73567
▁conversation	-9.73571
▁ocean	-9.73571
▁hoped	-9.73575
▁mum	-9.7358
▁richard	-9.73639
▁finger	-9.73656
▁tale	-9.73825
▁soldiers	-9.74096
▁likes	-9.7422
▁me	-9.74274
nny	-9.74368
▁headed	-9.74399
▁crash	-9.74439
one	-9.74505
pa	-9.74601
▁li	-9.74693
▁ka	-9.74735
▁panic	-9.74815
▁nothings	-9.74859
▁wave	-9.74898
▁bulls	-9.74952
▁poison	-9.74953
▁murder	-9.74976
▁recognize	-9.7506
▁invite	-9.75082
▁desperate	-9.7511
▁judge	-9.75114
▁er	-9.75115
▁tricks	-9.75141
▁fur	-9.7516
▁frank	-9.75162
▁prison	-9.75183
▁heave	-9.75233
▁cannonball	-9.75255
▁opera	-9.75271
▁buddies	-9.75282
▁cackling	-9.75282
▁dumbledore	-9.75282
▁garbage	-9.75282
▁heir	-9.75282
▁koskov	-9.75282
▁okinawa	-9.75282
▁otherwise	-9.75282
▁ugga	-9.75282
▁upstairs	-9.75282
▁advice	-9.75282
▁afford	-9.75282
▁brilliant	-9.75282
▁memories	-9.75283
▁meteorite	-9.75283
▁saint	-9.75283
▁solid	-9.75284
▁support	-9.75285
▁assistant	-9.75285
▁stood	-9.75285
▁chasing	-9.75285
▁gorgeous	-9.75286
▁nixon	-9.75287
▁brick	-9.75287
▁knowledge	-9.75288
▁pressure	-9.75295
▁pizza	-9.75295
▁birth	-9.75295
▁duty	-9.75298
▁steady	-9.75309
▁sub	-9.75309
▁spin	-9.75321
▁guilty	-9.75326
▁rare	-9.75337
▁mail	-9.7534
▁screeching	-9.75351
▁approaching	-9.75429
▁charles	-9.7547
▁eaten	-9.75497
▁universe	-9.75559
▁gotcha	-9.75574
▁stairs	-9.75615
▁log	-9.75725
▁raised	-9.75741
just	-9.75745
▁slowly	-9.75924
▁rocky	-9.75995
▁locked	-9.76058
▁ali	-9.76109
▁experience	-9.76162
▁imitate	-9.76281
▁large	-9.76643
ans	-9.76815
▁matters	-9.76895
▁cub	-9.77158
▁there	-9.7723
▁singer	-9.77326
▁pilots	-9.77468
▁click	-9.77687
j	-9.77902
▁cards	-9.77922
▁sa	-9.77948
▁shower	-9.77972
▁moves	-9.77982
▁crime	-9.78025
▁combination	-9.78027
▁shark	-9.78027
▁column	-9.78069
▁miracle	-9.78097
▁angel	-9.78126
▁criminal	-9.7814
▁target	-9.78155
▁squirrel	-9.78161
▁yard	-9.78247
▁following	-9.78496
▁tunes	-9.78589
▁lab	-9.78649
▁bud	-9.78656
▁ne	-9.7886
sh	-9.79023
▁march	-9.79042
▁points	-9.79078
▁ni	-9.7909
▁knowing	-9.79432
▁faith	-9.79447
▁sacrifice	-9.79591
▁desire	-9.79596
vi	-9.79605
▁movies	-9.79606
▁believed	-9.79645
▁natural	-9.79677
rt	-9.79684
▁total	-9.79685
▁gee	-9.79733
▁chair	-9.79811
▁applause	-9.79827
▁capsule	-9.79827
▁dalgleish	-9.79827
▁douglas	-9.79827
▁expensive	-9.79827
▁heffley	-9.79827
▁imagination	-9.79827
▁mirror	-9.79827
▁narnia	-9.79827
▁someplace	-9.79827
▁telephone	-9.79827
▁aware	-9.79829
▁superstar	-9.79829
▁flat	-9.7983
▁awake	-9.7983
▁smee	-9.79831
▁estate	-9.79831
▁washington	-9.79831
▁section	-9.79831
▁palace	-9.79831
▁jeremy	-9.79833
▁gang	-9.79834
▁foul	-9.79837
▁loving	-9.79838
▁mostly	-9.79838
▁exit	-9.7984
▁soup	-9.79849
▁standard	-9.79858
▁model	-9.7986
▁dean	-9.79878
▁chanting	-9.79899
▁chirping	-9.7992
▁bound	-9.79937
▁discovered	-9.79949
▁julian	-9.7995
▁tickle	-9.79952
▁halt	-9.79957
▁refuse	-9.79996
▁ray	-9.8006
▁ian	-9.80066
▁bitch	-9.80087
▁letting	-9.8011
▁nervously	-9.80113
▁personally	-9.80148
▁apologize	-9.80303
▁smaller	-9.8041
▁realized	-9.80425
ian	-9.8061
▁reached	-9.80632
▁covered	-9.80679
▁monsters	-9.80698
▁ira	-9.8074
▁hunting	-9.80808
▁sooner	-9.8082
▁mere	-9.81031
▁weapons	-9.81183
▁lately	-9.81212
ri	-9.8123
ni	-9.81357
▁wise	-9.81787
ley	-9.82051
▁followed	-9.8215
▁doctors	-9.82372
▁juice	-9.82566
▁opens	-9.82696
▁german	-9.8276
▁lordship	-9.82812
▁effort	-9.82819
▁flame	-9.82858
▁weasley	-9.82876
▁leaves	-9.82903
▁dolphin	-9.8291
▁shirt	-9.82917
▁kings	-9.82932
▁banana	-9.82955
▁cost	-9.82967
▁mile	-9.82994
▁songs	-9.83058
ern	-9.8336
▁ms	-9.8339
▁the	-9.83416
▁pigs	-9.83811
▁bang	-9.8382
land	-9.83845
va	-9.83912
▁chest	-9.84203
ul	-9.84315
▁release	-9.84373
▁mush	-9.84389
▁terribl	-9.84477
▁sin	-9.84487
▁speech	-9.84522
▁basket	-9.84586
▁champagne	-9.84589
▁destiny	-9.84589
▁ferrari	-9.84589
▁mulgarath	-9.84589
▁sergeant	-9.84589
▁suspens	-9.84589
▁thunk	-9.84589
▁atlantis	-9.84589
▁judy	-9.84591
▁evans	-9.84591
▁diane	-9.84591
▁governor	-9.84591
▁mmmhmm	-9.84592
▁television	-9.84593
▁grantham	-9.84593
▁staff	-9.84595
▁primero	-9.84597
▁brandon	-9.84599
▁coward	-9.84602
▁opportunity	-9.84602
▁aside	-9.84605
▁distance	-9.84606
▁understood	-9.84606
▁pair	-9.84608
▁oome	-9.8461
▁hannah	-9.8461
▁plain	-9.84611
▁bride	-9.84615
▁bala	-9.84618
▁frightened	-9.84627
▁pushkin	-9.84632
▁snowman	-9.84633
▁kitty	-9.84638
ling	-9.84667
▁glasses	-9.84671
▁fallen	-9.84697
▁balls	-9.84704
▁heroes	-9.8476
▁walls	-9.84867
se	-9.8493
▁agreed	-9.84983
▁legal	-9.85064
▁balance	-9.85113
▁munchkins	-9.85117
▁damage	-9.85139
▁humans	-9.85188
▁fate	-9.85215
▁cr	-9.85252
▁cooking	-9.85438
▁streets	-9.85505
▁selling	-9.85603
▁riding	-9.85687
▁beasts	-9.85743
▁parking	-9.85754
▁po	-9.85779
▁twins	-9.86095
▁pushing	-9.86168
▁crate	-9.86248
▁tears	-9.86522
▁pulled	-9.86529
▁walked	-9.86583
▁throwing	-9.86602
▁friendly	-9.86633
▁lou	-9.86941
▁wonders	-9.86988
ow	-9.87086
▁closes	-9.87292
▁film	-9.8738
▁garden	-9.87499
▁fail	-9.875
▁hanging	-9.87614
▁bron	-9.87752
▁demand	-9.87786
▁operation	-9.87787
▁nightmare	-9.87828
▁nerve	-9.87876
▁coat	-9.87876
▁guinea	-9.8789
▁source	-9.87904
▁russian	-9.87948
▁bee	-9.87951
▁cow	-9.87967
▁cookie	-9.87977
▁dollar	-9.88088
am	-9.88198
di	-9.88627
ha	-9.88847
eful	-9.88857
▁ideas	-9.89011
king	-9.89183
▁shoo	-9.89229
▁rush	-9.89239
▁abe	-9.89245
ig	-9.89267
▁spit	-9.89352
▁sp	-9.89463
▁surely	-9.89503
▁tradition	-9.89514
▁chase	-9.89522
▁express	-9.89564
▁fashion	-9.89568
▁attempt	-9.89589
▁audrey	-9.89589
▁clue	-9.89589
▁fought	-9.89589
▁freedom	-9.89589
▁mysterious	-9.89589
▁necessary	-9.89589
▁piano	-9.89589
▁pleasant	-9.89589
▁popcorn	-9.89589
▁positive	-9.89589
▁prophet	-9.89589
▁renault	-9.89589
▁reputation	-9.89589
▁strangways	-9.89589
▁title	-9.89589
▁trumpeting	-9.89589
▁weasel	-9.89589
▁aslan	-9.89589
▁insane	-9.89589
▁responsible	-9.8959
▁ramses	-9.8959
▁edith	-9.8959
▁magnificent	-9.8959
▁monday	-9.8959
▁squidward	-9.8959
▁ginny	-9.8959
▁rosie	-9.89591
▁dojo	-9.89591
▁blah	-9.89595
▁complicated	-9.89595
▁dexter	-9.89596
▁electric	-9.89596
▁ox	-9.89597
▁youth	-9.89598
▁khan	-9.896
▁medical	-9.89601
▁barber	-9.89603
▁historic	-9.89607
▁heal	-9.89632
▁task	-9.89646
▁haul	-9.89676
▁useless	-9.8968
▁shining	-9.89681
▁hatter	-9.89683
▁hire	-9.89684
▁pure	-9.89693
▁runs	-9.89698
▁prize	-9.89715
▁nest	-9.89719
▁louise	-9.8976
▁gary	-9.89766
▁stops	-9.89842
▁settled	-9.89959
ped	-9.89969
▁tape	-9.89996
▁led	-9.9007
▁victory	-9.90087
▁passengers	-9.90231
▁dressed	-9.90388
▁divorce	-9.90402
▁pee	-9.90501
▁sha	-9.90504
▁closet	-9.90573
anty	-9.9067
▁fixed	-9.90738
der	-9.90753
▁ways	-9.91237
▁touched	-9.91311
▁mi	-9.91361
ey	-9.91442
▁cure	-9.91487
▁guide	-9.91612
▁beeps	-9.91789
▁buying	-9.92116
▁concentrate	-9.92263
▁finding	-9.92352
▁checked	-9.924
▁ani	-9.92629
▁sport	-9.92684
▁metal	-9.9271
▁deck	-9.93068
▁minister	-9.93092
▁defense	-9.93097
▁tank	-9.93102
▁robot	-9.93141
▁shoulder	-9.93187
▁hid	-9.93234
▁twin	-9.93245
x	-9.93274
▁india	-9.93328
▁col	-9.93481
▁falls	-9.93619
▁positions	-9.93684
▁hearts	-9.93848
▁pole	-9.93877
▁bars	-9.93937
▁teachers	-9.94126
ate	-9.94174
ur	-9.94206
▁chill	-9.9431
▁fra	-9.94387
▁wha	-9.94418
▁fighter	-9.94423
ding	-9.94424
▁study	-9.94437
▁aha	-9.94467
▁claim	-9.94517
▁borrow	-9.94532
▁bags	-9.94656
▁separate	-9.94676
▁everybodys	-9.94709
▁sandwich	-9.94797
▁volcano	-9.94798
▁according	-9.94852
▁arthur	-9.94852
▁attitude	-9.94852
▁cassidy	-9.94852
▁dutch	-9.94852
▁jamboree	-9.94852
▁lydia	-9.94852
▁monterey	-9.94852
▁museum	-9.94852
▁proceed	-9.94852
▁slytherin	-9.94852
▁tuesday	-9.94852
▁vehicle	-9.94852
▁vocalizing	-9.94852
▁knife	-9.94852
▁muttering	-9.94852
▁nevins	-9.94852
▁splendid	-9.94853
▁anger	-9.94853
▁chinese	-9.94853
▁matrix	-9.94853
▁whenever	-9.94853
▁audience	-9.94853
▁patties	-9.94853
▁neighborhood	-9.94854
▁vicious	-9.94854
▁otto	-9.94855
▁secure	-9.94855
▁zeta	-9.94856
▁susan	-9.94856
▁oink	-9.94857
▁square	-9.94858
▁enz	-9.94859
▁credit	-9.94859
▁authority	-9.94859
▁glenn	-9.94862
▁legend	-9.94862
▁invention	-9.94862
▁chapman	-9.94862
▁alert	-9.94866
▁fence	-9.94866
▁blew	-9.94868
▁style	-9.94871
▁valley	-9.94875
▁selfish	-9.94879
▁ferd	-9.94882
▁winning	-9.94909
▁spring	-9.94943
▁liar	-9.94946
▁string	-9.94963
▁lala	-9.94982
▁stonea	-9.94983
▁grown	-9.95005
▁created	-9.95006
▁racing	-9.95018
▁bucket	-9.95164
▁served	-9.95179
▁seal	-9.95211
▁disappeared	-9.95278
▁v	-9.9535
▁entirely	-9.95362
▁normally	-9.95411
▁silence	-9.95506
▁greetings	-9.9553
▁sniffs	-9.95531
ini	-9.95671
▁toys	-9.95712
▁shouts	-9.95712
▁nala	-9.95739
ca	-9.95787
▁offered	-9.95792
▁pirates	-9.96072
▁boots	-9.96245
▁staring	-9.96443
▁teaching	-9.96484
▁bowl	-9.96923
▁records	-9.96982
▁whistles	-9.97071
▁winds	-9.97295
ga	-9.9734
▁horses	-9.97422
▁learning	-9.97735
▁suck	-9.97787
▁seek	-9.97879
▁announc	-9.98022
▁shows	-9.98099
▁reminds	-9.98456
▁cheat	-9.98537
▁fo	-9.98608
▁scarecrow	-9.98645
▁kitten	-9.98647
▁preacher	-9.98652
▁condition	-9.98741
▁value	-9.98748
▁chop	-9.98755
▁weapon	-9.98767
▁tip	-9.98811
oo	-9.98903
▁comfort	-9.98987
▁babe	-9.99047
▁bust	-9.99705
ting	-9.99725
▁vo	-9.99845
you	-9.99889
go	-9.99898
▁interrupt	-9.99944
▁copy	-9.99962
▁twist	-9.9997
id	-10.0001
▁cape	-10.0003
▁scratch	-10.0007
found	-10.0016
▁propose	-10.0019
▁social	-10.0024
▁sudden	-10.0026
▁spoke	-10.0036
▁assume	-10.0039
▁journal	-10.004
▁riddle	-10.004
▁advantage	-10.0041
▁example	-10.0041
▁hockey	-10.0041
▁junior	-10.0041
▁milady	-10.0041
▁olenska	-10.0041
▁strasser	-10.0041
▁turtle	-10.0041
▁burger	-10.0041
▁bravo	-10.0041
▁paradise	-10.0041
▁friday	-10.0041
▁therefore	-10.0041
▁cooing	-10.0041
▁ordinary	-10.0041
▁closing	-10.0041
▁truce	-10.0041
▁midnight	-10.0041
▁permit	-10.0041
▁regard	-10.0041
▁boring	-10.0041
▁invitation	-10.0041
▁impressive	-10.0041
▁noble	-10.0041
▁bedroom	-10.0041
▁decent	-10.0041
▁unhappy	-10.0042
▁triumphant	-10.0042
▁kron	-10.0042
▁supper	-10.0042
▁simon	-10.0042
▁guapo	-10.0042
▁stroke	-10.0042
▁gently	-10.0043
▁route	-10.0044
▁lightning	-10.0044
▁filthy	-10.0045
▁darlington	-10.0046
▁gray	-10.0046
▁spoken	-10.0046
▁cast	-10.0047
▁bedtime	-10.0047
▁disappointed	-10.005
▁navy	-10.0053
▁delighted	-10.0056
▁coal	-10.0057
▁hint	-10.0061
▁down	-10.0062
▁lad	-10.0079
▁ham	-10.0083
▁skills	-10.0084
▁arrested	-10.0087
▁finest	-10.0092
▁challenge	-10.0098
▁wishes	-10.0104
▁cops	-10.0106
▁thoughts	-10.0109
▁flag	-10.0111
▁turnin	-10.0114
▁fart	-10.012
▁swim	-10.012
▁hills	-10.0137
▁pot	-10.0146
▁brakes	-10.0151
▁ar	-10.0168
▁lied	-10.0171
▁spending	-10.0173
▁grade	-10.0175
▁rider	-10.0195
ors	-10.0202
▁no	-10.0216
▁cars	-10.0223
▁waited	-10.023
▁va	-10.0234
▁passing	-10.024
▁understanding	-10.0242
me	-10.0243
▁orl	-10.0243
▁angels	-10.0247
ci	-10.029
▁deserves	-10.0334
▁lack	-10.0342
▁laws	-10.0345
at	-10.0347
▁mel	-10.0356
ba	-10.0364
▁charm	-10.0379
▁woohoo	-10.0413
▁hon	-10.0423
bra	-10.0425
▁bark	-10.0426
▁lions	-10.0442
▁blanket	-10.0448
▁orange	-10.0453
▁shadow	-10.0455
▁trap	-10.0459
▁nights	-10.0459
▁yelp	-10.0466
ated	-10.047
▁dancer	-10.0488
▁loser	-10.0501
▁lookin	-10.0503
back	-10.0507
head	-10.0513
▁betterman	-10.0525
ite	-10.0529
▁bat	-10.0533
▁creep	-10.0559
▁fa	-10.0561
▁blu	-10.0571
▁ru	-10.0574
▁spread	-10.0582
▁grace	-10.0583
▁stretch	-10.059
pal	-10.0594
▁honour	-10.0594
▁poop	-10.0597
▁direct	-10.0597
▁screw	-10.0598
▁assure	-10.0608
▁ape	-10.0615
▁exact	-10.0615
▁wing	-10.0618
▁cell	-10.062
▁earn	-10.062
▁hanna	-10.0626
▁somethin	-10.0627
▁georgi	-10.0627
▁aladar	-10.0629
▁ancient	-10.0629
▁border	-10.0629
▁celebrate	-10.0629
▁disaster	-10.0629
▁downstairs	-10.0629
▁enemies	-10.0629
▁enterprise	-10.0629
▁expert	-10.0629
▁explosiveskull	-10.0629
▁italian	-10.0629
▁ominous	-10.0629
▁outfit	-10.0629
▁unusual	-10.0629
▁worries	-10.0629
▁elizabeth	-10.0629
▁serum	-10.0629
▁weaver	-10.0629
▁merrick	-10.0629
▁davies	-10.0629
▁competition	-10.0629
▁dauphin	-10.0629
▁ilsa	-10.0629
▁cherry	-10.0629
▁steam	-10.0629
▁cigarette	-10.0629
▁equipment	-10.0629
▁charity	-10.0629
▁theater	-10.0629
▁vacation	-10.0629
▁committed	-10.0629
▁distant	-10.0629
▁sauce	-10.063
▁knight	-10.063
▁fuel	-10.063
▁miniboss	-10.063
▁danny	-10.063
▁vision	-10.063
▁dying	-10.063
▁classified	-10.0631
▁housekeeper	-10.0631
▁watergate	-10.0631
▁snack	-10.0631
▁dropped	-10.0631
▁stock	-10.0632
▁massey	-10.0632
▁reverse	-10.0632
▁insect	-10.0633
▁soda	-10.0633
▁precisely	-10.0633
▁piper	-10.0635
▁gim	-10.0635
▁narrat	-10.0635
▁murmuring	-10.0636
▁chen	-10.0636
▁involved	-10.0636
▁darkness	-10.0637
▁bloom	-10.0637
▁extremely	-10.0637
▁meal	-10.0638
▁upb	-10.0638
▁manager	-10.0639
▁arranged	-10.064
▁director	-10.0641
▁sexy	-10.0641
▁recipe	-10.0642
▁cove	-10.0645
▁wholl	-10.0646
▁recall	-10.0647
▁former	-10.0649
▁tells	-10.0649
▁core	-10.0651
▁germany	-10.0651
▁squeaks	-10.0655
▁mid	-10.066
▁lap	-10.0662
▁neverland	-10.0665
▁sons	-10.0673
men	-10.0678
▁indistinctly	-10.0688
▁dearest	-10.0693
ose	-10.0702
▁project	-10.0704
away	-10.0705
▁tied	-10.0706
▁tires	-10.0716
▁bothering	-10.0718
▁pile	-10.0722
▁dai	-10.073
▁honored	-10.0733
▁manners	-10.0746
▁wine	-10.0757
▁content	-10.076
▁presents	-10.0767
▁ant	-10.0769
▁knees	-10.0777
▁cole	-10.0778
▁nick	-10.0784
▁stare	-10.0794
▁stealing	-10.0805
▁jos	-10.0815
▁engineer	-10.0816
▁penguin	-10.0819
▁local	-10.0821
▁anne	-10.0822
▁useful	-10.0823
▁blowing	-10.0826
▁russians	-10.0828
▁germans	-10.0838
our	-10.0839
▁vera	-10.0839
▁parr	-10.0898
▁sending	-10.0914
▁all	-10.0916
ti	-10.0942
▁voices	-10.0945
▁bears	-10.096
▁loca	-10.0974
op	-10.0975
▁picking	-10.0977
▁cap	-10.0987
▁ab	-10.0999
▁showing	-10.0999
lo	-10.1001
ence	-10.1004
▁yell	-10.1017
▁dam	-10.1025
▁he	-10.1038
▁islands	-10.1063
▁experiment	-10.107
▁league	-10.1074
▁heavens	-10.1075
▁oven	-10.1077
▁duck	-10.1077
▁woo	-10.1078
▁adult	-10.108
▁pigeon	-10.108
▁pocket	-10.1085
▁peanut	-10.1086
▁sailor	-10.1089
▁prisoner	-10.1099
dy	-10.111
▁fellows	-10.1127
▁for	-10.1139
▁defend	-10.1142
un	-10.1144
beat	-10.1145
▁mall	-10.1145
▁thick	-10.116
ge	-10.116
ho	-10.1172
▁brings	-10.1186
▁buzz	-10.1203
ship	-10.1206
▁cancel	-10.1218
▁trains	-10.122
▁boot	-10.1221
▁witness	-10.1222
▁darn	-10.1223
oooo	-10.1226
▁dial	-10.1233
▁physical	-10.1238
▁transform	-10.1242
▁success	-10.1253
▁vince	-10.1254
▁torn	-10.1254
▁brandnew	-10.1254
▁ffynnon	-10.1254
▁garrad	-10.1254
▁guitar	-10.1254
▁invisible	-10.1254
▁maintain	-10.1254
▁malfoy	-10.1254
▁meatloaf	-10.1254
▁responsibility	-10.1254
▁stammers	-10.1254
▁suicide	-10.1254
▁vilna	-10.1254
▁drove	-10.1254
▁ease	-10.1254
▁laurel	-10.1254
▁wasting	-10.1254
▁brenda	-10.1254
▁whitney	-10.1254
▁whyd	-10.1254
▁sequence	-10.1254
▁komay	-10.1254
▁potential	-10.1254
▁necessities	-10.1254
▁muffled	-10.1254
▁orbit	-10.1254
▁opposite	-10.1254
▁pumpkin	-10.1254
▁uplift	-10.1254
▁staci	-10.1254
▁waitress	-10.1254
▁polite	-10.1254
▁melvin	-10.1254
▁joking	-10.1254
▁signature	-10.1254
▁romance	-10.1254
▁collar	-10.1254
▁critic	-10.1255
▁boogie	-10.1255
▁static	-10.1255
▁peaches	-10.1255
▁throne	-10.1255
▁goal	-10.1255
▁literally	-10.1255
▁couch	-10.1256
▁faye	-10.1256
▁screen	-10.1256
▁valuable	-10.1256
▁changing	-10.1256
▁artie	-10.1257
▁terry	-10.1257
▁illegal	-10.1258
▁morty	-10.1258
▁circumstances	-10.126
▁dining	-10.126
▁kup	-10.1261
▁demon	-10.1261
▁ton	-10.1262
▁indian	-10.1265
▁fourth	-10.1265
▁iron	-10.1265
▁benn	-10.1268
▁counter	-10.1269
▁impressed	-10.1271
▁kai	-10.1272
▁jackie	-10.1273
▁pitch	-10.1281
▁chased	-10.1281
▁bruises	-10.1281
▁properly	-10.1281
▁pod	-10.1284
▁fools	-10.1286
▁humor	-10.1291
▁crab	-10.1296
▁safer	-10.1296
▁diamonds	-10.1303
▁distort	-10.1311
▁meows	-10.1325
▁remembered	-10.1349
▁ohh	-10.1361
▁event	-10.1364
▁pretending	-10.138
▁younger	-10.138
▁testing	-10.139
▁ko	-10.1393
▁highly	-10.1398
ward	-10.1425
▁daughters	-10.1462
▁sec	-10.1471
▁par	-10.1471
bo	-10.1486
▁bon	-10.1488
▁bone	-10.1497
▁trace	-10.1502
▁rats	-10.1521
▁thin	-10.1546
▁marv	-10.1559
ning	-10.1588
▁villains	-10.1597
▁mat	-10.1597
co	-10.1614
▁suffer	-10.1656
ard	-10.1658
mer	-10.1682
▁hurting	-10.1709
▁ships	-10.1715
▁measure	-10.1716
▁sweep	-10.174
▁newspaper	-10.174
▁knee	-10.1744
▁bl	-10.1749
▁professional	-10.1752
▁issue	-10.1758
▁watched	-10.1788
▁nail	-10.1789
ring	-10.1796
▁toe	-10.1805
▁jam	-10.1805
▁hu	-10.1806
▁file	-10.1814
▁photograph	-10.1852
▁iii	-10.1853
oli	-10.1862
▁hum	-10.188
ald	-10.1881
▁recover	-10.1885
▁deny	-10.1886
▁attend	-10.1886
▁shock	-10.1887
▁concern	-10.189
▁curse	-10.1899
▁whoops	-10.19
▁fift	-10.1905
▁becom	-10.1906
▁official	-10.1906
▁actual	-10.1908
▁superior	-10.1919
▁object	-10.1919
▁nurse	-10.192
▁percent	-10.192
▁ashamed	-10.1921
▁awkward	-10.1921
▁behalf	-10.1921
▁carlotta	-10.1921
▁carpenter	-10.1921
▁carriage	-10.1921
▁clarity	-10.1921
▁committee	-10.1921
▁covington	-10.1921
▁explosive	-10.1921
▁furniture	-10.1921
▁grimlock	-10.1921
▁license	-10.1921
▁quarrel	-10.1921
▁rufus	-10.1921
▁technology	-10.1921
▁unicron	-10.1921
▁debbie	-10.1921
▁kelly	-10.1921
▁veruca	-10.1921
▁struck	-10.1921
▁digging	-10.1921
▁smedt	-10.1921
▁jeez	-10.1921
▁glorious	-10.1921
▁patrol	-10.1921
▁campaign	-10.1921
▁smack	-10.1921
▁purse	-10.1921
▁sarah	-10.1921
▁downtown	-10.1921
▁tribe	-10.1921
▁basically	-10.1921
▁suitcase	-10.1921
▁spanish	-10.1921
▁hahaha	-10.1921
▁naked	-10.1921
▁kamal	-10.1921
▁contest	-10.1921
▁grass	-10.1921
▁avoid	-10.1922
▁patch	-10.1922
▁slept	-10.1922
▁inhales	-10.1922
▁limo	-10.1922
▁eugene	-10.1922
▁garw	-10.1922
▁ouch	-10.1922
▁impression	-10.1922
▁teamwork	-10.1922
▁lemon	-10.1922
▁stake	-10.1922
▁junk	-10.1922
▁jazz	-10.1922
▁confused	-10.1922
▁jabberwocky	-10.1923
▁confidence	-10.1923
▁marine	-10.1924
▁scottie	-10.1924
▁spoon	-10.1924
▁puss	-10.1925
▁penny	-10.1925
▁chosen	-10.1925
▁market	-10.1926
▁inevitable	-10.1926
▁trapped	-10.1927
▁squealing	-10.1929
▁vor	-10.1929
▁lame	-10.1929
▁cutter	-10.193
▁laid	-10.193
▁original	-10.193
▁inner	-10.193
▁kneel	-10.1933
over	-10.1933
▁healthy	-10.1934
▁billion	-10.1935
▁betty	-10.1936
▁fairies	-10.1936
▁invented	-10.1937
▁wailing	-10.1938
▁whooping	-10.1939
tic	-10.1939
▁heh	-10.194
▁frankly	-10.1944
▁disgusting	-10.1947
▁whines	-10.195
▁drinks	-10.1955
▁wandering	-10.1956
▁mikey	-10.1963
▁joey	-10.1964
▁loudly	-10.197
▁customers	-10.1975
▁fore	-10.1975
▁accepted	-10.1982
▁forced	-10.1991
▁contract	-10.1994
▁everyones	-10.1996
▁visitors	-10.1998
▁rhythmic	-10.2009
▁foolish	-10.201
house	-10.2018
▁blinded	-10.2018
▁searching	-10.2022
▁der	-10.204
▁terms	-10.2042
▁shown	-10.2047
▁les	-10.2057
▁laughed	-10.2068
▁rolling	-10.2089
▁enjoying	-10.2137
▁be	-10.2146
she	-10.2147
v	-10.2157
olly	-10.2158
▁para	-10.216
▁menu	-10.216
▁pe	-10.2164
▁gar	-10.2166
▁richards	-10.2183
▁you	-10.2201
▁lamb	-10.2215
▁mar	-10.2215
▁rot	-10.2222
▁ye	-10.2235
▁minds	-10.224
▁beating	-10.2255
▁meaning	-10.2278
some	-10.2284
▁workers	-10.2288
▁somethings	-10.2291
▁q	-10.2307
▁pulling	-10.2324
▁ro	-10.2329
▁raf	-10.2353
end	-10.2359
▁au	-10.2361
▁mans	-10.2372
▁jokes	-10.2395
▁port	-10.2438
sp	-10.2439
▁praise	-10.2456
▁ver	-10.2457
▁andrew	-10.2458
▁costume	-10.2461
▁traitor	-10.2461
▁pirate	-10.247
▁glow	-10.2473
▁bug	-10.2474
ally	-10.2478
▁jacket	-10.2487
like	-10.2501
em	-10.2544
▁mud	-10.2544
▁breathes	-10.2545
▁design	-10.2546
▁drown	-10.2552
▁deliver	-10.2584
▁warn	-10.2593
▁aaah	-10.2595
▁insist	-10.2603
▁abandon	-10.2604
▁likely	-10.2607
mount	-10.2612
▁guarantee	-10.2612
around	-10.2613
▁sting	-10.2614
▁shove	-10.2615
▁create	-10.2615
▁firm	-10.2619
▁oi	-10.2621
▁unlike	-10.2623
▁curious	-10.2623
▁complain	-10.2627
▁shush	-10.2629
▁marie	-10.2631
▁pony	-10.2635
▁deposit	-10.2635
▁bonjour	-10.2635
▁clamoring	-10.2635
▁dessert	-10.2635
▁emperor	-10.2635
▁explosion	-10.2635
▁gorilla	-10.2635
▁grissom	-10.2635
▁holiday	-10.2635
▁ireland	-10.2635
▁kamiyah	-10.2635
▁kowalskl	-10.2635
▁laundry	-10.2635
▁lockhart	-10.2635
▁period	-10.2635
▁permission	-10.2635
▁piranha	-10.2635
▁skull	-10.2635
▁stella	-10.2635
▁superweapon	-10.2635
▁taff	-10.2635
▁volunteer	-10.2635
▁whistling	-10.2635
▁wolves	-10.2635
▁wrestling	-10.2635
▁false	-10.2635
▁jaunt	-10.2635
▁anytime	-10.2635
▁ellie	-10.2635
▁renner	-10.2635
▁conference	-10.2635
▁fascinating	-10.2635
▁accus	-10.2635
▁chorus	-10.2635
▁decepticons	-10.2635
▁unique	-10.2635
▁material	-10.2635
▁resist	-10.2635
▁beloved	-10.2635
▁playtone	-10.2635
▁medium	-10.2635
▁including	-10.2635
▁current	-10.2635
▁pathetic	-10.2635
▁patience	-10.2635
▁behold	-10.2635
▁glory	-10.2635
▁expedition	-10.2635
▁wrist	-10.2635
▁produce	-10.2636
▁flashlight	-10.2636
▁intelligence	-10.2636
▁popular	-10.2636
▁wore	-10.2636
▁mask	-10.2636
▁loan	-10.2636
▁exhausted	-10.2636
▁medicine	-10.2636
▁mac	-10.2636
▁grip	-10.2636
▁scent	-10.2636
▁augustus	-10.2637
▁quality	-10.2637
▁center	-10.2637
▁jail	-10.2637
▁grownup	-10.2637
▁reward	-10.2637
▁chess	-10.2638
▁balloon	-10.2639
▁practically	-10.2639
▁cries	-10.264
▁beam	-10.2641
▁classic	-10.2641
▁carried	-10.2641
▁secretary	-10.2642
▁halfway	-10.2642
▁bates	-10.2643
▁moaning	-10.2643
▁lick	-10.2645
▁lava	-10.2646
▁fry	-10.2649
▁shrieking	-10.265
▁bah	-10.2651
▁doomed	-10.2653
▁payment	-10.2654
▁wire	-10.2654
▁splutters	-10.2654
▁process	-10.2661
▁classes	-10.2662
▁degrees	-10.2666
▁slippers	-10.2666
▁coughs	-10.2666
▁beans	-10.2667
▁samples	-10.2667
▁tada	-10.2676
▁owl	-10.2677
▁print	-10.2679
▁gonga	-10.2682
▁buzzing	-10.2687
▁herd	-10.2688
▁bake	-10.2701
▁teller	-10.2704
▁burned	-10.2722
▁treated	-10.273
▁doll	-10.2757
▁attacked	-10.2758
▁messed	-10.2759
▁che	-10.2765
▁drawing	-10.2766
▁enjoyed	-10.2796
▁depend	-10.2806
▁hal	-10.2815
we	-10.2815
▁issues	-10.2816
▁ordered	-10.2833
▁wings	-10.284
▁sever	-10.2846
▁macho	-10.2852
▁sucks	-10.2856
▁hopes	-10.2859
▁events	-10.2862
▁snap	-10.287
▁protecting	-10.2881
▁cl	-10.2892
be	-10.291
ville	-10.2919
▁val	-10.2928
ming	-10.2947
hand	-10.2954
▁breaks	-10.2966
side	-10.2993
▁concentrat	-10.3001
ber	-10.3004
▁husbands	-10.301
▁or	-10.3011
▁gates	-10.3021
chi	-10.3031
▁ram	-10.305
▁drinking	-10.3066
ine	-10.3085
▁ln	-10.3094
per	-10.3097
ier	-10.3113
▁pen	-10.3156
▁snakes	-10.3162
▁changes	-10.3184
▁thumb	-10.3191
▁roar	-10.3199
looking	-10.3201
▁limit	-10.3205
▁eats	-10.3212
▁commercial	-10.3223
of	-10.3223
▁tests	-10.3225
▁subject	-10.3227
ell	-10.3228
▁artist	-10.3229
▁jet	-10.323
▁quarter	-10.323
▁explode	-10.3231
▁creak	-10.3232
▁effect	-10.3232
▁ch	-10.3233
▁priest	-10.3234
▁passion	-10.3234
▁checking	-10.3235
▁cloud	-10.3237
▁direction	-10.3238
▁apple	-10.3243
▁prayer	-10.3243
▁mate	-10.3246
▁moons	-10.3254
▁lip	-10.3255
▁them	-10.3264
que	-10.3272
▁bump	-10.3278
▁gut	-10.3287
▁tag	-10.3294
▁rhythm	-10.3303
▁sweat	-10.3323
▁blessing	-10.3328
▁tick	-10.3342
▁flow	-10.3355
▁leap	-10.3356
sa	-10.3356
▁swing	-10.3357
▁millions	-10.3365
▁trail	-10.3367
▁distract	-10.3369
▁dump	-10.3372
▁disturb	-10.3372
▁suspect	-10.3372
▁wreck	-10.3372
▁bik	-10.3375
▁zoo	-10.3378
▁sat	-10.3383
what	-10.3385
▁gain	-10.3386
▁faint	-10.3387
▁recent	-10.339
▁drag	-10.3397
▁chose	-10.34
▁reject	-10.3401
▁transit	-10.3402
▁plot	-10.3403
▁merci	-10.3403
▁comin	-10.3404
▁agnes	-10.3404
▁application	-10.3404
▁century	-10.3404
▁comrade	-10.3404
▁corporal	-10.3404
▁disgrace	-10.3404
▁dylan	-10.3404
▁enchant	-10.3404
▁eventually	-10.3404
▁extraordinary	-10.3404
▁hilarious	-10.3404
▁hogwarts	-10.3404
▁honeycutt	-10.3404
▁kadam	-10.3404
▁library	-10.3404
▁lucille	-10.3404
▁lucius	-10.3404
▁mystery	-10.3404
▁nonsense	-10.3404
▁offense	-10.3404
▁plastic	-10.3404
▁prophecy	-10.3404
▁silent	-10.3404
▁sybbie	-10.3404
▁technique	-10.3404
▁welsh	-10.3404
▁wisdom	-10.3404
▁applaud	-10.3404
▁elinor	-10.3404
▁farewell	-10.3404
▁francs	-10.3404
▁jelly	-10.3404
▁lewis	-10.3404
▁modern	-10.3404
▁shift	-10.3404
▁foyt	-10.3404
▁luggage	-10.3404
▁shuttle	-10.3404
▁sniffles	-10.3404
▁technical	-10.3404
▁uniform	-10.3404
▁poopsie	-10.3404
▁smiling	-10.3404
▁liberty	-10.3404
▁grandmother	-10.3404
▁influence	-10.3404
▁jumpathon	-10.3404
▁malik	-10.3404
▁dunk	-10.3404
▁roast	-10.3404
▁megatron	-10.3404
▁mimic	-10.3404
▁argue	-10.3404
▁fixerupper	-10.3404
▁referee	-10.3404
▁failure	-10.3405
▁rude	-10.3405
▁dimas	-10.3405
▁mouse	-10.3405
▁woke	-10.3405
▁kara	-10.3405
▁squeeze	-10.3405
▁rumble	-10.3405
▁magnus	-10.3405
▁ladder	-10.3405
▁cliff	-10.3405
▁kenton	-10.3405
▁jean	-10.3405
▁flew	-10.3405
▁grogan	-10.3405
▁jeepers	-10.3405
▁satisfied	-10.3405
▁traffic	-10.3405
▁shopping	-10.3405
▁ultra	-10.3405
▁butts	-10.3405
▁jackjack	-10.3405
▁godmother	-10.3406
▁elster	-10.3406
▁performance	-10.3406
▁miserable	-10.3406
▁yup	-10.3406
▁maxwell	-10.3406
▁wales	-10.3406
▁pinch	-10.3406
▁sentimental	-10.3406
▁starship	-10.3406
▁woof	-10.3407
▁lenny	-10.3407
▁supply	-10.3407
▁clip	-10.3407
▁fluffy	-10.3408
▁noon	-10.3409
▁hitler	-10.3409
▁sink	-10.3409
▁yada	-10.341
▁shivering	-10.341
▁package	-10.341
▁trial	-10.341
▁thirsty	-10.3411
▁apply	-10.3412
▁brush	-10.3413
▁gear	-10.3413
▁archie	-10.3413
▁studio	-10.3413
▁howling	-10.3413
through	-10.3414
▁unfortunately	-10.3414
▁retired	-10.3415
▁nearby	-10.3417
▁squawking	-10.3417
▁tina	-10.3417
▁stopping	-10.3418
▁recently	-10.3419
▁bitter	-10.3421
ised	-10.3421
▁ami	-10.3422
▁echoing	-10.3424
▁fifty	-10.3425
▁tinker	-10.3426
▁annoying	-10.3428
▁informed	-10.343
▁tastes	-10.3431
▁sighing	-10.3432
▁lane	-10.3432
▁dumped	-10.3435
▁delivered	-10.3438
▁warned	-10.3438
▁carrots	-10.3438
▁embarrassing	-10.3442
▁chi	-10.3443
▁hired	-10.3446
▁oliver	-10.3449
▁based	-10.345
▁yawns	-10.3452
▁helpless	-10.3453
▁kindness	-10.3453
▁parts	-10.3454
▁wanting	-10.346
▁tent	-10.346
▁numbers	-10.3468
▁midge	-10.3475
▁escaped	-10.348
▁senses	-10.3482
▁freaking	-10.3487
▁ending	-10.3489
▁shortly	-10.35
▁weirdo	-10.3503
ze	-10.3505
▁under	-10.3506
▁hare	-10.3509
oh	-10.3511
▁socs	-10.3519
▁belly	-10.3521
▁kin	-10.3521
▁mach	-10.3523
▁farmer	-10.3525
▁carl	-10.3526
▁strangers	-10.3528
▁exercise	-10.353
▁politics	-10.3533
▁tis	-10.3539
▁imagined	-10.3558
▁leo	-10.3563
▁guts	-10.3573
▁depends	-10.3577
▁kissed	-10.3579
▁carrying	-10.3583
ating	-10.3585
▁cleaned	-10.3586
▁diet	-10.3593
▁feelin	-10.3612
▁liz	-10.3621
▁leading	-10.3641
mi	-10.3659
▁traveling	-10.3661
▁lads	-10.3661
▁image	-10.3679
▁musical	-10.37
▁finds	-10.3706
▁trained	-10.3714
▁fog	-10.3741
▁eva	-10.3753
▁nap	-10.3768
ery	-10.3798
▁turner	-10.3819
ler	-10.3822
▁host	-10.3844
▁spirits	-10.3876
▁now	-10.3877
▁crack	-10.3922
▁wrap	-10.3926
▁badly	-10.3934
▁lo	-10.3951
ps	-10.3959
▁rivers	-10.3959
ai	-10.3973
off	-10.3982
fully	-10.3999
but	-10.4014
▁root	-10.4018
▁rattl	-10.402
▁flavor	-10.402
▁hearing	-10.4039
▁dreaming	-10.4049
▁warrior	-10.4056
▁device	-10.4056
▁visa	-10.4059
▁savage	-10.4061
▁swell	-10.4061
▁queens	-10.4063
▁magazine	-10.4063
▁shield	-10.4063
▁pipe	-10.4064
▁brake	-10.4073
▁killer	-10.4074
▁wins	-10.4075
▁shoe	-10.4078
▁manner	-10.4082
▁messages	-10.4084
▁wander	-10.4107
▁can	-10.4114
ain	-10.4122
▁stab	-10.4123
▁smith	-10.4141
io	-10.4142
mate	-10.4148
low	-10.4151
▁cock	-10.4164
▁rob	-10.4165
▁here	-10.4176
▁gran	-10.4183
▁univers	-10.4184
▁respond	-10.4191
▁crawl	-10.4192
ola	-10.4193
▁weep	-10.4199
▁succeed	-10.4202
▁threat	-10.4203
▁dang	-10.4203
down	-10.4204
▁wa	-10.4205
▁swallow	-10.4206
bur	-10.4207
free	-10.4215
kill	-10.4215
▁cha	-10.4218
▁sex	-10.4222
▁boil	-10.4223
▁geez	-10.4225
boy	-10.4226
▁hung	-10.4229
▁wide	-10.4233
▁mornin	-10.4235
▁champ	-10.4235
▁oak	-10.4236
▁gettin	-10.4236
▁webs	-10.4237
▁attractive	-10.4237
▁basic	-10.4237
▁devon	-10.4237
▁represent	-10.4237
▁slip	-10.4237
▁temper	-10.4237
▁wrestle	-10.4238
▁amsterdam	-10.4238
▁barnacle	-10.4238
▁beneath	-10.4238
▁benedict	-10.4238
▁brundon	-10.4238
▁buchanan	-10.4238
▁butterflies	-10.4238
▁discipline	-10.4238
▁dwayne	-10.4238
▁easily	-10.4238
▁explanation	-10.4238
▁families	-10.4238
▁florida	-10.4238
▁ignacio	-10.4238
▁incident	-10.4238
▁lincoln	-10.4238
▁mademoiselle	-10.4238
▁merino	-10.4238
▁moneypenny	-10.4238
▁nuclear	-10.4238
▁orleans	-10.4238
▁pagogo	-10.4238
▁proposal	-10.4238
▁puppies	-10.4238
▁reckon	-10.4238
▁rizzio	-10.4238
▁socrates	-10.4238
▁surrender	-10.4238
▁sybok	-10.4238
▁syndrome	-10.4238
▁tranquil	-10.4238
▁tumnus	-10.4238
▁ultimate	-10.4238
▁underground	-10.4238
▁underneath	-10.4238
▁victim	-10.4238
▁vulcan	-10.4238
▁angus	-10.4238
▁blaring	-10.4238
▁escort	-10.4238
▁ethel	-10.4238
▁surface	-10.4238
▁yacht	-10.4238
▁territory	-10.4238
▁fruit	-10.4238
▁coordinates	-10.4238
▁beware	-10.4238
▁register	-10.4238
▁squarepants	-10.4238
▁federation	-10.4238
▁mushroom	-10.4238
▁article	-10.4238
▁ozzie	-10.4238
▁donald	-10.4238
▁japan	-10.4238
▁woah	-10.4238
▁quote	-10.4238
▁urgent	-10.4238
▁kidnapped	-10.4238
▁attic	-10.4238
▁identity	-10.4238
▁luka	-10.4238
▁massive	-10.4238
▁education	-10.4238
▁stomp	-10.4238
▁unbelievable	-10.4238
▁fanny	-10.4238
▁scavenger	-10.4238
▁garage	-10.4239
▁owns	-10.4239
▁chaos	-10.4239
▁summon	-10.4239
▁fever	-10.4239
▁happier	-10.4239
▁begun	-10.4239
▁humble	-10.4239
▁fuse	-10.4239
▁garry	-10.424
▁steps	-10.424
▁dummy	-10.424
▁barnes	-10.424
bj	-10.4241
▁potatoes	-10.4241
▁zini	-10.4241
▁tuna	-10.4241
▁oneders	-10.4241
▁surrounded	-10.4242
▁shiny	-10.4243
▁boop	-10.4244
▁cutting	-10.4244
▁forth	-10.4246
▁bout	-10.4246
▁highway	-10.4247
▁margo	-10.4248
▁grave	-10.4249
▁required	-10.425
▁hitting	-10.425
▁ahem	-10.4251
▁cello	-10.4253
▁bored	-10.4254
▁thus	-10.4254
▁honking	-10.4255
▁mixed	-10.4264
▁amen	-10.4264
▁naturally	-10.4266
▁showtime	-10.4267
▁mount	-10.4268
▁freaky	-10.4274
▁goodnight	-10.4276
▁dock	-10.4276
▁anti	-10.4276
▁spy	-10.4278
▁mustnt	-10.4283
▁ticking	-10.4287
▁highest	-10.4288
▁tone	-10.4293
▁vet	-10.4306
▁sid	-10.4306
▁loaded	-10.4307
▁shy	-10.4318
▁banging	-10.4318
▁suits	-10.432
▁marching	-10.4322
▁armed	-10.4325
▁considered	-10.4329
▁bubbles	-10.4334
▁painful	-10.4352
▁carefully	-10.4357
ten	-10.4362
▁quietly	-10.4366
▁tend	-10.4397
▁bea	-10.44
ized	-10.4407
▁guns	-10.4407
▁rileys	-10.4409
▁apples	-10.4422
▁clouds	-10.4422
▁chances	-10.4442
▁mustve	-10.4465
▁lovers	-10.4473
▁warmer	-10.4476
ial	-10.4476
▁rooms	-10.4478
▁hates	-10.4486
▁jumped	-10.4501
ium	-10.4542
ney	-10.4553
▁squirrels	-10.4557
▁waves	-10.457
▁sw	-10.4581
▁agents	-10.4587
▁hugs	-10.4615
▁x	-10.4617
▁jumping	-10.4619
▁landing	-10.4633
▁rabbits	-10.4652
▁dive	-10.4668
ot	-10.4677
▁reasons	-10.468
▁exists	-10.4707
▁moments	-10.4726
▁dudes	-10.4739
▁notes	-10.4748
▁not	-10.4752
▁roses	-10.4753
my	-10.4759
▁ree	-10.4762
▁ir	-10.4762
▁villager	-10.4763
▁bo	-10.4765
▁stands	-10.4779
▁dealing	-10.4783
▁birdies	-10.4787
itty	-10.479
ice	-10.4796
mber	-10.4802
▁hundreds	-10.4813
▁bi	-10.4819
well	-10.484
▁waters	-10.4851
▁brow	-10.4859
▁jacobs	-10.4869
▁hop	-10.4886
ham	-10.4889
▁jobs	-10.4913
▁engines	-10.4924
ball	-10.4931
▁pin	-10.494
▁pound	-10.4942
▁award	-10.4946
▁realise	-10.4946
ther	-10.4952
▁instrument	-10.4965
▁scene	-10.4967
▁motor	-10.497
▁jew	-10.4971
▁goon	-10.4972
▁clown	-10.4972
▁medal	-10.4975
▁autobot	-10.4977
▁height	-10.4977
▁cannon	-10.4981
▁term	-10.4981
▁chap	-10.5
▁dan	-10.5015
▁attacks	-10.5032
line	-10.5032
▁coin	-10.5033
▁yii	-10.5045
met	-10.5065
▁embarrass	-10.5067
▁wy	-10.5077
mp	-10.5083
▁aim	-10.5106
▁pour	-10.5108
▁defeat	-10.5112
for	-10.5114
▁inform	-10.5115
mouth	-10.5124
load	-10.5125
▁declare	-10.5125
▁convince	-10.5125
▁conduct	-10.5131
▁health	-10.5131
five	-10.5133
▁solve	-10.5134
▁spots	-10.5134
ks	-10.5139
▁mamma	-10.5142
▁confess	-10.5144
▁progress	-10.5145
he	-10.5145
▁kidnap	-10.5146
▁absolem	-10.5147
▁agency	-10.5147
▁alvarez	-10.5147
▁appeal	-10.5147
▁appointment	-10.5147
▁aragog	-10.5147
▁babbling	-10.5147
▁bagheera	-10.5147
▁burden	-10.5147
▁chubby	-10.5147
▁cottage	-10.5147
▁cruise	-10.5147
▁dunno	-10.5147
▁excitement	-10.5147
▁extend	-10.5147
▁galaxy	-10.5147
▁hustle	-10.5147
▁jessica	-10.5147
▁juvenile	-10.5147
▁kananga	-10.5147
▁kgb	-10.5147
▁monitor	-10.5147
▁montmirail	-10.5147
▁motorcycle	-10.5147
▁policy	-10.5147
▁practicing	-10.5147
▁rainbow	-10.5147
▁reynolds	-10.5147
▁senior	-10.5147
▁serververse	-10.5147
▁smooth	-10.5147
▁struggling	-10.5147
▁suspicious	-10.5147
▁swamp	-10.5147
▁thursday	-10.5147
▁ugarte	-10.5147
▁valentine	-10.5147
▁whitaker	-10.5147
▁deaf	-10.5147
▁fortress	-10.5147
▁individual	-10.5147
▁jennings	-10.5147
▁molesley	-10.5147
▁mandible	-10.5147
▁whitmore	-10.5147
▁unfair	-10.5147
▁conclusion	-10.5147
▁concert	-10.5147
▁kirk	-10.5147
▁greek	-10.5147
▁gunshot	-10.5147
▁blackbeard	-10.5147
▁community	-10.5147
▁lupe	-10.5147
▁cassie	-10.5147
▁powder	-10.5147
▁pillow	-10.5147
▁rehearsal	-10.5147
▁location	-10.5147
▁hyah	-10.5147
▁crims	-10.5147
▁transport	-10.5147
▁booboo	-10.5147
▁slipped	-10.5147
▁assistance	-10.5147
▁swimming	-10.5147
▁incoming	-10.5147
▁roam	-10.5147
▁glitch	-10.5147
▁oates	-10.5147
▁inter	-10.5147
▁motion	-10.5147
▁rubber	-10.5147
▁hotrod	-10.5147
▁series	-10.5147
▁bacon	-10.5148
▁jaw	-10.5148
▁conceal	-10.5148
▁survival	-10.5148
▁edge	-10.5148
▁violation	-10.5148
▁replacement	-10.5148
▁whatll	-10.5148
▁downton	-10.5148
▁myrna	-10.5148
▁twp	-10.5148
▁spitz	-10.5148
▁childhood	-10.5149
▁echoes	-10.5149
▁steele	-10.5149
▁text	-10.515
▁touchdown	-10.515
▁wives	-10.515
▁beef	-10.515
▁sentence	-10.5151
▁barton	-10.5151
▁announcement	-10.5151
▁coos	-10.5151
▁jibe	-10.5152
ygen	-10.5152
▁collection	-10.5152
▁poochy	-10.5152
▁gala	-10.5153
▁linda	-10.5153
▁personality	-10.5153
▁mc	-10.5153
▁darry	-10.5153
▁nina	-10.5153
▁lamp	-10.5153
vida	-10.5154
▁average	-10.5154
▁tray	-10.5155
▁bowers	-10.5155
▁croaks	-10.5156
▁captured	-10.5156
▁brandy	-10.5156
▁honorable	-10.5157
▁snickering	-10.5158
▁eeri	-10.5159
▁erin	-10.516
▁fame	-10.516
how	-10.5161
▁drum	-10.5161
▁ability	-10.5162
▁roy	-10.5166
▁highness	-10.5169
▁slide	-10.5169
▁tingle	-10.517
▁dresses	-10.5173
▁creepy	-10.5175
▁floating	-10.5175
▁juan	-10.5177
▁unable	-10.5177
▁thee	-10.5177
▁sled	-10.5179
▁mocking	-10.5179
▁disturbed	-10.5187
▁reality	-10.519
▁gal	-10.52
▁net	-10.5201
▁touches	-10.5203
▁citizens	-10.5203
▁spiders	-10.5204
▁introduced	-10.521
▁suffering	-10.5211
▁cupcakes	-10.522
▁elements	-10.522
▁cheating	-10.5224
▁comic	-10.5224
▁dodge	-10.5226
▁bend	-10.5233
▁provide	-10.5235
▁stutters	-10.5236
od	-10.5236
▁granted	-10.5242
▁itch	-10.5247
▁wipe	-10.5249
▁scientists	-10.5252
▁grounds	-10.5261
▁worthy	-10.5264
▁ra	-10.5281
▁feeding	-10.5283
ass	-10.5295
▁wears	-10.5303
▁shoots	-10.5303
gged	-10.5332
▁acknowledge	-10.5333
▁ge	-10.5339
qui	-10.5347
▁limits	-10.5352
▁dates	-10.5352
▁talkin	-10.5358
▁ca	-10.536
▁answered	-10.5362
doo	-10.5362
sion	-10.5364
here	-10.5367
▁range	-10.5392
▁knocked	-10.5393
▁toes	-10.5398
▁figures	-10.5403
ities	-10.5409
▁holds	-10.541
▁bettermans	-10.5416
▁ants	-10.5418
▁wondered	-10.5423
ut	-10.5432
▁conditions	-10.5432
▁losers	-10.5435
▁mist	-10.5442
▁ad	-10.5442
▁rustl	-10.5463
▁fully	-10.5464
▁cows	-10.5465
ac	-10.5478
▁remove	-10.5494
▁talents	-10.5515
▁joining	-10.5518
▁reg	-10.5523
ung	-10.5559
▁bur	-10.5568
▁jo	-10.557
▁supers	-10.5578
▁ac	-10.558
▁sm	-10.56
▁horns	-10.5613
▁wil	-10.5619
▁mal	-10.5625
▁chips	-10.5628
▁members	-10.563
cha	-10.5638
gie	-10.5654
▁pad	-10.5674
▁mu	-10.5704
▁wand	-10.5718
▁pr	-10.5729
▁lands	-10.5742
▁begg	-10.5769
ver	-10.5773
▁officers	-10.5776
▁gifts	-10.5782
de	-10.5789
▁beds	-10.5791
▁stations	-10.58
ily	-10.5803
▁por	-10.5828
▁ve	-10.5846
▁den	-10.5872
▁greater	-10.5875
▁te	-10.5877
▁ended	-10.5901
ify	-10.5926
▁scout	-10.5926
air	-10.5929
▁bid	-10.5929
ki	-10.593
vin	-10.5932
▁weigh	-10.5942
▁arrive	-10.5944
▁shout	-10.5945
▁subs	-10.5945
▁division	-10.5965
▁troll	-10.5966
if	-10.5967
▁corp	-10.5969
▁relationship	-10.5969
cal	-10.597
▁trunk	-10.5972
▁walter	-10.5974
rr	-10.5975
▁cheek	-10.5975
▁plate	-10.5975
▁frog	-10.5976
▁compliment	-10.5976
▁nazi	-10.5976
▁neighbor	-10.5977
▁william	-10.5978
▁politic	-10.5979
▁giggle	-10.5984
▁marks	-10.5985
▁manual	-10.5997
port	-10.5997
▁charges	-10.5999
▁ble	-10.6003
▁chickens	-10.6016
▁planes	-10.602
▁dip	-10.6022
▁august	-10.603
▁odies	-10.6033
▁non	-10.6035
ank	-10.6037
▁toy	-10.6042
▁ti	-10.6053
res	-10.6059
▁ob	-10.6065
▁pops	-10.6078
▁of	-10.6079
▁thinkin	-10.6088
▁worship	-10.6092
▁slay	-10.6098
bell	-10.6098
▁perform	-10.6098
▁sneak	-10.6101
▁dies	-10.6105
▁siren	-10.6117
board	-10.6117
field	-10.6119
▁palm	-10.6122
▁include	-10.6122
▁arch	-10.6124
▁seize	-10.6125
▁activate	-10.6127
bbering	-10.6128
hood	-10.6129
▁dreadful	-10.6129
gr	-10.613
▁ignore	-10.6131
▁obvious	-10.6132
▁custom	-10.6132
▁slight	-10.6133
▁mental	-10.6133
▁mon	-10.614
▁martin	-10.6143
▁ki	-10.6143
▁vic	-10.6144
▁lovin	-10.6145
▁loyal	-10.6145
▁brace	-10.6146
▁spark	-10.6146
▁wiz	-10.6146
▁neigh	-10.6147
▁ahtohallan	-10.6147
▁akela	-10.6147
▁anneclaire	-10.6147
▁arriving	-10.6147
▁attorney	-10.6147
▁background	-10.6147
▁baxter	-10.6147
▁catherine	-10.6147
▁charlotte	-10.6147
▁christopher	-10.6147
▁commission	-10.6147
▁culture	-10.6147
▁cybertron	-10.6147
▁declan	-10.6147
▁diagusta	-10.6147
▁distinguished	-10.6147
▁ferguson	-10.6147
▁flesh	-10.6147
▁glacier	-10.6147
▁gryffindor	-10.6147
▁humberfloob	-10.6147
▁increase	-10.6147
▁judgment	-10.6147
▁lefferts	-10.6147
▁lobster	-10.6147
▁maureen	-10.6147
▁mcallister	-10.6147
▁minnesota	-10.6147
▁monique	-10.6147
▁nefario	-10.6147
▁pendelton	-10.6147
▁privacy	-10.6147
▁profit	-10.6147
▁raspberry	-10.6147
▁relief	-10.6147
▁routine	-10.6147
▁shinobu	-10.6147
▁sussex	-10.6147
▁texas	-10.6147
▁titus	-10.6147
▁unexpected	-10.6147
▁valiente	-10.6147
▁wardrobe	-10.6147
▁wendy	-10.6147
▁whinnies	-10.6147
▁xhosa	-10.6147
▁figaro	-10.6147
▁wilderness	-10.6147
▁constant	-10.6147
▁phase	-10.6147
▁presence	-10.6147
▁whining	-10.6147
▁rodrick	-10.6147
▁apology	-10.6147
▁persuade	-10.6147
▁felix	-10.6147
▁oyster	-10.6147
▁worid	-10.6147
▁pacific	-10.6147
▁hollywood	-10.6147
▁hurrah	-10.6147
▁accent	-10.6147
▁proposition	-10.6147
▁cancer	-10.6147
▁coronation	-10.6147
▁whew	-10.6147
▁looney	-10.6147
▁radar	-10.6147
▁display	-10.6147
▁denver	-10.6147
▁flint	-10.6147
▁sunset	-10.6147
▁zebra	-10.6147
▁convention	-10.6147
▁fisherman	-10.6147
▁psst	-10.6147
▁sprout	-10.6147
▁caf	-10.6147
▁acid	-10.6147
▁hazel	-10.6147
▁galva	-10.6147
▁choke	-10.6147
▁surgery	-10.6147
▁waking	-10.6147
▁feast	-10.6147
▁paperwork	-10.6147
▁reception	-10.6147
▁disappointment	-10.6148
▁lousy	-10.6148
▁gym	-10.6148
▁depth	-10.6148
▁rotten	-10.6148
▁strategy	-10.6148
▁minor	-10.6148
▁elevator	-10.6148
▁dignity	-10.6148
▁revving	-10.6148
▁strict	-10.6148
▁fabulous	-10.6148
▁serving	-10.6148
▁cheap	-10.6148
▁herb	-10.6148
▁daisy	-10.6148
▁china	-10.6149
▁jolly	-10.6149
▁buried	-10.615
▁flies	-10.615
▁wig	-10.615
▁tweety	-10.615
▁effective	-10.615
▁mason	-10.615
▁specific	-10.615
▁piggy	-10.615
iki	-10.615
▁available	-10.615
▁jinx	-10.615
▁sensitive	-10.615
▁weakness	-10.6151
▁yukie	-10.6151
▁thatd	-10.6151
▁solo	-10.6152
tron	-10.6152
▁curry	-10.6152
▁dings	-10.6153
▁lean	-10.6153
▁chat	-10.6154
▁awesomeness	-10.6155
▁fearless	-10.6155
▁uhuh	-10.6155
▁homework	-10.6155
▁triple	-10.6155
▁sings	-10.6156
▁hopefully	-10.6156
▁july	-10.6157
▁classical	-10.6157
▁trilling	-10.6158
▁capable	-10.6159
▁squeaking	-10.6159
▁alley	-10.616
▁dally	-10.6161
▁connected	-10.6161
▁jen	-10.6163
▁sack	-10.6163
▁dish	-10.6164
▁vice	-10.6166
▁y	-10.6166
▁bury	-10.6167
▁officially	-10.617
▁convinced	-10.617
▁radios	-10.617
▁hopeless	-10.6171
▁clattering	-10.6173
▁hail	-10.6174
▁footsteps	-10.6174
▁lanterns	-10.6174
▁dep	-10.6177
▁mistaken	-10.6179
▁measured	-10.618
▁label	-10.6183
istic	-10.6183
▁kisses	-10.6186
▁union	-10.6188
▁geek	-10.6189
▁abandoned	-10.6191
▁affairs	-10.6192
▁excitedly	-10.6192
▁drowned	-10.6193
▁separated	-10.6193
▁limited	-10.6195
▁erie	-10.6196
▁movement	-10.6197
oline	-10.6197
▁ruby	-10.6197
▁putter	-10.6197
▁lifetime	-10.6204
▁arc	-10.6205
▁busted	-10.6209
▁orphans	-10.621
▁squawks	-10.621
▁fastest	-10.621
▁stinker	-10.6212
▁agee	-10.6212
▁ou	-10.6219
▁poisoned	-10.6221
▁worrying	-10.6222
▁surprises	-10.6223
▁smarter	-10.6224
▁inn	-10.6224
▁tricky	-10.6226
▁aliens	-10.6228
▁survived	-10.623
▁washed	-10.6232
▁breakin	-10.6233
▁advance	-10.6244
▁antiques	-10.6247
▁dope	-10.6251
▁listened	-10.6253
▁windows	-10.6255
▁crashing	-10.6255
▁yar	-10.626
▁elephants	-10.6261
▁lass	-10.6262
▁cor	-10.6268
▁peaceful	-10.6279
▁rely	-10.6296
▁locker	-10.6298
▁worms	-10.63
▁feathers	-10.63
▁arrangements	-10.63
▁loss	-10.6303
▁speakers	-10.6304
▁considering	-10.6308
▁magnetic	-10.6309
▁williams	-10.6318
▁sirens	-10.6319
ations	-10.6326
rg	-10.6327
com	-10.6329
ev	-10.6335
▁scaring	-10.6336
▁ay	-10.6341
▁cooler	-10.6344
▁maria	-10.6356
ade	-10.6361
ping	-10.6372
▁safely	-10.6381
ill	-10.6389
shed	-10.6389
▁emer	-10.6391
▁peanuts	-10.6427
▁sailors	-10.6429
▁joined	-10.6431
dog	-10.6433
▁and	-10.6443
▁jed	-10.6444
tal	-10.6446
▁ward	-10.6462
▁visiting	-10.6469
▁sleepy	-10.6481
▁nana	-10.6482
▁kissing	-10.6486
▁spits	-10.6495
▁bees	-10.6508
▁dolphins	-10.6519
▁shirts	-10.6526
▁targets	-10.6537
▁clicks	-10.6539
▁cutie	-10.6539
▁pat	-10.6539
▁stinks	-10.6557
▁fans	-10.6558
▁freaks	-10.6559
▁recording	-10.6564
▁sl	-10.6576
ries	-10.659
▁remains	-10.6595
▁mis	-10.6599
ines	-10.6628
▁crystals	-10.6629
▁mix	-10.6636
▁fu	-10.6649
▁troops	-10.6684
ome	-10.6685
▁def	-10.6695
▁hits	-10.6719
▁signs	-10.6738
▁kindly	-10.6792
▁buckle	-10.6795
za	-10.6805
▁nicely	-10.6818
▁understands	-10.6829
old	-10.6842
tro	-10.6844
▁fights	-10.6852
fa	-10.6859
▁scars	-10.6863
▁ke	-10.6869
ison	-10.6882
▁tri	-10.6906
▁sum	-10.6908
▁idiots	-10.6908
▁helpful	-10.6909
tion	-10.6935
ties	-10.6939
▁bros	-10.6962
▁sis	-10.6975
▁mines	-10.6991
▁buildings	-10.7002
▁orchestra	-10.7017
rate	-10.7024
ure	-10.7025
▁americas	-10.704
bs	-10.7053
▁chain	-10.7057
▁tire	-10.7073
▁chick	-10.7074
▁klingon	-10.7076
▁heist	-10.7077
▁remark	-10.7082
▁ghost	-10.7083
▁item	-10.7085
▁tool	-10.7086
▁thud	-10.7087
▁result	-10.7088
▁feather	-10.7089
▁worm	-10.7089
▁arrangement	-10.709
▁begins	-10.7096
▁actor	-10.7106
▁skip	-10.7113
rous	-10.7131
▁stranger	-10.7132
iest	-10.7171
▁grows	-10.7178
▁prob	-10.718
▁oo	-10.7181
wise	-10.7185
▁soc	-10.7185
▁preach	-10.7187
▁marc	-10.7193
▁delight	-10.7202
▁discover	-10.7211
▁herr	-10.7212
▁disgust	-10.7213
▁pub	-10.7216
ong	-10.7223
▁impress	-10.7223
wood	-10.7229
owee	-10.7231
▁hawaii	-10.7233
point	-10.7235
▁restore	-10.7236
▁era	-10.7237
▁execute	-10.7237
▁monarch	-10.7237
▁admire	-10.7238
▁tremendous	-10.7239
▁bore	-10.7239
thats	-10.724
▁energ	-10.7241
▁unfortunate	-10.7243
▁extreme	-10.7243
suit	-10.7246
▁glob	-10.7246
wind	-10.7247
▁superhero	-10.7252
▁tomato	-10.7253
▁nun	-10.7254
▁memo	-10.7255
▁anthe	-10.7255
pitche	-10.7256
▁toot	-10.7256
▁whip	-10.7257
▁favour	-10.7257
▁octopus	-10.7257
▁author	-10.7257
▁auto	-10.7258
▁absurd	-10.7258
▁acquaintance	-10.7258
▁aircraft	-10.7258
▁airplane	-10.7258
▁anniversary	-10.7258
▁australia	-10.7258
▁bandersnatch	-10.7258
▁basilisk	-10.7258
▁behavior	-10.7258
▁capital	-10.7258
▁carnahan	-10.7258
▁cathedral	-10.7258
▁channel	-10.7258
▁circuit	-10.7258
▁coincidence	-10.7258
▁cotton	-10.7258
▁cotwell	-10.7258
▁cynthia	-10.7258
▁demonstration	-10.7258
▁dempsey	-10.7258
▁despair	-10.7258
▁disagree	-10.7258
▁dozen	-10.7258
▁eduardo	-10.7258
▁enormous	-10.7258
▁fantasy	-10.7258
▁february	-10.7258
▁forbidden	-10.7258
▁gulch	-10.7258
▁hyatt	-10.7258
▁instinct	-10.7258
▁international	-10.7258
▁kahmunrah	-10.7258
▁kozlova	-10.7258
▁lamlam	-10.7258
▁limousine	-10.7258
▁mcgonagall	-10.7258
▁mexican	-10.7258
▁mexico	-10.7258
▁mississippi	-10.7258
▁oldfashioned	-10.7258
▁pattern	-10.7258
▁pittsburgh	-10.7258
▁platform	-10.7258
▁presscott	-10.7258
▁procedure	-10.7258
▁purple	-10.7258
▁quack	-10.7258
▁receipt	-10.7258
▁refund	-10.7258
▁reindeer	-10.7258
▁revolution	-10.7258
▁shepard	-10.7258
▁skeleton	-10.7258
▁stubborn	-10.7258
▁theodore	-10.7258
▁tragedy	-10.7258
▁twelve	-10.7258
▁underwear	-10.7258
▁voldemort	-10.7258
▁widow	-10.7258
▁ankle	-10.7258
▁crisis	-10.7258
▁lisbon	-10.7258
▁starving	-10.7258
▁opponent	-10.7258
▁abraham	-10.7258
▁miniature	-10.7258
▁sarabi	-10.7258
▁flynn	-10.7258
▁murray	-10.7258
▁selected	-10.7258
▁shrimp	-10.7258
▁aaron	-10.7258
▁tragic	-10.7258
▁matador	-10.7258
▁slurps	-10.7258
▁antarctic	-10.7258
▁initiating	-10.7258
▁insectopia	-10.7258
▁yeager	-10.7258
▁genuine	-10.7258
▁atlantic	-10.7258
▁octa	-10.7258
▁auction	-10.7258
▁gavin	-10.7258
▁bruton	-10.7258
▁ingredient	-10.7258
▁lecture	-10.7258
▁orphanage	-10.7258
▁elementary	-10.7258
▁buff	-10.7258
▁hunk	-10.7258
▁mild	-10.7258
▁centre	-10.7258
▁divine	-10.7258
▁rebel	-10.7258
▁fudge	-10.7258
▁crean	-10.7258
▁vermin	-10.7258
▁ponyboy	-10.7258
▁gallant	-10.7258
▁hissing	-10.7258
▁miami	-10.7258
▁soap	-10.7258
▁nibs	-10.7258
▁puddle	-10.7258
▁duties	-10.7258
▁turbo	-10.7259
▁poem	-10.7259
▁hobby	-10.7259
▁psycho	-10.7259
▁shelby	-10.7259
▁supervillain	-10.7259
▁frost	-10.7259
▁bronx	-10.7259
▁philosophy	-10.7259
▁backwards	-10.7259
▁automatic	-10.7259
▁championship	-10.7259
▁circus	-10.7259
▁delicate	-10.7259
▁yeehaw	-10.7259
▁sensor	-10.7259
▁raw	-10.7259
▁cocoa	-10.7259
▁exchange	-10.7259
▁spike	-10.7259
▁civilization	-10.726
▁shaking	-10.726
▁thug	-10.726
▁employer	-10.726
▁shelter	-10.726
▁yum	-10.726
▁accidentally	-10.726
▁bayard	-10.726
▁sunshine	-10.726
▁freezing	-10.726
▁detective	-10.726
▁assist	-10.726
▁barrel	-10.726
▁gigantor	-10.7261
▁terrifying	-10.7261
▁injury	-10.7261
▁cork	-10.7261
▁western	-10.7262
▁hamish	-10.7262
▁wagon	-10.7262
▁grump	-10.7262
▁basement	-10.7263
▁contrary	-10.7263
▁dismissed	-10.7263
▁injured	-10.7263
▁trim	-10.7263
▁alike	-10.7264
▁rising	-10.7264
▁puff	-10.7264
▁doggy	-10.7264
▁magician	-10.7264
▁worthless	-10.7264
▁dishes	-10.7265
▁evidence	-10.7265
▁dull	-10.7265
▁bop	-10.7265
▁porky	-10.7265
▁santa	-10.7265
▁bench	-10.7265
▁bin	-10.7265
▁gaze	-10.7266
▁treatment	-10.7266
▁sharing	-10.7266
▁dino	-10.7266
▁smoking	-10.7267
▁discussion	-10.7267
▁penal	-10.7268
▁cage	-10.7268
▁diego	-10.7268
▁oogie	-10.7269
▁dating	-10.727
▁yithe	-10.7271
▁forgiveness	-10.7271
▁bullet	-10.7271
▁wallet	-10.7272
▁laser	-10.7273
▁suitable	-10.7274
▁stepped	-10.7274
▁inch	-10.7274
▁stow	-10.7274
▁cia	-10.7275
▁warner	-10.7277
▁curly	-10.7278
▁protection	-10.7279
▁gir	-10.728
▁reasonable	-10.728
▁threatening	-10.7282
▁endless	-10.7282
▁pm	-10.7283
▁unveiled	-10.7286
▁possessed	-10.7286
▁rusty	-10.7287
▁directly	-10.7287
▁carson	-10.7288
▁mammals	-10.7289
▁sobs	-10.729
stream	-10.7292
▁blonde	-10.7293
▁starve	-10.7293
▁slam	-10.7295
▁musician	-10.7296
▁boxes	-10.73
▁atch	-10.7303
▁rage	-10.7304
▁rosa	-10.7304
▁gig	-10.7306
▁designed	-10.7308
▁cents	-10.7308
▁luydens	-10.7309
▁sidekicks	-10.7309
▁scan	-10.7311
▁lend	-10.7312
▁thrown	-10.7313
▁bald	-10.7314
▁dane	-10.732
▁sore	-10.7321
▁straighten	-10.7324
boo	-10.7326
▁goblins	-10.7329
▁assumed	-10.733
▁managed	-10.7332
▁louie	-10.7332
▁archery	-10.7335
▁flu	-10.7341
▁gags	-10.7349
▁daylight	-10.7349
▁candles	-10.735
▁hardest	-10.7352
▁studying	-10.7358
▁this	-10.7364
▁blessed	-10.7368
▁ohio	-10.738
▁bothered	-10.7381
▁nd	-10.7385
ile	-10.7386
▁weed	-10.7387
ual	-10.7389
▁cal	-10.74
▁tap	-10.7405
▁lawyers	-10.741
▁cooked	-10.7414
▁comb	-10.7417
▁county	-10.7429
▁am	-10.743
▁results	-10.743
▁los	-10.7433
▁actors	-10.7435
ack	-10.7436
▁i	-10.745
▁neighbors	-10.7451
▁aid	-10.7464
▁heights	-10.7471
▁autobots	-10.7471
▁chaps	-10.7471
▁fianc	-10.748
cat	-10.7488
▁mally	-10.7492
▁directions	-10.7512
▁grounded	-10.7516
ray	-10.7518
▁acts	-10.7523
▁pushed	-10.7532
ons	-10.7536
▁snowing	-10.7538
▁sc	-10.7543
▁pays	-10.7543
lin	-10.7551
ious	-10.7551
▁messing	-10.7551
▁prop	-10.7564
▁torture	-10.7569
▁pockets	-10.7574
▁imma	-10.7582
▁bells	-10.7584
▁apes	-10.759
▁pots	-10.7608
▁feared	-10.7609
▁easter	-10.7622
▁ci	-10.7632
▁lover	-10.7632
▁sports	-10.7635
ew	-10.7636
▁sources	-10.7656
▁gardens	-10.7658
ache	-10.7674
berg	-10.7677
▁fund	-10.7692
▁criminals	-10.7697
▁sol	-10.7699
▁fe	-10.7701
▁studi	-10.7705
▁wheels	-10.7721
▁bush	-10.7727
▁yyou	-10.7728
▁photos	-10.7739
ize	-10.7742
▁robb	-10.776
ont	-10.7771
han	-10.7775
▁trusted	-10.7779
▁kida	-10.7794
▁patients	-10.7794
▁lessons	-10.7803
▁touching	-10.7858
▁forty	-10.7877
▁hee	-10.7891
izing	-10.7893
ster	-10.7904
▁babys	-10.7908
▁dreamed	-10.7925
▁adventures	-10.7929
▁arts	-10.7966
▁schools	-10.7968
▁sayin	-10.7969
▁sal	-10.7981
tor	-10.8009
bi	-10.8014
▁when	-10.8019
▁hated	-10.8032
thing	-10.8037
▁maps	-10.8055
▁fac	-10.8058
▁rust	-10.8068
▁daddys	-10.8086
▁ogres	-10.8095
▁pi	-10.8098
ates	-10.8102
ay	-10.8108
▁holes	-10.8117
sis	-10.8117
pu	-10.812
▁severe	-10.814
▁cho	-10.8145
sk	-10.8157
▁americans	-10.8158
▁sights	-10.8169
▁eagles	-10.821
med	-10.8218
▁lit	-10.8245
▁har	-10.8246
▁imitat	-10.8253
▁pointing	-10.8254
ight	-10.8255
▁cosm	-10.8256
▁cur	-10.8264
▁leak	-10.828
▁mock	-10.8283
▁sigh	-10.8287
▁what	-10.8294
▁sniff	-10.8299
▁dent	-10.8299
▁wh	-10.8301
▁groan	-10.8303
▁we	-10.831
latin	-10.8313
act	-10.8314
▁parrot	-10.8318
▁straw	-10.8318
▁commitment	-10.8319
▁diaper	-10.8319
▁occasion	-10.8321
▁cartoon	-10.8326
▁habit	-10.833
▁client	-10.833
▁curtain	-10.833
▁shore	-10.8332
▁ages	-10.8332
▁limb	-10.8333
▁resume	-10.8335
▁detail	-10.8337
▁lawyer	-10.8338
▁gruber	-10.8341
▁stable	-10.8342
▁passenger	-10.8343
▁luca	-10.8345
▁complaint	-10.8346
▁looka	-10.835
▁rag	-10.8351
▁greeting	-10.8352
ink	-10.8356
his	-10.8373
▁slap	-10.8377
▁hor	-10.838
▁nation	-10.839
dropping	-10.8404
▁wag	-10.8411
▁hunter	-10.8414
▁determine	-10.8418
ada	-10.8421
▁obey	-10.8425
tric	-10.8425
night	-10.8429
▁lifes	-10.8438
og	-10.8439
▁assum	-10.844
▁advise	-10.845
day	-10.8452
▁at	-10.8453
▁insult	-10.8459
▁approach	-10.8464
▁walt	-10.8466
▁possess	-10.8468
▁fuss	-10.847
▁invent	-10.8472
▁unleash	-10.8472
hu	-10.8473
▁stiff	-10.8474
▁stress	-10.8474
▁unveil	-10.8476
▁tink	-10.8478
▁unload	-10.848
▁scrap	-10.848
mark	-10.8481
▁approve	-10.8484
turn	-10.8484
▁replace	-10.8485
school	-10.8485
▁doom	-10.8486
▁arrange	-10.8486
▁equal	-10.8487
▁confident	-10.8489
▁stew	-10.8495
inlaw	-10.8499
▁wit	-10.8501
▁froze	-10.8503
▁potato	-10.8503
▁whee	-10.8505
▁commit	-10.8505
ternal	-10.8506
▁movin	-10.8507
▁amuse	-10.8507
▁sill	-10.8507
▁boost	-10.8507
▁todd	-10.8508
▁amateur	-10.8508
▁lilliput	-10.8508
▁recommend	-10.8508
▁activities	-10.8508
▁ambulance	-10.8508
▁amulet	-10.8508
▁appropriate	-10.8508
▁arguing	-10.8508
▁beetroot	-10.8508
▁behave	-10.8508
▁beuler	-10.8508
▁bicycle	-10.8508
▁blimey	-10.8508
▁blimp	-10.8508
▁blossom	-10.8508
▁bozo	-10.8508
▁breeze	-10.8508
▁ceremony	-10.8508
▁cleveland	-10.8508
▁clinking	-10.8508
▁cuddly	-10.8508
▁cuisine	-10.8508
▁destination	-10.8508
▁dingdong	-10.8508
▁dregmorr	-10.8508
▁empire	-10.8508
▁empress	-10.8508
▁eternity	-10.8508
▁evacuate	-10.8508
▁felipe	-10.8508
▁fifteen	-10.8508
▁formuler	-10.8508
▁funbucket	-10.8508
▁gleam	-10.8508
▁goofball	-10.8508
▁hanukkah	-10.8508
▁helicopter	-10.8508
▁hysterical	-10.8508
▁intense	-10.8508
▁jeanpierre	-10.8508
▁jewellery	-10.8508
▁judith	-10.8508
▁kreese	-10.8508
▁leslie	-10.8508
▁lollipop	-10.8508
▁loneliness	-10.8508
▁mound	-10.8508
▁moxie	-10.8508
▁myrtle	-10.8508
▁napoleon	-10.8508
▁octopi	-10.8508
▁optimus	-10.8508
▁orlando	-10.8508
▁patroltec	-10.8508
▁pedestrian	-10.8508
▁pregnant	-10.8508
▁previous	-10.8508
▁primitive	-10.8508
▁proffitt	-10.8508
▁promotion	-10.8508
▁review	-10.8508
▁rubbish	-10.8508
▁scientific	-10.8508
▁sebastian	-10.8508
▁skitch	-10.8508
▁sunrise	-10.8508
▁survey	-10.8508
▁swift	-10.8508
▁sylvia	-10.8508
▁thanksgiving	-10.8508
▁theatre	-10.8508
▁turkey	-10.8508
▁typical	-10.8508
▁walden	-10.8508
▁wealth	-10.8508
▁wednesday	-10.8508
▁wiggly	-10.8508
▁afterwards	-10.8508
▁canoe	-10.8508
▁eema	-10.8508
▁harvey	-10.8508
▁honeymoon	-10.8508
▁insurance	-10.8508
▁jersey	-10.8508
▁karl	-10.8508
▁leaf	-10.8508
▁ponies	-10.8508
▁sascha	-10.8508
▁anchor	-10.8508
▁carpet	-10.8508
▁reich	-10.8508
▁carolina	-10.8508
▁deleted	-10.8508
▁lashly	-10.8508
▁struggle	-10.8508
▁undone	-10.8508
▁whooshing	-10.8508
▁ashore	-10.8508
▁instance	-10.8508
▁preston	-10.8508
▁gracious	-10.8508
▁encourage	-10.8508
▁lunatic	-10.8508
▁negative	-10.8508
▁charities	-10.8508
▁chicago	-10.8508
▁rabid	-10.8508
▁eliot	-10.8508
▁marnie	-10.8508
▁administration	-10.8508
▁avenue	-10.8508
▁expelled	-10.8508
▁satisfaction	-10.8508
▁internet	-10.8508
▁bullshit	-10.8508
▁pinata	-10.8508
▁prosper	-10.8508
▁microphone	-10.8508
▁gallery	-10.8508
▁authorities	-10.8508
▁entrance	-10.8508
▁octopussy	-10.8508
▁fraud	-10.8508
▁necklace	-10.8508
▁pix	-10.8508
▁violence	-10.8508
▁envy	-10.8508
▁festival	-10.8508
▁broadway	-10.8508
▁heels	-10.8508
▁mumbling	-10.8508
▁outrageous	-10.8508
▁theory	-10.8508
▁lilies	-10.8509
▁marvelous	-10.8509
▁lump	-10.8509
▁crabbe	-10.8509
▁gordo	-10.8509
▁faun	-10.8509
▁apologise	-10.8509
▁opto	-10.8509
▁rood	-10.8509
▁mature	-10.8509
▁craft	-10.8509
▁freddy	-10.8509
▁minus	-10.8509
▁dimension	-10.851
▁dunkaccino	-10.851
▁necessarily	-10.851
▁soviet	-10.851
▁transmission	-10.851
▁gagging	-10.851
▁harmony	-10.851
▁chimes	-10.851
▁medu	-10.851
▁tramp	-10.851
▁haircut	-10.851
▁sulu	-10.851
▁granddaughter	-10.851
▁cabinet	-10.851
▁radiation	-10.851
▁steak	-10.851
▁axel	-10.851
▁sensible	-10.851
▁possession	-10.851
▁bible	-10.851
▁rail	-10.851
▁assignment	-10.8511
▁hooting	-10.8511
▁potty	-10.8511
▁tooth	-10.8511
▁andie	-10.8511
▁yea	-10.8511
▁snatch	-10.8511
▁roman	-10.8511
▁drain	-10.8511
▁nip	-10.8511
▁confession	-10.8511
▁academy	-10.8511
▁drew	-10.8512
▁oui	-10.8512
▁allowance	-10.8512
▁drill	-10.8512
▁kwan	-10.8512
arius	-10.8513
▁spain	-10.8513
▁chairman	-10.8513
▁ciao	-10.8513
▁puny	-10.8514
▁coverage	-10.8514
▁vast	-10.8514
▁lee	-10.8514
▁bait	-10.8515
▁grabbed	-10.8515
▁relieved	-10.8515
▁growth	-10.8516
▁grey	-10.8516
▁sour	-10.8516
▁bog	-10.8516
▁passage	-10.8516
▁emotional	-10.8517
▁after	-10.8518
▁lazy	-10.8519
▁rumi	-10.8519
▁rebuild	-10.852
▁stray	-10.852
▁gregg	-10.852
▁supplies	-10.8521
▁clucking	-10.8523
▁argh	-10.8523
▁mistakes	-10.8524
▁cabin	-10.8524
▁bingo	-10.8526
▁federa	-10.8527
▁slightly	-10.8527
▁replaced	-10.853
▁tube	-10.8531
▁jackson	-10.8532
▁bold	-10.8533
ory	-10.8534
▁solved	-10.8538
▁status	-10.8538
▁backyard	-10.854
▁removed	-10.8541
▁kite	-10.8542
▁mustard	-10.8542
▁que	-10.8542
▁teen	-10.8542
▁kiddo	-10.8543
▁vultures	-10.8543
▁instructions	-10.8543
▁gulps	-10.8543
▁burnt	-10.8545
▁delay	-10.8549
▁taz	-10.8552
▁snickers	-10.8556
▁swallowed	-10.8557
▁deepest	-10.856
▁wrecked	-10.8561
▁moral	-10.8563
▁stinky	-10.8564
▁sneaking	-10.8566
▁sharply	-10.8566
▁released	-10.8567
▁ahhh	-10.857
▁driven	-10.8575
▁cracking	-10.858
▁breed	-10.8585
town	-10.8587
iff	-10.8587
▁prey	-10.8588
▁hedge	-10.8589
ever	-10.8592
▁nailed	-10.8595
els	-10.8595
▁fond	-10.86
▁simpler	-10.8601
▁woh	-10.8601
▁murderer	-10.8602
▁dee	-10.8602
▁rd	-10.8604
▁goodlooking	-10.861
▁companions	-10.8612
▁focused	-10.8612
▁rescued	-10.8614
▁niggers	-10.8614
▁leads	-10.8615
▁mayor	-10.8619
▁bowling	-10.862
▁dame	-10.8621
▁debt	-10.8624
▁lily	-10.8626
▁shorter	-10.8628
red	-10.8634
▁muscles	-10.8635
▁options	-10.8635
▁lords	-10.8648
▁discussed	-10.8648
▁signor	-10.8653
▁hood	-10.8654
▁appeared	-10.8659
▁remaining	-10.8661
▁kicks	-10.8663
▁suckers	-10.8665
▁sailing	-10.8674
right	-10.8676
▁controls	-10.8686
jon	-10.8691
▁tasted	-10.8693
ator	-10.8702
▁mic	-10.8703
▁funds	-10.8707
▁shelly	-10.8713
▁gathering	-10.8715
▁climbing	-10.8715
▁compliments	-10.8728
▁frogs	-10.8728
▁nazis	-10.8728
▁prospect	-10.8733
▁entering	-10.874
▁mayo	-10.8763
▁cube	-10.8773
▁fooled	-10.8784
▁joint	-10.8784
des	-10.8792
▁priests	-10.8798
▁effects	-10.88
▁fears	-10.8807
ol	-10.8818
▁snaps	-10.8818
▁files	-10.8843
ese	-10.8852
cee	-10.8876
▁prisoners	-10.8877
▁backup	-10.8882
▁traps	-10.8892
ub	-10.8896
▁towns	-10.89
▁marrying	-10.8904
▁vers	-10.8914
▁hom	-10.8915
tom	-10.892
▁timing	-10.8927
▁shoulders	-10.894
▁sta	-10.8943
eur	-10.8947
▁guineas	-10.8963
▁labor	-10.898
▁jane	-10.8981
▁mega	-10.8986
▁costs	-10.8987
▁bod	-10.9003
▁crossing	-10.9014
▁lu	-10.9014
▁pu	-10.9039
ying	-10.9046
▁devils	-10.9049
ille	-10.9051
▁sticks	-10.9073
ddy	-10.9085
▁rac	-10.9085
▁crowded	-10.9105
▁dal	-10.9105
▁paws	-10.913
▁blo	-10.9143
ect	-10.9164
▁decides	-10.9179
▁boats	-10.9185
▁ja	-10.9193
▁dada	-10.9195
ix	-10.9201
▁beauforts	-10.9225
▁cop	-10.9236
ere	-10.9237
▁tracks	-10.9251
tory	-10.9259
ified	-10.9264
▁pala	-10.9266
▁leaders	-10.9298
cons	-10.9322
last	-10.9344
ability	-10.9351
▁sides	-10.9354
ak	-10.9355
gue	-10.9356
▁mor	-10.9359
▁annu	-10.9384
▁ku	-10.9386
ads	-10.939
▁organis	-10.9414
▁grannys	-10.9418
▁ooo	-10.9444
▁ste	-10.9448
▁sau	-10.945
ug	-10.9488
▁trucks	-10.9515
kin	-10.9524
mon	-10.9534
iness	-10.956
▁app	-10.9561
▁sire	-10.9596
ghorn	-10.9602
▁oan	-10.9605
▁services	-10.9613
▁comp	-10.9638
▁recite	-10.9652
ib	-10.9654
▁cra	-10.9659
▁don	-10.9715
rb	-10.9721
▁meow	-10.9726
▁fields	-10.9736
▁require	-10.9741
▁principle	-10.9746
▁salad	-10.9746
▁punk	-10.9746
▁appearance	-10.9749
▁chum	-10.9759
▁seagull	-10.9762
▁sensation	-10.9762
▁affection	-10.9764
▁servant	-10.9766
▁scully	-10.9767
▁scientist	-10.9768
▁bubble	-10.9769
▁munchkin	-10.9772
▁purr	-10.9772
▁toward	-10.9775
▁ace	-10.9777
▁parent	-10.9778
▁visitor	-10.9791
▁chuckle	-10.9792
bus	-10.9794
▁sucker	-10.9798
jimmy	-10.981
▁ga	-10.9816
▁rains	-10.9816
▁trie	-10.9818
vo	-10.9822
more	-10.9833
▁sash	-10.9841
wa	-10.9843
▁entertain	-10.9849
▁olive	-10.9852
▁doubts	-10.9855
fire	-10.9864
▁rum	-10.9876
▁affect	-10.9882
▁blink	-10.9889
▁splash	-10.989
use	-10.989
▁melt	-10.9896
▁annoy	-10.9896
guard	-10.9896
▁needing	-10.9896
▁chris	-10.9897
▁barr	-10.99
▁contain	-10.9901
▁toss	-10.9901
▁wound	-10.9904
▁radi	-10.9904
▁spill	-10.9905
▁swor	-10.9907
▁betray	-10.9909
▁plug	-10.991
▁disguise	-10.9911
year	-10.9914
▁bets	-10.9915
box	-10.9915
▁retire	-10.9915
life	-10.9915
hole	-10.9916
letting	-10.9916
▁excellenc	-10.9917
four	-10.9919
▁absolute	-10.9922
▁garde	-10.9924
▁poke	-10.9924
tail	-10.9926
▁ricks	-10.9927
▁ideal	-10.9928
▁vega	-10.9931
▁tralala	-10.9931
▁brew	-10.9932
▁exhibit	-10.9934
▁trans	-10.9934
▁booya	-10.9934
▁react	-10.9934
▁reflect	-10.9935
▁pow	-10.9935
▁salaz	-10.9936
▁addition	-10.9936
▁algorithm	-10.9936
▁alpha	-10.9936
▁anxious	-10.9936
▁aspirin	-10.9936
▁blaine	-10.9936
▁blueberry	-10.9936
▁bullseye	-10.9936
▁cafeteria	-10.9936
▁carnival	-10.9936
▁casserole	-10.9936
▁centuries	-10.9936
▁ceremonies	-10.9936
▁chalk	-10.9936
▁clumsy	-10.9936
▁council	-10.9936
▁couriers	-10.9936
▁culdesac	-10.9936
▁curiosity	-10.9936
▁daffy	-10.9936
▁dinosaur	-10.9936
▁eleanor	-10.9936
▁elsewhere	-10.9936
▁exquisite	-10.9936
▁eyelashes	-10.9936
▁fountain	-10.9936
▁guelston	-10.9936
▁gunpowder	-10.9936
▁jamaica	-10.9936
▁jedediah	-10.9936
▁ketchup	-10.9936
▁ladybug	-10.9936
▁leash	-10.9936
▁lemuel	-10.9936
▁leopard	-10.9936
▁medieval	-10.9936
▁messenger	-10.9936
▁michigan	-10.9936
▁miyaji	-10.9936
▁neutral	-10.9936
▁obtain	-10.9936
▁pajamas	-10.9936
▁parseltongue	-10.9936
▁paxton	-10.9936
▁pencil	-10.9936
▁pevensie	-10.9936
▁portrait	-10.9936
▁random	-10.9936
▁refrigerator	-10.9936
▁reseda	-10.9936
▁satchel	-10.9936
▁snarls	-10.9936
▁sniper	-10.9936
▁sought	-10.9936
▁specimen	-10.9936
▁spectacular	-10.9936
▁therapy	-10.9936
▁ticklish	-10.9936
▁treason	-10.9936
▁trembling	-10.9936
▁uncomfortable	-10.9936
▁unicorn	-10.9936
▁vanilla	-10.9936
▁whiskey	-10.9936
▁wretch	-10.9936
▁yoohoo	-10.9936
▁anyhow	-10.9936
▁assassin	-10.9936
▁backpack	-10.9936
▁chancellor	-10.9936
▁epic	-10.9936
▁gossip	-10.9936
▁gunilla	-10.9936
▁harbour	-10.9936
▁heather	-10.9936
▁horror	-10.9936
▁howre	-10.9936
▁lease	-10.9936
▁percy	-10.9936
▁personnel	-10.9936
▁raising	-10.9936
▁research	-10.9936
▁senor	-10.9936
▁dynamite	-10.9936
▁menace	-10.9936
▁pledge	-10.9936
▁skies	-10.9936
▁chunk	-10.9936
▁skinny	-10.9936
▁archives	-10.9936
▁boston	-10.9936
▁cue	-10.9936
▁matrimon	-10.9936
▁gertie	-10.9936
▁solution	-10.9936
▁toad	-10.9936
▁tractor	-10.9936
▁terrified	-10.9936
▁unlock	-10.9936
kind	-10.9936
▁corset	-10.9936
▁kennedy	-10.9936
▁scholarship	-10.9936
▁executive	-10.9936
▁occupation	-10.9936
▁plague	-10.9936
▁vulgar	-10.9936
▁generous	-10.9936
▁visual	-10.9936
▁mirage	-10.9937
▁cooperate	-10.9937
▁salmon	-10.9937
▁supposing	-10.9937
▁berlin	-10.9937
▁relations	-10.9937
▁flank	-10.9937
▁optic	-10.9937
▁orlov	-10.9937
▁pursuit	-10.9937
▁commence	-10.9937
▁denied	-10.9937
▁diversion	-10.9937
▁chores	-10.9937
▁hostile	-10.9937
▁tracts	-10.9937
▁travis	-10.9937
▁kidnapping	-10.9937
▁caution	-10.9937
▁ahoy	-10.9937
▁shatter	-10.9937
▁barrow	-10.9937
▁importance	-10.9937
▁alaska	-10.9937
▁beatles	-10.9937
▁myth	-10.9937
▁sleepyhead	-10.9937
▁blondie	-10.9937
▁dandy	-10.9937
▁cozy	-10.9937
▁dentist	-10.9937
▁aokay	-10.9937
▁adam	-10.9937
▁helmet	-10.9937
▁sleeve	-10.9937
▁ditch	-10.9937
▁connection	-10.9937
▁rodent	-10.9937
▁lounge	-10.9937
▁classroom	-10.9937
▁envelope	-10.9937
▁hammer	-10.9937
▁veeko	-10.9937
▁cardiff	-10.9937
▁gibberish	-10.9937
▁puke	-10.9938
▁shortcut	-10.9938
▁fox	-10.9938
▁michelin	-10.9938
▁suri	-10.9938
▁baloo	-10.9938
▁rita	-10.9938
▁hooray	-10.9938
▁stall	-10.9938
▁fading	-10.9938
▁owens	-10.9938
▁drummer	-10.9938
▁hush	-10.9938
▁celebrity	-10.9938
▁sunlight	-10.9938
▁litter	-10.9938
▁overnight	-10.9938
▁glum	-10.9938
▁thirty	-10.9938
▁privilege	-10.9938
▁satellite	-10.9938
▁petrified	-10.9938
▁armour	-10.9939
▁westside	-10.9939
▁lisa	-10.9939
▁liking	-10.9939
▁overboard	-10.9939
▁zap	-10.9939
▁reflection	-10.9939
▁fregleyl	-10.9939
▁interfere	-10.9939
▁expectations	-10.9939
▁screeches	-10.9939
▁shane	-10.994
▁beaver	-10.994
▁flushes	-10.994
▁crossfield	-10.994
▁babysitter	-10.994
▁swish	-10.994
▁kingston	-10.994
▁firstclass	-10.994
▁logan	-10.994
▁whirring	-10.994
▁creation	-10.9941
▁bubby	-10.9941
▁role	-10.9941
▁barbecue	-10.9941
▁distraction	-10.9942
▁stampede	-10.9942
▁coke	-10.9942
▁blade	-10.9942
▁juicy	-10.9942
▁travelling	-10.9943
adele	-10.9943
▁koss	-10.9943
intensifie	-10.9943
▁yuck	-10.9943
▁angle	-10.9943
▁phony	-10.9944
▁offended	-10.9944
▁groom	-10.9944
▁maga	-10.9944
▁data	-10.9944
▁spotted	-10.9944
▁eden	-10.9944
▁banished	-10.9945
▁iceland	-10.9946
▁booth	-10.9947
▁considerable	-10.9947
▁bunk	-10.9947
▁math	-10.9947
▁takin	-10.9947
▁cutler	-10.9948
▁payback	-10.9948
▁scarf	-10.9948
▁occurred	-10.9949
▁seventh	-10.995
▁bigenders	-10.9951
▁described	-10.9951
▁greed	-10.9952
▁twobit	-10.9952
▁forgetting	-10.9953
▁idiotic	-10.9954
▁gah	-10.9954
▁mole	-10.9954
▁frightening	-10.9954
▁globe	-10.9954
▁tax	-10.9955
▁graduated	-10.9955
▁angeles	-10.9955
▁biggie	-10.9955
▁larger	-10.9955
▁robbery	-10.9956
▁burst	-10.9956
▁compare	-10.9957
▁fried	-10.9958
▁nono	-10.9958
▁accomplished	-10.9959
▁vanished	-10.9959
▁amazed	-10.9961
▁gay	-10.9961
▁snape	-10.9961
▁parish	-10.9963
▁fuzz	-10.9963
▁spoiled	-10.9964
▁alan	-10.9966
▁wade	-10.9967
▁betrayed	-10.9968
▁foe	-10.997
▁hiro	-10.9971
▁gloves	-10.9973
▁provided	-10.9975
vers	-10.9977
▁ancestors	-10.9977
▁pyramids	-10.9977
▁carnotaurs	-10.9978
▁activated	-10.9978
▁flipp	-10.9979
▁compared	-10.9981
▁delightful	-10.9981
▁shovel	-10.9982
▁lighten	-10.9982
▁messes	-10.9982
▁splashing	-10.9983
▁meowing	-10.9983
tri	-10.9984
▁crowna	-10.9985
▁melting	-10.9986
▁diver	-10.9987
▁squire	-11.0001
orman	-11.0003
▁insisted	-11.0003
▁qualifications	-11.0004
▁oompaloompas	-11.0004
▁cheerleaders	-11.0005
▁selfdestruct	-11.0005
elk	-11.0009
▁suffered	-11.0009
▁choices	-11.001
▁witches	-11.0012
▁judged	-11.0012
▁robber	-11.0014
ide	-11.0014
▁speaker	-11.0015
▁crawling	-11.0019
escend	-11.0021
▁louder	-11.0021
inal	-11.0023
▁sucked	-11.0025
▁gaining	-11.0026
tting	-11.0026
las	-11.0026
▁borrowed	-11.0028
▁gale	-11.003
▁spices	-11.0031
▁consequences	-11.0031
▁relatives	-11.0031
▁intentions	-11.0031
▁rep	-11.0035
▁deserved	-11.0041
▁scotty	-11.0042
▁realm	-11.0047
▁talented	-11.0049
▁completed	-11.005
▁ju	-11.0056
▁gadgets	-11.0058
operative	-11.0058
▁ifyou	-11.0059
▁meantime	-11.0059
▁shakey	-11.0061
▁greasers	-11.0061
▁interrupting	-11.0062
▁busting	-11.0066
shes	-11.0069
▁sailed	-11.0071
▁lance	-11.0076
▁painted	-11.0076
list	-11.0078
cap	-11.0078
▁farting	-11.008
▁formed	-11.0083
▁sleepin	-11.0083
▁termites	-11.0085
▁clicking	-11.0093
▁lone	-11.0097
tter	-11.01
▁servants	-11.0112
▁lid	-11.0115
pan	-11.0121
kins	-11.0122
▁dup	-11.013
▁screamed	-11.0131
▁painting	-11.0131
▁tw	-11.0137
▁yito	-11.0138
▁resumes	-11.0139
▁neat	-11.0144
▁mop	-11.016
▁watches	-11.0162
▁thuds	-11.0166
▁tools	-11.0166
ji	-11.0168
eck	-11.017
▁float	-11.0172
▁sew	-11.0182
bag	-11.0186
▁plates	-11.0193
▁scouts	-11.0194
▁cheeks	-11.0196
▁rate	-11.0197
▁chart	-11.0199
▁smashing	-11.0207
▁rolled	-11.0208
▁risking	-11.0214
▁kla	-11.0218
rea	-11.022
▁jews	-11.022
▁medals	-11.022
▁strap	-11.0225
▁ol	-11.0233
▁treating	-11.0234
▁jer	-11.0235
▁mouths	-11.0243
▁roots	-11.0248
▁pipes	-11.0257
▁fed	-11.026
▁if	-11.0269
▁visited	-11.027
▁writer	-11.0274
tant	-11.0282
▁smelly	-11.0287
all	-11.0288
▁zipp	-11.0305
▁bombs	-11.0309
▁attacking	-11.0323
▁relaxing	-11.0333
▁il	-11.0341
▁abs	-11.0344
▁seller	-11.0347
▁closely	-11.035
ula	-11.0356
▁ducks	-11.0358
lew	-11.0361
▁nails	-11.0364
▁charms	-11.0388
▁counts	-11.0407
▁babes	-11.041
▁cuts	-11.0415
▁fin	-11.0417
▁robots	-11.044
▁wo	-11.0448
▁vari	-11.0451
▁questioned	-11.0464
▁beautifully	-11.0466
dent	-11.0468
▁nerves	-11.0468
▁films	-11.047
▁lin	-11.0479
▁spec	-11.0487
▁weasleys	-11.0495
▁damned	-11.0499
▁stopa	-11.0506
ugh	-11.0509
▁rig	-11.051
ld	-11.0513
▁yow	-11.0514
▁mob	-11.0516
▁conversations	-11.0551
▁oceans	-11.0551
▁boos	-11.0562
▁ban	-11.0601
ters	-11.0606
▁hay	-11.0609
▁helpa	-11.0617
▁rem	-11.062
can	-11.0634
▁signing	-11.0635
▁systems	-11.0663
▁astronauts	-11.0663
▁sails	-11.0668
▁ast	-11.0692
▁anyways	-11.0695
▁facts	-11.0699
▁dine	-11.0705
oul	-11.0707
▁invest	-11.0709
▁maka	-11.0712
▁cups	-11.0718
▁opinions	-11.0719
▁serves	-11.072
▁pers	-11.0726
▁waiter	-11.0729
ied	-11.0744
▁sod	-11.0752
▁inc	-11.0768
▁decisions	-11.0775
yo	-11.0789
▁ropes	-11.0803
▁beers	-11.0815
▁dim	-11.0824
stand	-11.083
uff	-11.0843
▁ag	-11.0854
sized	-11.0858
ya	-11.0862
▁mee	-11.0885
▁stores	-11.0888
▁catching	-11.0892
hoo	-11.0924
▁ook	-11.0926
▁bills	-11.094
▁battles	-11.0945
gy	-11.0961
▁units	-11.0964
▁wished	-11.1015
▁ze	-11.1018
▁she	-11.1036
ically	-11.105
itis	-11.1062
eyed	-11.1064
▁ana	-11.1068
▁sleeps	-11.1068
▁bounc	-11.1069
rk	-11.1075
▁fran	-11.1076
ap	-11.1084
ggle	-11.1084
▁partners	-11.1086
ura	-11.1094
▁houses	-11.11
▁keeper	-11.1115
▁stones	-11.1117
this	-11.1119
▁wis	-11.112
uch	-11.1123
ible	-11.1126
▁fits	-11.1134
rin	-11.1156
top	-11.1161
lon	-11.1169
ata	-11.117
▁cos	-11.118
▁ren	-11.1194
▁moo	-11.1198
▁forces	-11.1202
▁hospitals	-11.1203
ik	-11.1203
mbus	-11.1205
▁talks	-11.1218
▁ber	-11.1252
▁giants	-11.1261
get	-11.1277
con	-11.1279
ise	-11.128
▁hears	-11.1285
▁gu	-11.1289
▁mommys	-11.129
▁gall	-11.129
▁partys	-11.1308
ical	-11.1311
▁browns	-11.1316
▁tails	-11.1325
roni	-11.134
nce	-11.1342
bb	-11.1347
▁on	-11.1348
ened	-11.1352
nba	-11.1385
ane	-11.14
▁phones	-11.1411
▁fundamental	-11.1412
▁sailboat	-11.1413
▁cit	-11.1416
▁einstein	-11.1421
▁mermaid	-11.1421
▁hostage	-11.1424
▁landmark	-11.1424
▁meteor	-11.1425
▁cricket	-11.1425
▁spear	-11.1427
▁factor	-11.1427
▁pill	-11.1427
▁comment	-11.1428
▁suggestion	-11.1428
▁mingott	-11.1428
▁missile	-11.1429
▁arrow	-11.1429
▁rank	-11.1429
▁rumor	-11.1431
▁termite	-11.1431
▁muscle	-11.1432
▁option	-11.1432
▁stutter	-11.1435
▁antique	-11.1438
▁hyena	-11.144
▁scoff	-11.144
▁oop	-11.1446
▁thrust	-11.1452
▁heroic	-11.1453
ab	-11.1454
▁guessed	-11.1456
▁prom	-11.1475
▁rear	-11.1478
▁bleed	-11.1479
▁jan	-11.1497
▁transfer	-11.1501
▁uhuhuh	-11.1507
▁explor	-11.1511
prints	-11.1516
▁access	-11.1516
▁flood	-11.1529
▁flip	-11.1539
hot	-11.1544
▁reli	-11.1547
▁echo	-11.1553
▁una	-11.1553
lick	-11.1554
▁snort	-11.1554
ounding	-11.1555
ski	-11.1556
val	-11.1556
▁clatter	-11.1558
▁handles	-11.1558
▁develop	-11.1559
▁tralalaa	-11.156
mom	-11.1561
▁slug	-11.1561
▁function	-11.1563
▁kills	-11.1567
wife	-11.1569
▁inherit	-11.1569
▁disappoint	-11.1571
▁spoil	-11.1571
▁wail	-11.1571
▁stan	-11.1572
▁explore	-11.1574
▁brand	-11.1575
foot	-11.1575
blood	-11.1575
▁dragg	-11.1576
▁tro	-11.1576
▁recognise	-11.1576
▁greas	-11.1577
bound	-11.1577
villain	-11.1578
squire	-11.1579
proof	-11.158
know	-11.158
bottom	-11.158
people	-11.1581
▁humiliate	-11.1581
nder	-11.1581
▁graduate	-11.1581
yeah	-11.1581
most	-11.1582
will	-11.1582
even	-11.1584
▁origin	-11.1585
▁scram	-11.1585
wn	-11.1587
▁guilt	-11.1587
▁bind	-11.1587
▁bink	-11.1589
teen	-11.1589
ranged	-11.1592
▁shave	-11.1592
▁hack	-11.1593
zz	-11.1593
▁mag	-11.1594
▁branch	-11.1596
▁profession	-11.1596
▁reserve	-11.1596
▁crank	-11.1597
▁torch	-11.1597
▁africa	-11.1597
▁voyage	-11.1597
▁dow	-11.1598
ancy	-11.16
▁complex	-11.16
stone	-11.16
▁automat	-11.1601
▁mmhm	-11.1601
▁defect	-11.1601
▁babysit	-11.1601
▁hind	-11.1602
▁coup	-11.1603
▁brief	-11.1603
▁alcohol	-11.1603
▁continent	-11.1603
▁document	-11.1603
▁horizon	-11.1603
▁scrub	-11.1603
responsibilities	-11.1603
▁acquainted	-11.1603
▁akhiya	-11.1603
▁almighty	-11.1603
▁amelia	-11.1603
▁amundsen	-11.1603
▁apologies	-11.1603
▁appease	-11.1603
▁arrival	-11.1603
▁assault	-11.1603
▁autograph	-11.1603
▁bachelor	-11.1603
▁believing	-11.1603
▁bernadette	-11.1603
▁caribbean	-11.1603
▁catarina	-11.1603
▁caterpillar	-11.1603
▁cease	-11.1603
▁ceiling	-11.1603
▁chancho	-11.1603
▁compartment	-11.1603
▁compete	-11.1603
▁corrado	-11.1603
▁corridor	-11.1603
▁crikey	-11.1603
▁currency	-11.1603
▁despicable	-11.1603
▁dungeon	-11.1603
▁dwarf	-11.1603
▁election	-11.1603
▁enthusiasm	-11.1603
▁escaping	-11.1603
▁esteem	-11.1603
▁exclusive	-11.1603
▁exotic	-11.1603
▁extinct	-11.1603
▁fierce	-11.1603
▁fjord	-11.1603
▁fomard	-11.1603
▁frisbee	-11.1603
▁garrison	-11.1603
▁glasdale	-11.1603
▁grildrig	-11.1603
▁hamilton	-11.1603
▁handicap	-11.1603
▁ignition	-11.1603
▁imbecile	-11.1603
▁incredibly	-11.1603
▁incrediboy	-11.1603
▁intelligent	-11.1603
▁intriguing	-11.1603
▁jackpot	-11.1603
▁jordan	-11.1603
▁kumiko	-11.1603
▁librarian	-11.1603
▁livres	-11.1603
▁lucinda	-11.1603
▁mackerel	-11.1603
▁marvellous	-11.1603
▁masquerade	-11.1603
▁mccoy	-11.1603
▁meemaw	-11.1603
▁mercury	-11.1603
▁montreal	-11.1603
▁mozart	-11.1603
▁mumbai	-11.1603
▁northuldra	-11.1603
▁nuhuh	-11.1603
▁obliged	-11.1603
▁offensive	-11.1603
▁olivia	-11.1603
▁parlor	-11.1603
▁pennsylvania	-11.1603
▁perrault	-11.1603
▁phew	-11.1603
▁philadelphia	-11.1603
▁picnic	-11.1603
▁pleureur	-11.1603
▁prefect	-11.1603
▁prevail	-11.1603
▁prevent	-11.1603
▁puppet	-11.1603
▁rescuing	-11.1603
▁resembl	-11.1603
▁revoir	-11.1603
▁rifle	-11.1603
▁roadblock	-11.1603
▁rourke	-11.1603
▁scusa	-11.1603
▁selection	-11.1603
▁september	-11.1603
▁shackleton	-11.1603
▁shannon	-11.1603
▁similar	-11.1603
▁slingshot	-11.1603
▁smithsonian	-11.1603
▁spaghetti	-11.1603
▁stranded	-11.1603
▁strawberry	-11.1603
▁taylor	-11.1603
▁telegraph	-11.1603
▁tiffany	-11.1603
▁tummy	-11.1603
▁unacceptable	-11.1603
▁unpack	-11.1603
▁unpleasant	-11.1603
▁violent	-11.1603
▁barbatus	-11.1603
▁cabbage	-11.1603
▁canyon	-11.1603
▁choir	-11.1603
▁counsel	-11.1603
▁glance	-11.1603
▁grandparents	-11.1603
▁lutz	-11.1603
▁mistress	-11.1603
▁naughty	-11.1603
▁pretzels	-11.1603
▁subtle	-11.1603
▁worn	-11.1603
▁devastat	-11.1603
▁dudley	-11.1603
▁harcourt	-11.1603
▁persad	-11.1603
▁porthos	-11.1603
▁scattered	-11.1603
▁seattle	-11.1603
▁silk	-11.1603
▁snug	-11.1603
▁sensu	-11.1603
▁veteran	-11.1603
▁babbles	-11.1603
▁berger	-11.1603
▁cynic	-11.1603
▁ryan	-11.1603
▁kitch	-11.1603
destined	-11.1603
▁flunk	-11.1603
▁adopt	-11.1603
▁employee	-11.1603
▁frannie	-11.1603
▁tropic	-11.1603
▁wimp	-11.1603
▁district	-11.1603
▁cloak	-11.1603
▁jingle	-11.1603
▁isle	-11.1603
▁lottery	-11.1603
▁wizzie	-11.1603
▁pond	-11.1603
▁gloop	-11.1603
▁llama	-11.1603
▁rival	-11.1603
▁zyg	-11.1603
▁snout	-11.1603
▁stunning	-11.1603
▁pellet	-11.1603
▁racket	-11.1603
▁petrox	-11.1603
▁goddess	-11.1603
▁teeam	-11.1603
▁electronic	-11.1603
▁treves	-11.1603
▁atlas	-11.1603
▁dallas	-11.1603
▁hohoho	-11.1603
▁leiter	-11.1603
▁repay	-11.1603
▁attaboy	-11.1603
▁feature	-11.1603
▁urge	-11.1603
▁interference	-11.1603
▁alternative	-11.1603
▁valise	-11.1603
▁houston	-11.1603
▁traiala	-11.1603
▁dizzy	-11.1603
▁altogether	-11.1603
▁civilian	-11.1603
▁yummy	-11.1603
▁impostor	-11.1603
▁recess	-11.1603
▁depot	-11.1604
▁dwan	-11.1604
▁burial	-11.1604
▁lipstick	-11.1604
▁singsong	-11.1604
▁whys	-11.1604
▁institution	-11.1604
▁inspiration	-11.1604
▁terrorist	-11.1604
▁disqualified	-11.1604
▁sunny	-11.1604
▁inconvenience	-11.1604
▁piggies	-11.1604
▁pierre	-11.1604
▁devotion	-11.1604
▁icy	-11.1604
▁specifically	-11.1604
▁nerd	-11.1604
▁tinkling	-11.1604
▁eager	-11.1604
▁scow	-11.1604
▁salary	-11.1604
▁brine	-11.1604
▁quarterback	-11.1604
▁manero	-11.1604
▁divry	-11.1604
▁ginger	-11.1604
ctwi	-11.1604
▁beads	-11.1604
▁jewelry	-11.1604
▁atmosphere	-11.1604
▁brute	-11.1604
▁nancy	-11.1604
▁mummy	-11.1604
▁despise	-11.1604
▁chinon	-11.1604
▁patron	-11.1604
▁balm	-11.1605
▁venture	-11.1605
▁chitter	-11.1605
▁apex	-11.1605
▁ensure	-11.1605
▁marble	-11.1605
▁eleven	-11.1605
▁entertainment	-11.1605
▁puck	-11.1605
▁arrogant	-11.1605
▁rations	-11.1605
▁loyalty	-11.1605
▁jerry	-11.1605
▁percentage	-11.1605
▁grill	-11.1605
▁operating	-11.1605
▁poking	-11.1605
▁goyle	-11.1605
▁panties	-11.1605
▁ballroom	-11.1605
▁descend	-11.1605
▁chapel	-11.1605
▁aggressive	-11.1605
▁translate	-11.1606
▁defection	-11.1606
▁jalape	-11.1606
▁meaningful	-11.1606
▁cancelled	-11.1606
▁thou	-11.1606
▁leadership	-11.1606
▁pratt	-11.1606
▁reaction	-11.1606
▁chinaman	-11.1606
▁starboard	-11.1606
▁poof	-11.1606
▁june	-11.1606
▁soil	-11.1606
▁communicate	-11.1606
▁university	-11.1606
▁grandson	-11.1607
▁dwell	-11.1607
▁nora	-11.1607
▁saddle	-11.1607
llyho	-11.1607
▁lust	-11.1607
▁version	-11.1607
▁irish	-11.1607
▁admiral	-11.1607
▁porch	-11.1607
▁countdown	-11.1608
▁exhausting	-11.1608
▁oooh	-11.1608
▁yearbook	-11.1608
▁beau	-11.1609
▁grease	-11.1609
▁sisterinlaw	-11.1609
▁snappy	-11.1609
▁jab	-11.1609
▁amber	-11.1609
▁brotherinlaw	-11.161
▁pail	-11.161
▁ramp	-11.161
▁brandt	-11.161
▁fashionable	-11.161
▁stunt	-11.161
▁household	-11.1611
▁halen	-11.1611
▁rug	-11.1611
nez	-11.1611
▁temporary	-11.1612
▁superheroes	-11.1612
▁trophy	-11.1612
▁expression	-11.1612
▁appli	-11.1612
▁breakdown	-11.1612
▁fabric	-11.1612
▁species	-11.1612
▁entry	-11.1613
▁scanner	-11.1613
▁tapping	-11.1613
▁mill	-11.1613
▁related	-11.1614
▁spies	-11.1614
▁hacker	-11.1615
▁agreement	-11.1615
▁cannonballers	-11.1615
▁battery	-11.1615
▁earl	-11.1615
▁improved	-11.1616
boat	-11.1616
▁watchdog	-11.1616
▁scale	-11.1616
▁charter	-11.1616
▁digit	-11.1617
▁correction	-11.1617
inco	-11.1618
▁bravery	-11.1618
▁ranch	-11.1619
▁ascen	-11.1619
▁loosen	-11.162
▁reply	-11.162
▁crou	-11.1621
▁muggleborns	-11.1621
▁tempos	-11.1621
▁broad	-11.1622
▁sandwiches	-11.1622
▁hup	-11.1622
▁strangle	-11.1622
▁appetite	-11.1622
▁atta	-11.1622
▁wolfie	-11.1623
▁maca	-11.1623
▁reduce	-11.1623
▁vile	-11.1623
▁attracted	-11.1623
▁drawers	-11.1624
▁sledge	-11.1624
▁grumbling	-11.1624
▁crunching	-11.1625
▁fork	-11.1625
▁fist	-11.1625
▁humiliated	-11.1625
▁pale	-11.1626
▁crashes	-11.1626
▁hunger	-11.1627
▁englishman	-11.1629
▁fleet	-11.1629
▁sweater	-11.1629
▁revealed	-11.163
▁discovery	-11.1632
▁clanking	-11.1633
▁advised	-11.1633
▁madness	-11.1636
▁bass	-11.1636
▁dragged	-11.1637
ulation	-11.1637
▁triplet	-11.1637
▁shells	-11.1639
▁twister	-11.164
cock	-11.164
▁barry	-11.1641
▁keen	-11.1641
▁spilled	-11.1641
▁wounded	-11.1641
▁newsman	-11.1642
ets	-11.1644
▁barn	-11.1644
▁tow	-11.1645
▁beaten	-11.1645
▁lowest	-11.1646
▁yale	-11.1646
▁tender	-11.1647
▁robbed	-11.1648
▁anto	-11.1649
▁ruler	-11.1649
▁caroline	-11.1651
▁oughta	-11.1651
▁adviser	-11.1651
▁awaits	-11.1652
▁obstacles	-11.1652
▁fireworks	-11.1652
▁emotions	-11.1652
▁spine	-11.1655
▁gorge	-11.1655
▁halflings	-11.1655
▁businessman	-11.1655
▁sewing	-11.1657
▁sacre	-11.1658
▁stayne	-11.1658
▁lawn	-11.1664
▁awarded	-11.1666
▁leaking	-11.1668
▁eyeball	-11.1668
▁erase	-11.1669
▁assured	-11.167
▁chan	-11.1671
▁stayton	-11.1673
▁proposed	-11.1674
▁palmer	-11.1675
headed	-11.1676
▁passes	-11.1682
▁gents	-11.1683
▁spooks	-11.1684
▁attended	-11.1689
▁sto	-11.169
▁walker	-11.1691
▁darned	-11.1695
▁alter	-11.1696
▁funding	-11.17
▁rightful	-11.1701
▁screwed	-11.1701
yard	-11.1702
▁responding	-11.1702
▁weeping	-11.1703
▁earned	-11.1704
ometer	-11.1705
▁brownies	-11.1705
▁porter	-11.1706
▁twisted	-11.1709
▁sinking	-11.1711
▁princesses	-11.1711
▁howdy	-11.1715
▁burps	-11.1716
▁socks	-11.1716
▁pups	-11.1717
▁sets	-11.1717
▁honesty	-11.1718
▁scam	-11.1723
▁detect	-11.1726
▁denying	-11.1728
▁did	-11.1735
▁maniac	-11.1736
owned	-11.1736
▁freaked	-11.1739
▁comeay	-11.174
▁consult	-11.1741
▁teenagers	-11.1748
▁endure	-11.1748
▁sheets	-11.1748
▁donate	-11.1749
gger	-11.1754
▁intended	-11.1754
▁faithful	-11.1756
▁neg	-11.1759
▁designer	-11.1768
▁peed	-11.1769
▁destroyer	-11.1771
▁fee	-11.1775
▁arrows	-11.1781
▁mingotts	-11.1781
▁rumors	-11.1781
▁speedy	-11.1784
▁souls	-11.1787
▁straps	-11.179
▁pati	-11.1795
▁greatness	-11.1802
▁sadly	-11.1803
▁nanny	-11.1803
▁climbed	-11.1803
lan	-11.1803
▁cond	-11.1805
▁ricky	-11.1809
▁import	-11.181
▁requires	-11.1813
▁walks	-11.1813
▁sensations	-11.1813
▁seagulls	-11.1813
▁affections	-11.1813
▁oot	-11.1827
▁whoop	-11.1837
▁crowned	-11.1839
▁dreamt	-11.1839
▁limbs	-11.1846
▁details	-11.1846
▁complaints	-11.1847
ara	-11.1858
▁slams	-11.1869
▁dashing	-11.1876
▁ghosts	-11.1878
▁items	-11.1878
▁chains	-11.1879
ington	-11.1883
▁thy	-11.189
▁lighter	-11.1899
▁underestimate	-11.1904
▁marked	-11.1909
▁trunks	-11.1911
▁tolerate	-11.1915
▁makeup	-11.1922
▁pav	-11.193
▁agreeing	-11.1937
▁clowns	-11.1944
▁awards	-11.1944
▁cable	-11.1945
▁fl	-11.1959
▁cosmo	-11.196
▁warp	-11.1961
▁poo	-11.1962
▁yiyou	-11.1963
▁tease	-11.1964
▁holdin	-11.1964
book	-11.1965
▁wizards	-11.197
▁timeout	-11.1971
▁magazines	-11.1976
▁shields	-11.1976
nox	-11.198
artac	-11.2004
▁creaks	-11.2006
▁explodes	-11.2006
▁quarters	-11.2008
▁jets	-11.2012
▁guarded	-11.2014
▁min	-11.2033
▁glows	-11.2039
rie	-11.2039
▁costumes	-11.2042
▁traitors	-11.2042
▁dressing	-11.2044
▁catchy	-11.2052
▁speeding	-11.2058
pping	-11.2068
▁mars	-11.2072
▁professionals	-11.2075
▁skate	-11.208
▁stor	-11.2085
▁budge	-11.2091
lite	-11.2091
▁crossed	-11.2093
▁pea	-11.2097
ran	-11.21
guff	-11.2103
▁adults	-11.2108
▁pigeons	-11.2108
▁bounce	-11.211
▁av	-11.2113
▁punish	-11.2117
▁goons	-11.2119
▁site	-11.2122
ou	-11.2127
▁shadows	-11.2141
omm	-11.2149
▁values	-11.2169
▁swan	-11.2197
hi	-11.2198
▁pas	-11.2214
ppy	-11.2218
▁freed	-11.2221
▁mouthing	-11.2238
▁nin	-11.2251
▁maker	-11.2251
obe	-11.2258
▁adore	-11.226
▁flames	-11.2274
gg	-11.228
ably	-11.2284
▁yards	-11.2308
▁miracles	-11.2308
▁cubs	-11.2315
ripped	-11.2323
ral	-11.2334
▁mums	-11.2345
▁pent	-11.2348
▁badges	-11.2348
▁believes	-11.2357
br	-11.2366
▁pauls	-11.2375
▁sor	-11.2376
▁kat	-11.2376
let	-11.2389
▁hairs	-11.2395
▁wrinkle	-11.2407
▁odds	-11.2408
▁purchase	-11.2409
▁sna	-11.2415
▁qua	-11.2429
▁tours	-11.2442
▁formal	-11.2467
▁regrets	-11.2474
▁accounts	-11.2476
▁actions	-11.2476
▁regrett	-11.2486
▁je	-11.2489
hoohoo	-11.2489
▁bett	-11.2489
▁shots	-11.249
lez	-11.2515
▁beh	-11.2531
ford	-11.2535
▁ur	-11.2539
mine	-11.2545
▁goo	-11.2547
▁mash	-11.2551
▁teams	-11.2557
▁aa	-11.2561
▁pear	-11.2565
▁ri	-11.2571
▁coaching	-11.2576
▁dab	-11.258
▁returns	-11.259
gh	-11.26
▁characters	-11.2612
ament	-11.2619
ooh	-11.2631
net	-11.2636
▁organ	-11.2639
▁blocks	-11.2645
ahs	-11.2647
▁ann	-11.2649
▁whale	-11.2655
▁determin	-11.266
▁wrappe	-11.2675
▁gri	-11.2691
▁pros	-11.2732
ged	-11.2739
▁views	-11.2746
▁sprinkle	-11.2761
▁drives	-11.2761
▁pets	-11.2762
▁birthdays	-11.277
ud	-11.2779
▁hiya	-11.278
atic	-11.2784
▁sizes	-11.2817
▁computers	-11.2818
▁rel	-11.282
▁dundund	-11.2833
▁unh	-11.285
duct	-11.2851
▁planets	-11.2864
mu	-11.2869
bit	-11.2892
aries	-11.2897
▁ter	-11.2916
▁noises	-11.2922
ail	-11.2934
▁pap	-11.294
▁nu	-11.2971
▁sincere	-11.2971
▁uno	-11.3007
▁accidents	-11.3023
▁cousins	-11.3026
▁parad	-11.3027
▁cakes	-11.3027
ft	-11.3042
▁beats	-11.3044
▁pac	-11.3044
amas	-11.3085
yah	-11.3103
ative	-11.3104
ction	-11.3143
jo	-11.3145
▁chee	-11.3162
▁br	-11.3172
▁ai	-11.3183
▁bever	-11.3236
▁mass	-11.3242
▁cod	-11.3251
ado	-11.3251
cer	-11.3256
▁mes	-11.3258
ert	-11.3263
▁anhe	-11.3283
▁magnet	-11.3287
vy	-11.3289
ock	-11.3292
▁virgin	-11.3298
ito	-11.3301
read	-11.3304
▁qui	-11.3315
ux	-11.3315
leys	-11.3319
▁persons	-11.3347
pier	-11.3349
ang	-11.3356
▁bul	-11.3356
lines	-11.3357
light	-11.3367
▁seventy	-11.3373
▁reveal	-11.3379
▁repair	-11.3385
▁owes	-11.3389
▁refer	-11.3394
▁shriek	-11.3394
▁her	-11.3395
▁whisper	-11.3395
▁locks	-11.3398
▁vessel	-11.3412
▁ribbon	-11.3412
▁whwhat	-11.3413
▁favourite	-11.3413
▁yung	-11.3413
▁daydream	-11.3414
▁shares	-11.3415
▁sheep	-11.3418
▁product	-11.3419
▁generation	-11.3422
▁ninja	-11.3424
▁gag	-11.3425
▁moron	-11.3426
▁superpower	-11.3426
▁sneeze	-11.3427
▁teenager	-11.3429
▁brat	-11.3429
▁sheet	-11.3429
▁gadget	-11.3431
▁companion	-11.3431
oka	-11.3431
▁candle	-11.3432
▁nigger	-11.3433
▁cupcake	-11.3436
▁element	-11.3437
▁diamond	-11.3437
▁shade	-11.3439
▁stair	-11.3441
▁beside	-11.3442
▁alien	-11.3445
▁minion	-11.3445
▁skill	-11.3446
▁greaser	-11.345
▁sixty	-11.3451
▁robe	-11.3454
▁wars	-11.3454
▁fright	-11.3459
▁customer	-11.3461
rant	-11.3469
rick	-11.348
▁terror	-11.3482
▁gunfight	-11.3488
▁shel	-11.349
▁vow	-11.3494
▁civil	-11.3494
▁pals	-11.3499
lio	-11.3504
▁lung	-11.3511
▁mourn	-11.3512
▁vel	-11.353
▁logic	-11.3537
▁compar	-11.3537
train	-11.3542
▁vac	-11.3546
▁fr	-11.3547
work	-11.3549
▁thrill	-11.3552
stage	-11.3553
▁figur	-11.3557
▁chirp	-11.3559
▁retro	-11.356
▁convert	-11.3562
▁flatter	-11.3563
▁whiz	-11.3564
two	-11.3566
break	-11.3567
rel	-11.3568
speed	-11.3569
▁soak	-11.3569
▁accomplish	-11.3569
▁install	-11.357
sky	-11.3573
minded	-11.3573
▁herman	-11.3575
cream	-11.3576
flavored	-11.3576
bird	-11.3576
zero	-11.3577
▁bail	-11.3578
rusty	-11.3578
fleet	-11.3579
▁divide	-11.358
juice	-11.358
opening	-11.358
secret	-11.358
▁crust	-11.3581
argh	-11.3581
▁describe	-11.3581
pick	-11.3581
fall	-11.3582
▁capture	-11.3582
who	-11.3583
food	-11.3583
comb	-11.3583
▁filth	-11.3585
▁inventor	-11.3586
▁engage	-11.3586
▁instant	-11.3586
bones	-11.3586
▁thirst	-11.3587
▁vanish	-11.3588
▁precise	-11.3588
▁immediate	-11.3588
▁successful	-11.359
rid	-11.359
▁intensi	-11.3593
▁jib	-11.3594
▁restrain	-11.3595
▁brook	-11.3596
▁mode	-11.3596
▁flee	-11.3597
▁czechoslovakia	-11.3597
▁villa	-11.3597
▁guap	-11.3599
▁fregley	-11.3599
▁axe	-11.3599
▁gigant	-11.36
▁brid	-11.36
▁violat	-11.3601
▁scandal	-11.3601
▁assign	-11.3601
▁smooch	-11.3601
uv	-11.3602
▁confide	-11.3602
▁iso	-11.3602
▁grav	-11.3602
▁temple	-11.3602
▁compassion	-11.3602
▁drama	-11.3603
▁squid	-11.3603
▁electro	-11.3603
shire	-11.3603
▁regina	-11.3603
▁adjust	-11.3603
▁excel	-11.3603
ncarna	-11.3603
▁impertinen	-11.3603
hurst	-11.3603
▁abducted	-11.3603
▁acrophobia	-11.3603
▁ambassador	-11.3603
▁arachnneka	-11.3603
▁arturo	-11.3603
▁association	-11.3603
▁autumn	-11.3603
▁banzai	-11.3603
▁baudricourt	-11.3603
▁beehive	-11.3603
▁behaviour	-11.3603
▁bristlemoss	-11.3603
▁broomstick	-11.3603
▁bryce	-11.3603
▁chandelier	-11.3603
▁chestnut	-11.3603
▁claire	-11.3603
▁clevedon	-11.3603
▁coconut	-11.3603
▁complication	-11.3603
▁conflict	-11.3603
▁confusing	-11.3603
▁congratulate	-11.3603
▁cuckoo	-11.3603
▁custody	-11.3603
▁datsun	-11.3603
▁diagon	-11.3603
▁dinobirds	-11.3603
▁dinobots	-11.3603
▁discount	-11.3603
▁disengage	-11.3603
▁dumdum	-11.3603
▁earhart	-11.3603
▁easley	-11.3603
▁elastigirl	-11.3603
▁elegant	-11.3603
▁encounter	-11.3603
▁fanfare	-11.3603
▁fawkes	-11.3603
▁feminine	-11.3603
▁fireflies	-11.3603
▁glitter	-11.3603
▁graduation	-11.3603
▁gulf	-11.3603
▁heavier	-11.3603
▁hedgehog	-11.3603
▁hickory	-11.3603
▁honeysuckle	-11.3603
▁hysteria	-11.3603
▁innovation	-11.3603
▁insignificant	-11.3603
▁intellect	-11.3603
▁invasion	-11.3603
▁jefferson	-11.3603
▁jonathan	-11.3603
▁kamishin	-11.3603
▁kazoo	-11.3603
▁lacrosse	-11.3603
▁lamarr	-11.3603
▁letterblair	-11.3603
▁lillian	-11.3603
▁lullaby	-11.3603
▁luxury	-11.3603
▁lyrics	-11.3603
▁mammoth	-11.3603
▁maneuver	-11.3603
▁manhattan	-11.3603
▁maurier	-11.3603
▁merchandise	-11.3603
▁miniaturization	-11.3603
▁mmmmmm	-11.3603
▁moscow	-11.3603
▁mutiny	-11.3603
▁nelson	-11.3603
▁nephew	-11.3603
▁nermal	-11.3603
▁participate	-11.3603
▁phantom	-11.3603
▁pistol	-11.3603
▁pluck	-11.3603
▁possibilities	-11.3603
▁possum	-11.3603
▁profile	-11.3603
▁provisions	-11.3603
▁quinn	-11.3603
▁raven	-11.3603
▁reentry	-11.3603
▁reptile	-11.3603
▁rupees	-11.3603
▁scope	-11.3603
▁shakespeare	-11.3603
▁shanghai	-11.3603
▁shenzi	-11.3603
▁skunk	-11.3603
▁snarling	-11.3603
▁sodapop	-11.3603
▁sorrow	-11.3603
▁spiderwick	-11.3603
▁spyglass	-11.3603
▁stavros	-11.3603
▁stockbroker	-11.3603
▁surveillance	-11.3603
▁symbol	-11.3603
▁sympathy	-11.3603
▁telegram	-11.3603
▁teresa	-11.3603
▁therapist	-11.3603
▁thirteen	-11.3603
▁thunderstorms	-11.3603
▁ticktock	-11.3603
▁timothy	-11.3603
▁tofutti	-11.3603
▁translation	-11.3603
▁translator	-11.3603
▁twerp	-11.3603
▁twilight	-11.3603
▁umbrella	-11.3603
▁unconventional	-11.3603
▁venom	-11.3603
▁verdict	-11.3603
▁villapianos	-11.3603
▁virtue	-11.3603
▁walnut	-11.3603
▁windshield	-11.3603
▁wwwait	-11.3603
▁yippee	-11.3603
▁beetle	-11.3603
▁brooklyn	-11.3603
▁calculations	-11.3603
▁croods	-11.3603
▁departing	-11.3603
▁deploy	-11.3603
▁heinous	-11.3603
▁infant	-11.3603
▁marshmallow	-11.3603
▁meditat	-11.3603
▁motel	-11.3603
▁neglect	-11.3603
▁sermon	-11.3603
▁shampoo	-11.3603
▁slave	-11.3603
▁squish	-11.3603
▁stoked	-11.3603
▁virtual	-11.3603
▁blighter	-11.3603
▁canvas	-11.3603
▁comprehend	-11.3603
▁flexible	-11.3603
▁hound	-11.3603
▁hyperventilat	-11.3603
▁pastuzo	-11.3603
▁philip	-11.3603
▁reign	-11.3603
▁sherman	-11.3603
▁buffalo	-11.3603
▁crisp	-11.3603
▁licence	-11.3603
▁pollito	-11.3603
▁selene	-11.3603
▁kyle	-11.3603
▁memorize	-11.3603
▁requirements	-11.3603
▁blizzard	-11.3603
▁sofie	-11.3603
▁caviar	-11.3603
▁jules	-11.3603
▁measuring	-11.3603
▁doris	-11.3603
▁imperial	-11.3603
▁obrien	-11.3603
▁streak	-11.3603
▁twinkie	-11.3603
▁embrace	-11.3603
▁irritat	-11.3603
▁isolation	-11.3603
▁scalp	-11.3603
▁pilgrimtown	-11.3603
▁adapt	-11.3603
▁congress	-11.3603
▁mongolia	-11.3603
▁flock	-11.3603
▁gogol	-11.3603
▁matienne	-11.3603
▁breach	-11.3603
▁nobel	-11.3603
▁teammates	-11.3603
▁excess	-11.3603
▁sorcer	-11.3603
▁upsies	-11.3603
from	-11.3603
▁courtesy	-11.3603
▁bosom	-11.3603
▁arrey	-11.3603
▁hawks	-11.3603
▁ignorant	-11.3603
▁network	-11.3603
▁agony	-11.3603
▁forbid	-11.3603
▁frivida	-11.3603
▁substance	-11.3603
▁conviction	-11.3603
▁obligation	-11.3603
▁opium	-11.3603
▁tralalaaa	-11.3603
▁representative	-11.3603
▁superstition	-11.3603
▁girdle	-11.3603
▁floyd	-11.3603
▁stump	-11.3603
▁fannie	-11.3603
▁yancy	-11.3603
▁analysis	-11.3603
▁whack	-11.3603
▁humiliating	-11.3603
▁egyptian	-11.3603
▁goofy	-11.3603
▁upgrade	-11.3603
▁maniacally	-11.3603
▁climate	-11.3603
▁gulli	-11.3603
▁inaudible	-11.3604
▁canada	-11.3604
▁franco	-11.3604
▁reservation	-11.3604
▁promote	-11.3604
▁polar	-11.3604
▁outcast	-11.3604
▁ivan	-11.3604
▁laptop	-11.3604
▁mongo	-11.3604
▁ambition	-11.3604
▁slice	-11.3604
▁denial	-11.3604
▁heap	-11.3604
▁marseilles	-11.3604
▁poodleton	-11.3604
▁follerin	-11.3604
▁stroll	-11.3604
▁password	-11.3604
▁allright	-11.3604
▁exposed	-11.3604
▁whereabouts	-11.3604
▁sector	-11.3604
▁defence	-11.3604
▁gambling	-11.3604
▁zeke	-11.3604
▁norby	-11.3604
▁committing	-11.3604
▁whipped	-11.3604
▁choking	-11.3604
▁automatically	-11.3604
▁tidy	-11.3604
▁dumpster	-11.3604
▁independent	-11.3604
▁oilcan	-11.3604
▁raid	-11.3604
▁villaincon	-11.3604
▁jock	-11.3604
▁yonder	-11.3604
▁whim	-11.3604
▁jason	-11.3604
▁spray	-11.3604
▁dustpan	-11.3604
▁thaw	-11.3604
▁plato	-11.3604
▁pulse	-11.3604
▁wheat	-11.3604
▁depression	-11.3604
▁brad	-11.3604
▁amigo	-11.3604
▁blend	-11.3604
▁poetry	-11.3604
▁worthwhile	-11.3604
▁forehead	-11.3605
▁motto	-11.3605
▁rehearse	-11.3605
▁supreme	-11.3605
▁patent	-11.3605
▁buffet	-11.3605
▁mutters	-11.3605
▁arena	-11.3605
▁adjustment	-11.3605
▁hahahaha	-11.3605
▁cement	-11.3605
▁allergic	-11.3605
▁draft	-11.3605
▁multi	-11.3605
▁portland	-11.3605
▁tread	-11.3605
▁beginner	-11.3605
▁disturbance	-11.3605
▁spiritual	-11.3605
▁tram	-11.3605
▁development	-11.3605
▁utter	-11.3605
▁battlefield	-11.3605
▁wright	-11.3605
▁curb	-11.3605
handed	-11.3605
▁sweatshirt	-11.3605
▁twostroke	-11.3606
▁firing	-11.3606
▁despi	-11.3606
▁kari	-11.3606
▁earring	-11.3606
▁harness	-11.3606
▁testify	-11.3606
▁profound	-11.3606
▁bonnet	-11.3606
▁existence	-11.3606
▁chalo	-11.3606
▁examine	-11.3606
▁caramel	-11.3606
▁aaaaaa	-11.3606
▁structure	-11.3606
▁propriet	-11.3606
▁reflexes	-11.3606
▁wiggle	-11.3606
▁observation	-11.3606
▁onion	-11.3606
▁underworld	-11.3606
▁internal	-11.3606
▁meaningless	-11.3607
▁copies	-11.3607
▁bulldog	-11.3607
▁voil	-11.3607
▁bodies	-11.3607
▁stallion	-11.3607
▁arise	-11.3607
pture	-11.3607
affe	-11.3607
▁construction	-11.3607
▁embarrassment	-11.3607
▁ryder	-11.3607
terior	-11.3607
▁broom	-11.3607
▁follered	-11.3607
▁gobble	-11.3607
▁crop	-11.3607
▁alex	-11.3607
▁dried	-11.3607
▁grain	-11.3607
▁justin	-11.3607
▁mortal	-11.3608
▁passport	-11.3608
▁buh	-11.3608
▁waterfall	-11.3608
▁christian	-11.3608
raving	-11.3608
▁gateway	-11.3608
▁goalie	-11.3608
▁wedgie	-11.3608
▁caval	-11.3608
▁cuban	-11.3608
▁stung	-11.3609
▁pla	-11.3609
▁semi	-11.3609
▁triba	-11.3609
▁valor	-11.3609
▁timber	-11.3609
▁stern	-11.3609
▁nursery	-11.3609
▁mercenary	-11.3609
▁cair	-11.361
▁mini	-11.361
▁oof	-11.361
▁curve	-11.361
▁pinkie	-11.361
▁senator	-11.361
▁honourable	-11.3611
▁scarce	-11.3611
▁soar	-11.3611
▁objection	-11.3611
▁priceless	-11.3611
▁drift	-11.3611
▁hover	-11.3611
▁belief	-11.3611
▁temperature	-11.3612
▁teasing	-11.3612
▁pew	-11.3612
▁rive	-11.3613
▁emory	-11.3613
▁alongside	-11.3613
▁invader	-11.3614
oise	-11.3614
▁dice	-11.3614
▁consideration	-11.3614
▁woop	-11.3614
▁suspended	-11.3614
▁mechanic	-11.3614
▁booby	-11.3614
▁godspeed	-11.3615
▁anwe	-11.3615
▁esp	-11.3615
▁spank	-11.3615
▁maiden	-11.3615
▁achieved	-11.3616
▁dedicated	-11.3616
▁deeds	-11.3616
▁settlement	-11.3616
▁publicity	-11.3616
▁headache	-11.3616
▁brooke	-11.3617
▁coma	-11.3617
▁holly	-11.3617
▁rump	-11.3617
▁obsessed	-11.3617
▁producer	-11.3617
▁feat	-11.3618
▁gunter	-11.3619
▁surrounding	-11.3619
▁amongst	-11.3619
▁pem	-11.3619
▁resolved	-11.362
▁hospitality	-11.362
▁dug	-11.362
▁statement	-11.362
▁shushes	-11.362
▁successfully	-11.362
▁clapping	-11.3621
▁pokee	-11.3621
▁fold	-11.3621
▁crooked	-11.3621
▁depressed	-11.3621
▁metro	-11.3622
▁yearold	-11.3622
▁mayday	-11.3622
▁occupied	-11.3622
▁strengthen	-11.3623
▁voted	-11.3624
▁superb	-11.3624
▁flop	-11.3624
▁hookers	-11.3625
▁pharaohs	-11.3625
▁colossal	-11.3626
▁tech	-11.3626
▁hideous	-11.3626
▁vain	-11.3626
▁cranky	-11.3627
▁gil	-11.3627
▁ahold	-11.3627
▁troy	-11.3628
▁faraway	-11.3628
▁melon	-11.3628
▁grape	-11.3629
▁attached	-11.3629
▁confirmed	-11.3629
▁define	-11.3629
▁overwhelming	-11.3629
▁bleating	-11.363
▁controlled	-11.3631
▁excellency	-11.3631
▁joyous	-11.3631
▁clearance	-11.3632
wee	-11.3634
▁wetter	-11.3635
▁whore	-11.3635
tore	-11.3636
▁pawn	-11.3636
▁brass	-11.3638
▁cuteness	-11.3638
▁jay	-11.3638
▁pointless	-11.3638
▁diving	-11.3639
▁blod	-11.3639
born	-11.364
▁taco	-11.364
▁freezer	-11.364
▁wiser	-11.364
▁flushing	-11.364
▁indi	-11.3641
▁betsy	-11.3641
▁pine	-11.3641
▁whoaoh	-11.3642
▁shipment	-11.3643
▁popping	-11.3644
▁eighth	-11.3645
▁grub	-11.3646
▁frenchman	-11.3647
▁threaten	-11.3647
▁backstage	-11.3648
wed	-11.3649
▁skipping	-11.3649
▁honk	-11.3651
▁sweetness	-11.3651
▁careless	-11.3652
▁bawl	-11.3653
▁advertis	-11.3653
▁andy	-11.3653
▁maximu	-11.3654
lip	-11.3654
▁melted	-11.3654
▁physically	-11.3658
mobile	-11.3659
▁asses	-11.3659
▁sous	-11.3661
▁yiit	-11.3662
▁ignored	-11.3662
▁flooding	-11.3662
▁mend	-11.3662
▁donuts	-11.3664
▁neighbours	-11.3664
▁sponsors	-11.3664
▁tattoos	-11.3664
▁bestow	-11.3664
▁snores	-11.3664
▁fang	-11.3664
▁taser	-11.3665
atta	-11.3667
▁flights	-11.3668
▁hah	-11.367
▁buns	-11.367
▁jr	-11.367
▁guaranteed	-11.3671
▁rainin	-11.3671
▁admired	-11.3671
▁blinking	-11.3672
▁matches	-11.3673
▁mmmm	-11.3674
ulu	-11.3677
▁baa	-11.3679
▁wiped	-11.368
▁embarrassed	-11.3681
▁obeying	-11.3683
▁frame	-11.3687
▁hogs	-11.3687
▁plum	-11.3688
▁teaches	-11.3689
▁anthat	-11.369
▁pace	-11.3691
▁suspected	-11.3695
▁distracted	-11.3695
▁identi	-11.3696
zy	-11.3696
▁picks	-11.3698
▁takeoff	-11.37
▁binder	-11.3702
▁knots	-11.3703
▁exceptional	-11.3704
▁handcuffs	-11.3704
▁roosters	-11.3704
▁methods	-11.3704
▁leftovers	-11.3704
▁bolts	-11.3704
▁performing	-11.3704
▁crosses	-11.3705
▁permanently	-11.3708
weed	-11.3708
▁moans	-11.3709
▁civiliz	-11.3709
▁allie	-11.3709
▁photographed	-11.371
▁gown	-11.3711
▁correctly	-11.3712
▁pouring	-11.3714
▁grr	-11.3715
▁yelled	-11.3719
▁pounding	-11.3719
▁posters	-11.372
▁recognized	-11.372
▁jealousy	-11.372
▁honoured	-11.3724
▁stretched	-11.3725
▁sweetest	-11.3726
▁rooting	-11.3727
▁transferr	-11.3728
ach	-11.373
▁ord	-11.3733
▁rewind	-11.3733
▁cheated	-11.3735
▁flowing	-11.3736
▁sams	-11.3737
▁broo	-11.3741
▁jewels	-11.3743
▁blisters	-11.3744
▁crocodiles	-11.3744
▁pranks	-11.3744
▁mudbloods	-11.3744
▁involves	-11.3746
▁decade	-11.3749
▁explorer	-11.3753
▁mating	-11.3767
▁op	-11.377
date	-11.377
▁graceful	-11.3776
▁pooping	-11.378
▁treaty	-11.378
▁awe	-11.378
▁polish	-11.3781
▁vows	-11.3782
▁lungs	-11.3784
▁superpowers	-11.3784
▁thruster	-11.379
▁sucking	-11.3793
▁bathed	-11.3797
▁lifted	-11.3799
▁gardener	-11.3801
▁zoom	-11.3804
▁bra	-11.3804
▁taped	-11.3807
▁chester	-11.3809
▁karates	-11.3813
witz	-11.3813
▁skipp	-11.3818
mical	-11.3823
▁comments	-11.3824
▁spears	-11.3824
▁crickets	-11.3824
▁meteors	-11.3824
▁conve	-11.3831
▁messy	-11.3834
tors	-11.3838
form	-11.3838
▁tracked	-11.3839
sical	-11.3841
semit	-11.3843
▁charts	-11.3849
▁glue	-11.385
▁tomo	-11.3854
▁praying	-11.3856
▁suggested	-11.3858
uck	-11.3861
▁washing	-11.3866
▁milli	-11.3875
ckles	-11.3877
lic	-11.3888
umble	-11.3891
▁gifted	-11.3892
▁needle	-11.3893
▁colored	-11.3903
▁stra	-11.3905
▁clients	-11.3905
▁curtains	-11.3905
▁shores	-11.3905
▁occasions	-11.3905
▁grubers	-11.3908
▁tricked	-11.3909
▁locate	-11.391
▁nations	-11.3917
▁relocat	-11.393
▁remarks	-11.3946
▁hunted	-11.395
▁captiv	-11.3953
▁combat	-11.3956
▁rounded	-11.3957
hy	-11.396
▁respected	-11.3963
▁fri	-11.3969
▁repeating	-11.3985
▁manuals	-11.3986
▁relationships	-11.3987
▁weighs	-11.3988
▁corps	-11.3996
▁ken	-11.4003
▁wes	-11.4006
▁fasten	-11.4013
zing	-11.4013
▁coins	-11.4026
▁cannons	-11.4027
▁scenes	-11.4028
▁motors	-11.4029
▁pins	-11.4031
▁grah	-11.4036
▁seated	-11.404
rance	-11.4041
nu	-11.4042
▁wart	-11.4049
▁cocks	-11.4057
▁negotiate	-11.4058
▁retrieve	-11.4061
▁playin	-11.4063
▁belonged	-11.4068
▁savages	-11.4069
▁cracks	-11.4075
▁importantly	-11.4082
door	-11.4082
about	-11.409
▁off	-11.4091
▁slo	-11.4091
tto	-11.4092
cent	-11.4094
▁muj	-11.4103
▁subjects	-11.411
▁artists	-11.411
▁tags	-11.411
▁lightly	-11.411
▁bumps	-11.411
▁naive	-11.4113
made	-11.4128
▁mates	-11.4132
▁pains	-11.4133
▁dolls	-11.4134
passionate	-11.4134
▁oka	-11.414
▁contra	-11.4147
▁andrews	-11.4151
▁slapp	-11.4162
▁ports	-11.4166
sible	-11.4182
▁om	-11.4191
▁laying	-11.4191
ode	-11.4213
ast	-11.4216
▁thumbs	-11.4219
▁indians	-11.4225
lings	-11.4234
▁experiments	-11.4234
▁drops	-11.4234
ind	-11.4242
wah	-11.4243
▁recorded	-11.425
bon	-11.4256
llo	-11.4261
▁vin	-11.4275
▁oranges	-11.4275
▁kit	-11.4275
▁finishing	-11.4277
▁kra	-11.429
▁digest	-11.4295
ification	-11.4301
▁dart	-11.4302
aka	-11.4307
ples	-11.4308
▁welland	-11.4308
rim	-11.431
▁kittens	-11.4317
▁scarecrows	-11.4317
▁dar	-11.4321
iar	-11.4323
gi	-11.4323
▁bu	-11.4328
▁tables	-11.4339
eggie	-11.4339
zed	-11.4343
ym	-11.4345
▁farts	-11.4349
▁defenses	-11.4359
▁ministers	-11.4359
▁tanks	-11.4359
youre	-11.4367
▁spr	-11.4371
ko	-11.4397
▁nightmares	-11.4401
▁coats	-11.4402
▁fixing	-11.4403
ils	-11.4411
▁af	-11.4429
▁presenting	-11.4433
nose	-11.4441
▁efforts	-11.4443
▁rev	-11.4448
▁com	-11.4467
▁columns	-11.4485
lts	-11.449
ats	-11.4493
▁rogers	-11.4527
ood	-11.4536
ua	-11.4538
aught	-11.4544
▁holder	-11.4549
▁ordering	-11.4551
▁packing	-11.4568
▁vis	-11.4568
▁wal	-11.4572
hel	-11.4574
▁dearly	-11.4605
▁lively	-11.4607
war	-11.461
▁apartments	-11.4612
▁interests	-11.4619
▁reporters	-11.4626
▁cjs	-11.4632
eth	-11.4633
llis	-11.4636
▁smokes	-11.4645
▁fami	-11.4649
▁asteroids	-11.4654
▁sales	-11.4659
▁carrie	-11.4676
rus	-11.4676
ask	-11.4689
▁bre	-11.4689
▁handy	-11.4697
▁cameras	-11.4697
▁kei	-11.4716
ner	-11.4726
▁troubles	-11.4732
▁seasons	-11.474
▁bel	-11.4758
▁questioning	-11.4764
coon	-11.4788
▁pest	-11.4796
▁loo	-11.4799
tub	-11.4801
▁blues	-11.4834
▁distinct	-11.4865
kline	-11.4877
▁bak	-11.4886
▁seas	-11.4892
cola	-11.4906
▁batter	-11.4906
▁sca	-11.4911
▁hagrids	-11.4912
▁kni	-11.493
▁ker	-11.4933
▁pursue	-11.4936
▁mano	-11.4939
▁spa	-11.494
lli	-11.4942
beth	-11.4945
nda	-11.4946
ex	-11.4954
▁bothers	-11.4961
▁reader	-11.4964
rue	-11.4977
▁breaths	-11.4994
acy	-11.4997
▁mikes	-11.5001
astic	-11.5002
chur	-11.5031
abby	-11.5059
oc	-11.507
▁penne	-11.507
▁stud	-11.507
iled	-11.5072
▁alarms	-11.5075
gon	-11.5076
▁magn	-11.5086
shaped	-11.5094
amari	-11.5096
▁mai	-11.5108
ato	-11.5119
mes	-11.5126
ov	-11.5126
▁spells	-11.5171
take	-11.5183
reliable	-11.5188
pie	-11.5191
▁shin	-11.5198
hoohoohoo	-11.5198
itious	-11.5199
▁prima	-11.5213
▁gra	-11.5224
ture	-11.5226
▁cooks	-11.5227
▁tar	-11.5229
posed	-11.5238
▁pom	-11.5249
hold	-11.5273
▁winners	-11.5307
▁treats	-11.5323
ryl	-11.5327
▁tra	-11.5352
▁pose	-11.5393
game	-11.5406
▁tha	-11.5419
▁rott	-11.542
▁ty	-11.5445
▁crows	-11.5454
gate	-11.5468
smen	-11.5472
▁bb	-11.5476
▁hose	-11.5482
▁machines	-11.5487
▁sho	-11.5504
ofthe	-11.5512
▁vu	-11.5516
▁fel	-11.5526
itz	-11.5541
iege	-11.555
▁adi	-11.5579
bri	-11.5583
▁deaths	-11.5614
rge	-11.5635
▁wakes	-11.5636
yak	-11.5642
eek	-11.5657
ook	-11.5657
part	-11.5669
▁mau	-11.5669
▁conn	-11.569
▁cre	-11.5691
rink	-11.5713
▁medic	-11.5718
▁stu	-11.5727
nance	-11.5729
▁sle	-11.573
matic	-11.5741
ister	-11.5746
▁masters	-11.5759
sure	-11.5763
▁audi	-11.578
ology	-11.5785
▁wip	-11.5786
▁plu	-11.5789
eard	-11.5793
▁charg	-11.5838
ngled	-11.5842
▁advanc	-11.5845
▁molt	-11.5848
▁lever	-11.5864
▁su	-11.5875
tonne	-11.5877
▁fre	-11.5889
▁squawk	-11.5889
▁zip	-11.5892
▁unto	-11.5895
ocked	-11.5905
▁involve	-11.591
rice	-11.591
▁argument	-11.5912
▁benefit	-11.5912
▁noodle	-11.5912
▁rolls	-11.5913
curr	-11.5913
▁tarla	-11.5913
▁strip	-11.5913
▁asshole	-11.5915
▁cuddle	-11.5921
▁mandrake	-11.5921
▁tan	-11.5923
race	-11.5923
▁intention	-11.5925
▁crocodile	-11.5925
▁blister	-11.5926
▁mudblood	-11.5926
▁prank	-11.5926
▁consequence	-11.5931
▁relative	-11.5931
▁spice	-11.5933
▁orphan	-11.5934
▁spider	-11.5936
▁citizen	-11.5937
▁sock	-11.5937
▁yawn	-11.5941
▁goblin	-11.5945
▁jewel	-11.5945
offs	-11.5948
▁redhead	-11.5948
▁booster	-11.5949
pound	-11.595
▁herds	-11.5952
▁gene	-11.596
▁growl	-11.5961
▁photographer	-11.5961
▁rib	-11.5963
▁shack	-11.5964
▁pup	-11.5977
▁dick	-11.5978
▁anso	-11.6
▁emerge	-11.6001
▁refresh	-11.6013
▁blond	-11.6018
▁coot	-11.602
▁tingl	-11.6023
▁burp	-11.603
som	-11.6032
▁exception	-11.6037
called	-11.6039
room	-11.6042
▁with	-11.6047
▁admir	-11.6048
▁disco	-11.6051
▁flush	-11.6051
▁bargain	-11.6052
▁pur	-11.6052
▁shrink	-11.6053
▁screech	-11.6054
charge	-11.6055
▁clank	-11.6057
face	-11.6058
mart	-11.6059
east	-11.6062
▁tempt	-11.6062
▁strik	-11.6063
▁founder	-11.6064
ffian	-11.6064
▁triumph	-11.6067
▁retreat	-11.6067
▁inject	-11.6068
▁confirm	-11.6068
▁redeem	-11.6068
▁bloomin	-11.6069
agna	-11.607
maker	-11.607
▁attach	-11.6073
clap	-11.6074
▁adventur	-11.6074
dress	-11.6075
predictable	-11.6076
sync	-11.6077
▁deceive	-11.6077
▁biome	-11.6077
occupied	-11.6078
cooked	-11.6079
phones	-11.608
wait	-11.608
proper	-11.608
friendly	-11.608
world	-11.608
prison	-11.608
jungle	-11.608
jump	-11.608
record	-11.6081
tree	-11.6081
cut	-11.6081
smith	-11.6081
lift	-11.6081
▁gi	-11.6082
pants	-11.6082
tick	-11.6082
case	-11.6083
wide	-11.6083
capable	-11.6084
▁scul	-11.6084
▁eliminate	-11.6084
▁perish	-11.6085
diction	-11.6085
▁stead	-11.6085
cake	-11.6086
minute	-11.6086
▁vote	-11.6086
▁popp	-11.6086
▁surprising	-11.6087
immer	-11.6088
▁amaze	-11.6091
kitty	-11.6091
▁gam	-11.6092
▁practical	-11.6092
phy	-11.6093
▁morris	-11.6094
▁surge	-11.6094
▁hoohoo	-11.6095
pass	-11.6095
burn	-11.6095
▁sentiment	-11.6096
▁actress	-11.6096
oft	-11.6097
▁religio	-11.6098
▁russia	-11.6098
▁virgi	-11.6098
▁glen	-11.6098
▁happie	-11.6098
irst	-11.6099
fish	-11.6099
▁kindergarten	-11.61
▁they	-11.61
▁tou	-11.61
▁oppos	-11.6101
▁sittin	-11.6101
▁kilo	-11.6101
lumber	-11.6101
▁melanchol	-11.6101
▁omelet	-11.6102
▁cigar	-11.6102
▁practi	-11.6102
itude	-11.6102
▁poodle	-11.6102
coming	-11.6102
mund	-11.6102
▁egypt	-11.6102
▁gilbert	-11.6103
goon	-11.6103
olence	-11.6103
▁saloon	-11.6103
▁giddy	-11.6103
▁cannibal	-11.6103
▁evaporati	-11.6103
awchuckleamalus	-11.6103
greatgrandmother	-11.6103
osaurus	-11.6103
stoppable	-11.6103
▁ahkmenrah	-11.6103
▁altitude	-11.6103
▁amnesia	-11.6103
▁antelope	-11.6103
▁arizona	-11.6103
▁attentive	-11.6103
▁beauregarde	-11.6103
▁benign	-11.6103
▁betroth	-11.6103
▁bludger	-11.6103
▁bouquet	-11.6103
▁brainiac	-11.6103
▁branson	-11.6103
▁broccoli	-11.6103
▁bundle	-11.6103
▁caesar	-11.6103
▁calendar	-11.6103
▁canaveral	-11.6103
▁cardamom	-11.6103
▁cauldron	-11.6103
▁celeste	-11.6103
▁cereal	-11.6103
▁challenging	-11.6103
▁chozen	-11.6103
▁cinderella	-11.6103
▁clutch	-11.6103
▁colleen	-11.6103
▁concrete	-11.6103
▁confusion	-11.6103
▁conscience	-11.6103
▁contagious	-11.6103
▁cougar	-11.6103
▁crippled	-11.6103
▁cushion	-11.6103
▁dalrymple	-11.6103
▁denker	-11.6103
▁description	-11.6103
▁devious	-11.6103
▁diabolical	-11.6103
▁doughnut	-11.6103
▁duarto	-11.6103
▁dulcinea	-11.6103
▁duplicate	-11.6103
▁efficiency	-11.6103
▁eject	-11.6103
▁encouraging	-11.6103
▁enforcement	-11.6103
▁enlighten	-11.6103
▁evolution	-11.6103
▁examination	-11.6103
▁exhaling	-11.6103
▁fencing	-11.6103
▁fingernails	-11.6103
▁flare	-11.6103
▁flawless	-11.6103
▁fleury	-11.6103
▁fridge	-11.6103
▁galahad	-11.6103
▁generosity	-11.6103
▁geoffrey	-11.6103
▁gestapo	-11.6103
▁glumdalclitch	-11.6103
▁gonzalez	-11.6103
▁gratitude	-11.6103
▁grief	-11.6103
▁gypsies	-11.6103
▁hairspray	-11.6103
▁hallelujah	-11.6103
▁henchmen	-11.6103
▁hornagold	-11.6103
▁hutchins	-11.6103
▁igoe	-11.6103
▁invading	-11.6103
▁invoice	-11.6103
▁ironhide	-11.6103
▁irregular	-11.6103
▁jimmyjacked	-11.6103
▁joyride	-11.6103
▁judging	-11.6103
▁kampai	-11.6103
▁kingsleigh	-11.6103
▁krishna	-11.6103
▁kupkakeinator	-11.6103
▁labradoodle	-11.6103
▁lamborghini	-11.6103
▁landlord	-11.6103
▁laurie	-11.6103
▁length	-11.6103
▁lesbian	-11.6103
▁masala	-11.6103
▁mcginty	-11.6103
▁memorial	-11.6103
▁mischief	-11.6103
▁monstrous	-11.6103
▁mutual	-11.6103
▁nicholas	-11.6103
▁ninerniner	-11.6103
▁nougat	-11.6103
▁novel	-11.6103
▁november	-11.6103
▁optimistic	-11.6103
▁parallel	-11.6103
▁perceptor	-11.6103
▁petunia	-11.6103
▁plateau	-11.6103
▁pneumonia	-11.6103
▁precaution	-11.6103
▁predator	-11.6103
▁prototype	-11.6103
▁quadr	-11.6103
▁racecar	-11.6103
▁railsworth	-11.6103
▁razor	-11.6103
▁recognition	-11.6103
▁recycled	-11.6103
▁resourceful	-11.6103
▁response	-11.6103
▁rheims	-11.6103
▁rhino	-11.6103
▁ripple	-11.6103
▁romulan	-11.6103
▁rupert	-11.6103
▁sabbath	-11.6103
▁salvation	-11.6103
▁samantha	-11.6103
▁scenario	-11.6103
▁scoundrel	-11.6103
▁scrimshaw	-11.6103
▁selfesteem	-11.6103
▁serene	-11.6103
▁seymour	-11.6103
▁sheesh	-11.6103
▁shepherd	-11.6103
▁shuddering	-11.6103
▁shudders	-11.6103
▁significant	-11.6103
▁sleeppile	-11.6103
▁sleigh	-11.6103
▁solitaire	-11.6103
▁somewhat	-11.6103
▁sophie	-11.6103
▁spacecraft	-11.6103
▁spontaneous	-11.6103
▁stallyns	-11.6103
▁steadfast	-11.6103
▁sturdy	-11.6103
▁superduper	-11.6103
▁supermarket	-11.6103
▁supervisor	-11.6103
▁switzerland	-11.6103
▁sybil	-11.6103
▁sylvester	-11.6103
▁talbot	-11.6103
▁teapot	-11.6103
▁technician	-11.6103
▁thighs	-11.6103
▁thorough	-11.6103
▁throttle	-11.6103
▁titov	-11.6103
▁toboland	-11.6103
▁unbearable	-11.6103
▁underbutler	-11.6103
▁undercover	-11.6103
▁valiant	-11.6103
▁vectorscope	-11.6103
▁vijay	-11.6103
▁vinegar	-11.6103
▁violin	-11.6103
▁vitamin	-11.6103
▁vocabulary	-11.6103
▁wazoo	-11.6103
▁whirl	-11.6103
▁wigasus	-11.6103
▁wilcox	-11.6103
▁wlfe	-11.6103
▁yourejokin	-11.6103
infested	-11.6103
▁abort	-11.6103
▁alicia	-11.6103
▁aorta	-11.6103
▁baboon	-11.6103
▁brodad	-11.6103
▁cheeseburger	-11.6103
▁concoct	-11.6103
▁decree	-11.6103
▁deja	-11.6103
▁disease	-11.6103
▁exploit	-11.6103
▁fowl	-11.6103
▁gesture	-11.6103
▁granger	-11.6103
▁hamburger	-11.6103
▁intruder	-11.6103
▁lntyre	-11.6103
▁muzzle	-11.6103
▁nansen	-11.6103
▁noisy	-11.6103
▁outstanding	-11.6103
▁promising	-11.6103
▁resort	-11.6103
▁richmond	-11.6103
▁sardine	-11.6103
▁semental	-11.6103
▁shaving	-11.6103
▁shoving	-11.6103
▁slope	-11.6103
▁swirl	-11.6103
▁synchroniz	-11.6103
▁tangier	-11.6103
▁thieves	-11.6103
▁turf	-11.6103
▁vernon	-11.6103
▁volleyball	-11.6103
▁wacko	-11.6103
▁amusing	-11.6103
▁angrily	-11.6103
▁aqua	-11.6103
▁crucified	-11.6103
▁pronounce	-11.6103
▁ravish	-11.6103
▁afghanistan	-11.6103
▁certified	-11.6103
▁conservatoire	-11.6103
▁hamsters	-11.6103
▁postpon	-11.6103
▁retain	-11.6103
▁scoot	-11.6103
▁brett	-11.6103
▁choochoo	-11.6103
▁entrust	-11.6103
▁glees	-11.6103
▁grandchildren	-11.6103
▁introduction	-11.6103
▁whupp	-11.6103
▁affirmative	-11.6103
▁dreaded	-11.6103
▁linguist	-11.6103
▁media	-11.6103
▁altar	-11.6103
▁buttocks	-11.6103
▁insert	-11.6103
▁swiss	-11.6103
▁converse	-11.6103
▁unaware	-11.6103
▁forfeit	-11.6103
▁liquid	-11.6103
▁revolting	-11.6103
▁broadcast	-11.6103
▁exports	-11.6103
▁menatarms	-11.6103
▁sprang	-11.6103
▁central	-11.6103
▁fragile	-11.6103
▁youknowwh	-11.6103
▁abstract	-11.6103
▁bribe	-11.6103
▁dissect	-11.6103
▁whwhy	-11.6103
▁aero	-11.6103
▁stimulat	-11.6103
▁underwater	-11.6103
ccord	-11.6103
▁candidates	-11.6103
▁eldest	-11.6103
▁frood	-11.6103
▁references	-11.6103
▁elvis	-11.6103
▁hisself	-11.6103
corporate	-11.6103
▁conspiring	-11.6103
▁chickenshit	-11.6103
▁chimney	-11.6103
▁platter	-11.6103
▁stains	-11.6103
▁anonymous	-11.6103
▁bubbling	-11.6103
▁hazardous	-11.6103
▁steep	-11.6103
▁yikes	-11.6103
▁halves	-11.6103
▁immature	-11.6103
▁niles	-11.6103
▁foxington	-11.6103
▁horrid	-11.6103
▁demonstrate	-11.6103
▁ignorance	-11.6103
▁lund	-11.6103
▁norland	-11.6103
▁tucson	-11.6103
▁jehu	-11.6103
▁stool	-11.6103
▁guidance	-11.6103
▁multipl	-11.6103
▁empti	-11.6103
▁milord	-11.6103
▁chute	-11.6103
▁crumbling	-11.6103
▁genetic	-11.6103
▁grinning	-11.6103
▁regiment	-11.6103
▁seventyfive	-11.6103
▁destruction	-11.6103
▁scotland	-11.6103
▁denise	-11.6103
▁exalt	-11.6103
▁snoop	-11.6103
▁barbarian	-11.6103
▁pascal	-11.6103
▁polka	-11.6103
▁trigger	-11.6103
▁bourge	-11.6103
tzel	-11.6104
▁lovebirds	-11.6104
▁patmore	-11.6104
▁geroni	-11.6104
▁nogood	-11.6104
▁funeral	-11.6104
obby	-11.6104
▁befall	-11.6104
acious	-11.6104
▁bleak	-11.6104
▁sideways	-11.6104
▁terminal	-11.6104
▁popsicle	-11.6104
▁slack	-11.6104
▁mongoose	-11.6104
▁hohohoho	-11.6104
▁splashdown	-11.6104
▁undertake	-11.6104
▁pleasing	-11.6104
▁dekk	-11.6104
▁genie	-11.6104
▁pedal	-11.6104
▁lapati	-11.6104
▁miner	-11.6104
▁oaf	-11.6104
▁bleach	-11.6104
▁fester	-11.6104
▁staging	-11.6104
plop	-11.6104
▁rogue	-11.6104
▁fertilizer	-11.6104
▁arab	-11.6104
▁oxford	-11.6104
▁notify	-11.6104
▁dominate	-11.6104
▁peasant	-11.6104
▁ruthless	-11.6104
▁dishonor	-11.6104
▁psychotic	-11.6104
▁wynken	-11.6104
▁groceries	-11.6104
▁groov	-11.6104
▁pipeline	-11.6104
▁inspect	-11.6104
▁resignation	-11.6104
▁sidney	-11.6104
▁communication	-11.6104
▁grise	-11.6104
▁persian	-11.6104
▁scour	-11.6104
▁apri	-11.6104
▁update	-11.6104
▁improvement	-11.6104
▁clipping	-11.6104
▁rowboat	-11.6104
▁canbury	-11.6104
▁sloth	-11.6104
▁repent	-11.6104
▁conroy	-11.6104
▁joshie	-11.6104
▁moonbase	-11.6104
phee	-11.6104
▁haste	-11.6104
▁harsh	-11.6104
▁luke	-11.6104
▁basin	-11.6105
▁concept	-11.6105
▁hydro	-11.6105
▁vowel	-11.6105
▁hasty	-11.6105
▁hunch	-11.6105
▁recracker	-11.6105
▁politician	-11.6105
▁boca	-11.6105
▁stalk	-11.6105
▁proving	-11.6105
▁boobs	-11.6105
▁financial	-11.6105
▁cornfield	-11.6105
▁dirtbag	-11.6105
▁crackling	-11.6105
▁diana	-11.6105
▁reeks	-11.6105
▁bryan	-11.6105
▁bonehead	-11.6105
▁infinite	-11.6105
▁irma	-11.6105
▁paddle	-11.6105
▁creative	-11.6105
▁dedication	-11.6105
▁porc	-11.6105
▁fuck	-11.6105
▁baseball	-11.6105
▁nogo	-11.6105
▁cupboard	-11.6105
▁spotlight	-11.6105
▁operator	-11.6105
▁drumming	-11.6105
anide	-11.6105
▁clance	-11.6105
▁toppling	-11.6106
▁muffin	-11.6106
▁massacre	-11.6106
▁blois	-11.6106
▁cinch	-11.6106
▁approximately	-11.6106
▁deliberately	-11.6106
▁indoor	-11.6106
▁theoretically	-11.6106
▁underway	-11.6106
▁braz	-11.6106
▁ripping	-11.6106
▁fiber	-11.6106
▁tasty	-11.6106
▁foca	-11.6106
▁tusk	-11.6106
▁flick	-11.6106
▁chapter	-11.6106
▁crock	-11.6106
▁peak	-11.6106
▁blasphemy	-11.6106
▁upside	-11.6106
▁ethical	-11.6106
▁chili	-11.6106
▁headmaster	-11.6106
▁overall	-11.6106
▁plumber	-11.6106
self	-11.6106
▁gloom	-11.6106
▁danno	-11.6107
▁invaded	-11.6107
▁marvel	-11.6107
▁spitting	-11.6107
▁legendary	-11.6107
▁boan	-11.6107
▁albert	-11.6107
▁membership	-11.6107
▁retting	-11.6107
▁converters	-11.6107
▁quest	-11.6107
▁hooper	-11.6107
▁vase	-11.6107
▁basis	-11.6107
▁dislike	-11.6107
▁essential	-11.6107
▁jennifer	-11.6107
▁paragraph	-11.6107
▁possibility	-11.6107
▁script	-11.6107
▁glide	-11.6107
▁maximum	-11.6107
▁bzz	-11.6107
▁trenches	-11.6107
▁afoot	-11.6107
▁plump	-11.6107
▁sammy	-11.6107
▁flour	-11.6108
▁tack	-11.6108
▁pupil	-11.6108
▁yoga	-11.6108
▁ruth	-11.6108
▁columnist	-11.6108
▁jdog	-11.6108
▁pixies	-11.6108
▁mys	-11.6108
▁published	-11.6108
▁rake	-11.6108
▁makin	-11.6108
▁toro	-11.6108
▁geese	-11.6109
▁tourist	-11.6109
▁temptation	-11.6109
▁lime	-11.6109
▁prior	-11.6109
▁til	-11.6109
urance	-11.6109
▁actua	-11.611
▁sparkle	-11.611
▁hence	-11.611
▁beeth	-11.611
▁marita	-11.611
leine	-11.611
▁timmy	-11.611
▁untie	-11.611
▁cheerful	-11.611
▁measurement	-11.611
▁piss	-11.611
▁intro	-11.611
▁modest	-11.6111
▁barge	-11.6111
▁foreman	-11.6111
▁surgeon	-11.6111
▁sober	-11.6111
umpty	-11.6112
▁fret	-11.6112
baum	-11.6112
ulous	-11.6112
▁mack	-11.6112
▁primate	-11.6112
▁torches	-11.6112
▁kibble	-11.6112
▁jillian	-11.6112
▁gladys	-11.6112
▁suckup	-11.6113
▁dorm	-11.6113
▁comme	-11.6113
▁restraint	-11.6113
▁terminated	-11.6113
▁dramatically	-11.6113
▁bagley	-11.6113
▁taxes	-11.6114
▁bonus	-11.6114
▁phrase	-11.6114
▁mascot	-11.6114
kety	-11.6114
▁elder	-11.6114
▁cardi	-11.6114
▁packard	-11.6114
▁hull	-11.6114
▁swede	-11.6114
▁sadder	-11.6114
▁colum	-11.6115
▁stance	-11.6115
▁allen	-11.6115
▁mime	-11.6116
▁dimi	-11.6116
▁perch	-11.6116
▁firewood	-11.6116
▁neera	-11.6116
▁anwhat	-11.6117
▁gap	-11.6117
▁midst	-11.6117
▁tide	-11.6117
▁bandage	-11.6117
▁crunchy	-11.6117
▁ththe	-11.6117
▁funky	-11.6117
▁poet	-11.6117
▁huffy	-11.6117
▁devoted	-11.6118
▁jammed	-11.6118
▁pact	-11.6119
▁sportsman	-11.6119
▁sharpened	-11.6119
▁compromise	-11.6119
▁alteration	-11.6119
▁heartache	-11.6119
▁courageous	-11.6119
▁surprisingly	-11.6119
▁damp	-11.6119
▁frown	-11.6119
▁initiated	-11.612
▁mouthful	-11.612
▁bruised	-11.612
aye	-11.612
▁monk	-11.6121
▁tess	-11.6121
▁sheer	-11.6123
▁beak	-11.6123
▁referring	-11.6123
▁sleepover	-11.6123
▁anders	-11.6124
▁clanging	-11.6124
▁satisfying	-11.6124
▁jackass	-11.6124
▁sizzling	-11.6124
kka	-11.6125
▁farther	-11.6125
▁guin	-11.6125
▁ev	-11.6125
rational	-11.6126
▁rever	-11.6126
ntz	-11.6126
▁warmth	-11.6126
▁stirred	-11.6127
▁established	-11.6127
▁aww	-11.6128
▁foreigners	-11.6128
▁harri	-11.6128
▁everyday	-11.6128
▁swore	-11.6128
▁snapping	-11.6128
▁freshman	-11.6129
rietta	-11.6129
▁sync	-11.6129
▁heartbeat	-11.613
▁specialist	-11.613
▁liesl	-11.6131
▁conor	-11.6132
▁tomb	-11.6132
▁sass	-11.6133
▁divided	-11.6133
▁volu	-11.6133
▁penetrate	-11.6134
▁binky	-11.6134
▁experimental	-11.6135
▁goldman	-11.6137
tech	-11.6138
▁environmental	-11.614
▁legion	-11.614
▁squirt	-11.614
▁yorku	-11.614
aloo	-11.6141
▁skid	-11.6142
▁protective	-11.6142
▁josh	-11.6143
▁grin	-11.6143
▁boxer	-11.6143
▁fundraiser	-11.6143
▁surfer	-11.6144
▁restless	-11.6144
▁reserved	-11.6144
▁specialty	-11.6146
▁installed	-11.6147
▁flattered	-11.6147
▁terrier	-11.6147
▁splinter	-11.6148
orama	-11.6149
iful	-11.6149
▁curiouser	-11.6149
▁your	-11.615
▁punished	-11.615
▁alas	-11.615
▁fulltime	-11.6151
▁retreating	-11.6152
▁refreshing	-11.6152
▁maple	-11.6152
while	-11.6153
▁fulfill	-11.6154
▁aahh	-11.6154
▁observed	-11.6155
▁daw	-11.6155
▁altered	-11.6156
nky	-11.6156
▁inherited	-11.6156
▁jar	-11.6158
▁gibber	-11.6158
▁pip	-11.6159
▁stam	-11.616
narr	-11.616
▁footprint	-11.616
▁wither	-11.616
▁exu	-11.6161
▁tension	-11.6164
▁firmly	-11.6166
▁unlikely	-11.6166
▁entertained	-11.6166
▁fisherm	-11.617
▁shaken	-11.6171
▁fled	-11.6173
▁sno	-11.6174
▁frisk	-11.6176
▁stressed	-11.6176
▁unloaded	-11.6176
▁runway	-11.6176
omic	-11.6177
▁buster	-11.6177
▁wrapper	-11.6178
iana	-11.6178
rop	-11.6179
▁delivery	-11.6179
▁chad	-11.6179
mai	-11.6179
▁developing	-11.618
▁snorting	-11.618
▁functioning	-11.618
▁satan	-11.6181
▁mining	-11.6183
▁expenses	-11.6183
▁shivers	-11.6184
▁dome	-11.6184
▁chained	-11.6187
▁delegate	-11.6187
qualified	-11.6187
▁declared	-11.6187
▁doublet	-11.6187
▁jacques	-11.6188
▁seam	-11.6191
▁tossing	-11.6194
roy	-11.6196
▁cursed	-11.62
▁taller	-11.6201
luc	-11.6204
uit	-11.6204
▁choo	-11.6205
ette	-11.6207
▁insulting	-11.6208
▁peep	-11.621
▁tucker	-11.6211
▁gook	-11.6216
▁cracked	-11.6216
erton	-11.6217
▁blown	-11.6217
▁ringo	-11.6219
▁velo	-11.622
▁badab	-11.622
▁nod	-11.6223
▁fixin	-11.6224
▁herring	-11.6224
▁weaken	-11.6225
▁pork	-11.6227
▁just	-11.6228
▁meetings	-11.623
▁norris	-11.623
▁attract	-11.6231
omb	-11.6232
▁fury	-11.6234
▁vents	-11.6236
▁natives	-11.6236
▁vampires	-11.6236
▁vegetables	-11.6236
▁towels	-11.6236
▁pumps	-11.6236
▁ahha	-11.6236
▁slaying	-11.6236
▁rockin	-11.6238
▁parties	-11.6238
▁refugees	-11.6238
▁rein	-11.6238
▁scouting	-11.6238
▁domin	-11.6241
▁followers	-11.6244
▁desired	-11.6245
▁shocked	-11.6245
▁thankyou	-11.6246
▁smokey	-11.6247
▁curl	-11.625
▁aiming	-11.6251
▁worshiper	-11.6254
▁witnessed	-11.6254
▁foundation	-11.6254
▁pearls	-11.6255
sburg	-11.6256
▁nighttime	-11.6256
▁terrorize	-11.6262
▁generat	-11.6265
closure	-11.6266
▁charmed	-11.6268
▁lard	-11.627
care	-11.627
▁scratched	-11.6273
▁stash	-11.6274
▁dvd	-11.6276
▁mer	-11.6276
▁homeless	-11.6278
▁sweating	-11.6279
▁leaping	-11.6279
▁difficulty	-11.6281
▁dime	-11.6283
iala	-11.6286
▁ribs	-11.6288
▁cuddles	-11.6289
▁mandrakes	-11.6289
ettes	-11.6291
▁lament	-11.6292
▁fres	-11.6292
▁peek	-11.6295
▁boosters	-11.6295
elves	-11.6299
▁fab	-11.6299
▁banged	-11.6304
▁seeds	-11.631
lement	-11.6311
▁scheduled	-11.6311
▁sealed	-11.6312
▁kate	-11.6324
▁crashed	-11.6324
▁stitch	-11.6327
▁honks	-11.6329
▁manda	-11.633
▁regal	-11.6331
ety	-11.6331
▁ul	-11.6333
▁spreading	-11.6336
▁ninjas	-11.6342
▁products	-11.6342
▁brats	-11.6342
▁morons	-11.6342
▁repairs	-11.6343
▁boxers	-11.6343
▁tome	-11.6343
▁shades	-11.6345
▁sheeps	-11.6345
▁sneezes	-11.6346
▁remained	-11.6346
kov	-11.6348
▁cleaner	-11.6355
lalalala	-11.6356
uh	-11.6358
▁div	-11.6359
▁robes	-11.6361
▁reel	-11.6361
▁whales	-11.6364
▁jest	-11.6364
▁peas	-11.6365
▁floors	-11.6367
▁sporting	-11.6368
base	-11.6374
▁logical	-11.6374
▁rented	-11.6375
mock	-11.6377
▁soften	-11.638
told	-11.638
▁filming	-11.6383
▁borne	-11.6387
▁lent	-11.6392
▁bleeds	-11.6392
▁pills	-11.6395
▁einsteins	-11.6395
▁mermaids	-11.6395
▁hostages	-11.6395
▁landmarks	-11.6395
▁heroics	-11.6396
▁corrected	-11.6402
▁emb	-11.6423
loa	-11.6425
three	-11.6426
▁chant	-11.6427
▁likelike	-11.6436
▁affects	-11.6437
▁slower	-11.6441
fly	-11.6444
▁chums	-11.6446
▁smither	-11.6448
▁scullys	-11.6449
▁purrs	-11.645
▁scatt	-11.6453
▁proudly	-11.6456
ren	-11.6463
ades	-11.6464
ork	-11.6466
uty	-11.6471
▁deer	-11.6477
mby	-11.648
▁comedy	-11.6488
ron	-11.6492
▁protector	-11.6498
balls	-11.6498
▁reminded	-11.65
▁comeback	-11.6503
▁stables	-11.6503
▁cartoons	-11.6503
▁habits	-11.6503
▁leaks	-11.6504
ello	-11.6507
▁pooch	-11.6519
▁sumo	-11.6522
ribb	-11.6523
cept	-11.6524
▁pul	-11.653
▁marthai	-11.6532
▁renter	-11.6533
▁camping	-11.6538
ake	-11.654
▁puller	-11.6552
scotch	-11.6554
ati	-11.6557
▁heists	-11.6557
▁klingons	-11.6557
▁chicks	-11.6557
▁shorty	-11.6558
▁laker	-11.6566
wi	-11.6574
▁ferr	-11.6575
▁lug	-11.6576
happy	-11.6608
▁divisions	-11.6611
▁trolls	-11.6611
▁arrives	-11.6612
▁walters	-11.6618
arb	-11.662
coat	-11.6631
nch	-11.6639
▁cater	-11.6641
▁relaxed	-11.6645
▁recit	-11.6652
▁instruments	-11.6666
ez	-11.6672
▁constructi	-11.6683
▁bal	-11.6685
▁cy	-11.6706
▁swells	-11.6713
rell	-11.6716
▁devices	-11.672
▁warriors	-11.672
▁visas	-11.6721
▁flavors	-11.6722
rjob	-11.6726
horn	-11.673
▁smie	-11.6733
leather	-11.6739
▁wakey	-11.6754
▁triang	-11.6766
▁commercials	-11.6775
▁blessings	-11.6776
oped	-11.6788
▁prayers	-11.6796
▁breathed	-11.6796
▁are	-11.6803
▁span	-11.6805
▁stings	-11.6817
▁tug	-11.6823
hopped	-11.6824
▁praises	-11.683
▁rap	-11.6833
▁warmed	-11.6846
tical	-11.6877
▁locking	-11.6877
▁yee	-11.688
▁sweeps	-11.6885
▁newspapers	-11.6886
▁measures	-11.6887
▁suffers	-11.6893
▁darr	-11.69
▁raining	-11.6907
oons	-11.6912
▁ovens	-11.6941
▁leagues	-11.6941
▁organize	-11.6947
▁enable	-11.6959
hen	-11.6971
▁will	-11.698
▁blankets	-11.6997
▁laps	-11.7003
eau	-11.703
▁prim	-11.7039
into	-11.7049
loss	-11.7051
▁preachers	-11.706
▁dancers	-11.7067
tak	-11.7079
▁kicking	-11.709
▁explaining	-11.7101
▁lined	-11.7107
▁decks	-11.7109
▁danced	-11.7124
▁ap	-11.7139
loom	-11.7149
▁answering	-11.7152
▁fails	-11.716
▁demands	-11.7165
▁operations	-11.7165
▁cleaning	-11.7167
▁ash	-11.717
▁magna	-11.7182
▁bidd	-11.7184
ization	-11.7189
▁gin	-11.7195
▁blackeye	-11.7198
▁sins	-11.7199
▁troubled	-11.7202
▁tub	-11.7206
▁cord	-11.721
pain	-11.7211
mice	-11.7217
▁lordships	-11.7222
omp	-11.7271
was	-11.7273
itch	-11.7277
▁crimes	-11.7279
▁sharks	-11.7279
▁combinations	-11.7279
▁destroying	-11.728
▁allergi	-11.7281
▁stuffy	-11.7292
▁by	-11.7293
uddy	-11.7305
bul	-11.7316
▁fighters	-11.7321
▁tunnels	-11.7336
▁tales	-11.7342
▁observ	-11.7344
fin	-11.736
ooooo	-11.736
▁papi	-11.7372
▁fitte	-11.7378
▁bru	-11.7386
▁plants	-11.7391
elle	-11.7398
vine	-11.74
▁hitch	-11.7402
snt	-11.7409
iance	-11.742
▁jumper	-11.7429
die	-11.743
raft	-11.7436
ired	-11.7437
ken	-11.7454
▁skins	-11.7456
▁batteri	-11.7457
▁canna	-11.7471
gen	-11.748
▁jerks	-11.7496
▁gr	-11.7498
▁mus	-11.7519
icious	-11.7536
▁irr	-11.756
▁pages	-11.7562
▁areas	-11.7566
▁bastards	-11.7566
ggado	-11.7567
▁favors	-11.7568
▁wham	-11.7569
ander	-11.7585
▁presume	-11.7597
▁cared	-11.7614
▁savings	-11.7624
pend	-11.7631
ico	-11.7635
size	-11.7642
▁gre	-11.7643
tack	-11.7652
▁purposes	-11.7683
▁scores	-11.7689
▁partial	-11.7704
▁chooses	-11.7742
onne	-11.777
▁scr	-11.777
bat	-11.7779
▁combine	-11.7815
mit	-11.7828
ige	-11.7843
▁hips	-11.7845
lace	-11.7849
oni	-11.7851
state	-11.7855
tching	-11.786
▁bows	-11.7863
trapped	-11.7879
emini	-11.7889
▁jellie	-11.7896
ute	-11.7897
lade	-11.7913
▁goats	-11.7923
bed	-11.7923
▁pearl	-11.7923
▁thankful	-11.7938
istan	-11.7954
lt	-11.7969
▁fli	-11.7972
▁enlarge	-11.7974
aged	-11.7979
ida	-11.8017
cus	-11.8044
▁vit	-11.8052
stop	-11.8072
▁breaker	-11.808
bert	-11.808
▁ifth	-11.81
izer	-11.8104
▁ooooo	-11.8109
ept	-11.8114
apa	-11.8115
▁wearer	-11.8116
ashes	-11.8117
burg	-11.8142
ptu	-11.8145
▁impatient	-11.8151
▁bam	-11.8195
rew	-11.8229
yde	-11.8232
att	-11.8253
▁sch	-11.8257
▁inhal	-11.8274
▁mort	-11.8279
▁disarm	-11.8306
▁observe	-11.8324
ouche	-11.8328
spel	-11.8329
tically	-11.8391
▁comm	-11.8443
▁lol	-11.8456
▁pretens	-11.8466
▁hoove	-11.85
▁wav	-11.8593
illion	-11.8594
▁disc	-11.8595
approval	-11.8597
▁interpret	-11.8605
▁plea	-11.8611
contented	-11.8625
▁ofthe	-11.8627
▁kab	-11.8646
▁disrupt	-11.8657
▁dul	-11.8658
▁grad	-11.8671
ilia	-11.8672
▁construct	-11.8675
▁huff	-11.8689
nto	-11.8693
▁penn	-11.8704
otch	-11.8717
▁frustrat	-11.8729
cant	-11.8741
▁cran	-11.876
▁entr	-11.8778
▁yiwe	-11.8779
▁ref	-11.8791
▁et	-11.8811
armed	-11.8823
▁tres	-11.8826
pers	-11.8839
▁dem	-11.8846
▁cle	-11.8862
azing	-11.887
int	-11.8871
oid	-11.8877
that	-11.89
▁scot	-11.8908
ith	-11.892
▁ninety	-11.8931
ceived	-11.8952
rod	-11.8967
naiss	-11.8967
tythree	-11.8968
▁nud	-11.8973
▁kr	-11.8981
▁scat	-11.8981
▁pun	-11.8987
▁peg	-11.8993
▁caus	-11.8996
lux	-11.9011
ication	-11.9012
▁squir	-11.902
inch	-11.9045
▁ado	-11.9052
▁meg	-11.9061
tility	-11.9068
traction	-11.9073
ridd	-11.9081
orse	-11.9086
▁marsh	-11.91
▁lalala	-11.9103
udic	-11.9104
▁twit	-11.9115
▁trav	-11.9122
▁cooper	-11.9131
meter	-11.9138
▁compos	-11.9145
▁ahoo	-11.9146
rent	-11.915
▁phon	-11.915
itten	-11.9159
rock	-11.916
detected	-11.9171
gun	-11.9173
ok	-11.9176
▁tau	-11.9177
ife	-11.9189
▁haw	-11.9191
▁howl	-11.9192
▁surf	-11.9194
ita	-11.9194
▁claw	-11.9202
etic	-11.9205
bee	-11.9209
▁squeak	-11.9209
oven	-11.9213
connected	-11.9214
▁pump	-11.9219
▁wick	-11.922
▁initial	-11.9229
▁squeal	-11.9229
▁cough	-11.923
▁moan	-11.923
▁exclaim	-11.9231
arian	-11.9236
abbing	-11.9245
▁patterson	-11.9246
▁clerk	-11.9246
▁sputter	-11.9246
▁bugger	-11.9246
▁blank	-11.9247
▁bruise	-11.9248
▁snicker	-11.9251
q	-11.9252
▁athlete	-11.9254
▁vampire	-11.9254
▁vegetable	-11.9254
▁towel	-11.9257
▁native	-11.9258
▁method	-11.9258
▁handcuff	-11.9259
▁rooster	-11.9259
▁knot	-11.926
▁martini	-11.926
winding	-11.926
▁vent	-11.9262
▁refugee	-11.9262
▁spook	-11.9263
▁oompaloompa	-11.9264
▁runner	-11.9266
▁bolt	-11.9266
▁luyden	-11.9267
▁sidekick	-11.9267
▁affair	-11.9268
▁carrot	-11.927
▁qualification	-11.927
▁sample	-11.9272
▁cheerleader	-11.9272
▁slipper	-11.9273
▁whine	-11.9273
tem	-11.9274
ointed	-11.928
▁mumble	-11.9283
▁brownie	-11.9291
cot	-11.9296
▁degree	-11.9297
▁sac	-11.9298
▁boiler	-11.9302
▁swingin	-11.9306
▁char	-11.9308
tha	-11.932
▁leftover	-11.932
▁ooz	-11.9321
layed	-11.9332
▁immortal	-11.9343
▁cent	-11.9344
▁steven	-11.9345
▁amaz	-11.9349
▁recip	-11.935
▁fer	-11.9352
asu	-11.9353
▁gent	-11.9354
rapes	-11.9362
kids	-11.9362
▁frighten	-11.9364
▁decorat	-11.9366
hank	-11.9367
oire	-11.9369
▁slid	-11.9369
▁forb	-11.9369
▁crunch	-11.937
grade	-11.9376
tynine	-11.938
▁fundrais	-11.938
quar	-11.938
▁contribut	-11.9383
▁helga	-11.9385
▁iv	-11.9385
▁poster	-11.9386
▁stepp	-11.9386
▁cluck	-11.9391
▁murmur	-11.9392
▁phy	-11.9394
watch	-11.9394
▁thro	-11.9394
▁glowin	-11.9395
▁mastermind	-11.9397
▁disobey	-11.9397
▁alleg	-11.9397
▁resign	-11.9399
▁expand	-11.9401
▁depress	-11.9401
▁slaughter	-11.9401
keeper	-11.9402
▁establish	-11.9403
▁connect	-11.9403
▁inevitabl	-11.9404
▁crook	-11.9404
power	-11.9405
▁buen	-11.9405
cracker	-11.9407
▁cam	-11.9407
watts	-11.9407
cloth	-11.9407
▁jm	-11.9408
skirt	-11.9408
shirts	-11.9409
changes	-11.9409
affle	-11.9409
worth	-11.9409
▁gro	-11.941
degree	-11.941
scheduled	-11.9411
witch	-11.9411
laws	-11.9412
galact	-11.9412
▁str	-11.9412
broad	-11.9412
▁achieve	-11.9412
▁improve	-11.9413
function	-11.9413
evidence	-11.9413
sharing	-11.9413
limited	-11.9413
apple	-11.9413
scale	-11.9413
magnetic	-11.9413
▁initiate	-11.9413
loved	-11.9414
american	-11.9414
bridge	-11.9414
pilot	-11.9414
john	-11.9414
crowd	-11.9414
keeping	-11.9414
woman	-11.9414
would	-11.9414
punch	-11.9414
after	-11.9414
▁occurr	-11.9414
sweet	-11.9414
coast	-11.9414
▁dedicate	-11.9415
▁relieve	-11.9415
▁relate	-11.9415
heater	-11.9415
paper	-11.9416
cool	-11.9416
dark	-11.9416
poop	-11.9417
bread	-11.9417
linda	-11.9417
▁temporar	-11.9418
▁troph	-11.9418
pool	-11.9418
nothing	-11.9418
tender	-11.9418
▁dispose	-11.9418
level	-11.9418
▁sneez	-11.9418
▁should	-11.9418
▁incorrect	-11.9419
▁fluff	-11.9419
bright	-11.9419
▁resolve	-11.9419
fold	-11.9419
▁pictur	-11.942
button	-11.942
dash	-11.942
▁vague	-11.9421
▁grumbl	-11.9421
hill	-11.9421
person	-11.9422
▁apparent	-11.9422
▁extensi	-11.9423
onnais	-11.9423
▁numb	-11.9423
▁execution	-11.9423
rator	-11.9424
▁kibbl	-11.9424
slide	-11.9424
▁mug	-11.9425
▁matti	-11.9426
▁vend	-11.9427
▁spur	-11.9427
▁tee	-11.9428
▁steel	-11.9428
▁beck	-11.9428
closed	-11.9429
▁bleat	-11.9429
throw	-11.943
▁trench	-11.9431
▁reflex	-11.9431
▁prettie	-11.9431
▁henri	-11.9431
▁psych	-11.9431
icular	-11.9431
▁vol	-11.9432
▁volcan	-11.9432
dale	-11.9433
▁televisi	-11.9433
▁mutt	-11.9433
▁hibernat	-11.9434
▁accommodat	-11.9434
▁trifle	-11.9434
▁educat	-11.9434
▁intentional	-11.9434
▁shir	-11.9434
▁waah	-11.9435
▁equip	-11.9435
▁stun	-11.9435
▁runnin	-11.9435
▁brutal	-11.9435
ynken	-11.9435
▁pep	-11.9435
▁pudd	-11.9435
umbling	-11.9435
tention	-11.9435
▁outrage	-11.9435
plore	-11.9435
ashing	-11.9435
obbery	-11.9436
pecul	-11.9436
▁deceptic	-11.9436
▁casual	-11.9436
roscop	-11.9436
measur	-11.9436
▁pilgrim	-11.9436
▁vapor	-11.9436
perator	-11.9436
▁cruci	-11.9436
▁stereo	-11.9436
▁admission	-11.9436
pronounc	-11.9436
▁indiscre	-11.9436
▁treacher	-11.9436
cinated	-11.9436
cyclop	-11.9436
vavoom	-11.9436
▁abbey	-11.9436
▁abilities	-11.9436
▁accompany	-11.9436
▁adolescent	-11.9436
▁advocate	-11.9436
▁airsick	-11.9436
▁aquarium	-11.9436
▁armagnac	-11.9436
▁ascertain	-11.9436
▁associate	-11.9436
▁athens	-11.9436
▁azkaban	-11.9436
▁bagshaw	-11.9436
▁battalion	-11.9436
▁baylene	-11.9436
▁bechamel	-11.9436
▁benefic	-11.9436
▁beryllium	-11.9436
▁bizarre	-11.9436
▁blackberry	-11.9436
▁blarda	-11.9436
▁blares	-11.9436
▁bleeker	-11.9436
▁blenker	-11.9436
▁blindfolded	-11.9436
▁boeuf	-11.9436
▁boggart	-11.9436
▁bonkers	-11.9436
▁bonsoir	-11.9436
▁bourbon	-11.9436
▁bratislava	-11.9436
▁brougham	-11.9436
▁brunette	-11.9436
▁bruntford	-11.9436
▁buddhist	-11.9436
▁burgundy	-11.9436
▁capuchin	-11.9436
▁caricature	-11.9436
▁carnivore	-11.9436
▁cartograph	-11.9436
▁casanova	-11.9436
▁cataclysm	-11.9436
▁celebrating	-11.9436
▁celebration	-11.9436
▁chariot	-11.9436
▁chocolatier	-11.9436
▁chrono	-11.9436
▁clooney	-11.9436
▁cobbler	-11.9436
▁cockadoodle	-11.9436
▁collision	-11.9436
▁compadre	-11.9436
▁concussion	-11.9436
▁console	-11.9436
▁conspicuous	-11.9436
▁contraption	-11.9436
▁convincing	-11.9436
▁couscous	-11.9436
▁critters	-11.9436
▁crumpets	-11.9436
▁crybaby	-11.9436
▁cucaracha	-11.9436
▁culprit	-11.9436
▁cunning	-11.9436
▁cutthroat	-11.9436
▁decipher	-11.9436
▁delaford	-11.9436
▁democrat	-11.9436
▁demolition	-11.9436
▁departure	-11.9436
▁detroit	-11.9436
▁dialogue	-11.9436
▁diarrhea	-11.9436
▁diddlyey	-11.9436
▁discomfort	-11.9436
▁disorder	-11.9436
▁disregard	-11.9436
▁distress	-11.9436
▁distribut	-11.9436
▁drowsy	-11.9436
▁dubious	-11.9436
▁eccentric	-11.9436
▁economic	-11.9436
▁effley	-11.9436
▁elbows	-11.9436
▁elegance	-11.9436
▁emphasis	-11.9436
▁encino	-11.9436
▁entitled	-11.9436
▁escobar	-11.9436
▁essence	-11.9436
▁exosuit	-11.9436
▁exploding	-11.9436
▁exterminator	-11.9436
▁exxon	-11.9436
▁fairfarren	-11.9436
▁faucet	-11.9436
▁femur	-11.9436
▁fironic	-11.9436
▁fitzherbert	-11.9436
▁flirtatious	-11.9436
▁francine	-11.9436
▁frankenstein	-11.9436
▁frozone	-11.9436
▁futterwacken	-11.9436
▁gaucourt	-11.9436
▁geotopia	-11.9436
▁gertrude	-11.9436
▁gilderoy	-11.9436
▁glimpse	-11.9436
▁glute	-11.9436
▁grasshopper	-11.9436
▁gretel	-11.9436
▁griffiin	-11.9436
▁grizzly	-11.9436
▁guru	-11.9436
▁hampstead	-11.9436
▁hampton	-11.9436
▁harvest	-11.9436
▁hemmet	-11.9436
▁hillbillies	-11.9436
▁hobbies	-11.9436
▁hollandaise	-11.9436
▁imaginary	-11.9436
▁imagining	-11.9436
▁impeccable	-11.9436
▁inappropriate	-11.9436
▁incoherent	-11.9436
▁incorrigible	-11.9436
▁indebted	-11.9436
▁indestructible	-11.9436
▁indulge	-11.9436
▁inhumane	-11.9436
▁injustice	-11.9436
▁innocence	-11.9436
▁inquiring	-11.9436
▁inscription	-11.9436
▁insuricare	-11.9436
▁jeff	-11.9436
▁jupiter	-11.9436
▁kaleigh	-11.9436
▁karlmarxstadt	-11.9436
▁kathleen	-11.9436
▁kettle	-11.9436
▁klondike	-11.9436
▁kobaya	-11.9436
▁korrd	-11.9436
▁krystal	-11.9436
▁legitimate	-11.9436
▁lorraine	-11.9436
▁luchador	-11.9436
▁macadamia	-11.9436
▁magenta	-11.9436
▁mattress	-11.9436
▁mccarthy	-11.9436
▁mcclure	-11.9436
▁meadow	-11.9436
▁melody	-11.9436
▁merchant	-11.9436
▁mickey	-11.9436
▁mimosa	-11.9436
▁minimum	-11.9436
▁ministry	-11.9436
▁miraculous	-11.9436
▁misjudged	-11.9436
▁mitchie	-11.9436
▁mizzen	-11.9436
▁molecul	-11.9436
▁monopol	-11.9436
▁monsoon	-11.9436
▁mukesh	-11.9436
▁nitroglycerin	-11.9436
▁norwegian	-11.9436
▁notredame	-11.9436
▁nutrients	-11.9436
▁oatmeal	-11.9436
▁october	-11.9436
▁olenski	-11.9436
▁outlook	-11.9436
▁outrun	-11.9436
▁overdue	-11.9436
▁panpisco	-11.9436
▁parliament	-11.9436
▁patriot	-11.9436
▁peckerwood	-11.9436
▁peninsula	-11.9436
▁perfume	-11.9436
▁perimeter	-11.9436
▁physician	-11.9436
▁pianoforte	-11.9436
▁plausibility	-11.9436
▁plausible	-11.9436
▁poitiers	-11.9436
▁poverty	-11.9436
▁preparation	-11.9436
▁preparing	-11.9436
▁prescott	-11.9436
▁prescription	-11.9436
▁presidency	-11.9436
▁preview	-11.9436
▁propeller	-11.9436
▁protocol	-11.9436
▁provoke	-11.9436
▁psalm	-11.9436
▁quentin	-11.9436
▁quidditch	-11.9436
▁raksha	-11.9436
▁raymond	-11.9436
▁reassemble	-11.9436
▁rebellion	-11.9436
▁receiving	-11.9436
▁recruit	-11.9436
▁redemption	-11.9436
▁reelection	-11.9436
▁registration	-11.9436
▁replica	-11.9436
▁resources	-11.9436
▁sadelstein	-11.9436
▁saintloup	-11.9436
▁samaritan	-11.9436
▁savior	-11.9436
▁sharkticons	-11.9436
▁sheriff	-11.9436
▁sicilian	-11.9436
▁skedaddle	-11.9436
▁smuggling	-11.9436
▁snitch	-11.9436
▁snowflake	-11.9436
▁societies	-11.9436
▁sophisticated	-11.9436
▁soprano	-11.9436
▁soundwave	-11.9436
▁souvenir	-11.9436
▁spionom	-11.9436
▁splattered	-11.9436
▁stradivarius	-11.9436
▁stupendous	-11.9436
▁sublime	-11.9436
▁succotash	-11.9436
▁sullivan	-11.9436
▁synchronis	-11.9436
▁tarpaulin	-11.9436
▁telemart	-11.9436
▁tempests	-11.9436
▁terreray	-11.9436
▁testimon	-11.9436
▁thirsk	-11.9436
▁thriving	-11.9436
▁tobacco	-11.9436
▁toothpaste	-11.9436
▁torpedo	-11.9436
▁treasury	-11.9436
▁trinket	-11.9436
▁troubling	-11.9436
▁truffle	-11.9436
▁tweedledum	-11.9436
▁ucla	-11.9436
▁umbradge	-11.9436
▁underminer	-11.9436
▁unlucky	-11.9436
▁unmovable	-11.9436
▁unnecessary	-11.9436
▁unplug	-11.9436
▁uptempo	-11.9436
▁vancouver	-11.9436
▁vaucouleurs	-11.9436
▁vegetarian	-11.9436
▁veronica	-11.9436
▁vulnerable	-11.9436
▁welcoming	-11.9436
▁welfare	-11.9436
▁whisky	-11.9436
▁whopper	-11.9436
▁witchcraft	-11.9436
▁wpsst	-11.9436
▁xavier	-11.9436
▁youpia	-11.9436
▁yvonne	-11.9436
▁zodiac	-11.9436
animous	-11.9436
▁acquir	-11.9436
▁brainstorm	-11.9436
▁choreograph	-11.9436
▁chronic	-11.9436
▁culverin	-11.9436
▁dispatch	-11.9436
▁enthusiastic	-11.9436
▁houseguest	-11.9436
▁narrow	-11.9436
▁retard	-11.9436
▁scheme	-11.9436
▁shipwreck	-11.9436
▁bandaid	-11.9436
▁bertie	-11.9436
▁bestseller	-11.9436
▁blaming	-11.9436
▁claus	-11.9436
▁compress	-11.9436
▁fascinated	-11.9436
▁flesheating	-11.9436
▁freelance	-11.9436
▁halfhour	-11.9436
▁hesitating	-11.9436
▁hyper	-11.9436
▁hypno	-11.9436
▁identify	-11.9436
▁illustrat	-11.9436
▁inseparable	-11.9436
▁knick	-11.9436
▁latitude	-11.9436
▁loaf	-11.9436
▁mhm	-11.9436
▁oath	-11.9436
▁otra	-11.9436
▁pantoni	-11.9436
▁plymouth	-11.9436
▁premises	-11.9436
▁rejoic	-11.9436
▁residents	-11.9436
▁rivier	-11.9436
▁rookie	-11.9436
▁titani	-11.9436
▁tourelles	-11.9436
▁tunic	-11.9436
▁unprecedented	-11.9436
▁unworthy	-11.9436
▁woodbury	-11.9436
▁bytes	-11.9436
▁canker	-11.9436
▁carcass	-11.9436
▁editor	-11.9436
▁filter	-11.9436
▁humina	-11.9436
▁moreno	-11.9436
▁nauseous	-11.9436
▁physics	-11.9436
▁reinforcements	-11.9436
▁smythe	-11.9436
▁vandoy	-11.9436
▁venus	-11.9436
▁waterloo	-11.9436
antoinette	-11.9436
▁afflict	-11.9436
▁deniers	-11.9436
▁draco	-11.9436
▁fiesta	-11.9436
▁gann	-11.9436
▁intrigue	-11.9436
▁leibel	-11.9436
▁lilliputians	-11.9436
▁marquis	-11.9436
▁mayhem	-11.9436
▁muggles	-11.9436
▁phillips	-11.9436
▁scoop	-11.9436
▁sedative	-11.9436
▁senna	-11.9436
▁symp	-11.9436
▁whatsoever	-11.9436
▁cinnamon	-11.9436
▁contaminated	-11.9436
▁correspondence	-11.9436
▁democracy	-11.9436
▁fionn	-11.9436
▁parasite	-11.9436
▁reenter	-11.9436
▁salina	-11.9436
▁silicon	-11.9436
▁spicy	-11.9436
▁tampa	-11.9436
▁territori	-11.9436
▁chord	-11.9436
▁clogs	-11.9436
▁yeshuh	-11.9436
▁abundan	-11.9436
▁chugg	-11.9436
▁corrupt	-11.9436
▁bugging	-11.9436
▁incurable	-11.9436
▁jingling	-11.9436
▁manifest	-11.9436
▁nickname	-11.9436
▁reckless	-11.9436
▁industry	-11.9436
▁irresponsible	-11.9436
▁kingfisher	-11.9436
▁lvor	-11.9436
▁pinned	-11.9436
▁vamos	-11.9436
▁waistband	-11.9436
▁chimpanzee	-11.9436
▁funnel	-11.9436
▁session	-11.9436
▁attagirl	-11.9436
▁craftsman	-11.9436
▁gunnel	-11.9436
▁pussfeller	-11.9436
▁vibes	-11.9436
▁waistcoat	-11.9436
▁grazie	-11.9436
▁mangoes	-11.9436
▁sterling	-11.9436
▁batterbie	-11.9436
▁colleague	-11.9436
▁asap	-11.9436
▁davis	-11.9436
▁gagarin	-11.9436
▁nostrils	-11.9436
ccino	-11.9436
▁blaze	-11.9436
▁classmates	-11.9436
lph	-11.9436
▁booger	-11.9436
nstein	-11.9436
▁cedar	-11.9436
▁commotion	-11.9436
▁dazzl	-11.9436
▁maggot	-11.9436
▁accurate	-11.9436
▁arrgh	-11.9436
▁hurray	-11.9436
▁neighbourhood	-11.9436
▁hottest	-11.9437
▁slurping	-11.9437
▁barnabas	-11.9437
▁cardiologist	-11.9437
▁tandoor	-11.9437
▁vested	-11.9437
dynamic	-11.9437
▁eloquence	-11.9437
▁incompetence	-11.9437
▁vandal	-11.9437
▁briefcase	-11.9437
▁grouse	-11.9437
▁tombstone	-11.9437
▁barging	-11.9437
▁cosmetic	-11.9437
▁obradycallaghan	-11.9437
▁vaporize	-11.9437
▁sloppy	-11.9437
▁whizzing	-11.9437
venge	-11.9437
▁hisses	-11.9437
▁blabber	-11.9437
▁convertible	-11.9437
▁detonate	-11.9437
▁aroma	-11.9437
▁hexham	-11.9437
▁trouser	-11.9437
▁dingle	-11.9437
▁margin	-11.9437
▁multiplied	-11.9437
▁posterized	-11.9437
▁insecurity	-11.9437
▁tennis	-11.9437
▁banner	-11.9437
nunciat	-11.9437
▁merlin	-11.9437
▁endeavors	-11.9437
heddin	-11.9437
▁audition	-11.9437
▁employment	-11.9437
ampered	-11.9437
▁martian	-11.9437
▁intercept	-11.9437
▁allenham	-11.9437
▁clingy	-11.9437
▁gwen	-11.9437
▁inhospitable	-11.9437
▁uglie	-11.9437
▁furnishings	-11.9437
▁numero	-11.9437
nnnn	-11.9437
▁elected	-11.9437
▁unforgivable	-11.9437
▁arnie	-11.9437
▁downhill	-11.9437
▁deformit	-11.9437
▁patronize	-11.9437
▁regroup	-11.9437
▁sunglasses	-11.9437
▁isolated	-11.9437
▁stepsister	-11.9437
▁investigation	-11.9437
▁humanely	-11.9437
▁armpit	-11.9437
▁vomit	-11.9437
▁devonshire	-11.9437
▁stabbed	-11.9437
▁hormon	-11.9437
▁asia	-11.9437
▁blitz	-11.9437
▁repeatedly	-11.9437
▁holland	-11.9437
▁ounce	-11.9437
▁grasp	-11.9437
▁confront	-11.9437
▁gravestone	-11.9437
▁graveyard	-11.9437
▁blouse	-11.9437
▁makalo	-11.9437
▁negotiation	-11.9437
▁beacon	-11.9437
▁faerie	-11.9437
▁outcome	-11.9437
▁wuss	-11.9437
antenna	-11.9437
▁nibbl	-11.9437
▁salute	-11.9437
▁chrissy	-11.9437
▁foiled	-11.9437
▁avery	-11.9437
erhardt	-11.9437
▁peach	-11.9437
▁cocktail	-11.9437
▁pushups	-11.9437
▁genu	-11.9437
▁zinga	-11.9437
▁buggy	-11.9437
▁steering	-11.9437
▁labato	-11.9437
▁confine	-11.9437
▁appreciative	-11.9437
▁indicate	-11.9437
▁micro	-11.9437
▁braid	-11.9437
▁freddie	-11.9437
▁scorch	-11.9437
▁jockey	-11.9437
▁rome	-11.9437
▁slut	-11.9437
▁toddler	-11.9437
▁vienna	-11.9437
▁xray	-11.9437
▁trotting	-11.9437
male	-11.9437
▁magnific	-11.9437
▁whatwhat	-11.9437
▁petition	-11.9437
▁butterfly	-11.9438
▁absence	-11.9438
▁sissy	-11.9438
▁caravan	-11.9438
▁instructor	-11.9438
▁nutrition	-11.9438
▁categories	-11.9438
▁windowsill	-11.9438
▁fleab	-11.9438
▁grainne	-11.9438
▁jammies	-11.9438
▁fragment	-11.9438
▁locksley	-11.9438
▁azteca	-11.9438
▁clipboard	-11.9438
▁laddie	-11.9438
▁lingerie	-11.9438
▁roster	-11.9438
▁yanke	-11.9438
vigor	-11.9438
▁greta	-11.9438
shade	-11.9438
▁scanning	-11.9438
▁rabies	-11.9438
▁swole	-11.9438
▁marlin	-11.9438
gram	-11.9438
▁peewee	-11.9438
▁pollen	-11.9438
▁candid	-11.9438
▁friggin	-11.9438
▁karen	-11.9438
▁slipping	-11.9438
▁navigation	-11.9438
▁separation	-11.9438
forsake	-11.9438
▁lurk	-11.9438
▁womb	-11.9438
▁brutality	-11.9438
▁overpower	-11.9438
▁omelette	-11.9438
▁achievement	-11.9438
▁belgi	-11.9438
▁foster	-11.9438
▁stint	-11.9438
▁klane	-11.9438
▁informally	-11.9438
▁juda	-11.9438
elina	-11.9438
▁cheque	-11.9438
▁guac	-11.9438
▁communion	-11.9438
▁persuasion	-11.9438
▁persist	-11.9438
▁thorn	-11.9438
▁mints	-11.9438
▁scone	-11.9438
▁comf	-11.9439
▁beret	-11.9439
▁canteen	-11.9439
▁shelves	-11.9439
▁mwah	-11.9439
▁tactic	-11.9439
▁warbling	-11.9439
▁kapu	-11.9439
▁preferably	-11.9439
▁pike	-11.9439
▁priority	-11.9439
▁shawl	-11.9439
▁shabby	-11.9439
▁avert	-11.9439
▁prosecutor	-11.9439
▁stature	-11.9439
▁drainage	-11.9439
▁moonlight	-11.9439
▁starscream	-11.9439
▁accommodation	-11.9439
▁hibernation	-11.9439
▁bonnie	-11.9439
▁chico	-11.9439
▁posture	-11.9439
▁rash	-11.9439
▁urinat	-11.9439
▁paycheck	-11.9439
▁plotting	-11.9439
band	-11.9439
▁spectre	-11.9439
▁humour	-11.9439
▁musk	-11.9439
▁upwind	-11.9439
▁tickling	-11.9439
litary	-11.9439
▁assets	-11.944
▁pillar	-11.944
▁accomplishment	-11.944
▁stamp	-11.944
▁attila	-11.944
▁gastro	-11.944
▁vicki	-11.944
▁token	-11.944
▁booze	-11.944
▁lndian	-11.944
▁exert	-11.944
▁waist	-11.944
▁dawg	-11.944
▁mince	-11.944
▁starlight	-11.944
string	-11.944
▁yiwhe	-11.944
▁liftoff	-11.944
▁dominion	-11.944
▁hassle	-11.944
▁tryouts	-11.944
▁twitch	-11.944
▁brig	-11.944
▁hesitate	-11.944
▁petrol	-11.944
▁footwork	-11.9441
▁investment	-11.9441
▁jumprope	-11.9441
▁tits	-11.9441
▁huph	-11.9441
▁foley	-11.9441
arnish	-11.9441
▁verbal	-11.9441
▁blush	-11.9441
▁pennon	-11.9441
▁berry	-11.9441
▁pox	-11.9441
▁bullied	-11.9441
▁gingy	-11.9441
▁plotted	-11.9441
▁unravel	-11.9441
▁stewart	-11.9441
▁webster	-11.9441
▁production	-11.9441
gghh	-11.9441
▁disney	-11.9441
angri	-11.9441
▁clam	-11.9441
▁warrant	-11.9441
▁matron	-11.9442
▁moore	-11.9442
▁hex	-11.9442
▁appraised	-11.9442
▁attendant	-11.9442
▁expired	-11.9442
▁swiped	-11.9442
roving	-11.9442
▁beings	-11.9442
▁monte	-11.9442
▁cried	-11.9442
▁petro	-11.9442
▁victorious	-11.9442
▁frail	-11.9442
▁firepower	-11.9442
play	-11.9442
tenance	-11.9442
▁reactor	-11.9442
▁spurn	-11.9442
▁rudder	-11.9442
▁absorbe	-11.9442
▁dibble	-11.9442
▁adequate	-11.9442
▁dignified	-11.9442
▁sanitary	-11.9442
▁sufficient	-11.9442
▁whisker	-11.9442
▁winston	-11.9442
▁shred	-11.9442
▁brady	-11.9442
▁cheeseray	-11.9442
▁hol	-11.9442
▁muscular	-11.9442
▁variety	-11.9442
▁capacity	-11.9443
▁rally	-11.9443
▁morton	-11.9443
▁bracelet	-11.9443
▁prospector	-11.9443
adada	-11.9443
▁vichy	-11.9443
▁doodle	-11.9443
▁manicure	-11.9443
maki	-11.9443
▁troublemaker	-11.9443
▁dyna	-11.9443
▁outof	-11.9443
▁egghead	-11.9443
▁posing	-11.9443
▁supersuit	-11.9443
▁siler	-11.9443
▁exhibition	-11.9443
▁churchill	-11.9443
▁amor	-11.9444
▁swoop	-11.9444
▁subway	-11.9444
lights	-11.9444
▁sketch	-11.9444
▁reuni	-11.9444
▁finch	-11.9444
▁grandda	-11.9444
▁courtship	-11.9444
▁polo	-11.9444
▁peril	-11.9444
▁religion	-11.9444
▁spurt	-11.9444
▁blanche	-11.9444
▁crude	-11.9444
▁immaculate	-11.9444
▁transp	-11.9445
▁fender	-11.9445
▁flippers	-11.9445
▁carrier	-11.9445
▁tux	-11.9445
▁doggone	-11.9445
▁drug	-11.9445
▁bean	-11.9445
▁devour	-11.9445
▁sonny	-11.9445
▁scenery	-11.9445
▁acceptance	-11.9445
▁booyah	-11.9445
▁toil	-11.9445
▁peeler	-11.9445
▁ridge	-11.9445
▁cellar	-11.9446
▁papaya	-11.9446
▁tyre	-11.9446
▁aden	-11.9446
▁coca	-11.9446
▁pathway	-11.9446
▁cox	-11.9446
▁merciful	-11.9446
▁admirers	-11.9446
▁endorse	-11.9446
▁frequently	-11.9447
▁rapidly	-11.9447
kei	-11.9447
▁pasture	-11.9447
▁grove	-11.9447
▁oom	-11.9447
▁region	-11.9447
▁whang	-11.9447
▁investigating	-11.9447
▁tush	-11.9447
▁doings	-11.9447
▁joyfully	-11.9448
▁supervised	-11.9448
▁overreacting	-11.9448
▁trespassing	-11.9448
▁hoard	-11.9448
▁tilt	-11.9448
▁croaking	-11.9448
▁occasionally	-11.9448
polis	-11.9448
▁snail	-11.9448
▁hatred	-11.9448
sits	-11.9449
▁spout	-11.9449
▁supportive	-11.9449
▁burglary	-11.9449
▁slimy	-11.9449
▁african	-11.9449
▁andor	-11.9449
▁abuse	-11.9449
▁decay	-11.9449
▁morrison	-11.945
aign	-11.945
▁albus	-11.945
▁ranting	-11.945
▁georgina	-11.945
llinger	-11.945
▁severus	-11.945
▁transition	-11.945
▁rejection	-11.945
▁vendor	-11.945
▁aux	-11.945
▁decorator	-11.945
▁fitting	-11.9451
▁guild	-11.9451
▁jig	-11.9451
▁straightaway	-11.9451
▁declined	-11.9451
▁preserv	-11.9451
▁stirr	-11.9451
▁chch	-11.9451
▁swoon	-11.9451
▁decal	-11.9451
▁manipulate	-11.9452
▁fairyland	-11.9452
weh	-11.9452
▁marion	-11.9452
▁rode	-11.9452
▁poisonous	-11.9452
▁footmen	-11.9452
▁englishmen	-11.9453
▁doubletime	-11.9453
▁tripped	-11.9453
drop	-11.9453
▁hobo	-11.9453
▁vaguely	-11.9453
▁initially	-11.9454
▁management	-11.9454
▁preachin	-11.9455
▁planoff	-11.9455
▁cities	-11.9455
zie	-11.9455
strate	-11.9455
▁losin	-11.9455
▁heroism	-11.9455
▁loop	-11.9455
▁honestto	-11.9456
▁rex	-11.9456
▁bushes	-11.9456
rabbits	-11.9456
▁hoist	-11.9457
▁brotherhood	-11.9457
▁tomatoes	-11.9457
▁inches	-11.9457
▁cubby	-11.9457
▁edna	-11.9457
▁bulletin	-11.9457
▁ivy	-11.9458
▁barter	-11.9458
▁yarn	-11.9458
▁baker	-11.9458
▁fries	-11.9458
tobe	-11.9458
▁milkman	-11.9458
▁wooh	-11.9458
▁partay	-11.9459
▁rho	-11.9459
▁losses	-11.9459
▁vein	-11.946
▁shipped	-11.946
▁wonderland	-11.946
▁breakthrough	-11.946
dication	-11.946
▁nno	-11.946
▁gloat	-11.946
wash	-11.946
▁managing	-11.946
poo	-11.9461
▁clod	-11.9461
▁linger	-11.9461
▁charle	-11.9461
▁leoni	-11.9462
▁valve	-11.9462
pling	-11.9462
▁cass	-11.9462
▁jury	-11.9462
▁chopped	-11.9462
▁setback	-11.9462
▁overhead	-11.9463
▁offi	-11.9463
▁fig	-11.9463
▁aff	-11.9463
▁housewife	-11.9463
▁ske	-11.9464
▁drone	-11.9464
▁footage	-11.9464
▁mustang	-11.9464
▁frustrated	-11.9464
▁chopping	-11.9465
▁livestream	-11.9465
▁anticipated	-11.9465
▁mule	-11.9465
▁pak	-11.9465
▁homeroom	-11.9465
▁gravel	-11.9466
▁canine	-11.9466
▁kent	-11.9466
▁instantly	-11.9467
▁hooligan	-11.9467
▁flown	-11.9468
▁grum	-11.9468
▁clothing	-11.9468
▁maud	-11.9468
▁gulping	-11.9468
mona	-11.9468
▁hob	-11.9468
▁eyebrow	-11.9468
▁scramble	-11.9468
▁abounding	-11.9468
▁bakery	-11.9469
▁hun	-11.9469
▁zit	-11.9469
▁gland	-11.9469
▁donation	-11.9469
assic	-11.9469
▁controlling	-11.947
▁satin	-11.947
▁blackout	-11.947
▁brewer	-11.947
gage	-11.947
▁tenant	-11.947
▁sufferin	-11.947
▁degrad	-11.9471
▁agreeable	-11.9471
▁mono	-11.9471
▁waltz	-11.9472
▁expanded	-11.9472
▁resigned	-11.9472
▁slaughtered	-11.9472
▁ofjo	-11.9472
▁hideout	-11.9472
▁pumped	-11.9472
▁consumed	-11.9472
▁inspired	-11.9472
▁flattery	-11.9473
ggi	-11.9473
▁machinery	-11.9473
▁loire	-11.9474
▁predictable	-11.9474
▁mast	-11.9474
▁inventory	-11.9474
▁honky	-11.9474
bourg	-11.9474
▁sightsee	-11.9475
▁diction	-11.9475
▁morale	-11.9476
gum	-11.9476
▁pitches	-11.9476
▁tighten	-11.9476
▁tong	-11.9476
▁barbar	-11.9477
trained	-11.9477
▁stretches	-11.9477
▁moss	-11.9478
▁estimate	-11.9478
▁dumbness	-11.9478
▁pank	-11.9479
▁hoof	-11.9479
▁corporations	-11.9479
▁corvettes	-11.9479
▁earthquakes	-11.9479
▁verse	-11.948
▁respectable	-11.948
▁overwhelm	-11.9481
▁rice	-11.9481
▁volcanoes	-11.9481
stille	-11.9483
▁panty	-11.9483
▁organized	-11.9484
▁presentation	-11.9484
▁chin	-11.9484
gggg	-11.9485
▁humanity	-11.9485
▁antic	-11.9485
▁tok	-11.9485
▁redeemed	-11.9486
▁injected	-11.9486
▁tempted	-11.9486
▁triumphed	-11.9486
▁perished	-11.9486
▁susie	-11.9487
▁superman	-11.9487
▁probe	-11.9487
▁anthere	-11.9488
▁snowball	-11.9488
zzy	-11.9489
▁sunk	-11.9489
▁loft	-11.9489
▁creed	-11.9489
▁hermano	-11.949
star	-11.9491
▁eliminated	-11.9492
▁nowa	-11.9493
▁certificate	-11.9494
▁lute	-11.9494
occ	-11.9494
▁abby	-11.9495
▁traditional	-11.9495
▁zum	-11.9495
bot	-11.9496
▁handling	-11.9498
▁jimp	-11.9498
▁justifi	-11.9498
▁popped	-11.9498
▁lax	-11.9498
erial	-11.9498
▁teeny	-11.9498
▁mah	-11.9499
▁leonardo	-11.9499
▁soaked	-11.95
▁repaired	-11.9501
▁dreadfully	-11.9501
▁goldf	-11.9502
▁bailed	-11.9502
▁gad	-11.9503
ential	-11.9504
piece	-11.9505
▁monarchy	-11.9506
roll	-11.9506
tial	-11.9507
▁bargaining	-11.9508
▁shrinking	-11.9508
▁approved	-11.9508
▁rearrang	-11.9511
▁eng	-11.9511
▁jur	-11.9512
eeee	-11.9513
▁flooded	-11.9514
▁rosen	-11.9516
hio	-11.9517
▁restored	-11.9519
▁hart	-11.9519
aah	-11.9519
▁jeopardiz	-11.952
▁induce	-11.9521
▁deli	-11.9521
▁joker	-11.9521
▁dined	-11.9522
▁faintly	-11.9522
▁adventurer	-11.9522
ttingly	-11.9522
▁zen	-11.9524
▁antoni	-11.9524
▁solly	-11.9527
▁included	-11.9528
▁porto	-11.9528
▁contained	-11.9528
▁mourning	-11.9529
▁thrilling	-11.9529
▁flipped	-11.9529
dore	-11.9529
▁farce	-11.953
▁padd	-11.953
icle	-11.9531
▁questionable	-11.9531
epid	-11.9531
▁accessori	-11.9533
▁lifelike	-11.9533
iger	-11.9534
▁setup	-11.9536
▁parading	-11.9536
▁muck	-11.9538
▁sweaty	-11.9539
▁hiking	-11.954
▁neer	-11.954
ravel	-11.9542
▁unleashed	-11.9543
▁matey	-11.9543
▁obeyed	-11.9544
▁eno	-11.9546
hereabouts	-11.9547
▁pint	-11.9549
▁mul	-11.9553
▁decorations	-11.9554
▁cepes	-11.9554
▁creators	-11.9554
▁mannequins	-11.9554
▁spuddies	-11.9554
▁suburbs	-11.9554
▁hardships	-11.9554
▁tweets	-11.9554
▁freckles	-11.9554
▁bouncing	-11.9554
▁seized	-11.9554
▁fleas	-11.9554
▁momentum	-11.9555
▁socially	-11.9556
▁bred	-11.9557
▁flaps	-11.9557
tona	-11.9557
rile	-11.9558
▁rend	-11.956
▁photography	-11.9561
▁airlines	-11.9562
▁backfire	-11.9564
▁vip	-11.9565
▁ola	-11.9568
rummy	-11.9568
▁weaker	-11.957
▁entertaining	-11.957
▁anus	-11.9571
▁cryin	-11.9571
sages	-11.9574
haul	-11.9574
▁topic	-11.9576
▁pickle	-11.9576
▁funk	-11.9582
▁hel	-11.9585
▁scraping	-11.9586
▁arse	-11.9586
▁chilly	-11.9588
▁millionaire	-11.9589
▁fussing	-11.959
▁desperately	-11.9591
▁nameless	-11.9591
▁defeated	-11.9591
▁succeeded	-11.96
▁wandered	-11.96
▁sig	-11.96
▁rod	-11.9601
▁mushy	-11.9605
▁anlet	-11.9606
▁norri	-11.9608
▁raci	-11.961
▁preaching	-11.9614
llic	-11.9616
▁quills	-11.9618
▁weakly	-11.9619
may	-11.9621
▁impound	-11.9626
▁revise	-11.9627
▁howls	-11.9629
▁wicks	-11.9629
▁emergenc	-11.963
▁sputters	-11.963
▁buggers	-11.963
▁clerks	-11.963
▁pattersons	-11.963
▁blanks	-11.963
▁initials	-11.9631
▁surfs	-11.9631
▁whaaa	-11.9632
▁huffs	-11.9633
▁athletes	-11.9634
▁martinis	-11.9635
▁reminder	-11.9638
▁runners	-11.9638
nie	-11.9642
▁mona	-11.9643
▁recovered	-11.9643
▁boilers	-11.9644
▁sacrificed	-11.9644
stabbing	-11.9648
jack	-11.965
▁flavored	-11.9651
▁defy	-11.9651
▁tighter	-11.9655
▁canceled	-11.9657
▁dialed	-11.9657
▁mit	-11.9657
▁aaahh	-11.9659
lkin	-11.9661
▁trashy	-11.9663
▁bene	-11.9664
dance	-11.9664
fun	-11.9664
▁recur	-11.9672
think	-11.9674
▁pasta	-11.9675
▁liver	-11.9675
▁runne	-11.9676
▁uncertaint	-11.9677
▁oryou	-11.9678
sely	-11.9684
▁trailing	-11.9695
▁claimed	-11.9699
▁chilled	-11.97
▁squirts	-11.9702
whatcha	-11.9704
▁lem	-11.9704
▁hous	-11.9705
▁assholes	-11.9708
▁arguments	-11.9708
▁benefits	-11.9708
▁noodles	-11.9708
▁redheads	-11.9708
▁tarlas	-11.9708
oke	-11.9708
▁depriv	-11.9711
▁pierc	-11.9711
▁forge	-11.9713
▁lil	-11.9714
being	-11.9715
▁rushed	-11.9717
▁drowning	-11.9719
▁roller	-11.9724
rich	-11.9726
▁photographers	-11.9726
▁revs	-11.9726
▁bou	-11.9727
▁hale	-11.9731
▁likewise	-11.9735
▁tripe	-11.9735
assed	-11.9736
▁scored	-11.9739
shaft	-11.974
ena	-11.9743
▁marched	-11.9745
▁oy	-11.9745
▁shamed	-11.9749
buck	-11.9755
ility	-11.976
▁finn	-11.9764
▁duet	-11.9764
▁spared	-11.9766
twitter	-11.9769
▁hatched	-11.9772
▁prayed	-11.9774
▁ohoh	-11.9776
▁creeping	-11.9779
solve	-11.978
▁daydreams	-11.9783
▁generations	-11.9786
▁yungs	-11.9786
▁ribbons	-11.9786
▁vessels	-11.9786
▁favourites	-11.9786
▁whwhats	-11.9786
▁reveals	-11.9787
▁needles	-11.9793
▁copying	-11.98
urgh	-11.9802
▁blamed	-11.9802
▁gib	-11.9804
▁demo	-11.9804
▁hou	-11.9807
rack	-11.9809
▁diplomat	-11.9809
▁tab	-11.981
▁placement	-11.9811
▁dye	-11.9815
▁quill	-11.9816
▁coco	-11.9817
▁chit	-11.9818
▁quota	-11.9819
▁pottery	-11.9823
▁learnt	-11.9823
nishment	-11.9834
▁fundamentals	-11.9865
▁sailboats	-11.9865
▁suggestions	-11.9865
▁missiles	-11.9865
▁sus	-11.987
▁ranks	-11.9872
▁missus	-11.9875
▁sticker	-11.9875
▁composit	-11.9875
▁idle	-11.9877
▁augustin	-11.9878
▁colder	-11.9879
broken	-11.9879
▁dealt	-11.9881
got	-11.9884
utes	-11.9887
▁factors	-11.9887
▁ifs	-11.989
▁wheelie	-11.99
▁checka	-11.9905
▁panick	-11.9912
▁bearer	-11.9918
▁masse	-11.9921
▁booing	-11.9924
mont	-11.9925
▁muc	-11.9927
thank	-11.9932
▁contacted	-11.9932
▁galact	-11.9933
▁lookee	-11.9935
ican	-11.9937
▁flashing	-11.9943
▁principles	-11.9944
▁appearances	-11.9944
▁punks	-11.9944
▁salads	-11.9945
▁speculat	-11.9949
▁camel	-11.9952
▁nasa	-11.9955
live	-11.9956
▁european	-11.9961
▁aces	-11.9965
humping	-11.997
▁disappearing	-11.9971
▁wits	-11.9977
▁squat	-11.9978
▁eighty	-11.9994
▁scraps	-11.9998
cast	-11.9998
▁reno	-12.0005
sday	-12.0006
iva	-12.0012
▁stationed	-12.0015
▁diapers	-12.0018
▁parrots	-12.0024
▁straws	-12.0024
▁commitments	-12.0024
▁chim	-12.0026
▁mocks	-12.0026
▁walkers	-12.003
your	-12.0033
karo	-12.0039
▁pier	-12.0042
▁hors	-12.0043
▁ohho	-12.0053
muff	-12.0062
dry	-12.0066
chni	-12.0084
▁overlook	-12.0088
goo	-12.01
eens	-12.0103
bie	-12.0109
▁programme	-12.0115
▁sweeter	-12.0115
▁cracker	-12.0117
▁sel	-12.0126
▁stripp	-12.0127
▁handled	-12.0131
▁entra	-12.0134
dan	-12.0138
▁norm	-12.0138
ore	-12.0153
▁apo	-12.0166
▁burs	-12.0171
rag	-12.0181
▁deb	-12.0185
▁askin	-12.0193
▁pra	-12.0234
▁trai	-12.0234
▁spe	-12.0237
▁arg	-12.0237
▁clima	-12.0239
anda	-12.0246
▁drea	-12.0251
adios	-12.0262
say	-12.0267
tarts	-12.029
▁cbs	-12.0294
▁llet	-12.0302
activity	-12.0334
iscard	-12.0334
▁trill	-12.0337
▁mala	-12.0337
▁submi	-12.0363
fed	-12.0376
▁squal	-12.0408
▁bol	-12.0461
▁tryin	-12.0477
hit	-12.0483
▁stayin	-12.0491
▁workin	-12.0521
▁sav	-12.053
▁dol	-12.0535
▁investigate	-12.0538
tipped	-12.0539
uth	-12.0542
hosen	-12.0546
▁fantastical	-12.0553
tract	-12.0556
▁clo	-12.0567
tolerable	-12.0588
▁mudd	-12.0596
▁summ	-12.0605
▁eli	-12.0621
▁compa	-12.063
▁willi	-12.0638
▁cava	-12.0639
▁appr	-12.0639
nag	-12.0645
month	-12.0651
▁frantic	-12.0652
▁moom	-12.0667
dental	-12.0683
▁domes	-12.0697
armament	-12.071
▁andr	-12.0724
▁poise	-12.0729
▁gali	-12.0739
bleh	-12.074
▁radiat	-12.0778
evel	-12.0778
hoho	-12.0782
▁uni	-12.0803
aule	-12.0813
▁ando	-12.0823
▁bowie	-12.0831
tour	-12.0842
▁lush	-12.0865
▁forag	-12.0869
▁sooth	-12.0911
cure	-12.095
▁cou	-12.096
▁finance	-12.0963
▁dundundu	-12.0976
▁kh	-12.0978
▁pali	-12.0988
▁sander	-12.0992
unting	-12.1023
ature	-12.1039
▁intimidate	-12.1044
▁caper	-12.1095
udge	-12.1101
▁deactivate	-12.1106
▁arr	-12.1118
eves	-12.1118
▁interven	-12.1122
rania	-12.1128
llen	-12.1141
▁enlarg	-12.1146
okay	-12.1183
elain	-12.1187
why	-12.1201
▁cob	-12.1207
▁avia	-12.1245
orro	-12.1249
▁sim	-12.1253
▁jelli	-12.1278
inc	-12.128
▁juic	-12.1284
▁combin	-12.1284
▁snapp	-12.1295
ofthem	-12.1296
▁mangle	-12.1297
▁mugg	-12.1304
rumming	-12.1367
▁heater	-12.1371
▁wherea	-12.1378
▁loco	-12.1467
ene	-12.1482
▁tru	-12.1485
lab	-12.1507
▁glo	-12.1519
igators	-12.1562
perm	-12.1569
▁cher	-12.1572
bre	-12.1575
▁yorker	-12.1608
▁trac	-12.1615
▁serpent	-12.1615
▁terr	-12.1615
logged	-12.1622
rpentine	-12.1651
▁slit	-12.1672
▁presum	-12.1686
▁hog	-12.1698
▁trio	-12.1704
termination	-12.1707
▁mak	-12.1732
▁heroin	-12.1735
gone	-12.1739
beam	-12.1741
agen	-12.1745
▁spi	-12.1748
organism	-12.1752
jor	-12.1764
▁curr	-12.1771
▁cav	-12.1776
▁moos	-12.1787
▁cont	-12.1804
▁din	-12.1854
uatro	-12.1859
▁cann	-12.189
stated	-12.1916
ima	-12.1922
▁poi	-12.1928
▁mortif	-12.1939
gene	-12.1954
▁that	-12.1958
osa	-12.1958
sixth	-12.1975
▁pol	-12.1997
nuity	-12.2025
crackin	-12.206
▁pic	-12.2125
▁nor	-12.2142
▁buyer	-12.2154
uran	-12.2154
▁banish	-12.2161
▁intervene	-12.217
ipping	-12.2174
▁qual	-12.2206
ania	-12.2206
ories	-12.2212
dium	-12.2229
lapping	-12.226
bling	-12.2274
▁mur	-12.2278
tortion	-12.2294
▁swatt	-12.2331
▁tame	-12.2354
oppers	-12.236
▁pir	-12.2373
▁continu	-12.2376
▁coll	-12.2381
litch	-12.2393
▁soothe	-12.2409
code	-12.2415
apping	-12.2455
▁batt	-12.2489
▁floo	-12.2505
▁ador	-12.2521
▁stru	-12.253
variabl	-12.2533
▁forage	-12.256
▁jumb	-12.2561
nching	-12.2601
▁asto	-12.2637
ylon	-12.2639
mite	-12.2642
bor	-12.2668
▁larg	-12.2711
lets	-12.273
gestion	-12.2744
▁ama	-12.2772
too	-12.2774
▁sur	-12.2785
▁rad	-12.2795
▁intr	-12.2803
kun	-12.2821
aging	-12.2846
▁emil	-12.2852
▁spru	-12.2861
▁rape	-12.2879
▁contrar	-12.2901
▁mart	-12.2907
▁appreciat	-12.2918
▁hen	-12.2927
ncies	-12.2934
iya	-12.2937
▁bun	-12.2949
rig	-12.2971
▁unc	-12.2987
onnie	-12.3003
angle	-12.3024
asco	-12.3026
▁rang	-12.3037
▁spar	-12.3058
▁ava	-12.3061
awful	-12.3081
▁radioactiv	-12.3084
bypa	-12.3085
▁guid	-12.3093
rcum	-12.3115
▁ahooh	-12.3122
job	-12.3123
▁evasi	-12.3146
▁respectful	-12.3169
▁impos	-12.3177
hun	-12.3198
▁som	-12.3219
cond	-12.3266
close	-12.3291
▁smok	-12.3291
itting	-12.3317
bst	-12.3343
▁charl	-12.3388
dra	-12.339
lima	-12.34
guided	-12.3408
rising	-12.341
▁craz	-12.341
bol	-12.3412
arch	-12.3414
onic	-12.3433
▁trad	-12.3444
▁stat	-12.346
ienne	-12.3478
rapped	-12.3493
▁kim	-12.3512
ani	-12.3522
uf	-12.3523
acu	-12.3547
locate	-12.3562
oma	-12.3598
spect	-12.3612
vert	-12.3623
tit	-12.3638
▁silenc	-12.3687
▁snob	-12.369
▁geolog	-12.3692
impo	-12.3695
▁flap	-12.3708
flect	-12.3731
bbut	-12.3733
▁darre	-12.3734
hard	-12.3754
▁unf	-12.376
oggin	-12.3777
▁transmit	-12.3781
▁balanc	-12.3781
▁apologiz	-12.3798
ishness	-12.3804
rago	-12.3816
yth	-12.3837
quot	-12.3838
bel	-12.3854
lued	-12.3855
▁diploma	-12.3856
▁capo	-12.3877
ager	-12.3883
▁damag	-12.3895
nage	-12.3903
▁bobb	-12.3934
▁cau	-12.3954
anne	-12.3954
▁consul	-12.3959
tious	-12.3966
aver	-12.3983
city	-12.3986
▁norma	-12.3992
▁upto	-12.3994
▁pressur	-12.4016
aaa	-12.4022
each	-12.4023
▁depr	-12.4035
▁deca	-12.4042
quit	-12.4073
▁pili	-12.4075
▁plac	-12.4078
▁wri	-12.4082
pit	-12.4083
▁verif	-12.4103
▁rec	-12.4104
▁pag	-12.4107
aiala	-12.4107
iary	-12.4123
ement	-12.4126
lums	-12.4142
cture	-12.4148
▁dimwit	-12.4174
▁sob	-12.4177
▁sizzl	-12.4181
faced	-12.4183
oepolish	-12.4191
tips	-12.4193
▁jeopard	-12.4197
▁collin	-12.4198
▁clap	-12.4206
▁sarc	-12.4211
▁inspir	-12.4216
▁gulp	-12.4216
▁emotion	-12.4221
rname	-12.4221
him	-12.4228
▁tweet	-12.423
▁mopin	-12.4231
▁whimper	-12.4234
position	-12.4236
▁recon	-12.4236
bums	-12.4239
▁flea	-12.4244
print	-12.4245
▁suburb	-12.4246
▁mannequin	-12.4248
▁spuddie	-12.4248
▁cepe	-12.4248
▁freckle	-12.4248
▁creator	-12.4248
▁delegat	-12.4248
▁unwi	-12.4249
▁decoration	-12.4252
ustache	-12.4255
▁jacque	-12.4256
▁expense	-12.4256
▁neighbour	-12.426
▁sponsor	-12.4261
▁tattoo	-12.4261
▁donut	-12.4262
▁shiver	-12.4263
▁obstacle	-12.4264
▁snore	-12.4265
▁ancestor	-12.4266
▁carnotaur	-12.4266
▁pyramid	-12.4266
▁vulture	-12.4268
▁footstep	-12.427
▁lantern	-12.427
▁instruction	-12.427
▁await	-12.4271
▁splutter	-12.4272
▁forc	-12.4281
▁firework	-12.4282
▁airline	-12.4282
▁tuc	-12.4285
range	-12.4288
good	-12.4288
owners	-12.4289
▁bapti	-12.4292
earing	-12.4295
▁mammal	-12.4299
opia	-12.43
omen	-12.43
charged	-12.4306
everage	-12.4313
▁surviv	-12.4314
▁hardship	-12.4314
ware	-12.4318
▁fulfil	-12.4321
▁maxim	-12.4322
▁halfling	-12.4325
orted	-12.4328
suring	-12.4329
▁splint	-12.4336
▁terri	-12.4342
▁environment	-12.4353
▁presid	-12.4355
▁separat	-12.4358
▁surround	-12.4358
▁ignor	-12.4359
oohoohoo	-12.4359
▁stir	-12.436
▁stre	-12.4362
ocate	-12.4366
▁refu	-12.4366
▁bullfight	-12.4367
▁itchin	-12.4368
▁appetit	-12.4369
titious	-12.4371
▁dat	-12.4372
▁metaphor	-12.4374
esome	-12.4377
▁withdraw	-12.4381
▁exaggerat	-12.4381
▁coloss	-12.4381
▁poob	-12.4382
▁blunder	-12.4383
▁restrict	-12.4384
▁dispos	-12.4385
callaghan	-12.4385
ligans	-12.4386
▁injur	-12.4387
▁consum	-12.4388
▁satisfy	-12.4388
▁involv	-12.4388
▁clang	-12.4389
▁seiz	-12.439
▁invit	-12.4391
wall	-12.4392
hine	-12.4392
▁activat	-12.4393
▁greet	-12.4393
mela	-12.4393
otted	-12.4395
▁scor	-12.4395
▁lagu	-12.4396
▁abound	-12.4397
▁eliminat	-12.4397
▁conquer	-12.4398
▁disrespect	-12.4398
class	-12.4398
▁assembl	-12.4398
bear	-12.44
▁devot	-12.4401
▁declar	-12.4402
▁obsess	-12.4404
▁suspend	-12.4404
▁miniaturize	-12.4404
mother	-12.4405
▁colour	-12.4405
bbed	-12.4406
▁offend	-12.4406
▁dismiss	-12.4406
conscious	-12.4407
▁supp	-12.4407
▁slim	-12.4407
elded	-12.4407
obedience	-12.4407
visibility	-12.4407
▁yuk	-12.4408
hydrate	-12.4409
word	-12.4409
hmm	-12.4409
guin	-12.4411
master	-12.4411
goblin	-12.4411
phrase	-12.4411
protective	-12.4411
mascot	-12.4411
sportsman	-12.4411
correct	-12.4412
belief	-12.4412
generation	-12.4412
temperature	-12.4412
digit	-12.4412
develop	-12.4412
▁decline	-12.4412
course	-12.4412
helm	-12.4413
pipes	-12.4413
claim	-12.4413
available	-12.4413
jinx	-12.4413
sensitive	-12.4413
yearold	-12.4413
disturbed	-12.4413
ucky	-12.4413
pole	-12.4413
daughter	-12.4413
professional	-12.4413
birth	-12.4413
filled	-12.4413
confidence	-12.4413
screen	-12.4414
▁terminate	-12.4414
valuable	-12.4414
changing	-12.4414
park	-12.4414
winning	-12.4414
grown	-12.4414
tunnel	-12.4414
historic	-12.4414
distance	-12.4414
understood	-12.4414
eagles	-12.4414
boyfriend	-12.4414
text	-12.4414
sniffing	-12.4414
sharp	-12.4414
growing	-12.4414
figured	-12.4414
girl	-12.4414
type	-12.4414
teacher	-12.4414
famous	-12.4414
flower	-12.4414
difference	-12.4414
monkey	-12.4414
cheese	-12.4414
awesome	-12.4414
control	-12.4414
indistinct	-12.4414
knock	-12.4414
brother	-12.4414
marine	-12.4414
magic	-12.4414
married	-12.4414
different	-12.4414
crazy	-12.4414
pretty	-12.4414
support	-12.4414
enough	-12.4414
safe	-12.4414
wives	-12.4414
shoulder	-12.4414
writer	-12.4414
▁quantit	-12.4414
▁facilit	-12.4415
fingers	-12.4415
consider	-12.4415
jacket	-12.4415
telling	-12.4415
issue	-12.4415
weight	-12.4415
dust	-12.4415
covered	-12.4415
entice	-12.4416
rocket	-12.4416
▁burglar	-12.4416
▁beyon	-12.4416
valley	-12.4416
check	-12.4417
▁bubb	-12.4417
species	-12.4417
▁athlet	-12.4417
forward	-12.4417
▁mercenar	-12.4417
water	-12.4418
attack	-12.4418
▁solemn	-12.4418
buckle	-12.4418
▁engag	-12.4418
▁anticipate	-12.4418
drudd	-12.4418
teeth	-12.4418
▁academ	-12.4418
service	-12.4418
▁dumm	-12.4419
▁jabberwock	-12.4419
▁opportunit	-12.4419
angel	-12.4419
groom	-12.4419
hunting	-12.4419
handled	-12.4419
egal	-12.4419
▁frequent	-12.4419
clip	-12.4419
spread	-12.442
arthy	-12.442
▁hurr	-12.442
▁refuge	-12.4421
▁rapid	-12.4421
flight	-12.4421
▁cheerlead	-12.4421
shut	-12.4421
origin	-12.4422
talk	-12.4422
▁literal	-12.4422
today	-12.4422
▁souffl	-12.4422
▁antiqu	-12.4422
▁communicat	-12.4422
azy	-12.4422
▁overhea	-12.4423
▁immaculat	-12.4423
▁manipulat	-12.4423
ograph	-12.4423
▁wond	-12.4424
stuck	-12.4424
▁puzzle	-12.4424
▁interfer	-12.4424
ddle	-12.4424
▁sensibl	-12.4424
▁sunshin	-12.4425
▁eugen	-12.4425
cold	-12.4425
▁horribl	-12.4425
▁crud	-12.4425
human	-12.4425
week	-12.4426
avia	-12.4426
puff	-12.4426
▁pizz	-12.4426
▁blanch	-12.4426
▁consume	-12.4427
▁whit	-12.4427
ulating	-12.4427
horts	-12.4427
joy	-12.4428
making	-12.4428
colo	-12.4428
▁scull	-12.4428
mala	-12.4429
▁arrogan	-12.4429
▁ethi	-12.443
▁industri	-12.443
fur	-12.443
vice	-12.443
twin	-12.443
▁cloth	-12.443
▁lndia	-12.4431
grew	-12.4431
▁nurs	-12.4431
▁instruct	-12.4431
▁atti	-12.4431
▁squee	-12.4432
▁elevat	-12.4432
▁michel	-12.4432
puss	-12.4433
▁persuasi	-12.4433
blanc	-12.4433
really	-12.4433
▁communi	-12.4433
▁veek	-12.4433
urfs	-12.4433
▁evaluat	-12.4433
▁geograph	-12.4433
▁navigat	-12.4434
ctua	-12.4434
fuge	-12.4434
ador	-12.4434
▁intent	-12.4434
▁posse	-12.4434
▁gamblin	-12.4434
▁writin	-12.4434
▁contribute	-12.4434
▁drivin	-12.4434
▁insta	-12.4434
▁leavin	-12.4434
▁decorate	-12.4434
▁grocer	-12.4434
rywhere	-12.4434
▁oblivi	-12.4434
convenience	-12.4434
erupper	-12.4434
▁lightnin	-12.4434
reaths	-12.4434
▁cuttin	-12.4435
▁swabbi	-12.4435
▁senat	-12.4435
retches	-12.4435
oulder	-12.4435
▁flaming	-12.4435
▁givin	-12.4435
▁humiliati	-12.4435
▁isabel	-12.4435
▁feroci	-12.4435
▁fortuna	-12.4435
▁advent	-12.4435
▁protest	-12.4435
▁excu	-12.4435
▁excla	-12.4435
magne	-12.4436
▁furnish	-12.4436
▁bababa	-12.4436
▁vvh	-12.4436
▁responsi	-12.4436
▁trala	-12.4436
help	-12.4436
▁puttin	-12.4436
scular	-12.4436
▁scholar	-12.4436
xide	-12.4436
▁consist	-12.4436
coordinate	-12.4436
ological	-12.4436
corde	-12.4436
▁confer	-12.4436
▁constitu	-12.4436
▁scrat	-12.4436
logist	-12.4436
elimina	-12.4436
▁affirm	-12.4436
▁impuls	-12.4436
contaminat	-12.4436
▁grandchild	-12.4436
▁afghan	-12.4436
▁conservat	-12.4436
egee	-12.4436
theist	-12.4436
probabl	-12.4436
▁reinforce	-12.4436
▁vladi	-12.4436
▁invincib	-12.4436
garten	-12.4436
▁artificial	-12.4436
▁frumps	-12.4436
▁mediocr	-12.4436
▁patoot	-12.4436
▁pessimis	-12.4436
▁rejoin	-12.4436
▁sacaja	-12.4436
▁snippet	-12.4436
▁unintellig	-12.4436
bargin	-12.4436
barkbark	-12.4436
bctv	-12.4436
behaving	-12.4436
blahblahblah	-12.4436
bourne	-12.4436
desirable	-12.4436
dunkadunka	-12.4436
eavesdropping	-12.4436
heinliken	-12.4436
hominahomina	-12.4436
icuspid	-12.4436
misunderstanding	-12.4436
negotiable	-12.4436
oaoa	-12.4436
secretarygeneral	-12.4436
sseldorf	-12.4436
terrestria	-12.4436
wimmin	-12.4436
▁abominable	-12.4436
▁abracadabra	-12.4436
▁accomplice	-12.4436
▁adrenal	-12.4436
▁afuera	-12.4436
▁aggression	-12.4436
▁alphabet	-12.4436
▁amadeus	-12.4436
▁anemia	-12.4436
▁annihilat	-12.4436
▁anyplace	-12.4436
▁aplus	-12.4436
▁appetizer	-12.4436
▁arithmetic	-12.4436
▁arriba	-12.4436
▁artifacts	-12.4436
▁asylum	-12.4436
▁attorneyatlaw	-12.4436
▁austrey	-12.4436
▁aweemaweh	-12.4436
▁ballycarbery	-12.4436
▁baloney	-12.4436
▁baltese	-12.4436
▁baltimore	-12.4436
▁bankrupt	-12.4436
▁beetlestein	-12.4436
▁benadryl	-12.4436
▁berserk	-12.4436
▁beseech	-12.4436
▁bienven	-12.4436
▁billiards	-12.4436
▁birdcalls	-12.4436
▁biscuit	-12.4436
▁bladder	-12.4436
▁bloodhound	-12.4436
▁bloodthirst	-12.4436
▁bohemian	-12.4436
▁bollockse	-12.4436
▁bonanza	-12.4436
▁bounty	-12.4436
▁brickleback	-12.4436
▁bridesmaids	-12.4436
▁brompton	-12.4436
▁bulstrode	-12.4436
▁bunnies	-12.4436
▁bunpowder	-12.4436
▁burgeoning	-12.4436
▁burgundian	-12.4436
▁bygones	-12.4436
▁cadillac	-12.4436
▁carlisle	-12.4436
▁catapult	-12.4436
▁cedric	-12.4436
▁ceramic	-12.4436
▁chainsaw	-12.4436
▁chantrellines	-12.4436
▁chartreuse	-12.4436
▁chausses	-12.4436
▁chauvinis	-12.4436
▁chimichanga	-12.4436
▁chipmunk	-12.4436
▁chopchop	-12.4436
▁chordvettes	-12.4436
▁clarkson	-12.4436
▁claud	-12.4436
▁claustrophobi	-12.4436
▁cliffjumper	-12.4436
▁clutter	-12.4436
▁coexist	-12.4436
▁cognac	-12.4436
▁colombes	-12.4436
▁combustion	-12.4436
▁concierge	-12.4436
▁condemn	-12.4436
▁condiments	-12.4436
▁confiscat	-12.4436
▁conquest	-12.4436
▁consecrate	-12.4436
▁continuously	-12.4436
▁controversia	-12.4436
▁coodlee	-12.4436
▁coriander	-12.4436
▁cornelius	-12.4436
▁cortez	-12.4436
▁cotillion	-12.4436
▁cramped	-12.4436
▁croissant	-12.4436
▁croix	-12.4436
▁crossbows	-12.4436
▁cruising	-12.4436
▁crutches	-12.4436
▁cyclonus	-12.4436
▁cylinder	-12.4436
▁czech	-12.4436
▁daggum	-12.4436
▁dagobert	-12.4436
▁dandelion	-12.4436
▁dankworth	-12.4436
▁darwin	-12.4436
▁debutante	-12.4436
▁decaprio	-12.4436
▁deceiving	-12.4436
▁decimated	-12.4436
▁deconstructi	-12.4436
▁detorque	-12.4436
▁diarrheastein	-12.4436
▁dirigible	-12.4436
▁disinheritance	-12.4436
▁disintegrate	-12.4436
▁doorknob	-12.4436
▁dormouse	-12.4436
▁economy	-12.4436
▁efficien	-12.4436
▁effrontery	-12.4436
▁embarcadero	-12.4436
▁embark	-12.4436
▁enamel	-12.4436
▁enforcer	-12.4436
▁enslave	-12.4436
▁errol	-12.4436
▁escalate	-12.4436
▁espagnole	-12.4436
▁evangelist	-12.4436
▁eventempered	-12.4436
▁evident	-12.4436
▁excavat	-12.4436
▁excruciating	-12.4436
▁exfoliate	-12.4436
▁exorbitant	-12.4436
▁exorcis	-12.4436
▁exposure	-12.4436
▁factotum	-12.4436
▁faculty	-12.4436
▁fascists	-12.4436
▁fathom	-12.4436
▁finetooth	-12.4436
▁flavour	-12.4436
▁flexibility	-12.4436
▁flurrying	-12.4436
▁folklore	-12.4436
▁frederick	-12.4436
▁frenzy	-12.4436
▁frivolous	-12.4436
▁frolic	-12.4436
▁frumpy	-12.4436
▁furrows	-12.4436
▁futile	-12.4436
▁galumphing	-12.4436
▁garsongoldberg	-12.4436
▁gatinha	-12.4436
▁gazerbeam	-12.4436
▁gazette	-12.4436
▁genteel	-12.4436
▁gerbil	-12.4436
▁gibraltar	-12.4436
▁ginormous	-12.4436
▁giuseppe	-12.4436
▁gleaner	-12.4436
▁godfather	-12.4436
▁gracias	-12.4436
▁granpabbie	-12.4436
▁greece	-12.4436
▁griotsteam	-12.4436
▁grotesque	-12.4436
▁gruzinkerbell	-12.4436
▁halifax	-12.4436
▁hallucinat	-12.4436
▁handkerchief	-12.4436
▁harvard	-12.4436
▁havoc	-12.4436
▁hayride	-12.4436
▁hazelnut	-12.4436
▁headstrong	-12.4436
▁hearttoheart	-12.4436
▁hennessey	-12.4436
▁hideandseek	-12.4436
▁hieroglyphic	-12.4436
▁hippopotamus	-12.4436
▁hollyhocks	-12.4436
▁honeymaren	-12.4436
▁hourglass	-12.4436
▁hypnotize	-12.4436
▁hypochondriac	-12.4436
▁hypothe	-12.4436
▁ichiro	-12.4436
▁identification	-12.4436
▁illuminating	-12.4436
▁imaginable	-12.4436
▁implausible	-12.4436
▁improvis	-12.4436
▁incessant	-12.4436
▁inclination	-12.4436
▁inclined	-12.4436
▁indecent	-12.4436
▁indignation	-12.4436
▁inexperience	-12.4436
▁inexpressi	-12.4436
▁inferior	-12.4436
▁infiltrat	-12.4436
▁infirm	-12.4436
▁inflict	-12.4436
▁infrared	-12.4436
▁inquirer	-12.4436
▁interlude	-12.4436
▁interplanetary	-12.4436
▁interrogati	-12.4436
▁intersection	-12.4436
▁intimacy	-12.4436
[...]
