<unk>	0
<s>	0
</s>	0
s	-3.00824
t	-3.97942
e	-4.08192
ing	-4.17544
n	-4.27303
ed	-4.42633
d	-4.44533
▁	-4.49415
y	-4.49491
o	-4.49743
a	-4.68684
er	-4.84322
▁im	-4.90795
u	-4.91035
i	-4.93041
p	-4.96243
in	-4.99506
▁s	-5.02356
▁know	-5.03527
▁dont	-5.04393
r	-5.04808
g	-5.06491
b	-5.07086
m	-5.07186
▁go	-5.14628
le	-5.21793
▁get	-5.23404
c	-5.26489
l	-5.27428
ar	-5.28429
or	-5.2855
▁right	-5.35335
▁like	-5.37779
v	-5.37819
▁l	-5.39401
▁oh	-5.4115
▁come	-5.43167
▁f	-5.43664
al	-5.43852
ly	-5.45882
▁yeah	-5.46126
▁youre	-5.46703
▁got	-5.48168
▁na	-5.50571
w	-5.52788
▁a	-5.54955
k	-5.57329
ck	-5.57777
▁b	-5.58455
▁well	-5.62806
ll	-5.64889
▁thats	-5.66675
▁one	-5.67851
it	-5.68286
f	-5.69047
ch	-5.71559
▁re	-5.72304
re	-5.73146
▁okay	-5.74139
en	-5.74207
▁see	-5.75494
▁want	-5.79182
▁think	-5.79522
on	-5.81021
▁good	-5.81152
▁us	-5.84599
▁c	-5.85717
▁gon	-5.87262
an	-5.89099
▁look	-5.90484
es	-5.92677
▁de	-5.93562
▁hey	-5.93923
at	-5.94254
▁p	-5.95341
il	-5.95934
▁man	-5.95986
ur	-5.98595
ri	-6.01108
▁ma	-6.01743
▁say	-6.04701
ra	-6.05265
▁be	-6.0665
st	-6.06964
▁back	-6.07597
▁time	-6.0808
ent	-6.08136
▁e	-6.08479
▁take	-6.09844
ke	-6.11182
h	-6.1298
ter	-6.13546
ve	-6.13774
ne	-6.14704
th	-6.15526
ce	-6.16735
▁w	-6.17171
▁ill	-6.18335
te	-6.19649
li	-6.20487
▁pa	-6.20581
▁yes	-6.21074
el	-6.21706
▁tell	-6.22454
▁going	-6.23206
▁st	-6.23985
▁ro	-6.24399
ie	-6.2464
▁need	-6.25082
▁hes	-6.25594
▁cant	-6.27388
▁in	-6.27746
ct	-6.289
ic	-6.29642
la	-6.32299
z	-6.32768
▁would	-6.32812
▁ho	-6.33788
▁bo	-6.3384
▁ha	-6.35017
ir	-6.3553
▁mean	-6.36432
▁love	-6.36943
▁make	-6.38739
▁k	-6.39831
▁really	-6.40209
▁co	-6.41426
am	-6.41426
▁let	-6.41826
ver	-6.43495
▁ta	-6.43772
▁could	-6.44723
▁something	-6.45109
▁way	-6.4769
x	-6.4821
▁little	-6.48869
▁te	-6.4933
▁fa	-6.49408
▁sp	-6.51162
▁o	-6.51195
▁whats	-6.51922
▁never	-6.52166
▁sorry	-6.53115
▁didnt	-6.53418
▁ra	-6.53924
▁su	-6.54887
▁con	-6.55261
ry	-6.55877
▁mo	-6.57434
▁th	-6.57496
▁please	-6.57539
▁lets	-6.57606
▁thank	-6.58235
▁sh	-6.58487
▁fuck	-6.59625
▁ca	-6.60044
▁give	-6.60347
et	-6.61437
▁day	-6.6151
ion	-6.62073
sh	-6.62422
ro	-6.62765
ate	-6.63545
▁work	-6.63657
de	-6.63706
▁mr	-6.64767
▁hi	-6.65416
▁m	-6.65958
▁di	-6.66057
▁wait	-6.66629
▁car	-6.67325
▁to	-6.67485
▁po	-6.68051
ow	-6.68863
▁ba	-6.69178
▁theres	-6.69611
id	-6.71389
ation	-6.71852
▁god	-6.73693
▁help	-6.73783
ul	-6.74114
▁he	-6.74223
se	-6.74781
▁da	-6.7479
▁ive	-6.75801
▁lo	-6.76616
lo	-6.76872
▁mi	-6.771
ad	-6.77207
▁call	-6.77275
▁two	-6.77419
ell	-6.77551
and	-6.78472
tion	-6.78627
as	-6.79557
▁even	-6.79598
end	-6.79883
▁shit	-6.79964
▁said	-6.80052
est	-6.80101
▁me	-6.80176
▁thing	-6.80274
▁stop	-6.81032
mp	-6.8159
us	-6.82143
▁people	-6.82313
age	-6.82326
is	-6.82538
ge	-6.83458
▁do	-6.84249
▁un	-6.84828
▁sure	-6.8544
▁sc	-6.85687
ant	-6.85805
▁vi	-6.86067
▁mar	-6.86613
j	-6.87463
un	-6.8819
ment	-6.88619
▁dr	-6.89108
ers	-6.89178
▁shes	-6.89246
▁feel	-6.89706
ff	-6.90058
▁g	-6.90475
co	-6.90834
▁pro	-6.90894
▁home	-6.91075
▁la	-6.91534
▁much	-6.91671
ies	-6.91833
▁cr	-6.92017
▁new	-6.92319
ol	-6.92671
na	-6.92727
▁great	-6.9293
▁put	-6.93422
▁uh	-6.93886
▁no	-6.94025
ty	-6.94358
me	-6.9484
im	-6.95572
▁ti	-6.95642
▁fucking	-6.95782
▁night	-6.96154
ard	-6.96622
▁life	-6.97189
ist	-6.97974
▁talk	-6.98001
▁find	-6.98527
▁keep	-6.98665
▁wa	-6.99346
ma	-6.99634
▁ex	-6.99753
om	-7.01583
▁still	-7.01717
▁maybe	-7.01897
▁theyre	-7.023
▁jo	-7.02429
▁boy	-7.03154
ho	-7.03733
ting	-7.04288
▁friend	-7.05318
▁miss	-7.0546
▁guys	-7.05689
▁sir	-7.05933
▁sa	-7.06748
▁nothing	-7.07512
ight	-7.07705
▁name	-7.0772
um	-7.07881
pe	-7.07916
pp	-7.08057
▁first	-7.08382
ther	-7.08535
▁girl	-7.08625
▁anything	-7.08817
▁ja	-7.10126
ta	-7.10211
gg	-7.1051
▁kid	-7.1084
▁better	-7.10951
ny	-7.11253
▁guy	-7.11813
ci	-7.12168
▁pe	-7.12401
▁h	-7.12465
▁kill	-7.12911
▁ri	-7.12916
▁ask	-7.13165
▁cl	-7.13171
▁long	-7.13217
▁so	-7.13282
▁hand	-7.13521
▁stay	-7.14037
▁ever	-7.14141
ive	-7.14677
▁thought	-7.14856
▁big	-7.16288
▁i	-7.16485
▁away	-7.16684
▁li	-7.16834
▁son	-7.17502
▁hell	-7.17618
▁we	-7.18069
up	-7.19839
▁last	-7.2016
▁everything	-7.21108
▁old	-7.2116
▁ga	-7.21194
▁must	-7.21371
ful	-7.2187
▁ru	-7.22235
▁ne	-7.22734
able	-7.23003
▁always	-7.23168
▁around	-7.23169
▁wan	-7.23271
▁wh	-7.23318
▁baby	-7.23972
man	-7.24031
▁dis	-7.24693
▁show	-7.24735
cu	-7.24865
▁an	-7.2534
▁nice	-7.25852
▁cha	-7.2595
▁kind	-7.26458
▁play	-7.26469
▁gr	-7.26484
▁start	-7.27535
▁listen	-7.27547
▁care	-7.27746
▁leave	-7.27897
▁believe	-7.27956
▁ar	-7.28129
ni	-7.28157
▁se	-7.28479
op	-7.28503
▁ju	-7.29019
▁fl	-7.29046
▁part	-7.29074
tic	-7.29444
mo	-7.2947
▁hear	-7.29611
ig	-7.29633
rr	-7.29732
▁real	-7.2977
▁id	-7.30125
▁told	-7.30188
per	-7.30355
▁place	-7.3041
ca	-7.3112
▁al	-7.31396
▁je	-7.32338
▁pre	-7.32396
▁things	-7.32607
▁youve	-7.32736
▁hello	-7.33294
▁move	-7.33324
▁for	-7.33418
▁sha	-7.33792
ure	-7.34452
▁pi	-7.34866
ud	-7.35064
▁wont	-7.35967
▁every	-7.35981
ha	-7.36115
qui	-7.37147
▁house	-7.37378
▁lot	-7.37519
▁du	-7.37679
▁va	-7.37752
ance	-7.37908
ia	-7.37926
▁coming	-7.38321
▁bad	-7.38511
▁remember	-7.38738
▁made	-7.39021
▁head	-7.39247
▁years	-7.39291
ine	-7.39509
bb	-7.39509
▁hold	-7.39665
if	-7.39673
▁world	-7.40263
▁fine	-7.40564
▁ad	-7.40638
▁three	-7.40748
▁live	-7.40939
ence	-7.41246
▁doesnt	-7.41474
▁minute	-7.41677
▁tr	-7.41863
▁youll	-7.42494
▁che	-7.44077
▁pr	-7.4416
▁turn	-7.44431
▁dad	-7.44676
▁huh	-7.45076
und	-7.45192
▁door	-7.45578
▁mom	-7.46241
ian	-7.46286
▁mother	-7.46319
▁ch	-7.46379
▁en	-7.46515
▁watch	-7.4655
▁dead	-7.46691
▁gu	-7.47008
▁z	-7.47199
▁done	-7.47283
dy	-7.47333
da	-7.47967
▁money	-7.47977
▁plan	-7.48024
ru	-7.48325
▁ass	-7.4902
ger	-7.49379
▁wrong	-7.49498
▁woman	-7.49942
▁happen	-7.50046
ish	-7.50611
▁gra	-7.50812
ling	-7.50871
▁open	-7.50915
▁may	-7.51129
▁came	-7.51862
▁meet	-7.52663
▁music	-7.53096
▁understand	-7.53307
less	-7.53914
▁tri	-7.54206
▁left	-7.54458
▁thanks	-7.55019
he	-7.5508
▁col	-7.55405
▁course	-7.55853
▁ni	-7.56062
▁win	-7.56509
▁might	-7.56546
▁someone	-7.56635
▁isnt	-7.57032
▁war	-7.57117
ough	-7.5726
▁happened	-7.58186
▁sit	-7.58327
ph	-7.58693
▁end	-7.58795
▁com	-7.58828
▁enough	-7.59011
▁talking	-7.59202
ity	-7.59252
▁try	-7.59333
▁chi	-7.59957
▁best	-7.60738
wa	-7.61036
ous	-7.61044
▁tra	-7.61691
▁next	-7.61891
▁ok	-7.62031
▁bl	-7.62392
▁die	-7.62622
▁speak	-7.63816
▁hard	-7.64185
▁getting	-7.64961
port	-7.65279
▁father	-7.65537
▁mind	-7.65933
▁another	-7.66125
▁else	-7.66225
di	-7.66664
ise	-7.67074
▁sta	-7.67404
▁close	-7.67645
▁um	-7.67916
▁hope	-7.69079
▁aint	-7.69221
▁eye	-7.69789
mon	-7.71293
▁mu	-7.71491
▁wanted	-7.71725
ak	-7.71901
▁ye	-7.71994
▁room	-7.72617
▁bring	-7.72835
ton	-7.72857
ress	-7.72974
▁today	-7.73021
▁run	-7.73039
▁men	-7.73173
▁em	-7.73179
ize	-7.73367
▁week	-7.73681
▁guess	-7.73694
ang	-7.74252
▁bar	-7.74962
▁found	-7.74992
▁hu	-7.75129
▁ready	-7.75312
▁second	-7.7565
ical	-7.7583
▁ah	-7.75902
▁trying	-7.76158
▁whos	-7.7675
▁app	-7.77037
▁fight	-7.77097
▁job	-7.77548
▁looking	-7.77888
▁laugh	-7.78276
▁family	-7.78842
▁gi	-7.78901
▁wasnt	-7.78943
▁whoa	-7.79258
for	-7.79377
▁cut	-7.79973
ward	-7.80007
▁inter	-7.80192
▁morning	-7.80327
▁ear	-7.81258
ley	-7.81921
▁john	-7.82043
▁cause	-7.82069
▁phone	-7.8214
▁knew	-7.82346
▁tonight	-7.82448
▁cra	-7.82721
▁scream	-7.82956
ook	-7.83456
▁stu	-7.83561
▁stand	-7.83898
▁j	-7.83989
ah	-7.84184
▁whole	-7.84208
ness	-7.84226
▁pretty	-7.84715
▁playing	-7.84865
▁actually	-7.84919
▁idea	-7.85026
▁bra	-7.85064
▁school	-7.85338
▁walk	-7.85353
▁eat	-7.85438
▁sound	-7.85578
▁gl	-7.85817
▁fire	-7.85846
▁saw	-7.85868
▁person	-7.85985
▁problem	-7.86075
ious	-7.86092
▁bit	-7.86468
▁wil	-7.86594
▁break	-7.86606
▁dog	-7.86822
unt	-7.87135
que	-7.87161
▁everybody	-7.87351
▁excuse	-7.87565
▁wouldnt	-7.87576
▁together	-7.87673
▁shut	-7.87725
▁gun	-7.88211
▁ge	-7.8825
▁jack	-7.8851
▁happy	-7.88865
gh	-7.88972
▁ya	-7.89234
▁lm	-7.89435
▁word	-7.8955
▁face	-7.90471
▁matter	-7.90978
▁check	-7.91013
▁damn	-7.91197
▁hour	-7.9127
▁count	-7.91369
▁far	-7.91756
▁many	-7.91814
▁alone	-7.92305
▁heard	-7.9302
▁light	-7.93598
▁change	-7.93792
▁tomorrow	-7.94445
▁act	-7.94576
ated	-7.94657
▁weve	-7.95506
old	-7.95766
▁sleep	-7.97006
▁hit	-7.9728
▁drink	-7.97722
▁hurt	-7.97746
▁dream	-7.9796
▁read	-7.98519
▁already	-7.98669
▁pay	-7.98899
▁four	-7.98948
▁comp	-7.99327
▁fun	-7.99516
▁everyone	-7.99529
▁brother	-7.99703
▁met	-7.99734
▁honey	-8.00741
▁high	-8.00939
▁free	-8.01192
▁rest	-8.01206
▁question	-8.01587
▁went	-8.01938
▁took	-8.01999
▁point	-8.0227
▁late	-8.02439
ship	-8.02935
q	-8.03075
▁wonder	-8.03707
▁year	-8.03735
▁heart	-8.03749
▁lost	-8.03934
▁game	-8.04122
▁called	-8.0427
▁beautiful	-8.0472
▁sea	-8.04987
▁five	-8.05072
▁true	-8.05126
▁whi	-8.0548
▁set	-8.05652
▁yet	-8.05722
▁cor	-8.05769
▁without	-8.05872
▁bri	-8.06269
▁young	-8.06519
▁tu	-8.06715
▁seem	-8.06752
▁business	-8.07561
▁breath	-8.07692
▁somebody	-8.07954
▁per	-8.08029
▁chuckles	-8.08218
▁sign	-8.08381
▁havent	-8.08753
▁wife	-8.08888
▁deal	-8.09398
▁pick	-8.09584
▁crazy	-8.09681
▁stuff	-8.09951
▁drive	-8.10111
▁exp	-8.10705
▁worry	-8.10895
▁power	-8.11327
▁anyone	-8.11433
▁luck	-8.11749
▁ka	-8.12105
▁ow	-8.1214
▁clear	-8.12303
▁water	-8.12354
▁ago	-8.12356
▁killed	-8.12666
▁easy	-8.12818
▁air	-8.13265
▁probably	-8.13914
▁hang	-8.13966
▁mil	-8.14084
▁inside	-8.14195
▁youd	-8.14255
▁safe	-8.14293
▁sighs	-8.14474
▁follow	-8.14755
▁black	-8.15052
▁bill	-8.15246
▁laughing	-8.15429
▁save	-8.15578
▁supposed	-8.15704
▁book	-8.15749
▁couldnt	-8.15749
▁blood	-8.15888
▁grow	-8.1592
▁forget	-8.16609
▁vo	-8.16749
▁since	-8.16783
▁mine	-8.16826
▁wheres	-8.17618
▁grunts	-8.18051
▁bitch	-8.18225
▁ob	-8.18588
mmy	-8.18833
▁side	-8.1903
▁soon	-8.19321
▁story	-8.19862
▁month	-8.19977
▁bro	-8.2005
▁office	-8.20551
▁number	-8.20715
▁continue	-8.20848
▁jesus	-8.20866
ron	-8.20896
▁anyway	-8.20998
▁sweet	-8.20998
▁pass	-8.21148
▁whatever	-8.21299
▁nobody	-8.21448
▁wow	-8.21576
▁arm	-8.22184
▁shot	-8.2238
▁later	-8.22456
▁step	-8.23003
▁wish	-8.23422
▁bus	-8.23531
▁promise	-8.25285
unk	-8.25386
▁welcome	-8.26068
▁cool	-8.26312
▁trust	-8.26871
▁order	-8.27022
▁six	-8.27367
▁serious	-8.27666
bsp	-8.28196
▁exactly	-8.28946
▁hate	-8.29038
▁afraid	-8.29271
▁town	-8.30281
▁line	-8.30495
▁pull	-8.30795
▁ball	-8.30911
▁death	-8.30939
▁shoot	-8.31081
▁bye	-8.312
▁yo	-8.31831
▁though	-8.32025
▁police	-8.32414
▁children	-8.32418
▁leg	-8.32654
▁ring	-8.32726
▁half	-8.32772
▁chance	-8.33089
▁touch	-8.33268
▁christ	-8.34446
▁law	-8.34508
▁sex	-8.34817
▁captain	-8.35481
▁dude	-8.35557
▁rich	-8.35609
▁train	-8.35678
▁nu	-8.35778
▁hmm	-8.35842
▁grand	-8.35867
▁sister	-8.36922
▁doctor	-8.37056
▁voice	-8.37236
▁taking	-8.37622
▁moment	-8.38095
▁gasps	-8.38118
▁gave	-8.38129
▁learn	-8.38831
▁out	-8.39031
▁white	-8.39262
▁full	-8.39688
▁fast	-8.40002
▁america	-8.40269
▁child	-8.40284
▁trouble	-8.40633
▁body	-8.40665
gue	-8.40837
▁making	-8.41067
▁almost	-8.4155
▁anybody	-8.41918
▁daddy	-8.42295
▁anymore	-8.42473
▁ski	-8.42992
▁lord	-8.43969
▁mmm	-8.44373
▁drop	-8.44865
▁perfect	-8.45873
▁answer	-8.45874
▁reason	-8.4588
▁clean	-8.46299
▁sometimes	-8.46451
▁dance	-8.46712
▁funny	-8.46999
▁arent	-8.47715
▁alive	-8.48309
▁buy	-8.48754
▁husband	-8.49193
▁case	-8.49228
▁finish	-8.49999
▁lady	-8.50191
▁outside	-8.50193
▁couple	-8.50396
▁different	-8.50593
▁daughter	-8.50795
ible	-8.51852
▁secret	-8.52218
▁blow	-8.52968
▁also	-8.53041
▁city	-8.54879
▁stupid	-8.5534
▁foot	-8.55556
▁goddamn	-8.55972
▁quick	-8.55986
▁throw	-8.56195
▁lose	-8.56422
mber	-8.566
▁radio	-8.56831
▁least	-8.57044
▁sick	-8.5717
▁super	-8.57673
▁murder	-8.57904
▁behind	-8.58121
▁class	-8.5838
▁frank	-8.58775
▁broke	-8.5898
▁special	-8.59212
ball	-8.59441
▁truth	-8.59658
▁street	-8.60545
▁figure	-8.60763
▁lead	-8.60855
▁alice	-8.61463
▁small	-8.61671
▁front	-8.62122
▁married	-8.62126
▁key	-8.62205
▁kiss	-8.62403
▁important	-8.62563
▁teach	-8.62813
▁catch	-8.6285
▁ahead	-8.63022
▁record	-8.64394
▁piece	-8.64646
▁food	-8.66264
▁expect	-8.66267
▁bull	-8.66298
▁human	-8.66451
▁under	-8.66608
▁women	-8.66737
▁dark	-8.66753
▁control	-8.66971
▁hurry	-8.67214
▁whoo	-8.67644
▁running	-8.68219
▁trans	-8.68651
▁write	-8.68655
▁heres	-8.6879
▁protect	-8.69132
▁groans	-8.69372
▁strong	-8.69379
▁ooh	-8.69411
▁hows	-8.69851
▁either	-8.69867
▁knock	-8.70103
▁movie	-8.70381
time	-8.70741
▁dinner	-8.70841
▁smell	-8.71134
▁picture	-8.71335
▁grunting	-8.71834
▁bird	-8.72381
▁deep	-8.72931
▁return	-8.73591
▁theyll	-8.75123
▁slow	-8.7543
▁dress	-8.75534
▁certain	-8.75898
▁kidding	-8.75992
▁worth	-8.76173
▁itll	-8.76277
▁seven	-8.76448
▁along	-8.7695
▁living	-8.76978
▁ladies	-8.77744
▁butt	-8.77778
▁leaving	-8.77995
▁daniel	-8.77997
▁chatter	-8.78816
▁blue	-8.79115
▁surprise	-8.79328
▁straight	-8.80682
▁qua	-8.80692
▁gentlemen	-8.80952
▁shouldnt	-8.80952
▁brought	-8.80952
▁weird	-8.80963
▁parents	-8.81227
▁million	-8.81505
▁horse	-8.81809
▁strange	-8.82331
▁sense	-8.82955
▁buddy	-8.8344
▁stick	-8.84062
▁perhaps	-8.84564
▁smart	-8.84573
▁indistinct	-8.84847
▁quiet	-8.8514
▁mouth	-8.85146
▁build	-8.85702
▁complete	-8.86568
▁crowd	-8.86575
▁short	-8.86747
▁jimmy	-8.86853
▁become	-8.86855
▁entire	-8.87726
▁fool	-8.87763
▁honest	-8.88933
▁attack	-8.8979
▁asshole	-8.9039
▁calm	-8.9108
▁phil	-8.91923
▁soft	-8.91951
▁goodbye	-8.92206
▁george	-8.92511
▁push	-8.93152
▁kick	-8.93478
▁table	-8.94209
▁felt	-8.94494
▁choice	-8.94676
▁moving	-8.94753
▁york	-8.95626
▁birthday	-8.95936
▁direct	-8.95947
▁coffee	-8.96572
▁enjoy	-8.96891
▁island	-8.97212
▁fault	-8.97241
▁james	-8.9726
▁agree	-8.97556
▁respect	-8.97856
▁explain	-8.98183
▁offer	-8.98516
▁somewhere	-8.99157
▁bullshit	-8.99157
▁amazing	-9.00144
▁decide	-9.00168
▁forgot	-9.00808
▁space	-9.01167
▁werent	-9.01518
▁forever	-9.01826
▁panting	-9.01881
▁eddie	-9.02152
▁window	-9.02154
▁daisy	-9.02501
▁uncle	-9.0251
▁company	-9.03176
▁absolutely	-9.04191
▁henry	-9.0456
▁mistake	-9.04883
▁park	-9.04977
▁weapon	-9.0523
▁ground	-9.05234
▁relax	-9.05237
▁middle	-9.05928
▁english	-9.06278
▁alright	-9.06282
▁treat	-9.07057
▁except	-9.07696
▁allow	-9.07718
▁coach	-9.07739
▁french	-9.08411
▁hospital	-9.0877
▁destroy	-9.0877
▁system	-9.0877
▁darling	-9.08774
▁across	-9.09131
▁christmas	-9.09142
▁mmhmm	-9.09857
▁glass	-9.10256
▁command	-9.10596
▁possible	-9.10956
▁north	-9.11025
▁future	-9.11325
▁terrible	-9.11695
▁machine	-9.11701
▁charlie	-9.12067
▁swear	-9.12069
▁magic	-9.1235
▁imagine	-9.13568
▁theyve	-9.13947
▁prison	-9.14712
▁david	-9.14715
▁worse	-9.14735
▁charge	-9.14737
▁president	-9.1625
▁opera	-9.16274
▁angel	-9.16321
▁groaning	-9.16639
▁engine	-9.16642
▁bastard	-9.16643
▁travel	-9.16681
▁church	-9.17427
▁accident	-9.18607
▁south	-9.19104
▁anywhere	-9.19406
▁general	-9.19808
▁motherfucker	-9.20211
▁history	-9.20211
▁deserve	-9.20214
▁queen	-9.20225
▁forgive	-9.20619
▁definitely	-9.21022
▁private	-9.2143
▁attention	-9.2308
▁freak	-9.23087
