<unk>	0
<s>	0
</s>	0
s	-3.86698
▁im	-4.42834
▁dont	-4.51264
▁know	-4.56241
▁get	-4.73696
▁go	-4.82141
▁right	-4.84199
▁like	-4.88063
▁oh	-4.89848
▁yeah	-4.92862
▁youre	-4.94758
▁got	-4.94906
▁come	-4.95422
▁well	-5.10777
▁thats	-5.14225
▁na	-5.16459
▁one	-5.19394
▁okay	-5.21543
▁good	-5.31479
▁want	-5.35538
▁think	-5.37365
▁see	-5.40443
▁hey	-5.41558
▁gon	-5.41558
▁man	-5.56124
▁look	-5.56208
▁back	-5.56873
▁yes	-5.63675
▁time	-5.65852
ing	-5.66375
▁going	-5.66703
▁us	-5.67748
▁ill	-5.67897
▁take	-5.68022
▁	-5.68426
▁hes	-5.70458
▁cant	-5.71845
▁l	-5.78627
▁say	-5.8252
▁tell	-5.82823
▁would	-5.8404
▁need	-5.85371
▁really	-5.87098
ed	-5.89645
▁something	-5.92464
▁could	-5.96245
▁little	-5.96413
▁way	-5.99202
▁make	-5.99831
▁didnt	-5.99967
▁sorry	-6.01058
▁lets	-6.01408
▁never	-6.01594
▁whats	-6.01623
▁let	-6.03985
▁love	-6.04925
▁thank	-6.06759
▁please	-6.07341
▁mean	-6.0866
▁theres	-6.16805
▁give	-6.19323
▁god	-6.19828
▁ive	-6.21309
d	-6.22283
▁two	-6.26306
▁shit	-6.28237
▁said	-6.28388
▁thing	-6.28962
▁help	-6.29365
▁people	-6.29991
▁fuck	-6.31926
▁wait	-6.33971
▁shes	-6.3566
▁sure	-6.36001
▁mr	-6.36901
▁much	-6.40021
▁fucking	-6.40191
▁stop	-6.41553
▁day	-6.42432
▁even	-6.42466
▁call	-6.43628
▁home	-6.44947
▁uh	-6.45899
▁find	-6.47184
▁great	-6.47771
▁life	-6.47785
▁put	-6.47984
▁maybe	-6.49221
▁theyre	-6.49741
▁still	-6.50845
▁guys	-6.51732
▁first	-6.5248
y	-6.53118
▁work	-6.54354
▁night	-6.54657
▁anything	-6.54956
▁keep	-6.55918
▁sir	-6.58766
▁better	-6.60383
▁nothing	-6.60451
▁talk	-6.61146
▁guy	-6.61276
▁thought	-6.61832
▁ever	-6.62744
▁away	-6.63992
▁new	-6.65132
▁hell	-6.67274
▁hi	-6.68036
▁last	-6.68532
▁ta	-6.69728
▁around	-6.7229
▁big	-6.72402
▁always	-6.73154
▁stay	-6.73335
▁must	-6.73484
er	-6.73787
▁everything	-6.73835
▁nice	-6.74376
▁feel	-6.74452
▁things	-6.7537
▁wan	-6.75609
▁baby	-6.75733
▁name	-6.75993
▁long	-6.76729
▁told	-6.77713
▁old	-6.78272
▁leave	-6.78514
▁hello	-6.78755
p	-6.7879
ly	-6.79154
▁youve	-6.80163
▁wont	-6.81412
e	-6.82512
▁id	-6.82521
▁believe	-6.82736
▁years	-6.831
▁hear	-6.83783
▁car	-6.84139
▁place	-6.8436
▁kind	-6.84474
▁boy	-6.85675
▁three	-6.8598
▁every	-6.86079
▁made	-6.87329
▁listen	-6.87765
▁coming	-6.88046
▁remember	-6.88437
▁doesnt	-6.88777
▁youll	-6.89048
▁girl	-6.89714
▁fine	-6.91155
▁house	-6.91348
▁lot	-6.91391
▁kill	-6.92536
▁bad	-6.92678
▁huh	-6.92921
▁done	-6.9427
▁money	-6.95491
▁woman	-6.96003
▁dad	-6.96588
▁world	-6.96616
▁hold	-6.97798
▁thanks	-6.98279
▁dead	-6.98979
▁real	-6.99832
▁wrong	-7.00915
▁move	-7.01062
▁music	-7.01731
▁mom	-7.01971
▁isnt	-7.02067
▁happened	-7.02508
▁talking	-7.0274
▁understand	-7.03519
▁course	-7.03861
▁miss	-7.03908
▁left	-7.04268
▁enough	-7.05605
▁may	-7.05608
▁best	-7.05693
▁show	-7.05997
▁might	-7.06668
in	-7.07729
▁mother	-7.07951
▁door	-7.0855
▁getting	-7.09164
▁son	-7.09169
▁someone	-7.09767
▁next	-7.09773
▁try	-7.10446
▁wanted	-7.11937
▁another	-7.12137
▁care	-7.12952
▁ok	-7.13781
▁ask	-7.14052
▁else	-7.14559
▁aint	-7.14737
▁mind	-7.1485
t	-7.14859
▁head	-7.15344
▁play	-7.15828
▁friend	-7.1726
a	-7.19147
▁looking	-7.19957
▁um	-7.20772
▁ready	-7.21999
n	-7.23073
▁today	-7.23549
▁father	-7.23672
▁trying	-7.23725
▁came	-7.23905
▁guess	-7.24534
▁open	-7.24636
▁wasnt	-7.24681
▁found	-7.24961
▁room	-7.25723
▁morning	-7.26246
▁die	-7.26638
▁meet	-7.27991
▁live	-7.29087
▁whoa	-7.29142
▁tonight	-7.29442
▁lm	-7.29665
▁job	-7.29756
▁family	-7.29838
▁playing	-7.29838
▁watch	-7.30516
r	-7.30732
▁run	-7.31245
▁cause	-7.31505
▁knew	-7.31806
▁whole	-7.32119
▁actually	-7.32332
▁phone	-7.33235
▁kid	-7.33497
▁school	-7.33967
▁saw	-7.34123
▁many	-7.34126
▁pretty	-7.34441
▁hope	-7.34454
▁ah	-7.34628
▁wouldnt	-7.3491
▁together	-7.35408
▁excuse	-7.35622
▁heard	-7.35859
▁start	-7.35872
▁turn	-7.36657
▁happy	-7.36818
▁bring	-7.37197
o	-7.37503
▁seen	-7.38339
▁end	-7.38618
▁friends	-7.38727
▁use	-7.39378
▁men	-7.39567
▁damn	-7.39657
▁shut	-7.40022
i	-7.41235
▁hard	-7.41244
▁face	-7.41383
▁kids	-7.41515
▁whos	-7.42038
▁everybody	-7.42214
▁idea	-7.42484
▁alone	-7.42558
▁tomorrow	-7.4302
▁used	-7.44808
▁weve	-7.45138
▁went	-7.45618
▁already	-7.45733
▁took	-7.47057
▁saying	-7.47122
▁yet	-7.47303
▁days	-7.47405
▁hand	-7.47855
▁sit	-7.48043
▁matter	-7.48791
▁five	-7.48792
▁second	-7.49
▁bit	-7.49455
▁without	-7.49757
▁lost	-7.49776
▁honey	-7.49883
▁called	-7.50044
▁beautiful	-7.50267
▁crazy	-7.52406
▁gone	-7.53089
▁minute	-7.53369
▁true	-7.53434
▁fire	-7.54648
▁fight	-7.54709
▁killed	-7.54846
▁looks	-7.55057
▁problem	-7.55242
▁laughing	-7.55361
▁havent	-7.55917
▁eat	-7.56237
▁ass	-7.57488
es	-7.57557
▁hit	-7.57602
▁wife	-7.57879
▁inside	-7.58194
▁youd	-7.58334
▁ago	-7.58337
▁grunts	-7.58433
▁anyone	-7.58464
▁late	-7.59207
▁business	-7.59392
▁everyone	-7.59393
▁check	-7.59691
▁part	-7.60189
▁sighs	-7.60518
▁dog	-7.6072
▁worry	-7.60734
▁minutes	-7.60737
▁chuckles	-7.60771
▁probably	-7.608
▁four	-7.60939
▁hurt	-7.60996
▁couldnt	-7.61265
▁young	-7.61917
▁easy	-7.62058
▁heart	-7.62293
l	-7.62542
▁says	-7.63053
▁stuff	-7.63632
▁mine	-7.64256
▁point	-7.64508
▁water	-7.6546
▁eyes	-7.65585
▁story	-7.6608
▁red	-7.66285
▁forget	-7.66515
▁pay	-7.66535
▁somebody	-7.66613
▁year	-7.66736
▁stand	-7.67694
▁close	-7.6794
▁game	-7.6827
▁wheres	-7.68597
▁john	-7.68742
▁whatever	-7.68752
▁wow	-7.69087
▁mrs	-7.69118
▁far	-7.69133
▁anyway	-7.6941
▁sleep	-7.69473
▁later	-7.69592
▁since	-7.69661
▁cut	-7.6967
▁supposed	-7.69768
▁dr	-7.69888
▁hands	-7.70378
▁jesus	-7.70421
▁ha	-7.70948
▁deal	-7.71821
▁fun	-7.71952
▁read	-7.72497
▁black	-7.73016
▁welcome	-7.73529
al	-7.73999
▁bitch	-7.74138
▁thinking	-7.74296
▁brother	-7.74397
▁happen	-7.74622
▁drink	-7.7465
▁em	-7.74988
▁cool	-7.75634
▁light	-7.76413
▁soon	-7.76624
▁exactly	-7.7675
▁death	-7.77727
▁nbs	-7.77885
▁laughs	-7.77989
▁dear	-7.78076
▁captain	-7.78215
▁working	-7.78231
▁town	-7.78231
▁person	-7.78509
▁jack	-7.78747
▁met	-7.78788
▁break	-7.78904
▁wants	-7.79243
▁rest	-7.79288
▁afraid	-7.79382
▁children	-7.79382
▁gun	-7.80094
▁wish	-7.80392
▁de	-7.8047
▁word	-7.80592
▁trust	-7.80794
▁gasps	-7.81347
▁taking	-7.81769
▁though	-7.82176
m	-7.82596
▁blood	-7.83506
▁chance	-7.83619
▁gave	-7.83661
▁nobody	-7.83774
▁police	-7.83979
▁hot	-7.84017
▁girls	-7.84224
▁number	-7.84306
▁week	-7.84647
▁change	-7.84661
▁half	-7.85343
▁side	-7.85645
▁shot	-7.86215
▁set	-7.86391
▁high	-7.86581
▁hang	-7.86845
▁walk	-7.86932
▁free	-7.87383
▁boys	-7.87651
▁times	-7.88408
▁bye	-7.89222
▁white	-7.89281
▁anybody	-7.89406
▁hmm	-7.89417
▁question	-7.89473
▁trouble	-7.8952
▁air	-7.89791
▁making	-7.89808
▁party	-7.89971
en	-7.90008
▁safe	-7.90142
▁dude	-7.90251
▁six	-7.9032
▁hate	-7.90354
▁anymore	-7.90897
▁war	-7.9194
▁speak	-7.92407
▁almost	-7.92602
▁shoot	-7.92648
▁screaming	-7.92668
▁child	-7.92791
▁bed	-7.92797
▁alive	-7.93762
▁power	-7.93864
or	-7.9412
▁arent	-7.94143
▁line	-7.94463
▁makes	-7.94509
▁couple	-7.94726
▁sweet	-7.95091
▁body	-7.95122
▁continues	-7.95391
▁moment	-7.9574
▁promise	-7.95903
▁hours	-7.95908
▁quite	-7.9615
▁drive	-7.96261
▁lady	-7.96324
▁daddy	-7.96336
▁book	-7.96448
▁funny	-7.97101
▁save	-7.97308
▁king	-7.97533
▁sometimes	-7.9754
▁goes	-7.97544
▁stupid	-7.97696
▁la	-7.98302
▁different	-7.9859
▁plan	-7.99272
▁pick	-7.99273
▁dream	-7.99277
▁means	-7.993
▁outside	-7.99303
▁died	-7.99368
▁doctor	-7.9938
▁least	-7.99932
▁city	-8.00984
▁lord	-8.02006
▁husband	-8.0321
▁goddamn	-8.03278
▁also	-8.03498
▁full	-8.03549
▁win	-8.03653
▁sister	-8.04066
▁behind	-8.04344
▁daughter	-8.04517
▁voice	-8.0495
▁shall	-8.05203
▁bet	-8.05478
▁lts	-8.05487
▁asked	-8.06103
▁perfect	-8.06168
▁telling	-8.06404
▁follow	-8.06524
▁months	-8.07248
▁women	-8.0762
▁waiting	-8.0778
▁truth	-8.07842
▁started	-8.08628
▁ahead	-8.08739
ers	-8.09102
▁sick	-8.09414
▁speaking	-8.09589
▁sounds	-8.10009
▁send	-8.10549
▁radio	-8.10777
▁married	-8.11006
▁order	-8.11158
c	-8.11401
▁front	-8.1147
▁sound	-8.12218
▁important	-8.12278
▁touch	-8.12418
▁tried	-8.12658
▁feeling	-8.129
le	-8.12935
▁scared	-8.12955
▁reason	-8.12976
▁small	-8.12976
▁case	-8.13363
▁food	-8.13564
▁hurry	-8.13564
▁alice	-8.13567
▁clear	-8.13669
▁lose	-8.1382
▁grunting	-8.1478
▁team	-8.15197
▁hows	-8.15312
▁ya	-8.15654
▁either	-8.15948
▁running	-8.15963
g	-8.1597
▁pull	-8.16047
▁yo	-8.16247
on	-8.16844
▁dance	-8.16883
▁hair	-8.17039
▁answer	-8.17496
ic	-8.17513
▁heres	-8.17866
▁dinner	-8.18143
▁song	-8.18218
▁control	-8.18367
▁special	-8.18368
▁fast	-8.18455
▁wake	-8.19139
▁groans	-8.19515
▁un	-8.19519
▁hour	-8.19651
▁top	-8.19688
▁buy	-8.19741
▁living	-8.20157
▁cold	-8.20197
▁peter	-8.20218
▁itll	-8.20895
b	-8.20917
▁theyll	-8.21402
▁ride	-8.21865
▁news	-8.21952
▁ooh	-8.22427
▁leaving	-8.22684
man	-8.2291
▁kidding	-8.22944
▁ten	-8.23051
▁catch	-8.23081
▁serious	-8.23349
▁parents	-8.23401
▁road	-8.23729
▁sex	-8.24364
▁throw	-8.24618
▁lucky	-8.2465
▁eye	-8.24942
▁rock	-8.25294
▁brought	-8.25298
▁step	-8.25692
f	-8.25788
▁luck	-8.25983
▁clean	-8.26169
▁street	-8.2625
▁along	-8.2636
an	-8.26539
▁th	-8.26645
▁fuckin	-8.26647
▁needs	-8.27426
▁ladies	-8.27444
▁finally	-8.27769
▁comes	-8.28072
▁till	-8.28118
▁human	-8.28169
▁knows	-8.28376
▁past	-8.28479
▁buddy	-8.28529
▁mike	-8.28932
▁straight	-8.29591
▁paul	-8.29896
▁seems	-8.29954
▁christ	-8.30226
▁mama	-8.30379
▁ship	-8.30436
ve	-8.31159
est	-8.31173
h	-8.31229
▁shouldnt	-8.31867
▁drop	-8.31875
▁lives	-8.31978
▁happening	-8.32472
▁van	-8.3262
▁sign	-8.32894
▁mmm	-8.32998
▁jay	-8.33023
▁blue	-8.33109
▁maam	-8.33581
ie	-8.33659
▁secret	-8.34061
▁dark	-8.34142
▁gentlemen	-8.34158
▁happens	-8.34238
▁frank	-8.34307
▁seem	-8.34443
▁piece	-8.34498
▁fact	-8.34505
▁bill	-8.34551
▁goodbye	-8.34737
▁able	-8.35004
▁office	-8.35241
▁earth	-8.35618
▁sort	-8.35627
▁taken	-8.35807
▁fly	-8.35975
▁lie	-8.36
k	-8.36435
▁moving	-8.365
▁glad	-8.36502
▁jimmy	-8.36507
▁write	-8.36523
▁loved	-8.37307
▁perhaps	-8.37391
▁train	-8.37429
▁mark	-8.37489
▁meeting	-8.37515
▁country	-8.37686
▁sam	-8.38169
▁ow	-8.38538
▁fall	-8.38662
▁beat	-8.38752
▁learn	-8.38888
▁calm	-8.38917
▁seven	-8.39179
▁weird	-8.39731
▁feet	-8.3983
▁careful	-8.40678
ion	-8.40699
▁max	-8.40727
▁wonderful	-8.40792
▁s	-8.40964
▁lll	-8.40975
▁crowd	-8.41119
▁bullshit	-8.4135
▁fault	-8.41355
▁worth	-8.41527
▁mad	-8.42147
▁sense	-8.42561
▁pain	-8.42567
▁somewhere	-8.42607
▁mouth	-8.43188
▁fair	-8.43598
re	-8.43652
▁asking	-8.43847
▁million	-8.44123
▁calling	-8.44161
▁screams	-8.44533
▁ball	-8.44545
▁born	-8.44881
▁blow	-8.45344
▁words	-8.45429
▁kiss	-8.45463
▁birthday	-8.45484
▁holy	-8.4558
▁sing	-8.45621
▁quiet	-8.45696
▁poor	-8.45818
w	-8.45949
▁george	-8.46061
▁finish	-8.46165
▁company	-8.4646
▁none	-8.46626
▁strong	-8.46645
▁tv	-8.46796
▁weeks	-8.47231
▁smell	-8.47334
▁movie	-8.4743
▁shell	-8.47445
▁figure	-8.47929
▁picture	-8.48103
▁james	-8.48124
▁felt	-8.48454
▁choice	-8.48656
▁known	-8.48782
▁become	-8.49142
z	-8.49299
▁coffee	-8.4945
▁werent	-8.4945
▁panting	-8.49471
▁forever	-8.49789
▁slow	-8.499
▁c	-8.50038
▁daniel	-8.50127
▁amazing	-8.50127
▁relax	-8.50187
▁f	-8.50489
▁lt	-8.50553
▁alright	-8.5081
▁wed	-8.50944
▁french	-8.51151
▁g	-8.51597
▁indistinct	-8.51729
▁longer	-8.5182
▁middle	-8.5184
▁boat	-8.51966
▁fear	-8.51987
▁space	-8.52193
▁ones	-8.52206
▁crying	-8.52728
▁act	-8.52731
▁possible	-8.52881
▁absolutely	-8.53243
▁sent	-8.53243
▁island	-8.53355
st	-8.53886
▁state	-8.54011
▁york	-8.54289
▁dave	-8.54325
▁smart	-8.54487
▁land	-8.54494
▁others	-8.54998
▁protect	-8.55057
▁quick	-8.55124
▁broke	-8.55172
▁less	-8.55288
▁st	-8.55369
▁asshole	-8.55515
▁favorite	-8.55717
el	-8.5658
▁gets	-8.56961
▁cover	-8.57277
▁ik	-8.5743
▁henry	-8.57526
▁future	-8.57528
▁grab	-8.57528
▁singing	-8.57546
▁bag	-8.57636
▁david	-8.57891
▁i	-8.58218
ies	-8.58413
▁uncle	-8.58631
▁daisy	-8.58634
▁wear	-8.58742
▁worked	-8.58867
▁floor	-8.58881
▁wonder	-8.58937
▁breathe	-8.59074
▁class	-8.59314
▁re	-8.59555
▁darling	-8.5973
▁across	-8.59743
▁eddie	-8.59743
▁christmas	-8.59745
▁breathing	-8.59952
▁terrible	-8.60118
▁wall	-8.6016
▁stick	-8.60262
▁meant	-8.6033
▁date	-8.6045
▁swear	-8.60494
▁je	-8.60611
▁count	-8.60996
v	-8.61084
▁cat	-8.61112
▁wind	-8.61186
▁english	-8.6125
ri	-8.61371
▁fix	-8.61681
▁return	-8.61705
▁cheering	-8.61712
us	-8.61804
▁ice	-8.61874
able	-8.62071
▁sea	-8.62371
▁seat	-8.62672
▁whoo	-8.6272
▁looked	-8.62778
▁officer	-8.6279
▁watching	-8.62905
▁table	-8.63027
▁strange	-8.63064
▁hospital	-8.63149
▁bar	-8.63183
▁coach	-8.63206
▁seeing	-8.63568
ar	-8.63716
▁boss	-8.63957
▁needed	-8.64032
▁ring	-8.64262
▁definitely	-8.64333
▁charlie	-8.64333
▁short	-8.64341
▁hed	-8.64488
▁mommy	-8.64741
up	-8.65042
▁rather	-8.65121
▁jake	-8.65124
▁single	-8.65187
▁president	-8.6527
▁mm	-8.65303
▁theyve	-8.65515
▁entire	-8.66197
ation	-8.66256
u	-8.66386
▁giving	-8.66711
▁mmhmm	-8.66723
▁b	-8.66742
▁respect	-8.66813
▁missed	-8.66893
▁worse	-8.67111
▁johnny	-8.67124
ll	-8.67148
▁spend	-8.67171
▁cell	-8.67317
▁al	-8.67502
▁upon	-8.67529
▁groaning	-8.6755
▁eight	-8.67563
ch	-8.67572
▁fat	-8.67633
▁shh	-8.679
▁seriously	-8.68094
▁nine	-8.68356
▁anywhere	-8.68734
la	-8.68895
▁age	-8.68945
▁explain	-8.68989
▁trip	-8.69196
▁record	-8.69205
▁law	-8.69282
▁cop	-8.69345
▁tired	-8.69594
▁present	-8.69644
▁push	-8.69762
▁deep	-8.69769
▁except	-8.69864
▁k	-8.69934
▁evening	-8.69972
▁message	-8.70057
▁busy	-8.70098
▁attack	-8.70197
▁private	-8.70266
▁in	-8.70288
▁cute	-8.7035
▁window	-8.70458
▁lovely	-8.70723
less	-8.7085
▁dick	-8.71167
▁bird	-8.71176
▁north	-8.71218
▁pass	-8.71359
▁knock	-8.71439
▁general	-8.71523
▁questions	-8.71551
▁church	-8.71582
▁worried	-8.71638
▁harry	-8.71641
▁murder	-8.71896
▁attention	-8.7206
▁works	-8.7209
▁round	-8.72183
▁pleasure	-8.72484
▁history	-8.72484
▁shouting	-8.72572
▁soul	-8.72615
▁turned	-8.7269
▁ground	-8.72787
▁band	-8.72984
▁report	-8.73134
▁killing	-8.73271
▁forgot	-8.73332
▁unless	-8.73365
ur	-8.73475
▁honor	-8.73483
▁seconds	-8.73824
▁sally	-8.73855
▁star	-8.73868
▁missing	-8.73912
▁expect	-8.74012
▁green	-8.74032
▁totally	-8.74246
▁sell	-8.74305
▁motherfucker	-8.74366
▁near	-8.74492
▁laugh	-8.74582
▁sun	-8.74611
▁aah	-8.74615
▁handle	-8.74619
▁kept	-8.7463
▁mess	-8.74669
▁changed	-8.74694
▁club	-8.7481
▁imagine	-8.74865
▁bro	-8.74989
▁simple	-8.74997
ity	-8.75105
▁sad	-8.75138
▁p	-8.75186
▁given	-8.75581
▁security	-8.7594
▁professor	-8.75941
▁standing	-8.76076
▁lead	-8.76091
▁kick	-8.76219
▁saved	-8.76375
▁early	-8.76448
▁suppose	-8.7663
▁quit	-8.76743
▁doc	-8.77047
▁america	-8.77154
ful	-8.77228
▁e	-8.77261
▁tree	-8.77602
▁accident	-8.77664
▁paid	-8.77739
▁favor	-8.78158
ne	-8.78269
▁hide	-8.78287
out	-8.78734
▁joe	-8.78965
▁throat	-8.79065
▁fool	-8.79153
▁billy	-8.79291
ra	-8.79337
▁college	-8.7952
▁clothes	-8.79525
▁doin	-8.79713
▁mistake	-8.79724
▁rich	-8.7994
▁sonny	-8.80003
▁en	-8.80081
▁enjoy	-8.80276
▁suit	-8.80384
▁proud	-8.80437
▁yep	-8.8046
▁stopped	-8.80485
▁list	-8.80694
na	-8.80816
▁super	-8.81021
▁warm	-8.8104
▁forgive	-8.81267
▁ben	-8.81331
▁hungry	-8.81362
▁papa	-8.81365
▁yall	-8.81393
▁gasping	-8.81494
▁month	-8.81573
▁dress	-8.81631
▁bus	-8.81661
▁horse	-8.81697
▁cops	-8.81765
▁dying	-8.81826
▁driving	-8.81828
▁hotel	-8.81876
▁american	-8.82069
▁sake	-8.82294
▁wild	-8.82495
▁dreams	-8.82663
▁annie	-8.82767
▁ho	-8.83045
▁ringing	-8.83174
▁miles	-8.83196
▁building	-8.83329
▁fucked	-8.83723
▁ran	-8.83872
▁key	-8.83892
▁surprise	-8.83892
▁roll	-8.83901
to	-8.83972
▁names	-8.84209
▁jump	-8.84537
▁river	-8.84685
ness	-8.847
▁box	-8.84768
▁low	-8.84968
▁joke	-8.8497
▁system	-8.85062
▁caught	-8.85144
▁eh	-8.85202
▁honest	-8.85373
▁bastard	-8.8605
▁denny	-8.86111
▁foot	-8.86122
ist	-8.86184
▁situation	-8.86598
te	-8.86863
▁a	-8.86905
▁owe	-8.86962
▁glass	-8.87053
▁summer	-8.87089
th	-8.87097
▁station	-8.87099
▁feels	-8.87338
▁machine	-8.8755
▁impossible	-8.87581
▁spent	-8.87584
▁information	-8.87585
ter	-8.87631
▁bank	-8.87777
▁interesting	-8.87789
▁smoke	-8.87884
▁smile	-8.87927
▁drunk	-8.88038
▁wedding	-8.88077
▁guard	-8.8828
▁offer	-8.88515
is	-8.88535
it	-8.88796
▁lay	-8.89028
▁test	-8.89037
▁sweetheart	-8.89076
▁outta	-8.89079
ro	-8.89108
▁moon	-8.89181
▁shed	-8.89223
▁peace	-8.89329
▁bell	-8.8954
ton	-8.8954
▁marry	-8.89738
▁appreciate	-8.89878
▁london	-8.90081
▁major	-8.90081
▁fish	-8.90142
▁join	-8.90385
▁rules	-8.90399
▁force	-8.90435
▁tough	-8.90469
▁brain	-8.90485
▁burn	-8.905
▁worst	-8.90589
▁truck	-8.90628
▁russian	-8.90642
▁chatter	-8.90759
▁hero	-8.90832
▁fell	-8.91047
▁takes	-8.91665
▁mary	-8.91713
▁keys	-8.91919
▁forward	-8.92128
▁personal	-8.92131
▁queen	-8.92169
▁girlfriend	-8.92198
▁certainly	-8.92228
▁wearing	-8.92605
▁language	-8.92726
▁master	-8.92828
▁plane	-8.9285
▁realize	-8.93011
▁loud	-8.93043
▁stu	-8.93143
▁south	-8.93163
▁bought	-8.93166
▁wrote	-8.93166
▁tom	-8.9328
▁art	-8.93524
▁sitting	-8.93715
by	-8.93733
▁hat	-8.93936
▁mission	-8.93936
▁final	-8.93991
▁lock	-8.94024
▁gold	-8.94108
▁pack	-8.94188
▁uhhuh	-8.94216
▁tommy	-8.94219
▁bobby	-8.94229
▁pa	-8.9424
▁sky	-8.94279
▁talked	-8.94369
▁agree	-8.94534
▁video	-8.94745
▁wouldve	-8.94771
▁grand	-8.94802
▁j	-8.94847
▁service	-8.94871
▁arm	-8.95048
▁fighting	-8.95067
▁lying	-8.953
▁yelling	-8.95388
▁double	-8.95505
▁park	-8.95511
▁visit	-8.95692
▁normal	-8.95708
▁gas	-8.95783
▁afternoon	-8.95812
▁board	-8.95914
▁magic	-8.96144
▁tight	-8.96192
▁charge	-8.96345
▁plays	-8.96346
▁congratulations	-8.9635
▁yesterday	-8.9635
▁completely	-8.96426
▁paper	-8.96503
▁bella	-8.96511
▁ray	-8.96553
▁moved	-8.9666
▁chattering	-8.96712
▁gift	-8.96774
▁grace	-8.96832
▁stuck	-8.969
▁hole	-8.97072
▁folks	-8.97097
▁rain	-8.97149
▁dumb	-8.97423
▁lunch	-8.97425
▁cash	-8.9744
▁dangerous	-8.97441
▁balls	-8.97573
▁teach	-8.97997
ment	-8.98061
▁army	-8.9813
▁ed	-8.98217
▁goin	-8.98347
▁nick	-8.98374
▁contact	-8.9853
▁chuckling	-8.98533
▁boyfriend	-8.98536
▁lve	-8.98588
▁shoes	-8.98647
ta	-8.98793
▁share	-8.9889
▁finished	-8.98991
rs	-8.9902
▁evil	-8.99084
▁alex	-8.9909
▁bob	-8.9919
▁decided	-8.99222
▁taste	-8.99403
▁walking	-8.99578
▁listening	-8.9969
▁agent	-8.99878
▁twice	-9.00196
▁spot	-9.00403
▁planet	-9.00617
▁arms	-9.00632
▁dogs	-9.00714
▁exhales	-9.01323
▁third	-9.01323
▁court	-9.01328
▁begin	-9.01644
▁strike	-9.01891
▁battle	-9.01892
▁instead	-9.01892
▁kitchen	-9.01892
▁enzo	-9.01901
▁d	-9.02287
▁choose	-9.02463
▁pal	-9.02471
▁corner	-9.02573
▁broken	-9.02584
▁ii	-9.0259
▁field	-9.02844
▁command	-9.02876
▁certain	-9.02925
▁awful	-9.02936
▁fit	-9.02939
▁lived	-9.03033
▁difference	-9.03037
ia	-9.03142
▁lights	-9.03169
▁chris	-9.0332
▁hundred	-9.03345
▁buck	-9.03495
▁o	-9.03553
▁princess	-9.03589
▁dare	-9.03741
▁interested	-9.0381
▁pants	-9.03831
▁legs	-9.03864
▁co	-9.0447
▁excellent	-9.04782
▁leg	-9.04808
▁dirty	-9.04851
▁nose	-9.04891
▁thousand	-9.05125
▁prison	-9.05221
▁phil	-9.05393
▁lf	-9.0542
▁west	-9.05483
▁killer	-9.05504
▁destroy	-9.05512
▁u	-9.05723
▁feed	-9.05771
▁extra	-9.05775
▁position	-9.05777
▁lisa	-9.05962
▁bunch	-9.05965
▁race	-9.05972
il	-9.06048
▁continue	-9.06129
▁el	-9.06243
um	-9.06427
▁howd	-9.0643
▁doubt	-9.06451
▁memory	-9.06558
▁apartment	-9.06573
▁reading	-9.06668
▁camp	-9.06799
▁an	-9.07156
▁price	-9.07157
▁starting	-9.07247
▁sal	-9.07262
▁stone	-9.07331
▁quickly	-9.07345
▁named	-9.07345
▁brothers	-9.07468
▁chicken	-9.07574
▁upstairs	-9.07758
▁bathroom	-9.07759
▁gay	-9.07826
▁n	-9.07978
▁group	-9.08125
▁store	-9.08199
▁camera	-9.08267
▁bear	-9.08297
▁witch	-9.08317
▁hasnt	-9.08365
▁government	-9.08365
▁tape	-9.08481
▁breath	-9.08676
▁locked	-9.08679
▁weekend	-9.08815
▁heavily	-9.08976
▁press	-9.08976
▁aye	-9.09002
▁een	-9.09026
ce	-9.09157
▁cry	-9.09213
et	-9.09407
▁birds	-9.09462
▁code	-9.09603
▁engine	-9.0963
▁aw	-9.09994
▁reach	-9.10029
▁beyond	-9.10205
▁miyagi	-9.10205
▁problems	-9.10279
▁hall	-9.10551
▁rid	-9.10574
▁carry	-9.1058
▁da	-9.10595
▁weapon	-9.10667
▁flight	-9.10689
▁staying	-9.1074
ate	-9.10793
▁babe	-9.1083
gest	-9.11016
▁v	-9.11305
▁angry	-9.11451
▁alarm	-9.11455
ty	-9.115
▁sweetie	-9.11528
▁letter	-9.11629
▁holding	-9.11833
▁escape	-9.1188
id	-9.11886
▁grow	-9.12014
▁jacob	-9.1208
▁promised	-9.12081
sh	-9.12647
▁babies	-9.12712
▁r	-9.12714
lng	-9.13238
▁beer	-9.13337
▁especially	-9.13349
▁rose	-9.13641
ive	-9.13833
▁shouldve	-9.1399
▁thunder	-9.13998
▁obviously	-9.14045
▁soft	-9.14484
▁admit	-9.14621
▁neck	-9.14654
▁card	-9.14801
▁bomb	-9.1488
▁bite	-9.14881
▁zo	-9.14954
▁calls	-9.15128
▁nervous	-9.15171
▁learned	-9.15219
▁cross	-9.15251
▁whatd	-9.15285
▁beach	-9.1529
▁scarlett	-9.1529
▁jail	-9.15291
▁prove	-9.15415
▁liked	-9.15526
age	-9.15639
▁greatest	-9.15645
▁spirit	-9.15902
▁awesome	-9.15939
▁michael	-9.15939
▁neither	-9.15939
▁marley	-9.15941
▁mum	-9.15962
ge	-9.16063
▁cheers	-9.16121
▁eating	-9.16344
▁tea	-9.16447
▁fresh	-9.16569
▁whose	-9.16584
▁everywhere	-9.16597
▁teeth	-9.16613
▁usually	-9.16657
▁speed	-9.16907
ry	-9.17121
▁colonel	-9.17259
▁heavy	-9.17259
▁idiot	-9.1729
▁books	-9.17299
ish	-9.17357
▁pop	-9.17633
▁color	-9.17641
▁arrest	-9.17653
▁notice	-9.17727
▁wondering	-9.17871
▁shop	-9.17897
▁elephant	-9.17919
▁emergency	-9.17925
▁within	-9.17925
▁richard	-9.17927
▁judge	-9.17945
ass	-9.18062
▁cup	-9.18161
ma	-9.18286
▁z	-9.1832
▁using	-9.18421
▁map	-9.1865
ling	-9.1908
▁deserve	-9.19091
▁detective	-9.19273
▁beginning	-9.19277
▁cheese	-9.19282
▁ghost	-9.19293
▁cook	-9.19295
▁where	-9.193
▁bigger	-9.19344
▁putting	-9.19354
▁growls	-9.1941
▁nuts	-9.19441
▁lan	-9.19591
ul	-9.19781
▁horn	-9.19824
▁du	-9.19853
▁yells	-9.2011
▁treat	-9.20533
▁dig	-9.20588
▁per	-9.20629
▁danger	-9.20675
▁katie	-9.20677
▁action	-9.20751
▁losing	-9.20761
▁block	-9.20784
▁julia	-9.21039
▁couldve	-9.21278
▁match	-9.21278
▁chief	-9.21327
▁stories	-9.21327
▁victor	-9.21391
▁lots	-9.21459
▁dom	-9.21763
▁belong	-9.21812
▁interview	-9.21904
▁public	-9.22005
▁sight	-9.22148
▁copy	-9.2227
▁following	-9.22411
▁waste	-9.22542
ant	-9.22714
▁mothers	-9.2272
▁football	-9.22727
▁writing	-9.22791
▁cousin	-9.22813
▁snow	-9.23073
▁harold	-9.23425
▁lucas	-9.23534
▁type	-9.23563
▁starts	-9.23586
▁wet	-9.23775
▁passed	-9.23885
▁mitch	-9.24131
▁incredible	-9.24134
▁marriage	-9.24134
▁tony	-9.2417
▁ugh	-9.24214
▁shame	-9.24246
▁heaven	-9.24268
▁partner	-9.24276
▁level	-9.24313
▁dollars	-9.24671
▁paris	-9.24827
▁butt	-9.24843
▁danny	-9.24862
▁te	-9.24982
▁scene	-9.24996
▁h	-9.25127
▁wine	-9.25359
de	-9.25442
▁post	-9.25482
▁enemy	-9.25568
▁travel	-9.25809
▁steal	-9.25934
▁bottom	-9.26293
▁evidence	-9.26293
▁practice	-9.26293
▁eve	-9.26327
▁william	-9.26464
▁crap	-9.26493
▁besides	-9.26766
▁dan	-9.26784
▁suck	-9.26801
oo	-9.26853
▁bull	-9.26982
▁malcolm	-9.27023
▁ridiculous	-9.27023
▁spanish	-9.27023
▁lonely	-9.2704
▁joy	-9.27162
j	-9.27182
▁decision	-9.27209
▁soldier	-9.27216
▁raise	-9.27561
▁difficult	-9.27607
▁turns	-9.27814
▁accept	-9.27852
▁softly	-9.27886
▁closed	-9.27995
▁picked	-9.28005
be	-9.28089
▁figured	-9.28197
▁aunt	-9.28465
▁jerry	-9.28502
▁edward	-9.28502
▁breakfast	-9.28502
▁famous	-9.28528
▁played	-9.28541
▁allow	-9.28616
▁anna	-9.28671
▁sleeping	-9.28688
▁pete	-9.28735
am	-9.29029
▁film	-9.29122
▁tires	-9.29195
▁brian	-9.29241
▁military	-9.29245
▁excited	-9.29265
▁area	-9.2948
▁monkey	-9.29483
nt	-9.29509
▁mo	-9.29831
▁steve	-9.29918
▁saturday	-9.29997
▁silver	-9.30003
▁cream	-9.30023
▁hoping	-9.30162
one	-9.30206
▁computer	-9.30255
▁ex	-9.30349
▁driver	-9.30506
▁blame	-9.30551
▁devil	-9.30571
li	-9.30647
▁support	-9.30743
▁often	-9.30756
▁immediately	-9.30776
▁hiding	-9.30872
▁teacher	-9.31191
▁robert	-9.31374
▁stole	-9.31446
▁stars	-9.31456
▁rule	-9.31478
▁t	-9.3148
ous	-9.31496
▁charles	-9.31518
▁dramatic	-9.3152
▁duke	-9.31526
▁consider	-9.31534
▁mij	-9.31544
▁janet	-9.31603
▁honestly	-9.31696
▁surprised	-9.31836
▁bloody	-9.32158
▁east	-9.32166
▁somehow	-9.32287
▁freedom	-9.32287
▁up	-9.32336
▁search	-9.32438
▁faster	-9.32655
lo	-9.32851
co	-9.32976
way	-9.32991
▁seemed	-9.33021
▁plus	-9.33067
▁screeching	-9.33155
▁drinking	-9.3317
▁beg	-9.33183
▁target	-9.33388
▁monster	-9.3339
▁lawyer	-9.33391
▁speaks	-9.33413
▁clears	-9.33415
▁decide	-9.33646
▁farm	-9.33686
da	-9.33774
▁whether	-9.33843
▁address	-9.33845
▁brave	-9.33889
▁rings	-9.33897
▁fill	-9.33973
▁mate	-9.34047
▁build	-9.34268
▁con	-9.34304
at	-9.34306
ah	-9.34388
▁crew	-9.34416
▁jones	-9.34507
▁ought	-9.34554
▁keeping	-9.34605
▁insane	-9.34631
▁taught	-9.34632
▁thatll	-9.34633
▁pressure	-9.34638
x	-9.34663
▁het	-9.34674
▁heat	-9.34686
im	-9.34726
▁m	-9.34837
▁tie	-9.34893
▁ruin	-9.34961
▁village	-9.34999
▁complete	-9.35116
▁survive	-9.35225
▁plans	-9.35229
▁dat	-9.3528
▁note	-9.35281
▁older	-9.35358
▁nowhere	-9.35424
▁common	-9.35425
▁program	-9.35428
▁teddy	-9.3543
▁deeply	-9.35641
▁sean	-9.35707
▁risk	-9.35733
▁animal	-9.35809
▁guest	-9.35817
▁launch	-9.35943
▁apologize	-9.36224
▁mirror	-9.36224
▁sydney	-9.36225
▁department	-9.36227
▁theyd	-9.36245
▁stage	-9.36287
▁angel	-9.36422
▁everythings	-9.36458
▁shower	-9.36465
▁conversation	-9.36587
▁student	-9.36633
▁weak	-9.36855
▁correct	-9.36861
▁base	-9.36865
▁bright	-9.36887
ance	-9.36968
▁blind	-9.37031
▁indeed	-9.37031
▁grandma	-9.37047
▁w	-9.37056
▁sold	-9.37058
▁dean	-9.37088
▁interest	-9.37237
▁belt	-9.37237
▁experience	-9.3726
▁se	-9.37282
▁bucks	-9.37416
▁mention	-9.37603
▁gods	-9.37636
▁lieutenant	-9.37844
▁plenty	-9.37844
▁dancing	-9.37844
▁sugar	-9.37847
▁helping	-9.37917
time	-9.37927
▁rat	-9.37981
▁crash	-9.37986
▁powerful	-9.37999
▁games	-9.38053
▁ends	-9.38427
▁op	-9.38449
▁fan	-9.38507
▁player	-9.38527
▁matt	-9.38545
▁prince	-9.38622
▁apart	-9.38644
▁molly	-9.38665
▁bernie	-9.38669
▁held	-9.38709
land	-9.38735
▁skin	-9.38742
as	-9.38768
▁hook	-9.38851
▁weapons	-9.38859
▁punch	-9.38859
▁size	-9.38889
▁chain	-9.38899
▁states	-9.39036
▁orders	-9.39207
▁focus	-9.39215
▁ms	-9.3928
▁loves	-9.39386
▁built	-9.3949
▁pregnant	-9.3949
▁milk	-9.395
▁thou	-9.39517
▁flying	-9.39626
▁serve	-9.39884
▁pretend	-9.39976
▁egg	-9.40015
▁tail	-9.40059
▁hanging	-9.40237
▁asleep	-9.40323
▁possibly	-9.40323
▁genius	-9.40323
▁movies	-9.40376
▁form	-9.40393
▁main	-9.40539
▁gosh	-9.40599
▁thinks	-9.40728
▁fathers	-9.40749
ee	-9.4077
▁nah	-9.4084
and	-9.40868
▁knocking	-9.41007
▁bother	-9.41049
▁acting	-9.41148
▁foreign	-9.41164
▁jane	-9.41227
▁horses	-9.41431
ted	-9.41463
▁gotten	-9.41566
▁animals	-9.41601
▁del	-9.41602
me	-9.41606
▁growing	-9.41622
▁nature	-9.41688
▁lake	-9.41725
▁san	-9.41952
▁faith	-9.41995
▁russell	-9.42011
▁shake	-9.42087
▁richie	-9.42114
ary	-9.42139
▁account	-9.4255
▁draw	-9.42794
▁rome	-9.42851
▁roof	-9.42865
▁science	-9.42866
▁apparently	-9.42873
▁warning	-9.43041
men	-9.43063
▁piss	-9.43116
▁heads	-9.43257
▁fired	-9.43306
▁noise	-9.43436
▁circle	-9.43546
▁susan	-9.43713
▁jungle	-9.43728
▁italian	-9.43729
▁wherever	-9.43738
▁large	-9.43765
▁breaking	-9.43775
▁lies	-9.43878
▁operation	-9.44272
▁doors	-9.44376
▁loose	-9.44433
▁jim	-9.44451
▁ch	-9.4446
▁cars	-9.4449
▁empty	-9.44598
▁ugly	-9.44598
▁silly	-9.4461
▁castle	-9.44614
▁pictures	-9.44616
▁beth	-9.44713
▁beeping	-9.44791
▁showed	-9.44924
▁coat	-9.44947
ver	-9.45002
▁track	-9.45097
▁feelings	-9.45177
▁relationship	-9.45211
▁guns	-9.45269
▁freak	-9.45348
▁records	-9.45368
▁witness	-9.45426
▁upset	-9.45469
▁pizza	-9.45475
▁ryan	-9.45475
▁rough	-9.45475
▁nope	-9.45478
▁purpose	-9.45488
▁storm	-9.45489
▁distance	-9.45491
▁training	-9.45599
ac	-9.46272
▁drugs	-9.46319
▁local	-9.4636
▁bringing	-9.46453
▁pray	-9.46496
▁woods	-9.46523
▁united	-9.46585
ent	-9.46936
▁hm	-9.46943
▁roger	-9.47024
▁crime	-9.47028
▁pocket	-9.47038
ine	-9.47049
▁cap	-9.47088
▁announcer	-9.47274
▁june	-9.47289
▁huge	-9.47321
▁madame	-9.47364
▁nurse	-9.47453
no	-9.47665
▁dry	-9.47808
▁bridge	-9.47864
▁prepare	-9.47955
os	-9.4802
▁sheriff	-9.48153
▁rachel	-9.48155
▁kevin	-9.48164
▁harder	-9.48173
▁path	-9.48192
▁cake	-9.48211
▁amen	-9.4822
▁whispering	-9.48253
▁file	-9.48383
▁whispers	-9.48749
▁caesar	-9.48858
ian	-9.48965
▁nothin	-9.49035
▁restaurant	-9.49062
▁wizard	-9.49063
▁meat	-9.49063
▁stephen	-9.49067
▁fake	-9.49067
▁gary	-9.49161
▁male	-9.49163
▁due	-9.49179
▁screw	-9.49346
▁repeat	-9.49626
▁mountain	-9.49802
▁bullet	-9.49821
▁lied	-9.49887
▁candy	-9.49953
▁pardon	-9.4998
▁elizabeth	-9.4998
▁willing	-9.49981
▁clock	-9.49991
▁jerk	-9.50008
▁pool	-9.50182
▁sisters	-9.50261
▁no	-9.50293
▁allowed	-9.50318
▁cost	-9.5058
▁however	-9.50906
▁niet	-9.50909
▁linda	-9.5091
▁goodness	-9.50935
▁scary	-9.50995
▁gate	-9.51221
▁wash	-9.51248
▁remind	-9.51294
▁trick	-9.51297
▁fate	-9.51491
▁dis	-9.51632
▁beast	-9.517
▁helen	-9.51744
▁advice	-9.5184
▁became	-9.5184
▁involved	-9.519
▁suggest	-9.51925
▁keeps	-9.52105
▁paying	-9.52139
ig	-9.52247
▁closer	-9.5234
▁exist	-9.52386
▁watched	-9.52454
▁pre	-9.52518
▁sword	-9.52648
▁bottle	-9.52656
▁shirt	-9.52661
▁bond	-9.52731
▁strength	-9.52744
▁wave	-9.52778
▁california	-9.52784
▁opportunity	-9.52784
▁scoffs	-9.52784
▁todd	-9.52786
▁whore	-9.52793
▁barely	-9.52844
▁mayor	-9.53162
▁walked	-9.53264
▁spread	-9.53385
▁pro	-9.53577
▁ticket	-9.53636
▁view	-9.53643
▁hardly	-9.5372
▁prefer	-9.53731
▁downstairs	-9.53736
▁horrible	-9.53736
▁innocent	-9.53736
▁saving	-9.53738
▁weight	-9.53804
▁self	-9.53806
▁coughing	-9.53812
▁kinda	-9.53892
▁er	-9.54253
▁natural	-9.54585
▁finger	-9.54617
▁ld	-9.54648
▁contract	-9.5466
▁maisie	-9.54698
▁otherwise	-9.54698
▁mask	-9.54699
▁earlier	-9.547
▁romantic	-9.54701
▁yellow	-9.54701
▁beauty	-9.54713
▁sub	-9.54784
ng	-9.54818
▁commander	-9.54968
▁numbers	-9.54991
▁metal	-9.55161
▁gives	-9.55167
▁ad	-9.55238
▁brown	-9.55428
▁over	-9.55596
▁professional	-9.55636
▁harm	-9.55664
▁split	-9.55665
▁opinion	-9.55669
▁afford	-9.55669
▁center	-9.55742
▁suddenly	-9.55755
▁opens	-9.55903
▁pen	-9.55909
▁ca	-9.55921
▁scream	-9.55976
der	-9.56096
line	-9.56293
ph	-9.56512
▁spoke	-9.56596
se	-9.56623
▁familiar	-9.56649
▁sobbing	-9.56649
▁tongue	-9.56649
▁jason	-9.56655
▁liar	-9.56658
▁pair	-9.56662
▁finn	-9.56665
▁gentleman	-9.56673
▁guilty	-9.56707
ff	-9.56727
▁fingers	-9.56733
▁career	-9.56744
▁row	-9.56817
▁letters	-9.56862
ke	-9.57022
▁bless	-9.57069
ad	-9.57104
▁ln	-9.57115
▁lift	-9.5712
▁students	-9.5714
▁flowers	-9.57167
ba	-9.57286
▁total	-9.57531
▁chest	-9.57555
▁nigga	-9.57604
▁credit	-9.57639
▁fortune	-9.57639
▁majesty	-9.57639
▁sarge	-9.57639
▁sergeant	-9.57639
▁weather	-9.57639
▁carl	-9.57647
▁comfortable	-9.57649
▁birth	-9.5765
▁duty	-9.57655
▁penny	-9.57657
▁medical	-9.57663
▁growling	-9.57688
▁josh	-9.57702
▁pet	-9.579
▁ear	-9.57945
son	-9.58152
led	-9.58218
▁wood	-9.58489
▁jo	-9.58617
▁twenty	-9.58634
▁truly	-9.58639
▁terrific	-9.5864
▁midnight	-9.5864
▁mmmhmm	-9.58641
▁button	-9.58658
▁subject	-9.58671
▁thee	-9.58705
▁market	-9.58712
▁stan	-9.58715
▁turning	-9.58762
ts	-9.58765
▁signal	-9.58771
▁ate	-9.58787
▁fella	-9.58793
▁shows	-9.58846
▁boom	-9.58906
▁discuss	-9.58983
▁text	-9.59028
▁murdered	-9.5929
▁places	-9.59498
▁whoever	-9.59649
▁hadnt	-9.59649
▁simply	-9.59649
▁friday	-9.5965
▁grew	-9.5965
▁literally	-9.59657
▁fellow	-9.59662
▁handsome	-9.59672
▁airport	-9.59672
▁shine	-9.59688
▁spell	-9.59704
▁arrived	-9.59784
▁cares	-9.60084
▁realized	-9.60098
▁opening	-9.60174
▁worlds	-9.60184
un	-9.60187
▁dressed	-9.60247
▁talkin	-9.60269
▁les	-9.60284
▁hill	-9.60472
▁rent	-9.60525
▁spring	-9.60673
▁sunday	-9.60677
▁ears	-9.60689
▁guards	-9.60709
▁condition	-9.60711
▁alan	-9.60739
▁lab	-9.60874
▁jr	-9.60879
▁agreed	-9.61054
▁ma	-9.61108
bo	-9.6116
▁swing	-9.61357
▁papers	-9.61414
▁health	-9.6156
▁dawn	-9.617
▁female	-9.617
▁lebron	-9.617
▁vacation	-9.617
▁whirring	-9.617
▁rumbling	-9.61701
▁ashley	-9.61703
▁property	-9.61709
▁chair	-9.61725
▁whyd	-9.61733
▁regret	-9.61739
▁drug	-9.61881
▁brains	-9.61955
▁helped	-9.61956
▁hunt	-9.6204
▁jet	-9.6223
▁rush	-9.62399
▁exciting	-9.62742
▁society	-9.62742
▁byebye	-9.62742
▁neighborhood	-9.62743
▁wailing	-9.62744
▁larry	-9.62747
▁nina	-9.62751
▁zach	-9.62759
▁junior	-9.62762
▁according	-9.6278
▁director	-9.628
▁safety	-9.62814
▁trade	-9.62835
▁falling	-9.62877
▁jacket	-9.62897
▁letting	-9.62963
▁plant	-9.63186
▁bi	-9.63479
▁suicide	-9.63795
▁toilet	-9.63796
▁trash	-9.63808
▁winner	-9.63816
▁di	-9.63876
▁kate	-9.64003
▁banging	-9.64065
▁lines	-9.64067
▁crack	-9.64131
▁leader	-9.64167
▁awake	-9.64206
▁pot	-9.6428
▁switch	-9.64522
▁recognize	-9.64653
▁knees	-9.64843
▁anthony	-9.64859
▁brilliant	-9.64859
▁easier	-9.64859
▁research	-9.64859
▁lucy	-9.64861
▁howard	-9.64865
▁cj	-9.64889
▁wicked	-9.64919
▁winter	-9.64928
▁closet	-9.64957
▁royal	-9.65001
▁pig	-9.65089
▁eggs	-9.65163
ping	-9.65263
per	-9.65511
▁bones	-9.65558
om	-9.65594
▁assume	-9.65733
▁bath	-9.65849
▁closes	-9.65931
▁cindy	-9.65934
▁fought	-9.65934
▁particular	-9.65934
▁thomas	-9.65934
▁understood	-9.65934
▁esther	-9.65936
▁pussy	-9.65946
▁bedroom	-9.65947
off	-9.65952
▁written	-9.65955
▁boring	-9.65997
▁blast	-9.66
▁manager	-9.66002
▁tense	-9.6615
▁cock	-9.66201
▁trees	-9.66208
▁noticed	-9.66256
ley	-9.66306
▁ls	-9.66377
▁enter	-9.66431
▁thy	-9.66525
▁sexy	-9.66535
dy	-9.66789
▁shape	-9.66794
▁sacrifice	-9.66841
em	-9.66879
▁sharp	-9.66907
tic	-9.66907
▁madam	-9.66923
▁gentle	-9.66986
▁caleb	-9.67021
▁fantasy	-9.67021
▁cancer	-9.67021
▁kingdom	-9.67021
▁kelly	-9.67021
▁elevator	-9.67024
ha	-9.67031
▁fellas	-9.67046
▁wise	-9.67095
▁powers	-9.67296
▁hearing	-9.67341
ize	-9.67423
▁burned	-9.67609
▁bo	-9.67689
▁burning	-9.67759
▁study	-9.67839
▁expecting	-9.67894
▁march	-9.67937
▁wide	-9.68091
▁greg	-9.68119
▁threw	-9.6812
▁skipper	-9.68123
▁zero	-9.68219
▁beeps	-9.68439
▁sand	-9.68629
▁eli	-9.6885
▁stayed	-9.68864
▁create	-9.69035
ag	-9.69094
▁remain	-9.69101
▁somethin	-9.69203
▁fantastic	-9.69236
▁baseball	-9.69237
▁fancy	-9.69238
▁energy	-9.6924
▁allen	-9.69276
▁buzzing	-9.69341
▁approaching	-9.69349
▁failed	-9.69469
ber	-9.70017
▁settle	-9.70077
▁load	-9.70183
go	-9.70277
▁freeze	-9.70295
▁florida	-9.70354
▁knife	-9.70354
▁texas	-9.70355
▁toast	-9.70356
▁naked	-9.70362
▁dropped	-9.70373
▁jeff	-9.70375
▁bodies	-9.70385
▁flat	-9.70409
▁national	-9.70457
▁pulled	-9.70502
▁fort	-9.70505
▁invited	-9.70508
▁headed	-9.70536
▁inhales	-9.70577
▁alien	-9.70625
▁patient	-9.70633
ex	-9.71025
▁expected	-9.71073
ism	-9.71151
▁rescue	-9.71302
▁rick	-9.71388
▁square	-9.7149
▁whenever	-9.71491
▁audience	-9.71491
▁permission	-9.71492
▁riley	-9.71494
▁clay	-9.71496
▁heh	-9.71499
▁joan	-9.71504
▁yearold	-9.7155
ger	-9.71611
▁anne	-9.71685
▁mood	-9.71691
▁pilot	-9.71756
▁destroyed	-9.72021
ow	-9.72065
▁ge	-9.72069
▁secure	-9.7244
▁indian	-9.72519
▁regular	-9.72522
▁matters	-9.72626
▁although	-9.7264
▁claire	-9.7264
▁gandalf	-9.7264
▁ocean	-9.7264
▁mostly	-9.7264
▁chicago	-9.72641
▁monday	-9.72641
▁vision	-9.72641
▁downtown	-9.72641
▁prick	-9.72643
▁mister	-9.72683
▁score	-9.72713
▁scare	-9.72723
▁rise	-9.72732
▁believed	-9.72755
▁nigger	-9.7293
▁nearly	-9.72941
▁x	-9.731
▁rey	-9.73101
▁clearly	-9.73191
▁out	-9.73196
▁sooner	-9.73474
▁sim	-9.73524
▁opened	-9.73574
▁pink	-9.73747
▁tess	-9.73795
▁tour	-9.73799
▁universe	-9.73803
▁responsible	-9.73805
▁onto	-9.73818
▁talent	-9.73833
▁moms	-9.73895
▁kat	-9.73947
▁cave	-9.74008
▁project	-9.74088
▁model	-9.7417
▁garden	-9.74647
▁schedule	-9.74778
▁release	-9.74779
▁license	-9.74979
▁insurance	-9.7498
▁vincent	-9.74982
▁yeh	-9.74991
▁panic	-9.75005
▁ted	-9.75031
▁tiny	-9.7506
▁prepared	-9.7524
▁fucker	-9.75302
▁vehicle	-9.75319
▁lesson	-9.75427
▁martin	-9.75874
▁introduce	-9.75969
▁pieces	-9.76024
▁social	-9.76032
▁india	-9.76052
▁bilbo	-9.7617
▁monsieur	-9.7617
▁responsibility	-9.7617
▁chinese	-9.76171
▁piano	-9.76171
▁danielsan	-9.76172
▁suspect	-9.76261
▁swim	-9.76346
▁chick	-9.76362
▁holly	-9.76375
▁paint	-9.76393
ho	-9.76444
▁pie	-9.76448
▁raised	-9.76494
▁eagle	-9.76535
▁adam	-9.76562
▁tower	-9.76562
▁tall	-9.76563
▁rolling	-9.77039
▁courage	-9.77365
▁odd	-9.77372
▁whimpering	-9.77375
▁fruit	-9.77375
▁buried	-9.77376
▁insist	-9.77376
▁christian	-9.77408
▁neil	-9.77493
▁grade	-9.77562
▁ships	-9.7757
▁concerned	-9.77583
▁client	-9.77785
▁plate	-9.7783
▁ne	-9.77963
▁tara	-9.78051
▁oil	-9.78155
▁unit	-9.78185
ka	-9.78281
▁covered	-9.78302
▁jealous	-9.78445
▁dirt	-9.78449
▁brenda	-9.7852
▁usual	-9.78541
▁smoking	-9.78597
▁simba	-9.78601
▁pee	-9.78621
ga	-9.78629
▁laid	-9.78691
▁itd	-9.78701
▁ja	-9.78722
▁hurts	-9.78761
▁lily	-9.78836
▁gasp	-9.7888
▁followed	-9.78893
▁sat	-9.78958
ang	-9.79023
▁checking	-9.79184
▁sending	-9.79204
▁page	-9.79211
▁pleased	-9.79275
▁virgin	-9.79446
▁traffic	-9.79551
mo	-9.79577
▁direct	-9.7962
▁port	-9.79639
▁coward	-9.79721
▁mmhm	-9.79789
▁among	-9.79809
▁stood	-9.79829
▁justice	-9.7983
▁staff	-9.7983
▁cowboy	-9.79832
▁giant	-9.79834
king	-9.79853
▁lou	-9.79872
▁began	-9.79873
▁clark	-9.7988
▁be	-9.7988
▁grave	-9.79885
ci	-9.79923
▁request	-9.79999
▁bone	-9.80109
▁grown	-9.80155
▁season	-9.80309
do	-9.80544
▁deliver	-9.80634
▁salt	-9.80637
▁soldiers	-9.80756
▁cub	-9.80785
▁secrets	-9.80957
▁chill	-9.80985
▁checked	-9.81049
▁donnie	-9.81079
▁necessary	-9.81079
▁selina	-9.81079
▁butler	-9.81079
▁jenny	-9.8108
▁joking	-9.81086
▁rude	-9.81086
▁cady	-9.81087
▁mercy	-9.81094
di	-9.81254
▁mans	-9.81284
▁created	-9.81304
▁hail	-9.8133
▁showing	-9.81369
▁lower	-9.81484
ell	-9.81507
▁robot	-9.81556
▁snap	-9.81604
▁bike	-9.81905
cy	-9.81924
▁produce	-9.81999
▁bum	-9.82037
▁character	-9.82192
▁sudden	-9.82232
▁everybodys	-9.823
▁aware	-9.82337
▁drag	-9.82342
▁rhett	-9.82345
▁someday	-9.82345
▁complicated	-9.82345
▁sarah	-9.82363
▁location	-9.82364
▁fbi	-9.82365
▁forest	-9.82371
▁confused	-9.82374
▁laughter	-9.82385
▁disgusting	-9.82417
ure	-9.82701
▁doll	-9.82792
▁fail	-9.82998
▁suffer	-9.83004
op	-9.83127
▁bow	-9.83282
end	-9.83377
▁louis	-9.83438
▁percent	-9.83616
▁period	-9.83627
▁wolf	-9.83627
▁nancy	-9.83628
▁gang	-9.83648
▁marie	-9.8366
▁jam	-9.83661
▁chocolate	-9.83692
▁chanting	-9.837
▁personally	-9.83946
▁nobodys	-9.8403
▁nights	-9.84054
ut	-9.84072
▁shoulder	-9.84196
▁coughs	-9.8423
den	-9.84591
▁tear	-9.84615
▁corn	-9.84634
▁damage	-9.8473
▁waited	-9.84814
▁signed	-9.84863
▁vote	-9.84873
▁mi	-9.84876
▁europe	-9.849
▁cruel	-9.84914
▁defense	-9.84925
▁shield	-9.84925
▁stomach	-9.84925
▁treasure	-9.84925
▁merry	-9.84926
▁punk	-9.8493
▁diane	-9.84934
▁edge	-9.84956
▁standard	-9.84968
▁rocket	-9.85006
▁stolen	-9.85051
ster	-9.85061
▁wade	-9.85167
▁voices	-9.85175
he	-9.85234
▁stairs	-9.8537
ier	-9.85428
▁creature	-9.85534
▁perfectly	-9.856
▁armed	-9.85623
▁access	-9.85769
▁doctors	-9.85836
▁stock	-9.85899
▁painting	-9.85923
▁mc	-9.85951
head	-9.86009
▁heading	-9.86055
▁obvious	-9.86129
▁trained	-9.86186
▁disappear	-9.86217
▁sp	-9.86239
▁attitude	-9.86241
▁greek	-9.86241
▁memories	-9.86242
▁cheap	-9.86242
▁england	-9.86242
▁curious	-9.86243
▁assistant	-9.86245
▁potter	-9.86259
▁planning	-9.86269
▁friendship	-9.86294
▁zone	-9.86331
▁writer	-9.86356
▁pan	-9.86499
▁siren	-9.8652
ck	-9.86535
ir	-9.86639
▁simon	-9.86762
▁reached	-9.86829
▁gunshot	-9.86879
▁flower	-9.86982
▁points	-9.87056
▁rip	-9.87214
▁process	-9.87219
▁borrow	-9.87297
▁bugs	-9.87391
▁official	-9.87461
▁original	-9.87473
▁speech	-9.87518
▁success	-9.87555
▁gllllan	-9.87575
▁oclock	-9.87575
▁basically	-9.87577
▁cohen	-9.87577
▁desk	-9.87578
▁pride	-9.87579
▁happiness	-9.87582
▁connie	-9.87587
▁voor	-9.87589
▁grant	-9.87593
▁champion	-9.87595
▁league	-9.87623
▁screen	-9.87628
▁meaning	-9.87628
▁smells	-9.87641
▁footsteps	-9.87672
▁fourth	-9.8771
▁parts	-9.87862
▁si	-9.87904
▁entirely	-9.87954
▁dads	-9.87956
▁walls	-9.88015
▁ended	-9.88167
ol	-9.88314
▁chase	-9.88586
▁lately	-9.88686
▁gus	-9.88694
▁bust	-9.88715
▁curse	-9.88732
▁cab	-9.8876
▁wat	-9.88826
▁ver	-9.88839
▁ohh	-9.88847
▁arthur	-9.88926
▁desert	-9.88926
▁appointment	-9.88929
▁clever	-9.88929
▁trapped	-9.88931
▁mgan	-9.88933
▁bride	-9.88934
▁hazel	-9.88936
▁basement	-9.88952
▁nasty	-9.88955
▁unfortunately	-9.88964
▁style	-9.88999
▁cleaning	-9.8931
▁joey	-9.89371
we	-9.89377
▁somebodys	-9.8942
bi	-9.89482
▁sport	-9.89498
lin	-9.89857
▁sa	-9.89902
▁prisoner	-9.8991
▁shooting	-9.90011
▁spare	-9.90142
▁belongs	-9.90149
▁proper	-9.90216
▁border	-9.9029
▁grateful	-9.90296
▁museum	-9.90296
▁expensive	-9.90297
▁grandfather	-9.90297
▁loving	-9.90307
▁destiny	-9.90331
▁auntie	-9.90364
▁add	-9.9042
▁beating	-9.90484
▁stops	-9.90498
▁officers	-9.90632
▁lee	-9.90745
▁nu	-9.90753
▁everyones	-9.90757
ot	-9.90775
▁tied	-9.90798
▁ba	-9.90963
▁effect	-9.91054
▁cal	-9.91334
▁sucks	-9.91342
▁me	-9.91383
▁wa	-9.91463
▁wire	-9.91503
▁physical	-9.9157
▁mail	-9.9167
▁celebrate	-9.91685
▁revenge	-9.91685
▁telephone	-9.91685
▁hassan	-9.91685
▁patrick	-9.91685
▁ancient	-9.91685
▁slide	-9.91686
▁granny	-9.91687
▁conrad	-9.91688
▁governor	-9.91688
▁washington	-9.91689
▁unbelievable	-9.9169
▁forgotten	-9.917
▁milo	-9.91735
▁dust	-9.91741
▁latin	-9.91797
▁amy	-9.91808
▁tickets	-9.91839
▁bleeding	-9.91895
▁touched	-9.91927
ey	-9.91931
▁tip	-9.91989
▁bang	-9.9202
▁yee	-9.92089
▁image	-9.92138
▁hunting	-9.92148
▁wha	-9.92203
▁filled	-9.92229
▁sweat	-9.9223
▁bags	-9.92335
▁maid	-9.92446
▁climb	-9.92458
▁rope	-9.92502
▁sports	-9.92526
ni	-9.92567
▁higher	-9.92599
▁yard	-9.9261
▁ideas	-9.92916
▁exact	-9.92981
▁app	-9.93017
▁eventually	-9.93093
▁journey	-9.93093
▁whimpers	-9.93093
▁funeral	-9.93094
▁gerry	-9.93094
▁slap	-9.93103
▁zijn	-9.93106
▁winning	-9.93122
▁lightning	-9.93133
▁shots	-9.93136
ting	-9.93136
▁jackson	-9.93167
▁uhoh	-9.93178
ard	-9.93203
▁fe	-9.93233
▁cameras	-9.93541
▁slowly	-9.93566
▁stronger	-9.93601
ill	-9.93618
ator	-9.93852
▁clown	-9.93906
▁desire	-9.93915
▁kicked	-9.93977
▁attacked	-9.9403
▁cos	-9.94041
▁hunter	-9.94089
▁returned	-9.94112
▁lips	-9.9418
▁mighty	-9.94228
▁artist	-9.94295
che	-9.94401
▁precious	-9.94522
▁trunk	-9.94522
▁whatre	-9.94524
▁guardian	-9.94544
▁troy	-9.94549
▁china	-9.9455
▁proof	-9.94588
▁vi	-9.94624
▁answers	-9.94679
▁sandy	-9.94722
▁healthy	-9.94725
▁lad	-9.94928
▁ka	-9.94989
▁sin	-9.95232
▁german	-9.95253
ny	-9.95332
▁kim	-9.95341
▁finding	-9.95371
▁parking	-9.95453
ec	-9.95457
just	-9.95709
▁younger	-9.95727
▁ron	-9.95742
▁invite	-9.95772
▁reporter	-9.9578
▁towards	-9.95852
▁doug	-9.95947
▁council	-9.95971
▁divine	-9.95971
▁mexico	-9.95971
▁silence	-9.95971
▁example	-9.95972
▁gemma	-9.95975
▁blew	-9.95981
▁marvin	-9.95988
▁comment	-9.95989
▁prime	-9.95992
▁santa	-9.95993
▁title	-9.96007
▁cage	-9.96058
▁golden	-9.96075
▁archer	-9.96139
▁maria	-9.96153
over	-9.96229
▁sec	-9.96532
ally	-9.96656
▁issue	-9.96686
▁gettin	-9.96721
que	-9.96803
▁poison	-9.96812
▁dump	-9.96815
▁clue	-9.96873
▁device	-9.96873
▁source	-9.96879
ated	-9.96908
▁apple	-9.96913
tion	-9.96921
▁cow	-9.96956
▁reports	-9.96974
▁fixed	-9.97025
▁rub	-9.97046
▁cha	-9.97073
▁hatch	-9.97143
▁surely	-9.97163
og	-9.9717
▁va	-9.97171
▁ruth	-9.97338
▁squad	-9.97438
▁decent	-9.97442
▁flesh	-9.97442
▁greville	-9.97442
▁including	-9.97442
▁lawrence	-9.97442
▁modern	-9.97442
▁slept	-9.97442
▁television	-9.97442
▁twelve	-9.97442
▁adrian	-9.97442
▁jonathan	-9.97442
▁julie	-9.97443
▁route	-9.97443
▁medicine	-9.97444
▁community	-9.97445
▁mouse	-9.97446
▁marcus	-9.9745
▁hindi	-9.97451
▁comin	-9.97468
▁chirping	-9.9747
▁recently	-9.97486
▁remembered	-9.97487
▁ending	-9.97532
▁trap	-9.97539
▁aim	-9.97571
▁lars	-9.97582
▁cards	-9.97703
▁hired	-9.97717
▁taxi	-9.97735
▁throwing	-9.97892
ball	-9.97941
▁roars	-9.98135
▁rocks	-9.9815
▁event	-9.9819
▁cooking	-9.98194
hi	-9.9835
ham	-9.98461
ten	-9.98499
beat	-9.98559
▁hon	-9.98597
▁cast	-9.98668
gh	-9.98695
▁counting	-9.9879
ville	-9.98841
tra	-9.98874
▁nation	-9.98879
ized	-9.98892
▁dorothy	-9.98934
▁effort	-9.98934
▁skull	-9.98934
▁proceed	-9.98934
▁brooks	-9.98935
▁crystal	-9.98936
▁closing	-9.98936
▁tells	-9.98936
▁michelle	-9.98936
▁legend	-9.98939
▁tunnel	-9.98947
▁duck	-9.98954
▁singer	-9.98972
▁loss	-9.98974
ti	-9.98977
▁moaning	-9.98988
▁woke	-9.99016
▁honking	-9.99037
▁someones	-9.99041
▁bound	-9.99074
▁barking	-9.99083
▁received	-9.99169
▁disappeared	-9.99244
▁fi	-9.99459
▁county	-9.99512
▁lo	-9.99621
▁appear	-9.99664
▁wheel	-9.9967
ating	-9.99728
▁stink	-9.99781
▁tears	-9.99799
▁cheat	-9.99876
▁tiger	-9.99922
▁france	-9.99939
▁victim	-9.99942
ca	-9.99977
▁do	-10.0002
▁hij	-10.0006
gen	-10.0011
gu	-10.0013
▁equipment	-10.0045
▁federal	-10.0045
▁alert	-10.0045
▁material	-10.0045
▁several	-10.0046
▁fred	-10.0046
▁plain	-10.005
▁eep	-10.0054
▁protection	-10.0055
▁useless	-10.0068
▁toy	-10.0071
▁hug	-10.0075
▁diamonds	-10.0092
ler	-10.0099
▁gene	-10.0105
▁pulling	-10.0109
side	-10.0111
▁fairy	-10.0115
▁lap	-10.013
▁ga	-10.0146
▁picking	-10.0149
▁coast	-10.0149
▁photo	-10.0151
▁diamond	-10.0151
▁value	-10.0151
▁direction	-10.0151
▁quarter	-10.0154
▁defend	-10.0163
▁pure	-10.0172
▁ignore	-10.0178
▁refuse	-10.0179
back	-10.018
▁legal	-10.0199
▁available	-10.0199
▁garbage	-10.0199
▁tuesday	-10.0199
▁unusual	-10.0199
▁popular	-10.0199
▁fleet	-10.0204
▁thatd	-10.0207
▁blowing	-10.0208
▁hut	-10.0208
▁rusty	-10.021
ial	-10.0211
▁pm	-10.0213
▁crush	-10.0217
▁charming	-10.0223
▁blows	-10.0224
▁screwed	-10.0245
ai	-10.0247
ki	-10.0251
▁bat	-10.0265
▁streets	-10.0267
▁highly	-10.0296
mer	-10.0303
▁lion	-10.0304
▁beep	-10.0307
▁spider	-10.031
▁clicks	-10.032
▁tap	-10.032
ek	-10.0333
house	-10.0341
▁kings	-10.0347
▁pump	-10.0355
▁applause	-10.0355
▁guitar	-10.0355
▁margaret	-10.0355
▁gross	-10.0355
▁disease	-10.0355
▁lenny	-10.0355
▁foul	-10.0356
▁owner	-10.0357
▁creaking	-10.0364
▁scar	-10.0374
▁iron	-10.0376
▁daughters	-10.0386
▁dot	-10.0387
▁families	-10.0389
▁joint	-10.0396
▁bitches	-10.0409
▁cheer	-10.041
▁issues	-10.0414
▁guests	-10.0437
▁creatures	-10.044
▁concern	-10.044
hand	-10.0441
▁tune	-10.045
▁scratch	-10.045
▁goat	-10.0452
▁laws	-10.0461
ak	-10.0463
▁magazine	-10.0469
▁meal	-10.0474
▁fully	-10.0489
▁divorce	-10.0494
▁elliot	-10.0495
▁stranger	-10.0498
▁spy	-10.0498
▁under	-10.0501
▁pe	-10.0501
▁mowgli	-10.0514
▁nonsense	-10.0514
▁spongebob	-10.0514
▁subtitles	-10.0514
▁unknown	-10.0514
▁fashion	-10.0514
▁intense	-10.0514
▁practical	-10.0514
▁pathetic	-10.0514
▁lampley	-10.0514
▁hidden	-10.0514
▁firing	-10.0514
▁tuck	-10.0515
ea	-10.0515
ko	-10.0517
▁setting	-10.0519
▁darkness	-10.0522
▁loser	-10.0525
▁all	-10.0527
▁embarrassing	-10.0528
▁glasses	-10.0531
▁likely	-10.0535
▁crown	-10.0535
▁lack	-10.0537
▁boo	-10.0538
▁mile	-10.0556
▁sue	-10.0558
ov	-10.0563
▁appears	-10.0566
▁hum	-10.057
▁pin	-10.0572
▁carol	-10.0575
io	-10.0583
the	-10.0596
▁sirens	-10.06
ru	-10.0615
▁hates	-10.0618
▁log	-10.062
▁knowing	-10.0631
▁nightmare	-10.0634
▁member	-10.0634
▁snake	-10.0636
▁ali	-10.0639
▁selling	-10.0642
▁sh	-10.0646
▁flag	-10.0651
▁deny	-10.0653
▁wipe	-10.0655
▁wil	-10.0656
▁firm	-10.0663
▁amount	-10.0675
▁ashamed	-10.0675
▁halloween	-10.0675
▁lincoln	-10.0675
▁muffled	-10.0675
▁phillip	-10.0675
▁jessica	-10.0675
▁illegal	-10.0675
▁mallory	-10.0675
▁jobs	-10.0675
▁negative	-10.0676
▁stevens	-10.0678
▁couch	-10.0678
▁thorin	-10.0678
fi	-10.068
▁johnson	-10.0684
▁nut	-10.0684
▁impressive	-10.0685
▁bury	-10.0688
▁miller	-10.0694
▁tank	-10.0697
▁chi	-10.0698
▁wing	-10.07
▁led	-10.0709
ped	-10.0714
▁tits	-10.072
com	-10.0726
▁indistinctly	-10.0728
ious	-10.0729
▁data	-10.0736
▁buying	-10.0736
▁yell	-10.074
▁blu	-10.0742
▁lance	-10.0743
tin	-10.0752
▁shout	-10.0768
▁customers	-10.0773
▁casey	-10.0776
▁shock	-10.0776
min	-10.0781
port	-10.0795
down	-10.0796
▁shift	-10.0802
▁sometime	-10.0802
▁pills	-10.0809
▁intend	-10.0811
▁spending	-10.0815
▁guarantee	-10.0819
▁pinch	-10.082
▁moves	-10.0833
▁chuck	-10.0836
▁chop	-10.0839
▁audrey	-10.0839
▁conference	-10.0839
▁cotton	-10.0839
▁exercise	-10.0839
▁giggling	-10.0839
▁uniform	-10.0839
▁progress	-10.0839
▁ellie	-10.0839
▁kitty	-10.0839
▁pepper	-10.084
▁fence	-10.0841
▁murderer	-10.0842
▁smith	-10.0842
▁juice	-10.0843
her	-10.0843
▁secretary	-10.0844
▁penis	-10.0844
▁bored	-10.0853
▁walter	-10.0855
▁shy	-10.0856
▁or	-10.0858
▁yelps	-10.0865
▁changes	-10.0871
▁victory	-10.0874
▁giggles	-10.0882
▁assholes	-10.0935
▁hop	-10.0943
▁col	-10.0952
ble	-10.0954
▁rob	-10.0963
▁receive	-10.0973
▁shoe	-10.0974
▁bail	-10.098
▁badge	-10.0988
▁spin	-10.0993
▁sexual	-10.0993
▁desperate	-10.0994
▁poe	-10.0997
▁attend	-10.1005
▁bread	-10.1006
▁disaster	-10.1006
▁kappa	-10.1006
▁plankton	-10.1006
▁smack	-10.1006
▁suspense	-10.1006
▁swimming	-10.1006
▁saint	-10.1006
▁laura	-10.1006
▁planned	-10.1008
▁maar	-10.1009
▁brush	-10.1009
▁broad	-10.1009
▁booth	-10.1009
▁christine	-10.101
▁hitting	-10.1016
▁changing	-10.1017
▁spoken	-10.1018
ions	-10.1021
▁discovered	-10.1022
▁designed	-10.1029
▁woody	-10.1031
▁cia	-10.1033
▁dealing	-10.104
▁reality	-10.1041
▁crewe	-10.1053
▁photos	-10.1058
ons	-10.1065
▁forced	-10.1071
▁photograph	-10.1076
ning	-10.1076
▁rot	-10.1083
▁riding	-10.1099
▁claim	-10.1113
wa	-10.1118
▁non	-10.1139
▁staring	-10.1141
pool	-10.1141
▁spit	-10.1142
▁dragon	-10.1145
▁separate	-10.1156
av	-10.1166
▁rare	-10.1167
▁enemies	-10.1175
▁grandmother	-10.1175
▁miracle	-10.1175
▁miserable	-10.1175
▁surgery	-10.1175
▁dublin	-10.1175
▁valley	-10.1176
▁theory	-10.1176
▁anger	-10.1177
▁hank	-10.1178
▁ease	-10.1182
▁specific	-10.1184
▁engaged	-10.1184
ise	-10.1187
▁sons	-10.119
▁pity	-10.1195
ner	-10.1196
ite	-10.1203
▁systems	-10.1203
pa	-10.1207
▁drinks	-10.122
▁americans	-10.1227
▁br	-10.123
▁yi	-10.1233
itt	-10.1242
▁stealing	-10.1257
▁ahh	-10.1273
▁gru	-10.1274
▁lookin	-10.128
▁teaching	-10.1283
▁pitch	-10.1288
▁belle	-10.1311
▁avoid	-10.1312
▁jon	-10.1313
▁priest	-10.1317
▁krab	-10.1318
▁monitor	-10.1319
▁russia	-10.134
▁am	-10.134
▁harris	-10.1344
▁sara	-10.1347
▁behavior	-10.1348
▁casablanca	-10.1348
▁explosion	-10.1348
▁whistling	-10.1348
▁warrant	-10.1348
▁drove	-10.1348
▁underpants	-10.1348
▁bunny	-10.1348
▁karate	-10.1348
▁mookie	-10.1348
▁stanley	-10.1349
▁warren	-10.135
▁gear	-10.135
▁betty	-10.1357
▁bass	-10.1357
▁nest	-10.1359
▁statement	-10.1362
▁mar	-10.1365
▁former	-10.1372
▁rep	-10.1398
▁seek	-10.14
▁fa	-10.1404
▁ruined	-10.1408
▁thousands	-10.142
▁wee	-10.1437
▁masters	-10.144
▁knocked	-10.1461
▁runs	-10.1465
▁crow	-10.1476
▁demon	-10.1477
▁bl	-10.1486
▁leaves	-10.1488
▁windows	-10.1494
▁trail	-10.1495
▁citizen	-10.1498
ring	-10.1505
▁forces	-10.1514
▁heb	-10.1516
▁experiment	-10.1518
▁incident	-10.1522
▁attorney	-10.1523
▁coincidence	-10.1523
▁merlin	-10.1523
▁oxygen	-10.1523
▁beverly	-10.1523
▁surrender	-10.1523
▁gorgeous	-10.1523
▁sauce	-10.1523
▁dennis	-10.1523
▁bravo	-10.1523
▁investigation	-10.1523
▁paddle	-10.1524
▁chef	-10.1524
▁reward	-10.1524
▁role	-10.1525
▁aside	-10.1525
▁roman	-10.1526
▁loan	-10.1526
▁exit	-10.1526
▁century	-10.1526
▁lean	-10.1529
▁bush	-10.1529
▁gray	-10.153
▁hu	-10.1536
▁print	-10.1538
▁hath	-10.1543
▁weed	-10.1559
▁jackie	-10.1565
▁survived	-10.1567
▁husbands	-10.1578
▁escaped	-10.1579
▁pissed	-10.158
pe	-10.1587
ii	-10.1597
▁depends	-10.1599
▁rats	-10.1605
▁for	-10.1614
▁orchestra	-10.1616
zz	-10.1617
▁host	-10.1635
▁brings	-10.1635
▁wound	-10.1649
▁collect	-10.1658
▁bare	-10.1671
▁chamber	-10.1676
▁cigarette	-10.1679
▁cloud	-10.1679
▁provide	-10.1682
red	-10.1684
und	-10.1691
▁cure	-10.1693
▁sandwich	-10.1696
▁slip	-10.17
▁expert	-10.1701
▁british	-10.1702
▁campaign	-10.1702
▁champagne	-10.1702
▁column	-10.1702
▁delicious	-10.1702
▁positive	-10.1702
▁silent	-10.1702
▁blaring	-10.1702
▁plastic	-10.1702
▁knowledge	-10.1702
▁ellen	-10.1702
▁martha	-10.1702
▁glory	-10.1702
▁denise	-10.1702
▁fetch	-10.1702
▁internet	-10.1702
▁cunt	-10.1702
▁golf	-10.1703
▁grandpa	-10.1703
▁wax	-10.1703
▁sandie	-10.1708
▁dash	-10.171
▁stretch	-10.1714
▁hip	-10.1716
▁sc	-10.172
▁bay	-10.1724
▁prize	-10.1729
▁reminds	-10.173
▁express	-10.1731
▁gl	-10.1747
▁members	-10.1747
▁lover	-10.1757
▁om	-10.1769
▁freaking	-10.1772
▁dies	-10.1804
ud	-10.1829
▁fighter	-10.1838
▁term	-10.1842
board	-10.1842
▁attempt	-10.1855
▁helicopter	-10.1861
▁hung	-10.1872
▁backup	-10.1879
▁threat	-10.188
▁tryin	-10.1881
▁anniversary	-10.1883
▁article	-10.1883
▁fifth	-10.1883
▁gloria	-10.1883
▁response	-10.1883
▁squeeze	-10.1883
▁wilkes	-10.1883
▁balance	-10.1884
▁bailey	-10.1884
▁bruce	-10.1884
▁vader	-10.1884
▁thirty	-10.1885
▁minor	-10.1886
▁nuclear	-10.1886
▁nathan	-10.1886
▁technically	-10.1887
▁lena	-10.1891
▁songs	-10.1892
▁jamie	-10.1894
▁kissing	-10.1894
▁ar	-10.1895
▁range	-10.1902
▁bastards	-10.1906
▁ordered	-10.1917
▁tend	-10.1922
▁millions	-10.1927
▁humans	-10.1937
▁carefully	-10.1958
▁iii	-10.1961
▁waters	-10.1963
▁mars	-10.1963
▁hire	-10.1967
▁ways	-10.1992
▁hits	-10.1993
ls	-10.2012
you	-10.2013
▁patients	-10.2027
▁details	-10.2035
▁cats	-10.2036
▁pushing	-10.2037
▁connection	-10.2051
▁chose	-10.2062
▁brand	-10.2065
▁advantage	-10.2069
▁ambulance	-10.2069
▁mcqueen	-10.2069
▁pleasant	-10.2069
▁potential	-10.2069
▁presence	-10.2069
▁thief	-10.2069
▁policy	-10.2069
▁carried	-10.2069
▁mickey	-10.2069
▁heck	-10.2069
▁review	-10.2069
▁shopping	-10.207
▁counselor	-10.2071
▁macho	-10.2073
▁bowl	-10.208
▁impressed	-10.2083
▁convinced	-10.2085
▁whod	-10.2087
▁eggsy	-10.2095
▁down	-10.2105
▁bud	-10.2109
▁shouts	-10.2112
▁deck	-10.2115
▁gar	-10.2126
▁beard	-10.2131
▁suits	-10.2136
▁mistakes	-10.2142
▁tu	-10.2142
▁manage	-10.2146
▁comfort	-10.2149
▁steps	-10.2157
▁hundreds	-10.2158
▁offered	-10.2172
▁adventure	-10.2183
ja	-10.2185
▁dit	-10.2197
▁site	-10.2204
▁bee	-10.2213
▁leading	-10.2215
▁respond	-10.2222
▁warn	-10.2223
▁ko	-10.223
▁faces	-10.2233
▁neighbor	-10.2244
▁qui	-10.2245
oc	-10.2247
▁po	-10.2248
▁rap	-10.2249
▁cells	-10.2252
▁deserves	-10.2252
▁anytime	-10.2257
▁barbara	-10.2257
▁central	-10.2257
▁library	-10.2257
▁offense	-10.2257
▁sensitive	-10.2257
▁someplace	-10.2257
▁therapy	-10.2257
▁thursday	-10.2257
▁university	-10.2257
▁gym	-10.2257
▁terry	-10.2258
▁estate	-10.2258
▁boyd	-10.2258
▁recall	-10.2258
▁garage	-10.2258
▁therell	-10.2259
▁mental	-10.226
▁lori	-10.226
▁chow	-10.226
▁quinn	-10.226
▁trial	-10.2262
▁treatment	-10.2263
▁filthy	-10.2265
▁wallet	-10.2267
▁timing	-10.2274
▁media	-10.2274
▁confirmed	-10.2278
▁abandoned	-10.2279
▁core	-10.2279
▁naturally	-10.228
▁hilly	-10.2285
▁tricks	-10.2288
ev	-10.2291
▁liz	-10.2296
▁woo	-10.2298
▁ab	-10.2302
for	-10.2322
▁phones	-10.2326
▁arrested	-10.2336
▁bon	-10.2337
▁mac	-10.2348
bu	-10.2358
qu	-10.2363
za	-10.2365
▁lane	-10.2367
▁dreaming	-10.2387
▁fishing	-10.2388
▁arrive	-10.2412
▁resist	-10.2414
▁sink	-10.2424
▁scott	-10.2429
▁pounds	-10.2435
▁gain	-10.2435
▁object	-10.2438
▁criminal	-10.244
iest	-10.2441
▁painful	-10.2443
▁wrap	-10.2449
▁channel	-10.245
▁heighho	-10.245
▁reputation	-10.245
▁dasong	-10.245
▁aaron	-10.245
▁solid	-10.245
▁theater	-10.245
▁faint	-10.245
▁trent	-10.2451
▁watson	-10.2451
▁fanny	-10.2451
▁blanket	-10.2451
▁sammy	-10.2452
ship	-10.2453
▁exchange	-10.2453
▁scan	-10.2454
▁narrat	-10.2455
▁ava	-10.2455
▁chosen	-10.2457
▁clattering	-10.2458
▁echoing	-10.2459
▁der	-10.246
▁actor	-10.2461
▁fallen	-10.2474
▁bump	-10.2489
▁studying	-10.2511
▁considered	-10.2519
▁hills	-10.2533
ay	-10.2536
▁dating	-10.2537
▁ward	-10.2554
▁carrying	-10.2558
▁monsters	-10.2563
▁design	-10.2569
▁hearts	-10.2583
▁flash	-10.2588
uc	-10.2589
▁rod	-10.2597
▁williams	-10.2599
▁passing	-10.261
▁sweep	-10.261
lock	-10.2612
▁confess	-10.2615
▁challenge	-10.2618
▁queens	-10.2622
ue	-10.2633
▁signs	-10.2633
▁string	-10.264
▁comp	-10.2641
▁remove	-10.2644
▁trace	-10.2645
▁incredibly	-10.2646
▁invisible	-10.2646
▁senior	-10.2646
▁tricia	-10.2646
▁wednesday	-10.2646
▁random	-10.2646
▁personnel	-10.2646
▁underground	-10.2646
▁intelligence	-10.2646
▁honour	-10.2646
▁minister	-10.2646
▁basketball	-10.2646
▁section	-10.2646
▁patty	-10.2647
▁abby	-10.2647
▁mistress	-10.2647
▁milton	-10.2648
▁steady	-10.2649
▁task	-10.265
▁collection	-10.265
▁yup	-10.265
▁ac	-10.2653
▁poem	-10.2653
▁gim	-10.2654
▁homework	-10.2656
▁los	-10.2662
▁terms	-10.2667
▁union	-10.2671
▁clouds	-10.2671
▁habit	-10.2672
▁carson	-10.2676
▁gates	-10.2678
▁normally	-10.2687
▁flo	-10.2688
▁butter	-10.2694
▁wings	-10.2696
▁suffering	-10.2699
▁rate	-10.2702
▁based	-10.2702
▁earn	-10.2714
▁worker	-10.2715
▁counter	-10.2722
▁ross	-10.2743
▁wayne	-10.2754
▁ren	-10.2754
▁ri	-10.2764
▁pr	-10.2769
▁degrees	-10.2771
▁hated	-10.2773
▁pit	-10.2785
▁inc	-10.2789
▁wit	-10.2817
▁wreck	-10.2817
▁guide	-10.2825
▁solve	-10.2826
▁creep	-10.2827
▁strip	-10.2839
▁holiday	-10.2843
▁beneath	-10.2846
▁benefit	-10.2846
▁dracula	-10.2846
▁vatican	-10.2846
▁violence	-10.2846
▁remote	-10.2846
▁deaf	-10.2846
▁morris	-10.2846
▁italy	-10.2846
▁thick	-10.2846
▁youth	-10.2846
▁humming	-10.2846
▁noble	-10.2847
▁batman	-10.2849
▁sadness	-10.2852
minous	-10.2854
▁purse	-10.2857
▁embarrassed	-10.286
▁pile	-10.2868
▁es	-10.2871
ities	-10.2873
▁bout	-10.2874
▁sighing	-10.2879
▁sounded	-10.2881
▁tickle	-10.2882
▁mountains	-10.2885
▁served	-10.2894
▁ra	-10.2896
▁bra	-10.2902
▁shitty	-10.2907
▁hooked	-10.2913
▁aid	-10.2926
▁crossed	-10.2931
▁damned	-10.2933
▁pam	-10.2934
if	-10.2936
▁tone	-10.2954
▁leads	-10.2956
cha	-10.2958
fully	-10.2974
▁tri	-10.2974
▁spa	-10.2981
▁knee	-10.2985
▁drivers	-10.2994
cus	-10.3004
▁q	-10.3009
like	-10.3013
▁players	-10.3015
▁sch	-10.3019
▁tradition	-10.302
▁als	-10.3034
▁roy	-10.3035
▁extreme	-10.3038
▁emotional	-10.3039
boy	-10.3039
▁equal	-10.3048
▁rabbit	-10.3049
▁transfer	-10.3049
▁fifty	-10.305
▁easily	-10.305
▁escort	-10.305
▁melanie	-10.305
▁seymour	-10.305
▁sophie	-10.305
▁wasting	-10.305
▁terrance	-10.305
▁willie	-10.305
▁cliff	-10.305
▁leak	-10.305
▁slice	-10.305
▁blade	-10.305
▁brick	-10.3051
▁wilson	-10.3051
▁andrew	-10.3051
▁salad	-10.3052
▁commitment	-10.3053
▁hoped	-10.3054
▁option	-10.3054
▁su	-10.3055
▁speakers	-10.3055
▁candyman	-10.3056
▁melly	-10.3058
▁coke	-10.3062
▁andy	-10.3062
▁ruby	-10.3071
▁circumstances	-10.3073
vo	-10.3084
▁hood	-10.3086
▁theo	-10.3101
▁spiders	-10.3109
▁ty	-10.3115
light	-10.3134
▁lads	-10.314
▁traveling	-10.3148
▁med	-10.3151
▁tale	-10.3158
▁boot	-10.316
▁ob	-10.3163
▁brakes	-10.3168
▁yay	-10.3176
ical	-10.3184
ita	-10.3186
▁interrupt	-10.3194
▁sigh	-10.3197
▁sucker	-10.3197
▁charges	-10.3198
▁ram	-10.3203
▁vera	-10.321
▁complain	-10.3214
▁remains	-10.3216
▁lin	-10.3217
▁leo	-10.3227
▁doo	-10.3249
▁glen	-10.325
▁boots	-10.3254
▁tire	-10.3255
▁becoming	-10.3258
▁brooklyn	-10.3258
▁collar	-10.3258
▁combination	-10.3258
▁education	-10.3258
▁maintain	-10.3258
▁minionese	-10.3258
▁mystery	-10.3258
▁patience	-10.3258
▁supply	-10.3258
▁terribly	-10.3258
▁worries	-10.3258
▁collins	-10.3258
▁sunshine	-10.3258
▁bonnie	-10.3258
▁ethan	-10.3258
▁lamb	-10.3258
▁snack	-10.3258
▁influence	-10.3258
▁miami	-10.3258
▁navy	-10.3259
▁dope	-10.3259
▁begging	-10.3259
▁jeez	-10.3259
▁mitchell	-10.326
▁leena	-10.326
▁selfish	-10.326
▁juan	-10.326
▁kong	-10.3262
▁compliment	-10.3263
▁scottie	-10.3265
▁cutting	-10.3265
ide	-10.3271
ew	-10.3286
▁waves	-10.3286
▁chasing	-10.3287
▁bully	-10.33
pin	-10.3308
▁sha	-10.3322
▁mentioned	-10.3329
▁off	-10.3332
▁gotcha	-10.3334
▁treated	-10.3342
▁sniffs	-10.3344
▁reasons	-10.3348
▁cr	-10.3353
ook	-10.3356
▁ohio	-10.3356
▁tent	-10.336
▁oz	-10.3373
▁hostages	-10.3374
▁falls	-10.3378
▁tick	-10.3382
▁penguins	-10.3401
fa	-10.3403
▁dee	-10.3409
▁enjoying	-10.3417
▁pat	-10.3421
▁aliens	-10.3425
▁mu	-10.3441
▁nail	-10.3443
▁award	-10.3445
▁sting	-10.3468
▁contest	-10.347
▁aibileen	-10.3471
▁bianca	-10.3471
▁custody	-10.3471
▁distant	-10.3471
▁eloise	-10.3471
▁galaxy	-10.3471
▁grief	-10.3471
▁palace	-10.3471
▁ralph	-10.3471
▁senator	-10.3471
▁therefore	-10.3471
▁capsule	-10.3471
▁temperature	-10.3471
▁supper	-10.3471
▁network	-10.3471
▁minny	-10.3471
▁digging	-10.3471
▁anderson	-10.3471
▁motion	-10.3472
▁mass	-10.3472
▁surface	-10.3473
▁vada	-10.3473
▁noah	-10.3473
▁carlos	-10.3473
▁package	-10.3475
▁roommate	-10.3475
▁debt	-10.3476
▁dna	-10.3477
▁uhuh	-10.3477
▁nearby	-10.3477
▁fed	-10.348
▁extremely	-10.3483
▁root	-10.3484
▁sides	-10.3486
▁halt	-10.3494
ence	-10.3497
ible	-10.3503
▁managed	-10.3505
▁settled	-10.3509
▁sobs	-10.3517
▁friendly	-10.3525
▁wasted	-10.3532
▁hong	-10.3539
▁accounts	-10.3548
▁fools	-10.3559
▁yankees	-10.3563
▁hurting	-10.3569
ns	-10.3577
▁smaller	-10.3579
ina	-10.3583
ther	-10.3602
▁trusted	-10.3603
▁pur	-10.3605
▁messed	-10.3608
ming	-10.3611
▁units	-10.3613
▁prom	-10.3632
▁charm	-10.3633
▁sneak	-10.3638
field	-10.3651
▁pound	-10.3672
hole	-10.3673
ach	-10.3673
▁inter	-10.3677
▁ghosts	-10.3681
▁patch	-10.3685
▁moral	-10.3687
▁agency	-10.3688
▁bishop	-10.3688
▁concentrate	-10.3688
▁davis	-10.3688
▁dessert	-10.3688
▁fabulous	-10.3688
▁motel	-10.3688
▁holmes	-10.3688
▁virus	-10.3688
▁patrol	-10.3688
▁sidney	-10.3688
▁hammer	-10.3688
▁starving	-10.3689
▁zooey	-10.3689
▁dalton	-10.3689
▁orange	-10.3689
▁bacon	-10.3689
▁torment	-10.369
▁satine	-10.369
▁bible	-10.3691
▁randy	-10.3691
▁doorbell	-10.3691
▁exclaiming	-10.3692
▁phase	-10.3692
▁sack	-10.3692
▁forth	-10.3695
▁waitress	-10.3695
cu	-10.3696
▁frightened	-10.3696
▁highway	-10.3699
▁choking	-10.37
▁wrist	-10.3702
▁satellite	-10.3702
▁dozen	-10.3703
▁pipe	-10.3703
▁pirate	-10.3706
▁roaring	-10.3706
▁toward	-10.3707
▁kane	-10.3708
▁net	-10.371
▁provided	-10.3713
▁missile	-10.3713
tu	-10.3714
▁clicking	-10.3717
▁cable	-10.3718
▁kyle	-10.3722
▁tin	-10.3732
▁chances	-10.3735
▁len	-10.374
▁dam	-10.3746
▁eaten	-10.375
▁finest	-10.3758
▁chickens	-10.3762
▁victims	-10.3762
▁gee	-10.3773
▁praying	-10.3774
▁magical	-10.3774
▁frankly	-10.3774
▁li	-10.3776
bra	-10.3777
▁crackers	-10.3784
▁stare	-10.3787
▁begins	-10.3807
▁heights	-10.3809
▁jumped	-10.3815
▁kills	-10.3828
rd	-10.3864
▁partners	-10.3871
▁inform	-10.388
▁recommend	-10.3881
▁journal	-10.3881
▁lick	-10.3883
▁surf	-10.3884
▁current	-10.3899
day	-10.3901
▁whoohoo	-10.391
▁basic	-10.391
▁brief	-10.391
▁amsterdam	-10.391
▁awkward	-10.391
▁division	-10.391
▁dudley	-10.391
▁explanation	-10.391
▁explosiveskull	-10.391
▁false	-10.391
▁kennedy	-10.391
▁malorie	-10.391
▁privacy	-10.391
▁routine	-10.391
▁vodka	-10.391
▁colony	-10.391
▁ouch	-10.391
▁email	-10.391
▁gunnar	-10.391
▁lainey	-10.391
▁stroke	-10.3911
▁execution	-10.3911
▁racing	-10.3911
▁actress	-10.3911
▁rosie	-10.3912
▁soup	-10.3912
▁instrumental	-10.3913
▁crackling	-10.3913
▁ditch	-10.3913
▁humor	-10.3916
▁psycho	-10.3929
▁shadow	-10.3931
▁exclaims	-10.3932
▁knight	-10.3932
▁jewel	-10.3934
▁oak	-10.3934
▁heroes	-10.3934
▁cookie	-10.3941
▁highest	-10.3942
▁billion	-10.3947
▁mill	-10.3953
▁loaded	-10.3965
ile	-10.3969
▁strangers	-10.3979
▁stones	-10.3985
py	-10.399
con	-10.3991
▁dial	-10.3993
▁pope	-10.3994
▁lungs	-10.4002
▁hunters	-10.4011
▁thoughts	-10.4012
▁mikey	-10.4031
gi	-10.4031
berg	-10.4033
ern	-10.4036
▁tag	-10.4042
▁gu	-10.4048
▁ze	-10.4062
▁fades	-10.4063
▁mid	-10.4064
▁testing	-10.4066
▁barn	-10.4081
au	-10.4082
▁twist	-10.4095
▁messages	-10.4097
▁barr	-10.41
▁gi	-10.4103
▁cancel	-10.4109
▁stress	-10.4111
tz	-10.4115
▁there	-10.4116
ou	-10.4123
▁leonard	-10.4132
▁options	-10.4134
▁christopher	-10.4138
▁langdon	-10.4138
▁pledge	-10.4138
▁politics	-10.4138
▁principal	-10.4138
▁quality	-10.4138
▁stammering	-10.4138
▁technology	-10.4138
▁themistokles	-10.4138
▁pistol	-10.4138
▁stuart	-10.4138
▁kenny	-10.4138
▁hollywood	-10.4138
▁marble	-10.4138
▁online	-10.4138
▁series	-10.4138
▁performance	-10.4138
▁species	-10.4139
▁adler	-10.4139
▁political	-10.4139
▁acid	-10.4139
▁engagement	-10.4139
▁richards	-10.414
▁foolish	-10.4143
▁dropping	-10.4143
▁drill	-10.4145
▁label	-10.4149
▁turner	-10.4154
▁anti	-10.4156
▁directly	-10.4159
▁connected	-10.4163
ub	-10.4166
▁passes	-10.4167
▁citizens	-10.417
▁flip	-10.4171
▁latest	-10.4177
▁fur	-10.4181
▁hoo	-10.4185
▁tub	-10.4194
▁mud	-10.4199
▁here	-10.4202
▁symbol	-10.4203
nce	-10.4206
ium	-10.4216
▁skills	-10.4236
▁lit	-10.4242
▁gut	-10.4252
▁hooker	-10.4257
▁opera	-10.4263
▁joined	-10.4263
▁gloves	-10.4269
ned	-10.4284
▁mat	-10.4292
▁gather	-10.4308
▁hai	-10.4314
▁bend	-10.4325
▁bug	-10.4335
▁trigger	-10.4342
▁defeat	-10.4343
▁bleed	-10.4343
▁convince	-10.435
uit	-10.4356
▁loyal	-10.4369
▁album	-10.437
▁charlotte	-10.437
▁complex	-10.437
▁dobby	-10.437
▁individual	-10.437
▁jeremy	-10.437
▁moscow	-10.437
▁rattling	-10.437
▁raymond	-10.437
▁stewart	-10.437
▁thistlewaite	-10.437
▁tournament	-10.437
▁appeal	-10.437
▁berlin	-10.437
▁prevent	-10.437
▁evelyn	-10.437
▁sniffles	-10.437
▁headquarters	-10.437
▁puppy	-10.437
▁shrieks	-10.437
▁as	-10.437
▁repair	-10.437
▁unique	-10.437
▁waldo	-10.437
▁flew	-10.4371
▁helsing	-10.4371
▁mammy	-10.4371
▁smiling	-10.4371
▁foster	-10.4371
▁hart	-10.4371
▁amber	-10.4371
▁ripped	-10.4371
▁announcement	-10.4372
▁chili	-10.4374
▁capable	-10.4375
▁grass	-10.4378
▁mansur	-10.4378
▁mobile	-10.4381
▁arranged	-10.4381
▁angeles	-10.4386
▁sniffing	-10.4386
▁cigarettes	-10.44
▁demand	-10.4402
▁learning	-10.4402
▁represent	-10.4402
▁wh	-10.4407
▁troops	-10.4407
▁haha	-10.4414
▁tomb	-10.4415
▁moron	-10.4418
▁seats	-10.4419
▁tool	-10.4421
▁hem	-10.4421
ably	-10.4427
ms	-10.443
uck	-10.4437
▁tr	-10.4443
▁dreamed	-10.445
▁understanding	-10.445
▁quietly	-10.4453
▁it	-10.4458
ose	-10.4463
▁drawing	-10.4466
▁boyle	-10.4476
▁deadly	-10.449
▁sale	-10.4495
▁seal	-10.4505
▁movement	-10.4507
▁badly	-10.4513
▁laughed	-10.452
▁visiting	-10.4523
mar	-10.4541
▁bid	-10.4544
▁to	-10.4544
▁speaker	-10.455
cat	-10.4561
▁cherry	-10.457
▁eric	-10.4579
▁abandon	-10.4581
▁leon	-10.4582
▁daddys	-10.4584
▁spoon	-10.4588
▁explode	-10.4588
▁winds	-10.4589
▁sentence	-10.459
▁russians	-10.4594
▁diet	-10.4601
▁prins	-10.4603
▁champ	-10.4604
▁application	-10.4608
▁commercial	-10.4608
▁debbie	-10.4608
▁distorted	-10.4608
▁evacuate	-10.4608
▁laundry	-10.4608
▁sequence	-10.4608
▁suzu	-10.4608
▁uncomfortable	-10.4608
▁valuable	-10.4608
▁jersey	-10.4608
▁opposite	-10.4608
▁suspicious	-10.4609
▁studio	-10.4609
▁walsh	-10.4609
▁dentist	-10.4609
▁pillow	-10.4609
▁chaney	-10.4609
▁committed	-10.4609
▁existence	-10.4609
▁status	-10.4609
▁impression	-10.4611
▁reaction	-10.4612
▁weaver	-10.4612
▁math	-10.4614
▁snoring	-10.4617
▁disappointed	-10.4617
▁howling	-10.4621
▁verne	-10.4622
▁mourning	-10.4623
▁ability	-10.4629
▁strain	-10.4636
▁passion	-10.4639
▁matthew	-10.4643
▁burger	-10.4646
ong	-10.4646
▁jokes	-10.4648
▁roberta	-10.4651
▁classic	-10.4657
▁busted	-10.4662
▁jan	-10.4664
▁edie	-10.4681
▁wifes	-10.4687
▁hid	-10.4688
▁ew	-10.4691
▁toe	-10.4695
▁accepted	-10.4698
well	-10.47
ron	-10.4708
▁ro	-10.4708
▁parker	-10.4709
▁julian	-10.471
▁dia	-10.4723
▁notes	-10.4741
▁shoulders	-10.4744
▁actual	-10.4745
can	-10.4752
▁olive	-10.4753
▁marks	-10.4761
▁makeup	-10.4762
▁honored	-10.4764
▁ti	-10.4767
▁pale	-10.4769
▁scientists	-10.4772
▁sid	-10.4774
▁messing	-10.4802
of	-10.4809
▁hol	-10.4815
▁confirm	-10.4823
▁toss	-10.4829
▁measure	-10.4832
rv	-10.4832
▁privilege	-10.4832
▁guilt	-10.4838
▁bong	-10.4841
▁landing	-10.4845
▁bri	-10.4848
▁transport	-10.4851
▁circus	-10.4852
▁clamoring	-10.4852
▁cocaine	-10.4852
▁crisis	-10.4852
▁election	-10.4852
▁empire	-10.4852
▁judgment	-10.4852
▁mckenna	-10.4852
▁scientific	-10.4852
▁skeeter	-10.4852
▁survival	-10.4852
▁thompson	-10.4852
▁vanessa	-10.4852
▁dallas	-10.4852
▁saddam	-10.4852
▁tattoo	-10.4852
▁tyler	-10.4853
▁lousy	-10.4853
▁rico	-10.4853
▁plug	-10.4854
▁praise	-10.4856
▁omara	-10.4856
my	-10.4857
▁bingo	-10.4858
▁cleaned	-10.4858
▁robbery	-10.4859
▁skip	-10.486
▁version	-10.486
▁crooked	-10.4864
▁motherfucking	-10.4864
▁neighbors	-10.4869
▁jean	-10.4869
▁detail	-10.487
▁gig	-10.4871
▁goal	-10.4871
▁satan	-10.4872
▁delivery	-10.4881
▁dish	-10.4881
▁bars	-10.489
▁grip	-10.489
▁mustnt	-10.4892
▁goodnight	-10.4895
▁zeke	-10.4899
▁thud	-10.4899
▁pill	-10.4904
▁pearl	-10.4906
val	-10.4907
▁combat	-10.4908
ice	-10.4913
▁nightmares	-10.4915
▁carter	-10.4915
▁pi	-10.492
gg	-10.4938
▁crashing	-10.4957
▁breathes	-10.4965
▁touching	-10.4971
▁chip	-10.4971
▁twins	-10.4978
ft	-10.498
▁para	-10.4981
▁events	-10.4993
tan	-10.5
rr	-10.5004
gan	-10.5006
▁cons	-10.5015
▁clients	-10.5017
▁mis	-10.5019
▁chicks	-10.5023
▁thin	-10.5032
▁rag	-10.5034
ties	-10.5037
▁drown	-10.504
▁connect	-10.5072
▁succeed	-10.5074
▁caused	-10.508
▁shown	-10.5081
▁becomes	-10.5081
▁describe	-10.5082
▁pirates	-10.5083
▁moments	-10.5089
▁assure	-10.5092
▁protecting	-10.5093
▁successful	-10.5093
▁cocksucker	-10.5102
▁dillon	-10.5102
▁glorious	-10.5102
▁invitation	-10.5102
▁julius	-10.5102
▁larusso	-10.5102
▁mahira	-10.5102
▁unhappy	-10.5102
▁vegas	-10.5102
▁gabriel	-10.5102
▁kidnapped	-10.5102
▁authorities	-10.5103
▁francisco	-10.5103
▁cheek	-10.5103
▁baloo	-10.5103
▁authority	-10.5103
▁daily	-10.5103
▁rufus	-10.5104
▁frozen	-10.5104
▁cries	-10.5106
▁precisely	-10.5106
▁logan	-10.5107
▁grug	-10.5107
▁laughlng	-10.5109
▁background	-10.5109
▁luke	-10.5109
▁shaw	-10.5109
▁hopefully	-10.5113
▁actors	-10.5114
▁alley	-10.5116
▁thus	-10.512
▁officially	-10.5124
▁shack	-10.5133
▁valentine	-10.515
▁granted	-10.5155
▁engines	-10.5169
lor	-10.5173
▁tina	-10.518
▁toys	-10.5185
▁au	-10.5196
▁jab	-10.5201
▁rooms	-10.5203
▁asses	-10.5205
▁ai	-10.5215
▁pont	-10.5215
▁disgrace	-10.5222
▁lu	-10.5232
ab	-10.5232
▁hei	-10.5233
▁fel	-10.5262
▁ye	-10.5267
▁so	-10.5284
stone	-10.5297
oh	-10.5298
▁nee	-10.5316
▁gr	-10.5324
▁guts	-10.5327
▁stake	-10.5329
ap	-10.5338
▁propose	-10.5339
▁fl	-10.5343
▁gil	-10.5344
▁steel	-10.5348
▁tests	-10.5358
▁district	-10.5359
▁hagrid	-10.5359
▁klara	-10.5359
▁mercedes	-10.5359
▁mufasa	-10.5359
▁pumbaa	-10.5359
▁samantha	-10.5359
▁squirrel	-10.5359
▁vault	-10.5359
▁widow	-10.5359
▁zamunda	-10.5359
▁reich	-10.5359
▁smooth	-10.5359
▁angle	-10.5359
▁peggy	-10.5359
▁shrink	-10.5359
▁gollum	-10.5359
▁susie	-10.5359
▁babs	-10.5359
▁superstar	-10.5359
▁odds	-10.5359
▁jazz	-10.5359
espite	-10.536
▁imran	-10.536
▁satisfied	-10.536
▁fever	-10.536
▁southern	-10.536
▁shore	-10.5361
▁aboard	-10.5361
▁cmon	-10.5361
▁slut	-10.5361
▁koning	-10.5361
▁daley	-10.5361
▁soda	-10.5363
▁ronan	-10.5363
▁machinery	-10.5364
▁theme	-10.5365
▁murmuring	-10.5366
▁fry	-10.5367
▁dull	-10.5369
▁hans	-10.537
▁cabin	-10.5373
▁ox	-10.538
▁developed	-10.5381
▁click	-10.5383
▁germany	-10.5385
ily	-10.5388
▁grunt	-10.5388
▁carver	-10.5391
▁coin	-10.5396
▁wanting	-10.5401
▁bullets	-10.5408
▁outfit	-10.5413
▁newspaper	-10.5415
▁affair	-10.5415
▁warrior	-10.5415
▁files	-10.5418
▁parent	-10.542
▁chuckle	-10.5423
▁jew	-10.5429
▁blessed	-10.5431
▁den	-10.5434
▁deserved	-10.5435
▁kay	-10.544
▁entering	-10.5442
▁blessing	-10.545
ola	-10.5451
▁tapes	-10.5455
▁tracking	-10.5461
▁germans	-10.5463
▁searching	-10.5475
▁ku	-10.5477
▁manner	-10.5478
ock	-10.5487
ker	-10.5492
▁bananas	-10.5492
▁mak	-10.5494
▁par	-10.5498
▁enjoyed	-10.5515
▁robots	-10.5516
▁motherfuckers	-10.5522
▁sn	-10.5524
▁houses	-10.5536
▁hump	-10.5536
mon	-10.5546
▁holes	-10.555
▁todays	-10.5559
▁bills	-10.5563
▁presents	-10.5564
▁unh	-10.5577
▁cole	-10.5585
▁lip	-10.5589
▁float	-10.5594
▁fart	-10.5596
▁bel	-10.5597
▁spark	-10.5601
▁weigh	-10.5604
▁dispatch	-10.561
▁permanent	-10.561
▁occasion	-10.5617
▁electric	-10.5619
▁asteroid	-10.5622
▁canada	-10.5622
▁competition	-10.5622
▁daiton	-10.5622
▁dwarf	-10.5622
▁permit	-10.5622
▁rafo	-10.5622
▁retreat	-10.5622
▁genuine	-10.5622
▁identity	-10.5622
▁alpha	-10.5622
▁confidence	-10.5622
▁cpo	-10.5622
▁grabbed	-10.5622
▁culture	-10.5622
▁kitten	-10.5622
▁sharon	-10.5622
▁craig	-10.5622
▁throne	-10.5622
▁signature	-10.5622
▁countess	-10.5623
▁eleven	-10.5623
▁myth	-10.5623
▁scale	-10.5623
▁failure	-10.5623
▁fold	-10.5623
▁elsa	-10.5623
▁arizona	-10.5623
▁begun	-10.5624
▁quill	-10.5624
▁gunfire	-10.5624
▁rita	-10.5625
▁toto	-10.5626
▁labor	-10.5626
▁beef	-10.5626
▁fame	-10.5626
izing	-10.5627
▁fond	-10.5627
▁quote	-10.5629
▁val	-10.5632
▁attracted	-10.5634
▁lili	-10.5635
▁halfway	-10.5635
▁retired	-10.5637
▁gum	-10.5638
▁shove	-10.5639
▁chas	-10.5649
▁era	-10.565
ken	-10.5656
ology	-10.5658
▁oops	-10.5658
ren	-10.5658
▁corpse	-10.566
▁que	-10.566
▁cheating	-10.5683
▁nerve	-10.5685
ik	-10.569
▁manny	-10.5695
res	-10.5695
ward	-10.5696
▁dollar	-10.5698
▁tracks	-10.5702
▁dates	-10.5718
▁stays	-10.5725
▁considering	-10.5742
▁dudes	-10.5748
istic	-10.5749
▁bb	-10.5754
▁dancer	-10.576
▁ira	-10.5767
▁kan	-10.5767
away	-10.577
tte	-10.5771
▁product	-10.5776
▁targets	-10.5778
▁gin	-10.5793
▁com	-10.5794
▁formal	-10.5796
▁bake	-10.5797
▁results	-10.5798
bar	-10.5805
▁teachers	-10.581
▁bulls	-10.5822
▁fears	-10.5823
▁crawl	-10.5829
▁heal	-10.583
▁mechanic	-10.5855
▁cur	-10.5857
▁pigs	-10.5858
▁ages	-10.5859
▁lame	-10.5874
▁rapid	-10.5882
▁unlike	-10.5884
▁bells	-10.5887
▁cu	-10.589
▁clip	-10.5892
▁favour	-10.5892
▁anspeak	-10.5892
▁arguing	-10.5892
▁belief	-10.5892
▁depressed	-10.5892
▁fifteen	-10.5892
▁hallelujah	-10.5892
▁marianne	-10.5892
▁motta	-10.5892
▁savage	-10.5892
▁surgeon	-10.5892
▁zidler	-10.5892
▁alexander	-10.5892
▁content	-10.5892
▁einar	-10.5892
▁superior	-10.5892
▁donna	-10.5892
▁helmet	-10.5892
▁freezing	-10.5892
▁drake	-10.5892
▁maggie	-10.5892
▁pimp	-10.5892
▁hiphop	-10.5892
▁argue	-10.5892
▁destruction	-10.5892
▁accent	-10.5892
▁meade	-10.5893
▁entry	-10.5893
▁spock	-10.5893
▁campbell	-10.5893
▁medication	-10.5893
▁grail	-10.5893
▁shaking	-10.5893
▁mummy	-10.5893
▁heather	-10.5894
▁infection	-10.5894
▁rowley	-10.5894
▁assignment	-10.5894
▁wore	-10.5894
▁genetic	-10.5894
▁investment	-10.5895
▁powder	-10.5896
▁susanna	-10.5897
▁jj	-10.5898
▁morty	-10.5899
▁bert	-10.5899
▁idiots	-10.59
▁temporary	-10.5901
▁rex	-10.5901
▁include	-10.5902
▁runner	-10.5904
▁auto	-10.5905
▁listened	-10.5908
▁spirits	-10.5911
▁maniac	-10.5913
▁polly	-10.5914
▁gale	-10.5926
▁refused	-10.5928
▁breed	-10.5928
▁forty	-10.5929
▁earned	-10.5931
▁ash	-10.5932
some	-10.5934
▁stopping	-10.5935
▁instructions	-10.5941
▁swan	-10.5943
▁sis	-10.595
▁cardinal	-10.5961
▁procedure	-10.5963
▁shave	-10.5965
▁ay	-10.5975
▁slave	-10.5985
▁sucked	-10.5996
ute	-10.6008
▁yards	-10.6013
▁sl	-10.6016
▁fans	-10.6019
▁of	-10.6032
▁stab	-10.6032
▁whip	-10.6039
▁pushed	-10.6076
▁le	-10.6085
bre	-10.6093
▁ki	-10.6094
▁murders	-10.6094
looking	-10.6105
▁services	-10.6107
▁environment	-10.6127
▁kissed	-10.6127
▁poll	-10.6137
▁blocks	-10.6148
▁admire	-10.6149
five	-10.6152
▁beck	-10.6156
▁marshal	-10.6166
▁revolution	-10.6169
▁basket	-10.617
▁vietnam	-10.617
▁adaline	-10.617
▁alexandra	-10.617
▁amanda	-10.617
▁appropriate	-10.617
▁atlantic	-10.617
▁bertleman	-10.617
▁curtain	-10.617
▁deputy	-10.617
▁dolores	-10.617
▁entrance	-10.617
▁fountain	-10.617
▁jordan	-10.617
▁joseph	-10.617
▁laszlo	-10.617
▁marguerite	-10.617
▁mexican	-10.617
▁proposal	-10.617
▁rapunzel	-10.617
▁soviet	-10.617
▁surveillance	-10.617
▁truce	-10.617
▁conduct	-10.617
▁extend	-10.617
▁robbed	-10.617
▁steak	-10.617
▁behave	-10.617
▁darn	-10.617
▁tragic	-10.617
▁headache	-10.617
▁minnie	-10.617
ack	-10.617
▁soap	-10.617
▁kitai	-10.617
▁display	-10.617
▁allison	-10.617
▁primary	-10.617
▁backwards	-10.6171
▁rubber	-10.6171
▁blah	-10.6171
▁skinny	-10.6171
▁audition	-10.6172
▁fuel	-10.6172
▁shiny	-10.6174
▁owns	-10.6174
▁bonsai	-10.6175
▁bu	-10.6175
▁possession	-10.6175
▁accused	-10.6176
▁annoying	-10.6179
▁anton	-10.6182
▁worship	-10.6185
▁mansion	-10.6186
▁piper	-10.6187
▁captured	-10.6188
▁plot	-10.6188
▁flow	-10.6193
▁properly	-10.6193
▁kai	-10.6196
▁outer	-10.6199
▁baron	-10.6204
▁yale	-10.6204
▁hyenas	-10.6208
▁useful	-10.621
▁classes	-10.6211
bl	-10.6214
▁warned	-10.6215
▁released	-10.6218
▁costs	-10.622
▁require	-10.6222
▁lifetime	-10.6224
▁pod	-10.6231
▁trans	-10.6233
▁chat	-10.6239
▁tooth	-10.6242
▁thrown	-10.6249
▁whistle	-10.625
▁medal	-10.6253
▁mall	-10.6257
▁my	-10.6263
▁safer	-10.6272
▁fianc	-10.6285
▁barks	-10.6312
▁visitors	-10.6314
night	-10.6327
lon	-10.6338
▁breaks	-10.6343
▁fee	-10.6344
▁drawer	-10.6349
oon	-10.6357
▁fo	-10.6361
▁monkeys	-10.6364
▁fu	-10.6384
q	-10.6391
▁hopes	-10.6394
▁pour	-10.6398
ify	-10.6402
▁sew	-10.6414
▁discover	-10.6414
room	-10.6414
▁screech	-10.6416
▁killers	-10.6419
▁advise	-10.6423
▁betray	-10.6424
▁swallow	-10.6427
▁commission	-10.6427
▁chew	-10.6428
▁bru	-10.6433
▁horns	-10.6443
▁stands	-10.6444
▁pole	-10.6448
▁and	-10.6448
▁cruise	-10.6449
▁ol	-10.6453
▁porn	-10.6453
▁bands	-10.6455
▁egypt	-10.6455
▁beaufort	-10.6456
▁benjamin	-10.6456
▁comrade	-10.6456
▁katherine	-10.6456
▁milady	-10.6456
▁mysterious	-10.6456
▁necessities	-10.6456
▁niece	-10.6456
▁umbrella	-10.6456
▁underwear	-10.6456
▁taylor	-10.6456
▁facility	-10.6456
▁financial	-10.6456
▁boston	-10.6456
▁bureau	-10.6456
▁transform	-10.6456
▁ellis	-10.6456
▁mumbling	-10.6456
▁generous	-10.6456
▁tennis	-10.6456
▁reverse	-10.6456
▁kidnapping	-10.6456
▁olmo	-10.6456
▁organism	-10.6456
▁rotten	-10.6456
▁quarterback	-10.6456
▁dining	-10.6457
▁claudio	-10.6457
▁gail	-10.6458
▁effective	-10.6458
▁balloon	-10.6458
▁timon	-10.6458
▁tide	-10.6458
▁pops	-10.6458
▁stall	-10.6459
▁drama	-10.6459
▁orb	-10.6459
▁through	-10.6461
▁kin	-10.6464
▁hugh	-10.6465
▁critical	-10.6465
▁factory	-10.6465
▁micro	-10.6465
▁criminals	-10.6469
▁mild	-10.6469
▁wholl	-10.6471
▁ski	-10.6473
▁tad	-10.6478
▁required	-10.6478
▁frankie	-10.648
▁suggestion	-10.6482
▁rum	-10.6489
▁divorced	-10.6494
▁parties	-10.6497
▁chad	-10.6497
nk	-10.6506
▁af	-10.6506
▁nothings	-10.6509
▁mae	-10.6513
▁limit	-10.6514
▁za	-10.6516
▁blown	-10.6522
▁candle	-10.6544
▁civilian	-10.6545
ford	-10.6566
ito	-10.6566
▁honks	-10.6568
▁chin	-10.6588
▁rem	-10.6593
▁worthy	-10.6593
ven	-10.6608
▁dive	-10.6609
▁ph	-10.6609
▁prisoners	-10.6611
▁ruf	-10.6616
▁mel	-10.6618
▁spots	-10.6639
▁wart	-10.6653
▁civilians	-10.6659
▁cor	-10.6674
ax	-10.6676
▁mix	-10.6685
▁perform	-10.6686
work	-10.6693
▁recording	-10.6701
wood	-10.6703
▁regard	-10.6713
bird	-10.6716
free	-10.6716
ade	-10.6721
▁blink	-10.6722
▁we	-10.6724
▁junk	-10.6725
▁torture	-10.6729
▁africa	-10.6741
▁organ	-10.6745
▁react	-10.6746
▁alcohol	-10.6747
▁barbecue	-10.675
▁beloved	-10.675
▁happily	-10.675
▁independent	-10.675
▁razor	-10.675
▁reckon	-10.675
▁rooster	-10.675
▁spectacular	-10.675
▁violent	-10.675
▁wagon	-10.675
▁naughty	-10.675
▁callahan	-10.675
▁dragged	-10.675
▁turkey	-10.675
▁international	-10.675
▁leaf	-10.675
▁hahaha	-10.675
▁bernard	-10.675
▁roast	-10.675
▁flush	-10.675
▁pennywise	-10.675
▁formula	-10.675
▁moo	-10.675
▁attractive	-10.675
▁orphanage	-10.675
▁leap	-10.675
▁urgent	-10.675
▁bluster	-10.6751
▁jewish	-10.6751
▁rhythm	-10.6751
▁blank	-10.6751
▁classified	-10.6751
▁jody	-10.6752
▁housekeeper	-10.6753
▁irish	-10.6753
▁coco	-10.6754
▁crain	-10.6755
▁sacred	-10.6756
▁merely	-10.6756
▁torn	-10.6756
▁castor	-10.6757
▁loop	-10.6762
▁flea	-10.6763
▁roarke	-10.6768
▁newt	-10.6769
▁squeaking	-10.6772
▁daylight	-10.6773
▁comic	-10.6776
▁witches	-10.6776
▁barry	-10.6777
▁tender	-10.6778
▁betrayed	-10.6778
wind	-10.6784
▁canceled	-10.6786
▁hier	-10.6788
eg	-10.6794
▁kisses	-10.68
▁bent	-10.6809
▁rear	-10.681
▁suffered	-10.6814
▁louder	-10.6819
▁meantime	-10.6834
▁freaked	-10.6843
har	-10.6845
▁scientist	-10.6847
▁penguin	-10.6848
▁tan	-10.6849
▁wears	-10.6862
gging	-10.6862
▁fade	-10.6863
▁imagined	-10.6888
▁bean	-10.6912
▁lawyers	-10.6925
▁tastes	-10.6928
car	-10.6931
▁lovers	-10.6935
kin	-10.6938
▁heir	-10.6941
▁offering	-10.6959
▁souls	-10.6959
aw	-10.6962
▁whistles	-10.6966
ments	-10.6966
▁jumping	-10.6967
▁models	-10.6969
▁suite	-10.697
▁wondered	-10.6973
▁boats	-10.6975
han	-10.6977
▁custom	-10.6985
▁jews	-10.6985
▁vice	-10.6995
▁heavens	-10.7
▁the	-10.7006
▁ton	-10.7013
▁insult	-10.7017
place	-10.7017
ified	-10.7025
▁adopt	-10.7025
▁sticking	-10.7027
▁capture	-10.7033
▁erase	-10.7034
▁abort	-10.7048
▁cannon	-10.7052
▁adorable	-10.7053
▁amelia	-10.7053
▁arrival	-10.7053
▁assault	-10.7053
▁average	-10.7053
▁bargain	-10.7053
▁broadcast	-10.7053
▁calvin	-10.7053
▁centuries	-10.7053
▁dammit	-10.7053
▁disorder	-10.7053
▁extraordinary	-10.7053
▁imagination	-10.7053
▁increase	-10.7053
▁jefferson	-10.7053
▁liberty	-10.7053
▁pamela	-10.7053
▁possibility	-10.7053
▁ritual	-10.7053
▁shelter	-10.7053
▁shrek	-10.7053
▁solution	-10.7053
▁wisdom	-10.7053
▁wrestling	-10.7053
▁spray	-10.7053
▁weasel	-10.7053
▁lazy	-10.7053
▁territory	-10.7053
▁vocalizing	-10.7053
▁candice	-10.7053
▁behold	-10.7053
▁eternal	-10.7053
▁grey	-10.7053
▁traitor	-10.7053
▁pulse	-10.7053
▁riddle	-10.7053
▁suitcase	-10.7053
▁pumpkin	-10.7054
▁parade	-10.7054
▁western	-10.7054
▁hawaiian	-10.7055
▁fox	-10.7055
▁exam	-10.7056
▁stuttering	-10.7057
▁dings	-10.7057
▁hydra	-10.7058
▁brandon	-10.7059
▁villain	-10.7059
▁recipe	-10.706
▁cameron	-10.7062
nn	-10.7064
▁tries	-10.7064
▁spice	-10.7066
how	-10.7067
mi	-10.7067
ath	-10.707
▁invented	-10.7071
▁manual	-10.7072
▁creepy	-10.7075
▁whooping	-10.7077
▁rape	-10.7077
▁eden	-10.7079
▁limited	-10.7082
▁corso	-10.7083
▁bunker	-10.7083
cro	-10.7086
▁gal	-10.7087
▁bombs	-10.7088
▁bees	-10.7089
▁bottles	-10.7094
▁sail	-10.7099
▁interviewer	-10.7105
▁she	-10.7106
▁crushed	-10.7108
▁whens	-10.7119
▁loudly	-10.712
hu	-10.7122
▁whisper	-10.7128
▁zoon	-10.7136
ative	-10.7138
▁ci	-10.7155
▁catholic	-10.7156
▁ju	-10.7157
▁adult	-10.7158
▁losers	-10.716
▁result	-10.716
▁beside	-10.7163
▁on	-10.7169
▁wo	-10.7177
▁mack	-10.7177
▁colored	-10.718
▁prayer	-10.7201
▁peaceful	-10.7205
▁lecture	-10.7207
ana	-10.7212
ologist	-10.7214
▁meg	-10.7216
▁bounce	-10.722
▁rocky	-10.7224
▁agents	-10.7237
▁cd	-10.7239
zo	-10.7242
▁stud	-10.7242
▁min	-10.7245
▁cuts	-10.725
all	-10.7255
ddle	-10.7258
▁recorded	-10.726
▁mindy	-10.7264
▁mob	-10.7266
▁walks	-10.7285
▁menu	-10.7289
▁aan	-10.7299
ste	-10.7305
what	-10.731
▁tis	-10.7314
▁girlfriends	-10.7326
▁wins	-10.7328
▁noon	-10.7334
box	-10.7336
▁thrill	-10.7338
▁bing	-10.735
▁apply	-10.7355
▁ban	-10.7355
▁commit	-10.7359
▁leaders	-10.736
▁rust	-10.7361
▁alastair	-10.7365
▁bartender	-10.7365
▁burglar	-10.7365
▁corporation	-10.7365
▁dillinger	-10.7365
▁edition	-10.7365
▁envelope	-10.7365
▁furniture	-10.7365
▁harvard	-10.7365
▁impact	-10.7365
▁inspiration	-10.7365
▁paradise	-10.7365
▁sheila	-10.7365
▁similar	-10.7365
▁underneath	-10.7365
▁viktor	-10.7365
▁visual	-10.7365
▁buddies	-10.7365
▁chemical	-10.7365
▁dutch	-10.7365
▁lewis	-10.7365
▁profit	-10.7365
▁bolt	-10.7365
▁douglas	-10.7365
▁monica	-10.7365
▁wives	-10.7365
▁claus	-10.7365
▁celebrating	-10.7365
▁coconut	-10.7365
▁apology	-10.7365
▁nacho	-10.7366
▁medium	-10.7366
▁password	-10.7366
▁doubtfire	-10.7366
▁specifically	-10.7366
▁charity	-10.7366
▁bold	-10.7366
▁henrik	-10.7367
▁augustus	-10.7367
▁chapter	-10.7367
▁tasty	-10.7367
▁management	-10.7367
▁childhood	-10.7368
▁chess	-10.7369
▁squawking	-10.7369
▁solo	-10.737
▁stepped	-10.7371
▁exhausted	-10.7373
▁affection	-10.7373
▁link	-10.7373
▁damon	-10.7374
▁shooter	-10.7374
▁carries	-10.7375
▁teenager	-10.7376
▁discussion	-10.7376
▁shining	-10.7377
▁warden	-10.738
▁machines	-10.7383
▁nap	-10.7383
▁fist	-10.7384
▁compared	-10.7384
▁ender	-10.7387
▁affect	-10.7389
▁berry	-10.7393
▁mixed	-10.7395
▁deadline	-10.7396
▁assist	-10.7397
▁planes	-10.7399
▁drowned	-10.74
top	-10.7406
dog	-10.7409
▁nervously	-10.7421
▁slams	-10.7429
▁et	-10.7431
▁touches	-10.744
▁counts	-10.7446
▁rogers	-10.7447
▁arch	-10.7448
▁pockets	-10.745
▁shortly	-10.7458
▁ag	-10.7458
▁virginia	-10.7459
▁demons	-10.7461
▁wen	-10.7462
▁mop	-10.7464
▁tablet	-10.7467
▁wars	-10.7468
▁belly	-10.7472
▁focused	-10.7472
▁jaw	-10.7472
▁chap	-10.7475
rk	-10.7478
▁shared	-10.7481
▁proved	-10.7483
▁pointing	-10.7484
▁pattern	-10.7484
▁driven	-10.7484
▁degree	-10.7488
▁answering	-10.7494
▁sur	-10.7496
▁hogs	-10.7499
▁effects	-10.7512
rie	-10.7515
▁dip	-10.7522
▁orc	-10.7523
▁rev	-10.7533
▁sayin	-10.7544
▁tor	-10.7566
ada	-10.7571
▁sales	-10.7575
ied	-10.7575
▁trauma	-10.758
qui	-10.7581
▁films	-10.7588
▁bun	-10.7603
▁landed	-10.7615
▁approach	-10.7619
▁disturb	-10.7624
▁grad	-10.7625
win	-10.7627
▁ham	-10.7629
▁sets	-10.7631
▁levels	-10.7631
▁ideal	-10.7634
▁gen	-10.764
je	-10.7643
ost	-10.7644
▁function	-10.7644
▁herr	-10.7645
book	-10.7646
▁vo	-10.7648
year	-10.7654
▁glow	-10.7655
two	-10.7657
▁drain	-10.766
▁hoe	-10.7664
▁cookies	-10.7665
▁walker	-10.7666
▁advance	-10.7668
▁absolute	-10.7677
▁potato	-10.7682
▁airplane	-10.7688
▁anchor	-10.7688
▁benedict	-10.7688
▁cottage	-10.7688
▁escobar	-10.7688
▁ferrari	-10.7688
▁kindergarten	-10.7688
▁mandarin	-10.7688
▁olympic	-10.7688
▁physics	-10.7688
▁principle	-10.7688
▁punjabi	-10.7688
▁reverend	-10.7688
▁sparrow	-10.7688
▁stammers	-10.7688
▁stereo	-10.7688
▁terrified	-10.7688
▁turtle	-10.7688
▁zahra	-10.7688
▁zazu	-10.7688
▁radar	-10.7688
▁steam	-10.7688
▁sync	-10.7688
▁arriving	-10.7688
▁flood	-10.7688
▁magnificent	-10.7688
▁purple	-10.7688
▁sheep	-10.7688
▁vicious	-10.7688
▁sunset	-10.7688
▁sharing	-10.7688
▁cease	-10.7689
▁clive	-10.7689
▁grim	-10.7689
▁hannah	-10.7689
▁grid	-10.7689
▁duties	-10.7689
▁chopper	-10.7689
▁beings	-10.769
▁chaos	-10.769
▁mortal	-10.769
▁karen	-10.769
▁nuke	-10.769
▁diana	-10.7691
▁webber	-10.7691
▁debate	-10.7692
▁mal	-10.7692
▁hallway	-10.7693
ugh	-10.7693
▁balin	-10.7693
▁potatoes	-10.7693
ette	-10.7694
▁craft	-10.7694
▁battery	-10.7694
▁ashes	-10.7694
▁drew	-10.7695
▁growth	-10.7695
▁agreement	-10.7696
▁classical	-10.7697
▁obsessed	-10.7698
▁mice	-10.7699
▁campus	-10.7699
▁preacher	-10.7699
▁hitler	-10.77
▁stream	-10.7702
▁bedtime	-10.7702
▁surrounded	-10.7706
▁tugg	-10.7708
▁bucket	-10.7709
▁fury	-10.771
▁threatening	-10.771
▁pork	-10.7711
▁dock	-10.7712
▁dealer	-10.7725
▁bitter	-10.7725
▁palmer	-10.7727
▁sealed	-10.7732
▁maze	-10.7732
▁hint	-10.7745
▁assumed	-10.7749
▁grows	-10.7749
▁toes	-10.775
▁rd	-10.7751
▁claws	-10.7753
▁moans	-10.7759
▁zip	-10.7763
ised	-10.7763
▁emotions	-10.7781
▁quarters	-10.7792
▁wishes	-10.7794
▁catching	-10.7797
▁smarter	-10.7798
▁bur	-10.7799
▁palm	-10.781
uff	-10.7813
▁feather	-10.7814
▁muscle	-10.7814
▁positions	-10.7817
▁ian	-10.7818
inch	-10.782
▁helpless	-10.7836
▁terrorists	-10.785
▁angels	-10.7855
▁lend	-10.7856
▁gunshots	-10.786
▁needle	-10.7875
▁feeding	-10.7882
sky	-10.7884
▁planets	-10.7885
▁rage	-10.7889
▁mole	-10.7891
mate	-10.7893
▁vic	-10.7893
▁zoo	-10.7894
▁kw	-10.7906
▁prayers	-10.7917
▁gifts	-10.7921
▁rounds	-10.7924
▁ap	-10.7936
▁ru	-10.7945
ograph	-10.7947
▁ros	-10.7959
pot	-10.7968
ire	-10.7975
▁cocks	-10.7976
▁splash	-10.7986
▁possess	-10.7988
▁swell	-10.7989
▁fuss	-10.7991
rate	-10.7991
▁spoil	-10.7993
▁burns	-10.7994
ado	-10.8
▁replace	-10.8
atch	-10.8001
▁conditions	-10.8007
▁wack	-10.8009
▁graduate	-10.8013
▁mei	-10.8014
tre	-10.8015
▁counsel	-10.8018
▁argument	-10.8021
▁athens	-10.8021
▁atlantis	-10.8021
▁ceremony	-10.8021
▁figaro	-10.8021
▁groot	-10.8021
▁hockey	-10.8021
▁miguel	-10.8021
▁promotion	-10.8021
▁religious	-10.8021
▁reserve	-10.8021
▁sienna	-10.8021
▁stormtrooper	-10.8021
▁twinkle	-10.8021
▁violation	-10.8021
▁willoughby	-10.8021
▁blindfold	-10.8021
▁candidate	-10.8021
▁conflict	-10.8021
▁horror	-10.8021
▁liquid	-10.8021
▁unexpected	-10.8021
▁gently	-10.8021
▁gerda	-10.8021
▁incoming	-10.8021
▁misery	-10.8021
▁motor	-10.8021
▁signior	-10.8021
▁fascinating	-10.8021
▁translate	-10.8021
▁multiple	-10.8021
▁imitate	-10.8021
▁breeze	-10.8021
▁statue	-10.8021
▁concept	-10.8021
▁patriot	-10.8022
▁tracy	-10.8022
▁cannonball	-10.8022
▁babysitter	-10.8022
▁jolly	-10.8022
▁dang	-10.8022
▁pony	-10.8022
▁slipped	-10.8022
▁fridge	-10.8022
▁humble	-10.8022
▁yuri	-10.8022
▁oven	-10.8022
▁scent	-10.8023
▁loyalty	-10.8023
▁massive	-10.8023
▁frame	-10.8023
▁khan	-10.8023
▁inevitable	-10.8023
▁replacement	-10.8024
▁romance	-10.8024
▁boogie	-10.8024
▁rice	-10.8025
▁flies	-10.8025
▁construction	-10.8026
▁raw	-10.8026
▁buzzes	-10.8026
▁production	-10.8027
▁touchdown	-10.8027
▁asian	-10.8028
▁dishes	-10.8029
▁marshall	-10.8029
▁thirsty	-10.8029
▁priory	-10.8029
▁itch	-10.803
more	-10.8033
▁orbit	-10.8033
▁cody	-10.8034
▁squealing	-10.8035
▁barber	-10.8036
▁obey	-10.8037
▁threatened	-10.804
cer	-10.804
▁advanced	-10.8042
▁electronic	-10.8048
ama	-10.8054
▁journalist	-10.8065
▁observe	-10.8065
▁sings	-10.8072
▁poop	-10.8075
▁goldie	-10.8075
▁poisoned	-10.8085
pen	-10.8086
ji	-10.8087
▁payment	-10.8094
▁gran	-10.81
▁painted	-10.8109
▁sadly	-10.811
cap	-10.8124
▁trumpets	-10.8125
▁remaining	-10.8126
▁unto	-10.8129
▁cam	-10.813
▁structure	-10.8134
▁pad	-10.8154
▁lesbian	-10.8157
▁intention	-10.816
▁bothering	-10.8161
▁customer	-10.8175
▁worrying	-10.8183
▁rig	-10.819
▁conversations	-10.8193
let	-10.8197
▁peel	-10.8199
▁beats	-10.82
▁cents	-10.8208
▁tellin	-10.8209
▁engineer	-10.8214
▁ev	-10.8219
▁not	-10.8227
▁hells	-10.8229
▁fore	-10.8234
▁beans	-10.8252
▁marrying	-10.8257
▁closest	-10.8268
▁decisions	-10.8277
tur	-10.8282
▁peep	-10.8282
▁pilots	-10.8285
▁kicking	-10.8291
▁crate	-10.8309
lia	-10.8312
▁buzz	-10.8315
▁register	-10.8338
▁whack	-10.8339
▁spill	-10.834
▁nd	-10.8343
▁jackets	-10.8347
▁flu	-10.8348
▁hay	-10.8351
oooo	-10.8363
▁author	-10.8363
▁abdullah	-10.8366
▁amateur	-10.8366
▁atmosphere	-10.8366
▁carnival	-10.8366
▁circuit	-10.8366
▁committee	-10.8366
▁deploy	-10.8366
▁dumbledore	-10.8366
▁encounter	-10.8366
▁gardner	-10.8366
▁gilcrest	-10.8366
▁global	-10.8366
▁hakuna	-10.8366
▁hermione	-10.8366
▁intelligent	-10.8366
▁kowalski	-10.8366
▁leroy	-10.8366
▁memorial	-10.8366
▁ordinary	-10.8366
▁patricia	-10.8366
▁serving	-10.8366
▁therapist	-10.8366
▁thieves	-10.8366
▁concert	-10.8366
▁dignity	-10.8366
▁duffy	-10.8366
▁irene	-10.8366
▁tissue	-10.8366
▁jennifer	-10.8366
▁kansas	-10.8366
▁nicole	-10.8366
▁rattle	-10.8366
▁vagina	-10.8366
▁inspector	-10.8366
▁lydia	-10.8366
▁ernie	-10.8367
▁excitement	-10.8367
▁nickname	-10.8367
▁update	-10.8367
▁minho	-10.8367
▁kayden	-10.8367
▁leila	-10.8367
▁novel	-10.8367
▁stripper	-10.8367
▁temple	-10.8368
▁pub	-10.8369
▁paw	-10.8369
▁struck	-10.8369
ez	-10.8369
▁borat	-10.837
▁taxes	-10.8371
▁waist	-10.8371
▁sober	-10.8371
▁blackwood	-10.8371
▁joyce	-10.8372
▁lordship	-10.8372
▁jessie	-10.8372
▁wrapped	-10.8372
▁bourne	-10.8373
▁buzzer	-10.8378
▁rug	-10.8378
▁takin	-10.8378
▁facing	-10.8379
▁minus	-10.838
▁dye	-10.838
▁laser	-10.838
▁cycle	-10.8381
tro	-10.8382
▁worthless	-10.8385
▁dc	-10.8386
▁drum	-10.8386
▁witnesses	-10.8388
▁ce	-10.8389
▁pacific	-10.839
▁brandy	-10.8394
▁cord	-10.8394
▁bald	-10.8395
▁kirk	-10.8403
▁minds	-10.8405
▁dresses	-10.8407
▁answered	-10.8408
▁separated	-10.8411
▁drowning	-10.8416
▁dearest	-10.842
▁newland	-10.8422
▁earl	-10.8423
▁shocked	-10.8425
▁dumped	-10.8432
▁lawn	-10.8434
▁kilo	-10.8442
test	-10.8443
ige	-10.8447
▁coma	-10.8452
lle	-10.8461
▁bears	-10.8469
▁ant	-10.8469
▁filth	-10.8471
▁relationships	-10.8472
▁locker	-10.8478
▁sum	-10.8491
fu	-10.8499
▁apples	-10.85
▁exp	-10.8501
▁yea	-10.8502
▁pretending	-10.8513
▁thumb	-10.8515
▁costume	-10.8515
▁document	-10.8515
▁towel	-10.8517
▁brake	-10.8519
▁rumor	-10.852
▁maids	-10.8522
▁hal	-10.8551
▁crossing	-10.8554
▁farmer	-10.8578
ight	-10.8589
▁glove	-10.8608
▁joining	-10.8608
▁gra	-10.8609
▁rays	-10.8615
▁deed	-10.8617
▁andre	-10.8624
▁severe	-10.8625
▁slaves	-10.8628
yer	-10.8634
▁triple	-10.8643
▁chips	-10.8658
▁cl	-10.8665
▁hee	-10.8677
▁recover	-10.8681
▁nog	-10.8685
mouth	-10.8689
▁impress	-10.8691
get	-10.8701
▁actions	-10.8701
▁retire	-10.8702
▁struggle	-10.8702
▁covering	-10.8704
▁associate	-10.8708
▁drops	-10.871
▁constant	-10.8711
▁fortunate	-10.8712
▁slight	-10.8715
▁brutal	-10.8722
itating	-10.8722
▁aggressive	-10.8723
▁atlanta	-10.8723
▁blizzard	-10.8723
▁cackling	-10.8723
▁cadillac	-10.8723
▁choir	-10.8723
▁fantasies	-10.8723
▁isaac	-10.8723
▁leather	-10.8723
▁lobby	-10.8723
▁misunderstand	-10.8723
▁nephew	-10.8723
▁ossory	-10.8723
▁poopypants	-10.8723
▁relief	-10.8723
▁selfdestruct	-10.8723
▁wyatt	-10.8723
▁senate	-10.8723
▁serial	-10.8723
▁sixpack	-10.8723
▁stalker	-10.8723
▁session	-10.8723
▁freddie	-10.8723
▁japanese	-10.8723
▁pigeon	-10.8723
▁shuttle	-10.8723
▁jelly	-10.8723
▁scotch	-10.8723
▁carpet	-10.8723
▁lunatic	-10.8723
▁matata	-10.8723
▁favourite	-10.8724
▁rudy	-10.8724
▁serum	-10.8724
▁overnight	-10.8724
▁polite	-10.8724
▁poetry	-10.8724
▁crab	-10.8724
▁ladder	-10.8725
▁profile	-10.8725
▁limb	-10.8725
▁objective	-10.8725
▁electricity	-10.8725
▁arabic	-10.8725
▁lanning	-10.8725
▁stew	-10.8726
▁script	-10.8726
▁alike	-10.8727
▁accountant	-10.8727
▁polish	-10.8728
▁iike	-10.8728
▁inches	-10.8729
▁weakness	-10.873
▁diner	-10.8731
▁jesse	-10.8731
▁african	-10.8734
▁richter	-10.8734
▁personality	-10.8734
▁slightly	-10.8735
▁aii	-10.8735
▁ballet	-10.8736
▁july	-10.8736
▁jury	-10.8737
▁vest	-10.8738
▁chewie	-10.8739
▁currently	-10.8742
who	-10.8742
four	-10.8747
▁internal	-10.8748
▁willy	-10.8749
▁bash	-10.8749
▁unable	-10.875
▁endure	-10.8752
▁mush	-10.8752
▁removed	-10.876
ast	-10.8762
▁gathered	-10.8766
▁hen	-10.8769
▁mmmm	-10.877
ets	-10.8774
▁inch	-10.8776
▁chimes	-10.878
▁bonds	-10.8782
▁introduced	-10.8784
▁cursed	-10.8785
▁teams	-10.8789
▁tada	-10.8793
▁alter	-10.8795
▁weep	-10.8795
▁scaring	-10.8803
▁delivered	-10.8804
▁qua	-10.8805
▁kindness	-10.8806
era	-10.8806
▁howdy	-10.8814
▁doris	-10.8841
▁bothered	-10.8843
▁kneel	-10.8845
▁brownie	-10.8845
▁frances	-10.8845
▁suggesting	-10.8858
▁tar	-10.8859
▁photographer	-10.8867
ware	-10.8869
▁greene	-10.887
▁scrap	-10.8875
▁artists	-10.8876
ple	-10.8877
▁neat	-10.8878
▁arrangement	-10.8886
▁scout	-10.8887
▁chains	-10.8887
▁socks	-10.8888
▁allie	-10.8888
but	-10.8889
▁servant	-10.889
▁height	-10.889
▁hostage	-10.8891
▁evan	-10.8897
▁gotham	-10.89
▁caf	-10.8905
▁fights	-10.8909
▁il	-10.8911
▁ranger	-10.8914
▁packed	-10.8915
tto	-10.892
▁tilly	-10.8929
▁trains	-10.894
▁colt	-10.8943
▁choke	-10.8952
▁pino	-10.8953
▁anyways	-10.8959
rum	-10.8963
▁computers	-10.8965
▁cent	-10.8968
▁laying	-10.8979
hy	-10.8988
eyed	-10.9002
low	-10.901
▁fog	-10.9011
▁hack	-10.9019
▁summon	-10.9029
▁ref	-10.904
▁merci	-10.9058
class	-10.906
▁reveal	-10.9066
▁engage	-10.9071
▁tax	-10.9074
▁shoo	-10.9082
▁ultimate	-10.9082
▁instant	-10.9082
▁haul	-10.9082
▁recent	-10.9083
▁lovin	-10.9091
▁terror	-10.9091
▁capital	-10.9092
▁knox	-10.9093
▁protest	-10.9093
▁akeem	-10.9093
▁approval	-10.9093
▁approximately	-10.9093
▁detroit	-10.9093
▁fugitive	-10.9093
▁happier	-10.9093
▁invasion	-10.9093
▁lucinda	-10.9093
▁melvin	-10.9093
▁murphy	-10.9093
▁penalty	-10.9093
▁racist	-10.9093
▁rainbow	-10.9093
▁rifle	-10.9093
▁sleeve	-10.9093
▁sworn	-10.9093
▁usnavi	-10.9093
▁elbow	-10.9093
▁jij	-10.9093
▁revving	-10.9093
▁shatters	-10.9093
▁stabbed	-10.9093
▁volume	-10.9093
▁whatll	-10.9093
▁flank	-10.9093
▁houston	-10.9093
▁natalie	-10.9093
▁plague	-10.9094
▁narrow	-10.9094
▁pervert	-10.9094
▁injured	-10.9094
▁flap	-10.9094
▁meteor	-10.9094
▁persian	-10.9094
▁hawk	-10.9094
▁conclusion	-10.9094
▁farewell	-10.9094
▁creative	-10.9094
▁albert	-10.9094
▁amigo	-10.9094
▁spank	-10.9094
▁burden	-10.9094
▁thisll	-10.9094
▁slick	-10.9095
▁fluid	-10.9095
▁saddle	-10.9095
▁salmon	-10.9095
▁soil	-10.9095
▁raid	-10.9096
▁hansel	-10.9096
▁burst	-10.9097
▁owned	-10.9097
▁passport	-10.9097
▁moons	-10.9097
▁cities	-10.9098
▁sunny	-10.9098
▁distraction	-10.9098
▁fax	-10.9098
▁peaches	-10.9098
▁slash	-10.9099
▁ghostface	-10.9099
▁rj	-10.9099
▁fries	-10.91
▁hallet	-10.91
▁dice	-10.9101
▁suspended	-10.9102
▁ofthe	-10.9103
▁vers	-10.9103
▁doomed	-10.9111
▁ahem	-10.9116
burg	-10.9118
▁brad	-10.9119
ries	-10.9125
▁steven	-10.9128
▁sharply	-10.9133
▁waar	-10.9134
▁boxes	-10.9136
▁elliott	-10.9137
▁pouring	-10.9139
▁crawling	-10.9142
bag	-10.9144
▁beasts	-10.9153
▁uit	-10.9158
▁krabs	-10.9159
▁goodlooking	-10.9162
▁wheeler	-10.9165
▁sensei	-10.9167
▁rec	-10.9184
▁crimes	-10.9192
▁hor	-10.9239
▁groan	-10.924
▁filling	-10.9262
▁shovel	-10.9268
▁operate	-10.9271
▁vampire	-10.9271
▁flame	-10.9272
▁sailor	-10.9272
▁jou	-10.9276
▁watches	-10.9295
▁betterman	-10.9298
▁asset	-10.9301
▁discipline	-10.9311
▁lands	-10.9314
▁wu	-10.932
▁thinkin	-10.9324
▁fag	-10.9325
▁chan	-10.9331
▁pages	-10.9338
bit	-10.9341
even	-10.9343
▁plates	-10.9349
nc	-10.9351
wee	-10.9352
▁unc	-10.9361
ney	-10.9369
▁contain	-10.9384
▁manners	-10.9393
▁geez	-10.941
▁embarrass	-10.9415
ically	-10.9418
heads	-10.9435
hood	-10.9435
▁returning	-10.9441
load	-10.9443
bound	-10.9444
ug	-10.9447
▁slaughter	-10.945
▁announce	-10.945
▁delay	-10.9455
▁passengers	-10.9456
▁playin	-10.9457
▁mag	-10.9458
▁figures	-10.946
▁abuse	-10.9461
▁crank	-10.9463
▁immediate	-10.9467
▁nails	-10.9468
▁wig	-10.9469
▁civil	-10.9477
▁republic	-10.9478
▁absurd	-10.9478
▁ambition	-10.9478
▁april	-10.9478
▁camerlengo	-10.9478
▁carpenter	-10.9478
▁corporal	-10.9478
▁dojo	-10.9478
▁ferdinand	-10.9478
▁ferris	-10.9478
▁grogan	-10.9478
▁maureen	-10.9478
▁michigan	-10.9478
▁operator	-10.9478
▁pencil	-10.9478
▁piragua	-10.9478
▁recruit	-10.9478
▁streak	-10.9478
▁swore	-10.9478
▁technique	-10.9478
▁unfair	-10.9478
▁vessel	-10.9478
▁wolves	-10.9478
▁ankle	-10.9478
▁arvin	-10.9478
▁elaine	-10.9478
▁shotgun	-10.9478
▁agnes	-10.9478
▁mancub	-10.9478
▁slippers	-10.9478
▁mount	-10.9478
▁transmission	-10.9478
▁backpack	-10.9478
▁harsh	-10.9478
▁fireworks	-10.9478
▁vince	-10.9478
hrer	-10.9478
▁chorus	-10.9478
▁whiskey	-10.9478
▁creek	-10.9478
▁occurred	-10.9478
▁denied	-10.9479
▁dashwood	-10.9479
▁kidnapper	-10.9479
▁hostile	-10.9479
▁population	-10.9479
▁dummy	-10.9479
▁celia	-10.9479
▁disappointment	-10.9479
▁destination	-10.9479
▁erik	-10.9479
▁rising	-10.9479
▁paddy	-10.948
▁creation	-10.948
▁waking	-10.948
▁paperwork	-10.948
▁jewelry	-10.948
▁caroline	-10.948
▁quest	-10.9481
▁hence	-10.9481
▁primero	-10.9482
ella	-10.9482
▁static	-10.9482
▁stunt	-10.9483
▁quitting	-10.9483
▁elise	-10.9484
▁homicide	-10.9485
▁faithful	-10.9485
▁cans	-10.9488
▁dedicated	-10.9488
▁dismissed	-10.9488
▁coverage	-10.949
▁restraint	-10.9491
▁jamal	-10.9492
▁niggas	-10.9492
▁expression	-10.9495
▁blonde	-10.9495
▁determined	-10.9495
▁hy	-10.9496
▁teen	-10.9498
▁gilly	-10.9499
▁slay	-10.9502
▁stable	-10.9503
▁geen	-10.9504
▁spite	-10.9505
▁louisa	-10.9506
▁cutter	-10.9515
▁rider	-10.9516
▁chirps	-10.9524
▁res	-10.9531
▁tele	-10.9533
▁negotiate	-10.9534
▁exists	-10.9534
▁tables	-10.9536
▁wounded	-10.9539
▁tricky	-10.954
▁scheduled	-10.9545
▁cheated	-10.955
▁rolls	-10.9554
▁businessman	-10.9556
▁kit	-10.9566
▁temper	-10.9568
▁buildings	-10.9569
▁talented	-10.9571
▁piston	-10.9572
▁consequences	-10.9573
▁experienced	-10.9575
▁buyer	-10.9576
▁sweater	-10.9577
▁nicky	-10.9584
▁cobb	-10.9587
▁tunes	-10.9588
▁sticks	-10.9589
▁washed	-10.9595
▁cases	-10.9599
▁whys	-10.9605
▁wiggin	-10.9605
▁eva	-10.9612
row	-10.9615
▁aa	-10.9616
▁ned	-10.962
▁screwing	-10.9628
berry	-10.9645
▁feelin	-10.965
▁method	-10.9668
▁bev	-10.9672
▁banana	-10.9673
▁twin	-10.9675
▁lions	-10.9677
▁owls	-10.9678
▁handled	-10.9685
she	-10.9686
▁heroin	-10.9686
▁sends	-10.9687
▁flames	-10.9689
▁paintings	-10.9694
▁visitor	-10.9699
lan	-10.9706
▁clubs	-10.9711
▁greater	-10.9712
▁aha	-10.9735
▁grounded	-10.9735
▁magnet	-10.9738
▁fung	-10.9738
▁devils	-10.9739
▁adams	-10.9752
bj	-10.9756
▁stark	-10.9758
▁domestic	-10.9761
▁boil	-10.9792
gie	-10.98
▁mus	-10.9806
▁explains	-10.9817
▁corps	-10.982
▁cle	-10.9821
▁tim	-10.9823
▁examine	-10.9833
▁bree	-10.9835
ability	-10.9841
▁bark	-10.9842
hot	-10.9842
grade	-10.9844
▁marked	-10.9845
ude	-10.9864
▁predict	-10.9866
▁unfortunate	-10.9867
▁activate	-10.9869
▁hawaii	-10.9875
▁academy	-10.9878
▁believing	-10.9878
▁celebration	-10.9878
▁eugene	-10.9878
▁hudson	-10.9878
▁jerome	-10.9878
▁lomax	-10.9878
▁luggage	-10.9878
▁luigi	-10.9878
▁miranda	-10.9878
▁myrtle	-10.9878
▁religion	-10.9878
▁september	-10.9878
▁shrimp	-10.9878
▁struggling	-10.9878
▁syndrome	-10.9878
▁tequila	-10.9878
▁teresa	-10.9878
▁weasley	-10.9878
▁zombie	-10.9878
▁bikini	-10.9878
▁previous	-10.9878
▁pursuit	-10.9878
▁draft	-10.9878
▁ipad	-10.9878
▁aisha	-10.9878
▁bloom	-10.9878
▁communicate	-10.9878
▁kurt	-10.9878
▁worn	-10.9878
▁baggins	-10.9878
▁scoop	-10.9878
▁ogre	-10.9878
▁stomp	-10.9878
▁grease	-10.9878
▁assuming	-10.9878
▁outstanding	-10.9878
▁donkey	-10.9878
▁donald	-10.9878
▁arrow	-10.9879
▁judy	-10.9879
▁antique	-10.9879
▁festival	-10.9879
▁kofi	-10.9879
▁sheba	-10.9879
▁priority	-10.9879
▁ohara	-10.9879
lijk	-10.988
▁pause	-10.988
▁upside	-10.9881
part	-10.9881
▁hammy	-10.9882
▁biological	-10.9882
▁droid	-10.9882
▁mock	-10.9882
▁stokely	-10.9883
▁sympathy	-10.9883
▁colors	-10.9883
▁fraud	-10.9884
▁conscious	-10.9884
▁harmless	-10.9885
▁screeches	-10.9886
▁exposed	-10.9886
▁elite	-10.9886
self	-10.9887
▁passage	-10.9889
▁yelping	-10.9889
▁ann	-10.989
▁mater	-10.9894
▁inner	-10.9895
▁published	-10.9895
▁restrain	-10.9895
▁herd	-10.9896
▁cellar	-10.9896
▁bah	-10.9897
▁copies	-10.9898
▁punished	-10.99
▁retarded	-10.99
▁applauding	-10.9902
▁fried	-10.9902
▁mig	-10.9906
boat	-10.9907
▁stutters	-10.9908
▁starve	-10.9909
▁placed	-10.9909
▁reasonable	-10.991
▁melt	-10.991
▁he	-10.9912
▁thrilled	-10.9914
▁adopted	-10.9915
▁scraping	-10.9916
▁cart	-10.992
▁pol	-10.9925
▁ethel	-10.9926
▁twisted	-10.9928
headed	-10.9928
▁floating	-10.9933
▁straighten	-10.9935
▁shirts	-10.9935
▁who	-10.9936
▁clan	-10.9937
▁shitting	-10.9937
▁gathering	-10.9939
▁policeman	-10.9941
tit	-10.9942
▁mistaken	-10.9945
▁ticking	-10.9945
▁karl	-10.9945
▁ke	-10.9946
▁dime	-10.9952
▁afterwards	-10.996
▁now	-10.9966
▁riot	-10.9967
att	-10.9968
▁crickets	-10.9977
▁squeals	-10.9977
ox	-10.9986
▁lifted	-10.9993
▁deeper	-10.9997
tie	-10.9999
▁reminded	-11
ric	-11.0009
▁wonders	-11.0011
▁crashed	-11.0017
▁bubbles	-11.002
▁comb	-11.0022
▁floors	-11.0023
▁wel	-11.0024
▁searched	-11.0025
▁blocked	-11.0043
▁sins	-11.0046
▁gem	-11.0048
▁che	-11.0058
tti	-11.0079
▁slo	-11.008
▁schools	-11.0087
▁employee	-11.0088
▁sample	-11.009
▁terrorist	-11.0092
▁drives	-11.0093
▁vampires	-11.0098
▁rangers	-11.0112
▁beam	-11.0128
▁safely	-11.0131
▁jen	-11.0133
▁muscles	-11.0133
lect	-11.0142
our	-11.0145
▁islands	-11.0145
ale	-11.0148
▁packing	-11.015
▁owl	-11.0156
▁suspects	-11.0165
position	-11.0169
▁prop	-11.0174
▁requires	-11.0178
▁deer	-11.018
▁workin	-11.0189
▁niggers	-11.0189
▁seize	-11.0197
▁cue	-11.0197
▁writ	-11.0205
▁thuds	-11.022
urban	-11.0229
▁develop	-11.0229
▁hats	-11.0235
town	-11.0239
right	-11.0246
▁rom	-11.0248
▁pointed	-11.0251
print	-11.0259
power	-11.0259
▁invest	-11.0262
▁coop	-11.0264
▁arrange	-11.0273
▁declare	-11.0277
▁leah	-11.0281
▁saun	-11.0289
▁origin	-11.029
▁peach	-11.0291
▁argh	-11.0292
cher	-11.0293
▁urge	-11.0294
▁occur	-11.0294
▁clap	-11.0294
▁abuela	-11.0295
▁activities	-11.0295
▁arrogant	-11.0295
▁bangkok	-11.0295
▁cafeteria	-11.0295
▁canyon	-11.0295
▁carlisle	-11.0295
▁cemetery	-11.0295
▁conscience	-11.0295
▁darius	-11.0295
▁december	-11.0295
▁delicate	-11.0295
▁elegant	-11.0295
▁harriet	-11.0295
▁identify	-11.0295
▁isolation	-11.0295
▁liquor	-11.0295
▁mademoiselle	-11.0295
▁manhattan	-11.0295
▁mutual	-11.0295
▁okinawa	-11.0295
▁perimeter	-11.0295
▁popcorn	-11.0295
▁psychiatrist	-11.0295
▁refrigerator	-11.0295
▁serrano	-11.0295
▁trophy	-11.0295
▁vittoria	-11.0295
▁volcano	-11.0295
▁wilcox	-11.0295
▁breach	-11.0295
▁briggs	-11.0295
▁carriage	-11.0295
▁gossip	-11.0295
▁honeymoon	-11.0295
▁pancakes	-11.0295
▁raising	-11.0295
▁shrieking	-11.0295
▁wallace	-11.0295
▁drank	-11.0295
▁muttering	-11.0295
▁neighbourhood	-11.0295
▁ninetysix	-11.0295
▁dwight	-11.0295
▁civilization	-11.0295
▁havin	-11.0295
▁nanny	-11.0295
▁smee	-11.0295
▁typewriter	-11.0295
▁ferry	-11.0295
▁bagheera	-11.0295
▁parole	-11.0295
▁nefarious	-11.0295
▁puke	-11.0295
▁sector	-11.0295
▁clapping	-11.0295
▁referee	-11.0296
▁maximum	-11.0296
▁wendy	-11.0296
▁operating	-11.0296
▁assistance	-11.0296
▁entertainment	-11.0296
▁rack	-11.0296
▁brace	-11.0296
▁sentimental	-11.0296
▁define	-11.0297
▁freddy	-11.0297
▁native	-11.0297
▁nola	-11.0297
▁forehead	-11.0297
▁hillard	-11.0297
▁viking	-11.0297
▁willingham	-11.0297
▁epic	-11.0297
▁dwell	-11.0297
▁development	-11.0298
▁groom	-11.0298
▁dork	-11.0298
▁coordinates	-11.0298
▁upper	-11.0298
▁ridley	-11.0299
▁aidan	-11.03
▁vito	-11.0301
▁unlock	-11.0301
▁spotted	-11.0301
▁invention	-11.0302
bble	-11.0302
▁thatch	-11.0303
▁aiden	-11.0304
▁formation	-11.0304
▁frost	-11.0306
▁hatter	-11.0306
▁makin	-11.0307
▁sandwiches	-11.0308
▁authorized	-11.0309
▁forgetting	-11.031
▁benny	-11.031
▁bench	-11.0311
▁infected	-11.0312
▁spain	-11.0312
▁conor	-11.0314
▁madness	-11.0315
▁adore	-11.0315
▁gina	-11.0317
▁mankind	-11.0317
▁jared	-11.0317
▁sore	-11.0317
▁humanity	-11.032
▁replaced	-11.032
▁backyard	-11.0321
▁activated	-11.0321
▁sickness	-11.0322
▁oughta	-11.0336
▁cargo	-11.0336
▁poet	-11.0347
▁wiped	-11.0348
▁lola	-11.0353
▁toll	-11.0359
▁nicer	-11.0363
▁damaged	-11.0365
▁cleared	-11.0365
▁surprises	-11.0378
▁moe	-11.0388
▁requested	-11.039
▁snakes	-11.0405
▁cracked	-11.0406
▁musical	-11.0412
▁mach	-11.0412
▁shaki	-11.0429
▁gap	-11.0433
▁vital	-11.0434
▁cracking	-11.0435
▁ble	-11.0437
▁mil	-11.0438
▁circles	-11.0441
▁noises	-11.0441
▁stinks	-11.0441
▁waiter	-11.0444
ung	-11.0445
▁alle	-11.0446
▁nala	-11.0453
▁washing	-11.0453
▁cared	-11.0455
▁cows	-11.0459
▁robe	-11.0459
▁booked	-11.046
fire	-11.0461
mat	-11.0486
▁roar	-11.049
▁cough	-11.0492
▁fits	-11.0496
▁generations	-11.0497
▁dorm	-11.0499
▁thor	-11.05
oid	-11.05
bone	-11.0502
▁viv	-11.0511
▁protocol	-11.052
▁colleague	-11.052
▁astronaut	-11.052
▁grenade	-11.052
▁generation	-11.0523
gin	-11.0546
▁fra	-11.0548
▁raining	-11.0571
▁reported	-11.0573
▁jur	-11.0575
▁ana	-11.0577
oi	-11.0577
▁yul	-11.0595
▁prep	-11.0595
▁lessons	-11.0607
▁decade	-11.0608
▁bron	-11.0609
▁workers	-11.0611
▁reed	-11.0612
▁protected	-11.063
▁attacks	-11.0637
put	-11.0639
▁ken	-11.0646
▁questioning	-11.0665
▁hel	-11.0672
▁butch	-11.0674
ini	-11.0679
water	-11.0683
uw	-11.0691
level	-11.0695
worth	-11.0695
▁reject	-11.0696
fuck	-11.0696
fall	-11.0703
nia	-11.0709
▁plants	-11.0717
▁feds	-11.0718
▁australia	-11.0719
▁august	-11.0728
▁wrestle	-11.0728
▁confident	-11.0729
▁corrupt	-11.0729
mark	-11.073
▁alabanza	-11.073
▁allergic	-11.073
▁beatrice	-11.073
▁benedick	-11.073
▁biscuit	-11.073
▁bounty	-11.073
▁brandnew	-11.073
▁cavalry	-11.073
▁cleopatra	-11.073
▁convenient	-11.073
▁corporate	-11.073
▁dreyman	-11.073
▁dylan	-11.073
▁embassy	-11.073
▁fraternity	-11.073
▁gracias	-11.073
▁gratitude	-11.073
▁greece	-11.073
▁inviting	-11.073
▁kenneth	-11.073
▁krupp	-11.073
▁lobster	-11.073
▁macbeth	-11.073
▁maintenance	-11.073
▁messenger	-11.073
▁morbius	-11.073
▁phoenix	-11.073
▁pyramus	-11.073
▁residence	-11.073
▁rouge	-11.073
▁selena	-11.073
▁sniper	-11.073
▁symptoms	-11.073
▁tragedy	-11.073
▁unleash	-11.073
▁vomit	-11.073
▁wheat	-11.073
▁accurate	-11.073
▁buckingham	-11.073
▁coffin	-11.073
▁companion	-11.073
▁disguise	-11.073
▁globe	-11.073
▁guinea	-11.073
▁ireland	-11.073
▁purchase	-11.073
▁sixteen	-11.073
▁resort	-11.073
▁hermia	-11.073
▁joffer	-11.073
▁violet	-11.073
▁gorilla	-11.073
▁kershaw	-11.073
▁heydrich	-11.073
▁mckenzie	-11.073
▁ensure	-11.073
▁prank	-11.073
▁elvis	-11.073
▁scrub	-11.073
▁studied	-11.073
▁activity	-11.073
▁cartoon	-11.073
▁inaudible	-11.073
▁weii	-11.073
▁georgia	-11.073
▁mamma	-11.073
▁feast	-11.073
▁radiation	-11.073
▁flashlight	-11.073
▁apologies	-11.073
▁carolina	-11.073
▁expand	-11.0731
▁scanner	-11.0731
▁championship	-11.0731
▁strap	-11.0731
▁liking	-11.0731
▁rustling	-11.0731
▁oath	-11.0731
▁mature	-11.0731
▁puff	-11.0732
▁buff	-11.0732
▁remarkable	-11.0732
▁gps	-11.0733
▁robby	-11.0733
▁untie	-11.0733
▁hatred	-11.0733
▁poker	-11.0733
▁headmaster	-11.0734
▁centre	-11.0734
▁jax	-11.0735
▁meanwhile	-11.0735
▁drummer	-11.0736
▁rookie	-11.0736
▁flavor	-11.0737
▁amongst	-11.0738
▁skies	-11.0738
▁swamp	-11.0739
▁whale	-11.0741
▁vile	-11.0742
▁active	-11.0743
▁turd	-11.0745
▁mamas	-11.0748
▁honorable	-11.0749
▁related	-11.0751
▁discovery	-11.0752
▁bala	-11.0755
▁tessa	-11.0759
rated	-11.0759
▁queer	-11.0761
▁dayday	-11.0762
▁revealed	-11.0762
▁pond	-11.0765
▁hotter	-11.0765
▁resources	-11.0772
▁angela	-11.0772
▁cain	-11.0773
▁inn	-11.0776
▁eats	-11.0777
▁familys	-11.0779
▁informed	-11.0785
▁arab	-11.0789
▁straining	-11.0794
cop	-11.0796
meter	-11.0803
▁prey	-11.0807
▁appeared	-11.0811
▁borrowed	-11.0822
▁catches	-11.0824
▁raped	-11.0825
rad	-11.0825
▁kyl	-11.0825
▁hardest	-11.0826
▁nod	-11.0833
▁bea	-11.0834
omber	-11.0853
▁andrea	-11.0854
▁peanuts	-11.0856
aar	-11.086
lm	-11.0862
▁operations	-11.0874
▁mage	-11.0882
▁survivors	-11.0884
▁prov	-11.0886
▁fairly	-11.089
▁choices	-11.0893
▁nations	-11.0894
▁troubles	-11.0898
▁cre	-11.0918
▁dated	-11.0918
▁dickie	-11.0919
▁desires	-11.092
▁breasts	-11.0921
▁ax	-11.0924
▁bangs	-11.0926
▁cape	-11.0932
▁clearing	-11.0936
▁dug	-11.0938
▁squeak	-11.0941
▁naar	-11.0945
lie	-11.0949
▁fields	-11.095
▁images	-11.0953
▁treating	-11.0957
▁parked	-11.0962
▁shota	-11.0964
▁guessing	-11.0967
ame	-11.0967
▁shark	-11.0974
▁explosive	-11.0974
▁inmate	-11.0978
▁marine	-11.098
▁sock	-11.0986
▁documents	-11.0989
eight	-11.0991
▁checks	-11.0997
▁just	-11.0999
▁pl	-11.1
▁ami	-11.1
▁putman	-11.1
▁ants	-11.1001
▁pays	-11.1005
▁feathers	-11.1008
▁orcs	-11.1015
kylo	-11.1027
▁explained	-11.1033
▁candles	-11.1045
▁mist	-11.1049
ode	-11.1064
▁kindly	-11.1068
▁liver	-11.1071
▁closely	-11.1073
▁warriors	-11.1084
▁asks	-11.1086
▁alta	-11.1091
▁locks	-11.1094
▁beds	-11.1094
▁reporting	-11.1096
▁uhh	-11.1104
▁offend	-11.1113
▁lefty	-11.1115
ory	-11.1122
▁lone	-11.1124
▁tra	-11.113
▁dim	-11.113
▁smo	-11.114
▁shadows	-11.1141
▁invent	-11.1145
boom	-11.1152
ze	-11.1153
▁sher	-11.1159
▁exception	-11.1159
▁flatter	-11.1161
stein	-11.1163
▁eliminate	-11.1163
life	-11.1173
▁iraq	-11.1174
▁mimi	-11.1176
▁tow	-11.1177
▁instrument	-11.118
▁tai	-11.1181
▁immortal	-11.1182
▁forbid	-11.1184
▁omar	-11.1184
▁bachelor	-11.1184
▁superhero	-11.1184
▁archibald	-11.1184
▁athena	-11.1184
▁auction	-11.1184
▁avenue	-11.1184
▁avner	-11.1184
▁cleveland	-11.1184
▁concrete	-11.1184
▁conspiracy	-11.1184
▁distress	-11.1184
▁dungeon	-11.1184
▁dwalin	-11.1184
▁einstein	-11.1184
▁enterprise	-11.1184
▁evacuation	-11.1184
▁ferrars	-11.1184
▁fitzgerald	-11.1184
▁heffley	-11.1184
▁industry	-11.1184
▁instance	-11.1184
▁keeler	-11.1184
▁krell	-11.1184
▁mississippi	-11.1184
▁oldfashioned	-11.1184
▁philosophy	-11.1184
▁possibilities	-11.1184
▁rehearsal	-11.1184
▁reservation	-11.1184
▁ribbon	-11.1184
▁shanghai	-11.1184
▁slippery	-11.1184
▁spencer	-11.1184
▁stephanie	-11.1184
▁supplies	-11.1184
▁thanksgiving	-11.1184
▁thunk	-11.1184
▁undercover	-11.1184
▁virtue	-11.1184
▁blake	-11.1184
▁clanging	-11.1184
▁despise	-11.1184
▁jennings	-11.1184
▁kinky	-11.1184
▁lenora	-11.1184
▁malfunction	-11.1184
▁silk	-11.1184
▁marquis	-11.1184
▁skirt	-11.1184
▁thrust	-11.1184
▁depth	-11.1184
▁inappropriate	-11.1184
▁mumbles	-11.1184
▁typical	-11.1184
▁senor	-11.1184
▁tshirt	-11.1184
▁rebecca	-11.1184
▁lipstick	-11.1184
▁brett	-11.1184
▁ramses	-11.1184
▁clerk	-11.1184
▁tornado	-11.1184
▁tropic	-11.1184
▁venture	-11.1185
▁guldan	-11.1185
▁heeft	-11.1185
▁marvelous	-11.1185
▁parrot	-11.1185
▁jammed	-11.1185
▁confront	-11.1185
▁whew	-11.1185
▁kirby	-11.1185
▁compete	-11.1185
▁bruno	-11.1185
▁porch	-11.1185
▁ace	-11.1186
▁rash	-11.1186
▁retirement	-11.1186
▁madison	-11.1186
▁stiff	-11.1186
▁gangster	-11.1186
▁psychic	-11.1186
▁bandera	-11.1186
▁gravity	-11.1187
▁lauren	-11.1187
▁mmmmmm	-11.1187
▁studies	-11.1187
▁resistance	-11.1187
▁flour	-11.1187
▁bribe	-11.1187
▁wage	-11.1188
▁subway	-11.1189
▁fitting	-11.1189
▁curve	-11.1189
▁sour	-11.1189
▁holidays	-11.1189
▁confession	-11.1189
▁socialist	-11.119
▁phrase	-11.119
▁eastern	-11.119
▁meaningless	-11.1191
erstr	-11.1191
▁malena	-11.1192
▁dj	-11.1193
▁facebook	-11.1193
▁kingsman	-11.1194
▁broom	-11.1194
▁hush	-11.1194
▁stepping	-11.1196
▁reid	-11.1198
▁spike	-11.1198
▁located	-11.1199
▁forgiveness	-11.1199
▁lease	-11.12
▁approved	-11.1203
▁yyou	-11.1204
▁cra	-11.1208
▁moss	-11.1209
▁involve	-11.1209
▁kiddo	-11.1209
▁executed	-11.121
▁visa	-11.1214
▁pace	-11.1216
nine	-11.1216
▁spilled	-11.1221
▁possessed	-11.1222
▁powerless	-11.1225
▁disturbing	-11.1234
▁refer	-11.1239
▁mia	-11.1239
▁beaten	-11.1243
▁carmen	-11.1243
this	-11.1245
▁sitar	-11.1253
▁veins	-11.1258
▁fran	-11.1259
▁bowling	-11.1275
▁spits	-11.1277
▁char	-11.1279
▁hiya	-11.1283
▁flights	-11.1292
▁suspected	-11.1292
▁manning	-11.1298
▁entered	-11.1304
▁weirdo	-11.1308
▁texted	-11.1313
▁magazines	-11.1315
▁existed	-11.1321
▁suggested	-11.1322
gy	-11.1322
▁honesty	-11.1327
▁soc	-11.1332
▁spec	-11.1335
▁manifest	-11.1338
▁wheels	-11.1346
▁dinosaurs	-11.1346
▁orphans	-11.1346
▁shi	-11.1348
▁puzzle	-11.1356
▁charged	-11.1359
▁sources	-11.1364
▁homeless	-11.1365
hard	-11.1368
▁jacks	-11.137
use	-11.1371
▁cooked	-11.1376
cular	-11.1381
▁web	-11.1388
▁yah	-11.1411
▁ul	-11.1411
▁experiences	-11.1414
▁pla	-11.1417
▁depend	-11.1425
▁realise	-11.1434
gar	-11.1445
▁nazi	-11.1453
▁breast	-11.1454
▁connor	-11.1454
▁rumors	-11.1456
▁yankee	-11.1456
made	-11.1456
▁vet	-11.1459
▁skill	-11.1461
▁intentions	-11.1465
▁meters	-11.1468
ility	-11.1472
▁presume	-11.1473
▁painter	-11.1474
▁dun	-11.1475
▁gag	-11.149
▁cooler	-11.1492
▁filthie	-11.1495
▁fri	-11.1511
▁her	-11.1517
are	-11.153
play	-11.1539
▁facts	-11.1541
▁affairs	-11.1555
look	-11.1558
▁butts	-11.1565
▁danced	-11.1575
▁burgers	-11.1586
▁mor	-11.159
▁demands	-11.1596
▁kom	-11.1606
▁marys	-11.1606
▁vol	-11.1618
ister	-11.1619
point	-11.1621
hat	-11.1622
▁stuffed	-11.1624
found	-11.1624
▁missiles	-11.1626
▁drift	-11.1632
▁mon	-11.1632
stick	-11.1632
▁chairs	-11.164
▁approve	-11.164
▁critic	-11.1643
inlaw	-11.1644
▁wick	-11.1649
▁isabel	-11.1657
▁exhibit	-11.1658
▁kidnap	-11.1659
▁helpful	-11.1659
▁reception	-11.1659
▁spells	-11.1659
▁triumph	-11.1659
▁editor	-11.166
▁octopus	-11.166
▁lamp	-11.166
▁casual	-11.166
▁interfere	-11.166
▁straw	-11.166
▁acquaintance	-11.166
▁analysis	-11.166
▁anxious	-11.166
▁arendelle	-11.166
▁authentic	-11.166
▁biosyn	-11.166
▁bizarre	-11.166
▁capacity	-11.166
▁chewbacca	-11.166
▁compartment	-11.166
▁confusing	-11.166
▁convention	-11.166
▁disagree	-11.166
▁entitled	-11.166
▁exhusband	-11.166
▁faggot	-11.166
▁ferrigno	-11.166
▁gadget	-11.166
▁generator	-11.166
▁grazie	-11.166
▁hilarious	-11.166
▁houssam	-11.166
▁hurricane	-11.166
▁institution	-11.166
▁jocasta	-11.166
▁lorraine	-11.166
▁mahjong	-11.166
▁marisa	-11.166
▁mccoy	-11.166
▁medusa	-11.166
▁militia	-11.166
▁mukhtar	-11.166
▁munich	-11.166
▁nypd	-11.166
▁olivia	-11.166
▁orlov	-11.166
▁perfume	-11.166
▁practicing	-11.166
▁prostitute	-11.166
▁snarling	-11.166
▁socalled	-11.166
▁stubborn	-11.166
▁tremendous	-11.166
▁venice	-11.166
▁vulnerable	-11.166
▁butterfly	-11.166
▁disrupt	-11.166
▁harbor	-11.166
▁thorough	-11.166
▁absence	-11.166
▁austin	-11.166
▁slghs	-11.166
▁envy	-11.166
▁fiona	-11.166
▁gwen	-11.166
▁dragging	-11.166
▁stray	-11.166
▁pursue	-11.166
▁cereal	-11.166
▁clangs	-11.166
▁goddess	-11.166
▁grethe	-11.166
▁squidward	-11.166
▁rational	-11.166
▁sebastian	-11.166
▁cocktail	-11.1661
▁dewey	-11.1661
▁feature	-11.1661
▁flaw	-11.1661
▁booze	-11.1661
▁robinson	-11.1661
▁elementary	-11.1661
▁pension	-11.1661
▁flare	-11.1661
▁patties	-11.1661
▁dwarves	-11.1661
▁infinite	-11.1661
▁stroll	-11.1661
▁atari	-11.1661
▁slack	-11.1661
▁negro	-11.1661
▁kathy	-11.1661
▁proposition	-11.1661
▁grill	-11.1661
▁automatic	-11.1661
▁holler	-11.1661
▁burke	-11.1661
▁batteries	-11.1662
▁kimble	-11.1662
▁angie	-11.1662
▁tapping	-11.1662
▁bio	-11.1663
▁sherman	-11.1663
▁gutter	-11.1663
▁padre	-11.1663
▁classroom	-11.1663
▁oome	-11.1664
▁kron	-11.1664
▁vibe	-11.1664
▁shanty	-11.1664
▁teasing	-11.1666
▁modest	-11.1666
▁nova	-11.1666
▁dart	-11.1666
▁diary	-11.1666
▁token	-11.1667
▁virginity	-11.1667
▁magician	-11.1667
▁abra	-11.1667
▁betrayal	-11.1668
▁massage	-11.1668
▁strictly	-11.1668
▁franklin	-11.1669
▁emily	-11.1669
▁motive	-11.167
▁wiggle	-11.167
▁bowman	-11.1671
▁accidentally	-11.1671
▁publicity	-11.1672
▁robotic	-11.1672
▁fulfill	-11.1672
▁clucking	-11.1673
▁thug	-11.1673
▁andand	-11.1673
▁grin	-11.1674
▁hah	-11.1675
▁relieved	-11.1676
▁lime	-11.1676
▁condom	-11.1676
▁eggman	-11.1676
nut	-11.1678
▁mimic	-11.1678
▁markum	-11.168
▁wooden	-11.168
▁resolve	-11.1683
▁haunted	-11.1683
▁fearless	-11.1684
▁batt	-11.1686
▁trumpeting	-11.1686
▁latte	-11.1687
▁passenger	-11.1687
▁dreadful	-11.1687
▁onion	-11.1689
▁superman	-11.1689
▁wandering	-11.169
▁cube	-11.1691
▁advised	-11.1694
▁drunken	-11.1698
▁matches	-11.1699
▁highness	-11.17
▁solved	-11.1709
▁oi	-11.1711
▁mines	-11.1713
▁glenn	-11.1715
▁ere	-11.172
▁butcher	-11.1723
▁hangman	-11.1734
▁endless	-11.1734
▁environmental	-11.1735
▁hopeless	-11.1738
▁pounding	-11.1738
▁stat	-11.1741
▁ook	-11.1742
▁sensors	-11.1748
▁fires	-11.1752
▁handy	-11.1758
▁walt	-11.1759
▁claims	-11.1759
▁dragons	-11.1759
▁hog	-11.1761
▁sole	-11.1764
sis	-11.1771
▁owes	-11.1774
▁designer	-11.1781
▁doer	-11.1784
▁ahhh	-11.1803
▁rely	-11.181
▁bub	-11.1822
▁grove	-11.183
▁continued	-11.184
▁deposit	-11.1842
▁shorty	-11.1846
▁traveled	-11.1849
▁bruises	-11.1851
▁belonged	-11.1856
▁smoked	-11.1869
▁wai	-11.1874
eh	-11.1876
▁tips	-11.1882
▁ep	-11.1885
▁americas	-11.1894
▁reporters	-11.1896
▁prima	-11.1897
▁elk	-11.19
▁ei	-11.1904
met	-11.1917
▁sniff	-11.1919
▁volunteer	-11.1921
aries	-11.1927
▁reaching	-11.1939
▁relative	-11.1952
▁appearance	-11.1953
▁fork	-11.1957
▁characters	-11.1958
▁sneeze	-11.1961
▁fooled	-11.1962
▁tube	-11.1976
▁acts	-11.1985
▁adults	-11.1987
▁vig	-11.199
▁lung	-11.1995
▁deco	-11.1996
fer	-11.2002
▁tons	-11.2005
▁dicks	-11.201
maker	-11.2031
▁dressing	-11.2032
▁cracker	-11.2032
pu	-11.2032
▁retard	-11.2033
▁scores	-11.2036
▁nerves	-11.204
▁delight	-11.2087
▁cher	-11.2092
▁smash	-11.2097
▁threaten	-11.2108
▁oaks	-11.2112
▁fixing	-11.2116
▁nasa	-11.2117
▁til	-11.2118
▁logic	-11.2121
eye	-11.2121
cut	-11.2122
school	-11.2122
three	-11.2125
know	-11.2126
▁nicely	-11.2128
▁punish	-11.2131
▁accomplish	-11.2132
▁rank	-11.2133
▁surround	-11.2133
▁roller	-11.2134
▁brew	-11.2136
▁achieve	-11.214
▁rang	-11.2148
▁robber	-11.2148
▁initial	-11.2148
▁technical	-11.2149
▁compare	-11.215
▁mode	-11.215
▁inject	-11.2153
▁flee	-11.2153
▁adjust	-11.2155
▁runnin	-11.2158
fucking	-11.2159
▁woohoo	-11.2159
▁descend	-11.2159
▁mere	-11.2159
▁plum	-11.2159
▁academic	-11.216
▁acknowledge	-11.216
▁amazon	-11.216
▁anyhow	-11.216
▁archimedes	-11.216
▁artemisia	-11.216
▁aspirin	-11.216
▁clutch	-11.216
▁cogburn	-11.216
▁colqhoun	-11.216
▁contrary	-11.216
▁curiosity	-11.216
▁demetrius	-11.216
▁dialogue	-11.216
▁durotan	-11.216
▁eclipse	-11.216
▁empress	-11.216
▁enormous	-11.216
▁equation	-11.216
▁eternity	-11.216
▁fabric	-11.216
▁gambling	-11.216
▁immune	-11.216
▁infant	-11.216
▁interpret	-11.216
▁kobayashi	-11.216
▁lorena	-11.216
▁mcbride	-11.216
▁morgue	-11.216
▁motorcycle	-11.216
▁mulligan	-11.216
▁necklace	-11.216
▁persuade	-11.216
▁phoebe	-11.216
▁pyramid	-11.216
▁scenario	-11.216
▁seizure	-11.216
▁semester	-11.216
▁shattered	-11.216
▁substance	-11.216
▁sunglasses	-11.216
▁sunrise	-11.216
▁telfer	-11.216
▁toffler	-11.216
▁ugga	-11.216
▁violin	-11.216
▁whatsoever	-11.216
▁withdraw	-11.216
▁ceiling	-11.216
▁koslow	-11.216
▁preparing	-11.216
▁sprinkle	-11.216
▁fourteen	-11.216
▁gallery	-11.216
▁coroner	-11.216
▁digital	-11.216
▁nipple	-11.216
▁ocp	-11.216
▁thudding	-11.216
▁injury	-11.216
▁groceries	-11.2161
▁cloak	-11.2161
▁plaza	-11.2161
▁parlor	-11.2161
▁kumar	-11.2161
▁stacy	-11.2161
▁cried	-11.2161
▁basis	-11.2161
▁creating	-11.2161
▁bulgarian	-11.2161
▁yahoo	-11.2161
▁repay	-11.2161
▁aaah	-11.2161
▁carrier	-11.2162
ological	-11.2162
▁quant	-11.2162
▁limo	-11.2162
caster	-11.2162
▁cabot	-11.2162
▁ferd	-11.2162
▁renee	-11.2162
▁lockwood	-11.2163
▁glue	-11.2163
▁rail	-11.2163
▁titan	-11.2163
▁broadway	-11.2163
▁panties	-11.2163
▁haircut	-11.2163
▁scum	-11.2163
▁mutters	-11.2164
▁brogan	-11.2164
▁intern	-11.2164
▁moose	-11.2164
▁monk	-11.2164
▁crop	-11.2164
▁popped	-11.2164
▁sista	-11.2165
▁starboard	-11.2165
▁elephants	-11.2165
▁salary	-11.2167
▁grownup	-11.2168
▁zac	-11.2169
▁marion	-11.217
▁stealth	-11.217
▁della	-11.2172
▁heil	-11.2173
▁attached	-11.2175
▁cafe	-11.2176
▁constantly	-11.2176
▁peterson	-11.2177
▁wie	-11.2177
▁heartbeat	-11.2177
▁stations	-11.2178
▁enz	-11.2179
▁leona	-11.2179
▁barton	-11.2179
▁banks	-11.2179
▁darlington	-11.2179
▁underestimate	-11.2181
▁unlikely	-11.2182
▁tore	-11.2183
▁tribe	-11.2183
▁raven	-11.2185
▁zori	-11.2185
▁trim	-11.2186
▁vanished	-11.2187
▁declared	-11.2188
▁sixty	-11.2192
eth	-11.2195
▁jess	-11.2198
▁arse	-11.2198
▁scotty	-11.22
▁recovered	-11.22
▁registered	-11.2201
▁assured	-11.2202
▁disturbed	-11.2204
▁fuse	-11.2208
▁factor	-11.2209
▁iim	-11.2209
▁pul	-11.2212
▁musician	-11.2212
▁dez	-11.2213
▁performing	-11.2221
▁stressed	-11.2223
▁guaranteed	-11.2223
▁recommended	-11.2224
▁sato	-11.2225
▁fled	-11.2226
▁wounds	-11.2232
▁roses	-11.2238
▁attempted	-11.2239
▁fasten	-11.224
▁handcuffs	-11.2242
▁burnt	-11.2242
▁letham	-11.2244
▁intended	-11.2247
▁imma	-11.2248
lay	-11.2256
▁taco	-11.2256
▁waitin	-11.2256
▁memo	-11.2261
▁sacrificed	-11.2262
▁disco	-11.2267
▁signing	-11.2268
ata	-11.2269
bin	-11.227
▁trainer	-11.2275
▁sewer	-11.2279
▁funk	-11.2287
▁chased	-11.2294
▁clatters	-11.2296
▁pins	-11.2301
▁fatal	-11.2308
ient	-11.2313
▁jade	-11.2314
▁elements	-11.2318
▁values	-11.2321
▁prayed	-11.2322
ison	-11.2326
▁hustle	-11.2328
iac	-11.2332
▁messy	-11.2337
▁discussing	-11.234
▁rebels	-11.2348
▁whoops	-11.2356
▁dame	-11.2357
▁devices	-11.236
▁natures	-11.236
▁ribs	-11.236
▁communications	-11.2362
▁heels	-11.2362
▁apes	-11.2362
▁meter	-11.2362
▁ranks	-11.237
▁dor	-11.238
▁nazis	-11.2384
▁gags	-11.2385
bur	-11.2386
▁ropes	-11.2392
▁squeaks	-11.2395
▁pressed	-11.2396
▁yen	-11.24
▁tracker	-11.2404
▁sucking	-11.2408
▁samples	-11.2416
▁moet	-11.2417
call	-11.2428
cra	-11.243
▁nono	-11.2443
▁servants	-11.245
▁marc	-11.2457
▁lid	-11.2458
▁bearing	-11.2458
▁drums	-11.2461
▁camping	-11.2464
▁rib	-11.2467
▁fuckers	-11.2468
▁mic	-11.2476
▁mutant	-11.2478
▁communication	-11.2479
zero	-11.248
▁folk	-11.2483
▁wished	-11.2489
▁patterns	-11.2494
aught	-11.2495
uh	-11.2498
▁honk	-11.2505
▁vc	-11.2505
nie	-11.2506
▁heel	-11.2509
▁areas	-11.252
ok	-11.2524
▁vehicles	-11.2533
▁bruise	-11.2535
▁lighter	-11.254
▁rode	-11.2546
▁procedures	-11.2549
▁supposedly	-11.2554
▁mini	-11.2558
▁yu	-11.2564
vol	-11.2564
▁gel	-11.2567
▁newspapers	-11.2571
▁tools	-11.2572
▁doe	-11.259
▁smelled	-11.2599
▁types	-11.2606
ification	-11.2612
blo	-11.2614
face	-11.2614
▁cousins	-11.2616
▁cracks	-11.2639
▁ohhh	-11.2641
▁def	-11.2642
▁vanish	-11.2643
job	-11.265
yeah	-11.2653
▁conquer	-11.2659
▁improve	-11.2662
▁eighth	-11.2664
▁collapse	-11.2666
▁sleepy	-11.267
▁heave	-11.2679
▁iris	-11.2681
▁mutt	-11.2685
▁sparta	-11.2686
▁abilities	-11.2687
▁airborne	-11.2687
▁algorithm	-11.2687
▁almighty	-11.2687
▁appetite	-11.2687
▁artifact	-11.2687
▁autograph	-11.2687
▁celebrity	-11.2687
▁cheerleader	-11.2687
▁climate	-11.2687
▁concentration	-11.2687
▁croak	-11.2687
▁devoted	-11.2687
▁dimitri	-11.2687
▁elsewhere	-11.2687
▁emmett	-11.2687
▁encourage	-11.2687
▁homosexual	-11.2687
▁identical	-11.2687
▁interlinked	-11.2687
▁investigate	-11.2687
▁janitor	-11.2687
▁kehoe	-11.2687
▁lndistinct	-11.2687
▁lounge	-11.2687
▁lysander	-11.2687
▁matrix	-11.2687
▁mcquarry	-11.2687
▁microphone	-11.2687
▁minimum	-11.2687
▁napoleon	-11.2687
▁nowadays	-11.2687
▁olenska	-11.2687
▁paranoid	-11.2687
▁philadelphia	-11.2687
▁raccoon	-11.2687
▁rendezvous	-11.2687
▁rhyme	-11.2687
▁shannon	-11.2687
▁shepard	-11.2687
▁snarls	-11.2687
▁sponsor	-11.2687
▁strangle	-11.2687
▁syrup	-11.2687
▁tennessee	-11.2687
▁universal	-11.2687
▁wardrobe	-11.2687
▁welfare	-11.2687
▁wesiey	-11.2687
▁edith	-11.2687
▁fierce	-11.2687
▁increasing	-11.2687
▁legacy	-11.2687
▁prescott	-11.2687
▁wilderness	-11.2687
▁mannix	-11.2687
▁pollux	-11.2687
▁courtesy	-11.2687
▁gracious	-11.2687
▁aisle	-11.2687
▁germ	-11.2687
▁scumbag	-11.2687
▁interstate	-11.2687
▁cooing	-11.2687
▁scholarship	-11.2687
▁megget	-11.2687
▁raglan	-11.2687
▁leigh	-11.2687
▁integrity	-11.2687
▁colour	-11.2687
▁graduation	-11.2687
▁executive	-11.2687
▁mathew	-11.2687
▁beware	-11.2687
▁undone	-11.2688
▁franco	-11.2688
▁triumphant	-11.2688
▁dimas	-11.2688
▁egyptian	-11.2688
▁leonato	-11.2688
▁spud	-11.2688
▁loki	-11.2688
▁grantham	-11.2689
▁superpower	-11.2689
▁pettyman	-11.2689
▁nixon	-11.2689
▁howre	-11.2689
▁racecar	-11.2689
▁roam	-11.2689
▁glance	-11.2689
▁punishment	-11.2689
▁countries	-11.2689
▁oof	-11.2689
▁necessarily	-11.2689
▁branches	-11.269
▁swiss	-11.269
▁preparation	-11.269
▁barney	-11.269
▁faye	-11.2691
▁strategy	-11.2691
▁maxwell	-11.2692
▁doggy	-11.2693
▁cozy	-11.2694
▁stir	-11.2694
▁cloth	-11.2695
▁jedi	-11.2695
▁georgie	-11.2695
▁korean	-11.2695
▁electrical	-11.2696
▁kidney	-11.2696
▁vast	-11.2696
▁lester	-11.2697
▁european	-11.2698
▁tweet	-11.2698
▁marty	-11.2699
▁chairman	-11.2701
▁maiden	-11.2701
▁ninety	-11.2702
▁identified	-11.2705
▁cort	-11.2706
▁stern	-11.2706
▁bitten	-11.2707
▁pawn	-11.2707
▁doen	-11.2708
▁wishing	-11.271
▁plead	-11.2711
▁seventh	-11.2712
▁frightening	-11.2712
▁delighted	-11.2716
▁brat	-11.2718
▁nearest	-11.2718
▁brendan	-11.272
▁hunger	-11.2722
▁desperately	-11.2724
▁smashing	-11.2724
▁ticky	-11.2724
stan	-11.2724
▁graduated	-11.2726
▁skid	-11.2727
▁booty	-11.2729
ddling	-11.2729
▁proposed	-11.2729
▁physically	-11.2731
▁pickup	-11.2734
▁poly	-11.2738
▁engineering	-11.2742
▁killian	-11.2746
▁whines	-11.2749
▁reeves	-11.275
band	-11.2753
stro	-11.2764
▁badass	-11.2771
▁tourists	-11.2772
▁trailer	-11.2773
▁priests	-11.2784
▁matty	-11.2787
▁returns	-11.2788
▁jonesy	-11.2789
▁cod	-11.2795
▁items	-11.2795
▁added	-11.2797
onic	-11.28
▁senses	-11.2803
▁cured	-11.2804
▁treaty	-11.2804
▁sith	-11.2804
mmy	-11.2807
▁milt	-11.2814
▁missus	-11.2818
▁bucky	-11.2826
▁generally	-11.2835
▁completed	-11.2837
▁freaks	-11.2842
▁salesman	-11.2846
▁whoop	-11.2857
▁crumb	-11.2867
▁jer	-11.2868
▁swinging	-11.2871
▁wink	-11.2874
▁magnetic	-11.2875
▁creaks	-11.2877
ano	-11.2877
▁goose	-11.288
▁kn	-11.2893
▁clues	-11.2897
▁funds	-11.2904
▁relatives	-11.2911
▁buckle	-11.2918
rous	-11.2929
▁scr	-11.2937
▁ni	-11.2938
▁walkin	-11.2943
shed	-11.2947
▁beams	-11.2958
nder	-11.2958
stron	-11.2958
▁blocking	-11.2964
▁gifted	-11.2968
▁visited	-11.2971
▁os	-11.2973
wing	-11.2975
rat	-11.2984
▁remark	-11.2994
▁towels	-11.3004
▁snaps	-11.3007
▁recon	-11.3011
atic	-11.3015
ix	-11.3018
ille	-11.3023
chi	-11.3028
▁canadian	-11.3031
▁spear	-11.3031
pped	-11.3032
▁sheet	-11.3034
▁fund	-11.3034
▁vow	-11.3043
▁grounds	-11.3051
hen	-11.3052
▁worm	-11.3064
▁gab	-11.3065
▁sta	-11.3069
▁axe	-11.3075
▁projects	-11.3086
▁boxing	-11.3088
▁toot	-11.3099
▁jos	-11.3118
▁chart	-11.3119
▁packs	-11.3122
▁acted	-11.3128
atta	-11.3128
▁feared	-11.3129
too	-11.313
var	-11.3132
▁assassin	-11.3151
▁languages	-11.3154
ese	-11.3157
itus	-11.3165
▁distract	-11.3171
▁damp	-11.3172
▁rebel	-11.3174
▁jar	-11.3175
▁entertain	-11.3176
▁yous	-11.3177
▁benn	-11.3186
▁knights	-11.3191
view	-11.3206
fight	-11.3208
girl	-11.3208
▁arc	-11.3208
▁roots	-11.321
horn	-11.321
▁roark	-11.3212
thats	-11.3213
▁israel	-11.3215
▁illuminati	-11.3221
▁restore	-11.3224
▁mourn	-11.3224
▁destin	-11.3226
▁tat	-11.3227
▁essential	-11.323
▁korea	-11.3233
▁meds	-11.3237
▁emma	-11.3238
▁consult	-11.3239
▁medic	-11.324
tial	-11.324
▁reflect	-11.324
▁asgard	-11.3241
▁whisk	-11.3242
▁horizon	-11.3242
▁acquired	-11.3242
▁alternative	-11.3242
▁arjun	-11.3242
▁autopsy	-11.3242
▁balkan	-11.3242
▁bathtub	-11.3242
▁behalf	-11.3242
▁bicycle	-11.3242
▁bonjour	-11.3242
▁cassidy	-11.3242
▁celeste	-11.3242
▁cellphone	-11.3242
▁clacking	-11.3242
▁cleaves	-11.3242
▁clitoris	-11.3242
▁commence	-11.3242
▁compound	-11.3242
▁dizzy	-11.3242
▁exwife	-11.3242
▁february	-11.3242
▁garrett	-11.3242
▁ignorant	-11.3242
▁independence	-11.3242
▁instructor	-11.3242
▁intimate	-11.3242
▁jarrett	-11.3242
▁kendricks	-11.3242
▁lavelle	-11.3242
▁medivh	-11.3242
▁montgomery	-11.3242
▁myrna	-11.3242
▁nemerov	-11.3242
▁nevins	-11.3242
▁november	-11.3242
▁october	-11.3242
▁oklahoma	-11.3242
▁orgasm	-11.3242
▁ozzie	-11.3242
▁penkovsky	-11.3242
▁penthouse	-11.3242
▁picnic	-11.3242
▁platform	-11.3242
▁prospect	-11.3242
▁puppet	-11.3242
▁purvis	-11.3242
▁robbie	-11.3242
▁sanctuary	-11.3242
▁shepherd	-11.3242
▁skeleton	-11.3242
▁sophisticated	-11.3242
▁specimen	-11.3242
▁squish	-11.3242
▁terrifying	-11.3242
▁testimony	-11.3242
▁toulouse	-11.3242
▁translation	-11.3242
▁trembling	-11.3242
▁trevor	-11.3242
▁unpredictable	-11.3242
▁vicomte	-11.3242
▁voyage	-11.3242
▁administer	-11.3242
▁autobot	-11.3242
▁blaze	-11.3242
▁caretaker	-11.3242
▁cheeseburger	-11.3242
▁dexter	-11.3242
▁eminence	-11.3242
▁emperor	-11.3242
▁gracie	-11.3242
▁josef	-11.3242
▁mumbai	-11.3242
▁ooooh	-11.3242
▁stevie	-11.3242
▁stunning	-11.3242
▁vicky	-11.3242
▁adapt	-11.3242
▁distinguish	-11.3242
▁fingerprints	-11.3242
▁parasite	-11.3242
▁wray	-11.3242
▁xander	-11.3242
▁gesture	-11.3242
▁olaf	-11.3242
▁dvd	-11.3242
▁error	-11.3242
▁jasper	-11.3242
▁mustache	-11.3242
▁neglect	-11.3242
▁raspberry	-11.3242
▁tolerate	-11.3242
▁emerge	-11.3242
▁sorrow	-11.3242
▁camilla	-11.3242
▁kuwait	-11.3242
▁lottery	-11.3242
▁moretti	-11.3242
▁rawlings	-11.3242
▁swift	-11.3242
▁confusion	-11.3242
▁gillian	-11.3242
▁disks	-11.3242
ica	-11.3242
▁expectations	-11.3243
▁limp	-11.3243
▁dodge	-11.3243
▁henri	-11.3243
▁budget	-11.3243
▁deactivate	-11.3243
▁shaft	-11.3243
▁peasant	-11.3243
▁whwhat	-11.3243
▁profound	-11.3243
▁lambert	-11.3243
▁bodyguard	-11.3243
▁skipped	-11.3243
▁flick	-11.3244
▁woodward	-11.3244
▁denver	-11.3244
▁mick	-11.3246
▁waltz	-11.3246
▁tension	-11.3246
▁evie	-11.3246
▁fbl	-11.3246
▁diaz	-11.3247
▁fiction	-11.3247
▁keen	-11.3247
▁robertson	-11.3248
▁bait	-11.3248
▁harper	-11.3249
▁cork	-11.3249
▁ego	-11.3251
▁bonus	-11.3251
▁whereas	-11.3251
▁scarf	-11.3252
▁lugo	-11.3252
old	-11.3253
▁wander	-11.3255
▁torch	-11.3255
▁betting	-11.3257
▁employer	-11.3258
▁protective	-11.326
▁mattie	-11.326
▁qualified	-11.3261
▁stillwater	-11.3262
▁restricted	-11.3264
▁hose	-11.3264
▁brady	-11.3267
▁how	-11.3267
lifting	-11.3267
▁flunk	-11.3267
▁distracted	-11.327
▁tempting	-11.3271
▁smashed	-11.3275
▁offended	-11.3277
▁tech	-11.3278
▁diego	-11.3279
▁clothing	-11.3279
▁erect	-11.3281
▁outsiders	-11.3283
▁boop	-11.3286
ouse	-11.3287
▁bumpy	-11.3287
▁contained	-11.3288
▁professionals	-11.3289
▁described	-11.3289
ress	-11.3289
▁hike	-11.3289
▁bore	-11.3293
▁shipment	-11.3295
▁mustang	-11.3299
▁setup	-11.3299
▁splashing	-11.3302
▁keyes	-11.3308
▁archives	-11.3309
kill	-11.3309
▁playlng	-11.3314
hhh	-11.3315
▁fastest	-11.3315
▁wool	-11.3318
▁nailed	-11.3319
▁execute	-11.3323
▁louie	-11.3325
▁suggests	-11.3332
▁suburb	-11.3333
onze	-11.3333
▁mouths	-11.3335
▁tito	-11.3339
▁valid	-11.3342
▁rescued	-11.3344
▁yum	-11.3345
▁eyebrows	-11.3345
▁beers	-11.3346
▁dodo	-11.3348
▁sinking	-11.3349
▁collecting	-11.3354
▁logical	-11.3357
▁loosen	-11.3358
▁indiana	-11.3359
▁horny	-11.3368
▁boobs	-11.3368
▁caesars	-11.3371
▁defending	-11.3373
▁tackle	-11.3376
▁altar	-11.3379
rel	-11.3381
▁bridges	-11.3384
▁needles	-11.3394
▁warner	-11.3395
▁busting	-11.3398
▁discussed	-11.3402
▁stores	-11.3404
▁meals	-11.3406
▁screamed	-11.3406
▁embrace	-11.3409
▁weekends	-11.3409
▁exceptional	-11.3419
▁resumes	-11.3431
▁quicker	-11.3435
▁ml	-11.3439
term	-11.3444
▁worms	-11.3453
▁spreading	-11.3454
eep	-11.3461
▁armor	-11.3462
▁dreamt	-11.3467
▁cou	-11.3482
▁dood	-11.3496
aho	-11.3503
▁por	-11.3512
▁decades	-11.3512
▁breakin	-11.3535
▁ape	-11.354
▁semi	-11.3541
▁parr	-11.3544
bal	-11.3545
▁assets	-11.3563
▁thr	-11.3566
▁arrangements	-11.3566
▁mont	-11.3567
▁poo	-11.3568
▁fro	-11.3577
sized	-11.3579
▁rolled	-11.3581
▁creak	-11.3588
▁ani	-11.3591
bell	-11.3592
nik	-11.3593
faced	-11.3603
▁seasons	-11.3611
▁await	-11.362
▁snoop	-11.362
▁mort	-11.362
▁orphan	-11.3622
▁survivor	-11.3623
▁bubble	-11.3624
lings	-11.3625
▁dinosaur	-11.3626
shire	-11.3629
▁stair	-11.3629
▁salute	-11.3641
gram	-11.3647
oca	-11.3647
▁eagles	-11.3647
▁misses	-11.3648
▁grades	-11.3652
▁limits	-11.3653
▁sho	-11.366
kins	-11.3662
▁counted	-11.367
iva	-11.3694
▁ironic	-11.3698
not	-11.3698
▁arts	-11.3709
▁whitey	-11.3711
▁dancers	-11.3722
▁cuba	-11.3729
▁reg	-11.3755
▁pant	-11.3755
▁homer	-11.3764
▁neuro	-11.3766
▁naive	-11.377
▁coaching	-11.377
▁psych	-11.3775
▁cone	-11.3776
nner	-11.3777
born	-11.3779
▁pic	-11.3783
▁trucks	-11.3784
woman	-11.379
▁pipes	-11.3794
foot	-11.3795
▁bunk	-11.3795
▁applaud	-11.3795
▁disgust	-11.3796
cake	-11.3798
sick	-11.3799
oli	-11.3799
▁attract	-11.3799
▁addict	-11.38
▁profession	-11.3802
▁warp	-11.3802
▁haunt	-11.3803
▁crook	-11.3804
▁prior	-11.3813
▁cups	-11.3815
▁numb	-11.3816
▁addition	-11.3826
▁movin	-11.3828
▁scholar	-11.383
▁andromeda	-11.383
▁barcelona	-11.383
▁bollocks	-11.383
▁buffalo	-11.383
▁butterflies	-11.383
▁calendar	-11.383
▁cavendish	-11.383
▁chechnya	-11.383
▁convincing	-11.383
▁crucial	-11.383
▁dalgleish	-11.383
▁decepticons	-11.383
▁defensive	-11.383
▁definition	-11.383
▁depression	-11.383
▁despereaux	-11.383
▁dolittle	-11.383
▁estimate	-11.383
▁falcon	-11.383
▁felicia	-11.383
▁forensic	-11.383
▁fundamental	-11.383
▁garrison	-11.383
▁granddaughter	-11.383
▁harvest	-11.383
▁harvey	-11.383
▁intensifie	-11.383
▁jarvis	-11.383
▁laboratory	-11.383
▁luxury	-11.383
▁malekith	-11.383
▁megasaki	-11.383
▁merchant	-11.383
▁monterey	-11.383
▁mulgarath	-11.383
▁murmansk	-11.383
▁nelson	-11.383
▁noodle	-11.383
▁norris	-11.383
▁occupied	-11.383
▁offensive	-11.383
▁ounce	-11.383
▁pennsylvania	-11.383
▁salameh	-11.383
▁satisfaction	-11.383
▁sausage	-11.383
▁scarecrow	-11.383
▁shelf	-11.383
▁significant	-11.383
▁snickering	-11.383
▁theodore	-11.383
▁unicron	-11.383
▁vitamin	-11.383
▁warfare	-11.383
▁bulb	-11.383
▁clinking	-11.383
▁dawg	-11.383
▁elrond	-11.383
▁kgb	-11.383
▁predator	-11.383
▁resign	-11.383
▁survey	-11.383
▁terminal	-11.383
▁tranquil	-11.383
▁website	-11.383
▁wheezing	-11.383
▁eriksson	-11.383
▁finland	-11.383
▁klaus	-11.383
▁windigo	-11.383
▁causing	-11.383
▁jib	-11.383
▁panicked	-11.383
▁elena	-11.383
▁mystic	-11.383
▁insight	-11.383
▁loneliness	-11.383
▁vouch	-11.383
▁sincerely	-11.383
▁disrespect	-11.3831
▁speer	-11.3831
▁insert	-11.3831
▁russo	-11.3831
▁whitney	-11.3831
▁opponent	-11.3831
▁clinic	-11.3831
▁ilsa	-11.3831
▁registration	-11.3831
▁sloppy	-11.3831
▁metallic	-11.3831
▁expelled	-11.3831
▁reference	-11.3831
▁dagger	-11.3831
▁pratt	-11.3831
▁solomon	-11.3831
▁hobbit	-11.3831
▁psst	-11.3831
▁fortress	-11.3831
▁erotic	-11.3831
▁uplink	-11.3831
▁laptop	-11.3831
▁unconscious	-11.3831
▁nino	-11.3831
▁ginny	-11.3832
▁aircraft	-11.3832
▁solar	-11.3832
▁transferred	-11.3832
▁gown	-11.3832
▁hissing	-11.3832
▁obsession	-11.3832
▁spinning	-11.3832
▁barrier	-11.3832
▁notebook	-11.3832
▁lump	-11.3832
▁horseshit	-11.3832
▁psychotic	-11.3832
▁containment	-11.3832
▁theft	-11.3833
▁wildfire	-11.3833
▁shortcut	-11.3833
▁dripping	-11.3833
▁chopped	-11.3833
▁garci	-11.3833
▁scam	-11.3833
▁crypt	-11.3834
▁donation	-11.3834
▁vase	-11.3834
▁livin	-11.3834
▁marina	-11.3834
▁cartman	-11.3835
▁transportation	-11.3835
▁snot	-11.3835
▁recommendation	-11.3835
▁hound	-11.3835
▁popping	-11.3837
▁gladys	-11.3837
▁jennie	-11.3838
▁barrel	-11.3838
▁maya	-11.3838
▁mason	-11.3838
▁panel	-11.3839
▁mule	-11.384
▁grandson	-11.384
▁slit	-11.3841
▁copper	-11.3841
▁oneders	-11.3841
▁brianna	-11.3843
▁selected	-11.3843
▁lifestyle	-11.3845
▁gunner	-11.3847
▁buttons	-11.3847
▁household	-11.3849
▁sittin	-11.3849
▁fortunately	-11.385
▁doom	-11.385
▁thumping	-11.3851
▁controlled	-11.3852
▁traces	-11.3852
▁losses	-11.3853
legg	-11.3853
▁mayday	-11.3854
▁detected	-11.3855
▁recovery	-11.3855
▁mona	-11.3856
▁tailor	-11.3858
▁hebt	-11.3858
▁israeli	-11.3859
▁bam	-11.3859
▁everyday	-11.386
▁cove	-11.3861
▁indicate	-11.3863
▁accomplished	-11.3864
▁arrives	-11.3867
▁crashes	-11.3871
▁squawks	-11.3876
▁summoned	-11.3876
▁anal	-11.3877
▁sixth	-11.3877
▁drone	-11.3877
▁that	-11.3879
▁originally	-11.3883
▁spooner	-11.3883
▁drawn	-11.3884
▁louise	-11.3885
▁mouthing	-11.3889
▁hornet	-11.3889
▁taller	-11.3891
▁junkie	-11.3892
▁producer	-11.3899
▁tossed	-11.3899
▁relations	-11.3901
▁jealousy	-11.3904
▁issued	-11.3914
▁kup	-11.3919
▁produced	-11.3928
▁goblins	-11.3928
▁bailed	-11.3932
▁complaining	-11.3933
▁youngest	-11.3941
▁joker	-11.3963
▁complaints	-11.3968
▁amp	-11.3976
▁gall	-11.3976
▁earrings	-11.3979
▁dolphins	-11.3992
▁codes	-11.3998
▁refugees	-11.4006
▁concerns	-11.4007
▁scars	-11.4007
▁breaths	-11.4008
▁expenses	-11.4018
▁thoughtful	-11.4018
▁planted	-11.4018
▁blog	-11.4023
▁chant	-11.4023
▁marching	-11.4025
▁via	-11.4027
▁insects	-11.4031
▁directions	-11.4032
▁layer	-11.4051
▁doubts	-11.4054
▁charts	-11.4054
air	-11.4068
▁oneill	-11.4072
▁nun	-11.4073
▁forms	-11.4074
▁appreciated	-11.4076
thing	-11.4084
▁zee	-11.4087
▁birdie	-11.409
▁clowns	-11.4094
▁connors	-11.4096
say	-11.4104
ould	-11.4109
▁paci	-11.4122
mir	-11.413
lum	-11.4132
▁pals	-11.4143
▁swi	-11.4145
dent	-11.4146
▁methods	-11.4148
▁heroic	-11.415
▁retrieve	-11.4155
▁disappears	-11.4164
▁diploma	-11.4165
▁evans	-11.4175
▁guarded	-11.4175
▁clo	-11.4187
▁thumbs	-11.4188
ula	-11.419
▁more	-11.4196
▁destroying	-11.4196
▁mace	-11.42
▁lei	-11.4201
▁deeds	-11.4202
atomic	-11.4222
▁thorn	-11.4227
▁shithead	-11.4235
▁comedy	-11.4237
▁pose	-11.4244
▁instinct	-11.4245
▁insect	-11.4246
▁resume	-11.4247
▁tease	-11.4256
hop	-11.4256
▁zou	-11.4263
▁why	-11.4272
▁marsh	-11.4277
leg	-11.4286
▁petes	-11.4303
▁barb	-11.4304
▁turnin	-11.4313
tting	-11.4314
▁scenes	-11.4323
tag	-11.4328
▁zap	-11.4364
▁region	-11.4365
▁dori	-11.4373
▁bor	-11.4375
▁tur	-11.4387
person	-11.4391
▁gala	-11.4398
▁beautifully	-11.4402
style	-11.4412
ular	-11.4422
▁depart	-11.4424
▁snatch	-11.4427
▁explore	-11.4429
▁regrets	-11.4431
▁relieve	-11.4435
▁locate	-11.4435
hill	-11.4437
▁compliments	-11.444
▁thirst	-11.4441
▁stamp	-11.4443
▁attic	-11.4448
▁asia	-11.4448
▁sensation	-11.4452
▁hanna	-11.4453
▁resent	-11.4454
▁admiral	-11.4455
▁afghanistan	-11.4455
▁aladar	-11.4455
▁behaviour	-11.4455
▁bofur	-11.4455
▁carnaval	-11.4455
▁catherine	-11.4455
▁clumsy	-11.4455
▁comanche	-11.4455
▁contempt	-11.4455
▁deceased	-11.4455
▁donovan	-11.4455
▁escaping	-11.4455
▁extension	-11.4455
▁faculty	-11.4455
▁frequency	-11.4455
▁gertrude	-11.4455
▁gretel	-11.4455
▁guapo	-11.4455
▁hamilton	-11.4455
▁identification	-11.4455
▁imagining	-11.4455
▁impulse	-11.4455
▁industrial	-11.4455
▁invincible	-11.4455
▁jewellery	-11.4455
▁judging	-11.4455
▁jurisdiction	-11.4455
▁lemarc	-11.4455
▁length	-11.4455
▁lloyd	-11.4455
▁macleod	-11.4455
▁merchandise	-11.4455
▁mikael	-11.4455
▁nikki	-11.4455
▁obligation	-11.4455
▁perrkins	-11.4455
▁piranha	-11.4455
▁prague	-11.4455
▁precaution	-11.4455
▁quincy	-11.4455
▁robocop	-11.4455
▁scissors	-11.4455
▁shakespeare	-11.4455
▁sidewalk	-11.4455
▁slytherin	-11.4455
▁snails	-11.4455
▁soprano	-11.4455
▁splendid	-11.4455
▁stadium	-11.4455
▁supermarket	-11.4455
▁wheelchair	-11.4455
▁womb	-11.4455
▁xandar	-11.4455
▁decree	-11.4455
▁elected	-11.4455
▁honeycutt	-11.4455
▁moulin	-11.4455
▁quarrel	-11.4455
▁renato	-11.4455
▁snitch	-11.4455
▁southwest	-11.4455
▁storage	-11.4455
▁suffocat	-11.4455
▁wynne	-11.4455
▁courtesan	-11.4455
▁filter	-11.4455
▁highpitch	-11.4455
▁subtle	-11.4455
▁unveil	-11.4455
▁ursa	-11.4455
▁cramp	-11.4455
▁importance	-11.4455
▁sperm	-11.4455
▁adios	-11.4455
▁crisp	-11.4455
pulsive	-11.4455
▁multi	-11.4455
shoulda	-11.4455
▁carbon	-11.4456
▁chekov	-11.4456
▁applied	-11.4456
▁demo	-11.4456
▁database	-11.4456
▁griev	-11.4456
▁economic	-11.4456
▁everdene	-11.4456
▁thane	-11.4456
▁oscar	-11.4456
▁patterson	-11.4456
▁carrot	-11.4456
▁arsehole	-11.4456
▁heap	-11.4456
▁alaska	-11.4456
▁elves	-11.4456
▁oxford	-11.4456
▁keith	-11.4456
▁rodney	-11.4456
▁booboo	-11.4456
▁swarm	-11.4456
▁wails	-11.4456
▁automatically	-11.4456
▁cheque	-11.4456
▁asap	-11.4456
▁euro	-11.4456
▁exotic	-11.4456
▁patron	-11.4456
▁rival	-11.4456
▁clarity	-11.4456
▁dunno	-11.4456
▁hesitate	-11.4456
▁spiritual	-11.4457
▁leslie	-11.4457
▁pinned	-11.4457
▁barrio	-11.4457
▁compass	-11.4457
▁troll	-11.4457
▁krall	-11.4457
▁upgrade	-11.4457
▁soho	-11.4457
▁biology	-11.4457
▁lucius	-11.4457
▁overall	-11.4457
▁racket	-11.4457
▁regina	-11.4457
▁boris	-11.4457
▁nonny	-11.4457
▁wills	-11.4457
▁vermin	-11.4457
▁leadership	-11.4458
▁gordon	-11.4458
▁scavenger	-11.4458
▁compassion	-11.4458
▁determine	-11.4458
▁steep	-11.4458
▁reflection	-11.4458
▁polar	-11.4458
▁ginger	-11.4458
▁mmmmm	-11.4459
▁obliged	-11.4459
▁stitches	-11.4459
▁regardless	-11.4459
▁blunt	-11.4459
▁crude	-11.4459
▁attendant	-11.4459
▁alfredo	-11.4459
▁chapel	-11.4459
▁dental	-11.446
▁freya	-11.446
▁anita	-11.446
▁sunlight	-11.446
▁tomatoes	-11.4461
▁pun	-11.4461
▁ballistic	-11.4461
▁rebuild	-11.4461
▁jock	-11.4461
▁hobby	-11.4462
▁organic	-11.4462
▁teamwork	-11.4462
▁worldwide	-11.4462
▁bikers	-11.4463
▁deliberately	-11.4463
▁pepe	-11.4463
▁rio	-11.4464
▁continental	-11.4464
▁dinky	-11.4465
▁flock	-11.4465
▁geek	-11.4465
▁vickie	-11.4465
▁expired	-11.4467
wyn	-11.4469
▁leia	-11.4469
▁vanger	-11.447
▁farther	-11.447
▁grain	-11.4471
▁signals	-11.4471
▁teii	-11.4471
▁crunching	-11.4473
hearted	-11.4475
▁instantly	-11.4475
▁formic	-11.4478
▁convicted	-11.4478
▁aww	-11.4478
▁restored	-11.4479
▁clearance	-11.4479
▁armies	-11.4479
▁conclude	-11.448
▁terri	-11.448
▁fuckedup	-11.4481
▁speedman	-11.4482
▁freshman	-11.4482
assic	-11.4484
▁iso	-11.4486
▁shutting	-11.4486
rand	-11.4487
▁objection	-11.4489
▁conquered	-11.4489
hour	-11.4496
yard	-11.4498
▁jackass	-11.4498
▁delegates	-11.4504
aca	-11.4504
▁coal	-11.4505
▁sung	-11.4505
▁strongest	-11.4506
ole	-11.4506
▁seduce	-11.4508
sigu	-11.4509
▁sentenced	-11.451
▁paulie	-11.4513
▁nooo	-11.4516
▁beta	-11.4521
▁dusty	-11.4525
▁helena	-11.4527
▁delightful	-11.4527
▁taser	-11.4529
▁sailing	-11.4529
▁aerobics	-11.4531
▁rhodes	-11.4531
▁flowing	-11.4536
▁views	-11.4537
▁temp	-11.4538
▁healing	-11.4539
▁ker	-11.454
▁marker	-11.4543
▁snorts	-11.4544
▁musketeers	-11.4545
▁chambers	-11.4547
▁swords	-11.455
▁meer	-11.4552
▁pickle	-11.4552
▁ancestors	-11.4558
▁taj	-11.4569
▁rollin	-11.457
hunt	-11.4572
ami	-11.4574
▁responding	-11.4576
▁legions	-11.4577
▁ww	-11.4578
▁ammo	-11.4582
▁climbed	-11.4584
▁dunk	-11.4587
▁pitching	-11.4588
▁pier	-11.4588
scal	-11.4602
▁pio	-11.4606
▁poisoning	-11.4611
▁hast	-11.4622
▁switched	-11.4626
burn	-11.4626
case	-11.4627
▁diapers	-11.4627
▁disappearing	-11.4628
▁stocking	-11.4628
▁ruled	-11.4629
▁hunted	-11.4631
ckle	-11.4632
▁disc	-11.4635
ppy	-11.4637
rich	-11.4643
▁zoom	-11.4648
▁cuffs	-11.4655
▁frogs	-11.4656
▁conn	-11.4663
▁tracked	-11.4663
▁coaster	-11.4667
▁chok	-11.467
▁hoot	-11.4672
▁tigers	-11.4683
▁slower	-11.4686
▁bou	-11.4689
▁yule	-11.4694
oud	-11.4694
▁tab	-11.4698
▁spur	-11.4707
▁mutants	-11.4711
▁sticky	-11.4713
▁herod	-11.4715
▁bothers	-11.4718
▁knots	-11.4721
eur	-11.473
▁marines	-11.4753
▁inmates	-11.4753
▁beau	-11.4772
▁recorder	-11.4774
▁importantly	-11.478
▁orderly	-11.4782
cile	-11.4783
▁bats	-11.4787
▁grub	-11.4792
nz	-11.4799
▁kar	-11.4802
▁iced	-11.4806
▁villager	-11.4807
▁cara	-11.4818
▁tested	-11.4821
▁pine	-11.483
▁costumes	-11.4837
▁vel	-11.4859
▁rein	-11.4875
▁prob	-11.4877
▁requests	-11.4877
▁trumpet	-11.4881
▁mit	-11.4882
eren	-11.4883
▁fare	-11.4889
▁frog	-11.4892
▁expense	-11.4913
▁element	-11.4914
▁metro	-11.4915
▁cuff	-11.4919
▁towers	-11.4921
with	-11.4931
▁medals	-11.4935
aba	-11.4946
▁talents	-11.4947
▁cardinals	-11.495
mus	-11.4952
▁boog	-11.4957
rock	-11.496
▁products	-11.4963
ctor	-11.4963
▁fooling	-11.4964
▁nurs	-11.4976
▁traveler	-11.4979
▁hom	-11.498
▁scares	-11.4982
odi	-11.4985
▁valentines	-11.4992
▁dent	-11.5003
▁flipp	-11.5005
▁curl	-11.5037
▁tack	-11.5044
▁publish	-11.5058
▁bind	-11.506
▁ons	-11.5065
kie	-11.5067
illa	-11.5073
▁billions	-11.5073
fish	-11.5074
▁dozens	-11.5078
▁satellites	-11.5078
star	-11.5079
▁chia	-11.5083
piece	-11.5085
▁convert	-11.5086
worm	-11.5087
minute	-11.5089
▁detect	-11.5089
▁infect	-11.509
▁stash	-11.5096
date	-11.5099
▁toi	-11.5102
▁consume	-11.5104
▁brow	-11.5107
▁greed	-11.5107
▁colombia	-11.5109
▁anonymous	-11.511
▁surprising	-11.511
▁strict	-11.5111
▁precise	-11.5111
otic	-11.5112
take	-11.5115
▁tomato	-11.5117
▁coordinat	-11.5117
▁delusion	-11.5117
▁intent	-11.512
▁blades	-11.5121
▁confidential	-11.5121
▁granddad	-11.5121
▁lalala	-11.5122
responsibilities	-11.5122
▁advisor	-11.5122
▁alleluia	-11.5122
▁ammunition	-11.5122
▁antidote	-11.5122
▁babbling	-11.5122
▁baltimore	-11.5122
▁barbossa	-11.5122
▁boitano	-11.5122
▁brazil	-11.5122
▁cannibal	-11.5122
▁celebrities	-11.5122
▁cerebr	-11.5122
▁certificate	-11.5122
▁commodore	-11.5122
▁condolences	-11.5122
▁contagious	-11.5122
▁corridor	-11.5122
▁covington	-11.5122
▁equipped	-11.5122
▁esteem	-11.5122
▁exaggerat	-11.5122
▁exegol	-11.5122
▁heavyweight	-11.5122
▁intimacy	-11.5122
▁ipkiss	-11.5122
▁jabberwocky	-11.5122
▁jojo	-11.5122
▁kamiyah	-11.5122
▁lindsay	-11.5122
▁literature	-11.5122
▁malfoy	-11.5122
▁mardukas	-11.5122
▁merino	-11.5122
▁meserve	-11.5122
▁neutral	-11.5122
▁occupation	-11.5122
▁pedestrian	-11.5122
▁piedmont	-11.5122
▁prefect	-11.5122
▁preserve	-11.5122
▁pretzel	-11.5122
▁prophecy	-11.5122
▁puddle	-11.5122
▁radagast	-11.5122
▁rehearse	-11.5122
▁renault	-11.5122
▁sabrina	-11.5122
▁sculpture	-11.5122
▁smedt	-11.5122
▁souvenir	-11.5122
▁splutters	-11.5122
▁squire	-11.5122
▁switzerland	-11.5122
▁thread	-11.5122
▁traynor	-11.5122
▁unicorn	-11.5122
▁xerxes	-11.5122
▁aether	-11.5122
▁aloha	-11.5122
▁artificial	-11.5122
▁cancan	-11.5122
▁dishonor	-11.5122
▁fudge	-11.5122
▁garlic	-11.5122
▁grandparents	-11.5122
▁grissom	-11.5122
▁harford	-11.5122
▁hooray	-11.5122
▁imbecile	-11.5122
▁jinx	-11.5122
▁langley	-11.5122
▁lazlo	-11.5122
▁mosely	-11.5122
▁puerto	-11.5122
▁strasser	-11.5122
▁venom	-11.5122
▁damien	-11.5122
▁irina	-11.5122
▁nevertheless	-11.5122
▁ponies	-11.5122
▁retain	-11.5122
▁seventeen	-11.5122
▁warehouse	-11.5122
▁yield	-11.5122
▁videotape	-11.5122
▁deacon	-11.5122
▁imperial	-11.5122
▁seattle	-11.5122
▁knives	-11.5122
▁enchanted	-11.5122
ummel	-11.5122
▁lamia	-11.5122
▁oui	-11.5122
▁thanos	-11.5122
▁begged	-11.5122
▁francs	-11.5122
▁prosper	-11.5122
▁provoke	-11.5122
▁chronic	-11.5122
▁bundle	-11.5122
▁nobel	-11.5122
▁chadwick	-11.5122
▁hector	-11.5122
▁lucille	-11.5122
▁transplant	-11.5122
▁verris	-11.5122
▁wacht	-11.5122
▁apologise	-11.5122
▁lemonade	-11.5122
encia	-11.5122
▁investigating	-11.5122
▁zeggen	-11.5122
▁squarepants	-11.5122
▁houten	-11.5122
▁bonnet	-11.5122
▁association	-11.5122
▁mushroom	-11.5123
▁essay	-11.5123
▁dinoco	-11.5123
▁tsk	-11.5123
▁douche	-11.5123
▁wesley	-11.5123
▁cujo	-11.5123
▁housing	-11.5123
▁tales	-11.5123
▁enforcement	-11.5123
▁roach	-11.5123
▁kev	-11.5123
▁nonono	-11.5123
▁cooperate	-11.5123
▁mailbox	-11.5123
▁renew	-11.5123
▁handicap	-11.5123
▁chiming	-11.5123
▁beatles	-11.5123
ctical	-11.5124
▁cyp	-11.5124
▁piggy	-11.5124
▁gaze	-11.5124
▁minions	-11.5124
▁stanford	-11.5124
▁paddling	-11.5124
▁supervisor	-11.5124
▁spitting	-11.5124
▁courtney	-11.5124
▁fache	-11.5124
▁consent	-11.5125
▁intel	-11.5125
▁passionate	-11.5125
▁ripley	-11.5125
▁chemistry	-11.5126
▁retro	-11.5126
▁google	-11.5126
▁peak	-11.5126
▁wong	-11.5126
▁allah	-11.5126
▁jaysis	-11.5127
▁slug	-11.5127
▁moonlight	-11.5127
▁ronnie	-11.5127
▁hailey	-11.5127
▁unreal	-11.5128
▁beak	-11.5128
▁twat	-11.5128
▁alcoholic	-11.5129
▁conviction	-11.5129
▁inhaler	-11.513
▁yank	-11.513
▁lust	-11.513
▁napkin	-11.513
▁derry	-11.513
▁assigned	-11.5131
▁admitted	-11.5131
▁bravery	-11.5132
▁perry	-11.5133
▁abortion	-11.5133
▁divided	-11.5134
▁firewood	-11.5135
▁scattered	-11.5135
▁dough	-11.5135
▁lava	-11.5135
▁dose	-11.5135
▁humiliated	-11.5135
▁devastating	-11.5136
▁creeps	-11.5136
urance	-11.5136
lus	-11.5136
▁amazed	-11.5137
▁footage	-11.5137
▁slater	-11.5138
▁programmed	-11.5138
▁consideration	-11.5138
▁iraqi	-11.5138
▁shipping	-11.5139
▁barnes	-11.5139
▁runaway	-11.514
▁breakdown	-11.514
▁wyler	-11.5141
▁payback	-11.5144
▁continuing	-11.5145
▁portal	-11.5147
▁verse	-11.5148
▁ciao	-11.5149
▁sauna	-11.5149
▁lass	-11.5149
▁bale	-11.5149
▁strings	-11.5149
▁suitable	-11.515
▁shushing	-11.515
▁hospitality	-11.5151
▁ramp	-11.5154
▁twister	-11.5158
▁antony	-11.5159
▁probe	-11.5159
▁quad	-11.5161
▁trooper	-11.5162
▁entertaining	-11.5165
▁ranch	-11.5165
▁sang	-11.5166
▁disarm	-11.5166
▁nigel	-11.5168
▁tortured	-11.5169
▁salon	-11.5173
▁howl	-11.5174
▁historical	-11.5175
mper	-11.5177
▁spoiled	-11.518
▁grape	-11.518
▁mustard	-11.5182
▁privileged	-11.5183
▁vip	-11.5187
coat	-11.5187
▁princesses	-11.5188
▁leonidas	-11.5188
▁stinky	-11.519
▁teaches	-11.5192
▁connections	-11.5194
▁bij	-11.5195
▁showtime	-11.5197
▁your	-11.5199
▁munchkins	-11.5203
▁regarding	-11.5204
link	-11.5205
▁haar	-11.5206
▁kamal	-11.5206
▁helicopters	-11.5207
▁handful	-11.5212
▁interrupted	-11.5215
ule	-11.5216
▁cling	-11.5217
▁mainly	-11.5218
▁traditional	-11.5223
▁tempt	-11.5224
▁dew	-11.5231
▁sneaking	-11.5234
▁artie	-11.5234
▁farting	-11.5239
▁freaky	-11.5239
▁secured	-11.5245
key	-11.5254
net	-11.5259
▁oer	-11.5266
ization	-11.5268
▁friggin	-11.5269
ural	-11.5269
▁receiver	-11.5271
▁shocking	-11.5271
▁spying	-11.5276
▁tighter	-11.5277
▁meows	-11.5277
▁snore	-11.528
▁whit	-11.5282
▁ford	-11.5286
▁oy	-11.5289
▁climbing	-11.5296
state	-11.5303
▁tearing	-11.5315
▁slim	-11.5315
▁ally	-11.5316
▁rented	-11.5316
▁martini	-11.5318
▁warmer	-11.5319
oly	-11.5325
▁pitt	-11.533
▁smiley	-11.5332
▁una	-11.5336
och	-11.5338
▁unite	-11.5356
▁pra	-11.5359
▁punched	-11.5359
▁lil	-11.5365
ett	-11.5368
▁stoned	-11.537
▁uni	-11.537
▁bin	-11.5385
▁secretly	-11.54
▁oliver	-11.5407
▁pissing	-11.5408
▁wal	-11.5419
▁cleaner	-11.5419
▁cutie	-11.5448
▁accepting	-11.5455
▁astronauts	-11.5456
▁grenades	-11.5456
▁fig	-11.546
ual	-11.5463
▁lure	-11.5467
▁employees	-11.5471
range	-11.5478
zen	-11.5487
▁cc	-11.5493
▁differently	-11.5522
▁seeking	-11.553
▁lesbians	-11.5546
▁banker	-11.5546
▁bikes	-11.5547
▁mim	-11.5551
▁aged	-11.5564
▁sac	-11.5566
eel	-11.5574
▁marv	-11.5577
track	-11.5583
▁catholics	-11.5591
▁sails	-11.5594
rent	-11.5595
▁shu	-11.5596
▁utter	-11.5597
▁respected	-11.5613
▁convers	-11.5624
▁emotion	-11.5625
▁athlete	-11.5626
▁peanut	-11.5629
▁refugee	-11.5631
trained	-11.5652
▁seated	-11.5655
▁deb	-11.5672
lets	-11.5695
▁perk	-11.5696
▁receiv	-11.5706
▁relaxed	-11.5706
iness	-11.5727
tory	-11.5731
▁represents	-11.5736
ello	-11.5744
▁morons	-11.5744
▁tit	-11.5763
▁hollow	-11.5766
▁sup	-11.5766
▁disappoint	-11.577
▁frighten	-11.5776
jack	-11.5784
▁wrists	-11.579
▁ec	-11.5793
▁echo	-11.5797
▁gulp	-11.58
▁steer	-11.5801
▁clam	-11.5801
american	-11.5802
▁establish	-11.5804
▁install	-11.5808
▁skate	-11.581
▁excite	-11.5815
▁yar	-11.5818
▁stain	-11.582
▁wealth	-11.5821
▁hysterical	-11.5824
▁oswald	-11.583
▁sketch	-11.5831
▁continent	-11.5832
▁gert	-11.5834
▁transit	-11.5835
terior	-11.5835
▁caution	-11.5835
▁architect	-11.5836
▁vocal	-11.5836
▁pecker	-11.5836
▁info	-11.5836
▁canvas	-11.5836
▁grandchildren	-11.5836
▁parliament	-11.5836
▁accusation	-11.5836
▁administration	-11.5836
▁ambassador	-11.5836
▁apocalypse	-11.5836
▁apologizing	-11.5836
▁athenian	-11.5836
▁azamat	-11.5836
▁becca	-11.5836
▁cynthia	-11.5836
▁dimension	-11.5836
▁disciples	-11.5836
▁disposal	-11.5836
▁dissolve	-11.5836
▁emerald	-11.5836
▁evinrude	-11.5836
▁excellence	-11.5836
▁exhaling	-11.5836
▁extinguish	-11.5836
▁generaal	-11.5836
▁gryffindor	-11.5836
▁housekeeping	-11.5836
▁hurrah	-11.5836
▁ignition	-11.5836
▁inconvenience	-11.5836
▁jukebox	-11.5836
▁kekambas	-11.5836
▁kennard	-11.5836
▁kowalskl	-11.5836
▁lyrics	-11.5836
▁marissa	-11.5836
▁megatron	-11.5836
▁merrick	-11.5836
▁minnesota	-11.5836
▁montmirail	-11.5836
▁murray	-11.5836
▁nebula	-11.5836
▁offlimits	-11.5836
▁orleans	-11.5836
▁override	-11.5836
▁peculiar	-11.5836
▁pittsburgh	-11.5836
▁profion	-11.5836
▁rhoda	-11.5836
▁rubbish	-11.5836
▁safranek	-11.5836
▁savannah	-11.5836
▁schultz	-11.5836
▁shampoo	-11.5836
▁shattering	-11.5836
▁shrine	-11.5836
▁smear	-11.5836
▁somewhat	-11.5836
▁squirt	-11.5836
▁supreme	-11.5836
▁surviving	-11.5836
▁tenenbaum	-11.5836
▁ungrateful	-11.5836
▁unpleasant	-11.5836
▁valiente	-11.5836
▁vengeance	-11.5836
▁veronika	-11.5836
▁wendell	-11.5836
▁wrath	-11.5836
▁akator	-11.5836
▁apprehend	-11.5836
▁blackbeard	-11.5836
▁federation	-11.5836
▁fellcla	-11.5836
▁flaming	-11.5836
▁gulf	-11.5836
▁norway	-11.5836
▁oogie	-11.5836
▁prissy	-11.5836
▁sermon	-11.5836
▁sierra	-11.5836
▁sprout	-11.5836
▁unpack	-11.5836
▁unstable	-11.5836
▁brutus	-11.5836
▁exploit	-11.5836
▁kijk	-11.5836
▁leash	-11.5836
▁noisy	-11.5836
▁promising	-11.5836
▁worid	-11.5836
▁bleats	-11.5836
▁cadet	-11.5836
▁dyke	-11.5836
▁happies	-11.5836
▁bueno	-11.5836
▁bugged	-11.5836
▁demonstrate	-11.5836
▁injuries	-11.5836
▁duct	-11.5836
▁intellect	-11.5836
▁yikes	-11.5836
▁hippie	-11.5836
▁smyth	-11.5836
▁weiss	-11.5836
▁whooshing	-11.5836
▁emerson	-11.5836
▁willis	-11.5836
▁canal	-11.5836
▁doughnut	-11.5836
▁piace	-11.5836
▁scoot	-11.5837
▁twinkie	-11.5837
▁automobile	-11.5837
▁organization	-11.5837
▁intercept	-11.5837
▁strawberry	-11.5837
▁rabbits	-11.5837
▁convertible	-11.5837
▁lethal	-11.5837
▁playtone	-11.5837
▁defence	-11.5837
▁babysitting	-11.5837
▁pluck	-11.5837
▁beacon	-11.5837
▁swap	-11.5837
▁yummy	-11.5837
▁cuddle	-11.5837
▁institute	-11.5837
▁outrageous	-11.5837
▁referring	-11.5837
▁anika	-11.5837
▁ultra	-11.5837
▁creator	-11.5837
▁channing	-11.5837
▁turbo	-11.5837
▁bleep	-11.5837
▁forbidden	-11.5837
▁console	-11.5837
▁yuck	-11.5837
▁gorgo	-11.5837
▁hugging	-11.5837
▁gregory	-11.5837
▁clich	-11.5837
▁acres	-11.5838
▁labour	-11.5838
▁segar	-11.5838
▁robbing	-11.5838
▁communist	-11.5838
▁bronx	-11.5838
▁grasp	-11.5838
▁lever	-11.5838
▁bracelet	-11.5838
▁moeder	-11.5838
▁diversion	-11.5838
▁banner	-11.5838
▁expertise	-11.5838
▁documentary	-11.5838
▁oxley	-11.5838
▁alibi	-11.5839
door	-11.5839
▁boise	-11.5839
▁yorktown	-11.584
▁franchise	-11.584
▁lemon	-11.584
▁zeta	-11.5841
▁poppa	-11.5841
▁marita	-11.5842
▁stuntman	-11.5842
▁slightest	-11.5842
▁confirmation	-11.5842
▁petty	-11.5842
▁rally	-11.5842
▁lockdown	-11.5842
▁stack	-11.5843
▁cabinet	-11.5844
▁nerd	-11.5844
▁mook	-11.5844
▁bobbi	-11.5845
▁batter	-11.5845
▁contribution	-11.5845
▁laughlin	-11.5845
▁wireless	-11.5845
▁delta	-11.5848
▁vent	-11.5848
▁perish	-11.5848
▁demonic	-11.5849
▁coos	-11.5849
▁margot	-11.5849
▁hardware	-11.5849
▁motherinlaw	-11.585
▁mailman	-11.5851
▁hub	-11.5851
▁dumbass	-11.5851
ittie	-11.5852
▁woof	-11.5852
▁greedy	-11.5852
▁newborn	-11.5853
▁youyou	-11.5853
▁australian	-11.5853
wise	-11.5854
▁acceptable	-11.5855
▁inspired	-11.5855
▁hurst	-11.5856
▁brass	-11.5857
playing	-11.5857
▁maxine	-11.5857
▁pac	-11.5858
▁bleedin	-11.5861
▁tray	-11.5862
▁kent	-11.5864
▁zit	-11.5864
▁deci	-11.5864
▁achieved	-11.5866
▁partial	-11.5867
▁bloodline	-11.5867
▁blend	-11.5868
▁tramp	-11.5868
▁controlling	-11.5868
▁specialty	-11.5871
▁respectable	-11.5871
▁nit	-11.5872
▁operational	-11.5875
▁pajamas	-11.5876
▁lowest	-11.5876
▁campers	-11.5879
▁ridge	-11.588
▁specialist	-11.588
▁colin	-11.5881
▁freezer	-11.5882
▁flagg	-11.5882
▁frickin	-11.5884
▁ink	-11.5885
▁reply	-11.5885
▁sul	-11.5887
▁hamburger	-11.5888
▁finishing	-11.5889
iberia	-11.5889
▁nov	-11.589
▁slaughtered	-11.589
▁tighten	-11.589
▁admired	-11.589
▁nss	-11.5892
▁romeo	-11.5893
▁cooper	-11.5894
▁larger	-11.5895
▁hiring	-11.5895
▁vin	-11.5895
▁whacked	-11.5896
▁leven	-11.5898
▁papi	-11.5899
▁handling	-11.5901
▁commun	-11.5901
▁adventures	-11.5902
▁sailed	-11.5904
▁puttin	-11.5905
▁performed	-11.5907
▁donuts	-11.5908
▁vibrates	-11.5908
▁clone	-11.591
▁meek	-11.5911
▁wrinkle	-11.5911
▁blackout	-11.5911
▁mining	-11.5925
▁triggered	-11.5926
▁chester	-11.5928
▁pinky	-11.5932
▁shutter	-11.5932
▁reminder	-11.5932
▁sled	-11.5935
▁pitcher	-11.5935
▁politicians	-11.5939
▁alleg	-11.594
▁hitch	-11.594
▁confessed	-11.5942
▁spared	-11.5948
▁burp	-11.595
name	-11.5951
▁assassinate	-11.5953
▁voted	-11.5955
▁spine	-11.5968
▁sweeping	-11.597
▁stoner	-11.5975
etta	-11.598
love	-11.5994
▁dub	-11.5997
▁anthe	-11.5999
▁shifts	-11.6005
▁dove	-11.6006
teau	-11.6008
hoohoo	-11.6014
▁frag	-11.6017
▁vegetables	-11.6019
▁greetings	-11.6019
▁shhh	-11.6024
▁trou	-11.6028
▁outlaws	-11.6035
▁blamed	-11.6038
▁seeds	-11.6042
rry	-11.6049
▁mem	-11.6063
▁cel	-11.6064
talk	-11.6076
▁instincts	-11.6083
▁greatness	-11.6085
shit	-11.6086
turn	-11.6089
▁mur	-11.609
▁mitt	-11.6096
▁texting	-11.6098
▁snoops	-11.6099
▁launched	-11.61
▁sonic	-11.6102
▁dei	-11.6102
▁vows	-11.6111
bear	-11.6113
▁madly	-11.6114
▁baker	-11.6117
▁jd	-11.6123
▁repeating	-11.6125
▁fighters	-11.6128
▁weary	-11.6141
▁indulge	-11.6144
six	-11.6148
▁scramble	-11.6155
▁punching	-11.6158
kind	-11.6165
▁shelly	-11.6177
▁audit	-11.618
▁explosives	-11.618
▁colleagues	-11.6196
▁protocols	-11.6196
itation	-11.6198
▁aro	-11.6201
▁snowing	-11.6214
tric	-11.6225
▁mug	-11.6228
▁drinkin	-11.6241
▁scouts	-11.6261
▁peas	-11.627
ettes	-11.6271
aged	-11.6284
▁wes	-11.6292
▁mala	-11.6302
▁runt	-11.6304
▁brag	-11.6305
▁docks	-11.6316
iegel	-11.6333
▁ole	-11.634
fol	-11.6353
▁baba	-11.6358
▁clatter	-11.6362
▁destroyer	-11.6372
ddy	-11.6372
kell	-11.6383
▁idol	-11.6389
▁flows	-11.6394
▁outlaw	-11.6395
▁dolphin	-11.6397
▁diaper	-11.6398
▁giggle	-11.6401
▁bc	-11.641
▁ratio	-11.6422
▁ont	-11.6434
▁outfits	-11.6441
▁kays	-11.6444
▁cult	-11.6454
▁mute	-11.6455
▁zie	-11.6459
▁they	-11.6464
rag	-11.6466
olly	-11.6471
▁mint	-11.6474
▁liv	-11.6477
▁farts	-11.6478
horse	-11.6478
▁pest	-11.6483
▁dealers	-11.6489
▁explaining	-11.649
▁matthews	-11.649
▁classics	-11.6491
bri	-11.65
witz	-11.6502
▁seals	-11.6504
▁rehab	-11.6517
▁kil	-11.6524
▁crowded	-11.6528
▁alli	-11.6533
▁jewels	-11.6533
▁pea	-11.6537
▁sla	-11.6543
▁historic	-11.6545
most	-11.6548
ridge	-11.6564
▁convict	-11.657
▁flirt	-11.657
proof	-11.657
mobile	-11.6571
stream	-11.6571
yearold	-11.6572
▁arr	-11.6572
▁mog	-11.6573
open	-11.6577
▁compromise	-11.6585
▁violate	-11.6585
▁inspire	-11.6585
▁relate	-11.6585
▁dedicate	-11.6585
speed	-11.6586
▁organize	-11.6587
▁hijack	-11.6592
▁specialize	-11.6594
▁exclusive	-11.6595
▁margo	-11.6595
▁loo	-11.6595
▁contribut	-11.6596
▁extinct	-11.6602
▁leavin	-11.6603
▁kiddin	-11.6604
▁refresh	-11.6604
▁excess	-11.6604
▁hazard	-11.6605
▁elder	-11.6605
▁francis	-11.6605
▁melanch	-11.6606
▁vrouw	-11.6606
▁abducted	-11.6606
▁affirmative	-11.6606
▁alonzo	-11.6606
▁assembly	-11.6606
▁assumption	-11.6606
▁brantley	-11.6606
▁category	-11.6606
▁caviar	-11.6606
▁companies	-11.6606
▁decency	-11.6606
▁despair	-11.6606
▁discharge	-11.6606
▁dungatar	-11.6606
▁dunnage	-11.6606
▁economy	-11.6606
▁electromagnet	-11.6606
▁enhance	-11.6606
▁episode	-11.6606
▁fascist	-11.6606
▁forfeit	-11.6606
▁fracture	-11.6606
▁fuzzy	-11.6606
▁ghetto	-11.6606
▁greasy	-11.6606
▁grumpy	-11.6606
▁hybrid	-11.6606
▁invalid	-11.6606
▁jericho	-11.6606
▁judith	-11.6606
▁juggernaut	-11.6606
▁jupiter	-11.6606
▁kachow	-11.6606
▁kaspbrak	-11.6606
▁kemosabe	-11.6606
▁kentucky	-11.6606
▁lancelot	-11.6606
▁legitimate	-11.6606
▁marshmallow	-11.6606
▁marybeth	-11.6606
▁mckinley	-11.6606
▁medieval	-11.6606
▁melody	-11.6606
▁metropoli	-11.6606
▁mozart	-11.6606
▁numerous	-11.6606
▁oracle	-11.6606
▁pagoda	-11.6606
▁palpatine	-11.6606
▁paramedic	-11.6606
▁penniless	-11.6606
▁pentagon	-11.6606
▁peppermint	-11.6606
▁perspective	-11.6606
▁petroglyphs	-11.6606
▁physicist	-11.6606
▁precinct	-11.6606
▁premises	-11.6606
▁prevail	-11.6606
▁prosecutor	-11.6606
▁receipt	-11.6606
▁roosevelt	-11.6606
▁rykov	-11.6606
▁saruman	-11.6606
▁sobvechik	-11.6606
▁solitary	-11.6606
▁squat	-11.6606
▁steroids	-11.6606
▁swedish	-11.6606
▁swept	-11.6606
▁technician	-11.6606
▁terrence	-11.6606
▁tiffany	-11.6606
▁toxic	-11.6606
▁treason	-11.6606
▁twitter	-11.6606
▁tyrant	-11.6606
▁unacceptable	-11.6606
▁vacuum	-11.6606
▁various	-11.6606
▁vibrating	-11.6606
▁vogelmann	-11.6606
▁vulgar	-11.6606
▁whoaohoh	-11.6606
▁willard	-11.6606
▁arnold	-11.6606
▁athos	-11.6606
▁bessie	-11.6606
▁cabbage	-11.6606
▁entrust	-11.6606
▁gasoline	-11.6606
▁gravy	-11.6606
▁inhabit	-11.6606
▁jassie	-11.6606
▁jeopardiz	-11.6606
▁kilometers	-11.6606
▁porsche	-11.6606
▁rogue	-11.6606
▁valerie	-11.6606
▁blackmail	-11.6606
▁eject	-11.6606
▁jeffrey	-11.6606
▁ninth	-11.6606
▁ritter	-11.6606
▁xray	-11.6606
▁cupcakes	-11.6606
▁frown	-11.6606
▁eager	-11.6606
▁harmony	-11.6606
▁tutor	-11.6606
▁bethany	-11.6606
▁dahye	-11.6606
▁merit	-11.6606
▁waverly	-11.6606
▁domino	-11.6606
▁entity	-11.6606
▁yacht	-11.6606
▁millionaire	-11.6606
▁miniature	-11.6606
▁whooshes	-11.6606
▁monarch	-11.6606
▁whining	-11.6606
▁tatiana	-11.6606
▁madrid	-11.6606
▁menace	-11.6606
▁assessment	-11.6606
▁sciama	-11.6606
▁yukie	-11.6606
▁angus	-11.6606
▁whereabouts	-11.6606
▁psychological	-11.6606
▁treadstone	-11.6606
▁jules	-11.6606
▁scroll	-11.6606
▁psychologist	-11.6606
▁montana	-11.6606
▁subconscious	-11.6606
▁ifyou	-11.6606
▁vietnamese	-11.6606
▁ulcer	-11.6606
▁overcome	-11.6606
▁dictator	-11.6606
▁terug	-11.6606
▁thailand	-11.6606
▁boldwood	-11.6606
▁spartans	-11.6606
▁download	-11.6606
iemand	-11.6606
▁phew	-11.6606
▁snuck	-11.6606
▁irrita	-11.6607
▁plaster	-11.6607
▁bern	-11.6607
▁excessive	-11.6607
▁karma	-11.6607
▁gagging	-11.6607
▁verify	-11.6607
▁observation	-11.6607
▁chickenshit	-11.6607
▁recite	-11.6607
▁zipper	-11.6607
▁verbal	-11.6607
▁mackey	-11.6607
ssein	-11.6607
▁rashid	-11.6607
▁derek	-11.6608
▁parley	-11.6608
▁horde	-11.6608
▁deckard	-11.6608
▁babu	-11.6608
▁probation	-11.6608
▁jeepers	-11.6608
▁edgar	-11.6608
▁mornin	-11.6608
▁poking	-11.6608
▁hydrant	-11.6608
▁embarrassment	-11.6608
▁typing	-11.6608
▁revolutionary	-11.6608
▁bohemian	-11.6608
▁hunk	-11.6608
▁foam	-11.6608
▁redneck	-11.6608
▁lyle	-11.6608
▁sanct	-11.6608
▁consciousness	-11.6609
▁payroll	-11.6609
▁vanilla	-11.6609
▁anxiety	-11.6609
▁grocery	-11.6609
hit	-11.6609
▁arson	-11.6609
▁craze	-11.6609
▁ruling	-11.6609
▁informant	-11.6609
▁extinction	-11.6609
▁testify	-11.661
▁you	-11.661
▁furry	-11.661
▁partnership	-11.661
▁jonah	-11.661
▁establishment	-11.661
▁peder	-11.661
▁ripping	-11.661
▁jackjack	-11.661
▁clint	-11.661
▁simulation	-11.661
▁ascend	-11.661
▁virtually	-11.6611
▁quota	-11.6611
▁oleg	-11.6611
▁luv	-11.6611
▁boycott	-11.6611
▁scarce	-11.6611
▁amuse	-11.6612
▁intruder	-11.6612
▁chunky	-11.6612
▁verge	-11.6613
▁interference	-11.6613
▁crock	-11.6614
▁spaceship	-11.6614
▁alpa	-11.6614
▁kili	-11.6615
▁attica	-11.6615
▁spooky	-11.6616
▁restroom	-11.6617
▁trespassing	-11.6618
▁sustained	-11.6619
▁marta	-11.6619
▁gaan	-11.662
▁stem	-11.662
▁flushes	-11.6621
▁luci	-11.6621
▁promoted	-11.6621
▁plumbing	-11.6621
▁drip	-11.6622
▁danceny	-11.6622
▁plumber	-11.6623
▁berger	-11.6624
▁banished	-11.6625
▁slope	-11.6625
▁megan	-11.6625
trap	-11.6626
▁alas	-11.6626
▁sasha	-11.6627
▁flown	-11.6627
▁requirement	-11.6627
▁melon	-11.6628
▁bravest	-11.6629
istine	-11.6629
▁bouncing	-11.6629
▁moth	-11.663
▁smuggler	-11.663
▁calor	-11.663
▁sanders	-11.6631
▁silhouettes	-11.6632
ando	-11.6633
▁homo	-11.6634
sits	-11.6635
▁knockout	-11.6636
▁nickel	-11.6636
▁improved	-11.6636
▁established	-11.6636
▁ado	-11.6636
▁observ	-11.664
▁kra	-11.6642
▁dispatcher	-11.6642
▁wanker	-11.6645
▁robin	-11.6647
▁rim	-11.6647
front	-11.6648
▁departing	-11.665
▁hooting	-11.6651
▁fang	-11.6651
▁boxer	-11.6652
there	-11.6654
▁gage	-11.6656
▁rarely	-11.666
iving	-11.6665
▁debo	-11.6666
▁after	-11.6667
▁stein	-11.6667
▁von	-11.6669
▁baa	-11.6669
▁coup	-11.6669
▁lai	-11.6671
uous	-11.6673
▁dag	-11.6675
▁tol	-11.6678
▁mast	-11.6683
▁weeping	-11.6687
▁ari	-11.6688
▁restless	-11.6688
▁cong	-11.669
▁likewise	-11.6691
ova	-11.6696
▁pullman	-11.6697
▁skiing	-11.6704
▁joel	-11.6711
▁lapd	-11.6714
chu	-11.6721
▁wired	-11.6723
▁easter	-11.6724
riel	-11.6725
▁flop	-11.673
▁simpler	-11.6733
▁followers	-11.6733
▁congratulate	-11.6734
▁dialing	-11.6735
▁lace	-11.674
▁interrupting	-11.6742
▁yelled	-11.6744
▁kon	-11.6745
hair	-11.6748
▁pelts	-11.6752
▁yawns	-11.6752
▁withers	-11.6752
▁foundation	-11.6754
▁photographs	-11.6759
▁reacher	-11.6763
▁careless	-11.6766
etic	-11.6786
▁tougher	-11.6797
▁mee	-11.6798
▁nip	-11.6799
abber	-11.6801
▁shades	-11.6804
▁illusions	-11.6804
▁owens	-11.681
ista	-11.681
itis	-11.6811
▁dine	-11.6815
▁volt	-11.6827
▁foe	-11.6836
▁athletes	-11.6838
▁vu	-11.684
▁gardener	-11.6844
▁tricked	-11.6849
▁jt	-11.6851
▁sor	-11.6863
▁starters	-11.6865
▁rushing	-11.6881
▁chained	-11.6882
▁outrun	-11.6886
▁sow	-11.6902
▁sheets	-11.6908
▁wilt	-11.6913
▁bal	-11.6916
▁posted	-11.6922
▁reel	-11.6924
▁goede	-11.6927
eau	-11.6935
▁appearances	-11.6943
▁forks	-11.6943
▁volunteers	-11.6944
▁longest	-11.6953
▁tubes	-11.6962
▁bora	-11.6962
▁laisse	-11.6968
▁sharks	-11.6978
▁unre	-11.6978
▁allowing	-11.6992
▁dal	-11.7006
eggie	-11.702
▁tran	-11.7022
dest	-11.7037
ius	-11.704
▁speeding	-11.7041
▁oral	-11.7047
▁sailors	-11.7048
lier	-11.7049
▁bombing	-11.7049
▁abe	-11.7071
▁spl	-11.7077
▁pressing	-11.7079
▁knot	-11.7095
▁prejudice	-11.7105
▁hairy	-11.7113
city	-11.7118
▁tro	-11.7118
▁farmers	-11.7119
▁pint	-11.7123
▁sip	-11.7131
productive	-11.7133
start	-11.7163
▁victoria	-11.7174
▁kris	-11.7179
▁iyou	-11.7195
▁squeal	-11.7197
gro	-11.7197
manship	-11.7207
▁sens	-11.7216
▁illusion	-11.7228
▁vegetable	-11.7229
▁lent	-11.7232
▁cricket	-11.7232
▁consequence	-11.7232
sso	-11.7233
▁earring	-11.7234
▁whim	-11.7234
rick	-11.7237
eating	-11.7239
▁shade	-11.7243
brook	-11.7244
ogen	-11.725
▁wilde	-11.7259
▁greeting	-11.7264
▁lug	-11.7297
▁negotiat	-11.7304
▁resident	-11.7307
▁frigg	-11.7341
▁bog	-11.7361
▁iv	-11.7364
friend	-11.7384
▁shush	-11.7399
▁cycl	-11.7401
▁metaphor	-11.7402
▁greet	-11.7403
cracker	-11.7404
smith	-11.7404
filled	-11.7404
master	-11.7404
▁but	-11.7404
screen	-11.7405
famous	-11.7405
▁obsess	-11.7408
▁ambush	-11.741
▁conceal	-11.741
▁rave	-11.7411
cold	-11.7414
plate	-11.7416
▁deceive	-11.7418
▁confuse	-11.7419
▁boost	-11.742
▁peek	-11.7422
wait	-11.7425
▁vague	-11.7427
dress	-11.7427
▁goddam	-11.743
▁jill	-11.7431
▁peg	-11.7432
▁voil	-11.7434
comb	-11.7435
▁posse	-11.7435
▁construct	-11.7436
▁twa	-11.7436
▁mart	-11.7436
▁whee	-11.7437
▁buggin	-11.7437
▁racin	-11.7437
▁ravage	-11.7437
▁defect	-11.7438
▁herb	-11.7439
measur	-11.7439
▁pudding	-11.7439
▁accompany	-11.7439
▁altijd	-11.7439
▁analyze	-11.7439
▁asthma	-11.7439
▁benicio	-11.7439
▁blomkvist	-11.7439
▁bogart	-11.7439
▁bourbon	-11.7439
▁brochure	-11.7439
▁chubby	-11.7439
▁columbia	-11.7439
▁competitive	-11.7439
▁convenience	-11.7439
▁czech	-11.7439
▁delacourt	-11.7439
▁demonstration	-11.7439
▁description	-11.7439
▁disengage	-11.7439
▁divinity	-11.7439
▁domergue	-11.7439
▁elysium	-11.7439
▁enlighten	-11.7439
▁eskimo	-11.7439
▁examination	-11.7439
▁exploding	-11.7439
▁exquisite	-11.7439
▁frankenstein	-11.7439
▁hammond	-11.7439
▁handshake	-11.7439
▁hartigan	-11.7439
▁headphones	-11.7439
▁january	-11.7439
▁koninklijk	-11.7439
▁landscape	-11.7439
▁lindsey	-11.7439
▁lisbeth	-11.7439
▁luiz	-11.7439
▁machete	-11.7439
▁magnus	-11.7439
▁marigold	-11.7439
▁massacre	-11.7439
▁mingott	-11.7439
▁morocco	-11.7439
▁nicholas	-11.7439
▁obstacle	-11.7439
▁olympia	-11.7439
▁paprika	-11.7439
▁parachute	-11.7439
▁primitive	-11.7439
▁proportion	-11.7439
▁psychiatric	-11.7439
▁rabies	-11.7439
▁rachael	-11.7439
▁raleigh	-11.7439
▁ramirez	-11.7439
▁reckless	-11.7439
▁renesmee	-11.7439
▁reunion	-11.7439
▁rosalie	-11.7439
▁roxanne	-11.7439
▁sattler	-11.7439
▁scotland	-11.7439
▁serpent	-11.7439
▁shreck	-11.7439
▁smuggling	-11.7439
▁stazek	-11.7439
▁submarine	-11.7439
▁sybbie	-11.7439
▁sylvester	-11.7439
▁taguchi	-11.7439
▁theatre	-11.7439
▁tucson	-11.7439
▁unlucky	-11.7439
▁unnatural	-11.7439
▁verdict	-11.7439
▁voldemort	-11.7439
▁wallpaper	-11.7439
▁wegener	-11.7439
▁wrench	-11.7439
▁wretch	-11.7439
▁yondu	-11.7439
▁zulu	-11.7439
▁buzzsaw	-11.7439
▁koushik	-11.7439
▁moira	-11.7439
▁ninny	-11.7439
▁overdue	-11.7439
▁pilar	-11.7439
▁socrates	-11.7439
▁tactics	-11.7439
▁tumor	-11.7439
▁veteran	-11.7439
▁vilna	-11.7439
▁brucie	-11.7439
▁cassie	-11.7439
▁samuel	-11.7439
▁kazakhstan	-11.7439
▁marino	-11.7439
▁shilling	-11.7439
▁arena	-11.7439
▁gloin	-11.7439
▁klein	-11.7439
▁chenkov	-11.7439
▁bloke	-11.7439
▁cameroon	-11.7439
▁stove	-11.7439
▁eighteen	-11.7439
▁railroad	-11.7439
▁consort	-11.7439
▁iove	-11.7439
▁nightingale	-11.7439
▁geneva	-11.7439
▁trading	-11.7439
▁jingle	-11.7439
▁seminar	-11.7439
▁annual	-11.7439
▁contend	-11.7439
▁silas	-11.7439
▁preston	-11.7439
▁abroad	-11.7439
▁titties	-11.7439
▁bachelorette	-11.7439
▁fragile	-11.7439
▁hisses	-11.7439
▁radiator	-11.7439
▁gurgling	-11.7439
▁omelet	-11.7439
▁casualties	-11.7439
▁mentor	-11.7439
▁blouse	-11.744
▁wilkins	-11.744
▁malik	-11.744
▁snuff	-11.744
▁dominate	-11.744
▁elsie	-11.744
▁outdoor	-11.744
▁vincenz	-11.744
▁theories	-11.744
▁radiant	-11.744
▁margie	-11.744
▁postcard	-11.744
▁underwater	-11.744
▁forgery	-11.744
▁refund	-11.744
▁staci	-11.744
▁janice	-11.744
▁diagnosis	-11.744
▁mantle	-11.744
▁tivo	-11.744
▁holiness	-11.744
▁steward	-11.744
▁clanking	-11.744
▁thisby	-11.744
▁pussies	-11.7441
▁descendant	-11.7441
▁denial	-11.7441
▁disney	-11.7441
▁whiz	-11.7441
▁lawsuit	-11.7441
▁bozo	-11.7441
▁mobley	-11.7441
▁sniffling	-11.7441
▁cherish	-11.7441
▁uptown	-11.7441
▁constantine	-11.7441
▁membership	-11.7441
▁hunch	-11.7441
▁tango	-11.7441
▁extraction	-11.7441
▁viki	-11.7441
▁cooperation	-11.7441
▁sulu	-11.7441
▁gigant	-11.7441
▁babysit	-11.7441
▁incidentally	-11.7441
▁tuls	-11.7441
▁cancelled	-11.7442
▁armour	-11.7442
▁tractor	-11.7442
▁singular	-11.7442
▁relay	-11.7442
▁slipping	-11.7442
▁overboard	-11.7442
▁swimmer	-11.7442
▁aight	-11.7443
▁motherfuckin	-11.7443
▁crane	-11.7443
▁inbound	-11.7443
▁tonto	-11.7443
▁paycheck	-11.7443
▁cathy	-11.7444
▁playground	-11.7444
▁isis	-11.7444
▁detector	-11.7444
▁toby	-11.7444
▁dais	-11.7444
▁garry	-11.7444
▁litter	-11.7445
▁stella	-11.7445
▁witter	-11.7445
▁rabbitte	-11.7445
▁crave	-11.7445
▁kenton	-11.7445
▁courageous	-11.7446
▁fili	-11.7446
▁percentage	-11.7446
▁overreacting	-11.7447
▁dandy	-11.7447
▁alza	-11.7447
▁sven	-11.7447
▁lurk	-11.7448
▁hull	-11.7448
▁belongings	-11.7448
▁halley	-11.7448
▁hex	-11.7448
▁initiated	-11.7449
▁countdown	-11.7449
▁nile	-11.7449
▁rach	-11.7449
▁rodeo	-11.745
▁portrait	-11.745
▁pronounced	-11.7451
▁tonic	-11.7451
▁keg	-11.7451
▁meaningful	-11.7451
▁injection	-11.7452
▁travelling	-11.7452
▁exile	-11.7452
▁homie	-11.7453
▁dried	-11.7453
▁princeton	-11.7454
▁petra	-11.7455
lnglng	-11.7455
▁tripping	-11.7456
▁justin	-11.7456
▁vivian	-11.7456
▁disable	-11.7457
▁wealthy	-11.7457
▁essentially	-11.7457
▁improvement	-11.7457
▁santo	-11.7457
▁condemned	-11.7457
▁deleted	-11.7458
heid	-11.7459
▁legit	-11.746
▁frontier	-11.7461
cept	-11.7461
▁sela	-11.7461
▁slot	-11.7462
▁lyd	-11.7462
▁limbo	-11.7462
▁transmitter	-11.7463
▁shallow	-11.7465
▁ying	-11.7465
▁exhausting	-11.7465
▁iran	-11.7465
▁satisfying	-11.7465
▁ultimately	-11.7466
▁biggie	-11.7466
▁smartass	-11.7466
▁hedge	-11.7471
▁owen	-11.7471
▁collapsed	-11.7472
▁buckley	-11.7473
▁dost	-11.7478
▁addicted	-11.748
▁wandered	-11.7482
▁brewer	-11.7483
▁aaaa	-11.7484
▁abused	-11.7485
▁fuegos	-11.7486
▁luydens	-11.7486
▁morally	-11.7486
▁sage	-11.7486
▁jayne	-11.7487
▁childish	-11.7488
▁emotionally	-11.7489
▁vain	-11.7489
▁associated	-11.7492
▁poli	-11.7492
▁rejected	-11.7495
smic	-11.7496
tech	-11.7496
▁invested	-11.7497
▁sneaky	-11.7499
▁bein	-11.75
▁firmly	-11.7502
▁potion	-11.7502
osa	-11.7504
▁depending	-11.7504
▁bridger	-11.7506
▁funni	-11.7512
▁developing	-11.7512
▁lala	-11.7513
▁exploded	-11.7513
pod	-11.7514
▁approached	-11.7515
▁boiling	-11.7516
▁shithole	-11.7516
▁sane	-11.7519
▁fussing	-11.7531
▁labored	-11.7532
▁sweaty	-11.7533
▁quid	-11.7533
▁applying	-11.7537
▁detailed	-11.7539
▁corny	-11.7541
▁mixing	-11.7544
▁messes	-11.7551
▁mechanical	-11.7557
▁pip	-11.7557
▁vultures	-11.7561
▁wrecked	-11.7562
▁benz	-11.7574
▁coolest	-11.7579
▁cullens	-11.7579
goc	-11.7583
▁flex	-11.7583
▁claimed	-11.7584
▁chang	-11.7585
▁scratched	-11.7595
▁comforting	-11.7604
▁recognized	-11.7608
▁iets	-11.7612
▁banged	-11.7615
▁investigators	-11.7617
▁difficulty	-11.7618
▁georg	-11.7618
▁stokes	-11.7622
▁ib	-11.7627
▁denying	-11.7632
▁scratching	-11.7635
▁chil	-11.7637
▁lighten	-11.7647
▁sever	-11.7653
▁monthly	-11.7658
your	-11.7662
▁hatcher	-11.7663
igor	-11.767
▁processing	-11.7672
▁sol	-11.768
▁nic	-11.7684
▁fishy	-11.7701
▁christa	-11.7705
▁billie	-11.7708
▁shorter	-11.7711
▁nuns	-11.7741
▁tyre	-11.7744
▁awaits	-11.775
try	-11.7753
ethe	-11.7754
buck	-11.7765
▁spears	-11.7769
▁canadians	-11.7769
▁haste	-11.778
▁pri	-11.7786
ryl	-11.779
▁kir	-11.7808
▁saul	-11.7811
▁hoop	-11.7819
orgen	-11.7825
▁risking	-11.7832
▁hou	-11.7838
▁smelly	-11.7841
▁sank	-11.7842
form	-11.7846
▁arabs	-11.7849
▁filming	-11.7858
▁mega	-11.7864
▁reader	-11.7866
▁porter	-11.7887
▁uno	-11.7888
▁vam	-11.7898
▁distinct	-11.7923
ura	-11.7925
olo	-11.7927
▁starr	-11.7933
ease	-11.7938
ookie	-11.7969
hold	-11.7983
▁plato	-11.7983
▁awaken	-11.7986
▁arg	-11.7992
▁mam	-11.8013
▁snor	-11.8016
kov	-11.8033
▁bran	-11.8064
▁slime	-11.807
▁evolution	-11.8072
▁geno	-11.8088
▁meow	-11.8106
▁inherit	-11.811
▁grit	-11.8131
▁familie	-11.8143
minded	-11.8144
▁boob	-11.8145
▁dab	-11.8149
▁sob	-11.815
▁peer	-11.8154
▁transmit	-11.8171
▁complaint	-11.8175
▁spi	-11.8196
aint	-11.822
▁acc	-11.8232
keeper	-11.8247
▁reviv	-11.8265
▁beaut	-11.8274
heart	-11.8282
▁chocolat	-11.83
▁blond	-11.8305
check	-11.8313
count	-11.8313
plant	-11.8313
league	-11.8313
▁accord	-11.8314
wide	-11.8314
kick	-11.8318
▁attach	-11.8319
▁tram	-11.8319
▁teenage	-11.832
▁restrict	-11.8321
shaw	-11.8321
dead	-11.8323
▁condo	-11.8324
block	-11.8326
▁reduce	-11.8327
▁delete	-11.8327
▁amaze	-11.8328
tail	-11.8329
▁accuse	-11.833
chip	-11.8332
▁temporar	-11.8333
okay	-11.8334
▁solemn	-11.8336
▁deliberate	-11.8336
▁cosmo	-11.8338
paid	-11.8339
▁villa	-11.8339
▁froze	-11.8341
▁this	-11.8342
▁branch	-11.8344
▁fac	-11.8345
▁chalk	-11.8346
sistance	-11.8346
▁automat	-11.8346
▁invade	-11.8346
▁uncertain	-11.8347
▁cunning	-11.8347
▁wiz	-11.8348
▁correspond	-11.8348
▁squid	-11.8348
▁advertise	-11.8348
▁diarrhea	-11.8348
▁easiest	-11.8348
▁hohoho	-11.8348
▁infiltrat	-11.8348
forsaken	-11.8348
▁absolem	-11.8348
▁absorb	-11.8348
▁abstract	-11.8348
▁accelerate	-11.8348
▁aggression	-11.8348
▁allergies	-11.8348
▁atherton	-11.8348
▁athletic	-11.8348
▁attaboy	-11.8348
▁aurora	-11.8348
▁barbarian	-11.8348
▁beijing	-11.8348
▁blubbering	-11.8348
▁bouquet	-11.8348
▁burbank	-11.8348
▁cabrini	-11.8348
▁calculations	-11.8348
▁canister	-11.8348
▁casino	-11.8348
▁cawdor	-11.8348
▁cheetah	-11.8348
▁chipmunk	-11.8348
▁claiborne	-11.8348
▁comprehend	-11.8348
▁conceived	-11.8348
▁conclave	-11.8348
▁congrats	-11.8348
▁conspir	-11.8348
▁cuddly	-11.8348
▁curfew	-11.8348
▁currency	-11.8348
▁cybertron	-11.8348
▁czechoslovakia	-11.8348
▁damodar	-11.8348
▁delilah	-11.8348
▁diminish	-11.8348
▁dingdong	-11.8348
▁earthquake	-11.8348
▁enthusiasm	-11.8348
▁evaluation	-11.8348
▁evidently	-11.8348
▁feminine	-11.8348
▁fingernails	-11.8348
▁flava	-11.8348
▁forecast	-11.8348
▁freight	-11.8348
▁frenzy	-11.8348
▁frustrated	-11.8348
▁frustration	-11.8348
▁gianni	-11.8348
▁guido	-11.8348
▁hebrew	-11.8348
▁henderson	-11.8348
▁hogwarts	-11.8348
▁howayeh	-11.8348
▁humiliating	-11.8348
▁ignacio	-11.8348
▁initiative	-11.8348
▁introducing	-11.8348
▁jamshidi	-11.8348
▁kahmunrah	-11.8348
▁kennelly	-11.8348
▁kettle	-11.8348
▁kiwoo	-11.8348
▁kovaks	-11.8348
▁leprechaun	-11.8348
▁limousine	-11.8348
▁lndlstlnct	-11.8348
▁lockhart	-11.8348
▁lurasetti	-11.8348
▁maharajah	-11.8348
▁martelli	-11.8348
▁mcdonalds	-11.8348
▁mercury	-11.8348
▁mermaid	-11.8348
▁metcalf	-11.8348
▁millennium	-11.8348
▁miraculous	-11.8348
▁mwah	-11.8348
▁natasha	-11.8348
▁neighing	-11.8348
▁overlapping	-11.8348
▁overseas	-11.8348
▁palancio	-11.8348
▁parallel	-11.8348
▁participate	-11.8348
▁petrified	-11.8348
▁phenomenon	-11.8348
▁physician	-11.8348
▁pineapple	-11.8348
▁pitiful	-11.8348
▁pompey	-11.8348
▁prettier	-11.8348
▁promiscuous	-11.8348
▁prototype	-11.8348
▁qualify	-11.8348
▁qualities	-11.8348
▁quarantine	-11.8348
▁reclaim	-11.8348
▁recognition	-11.8348
▁reconsider	-11.8348
▁reschedule	-11.8348
▁resolution	-11.8348
▁resurrect	-11.8348
▁rocknroll	-11.8348
▁sabotage	-11.8348
▁scorpio	-11.8348
▁seatbelt	-11.8348
▁sizzling	-11.8348
▁sought	-11.8348
▁spaghetti	-11.8348
▁spontaneous	-11.8348
▁stateoftheart	-11.8348
▁striking	-11.8348
▁suellen	-11.8348
▁superweapon	-11.8348
▁suspicion	-11.8348
▁tokyo	-11.8348
▁trudy	-11.8348
▁tuscany	-11.8348
▁twilight	-11.8348
▁ugarte	-11.8348
▁variety	-11.8348
▁velkan	-11.8348
▁vocabulary	-11.8348
▁volturi	-11.8348
▁vortex	-11.8348
▁wisconsin	-11.8348
▁baggage	-11.8348
▁bahamas	-11.8348
▁blimp	-11.8348
▁cardiff	-11.8348
▁cassette	-11.8348
▁darcy	-11.8348
▁detonation	-11.8348
▁dochter	-11.8348
▁figuring	-11.8348
▁frequent	-11.8348
▁hebben	-11.8348
▁ignoring	-11.8348
▁izzi	-11.8348
▁kirsten	-11.8348
▁mabel	-11.8348
▁obscur	-11.8348
▁pogue	-11.8348
▁protein	-11.8348
▁rabid	-11.8348
▁reboot	-11.8348
▁salvation	-11.8348
▁sponge	-11.8348
▁templar	-11.8348
▁yorgi	-11.8348
▁chieftain	-11.8348
▁dutton	-11.8348
▁eyelash	-11.8348
▁refusing	-11.8348
▁stalking	-11.8348
▁wiesler	-11.8348
▁blares	-11.8348
▁cinema	-11.8348
▁korman	-11.8348
▁pioneer	-11.8348
▁reign	-11.8348
▁rumbles	-11.8348
▁scheme	-11.8348
▁venus	-11.8348
▁bandaid	-11.8348
▁licence	-11.8348
▁rigged	-11.8348
▁shalt	-11.8348
▁trilling	-11.8348
▁carveth	-11.8348
▁cecil	-11.8348
▁gospel	-11.8348
▁sushi	-11.8348
▁bitcoin	-11.8348
▁prophet	-11.8348
▁waving	-11.8348
▁endanger	-11.8348
▁urine	-11.8348
▁vacant	-11.8348
▁sidekicks	-11.8348
▁daycare	-11.8348
▁drugged	-11.8348
▁vangor	-11.8348
▁clanks	-11.8348
▁harass	-11.8348
▁ventura	-11.8348
▁bosun	-11.8348
▁connolly	-11.8348
▁giddy	-11.8348
▁heartache	-11.8348
▁hotrod	-11.8348
▁llama	-11.8348
▁gilbert	-11.8348
▁cpr	-11.8348
▁aibee	-11.8348
▁levy	-11.8348
▁escalat	-11.8348
▁radical	-11.8348
▁salvatore	-11.8348
▁kristoff	-11.8348
▁morrow	-11.8348
▁declaration	-11.8348
▁choosing	-11.8348
▁fading	-11.8348
▁torsten	-11.8348
▁felix	-11.8348
▁facial	-11.8348
▁mascot	-11.8348
▁senshi	-11.8349
▁justify	-11.8349
▁oink	-11.8349
▁devise	-11.8349
▁bogey	-11.8349
▁reef	-11.8349
▁inspection	-11.8349
▁trolley	-11.8349
▁oyster	-11.8349
▁blair	-11.8349
▁syd	-11.8349
▁bonzo	-11.8349
▁macaw	-11.8349
▁worthwhile	-11.8349
▁employment	-11.8349
▁unhook	-11.8349
muffin	-11.8349
▁burial	-11.8349
▁navigation	-11.8349
▁quack	-11.8349
▁canine	-11.8349
▁titty	-11.8349
▁antonio	-11.8349
▁marathon	-11.835
▁klick	-11.835
▁voting	-11.835
▁diving	-11.835
▁whipped	-11.835
▁fink	-11.835
▁drool	-11.835
▁railway	-11.835
▁beaver	-11.835
▁radius	-11.835
▁chung	-11.835
▁hypnoti	-11.835
▁techno	-11.835
▁luka	-11.835
▁stripped	-11.835
▁afoot	-11.835
▁temptation	-11.835
▁salsa	-11.8351
▁posers	-11.8351
▁olson	-11.8351
▁involvement	-11.8351
▁shred	-11.8351
▁botan	-11.8351
▁pierce	-11.8351
▁pipeline	-11.8351
▁jacksonville	-11.8351
▁bayard	-11.8351
▁cement	-11.8352
▁friar	-11.8352
▁audio	-11.8352
▁dumpster	-11.8352
▁thermo	-11.8352
▁norma	-11.8352
▁bugging	-11.8352
▁turf	-11.8352
▁jorgen	-11.8352
▁pickett	-11.8353
▁arise	-11.8353
▁pagan	-11.8353
▁intro	-11.8353
▁wring	-11.8353
▁valet	-11.8353
▁renate	-11.8354
▁battlefield	-11.8354
▁marge	-11.8354
▁rodent	-11.8354
▁reseda	-11.8355
▁huff	-11.8355
▁angelov	-11.8355
▁alias	-11.8355
▁puck	-11.8355
▁eerst	-11.8355
▁render	-11.8355
▁downton	-11.8355
▁echoes	-11.8355
▁rapist	-11.8355
▁irv	-11.8355
▁tuna	-11.8356
▁poof	-11.8356
▁signora	-11.8356
▁cruelty	-11.8356
▁optic	-11.8357
▁overtime	-11.8357
▁sapper	-11.8357
▁occasionally	-11.8357
▁rake	-11.8357
lemming	-11.8357
▁curb	-11.8358
▁rotation	-11.8358
▁checkpoint	-11.8358
▁luckily	-11.8359
▁stale	-11.8359
▁evolved	-11.8359
▁stead	-11.8359
▁alai	-11.8359
▁nero	-11.8359
▁tripped	-11.836
▁crou	-11.836
▁casa	-11.8361
▁chica	-11.8361
▁godfather	-11.8361
▁stranded	-11.8363
▁hind	-11.8363
▁oni	-11.8363
▁crest	-11.8364
▁plantation	-11.8364
▁wingman	-11.8364
▁marco	-11.8365
▁isolated	-11.8365
▁agh	-11.8365
▁hoof	-11.8365
▁icy	-11.8365
▁eyeball	-11.8365
▁stamper	-11.8366
▁ceo	-11.8366
▁stow	-11.8367
▁avi	-11.8368
▁undo	-11.8369
▁swu	-11.837
▁snorting	-11.8371
▁anticipated	-11.8371
▁supervised	-11.8371
▁billings	-11.8372
▁yoga	-11.8372
▁lila	-11.8372
▁fitness	-11.8373
▁masses	-11.8373
▁educated	-11.8373
▁soaked	-11.8374
▁batch	-11.8374
dacht	-11.8374
▁lighthouse	-11.8375
▁tweety	-11.8376
▁inherited	-11.8377
▁deze	-11.8377
▁warmth	-11.8378
▁projector	-11.8378
▁dickhead	-11.8379
▁severely	-11.8379
▁koningin	-11.838
▁poke	-11.8381
▁homemade	-11.8381
▁challenger	-11.8382
▁agony	-11.8384
▁installed	-11.8385
▁contractor	-11.8385
▁cranky	-11.8385
▁sway	-11.8385
▁platter	-11.8386
▁parish	-11.8386
▁pup	-11.8387
▁speeches	-11.8388
▁rapidly	-11.8389
▁adviser	-11.839
▁flirting	-11.8391
▁peeking	-11.8392
▁realistic	-11.8395
▁successfully	-11.8395
▁booster	-11.8397
▁becky	-11.8399
▁sunk	-11.8402
▁volunteered	-11.8402
▁moan	-11.8403
▁indicated	-11.8404
▁strangest	-11.8404
▁soy	-11.8404
▁examiner	-11.8406
▁fairies	-11.8409
▁settlement	-11.8414
▁sexually	-11.8415
▁delayed	-11.8418
▁smartest	-11.8418
▁shaved	-11.842
hink	-11.8425
▁dispose	-11.8425
▁redeem	-11.8426
▁upi	-11.8427
▁legally	-11.8428
▁tot	-11.8429
▁drained	-11.8432
▁accidental	-11.8434
▁reaches	-11.8435
▁leda	-11.8437
▁cowardly	-11.8438
▁irony	-11.844
▁maggots	-11.8441
▁qualifications	-11.8441
▁when	-11.8441
▁swipe	-11.8443
▁crawled	-11.8448
▁healed	-11.8448
▁perfection	-11.845
▁doorway	-11.8455
osaurus	-11.8457
▁locusts	-11.8461
▁signor	-11.8464
▁bobo	-11.8467
▁sewing	-11.8467
▁proven	-11.8471
▁dialed	-11.8471
▁charmed	-11.8473
▁ricky	-11.8475
▁ignored	-11.8476
▁boiler	-11.8479
▁seagulls	-11.8482
▁cryin	-11.8482
▁raging	-11.8484
▁gained	-11.8489
▁gigi	-11.8489
▁stumble	-11.849
▁surfing	-11.8501
▁blackie	-11.8501
▁transmitt	-11.8501
▁santi	-11.8501
▁errands	-11.8503
▁grap	-11.8507
iiing	-11.851
▁suing	-11.8511
▁scored	-11.8519
▁cigars	-11.8523
▁resisting	-11.8525
▁cum	-11.8541
▁avoiding	-11.8546
▁finale	-11.8553
▁jun	-11.8566
▁hare	-11.8576
▁clot	-11.8577
▁purr	-11.8578
type	-11.858
▁dumping	-11.8581
▁whims	-11.8583
▁hash	-11.8584
▁democratic	-11.8584
▁sweating	-11.8592
cock	-11.8594
▁plac	-11.8594
▁hardon	-11.8597
helm	-11.8597
▁failing	-11.8616
▁privately	-11.862
▁shiv	-11.8621
ida	-11.8623
▁server	-11.8625
▁lem	-11.8627
utterly	-11.8632
▁buster	-11.8659
▁extract	-11.8662
rez	-11.8673
▁viva	-11.8683
▁broker	-11.8689
gio	-11.869
▁atom	-11.8698
▁marvel	-11.8699
eze	-11.8707
▁presum	-11.8725
▁eu	-11.8729
lau	-11.8747
▁sod	-11.8762
hell	-11.8817
child	-11.8849
▁sig	-11.8864
rpal	-11.8871
▁overt	-11.8874
probable	-11.89
▁dw	-11.8907
▁pend	-11.8928
▁alf	-11.8937
eater	-11.8949
plied	-11.8953
were	-11.8966
zak	-11.8969
card	-11.8981
▁vali	-11.8997
nous	-11.8999
▁slam	-11.9027
▁superb	-11.9049
iana	-11.9056
▁wigg	-11.9079
ulation	-11.9103
▁stoke	-11.9116
▁inhale	-11.9133
bach	-11.9135
▁investigator	-11.9136
▁ante	-11.9138
▁afterward	-11.9141
▁claw	-11.9142
▁item	-11.9143
▁pear	-11.9143
roving	-11.9164
▁growl	-11.9192
▁hob	-11.9195
lasting	-11.9204
▁shin	-11.9217
▁heartbreak	-11.9224
▁lupe	-11.9234
▁pou	-11.9258
▁continu	-11.9269
▁penn	-11.9273
▁dl	-11.9277
▁annoy	-11.9284
▁soak	-11.9285
▁employ	-11.9287
▁dread	-11.929
base	-11.9301
▁chino	-11.9305
▁platt	-11.9307
▁gamble	-11.9309
▁suppos	-11.931
wick	-11.9313
identified	-11.9313
qualified	-11.9313
authorized	-11.9313
quarter	-11.9313
glass	-11.9313
blood	-11.9314
perfect	-11.9314
▁thump	-11.9314
lick	-11.9314
▁preach	-11.9315
▁smuggle	-11.9316
▁amerika	-11.9317
▁tug	-11.9317
death	-11.9317
▁obtain	-11.9319
▁oppos	-11.932
▁dismiss	-11.932
watch	-11.932
cream	-11.9324
drive	-11.9327
▁humiliate	-11.9328
▁expose	-11.9329
▁anticipate	-11.9329
▁promote	-11.9331
▁forge	-11.9332
▁puss	-11.9332
▁weave	-11.9334
help	-11.9334
▁dink	-11.9336
▁rook	-11.934
based	-11.934
▁harp	-11.934
▁claudi	-11.9342
▁alfred	-11.9342
▁torpedo	-11.9342
▁stitch	-11.9342
digit	-11.9343
▁givin	-11.9345
▁poach	-11.9346
▁scandal	-11.9347
▁outrage	-11.9347
▁terra	-11.9347
▁aqua	-11.9348
▁neighbour	-11.9348
▁accustomed	-11.9348
▁adequate	-11.9348
▁anarchy	-11.9348
▁antimatter	-11.9348
▁appreciation	-11.9348
▁asylum	-11.9348
▁atlas	-11.9348
▁azeroth	-11.9348
▁bacteria	-11.9348
▁balcony	-11.9348
▁baloney	-11.9348
▁battalion	-11.9348
▁beowulf	-11.9348
▁bypass	-11.9348
▁capitol	-11.9348
▁chalice	-11.9348
▁cheeco	-11.9348
▁cinnamon	-11.9348
▁collateral	-11.9348
▁colossus	-11.9348
▁darren	-11.9348
▁dejesus	-11.9348
▁depressing	-11.9348
▁devotion	-11.9348
▁dorfler	-11.9348
▁edinburgh	-11.9348
▁encouraging	-11.9348
▁espresso	-11.9348
▁freud	-11.9348
▁frustrating	-11.9348
▁fugazy	-11.9348
▁furlong	-11.9348
▁galahad	-11.9348
▁gamora	-11.9348
▁ganush	-11.9348
▁generosity	-11.9348
▁gerardo	-11.9348
▁giselle	-11.9348
▁glitter	-11.9348
▁goddammit	-11.9348
▁gypsy	-11.9348
▁imaginary	-11.9348
▁implosion	-11.9348
▁incapable	-11.9348
▁infinity	-11.9348
▁ingredient	-11.9348
▁inhuman	-11.9348
▁initiating	-11.9348
▁irrelevant	-11.9348
▁izmer	-11.9348
▁jeopardy	-11.9348
▁kachicka	-11.9348
▁kaufman	-11.9348
▁kijung	-11.9348
▁krueger	-11.9348
▁kryptonite	-11.9348
▁laxative	-11.9348
▁leefolt	-11.9348
▁lisbon	-11.9348
▁mafia	-11.9348
▁mannequin	-11.9348
▁margarita	-11.9348
▁mccormick	-11.9348
▁melissa	-11.9348
▁moscone	-11.9348
▁obedience	-11.9348
▁oberoi	-11.9348
▁octopi	-11.9348
▁opportunities	-11.9348
▁outcast	-11.9348
▁overwhelming	-11.9348
▁parcel	-11.9348
▁peenalop	-11.9348
▁petition	-11.9348
▁pierpont	-11.9348
▁possum	-11.9348
▁precision	-11.9348
▁proffitt	-11.9348
▁ptolemy	-11.9348
▁raphael	-11.9348
▁ravish	-11.9348
▁recognise	-11.9348
▁reggae	-11.9348
▁reliable	-11.9348
▁resemble	-11.9348
▁revoir	-11.9348
▁revolting	-11.9348
▁sabbath	-11.9348
▁sacrament	-11.9348
▁savior	-11.9348
▁scordia	-11.9348
▁selfesteem	-11.9348
▁shinobu	-11.9348
▁shuddering	-11.9348
▁shudders	-11.9348
▁skullfucker	-11.9348
▁sobiech	-11.9348
▁sofia	-11.9348
▁stepmother	-11.9348
▁strauss	-11.9348
▁strife	-11.9348
▁sufficient	-11.9348
▁suicidal	-11.9348
▁suspension	-11.9348
▁suzie	-11.9348
▁syllable	-11.9348
▁telescope	-11.9348
▁thirteen	-11.9348
▁threshold	-11.9348
▁thunderclap	-11.9348
▁tobacco	-11.9348
▁tranquilizer	-11.9348
▁twig	-11.9348
▁unavailable	-11.9348
▁unnecessary	-11.9348
▁unprecedented	-11.9348
▁uptight	-11.9348
▁vendor	-11.9348
▁waffle	-11.9348
▁wayfinder	-11.9348
▁werewolves	-11.9348
▁wouid	-11.9348
▁wyoming	-11.9348
▁yoohoo	-11.9348
▁youtube	-11.9348
▁blaine	-11.9348
▁blossom	-11.9348
▁convoy	-11.9348
▁dahdah	-11.9348
▁disintegrat	-11.9348
▁edvard	-11.9348
▁eileen	-11.9348
▁embark	-11.9348
▁fleming	-11.9348
▁gauge	-11.9348
▁gerald	-11.9348
▁grudge	-11.9348
▁guild	-11.9348
▁hulk	-11.9348
▁jfk	-11.9348
▁juicy	-11.9348
▁lennon	-11.9348
▁maddox	-11.9348
▁madonna	-11.9348
▁nineteen	-11.9348
▁northeast	-11.9348
▁octavi	-11.9348
▁scully	-11.9348
▁squash	-11.9348
▁alicia	-11.9348
▁beetle	-11.9348
▁canoe	-11.9348
▁catalog	-11.9348
▁charging	-11.9348
▁chores	-11.9348
▁crib	-11.9348
▁inclined	-11.9348
▁lmelda	-11.9348
▁teeam	-11.9348
▁thigh	-11.9348
▁unfold	-11.9348
▁zadie	-11.9348
▁brothel	-11.9348
▁decrease	-11.9348
▁doyle	-11.9348
▁garona	-11.9348
▁gleam	-11.9348
▁kadam	-11.9348
▁methane	-11.9348
▁nonstop	-11.9348
▁pronto	-11.9348
▁riddance	-11.9348
▁snob	-11.9348
▁swat	-11.9348
▁tevin	-11.9348
▁umpire	-11.9348
▁wept	-11.9348
▁achter	-11.9348
▁alvin	-11.9348
▁curtis	-11.9348
▁molesley	-11.9348
▁stool	-11.9348
▁donor	-11.9348
▁prodig	-11.9348
▁viral	-11.9348
▁amusing	-11.9348
▁backseat	-11.9348
▁shivering	-11.9348
▁visible	-11.9348
▁forcing	-11.9348
▁nominate	-11.9348
▁sascha	-11.9348
▁begbie	-11.9348
▁fisherman	-11.9348
▁tingling	-11.9348
▁chord	-11.9348
▁elinor	-11.9348
▁sinners	-11.9348
▁ufo	-11.9348
▁newark	-11.9348
▁bosom	-11.9348
▁firearm	-11.9348
▁ragged	-11.9348
▁cinderella	-11.9348
▁cultural	-11.9348
▁immense	-11.9348
▁intellectual	-11.9348
▁republicans	-11.9348
▁floyd	-11.9348
▁enforce	-11.9348
▁hotshot	-11.9348
▁memorize	-11.9348
▁transaction	-11.9348
▁clarify	-11.9348
▁ornithologist	-11.9348
▁microwave	-11.9348
▁cougar	-11.9348
▁dispute	-11.9348
▁divert	-11.9348
▁looney	-11.9348
▁ransom	-11.9348
▁mudblood	-11.9348
▁whitmore	-11.9348
▁wellesley	-11.9348
▁knick	-11.9348
▁hauser	-11.9348
▁hinges	-11.9348
▁sensible	-11.9348
▁revelle	-11.9348
▁admission	-11.9348
▁hyatt	-11.9348
▁bootstrap	-11.9348
▁probability	-11.9348
▁freakshow	-11.9349
▁pedal	-11.9349
▁evict	-11.9349
▁huntsman	-11.9349
▁lynn	-11.9349
▁charade	-11.9349
▁defcon	-11.9349
▁mousetrap	-11.9349
▁external	-11.9349
▁intact	-11.9349
▁buggy	-11.9349
▁notified	-11.9349
▁covenant	-11.9349
▁helium	-11.9349
▁tummy	-11.9349
▁notify	-11.9349
▁awhile	-11.9349
▁altogether	-11.9349
▁discount	-11.9349
▁fargas	-11.9349
▁apron	-11.9349
▁midget	-11.9349
▁departure	-11.9349
▁snuggl	-11.9349
▁boundaries	-11.9349
▁frodo	-11.9349
▁conform	-11.9349
▁strapped	-11.9349
▁hobbies	-11.9349
ereen	-11.9349
▁hazardous	-11.9349
▁tinker	-11.9349
▁webster	-11.9349
▁gringo	-11.935
▁chemo	-11.935
▁rican	-11.935
▁antler	-11.935
▁mossad	-11.935
▁unarmed	-11.935
▁amusement	-11.935
▁heathen	-11.935
▁income	-11.935
▁comedian	-11.935
▁thinner	-11.935
▁flapping	-11.935
bury	-11.935
▁hamster	-11.935
▁sylvia	-11.935
▁masterpiece	-11.935
▁veel	-11.935
▁bulg	-11.935
▁torchia	-11.935
▁daisies	-11.935
▁johan	-11.935
▁sweden	-11.935
▁bogus	-11.9351
▁indoor	-11.9351
▁interior	-11.9351
▁swine	-11.9351
▁reopen	-11.9351
▁lalalala	-11.9351
▁trend	-11.9351
▁peepee	-11.9351
▁bonny	-11.9351
▁implants	-11.9351
▁tidy	-11.9351
▁estonian	-11.9351
▁rooftop	-11.9351
▁disturbance	-11.9351
▁frail	-11.9351
▁cynical	-11.9351
▁bulldog	-11.9351
▁naples	-11.9352
▁scoreboard	-11.9352
▁bullied	-11.9352
▁diggy	-11.9352
▁holland	-11.9352
▁slapped	-11.9352
▁gender	-11.9352
▁pavement	-11.9352
▁ridgeman	-11.9352
▁rapper	-11.9352
▁nini	-11.9352
▁fiber	-11.9352
▁welch	-11.9352
▁gigantor	-11.9353
▁revolver	-11.9353
▁courtroom	-11.9353
▁libel	-11.9353
▁raji	-11.9353
▁rolex	-11.9353
▁meatball	-11.9354
▁engl	-11.9354
▁overhead	-11.9354
▁bryan	-11.9354
▁bink	-11.9354
▁shinin	-11.9354
▁genus	-11.9354
▁void	-11.9354
▁klan	-11.9354
▁winston	-11.9354
▁jonas	-11.9355
▁font	-11.9355
▁radi	-11.9355
▁poland	-11.9355
▁defendant	-11.9355
▁iq	-11.9355
▁sisterinlaw	-11.9355
acious	-11.9355
▁portland	-11.9355
stabbing	-11.9356
▁vanquished	-11.9356
▁casing	-11.9356
▁illumination	-11.9356
▁additional	-11.9356
▁zini	-11.9356
▁kwan	-11.9356
▁flynn	-11.9357
▁operative	-11.9358
▁ratings	-11.9358
▁dios	-11.9358
▁midst	-11.9358
▁valve	-11.9358
▁pact	-11.9359
▁poetic	-11.936
▁brotherhood	-11.936
▁hula	-11.9361
▁spitz	-11.9362
▁joanne	-11.9363
▁ahold	-11.9363
▁exclusively	-11.9364
▁elderly	-11.9364
▁devastated	-11.9365
dick	-11.9365
▁zeg	-11.9365
▁shelley	-11.9365
▁jilly	-11.9367
▁ivy	-11.9367
▁dominican	-11.9367
▁colombian	-11.9368
▁uhura	-11.9368
▁stung	-11.9369
▁artoo	-11.9369
wave	-11.9369
▁dragan	-11.937
▁toke	-11.937
▁debra	-11.9371
▁sexier	-11.9371
▁watchdog	-11.9372
▁elton	-11.9373
▁cruiser	-11.9373
▁lilies	-11.9373
▁charter	-11.9374
▁litera	-11.9374
▁aj	-11.9375
▁experimental	-11.9375
▁compromised	-11.9375
▁violated	-11.9375
galactic	-11.9376
▁tapped	-11.9376
▁organized	-11.9377
▁leonardo	-11.9378
▁sill	-11.9379
▁flake	-11.9379
▁notion	-11.9379
▁edna	-11.938
▁consumed	-11.938
▁illuminat	-11.938
▁appointed	-11.938
▁marcy	-11.9382
▁anus	-11.9382
▁lothar	-11.9383
▁barbie	-11.9384
▁fuckface	-11.9385
▁gambler	-11.9387
▁meowing	-11.9389
▁stained	-11.9389
▁sheer	-11.9389
▁explorer	-11.9392
▁mina	-11.9392
▁hyper	-11.9393
▁wacko	-11.9393
▁steele	-11.9394
▁permanently	-11.9395
▁snatched	-11.9395
▁laat	-11.9397
▁entertained	-11.9401
▁queenie	-11.9403
▁flipping	-11.9407
▁flattered	-11.9413
home	-11.9414
▁parttime	-11.9415
▁funding	-11.9421
▁erased	-11.9422
▁filles	-11.9424
▁hola	-11.9424
▁melted	-11.9425
▁deadend	-11.9428
▁hacked	-11.9429
▁bodi	-11.943
▁altered	-11.943
▁bongo	-11.9431
▁correction	-11.9432
▁angelo	-11.9432
▁measured	-11.9437
▁crosses	-11.9439
▁mow	-11.9441
▁exterminat	-11.9442
▁runway	-11.9443
▁linked	-11.9443
▁offender	-11.9448
▁blinked	-11.9449
▁mally	-11.9449
▁socially	-11.9452
▁chewed	-11.9452
▁commissioned	-11.9452
▁swallowed	-11.9453
they	-11.9453
▁poured	-11.9453
▁observed	-11.9454
▁pry	-11.9458
▁swelling	-11.946
▁graceful	-11.9464
▁glowing	-11.9464
▁challenged	-11.9465
▁succeeded	-11.9468
▁tomas	-11.947
▁defeated	-11.9477
prompt	-11.9481
▁tuned	-11.9487
▁cest	-11.9488
▁awarded	-11.9489
▁functional	-11.9489
▁chilly	-11.949
tterd	-11.9493
▁momma	-11.9493
▁berg	-11.9494
▁hopeful	-11.9497
▁salty	-11.9497
▁chicky	-11.9499
▁correctly	-11.9502
▁bumper	-11.9503
▁brighter	-11.9508
▁weaker	-11.9508
▁freeman	-11.9511
▁them	-11.9515
▁hacker	-11.9517
▁generate	-11.9517
▁licking	-11.9517
minus	-11.9522
▁monitored	-11.9523
▁forgiven	-11.9524
▁sass	-11.9529
▁ruler	-11.953
▁pinched	-11.9532
▁chen	-11.9532
opia	-11.9537
▁flashing	-11.9541
▁spectr	-11.9547
▁risky	-11.9551
▁speculat	-11.9564
▁dictate	-11.9579
etch	-11.9581
inheritance	-11.9585
▁traffick	-11.9586
▁oppress	-11.9589
▁nig	-11.9624
eft	-11.9635
shaped	-11.9647
kerry	-11.966
▁pow	-11.9664
▁stasi	-11.9704
▁peed	-11.9713
iggy	-11.9725
▁sieg	-11.9731
▁iet	-11.9733
▁patel	-11.9743
▁wad	-11.9744
otch	-11.9757
▁clar	-11.9772
bab	-11.9785
▁grah	-11.9792
▁cuban	-11.9792
▁deca	-11.9799
▁rive	-11.9848
▁shov	-11.9875
▁scrape	-11.988
▁tract	-11.9905
akin	-11.9922
▁shellie	-11.9945
mund	-11.997
▁doubl	-11.9971
bill	-12.0033
real	-12.0081
▁cellula	-12.0115
▁allo	-12.0118
▁pep	-12.0169
▁democrat	-12.0175
breaker	-12.0197
▁artistic	-12.0197
pier	-12.0209
▁coz	-12.0231
▁swann	-12.024
▁cigar	-12.0247
▁pelt	-12.0249
▁yawn	-12.0249
▁eyebrow	-12.025
etti	-12.0251
▁wither	-12.0251
▁instruction	-12.0253
▁sensor	-12.0256
▁uv	-12.0282
irg	-12.0295
▁legion	-12.0296
▁indicat	-12.0316
▁prepp	-12.0334
▁jag	-12.0337
▁fini	-12.0343
thinking	-12.035
▁kama	-12.0351
kke	-12.039
▁exhaust	-12.0396
▁twee	-12.0405
▁plea	-12.0407
word	-12.0422
▁satisfy	-12.0423
▁motherfuck	-12.0424
▁murmur	-12.0424
knock	-12.0425
flower	-12.0425
john	-12.0425
▁supervis	-12.0425
▁programme	-12.043
▁suspend	-12.0431
letting	-12.0432
listen	-12.0433
▁swam	-12.0434
▁banish	-12.0435
force	-12.0436
pipe	-12.0438
▁educate	-12.0438
▁isolate	-12.0438
▁divide	-12.0439
▁expire	-12.0439
road	-12.044
▁slate	-12.0442
▁spook	-12.0447
bug	-12.0448
▁pounce	-12.0452
▁inventor	-12.0453
▁cockroach	-12.0453
▁sentiment	-12.0455
▁darlin	-12.0456
▁diagnos	-12.0457
▁gav	-12.0458
▁influen	-12.0458
▁align	-12.0458
▁ponch	-12.0459
▁tread	-12.0459
▁jeep	-12.0459
▁snug	-12.0459
▁japan	-12.0459
▁bastaard	-12.0459
▁calculate	-12.0459
▁diction	-12.0459
▁infiniti	-12.0459
▁intervention	-12.0459
▁krijg	-12.0459
▁liberation	-12.0459
▁respira	-12.0459
▁sovereign	-12.0459
hyperventilating	-12.0459
quisition	-12.0459
▁ahtohallan	-12.0459
▁akela	-12.0459
▁allegiance	-12.0459
▁ambitious	-12.0459
▁amnesia	-12.0459
▁aragog	-12.0459
▁armstrong	-12.0459
▁arquillian	-12.0459
▁aspect	-12.0459
▁aurelia	-12.0459
▁aurelio	-12.0459
▁aztec	-12.0459
▁bedankt	-12.0459
▁beulah	-12.0459
▁billionaire	-12.0459
▁blithe	-12.0459
▁blitz	-12.0459
▁bollix	-12.0459
▁bologna	-12.0459
▁bulwark	-12.0459
▁canaima	-12.0459
▁carnotaur	-12.0459
▁challenging	-12.0459
▁chittering	-12.0459
▁chrissake	-12.0459
▁cobblepot	-12.0459
▁columbus	-12.0459
▁compatible	-12.0459
▁compensation	-12.0459
▁complication	-12.0459
▁conklin	-12.0459
▁connecticut	-12.0459
▁conquest	-12.0459
▁consolation	-12.0459
▁conspicuous	-12.0459
▁contradict	-12.0459
▁crummy	-12.0459
▁cushion	-12.0459
▁daydream	-12.0459
▁declan	-12.0459
▁degenerate	-12.0459
▁dempsey	-12.0459
▁detonator	-12.0459
▁devonshire	-12.0459
▁diabetes	-12.0459
▁discreet	-12.0459
▁dynamite	-12.0459
▁electrocute	-12.0459
▁emergencies	-12.0459
▁engraving	-12.0459
▁enrique	-12.0459
▁erebor	-12.0459
▁ethnic	-12.0459
▁eugenia	-12.0459
▁exposure	-12.0459
▁fumble	-12.0459
▁fundraiser	-12.0459
▁galileo	-12.0459
▁gazza	-12.0459
▁gestapo	-12.0459
▁gibbons	-12.0459
▁giorgio	-12.0459
▁giovanni	-12.0459
▁giraffe	-12.0459
▁glitch	-12.0459
▁goggles	-12.0459
▁goldenbeard	-12.0459
▁greenwich	-12.0459
▁guerrilla	-12.0459
▁haberdashery	-12.0459
▁harbour	-12.0459
▁historian	-12.0459
▁humberfloob	-12.0459
▁humiliation	-12.0459
▁improvis	-12.0459
▁inferior	-12.0459
▁insecure	-12.0459
▁instagram	-12.0459
▁instructed	-12.0459
▁intrigue	-12.0459
▁invading	-12.0459
▁jangling	-12.0459
▁jasmine	-12.0459
▁jullie	-12.0459
▁karbala	-12.0459
▁kashani	-12.0459
▁kevlar	-12.0459
▁knauer	-12.0459
▁kruger	-12.0459
▁lgbt	-12.0459
▁libby	-12.0459
▁liberal	-12.0459
▁lizzie	-12.0459
▁lnspector	-12.0459
▁lullaby	-12.0459
▁macduff	-12.0459
▁mactaggert	-12.0459
▁magnum	-12.0459
▁mammoth	-12.0459
▁maneuver	-12.0459
▁manufacture	-12.0459
▁marijuana	-12.0459
▁matienne	-12.0459
▁matveyev	-12.0459
▁mcgonagall	-12.0459
▁mercenary	-12.0459
▁meredith	-12.0459
▁middleweight	-12.0459
▁mischief	-12.0459
▁moustache	-12.0459
▁muhammad	-12.0459
▁mulholland	-12.0459
▁municipal	-12.0459
▁muslim	-12.0459
▁northuldra	-12.0459
▁oregon	-12.0459
▁paxton	-12.0459
▁pendelton	-12.0459
▁penitentiary	-12.0459
▁phelan	-12.0459
▁philosopher	-12.0459
▁pizzeria	-12.0459
▁poverty	-12.0459
▁premonition	-12.0459
▁prescription	-12.0459
▁psychopath	-12.0459
▁racism	-12.0459
▁rafiki	-12.0459
▁reuben	-12.0459
▁rochefort	-12.0459
▁schmuck	-12.0459
▁schoolteacher	-12.0459
▁scoundrel	-12.0459
▁seafood	-12.0459
▁sequel	-12.0459
▁serververse	-12.0459
▁sheldon	-12.0459
▁siempre	-12.0459
▁sinatra	-12.0459
▁skywalker	-12.0459
▁slewitt	-12.0459
▁southeast	-12.0459
▁spectacle	-12.0459
▁starfleet	-12.0459
▁strung	-12.0459
▁sublime	-12.0459
▁suppress	-12.0459
▁sussex	-12.0459
▁twitch	-12.0459
▁undefeated	-12.0459
▁unforgivable	-12.0459
▁unlimited	-12.0459
▁untrue	-12.0459
▁urinating	-12.0459
▁vaporize	-12.0459
▁variation	-12.0459
▁vasquez	-12.0459
▁venezia	-12.0459
▁voodoo	-12.0459
▁vriend	-12.0459
▁whichever	-12.0459
▁windshield	-12.0459
▁woodsboro	-12.0459
▁analyst	-12.0459
▁commend	-12.0459
▁constable	-12.0459
▁cotwell	-12.0459
▁coxman	-12.0459
▁dilip	-12.0459
▁gulch	-12.0459
▁kendra	-12.0459
▁monroe	-12.0459
▁nauseous	-12.0459
▁ninja	-12.0459
▁nooit	-12.0459
▁occupy	-12.0459
▁providing	-12.0459
▁ricca	-12.0459
▁satchel	-12.0459
▁skitch	-12.0459
▁submissive	-12.0459
▁swab	-12.0459
▁toxin	-12.0459
▁voicemail	-12.0459
▁wimp	-12.0459
▁accusing	-12.0459
▁craving	-12.0459
▁daffy	-12.0459
▁extent	-12.0459
▁hanlon	-12.0459
▁humvee	-12.0459
▁napalm	-12.0459
▁radlo	-12.0459
▁shaky	-12.0459
▁sieland	-12.0459
▁sliding	-12.0459
▁trench	-12.0459
▁untouch	-12.0459
▁barracks	-12.0459
▁bmw	-12.0459
▁enlist	-12.0459
▁grandkid	-12.0459
▁jerska	-12.0459
▁oooh	-12.0459
▁planchet	-12.0459
▁regain	-12.0459
▁syria	-12.0459
▁toledo	-12.0459
▁lumber	-12.0459
▁scope	-12.0459
▁scorn	-12.0459
▁essence	-12.0459
▁graphic	-12.0459
▁irma	-12.0459
▁settling	-12.0459
▁shaving	-12.0459
▁hypothetical	-12.0459
▁swimsuit	-12.0459
▁termites	-12.0459
▁combined	-12.0459
▁cattle	-12.0459
▁eema	-12.0459
▁harness	-12.0459
▁absent	-12.0459
▁deuce	-12.0459
▁mahalik	-12.0459
▁adele	-12.0459
▁atheist	-12.0459
▁gloat	-12.0459
▁algeria	-12.0459
▁insectopia	-12.0459
▁overhear	-12.0459
▁classmates	-12.0459
vvy	-12.0459
▁redcoats	-12.0459
▁nitrous	-12.0459
▁convergence	-12.0459
▁intercourse	-12.0459
▁brooke	-12.0459
▁denzel	-12.0459
▁mingle	-12.0459
▁reproduce	-12.0459
▁crucifix	-12.0459
▁smooch	-12.0459
▁trifle	-12.0459
▁curran	-12.0459
▁lndian	-12.0459
▁grabbing	-12.0459
▁nattie	-12.0459
▁unaware	-12.0459
▁ntl	-12.0459
▁telegram	-12.0459
▁brood	-12.046
▁philippe	-12.046
▁correspondence	-12.046
▁jaunt	-12.046
▁regime	-12.046
▁rodrick	-12.046
▁starstruck	-12.046
▁baroness	-12.046
asili	-12.046
▁fowl	-12.046
▁goofy	-12.046
▁plunge	-12.046
▁carlyle	-12.046
▁uptempo	-12.046
▁priorities	-12.046
▁rumour	-12.046
▁morgan	-12.046
▁baldwin	-12.046
▁pretties	-12.046
▁echt	-12.046
▁spicy	-12.046
▁witchcraft	-12.046
▁wiping	-12.046
▁odor	-12.046
▁headlights	-12.046
▁bleach	-12.046
▁stirring	-12.046
▁vinci	-12.046
▁liability	-12.046
▁pinata	-12.046
▁regiment	-12.046
▁graveyard	-12.046
▁scandalous	-12.046
▁tendenc	-12.046
▁carving	-12.046
▁mammals	-12.046
▁bleak	-12.046
▁chinatown	-12.0461
▁erupt	-12.0461
▁leftovers	-12.0461
▁upstate	-12.0461
▁sofa	-12.0461
▁attachment	-12.0461
▁zebra	-12.0461
▁beeze	-12.0461
▁orient	-12.0461
▁urn	-12.0461
▁mattress	-12.0461
▁vista	-12.0461
▁lovebirds	-12.0461
▁selection	-12.0461
▁stepfather	-12.0461
▁liddy	-12.0461
▁consultant	-12.0461
▁yeager	-12.0461
▁fword	-12.0461
▁furious	-12.0461
▁faberg	-12.0461
▁debby	-12.0461
▁dino	-12.0461
▁twentyfour	-12.0461
▁retail	-12.0462
▁lingerie	-12.0462
▁outward	-12.0462
▁tutu	-12.0462
▁ownership	-12.0462
▁valium	-12.0462
▁holster	-12.0462
▁upload	-12.0462
▁sandstone	-12.0462
▁ochi	-12.0462
▁blondie	-12.0462
▁chatting	-12.0462
▁bubby	-12.0462
▁ign	-12.0462
▁galway	-12.0463
▁pike	-12.0463
▁receptionist	-12.0463
▁swanson	-12.0463
▁communion	-12.0463
▁remand	-12.0463
▁toad	-12.0463
▁colorado	-12.0463
▁consultation	-12.0463
▁assassination	-12.0463
▁preferably	-12.0463
▁tasting	-12.0463
▁nosy	-12.0463
▁apex	-12.0463
▁tedious	-12.0464
▁lassie	-12.0464
▁tyson	-12.0464
▁reflexes	-12.0464
▁heavier	-12.0464
▁amends	-12.0465
▁tux	-12.0465
▁eliot	-12.0465
▁exhibition	-12.0465
▁saber	-12.0465
▁foil	-12.0465
▁barlow	-12.0465
▁onder	-12.0465
▁bruton	-12.0465
▁toddler	-12.0465
▁hoax	-12.0465
▁borderline	-12.0465
▁wedgie	-12.0466
▁splitting	-12.0466
▁dorian	-12.0466
igible	-12.0466
▁trippin	-12.0466
▁stakeout	-12.0466
▁spun	-12.0466
▁isabelle	-12.0466
▁decorati	-12.0467
▁yeeha	-12.0467
▁afar	-12.0467
▁rewind	-12.0467
▁shushes	-12.0467
▁oversee	-12.0467
▁slab	-12.0467
▁cheerlng	-12.0468
▁panda	-12.0468
▁soar	-12.0468
▁fearsome	-12.0468
▁lindo	-12.0468
▁undergo	-12.0468
▁aura	-12.0468
▁cuz	-12.0468
▁elmer	-12.0468
▁slag	-12.0469
▁lyin	-12.0469
▁keyboard	-12.0469
▁loco	-12.0469
▁gloomy	-12.0469
▁feat	-12.0469
▁respectfully	-12.0469
▁amish	-12.047
▁toch	-12.047
▁voila	-12.047
▁liable	-12.047
▁esu	-12.0471
▁mainland	-12.0471
▁semen	-12.0472
▁cashier	-12.0472
▁potty	-12.0472
▁crippled	-12.0473
▁declined	-12.0473
▁ruthless	-12.0473
▁glock	-12.0474
▁wasteland	-12.0474
▁heist	-12.0474
▁discretion	-12.0474
▁fie	-12.0474
▁disconnected	-12.0474
▁sash	-12.0475
▁sandra	-12.0476
▁carlton	-12.0476
▁mira	-12.0477
▁yearbook	-12.0477
▁weg	-12.0477
▁assembled	-12.0478
▁negotiation	-12.0478
▁valor	-12.0478
▁plow	-12.0479
dolph	-12.0479
▁thai	-12.0479
▁bullshitting	-12.048
▁faraway	-12.048
▁alongside	-12.0481
▁sanity	-12.0482
▁airlock	-12.0483
▁collector	-12.0484
▁smithers	-12.0484
▁certified	-12.0485
▁hideous	-12.0485
▁slimy	-12.0485
▁hustler	-12.0485
▁bose	-12.0485
▁hurl	-12.0486
▁initially	-12.0486
▁deceived	-12.0487
▁barren	-12.0488
[...]
