<unk>	0
<s>	0
</s>	0
s	-3.45292
▁im	-4.5046
▁dont	-4.59129
▁know	-4.66028
▁get	-4.81102
▁go	-4.89592
▁like	-4.91056
▁oh	-4.94867
▁right	-4.99439
ing	-4.99981
▁youre	-5.03382
▁well	-5.04
▁come	-5.04158
▁got	-5.05484
▁one	-5.20537
▁thats	-5.20685
▁na	-5.26354
ed	-5.27322
▁yeah	-5.32543
▁good	-5.36777
▁see	-5.37468
▁think	-5.40431
▁want	-5.49415
▁back	-5.51095
d	-5.51487
▁yes	-5.53875
▁look	-5.54485
▁gon	-5.58949
▁hey	-5.59115
▁us	-5.61896
▁time	-5.65028
▁hes	-5.65351
▁going	-5.65384
▁ill	-5.66611
▁man	-5.68918
▁okay	-5.71921
▁take	-5.72696
▁cant	-5.74108
▁would	-5.78211
▁mr	-5.80047
▁	-5.81957
y	-5.84779
▁say	-5.87049
▁could	-5.90969
▁never	-5.91827
▁tell	-5.93469
▁l	-5.96438
▁way	-5.97057
e	-5.97474
▁little	-6.00819
▁something	-6.02467
▁make	-6.03941
er	-6.04527
▁really	-6.05208
▁need	-6.05801
▁let	-6.07247
▁whats	-6.09368
▁love	-6.12524
▁ive	-6.13107
▁theres	-6.15536
▁sir	-6.17235
▁lets	-6.18419
▁give	-6.20162
▁mean	-6.2162
▁thank	-6.22066
▁please	-6.2342
▁didnt	-6.24305
ly	-6.27777
▁thing	-6.3043
▁help	-6.30563
▁sorry	-6.30568
▁sure	-6.30909
▁people	-6.32395
a	-6.32574
▁wait	-6.32654
▁day	-6.32701
▁find	-6.35351
▁said	-6.36152
▁two	-6.38086
▁home	-6.41193
▁life	-6.41479
t	-6.42438
▁much	-6.44864
▁nothing	-6.45012
▁uh	-6.47271
▁stop	-6.50057
▁must	-6.50365
▁father	-6.50457
▁theyre	-6.50706
▁great	-6.51569
▁ta	-6.51997
▁call	-6.546
▁anything	-6.56721
▁away	-6.57915
▁always	-6.58073
▁first	-6.58414
▁better	-6.59284
▁new	-6.59709
▁even	-6.60037
r	-6.60213
▁keep	-6.60345
▁work	-6.60346
▁put	-6.61
▁boy	-6.61936
in	-6.62263
▁night	-6.62782
▁god	-6.63952
▁shes	-6.66053
▁maybe	-6.66424
▁wan	-6.66531
▁thought	-6.6683
▁youll	-6.67717
▁name	-6.67996
▁old	-6.6825
▁still	-6.6847
▁ever	-6.6896
▁huh	-6.69037
▁around	-6.71539
▁big	-6.73421
▁id	-6.74812
▁everything	-6.75104
▁long	-6.75894
o	-6.7619
▁wont	-6.77556
▁guys	-6.78125
▁stay	-6.78689
▁believe	-6.79666
▁leave	-6.80069
▁dad	-6.80391
▁miss	-6.80909
▁last	-6.81165
▁world	-6.81254
▁things	-6.81305
▁show	-6.8145
▁talk	-6.81989
▁youve	-6.81998
▁girl	-6.82418
▁feel	-6.8301
▁place	-6.83267
▁told	-6.84405
▁hear	-6.85923
▁listen	-6.86885
▁coming	-6.87863
n	-6.88028
es	-6.89431
▁nice	-6.89444
al	-6.90136
▁every	-6.90913
▁remember	-6.91042
▁bad	-6.91324
▁years	-6.92593
▁music	-6.93178
▁lot	-6.94186
▁fine	-6.94948
▁made	-6.94951
▁house	-6.95433
▁son	-6.95476
▁doesnt	-6.9639
▁hi	-6.96598
▁course	-6.96642
▁mother	-6.96898
g	-6.97302
▁hold	-6.97743
▁kind	-6.98205
p	-6.99109
▁hello	-7.00322
▁kid	-7.00525
▁another	-7.01512
▁may	-7.02495
▁thanks	-7.03584
▁enough	-7.03906
▁wrong	-7.03906
▁real	-7.03999
▁move	-7.04297
▁today	-7.04447
ll	-7.05493
▁done	-7.05815
▁hell	-7.06521
▁isnt	-7.06635
▁mind	-7.07218
▁best	-7.07493
▁ready	-7.07931
l	-7.08509
▁care	-7.08608
▁run	-7.08611
▁left	-7.09724
c	-7.10235
▁guy	-7.10391
▁money	-7.10587
▁car	-7.10955
▁ah	-7.11299
▁might	-7.11456
i	-7.11587
▁understand	-7.13209
▁three	-7.13246
m	-7.13586
▁friend	-7.14105
▁ok	-7.15304
▁looking	-7.16834
▁job	-7.17137
▁whoa	-7.17142
▁family	-7.17432
▁mom	-7.17761
b	-7.17992
▁morning	-7.18053
▁watch	-7.18737
▁together	-7.18985
ar	-7.19467
▁found	-7.2057
▁guess	-7.21843
▁excuse	-7.22489
▁fight	-7.22657
▁head	-7.23254
▁ask	-7.23268
▁try	-7.23494
▁school	-7.23799
▁weve	-7.2413
▁seen	-7.24462
▁someone	-7.24784
▁play	-7.25
▁wouldnt	-7.25186
▁else	-7.25455
▁talking	-7.25818
▁men	-7.26046
▁bring	-7.26897
▁whos	-7.26954
▁tomorrow	-7.27474
▁dead	-7.28161
▁getting	-7.28407
▁aint	-7.28501
▁playing	-7.28849
▁live	-7.29777
▁heart	-7.29946
▁came	-7.30114
▁matter	-7.30384
▁many	-7.30624
▁beautiful	-7.31098
▁trying	-7.31307
or	-7.31382
▁cause	-7.31593
▁hope	-7.31635
▁wanted	-7.32318
▁hard	-7.32601
▁baby	-7.33081
▁ha	-7.33128
▁happened	-7.33389
▁next	-7.3344
▁water	-7.34171
▁s	-7.34773
k	-7.34931
▁tonight	-7.35635
▁whole	-7.35639
▁george	-7.36004
▁dog	-7.36358
▁wasnt	-7.36376
▁pretty	-7.36749
▁start	-7.36845
▁eat	-7.37205
▁face	-7.37551
▁friends	-7.37623
▁gone	-7.37962
u	-7.38057
▁turn	-7.38242
▁everybody	-7.38256
en	-7.38305
▁open	-7.38595
f	-7.38815
▁lord	-7.39396
▁end	-7.39924
▁minute	-7.40191
▁without	-7.4056
▁bit	-7.41026
▁boys	-7.41078
▁kill	-7.41095
▁harry	-7.42125
▁gasps	-7.43243
▁everyone	-7.4414
▁meet	-7.44258
w	-7.44273
▁king	-7.44726
▁true	-7.44925
▁young	-7.4509
▁city	-7.45349
▁grunts	-7.4543
▁knew	-7.46149
▁door	-7.46375
▁kids	-7.46478
▁mine	-7.47866
▁jack	-7.48104
▁saw	-7.4824
▁woman	-7.48242
▁room	-7.48681
▁hand	-7.49245
▁havent	-7.4949
▁idea	-7.50646
▁un	-7.50717
st	-7.5072
▁de	-7.50771
▁somebody	-7.50772
▁lost	-7.50801
▁use	-7.5142
▁town	-7.51571
▁close	-7.51967
ion	-7.52126
▁read	-7.52424
▁forget	-7.52486
▁worry	-7.52507
ers	-7.5265
ve	-7.52697
▁stand	-7.53254
▁sit	-7.53526
▁used	-7.54142
▁heard	-7.54179
▁far	-7.55949
▁la	-7.56141
▁laughing	-7.57244
▁light	-7.58119
▁set	-7.58462
▁youd	-7.58855
▁fire	-7.58922
re	-7.59121
▁part	-7.5973
▁afraid	-7.60238
▁break	-7.60517
▁general	-7.60712
▁lm	-7.60789
▁die	-7.61187
▁stuff	-7.61672
▁lady	-7.61681
▁yet	-7.61693
▁em	-7.61707
▁took	-7.62124
▁crazy	-7.62148
▁went	-7.62154
▁um	-7.62317
▁anyone	-7.63604
▁shall	-7.63612
▁mrs	-7.64437
▁trust	-7.65061
▁already	-7.65579
▁looks	-7.65794
▁alone	-7.66085
▁hmm	-7.66109
est	-7.66211
▁hit	-7.66576
▁late	-7.66835
▁couldnt	-7.6718
ic	-7.68437
▁easy	-7.68618
ch	-7.68748
▁second	-7.69722
▁r	-7.69777
▁check	-7.70016
▁exactly	-7.70191
▁change	-7.70293
▁eyes	-7.70593
▁chance	-7.70698
▁happy	-7.71222
▁shut	-7.71224
▁point	-7.71362
▁nobody	-7.72283
▁fun	-7.72974
▁welcome	-7.73355
▁wow	-7.73362
▁saying	-7.73855
▁power	-7.74095
▁phone	-7.74456
▁wheres	-7.74652
▁wish	-7.74906
le	-7.7501
▁high	-7.75077
▁deal	-7.75116
▁soon	-7.75309
▁rest	-7.76194
on	-7.76307
▁four	-7.7662
▁since	-7.76656
▁brother	-7.76924
▁year	-7.77528
▁pay	-7.77725
▁ago	-7.78185
▁waiting	-7.78357
▁later	-7.78533
▁hands	-7.78705
▁children	-7.789
▁called	-7.78956
el	-7.79467
▁daddy	-7.79504
▁re	-7.79809
▁hurt	-7.79884
▁probably	-7.80043
▁making	-7.80062
▁tom	-7.8059
ter	-7.80633
▁trouble	-7.81203
th	-7.81236
▁send	-7.81374
an	-7.81588
▁sister	-7.81788
▁important	-7.81794
▁dance	-7.82105
▁happen	-7.8225
▁minutes	-7.8235
▁honey	-7.82378
▁actually	-7.82393
▁wolf	-7.82967
▁walk	-7.82991
▁thinking	-7.83347
▁anybody	-7.83562
▁a	-7.83638
▁quite	-7.83686
▁days	-7.84167
▁side	-7.84217
▁cool	-7.85344
▁almost	-7.8537
▁c	-7.85629
▁says	-7.85939
▁sherman	-7.8598
▁different	-7.86398
▁they	-7.86744
▁taking	-7.87252
▁damn	-7.87319
▁line	-7.875
▁follow	-7.8789
▁rock	-7.88147
▁red	-7.88395
▁wife	-7.88466
▁gave	-7.88472
▁moment	-7.88513
▁sighs	-7.88588
it	-7.88644
▁hot	-7.88898
▁arent	-7.8909
▁top	-7.89695
▁free	-7.89713
▁dear	-7.89777
▁promise	-7.89954
▁clear	-7.90315
▁sleep	-7.90319
▁anyway	-7.90355
▁word	-7.9047
▁chuckles	-7.9053
▁cut	-7.90566
▁save	-7.90614
▁hate	-7.9081
▁dr	-7.90854
▁business	-7.90996
ies	-7.91675
▁five	-7.91701
▁in	-7.91936
▁perfect	-7.92044
il	-7.92175
▁story	-7.92295
▁week	-7.93153
h	-7.93191
▁gentlemen	-7.93603
▁party	-7.94006
▁working	-7.94141
▁war	-7.94177
▁laura	-7.94265
▁bye	-7.94265
▁papa	-7.94331
▁problem	-7.95204
▁six	-7.95563
ment	-7.956
▁hurry	-7.95619
▁number	-7.96958
▁front	-7.96968
▁plan	-7.97393
▁inside	-7.9765
▁doctor	-7.98029
▁luck	-7.98093
ur	-7.98126
▁continues	-7.98238
▁whatever	-7.98333
▁jerry	-7.98338
▁jim	-7.98349
▁girls	-7.98392
▁supposed	-7.9866
▁wants	-7.98724
▁joe	-7.98779
▁ahead	-7.99039
▁cat	-7.99085
▁speak	-7.99381
▁laughs	-7.99482
▁ooh	-7.99729
▁rocky	-8.00049
▁marty	-8.00438
v	-8.00475
▁ya	-8.01181
▁ship	-8.01435
▁full	-8.01584
▁least	-8.01874
▁though	-8.0239
▁truth	-8.02574
▁half	-8.02615
▁land	-8.0266
▁miles	-8.02973
▁bed	-8.03155
▁answer	-8.03214
▁food	-8.033
▁air	-8.03331
▁pick	-8.03811
▁attack	-8.04029
is	-8.04196
▁goes	-8.04329
▁parents	-8.04581
▁hang	-8.0491
▁captain	-8.05504
ie	-8.05683
man	-8.05911
▁k	-8.06125
▁feeling	-8.06138
▁human	-8.06149
▁dragon	-8.06167
▁along	-8.06245
▁batman	-8.06271
▁wonderful	-8.06298
▁shot	-8.07009
▁running	-8.07023
▁fly	-8.07168
▁sometimes	-8.07523
▁catch	-8.07696
▁stupid	-8.0776
▁win	-8.07872
▁voice	-8.08525
▁outside	-8.08526
▁ten	-8.08554
▁times	-8.08903
us	-8.08934
▁master	-8.09293
▁game	-8.09305
ce	-8.09774
▁fast	-8.09848
ive	-8.10026
ri	-8.10293
less	-8.10643
▁person	-8.10742
▁behind	-8.10849
▁dinner	-8.10849
▁uncle	-8.10857
▁case	-8.10867
▁yi	-8.11031
▁dark	-8.11618
▁amanda	-8.11636
▁touch	-8.11903
▁itll	-8.12455
▁fish	-8.12604
▁doc	-8.13076
▁reason	-8.13333
▁met	-8.13451
▁safe	-8.13888
▁brought	-8.14037
▁step	-8.14184
▁eye	-8.14221
able	-8.14372
▁dream	-8.14636
▁e	-8.14837
▁future	-8.1485
▁also	-8.14854
ness	-8.15024
▁lead	-8.15169
▁strong	-8.15429
▁office	-8.15516
▁killed	-8.1592
▁ball	-8.1605
▁sea	-8.16117
▁blood	-8.16214
▁sweet	-8.16461
▁anymore	-8.16496
▁either	-8.16496
▁alive	-8.16517
▁bell	-8.16571
▁ow	-8.17039
▁sound	-8.17057
▁goodbye	-8.1733
▁mary	-8.17466
▁means	-8.17714
▁heres	-8.17773
▁b	-8.18097
▁h	-8.18142
▁child	-8.18161
▁funny	-8.18183
▁wonder	-8.18288
▁m	-8.18356
▁kiss	-8.18499
▁bet	-8.18657
▁drink	-8.18661
▁perhaps	-8.19017
▁buy	-8.19096
et	-8.19531
▁police	-8.19838
▁living	-8.19875
▁beat	-8.20275
▁asked	-8.20353
▁fall	-8.20437
▁lose	-8.2065
▁grunting	-8.20779
▁p	-8.20855
▁j	-8.22253
▁seems	-8.22484
▁earth	-8.22488
▁book	-8.23017
▁learn	-8.23055
z	-8.23103
▁doyle	-8.23366
▁tony	-8.23411
▁suppose	-8.23868
ro	-8.24038
▁quick	-8.24094
at	-8.24185
▁hows	-8.24261
▁marry	-8.24269
▁started	-8.24592
▁singing	-8.24798
▁class	-8.24955
▁jesus	-8.25159
▁black	-8.25161
▁chief	-8.25166
▁married	-8.25166
▁rather	-8.25167
▁sign	-8.25367
▁hours	-8.25706
▁street	-8.25707
▁question	-8.25715
▁quiet	-8.25877
ant	-8.26079
▁gun	-8.26897
▁spot	-8.26977
▁panting	-8.2699
▁death	-8.26998
▁slow	-8.2773
▁couple	-8.27912
▁stick	-8.27921
▁sam	-8.27982
up	-8.28462
▁bill	-8.28547
▁t	-8.28566
▁glad	-8.28846
▁shouldnt	-8.28847
▁ground	-8.28879
▁mark	-8.28883
▁team	-8.28894
▁hair	-8.28934
▁mama	-8.28946
ling	-8.29131
▁song	-8.29205
▁mo	-8.2941
um	-8.29486
▁shell	-8.29499
▁blue	-8.29793
▁poor	-8.29836
un	-8.30044
▁pull	-8.30249
ist	-8.30497
▁become	-8.30742
▁president	-8.30742
▁round	-8.30742
▁control	-8.30749
▁special	-8.31705
▁charlie	-8.31708
▁sick	-8.31736
▁lts	-8.31755
▁makes	-8.31778
▁finally	-8.31792
▁throw	-8.31888
li	-8.31971
▁act	-8.32058
ry	-8.32135
▁th	-8.32146
▁needs	-8.32266
ity	-8.3228
▁fact	-8.32398
▁daughter	-8.32497
▁pinocchio	-8.32674
▁sort	-8.32675
▁lives	-8.33275
▁figure	-8.33282
▁tree	-8.33516
▁fool	-8.3364
▁peabody	-8.33655
▁respect	-8.33661
▁less	-8.34127
▁ladies	-8.34645
▁york	-8.34649
▁court	-8.34658
▁country	-8.34667
▁feet	-8.34673
▁join	-8.34686
▁ride	-8.34845
▁careful	-8.35558
▁small	-8.35645
▁wed	-8.35971
▁able	-8.36052
se	-8.36231
▁picture	-8.36603
▁worth	-8.36637
▁tough	-8.36655
▁tried	-8.36658
▁boat	-8.3666
lo	-8.36858
▁st	-8.36876
▁order	-8.37158
te	-8.37484
▁yo	-8.37623
▁ugh	-8.37677
▁maam	-8.37684
▁seven	-8.37696
▁cold	-8.37719
▁shit	-8.37742
▁scared	-8.37924
ation	-8.38364
▁machine	-8.38706
▁annie	-8.3871
▁kane	-8.38711
ul	-8.38729
▁piece	-8.38741
▁lucky	-8.39139
▁news	-8.39218
▁command	-8.39362
▁fair	-8.39469
▁elliott	-8.39748
▁seem	-8.39838
▁mayor	-8.40113
▁star	-8.40421
▁force	-8.40436
▁words	-8.40612
▁amazing	-8.408
▁kidding	-8.40811
▁tired	-8.40829
▁bird	-8.40894
▁sounds	-8.41543
▁write	-8.41683
om	-8.4172
▁choice	-8.41864
▁jungle	-8.41864
▁jump	-8.41864
▁others	-8.41865
▁crowd	-8.4191
sh	-8.4246
▁ho	-8.42575
▁sun	-8.42615
▁g	-8.42649
▁pass	-8.42713
▁body	-8.42942
▁dangerous	-8.42952
▁robin	-8.42967
▁smell	-8.43114
▁shoot	-8.43403
▁short	-8.43527
▁magic	-8.436
▁screams	-8.43657
▁da	-8.43935
▁group	-8.44027
▁white	-8.44029
▁super	-8.44038
▁position	-8.44055
▁return	-8.4461
▁finish	-8.44614
▁husband	-8.45125
▁wake	-8.45135
▁million	-8.45135
▁absolutely	-8.45154
▁rules	-8.45212
▁died	-8.45246
▁count	-8.45263
▁secret	-8.45337
mo	-8.45382
▁con	-8.45551
▁straight	-8.46237
▁moving	-8.4625
▁till	-8.46282
▁princess	-8.46334
▁gold	-8.4661
▁law	-8.46769
▁wear	-8.46899
co	-8.47096
▁drive	-8.47139
▁comes	-8.4719
▁seat	-8.47193
ful	-8.47224
▁prince	-8.47246
▁mad	-8.47293
▁expect	-8.47298
▁fault	-8.4736
▁possible	-8.4736
▁buddy	-8.47366
▁test	-8.47444
▁taken	-8.47807
ty	-8.48081
▁proud	-8.48497
▁knows	-8.4918
▁sing	-8.4925
▁fix	-8.49597
▁hub	-8.49671
▁chattering	-8.49845
▁sent	-8.49967
▁judge	-8.50021
im	-8.50104
▁laugh	-8.50537
▁present	-8.50785
▁except	-8.50808
▁company	-8.50809
▁leaving	-8.50809
▁women	-8.5081
▁darling	-8.50813
▁nose	-8.50826
▁charge	-8.50827
▁sense	-8.50878
▁table	-8.50901
age	-8.51238
▁telling	-8.51343
ate	-8.51372
ous	-8.5141
▁cover	-8.51507
▁meeting	-8.51586
▁evening	-8.51807
▁train	-8.51974
▁forever	-8.51988
▁busy	-8.52113
to	-8.52201
▁happens	-8.52247
id	-8.52275
▁per	-8.52335
▁bat	-8.52416
▁hour	-8.525
▁en	-8.52575
am	-8.53086
▁hungry	-8.53181
out	-8.5322
▁terrible	-8.53253
▁soldier	-8.53681
▁strange	-8.54071
▁frank	-8.54211
▁impossible	-8.54381
▁felt	-8.54381
▁army	-8.54608
▁rain	-8.54611
▁handle	-8.54958
ha	-8.55009
ting	-8.55225
▁honor	-8.55578
▁colonel	-8.556
▁somewhere	-8.556
▁teach	-8.55631
▁lake	-8.55719
▁wind	-8.56326
la	-8.56376
▁hed	-8.56429
▁quit	-8.56596
▁past	-8.56841
▁ella	-8.56849
▁certainly	-8.56965
▁robot	-8.57469
na	-8.57584
▁rupert	-8.58085
▁spirit	-8.58085
▁floor	-8.58106
▁f	-8.58111
▁clean	-8.58138
do	-8.58204
▁cheering	-8.58247
▁link	-8.5827
▁sad	-8.58326
▁teacher	-8.58647
▁dress	-8.58941
▁loved	-8.58945
▁lovely	-8.59016
▁to	-8.5935
▁fear	-8.59355
▁v	-8.59392
▁raya	-8.59406
▁press	-8.59453
▁report	-8.59867
▁destroy	-8.60117
▁weeks	-8.60237
▁visit	-8.60624
▁attention	-8.60633
▁summer	-8.60633
▁pooh	-8.60637
▁drop	-8.60672
▁tv	-8.60678
as	-8.60713
▁loud	-8.60736
ish	-8.60833
▁relax	-8.61409
▁paper	-8.61576
▁stone	-8.61741
▁evil	-8.61931
▁vada	-8.61931
▁forward	-8.61933
▁age	-8.62429
▁smart	-8.63247
▁robyn	-8.63247
▁radio	-8.63248
▁theyve	-8.63365
▁do	-8.63492
▁grow	-8.63724
▁questions	-8.63774
▁d	-8.64053
per	-8.64072
▁lie	-8.64344
▁serious	-8.6439
▁broke	-8.64489
▁mouth	-8.6458
▁daisy	-8.6458
▁outta	-8.64592
▁calling	-8.64635
▁none	-8.64675
▁push	-8.64707
▁mess	-8.65461
▁normal	-8.65745
▁et	-8.65867
▁weird	-8.65932
▁doll	-8.65946
▁message	-8.65952
ent	-8.65976
▁broken	-8.66035
▁po	-8.66059
▁calm	-8.66096
▁greatest	-8.66341
▁date	-8.66608
▁simple	-8.66747
ta	-8.6695
▁suit	-8.67375
▁unless	-8.67401
ian	-8.67422
ke	-8.67489
▁imagine	-8.67821
▁note	-8.68006
▁standing	-8.68021
▁deep	-8.68295
▁speaking	-8.6863
▁known	-8.68756
ot	-8.68819
▁aw	-8.68892
▁state	-8.68931
over	-8.69879
▁sen	-8.69953
▁born	-8.70099
▁giving	-8.70101
pe	-8.70196
▁ice	-8.70265
▁screaming	-8.70301
▁longer	-8.70324
▁holy	-8.70345
▁interesting	-8.70459
▁peter	-8.70472
▁commander	-8.70624
▁ones	-8.70635
▁se	-8.70872
▁lo	-8.70904
▁carry	-8.70969
▁gr	-8.7103
▁entire	-8.71336
▁enemy	-8.71527
▁service	-8.71527
▁mike	-8.71542
▁asking	-8.71598
▁watching	-8.71732
▁prove	-8.71808
▁ra	-8.71844
▁spend	-8.72285
▁pa	-8.72296
▁dre	-8.72319
▁saved	-8.72435
▁church	-8.72965
▁doubt	-8.72977
▁gift	-8.72977
▁favorite	-8.72984
▁pants	-8.72985
▁cross	-8.72993
ary	-8.73004
▁dis	-8.73015
▁race	-8.73032
ted	-8.73049
▁lll	-8.73177
▁looked	-8.73377
▁lock	-8.73733
no	-8.74059
▁han	-8.7411
▁months	-8.74164
he	-8.74376
▁box	-8.74412
▁explain	-8.74447
▁record	-8.74447
▁speed	-8.74449
▁window	-8.74457
▁queen	-8.74481
▁foot	-8.74503
▁boom	-8.74614
▁happening	-8.74643
▁lou	-8.74848
▁meant	-8.75003
▁bar	-8.75127
▁offer	-8.75313
▁promised	-8.75387
▁ring	-8.75655
▁ape	-8.75704
▁soul	-8.75769
▁buck	-8.75839
▁warm	-8.7588
▁grab	-8.75939
▁hospital	-8.7594
▁lunch	-8.7594
▁kingdom	-8.7594
▁bear	-8.76088
▁pop	-8.7609
ge	-8.76124
▁forgive	-8.76244
▁groans	-8.76257
▁knock	-8.76344
▁over	-8.77019
▁surprise	-8.77049
▁arm	-8.77285
▁needed	-8.77451
▁monsieur	-8.77455
▁road	-8.77455
▁werent	-8.77455
▁computer	-8.77455
▁area	-8.77456
▁sisu	-8.77457
▁crime	-8.77457
▁smile	-8.77467
▁ass	-8.7747
▁neil	-8.77476
▁jones	-8.77476
▁upon	-8.77486
▁fighting	-8.77554
▁moon	-8.77566
▁eh	-8.7768
▁hole	-8.77797
les	-8.77888
▁trip	-8.77933
nd	-8.78388
▁sell	-8.78402
▁shh	-8.78469
▁ii	-8.78674
nt	-8.7873
▁worked	-8.78851
ts	-8.78874
▁anywhere	-8.78993
▁coffee	-8.78993
▁college	-8.78993
▁miguel	-8.78993
▁angel	-8.78994
▁dancing	-8.78999
▁aah	-8.79099
▁planet	-8.79254
▁appreciate	-8.79326
▁breaking	-8.79637
ne	-8.79749
▁search	-8.79865
▁track	-8.7987
▁sp	-8.79887
▁lion	-8.79966
▁reach	-8.80053
▁notice	-8.80153
▁waste	-8.80204
▁extra	-8.80283
ia	-8.80337
▁audience	-8.80556
▁christmas	-8.80556
▁stuck	-8.80572
▁sight	-8.80623
▁vi	-8.80725
▁n	-8.81031
po	-8.81426
▁blow	-8.81443
▁cry	-8.81535
▁cute	-8.81602
os	-8.81855
▁hill	-8.8192
by	-8.8199
ine	-8.82051
▁mistake	-8.82121
▁brave	-8.82143
▁horn	-8.82144
▁tight	-8.82156
▁color	-8.82158
▁horse	-8.82207
▁bag	-8.82209
▁field	-8.82258
▁fit	-8.82366
▁beer	-8.82665
▁letter	-8.82881
▁monster	-8.83126
▁pig	-8.83373
▁grand	-8.83743
▁ugly	-8.83755
▁history	-8.83756
▁pleasure	-8.83756
▁hide	-8.83757
▁alex	-8.83757
▁major	-8.83769
▁code	-8.83785
▁share	-8.83786
▁eight	-8.83817
▁begin	-8.83845
▁brain	-8.83882
▁madame	-8.83888
▁shouting	-8.83948
▁trick	-8.83973
▁protect	-8.84029
▁al	-8.84042
and	-8.84169
be	-8.84178
▁dogs	-8.84186
ton	-8.84199
▁ca	-8.84303
▁turned	-8.84311
▁park	-8.84514
▁mmm	-8.847
▁south	-8.8538
▁favor	-8.85387
▁across	-8.85396
▁thomas	-8.85396
oo	-8.85406
▁store	-8.85426
▁forest	-8.85427
▁superman	-8.85444
ma	-8.85483
▁station	-8.85493
▁action	-8.85515
▁walking	-8.85606
▁hat	-8.85839
one	-8.86219
wa	-8.86462
▁continue	-8.86574
▁butt	-8.86776
ol	-8.86858
▁near	-8.86903
▁guitar	-8.87062
▁robert	-8.87063
▁mommy	-8.87063
▁alright	-8.87066
▁space	-8.87068
▁ex	-8.87077
ng	-8.87347
▁early	-8.87395
▁plane	-8.87702
▁an	-8.88241
▁dreams	-8.88347
▁o	-8.88551
▁lt	-8.88563
▁flying	-8.88566
▁ought	-8.88608
▁english	-8.88757
▁uhhuh	-8.88757
▁worse	-8.88757
▁crew	-8.8877
▁castle	-8.88789
▁form	-8.88907
▁travel	-8.89007
▁belong	-8.89082
▁month	-8.8912
ally	-8.89657
▁mac	-8.89759
j	-8.89886
▁glass	-8.90371
▁excited	-8.90481
▁mitsuha	-8.90481
▁ursula	-8.90481
▁kept	-8.90481
▁moxy	-8.90481
▁personal	-8.90516
▁boss	-8.90519
▁mi	-8.90595
▁bates	-8.90643
ir	-8.90656
▁low	-8.90692
▁allowed	-8.90899
▁enjoy	-8.91013
▁ran	-8.91076
▁missed	-8.91153
▁tea	-8.91392
▁co	-8.91806
▁honest	-8.92053
▁north	-8.92231
▁afternoon	-8.92236
▁arthur	-8.92236
▁balboa	-8.92236
▁sadiel	-8.92236
▁double	-8.92236
▁tuk	-8.92236
▁yesterday	-8.92236
▁green	-8.92236
▁idiot	-8.92236
▁swing	-8.92238
▁chair	-8.92247
bo	-8.92324
▁post	-8.92406
▁pet	-8.92482
▁tail	-8.9264
▁heaven	-8.92684
▁folks	-8.92721
▁el	-8.93045
▁farm	-8.93163
▁treat	-8.93165
▁i	-8.93309
▁given	-8.93814
▁certain	-8.93832
▁apollo	-8.94021
▁christopher	-8.94021
▁deserve	-8.94021
▁freak	-8.94021
▁truman	-8.94021
▁battle	-8.94022
▁remind	-8.94022
▁hasnt	-8.94024
▁worried	-8.9404
▁champion	-8.94048
▁arms	-8.94074
▁dave	-8.94112
▁single	-8.94156
▁loves	-8.94203
▁system	-8.94515
▁whoo	-8.94669
▁learned	-8.95068
▁shoes	-8.95093
▁raise	-8.9544
▁earl	-8.95577
▁forgot	-8.95833
▁bridge	-8.9584
▁middle	-8.9584
▁bother	-8.95845
▁luca	-8.95845
▁bright	-8.95853
▁definitely	-8.95855
▁walter	-8.9587
▁danger	-8.95974
▁ba	-8.96378
▁knight	-8.96398
▁sh	-8.96478
ee	-8.97002
▁kick	-8.97199
▁fill	-8.97268
▁starting	-8.97325
▁peace	-8.97446
▁complete	-8.97502
▁witch	-8.97589
▁mario	-8.97644
▁majesty	-8.97691
▁shrek	-8.97691
▁birthday	-8.97693
▁fancy	-8.97697
▁weather	-8.97711
▁chicken	-8.97716
▁smith	-8.97721
▁condition	-8.97723
▁gem	-8.97749
▁doin	-8.97877
▁completely	-8.97881
▁awful	-8.98261
▁ogre	-8.98305
▁building	-8.98348
▁talked	-8.98358
▁finished	-8.98581
▁roll	-8.98893
em	-8.9893
▁be	-8.9896
▁cook	-8.99055
▁gosh	-8.99059
▁di	-8.99076
▁gru	-8.99217
ber	-8.99485
▁clothes	-8.99578
▁fiona	-8.99578
▁silly	-8.99579
▁brown	-8.9958
▁christ	-8.99706
▁lived	-8.99861
▁works	-8.99912
rs	-8.99951
go	-9.00381
▁crying	-9.00388
▁brothers	-9.00537
▁goodness	-9.00686
dy	-9.00706
▁leader	-9.00739
▁burn	-9.00751
▁build	-9.00796
▁ja	-9.01083
▁pal	-9.01241
▁fell	-9.01359
▁boo	-9.01379
▁bomb	-9.015
▁adrian	-9.01501
▁breakfast	-9.01501
▁choose	-9.01501
▁emergency	-9.01501
▁strength	-9.01501
▁august	-9.01501
▁river	-9.01502
▁center	-9.01502
▁rush	-9.01513
▁price	-9.01516
▁charles	-9.01516
▁garth	-9.01522
▁indeed	-9.01574
▁creed	-9.01626
▁core	-9.01672
▁mm	-9.02379
▁bl	-9.03071
▁com	-9.03139
▁public	-9.03438
▁difference	-9.03462
▁distance	-9.03462
▁dramatic	-9.03462
▁neither	-9.03462
▁swear	-9.03462
▁monkey	-9.03462
▁account	-9.03464
▁cell	-9.03467
▁driving	-9.03469
▁penny	-9.03469
▁spiderman	-9.03479
▁stink	-9.03485
▁beast	-9.03495
▁yep	-9.0352
▁american	-9.03549
▁hero	-9.03642
▁lois	-9.03679
▁missing	-9.03724
▁blessing	-9.03915
▁bloody	-9.04156
▁papers	-9.04252
▁bath	-9.04255
▁stan	-9.04537
▁wearing	-9.04655
▁mon	-9.04689
▁pray	-9.04771
▁pr	-9.05304
▁monsters	-9.05304
▁caught	-9.05462
▁chocolate	-9.05462
▁ghost	-9.05462
▁hundred	-9.05462
▁flint	-9.05462
▁correct	-9.05462
▁lawrence	-9.05465
▁bought	-9.05466
▁shake	-9.05473
▁bigger	-9.05542
me	-9.05564
▁totally	-9.05625
▁bum	-9.05838
▁pre	-9.06138
▁joey	-9.06308
▁ringing	-9.06388
▁problems	-9.06666
▁wall	-9.06789
▁steal	-9.06824
▁so	-9.06882
ca	-9.06888
▁changed	-9.07028
▁realize	-9.07133
▁soft	-9.07313
▁rich	-9.07352
▁contact	-9.07503
▁french	-9.07503
▁wolves	-9.07503
▁fresh	-9.07503
▁truly	-9.07503
▁worst	-9.07503
▁pupkin	-9.07503
▁royal	-9.07503
▁strike	-9.07507
▁clock	-9.07515
▁soren	-9.0753
▁nine	-9.07536
▁orders	-9.07567
ance	-9.07716
▁shop	-9.07765
▁paris	-9.07992
▁li	-9.0806
▁fi	-9.08107
▁faster	-9.08134
▁ac	-9.0829
▁toys	-9.08395
▁owl	-9.08578
▁er	-9.0938
▁final	-9.09424
ill	-9.09429
x	-9.09569
▁bigweld	-9.09586
▁fortune	-9.09586
▁newspaper	-9.09586
▁wrote	-9.09586
▁spell	-9.09587
▁escape	-9.09587
▁everywhere	-9.09593
▁block	-9.096
▁bottom	-9.09602
▁paid	-9.09615
▁lon	-9.09743
▁howling	-9.0977
▁taste	-9.0983
▁copy	-9.09831
▁bi	-9.09934
▁interested	-9.09995
▁quickly	-9.10033
▁me	-9.10162
▁shed	-9.10172
son	-9.10271
ure	-9.1031
▁up	-9.10395
▁owe	-9.10522
▁fathers	-9.10638
ah	-9.10752
▁sand	-9.10799
▁allow	-9.11211
▁fat	-9.11392
▁seeing	-9.11481
pa	-9.11531
way	-9.11547
▁cost	-9.11661
▁david	-9.11714
▁geppetto	-9.11714
▁mystery	-9.11714
▁ridiculous	-9.11714
▁throat	-9.11714
▁whether	-9.11714
▁stories	-9.11714
▁wheel	-9.11714
▁writing	-9.11714
▁island	-9.11714
▁haku	-9.11714
▁salt	-9.11717
▁beginning	-9.11723
▁science	-9.11724
▁jail	-9.11755
▁band	-9.11876
▁cards	-9.11982
▁fred	-9.12096
▁feelings	-9.12198
▁out	-9.12248
▁direct	-9.12256
▁mar	-9.12291
ink	-9.12439
▁ga	-9.12473
▁ma	-9.12606
▁char	-9.12672
▁cl	-9.12688
di	-9.12778
ac	-9.12913
▁giant	-9.12913
▁guard	-9.1295
▁ab	-9.13013
cy	-9.13037
▁san	-9.13042
tic	-9.13127
▁breathe	-9.13258
tra	-9.13259
▁accept	-9.13332
▁switch	-9.13361
▁toy	-9.13437
▁wild	-9.13648
ial	-9.13673
▁takes	-9.13779
▁stole	-9.13796
▁especially	-9.13888
▁instead	-9.13888
▁pardon	-9.13888
▁exclaims	-9.13888
▁heavy	-9.13888
▁teeth	-9.13888
▁blind	-9.13888
▁growls	-9.13892
▁luke	-9.13898
▁arlo	-9.1391
▁dig	-9.13955
▁lying	-9.13969
▁sitting	-9.13992
da	-9.14047
▁pure	-9.14086
you	-9.14165
va	-9.14167
▁ay	-9.14176
▁pack	-9.14961
ated	-9.15082
▁rid	-9.15139
▁thousand	-9.15202
▁dare	-9.15239
▁key	-9.15243
▁where	-9.1538
▁mu	-9.15494
▁agree	-9.15666
▁serve	-9.15703
▁immediately	-9.1611
▁mademoiselle	-9.1611
▁palace	-9.1611
▁upset	-9.16111
▁woodhouse	-9.16115
▁mason	-9.16123
▁chewie	-9.16123
▁jerk	-9.16131
▁bro	-9.16326
▁gods	-9.16334
▁van	-9.16354
▁mia	-9.16417
▁besides	-9.1651
▁br	-9.16533
▁jackie	-9.16555
▁hall	-9.16669
▁cha	-9.16712
▁manage	-9.16719
▁engine	-9.16744
▁breathing	-9.16758
▁beg	-9.17393
ver	-9.17457
▁mountain	-9.17525
▁killing	-9.17739
▁consider	-9.17857
▁art	-9.17952
▁pro	-9.18048
ho	-9.18114
▁main	-9.18124
▁wing	-9.18379
▁plenty	-9.18383
▁professor	-9.18383
▁twice	-9.18383
▁deuce	-9.18383
▁dude	-9.18384
▁girlfriend	-9.18394
▁enter	-9.18466
▁taki	-9.18479
▁held	-9.1852
▁dragons	-9.18663
▁parker	-9.18716
▁we	-9.18798
ga	-9.18834
▁driver	-9.18921
▁stacks	-9.19015
▁simpl	-9.19328
▁hardly	-9.19605
▁joke	-9.19707
▁fellow	-9.19924
▁tc	-9.20335
▁fired	-9.20389
▁ar	-9.20424
▁total	-9.20519
▁feed	-9.20585
▁suggest	-9.20651
▁discuss	-9.20708
▁justice	-9.20708
▁mebh	-9.20708
▁rumbling	-9.20708
▁angry	-9.20708
▁bunch	-9.20708
▁level	-9.20708
▁sky	-9.2071
▁target	-9.2071
▁breath	-9.20711
tion	-9.20731
▁pressure	-9.20731
▁handsome	-9.20739
▁guests	-9.2074
▁obviously	-9.20769
▁under	-9.20773
▁emma	-9.20782
▁cup	-9.20807
▁dirty	-9.20807
▁baron	-9.20834
▁rings	-9.21347
▁adventure	-9.21819
ag	-9.21977
▁training	-9.22056
head	-9.22216
▁photo	-9.22337
▁arrest	-9.2257
▁wondering	-9.22599
min	-9.22709
com	-9.22833
ick	-9.22834
▁weak	-9.22972
▁punch	-9.22973
▁maid	-9.22997
▁apart	-9.23054
▁john	-9.23085
▁congratulations	-9.23089
▁famous	-9.23089
▁goddamn	-9.23089
▁michael	-9.23089
▁taught	-9.23089
▁devil	-9.23089
▁support	-9.2309
▁blast	-9.2309
▁aunt	-9.23096
▁wedding	-9.23096
▁sweetheart	-9.23096
▁bathroom	-9.23098
▁gentleman	-9.23101
▁self	-9.23103
▁nope	-9.23105
▁spent	-9.23113
▁cabin	-9.23127
▁universe	-9.23137
▁mam	-9.23146
▁button	-9.2319
▁corner	-9.23199
▁movies	-9.23567
▁pi	-9.23908
▁le	-9.24213
▁pain	-9.24264
▁reading	-9.24392
▁theyd	-9.2468
▁feels	-9.24742
▁bank	-9.24862
▁lies	-9.24982
time	-9.2501
▁prepare	-9.25118
▁experience	-9.25161
▁match	-9.25438
▁cop	-9.25451
▁mighty	-9.25513
▁asleep	-9.25528
▁russell	-9.25528
▁private	-9.25529
▁relationship	-9.2553
▁chuckling	-9.25533
▁neck	-9.25537
▁boyfriend	-9.25543
▁within	-9.25562
▁rise	-9.25566
▁bottle	-9.25568
▁growling	-9.25576
▁tour	-9.25579
▁screeching	-9.25604
▁bob	-9.25714
▁joker	-9.25728
ctor	-9.25878
▁fe	-9.26125
▁lots	-9.26307
▁rat	-9.26489
ck	-9.26529
▁higher	-9.26601
▁moved	-9.26742
▁picked	-9.27274
▁joy	-9.27389
▁si	-9.27433
▁stu	-9.27536
ped	-9.2757
▁hanging	-9.27806
▁mcfly	-9.28028
▁merlyn	-9.28028
▁mirror	-9.28028
▁negative	-9.28028
▁reynolds	-9.28028
▁swallow	-9.28028
▁wizard	-9.28028
▁keating	-9.28028
▁situation	-9.28028
▁type	-9.28028
▁admit	-9.28035
▁spring	-9.28041
▁wash	-9.28057
▁x	-9.28394
▁all	-9.28502
ff	-9.28511
▁no	-9.28795
▁gas	-9.28954
▁expected	-9.29187
ak	-9.29387
▁paint	-9.29419
▁holding	-9.29691
king	-9.29867
▁chris	-9.30252
▁rip	-9.30449
▁america	-9.3049
▁woods	-9.30523
▁movie	-9.30557
▁pieces	-9.30558
▁suspens	-9.30592
▁difficult	-9.30592
▁fentry	-9.30592
▁langford	-9.30592
▁request	-9.30592
▁security	-9.30592
▁snake	-9.30592
▁someday	-9.30592
▁justin	-9.30593
▁nowhere	-9.30593
▁grace	-9.30593
▁foster	-9.30593
▁lonely	-9.30594
▁lyla	-9.30595
▁camera	-9.30596
▁lyle	-9.306
▁duty	-9.30613
▁mmhmm	-9.30619
▁toby	-9.30623
▁thatll	-9.30629
▁exist	-9.30631
▁direction	-9.30657
led	-9.30658
▁james	-9.30702
▁pap	-9.30703
▁protector	-9.30731
▁seek	-9.3079
▁following	-9.308
ical	-9.31005
▁books	-9.31883
▁played	-9.32004
▁interest	-9.32059
▁ne	-9.32317
io	-9.3234
▁deliver	-9.32695
▁rescue	-9.32808
ug	-9.3281
▁howd	-9.32928
ner	-9.32975
▁letters	-9.33076
▁fr	-9.3313
▁officer	-9.33189
▁scene	-9.33197
▁village	-9.33208
▁beyond	-9.33224
▁decision	-9.33224
▁hiccup	-9.33224
▁nervous	-9.33224
▁saturday	-9.33224
▁built	-9.33224
▁dumb	-9.33224
▁common	-9.33224
▁view	-9.33224
▁tower	-9.33224
▁responsibility	-9.33228
▁often	-9.33231
▁add	-9.33232
▁assume	-9.33232
▁information	-9.33232
▁noise	-9.33242
▁clown	-9.33246
▁bug	-9.33258
▁agent	-9.33265
▁silence	-9.33315
▁cake	-9.3333
▁stopped	-9.33398
▁softly	-9.33471
ut	-9.33656
ious	-9.33703
▁noticed	-9.33914
▁dressed	-9.3431
▁fighter	-9.34355
▁fu	-9.34481
of	-9.34907
▁murder	-9.34987
▁collect	-9.35185
ub	-9.35253
▁sail	-9.35259
▁fuck	-9.35269
▁tall	-9.35397
▁fail	-9.3543
lin	-9.35466
down	-9.35587
▁du	-9.35632
▁closed	-9.35715
▁ni	-9.35728
uc	-9.35873
▁drunk	-9.35877
▁screw	-9.35921
▁advice	-9.35927
▁cruz	-9.35927
▁excellent	-9.35927
▁kitty	-9.35927
▁knox	-9.35927
▁practice	-9.35927
▁cousin	-9.35927
▁empty	-9.35927
▁bread	-9.35927
▁sammy	-9.35927
▁storm	-9.35927
▁weekend	-9.35928
▁rope	-9.35935
▁zone	-9.3594
▁gang	-9.35963
▁powerful	-9.36033
▁sweetie	-9.36034
▁loser	-9.36061
▁leg	-9.36095
▁ver	-9.36207
▁tape	-9.36215
▁carlo	-9.36288
▁named	-9.363
▁seriously	-9.36316
▁failed	-9.36446
▁list	-9.36708
▁perfectly	-9.36731
▁destroyed	-9.37029
▁w	-9.37082
▁pen	-9.37549
ite	-9.37554
eful	-9.37752
▁bus	-9.378
▁points	-9.3799
▁turning	-9.38045
▁bud	-9.38237
▁bite	-9.38299
▁base	-9.38309
▁walked	-9.38317
▁mate	-9.38343
▁remain	-9.3835
▁program	-9.38693
▁nahnahnah	-9.38704
▁donkey	-9.38704
▁however	-9.38704
▁kludd	-9.38704
▁lieutenant	-9.38704
▁maggie	-9.38704
▁marcel	-9.38704
▁opportunity	-9.38704
▁possibly	-9.38704
▁whimpers	-9.38704
▁address	-9.38704
▁risk	-9.38705
▁dibble	-9.38706
▁steve	-9.38708
▁blame	-9.38708
▁clark	-9.38709
▁thunder	-9.3871
▁witness	-9.38711
▁nancy	-9.38712
▁club	-9.38715
▁shine	-9.38733
▁sake	-9.38757
▁freeze	-9.38761
▁page	-9.38804
▁decided	-9.39055
▁warning	-9.39194
▁staying	-9.39277
▁surprised	-9.39457
▁surely	-9.40012
ny	-9.40149
▁provide	-9.40186
▁lights	-9.40401
▁powers	-9.40534
▁lf	-9.40623
ey	-9.40864
▁it	-9.40885
fi	-9.41186
▁prison	-9.41259
▁rule	-9.41331
▁card	-9.4137
▁louis	-9.41372
▁doo	-9.41405
line	-9.41416
ther	-9.41427
▁blows	-9.41434
▁swim	-9.41555
▁opinion	-9.41562
▁rodney	-9.41562
▁shield	-9.41562
▁susan	-9.41562
▁tommy	-9.41563
▁local	-9.41567
▁prefer	-9.41568
▁flight	-9.41569
▁talent	-9.41606
▁steady	-9.41659
▁musician	-9.41772
▁yelling	-9.41877
▁nearly	-9.41891
▁fran	-9.41939
▁ap	-9.4223
▁wa	-9.42291
▁mission	-9.42342
▁due	-9.42425
▁ben	-9.42702
▁bless	-9.43423
▁students	-9.43499
▁of	-9.43617
▁acting	-9.4363
ving	-9.43801
▁board	-9.4404
▁scoob	-9.44204
▁lawyer	-9.44342
▁listening	-9.4437
▁tr	-9.4441
▁awesome	-9.44503
▁energy	-9.44503
▁exclaiming	-9.44503
▁garbage	-9.44503
▁government	-9.44503
▁otherwise	-9.44503
▁pocket	-9.44503
▁responsible	-9.44503
▁whimpering	-9.44503
▁grail	-9.44503
▁milk	-9.44503
▁liked	-9.44507
▁rita	-9.44523
▁hook	-9.44532
▁cream	-9.44533
▁meat	-9.44539
▁apartment	-9.44547
▁ye	-9.44548
▁hoover	-9.44554
▁stage	-9.44579
▁safety	-9.44582
▁whispering	-9.44639
▁pictures	-9.44654
▁marion	-9.44759
▁nation	-9.44839
▁legs	-9.4493
▁heat	-9.45101
▁letting	-9.45113
pt	-9.45387
▁woo	-9.456
ens	-9.45657
▁figured	-9.45842
qu	-9.45877
▁ahh	-9.45889
▁z	-9.45907
▁passed	-9.45937
▁plans	-9.45955
▁falls	-9.46169
▁pe	-9.46174
▁dollars	-9.46403
▁bu	-9.46406
▁matters	-9.46431
work	-9.47082
▁large	-9.47389
ight	-9.47406
ble	-9.47452
▁animal	-9.47481
ni	-9.47486
men	-9.47492
▁guest	-9.47519
▁became	-9.47533
▁cinderella	-9.47533
▁conversation	-9.47533
▁desmond	-9.47533
▁harvey	-9.47533
▁koopa	-9.47533
▁material	-9.47533
▁precious	-9.47533
▁smoke	-9.47533
▁speech	-9.47533
▁surrender	-9.47533
▁unicorn	-9.47533
▁vader	-9.47533
▁washington	-9.47533
▁grave	-9.47533
▁third	-9.47533
▁mammy	-9.47533
▁telephone	-9.47534
▁mummy	-9.47539
▁boring	-9.4754
▁clever	-9.47541
▁department	-9.47542
▁roger	-9.47565
▁monte	-9.4757
▁function	-9.47571
▁paulie	-9.47593
▁sever	-9.47615
▁uhoh	-9.47626
▁deck	-9.4764
▁whatd	-9.47667
▁groaning	-9.47673
▁heading	-9.47685
▁sleeping	-9.47708
▁shower	-9.47792
ois	-9.47817
lic	-9.4788
▁signal	-9.47883
▁bitch	-9.47913
▁lower	-9.47957
ten	-9.48062
▁tires	-9.48186
op	-9.48346
▁cos	-9.48843
ow	-9.49111
▁who	-9.49469
land	-9.49506
▁names	-9.4963
▁reporter	-9.49646
que	-9.49688
ations	-9.49858
▁eating	-9.50037
▁seal	-9.50096
▁appear	-9.50115
▁gather	-9.50136
▁load	-9.50137
▁mention	-9.5023
▁survive	-9.50235
▁ruin	-9.50239
▁damage	-9.5025
▁faith	-9.50366
▁den	-9.50403
her	-9.50494
▁nothin	-9.50565
▁apologize	-9.50658
▁harriet	-9.50658
▁pizza	-9.50658
▁rosebud	-9.50658
▁samantha	-9.50658
▁bruce	-9.50658
▁upstairs	-9.50658
▁butch	-9.50658
▁costume	-9.50659
▁desert	-9.50659
▁corps	-9.5066
▁focus	-9.50665
ier	-9.50668
▁guide	-9.50668
▁sheriff	-9.50669
▁candy	-9.5067
▁benny	-9.50671
▁alberto	-9.50671
▁sunday	-9.50673
▁comfortable	-9.50673
▁sharp	-9.50693
▁rough	-9.50704
▁therell	-9.50706
▁chip	-9.5072
▁west	-9.50724
▁bang	-9.50734
▁fl	-9.5077
▁golden	-9.50837
▁huge	-9.50908
▁putting	-9.51038
▁wood	-9.51324
▁older	-9.51477
▁kicked	-9.51543
ru	-9.51778
▁keys	-9.51939
▁sin	-9.52156
▁jane	-9.52211
▁career	-9.52259
bra	-9.52612
▁ms	-9.52879
▁sta	-9.53118
▁dee	-9.53159
▁chase	-9.53388
▁fa	-9.53435
▁decide	-9.53482
house	-9.5356
ka	-9.5362
mm	-9.53802
ice	-9.53813
▁crack	-9.53861
▁split	-9.53862
▁accident	-9.53884
▁california	-9.53884
▁journey	-9.53884
▁kitchen	-9.53884
▁language	-9.53884
▁luigi	-9.53884
▁marriage	-9.53884
▁rabbit	-9.53884
▁rhythm	-9.53884
▁treasure	-9.53884
▁evelyn	-9.53884
▁fetch	-9.53884
▁thumb	-9.53884
▁nurse	-9.53885
▁dying	-9.53893
▁trap	-9.53895
▁junk	-9.53898
▁onto	-9.53903
▁dune	-9.53905
▁biff	-9.53906
▁spare	-9.5391
▁poppa	-9.53911
▁fake	-9.53919
▁planned	-9.53919
▁hiding	-9.5392
▁heh	-9.53925
▁professional	-9.53934
▁size	-9.53951
▁eric	-9.53963
▁laughter	-9.54
ors	-9.54032
▁lesson	-9.54069
▁lex	-9.5408
▁vote	-9.54089
▁goin	-9.54243
▁heads	-9.54299
▁metal	-9.54305
off	-9.54315
ach	-9.54432
▁gasping	-9.54472
tri	-9.54502
▁sacrifice	-9.54616
aw	-9.54691
▁hurts	-9.54794
▁wine	-9.55018
▁locked	-9.55042
ang	-9.55129
▁hug	-9.55254
▁sooner	-9.55313
▁robots	-9.55513
ium	-9.55634
▁draw	-9.55668
▁kinda	-9.56223
▁rep	-9.5639
we	-9.56391
▁tickets	-9.56514
▁weapons	-9.56623
▁concern	-9.56698
▁release	-9.568
▁settle	-9.56804
▁invite	-9.5681
room	-9.56953
▁birds	-9.56965
▁dump	-9.57217
▁brilliant	-9.57217
▁diamond	-9.57217
▁extreme	-9.57217
▁granny	-9.57217
▁hidden	-9.57217
▁innocent	-9.57217
▁introduce	-9.57217
▁necessary	-9.57217
▁tigger	-9.57217
▁whistling	-9.57217
▁alarm	-9.57217
▁gwen	-9.57217
▁schedule	-9.57217
▁darien	-9.57217
▁sugar	-9.57217
▁german	-9.57217
▁london	-9.57218
▁nature	-9.57219
▁afford	-9.57219
▁indistinct	-9.5722
▁invisible	-9.57225
▁italian	-9.57226
▁square	-9.57227
▁druun	-9.57227
▁knightley	-9.5723
▁coach	-9.57232
▁snow	-9.57235
▁simon	-9.57236
▁villain	-9.57242
▁potter	-9.57247
▁animals	-9.57275
▁crown	-9.57281
▁friday	-9.57282
▁incredible	-9.57282
▁indy	-9.57288
▁march	-9.57293
▁engaged	-9.57349
▁ark	-9.57421
▁haha	-9.5743
▁creature	-9.57465
▁wet	-9.57491
▁arrived	-9.57543
▁losing	-9.57607
▁bust	-9.57613
▁hail	-9.57621
▁mass	-9.57625
▁mel	-9.57679
▁trees	-9.57713
▁tear	-9.57814
ba	-9.58222
▁scar	-9.58245
ito	-9.58325
▁plant	-9.58393
▁yay	-9.58609
▁parts	-9.58825
ring	-9.58919
▁lay	-9.58921
ley	-9.58966
▁ju	-9.5962
▁event	-9.59819
▁lab	-9.59961
▁study	-9.59989
▁bow	-9.60068
▁keeping	-9.6007
ou	-9.60108
▁discover	-9.6015
ett	-9.60195
▁astro	-9.60265
▁es	-9.60371
▁flow	-9.60404
back	-9.60429
ph	-9.60459
▁shoo	-9.60544
▁lu	-9.60579
▁among	-9.60665
▁attempt	-9.60665
▁attend	-9.60665
▁available	-9.60665
▁bastard	-9.60665
▁chicago	-9.60665
▁heffalump	-9.60665
▁jasmine	-9.60665
▁someplace	-9.60665
▁credit	-9.60666
▁mercy	-9.60666
▁medical	-9.60666
▁lift	-9.60666
▁willing	-9.60666
▁nucle	-9.60668
▁gotham	-9.60668
▁corrie	-9.60669
▁loose	-9.60671
▁shock	-9.60675
▁bobblehead	-9.60675
▁staff	-9.60676
▁forgotten	-9.6068
▁mail	-9.60686
▁bike	-9.60695
▁dido	-9.607
▁bert	-9.60705
▁shape	-9.6073
▁wise	-9.60797
▁cow	-9.60819
▁barking	-9.60874
▁jacket	-9.60898
▁shoulder	-9.60914
▁recall	-9.60918
▁can	-9.60932
ise	-9.60958
▁bobble	-9.61007
erry	-9.6104
▁hunter	-9.61062
▁union	-9.61118
▁ch	-9.61251
▁wayne	-9.6128
▁agreed	-9.61305
▁fan	-9.61472
ler	-9.61605
ide	-9.61608
ating	-9.61871
▁wings	-9.61985
▁bon	-9.62014
▁bigge	-9.62132
▁guards	-9.62201
▁worlds	-9.62324
ator	-9.62427
▁ordered	-9.62448
▁fo	-9.62459
▁loss	-9.62634
hi	-9.62757
▁ee	-9.62862
ward	-9.62953
ned	-9.63098
▁sa	-9.63203
▁ends	-9.63244
▁roar	-9.63549
▁fans	-9.63818
ome	-9.63832
▁refuse	-9.63835
▁picking	-9.63959
▁climb	-9.6399
▁natural	-9.64072
▁turns	-9.6409
▁harm	-9.6419
▁cricket	-9.64237
▁dimension	-9.64237
▁fantastic	-9.64237
▁purpose	-9.64237
▁society	-9.64237
▁somehow	-9.64237
▁spazzatura	-9.64237
▁stomach	-9.64237
▁taylor	-9.64237
▁violin	-9.64237
▁airplane	-9.64237
▁female	-9.64237
▁poison	-9.64237
▁martin	-9.64237
▁equal	-9.64237
▁glory	-9.6424
▁insurance	-9.6424
▁trade	-9.64246
▁monday	-9.64246
▁shame	-9.64246
▁suck	-9.64251
▁planning	-9.64272
▁cutting	-9.64356
▁sally	-9.64394
▁momma	-9.64414
▁highness	-9.64433
▁ideas	-9.64491
▁boun	-9.64521
▁scary	-9.64545
▁starts	-9.64548
pping	-9.6457
▁invited	-9.64676
▁on	-9.64702
▁file	-9.64712
▁shy	-9.6481
▁gate	-9.64838
▁ron	-9.65025
▁fucking	-9.65148
▁pin	-9.65172
ron	-9.65253
▁fairy	-9.65255
▁clearly	-9.65322
▁riding	-9.65348
▁stealing	-9.65446
ction	-9.65795
▁carl	-9.65872
▁seemed	-9.66074
ily	-9.66095
▁growing	-9.66107
▁cleaning	-9.66213
▁fii	-9.66459
▁wh	-9.66713
▁falling	-9.6711
▁crash	-9.67258
▁map	-9.67488
▁prom	-9.67537
board	-9.67596
▁helped	-9.67619
▁ven	-9.67638
▁zoo	-9.67692
gh	-9.67696
▁madam	-9.67701
▁range	-9.67724
▁particular	-9.67744
▁pipe	-9.67825
▁champ	-9.67886
▁spider	-9.67909
▁perform	-9.67929
▁applause	-9.67941
▁avoid	-9.67941
▁chamber	-9.67941
▁elizabeth	-9.67941
▁kelani	-9.67941
▁kevin	-9.67941
▁ocean	-9.67941
▁smooth	-9.67941
▁tradition	-9.67941
▁easier	-9.67941
▁easily	-9.67941
▁puppet	-9.67941
▁purrbles	-9.67941
▁value	-9.67941
▁vespa	-9.67941
▁emperor	-9.67941
▁binky	-9.67941
▁byebye	-9.67941
▁squeal	-9.67941
▁derek	-9.67941
▁balloon	-9.67941
▁mouse	-9.67941
▁example	-9.67942
jo	-9.67945
▁betsie	-9.67945
▁insist	-9.67945
▁fought	-9.67945
▁todd	-9.67945
▁truck	-9.67949
▁clue	-9.67951
▁whoohoo	-9.67954
▁wherever	-9.67958
▁randy	-9.6797
▁assure	-9.67985
▁tip	-9.67998
▁france	-9.67999
▁data	-9.68004
▁deland	-9.68017
▁claim	-9.68018
▁model	-9.68055
▁pink	-9.68056
▁rare	-9.68076
▁gasp	-9.68082
▁path	-9.68103
▁chet	-9.68108
▁usually	-9.68118
▁cage	-9.6812
ities	-9.68132
▁showing	-9.68323
▁hoping	-9.68368
▁concerned	-9.68522
▁busted	-9.68539
▁weapon	-9.68607
▁actor	-9.68655
▁carefully	-9.68719
nie	-9.6894
▁gar	-9.69028
▁shelly	-9.6911
▁pleased	-9.69137
hh	-9.69202
▁nuts	-9.69205
▁arab	-9.6936
▁lately	-9.69379
▁places	-9.69443
▁cats	-9.69448
▁wr	-9.69578
▁covered	-9.69611
hoo	-9.69677
▁mae	-9.69693
▁returned	-9.6973
ev	-9.69975
▁couldve	-9.7037
▁comet	-9.7044
▁or	-9.70487
uff	-9.70546
uck	-9.70804
▁wi	-9.70862
▁approach	-9.71102
▁followed	-9.7111
▁chatter	-9.71144
▁dads	-9.71149
▁tie	-9.71257
ship	-9.71318
knock	-9.71483
▁mood	-9.7151
▁tears	-9.71515
▁wage	-9.71695
▁bringing	-9.71733
▁alakay	-9.71787
▁beauty	-9.71787
▁borrow	-9.71787
▁guarantee	-9.71787
▁heavily	-9.71787
▁positive	-9.71787
▁presence	-9.71787
▁source	-9.71787
▁strickland	-9.71787
▁surface	-9.71787
▁license	-9.71787
▁garden	-9.71787
▁limit	-9.71788
▁repeat	-9.71788
▁barrow	-9.71789
▁latin	-9.7179
▁tongue	-9.71793
▁groov	-9.71794
▁mask	-9.71794
▁plus	-9.71802
▁turk	-9.71806
▁bedroom	-9.71825
▁destiny	-9.71827
▁amen	-9.7184
▁gal	-9.7184
▁proof	-9.71868
▁ease	-9.71885
▁rebel	-9.71891
▁missile	-9.71894
▁created	-9.72057
▁bur	-9.72226
▁grown	-9.72267
▁entirely	-9.7231
▁solo	-9.72458
▁cave	-9.7261
▁ticket	-9.72621
ning	-9.72739
▁ln	-9.7291
▁treated	-9.72926
▁fella	-9.72949
ash	-9.73093
▁fellows	-9.73124
▁ru	-9.73145
▁sat	-9.73155
▁showed	-9.73221
▁te	-9.73232
gr	-9.73415
▁grin	-9.73418
cer	-9.73726
▁inc	-9.73806
ible	-9.73817
▁dang	-9.73823
▁flowers	-9.73845
ze	-9.73927
izing	-9.74009
▁soldiers	-9.74088
▁expecting	-9.74169
ado	-9.74179
side	-9.74904
▁lee	-9.74932
▁pretend	-9.75083
cra	-9.75355
▁crush	-9.75537
▁landing	-9.75541
▁ed	-9.75543
▁camp	-9.75564
ever	-9.75584
▁usual	-9.75599
▁slip	-9.75756
▁chop	-9.75777
▁bullshit	-9.75787
▁criminal	-9.75787
▁darlene	-9.75787
▁generator	-9.75787
▁ikioi	-9.75787
▁lieberman	-9.75787
▁linnet	-9.75787
▁lorraine	-9.75787
▁nonsense	-9.75787
▁poirot	-9.75787
▁terrific	-9.75787
▁character	-9.75787
▁silver	-9.75787
▁wallace	-9.75787
▁shift	-9.75787
▁cmon	-9.75787
▁freedom	-9.75787
▁shining	-9.75791
▁saving	-9.75796
▁education	-9.75797
▁cents	-9.75798
▁awake	-9.758
▁shouldve	-9.75804
▁desk	-9.75806
▁property	-9.75806
▁bullet	-9.75811
▁stock	-9.75811
▁blink	-9.75821
▁elton	-9.75822
▁connection	-9.75836
▁wide	-9.75863
▁partner	-9.7587
▁cast	-9.75883
▁metro	-9.75931
▁darn	-9.7596
▁involved	-9.75967
▁meal	-9.75985
ize	-9.76013
▁winter	-9.76014
▁float	-9.7607
▁using	-9.76081
▁gee	-9.76084
▁curse	-9.76253
▁personally	-9.76311
▁yea	-9.76368
▁troops	-9.76389
ons	-9.76496
▁warn	-9.76547
▁drawing	-9.76622
ied	-9.76781
▁parent	-9.76813
▁cars	-9.76927
▁guns	-9.77189
▁calls	-9.77273
ath	-9.77422
▁howls	-9.77469
bi	-9.7754
▁thin	-9.77881
the	-9.78259
▁headed	-9.78303
▁wha	-9.78373
▁harder	-9.78537
▁cookies	-9.78622
▁que	-9.79173
▁arrive	-9.79556
▁tim	-9.79615
field	-9.79628
beat	-9.79649
▁bay	-9.7967
town	-9.7972
▁bump	-9.79844
▁operation	-9.79887
▁chill	-9.79911
▁regret	-9.79939
▁ashamed	-9.79953
▁complex	-9.79953
▁convince	-9.79953
▁davinier	-9.79953
▁dimitri	-9.79953
▁elephant	-9.79953
▁empire	-9.79953
▁inspector	-9.79953
▁junior	-9.79953
▁lindsay	-9.79953
▁mackenzie	-9.79953
▁morgan	-9.79953
▁namaari	-9.79953
▁popular	-9.79953
▁progress	-9.79953
▁shelter	-9.79953
▁social	-9.79953
▁technology	-9.79953
▁twenty	-9.79953
▁wildhorn	-9.79953
▁proceed	-9.79954
▁contract	-9.79954
▁lulu	-9.79954
▁hadnt	-9.79954
▁heck	-9.7996
▁alexander	-9.79963
▁detective	-9.79966
▁estate	-9.7997
▁dante	-9.79971
▁screeches	-9.79975
▁grandma	-9.79993
▁owner	-9.80002
▁dick	-9.80011
▁began	-9.80029
▁postman	-9.80031
▁unfortunately	-9.8008
▁worthless	-9.80085
▁ouch	-9.80087
▁protection	-9.80098
▁liar	-9.80109
▁fang	-9.80112
▁dust	-9.80147
▁china	-9.80157
▁gu	-9.80161
▁paw	-9.80163
▁prize	-9.80194
▁jet	-9.80272
▁wounded	-9.80276
▁humans	-9.80444
▁lick	-9.8045
▁hood	-9.80487
▁indi	-9.80528
▁spine	-9.80547
▁min	-9.80695
att	-9.80704
▁ray	-9.80824
▁raised	-9.80908
▁rose	-9.81139
ball	-9.81184
▁towards	-9.81418
▁knocking	-9.81889
▁doors	-9.82401
▁signed	-9.82429
iest	-9.82833
▁judges	-9.82871
▁throwing	-9.82985
▁clears	-9.83183
▁opening	-9.83323
val	-9.8337
▁steps	-9.83431
▁sons	-9.83534
ay	-9.83589
▁vo	-9.83626
ern	-9.83696
▁seconds	-9.83697
ile	-9.83733
▁stars	-9.83795
▁gum	-9.83835
zy	-9.83868
▁require	-9.83887
▁bea	-9.83891
▁thre	-9.83954
▁mistakes	-9.84078
▁horses	-9.84199
▁express	-9.8425
▁according	-9.84301
▁alfred	-9.84301
▁bernstein	-9.84301
▁brooklyn	-9.84301
▁century	-9.84301
▁conference	-9.84301
▁device	-9.84301
▁fredricksen	-9.84301
▁interrupt	-9.84301
▁itomori	-9.84301
▁member	-9.84301
▁occasion	-9.84301
▁oconnor	-9.84301
▁paradise	-9.84301
▁pleasant	-9.84301
▁plummer	-9.84301
▁quilok	-9.84301
▁reserve	-9.84301
▁sandwich	-9.84301
▁shaggy	-9.84301
▁spread	-9.84301
▁squeaking	-9.84301
▁stephanie	-9.84301
▁marvin	-9.84301
▁quarter	-9.84301
▁hammer	-9.84302
▁trail	-9.84302
▁kemo	-9.84302
▁richard	-9.84302
▁greg	-9.84302
▁vacation	-9.84303
▁suspect	-9.84305
▁gertie	-9.84306
▁curious	-9.84308
▁basic	-9.84308
▁argue	-9.8431
▁poetry	-9.8431
▁lewis	-9.84313
▁priest	-9.84314
▁jedi	-9.84315
▁lucy	-9.84316
ably	-9.84325
▁youth	-9.84326
▁row	-9.84329
▁leia	-9.84333
▁and	-9.84335
▁churchill	-9.84337
▁dropped	-9.84337
▁duck	-9.84341
▁aboard	-9.84348
▁literally	-9.84348
▁communist	-9.84358
▁recently	-9.84365
▁lightning	-9.84365
▁coat	-9.84368
▁mick	-9.8437
▁foolish	-9.84387
▁wave	-9.84387
▁cash	-9.8441
▁mere	-9.84413
just	-9.84416
▁mister	-9.84432
▁kate	-9.8444
▁east	-9.84471
▁rocket	-9.845
▁ox	-9.84523
ify	-9.84525
▁federal	-9.84564
▁male	-9.84579
▁hotel	-9.8459
▁oil	-9.8464
▁math	-9.84683
▁dean	-9.84719
▁su	-9.84759
▁honestly	-9.84785
▁down	-9.84842
▁butter	-9.84938
▁pan	-9.84958
▁eaten	-9.85063
▁not	-9.85077
▁nan	-9.85209
▁paying	-9.85221
▁slowly	-9.85223
ire	-9.85317
▁bee	-9.85412
▁stranger	-9.85444
▁detail	-9.85629
▁finger	-9.85671
▁sometime	-9.85697
▁billy	-9.85698
▁ate	-9.85822
▁ge	-9.85856
▁prayer	-9.85866
▁panic	-9.85929
▁port	-9.86077
▁streets	-9.86085
▁thousands	-9.86122
ism	-9.86155
ade	-9.86183
▁unit	-9.86322
▁carrying	-9.86441
ue	-9.86483
▁kings	-9.86534
▁chi	-9.86581
looking	-9.86838
▁non	-9.86894
▁mat	-9.86969
tro	-9.87292
app	-9.87405
▁fingers	-9.87441
cina	-9.87469
▁mis	-9.87716
▁success	-9.87838
▁drinking	-9.87912
▁sol	-9.87916
▁badly	-9.8795
▁belongs	-9.87967
ized	-9.88019
▁connect	-9.88306
▁charm	-9.8854
▁challenge	-9.88703
▁possess	-9.88789
▁games	-9.88797
▁transport	-9.88825
▁fle	-9.88831
▁skin	-9.88839
▁pump	-9.8884
▁proper	-9.88845
▁advantage	-9.88847
▁circle	-9.88847
▁concentrate	-9.88847
▁defend	-9.88847
▁disaster	-9.88847
▁exhales	-9.88847
▁experiment	-9.88847
▁footsteps	-9.88847
▁memory	-9.88847
▁milady	-9.88847
▁permanent	-9.88847
▁sarris	-9.88847
▁snoring	-9.88847
▁television	-9.88847
▁uniform	-9.88847
▁valley	-9.88847
▁bruno	-9.88847
▁elaine	-9.88847
▁crystal	-9.88847
▁jealous	-9.88847
▁pilot	-9.88847
▁knowledge	-9.88847
▁salesman	-9.88847
▁miracle	-9.88848
▁fruit	-9.88848
▁coast	-9.88848
▁gross	-9.88849
▁recognize	-9.88849
▁secure	-9.88851
▁yellow	-9.88853
▁mutt	-9.88854
▁jeff	-9.88854
▁meade	-9.88858
▁woke	-9.88858
▁replace	-9.88861
▁downton	-9.88863
▁piglet	-9.88863
▁percent	-9.88866
▁inquirer	-9.88873
▁section	-9.88873
▁roof	-9.88875
▁drag	-9.88876
▁jason	-9.88878
▁santa	-9.88887
▁pickett	-9.88891
▁murmuring	-9.88895
▁pair	-9.88907
▁season	-9.88923
▁for	-9.8894
▁defense	-9.88947
zz	-9.88977
▁stolen	-9.89066
▁fade	-9.89075
▁disappointed	-9.89078
▁homework	-9.89102
▁ken	-9.89106
▁bo	-9.89133
▁glasses	-9.89143
▁pot	-9.89248
ex	-9.89274
▁bound	-9.8943
▁charming	-9.89534
▁discovered	-9.89542
▁approaching	-9.89664
▁maine	-9.8969
▁scream	-9.89774
▁tone	-9.8981
day	-9.8984
▁gotten	-9.89846
▁gl	-9.89942
win	-9.90079
let	-9.90095
ess	-9.9018
▁nu	-9.90219
▁mid	-9.90229
▁ear	-9.90284
▁dec	-9.90382
▁student	-9.90431
▁cookie	-9.90498
▁scare	-9.90543
▁mountains	-9.90605
▁forced	-9.9066
▁guts	-9.90751
phant	-9.909
▁fixed	-9.90955
cent	-9.91192
▁the	-9.91253
▁pie	-9.9133
▁servants	-9.91376
ax	-9.91892
▁sul	-9.91898
▁ears	-9.92023
ld	-9.9208
▁knights	-9.92132
▁balls	-9.92166
▁systems	-9.92285
▁laws	-9.92316
▁cal	-9.92395
▁cares	-9.92449
ven	-9.92488
▁player	-9.92757
▁smells	-9.92827
▁gus	-9.92842
▁fishing	-9.92883
▁sneak	-9.92917
ack	-9.93029
▁spoke	-9.93504
▁somethin	-9.93513
▁object	-9.9352
▁birth	-9.93604
▁although	-9.93609
▁behave	-9.93609
▁campaign	-9.93609
▁cruel	-9.93609
▁england	-9.93609
▁filthy	-9.93609
▁genius	-9.93609
▁holiday	-9.93609
▁including	-9.93609
▁interview	-9.93609
▁luthor	-9.93609
▁meeks	-9.93609
▁military	-9.93609
▁oclock	-9.93609
▁political	-9.93609
▁reckon	-9.93609
▁subject	-9.93609
▁sword	-9.93609
▁toilet	-9.93609
▁underneath	-9.93609
▁twist	-9.93609
▁willie	-9.93609
▁deputy	-9.93609
▁jubal	-9.93609
▁thatcher	-9.93609
▁article	-9.93609
▁piano	-9.93609
▁sentence	-9.93609
▁cheese	-9.93609
▁zero	-9.93609
▁poppy	-9.93609
▁cheap	-9.93611
▁funeral	-9.93611
▁opposite	-9.93611
▁scrap	-9.93611
▁nick	-9.93614
▁gotcha	-9.93622
▁pride	-9.93625
▁manual	-9.93628
▁solid	-9.93631
▁weasel	-9.93631
▁twin	-9.93636
▁loving	-9.93637
▁wander	-9.93641
▁columbia	-9.93646
▁alley	-9.93649
▁cannon	-9.93654
▁heal	-9.93654
▁brent	-9.93655
▁poop	-9.93665
▁artist	-9.93665
▁winner	-9.93672
▁soup	-9.93672
nah	-9.93686
▁hoke	-9.93687
▁bride	-9.93693
▁labor	-9.93706
▁clattering	-9.93726
for	-9.9374
▁print	-9.93775
▁bull	-9.93779
▁darkness	-9.93792
▁hired	-9.93814
▁moan	-9.93819
▁lawyers	-9.93875
▁bucks	-9.93893
▁explorer	-9.93898
▁lane	-9.93958
▁moody	-9.93975
mer	-9.93981
▁drum	-9.94318
▁helping	-9.94332
▁murderer	-9.94347
fe	-9.94405
▁bowl	-9.94465
▁mud	-9.94494
▁officers	-9.9459
▁chin	-9.94594
▁locker	-9.94685
▁states	-9.94755
▁packed	-9.94757
▁cops	-9.94848
▁gi	-9.94921
▁demand	-9.95364
▁whistle	-9.95389
▁odd	-9.95558
act	-9.95609
▁lips	-9.9562
▁dollar	-9.95706
▁stayed	-9.95802
ple	-9.95843
▁walls	-9.96174
▁eggs	-9.96401
▁guardians	-9.96587
▁talkin	-9.96598
▁flip	-9.96636
▁jan	-9.96734
▁drinks	-9.96772
▁staring	-9.96778
▁log	-9.96946
▁nah	-9.97007
▁fra	-9.97091
▁cor	-9.97272
▁cheat	-9.97624
▁adopt	-9.98016
▁defeat	-9.9807
rate	-9.98181
▁terribl	-9.98279
▁bubb	-9.98291
▁image	-9.98429
▁spin	-9.98432
▁exact	-9.98434
▁krypto	-9.98502
▁communi	-9.98521
▁project	-9.98539
▁disturb	-9.98596
▁peanut	-9.98607
▁appointment	-9.98609
▁brigade	-9.98609
▁british	-9.98609
▁dinosaur	-9.98609
▁divide	-9.98609
▁gahhh	-9.98609
▁giggling	-9.98609
▁helicopter	-9.98609
▁joseph	-9.98609
▁judgment	-9.98609
▁klaus	-9.98609
▁longstreet	-9.98609
▁mmmhmm	-9.98609
▁regard	-9.98609
▁regular	-9.98609
▁scientist	-9.98609
▁structure	-9.98609
▁tuesday	-9.98609
▁velma	-9.98609
▁video	-9.98609
▁zuba	-9.98609
▁babies	-9.98609
▁election	-9.98609
▁giggles	-9.98609
▁henry	-9.98609
▁outfit	-9.98609
▁slight	-9.98609
▁shirt	-9.98609
▁turtle	-9.98609
▁warehouse	-9.98609
▁intend	-9.98609
▁shove	-9.98609
▁grew	-9.98609
▁rude	-9.9861
▁suprem	-9.9861
▁horrible	-9.98611
▁pitts	-9.98626
▁johnny	-9.98627
▁leland	-9.98627
▁glow	-9.98635
▁viking	-9.9864
▁phil	-9.98646
▁starving	-9.98649
▁christian	-9.98656
▁edge	-9.98658
▁beach	-9.98676
▁taxi	-9.98696
▁comment	-9.98702
▁nasty	-9.98702
▁bowers	-9.98703
▁eve	-9.98704
▁lean	-9.98704
▁minister	-9.98714
▁wire	-9.98716
▁guilty	-9.98722
▁exit	-9.98726
▁disgusting	-9.98733
▁sub	-9.98733
ock	-9.98751
▁jackson	-9.98774
▁madeline	-9.98778
▁hm	-9.98843
▁sexy	-9.98843
hood	-9.9886
▁surrounded	-9.98864
▁chain	-9.98911
▁describe	-9.98957
▁commissioner	-9.98968
▁fourth	-9.98993
▁original	-9.99013
▁announce	-9.99045
▁reality	-9.99088
▁deeply	-9.99319
▁national	-9.99365
▁ruined	-9.99459
▁prepared	-9.99466
rie	-9.9955
▁para	-9.99637
▁wishes	-9.99649
▁lando	-9.99808
▁ships	-10.0011
▁cheer	-10.0011
▁stronger	-10.0012
▁ended	-10.0029
▁knocked	-10.0039
▁opened	-10.0042
▁issue	-10.0062
▁pound	-10.0066
▁poem	-10.0067
▁guardian	-10.0071
▁shoe	-10.0073
ren	-10.0086
▁ohhh	-10.0104
▁dry	-10.0108
con	-10.0134
▁teaching	-10.015
▁slaves	-10.0158
▁meaning	-10.0176
▁bones	-10.0176
▁rob	-10.0177
▁counting	-10.018
▁shooting	-10.0191
▁ph	-10.0202
ii	-10.0295
▁disappear	-10.0334
▁chew	-10.0335
▁creatures	-10.0348
ski	-10.035
book	-10.0357
▁snap	-10.0361
▁ram	-10.0375
▁russia	-10.0377
▁entertain	-10.0383
▁paul	-10.0383
▁represent	-10.0385
▁document	-10.0385
▁beloved	-10.0387
▁central	-10.0387
▁chirping	-10.0387
▁delicious	-10.0387
▁desperate	-10.0387
▁division	-10.0387
▁eeyore	-10.0387
▁elevator	-10.0387
▁escalante	-10.0387
▁exercise	-10.0387
▁happiness	-10.0387
▁linderman	-10.0387
▁mandrake	-10.0387
▁museum	-10.0387
▁patience	-10.0387
▁patient	-10.0387
▁politics	-10.0387
▁skywalker	-10.0387
▁written	-10.0387
▁client	-10.0387
▁edgar	-10.0387
▁false	-10.0387
▁frederick	-10.0387
▁miserable	-10.0387
▁process	-10.0387
▁woozle	-10.0387
▁becoming	-10.0387
▁grunion	-10.0387
▁miami	-10.0387
▁smash	-10.0387
▁alodor	-10.0387
▁senior	-10.0387
▁stephen	-10.0387
▁otis	-10.0387
▁text	-10.0387
▁weep	-10.0387
▁swimming	-10.0387
▁stairs	-10.0387
▁jimmy	-10.0387
▁cancel	-10.0387
▁barely	-10.0387
▁mysterious	-10.0387
▁honour	-10.0387
▁alert	-10.0387
▁ordinary	-10.0388
▁permission	-10.0388
▁theory	-10.0388
▁parade	-10.0388
inlaw	-10.0388
▁camelot	-10.0388
▁unbelievable	-10.0388
▁lockwood	-10.0389
▁iron	-10.0389
▁imagination	-10.0389
▁title	-10.039
▁fungus	-10.039
▁airport	-10.039
▁ridge	-10.039
▁swamp	-10.0391
▁radar	-10.0393
▁cries	-10.0395
▁fuel	-10.0395
▁collection	-10.0398
▁talon	-10.0401
▁perry	-10.0403
▁market	-10.0404
▁fur	-10.0405
▁corn	-10.0408
▁belt	-10.0409
▁trusted	-10.0411
▁laid	-10.0412
▁naturally	-10.0416
▁carson	-10.0417
▁gain	-10.0421
▁cap	-10.0423
▁flap	-10.0425
▁fallen	-10.0427
▁ew	-10.0427
▁lack	-10.0428
▁embarrassing	-10.043
▁coin	-10.043
▁bury	-10.0431
▁received	-10.0432
▁mum	-10.0433
oh	-10.0442
ake	-10.0443
▁thrown	-10.0445
▁answers	-10.045
our	-10.0459
▁chat	-10.0475
▁lily	-10.0475
▁loaded	-10.0477
▁writer	-10.0487
gen	-10.0493
▁whispers	-10.0504
▁ref	-10.0516
▁hum	-10.0519
put	-10.0523
▁finest	-10.0527
gie	-10.0529
▁degrees	-10.0539
▁banks	-10.054
▁photos	-10.0558
▁closer	-10.056
▁engineer	-10.056
ode	-10.056
▁pat	-10.0574
▁rolling	-10.0584
▁bone	-10.0587
▁citizens	-10.0593
bit	-10.0601
▁relaxed	-10.0606
▁skills	-10.0611
▁rot	-10.0611
▁knee	-10.0619
▁slave	-10.0619
▁sport	-10.0627
▁rap	-10.0649
▁rate	-10.0652
▁egg	-10.0716
▁touched	-10.0747
▁sha	-10.0749
otten	-10.0766
gue	-10.0772
▁heavens	-10.0808
▁fellas	-10.0834
▁skip	-10.0843
▁ohh	-10.0847
▁reasons	-10.0848
▁cra	-10.0851
▁suffer	-10.0873
▁shout	-10.0882
▁flag	-10.0882
▁wreck	-10.0889
▁faces	-10.0892
▁transfer	-10.0915
▁africa	-10.0932
▁gettin	-10.0938
▁checked	-10.0938
▁trans	-10.0941
▁hung	-10.0941
▁admiral	-10.0943
▁argument	-10.0943
▁artillery	-10.0943
▁attitude	-10.0943
▁cavalry	-10.0943
▁chihiro	-10.0943
▁courbet	-10.0943
▁damascus	-10.0943
▁district	-10.0943
▁dracone	-10.0943
▁effort	-10.0943
▁exciting	-10.0943
▁explosion	-10.0943
▁goodfellowe	-10.0943
▁grateful	-10.0943
▁maharaja	-10.0943
▁recommend	-10.0943
▁scoffs	-10.0943
▁scratch	-10.0943
▁sergeant	-10.0943
▁sheik	-10.0943
▁slannen	-10.0943
▁subtitle	-10.0943
▁temple	-10.0943
▁therefore	-10.0943
▁understood	-10.0943
▁wilson	-10.0943
▁expert	-10.0943
▁hagrid	-10.0943
▁identity	-10.0943
▁orange	-10.0943
▁spanish	-10.0943
▁unique	-10.0943
▁cheek	-10.0943
▁forbidden	-10.0943
▁instinct	-10.0943
▁wicked	-10.0943
▁mount	-10.0943
▁nightmare	-10.0943
▁chinese	-10.0943
▁closing	-10.0943
▁mostly	-10.0943
▁legend	-10.0943
▁concert	-10.0943
▁aware	-10.0943
▁rising	-10.0943
▁standard	-10.0943
▁vision	-10.0943
▁jayson	-10.0943
▁disease	-10.0943
▁creak	-10.0944
▁option	-10.0944
▁pumpkin	-10.0944
▁wrapped	-10.0944
▁whoever	-10.0944
▁asshole	-10.0944
▁beatrice	-10.0944
▁theme	-10.0944
▁performance	-10.0945
▁giles	-10.0945
▁community	-10.0945
▁fbi	-10.0946
▁flash	-10.0946
▁capable	-10.0946
▁stress	-10.0946
▁mix	-10.0947
▁tuck	-10.0947
▁babo	-10.0947
▁dam	-10.0947
▁precisely	-10.0948
▁melman	-10.0948
▁assist	-10.0949
▁bible	-10.0949
▁task	-10.095
▁cock	-10.0951
▁crap	-10.0952
▁chosen	-10.0952
▁coughing	-10.0953
sive	-10.0953
▁cameron	-10.0954
▁quest	-10.0954
▁statement	-10.0957
▁grade	-10.096
▁pool	-10.096
▁pour	-10.0961
▁gim	-10.0963
▁chest	-10.0967
▁dug	-10.0967
▁yard	-10.0971
▁sniffing	-10.0973
▁mistaken	-10.098
▁matt	-10.0984
▁useless	-10.0985
▁squ	-10.0987
▁rank	-10.0989
▁cable	-10.0991
▁pity	-10.0991
▁est	-10.0995
▁inch	-10.0997
ute	-10.1011
▁manny	-10.1014
▁jam	-10.102
▁mentioned	-10.1038
▁aa	-10.104
▁ol	-10.1043
▁losers	-10.1046
▁coco	-10.1051
▁tied	-10.1057
▁accepted	-10.108
▁dan	-10.1112
fully	-10.1129
▁reached	-10.1135
itch	-10.1136
▁cur	-10.1138
▁jokes	-10.1144
▁he	-10.1147
▁magical	-10.1159
top	-10.1164
ney	-10.1183
▁parking	-10.1185
▁reb	-10.1205
▁servant	-10.1211
▁organ	-10.1219
▁here	-10.1222
▁mile	-10.1226
▁cla	-10.1245
▁nate	-10.1245
▁there	-10.1249
▁pulled	-10.1261
▁flu	-10.1275
▁cher	-10.1289
▁pounds	-10.1294
▁cres	-10.1298
▁lied	-10.1303
▁tent	-10.1305
▁odds	-10.1314
▁led	-10.133
▁tale	-10.1363
ory	-10.139
▁hunt	-10.1396
▁singer	-10.1424
▁ace	-10.1425
▁creep	-10.1432
▁pur	-10.1434
▁je	-10.1439
▁gates	-10.1449
▁legal	-10.1451
▁hip	-10.1463
rk	-10.147
▁site	-10.1478
▁brains	-10.1484
▁finding	-10.1488
▁arrange	-10.1489
▁create	-10.1492
power	-10.1501
cho	-10.1502
▁spit	-10.1517
▁comfort	-10.1528
▁approve	-10.1531
▁audrey	-10.1531
▁behavior	-10.1531
▁believing	-10.1531
▁channel	-10.1531
▁encourage	-10.1531
▁foreign	-10.1531
▁generation	-10.1531
▁giulia	-10.1531
▁gryffindor	-10.1531
▁include	-10.1531
▁inherit	-10.1531
▁invitation	-10.1531
▁knife	-10.1531
▁kumandra	-10.1531
▁league	-10.1531
▁lucinda	-10.1531
▁marshall	-10.1531
▁memories	-10.1531
▁practicing	-10.1531
▁recruit	-10.1531
▁reputation	-10.1531
▁review	-10.1531
▁sheep	-10.1531
▁stubborn	-10.1531
▁sweep	-10.1531
▁thump	-10.1531
▁tokyo	-10.1531
▁wabac	-10.1531
▁yubaba	-10.1531
▁brush	-10.1531
▁contain	-10.1531
▁feather	-10.1531
▁nolan	-10.1531
▁physical	-10.1531
▁towel	-10.1531
▁clifford	-10.1531
▁idella	-10.1531
▁worm	-10.1531
▁distant	-10.1531
▁estimate	-10.1531
▁goomba	-10.1531
▁method	-10.1531
▁wolfwalker	-10.1531
▁flank	-10.1531
▁spoil	-10.1531
▁psych	-10.1531
▁humming	-10.1531
▁instructions	-10.1531
▁padre	-10.1531
▁leap	-10.1531
▁shep	-10.1531
▁carrot	-10.1531
▁statue	-10.1531
▁owlets	-10.1531
▁whenever	-10.1531
▁vocal	-10.1531
▁bingo	-10.1532
▁amigo	-10.1532
▁intention	-10.1532
▁assignment	-10.1533
cient	-10.1533
▁juice	-10.1533
▁route	-10.1533
▁football	-10.1533
▁toothless	-10.1534
▁expensive	-10.1534
▁flesh	-10.1534
▁johnson	-10.1534
▁plain	-10.1535
▁thou	-10.1535
▁heir	-10.1535
▁ripper	-10.1535
▁obey	-10.1535
▁moron	-10.1535
▁wore	-10.1535
▁winning	-10.1536
▁dino	-10.1536
▁string	-10.1537
▁dope	-10.1539
▁halfway	-10.154
▁fhe	-10.1541
▁hop	-10.1543
▁delay	-10.1543
▁tenma	-10.1543
▁weston	-10.1544
▁aaah	-10.1546
▁bratt	-10.1546
spect	-10.1549
▁solve	-10.1552
▁aim	-10.1552
▁inter	-10.1554
tense	-10.1557
▁aha	-10.1557
▁tiny	-10.1559
▁sighing	-10.1559
▁ruby	-10.156
▁christal	-10.1564
▁witches	-10.1567
▁nest	-10.1567
▁rent	-10.1569
▁doon	-10.1572
▁gig	-10.1574
▁impressed	-10.1574
▁manager	-10.1576
▁barn	-10.1586
▁louise	-10.1588
pro	-10.1588
▁wilder	-10.1598
▁united	-10.1601
▁hunting	-10.1601
▁fry	-10.1605
▁yall	-10.1608
▁snarls	-10.1622
▁snape	-10.1624
mic	-10.163
▁deeper	-10.164
▁daughters	-10.1642
▁yah	-10.1654
bel	-10.1654
duce	-10.1656
▁stoney	-10.1669
▁barks	-10.1683
▁thy	-10.1717
burg	-10.1764
▁ti	-10.1775
▁yell	-10.178
▁protecting	-10.1789
▁trained	-10.1802
unk	-10.1802
▁doctors	-10.1805
▁fully	-10.1817
▁u	-10.1823
▁alien	-10.1838
▁hills	-10.1841
▁aliens	-10.1844
▁that	-10.185
▁score	-10.185
▁siren	-10.186
cap	-10.1862
▁flower	-10.188
▁sports	-10.1884
▁operat	-10.19
▁kissed	-10.1909
▁killer	-10.1911
▁tin	-10.1921
▁whistles	-10.1925
▁friendly	-10.1929
▁bel	-10.1951
▁details	-10.1966
▁roses	-10.1979
mate	-10.2009
▁learning	-10.201
▁secrets	-10.2033
▁bre	-10.2071
▁prop	-10.208
▁pit	-10.2096
▁mill	-10.2099
▁bags	-10.2116
▁tar	-10.2123
yard	-10.2128
sure	-10.2128
wood	-10.2129
port	-10.2132
box	-10.2136
▁official	-10.2137
▁unfortunate	-10.2137
▁actual	-10.2137
▁sex	-10.214
▁earn	-10.2141
▁chose	-10.2146
▁au	-10.2148
▁gentle	-10.2152
▁courage	-10.2154
▁plot	-10.2155
▁adult	-10.2156
▁council	-10.2156
▁downstairs	-10.2156
▁episode	-10.2156
▁equipment	-10.2156
▁ernesto	-10.2156
▁evacuate	-10.2156
▁families	-10.2156
▁gabriel	-10.2156
▁galaxy	-10.2156
▁gracias	-10.2156
▁grantham	-10.2156
▁library	-10.2156
▁mermaid	-10.2156
▁mexico	-10.2156
▁moonquake	-10.2156
▁photograph	-10.2156
▁relative	-10.2156
▁research	-10.2156
▁salmon	-10.2156
▁struggle	-10.2156
▁tempo	-10.2156
▁wednesday	-10.2156
▁werthan	-10.2156
▁access	-10.2156
▁anderson	-10.2156
▁honeymoon	-10.2156
▁importance	-10.2156
▁melvin	-10.2156
▁policy	-10.2156
▁sardine	-10.2156
▁slept	-10.2156
▁swell	-10.2156
▁benja	-10.2156
▁period	-10.2156
▁sarah	-10.2156
▁ciao	-10.2156
▁niece	-10.2156
▁sacred	-10.2156
▁brewery	-10.2156
▁tyto	-10.2156
▁insane	-10.2156
▁moral	-10.2156
▁distract	-10.2156
▁desire	-10.2156
▁tank	-10.2156
▁toast	-10.2156
▁whirring	-10.2156
▁glob	-10.2156
▁steel	-10.2156
▁jabba	-10.2156
▁network	-10.2156
▁muffled	-10.2157
▁rogas	-10.2157
▁meteorite	-10.2157
▁nerve	-10.2157
▁rosa	-10.2157
▁navy	-10.2157
▁supper	-10.2157
▁riddle	-10.2158
▁upside	-10.2158
▁appearance	-10.2158
▁coward	-10.2159
▁lisa	-10.2159
▁earlier	-10.2159
▁senator	-10.2159
▁sobs	-10.2159
▁batteries	-10.2159
▁mental	-10.216
▁plate	-10.216
▁blah	-10.216
▁olive	-10.216
▁fleet	-10.216
▁bette	-10.216
▁pub	-10.2162
▁sentimental	-10.2162
▁chasing	-10.2162
▁tub	-10.2162
▁patch	-10.2162
▁planes	-10.2162
▁thick	-10.2163
▁reward	-10.2164
▁forth	-10.2164
▁apparently	-10.2164
▁peak	-10.2165
ridden	-10.2165
▁oops	-10.2166
▁lordship	-10.2166
▁gear	-10.2168
▁sock	-10.2169
▁spoken	-10.217
▁capt	-10.2172
▁suddenly	-10.2174
▁spec	-10.2176
▁anne	-10.2176
▁nun	-10.2181
▁determined	-10.2182
▁healthy	-10.2184
▁straining	-10.2185
▁setting	-10.2186
▁thor	-10.2186
▁abandoned	-10.2188
▁flame	-10.2191
▁weight	-10.2194
▁comin	-10.2195
▁seize	-10.2195
▁bubble	-10.2197
▁lifetime	-10.22
▁circumstances	-10.221
▁sink	-10.221
▁omi	-10.2217
▁sold	-10.2219
▁ration	-10.2224
▁oughta	-10.2225
▁ob	-10.2227
gon	-10.2229
▁mc	-10.2235
▁latest	-10.2236
▁beep	-10.2238
astic	-10.2238
▁classic	-10.2242
low	-10.2253
▁ton	-10.2255
▁blessed	-10.2271
▁spy	-10.2275
▁facts	-10.2276
cle	-10.2297
▁townie	-10.2304
▁pete	-10.2307
▁customers	-10.232
▁makeup	-10.2328
▁disco	-10.2329
▁chef	-10.2332
lon	-10.2332
▁pearls	-10.2338
▁filled	-10.2339
za	-10.235
▁clouds	-10.2359
▁wasted	-10.2363
▁hu	-10.2367
maker	-10.2381
▁highly	-10.2386
▁shadows	-10.2403
ander	-10.2408
▁reports	-10.241
▁boots	-10.2413
▁depends	-10.2422
▁coo	-10.2428
▁che	-10.2437
▁drug	-10.2514
war	-10.2516
▁ko	-10.254
itat	-10.2556
▁sch	-10.2561
▁passing	-10.2574
▁pea	-10.2584
▁rub	-10.2588
▁hoo	-10.2632
get	-10.2654
▁fund	-10.2664
▁beating	-10.2686
▁qua	-10.2702
▁at	-10.2722
▁por	-10.2732
▁tricks	-10.2733
▁honk	-10.2758
ox	-10.2764
▁believed	-10.2765
nde	-10.2769
▁wound	-10.2771
cc	-10.2771
▁separate	-10.2781
▁complain	-10.279
like	-10.2793
▁dirt	-10.2794
foot	-10.2794
▁health	-10.2799
▁sudden	-10.2803
▁hel	-10.2804
coco	-10.2805
▁heave	-10.2811
▁instrument	-10.2812
▁confess	-10.2817
▁commit	-10.2817
▁yank	-10.2821
▁favour	-10.2822
▁resist	-10.2822
▁affair	-10.2823
▁annette	-10.2823
▁blanket	-10.2823
▁chanice	-10.2823
▁companion	-10.2823
▁competition	-10.2823
▁consequence	-10.2823
▁enemies	-10.2823
▁entrance	-10.2823
▁eventually	-10.2823
▁explode	-10.2823
▁francisco	-10.2823
▁gazzo	-10.2823
▁graduate	-10.2823
▁grandmother	-10.2823
▁halloween	-10.2823
▁happily	-10.2823
▁headquarters	-10.2823
▁hogwarts	-10.2823
▁jennifer	-10.2823
▁manhattan	-10.2823
▁metropolis	-10.2823
▁molesley	-10.2823
▁myra	-10.2823
▁nicholas	-10.2823
▁patrick	-10.2823
▁resident	-10.2823
▁shakespeare	-10.2823
▁sophie	-10.2823
▁unusual	-10.2823
▁virginia	-10.2823
▁willow	-10.2823
▁carriage	-10.2823
▁deploy	-10.2823
▁jeez	-10.2823
▁luisa	-10.2823
▁melanie	-10.2823
▁ralph	-10.2823
▁shriek	-10.2823
▁smack	-10.2823
▁struck	-10.2823
▁victory	-10.2823
▁fender	-10.2823
▁garcin	-10.2823
▁salad	-10.2823
▁mumbles	-10.2823
▁permit	-10.2823
▁changing	-10.2823
▁prime	-10.2823
▁error	-10.2823
▁blew	-10.2823
▁snipe	-10.2823
▁scale	-10.2823
▁triumph	-10.2823
▁zoe	-10.2823
▁midnight	-10.2823
▁muttering	-10.2823
▁narrat	-10.2823
▁acquaintance	-10.2823
▁berthold	-10.2823
▁carried	-10.2823
▁angle	-10.2823
▁bamba	-10.2823
▁fairfax	-10.2823
▁admire	-10.2823
▁joking	-10.2824
▁alternative	-10.2824
▁reverse	-10.2824
▁apple	-10.2824
▁trash	-10.2824
▁audition	-10.2825
▁crawl	-10.2825
▁stood	-10.2825
▁hush	-10.2825
▁trial	-10.2825
▁pulse	-10.2826
▁whatre	-10.2826
▁bobby	-10.2827
zio	-10.2828
▁grandpa	-10.2829
▁package	-10.2829
▁familiar	-10.2829
▁aside	-10.283
▁investigat	-10.283
▁yoda	-10.2831
▁evan	-10.2831
▁bounce	-10.2831
▁secretary	-10.2833
▁masha	-10.2834
▁heartbeat	-10.2834
▁beak	-10.2836
▁russian	-10.2836
▁yearold	-10.2837
▁gump	-10.2837
▁tong	-10.284
▁ember	-10.2842
away	-10.2844
▁hack	-10.2846
▁elf	-10.2848
▁creepy	-10.2857
▁lina	-10.2857
▁rev	-10.2858
▁rage	-10.2859
▁embarrassed	-10.2865
▁payment	-10.2867
▁poll	-10.2869
▁designed	-10.2872
▁wo	-10.2877
▁earned	-10.288
▁coughs	-10.288
▁perfection	-10.2882
▁signor	-10.2883
▁hint	-10.2889
▁disappeared	-10.289
▁beeping	-10.2896
itation	-10.2898
▁seth	-10.29
▁remains	-10.291
▁cheating	-10.2917
▁sneaking	-10.2921
ggle	-10.2925
▁fore	-10.2929
bre	-10.2934
▁qu	-10.2941
headed	-10.2944
ama	-10.2961
▁bid	-10.2979
▁lass	-10.298
▁considered	-10.2982
▁collecting	-10.2998
▁painting	-10.3014
▁enjoyed	-10.3031
▁liz	-10.3057
▁orphans	-10.3064
▁plumbers	-10.3087
▁manners	-10.3089
▁privilege	-10.3114
▁prisoners	-10.3125
right	-10.3128
▁searching	-10.3131
▁selling	-10.3135
▁dancer	-10.3158
▁der	-10.3163
hole	-10.3168
▁pushing	-10.3182
▁los	-10.3186
▁spark	-10.3213
▁ding	-10.3237
▁alo	-10.3241
▁feelin	-10.325
▁sue	-10.3253
▁declare	-10.3255
your	-10.3256
▁af	-10.3259
▁watched	-10.3283
▁rad	-10.3296
▁ogres	-10.3298
▁lover	-10.3299
▁fla	-10.3365
eater	-10.3407
ita	-10.3412
▁damned	-10.3422
▁oneil	-10.3429
fish	-10.3434
▁placed	-10.3443
▁bri	-10.3449
▁jar	-10.3451
cat	-10.3467
▁inform	-10.348
▁design	-10.3484
pi	-10.3493
▁tick	-10.3516
ina	-10.3517
▁absolute	-10.3518
▁obvious	-10.3518
▁you	-10.3523
▁electric	-10.3523
▁effect	-10.3534
pin	-10.3535
▁revolution	-10.3535
▁meteor	-10.3536
▁greatgreatgrand	-10.3537
▁wrap	-10.3537
▁accuse	-10.3537
▁achieve	-10.3537
▁astrid	-10.3537
▁bessner	-10.3537
▁broccoli	-10.3537
▁butkus	-10.3537
▁chorus	-10.3537
▁chronicle	-10.3537
▁coconut	-10.3537
▁concept	-10.3537
▁counsel	-10.3537
▁disguise	-10.3537
▁dumbledore	-10.3537
▁earthquake	-10.3537
▁einstein	-10.3537
▁europe	-10.3537
▁ignore	-10.3537
▁jacobo	-10.3537
▁muntz	-10.3537
▁ofrenda	-10.3537
▁otterbourne	-10.3537
▁pankot	-10.3537
▁possibility	-10.3537
▁principal	-10.3537
▁regiment	-10.3537
▁rematch	-10.3537
▁restaurant	-10.3537
▁retreat	-10.3537
▁santiago	-10.3537
▁scapelli	-10.3537
▁scott	-10.3537
▁southpaw	-10.3537
▁sunshine	-10.3537
▁thompson	-10.3537
▁torture	-10.3537
▁tournament	-10.3537
▁ultimate	-10.3537
▁victim	-10.3537
▁critter	-10.3537
▁dozen	-10.3537
▁fashion	-10.3537
▁jersey	-10.3537
▁pathetic	-10.3537
▁pellet	-10.3537
▁snack	-10.3537
▁spike	-10.3537
▁dalton	-10.3537
▁stretch	-10.3537
▁supply	-10.3537
▁frog	-10.3537
▁await	-10.3537
▁scout	-10.3537
▁dawn	-10.3537
▁personnel	-10.3537
▁flora	-10.3537
▁gently	-10.3537
▁imperial	-10.3537
▁sheet	-10.3537
▁ellie	-10.3537
▁craft	-10.3537
▁reveal	-10.3537
▁strict	-10.3537
▁transmission	-10.3537
▁demon	-10.3537
▁linda	-10.3537
▁goblin	-10.3537
▁multiple	-10.3537
▁vain	-10.3537
▁plaza	-10.3537
▁scheme	-10.3537
▁doris	-10.3537
▁trace	-10.3537
▁activate	-10.3538
▁kryptonite	-10.3538
▁sniffles	-10.3538
▁radiation	-10.3538
▁herb	-10.3538
▁waltz	-10.3538
▁snowball	-10.3538
▁brake	-10.3538
▁ofthe	-10.3539
▁bacon	-10.3539
▁tune	-10.3539
▁flux	-10.3539
▁jazz	-10.3539
▁cease	-10.3539
▁unknown	-10.3539
▁novel	-10.354
▁bald	-10.354
▁stopping	-10.354
▁studio	-10.354
▁leak	-10.3541
▁studie	-10.3541
▁anti	-10.3541
▁bounty	-10.3541
▁daily	-10.3541
▁bodies	-10.3542
▁blades	-10.3542
▁troll	-10.3542
▁civil	-10.3542
▁potatoes	-10.3542
▁max	-10.3543
▁roommate	-10.3543
▁panel	-10.3544
▁reverend	-10.3545
▁buff	-10.3545
▁objection	-10.3545
▁pitch	-10.3546
▁basement	-10.3547
▁thirsty	-10.3547
▁projector	-10.3547
▁claw	-10.3547
▁intern	-10.3548
▁rack	-10.3549
▁laser	-10.355
▁tooth	-10.3556
▁mice	-10.3557
▁preacher	-10.3558
▁batter	-10.356
▁burst	-10.356
ford	-10.3567
▁hitting	-10.3569
▁cott	-10.357
▁cargo	-10.357
▁whale	-10.3572
▁tia	-10.3578
▁carol	-10.358
▁kent	-10.358
five	-10.3581
▁finn	-10.3581
▁invented	-10.3582
▁impress	-10.3582
▁chanting	-10.3586
▁frightened	-10.3586
▁parties	-10.3599
▁pm	-10.3609
▁howdy	-10.362
ological	-10.3623
▁aye	-10.3625
▁dar	-10.363
▁movement	-10.3637
▁flyn	-10.364
▁bot	-10.3646
▁lookin	-10.3652
▁safer	-10.3666
▁viva	-10.3669
han	-10.3673
▁useful	-10.3676
lousy	-10.3677
▁roaring	-10.3679
▁murdered	-10.3681
▁mandy	-10.3683
▁successful	-10.37
▁arrested	-10.3701
▁realized	-10.3702
ood	-10.3732
▁feeding	-10.3759
▁op	-10.3766
▁neat	-10.3768
▁checking	-10.3769
▁qui	-10.3773
▁armed	-10.3794
▁burning	-10.3807
▁cooking	-10.3811
▁opera	-10.3821
▁messed	-10.3829
▁engines	-10.3839
▁tracking	-10.3867
▁giants	-10.3876
but	-10.3881
▁offering	-10.3883
▁spending	-10.3896
▁costs	-10.3897
▁jo	-10.3903
hand	-10.3915
chi	-10.3916
▁howl	-10.3917
▁yells	-10.3925
eyed	-10.3948
▁ci	-10.3962
cam	-10.3976
▁neighbor	-10.398
▁skill	-10.3985
▁depend	-10.3986
▁cheers	-10.4008
▁whip	-10.4013
▁lip	-10.4019
▁gut	-10.4028
what	-10.403
▁prisoner	-10.4048
bot	-10.406
▁joining	-10.4063
▁cre	-10.4127
rid	-10.4144
▁rd	-10.4144
how	-10.4146
▁dreaming	-10.4175
press	-10.4175
▁host	-10.4202
▁bobbles	-10.4229
▁announc	-10.4233
▁frighten	-10.4253
▁silen	-10.4262
▁divorce	-10.4264
▁grant	-10.4266
▁scor	-10.4271
woman	-10.4276
girl	-10.4276
rai	-10.4282
▁weigh	-10.4283
▁emotional	-10.429
▁moto	-10.4292
▁mmhm	-10.4298
▁chick	-10.43
▁cri	-10.4302
▁author	-10.4303
▁egypt	-10.4304
▁amount	-10.4306
▁assault	-10.4306
▁australia	-10.4306
▁bagshaw	-10.4306
▁bolivia	-10.4306
▁branson	-10.4306
▁elected	-10.4306
▁fabulous	-10.4306
▁farewell	-10.4306
▁geneva	-10.4306
▁gloria	-10.4306
▁glorious	-10.4306
▁goomgoom	-10.4306
▁gorgeous	-10.4306
▁grandfather	-10.4306
▁hamilton	-10.4306
▁institute	-10.4306
▁introduction	-10.4306
▁llorona	-10.4306
▁magnificent	-10.4306
▁marvelous	-10.4306
▁milord	-10.4306
▁mumbling	-10.4306
▁orchestra	-10.4306
▁platform	-10.4306
▁powder	-10.4306
▁pregnant	-10.4306
▁principle	-10.4306
▁pterodactyl	-10.4306
▁rasputin	-10.4306
▁ratchet	-10.4306
▁rendezvous	-10.4306
▁rhyme	-10.4306
▁similar	-10.4306
▁sobbing	-10.4306
▁teenager	-10.4306
▁trixie	-10.4306
▁vault	-10.4306
▁vegetable	-10.4306
▁appeal	-10.4306
▁bargain	-10.4306
▁communicate	-10.4306
▁elevate	-10.4306
▁ercole	-10.4306
▁hawaii	-10.4306
▁maintain	-10.4306
▁outmode	-10.4306
▁stallion	-10.4306
▁temper	-10.4306
▁alpha	-10.4306
▁coffin	-10.4306
▁eternal	-10.4306
▁gordon	-10.4306
▁mathesar	-10.4306
▁parallel	-10.4306
▁sunrise	-10.4306
▁praise	-10.4306
▁squeez	-10.4306
▁jaime	-10.4306
▁hulie	-10.4306
▁warrior	-10.4306
▁yawp	-10.4306
▁brief	-10.4306
▁commie	-10.4306
▁coolsville	-10.4306
▁stuart	-10.4306
▁knot	-10.4306
▁slam	-10.4306
▁hattie	-10.4306
▁frell	-10.4306
▁blaring	-10.4306
▁larry	-10.4306
▁style	-10.4306
▁whooping	-10.4306
▁lamp	-10.4306
▁consent	-10.4307
▁lemonade	-10.4307
▁role	-10.4307
▁basis	-10.4307
▁neighborhood	-10.4307
▁anger	-10.4307
▁evidence	-10.4307
▁university	-10.4307
▁uglyville	-10.4307
▁elves	-10.4307
▁intruders	-10.4307
▁western	-10.4308
▁greetings	-10.4308
▁shark	-10.4308
▁assistance	-10.4308
while	-10.4308
▁yankee	-10.4308
▁turkey	-10.4308
▁noble	-10.4309
▁authority	-10.4309
▁fold	-10.4309
▁electricity	-10.4309
▁meow	-10.4309
▁nazi	-10.4309
▁patty	-10.4309
▁flatter	-10.4309
▁impressive	-10.431
▁failure	-10.431
▁shrubbery	-10.431
▁affection	-10.431
▁echo	-10.431
▁reactor	-10.4311
▁rode	-10.4312
▁porch	-10.4312
▁investigation	-10.4313
▁unlike	-10.4313
handed	-10.4313
▁practically	-10.4313
▁mold	-10.4313
▁driveway	-10.4314
▁adoption	-10.4315
▁charity	-10.4316
▁frame	-10.4316
kung	-10.4318
▁mock	-10.4319
▁applauding	-10.432
▁suckers	-10.4321
▁spotted	-10.4321
▁krypton	-10.4322
elda	-10.4323
▁arch	-10.4324
▁sack	-10.4324
▁vice	-10.4327
▁boiler	-10.4329
ane	-10.433
▁peril	-10.4332
▁shao	-10.4333
▁properly	-10.434
▁confirmed	-10.4342
▁tax	-10.4344
▁passion	-10.4348
▁mall	-10.435
▁fuss	-10.4351
▁carpe	-10.4353
▁sixth	-10.4356
▁blown	-10.4359
▁this	-10.4359
bar	-10.4362
▁unable	-10.4363
▁root	-10.4364
▁toes	-10.4376
▁hopeless	-10.4379
▁required	-10.4381
fer	-10.4388
▁honking	-10.4388
▁shave	-10.4393
▁circuits	-10.44
▁settled	-10.4405
iate	-10.4407
boy	-10.4408
▁ana	-10.4412
air	-10.4416
dern	-10.442
▁pole	-10.4423
▁carter	-10.4424
▁bend	-10.4428
▁caused	-10.4429
▁rescued	-10.4432
▁frankly	-10.4436
▁par	-10.4441
gram	-10.4455
▁louder	-10.4459
▁sto	-10.446
▁jon	-10.4461
▁studying	-10.4466
▁delivered	-10.4466
▁blo	-10.4467
▁quietly	-10.4479
▁caf	-10.4482
▁badge	-10.449
▁pla	-10.4498
▁switched	-10.45
▁sniffs	-10.4503
▁fate	-10.4511
▁sup	-10.4518
▁spic	-10.4531
▁joint	-10.4537
after	-10.4542
▁packing	-10.4559
▁comedy	-10.461
▁enjoying	-10.4627
▁neighbors	-10.4642
▁blowing	-10.4659
▁sparks	-10.467
▁drugs	-10.4697
tto	-10.4701
▁melt	-10.471
▁scores	-10.4735
▁speaker	-10.4745
▁tis	-10.4777
▁knees	-10.4779
▁ned	-10.4784
▁younger	-10.4794
▁issues	-10.4807
▁poems	-10.4807
▁boot	-10.4811
▁plumber	-10.4816
▁shadow	-10.4816
▁citizen	-10.4818
▁sounded	-10.482
span	-10.4829
▁demands	-10.4834
▁tales	-10.4837
▁rem	-10.4874
▁fin	-10.4923
▁manner	-10.4929
▁cro	-10.4958
▁nicely	-10.4996
▁embarrass	-10.5018
▁invent	-10.5052
▁pod	-10.5065
▁ali	-10.5073
▁stri	-10.5073
▁commission	-10.5079
▁insult	-10.5085
▁advance	-10.5098
▁if	-10.5101
▁wished	-10.5102
ground	-10.5102
fall	-10.511
▁stead	-10.511
▁invest	-10.5118
force	-10.5119
▁hee	-10.5122
▁barbar	-10.5122
ban	-10.5125
▁dru	-10.5127
▁brat	-10.513
▁cec	-10.5136
▁magn	-10.5136
▁basket	-10.5139
▁relation	-10.5139
▁individual	-10.5139
▁rehears	-10.5139
▁worship	-10.5139
▁academy	-10.5139
▁adorable	-10.5139
▁agnes	-10.5139
▁agricola	-10.5139
▁altitude	-10.5139
▁anxious	-10.5139
▁appropriate	-10.5139
▁autopilot	-10.5139
▁calcifer	-10.5139
▁calculus	-10.5139
▁carnival	-10.5139
▁ceremony	-10.5139
▁chemist	-10.5139
▁cigar	-10.5139
▁coincidence	-10.5139
▁compliment	-10.5139
▁coordinate	-10.5139
▁coronation	-10.5139
▁creative	-10.5139
▁dedicated	-10.5139
▁dimple	-10.5139
▁doomsday	-10.5139
▁dynamite	-10.5139
▁elbow	-10.5139
▁exchange	-10.5139
▁explosiveskull	-10.5139
▁extraordinary	-10.5139
▁fergus	-10.5139
▁fiji	-10.5139
▁frankenstein	-10.5139
▁frequency	-10.5139
▁grumble	-10.5139
▁hancock	-10.5139
▁harriman	-10.5139
▁hermione	-10.5139
▁intelligence	-10.5139
▁intelligent	-10.5139
▁lancelot	-10.5139
▁magazine	-10.5139
▁mariejosephe	-10.5139
▁medicine	-10.5139
▁misunderstand	-10.5139
▁munchausen	-10.5139
▁oldfashioned	-10.5139
▁prototype	-10.5139
▁reject	-10.5139
▁romance	-10.5139
▁slytherin	-10.5139
▁smeerensburg	-10.5139
▁teschmacher	-10.5139
▁thanksgiving	-10.5139
▁thrust	-10.5139
▁tremendous	-10.5139
▁tunnel	-10.5139
▁vehicle	-10.5139
▁volpe	-10.5139
▁william	-10.5139
▁wisdom	-10.5139
▁withdraw	-10.5139
▁yelps	-10.5139
▁cigarette	-10.5139
▁omega	-10.5139
▁reelect	-10.5139
▁scoobydoo	-10.5139
▁slide	-10.5139
▁stella	-10.5139
▁abbey	-10.514
▁infant	-10.514
▁launch	-10.514
▁thief	-10.514
▁chapter	-10.514
▁mammal	-10.514
▁yonder	-10.514
▁doorbell	-10.514
▁illegal	-10.514
▁prevent	-10.514
▁ewell	-10.514
▁burden	-10.514
▁tiger	-10.514
▁drove	-10.514
▁jesper	-10.514
▁squad	-10.514
▁locksley	-10.514
▁thread	-10.514
▁impact	-10.514
▁eddie	-10.514
▁shore	-10.514
▁susie	-10.514
▁whyd	-10.514
▁propose	-10.514
▁dumpster	-10.514
▁yoyo	-10.514
▁primar	-10.514
▁stamp	-10.514
▁beachport	-10.514
▁lizzy	-10.514
▁wives	-10.514
▁sunset	-10.514
▁underdog	-10.514
▁banish	-10.5141
▁resistance	-10.5141
▁punishment	-10.5142
▁pirate	-10.5142
▁wingfield	-10.5142
▁festival	-10.5142
▁terrorist	-10.5142
▁babysit	-10.5142
▁improvement	-10.5143
▁bold	-10.5143
▁development	-10.5143
▁ripped	-10.5143
▁canine	-10.5143
▁punk	-10.5144
▁shane	-10.5144
▁soak	-10.5144
▁eva	-10.5145
▁oak	-10.5145
▁howard	-10.5145
▁collar	-10.5145
▁foul	-10.5145
▁gray	-10.5145
▁grownup	-10.5145
▁sarge	-10.5145
▁heth	-10.5146
glove	-10.5146
▁impression	-10.5146
▁owned	-10.5147
▁fever	-10.5147
▁whatll	-10.5148
▁fame	-10.5149
▁sphere	-10.5149
▁agh	-10.5149
▁hopefully	-10.515
▁habit	-10.515
▁humor	-10.5151
▁tur	-10.5152
▁hated	-10.5153
▁agreement	-10.5154
▁drill	-10.5156
▁bucket	-10.5156
▁passage	-10.5156
▁smit	-10.5159
▁gettys	-10.516
▁dating	-10.5162
ology	-10.5165
▁drawn	-10.5167
▁cora	-10.5169
▁cone	-10.5176
▁piss	-10.5178
▁advanced	-10.5181
▁spite	-10.5182
ocus	-10.5185
uous	-10.5186
▁rust	-10.5188
▁mule	-10.5192
ified	-10.5192
▁when	-10.5194
▁sale	-10.5196
▁ranger	-10.5198
▁thee	-10.52
▁armor	-10.5203
▁removed	-10.5208
▁weas	-10.5222
▁scooby	-10.5227
▁creeping	-10.5241
▁uglydolls	-10.5242
▁kindness	-10.5243
▁suffering	-10.5247
▁released	-10.5247
pic	-10.525
▁rin	-10.5252
▁warned	-10.5261
▁foryou	-10.5296
▁served	-10.5302
▁pee	-10.5322
▁jews	-10.5329
nuff	-10.5342
▁til	-10.5346
▁sim	-10.5353
▁poets	-10.5355
cal	-10.536
▁formed	-10.5411
▁terms	-10.5413
▁differently	-10.542
▁pine	-10.548
▁cleaned	-10.5511
▁lit	-10.5541
pre	-10.5556
▁nana	-10.5568
▁wipe	-10.5574
▁cab	-10.56
▁celebrate	-10.5611
▁reporting	-10.5615
▁beautifully	-10.5631
▁za	-10.5641
▁dep	-10.5672
▁receive	-10.5673
▁fixing	-10.5675
▁tend	-10.5681
▁orphan	-10.5722
▁toward	-10.5733
otic	-10.5744
▁pl	-10.5775
▁what	-10.5777
▁zip	-10.5782
▁chu	-10.5801
▁cape	-10.5901
▁hon	-10.5915
▁produce	-10.5965
tender	-10.5975
▁crow	-10.5997
▁capture	-10.6008
▁wast	-10.6013
print	-10.6017
▁yia	-10.6019
▁custom	-10.602
▁current	-10.6029
▁tit	-10.6033
▁dot	-10.6036
▁remove	-10.6042
▁develop	-10.6045
▁terror	-10.6046
▁expos	-10.6048
▁lemon	-10.6048
▁thud	-10.6049
▁forbid	-10.6049
▁neigh	-10.6049
▁broadcast	-10.6049
▁virtu	-10.6049
▁advise	-10.6049
▁aircraft	-10.6049
▁allenby	-10.6049
▁allomere	-10.6049
▁ashford	-10.6049
▁breeze	-10.6049
▁ciccio	-10.6049
▁collider	-10.6049
▁complicated	-10.6049
▁confusion	-10.6049
▁constitution	-10.6049
▁cruise	-10.6049
▁display	-10.6049
▁entitled	-10.6049
▁fabric	-10.6049
▁facility	-10.6049
▁fridge	-10.6049
▁froze	-10.6049
▁gauntlet	-10.6049
▁gibberish	-10.6049
▁gizzard	-10.6049
▁gorignak	-10.6049
▁gunnison	-10.6049
▁hamster	-10.6049
▁intercept	-10.6049
▁kassar	-10.6049
▁liberty	-10.6049
▁lunatic	-10.6049
▁messenger	-10.6049
▁miraculous	-10.6049
▁obiwan	-10.6049
▁password	-10.6049
▁pennsylvania	-10.6049
▁persuade	-10.6049
▁philadelphia	-10.6049
▁potential	-10.6049
▁preparing	-10.6049
▁procedure	-10.6049
▁romantic	-10.6049
▁saloon	-10.6049
▁screen	-10.6049
▁simpkins	-10.6049
▁somewhat	-10.6049
▁squirrel	-10.6049
▁suspicious	-10.6049
▁technical	-10.6049
▁terrified	-10.6049
▁traffic	-10.6049
▁unexpected	-10.6049
▁xanadu	-10.6049
▁chump	-10.6049
▁dignity	-10.6049
▁polite	-10.6049
▁ribs	-10.6049
▁wyler	-10.6049
▁yoohoo	-10.6049
▁anytime	-10.6049
▁attached	-10.6049
▁bieber	-10.6049
▁extend	-10.6049
▁kidnapping	-10.6049
▁granddad	-10.6049
▁indiana	-10.6049
▁jello	-10.6049
▁hustle	-10.6049
▁lizard	-10.6049
▁centre	-10.6049
▁demonstrat	-10.6049
▁salary	-10.6049
▁film	-10.6049
▁peache	-10.6049
▁shatter	-10.6049
▁katie	-10.6049
▁occurred	-10.6049
▁raft	-10.6049
▁superior	-10.6049
▁digger	-10.6049
▁grip	-10.6049
▁unreal	-10.6049
▁boolie	-10.6049
▁poker	-10.6049
▁render	-10.6049
▁email	-10.6049
▁winslow	-10.6049
▁preserv	-10.6049
▁florine	-10.6049
▁reflect	-10.6049
▁lrish	-10.6049
▁candle	-10.6049
▁bolt	-10.6049
▁dishes	-10.6049
▁grass	-10.6049
▁happie	-10.6049
▁halt	-10.6049
▁bliss	-10.6049
▁cliff	-10.6049
▁edith	-10.6049
▁daphne	-10.605
▁plug	-10.605
▁urgent	-10.605
▁stream	-10.605
▁flood	-10.605
▁trunk	-10.605
▁beans	-10.605
▁humble	-10.605
▁herd	-10.605
▁electron	-10.605
▁screwball	-10.6051
▁kong	-10.6051
▁online	-10.6051
▁brand	-10.6051
▁slipped	-10.6051
▁skate	-10.6051
▁rustling	-10.6052
▁reaction	-10.6052
▁engagement	-10.6052
▁marble	-10.6052
▁ellison	-10.6053
▁assistant	-10.6053
▁chopper	-10.6053
▁descend	-10.6053
semble	-10.6053
▁taunt	-10.6054
▁scu	-10.6054
▁fox	-10.6054
▁claus	-10.6055
▁selfish	-10.6056
▁bock	-10.6056
▁babe	-10.6057
▁voil	-10.6058
▁brew	-10.6058
▁dried	-10.6059
▁loop	-10.6059
▁romeo	-10.606
▁beings	-10.606
▁influence	-10.606
▁weakness	-10.6061
▁hideous	-10.6061
▁emily	-10.6062
▁ability	-10.6062
▁scent	-10.6063
▁sore	-10.6064
▁african	-10.6066
▁bait	-10.6069
▁friendship	-10.6069
ux	-10.607
▁flies	-10.6072
▁hut	-10.6073
▁alan	-10.6074
▁bout	-10.6074
▁headline	-10.6078
▁bleeding	-10.6079
ith	-10.6081
▁builders	-10.6081
▁reasonable	-10.6085
▁fascinating	-10.6086
▁threatened	-10.6087
▁jab	-10.6087
▁marie	-10.6089
▁restore	-10.6091
▁maiden	-10.6094
uld	-10.6094
▁particularly	-10.6098
▁fist	-10.6099
east	-10.6114
▁auto	-10.6114
▁bam	-10.6115
▁dial	-10.6118
ray	-10.6123
▁mustnt	-10.615
▁bitter	-10.6154
▁scann	-10.6156
▁refused	-10.616
▁bond	-10.6164
▁classes	-10.6168
▁organize	-10.6172
▁chewing	-10.6173
▁damaged	-10.6175
▁hardest	-10.6182
▁skipp	-10.6189
▁emotions	-10.6193
▁based	-10.62
▁gathered	-10.621
▁carbon	-10.6211
▁greatness	-10.6231
▁climbing	-10.6233
tore	-10.6247
▁laying	-10.6247
▁nut	-10.6251
▁rumors	-10.6257
through	-10.6258
▁ideal	-10.6276
▁sailing	-10.6294
▁county	-10.6308
▁burned	-10.6317
▁jewel	-10.6317
agging	-10.632
▁protected	-10.6363
eye	-10.6391
▁eg	-10.6394
▁fee	-10.6406
▁jen	-10.6417
▁shhh	-10.6418
▁flipp	-10.6425
▁pushed	-10.6431
▁callers	-10.6433
▁with	-10.6434
▁traveling	-10.6442
▁continu	-10.647
eur	-10.6472
▁sum	-10.648
▁ami	-10.6481
about	-10.6489
ouch	-10.6517
▁net	-10.6537
▁off	-10.6548
▁noon	-10.656
lock	-10.6593
▁croc	-10.6647
▁arabia	-10.6663
▁flo	-10.6692
▁therm	-10.6705
▁cloud	-10.6725
▁term	-10.6727
▁ooo	-10.6775
▁mari	-10.6831
rine	-10.6845
▁forgiven	-10.6847
▁unto	-10.687
▁thankful	-10.6878
▁mode	-10.6962
▁origin	-10.6966
▁roo	-10.699
▁chant	-10.6995
▁abandon	-10.6996
▁surround	-10.6996
▁disappoint	-10.6996
▁engage	-10.7004
tooth	-10.7017
heart	-10.7018
▁slim	-10.702
order	-10.7025
phone	-10.7025
▁julie	-10.7033
▁hous	-10.7033
▁pul	-10.704
walk	-10.704
q	-10.7041
pack	-10.7043
▁improve	-10.7045
▁detect	-10.7046
kind	-10.7047
▁threat	-10.7048
historic	-10.7048
▁accelerat	-10.7049
▁activity	-10.7049
▁ambition	-10.7049
▁ambulance	-10.7049
▁ambush	-10.7049
▁apologies	-10.7049
▁approval	-10.7049
▁architect	-10.7049
▁arrival	-10.7049
▁assassin	-10.7049
▁avenue	-10.7049
▁behalf	-10.7049
▁bookwright	-10.7049
▁burglar	-10.7049
▁candlewick	-10.7049
▁chamaco	-10.7049
▁chittering	-10.7049
▁cockroach	-10.7049
▁column	-10.7049
▁copperbottom	-10.7049
▁crunch	-10.7049
▁danburry	-10.7049
▁deposit	-10.7049
▁disgrace	-10.7049
▁executive	-10.7049
▁explanation	-10.7049
▁fantasy	-10.7049
▁financial	-10.7049
▁fountain	-10.7049
▁gallahxar	-10.7049
▁greasy	-10.7049
▁greedy	-10.7049
▁gylfie	-10.7049
▁hexham	-10.7049
▁hollywood	-10.7049
▁independent	-10.7049
▁inspire	-10.7049
▁jonathan	-10.7049
▁lalalala	-10.7049
▁laundry	-10.7049
▁miyamizu	-10.7049
▁mortgage	-10.7049
▁murdock	-10.7049
▁murney	-10.7049
▁murray	-10.7049
▁mutual	-10.7049
▁naughty	-10.7049
▁nuisance	-10.7049
▁okudera	-10.7049
▁pacifi	-10.7049
▁passenger	-10.7049
▁patroni	-10.7049
▁paxian	-10.7049
▁picnic	-10.7049
▁politician	-10.7049
▁pritchard	-10.7049
▁provision	-10.7049
▁pursuit	-10.7049
▁raspberry	-10.7049
▁relief	-10.7049
▁religion	-10.7049
▁soccer	-10.7049
▁sorrow	-10.7049
▁succeed	-10.7049
▁suitcase	-10.7049
▁symbol	-10.7049
▁thirty	-10.7049
▁thursday	-10.7049
▁tookietookie	-10.7049
▁typical	-10.7049
▁vessel	-10.7049
▁choir	-10.7049
▁draft	-10.7049
▁editor	-10.7049
▁fortunate	-10.7049
▁instance	-10.7049
▁ladder	-10.7049
▁libby	-10.7049
▁morehouse	-10.7049
▁parlor	-10.7049
▁patrol	-10.7049
▁pencil	-10.7049
▁podesta	-10.7049
▁renata	-10.7049
▁sultan	-10.7049
▁superhero	-10.7049
▁madison	-10.7049
▁puppy	-10.7049
▁remote	-10.7049
▁resume	-10.7049
▁trilling	-10.7049
▁upgrades	-10.7049
▁amuse	-10.7049
▁hyah	-10.7049
▁mhm	-10.7049
▁protest	-10.7049
▁fraud	-10.7049
▁trigger	-10.7049
▁clamor	-10.7049
▁ricky	-10.7049
▁tackle	-10.7049
▁serving	-10.7049
▁content	-10.7049
▁element	-10.7049
▁predict	-10.7049
▁wailing	-10.7049
▁chimes	-10.7049
▁shuttle	-10.7049
▁lesley	-10.7049
▁lacey	-10.7049
▁rico	-10.7049
▁rogue	-10.7049
▁deaf	-10.7049
▁headache	-10.7049
▁amor	-10.7049
▁radioactiv	-10.7049
▁peacekeeper	-10.7049
▁mcq	-10.7049
▁drain	-10.7049
▁automatically	-10.7049
▁construction	-10.7049
▁faint	-10.7049
▁resent	-10.705
▁rome	-10.705
▁puss	-10.705
▁downtown	-10.705
▁favourite	-10.705
▁shrine	-10.705
▁trig	-10.705
mistress	-10.705
▁income	-10.705
▁celebration	-10.705
▁buried	-10.705
ternity	-10.7051
▁swimmer	-10.7051
▁whoops	-10.7051
▁housekeeper	-10.7051
▁megan	-10.7052
▁fort	-10.7052
▁stanley	-10.7052
▁backwards	-10.7052
▁droid	-10.7052
▁dragging	-10.7053
▁flir	-10.7053
▁whine	-10.7053
▁brandon	-10.7053
▁confidence	-10.7054
▁purse	-10.7054
▁branch	-10.7054
▁footmen	-10.7054
▁brick	-10.7055
▁wax	-10.7055
▁probe	-10.7056
▁diner	-10.7056
▁devo	-10.7056
▁puff	-10.7057
▁visitors	-10.7057
▁barron	-10.7057
▁alva	-10.7057
▁playground	-10.7058
▁upper	-10.7058
▁proto	-10.7059
▁lend	-10.7059
▁motion	-10.706
▁monstr	-10.706
▁award	-10.7061
▁flamel	-10.7063
▁whoosh	-10.7063
▁tele	-10.7064
▁etta	-10.7064
▁inner	-10.7064
▁raid	-10.7064
▁whore	-10.7066
▁solution	-10.7067
▁mobile	-10.7067
▁confused	-10.7069
▁vari	-10.7069
▁robbery	-10.7069
▁currently	-10.707
▁highway	-10.7071
▁silent	-10.7072
▁vine	-10.7073
▁minor	-10.7073
▁programmed	-10.7073
▁portal	-10.7073
▁emotionally	-10.7075
▁betty	-10.7076
▁flat	-10.7078
▁wedge	-10.7079
▁exhausted	-10.708
▁drowned	-10.708
▁officially	-10.7081
▁goodnight	-10.7083
▁dreadful	-10.7083
▁dull	-10.7085
▁drowning	-10.709
▁motor	-10.7091
▁delighted	-10.7097
▁pile	-10.7097
▁swap	-10.7098
▁curt	-10.7098
▁complaint	-10.7099
▁hooting	-10.71
▁forgetting	-10.7101
▁lala	-10.7102
▁divorced	-10.7104
▁separated	-10.7113
▁fury	-10.7118
▁sweater	-10.7122
▁tookie	-10.7122
▁ditch	-10.7124
▁factor	-10.7124
augh	-10.7124
▁riches	-10.7126
count	-10.7127
▁tada	-10.7128
▁pastor	-10.713
▁flea	-10.7147
▁adopted	-10.7159
▁cheated	-10.7162
▁connected	-10.7171
▁strip	-10.7177
▁purr	-10.7177
nix	-10.7188
got	-10.7192
▁ruled	-10.7205
▁catches	-10.7207
▁appeared	-10.7227
▁robe	-10.7228
▁warmer	-10.7231
▁pretending	-10.7232
dog	-10.7233
▁hire	-10.7236
▁crashing	-10.7246
▁boarding	-10.7301
▁drawer	-10.7301
▁shorty	-10.7343
▁col	-10.7365
leg	-10.7373
▁cann	-10.738
hold	-10.7395
kay	-10.7404
▁gin	-10.7405
▁decen	-10.7426
eight	-10.7433
▁belly	-10.7466
more	-10.7504
sea	-10.7531
▁dive	-10.754
now	-10.7586
orium	-10.76
▁chart	-10.7611
bag	-10.7635
▁ranch	-10.7661
oid	-10.7669
rice	-10.7717
▁ut	-10.7719
▁tro	-10.7741
ule	-10.7785
▁pickle	-10.7788
▁dreamer	-10.7793
▁formal	-10.7818
berry	-10.7833
▁pearl	-10.7836
▁degree	-10.7838
▁folk	-10.7843
▁chuckle	-10.7849
▁stack	-10.7852
▁stat	-10.791
talk	-10.7943
▁heroin	-10.7971
▁pup	-10.8032
▁del	-10.8033
called	-10.8047
▁sweat	-10.8048
▁imagin	-10.806
▁delight	-10.8079
▁annoy	-10.8089
▁confirm	-10.8099
▁involv	-10.8108
▁fog	-10.8114
under	-10.8126
drop	-10.8128
grade	-10.813
quick	-10.8133
weight	-10.8138
▁lame	-10.8139
year	-10.8139
▁minist	-10.8143
position	-10.8144
▁hurr	-10.8145
▁slap	-10.8149
▁sentiment	-10.8149
▁mornin	-10.815
job	-10.8154
▁convent	-10.8154
▁affect	-10.8154
▁depart	-10.8155
▁greet	-10.8158
▁interfere	-10.8159
▁calculat	-10.8159
▁instruct	-10.816
▁occur	-10.816
▁astonish	-10.816
▁manipulat	-10.816
▁absence	-10.816
▁acconetti	-10.816
▁acknowledg	-10.816
▁altogether	-10.816
▁android	-10.816
▁asteroid	-10.816
▁autograph	-10.816
▁average	-10.816
▁bicycle	-10.816
▁bravo	-10.816
▁brigid	-10.816
▁circus	-10.816
▁collapse	-10.816
▁companies	-10.816
▁confident	-10.816
▁convict	-10.816
▁crook	-10.816
▁disagree	-10.816
▁discipline	-10.816
▁eglantine	-10.816
▁essential	-10.816
▁fifteen	-10.816
▁fundamental	-10.816
▁griffith	-10.816
▁hamegg	-10.816
▁harpoon	-10.816
▁hyperdrive	-10.816
▁inaudible	-10.816
▁incident	-10.816
▁industries	-10.816
▁inferior	-10.816
▁jacqueline	-10.816
▁judicia	-10.816
▁liquid	-10.816
▁luggage	-10.816
▁majesties	-10.816
▁malfunction	-10.816
▁maurice	-10.816
▁mcallister	-10.816
▁measure	-10.816
▁musket	-10.816
▁musubi	-10.816
▁obedient	-10.816
▁oscar	-10.816
▁overstreet	-10.816
▁peculiar	-10.816
▁pitiful	-10.816
▁proposal	-10.816
▁protocol	-10.816
▁quantonium	-10.816
▁quarrel	-10.816
▁rumbles	-10.816
▁satisfy	-10.816
▁sequence	-10.816
▁shrimp	-10.816
▁slaughter	-10.816
▁souvenir	-10.816
▁spaghetti	-10.816
▁spook	-10.816
▁stardestroyer	-10.816
▁stepmother	-10.816
▁struggling	-10.816
▁suicide	-10.816
▁survival	-10.816
▁swanson	-10.816
▁sworn	-10.816
▁texas	-10.816
▁toothache	-10.816
▁tweet	-10.816
▁twelve	-10.816
▁twilight	-10.816
▁underwear	-10.816
▁vegas	-10.816
▁violent	-10.816
▁vivian	-10.816
▁volcano	-10.816
▁voldemort	-10.816
▁agency	-10.816
▁andrew	-10.816
▁butler	-10.816
▁celia	-10.816
▁deflect	-10.816
▁delicate	-10.816
▁encounter	-10.816
▁existence	-10.816
▁fresno	-10.816
▁haircut	-10.816
▁harewood	-10.816
▁hollow	-10.816
▁lobster	-10.816
▁macklin	-10.816
▁pistol	-10.816
▁redmond	-10.816
▁unfair	-10.816
▁varga	-10.816
corporate	-10.816
▁casual	-10.816
▁deactivat	-10.816
▁hunh	-10.816
▁jefferies	-10.816
▁offend	-10.816
▁rattling	-10.816
▁scoop	-10.816
▁shush	-10.816
▁wealth	-10.816
▁compare	-10.816
▁zong	-10.816
▁cairo	-10.816
▁steak	-10.816
▁vanished	-10.816
▁whew	-10.816
▁worn	-10.816
▁celest	-10.816
▁adore	-10.816
▁yummy	-10.816
▁pipeworks	-10.816
▁seattle	-10.816
▁torch	-10.816
▁entry	-10.816
uddle	-10.816
▁maud	-10.816
▁harsh	-10.816
▁tomato	-10.816
▁mustache	-10.816
▁incoming	-10.816
▁myth	-10.816
▁misery	-10.816
▁turnip	-10.816
▁spectrum	-10.816
▁bauer	-10.816
▁pursue	-10.816
▁ellen	-10.816
▁orale	-10.816
acek	-10.816
▁historical	-10.816
▁begging	-10.816
▁maniac	-10.816
▁tango	-10.816
▁broad	-10.816
▁lyze	-10.816
▁webb	-10.816
▁gettysburg	-10.816
▁dropping	-10.816
▁tolling	-10.816
▁thiev	-10.816
▁nogood	-10.816
▁plague	-10.816
▁previous	-10.816
▁pluck	-10.8161
▁mentor	-10.8161
▁steer	-10.8161
▁repair	-10.8161
▁culture	-10.8161
▁jewish	-10.8161
▁atlantic	-10.8161
▁finance	-10.8161
▁doggy	-10.8161
▁righteous	-10.8161
▁footprint	-10.8162
▁shaking	-10.8162
▁herr	-10.8162
▁woohoo	-10.8162
▁mickey	-10.8162
▁psst	-10.8162
▁tension	-10.8162
▁vital	-10.8162
▁whys	-10.8163
▁accent	-10.8163
▁bloom	-10.8163
▁traitor	-10.8163
▁decorat	-10.8164
▁whiskers	-10.8164
▁mijo	-10.8164
▁spaceship	-10.8164
▁detonat	-10.8164
▁shade	-10.8164
▁height	-10.8164
▁observation	-10.8165
▁attraction	-10.8165
▁cecil	-10.8165
▁heist	-10.8165
▁fond	-10.8165
▁commitment	-10.8166
▁resign	-10.8166
▁connie	-10.8167
▁soda	-10.8167
▁margo	-10.8167
▁species	-10.8167
▁examine	-10.8168
▁jock	-10.8168
▁announcement	-10.8168
▁spill	-10.8169
▁recon	-10.817
▁caveman	-10.817
▁sunny	-10.817
▁mash	-10.817
▁naked	-10.817
▁rowan	-10.8171
▁thug	-10.8171
▁nov	-10.8172
▁brad	-10.8172
▁tourist	-10.8172
▁lint	-10.8172
▁tut	-10.8173
▁flavor	-10.8173
▁muff	-10.8173
▁atta	-10.8173
▁pond	-10.8174
▁possession	-10.8174
▁tech	-10.8175
▁pinch	-10.8175
▁crab	-10.8176
▁taxes	-10.8177
▁beef	-10.8177
▁hija	-10.8178
▁management	-10.8179
▁magician	-10.8179
▁dna	-10.818
▁squawking	-10.8181
▁norm	-10.8181
▁clearance	-10.8182
▁product	-10.8182
▁hola	-10.8182
▁unh	-10.8182
▁clap	-10.8183
▁treatment	-10.8184
▁swis	-10.8185
▁valet	-10.8186
▁delightful	-10.8188
▁drunken	-10.8188
▁suggestion	-10.8188
▁bored	-10.8189
▁honorable	-10.8189
▁fearless	-10.819
▁comic	-10.8192
▁hatch	-10.8194
fire	-10.8196
▁snarling	-10.8198
▁humanity	-10.82
▁accomplished	-10.8201
▁wager	-10.8203
▁tickle	-10.8204
▁comb	-10.8205
▁weaken	-10.8207
▁betrayed	-10.8207
▁jaw	-10.8208
▁captured	-10.8212
▁clicking	-10.8214
▁matches	-10.8214
▁nanny	-10.8216
▁grovel	-10.8217
transferred	-10.8217
▁bake	-10.822
▁lap	-10.8221
▁hank	-10.823
▁sec	-10.8231
▁billion	-10.8232
▁cried	-10.8239
▁arranged	-10.8242
▁sang	-10.8245
▁proven	-10.825
▁boxes	-10.8251
▁dearest	-10.8253
▁shi	-10.8265
▁hog	-10.8269
▁wrecked	-10.8271
▁daring	-10.828
itched	-10.828
▁gummi	-10.8281
▁hah	-10.8285
▁asp	-10.8287
▁refu	-10.8289
▁defeated	-10.829
▁bb	-10.8292
▁deny	-10.8297
old	-10.8318
▁survived	-10.8318
▁peaceful	-10.832
▁director	-10.8324
▁rear	-10.8326
▁tomb	-10.8328
▁normally	-10.8334
▁jr	-10.8353
▁jay	-10.8353
▁treaty	-10.836
▁shortly	-10.8376
▁experienced	-10.8393
bbie	-10.8403
fh	-10.8406
▁wiggl	-10.8427
▁oww	-10.8445
▁insur	-10.8445
dodoo	-10.8458
creating	-10.8478
▁coll	-10.8537
▁fuse	-10.8555
mortality	-10.8557
▁ea	-10.856
▁noi	-10.858
▁camel	-10.859
▁pose	-10.8598
▁mist	-10.86
ark	-10.8619
▁vip	-10.8662
▁hai	-10.8667
eau	-10.8695
▁travell	-10.8701
▁boyle	-10.8763
nny	-10.8772
mou	-10.8787
dium	-10.8789
▁barr	-10.88
howe	-10.8965
iggly	-10.8997
▁sniff	-10.9022
▁grunt	-10.9038
zo	-10.9056
▁bark	-10.9081
▁eth	-10.9093
▁customer	-10.9121
making	-10.9187
▁ban	-10.9219
▁mortal	-10.9231
▁initial	-10.9247
▁immortal	-10.9251
▁scan	-10.9261
iff	-10.9271
▁poet	-10.9288
▁should	-10.9309
▁mort	-10.931
▁federa	-10.9335
▁betray	-10.936
▁threaten	-10.9365
place	-10.9374
▁wit	-10.9377
james	-10.9379
world	-10.9379
found	-10.938
▁guilt	-10.938
▁boil	-10.9383
▁incredibl	-10.9384
life	-10.9387
eager	-10.9392
▁produc	-10.9394
kins	-10.94
▁attract	-10.9401
looker	-10.9402
▁recent	-10.9403
wise	-10.9403
▁chuck	-10.9405
▁devot	-10.9405
▁congress	-10.9406
▁cult	-10.9408
▁od	-10.9409
▁horizon	-10.9409
▁disrupt	-10.941
▁mosquito	-10.941
▁overwhelm	-10.941
▁shudder	-10.941
sufficient	-10.941
▁activities	-10.941
▁addition	-10.941
▁alcohol	-10.941
▁ammunition	-10.941
▁arriving	-10.941
▁awkward	-10.941
▁bakewell	-10.941
▁benefit	-10.941
▁bostock	-10.941
▁bourget	-10.941
▁brandnew	-10.941
▁brazil	-10.941
▁calrissian	-10.941
▁capacitor	-10.941
▁catapult	-10.941
▁catholic	-10.941
▁conduct	-10.941
▁december	-10.941
▁description	-10.941
▁dessert	-10.941
▁destruction	-10.941
▁divine	-10.941
▁dixon	-10.941
▁domestic	-10.941
▁dungeon	-10.941
▁ellingboe	-10.941
▁enslave	-10.941
▁environment	-10.941
▁escort	-10.941
▁ferris	-10.941
▁galahad	-10.941
▁genuine	-10.941
▁gossip	-10.941
▁governor	-10.941
▁gravity	-10.941
▁gronckle	-10.941
▁hairdresser	-10.941
▁harridan	-10.941
▁hartfield	-10.941
▁hercule	-10.941
▁highbury	-10.941
▁implosion	-10.941
▁inspection	-10.941
▁international	-10.941
▁invasion	-10.941
▁jedediah	-10.941
▁jernigan	-10.941
▁jerusalem	-10.941
▁kaiser	-10.941
▁knives	-10.941
▁kosterman	-10.941
▁laszlo	-10.941
▁length	-10.941
▁leviosa	-10.941
▁marvellous	-10.941
▁mccann	-10.941
▁nephew	-10.941
▁noface	-10.941
▁nottingham	-10.941
▁obsessed	-10.941
▁offense	-10.941
▁overload	-10.941
▁portorosso	-10.941
▁preparation	-10.941
▁prevail	-10.941
▁puzzle	-10.941
▁quidditch	-10.941
▁railroad	-10.941
▁randamonium	-10.941
▁reference	-10.941
▁relieved	-10.941
▁respond	-10.941
▁rifle	-10.941
▁scissors	-10.941
▁scripture	-10.941
▁silverstone	-10.941
▁splendid	-10.941
▁stiltskin	-10.941
▁supplies	-10.941
▁trembling	-10.941
▁unbreakable	-10.941
▁underestimate	-10.941
▁unmask	-10.941
▁unnecessary	-10.941
▁valentin	-10.941
▁valuable	-10.941
▁violence	-10.941
▁wickles	-10.941
▁zeniba	-10.941
▁airspeed	-10.941
▁appeti	-10.941
▁batcave	-10.941
▁beneath	-10.941
▁calvin	-10.941
▁dolphin	-10.941
▁dougherty	-10.941
▁fluffy	-10.941
▁fragment	-10.941
▁genetic	-10.941
▁godmother	-10.941
▁harvard	-10.941
▁jeopard	-10.941
▁penalty	-10.941
▁randall	-10.941
▁vanessa	-10.941
▁vicious	-10.941
▁welton	-10.941
▁widow	-10.941
▁amaze	-10.941
▁cooperate	-10.941
▁crust	-10.941
▁fifth	-10.941
▁gunshot	-10.941
▁harold	-10.941
▁haunted	-10.941
▁legacy	-10.941
▁rainbow	-10.941
▁symp	-10.941
▁tessie	-10.941
▁traction	-10.941
▁balance	-10.941
▁blush	-10.941
▁pledge	-10.941
▁profit	-10.941
▁quote	-10.941
▁skating	-10.941
▁curtain	-10.941
▁laredo	-10.941
▁scandal	-10.941
▁conquer	-10.941
▁drank	-10.941
▁looney	-10.941
▁theft	-10.941
▁tyler	-10.941
▁bulb	-10.941
▁deraa	-10.941
▁employees	-10.941
▁irish	-10.941
▁payroll	-10.941
▁slick	-10.941
▁leaf	-10.941
▁merton	-10.941
▁britons	-10.941
▁muscle	-10.941
▁karen	-10.941
▁pengu	-10.941
▁drip	-10.941
▁contest	-10.941
▁archery	-10.941
▁betcha	-10.941
▁rooster	-10.941
▁grain	-10.941
▁terrifying	-10.941
▁apply	-10.941
▁crm	-10.941
▁volt	-10.941
▁gym	-10.941
▁clarence	-10.941
▁freezing	-10.941
▁merge	-10.941
▁compose	-10.941
▁pause	-10.941
▁amar	-10.941
▁patmore	-10.941
▁colour	-10.941
▁outrageous	-10.941
▁consume	-10.941
▁unger	-10.941
▁neville	-10.9411
▁arrow	-10.9411
▁basketball	-10.9411
▁indicate	-10.9411
▁oooow	-10.9411
▁carrier	-10.9411
▁smiling	-10.9411
▁yup	-10.9411
▁confront	-10.9411
▁lenin	-10.9411
▁bodyguard	-10.9411
▁furball	-10.9411
▁xray	-10.9411
▁decade	-10.9411
▁chunk	-10.9411
▁navigat	-10.9411
▁phase	-10.9411
▁aaron	-10.9411
▁surgery	-10.9412
▁twit	-10.9412
▁boobs	-10.9412
▁delta	-10.9412
▁tanis	-10.9412
▁marlon	-10.9412
▁slop	-10.9412
▁baseball	-10.9412
▁cords	-10.9413
▁harrison	-10.9413
▁congressman	-10.9413
▁dough	-10.9413
▁fried	-10.9413
▁tsar	-10.9413
▁maxim	-10.9414
▁aaaah	-10.9414
▁waving	-10.9414
▁fanny	-10.9414
▁ehoh	-10.9414
▁compassion	-10.9414
▁saddle	-10.9414
▁oath	-10.9414
▁spitting	-10.9415
▁waking	-10.9415
▁mature	-10.9415
▁oooh	-10.9415
▁clapping	-10.9415
▁firing	-10.9415
▁effective	-10.9415
▁youse	-10.9416
▁bomposa	-10.9416
▁item	-10.9416
▁convention	-10.9416
▁infinitely	-10.9416
▁sample	-10.9417
▁axe	-10.9418
▁objective	-10.9418
▁invention	-10.9419
▁villagers	-10.9419
▁jean	-10.9419
▁rosi	-10.942
▁confession	-10.9421
▁alongside	-10.9421
▁scum	-10.9422
▁lena	-10.9424
▁stake	-10.9424
▁precedent	-10.9425
▁clang	-10.9425
▁begun	-10.9425
▁painfully	-10.9427
▁constantly	-10.9427
▁publicity	-10.9427
▁pork	-10.9428
▁jill	-10.9428
▁located	-10.943
▁operator	-10.9431
▁juliet	-10.9432
▁dorm	-10.9432
▁grid	-10.9433
▁ramp	-10.9434
▁coke	-10.9435
▁related	-10.9435
▁soil	-10.9436
▁broom	-10.9436
▁bitten	-10.9437
▁adm	-10.9438
▁carpet	-10.9439
▁barbara	-10.9439
▁label	-10.944
jar	-10.944
▁heroic	-10.9443
▁cue	-10.9444
▁lew	-10.9444
▁diego	-10.9447
▁fulfill	-10.9447
▁peep	-10.9448
▁beam	-10.9448
▁slimy	-10.9448
▁challenger	-10.9451
▁inventor	-10.9454
▁active	-10.9454
▁stable	-10.9454
▁forty	-10.9455
link	-10.9457
▁thus	-10.9459
▁mmmmmm	-10.9459
▁policeman	-10.9462
▁gap	-10.9465
▁rug	-10.9466
▁hiya	-10.947
▁piper	-10.9471
raising	-10.9471
▁dip	-10.9472
▁senor	-10.9477
▁heroes	-10.9487
▁reign	-10.949
▁annoying	-10.949
this	-10.9491
▁crusher	-10.9492
▁insulted	-10.9493
▁camper	-10.9494
▁zoot	-10.9494
▁handling	-10.9495
▁intr	-10.9496
▁granted	-10.9501
▁solved	-10.9504
▁informed	-10.9508
▁bein	-10.9512
▁toss	-10.9517
▁coolest	-10.9521
▁ifyou	-10.9523
▁faithful	-10.9534
▁clip	-10.9542
▁passes	-10.9552
▁gary	-10.9554
▁assign	-10.9569
▁ford	-10.9588
▁miller	-10.961
▁peel	-10.9637
▁inde	-10.9667
owns	-10.9676
▁minu	-10.9679
ease	-10.9689
nces	-10.972
▁eee	-10.9762
aaah	-10.9788
plicate	-10.9801
▁cam	-10.981
▁mal	-10.9817
aham	-10.9836
▁receiv	-10.9845
▁arr	-10.9873
tif	-10.9882
rak	-10.9899
issa	-10.9903
lent	-10.9915
▁declar	-10.9938
▁sole	-10.9965
▁rubb	-10.998
▁explore	-10.9992
lapping	-11.0011
▁mmmm	-11.0048
▁dent	-11.0089
fam	-11.0093
▁mob	-11.0113
▁sac	-11.0114
angling	-11.0127
rummy	-11.0154
ummy	-11.0155
▁fianc	-11.0171
▁cure	-11.0195
▁mop	-11.0228
▁meg	-11.0241
▁limb	-11.0272
▁observe	-11.0291
gent	-11.0416
▁sigh	-11.0427
▁whisper	-11.0447
▁groan	-11.0453
trus	-11.0453
▁hahaha	-11.0488
▁tire	-11.0501
▁rumor	-11.051
▁jew	-11.0522
bru	-11.0548
anne	-11.0703
▁remov	-11.0731
▁whwh	-11.0732
▁plac	-11.0734
▁strain	-11.0769
▁click	-11.0775
▁accomplish	-11.0784
night	-11.0803
ought	-11.0805
▁vale	-11.0807
build	-11.0808
▁frida	-11.0809
took	-11.0811
▁robber	-11.0812
▁horr	-11.0814
▁slipper	-11.0815
▁constant	-11.0818
▁apparent	-11.0819
▁raw	-11.0822
▁determine	-11.0827
▁potato	-11.0827
four	-11.0829
▁critic	-11.083
▁dictat	-11.0831
youre	-11.0833
olog	-11.0833
▁employ	-11.0834
▁punish	-11.0835
ville	-11.0836
morrow	-11.0836
▁intrude	-11.0836
▁specific	-11.0837
ndistinct	-11.0837
▁daniel	-11.0838
▁straw	-11.0838
▁ignoran	-11.0838
▁snatch	-11.0838
itude	-11.0838
synchroniz	-11.0838
▁abduction	-11.0838
▁accusing	-11.0838
▁almighty	-11.0838
▁ambassador	-11.0838
▁ashtray	-11.0838
▁aspirin	-11.0838
▁associate	-11.0838
▁atlanta	-11.0838
▁bikini	-11.0838
▁biscuit	-11.0838
▁blossom	-11.0838
▁bracelet	-11.0838
▁briefcase	-11.0838
▁celebrit	-11.0838
▁champagne	-11.0838
▁chirps	-11.0838
▁choochoo	-11.0838
▁choosing	-11.0838
▁clifton	-11.0838
▁commence	-11.0838
▁commercial	-11.0838
▁conbaby	-11.0838
▁conspiracy	-11.0838
▁crusade	-11.0838
▁dagobah	-11.0838
▁deception	-11.0838
▁despair	-11.0838
▁detention	-11.0838
▁dispatch	-11.0838
▁ebersol	-11.0838
▁elefun	-11.0838
▁elegant	-11.0838
▁enormous	-11.0838
▁estonia	-11.0838
▁exhusband	-11.0838
▁expelled	-11.0838
▁felicity	-11.0838
▁gambling	-11.0838
▁generous	-11.0838
▁gestapo	-11.0838
▁gratitude	-11.0838
▁gustavus	-11.0838
▁gyps	-11.0838
▁hamburger	-11.0838
▁hannigan	-11.0838
▁hoolemere	-11.0838
▁humiliated	-11.0838
▁increase	-11.0838
▁increasing	-11.0838
▁independence	-11.0838
▁ingredient	-11.0838
▁inspiration	-11.0838
▁journal	-11.0838
▁juilliard	-11.0838
▁kubitz	-11.0838
▁leonard	-11.0838
▁lincoln	-11.0838
▁longhorns	-11.0838
▁mayfleet	-11.0838
▁mccadden	-11.0838
▁mechanic	-11.0838
▁meddling	-11.0838
▁misfortune	-11.0838
▁muertos	-11.0838
▁november	-11.0838
▁october	-11.0838
▁pawpaws	-11.0838
▁pennington	-11.0838
▁phoenix	-11.0838
▁phrase	-11.0838
▁picard	-11.0838
▁plumbing	-11.0838
▁prejudice	-11.0838
▁primitive	-11.0838
▁privacy	-11.0838
▁pronounce	-11.0838
▁pruitt	-11.0838
▁quirrell	-11.0838
▁referral	-11.0838
▁resources	-11.0838
▁response	-11.0838
▁ribbon	-11.0838
▁robotolution	-11.0838
▁rossmore	-11.0838
▁rumpelstiltskin	-11.0838
▁samuels	-11.0838
▁scoundrel	-11.0838
▁sleeve	-11.0838
▁stanhope	-11.0838
▁suspend	-11.0838
▁sydney	-11.0838
▁sylvia	-11.0838
▁temperature	-11.0838
▁thwip	-11.0838
▁tragedy	-11.0838
▁treason	-11.0838
▁trumpet	-11.0838
▁turgidson	-11.0838
▁unhappy	-11.0838
▁unpredictable	-11.0838
▁vacuum	-11.0838
▁vitamin	-11.0838
▁vulgar	-11.0838
▁weymouth	-11.0838
▁woodcock	-11.0838
▁wookiee	-11.0838
▁ajam	-11.0838
▁blix	-11.0838
▁breweries	-11.0838
▁brutal	-11.0838
▁chamberlain	-11.0838
▁conclusion	-11.0838
▁crumb	-11.0838
▁eliminat	-11.0838
▁gramoo	-11.0838
▁harmonica	-11.0838
▁lonesome	-11.0838
▁negro	-11.0838
▁ominous	-11.0838
▁pattern	-11.0838
▁pillow	-11.0838
▁sennett	-11.0838
▁shelby	-11.0838
▁skull	-11.0838
▁smoking	-11.0838
▁smuggle	-11.0838
▁temporary	-11.0838
▁tempt	-11.0838
▁tennessee	-11.0838
▁transform	-11.0838
▁trashcan	-11.0838
▁violet	-11.0838
▁vogel	-11.0838
▁willem	-11.0838
▁zulu	-11.0838
▁choking	-11.0838
▁combination	-11.0838
▁committee	-11.0838
▁consult	-11.0838
▁falcon	-11.0838
▁insect	-11.0838
▁japanese	-11.0838
▁leather	-11.0838
▁marcie	-11.0838
▁marcus	-11.0838
▁molecul	-11.0838
▁reckless	-11.0838
▁result	-11.0838
▁scram	-11.0838
▁tiamat	-11.0838
▁voyage	-11.0838
▁lifestyle	-11.0838
▁zebra	-11.0838
▁charmont	-11.0838
▁clucking	-11.0838
▁diaper	-11.0838
▁kirk	-11.0838
▁montage	-11.0838
▁reform	-11.0838
▁revolt	-11.0838
▁salome	-11.0838
thrall	-11.0838
▁generate	-11.0838
▁recover	-11.0838
▁slug	-11.0838
▁uglie	-11.0838
▁worf	-11.0838
▁dutch	-11.0838
▁adjust	-11.0838
▁holland	-11.0838
▁spaz	-11.0838
▁stroll	-11.0838
▁illuminat	-11.0838
▁retain	-11.0838
▁isham	-11.0838
▁plung	-11.0838
▁lamia	-11.0838
▁orrin	-11.0838
▁zog	-11.0838
▁braid	-11.0838
▁firm	-11.0838
▁promising	-11.0838
▁regulations	-11.0838
▁yves	-11.0838
▁alfa	-11.0838
▁lefors	-11.0838
▁random	-11.0838
▁scro	-11.0838
▁freddie	-11.0838
▁envy	-11.0838
▁kiel	-11.0838
▁token	-11.0838
▁region	-11.0838
▁silk	-11.0838
▁stirr	-11.0838
▁penetrat	-11.0838
▁loony	-11.0838
▁shalt	-11.0838
▁flaming	-11.0838
▁saint	-11.0838
▁classmates	-11.0838
▁crisis	-11.0838
▁compete	-11.0838
▁chiming	-11.0839
▁pigeon	-11.0839
▁arrangements	-11.0839
▁querer	-11.0839
▁yield	-11.0839
▁yuck	-11.0839
▁doomed	-11.0839
▁tornado	-11.0839
▁shuffl	-11.0839
▁forster	-11.0839
▁italy	-11.0839
▁cleo	-11.0839
▁ancest	-11.0839
▁tools	-11.0839
▁tennis	-11.0839
▁neutr	-11.0839
▁execute	-11.0839
▁sewer	-11.0839
▁honcho	-11.0839
▁blonde	-11.0839
▁steep	-11.0839
▁donate	-11.0839
▁exceptional	-11.0839
▁mccat	-11.0839
▁gulp	-11.0839
▁owooo	-11.0839
▁bunny	-11.0839
▁preschool	-11.0839
▁cupcake	-11.0839
▁zod	-11.0839
▁purple	-11.084
▁destination	-11.084
▁proposition	-11.084
▁tarath	-11.084
▁departure	-11.084
▁despite	-11.084
▁select	-11.084
▁overnight	-11.084
▁orbit	-11.084
▁grease	-11.084
▁nerd	-11.084
▁rubbish	-11.084
▁hmph	-11.084
▁spray	-11.0841
▁mabel	-11.0841
▁stiff	-11.0841
▁logical	-11.0841
▁urge	-11.0842
▁comedian	-11.0842
▁chou	-11.0842
▁egyptian	-11.0842
▁attractive	-11.0842
ficial	-11.0842
▁dislike	-11.0842
▁mansfield	-11.0842
▁thorpe	-11.0843
▁micro	-11.0843
▁documentary	-11.0843
▁skeleton	-11.0843
▁bluff	-11.0843
▁headpiece	-11.0844
▁barrel	-11.0844
▁dork	-11.0844
▁quiz	-11.0844
shop	-11.0844
▁internet	-11.0844
cake	-11.0845
▁fireplace	-11.0845
▁cheerful	-11.0845
▁couch	-11.0845
▁investment	-11.0845
▁fifi	-11.0845
▁doug	-11.0845
▁modest	-11.0846
▁cobra	-11.0846
▁metaphor	-11.0846
▁slice	-11.0846
▁nailed	-11.0846
▁crispin	-11.0846
illac	-11.0846
▁iv	-11.0846
rtz	-11.0847
▁daph	-11.0847
▁production	-11.0847
▁childhood	-11.0847
▁capital	-11.0848
▁voters	-11.0848
▁exam	-11.0848
▁hawkes	-11.0848
▁quant	-11.0848
▁emerge	-11.0849
▁grey	-11.0849
▁critical	-11.0849
▁jury	-11.0849
rence	-11.085
▁terry	-11.085
▁bushes	-11.085
▁atom	-11.085
▁puck	-11.085
▁exile	-11.0851
▁julio	-11.0851
▁location	-11.0851
▁alice	-11.0852
▁authorized	-11.0852
▁kingpin	-11.0852
▁household	-11.0852
▁nearby	-11.0853
▁curve	-11.0854
▁scenery	-11.0854
▁stroke	-11.0856
▁apprentice	-11.0856
▁airline	-11.0856
▁anna	-11.0858
▁trib	-11.0858
▁isolated	-11.086
▁philosophy	-11.086
▁tries	-11.086
▁bedtime	-11.086
▁portion	-11.0861
▁electrical	-11.0861
▁erase	-11.0861
▁trapped	-11.0862
▁loco	-11.0862
▁instrumental	-11.0863
▁bush	-11.0864
▁duh	-11.0864
▁whisky	-11.0864
▁gown	-11.0867
▁gag	-11.0867
▁digit	-11.0867
▁slippery	-11.0869
▁nile	-11.0869
▁upsta	-11.087
▁bail	-11.087
▁presentation	-11.087
▁moth	-11.0873
▁wig	-11.0874
▁shish	-11.0875
▁operational	-11.0878
fitting	-11.0878
▁mansion	-11.0878
▁sweaty	-11.0879
visible	-11.088
▁alter	-11.088
▁kim	-11.0883
▁skipper	-11.0884
▁loan	-11.0885
▁chillin	-11.089
▁factory	-11.089
▁bane	-11.0891
▁jammin	-11.09
were	-11.0902
▁wiser	-11.0905
▁hup	-11.091
▁larger	-11.0911
▁punches	-11.0913
▁booty	-11.0913
mony	-11.0914
▁phy	-11.0919
▁hoot	-11.093
▁dela	-11.0933
pool	-11.0936
▁aid	-11.0965
name	-11.097
▁producer	-11.0975
▁cathe	-11.1034
▁annihilat	-11.105
▁pupil	-11.1056
mantle	-11.1067
▁dur	-11.1075
▁strap	-11.1221
▁fem	-11.1284
▁cole	-11.1317
▁retrieve	-11.1372
▁budge	-11.138
▁fiddle	-11.1445
alei	-11.1448
▁grit	-11.148
▁stre	-11.1597
▁provid	-11.16
▁blad	-11.181
▁grove	-11.1936
igned	-11.2166
ripping	-11.2181
▁beside	-11.2194
ttler	-11.2218
▁cycl	-11.2347
▁drown	-11.2381
▁figur	-11.2393
▁fascinat	-11.2435
▁sabe	-11.2442
▁exhaust	-11.2451
▁mmmmm	-11.2459
two	-11.246
▁whisk	-11.2468
known	-11.2469
▁walt	-11.2472
▁programme	-11.2472
mobile	-11.2473
solution	-11.2473
school	-11.2474
yearold	-11.2474
claim	-11.2474
condition	-11.2475
class	-11.2475
▁gamble	-11.2475
horse	-11.2475
proof	-11.2477
fuss	-11.2479
▁oppos	-11.2484
▁bore	-11.2484
seven	-11.2488
▁villa	-11.249
▁literal	-11.2493
▁splash	-11.2493
▁makin	-11.2496
ograph	-11.2496
▁ellis	-11.2498
▁sherif	-11.2499
▁compass	-11.2499
▁audit	-11.2499
▁painful	-11.2502
▁surge	-11.2502
▁alternat	-11.2503
▁prodig	-11.2504
▁react	-11.2504
▁bodi	-11.2504
plan	-11.2504
sustain	-11.2505
plication	-11.2505
▁corrupt	-11.2505
▁gymnastic	-11.2505
▁koushik	-11.2505
▁occupation	-11.2505
vulnerable	-11.2505
▁aaaargh	-11.2505
▁abilities	-11.2505
▁adequate	-11.2505
▁administration	-11.2505
▁advisor	-11.2505
▁aggressive	-11.2505
▁allergic	-11.2505
▁altimeter	-11.2505
▁amateur	-11.2505
▁amusing	-11.2505
▁annual	-11.2505
▁anonymous	-11.2505
▁anubis	-11.2505
▁apologise	-11.2505
▁approximately	-11.2505
▁archaeology	-11.2505
▁arguing	-11.2505
▁asylum	-11.2505
▁athlete	-11.2505
▁barbecue	-11.2505
▁batsignal	-11.2505
▁beijing	-11.2505
▁bourbon	-11.2505
▁briggs	-11.2505
▁broomstick	-11.2505
▁catastrophe	-11.2505
▁centuries	-11.2505
▁chauffeur	-11.2505
▁cheerleader	-11.2505
▁cheeseburger	-11.2505
▁chewbacca	-11.2505
▁chomofsky	-11.2505
▁clutche	-11.2505
▁collateral	-11.2505
▁compensation	-11.2505
▁conflict	-11.2505
▁corporation	-11.2505
▁corridor	-11.2505
▁covenant	-11.2505
▁crocodile	-11.2505
▁dagger	-11.2505
▁daydream	-11.2505
▁deceased	-11.2505
▁deevolve	-11.2505
▁dialogue	-11.2505
▁dismiss	-11.2505
▁dobbs	-11.2505
▁drift	-11.2505
▁dwell	-11.2505
▁economic	-11.2505
▁elderly	-11.2505
▁enchantment	-11.2505
▁enthusiasm	-11.2505
▁envelope	-11.2505
▁evacuation	-11.2505
▁evolution	-11.2505
▁evolv	-11.2505
▁excitement	-11.2505
▁expense	-11.2505
▁explosive	-11.2505
▁expotition	-11.2505
▁eyebrow	-11.2505
▁fanfare	-11.2505
▁feldstein	-11.2505
▁ferret	-11.2505
▁flashlight	-11.2505
▁foofie	-11.2505
▁foretold	-11.2505
▁gahoole	-11.2505
▁gobbling	-11.2505
▁grenade	-11.2505
▁groceries	-11.2505
▁guilders	-11.2505
▁hebrew	-11.2505
▁holeinthewall	-11.2505
▁humiliating	-11.2505
▁humility	-11.2505
▁industry	-11.2505
▁integr	-11.2505
▁irresponsibl	-11.2505
▁kamajii	-11.2505
▁kristen	-11.2505
▁lyrics	-11.2505
▁maizy	-11.2505
▁mclaws	-11.2505
▁miranda	-11.2505
▁misunderstood	-11.2505
▁morris	-11.2505
▁multiply	-11.2505
▁nowadays	-11.2505
▁nurhachi	-11.2505
▁nuwanda	-11.2505
▁oblige	-11.2505
▁offspring	-11.2505
▁pacino	-11.2505
▁pajamas	-11.2505
▁paranoid	-11.2505
▁perimeter	-11.2505
▁pharaoh	-11.2505
▁piranhas	-11.2505
▁popcorn	-11.2505
▁portuguese	-11.2505
▁prefix	-11.2505
▁premature	-11.2505
▁presume	-11.2505
▁pretzel	-11.2505
▁ravenwood	-11.2505
▁reception	-11.2505
▁recycling	-11.2505
▁refresh	-11.2505
▁remarkable	-11.2505
▁residence	-11.2505
▁retaliat	-11.2505
▁retard	-11.2505
▁retired	-11.2505
▁retirement	-11.2505
▁roast	-11.2505
▁rumpel	-11.2505
▁russkies	-11.2505
▁sakana	-11.2505
▁sankara	-11.2505
▁satisfied	-11.2505
▁savage	-11.2505
▁schematic	-11.2505
▁scholar	-11.2505
▁scientific	-11.2505
▁scrub	-11.2505
▁separation	-11.2505
▁sermon	-11.2505
▁shirley	-11.2505
▁skirt	-11.2505
▁slurping	-11.2505
▁snicker	-11.2505
▁spectacular	-11.2505
▁spideybells	-11.2505
▁substance	-11.2505
▁survey	-11.2505
▁survivor	-11.2505
▁teetsi	-11.2505
▁telescope	-11.2505
▁territor	-11.2505
▁thunderclap	-11.2505
▁tragic	-11.2505
▁tsukasa	-11.2505
▁uplift	-11.2505
▁versailles	-11.2505
▁vigilante	-11.2505
▁virana	-11.2505
▁visual	-11.2505
▁whinnies	-11.2505
▁willard	-11.2505
▁yeehaw	-11.2505
▁yorkshire	-11.2505
▁yotsuha	-11.2505
greatgrandfather	-11.2505
▁anyhow	-11.2505
▁belloq	-11.2505
▁bottling	-11.2505
▁campbell	-11.2505
▁casualties	-11.2505
▁cautious	-11.2505
▁childcare	-11.2505
▁comrade	-11.2505
▁defect	-11.2505
▁depression	-11.2505
▁detroit	-11.2505
▁discreet	-11.2505
▁establishment	-11.2505
▁harass	-11.2505
▁identify	-11.2505
▁imbecile	-11.2505
▁intensif	-11.2505
▁juvie	-11.2505
▁pepper	-11.2505
▁population	-11.2505
▁portrait	-11.2505
▁premier	-11.2505
▁quality	-11.2505
▁referring	-11.2505
▁routine	-11.2505
▁sallah	-11.2505
▁shrink	-11.2505
▁sunlight	-11.2505
▁theatre	-11.2505
▁transmit	-11.2505
▁trousers	-11.2505
▁utterly	-11.2505
▁wrestling	-11.2505
▁album	-11.2505
▁bogey	-11.2505
▁bronze	-11.2505
▁buzzing	-11.2505
▁caution	-11.2505
▁guido	-11.2505
▁guinea	-11.2505
▁helmet	-11.2505
▁mattress	-11.2505
▁override	-11.2505
▁puke	-11.2505
▁snitch	-11.2505
▁brawl	-11.2505
▁domain	-11.2505
▁earphones	-11.2505
▁grief	-11.2505
▁jinx	-11.2505
▁slack	-11.2505
▁vomit	-11.2505
▁bruise	-11.2505
▁intellectual	-11.2505
▁sloppy	-11.2505
▁fence	-11.2505
▁formula	-11.2505
▁instant	-11.2505
▁interior	-11.2505
▁summon	-11.2505
▁groot	-11.2505
▁hazard	-11.2505
▁predator	-11.2505
▁shotgun	-11.2505
▁canyon	-11.2505
▁choke	-11.2505
▁cindy	-11.2505
▁update	-11.2505
▁clump	-11.2505
▁hench	-11.2505
▁jorel	-11.2505
▁sundance	-11.2505
▁dryden	-11.2505
▁fierce	-11.2505
▁hyper	-11.2505
▁relev	-11.2505
▁tattoo	-11.2505
▁decreed	-11.2505
▁krum	-11.2505
▁realistic	-11.2505
▁quelle	-11.2505
▁rosalie	-11.2505
▁steam	-11.2505
▁carpia	-11.2505
▁kik	-11.2505
▁obsessi	-11.2505
▁stashed	-11.2505
▁soap	-11.2505
▁featur	-11.2505
▁jolly	-11.2505
▁oona	-11.2505
▁forsak	-11.2505
▁exceed	-11.2505
▁fluids	-11.2505
▁organization	-11.2505
▁stepsister	-11.2505
▁motivat	-11.2505
▁ankle	-11.2505
▁cunt	-11.2505
▁narcotic	-11.2505
▁carmine	-11.2505
▁goodwill	-11.2505
▁snot	-11.2505
▁adam	-11.2505
utility	-11.2505
▁horizontal	-11.2505
▁kyle	-11.2505
▁baggy	-11.2505
▁piggy	-11.2505
▁victoria	-11.2505
▁naptime	-11.2505
▁spain	-11.2505
▁donation	-11.2505
▁jeep	-11.2505
▁limp	-11.2505
▁numero	-11.2505
▁yawn	-11.2506
▁funky	-11.2506
▁descent	-11.2506
▁kidnapped	-11.2506
▁minions	-11.2506
▁oppress	-11.2506
▁sidelines	-11.2506
▁series	-11.2506
▁warden	-11.2506
▁lallie	-11.2506
▁plastic	-11.2506
▁goober	-11.2506
▁shred	-11.2506
▁heels	-11.2506
▁lethal	-11.2506
▁toad	-11.2506
▁delhi	-11.2506
▁burger	-11.2506
▁oxford	-11.2506
▁disrespectful	-11.2506
▁banner	-11.2506
▁initiative	-11.2506
▁daddies	-11.2506
▁scatt	-11.2507
▁coloni	-11.2507
▁cowboy	-11.2507
▁pedal	-11.2507
▁shiny	-11.2507
▁medium	-11.2507
▁mailbox	-11.2507
▁mellow	-11.2507
megaton	-11.2507
▁salon	-11.2507
▁classification	-11.2507
▁glamo	-11.2507
▁uncomfortable	-11.2508
▁lifesav	-11.2508
▁algerian	-11.2508
▁woah	-11.2508
▁cancer	-11.2508
▁dominat	-11.2508
▁translat	-11.2508
▁attic	-11.2508
▁drool	-11.2509
▁fleck	-11.2509
▁rodent	-11.2509
▁ridgeway	-11.2509
▁anita	-11.2509
▁combat	-11.2509
▁orphanage	-11.2509
▁disturbance	-11.2509
▁golf	-11.2509
▁elsewhere	-11.2509
▁enforce	-11.2509
▁sharing	-11.251
▁capit	-11.251
▁committed	-11.251
▁unconscious	-11.251
sexual	-11.251
▁cottage	-11.251
▁creation	-11.2511
▁oven	-11.2511
▁whir	-11.2511
▁armour	-11.2511
▁restrict	-11.2511
▁danny	-11.2511
▁lauren	-11.2511
▁outhouse	-11.2512
▁frown	-11.2512
▁southern	-11.2512
▁judy	-11.2512
▁sidewalk	-11.2512
▁harle	-11.2513
▁flush	-11.2513
▁dining	-11.2513
▁representation	-11.2513
▁june	-11.2513
▁moses	-11.2513
▁magnet	-11.2513
▁dictator	-11.2514
▁slavery	-11.2514
▁transportation	-11.2515
▁garage	-11.2515
▁rubies	-11.2516
▁spacetime	-11.2516
▁splashes	-11.2517
which	-11.2517
▁splitting	-11.2517
▁hawk	-11.2518
▁entertainment	-11.2518
▁sector	-11.2518
▁stove	-11.2519
▁tide	-11.252
ntraven	-11.252
▁static	-11.252
▁modesto	-11.252
▁alike	-11.252
▁crackling	-11.252
▁logan	-11.2521
▁nickel	-11.2521
▁mailman	-11.2523
▁scarce	-11.2523
▁baba	-11.2523
▁crop	-11.2525
▁caption	-11.2525
▁stripes	-11.2525
▁cities	-11.2525
▁juan	-11.2526
▁nno	-11.2526
▁touchdown	-11.2527
▁royalty	-11.2527
ounce	-11.2527
▁fiine	-11.2528
vious	-11.2528
▁liege	-11.2529
▁cour	-11.2529
▁runaway	-11.2529
▁expression	-11.2529
▁stepped	-11.253
▁princeton	-11.2531
▁knockout	-11.2531
▁acceptable	-11.2531
▁clive	-11.2531
▁harmon	-11.2532
▁gambler	-11.2535
▁notion	-11.2536
▁alas	-11.2537
▁quitting	-11.2538
▁hutt	-11.2538
▁chess	-11.2539
▁media	-11.254
rilla	-11.2541
▁pew	-11.2543
▁wu	-11.2548
▁crate	-11.2552
▁melon	-11.2552
▁rio	-11.2557
▁rink	-11.2562
▁clan	-11.2564
▁tedd	-11.2571
▁capabilit	-11.2573
▁pace	-11.2575
balt	-11.2593
▁mah	-11.2599
▁condo	-11.2606
▁stitche	-11.266
▁dye	-11.2661
ronto	-11.2684
▁haste	-11.2733
estini	-11.2735
rrit	-11.2744
▁rattle	-11.2773
good	-11.2795
▁dale	-11.282
▁extract	-11.2836
egged	-11.2887
▁arse	-11.2895
▁joyful	-11.3061
▁observ	-11.3184
▁dice	-11.3184
trum	-11.3227
rbour	-11.3395
aste	-11.3491
quat	-11.3491
▁loyal	-11.3543
turn	-11.3624
flop	-11.37
uction	-11.3787
fax	-11.3826
rough	-11.3996
ification	-11.4072
▁snarl	-11.411
▁emotion	-11.4165
▁troop	-11.4187
obs	-11.4241
anche	-11.4336
ability	-11.4392
▁experienc	-11.4402
faced	-11.4421
▁suppos	-11.4426
▁screech	-11.4426
▁bleed	-11.4438
▁dread	-11.4439
▁preach	-11.445
friend	-11.445
▁relate	-11.4462
▁confuse	-11.4463
mund	-11.4466
▁profession	-11.4471
guard	-11.4472
front	-11.4473
▁philosoph	-11.4474
bride	-11.4474
grown	-11.4474
secret	-11.4475
wife	-11.4475
believe	-11.4475
around	-11.4475
worth	-11.4475
▁thirst	-11.4475
bird	-11.4475
piece	-11.4475
space	-11.4477
safe	-11.4478
▁roy	-11.4484
▁practical	-11.4485
▁precise	-11.4486
▁definite	-11.4486
self	-11.4486
▁stew	-11.4492
oops	-11.4493
▁metaph	-11.4494
▁interpret	-11.4497
conscious	-11.4499
▁educat	-11.45
▁recogni	-11.4504
▁multi	-11.4504
▁torn	-11.4505
▁trauma	-11.4505
establish	-11.4505
▁inconvenien	-11.4505
▁mira	-11.4505
▁circulat	-11.4505
▁unload	-11.4505
karetasokawatare	-11.4505
▁abducted	-11.4505
▁absurd	-11.4505
▁abuelita	-11.4505
▁accomplice	-11.4505
▁accreditation	-11.4505
▁acquisition	-11.4505
▁aftershave	-11.4505
▁albrecht	-11.4505
▁alebrije	-11.4505
▁alligator	-11.4505
▁analysis	-11.4505
▁appalling	-11.4505
▁appointed	-11.4505
▁aqaba	-11.4505
▁arriba	-11.4505
▁arrogant	-11.4505
▁autumn	-11.4505
▁auxiliar	-11.4505
▁avalanna	-11.4505
▁behaving	-11.4505
▁bernadette	-11.4505
▁bixler	-11.4505
▁blindfold	-11.4505
▁cabbage	-11.4505
▁capacity	-11.4505
▁ceiling	-11.4505
▁cereal	-11.4505
▁ceremoni	-11.4505
▁charlotte	-11.4505
▁chickenpox	-11.4505
▁chorizo	-11.4505
▁clumsy	-11.4505
▁concentration	-11.4505
▁concrete	-11.4505
▁condemn	-11.4505
▁connolly	-11.4505
▁convenient	-11.4505
▁conveyor	-11.4505
▁coyote	-11.4505
▁crucial	-11.4505
▁curriculum	-11.4505
▁cushion	-11.4505
▁deevolution	-11.4505
▁deliberately	-11.4505
▁devaney	-11.4505
▁disregard	-11.4505
▁distress	-11.4505
▁diversion	-11.4505
▁dolores	-11.4505
▁donwell	-11.4505
▁dylan	-11.4505
▁eccentric	-11.4505
▁eclipse	-11.4505
▁elaborate	-11.4505
▁enchanter	-11.4505
▁enscombe	-11.4505
▁eskimo	-11.4505
▁essence	-11.4505
▁finnegan	-11.4505
▁florida	-11.4505
▁flourish	-11.4505
▁fluoridat	-11.4505
▁giddyup	-11.4505
▁gigantic	-11.4505
▁gilbert	-11.4505
▁glaux	-11.4505
▁grazie	-11.4505
▁guidance	-11.4505
▁harbor	-11.4505
▁harrow	-11.4505
▁hideandseek	-11.4505
▁hilarious	-11.4505
▁humiliation	-11.4505
▁ignition	-11.4505
▁incorrect	-11.4505
▁indianapolis	-11.4505
▁industrial	-11.4505
▁injury	-11.4505
▁intrigue	-11.4505
▁invalid	-11.4505
▁irrelevant	-11.4505
▁irrevocable	-11.4505
▁jergens	-11.4505
▁judging	-11.4505
▁katawaredoki	-11.4505
▁knighfs	-11.4505
▁landlord	-11.4505
▁lazarus	-11.4505
▁lettuce	-11.4505
▁literature	-11.4505
▁magali	-11.4505
▁maturity	-11.4505
▁melrose	-11.4505
▁memoirs	-11.4505
▁mexican	-11.4505
▁monologue	-11.4505
▁mutiny	-11.4505
▁narrow	-11.4505
▁negotiate	-11.4505
▁nerra	-11.4505
▁nesmith	-11.4505
▁nitwit	-11.4505
▁numbskull	-11.4505
▁obligation	-11.4505
▁occupied	-11.4505
▁opponent	-11.4505
▁optimistic	-11.4505
▁orientation	-11.4505
▁outnumbered	-11.4505
▁parliament	-11.4505
▁plead	-11.4505
▁plump	-11.4505
▁plutonium	-11.4505
▁porridge	-11.4505
▁preposterous	-11.4505
▁profile	-11.4505
▁pudding	-11.4505
▁ragazzi	-11.4505
▁ravensbruck	-11.4505
▁receipt	-11.4505
▁refrigerator	-11.4505
▁reinforcements	-11.4505
▁reluctan	-11.4505
▁republican	-11.4505
▁rescuing	-11.4505
▁resolve	-11.4505
▁revelation	-11.4505
▁ritual	-11.4505
▁romanov	-11.4505
▁rouannet	-11.4505
▁satisfaction	-11.4505
▁sausage	-11.4505
▁sebastian	-11.4505
▁selfdestruct	-11.4505
▁semifinal	-11.4505
▁starfleet	-11.4505
▁stimulating	-11.4505
▁strategy	-11.4505
▁subscribe	-11.4505
▁switzerland	-11.4505
▁technique	-11.4505
▁therapy	-11.4505
▁trajectory	-11.4505
▁transparent	-11.4505
▁treasury	-11.4505
▁trojan	-11.4505
▁tshirt	-11.4505
▁uhuhuh	-11.4505
▁unacceptable	-11.4505
▁unpleasant	-11.4505
▁vandaliz	-11.4505
▁vanquish	-11.4505
▁velocity	-11.4505
▁violation	-11.4505
▁welfare	-11.4505
▁zippleback	-11.4505
▁abortion	-11.4505
▁alliance	-11.4505
▁arkham	-11.4505
▁beehive	-11.4505
▁belfry	-11.4505
▁belgian	-11.4505
▁bennett	-11.4505
▁buzzer	-11.4505
▁contrary	-11.4505
▁disintegrat	-11.4505
▁excellenc	-11.4505
▁facilitat	-11.4505
▁fifty	-11.4505
▁greek	-11.4505
▁immune	-11.4505
▁inject	-11.4505
▁knuckle	-11.4505
▁lenore	-11.4505
▁lydia	-11.4505
▁makunga	-11.4505
▁melody	-11.4505
▁moonlight	-11.4505
▁oasis	-11.4505
▁poachers	-11.4505
▁preceded	-11.4505
▁provinc	-11.4505
▁radius	-11.4505
▁revenge	-11.4505
▁rumour	-11.4505
▁sarcastic	-11.4505
▁signature	-11.4505
▁thorough	-11.4505
▁thuggee	-11.4505
emption	-11.4505
▁abbess	-11.4505
▁abstract	-11.4505
▁beware	-11.4505
▁crossbow	-11.4505
▁embrace	-11.4505
▁enhance	-11.4505
▁errand	-11.4505
▁escaping	-11.4505
▁expand	-11.4505
▁gallery	-11.4505
▁goddard	-11.4505
▁lobby	-11.4505
▁outlaw	-11.4505
▁puberty	-11.4505
▁snoop	-11.4505
▁vincent	-11.4505
▁vivid	-11.4505
▁vodka	-11.4505
▁chapman	-11.4505
▁edition	-11.4505
▁freedonia	-11.4505
▁itsits	-11.4505
▁luxur	-11.4505
▁norton	-11.4505
▁razor	-11.4505
▁salute	-11.4505
▁unwell	-11.4505
▁vanilla	-11.4505
▁acquir	-11.4505
▁banana	-11.4505
▁anchor	-11.4505
▁booboo	-11.4505
▁bullseye	-11.4505
▁chapel	-11.4505
▁cruisin	-11.4505
▁incinerat	-11.4505
▁monarch	-11.4505
▁petition	-11.4505
▁hunch	-11.4505
▁nevertheless	-11.4505
▁baku	-11.4505
▁bleach	-11.4505
▁duties	-11.4505
▁gulf	-11.4505
▁peachy	-11.4505
▁strand	-11.4505
▁wimp	-11.4505
▁agenda	-11.4505
▁rustlers	-11.4505
▁siege	-11.4505
▁conceal	-11.4505
▁blares	-11.4505
▁endanger	-11.4505
▁sherri	-11.4505
▁unstable	-11.4505
▁harith	-11.4505
▁milan	-11.4505
▁spiritual	-11.4505
qualified	-11.4505
▁apprais	-11.4505
▁detach	-11.4505
▁parasite	-11.4505
▁buddies	-11.4505
▁invade	-11.4505
▁motive	-11.4505
▁swag	-11.4505
▁tolerate	-11.4505
▁combined	-11.4505
▁torment	-11.4505
▁actress	-11.4505
▁scattered	-11.4505
▁thrive	-11.4505
▁essay	-11.4505
▁established	-11.4505
▁civilization	-11.4505
▁tapped	-11.4505
▁pennies	-11.4505
▁robbed	-11.4505
▁sustained	-11.4505
▁trek	-11.4505
▁vector	-11.4505
▁dispose	-11.4505
haired	-11.4505
▁lounge	-11.4505
▁wrestle	-11.4505
▁cattle	-11.4505
maintenance	-11.4505
▁roam	-11.4505
▁convert	-11.4505
▁grrr	-11.4505
▁hippie	-11.4505
▁lungs	-11.4505
▁aveng	-11.4505
voca	-11.4505
▁folly	-11.4505
▁harness	-11.4505
▁skies	-11.4505
▁bestowed	-11.4505
▁calculations	-11.4505
▁tasties	-11.4505
▁uhuh	-11.4505
▁hugged	-11.4505
▁lodge	-11.4505
▁slay	-11.4505
▁holler	-11.4505
▁countries	-11.4505
▁goddess	-11.4505
▁terminate	-11.4505
▁pedro	-11.4505
▁bugger	-11.4505
▁patriot	-11.4506
▁divert	-11.4506
▁define	-11.4506
identified	-11.4506
surrection	-11.4506
▁grabbed	-11.4506
ganas	-11.4506
▁gobber	-11.4506
▁ongi	-11.4506
▁congregation	-11.4506
▁conserv	-11.4506
▁sayaka	-11.4506
▁prowl	-11.4506
▁hooray	-11.4506
▁nadder	-11.4506
▁converg	-11.4506
▁waitress	-11.4506
▁prodigious	-11.4506
▁lottery	-11.4506
▁fireworks	-11.4506
▁breeding	-11.4506
▁barkley	-11.4506
▁shrubberies	-11.4506
▁blaz	-11.4507
▁civilized	-11.4507
▁zapping	-11.4507
▁stepping	-11.4507
▁weasley	-11.4507
▁sparrin	-11.4507
▁brook	-11.4507
▁creator	-11.4507
▁specifically	-11.4507
▁squash	-11.4507
▁breast	-11.4508
▁investors	-11.4508
▁behold	-11.4508
▁robotics	-11.4508
▁cheque	-11.4508
▁revving	-11.4508
▁dripping	-11.4508
▁babs	-11.4508
▁flunk	-11.4508
▁trolley	-11.4508
▁daniella	-11.4508
▁griev	-11.4508
▁spinning	-11.4508
▁dummy	-11.4508
▁dipper	-11.4508
▁lionheart	-11.4508
▁boise	-11.4509
▁pills	-11.4509
ologist	-11.4509
▁archaeologist	-11.4509
▁hager	-11.4509
▁whiz	-11.4509
▁dentist	-11.4509
▁skinny	-11.4509
▁leftovers	-11.4509
▁calib	-11.451
▁quack	-11.451
▁sanza	-11.451
▁bribe	-11.451
▁boogie	-11.451
▁denied	-11.451
▁revolutionary	-11.451
▁hasty	-11.451
▁employment	-11.4511
▁foresee	-11.4511
▁guesthouse	-11.4511
▁goose	-11.4511
northwest	-11.4511
▁optic	-11.4511
blank	-11.4511
▁border	-11.4512
trenche	-11.4512
▁pauline	-11.4512
▁status	-11.4512
▁courageous	-11.4513
▁leadership	-11.4513
▁plotting	-11.4513
▁interpretation	-11.4513
▁denver	-11.4513
▁mild	-11.4513
▁sherry	-11.4514
▁lettie	-11.4516
▁abner	-11.4516
▁shari	-11.4516
▁oof	-11.4517
▁ferry	-11.4518
▁confirmation	-11.452
▁chlo	-11.4521
▁quiere	-11.4537
▁conci	-11.4537
ewarde	-11.4538
ummies	-11.4543
whupp	-11.4554
▁litera	-11.4577
▁hesitate	-11.459
▁soot	-11.4596
vous	-11.4622
▁pegg	-11.4644
stein	-11.4647
▁despi	-11.4746
▁narc	-11.4751
homor	-11.4775
▁initializ	-11.4782
▁mummifi	-11.4898
huah	-11.53
▁juju	-11.5326
whipped	-11.5363
igate	-11.5533
▁explor	-11.5717
▁retriev	-11.6087
jewelry	-11.6253
trapped	-11.6301
rompt	-11.6401
odoo	-11.6515
bonite	-11.6537
▁havin	-11.6645
heard	-11.6662
▁uglydoll	-11.6679
▁circuit	-11.668
flies	-11.677
escribed	-11.6824
erci	-11.6839
▁smi	-11.6885
▁disgust	-11.6937
▁clatter	-11.6937
▁univers	-11.6946
▁locate	-11.6962
precedent	-11.6973
stroke	-11.6973
flavor	-11.6973
sphere	-11.6974
burst	-11.6974
writer	-11.6974
▁rog	-11.6974
product	-11.6974
connect	-11.6974
weather	-11.6975
important	-11.6975
week	-11.6975
sharp	-11.6975
opening	-11.6975
point	-11.6975
bound	-11.6976
▁destin	-11.6977
▁kidnap	-11.6977
mission	-11.6978
▁inquire	-11.6989
▁familia	-11.6991
▁crisp	-11.6992
▁albert	-11.6993
▁drivin	-11.6996
▁dancin	-11.6996
▁movin	-11.6996
▁runnin	-11.6997
▁harris	-11.6998
▁exec	-11.7001
▁disrespect	-11.7003
▁gert	-11.7003
▁automatic	-11.7003
▁acquaint	-11.7004
ivate	-11.7005
▁regulat	-11.7005
▁smooch	-11.7005
▁confedera	-11.7005
▁upload	-11.7005
continental	-11.7005
correspondent	-11.7005
equipped	-11.7005
orthodox	-11.7005
visibility	-11.7005
▁abdullah	-11.7005
▁abnormal	-11.7005
▁accumulat	-11.7005
▁adapt	-11.7005
▁agamemnon	-11.7005
▁aggravate	-11.7005
▁amnesty	-11.7005
▁anastasia	-11.7005
▁anatomy	-11.7005
▁andiamo	-11.7005
▁ankhvanharis	-11.7005
▁antidote	-11.7005
▁anxiety	-11.7005
▁areida	-11.7005
▁artifact	-11.7005
▁assembled	-11.7005
▁atmosphere	-11.7005
▁audacity	-11.7005
▁bachelor	-11.7005
▁bagpipes	-11.7005
▁ballancourt	-11.7005
▁baloney	-11.7005
▁baltimore	-11.7005
▁binturi	-11.7005
▁bouquet	-11.7005
▁branzino	-11.7005
▁bucephalos	-11.7005
▁bulldozer	-11.7005
▁burpelson	-11.7005
▁buzzes	-11.7005
▁cafeteria	-11.7005
▁caravan	-11.7005
▁cemetery	-11.7005
▁cezi	-11.7005
▁childbirth	-11.7005
▁claudia	-11.7005
▁clobber	-11.7005
▁cocktail	-11.7005
▁compromise	-11.7005
▁conclude	-11.7005
▁concord	-11.7005
▁contribution	-11.7005
▁convenience	-11.7005
▁convincing	-11.7005
▁convoy	-11.7005
▁cooperation	-11.7005
▁cornelia	-11.7005
▁cramped	-11.7005
▁crippled	-11.7005
▁curiosity	-11.7005
▁defence	-11.7005
▁dialect	-11.7005
▁disadvantage	-11.7005
▁disastrous	-11.7005
▁disobey	-11.7005
▁disposal	-11.7005
▁dissection	-11.7005
▁dominoes	-11.7005
▁doohickey	-11.7005
▁downpour	-11.7005
▁effendi	-11.7005
▁encouraging	-11.7005
▁eubanks	-11.7005
▁everlasting	-11.7005
▁exclusive	-11.7005
▁exhibit	-11.7005
▁expend	-11.7005
▁exterminat	-11.7005
▁farraj	-11.7005
▁felicia	-11.7005
▁fergals	-11.7005
▁fiftyfifty	-11.7005
▁fldsmdfr	-11.7005
▁folklore	-11.7005
▁fraulein	-11.7005
▁frazier	-11.7005
▁frustration	-11.7005
▁fuehrer	-11.7005
▁garrison	-11.7005
▁genova	-11.7005
▁georgia	-11.7005
▁giraffe	-11.7005
▁graffiti	-11.7005
▁gravy	-11.7005
▁hallelujah	-11.7005
▁handkerchief	-11.7005
▁handwriting	-11.7005
▁haycorn	-11.7005
▁heartbroken	-11.7005
▁heritage	-11.7005
▁herlihy	-11.7005
▁hockey	-11.7005
▁hooligan	-11.7005
▁hydrant	-11.7005
▁hysterical	-11.7005
▁indicator	-11.7005
▁inexperience	-11.7005
▁ingenious	-11.7005
▁inhabit	-11.7005
▁insignificant	-11.7005
▁inspiring	-11.7005
▁jettison	-11.7005
▁jonquils	-11.7005
▁kaboom	-11.7005
▁kobolowski	-11.7005
▁kraut	-11.7005
▁kuchikamizake	-11.7005
▁lecture	-11.7005
▁liberties	-11.7005
▁ltomori	-11.7005
▁machiavelli	-11.7005
▁malfoy	-11.7005
▁malvolia	-11.7005
▁marshmallow	-11.7005
▁mayugoro	-11.7005
▁mckitty	-11.7005
▁memorial	-11.7005
▁mercedes	-11.7005
▁merchandise	-11.7005
▁merchant	-11.7005
▁militant	-11.7005
▁mineshaft	-11.7005
▁minimum	-11.7005
▁minivan	-11.7005
▁mississippi	-11.7005
▁mongrel	-11.7005
▁moustache	-11.7005
▁mozzarella	-11.7005
▁mulatto	-11.7005
▁mushroom	-11.7005
▁musicmusic	-11.7005
▁nectar	-11.7005
▁negotiating	-11.7005
▁neighbourhood	-11.7005
▁niebold	-11.7005
▁nincompoop	-11.7005
▁obedience	-11.7005
▁obnoxious	-11.7005
▁occupy	-11.7005
▁ofjail	-11.7005
▁oklahoma	-11.7005
▁opportunities	-11.7005
▁orleans	-11.7005
▁outstanding	-11.7005
▁paddle	-11.7005
▁participate	-11.7005
▁peekajoo	-11.7005
▁pentagon	-11.7005
▁persuasion	-11.7005
▁phenomena	-11.7005
▁physician	-11.7005
▁pianoforte	-11.7005
▁piccoletto	-11.7005
▁pipeworkers	-11.7005
▁platinum	-11.7005
▁pluto	-11.7005
▁poochie	-11.7005
▁possibilities	-11.7005
▁quaffle	-11.7005
▁qualities	-11.7005
▁refrain	-11.7005
▁register	-11.7005
▁religious	-11.7005
▁representative	-11.7005
▁repulsive	-11.7005
▁richmond	-11.7005
▁sanctuary	-11.7005
▁sangimel	-11.7005
▁savior	-11.7005
▁scarecrow	-11.7005
▁scrunchie	-11.7005
▁scullery	-11.7005
▁semester	-11.7005
▁sensitive	-11.7005
▁separating	-11.7005
▁serpent	-11.7005
▁shanghai	-11.7005
▁significant	-11.7005
▁sludge	-11.7005
▁snores	-11.7005
▁solitary	-11.7005
▁sparrow	-11.7005
▁sprinkle	-11.7005
▁squeaks	-11.7005
▁stammering	-11.7005
▁stammers	-11.7005
▁strategi	-11.7005
▁stuttering	-11.7005
▁suffocating	-11.7005
▁surprising	-11.7005
▁surveillance	-11.7005
▁sussex	-11.7005
▁swahili	-11.7005
▁sweepstakes	-11.7005
▁swoon	-11.7005
▁tasokare	-11.7005
▁taxicab	-11.7005
▁tennyson	-11.7005
▁thrilled	-11.7005
▁tombstone	-11.7005
▁trespasse	-11.7005
▁tuition	-11.7005
▁tydirium	-11.7005
▁ungrateful	-11.7005
▁unravel	-11.7005
▁upriver	-11.7005
▁volunteered	-11.7005
▁wardrobe	-11.7005
▁wijnsto	-11.7005
▁yippee	-11.7005
▁zoinks	-11.7005
▁zombie	-11.7005
▁absorb	-11.7005
▁alchem	-11.7005
▁billionaire	-11.7005
▁diagram	-11.7005
▁discriminat	-11.7005
▁dublin	-11.7005
▁fortress	-11.7005
▁gibson	-11.7005
▁greece	-11.7005
▁handmedown	-11.7005
▁imperfect	-11.7005
▁impound	-11.7005
▁imprison	-11.7005
▁intrusion	-11.7005
▁jewellery	-11.7005
▁kwame	-11.7005
▁livelihood	-11.7005
▁lizzie	-11.7005
▁mariachi	-11.7005
▁minimal	-11.7005
▁monguer	-11.7005
▁necklace	-11.7005
▁ornament	-11.7005
▁oxygen	-11.7005
▁puppies	-11.7005
▁quincy	-11.7005
▁railway	-11.7005
▁reptile	-11.7005
▁solberg	-11.7005
▁stunning	-11.7005
▁transfus	-11.7005
▁transition	-11.7005
▁trophy	-11.7005
▁whitman	-11.7005
▁wrappings	-11.7005
▁yidont	-11.7005
▁youknowwh	-11.7005
published	-11.7005
▁bentley	-11.7005
▁blackmail	-11.7005
▁britain	-11.7005
▁charisma	-11.7005
▁climate	-11.7005
▁dizzy	-11.7005
▁hallucinat	-11.7005
▁hotshot	-11.7005
▁identical	-11.7005
▁inmediat	-11.7005
▁ireland	-11.7005
▁jigs	-11.7005
▁melanchol	-11.7005
▁oyster	-11.7005
▁poodle	-11.7005
▁prostate	-11.7005
▁shivering	-11.7005
▁squirt	-11.7005
▁tumbl	-11.7005
▁twinkle	-11.7005
▁wrench	-11.7005
▁offence	-11.7005
▁waffle	-11.7005
▁agitate	-11.7005
▁aqui	-11.7005
▁dispute	-11.7005
▁donut	-11.7005
▁hayworth	-11.7005
▁japan	-11.7005
▁marrow	-11.7005
▁sidney	-11.7005
▁surgeries	-11.7005
▁austin	-11.7005
▁barracks	-11.7005
▁cynic	-11.7005
▁eusie	-11.7005
▁frolic	-11.7005
▁intima	-11.7005
▁jefferson	-11.7005
▁polish	-11.7005
▁prank	-11.7005
▁properties	-11.7005
▁reliable	-11.7005
▁singular	-11.7005
▁terminal	-11.7005
iquette	-11.7005
▁bleating	-11.7005
▁colleen	-11.7005
▁farroni	-11.7005
▁figment	-11.7005
▁inflat	-11.7005
▁sixteen	-11.7005
▁stabb	-11.7005
▁storage	-11.7005
▁bedevere	-11.7005
▁complications	-11.7005
▁irritat	-11.7005
▁aisle	-11.7005
▁chores	-11.7005
▁iki	-11.7005
▁tissue	-11.7005
▁unjustly	-11.7005
▁fudge	-11.7005
▁heap	-11.7005
▁niko	-11.7005
▁panties	-11.7005
▁torso	-11.7005
▁amba	-11.7005
▁moondance	-11.7005
▁tracy	-11.7005
▁granger	-11.7005
▁cuz	-11.7005
▁dazzle	-11.7005
▁pillar	-11.7005
▁douglas	-11.7005
▁linkav	-11.7005
▁stench	-11.7005
▁tangle	-11.7005
▁ufo	-11.7005
▁cherries	-11.7005
▁disarm	-11.7005
▁hamps	-11.7005
▁lzma	-11.7005
▁practis	-11.7005
▁jeffries	-11.7005
▁unseen	-11.7005
▁herbert	-11.7005
▁howre	-11.7005
▁characteristics	-11.7005
▁crud	-11.7005
▁vanishing	-11.7005
▁zeus	-11.7005
▁warrant	-11.7005
▁beattie	-11.7005
▁cartoon	-11.7005
▁dairy	-11.7005
▁fiesta	-11.7005
▁oaf	-11.7005
▁rascal	-11.7005
▁klan	-11.7005
▁luncheon	-11.7005
▁chord	-11.7005
▁loaf	-11.7005
▁martha	-11.7005
▁sketch	-11.7005
▁whaaa	-11.7005
▁clerk	-11.7005
▁hostages	-11.7005
▁sassy	-11.7005
▁reich	-11.7005
▁chlorine	-11.7005
▁microwav	-11.7005
▁devin	-11.7005
▁eighteen	-11.7005
▁fliers	-11.7005
▁serial	-11.7005
itzer	-11.7005
▁goverment	-11.7005
▁peasant	-11.7005
▁idiom	-11.7005
▁vase	-11.7005
▁anarch	-11.7005
▁stephans	-11.7005
▁mormo	-11.7005
▁vato	-11.7005
▁strawberry	-11.7005
▁slipping	-11.7005
▁bouncing	-11.7005
▁duct	-11.7005
▁stomp	-11.7006
▁foyer	-11.7006
▁swine	-11.7006
▁staines	-11.7006
▁yarn	-11.7006
▁facing	-11.7006
▁boris	-11.7006
▁retraction	-11.7006
▁lump	-11.7006
opoly	-11.7006
▁thudding	-11.7006
▁cement	-11.7006
▁illusion	-11.7006
▁courtesy	-11.7006
▁thoreau	-11.7006
▁brass	-11.7006
▁defy	-11.7006
▁onions	-11.7006
kansas	-11.7007
▁sensation	-11.7007
monos	-11.7007
bilize	-11.7007
▁slammer	-11.7007
▁version	-11.7007
▁dessie	-11.7007
▁yikes	-11.7007
▁bombard	-11.7007
vard	-11.7008
▁bulg	-11.7008
▁jude	-11.7009
llivan	-11.7009
▁vaca	-11.7009
erogat	-11.7009
sequen	-11.701
▁doodle	-11.701
▁reef	-11.7011
▁kurt	-11.7013
▁aqua	-11.7015
▁fiinal	-11.7016
▁prosecut	-11.7017
southwest	-11.7021
▁hologra	-11.7021
bula	-11.7024
limey	-11.7025
dadada	-11.7031
▁plainti	-11.7034
▁debat	-11.7045
etched	-11.7051
ubtle	-11.7064
epsi	-11.7065
▁oversize	-11.707
lusions	-11.7071
buggy	-11.7085
▁berli	-11.7116
▁slit	-11.7121
oggy	-11.7194
aurus	-11.722
infect	-11.7245
given	-11.7256
ayah	-11.7947
where	-11.8091
marco	-11.8408
▁celebrat	-11.8431
▁adventur	-11.8636
romania	-11.8656
privileged	-11.8815
▁fiddl	-11.8928
breaker	-11.9326
ldie	-11.9515
▁appreciat	-11.9525
directly	-11.9551
ouncy	-11.9582
annihilation	-11.9813
climber	-11.9859
cooked	-11.9891
▁cough	-11.9945
▁circumstance	-12.0016
▁determin	-12.021
keeper	-12.0232
rivi	-12.0246
▁defens	-12.0253
▁squawk	-12.0268
▁applaud	-12.0269
▁isolat	-12.0284
▁influen	-12.029
▁worrie	-12.0298
cream	-12.0301
authorized	-12.0306
julio	-12.0306
location	-12.0306
▁forgiv	-12.0307
civil	-12.0307
columbia	-12.0308
natural	-12.0308
john	-12.0308
bottom	-12.0308
finished	-12.0308
major	-12.0308
control	-12.0308
blood	-12.0308
married	-12.0308
floor	-12.0308
course	-12.0308
dead	-12.0308
chief	-12.0308
▁swam	-12.0309
▁infinite	-12.0318
▁bompos	-12.0319
describ	-12.0324
▁skelet	-12.0325
ecution	-12.0325
▁trait	-12.0326
▁reveren	-12.0327
▁italia	-12.0328
▁custo	-12.0329
▁archaeologi	-12.0332
▁intent	-12.0333
▁eviden	-12.0335
▁initiat	-12.0335
▁ordina	-12.0336
▁mysteri	-12.0336
▁outrage	-12.0336
▁differ	-12.0337
excus	-12.0337
tinct	-12.0338
▁intellect	-12.0338
▁bamboo	-12.0338
hazar	-12.0338
iglie	-12.0338
▁concussi	-12.0338
▁recollect	-12.0338
alignment	-12.0338
compensate	-12.0338
doubledgoddamn	-12.0338
hydraulic	-12.0338
itititito	-12.0338
javajavajavajava	-12.0338
responsibilities	-12.0338
tiktik	-12.0338
▁abroad	-12.0338
▁accordance	-12.0338
▁accurate	-12.0338
▁acrobat	-12.0338
▁admirable	-12.0338
▁amnesia	-12.0338
▁animatronic	-12.0338
▁anthrax	-12.0338
▁anticipat	-12.0338
▁apprehend	-12.0338
▁armistead	-12.0338
▁attorney	-12.0338
▁babbling	-12.0338
▁barbados	-12.0338
▁barcelona	-12.0338
▁beauties	-12.0338
▁beddybye	-12.0338
▁beethoven	-12.0338
▁berries	-12.0338
▁blended	-12.0338
▁bludger	-12.0338
▁bongogram	-12.0338
▁bourgeois	-12.0338
▁brunette	-12.0338
▁burghard	-12.0338
▁canadian	-12.0338
▁candidate	-12.0338
▁cantaloupe	-12.0338
▁cartilage	-12.0338
▁certificate	-12.0338
▁chimney	-12.0338
▁clayface	-12.0338
▁clovis	-12.0338
▁cocacola	-12.0338
▁cockteaser	-12.0338
▁cognac	-12.0338
▁colleague	-12.0338
▁compartment	-12.0338
▁competitive	-12.0338
▁competitor	-12.0338
▁compound	-12.0338
▁conformity	-12.0338
▁confusing	-12.0338
▁congratulate	-12.0338
▁contemplat	-12.0338
▁conundrum	-12.0338
▁corporal	-12.0338
▁crackalackin	-12.0338
▁croix	-12.0338
▁cucumber	-12.0338
▁cumulonimbus	-12.0338
▁dalembert	-12.0338
▁dandelion	-12.0338
▁dedication	-12.0338
▁delude	-12.0338
▁desperation	-12.0338
▁deteriorated	-12.0338
▁devastate	-12.0338
▁devastating	-12.0338
▁diabolical	-12.0338
▁dilemma	-12.0338
▁diminish	-12.0338
▁disciple	-12.0338
▁dishonor	-12.0338
▁dishwasher	-12.0338
▁disillusion	-12.0338
▁disloyal	-12.0338
▁dismount	-12.0338
▁disneyland	-12.0338
▁displeased	-12.0338
▁distribute	-12.0338
▁dormitories	-12.0338
▁download	-12.0338
▁dynamic	-12.0338
▁dynasty	-12.0338
▁embalm	-12.0338
▁enlighten	-12.0338
▁ensign	-12.0338
▁enthusiastic	-12.0338
▁entrusted	-12.0338
▁epidemic	-12.0338
▁episcopalians	-12.0338
▁escobar	-12.0338
▁eunuch	-12.0338
▁evaluat	-12.0338
▁exaggerat	-12.0338
▁exemplary	-12.0338
▁expires	-12.0338
▁expulsion	-12.0338
▁extinguish	-12.0338
▁extortion	-12.0338
▁extravagance	-12.0338
▁ezylryb	-12.0338
▁fantasies	-12.0338
▁fascist	-12.0338
▁fingertips	-12.0338
▁fodder	-12.0338
▁fonnard	-12.0338
▁freckle	-12.0338
▁frequencies	-12.0338
▁frigid	-12.0338
▁frustrating	-12.0338
▁furniture	-12.0338
▁galaxies	-12.0338
▁giulietta	-12.0338
▁giuseppe	-12.0338
▁glimpse	-12.0338
▁gloomy	-12.0338
▁gonzalez	-12.0338
▁gradually	-12.0338
▁granddaughter	-12.0338
▁grimble	-12.0338
▁grumbling	-12.0338
▁guadalupe	-12.0338
▁haarlem	-12.0338
▁heaviness	-12.0338
▁hermia	-12.0338
▁hollister	-12.0338
▁honolulu	-12.0338
▁hovitos	-12.0338
▁hurricane	-12.0338
▁hypnoti	-12.0338
▁iggy	-12.0338
▁ignoring	-12.0338
▁immature	-12.0338
▁inclination	-12.0338
